Weights from input to hidden layer.
0.1614573;-0.3181955;-0.05591279;-0.06118685;0.04263554;0.40006605;-0.6654141;-0.04256568;-0.49917015;0.026699692;0.40374467;-0.7196858;0.05469395;-0.02993067;0.60218704;0.054428544;-0.045374054;0.297995;0.26568058;-0.115115725;0.51155734;0.1868772;-0.12581111;0.13879253;-0.02429825;-0.020511787;0.04180829;0.7894306;0.16572194;-0.050849754;0.39172944;0.16228856;-0.43668097;0.0050172117;-0.033535425;-0.024285847;-0.03359356;0.100958176;0.52757645;0.52735305;0.067000575;0.01984723;0.32366842;-0.67595804;-0.21756232;0.65617377;-0.08986295;0.21222228;0.035134763;-0.26094866;0.022328544;0.03354852;-0.042132184;0.275754;0.4117807;0.03756325;0.16851014;0.29161343;-0.0030234603;-0.0017137957;0.071615025;-0.34995762;-0.00794374;0.03810342;0.367089;-0.7169792;-0.012151979;-0.055932906;-0.049597222;-0.20465685;0.4494757;0.02619715;0.6685272;0.21054254;-0.54433566;0.025837924;-0.16066901;0.5974103;0.020933088;0.36312523;-0.0849529;0.09146671;0.03996165;0.21734028;0.43935964;-0.3441632;0.0034744411;-0.41818878;0.0019437281;0.046505343;0.47721717;0.020591589;-0.13244946;0.256886;0.64056975;0.48240653;0.7272435;0.33802882;0.70547444;-0.21845418;0.4846678;0.20437527;-0.3864127;0.6201982;-0.11028127;-0.08990202;0.20619655;-0.20600253;0.5262438;-0.11322574;-0.07089862;-0.45177;-0.077701166;0.03621938;0.52782565;-0.013060129;0.007589024;-0.19228847;-0.3644083;-0.015330646;-0.5996511;-0.08262468;0.17438793;-0.42711127;0.82907057;0.6985762;-0.88512707;0.8129104;0.1285927;0.08719601;-0.16122937;-0.18227091;-0.046658207;-0.0088326605;-0.30228773;-0.027554335;-0.14298545;-0.11187726;0.19291511;-0.024213625;-0.055545688;0.39976037;0.514685;0.39216876;0.5107225;0.076802;0.07364504;-0.025533346;-0.22655347;-0.22834529;0.047528975;0.4833087;-0.5650035;-0.23770742;-0.055268563;-0.15643564;0.12502305;0.112853035;-0.053215764;-0.5023227;-0.39176285;0.08104809;-0.50056756;-0.015387518;-0.051497627;0.7098527;0.011288789;-1.2609102;-0.108347625;0.0046188007;0.18118708;-0.025324179;0.1149186;-0.45868307;0.54377717;0.4272645;-0.043749772;0.36634594;0.74567133;-0.03344844;0.0016250358;0.04458354;-0.12896793;-0.4333752;0.10820571;0.2554929;0.082457386;0.42168415;-0.1530832;0.03656598;0.4887648;0.65675575;0.9426796;-0.033499848;-0.04667266;1.0054907;0.087663725;0.3417424;0.5332494;0.42790207;0.3306541;0.66641194;0.24991694;-0.7442257;0.17049333;0.030371878;-0.6536092;-0.4036887;-0.63277876;-0.19969805;0.85108596;0.5543157;-0.302869;0.023505656;-0.009884073;-0.012034504;0.15694737;0.82825637;-0.29088032;0.031618543;0.5369626;0.16160798;-0.66579676;0.022475854;-0.26443595;0.8146696;-0.5136093;-0.15983742;0.6256089;0.030355107;0.25191912;-0.009940141;-0.66793704;0.6171682;0.25202525;-0.30229276;-0.19657248;-0.020192763;-0.30220962;0.048561636;0.068500444;-0.7081451;0.20838031;0.07468626;0.15061001;-0.044011597;-0.38988763;-0.22020222;-0.010406223;0.00011099798;0.54592925;-0.052691326;0.34553823;-0.32444912;0.08850684;0.030417718;0.4457006;0.2256861;0.019009259;-0.012266869;0.0914536;-0.63486487;0.011430366;-0.06279934;-0.073575646;-0.031577323;0.4600479;0.5070531;0.060701936;-0.1855736;-0.14074068;-0.2723377;0.4070066;-0.13552062;0.04407207;0.02484172;0.71142817;0.5914289;-0.0019022303;0.0040175435;-0.052096434;-0.08660421;0.1498669;-0.056029856;-0.21744965;-0.08650013;0.096396916;-0.73205376;0.0047047585;-0.16123462;-0.2911138;0.020258939;-0.2067479;-0.8616005;0.40751234;-0.15783247;0.9480887;0.37412536;0.06120324;0.0127324;0.046581607;-0.018901028;0.017833073;0.02699627;0.3002894;0.8686659;-0.116503045;-0.061474886;-0.34031677;0.8029112;0.35020563;-0.026957082;0.22292598;-0.011854485;0.43735737;-0.015779845;0.45458364;-0.038390994;0.12440671;0.08880445;0.5219271;0.5373949;0.29764098;0.023204211;-0.11689019;-0.094746105;-0.026749818;0.054720934;-0.6741912;0.012472869;-0.059537414;-0.046968106;0.014036179;0.10044624;-0.27418905;0.0033288873;0.23023157;0.4054918;-0.6085289;-0.06878103;0.03913251;-0.075375535;-0.14500195;0.12384485;0.6281087;0.04340789;-0.41555464;0.11871243;0.31912237;-0.0060745776;0.031088514;0.057677716;-0.040530473;0.8830199;-0.003981608;0.54265827;-0.48076007;0.4218237;0.09289221;-0.00082381506;0.018598106;-0.033670843;0.39252573;0.061351027;-0.03319643;0.027440367;0.23608012;0.518603;-0.24780312;-0.36050698;-0.03380896;-0.019379685;-0.009008514;-0.5764127;-0.018362148;0.042018317;-0.050946202;-0.44535282;0.13692582;-0.19358692;-0.40364593;0.59857976;0.126598;0.5058507;0.09304579;-0.3561659;0.41184413;0.20594127;0.30063835;0.77704996;-0.16086107;-0.0015014728;0.031548593;0.037969507;-0.20860279;0.59679604;0.05491919;-0.05873167;-0.08695414;0.0003377575;-0.5370654;0.17979817;0.34644794;-0.047576375;-0.43335596;-0.020471787;0.19209823;0.11322615;0.59467876;-0.07100643;0.5782231;0.04880329;-0.13715458;-0.035671346;0.61998636;0.3831101;-0.8127774;1.1288793;-0.5296149;0.58217585;0.4169104;1.2113928;0.046816718;-0.1497197;0.3325452;-0.36412913;0.20450036;0.048303653;-0.6206016;0.032750897;0.21636209;0.13088588;0.65494543;0.02879234;0.52246404;-0.029810103;-0.025082737;0.0027302718;0.2496814;0.02274554;0.005375023;0.0004413206;0.6807381;0.019850709;-0.7546281;-0.00054120726;0.1119746;-0.060869694;0.06453713;0.054652013;0.6471328;0.41846213;0.021377133;-0.4458866;0.0795509;-0.002110963;-0.20664218;0.24812613;0.37646872;0.21325418;0.36204267;-0.011273234;-0.41367704;0.015526687;-0.0835759;-0.08123434;0.5233243;0.031050013;0.112237126;0.49845;0.22397454;-0.38666898;0.08202075;0.5551469;0.55910313;0.46147263;0.05778157;0.2455438;0.06504443;0.36837113;-0.0676784;-0.009863253;-0.028123518;0.0012181449;0.037472267;-0.010509394;0.25217667;0.05438608;-1.1166484;-0.06820955;0.45397165;0.20405382;0.009218943;-0.9425309;-0.07851766;-0.12417937;-0.002128903;0.06866896;0.83589274;-0.066587806;0.09454567;-0.4750468;0.43645167;-0.43641055;0.0015229915;-0.09528053;-0.0046908623;-0.041787636;-0.09812094;0.3725235;0.22380483;-0.55022293;-0.006975496;-0.044674687;0.7488554;0.06376982;-0.2853907;-0.1111483;0.40428433;-0.047120955;0.70508623;-0.01019813;-0.41971523;0.54838794;-0.098055094;0.03024776;0.96531314;0.71106386;0.095583186;-0.027166067;0.16480775;-0.5126027;-0.470075;-0.15496339;-0.08180776;0.001778341;-0.02562814;0.45360824;-0.07118817;-0.34242064;-0.5155236;0.013606522;-0.00901848;0.1473442;0.030317755;0.37589383;-0.58136797;0.66789424;0.0015147805;-0.12255353;0.018285317;0.3416781;0.12906349;0.15432708;0.07901219;-0.4927359;-0.29604924;0.12288233;-0.39132997;0.4042554;-0.25045907;0.28754896;0.19701585;0.015509426;0.30224398;-0.028881548;0.16888933;-0.006598906;0.007439339;0.21648437;-0.89939165;0.7370975;-0.09201931;-0.4102317;0.0024940534;0.2700321
0.076146014;-0.05594994;0.0034035493;-0.11306082;-0.020034805;0.26649734;-0.7109123;0.048967317;-0.23891474;-0.10260842;0.28766695;-0.639844;-0.0034075745;-0.030376246;0.49451917;-0.099418096;-0.00453049;0.27012953;0.18016258;-0.010127702;0.24824888;0.08739721;-0.11225226;0.09759165;0.0022153256;0.16473462;-0.091164075;0.6777795;0.23795731;0.0048524505;0.2485913;-0.019232653;-0.2627435;-0.092839755;-0.013358602;0.04607407;-0.070072144;0.22906156;0.3434963;0.3642145;-0.015097222;-0.06253956;0.26694673;-0.5649639;-0.009789444;0.4900075;-0.06777828;0.078714356;-0.013423279;-0.20326813;-0.0067728893;0.023305513;0.08136019;0.5210295;0.6056502;0.015211378;0.30584037;0.183244;-0.042306326;-0.026521873;-0.04538083;-0.24896789;0.011592396;0.0048052315;0.20376122;-0.73175466;-0.02201089;-0.1914219;-0.05373909;-0.02737785;0.3574294;-0.04356591;0.45686117;0.039877754;-0.6714469;-0.057526443;-0.13938063;0.46623263;0.032407135;0.25648946;-0.0030195313;0.33092067;-0.015269514;0.061056856;0.1979861;-0.28361037;0.058146916;-0.054952882;0.076915294;-0.049502335;0.4883982;0.0229283;-0.21313089;0.29253715;0.69145733;0.43944472;0.44050187;0.3896053;0.5640339;-0.015189392;0.2907528;0.041494165;-0.26152802;0.45655987;-0.05686996;-0.19376215;0.03120786;-0.015779175;0.27656087;0.25656378;-0.35453448;-0.18261202;0.084102385;0.24820735;0.4359427;0.067351334;0.008884016;-0.32153687;-0.26930144;0.07632076;-0.50031245;0.0026070892;0.24593034;-0.4343534;0.56667346;0.36112565;-0.8392428;0.5318304;0.015048931;0.22706792;-0.19856663;-0.3341254;0.16866846;0.022694804;-0.10550872;0.0038738598;0.033209886;-0.0011621957;0.40702763;-0.08162559;-0.019408219;0.49358812;0.3770428;0.32155687;0.46002457;-0.0011601697;-0.07533701;-0.024148775;-0.18629104;-0.233824;0.01310748;0.13968833;-0.39320678;-0.14459118;0.013830706;-0.06081638;-0.02613757;-0.023789283;-0.046092536;-0.46141753;-0.50180995;0.20283963;-0.38731104;-0.011524168;-0.031090485;0.43703863;0.0067053647;-1.233203;-0.03143679;0.22603205;0.40183052;-0.017782236;0.16849981;-0.49204323;0.44566163;0.21289149;-0.068254575;0.40782946;0.52431494;-0.043238092;-0.01887224;-0.03183295;-0.08061941;-0.5520691;0.0013334061;0.02799826;0.043152973;0.20492193;-0.09242061;-0.00066010666;0.28461477;0.5180644;0.73375815;0.0051596514;0.18045829;0.7573453;0.1747083;0.12659481;0.40166557;0.14041294;0.33803502;0.5370106;0.055230133;-0.54272753;0.2709986;-0.17119567;-0.5249601;-0.20540148;-0.40777862;-0.27346757;0.5811615;0.27318165;-0.11139849;-0.051149745;-0.052323367;0.06119457;0.45550454;0.65999335;-0.110526696;0.11890552;0.40838906;0.04115584;-0.38611403;0.019537134;-0.41219467;0.56265;-0.52992934;-0.23946404;0.5838482;0.034826163;0.093563;0.24849498;-0.5800435;0.37612402;0.13926245;-0.33486992;-0.19767427;0.064403206;-0.1744213;0.18224415;0.29558516;-0.5367521;0.24827841;-0.035337042;-0.1096734;0.06485676;-0.3366225;-0.4221439;-0.02538662;-0.006494685;0.45254835;0.062204514;0.2706232;-0.22648235;0.022337906;0.1916787;0.49376118;0.22109368;-0.034916274;0.060072184;0.008383192;-0.30059046;-0.02362116;-0.07009609;-0.052270196;-0.1432015;0.33524233;0.29474834;0.2680176;-0.056026626;-0.18515399;-0.44049007;0.23977734;-0.27467796;0.010780094;-0.04168647;0.56028134;0.4392289;-0.08288149;0.059318334;0.013507442;-0.115434535;0.062242318;-0.10800995;-0.027881958;0.100536026;0.034693755;-0.47418708;0.032455772;-0.15456371;-0.17256142;0.06725025;0.07799439;-0.564129;0.2750637;-0.20767593;0.66335255;0.19378434;0.06912056;0.007483001;-0.061768133;0.049986914;0.014986689;-0.06943738;0.102170885;0.69663143;-0.1078522;-0.050318234;-0.34491956;0.61166656;0.17024785;0.004624375;0.3974398;-0.026061723;0.04583625;-0.05609844;0.24995261;0.11299718;0.16522935;-0.0104175825;0.3162669;0.45945305;0.26983684;-0.06518755;0.0317001;-0.19536331;-0.109250955;-0.023238687;-0.6917966;-0.050974593;0.0053084753;0.047087558;0.0015503833;-0.049518704;-0.34217036;-0.002944576;-0.009319493;0.22331873;-0.6498592;0.005700949;0.010027005;0.03005339;0.017576467;0.3957486;0.24968524;0.061982308;-0.26962915;0.11474279;0.23770699;-0.008221102;-0.014157717;0.11109381;0.08209043;0.66326976;0.010724483;0.4066024;-0.5089345;0.15456447;0.32740888;-0.19049512;0.01685305;0.030740645;0.28677553;0.15689832;-0.02934206;-0.05301872;0.2783401;0.26877436;-0.15590744;-0.47578135;-0.0057598753;0.024065705;0.03319125;-0.72701055;0.13271785;-0.059451643;0.21121502;-0.44994324;0.14912874;-0.09569783;-0.30383995;0.545273;0.17627743;0.26212496;0.018979095;-0.31580302;0.5528535;0.036156062;0.19857334;0.4856364;-0.29804242;-0.06737636;0.016860059;0.117139906;-0.06549498;0.46740687;0.046829186;0.0075190584;0.010277497;0.057205956;-0.6248793;0.15605095;0.28708974;-0.06636464;-0.49332103;-0.029119192;0.1994843;0.20566055;0.34411415;-0.027263753;0.23129392;0.2506709;-0.26729587;-0.05373162;0.46580315;0.34101427;-0.74148774;0.97781557;-0.304482;0.26265368;0.28329018;0.8428914;0.0012324834;0.047137614;0.2425186;-0.22541861;0.23723944;0.1633737;-0.49430797;-0.060964286;0.041283898;0.021424541;0.5808757;0.19969444;0.42065078;-0.07181479;0.0017938246;-0.042434245;0.47866803;-0.04408468;-0.05079195;-0.12481093;0.4934075;-0.09589861;-0.6902775;-0.031173065;0.044487033;-0.14556795;0.03499657;-0.09692557;0.49436796;0.3059621;-0.011702782;-0.25222772;0.07288856;0.00882878;0.055843275;0.16212532;0.27332115;0.12253524;0.2835372;-0.0072621247;-0.5236968;-0.012164998;0.023688275;0.010734256;0.3671754;0.035148345;0.27972516;0.22924209;0.02573969;-0.2893135;0.050902292;0.3121584;0.31101108;0.31052813;0.08462988;0.18422386;0.023816649;0.18609557;-0.035219274;-0.08455063;-0.014162456;-0.024196101;-0.01888019;0.037866127;0.27129492;0.10451226;-0.951801;0.14386405;0.24527572;0.061259236;-0.053324405;-0.9320278;-0.077111214;-0.0481073;0.22491395;-0.1451623;0.5632724;-0.10732935;-0.040388655;-0.5370974;0.3679902;-0.18495438;0.081482634;-0.018951442;0.016376097;0.059126813;0.0025753882;0.33579302;0.02968623;-0.5164341;0.017568443;-0.024324998;0.49020234;-0.069039084;-0.023387924;-0.23035389;0.14977756;0.019584307;0.49354306;-0.042764146;-0.2891374;0.4723114;0.016312703;0.040083714;0.94050306;0.5382392;-0.13610548;-0.052212834;0.3734459;-0.44249937;-0.27418873;-0.23252232;0.00056338264;-0.02283078;-0.012807695;0.6027566;0.15401152;-0.114804916;-0.44506785;-0.015304592;0.09111728;0.0028598767;-0.13390715;0.19106126;-0.45873752;0.5603351;-0.074531645;0.06881141;0.021622235;0.22455727;-0.014887094;0.07602485;-0.03631257;-0.1903782;-0.28514525;0.29075134;-0.33317822;0.2245634;-0.16541898;0.21506897;0.10994648;0.0073801377;0.14144057;-0.16534105;0.19343099;0.0071747564;-0.032320272;0.12748334;-0.8193352;0.630912;0.15795395;-0.36404648;0.050628863;0.5787722
0.27283922;0.055183798;-0.014506322;-0.19176488;0.033164173;0.1326274;-0.5737509;-0.045590375;-0.16359417;0.057273164;0.25450784;-0.50805634;0.049485903;0.013360028;0.5511269;-0.045815773;0.025737623;0.41773075;0.22512239;0.02504328;0.19980909;0.114190415;-0.0643975;0.13732003;0.007681906;0.3305328;0.047121167;0.42296192;0.26850143;-0.028794132;-0.009657037;0.10924663;-0.11695364;0.03318135;0.037199706;-0.05652113;0.010273905;0.40045044;0.26817462;0.4568032;0.09258976;-0.09378173;0.1395254;-0.5355169;0.046732284;0.41315484;-0.03695417;0.0076058926;-0.05091299;-0.32101536;0.027560977;0.20396096;0.07952817;0.48258173;0.7946878;-0.05096771;0.16968597;0.19570836;-0.0062479824;0.07755441;0.053548396;-0.25929528;-0.04129904;-0.011316271;0.21081726;-0.53502196;-0.022506237;-0.15291497;0.08801667;-0.008530499;0.39051792;-0.0031286795;0.45444494;0.16775705;-0.63703656;0.056049682;-0.005775131;0.3760078;-0.022510778;0.124584146;0.02448946;0.3291354;-0.019898057;-0.09053647;0.16680357;-0.23951307;-0.011464189;0.03433816;-0.05928431;-0.0076473923;0.3663969;-0.009617133;-0.019396769;0.24360436;0.5653004;0.46767148;0.3834496;0.5372475;0.42899233;-0.16973375;0.24719314;0.078378975;-0.17958863;0.24037181;0.07254236;-0.24439177;-0.11093855;-0.022053223;0.1518563;0.35146683;-0.37161678;-0.1035559;0.06663833;0.19271056;0.24901684;-0.076655075;-0.041346043;-0.30021617;-0.16612287;0.049058214;-0.40950948;0.19050789;0.11882678;-0.43018866;0.50617343;0.31456894;-0.59200406;0.4973845;-0.08189768;0.32927543;-0.28487983;-0.19202751;0.35962307;-0.027013395;-0.06155729;0.034187365;0.097947486;-0.0818431;0.34548974;0.0074476902;0.03092996;0.48763618;0.28371853;0.30647036;0.28862083;-0.06360391;0.028607152;-0.0038038765;-0.12806621;-0.24478705;-0.024210025;0.06418098;-0.38980106;-0.07213834;0.063716486;-0.045173127;-0.061458092;-0.0642647;0.06662813;-0.38180655;-0.41591358;0.2219452;-0.38788038;0.027003037;-0.04623164;0.49367642;-0.027992398;-0.99181074;0.17983992;0.22194654;0.31166008;-0.03628426;0.21524705;-0.35142443;0.39012033;0.03156445;-0.1373136;0.34352988;0.5795376;0.074151255;0.03990301;-0.05199223;-0.12103507;-0.50782555;-0.052896436;0.07036522;-0.006095934;0.15864661;-0.07016606;-0.009580659;0.09102413;0.46833625;0.60792625;-0.054424573;0.16551933;0.79715395;0.20827068;0.10423226;0.39143;-0.029954303;0.28518838;0.41576767;-0.0492272;-0.5272897;0.3060265;-0.14337242;-0.49371374;-0.09536915;-0.41402534;-0.3965415;0.44155604;0.30693525;0.02064754;-0.036477685;-0.011126219;-0.03547706;0.52107596;0.7202202;-0.064314954;0.114695586;0.3432154;-0.116417214;-0.27447894;-0.08905331;-0.21402402;0.5392329;-0.68124616;-0.28259802;0.44072652;0.043657523;0.036318704;0.31028965;-0.41785333;0.38618442;0.080402575;-0.4260521;-0.1614029;-0.06919606;-0.15111011;0.16163081;0.29800507;-0.5077461;0.25590914;-0.06756778;0.055050895;0.18366624;-0.26553634;-0.40599397;0.034681547;0.10613895;0.29567093;-0.019631822;0.24861768;-0.20139013;-0.042353418;0.28486487;0.38152573;-0.008825589;0.06555559;0.01709472;-0.005116944;-0.3114026;0.0025520888;0.055764727;0.08598177;-0.017095482;0.3176788;0.34086958;0.4231568;0.03002255;-0.14515704;-0.30394137;0.09289462;-0.2940517;-0.047554076;-0.063830666;0.44467553;0.29797488;0.0143458005;-0.04326554;-0.053058196;-0.10812709;0.00048622888;-0.04607292;-0.038983367;0.042537298;0.0029188022;-0.24694753;-0.04654596;-0.26459438;-0.22155891;0.10887444;0.07263069;-0.53439176;0.26641634;-0.28529376;0.54516333;0.13877396;-0.062233616;0.0064001954;-0.049206454;0.044591293;-0.036224607;-0.058504418;0.17588137;0.5543456;0.036866132;-0.084581316;-0.2467846;0.61270887;0.23527916;0.017230598;0.44581482;0.030777093;-0.071607135;0.09291795;0.17319421;0.26736167;0.13733882;-0.067589976;0.35586932;0.46277666;0.29575792;0.060511593;0.045709606;-0.13633834;-0.10555956;0.03064081;-0.6411616;-0.014676034;-0.037578523;0.05049383;-0.070832625;0.055211946;-0.3852371;0.04592108;-0.106621645;0.2855649;-0.68272734;-0.05111275;0.009637492;0.13583656;0.090889215;0.38488102;0.05950141;0.121311866;-0.19431219;0.06181502;0.081220716;0.058035996;0.013549487;-0.013352736;0.1394725;0.6881597;-0.04394269;0.34373236;-0.47813132;0.2834192;0.23752774;-0.2424697;0.04796746;-0.061630573;0.0736814;0.088741906;0.064729705;0.008772175;0.3393732;0.16735736;-0.13879074;-0.33076206;-0.10639013;0.048720952;0.04635272;-0.609358;0.16043115;0.027540298;0.32282177;-0.25680748;0.1261887;-0.101200856;-0.17930065;0.384684;0.09584293;0.3914241;0.049168006;-0.23567222;0.6055258;-0.04455026;0.27807698;0.4206607;-0.32920673;0.053185817;0.029421762;0.19987836;0.0734513;0.47482404;-0.052990504;0.055436615;0.061477732;-0.013882746;-0.55285364;0.05387011;0.13166483;-0.05288345;-0.29649338;-0.017247654;0.117270015;0.20907122;0.23871636;0.018461123;0.28610897;0.26860127;-0.18290696;-0.036538333;0.27285108;0.19873673;-0.6245129;0.7425884;-0.3934455;0.2537335;0.16851321;0.87562203;0.04663873;0.21822388;0.16225545;-0.29846507;0.22032693;0.2909731;-0.39809173;0.05017647;0.06998686;-0.17106949;0.49302447;0.32242575;0.52561677;-0.15252878;-0.05728291;0.03171042;0.46466118;-0.045248896;0.04920725;-0.014340987;0.567071;0.020113671;-0.5644293;-0.054882575;0.0050491206;-0.19026393;-0.0065287505;0.0074359705;0.29141152;0.36589453;-0.013752681;-0.05290002;-0.07617122;0.08366222;0.11427248;0.23434836;0.11238787;-0.03517096;0.29326156;0.065704994;-0.45434642;0.010359518;0.023328781;0.075028405;0.19385986;-0.047940016;0.35626704;0.15818065;0.08209068;-0.067692906;-0.07164705;0.25761276;0.058182336;0.2704162;0.025030328;0.15507847;-0.08696449;0.15281743;0.068703406;0.04613178;-0.109319404;0.05185326;-0.030230233;0.19502968;0.090700105;0.16695999;-0.94141847;0.047040265;0.23666507;0.052169;0.036879826;-0.82884127;0.035603445;-0.039892897;0.22209348;-0.07492477;0.5169413;-0.17801341;-0.035652038;-0.5373485;0.31828904;-0.03578042;-0.024754483;0.09183996;0.0206499;0.011015632;0.102637246;0.28702855;0.0056752576;-0.5154163;-0.05745073;0.0057211234;0.3382793;0.033215147;0.11167721;-0.21193726;0.03762786;-0.019700792;0.32888645;0.001529021;-0.35174152;0.37083542;0.015835002;0.009828984;0.8317832;0.44435427;-0.12593551;-0.023461776;0.37392938;-0.51027995;-0.30150485;-0.13609916;0.009593266;-0.02123955;0.0333334;0.6209682;0.16529891;0.064265154;-0.3819696;-0.039601073;0.14261253;-0.14396428;-0.13773827;0.07970183;-0.4616779;0.52072746;0.008681634;0.036721207;-0.027440934;0.06968753;-0.035747193;0.028845116;0.01152465;-0.06543725;-0.2638563;0.36439082;-0.2332586;0.20675701;-0.1941332;-0.001602987;0.11882785;-0.0060299914;-0.0008067316;-0.2855969;0.34158584;-0.012853106;-0.002384966;0.20004658;-0.706438;0.48034623;0.23871893;-0.20645116;0.01882606;0.70547426
0.15355444;0.13278912;-0.013922841;-0.09631871;-0.057348512;0.1542552;-0.51752174;-0.048032958;-0.11993565;-0.012945106;0.1398621;-0.4582972;-0.030505663;0.03358031;0.62673354;-0.048983112;0.053678997;0.2959364;0.25462744;-0.05713464;0.29786074;0.16595148;-0.016193105;0.06691342;-0.0007680574;0.2598472;-0.06754132;0.4013112;0.26250795;0.014042019;-0.024859067;0.12840776;-0.030310882;-0.01630063;-0.050844632;0.04191101;0.07284983;0.42426816;0.15346825;0.42019525;-0.09459196;0.022496248;0.25128514;-0.48267928;-0.0518192;0.3086869;0.014657104;0.049541354;0.03821774;-0.28830346;-0.0101952;0.20002522;0.19858968;0.53701764;0.78008926;0.07160982;0.2776514;0.04986161;-0.018546687;-0.018094964;-0.108474925;-0.22381313;0.056773435;-0.025149424;0.19042163;-0.5095683;0.052191064;-0.07915924;0.00203703;0.00094506;0.30766124;0.03574827;0.40429989;0.19745326;-0.6748172;-0.01274023;-0.15512845;0.38335064;0.075976305;0.052153856;0.032938458;0.33915776;-0.06164441;-0.017673917;0.033491608;-0.22613165;0.04944769;0.021930134;0.06699886;0.07993396;0.48067355;-0.013348323;0.09435631;0.3392024;0.5555787;0.4309849;0.1832932;0.48656023;0.25970423;-0.0999624;0.07693068;0.19992775;0.038505517;0.115564756;0.15929204;-0.19693665;-0.051497657;-0.0024953587;0.19451089;0.404022;-0.28333765;-0.103112064;-0.044819225;0.28461394;0.22214833;0.06075267;-0.023486272;-0.26631644;-0.09993702;0.11976005;-0.41819215;0.13114175;0.059866067;-0.35433525;0.25597534;0.077701434;-0.5688807;0.41500095;-0.1334237;0.36409822;-0.3807915;-0.20702307;0.36665842;-0.0026313658;-0.17333966;-0.06283832;0.17472279;-0.004906908;0.32527074;0.017776204;0.023924468;0.47534034;0.19567452;0.2808582;0.31618986;-0.0054446617;0.10831397;0.06399751;-0.011119752;-0.13250141;-0.00031172237;-0.012664051;-0.36466205;0.008360803;0.0051831263;-0.033429276;-0.12313986;-0.13773452;-0.03314133;-0.4456064;-0.2956097;0.25759846;-0.29957998;-0.03938652;-0.058757644;0.35184285;-0.014020676;-0.69523335;0.21036255;0.13102283;0.26877704;0.015388267;0.091620676;-0.32515737;0.37206018;-0.057546586;0.021187648;0.40113994;0.47132632;0.02552091;-0.0071013086;-0.057086274;-0.17437941;-0.3209508;-0.021562692;0.13562357;-0.050874844;0.07715166;-0.025095606;0.0066630766;0.06834751;0.40971842;0.50250626;0.044355053;0.28861353;0.7114681;0.104318894;-0.05095877;0.19095027;-0.0865588;0.30179912;0.48072097;0.003944058;-0.36281788;0.31298035;-0.15350826;-0.3092293;-0.0057754233;-0.34538385;-0.20308712;0.33768624;0.31607598;-0.022914814;0.022451472;-0.0008755633;-0.027245203;0.5094448;0.6219279;-0.034519035;0.09505502;0.3163008;-0.09789283;-0.23754215;0.013297184;-0.121002614;0.34610203;-0.7084568;-0.17410445;0.4801874;-0.048626605;-0.016944105;0.4091743;-0.26537517;0.22726591;0.043185726;-0.30546594;-0.06774205;-0.0034886433;-0.08508085;0.04943148;0.28001854;-0.3793051;0.21968411;-0.049066488;0.018836787;0.30387324;-0.29355457;-0.3572355;0.0017046798;0.1666505;0.19857927;0.008280508;0.09224148;-0.116292074;-0.08146946;0.22212149;0.47258076;0.02900914;-0.05602987;-0.049757794;-0.091913514;-0.15817623;-0.0067156106;-0.031190263;0.07311446;-0.11648759;0.22064753;0.17469344;0.42710763;0.0069696414;-0.13312948;-0.33721048;0.06532202;-0.28904018;0.030096112;-0.021261975;0.3652369;0.13787165;0.034606136;-0.06546145;-0.049201034;-0.092094645;0.039987814;-0.060430128;0.0012996953;-0.06269256;-0.07321001;-0.054185055;0.009358014;-0.1214143;-0.3177561;0.09681787;0.23377438;-0.5766322;0.07441099;-0.06621829;0.31219468;0.25271824;-0.06459709;-0.06884846;-0.044754982;-0.027528308;-0.006818131;-0.020613415;0.25641173;0.43570352;0.017798595;0.029210903;-0.045934096;0.50943005;0.19092025;-0.034679357;0.34029883;-0.010221758;0.004125553;0.11662786;0.26050612;0.18023166;0.20661989;-0.081668474;0.31356415;0.4286501;0.32049215;-0.07587679;0.051935226;-0.0067627267;-0.02822605;-0.025908144;-0.5217609;0.010350382;0.024698233;-0.05175248;0.03460975;-0.05753699;-0.40533432;-0.029667497;-0.11890046;0.28388175;-0.59162205;-0.07190092;0.0150033645;0.22004084;-0.00429796;0.42200428;-0.013205142;0.065983064;-0.17127194;0.029403375;0.0905472;-0.06314994;-0.06427809;0.03283639;0.19090547;0.5337317;0.03737837;0.3167077;-0.44629923;0.3014097;0.3089705;-0.15990175;-0.044150174;0.038650196;0.06945628;0.022811105;-0.009994214;0.023303302;0.37120998;0.2226492;-0.08395315;-0.11970698;0.0061068516;-0.03863611;-0.0024785188;-0.5477545;0.10075847;-0.053099625;0.2938225;-0.31054348;0.14745118;-0.16495124;-0.1975067;0.22360206;0.24696961;0.332988;0.03123103;-0.17380816;0.6862357;-0.044443235;0.21134454;0.288505;-0.40591007;-0.03682842;0.026339492;0.18418041;0.09241587;0.4767733;-0.044618897;-0.022581682;0.011285248;-0.024971196;-0.44299763;0.21859144;0.14395186;0.01814688;-0.32884985;0.04390541;0.21913804;0.14686576;0.06502921;0.016211862;0.24477002;0.09014646;-0.20860371;0.065957166;0.30211294;0.13139631;-0.48480558;0.61598504;-0.31049636;0.18652159;0.18379548;0.77455956;-0.054612882;0.19348253;0.27653918;-0.385263;0.108541116;0.22873297;-0.20441422;0.014690058;-0.012775404;-0.17291594;0.43001232;0.26704076;0.43309626;-0.33110678;-0.0006387812;0.05067782;0.39961553;0.08734656;-0.0642867;-0.004701201;0.6124383;0.07931023;-0.33902895;-0.027471725;0.006833879;-0.119409025;-0.07542939;-0.053835038;0.277074;0.27027074;-0.029789096;-0.018951552;0.012777164;-0.075478405;0.14251728;0.16280168;0.13493757;-0.077916846;0.31930387;-0.057139486;-0.1932705;-0.033580154;-0.03544903;0.17179713;0.12994505;-0.0392223;0.43011227;0.1913914;-0.0018174531;-0.0041394727;-0.05290588;0.09054903;-0.034666076;0.20791066;0.12065404;0.24796191;0.0019832116;0.03834073;-0.04498518;-0.07518096;-0.019036675;0.026746798;-0.034079637;0.13676207;0.14530979;0.12275247;-0.7290712;0.15303688;0.35749018;-0.095460996;0.021834943;-0.583401;0.042094816;-0.003043983;0.29723483;-0.004644547;0.3160669;-0.025754392;0.036307104;-0.46187255;0.27229023;0.09019229;0.017659668;0.071930565;-0.051905178;0.025745459;0.015680917;0.16416416;-0.20766187;-0.3251944;0.0023733082;0.007096589;0.21729116;0.030969752;0.14978957;-0.23611501;0.06466668;-0.06078178;0.39565262;0.06450852;-0.25441146;0.3839368;0.051516354;-0.060516477;0.6970572;0.43771425;-0.2967949;0.007854152;0.2354695;-0.3110584;-0.19839923;0.020017104;-0.07151868;0.04776867;-0.01551885;0.6079189;0.29057437;0.114361025;-0.34832862;-0.05593232;0.07827142;-0.082606666;-0.064933434;0.061539415;-0.46930474;0.50805384;0.04107136;-0.13426986;-0.039499205;0.1325844;-0.07475205;-0.09853927;0.04409722;-0.080822565;-0.1451302;0.33745384;-0.23320878;0.11794945;0.018619185;-0.06342638;0.13063082;-0.030621333;0.002360281;-0.27857584;0.21358636;0.008132142;0.07736646;0.18995515;-0.4699879;0.42365786;0.2830934;-0.113932006;-0.05797354;0.6094553
0.12081187;0.099126905;-0.03146858;-0.20186362;-0.00043875718;0.12688676;-0.36913234;0.081361264;-0.1374973;0.035819918;0.1809164;-0.3220897;-0.01954442;-0.046354655;0.48875424;-0.03440901;-0.08234551;0.37766296;0.2632985;-0.06744811;0.18768841;0.22238159;-0.10863827;0.12438784;0.06826977;0.1807845;0.0628137;0.28270155;0.28510284;-0.116146065;-0.13078772;-0.0492376;0.059958372;0.017358208;0.044917565;-0.05083579;-0.05850932;0.3010724;0.08340293;0.34247473;-0.10128466;0.0692289;0.20365532;-0.37103295;0.04485179;0.41219002;0.0179632;0.03729021;-0.0036571142;-0.36891767;0.07352675;0.29872847;0.21306168;0.662436;0.8391268;-0.008482356;0.25653392;0.08158729;0.011524728;-0.06701084;0.041674104;-0.31037027;0.025099156;-0.035102848;0.20512664;-0.33644316;-0.027800811;-0.033078607;0.014181574;0.038882684;0.17485274;-0.054700863;0.27056897;0.105337545;-0.54243344;-0.035088543;-0.15062831;0.36788163;-0.048081845;0.03780478;0.04901889;0.37817;0.07862458;-0.07909511;0.03021408;-0.06841587;-0.042586233;0.1266507;0.0034728614;-0.071933545;0.39012307;0.021559186;0.065447405;0.23849294;0.5060508;0.37050867;0.2668383;0.34688377;0.24227454;-0.04494665;0.14929304;0.20896298;0.097309425;-0.017260188;0.060283814;-0.2580555;0.025039425;-0.09017432;0.11179217;0.43601063;-0.29262987;-0.090498336;-0.055521876;0.3664804;0.08571454;-0.012936755;0.05599445;-0.1432205;-0.119967185;0.12466097;-0.4066596;0.08909156;-0.11552604;-0.40048045;0.21241583;0.1304646;-0.43807158;0.32613558;-0.12650107;0.44539085;-0.44584414;-0.13754532;0.52417964;0.021512883;-0.075083435;-0.021599995;0.24694024;0.0922014;0.40582824;0.13193844;-0.015656106;0.46282884;-0.008663094;0.22444205;0.176638;-0.061589003;0.098318554;-0.0005541736;-0.008657761;-0.050225083;-0.08628452;0.026340744;-0.46459234;-0.0009985534;-0.086614996;-0.023863258;-0.053293258;-0.12961824;0.023269376;-0.50408185;-0.16335438;0.29381153;-0.3570131;0.024835328;0.045914803;0.39918873;0.029245632;-0.52851146;0.26446602;0.14422874;0.2083486;0.07716017;0.11816824;-0.3140676;0.3279026;-0.13730861;0.0010905976;0.37442955;0.578441;0.026139408;0.05968775;0.03783789;-0.03157656;-0.2956651;-0.06567533;0.11026736;-0.025967242;0.02664516;0.010311711;-0.0122394115;0.07488779;0.36227486;0.38104686;-0.013923086;0.2730941;0.5445414;0.18882659;-0.0696329;0.16063435;-0.1545391;0.12974672;0.3744069;-0.15594885;-0.31345916;0.22978158;-0.033285998;-0.4083483;0.03884902;-0.1772084;-0.14735152;0.3694621;0.29521653;0.043198407;0.04019124;0.028603638;-0.00201145;0.5958947;0.46287242;0.0136487195;0.067753494;0.30635414;-0.0011563116;-0.16451594;-0.0026068229;-0.118443094;0.37884665;-0.87455016;-0.17734464;0.46086746;0.026437998;0.016031053;0.41605842;-0.18162413;0.25781217;0.0562812;-0.32703304;-0.1610411;0.047482006;-0.16913703;0.07819624;0.27853554;-0.19468677;0.22162178;0.04974031;0.09707276;0.1581753;-0.30632377;-0.3753382;-0.08621765;0.04502894;0.26703027;0.00814748;0.10398345;0.036912035;0.056092225;0.18953505;0.36778602;0.004989194;0.05779538;-0.067442685;-0.09320742;-0.034967996;-0.045460593;0.008629533;0.030899554;-0.05434497;0.10636976;0.15006708;0.62057376;-0.043664433;-0.217423;-0.31778058;0.18364984;-0.3533452;0.037645124;0.024412703;0.31096345;0.25312635;-0.019521257;0.06382464;0.04151379;-0.0690105;-0.00077935035;-0.106290646;-0.06924096;0.057904985;-0.08264816;0.018217487;-0.04948232;-0.17685564;-0.17244658;0.21156566;0.22427455;-0.51517105;0.18471035;-0.17869118;0.25599328;0.16968524;0.028968966;0.044760857;-0.053354174;0.023720289;0.033124927;-0.0679788;0.19103752;0.34971195;0.16981322;0.03715245;-0.011414883;0.48055142;0.06860529;-0.0036934647;0.32615644;-0.043062624;-0.13585481;-0.014299326;0.18593518;0.2813532;0.067597374;0.04693009;0.4558231;0.41577724;0.42818612;0.0030504814;0.00035883486;-0.024261748;-0.088457346;-0.05193678;-0.35452992;-0.048789304;0.0067656133;-0.05918843;0.020319708;-0.049525272;-0.46842155;-0.079422966;-0.16208546;0.2897946;-0.49869215;-0.019125495;-0.0126780905;0.15185758;-0.03003327;0.35912603;0.012986202;0.027000315;-0.05659885;0.071288876;0.07513908;-0.047366343;0.0021316265;0.032635145;0.13512032;0.49808976;-0.0060591223;0.33399692;-0.38035703;0.30514157;0.17469256;-0.21939623;-0.026874002;-0.028090065;0.16583161;-0.23006634;0.018486729;0.026405461;0.3396665;0.16220807;-0.09927296;-0.08234483;0.061411444;-0.0772387;0.00320328;-0.37170595;0.1116462;0.021752495;0.38061765;-0.16074298;0.20984538;-0.14405349;-0.14143172;0.23988342;0.22904754;0.37495506;0.1696344;-0.17383496;0.6102775;-0.09299881;0.16214944;0.21147554;-0.1887488;0.039881825;-0.02075055;0.19236441;0.18254435;0.46819082;-0.072158314;-0.016218705;0.06276467;-0.024907801;-0.36071032;0.13436358;0.18494935;0.060783748;-0.2640649;0.04493946;0.25400728;0.16555658;0.109441765;-0.016853206;0.11061387;0.14264008;-0.14806463;0.044622377;0.19731371;0.0982212;-0.24229324;0.5115106;-0.36591518;0.17277768;0.062214762;0.6676835;-0.03494348;0.16300452;0.15490331;-0.42610908;0.06388287;0.17253077;-0.10596476;0.031512354;0.015712852;-0.18492958;0.41501307;0.26799148;0.44409153;-0.35588944;0.064124666;-0.04752442;0.4383542;0.033855278;-0.033406746;-0.056958802;0.5276494;0.050310913;-0.17605288;0.04871429;0.047577962;-0.087185815;-0.034538634;0.028532589;0.19590959;0.35411945;0.04563293;-0.08627024;-0.09155252;0.039522123;0.24322917;0.1915778;0.13715208;-0.0968667;0.3247243;0.0545753;-0.1700926;0.053230364;0.050546832;0.18646275;0.11018342;0.036586978;0.334354;0.042070687;-0.122348055;0.1332486;-0.0070777093;0.08263574;-0.04788445;0.14041954;0.12037132;0.28619978;0.013675733;0.15857452;-0.018191217;0.027350167;0.08663267;-0.053812202;0.050033145;0.02685427;0.061627243;0.22924224;-0.5809489;0.14360778;0.2634205;-0.10057354;0.043968566;-0.5215425;-0.017514123;0.067137554;0.3556932;-0.083984874;0.30263123;-0.014032136;-0.013469002;-0.4760062;0.29823655;0.17033996;-0.02147991;-0.02311922;0.008562102;-0.048848268;0.0886483;0.24279453;-0.12682381;-0.28979477;0.027175747;0.01995369;0.21545316;-0.008034643;0.24383296;-0.2509415;-0.0272383;0.039984442;0.3694372;0.013542874;-0.25410494;0.2796983;0.01768994;-0.040793538;0.46961424;0.39311367;-0.16095534;0.030413263;0.23384199;-0.36254612;-0.21672577;-0.098641925;0.0507066;0.010311772;0.013123542;0.5273515;0.11990358;0.16980644;-0.3401287;-0.036221642;0.0757809;-0.16857217;-0.016615937;0.05004642;-0.3913225;0.47708294;0.023278296;-0.24037263;-0.03713821;0.21053599;-0.09151317;-0.10362658;-0.04349041;0.021293264;-0.08039588;0.38400045;-0.32945293;0.13732776;-0.061136276;-0.051006332;0.14299756;0.071066976;-0.16945255;-0.20689452;0.23836166;-0.0052829687;-0.047400583;0.12947184;-0.40446392;0.39917892;0.1778892;-0.06602;0.0063147144;0.70576334
0.15872172;0.16795577;0.1003428;-0.22303575;-0.07275548;0.1158791;-0.3970778;-0.06744713;-0.105500266;-0.017694978;0.042527426;-0.23930363;-0.02506755;0.012187685;0.5049903;0.035541117;0.06819909;0.23336644;0.32200855;-0.01706116;0.065887734;0.27678755;-0.108502895;-0.061933853;-0.009714987;0.09144291;0.053011097;0.3090628;0.33351573;-0.11984925;-0.062098086;0.10226826;0.073800005;0.010153163;0.04258652;-0.04588392;0.07120667;0.32438576;0.013859062;0.4605641;-0.037696328;-0.0048350943;0.27556375;-0.3995243;0.12161341;0.33189076;0.027020317;-0.008974615;0.05085168;-0.285561;-0.04952243;0.36747703;0.31521916;0.5501008;0.7211039;-0.033999007;0.10249405;0.018255286;-0.0534376;0.040554237;0.030603908;-0.25228247;-0.0255442;-0.022448573;0.30100533;-0.3139331;-0.05512913;0.03325812;-0.00029168665;0.0752113;0.20116103;-0.03233356;0.3735254;0.2047124;-0.41319436;0.0012034603;-0.19746615;0.34882244;0.00469928;0.1436651;0.004544588;0.43513647;-0.04374423;-0.15305878;-0.025238948;-0.1859367;-0.016269725;0.09721357;-0.057103544;-0.01853398;0.500638;-0.055921685;0.10939495;0.3315844;0.43051645;0.22476472;0.2552422;0.47382355;0.22062361;-0.056717105;0.2517861;0.26025534;0.09907422;-0.09246964;0.05456123;-0.3372726;-0.03517269;-0.022841627;0.22189647;0.4380231;-0.25137827;-0.034570687;-0.03352853;0.27667218;0.075414106;-0.007144437;-0.039886758;-0.27009374;0.004086495;0.20342316;-0.42902014;0.15928493;-0.015194939;-0.2954076;0.22358064;0.0791628;-0.42423004;0.24626696;-0.06731332;0.39454636;-0.4235587;-0.14275905;0.52598184;-0.043006394;-0.068441704;0.0860272;0.25242028;0.11840798;0.3633116;0.12226633;0.04237886;0.37923148;-0.020042654;0.20657095;0.09304401;0.027249675;0.27142006;0.07262433;0.11136854;-0.0960235;0.0635809;-0.122757636;-0.3055964;0.05035382;0.0075478614;0.076123625;0.04679262;-0.1407688;0.037557762;-0.36582407;-0.07870856;0.20048346;-0.3222887;-0.049346123;0.06907786;0.3740493;-0.056472708;-0.3661954;0.27859268;0.066585466;0.19223948;0.007989172;-0.004420995;-0.31427103;0.17320885;-0.08179012;0.11348562;0.26676527;0.39467436;-0.046606537;-0.05455651;0.04144252;-0.18925169;-0.29184696;0.024865557;0.13311934;0.007737167;0.05047753;0.12706523;0.04039167;-0.017040128;0.27029172;0.4625091;0.040367942;0.37068167;0.6005976;0.1468961;-0.09557705;0.13457899;-0.17551422;0.18188721;0.36932856;-0.14440504;-0.19475365;0.25669122;0.013756033;-0.32777888;0.06594525;-0.12872134;-0.1534445;0.2909086;0.38262808;0.06348342;0.0063566207;0.02071566;0.007848714;0.562253;0.42703626;0.14890048;0.012822246;0.13456215;0.03332069;-0.18472448;0.014432155;-0.10764759;0.29655874;-0.68409985;-0.13638659;0.39195856;-0.05620442;0.09207678;0.38049692;-0.12613499;0.18651;-0.060020927;-0.2792167;-0.04628405;0.03836441;-0.1701453;-0.021742295;0.25333506;-0.22161807;0.31668353;0.045812476;0.18511237;0.13346112;-0.42380837;-0.34243894;0.056092173;-0.007991333;0.16272534;-0.0662214;-0.08996733;0.06754248;-0.050913144;0.23683;0.3754025;-0.096591145;-0.029502992;0.053331107;-0.18798718;-0.046885453;0.01269236;0.11927301;-0.018827695;0.07106825;0.14086556;0.2397772;0.5312959;0.10659857;-0.17575732;-0.31665793;0.16578794;-0.3525071;-0.06284396;0.038647436;0.3913502;0.2019261;0.07759139;-0.049803868;0.03830098;-0.076773144;0.14058611;-0.05925616;-0.010333902;0.0033017574;-0.011967512;0.009395955;0.034305215;-0.25271308;-0.14909707;0.18009408;0.26801983;-0.4328151;0.2833736;-0.049428795;0.12510236;0.07418614;-0.041079324;-0.027638204;-0.06364618;-0.07743003;-0.020393845;-0.07615488;0.16172193;0.41727784;0.14010453;0.03460642;0.068763584;0.42485476;0.06165758;-0.0045012627;0.20551196;0.066737205;-0.12860484;-0.026349029;0.27505058;0.23088151;0.060454868;-0.011818805;0.45244694;0.37758207;0.49211574;0.0390462;-0.0016435463;-0.025540419;0.009281817;0.028654953;-0.32004267;0.084972374;0.042057175;0.07097092;-0.055545077;-0.0748061;-0.6233415;0.028280396;-0.144466;0.3164583;-0.3983283;-0.011974291;-0.06264133;0.2081409;0.033008646;0.2864355;-0.12403976;0.027559841;-0.061939724;0.10575646;0.051092017;0.014332801;-0.010311866;0.096370466;0.22764508;0.37008098;-0.017447094;0.35862485;-0.33074996;0.36962888;0.2435004;-0.19653903;0.082914785;0.045795552;0.06757528;-0.26575014;0.088829845;0.012184049;0.24219766;0.14895323;-0.21673143;-0.25787103;0.032093648;0.03308302;-0.022550656;-0.3113923;0.11671258;0.078394495;0.25940204;-0.026525896;0.16165268;0.010717381;-0.24114002;0.1866886;0.25916225;0.3662428;0.16563223;-0.19177175;0.6783283;-0.084911495;0.17603047;0.23755689;-0.26144966;-0.009458937;-0.0137003185;0.040753882;0.21031904;0.4672479;0.03367257;-0.034747638;-0.069047004;-0.046331044;-0.38001075;0.25349367;0.1866596;-0.012050632;-0.18891603;0.042307172;0.15735343;0.121241145;-0.011843357;0.028783863;0.07507945;0.18845578;-0.046086155;-0.08329021;0.16274579;0.13142021;-0.26533526;0.39933217;-0.2837198;0.09943334;0.13713802;0.66140074;-0.01322052;0.22834642;0.23537986;-0.49469715;0.101055875;0.067248724;-0.090594634;-0.09729358;0.1907091;-0.18480706;0.40420878;0.32753563;0.50772643;-0.29408696;0.034959882;0.07284728;0.51382643;-0.0357845;-0.058926363;-0.15364252;0.38361236;0.12928201;-0.15421894;0.043611012;-0.10231005;-0.17469732;0.04095807;0.057543676;0.18273644;0.33684626;0.0522905;-0.12741873;0.012054151;-0.05679328;0.16648786;0.09614637;0.19815566;-0.09456762;0.19938467;-0.03707312;-0.22097483;-0.023978619;0.04858759;0.15064548;0.13913906;0.062242217;0.37473655;0.07524093;-0.03943027;0.17901076;-0.0025911136;0.017657002;-0.08684657;0.16510086;0.18132669;0.19343562;-0.03244273;0.15624836;0.11285932;0.06520351;-0.060227815;-0.03355571;-0.118690096;0.13044783;-0.078299224;0.28766474;-0.57050353;-0.02535085;0.37781748;-0.18000378;0.0033536737;-0.3878831;0.03284801;0.121140786;0.36874604;-0.09153254;0.3774755;-0.068327725;0.017200856;-0.47612855;0.08264738;0.05590359;-0.037657984;-0.00373074;0.0023890436;-0.038272187;0.04481179;0.19682936;-0.16841443;-0.19806486;-0.008623721;0.09393716;0.21002516;-0.0459889;0.15399176;-0.12661012;0.059949845;0.08097191;0.31563106;-0.08727987;-0.16475685;0.29323706;-0.023476273;0.04243718;0.39017743;0.4223123;-0.20747048;0.010355787;0.3038273;-0.31507063;-0.21827434;-0.015016337;0.08577256;-0.00047835382;0.04697097;0.5459026;0.15318891;0.11006721;-0.23261377;0.086070575;-0.034159623;-0.0448573;-0.13388358;0.074994184;-0.32580763;0.5550261;0.058286767;-0.08562809;0.0760296;0.1296465;0.014199131;-0.1198063;-0.045658097;-0.011225568;-0.070092455;0.37507978;-0.18452677;0.10583927;-0.09744042;0.039086476;0.14635643;-0.02210463;-0.13766046;-0.17953199;0.18916248;-0.035819113;-0.045195773;0.2067178;-0.23726265;0.2699633;0.14249565;-0.04158464;-0.030915298;0.6449578
0.074694134;0.23616326;-0.033788897;-0.2581611;0.014025569;-0.04556506;-0.42376855;0.061274275;-0.014282038;-0.044460647;0.12480016;-0.23683912;-0.06477231;0.08352319;0.4145427;0.038604956;-0.03515133;0.20553634;0.3012927;-0.014271378;-0.035268135;0.19124638;-0.16456498;-0.07546466;-0.02615198;0.10872583;-0.08361695;0.24515226;0.3241058;-0.15974163;-0.21097498;-0.048097663;0.067040876;0.08343025;-0.051889524;0.022142908;-0.0053536952;0.23575884;-0.0016298102;0.359362;-0.087058894;0.0769039;0.12115395;-0.2288393;0.06098791;0.38255385;0.11034366;-0.104139425;-0.06653741;-0.3088051;-0.04989815;0.3141573;0.40020356;0.54867166;0.67768764;-0.020522133;0.079598635;0.016816325;-0.06734521;-0.04517113;0.053643547;-0.26757035;-0.01497694;-0.0011949445;0.2921345;-0.24124862;0.07841282;0.0921308;-0.08087416;0.0007734048;0.07413348;0.039576404;0.44562036;0.24292679;-0.4530482;-0.028513854;-0.24516825;0.4236797;-0.06667708;0.026356732;0.051788047;0.4080139;0.04904611;-0.06265653;-0.063420996;-0.1043848;-0.07002276;-0.009773815;-0.044831213;-0.034280267;0.34825894;-0.008431498;0.03870606;0.3057374;0.3914575;0.08176008;0.11623058;0.46539402;0.12786624;-0.17412741;0.15317498;0.20964219;0.11217879;0.0073617976;0.123333745;-0.414454;-0.13761842;-0.06633412;0.050323106;0.31097737;-0.27147245;0.0021091392;0.047765892;0.24805452;0.096403025;0.012416063;0.059739795;-0.17913266;-0.06865075;0.21401788;-0.2983553;0.16632769;-0.17021972;-0.41372368;0.14887242;-0.1464042;-0.40569356;0.2616404;0.01289176;0.46171433;-0.26501897;0.037732452;0.5868549;0.06430225;-0.02878907;0.026529903;0.27203444;0.034182496;0.2673743;0.12903652;0.04074624;0.45525533;-0.034398783;0.12289063;0.062253468;0.028652623;0.20518592;-0.0328181;0.1475234;-0.09031839;0.014859372;-0.1146567;-0.27157745;0.11442778;0.0062302495;0.07070616;0.075842105;-0.067353144;0.05973068;-0.33160603;0.012797351;0.23181535;-0.21484551;0.08602963;0.0009621964;0.31027266;0.026148675;-0.25511822;0.29779333;0.19709195;0.2289217;-0.00010176006;-0.03805975;-0.24996233;0.26473716;-0.25644508;0.119856134;0.29988414;0.45030525;0.07444395;-0.019481353;0.037173226;-0.11848477;-0.28297886;0.028816594;0.059091248;-0.036398496;0.031617887;0.13901307;0.018442824;0.02205213;0.2674274;0.36549953;-0.052328326;0.33756787;0.4084716;0.10374399;-0.09290108;-0.08927681;-0.25181898;0.17748788;0.2993877;-0.17738138;0.059416857;0.17285584;0.10439662;-0.24286762;0.017917288;-0.00075891457;-0.3181074;0.25129542;0.39500487;-0.008617589;0.02655744;-0.03450692;-0.045571074;0.5284791;0.37156898;0.18331288;0.12055853;0.1674925;0.03608396;0.079302214;0.08277075;0.013804301;0.1282143;-0.7253178;-0.111770816;0.44593778;-0.049755223;-0.0060951794;0.5669492;-0.12261978;0.23228873;0.018257648;-0.14694425;-0.044403926;-0.08737279;-0.085699655;0.020123787;0.26526457;-0.1856994;0.30577737;-0.045565553;0.15149032;0.15258352;-0.45032024;-0.362096;0.06429998;0.0010606407;0.27872056;0.057389732;-0.06514262;0.14822921;0.018977417;0.33458394;0.23191388;-0.19614908;-0.0036068112;-0.025992312;-0.18782306;0.023823202;0.041383807;0.012103757;-0.02327694;-0.057089962;0.14326076;0.22831367;0.54330695;0.07227428;-0.10771142;-0.23221427;0.26868227;-0.33450258;0.011273774;-0.036762845;0.2564246;0.20573565;-0.016270908;0.02220191;0.0047749043;-0.14550562;0.14436434;0.044650957;0.10868585;-0.10944853;-0.02051958;0.16293395;0.01496771;-0.261864;-0.2084991;0.34038505;0.18924211;-0.30501798;0.16396427;0.16068247;0.03327656;0.13296731;0.041180808;0.03565856;-0.1032076;0.055760358;0.020615352;-0.0015470653;0.27206576;0.40015894;0.18120861;0.08310026;0.14366253;0.27129686;-0.0079579055;0.024783295;0.10937372;-0.020225195;0.010552353;0.1053629;0.3462916;0.30389965;0.03125223;0.01591878;0.3713556;0.39951706;0.45097545;-0.024889518;-0.01699969;-0.012056041;-0.07951189;-0.029636592;-0.19863725;0.055887606;0.066125125;-0.07864307;0.031871278;0.0042305687;-0.5063025;-0.0745833;-0.06805541;0.25703672;-0.47415924;0.0025513796;-0.025495622;0.1062558;0.047859076;0.37168422;-0.07042473;-0.002987218;-0.05821722;0.07526753;0.15376753;0.05315959;-0.010512587;-0.034617413;0.111587994;0.4079625;0.049814016;0.38941902;-0.27336666;0.3199878;0.051150665;-0.14135015;-0.045646615;-0.024135888;0.12231564;-0.3391514;0.044967543;0.13061437;0.28598338;0.22946048;-0.09231906;-0.27133316;0.07599399;0.035884235;0.0027580094;-0.18570262;0.20346504;-0.02497313;0.3107134;-0.0028331215;0.11712883;-0.066910036;-0.2514013;0.2155602;0.19892862;0.15384923;-0.012473659;-0.09577151;0.5674447;-0.015488923;0.16842341;0.17198391;-0.10196866;-0.042997327;-0.061845228;0.11634936;0.19645831;0.31945145;0.05454126;0.04681992;-0.009669019;0.03184139;-0.40372792;0.21402866;0.15675008;0.07742343;-0.16757885;-0.050545603;0.17454939;0.1585812;-0.0073734666;0.07198031;0.060386136;0.21158233;-0.029515894;0.074794024;0.13471599;0.22861628;-0.1305428;0.38380075;-0.1332197;0.14347446;0.063806236;0.596294;-0.00046658996;0.287284;0.22084893;-0.36263326;0.20556566;0.085382216;-0.032400846;0.0056209723;0.10520977;-0.24870585;0.15415597;0.2594431;0.4707368;-0.40063623;-0.04404047;0.100769676;0.39478487;-0.024997165;0.0075060795;-0.0081864875;0.32340914;0.10845199;-0.13930869;-0.0004175105;-0.085548416;-0.13773683;-0.022671528;0.0071732686;0.2398452;0.15166233;-0.024577126;-0.072686024;0.036876976;0.05412221;0.2281714;0.09500783;0.12310173;-0.041742343;0.1985757;-0.012694206;-0.18876596;-0.028918743;-0.05909778;0.31411296;-0.030700305;-0.051182088;0.34659564;-0.06666284;-0.08996072;0.22563685;-0.02534699;0.011512336;-0.17069328;0.22452697;0.11868428;0.17157368;0.052495852;0.014734668;-0.038444065;-0.0426465;0.031840056;0.01645811;-0.068869755;-0.0090862;0.00825105;0.28719616;-0.47271875;-0.01677254;0.27941844;-0.14949575;-0.076585434;-0.41954008;0.04271952;0.08127012;0.37456575;-0.18141377;0.15655152;-0.033236343;0.0014965223;-0.51083547;0.11362114;0.15536548;-0.028344242;0.019329231;0.024612088;0.021140382;-0.005554986;0.008437229;-0.105083235;-0.31240675;-0.00517688;-0.044243928;-0.027255189;-0.028087894;0.17714566;-0.19965622;-0.020257425;0.073953874;0.35796902;0.04480763;-0.14100926;0.14858161;0.05751096;-0.035654232;0.3305953;0.40968144;-0.095924914;0.0018300371;0.13033083;-0.31761652;-0.18712537;0.042313457;0.05686373;0.03249677;-0.07230114;0.619793;-0.056805477;0.14728835;-0.3697481;-0.050283846;-0.03930629;-0.14734273;-0.06707351;-0.008768821;-0.23854227;0.50125146;0.0070041227;-0.25611317;-0.015917799;0.09924324;0.023144994;-0.23756456;0.0038576361;0.050364155;0.03676377;0.24469578;-0.15690562;0.21592802;-0.16925311;-0.013823959;0.08700468;0.010213346;-0.062249415;-0.18922342;0.21659313;0.036257412;-0.023681225;0.18278062;-0.16424756;0.23574786;0.21055649;0.15027438;-0.05393429;0.5658766
-0.08403311;0.22414365;0.0540317;-0.24753673;0.040601175;-0.005117623;-0.2453983;-0.025362074;-0.05573744;0.058029216;0.065346085;-0.1829641;-0.0033712995;-0.0073406557;0.41758326;0.022348149;0.0064551192;0.16970742;0.3672656;0.055947967;-0.0049319826;0.028176863;-0.09976264;0.032597914;-0.053131785;0.034305405;0.024622353;0.22547472;0.15791869;-0.1862077;-0.18325768;0.069486365;0.05720468;0.07702618;0.051228184;0.02731781;0.06784771;0.3794114;0.07680189;0.34775835;0.05578347;0.046028726;0.16050819;-0.2182742;0.07818221;0.29312167;0.045041174;-0.06658473;-0.045029476;-0.23776956;0.005227242;0.30226773;0.31666246;0.731604;0.625677;-0.04742111;0.13446361;0.009577059;0.028929355;0.030472497;-0.043177385;-0.23639673;0.02294251;0.028509144;0.23147666;-0.09799979;0.025407454;-0.015710192;-0.0837983;0.013063714;0.114997916;0.051740587;0.29422575;0.17224215;-0.35594288;0.056088723;-0.26799735;0.28915212;-0.04890454;0.061260995;-0.06883949;0.41399202;-0.05470282;-0.07124193;-0.15718883;-0.08953305;0.04560598;0.16642511;-0.028628392;-0.04655505;0.37012067;-0.04349426;0.012416774;0.25442111;0.405715;0.042427782;-0.037531216;0.50094956;0.08873246;-0.17899932;0.08073338;0.24758391;0.28117263;-0.11545155;0.14886212;-0.4120043;-0.006648358;0.051910665;-0.03406093;0.46122122;-0.2303568;-0.16270702;0.0117970295;0.38788584;0.05162899;0.05136879;-0.025689412;-0.15506075;-0.14176987;0.24936342;-0.42748174;0.111839585;-0.19319709;-0.26058778;0.06947083;-0.12766129;-0.1892438;0.16495155;-0.18401465;0.44448534;-0.24478808;-0.0010202077;0.55177253;-0.059185084;0.023976754;0.038971342;0.41951206;0.058965098;0.24602666;0.09269484;-0.016381735;0.5176884;-0.12745695;0.2355028;0.10267695;0.016579363;0.13810672;-0.02597934;0.0144504225;-0.09744534;0.053201992;-0.09682533;-0.25199118;0.22199431;0.044605818;0.17585497;-0.031222466;-0.023692288;-0.05453656;-0.4916341;0.16844277;0.20887776;-0.19621228;-0.06611669;-0.069602765;0.19936167;0.026183056;-0.18163826;0.36539194;0.2001236;0.17129105;0.0077653453;-0.16013235;-0.17381106;0.24982421;-0.21460176;-0.06583955;0.2611644;0.36865568;-0.06285871;-0.020264035;0.04458829;-0.024165548;-0.11419183;-0.0067001996;0.09453455;-0.06325627;0.044482943;0.1824772;-0.09574207;-0.08856436;0.1782404;0.35921314;0.069753334;0.46380788;0.30050337;0.16052218;-0.13127199;-0.037346028;-0.14979555;-0.06665126;0.35948652;-0.23247057;0.014751026;0.20991133;-0.0601291;-0.19920437;0.2231806;0.13493037;-0.26585683;0.26233244;0.18709742;-0.09802952;0.011254935;-0.015502392;0.026453577;0.5741003;0.33128968;0.1665878;0.10895012;0.07126239;-0.0056883986;-0.0021038784;-0.043547604;-0.014929567;0.07497266;-0.68180794;-0.068171926;0.30354762;-0.038095534;0.015014239;0.5458871;-0.098853156;0.234209;-0.14353725;-0.16288662;-0.030878648;0.021411166;0.054580268;-0.09121251;0.17437628;-0.12379344;0.12403728;0.048331104;0.084624246;0.16254206;-0.5394496;-0.12314553;-0.080971785;-0.120182574;-0.029520659;0.061767224;-0.052216105;0.0830973;-0.008176105;0.264035;0.3112503;-0.11894619;-0.067577645;-0.0076451367;-0.1339983;0.10693572;-0.024876427;0.01421443;-0.026274402;0.004100204;0.052636478;0.022211766;0.5111933;0.05724509;-0.10488299;-0.087044716;0.09266173;-0.33113635;0.016446318;0.07151241;0.045705795;0.16915742;-0.012490502;0.0004692817;0.109927535;-0.10487277;0.07087485;0.033459615;0.14494675;-0.039250754;0.033494066;0.12967202;0.06508323;-0.23866744;-0.120940596;0.28186986;0.4725862;-0.17296325;0.18671355;-0.058613926;-0.09771645;0.20224601;-0.006308429;0.034304425;0.024419572;-0.106544904;-0.07810488;0.14023477;0.14064544;0.28804797;0.15967268;-0.076288894;0.16754662;0.29422987;-0.09649669;0.0068781595;0.15896757;-0.00164681;0.010733854;0.077362545;0.28457537;0.19132262;-0.084666364;0.038118813;0.31349862;0.3650826;0.33436552;0.02970276;0.055592474;0.10374607;-0.09137487;0.032793462;-0.13891508;-0.0469434;-0.025217248;0.0119508365;0.032567192;0.075014;-0.5390561;0.0527467;-0.2057924;0.20248093;-0.46920103;-0.030743362;-0.014788109;0.12454545;0.1001563;0.32159764;-0.011596741;-0.031209076;-0.011820894;0.091519415;0.08243682;-0.0099782;0.057104412;-0.050888486;0.119504675;0.32378453;0.057639375;0.30144277;-0.25283295;0.33684647;0.092549585;-0.07875311;-0.04273759;0.03003448;0.1683246;-0.3340731;-0.12994589;0.18188465;0.36691025;0.19772568;-0.15111288;-0.15211244;-0.01783514;0.04203856;-0.067261934;-0.08669502;0.12209716;-0.015613966;0.44615456;-0.19345282;0.25105557;-0.05039895;-0.22650719;0.13752465;0.27136838;0.2561196;0.016464245;-0.036008123;0.49650964;0.025827715;0.153232;0.10897828;0.015737478;0.08195966;-0.016804634;-0.016473675;0.2700775;0.39080432;-0.028476175;0.056000635;0.013750382;0.034977462;-0.37533334;0.21399774;0.18579373;0.08822688;-0.021702962;-0.005476264;0.24355665;0.17667499;0.028939275;-0.0050306404;0.20284942;0.11091683;-0.13576864;0.032377418;-0.060844902;0.16585733;-0.03348719;0.3802023;-0.050303694;0.08123303;0.115535736;0.3608153;-0.008298286;0.3678496;0.32755744;-0.37033895;0.1151342;0.06667482;0.05602159;0.06168231;0.15607882;-0.37991768;0.28698635;0.31258398;0.3792793;-0.33604854;0.017990474;3.300034e-05;0.5515126;0.046674635;0.06578532;-0.04528982;0.35362968;0.16857724;-0.04958803;0.044198323;-0.059860956;-0.028709058;-0.008931828;0.035828;0.12325117;0.21467249;-0.08133179;-0.023163958;-0.0464656;-0.03864266;0.22259814;0.088974364;0.059228644;-0.1078004;0.19328667;-0.04877993;-0.074136384;0.005065485;0.019819701;0.13582529;0.07934507;-0.0881989;0.35761318;-0.0770672;-0.06362904;0.39020988;-0.038238157;-0.17700672;-0.039271057;0.116160974;0.21076944;0.11109537;-0.07992279;0.17641799;-0.03509233;0.05445807;0.046473272;0.041580383;-0.13516232;0.14004298;0.054740347;0.25069582;-0.49231026;-0.1351493;0.13819328;-0.08275189;-0.07898104;-0.28878015;0.023408633;-0.0073658978;0.44879296;0.002632438;0.13272671;-0.092910916;-0.062707864;-0.35538238;0.18243279;0.34183413;-0.041527353;0.15197346;-0.023882296;0.01748275;-0.07435618;-0.043045703;-0.2501235;-0.21152717;0.057628013;-0.0024556813;0.12304758;-0.034669526;0.19735645;-0.0589612;0.08238886;-0.019731298;0.4086093;0.030112823;-0.12496605;0.3058612;0.03864004;0.03877225;0.24693054;0.29546207;-0.027629975;0.0083713485;0.2597423;-0.1874186;-0.12601842;0.009777997;-0.0050646453;-0.02381362;0.007464522;0.6138867;0.09187085;0.31708848;-0.41133517;0.07261858;-0.07590087;-0.019844444;-0.05876336;-0.057352867;-0.1132359;0.49652788;0.0002588394;-0.2579249;-0.0483063;0.04637997;-0.12272222;-0.18476757;-0.032713488;0.17895274;0.08932024;0.29161584;-0.13361596;0.07642667;-0.105393305;0.009352106;0.15047814;-0.060529985;-0.11425485;-0.24024846;0.128826;0.05032401;-0.016417462;0.15626112;-0.049813896;0.25121844;0.15815753;0.09755533;0.0149760535;0.63236773
-0.0015548042;0.12819389;-0.002182508;-0.22313398;0.028820604;-0.055790506;-0.35771242;0.084304534;-0.021949993;-0.040920034;0.20740116;-0.16351782;0.01680261;-0.035026807;0.39613792;0.08130444;-0.012345137;0.14912859;0.41134065;0.085845746;-0.009007959;-0.034828715;-0.12516901;-0.18902574;-0.00796049;-0.1201324;0.015345742;0.28290543;0.17017719;-0.07015675;-0.082851574;0.13908626;0.12278811;-0.04051324;0.024635462;0.082696505;-0.011445513;0.3437809;0.055128284;0.3559578;0.009817743;0.016627684;0.18382403;-0.187483;0.1507056;0.36514682;0.094948225;-0.033602428;-0.017241707;-0.33777225;-0.029871114;0.1542604;0.3326089;0.52298725;0.572562;-0.041061934;0.08044278;-0.11121605;-0.07704368;0.036935564;-0.050994765;-0.2910863;-0.03915105;0.017885813;0.2902412;-0.022369767;-0.0028752896;0.04948399;-0.07831571;0.0700299;0.09434213;-0.012973732;0.3509437;0.26329705;-0.20435815;0.004727987;-0.27838135;0.41656366;-0.0027699396;0.047953557;0.025132813;0.41309723;-0.021368632;0.003740689;-0.09459527;-0.015919436;-0.05021222;-0.030336116;-0.013371172;0.06544509;0.3844057;0.047424454;0.03438219;0.21032223;0.31981713;0.071114816;0.11162617;0.45432034;0.015449574;-0.124593794;0.029103104;0.26182535;0.10807262;-0.06312853;0.17123228;-0.35713768;0.03279996;-0.027748253;0.18264046;0.4138198;-0.20055637;-0.10003694;0.05074096;0.30576786;-0.05650441;-0.045177624;0.024700528;-0.2105403;-0.052924894;0.18894622;-0.24255805;0.13536379;-0.23151241;-0.24477264;0.17079356;-0.060962103;-0.24022773;0.117193505;-0.051942103;0.33715165;-0.2818802;0.037452124;0.48425344;0.030770121;-0.022600718;-0.02546331;0.21374305;-0.03263809;0.17504685;0.1084348;-0.012462308;0.29216707;0.07772681;0.022133447;-0.00044724072;-0.058464974;0.14933616;-0.03830155;0.019253353;0.04472363;-0.082584836;-0.00961004;-0.2930304;0.15278049;-0.031626374;-0.0008405195;0.124412626;-0.17288582;0.05381656;-0.39078856;0.22146551;0.1344898;-0.20553847;0.08013185;-0.047442943;0.09061036;0.04723126;-0.13350607;0.30626643;0.090991706;0.07768071;0.03548079;-0.20319289;0.018148089;0.3394165;-0.050514117;0.08725456;0.13648771;0.43758658;0.03455978;-0.011908413;-0.021411506;-0.05430448;-0.18272868;-0.07662122;0.03752569;0.0282253;-0.0004642595;0.24861673;0.04427789;-0.18815206;0.23862225;0.42531824;0.052907337;0.38656062;0.33518025;0.055761594;-0.040804107;-0.05506077;-0.2965303;0.020555578;0.35727537;-0.2904365;0.0821403;0.17456868;0.18580684;-0.1566598;0.15104684;0.16103373;-0.07222259;0.20420755;0.25748658;0.04785218;-0.026790503;0.020925332;0.079307154;0.5659548;0.4467355;0.18545523;0.21233416;0.15958545;0.020551786;0.04245956;-0.038882352;0.09569539;0.13637571;-0.63175434;0.035866134;0.38676578;0.017768025;-0.035992943;0.449247;0.06412399;0.2347379;-0.04032735;-0.1220606;-0.044607725;0.02721259;-0.085041344;-0.13296804;0.17372744;-0.049816415;0.16428268;-0.0013887362;0.30538213;0.051783912;-0.3713292;-0.11616211;0.0515628;0.00995384;0.111038074;-0.06159908;-0.12550084;0.22295186;-0.06832452;0.34535646;0.17318471;-0.050770655;0.09600344;0.056467656;-0.07052823;0.043560836;0.05479867;-0.011332953;0.0742585;0.1254159;0.12086262;0.03766102;0.4910815;0.08558629;-0.08615283;-0.06669258;0.26796472;-0.25426254;0.01656535;0.050019376;0.12861638;0.21310483;-0.0055872286;-0.012347688;-0.04075621;-0.11714275;0.28170496;0.012791908;0.08296859;-0.04114557;-0.060126815;0.17411678;-0.050141115;-0.2129217;-0.0396347;0.24747588;0.21981068;-0.27438083;0.11966416;-0.009369655;-0.060933772;0.07252783;-0.0643588;0.04594534;0.017865788;0.040677097;0.06497302;0.023725424;0.19998606;0.2406739;0.3167374;-0.033836003;0.0661632;0.16859697;-0.054767977;0.03643221;-0.027310658;0.033659972;0.038906746;-0.030001936;0.38349202;0.21358113;0.05146246;0.05210634;0.3912785;0.37095383;0.31673014;0.025449174;-0.0783867;0.12178271;0.012454457;-0.010255842;-0.07422699;-0.006808134;0.0403011;0.051277626;0.026818546;-0.0075875283;-0.4934312;0.017034605;0.054795668;0.30362165;-0.4205623;-0.05019361;0.021286478;0.18225174;-0.0034657659;0.3226197;-0.101309545;-0.053226974;0.011489128;0.008118386;0.18491225;0.039830856;0.042948507;-0.011411103;0.010239123;0.34852305;-0.063088916;0.3861464;-0.25294343;0.27828774;0.08671599;0.016080188;-0.015695127;0.0652427;0.21799715;-0.1861031;-0.025706794;0.12164298;0.23017801;0.2588479;-0.2003293;-0.0144371195;-0.008045694;-0.042319544;0.011260662;-0.069682464;-0.00081437564;-0.026375523;0.30586052;-0.0025479791;0.20703831;-0.07903719;-0.32110718;0.14444253;0.3413504;0.3570335;0.03470136;0.1258872;0.49880463;0.07852894;0.25701106;0.121966;-0.049299106;-0.043019757;-0.05117052;0.10080585;0.26394483;0.51252466;0.040572327;0.006119325;0.009477003;0.0044945967;-0.36690876;0.34339318;0.2034468;-0.012139352;-0.000869426;-0.023173122;0.297538;0.19188236;0.09198284;-0.0207624;0.12656401;0.17157379;0.09193245;0.03724136;0.13746434;0.20457868;0.0038713973;0.2613192;-0.10901856;0.17796198;0.15587921;0.34286335;-0.06844623;0.2857365;0.2677427;-0.48797482;0.061266586;-0.006069254;0.22158377;0.020371182;0.20460793;-0.19517702;0.17907189;0.25835943;0.2948357;-0.3334567;0.05818266;-0.047785323;0.48282424;-0.037860934;0.053151347;0.14219537;0.30591184;0.15026268;0.018135142;0.048058417;-0.07558846;-0.23808688;-0.06338938;0.0305118;0.09344733;0.18059886;0.0655123;-0.06560573;-0.023635501;-0.0044669616;0.07951552;0.07005153;0.13017094;-0.16663021;0.20998196;0.011881391;-0.059511513;-0.04310638;-0.011861002;0.12984474;0.03656328;0.021950424;0.24544238;0.09328974;-0.027732322;0.31544816;0.07520078;-0.03490785;-0.15032914;0.19184455;0.14513332;0.14733425;0.060858645;0.09570385;0.112264;-0.014159059;-0.049730003;0.05312773;-0.03579799;0.047360808;-0.064675905;0.3108635;-0.4054181;-0.15791664;0.32864574;-0.07855771;0.034728494;-0.2453162;-0.06773256;0.017349849;0.37540713;-0.07030431;0.12221259;0.030646566;-0.038259707;-0.4355536;0.122450724;0.2105375;-0.038780812;-0.006096006;0.002350237;0.04643603;-0.02242275;-0.038537927;-0.14301711;-0.2017433;-0.071663134;-0.036378264;-0.0501302;0.052947834;0.11596533;0.021581732;0.17137899;-0.08367743;0.4127473;0.05351512;-0.012637608;0.19663964;-0.002901881;-0.06015991;0.17960685;0.3433691;0.025517195;0.07555344;0.14867252;-0.12343785;-0.12583123;0.06508032;0.05877536;0.020124966;-0.041709952;0.5777326;-0.039076578;0.16550739;-0.3533956;0.102564305;-0.084669925;-0.038941875;-0.10134624;-0.08054643;-0.1746743;0.60289574;0.035902694;-0.18695764;0.079816416;0.061022066;0.09940314;-0.04303249;0.004238483;0.07880289;0.0699501;0.27035564;-0.043923747;0.14062656;-0.17440988;0.054021318;0.09303979;0.07222791;-0.12386661;-0.14181559;0.1849593;-0.057612028;0.06700529;0.23348404;0.12966277;0.08732187;0.12124625;0.1357236;-0.053787515;0.49308506
-0.04172769;0.1383243;0.046316527;-0.27936032;0.03397905;-0.028185902;-0.22730365;-0.05021358;-0.014469929;0.021700531;0.09648152;-0.12940167;-0.07181311;0.053195767;0.3551887;0.032741882;0.054788217;0.020380735;0.43873605;0.058701407;-0.08260942;0.03271147;-0.09779331;-0.113183565;0.03255043;-0.061932556;0.028424958;0.24131472;0.19760418;-0.052364565;-0.20118427;0.027352361;0.37167713;-0.03158962;-0.058759034;0.033511885;-0.044774767;0.27344847;0.093248546;0.45092466;0.014820997;-0.02960288;0.2732941;-0.14778365;0.09875663;0.47150832;-0.04937007;-0.014975046;0.0031526715;-0.3027377;-0.026695015;0.19532643;0.34663364;0.5148958;0.5358323;0.028208703;0.04944795;-0.123225965;0.02515268;-0.003032329;-0.057908703;-0.2321594;0.02522182;0.068577014;0.4240678;0.04983769;-0.02092596;0.12415012;-0.118092716;0.039105173;0.083417244;0.003418429;0.3216393;0.17186505;-0.11006869;0.039306004;-0.31602532;0.38731813;0.05992154;-0.019165903;-0.018979974;0.3621572;0.03897271;0.06481432;-0.08419706;0.015328686;0.027389945;0.0799805;-0.025280904;0.07429553;0.28022602;0.03874175;0.16239917;0.20402166;0.30029872;-0.009320992;0.03676803;0.37538785;0.062473834;-0.18239194;0.027758354;0.27644533;0.1923178;-0.09577883;0.22989567;-0.3961436;0.02095362;-0.12900293;0.009109402;0.5184405;-0.12268502;-0.22085007;-0.047809724;0.3469187;-0.107174635;-0.03558305;-0.025206473;-0.07554558;-0.20309824;0.34877506;-0.28102484;0.042654116;-0.41581076;-0.29351428;0.09897769;-0.10856318;-0.19720383;0.1586927;-0.048791066;0.31292596;-0.28242472;0.017588966;0.35566846;0.004507958;-0.0017244839;-0.037936468;0.30143222;-0.043145213;0.19214402;-0.03408648;-0.006471401;0.33559468;0.013500572;-0.02080008;0.030155916;0.02663088;-0.0100840125;-0.0441722;0.09230993;0.06105298;0.001961857;0.05182533;-0.18040353;0.19151737;-0.1599701;0.07550184;0.11094019;-0.07765399;-0.016499527;-0.46170914;0.33235264;0.14619024;-0.18505633;-0.0781684;-0.025273435;0.0563037;0.034206502;-0.057328388;0.27761012;0.16418637;0.106644586;-0.032046147;-0.14574842;0.041076656;0.2530279;0.013496676;0.0020471637;0.10472407;0.41658938;-0.03134967;-0.018025173;0.009151998;0.01642058;-0.09784937;-0.0538012;0.030325744;0.014157886;-0.006825293;0.26657203;-0.03912039;-0.22028542;0.26515526;0.37937585;0.00034238238;0.3953662;0.36075598;0.05976484;-0.02863515;-0.08244204;-0.29242504;-0.18802318;0.27322945;-0.116656534;0.010605348;0.24326354;0.014895296;-0.1983977;0.14182997;0.24257796;-0.011243491;0.2568213;0.20429793;0.035199;0.008886111;0.058048803;-0.054241247;0.40882713;0.41613698;0.22792062;0.22665226;0.033394676;0.07184632;0.12553692;-0.049131267;0.15085872;0.049927812;-0.55925685;-0.030175583;0.35827568;-0.0022272815;-0.024686275;0.4546103;0.018727377;0.18485159;-0.0051419525;-0.07142953;-0.005883992;-0.067739256;-0.10351376;-0.1502396;0.28928822;0.057649735;0.057351615;-0.0120998;0.2927842;0.07006605;-0.44362646;-0.12968637;-0.0032251868;-0.022625294;0.080845825;0.04913452;0.017655114;0.28508043;-0.039116975;0.34262553;0.19040287;-0.117392845;0.06774747;-0.059968915;-0.17104046;0.042790335;0.031221;-0.033245746;-0.033185728;0.1058072;-0.071998514;0.124691844;0.4457297;0.0870389;0.08899354;0.0411939;0.14734934;-0.19058956;0.020677991;-0.023960534;0.021124423;0.07030577;0.027372558;0.007982316;-0.0012050524;-0.038634725;0.34064955;0.13312674;0.075562775;-0.13171571;0.030823838;0.17394838;-0.056762733;-0.23696077;-0.05116347;0.32396808;0.27837223;-0.25015676;0.2003493;0.0051869815;-0.04365431;0.06095719;0.044690344;-0.05517094;0.11318541;-0.020306038;-0.058770332;0.12367384;0.3044776;0.32481194;0.24070163;0.09286543;0.15540415;0.17054637;-0.1959347;-0.0050693788;-0.011710585;-0.03786763;0.019230267;-0.05951205;0.40287575;0.29115972;0.03419309;-0.08181594;0.42787278;0.45030054;0.32716963;-0.0145478835;0.022174174;0.22109267;-0.017941587;-0.035020556;0.036452122;0.04410481;0.012148319;-0.011197258;-0.0042545814;0.0077346363;-0.49283636;0.0685994;0.010467132;0.16802141;-0.47569025;-0.02875608;-0.030111006;0.22557993;-0.037419893;0.23095003;-0.013680593;-0.040693905;0.024194825;0.09468107;0.09559908;-0.06370989;-0.0009891973;-0.0064109317;0.08387985;0.2708325;0.05099934;0.37186474;-0.18141824;0.30396283;0.09088957;0.036785968;-0.06662723;0.0010399934;0.12818703;-0.26361528;-0.05164529;0.08265068;0.22626881;0.2807528;-0.18217827;0.03921708;0.051127862;0.030439258;-0.061925054;0.07974363;-0.03867115;-0.03857936;0.4128605;0.11242984;0.1787984;-0.22372578;-0.3734938;0.07449472;0.2740643;0.30541655;0.1195266;0.14618832;0.4234735;0.049278725;0.13035801;0.0003340994;-0.09333767;-0.011628535;0.028753985;0.034148518;0.16155086;0.5440115;-0.024077166;0.025784897;0.02298183;-0.033255756;-0.11466336;0.27767897;0.17336375;0.07561091;0.040473063;-0.04504049;0.21524672;0.27238587;0.031540833;-0.02665081;0.11429957;0.123575605;-0.0025219556;0.08791607;0.034146007;0.16655885;0.0061290567;0.21730952;-0.09127656;0.1770049;0.040721115;0.36072788;0.060222447;0.31061643;0.30094576;-0.40014398;-0.02928431;-0.052420832;0.17115164;-0.02875738;0.20751457;-0.15895554;0.34030065;0.21204099;0.39781067;-0.2840568;-0.047996208;0.014874319;0.36617416;0.0017631189;0.07931846;0.10132882;0.1890422;0.24502736;0.25033504;0.023640474;-0.025713507;-0.24461478;0.044698555;-0.03064762;0.17550352;0.1457668;-0.01928173;-0.012043841;-0.008784256;-0.04656011;0.15151055;0.1405844;0.14909004;-0.10063968;0.20078675;-0.006806131;-0.059878483;0.080502465;0.03661262;0.18827547;0.01898507;0.0031051475;0.24398534;0.09789305;0.018309006;0.529996;-0.017927634;-0.072364084;-0.18800369;0.32772684;0.18818647;0.24925107;-0.018637724;0.060958296;-0.027226007;-0.052611522;0.013765952;-0.06381703;0.047900252;-0.01958195;0.021171754;0.44721913;-0.25848618;-0.1192587;0.25928947;0.07180998;0.07582643;-0.19731161;0.009592376;0.07705962;0.44078544;-0.07393293;0.11340286;0.013502743;-0.02544249;-0.23913567;0.09350844;0.17118874;0.06456132;-0.027838614;-0.0033072263;-0.039646037;-0.013814204;-0.043426156;-0.019586219;-0.049241763;0.074558765;0.00761084;-0.06631525;-0.0070424844;0.11680385;-0.060687065;0.1495503;0.023522332;0.29157007;-0.06318234;-0.21067111;0.1946784;-0.048312057;-0.03151969;0.15080866;0.33349136;-0.012991115;0.074331455;0.08282163;-0.08939345;-0.12547141;0.096169814;0.0014831512;-0.05622032;0.03495011;0.6007301;-0.15355118;0.22436364;-0.38232553;-0.04258223;-0.13440704;-0.06077705;0.045359667;0.0069613485;0.0037436697;0.5147097;-0.060739543;-0.2532932;-0.010630248;0.06837309;0.106111094;-0.15458538;-0.011264185;0.07269031;0.1234748;0.27348056;-0.07965005;0.10905611;-0.06722199;0.00491274;0.28135252;-0.058412928;0.018609727;-0.1654732;0.16487923;0.013545449;0.011040477;0.15489501;0.10292502;0.10619845;-0.019064154;0.17852119;0.02941596;0.45329115
-0.07438017;0.07144641;-0.003252789;-0.33321765;-0.055645622;-0.024116192;-0.17166345;0.10600888;-0.041298304;-0.049684186;0.18462138;-0.081916444;0.04245507;0.013352656;0.2852116;0.018257279;0.0077050077;0.07070305;0.39273894;0.072184;-0.081524305;-0.023725638;-0.0511092;-0.083348684;0.01945757;-0.024602922;-0.015823692;0.16091786;0.108648784;-0.022663334;-0.12451596;0.06407085;0.3244506;-0.027455952;-0.040062606;-0.09481121;0.021819662;0.30420402;-0.009917194;0.46578375;-0.0032204867;-0.011333599;0.31282404;-0.13279918;0.10370287;0.5060592;0.012607545;-0.1272339;0.10679927;-0.2685193;0.030861678;0.19467978;0.31886542;0.4514849;0.46237233;0.04251272;0.15500335;-0.13023017;-0.0018083622;0.043580424;0.0013592441;-0.09723753;0.0152538195;-0.052867543;0.38460058;0.05034925;0.05159497;0.12360944;-0.10821111;0.08239356;0.09159938;0.016917324;0.37654883;0.17678131;0.079526685;-0.041631404;-0.22832136;0.4617201;-0.057348352;-0.022326134;0.055138655;0.3505809;-0.053751785;0.03481873;0.000286978;-0.08320835;-0.044884972;0.16428937;0.062371206;-0.045873195;0.24818367;-0.018961975;0.049491744;0.1669011;0.2918019;-0.022440927;0.039147656;0.37482622;-0.072523765;-0.18386553;0.0428177;0.23972459;0.21404941;-0.113919966;0.27691305;-0.5334526;0.045644887;0.032099996;0.083063565;0.5185357;-0.030105563;-0.1472277;0.043784298;0.29837313;-0.2480497;-0.038994025;0.0077971527;-0.10606448;-0.074677765;0.2627096;-0.21330822;0.04740322;-0.40701318;-0.2776463;0.083301485;-0.0710981;-0.108909495;0.075963594;-0.023257269;0.38241282;-0.13689634;0.1863057;0.2817793;-0.017489495;-0.012512917;0.020211084;0.3656804;-0.04192517;0.1368991;0.101417124;0.030828709;0.40961206;-0.029929908;0.04473785;-0.09369759;-0.066279024;0.119517334;0.003777217;0.05863894;0.07401791;-0.07647079;0.04795238;-0.08917894;0.22917248;-0.11274546;-0.018594695;0.12494267;-0.16841663;-0.023120135;-0.31194848;0.16182163;0.19135712;-0.09756989;0.017241951;-0.103614986;0.1751248;-0.05986071;-0.09937877;0.2456332;0.07104216;0.082385495;0.020947333;-0.06461962;0.09280294;0.29945272;-0.02773258;0.06529636;0.20588224;0.26591924;0.0030686888;0.010189925;-0.1131406;-0.0076851207;-0.12942666;0.043384306;0.0994423;-0.06482808;-0.06473698;0.37067443;-0.04402785;-0.25334185;0.20945655;0.41291723;-0.02107999;0.43174624;0.29697242;0.104874;-0.02733449;-0.071069166;-0.3423346;-0.23723958;0.37073782;-0.2443259;0.026481574;0.24591702;-0.02107774;-0.13670495;0.11144059;0.38500953;-0.0713877;0.13946712;0.3170319;0.06291626;-0.060145658;0.004486156;0.0117200855;0.44660875;0.3097386;0.2546166;0.31869793;0.046535898;0.23407756;0.1837169;0.054071758;0.303548;-0.04856793;-0.5186634;0.019168884;0.29820603;-0.025239242;-0.004685415;0.40615433;0.13152313;0.2112882;-0.12213411;0.0061882576;0.013858671;-0.061706886;-0.042479035;-0.12559555;0.18440574;0.17658149;0.15434022;0.031834602;0.26510054;0.060720515;-0.388241;0.032078356;-0.024464669;0.0085277185;-0.018414749;-0.03737683;-0.09376642;0.41769;0.07431786;0.33070233;0.23384793;-0.08622095;-0.036723185;-0.031844757;-0.051909704;0.079010814;-0.03694408;0.022296509;-0.055824745;0.06957594;0.057535153;-0.0035950472;0.42987245;0.007565702;0.046492793;0.022507826;0.22500384;-0.03525078;-0.06994734;-0.014113815;0.047716554;0.18388288;-0.024529578;-0.0032749383;0.06379952;-0.06862448;0.34848088;0.038523667;0.22904703;-0.12470622;-0.04924603;0.0949561;0.056280233;-0.20462862;-0.008927243;0.2412983;0.29809794;-0.0792971;0.18976286;-0.013251956;0.041318394;0.01062891;0.032902535;0.0010332171;0.03601902;-0.0066774744;-0.019489022;0.10261132;0.30863553;0.2417514;0.3098146;-0.020848785;0.065995194;0.18076761;-0.1356753;-0.014936575;-0.14222121;0.0341001;0.09545172;0.03992687;0.27512568;0.33680397;-0.0700075;0.07712327;0.29298034;0.4004292;0.380425;-0.031165438;0.0130527755;0.24549307;0.101208396;0.0014099857;-0.053447254;-0.02893665;-0.04812991;0.058318526;-0.022360964;-0.058374166;-0.52359647;0.06316807;-0.032902393;0.23918211;-0.51758933;0.04087825;0.044215977;0.13602452;-0.029657159;0.30544558;-0.090381026;0.012872404;0.018788094;0.08582906;0.0481009;-0.011362092;-0.0604046;-0.17106861;0.06222953;0.22132893;-0.029959867;0.33495292;-0.08665214;0.2660986;0.10381883;0.012711956;-0.041109357;-0.0053014266;0.10578113;-0.1930638;-0.023995202;0.058214244;0.1672903;0.14823626;-0.22261691;0.08931282;0.05527041;0.011810559;-0.007376139;0.067459956;0.054493323;-0.04712816;0.42243716;0.16829011;0.25871512;-0.18365288;-0.42863965;0.19320957;0.2352074;0.28627485;0.19324706;0.22563994;0.24048606;-0.028832631;0.13425635;0.0055888183;-0.012034538;0.0628873;-0.04501786;0.045446724;0.29727712;0.5271427;0.065865256;-0.035665974;-0.00010391893;0.07748829;-0.1788848;0.23866934;0.12186127;-0.037352033;-0.059244893;0.06018937;0.10379872;0.24682711;-0.1287623;0.03109914;0.09679023;0.023761485;0.15014105;-0.03216423;0.10516526;0.16291761;-0.0127457585;0.21570703;-0.06772457;0.2504103;-0.069978416;0.37430772;0.05036308;0.33154714;0.32154557;-0.45949578;0.033968803;-0.13274203;0.16650675;0.0040048365;0.18571381;-0.23438953;0.3097919;0.1371739;0.36054564;-0.15437952;0.0026602382;0.028493812;0.34393936;-0.012165008;0.04592165;0.10318087;0.07892026;0.2549443;0.190736;0.03550907;-0.03739445;-0.19986197;0.012434456;-0.05134167;0.22861382;0.09060547;-0.018271927;0.06952535;-0.022174371;-0.06177388;0.23228505;0.10794825;0.06153982;-0.20669012;0.14898586;0.011208196;0.014997046;-0.06253358;-0.07780491;0.200766;0.034020316;0.07218174;0.13378316;-0.06316693;-0.011857524;0.44317746;-0.041529875;-0.08486437;-0.27241763;0.25175226;0.18050914;0.08716485;-0.044979535;0.0051064985;0.056058604;-0.037639078;0.050243333;-0.054893613;0.10008037;-0.038438696;0.09136512;0.30911216;-0.26639867;-0.062060673;0.2488463;-0.0026984431;0.037961747;-0.1098102;0.08065801;-0.06311216;0.3735208;-0.07401466;-0.0010245877;0.10637518;-0.022861414;-0.22053789;0.08156604;0.33004126;0.05188281;0.033015136;0.052815568;0.045553397;-0.020942396;-0.26214796;-0.029909939;-0.079214975;0.07199057;-0.067698136;0.011195508;-0.00027168362;0.13483714;-0.003196256;0.14440216;-0.015422353;0.19253516;0.0017305296;-0.17723459;0.25334638;-0.065100156;0.03664073;0.29305583;0.3168639;0.00040534206;-0.05786809;0.11649081;0.014934134;-0.10051309;0.07627405;-0.122263946;-0.040775057;0.038620714;0.51272434;-0.039953288;0.20619568;-0.33412322;0.030883973;-0.0824296;0.019454485;-0.05173066;-0.11548321;-0.027095787;0.47485247;-0.02254113;-0.33526555;0.035888407;0.01849453;0.067249656;-0.14729826;0.014650533;0.18427391;0.092936285;0.25620678;-0.017808506;0.11324163;-0.221947;0.006086884;0.1752516;0.004121099;-0.04440371;-0.16898578;0.19162045;0.028842641;0.0038032006;0.053168066;0.073829785;0.04111708;-0.16231371;0.32020658;0.051240243;0.4973088
-0.17151882;0.11605728;0.046616353;-0.40288588;0.02442908;-0.02819999;-0.16253579;-0.054318395;-0.07974383;0.06548761;0.020197976;-0.12367454;0.044321463;-0.04971322;0.29443473;-0.002606273;0.033377793;0.0902428;0.435727;0.14352393;-0.04049332;0.008914173;-0.1405095;-0.10050881;0.07379217;-0.0058233556;-0.093905486;0.22617146;0.17266624;0.16474712;-0.073945366;-0.024204632;0.39280966;0.005463969;0.084277876;0.0027069503;0.010834085;0.32282892;0.092036135;0.40640095;0.053220008;-0.059549376;0.26181924;-0.019535186;0.09931914;0.46104437;-0.036317103;-0.13702838;-0.04302988;-0.11013367;0.0026474525;0.11131897;0.2549065;0.48743606;0.40303877;0.0656147;0.13203248;-0.21370235;-0.031356156;-0.03741068;0.00795319;-0.047670685;-0.061949294;-0.03988089;0.43475065;0.2841575;0.02740196;0.045708824;-0.13168053;-0.034107465;0.08222518;-0.050464347;0.2964024;0.17537098;0.18593614;0.046809353;-0.040132016;0.3756979;-0.049199555;0.0735521;-0.05538497;0.46182203;0.07847989;0.16135725;-0.0765451;-0.043437578;-0.024904476;0.03780758;-0.033147514;-0.008031892;0.28206336;-0.014295474;0.10661568;0.3118629;0.26870063;-0.07335395;-0.047244873;0.3271846;-0.06271744;-0.10016105;0.07545925;0.24493016;0.28123736;-0.023459386;0.16610491;-0.4134245;0.045516774;0.09223345;0.17855974;0.40906495;0.028140046;-0.31933683;0.015696311;0.40044108;-0.20448735;0.00912;0.0026451026;-0.09703149;-0.21651383;0.16408013;-0.16140357;0.13414593;-0.35864067;-0.26305643;0.18951994;-0.16032547;-0.019377125;0.05410624;-0.120435745;0.30391788;-0.02703503;0.15536155;0.37414855;0.09628134;0.08640493;-0.06827603;0.33268332;0.083704256;0.015112912;0.12038298;-0.01195724;0.36311674;-0.055687714;-0.17681845;0.014148836;0.007094078;-0.070275575;0.09741005;0.10567258;0.15944317;0.029667305;-0.052334674;-0.080565944;0.18982215;-0.011521536;0.16810556;0.04696196;-0.049976245;0.0235726;-0.3159379;0.10908789;0.17554575;0.034576543;-0.016453464;0.04245414;0.09911608;-0.050921783;-0.14592552;0.24739355;0.10360519;0.17534828;-0.032428697;-0.19899467;0.11425893;0.21726644;-0.13666579;0.029231198;0.1974844;0.17671256;-0.04771679;0.0039862483;0.05036388;0.10651105;-0.16172877;0.05233627;-0.029879982;-0.046283074;0.019015767;0.3036197;-0.014793478;-0.072884634;0.07905083;0.2539046;0.007051084;0.4051113;0.11064404;0.15605584;-0.018713359;-0.21522518;-0.14403427;-0.14918514;0.2519757;-0.23122832;0.036339354;0.110949;0.03330274;-0.03252788;0.22289991;0.26563317;0.08715849;0.12548399;0.25546253;0.052542094;-0.027634064;-0.009667031;0.019732652;0.37985328;0.35906667;0.41260502;0.35630175;0.07674999;0.11014219;0.083045736;0.016976425;0.27368978;-0.04485369;-0.4431099;0.013598823;0.3717452;0.059567936;0.009520032;0.32929066;0.014676426;0.23157495;-0.092821434;-0.021184202;0.008147617;0.039432064;-0.012439593;-0.10220084;0.20462315;0.05693932;-0.023347443;-0.049145017;0.24018875;0.112980545;-0.26146397;-0.08717015;0.023422018;-0.052587964;0.13040906;0.009162891;0.010978069;0.46519065;0.009689787;0.35454598;0.2669288;-0.029264836;-0.13340433;0.015609502;-0.15577038;0.15185674;-0.019517755;0.022308115;0.003970833;-0.0067438064;-0.03816144;0.077252164;0.40156472;0.062412683;-0.023102889;-0.06731739;0.23504767;0.011241437;-0.025049424;0.035967186;-0.022241132;0.18568107;0.0352032;-0.021090785;0.038746446;-0.01634078;0.3759528;0.13462885;0.1536022;-0.107374914;0.058505304;-0.04513367;0.020337887;-0.33481127;0.10045807;0.31001386;0.49191713;-0.1513603;0.35342532;0.082928754;-0.11046166;-0.049789604;-0.0676098;-0.04838252;0.18355632;0.054244246;0.049201187;0.15824126;0.17690223;0.22486736;0.37459463;0.009891938;0.15049125;0.13171783;-0.10533446;0.025351645;-0.21422832;0.022555513;0.1564746;-0.063039705;0.41458166;0.26891747;-0.024181193;-0.018495986;0.3399192;0.44766223;0.2376321;-0.04103839;0.013356596;0.18948025;0.20881891;-0.042797722;-0.020937143;-0.021396287;-0.004118174;-0.017490203;0.049810007;0.09129386;-0.40390617;-0.019158801;0.116773345;0.16411403;-0.52806693;0.028578565;0.06946087;0.16327852;-0.025422996;0.39898983;0.035190195;0.086563624;-0.17299445;0.019646004;0.045259774;0.055540983;-0.056500614;-0.15154943;0.07767725;0.29645815;-0.01880965;0.2558007;0.03936306;0.11078732;0.04183889;0.013141591;-0.023315307;-0.07350994;0.09602018;-0.15485674;-0.04218182;0.1113028;0.11587293;0.18269947;-0.23249862;0.079924;-0.026301963;-0.072252646;0.06863784;0.09389615;-0.04173534;0.06404584;0.3455757;0.2676168;0.18736568;-0.113799416;-0.4390886;0.16609752;0.24066299;0.3634692;0.08972605;0.22192599;0.2696569;0.08521893;0.05134669;-0.04659341;-0.07234846;0.06819266;-0.037332814;0.06804376;0.2088783;0.42070228;-0.03999172;-0.017452613;-0.013095463;-0.052612666;-0.24759637;0.2205444;0.06305414;-0.036678452;-0.14756557;0.033364147;0.1977219;0.2662081;-0.040859725;0.031781558;-0.030488197;-0.08990028;0.19604136;-0.050237585;-0.010212766;0.1640564;-0.021003686;0.13749498;-0.008773077;0.11777638;-0.05873111;0.1822266;-0.05567875;0.18210058;0.25527525;-0.37047288;0.03258071;-0.11127065;0.18855025;-0.019784408;0.12176287;-0.25748873;0.28797933;-0.0470473;0.26254904;-0.27359033;0.012742403;0.05366457;0.4243473;-0.033398338;-0.031948335;0.07053931;0.092274144;0.17193156;0.105043046;-0.09270597;0.09923319;-0.30345237;-0.05316749;0.0027893833;0.1548735;0.16976549;0.08253299;0.06057553;-0.03608401;0.048147462;0.20374188;0.0038000848;0.26658562;-0.22828;0.24035472;0.052332718;0.12995295;-0.03745598;0.01840653;0.24074286;-0.023436904;-0.031006921;0.189433;-0.05064373;0.17563474;0.42379484;0.002287288;-0.07492669;-0.14192079;0.22732744;0.18153873;-0.036002226;-0.028258022;0.18121204;-0.06514333;0.032483228;0.1218591;0.01947185;0.098477;-0.044192024;0.11937332;0.32808995;-0.28789318;-0.1704933;0.40528578;0.09464838;-0.032945663;-0.027001312;0.064542055;0.0005662008;0.44242436;-0.12764303;0.12302477;0.12354673;0.07893134;-0.21631032;0.0037900042;0.33587718;-0.026290365;0.047332853;-0.024094975;-0.049359053;-0.022895005;-0.3227729;0.006329208;-0.020661082;-0.06034844;0.04100037;0.030623754;-0.041053053;0.11166873;0.082795955;0.13952252;-0.010548004;0.24610996;-0.0052716755;-0.16205864;0.34141985;0.072502;0.02979244;0.2543521;0.23648793;-0.03674274;-0.011955787;0.058489975;-0.060539354;-0.0556858;0.05406183;0.009807846;0.03892189;-0.017746916;0.5216089;-0.1278181;0.16325524;-0.2809189;-0.02744229;-0.046104524;-0.036862116;-0.033899985;0.04885549;0.058877796;0.5908725;-0.037760954;-0.18058257;0.016743042;-0.06440931;0.2127671;-0.071349725;-0.026537566;0.27686337;0.17054209;0.187673;0.09400098;0.04840859;-0.14040251;0.05167853;0.15140691;-0.023793934;-0.047099;-0.06581031;0.14456615;0.012804143;0.027279567;0.09610018;0.21911004;-0.016344652;-0.27347404;0.2603877;-0.0136871245;0.5422897
-0.05810325;-0.00886523;0.014493769;-0.34794548;-0.053195156;-0.03175396;-0.17946632;-0.062403936;0.0648172;0.05160362;0.02523055;-0.09260292;0.010310666;0.06337556;0.3657093;-0.0059786453;-0.08895088;0.1895657;0.41408977;0.22028334;-0.14024009;0.09287289;-0.015116935;-0.097042486;-0.06088905;-0.021904953;-0.005530785;0.23899235;0.11951549;0.08597963;-0.14672987;-0.07302649;0.43794692;-0.039648164;-0.056669902;0.05362387;-0.01679503;0.21417609;0.029940061;0.48824084;-0.049686145;-0.092161685;0.34468424;0.0866782;0.049072534;0.30966598;0.054604746;0.021504676;0.009821729;-0.05136544;0.024474554;-0.017242866;0.3759256;0.46707895;0.395459;-0.037975106;0.12683618;-0.13992812;-0.038944457;-0.09253931;-0.04240988;0.050259635;0.0802091;0.042032517;0.4331087;0.2835589;-0.07112244;0.08691835;-0.006215368;0.039122064;-0.0041172905;0.084798284;0.4201782;0.078562126;0.23577768;-0.04803582;0.071674615;0.44330248;0.082830794;0.0074189804;-0.024172742;0.30103126;0.0089242505;0.03190104;-0.09557119;0.008446357;0.009212695;0.14257182;0.048583888;0.047195032;0.26060814;-0.0075435257;-0.055451654;0.2421681;0.1569301;-0.07218054;0.11093095;0.35222438;-0.13544773;-0.10608104;-0.035781965;0.16546279;0.07092769;-0.07566941;0.20873107;-0.40463257;-0.029126365;-0.014582383;0.10732663;0.39319432;-0.0470495;-0.2613796;-0.006284103;0.31470454;-0.15342186;-0.019617986;0.021600196;-0.17808934;-0.0031391452;0.15092534;-0.15514678;0.11564847;-0.40995884;-0.29396212;0.10685756;-0.072009385;-0.08208979;0.18284416;-0.052407533;0.25051504;0.02200212;0.24667938;0.34298402;-0.020007854;0.022989107;-0.01513254;0.36258978;-0.016369976;0.065738544;0.16513354;-0.024953894;0.3758019;0.044977013;-0.14064437;-0.022810727;0.07051574;-0.048898533;0.0038326194;0.14806174;0.100649625;0.06236675;-0.15865786;-0.13893121;0.14929526;-0.01813159;0.11379152;0.19215117;-0.17469615;-0.007973387;-0.16864033;0.25604126;0.20762847;0.0019089583;0.055634066;0.037214804;0.10728944;-0.012078835;-0.22129214;0.109884895;-0.068362564;0.20946817;-0.054198686;-0.21954209;0.12938523;0.100231364;-0.053591933;-0.046549946;0.104714654;0.20306484;0.06789257;0.05796842;0.028055722;0.12006573;-0.17354983;0.0020588883;-0.018603137;0.073236;-0.042934727;0.33620694;0.044134412;-0.10961668;-0.0045925225;0.20207474;-0.04140137;0.45035717;0.16211407;0.15498829;-0.093057185;-0.24022092;-0.27536905;-0.16303545;0.172986;-0.22691149;0.09901917;0.10667921;0.097253844;-0.0949318;0.1762153;0.30102384;-0.0115896445;0.19280209;0.22136049;-0.007916983;0.04506549;0.03723923;-0.0076904474;0.31713602;0.19585203;0.2622081;0.24514477;0.09434763;0.08035473;0.107217744;-0.07768345;0.33543572;-0.11184547;-0.3574437;0.14834855;0.5100867;-0.032690905;0.008325359;0.29938245;0.04985198;0.33707672;-0.010017108;0.14914511;0.09206693;0.06355054;0.04923648;-0.026066415;0.08127211;0.15219346;0.016541924;-0.03413365;0.34167942;0.07396375;-0.23325019;0.118586;-0.020805469;-0.09817977;0.075793214;-0.0037630156;-0.024724709;0.5001943;0.029176502;0.29808396;0.19790252;-0.1337913;0.054312415;0.011896749;-0.1393735;0.1678457;0.012646425;0.01624029;0.0636399;-0.009889914;-0.10517705;0.083892755;0.39912513;0.036930803;0.059902433;0.039572336;0.17272253;-0.05785923;-0.070597656;-0.06835992;0.009409158;0.13919888;0.03274562;-0.031590443;-0.053658687;-0.17414218;0.40164936;0.1897641;0.14516217;-0.13147198;0.01563871;0.041001175;-0.03645314;-0.3639107;0.19939546;0.33519953;0.38712096;0.047743216;0.3092263;0.09446248;-0.114346355;-0.25641024;-0.065374434;0.049324892;0.03560022;0.05992531;0.051595114;0.07289772;0.1986378;0.069562554;0.33278093;0.04223448;0.22989997;0.2454384;-0.22789253;0.0050036856;-0.06692789;-0.050336726;0.21835019;-0.08760824;0.3325684;0.30111074;-0.008693791;-0.037181366;0.25454167;0.33987662;0.43239123;0.0913598;-0.058241177;0.34633756;0.17738064;0.015194972;-0.04050901;-0.019662859;-0.033966795;-0.0046119946;0.008042403;-0.04766633;-0.3467279;-0.03615638;0.16746596;0.11146041;-0.5158442;-0.08347317;-0.0065311394;0.13799302;-0.029068282;0.31116176;0.05670383;0.055092197;-0.0952874;-0.030389745;0.0399188;0.029233245;0.0031722735;-0.1709497;0.038956188;0.2035247;-0.0060358583;0.14361241;0.024156814;0.0883304;0.0634635;0.103712745;0.063587025;0.055168666;0.10257465;-0.12724988;-0.053577855;0.1363012;0.065868475;0.2991754;-0.07477541;-0.049890395;-0.061077446;0.03528306;-0.027735028;0.101362765;-0.06875292;-0.0012651422;0.22444385;0.3477522;0.15155543;-0.17646828;-0.5069308;0.17314643;0.17775933;0.3309322;0.113678046;0.25239977;0.22690052;0.00019825398;-0.0738977;-0.20299755;-0.048258472;-0.022022791;-0.004740857;0.06656007;0.018066581;0.2956985;-0.030140817;-0.012771494;-0.011361301;-0.014041696;-0.22916488;0.27436367;0.23277213;-0.040282667;-0.14516273;-0.05734936;0.11545278;0.15529783;-0.03861606;-0.030250197;0.113226674;-0.025759397;0.13451019;-0.016433515;0.0525487;0.32091;-0.07067477;0.17995952;0.18315823;0.24388154;-0.025630692;0.24156676;0.008089673;0.15219076;0.23522776;-0.27528182;0.020120049;-0.032147627;0.11276377;0.0023068627;0.21074072;-0.15380551;0.18958281;0.022590788;0.2509007;-0.1665687;0.031233769;-0.036796886;0.31851578;-0.017640235;-0.022722902;0.024390727;0.1560842;0.17855296;-0.026980544;-0.011233123;0.039683137;-0.27147532;0.013680936;0.056387004;0.034070555;0.25544044;-0.046299603;0.21862671;0.005634993;0.015985746;0.23733705;0.14666156;0.26861525;-0.19146535;0.22217773;0.044242367;0.20630275;0.04628799;0.029282197;0.24540843;-0.030633932;-0.023140095;0.21462703;-0.06513977;0.11009409;0.42280427;0.04676351;-0.076372564;-0.22465122;0.11506213;0.20288052;-0.06524662;0.024993429;0.20312916;-0.044669192;0.09182867;-0.04077608;-0.013121896;0.038209684;-0.15238975;0.20398636;0.354879;-0.2677723;-0.17904672;0.31198603;0.1303449;-0.08448953;-0.06262088;-0.019153943;-0.046136025;0.47445184;-0.09646067;0.116680816;0.2489583;-0.019712431;-0.1976242;-0.058543447;0.3417684;-0.059261423;0.048125394;-0.050451845;-0.04262903;-0.16677785;-0.22101435;-0.0667583;-0.11927437;0.026895251;0.060695443;0.074054055;0.030068174;0.15690047;0.060960185;0.08005568;0.056589264;0.05333159;-0.008213437;-0.15358041;0.25829786;0.07876577;0.031565767;0.27557305;0.23554835;-0.018852945;-0.08659922;0.08477454;-0.06052309;0.059540074;0.1916514;0.037297156;-0.06665008;0.06078089;0.49298397;-0.081018746;0.2039979;-0.18603443;-0.054555126;-0.068039626;-0.070468575;-0.10228806;0.020511454;0.17295474;0.44859985;-0.058421373;-0.2807258;-0.001656983;-0.038618624;0.15946248;-0.18396875;0.07164918;0.13822651;0.1357173;0.008213324;0.13999406;0.033251043;-0.115496136;-0.025130995;-0.011289778;-0.028422814;-0.014873577;-0.057064872;0.2372167;-0.054741044;-0.069610335;0.17843862;0.26315773;-0.11018113;-0.36534214;0.16138344;0.052543048;0.46939018
-0.073463604;0.00067419966;-0.059547044;-0.32158756;0.0004111838;-0.056920346;-0.10079911;0.075736165;0.12031729;0.07719053;0.008817364;-0.13043243;0.061754253;-0.02183379;0.4291257;0.039912645;0.06845664;0.07226375;0.43276718;0.18044318;-0.12570196;0.02630451;-0.06895633;-0.045099035;0.057485353;-0.037421387;0.05385207;0.20943013;0.06958875;0.067189;-0.10628813;0.05133204;0.38153866;0.036771815;-0.0077984002;-0.036640193;0.040631723;0.26113707;0.050476734;0.5022416;-0.029063102;0.08331008;0.45845118;0.066139214;-0.045974746;0.41421798;-0.018727459;0.007450143;-0.018009402;-0.032167822;-0.017653434;0.06552593;0.2722972;0.52346313;0.24731432;-0.017338604;0.024581594;-0.18232855;0.048337977;0.065761015;0.05691365;-0.017286083;-0.057219923;-0.048863173;0.36921945;0.2690144;-0.036462467;0.102778554;-0.13113198;0.026954675;-0.060392383;-0.0760371;0.3559389;0.031178102;0.26630685;-0.048730418;0.027612543;0.37410787;0.03364869;0.023396993;0.06420357;0.46923637;-0.06365552;0.00507769;0.005798385;-0.036469907;-0.042143397;0.16954096;-0.03444888;-0.04967175;0.2336248;-0.0011146872;-0.05614538;0.2999526;0.2236902;-0.17061916;-0.006030492;0.35855103;-0.18663949;-0.079141036;-0.08617338;0.17217506;0.1168315;-0.20232426;0.23820516;-0.49632046;0.07305471;0.040942088;0.22058938;0.4898739;0.016160902;-0.3683347;-0.03882516;0.39117005;-0.20520492;-0.053335708;0.018903624;-0.2181225;-0.11505807;0.1799274;-0.08749635;0.06580202;-0.49348468;-0.23678997;0.15293282;-0.09897988;-0.04318784;-0.087622024;-0.01459757;0.29764354;-0.024558783;0.34077018;0.31800187;0.010723342;0.21273889;0.056177177;0.24204002;0.014658937;0.0021412165;0.10701513;0.014376;0.3583347;0.042563815;-0.17781551;0.023352182;0.03552862;-0.037588328;-0.012792064;0.07203546;0.18131346;-0.052624963;-0.109288305;-0.05512631;0.20290911;-0.056361724;0.15285565;0.26306084;-0.21384749;-0.053568333;-0.3652747;0.23961103;0.16005842;0.04149828;-0.016211808;0.055868343;0.10196264;-0.07079113;-0.17390074;0.1860037;0.037412647;0.061997462;-0.039430536;-0.13405833;0.16517295;0.08197853;-0.050882448;-0.028109202;0.1042602;0.20757623;-0.07921011;-0.0011814651;-0.006286327;0.16875271;-0.15624319;0.04488966;0.031894986;0.05516141;-0.023643032;0.33460623;-0.002343777;-0.17430341;-0.013556486;0.19600888;-0.02723549;0.3903448;-0.012532022;0.21230899;-0.07025822;-0.06863468;-0.30335167;-0.23168075;0.17082061;-0.14945246;0.029529901;0.08627318;-0.023858512;-0.0046101077;0.31269422;0.36329648;0.10101677;0.17406456;0.33793548;0.018412609;-0.005436836;0.008806383;-0.03428557;0.35380697;0.25320473;0.22234657;0.21699293;0.110706225;0.06233315;0.064837806;0.039231148;0.2862006;-0.23516308;-0.36556077;0.1489463;0.49750632;0.07499242;0.027702179;0.19774474;0.120926075;0.18328512;-0.08401372;0.047287244;0.117463194;0.042694416;-0.005109255;-0.005016262;0.1688309;0.16671975;0.10721015;0.064916015;0.3515442;0.025702704;-0.26873612;0.19616248;0.010231613;-0.033786867;-0.044422578;0.0052713268;-0.016072368;0.4327678;-0.06894601;0.23858444;0.12246581;-0.12303594;-0.04746553;0.00074076455;-0.24838361;0.0060240924;0.029758649;-0.039887674;-0.05424143;0.12662704;-0.1446802;0.19378889;0.2868105;0.12527202;0.0700923;0.06616227;0.23366556;-0.104129404;0.0064080367;0.061174188;0.0046338704;0.20578858;0.00022836505;0.0082736565;-0.041904453;-0.17411064;0.4552398;0.15007733;0.12052455;-0.019404637;0.018437956;0.009903336;0.008873968;-0.32904777;0.05603188;0.33405682;0.35602862;0.03119739;0.28459227;0.08907268;-0.09732484;-0.28327796;0.051235724;-0.03042865;0.088347994;0.015839541;-0.009371244;-0.054367617;0.21138968;-0.0062513244;0.37717628;0.06636427;0.19351642;0.24153274;-0.021154905;-0.022614755;-0.22157042;0.05847097;0.05426856;-0.11477319;0.29103208;0.29517978;-0.10762041;-0.051838923;0.3072;0.3739755;0.33817053;-0.020825462;-0.07397253;0.18047059;0.09333345;-0.018020464;-0.03939155;0.03225683;0.050191525;-0.08841124;-0.06556351;-0.051290732;-0.37215275;-0.049875945;0.20665322;0.14893684;-0.50579053;-0.007134465;-0.04289468;0.15836729;0.02452595;0.11896167;-0.055929903;0.0885909;-0.12213026;0.08219017;-0.02932353;-0.02446967;0.010053007;-0.22980948;0.07550643;0.25791588;-0.040544935;0.22237663;0.12334129;0.08087681;0.008668921;0.10114686;0.0048718276;-0.05221618;0.06855417;-0.072776414;0.10633643;0.17298518;-0.008429372;0.23099773;-0.27730545;-0.089099206;-0.055966232;-0.015083626;0.03890558;0.0657336;-0.103526406;0.020210987;0.21186367;0.30500567;0.21668503;-0.24715662;-0.5915846;0.12757678;0.2653892;0.30948058;0.038780913;0.26252463;0.15375079;-0.08130933;-0.061033454;-0.24094935;-0.027782334;0.012227206;-0.0024564213;0.09836917;0.003213023;0.45235205;-0.045088336;-0.05830995;-0.04696287;-0.033963215;-0.29925558;0.24021173;0.17306069;0.023639172;-0.21563028;0.00787992;0.06962986;0.18164197;0.037870564;-0.06058632;0.04373874;-0.033064723;0.21080677;-0.0023718316;0.0016111014;0.2298317;-0.09550858;0.09692485;0.12408459;0.21794425;0.042941455;0.15778616;0.041678976;0.16736276;0.36188257;-0.39470455;-0.03098371;-0.15474127;0.08176908;0.020797633;0.1472847;-0.19931859;0.31438127;0.07572091;0.2010158;-0.15771522;-0.073038705;-0.029087787;0.3001555;0.078544706;-0.011838478;0.10057104;0.21648374;0.25527754;0.06928328;-0.06814715;-0.04634194;-0.33910507;-0.040012356;-0.02238384;0.04841698;0.17646474;-0.037911046;0.25492126;0.054286722;0.039865114;0.14536658;0.14430611;0.1788205;-0.10031269;0.12316764;-0.028377501;0.24119855;0.06660735;0.03979881;0.2645387;0.15162522;0.069413036;0.12045167;-0.19834855;0.29905748;0.46702138;-0.027315814;-0.17755032;-0.37770584;0.22588672;0.20450033;-0.04293237;0.037159313;0.24018429;-0.043766823;-0.018318078;0.08457648;-0.013216631;0.06753854;-0.14524081;0.16807722;0.3759378;-0.32523695;-0.06862527;0.35997564;0.15014113;0.06777058;0.048249703;-0.014605132;0.0074777296;0.51476204;-0.03561453;0.035727926;0.3143236;-0.040783517;-0.23252922;-0.15600827;0.3407068;0.008882301;0.052314427;0.0632552;-0.027187884;0.044897117;-0.18816613;-0.042569075;-0.11362159;-0.05230231;0.024305891;0.08440372;-0.009203599;0.1302109;0.15948471;0.064646944;0.015377165;0.10215912;0.04905058;-0.26769906;0.26576006;-0.05469168;-0.035382953;0.19230334;0.20890938;0.025467345;0.031235572;0.07028138;0.026882086;0.14855736;0.10023682;-0.09268407;0.058253977;-0.020655867;0.4870623;-0.033433054;0.22289488;-0.13786976;-0.033971388;-0.08982691;0.059811056;-0.08525218;-0.14461972;0.2461719;0.56432956;0.012856432;-0.17542428;-0.0644942;-0.028140044;0.1835533;-0.13824603;0.006393164;0.26254088;0.14512254;0.08119908;0.18176651;0.17453818;-0.050157126;0.09744521;0.06035066;0.054953333;0.14295833;-0.091995955;0.1277404;0.012693964;0.009999657;0.15141378;0.15716974;-0.034880668;-0.32307777;0.15005364;-0.00032153088;0.48340932
-0.08109249;0.021255467;-0.069126725;-0.33934975;0.041375548;0.04168547;-0.09969757;-0.058824003;0.021415705;-0.087813154;0.07909232;-0.21575178;-0.06614914;-0.021732638;0.4254001;-0.07509942;-0.034860596;0.19724028;0.39856875;0.17949273;-0.15194158;0.036319673;0.07464428;0.009497283;-0.037419785;0.003905157;0.026354017;0.14819555;-0.04991255;0.13123392;-0.14561462;0.07730313;0.4193813;-0.018403526;-0.04337402;0.03614892;-0.07267541;0.2991627;0.08397001;0.50864553;-0.075822294;-0.016532315;0.3187734;0.11245757;-0.096568614;0.24645805;0.030572584;-0.055706836;-0.048031658;0.050321937;-0.01499831;-0.03674006;0.23446889;0.60801405;0.3260519;0.0413149;0.15565996;-0.12546554;0.09620283;0.017251626;0.01810905;0.11163533;0.07957249;0.012660375;0.38688484;0.22067799;-0.023042856;0.08251154;-0.022570588;0.0110354815;-0.06623765;0.006093352;0.21824573;-0.013456832;0.2431197;0.04371197;-0.03202098;0.37247992;0.024911975;0.05467445;-0.042005513;0.39271003;0.00072518666;0.12531863;0.07999646;-0.11728061;-0.047910128;0.17456272;0.07139896;0.0301948;0.20324123;0.07087601;-0.06389122;0.13225228;0.046794992;-0.19679432;0.057210587;0.37742767;-0.17504063;0.07702448;-0.0065460885;0.17169532;-0.057648677;-0.13282017;0.2566239;-0.53379637;-0.041793685;-0.035950948;0.16581579;0.32735342;0.0012618738;-0.22279906;-0.02575932;0.46957698;-0.14640233;0.049251605;-0.018080099;-0.17433338;0.042419307;0.2376823;-0.07930824;0.08396119;-0.39484268;-0.28942138;0.092457935;-0.069355786;0.0773053;-0.010563857;-0.0037971549;0.13989682;-0.009240194;0.3065478;0.31430918;-0.041673478;0.13610809;0.009744198;0.22172585;0.037562612;-0.018696973;0.24460064;-0.016584164;0.27281544;-0.03644151;-0.403429;0.04212463;-0.058751944;-0.007492222;-0.015160699;0.14458655;0.01618674;-0.027709909;-0.18137445;-0.002611473;0.22799294;0.00010832331;0.2691121;0.14824693;-0.22169265;-0.05598675;-0.25334206;0.1240487;0.22319843;0.097062215;0.00965656;0.016118217;0.15417267;0.061638456;-0.37285087;0.04663948;-0.0006265585;0.15145892;0.06733842;-0.15125377;0.2576523;0.049124036;-0.048437733;0.003357453;0.14371961;0.18151534;0.023694921;-0.024340725;0.01010139;0.16064891;-0.24413493;-0.0068057273;0.044513296;0.077124655;-0.1396579;0.28191888;0.02767251;-0.17188606;-0.051104635;0.25938702;0.029411212;0.2896081;-0.02934116;0.2996046;-0.073298514;-0.18427676;-0.30996415;-0.14423564;0.14533596;-0.071352854;0.0749712;0.18452536;-0.032308877;-0.007623792;0.36675513;0.3337079;0.15392657;0.17958982;0.2106108;0.05104687;0.044314966;-0.004142064;0.021354584;0.23352174;0.17823519;0.24633081;0.3409355;0.14085479;0.1011496;0.049591552;0.07844057;0.20816387;-0.16073588;-0.34316698;0.23014148;0.4415532;-0.024592588;-0.05214504;0.04970896;0.043209165;0.21686922;0.017319154;0.09522444;0.21057749;-0.07138054;0.023302807;0.16090342;0.069475986;0.09529806;0.077541724;0.046044905;0.25863504;0.11386269;-0.1840312;0.20702358;0.0042446884;-0.083908625;0.08083178;-0.040533032;-0.1298745;0.48008704;0.05297534;0.30373725;0.19640806;-0.111155085;-0.029299868;0.02443273;-0.25677878;0.11859939;-0.07391951;0.023075493;0.02001335;-0.008953737;-0.20013149;0.1281378;0.2586963;0.14665507;-0.07901764;-0.010541278;0.10227013;-0.1111004;0.037417762;-0.04750957;0.07799123;0.08621237;0.011965085;0.0643096;-0.023964526;-0.3497189;0.44521943;0.33595255;0.11220503;0.018136984;-0.012385776;0.0055785305;-0.043819036;-0.31581488;0.22991882;0.1949056;0.41799578;0.15308519;0.18151388;0.10284559;-0.15413086;-0.37767494;0.049973283;-0.023109602;0.07313189;-0.019805327;-0.055072602;-0.064330645;0.22951569;-0.036061928;0.31479064;0.051589247;0.19256528;0.06884546;-0.2136815;-0.014082495;-0.12871902;0.027167898;0.16696721;-0.100610495;0.2838105;0.23345414;-0.053563762;-0.0003577123;0.26833844;0.3272398;0.21074414;0.049878012;0.05835706;0.24151464;0.23013058;0.06988905;-0.009858455;0.066582315;0.0075354916;0.0050262907;-0.04432592;0.011215417;-0.39701945;0.028784739;0.10719927;0.11918046;-0.61196923;0.05866203;0.023458844;0.23094562;-0.02459435;0.044094373;-0.111017585;-0.01821651;-0.012471531;-0.07783781;-0.040594466;-0.056023736;0.055319965;-0.3601606;0.034571808;0.18123402;0.029115632;0.18234527;0.12513803;0.09400413;0.08022517;-0.0018562782;0.082502924;0.08797284;0.08877095;-0.12849708;0.00475512;0.15664934;-0.078464165;0.30824226;-0.18166827;-0.04314248;0.045825567;0.01721166;-0.038653664;0.06005073;0.013476221;0.06300029;0.2775434;0.32966778;0.25119564;-0.1531615;-0.46965408;0.12353145;0.22852448;0.32804826;0.12908156;0.18314135;0.2755027;0.028326117;-0.083224945;-0.21635759;-0.049917817;-0.059736148;0.04377009;0.07118182;0.05175669;0.3299922;-0.012697362;0.077091984;0.030314315;-0.008033336;-0.19931501;0.2299322;0.12715454;-0.049514726;-0.11758802;0.002275591;0.08491809;0.10619439;0.022209402;0.035327166;0.18931511;-0.07775507;0.23005617;-0.020068265;0.05642986;0.13491191;-0.11405367;0.050789982;0.27566117;0.15523064;-0.0016732478;0.14908224;-0.015071077;0.19728556;0.28532937;-0.31816542;-0.12849668;-0.0906389;0.08060049;0.015165313;0.25659287;-0.16445638;0.3063594;0.07032834;0.14756438;-0.2423039;-0.06235365;-0.03272317;0.19981906;-0.04937926;0.027507562;0.039075878;0.14908025;0.21795943;0.024398308;-0.0154137835;0.06521994;-0.30338717;0.057564806;-0.008324865;-0.009930195;0.26034716;-0.038978495;0.26587722;0.08864233;-0.043952618;0.15623434;0.093529314;0.12046901;-0.161169;0.1774923;-0.044294056;0.18987076;-0.01917034;0.013998692;0.1690478;0.029603891;-0.05568444;0.110206924;-0.15729985;0.2573201;0.51175016;0.04649477;-0.20122373;-0.31068546;0.11791631;0.056859568;-0.1159514;-0.025077846;0.13343304;0.056447204;0.07934653;-0.05545666;-0.0018398745;0.10705357;-0.09198955;0.2017514;0.50460434;-0.2385112;-0.09814488;0.35504693;0.16922748;-0.011664042;0.0958245;-0.018555116;0.053189084;0.57297707;-0.029270971;0.10362123;0.26018256;-0.033162374;-0.1447977;-0.15629713;0.2775714;-0.026075052;0.21100332;-0.024561826;0.011867384;-0.040613025;-0.1639083;-0.17099209;-0.020503743;-0.04552588;-0.0479506;0.11648379;-0.010395562;0.14942896;-0.037559412;0.09981644;-0.039144024;-0.03368159;-0.018164447;-0.28498414;0.18697333;-0.0458415;-0.06752565;0.12135883;0.16594058;0.04672287;0.0094788885;-0.023112746;-0.0053427415;0.13013299;9.463699e-05;-0.03575045;0.043617167;0.03564201;0.4729255;0.02371006;0.22707316;-0.043571632;0.045826804;0.0082054585;0.055811975;-0.020403482;-0.14007315;0.37334323;0.50255454;0.05540906;-0.18703562;-0.04871715;-0.06409082;0.06166177;-0.20711415;-0.04522681;0.2568613;-0.017493123;0.059319474;0.08719485;0.055580586;-0.11272046;0.052324004;-0.05753696;-0.035277724;0.094381854;0.004213513;0.18952756;0.010628453;0.0011649189;0.029309079;0.29184985;-0.09174973;-0.24785337;0.17965472;0.026175788;0.52295256
-0.012622767;0.008110812;0.026325567;-0.44992334;0.012296914;-0.03699997;-0.13644949;0.05378808;0.09494564;0.02619055;0.07231795;-0.20746848;-0.033167478;-0.07614591;0.4324311;-0.021394385;-0.052919738;0.108962886;0.45474124;0.14764866;-0.23048793;0.036994677;-0.054267753;0.019184873;-0.037393413;-0.019165084;0.048477322;0.19378485;-0.038403854;0.17597026;-0.033864904;-0.056904204;0.27870372;0.0073059304;0.05430474;-0.09289018;-0.012030465;0.2131227;0.093048654;0.57759464;0.0342523;0.033609945;0.40451822;0.07193107;-0.10187734;0.34602344;-0.035755232;-0.09638269;0.060919095;0.09889733;-0.008614754;-0.15829276;0.21664861;0.55545634;0.2874347;-0.078090474;0.09797343;-0.14434354;0.12830485;-0.045619544;-0.035562094;0.14559779;-0.05134455;-0.0012217942;0.40117317;0.3000161;0.076303646;-0.0072031636;-0.02860069;0.042235646;-0.079594515;0.065568335;0.16368131;-0.027198318;0.18968718;-0.0533407;0.028209928;0.3022068;-0.050544057;0.08930319;-0.027121343;0.4310214;0.038955715;0.15138121;0.159269;-0.17318323;0.08002601;0.036305673;-0.068929724;0.02538643;0.059699994;-0.016826654;-0.018872354;0.110671625;0.17472467;-0.25152528;0.0510953;0.23647723;-0.13674003;0.08093559;-0.091114685;0.038031623;-0.053610664;-0.10076192;0.11367752;-0.4052034;0.07309675;0.043521617;0.17911944;0.34459147;-0.042767994;-0.2536119;-0.015607094;0.34889847;-0.23840691;0.021100866;-0.039855544;-0.06639643;-0.0486489;0.26335675;0.0073365085;-0.008807144;-0.51112145;-0.22949606;0.033871945;-0.07029705;0.13832104;0.045193344;0.110587135;0.091548555;-0.03099688;0.21697438;0.12109714;-0.02815546;0.20438182;-0.048165325;0.16093372;-0.004468744;-0.09276188;0.061659824;0.0231596;0.33376193;-0.051270973;-0.4172225;-0.021283833;-0.0020428407;-0.08641556;-0.04722106;0.028741488;-0.009046795;-0.031946886;-0.053321376;0.07289228;0.23629187;0.031539604;0.24877007;0.32880902;-0.24591301;-0.0138108;-0.25658217;0.2138048;0.089947686;0.16217479;0.053955488;0.0051898155;0.14070608;0.041322347;-0.3272423;0.03234009;0.005411854;0.086394064;-0.022135064;-0.11896432;0.3469752;0.12111677;-0.116324;0.020845879;0.10941714;0.20029904;-0.017571563;0.023204243;0.04339267;0.18273361;-0.24848278;-0.07259238;0.007380782;-0.015945463;-0.22211093;0.09432382;-0.008569742;-0.12935881;-0.07911403;0.10942554;-0.057109874;0.28900772;0.030529909;0.2516773;0.035545457;-0.23017111;-0.28552318;-0.3004865;0.16374977;0.007128216;0.17613927;0.11026907;-0.023592964;-0.010776223;0.14117801;0.35531428;0.21615104;0.17704284;0.15615197;-0.055575937;0.030931512;-0.07842156;-0.04663304;0.21092743;0.2605064;0.15506953;0.3801796;0.18057123;0.10969185;0.00084697286;0.015073549;0.24492621;-0.24929298;-0.37141722;0.29661167;0.46344092;-0.062119983;0.09298714;-0.17602862;0.19136685;0.09724104;0.0351991;0.2405694;0.11566686;0.04865919;0.11470345;0.1433053;0.16641793;0.050888464;-0.0007702481;-0.07108822;0.25652972;-0.015405327;-0.28926748;0.18752788;0.026794385;-0.043918174;0.12224565;-0.01725657;-0.08424082;0.5598203;-0.036831796;0.2715968;0.1992172;-0.077593155;-0.06789798;0.017360065;-0.24346709;-0.020326866;0.043136872;-0.036851957;-0.020322973;0.050627295;-0.26222208;0.22395195;0.19534932;0.13935922;-0.048046436;0.111616425;0.26203376;-0.0035088977;0.01608583;-0.005879214;0.06438353;0.19398448;-0.04182624;-0.02717283;-0.014530811;-0.22800075;0.4457394;0.20667823;0.14256215;-0.10244824;0.056061756;0.0713875;0.024101384;-0.2739811;0.12918867;0.20338267;0.36957422;0.12938748;0.16885278;0.06313238;-0.13042504;-0.44995245;0.017960122;0.054059677;0.07223021;0.0023736756;-0.043882884;-0.11917079;0.16177253;0.0060431673;0.21478818;0.04471349;0.19374292;0.16077356;-0.11644476;0.032130983;-0.17397226;-0.031951047;0.14179651;-0.18572323;0.28817335;0.17533775;-0.09664185;-0.04512542;0.13233614;0.24119574;0.23795433;-0.04828333;0.026344042;0.16861361;0.26785463;0.015888317;0.03354827;-0.08812558;-0.054192156;0.05270069;-0.0029175384;-0.010922413;-0.31047222;0.029511102;0.22471738;0.046839744;-0.5331655;-0.03759961;0.00060450996;0.26678136;0.02372082;0.02819286;0.029545331;-0.012628331;-0.011858729;-0.04973028;-0.16017075;0.06010687;0.057618808;-0.29406175;0.045330163;0.028364148;-0.012374148;0.16474904;0.21443476;0.1772007;0.0057011396;0.090263166;-0.01036722;-0.053414322;0.010410749;-0.06591236;0.022157764;0.20019475;-0.10934342;0.22995073;-0.1587872;-0.12824632;-0.01802192;0.0365359;0.0066884435;0.045177184;-0.09556687;-0.031970687;0.18500595;0.36387622;0.2697524;-0.18846233;-0.47152826;0.15426934;0.19980235;0.42357838;0.21703206;0.17027213;0.3144851;-0.1006604;-0.16236676;-0.2681016;0.017332176;-0.034134768;0.10103988;0.16635725;-0.026363954;0.34654558;-0.008857672;-0.017647535;-0.02101668;0.024800353;-0.058449302;0.22579475;0.09935748;-0.020921236;-0.116897956;-0.034585793;0.017620243;0.040734462;-0.1408078;0.028978728;0.29346746;-0.10595591;0.16070704;-0.031526256;0.21015589;0.17306349;-0.033456054;0.11661196;0.3198709;0.18135719;-0.020898271;0.14176339;0.01994658;0.09083815;0.26988953;-0.27642804;-0.06266543;-0.24745382;0.032698184;-0.054110754;0.2955608;-0.12547752;0.29178;0.13032883;0.20935361;-0.15694366;0.053571388;-0.036657415;0.14508201;-0.022205016;-0.045364693;-0.010866498;0.07161082;0.13719489;-0.09550154;0.03046281;-0.062929034;-0.11537222;-0.021057302;-0.023851685;-0.13406798;0.16732956;0.039132316;0.26699242;-0.026238196;0.09184203;0.066410065;0.009439158;0.0871366;-0.104532085;0.045128297;-0.0039513293;0.20597692;0.036177907;0.013302135;0.09788559;0.09683314;0.031633977;0.0632124;-0.07011568;0.16594115;0.4452575;-0.022368252;-0.16061012;-0.26612765;0.2051398;0.1010083;-0.076387726;-0.019763682;0.20967995;0.062496807;-0.0028038442;-0.024413684;0.018232964;0.06109295;-0.086548425;0.29522783;0.4523693;-0.19337274;-0.087163106;0.4688885;0.21010303;0.060527753;0.09143809;0.03252269;-0.075444974;0.43138754;-0.09061183;-0.024585975;0.23690307;0.056808397;-0.03118743;-0.22232257;0.20629565;0.036318477;0.1795968;-0.032122735;0.008045678;0.012826875;-0.23894073;-0.08057717;0.09265956;0.0023795646;-0.0048479694;0.12434735;-0.024491223;0.145482;-0.017711421;0.18994848;-0.042354573;-0.029486777;-0.0106624095;-0.37377807;0.17537856;-0.07032528;0.025264442;0.14492752;0.24079046;0.12671052;0.03181157;0.091942064;-0.014160871;0.09340094;0.04764448;0.0053787488;-0.03058394;-0.030546332;0.4641279;0.14394858;0.12766281;0.07247733;-0.05590009;-0.06699557;0.00078599673;-0.11173099;-0.18189919;0.37502846;0.44355547;0.043304563;-0.2216744;-0.051399022;-0.07228736;0.14043906;-0.113879494;-0.0022603553;0.32144323;0.07771422;-0.11760926;0.17729656;0.13798706;-0.16306774;0.035479154;-0.062874965;-0.03672032;0.11113168;-0.08374561;0.18084519;0.0048034173;0.06790361;0.08248291;0.2988794;-0.12995946;-0.2341023;0.100198284;-0.015265103;0.4955423
-0.018738478;-0.048566345;-0.024095953;-0.39837545;-0.020830788;0.04099624;-0.16371182;-0.031093374;0.17841193;-0.057372816;0.049500685;-0.2759023;0.06122681;0.026801227;0.35882878;0.039755594;0.041174833;0.14605853;0.31372237;0.14623532;-0.20817535;0.13055012;0.085525155;0.0558752;-0.035949916;0.05826504;-0.05461331;0.14879014;-0.05479985;0.12632523;-0.027386934;-0.014376518;0.30505052;-0.049632493;-0.04055295;-0.008879137;-0.032101896;0.17772181;0.14253746;0.43422192;-0.005926332;-0.044370767;0.50210315;0.07365131;-0.18739;0.3318048;-0.058348604;0.061867632;0.049049925;-0.087669365;0.02131689;-0.16187276;0.2373984;0.40444642;0.24917403;0.05718462;0.22255678;-0.15260525;0.1340655;0.06405818;0.031118324;0.12811778;-0.058566287;-0.00955618;0.2842473;0.24270004;0.045355327;0.02084588;0.12761544;-0.033696584;-0.15722102;0.0022016135;0.12699512;0.05451561;0.30556816;0.03507129;0.13241926;0.2969171;-0.043864936;0.098563276;-0.053492196;0.46663556;-0.018147977;0.054383487;0.1415373;-0.05124363;-0.060325477;-0.010683049;-0.0037141761;-0.05255744;0.170778;-0.070595175;-0.013212053;0.1288427;0.09458766;-0.20018099;0.11737207;0.24119973;-0.24233773;0.007920176;0.020499945;-0.026590373;-0.07823713;-0.15366106;0.061725136;-0.4793634;-0.033847746;0.004908884;0.2024983;0.20386052;0.014850905;-0.25797415;-0.041560836;0.4204093;-0.20794998;0.005992597;-0.07061036;-0.058579385;0.059561368;0.14303936;-0.04651276;0.041895054;-0.45572746;-0.13323192;0.1771174;0.07691142;0.23497127;-0.013741472;0.16905232;0.04891593;0.06562361;0.20041163;0.23263343;-0.049021512;0.22815809;0.06938111;0.25024027;-0.023712883;-0.079874806;0.14098427;-0.009127339;0.1943484;-0.07974588;-0.56770515;-0.043387838;0.057025593;-0.004296622;-0.051789485;0.05170785;0.08879574;0.06065205;-0.050330773;-0.001842901;0.17437457;0.024569826;0.11122709;0.20218574;-0.23126596;-0.010789334;-0.37677163;0.23306757;0.041159265;0.11791156;-0.06856023;0.060539216;0.054554287;-0.029808316;-0.15142606;0.06807275;-0.066276915;0.14504614;-0.06724517;-0.1834827;0.22085655;0.09956215;-0.07437661;0.040051345;0.10664946;0.2883479;-0.03406795;-0.04979453;-0.06012402;0.19832416;-0.2863972;0.055117175;0.14522637;-0.03944824;-0.042891107;0.027531741;0.010131469;-0.1939807;-0.084765434;0.17023948;-0.0018076489;0.19412953;-0.0056027044;0.27942327;0.023424288;-0.15342295;-0.24220945;-0.34372735;0.2449842;0.058378063;0.07880914;0.034268484;0.046504527;0.057054594;0.19509518;0.38064557;0.28065473;0.07196058;0.27518606;-0.10522467;-0.018450722;0.051167913;0.018338526;0.27786404;0.18993746;0.1680526;0.2658588;0.16266789;0.06931773;0.04965631;-0.008560159;0.41877878;-0.2572903;-0.31717348;0.28094137;0.48147067;0.072968215;0.041798875;-0.11163587;0.23464613;0.08587504;0.14350682;0.3349273;0.15946087;0.0072465325;0.057695977;0.09371756;0.034957107;0.13643979;-0.08649475;0.035107788;0.30371016;-0.05908943;-0.28681308;0.33344012;-0.049792998;-0.113899276;0.07467916;0.033678737;-0.15971452;0.55835444;-0.011032184;0.31970167;0.2617008;-0.0946536;0.024741258;0.020318173;-0.2979975;-0.0677734;0.028980808;0.037155554;-0.051455732;0.079446435;-0.236148;0.060809266;0.34437147;0.13947289;-0.007533274;0.19522645;0.2417338;-0.15087256;0.029496772;0.058038324;0.13576362;0.24957602;-0.04981043;0.05564795;-0.016195407;-0.41710413;0.48014978;0.15993886;0.04258535;0.03068909;-0.008034337;-0.051336702;0.022765562;-0.3788005;0.27790922;0.1892776;0.3316731;0.23291247;0.23249236;0.06357322;-0.042547192;-0.4505136;0.0077826083;-0.075398915;0.02980958;0.07383336;0.06547566;-0.08595741;0.25263658;-0.03960209;0.15682536;-0.049560096;0.25667894;0.22149266;-0.16410655;-0.05556957;-0.36988044;-0.09748476;0.20612918;-0.112937346;0.18407348;0.1884153;0.03204752;0.070523724;0.17725295;0.117024496;0.16767581;-0.056649588;-0.017778369;0.13245487;0.3049984;0.002220587;0.14314331;0.047316723;-0.02796199;0.06835255;0.038181856;-0.048951168;-0.2566366;0.02149427;0.23449054;-0.000424709;-0.5265484;-0.0060111196;-0.039382506;0.28731582;-0.012165859;-0.084725864;-0.03871217;0.037226364;-0.018076388;-0.113224655;-0.17192943;0.06655914;-0.09133452;-0.34474277;0.13708973;0.029807469;-0.017612657;0.1912092;0.24456613;0.08624821;0.05877661;0.0350735;0.08831462;-0.06922842;0.05898626;-0.029659903;-0.0003356012;0.15353361;-0.0939318;0.25519988;-0.12182478;-0.15308724;-0.019017532;-0.017869636;0.05637981;0.00527282;-0.007860631;0.034309972;0.13891771;0.29348952;0.2266047;-0.2937583;-0.4856635;0.12350052;0.1203212;0.40378943;0.13396274;0.19958979;0.3220456;-0.112479545;-0.26277623;-0.23724395;-0.15089084;-0.042995058;-0.030262168;0.05029704;-0.045319416;0.3707603;0.08956127;0.014148667;-0.0079335105;-0.027978027;-0.046058092;0.23168045;0.20575732;-0.0359941;-0.12741686;-0.032430753;0.115175925;0.13081793;-0.06686822;-0.021933401;0.21304402;0.034378048;0.26369214;-0.0074166297;0.23067074;0.19613348;0.010241575;0.07145511;0.18886796;0.21313277;0.034029502;0.0057567456;0.0128310835;0.22920527;0.2589511;-0.19388844;-0.046630695;-0.1970161;0.0013298212;-0.018711235;0.22419843;-0.083522104;0.27134064;-0.02802004;0.15408711;-0.041074812;0.027824597;0.03707773;0.17718706;0.06852178;0.067386165;0.04399267;0.063754626;0.24559833;0.012294209;0.030558273;-0.02081945;-0.003446502;0.032308325;-0.04752475;-0.11204224;0.26067486;-0.039912358;0.18821499;-0.07302917;-0.019328129;0.035252154;-0.04268903;0.12668216;-0.021670628;0.08502354;-0.025981419;0.23101266;0.0014668473;0.022094844;0.032993387;0.21598604;-0.027891956;-0.012221299;0.048724514;0.17713043;0.42870507;0.044120844;-0.106027335;-0.2943717;0.23995994;0.18475753;-0.23857391;0.03673317;0.2418379;0.034912072;-0.0032488955;0.0048172534;0.04157449;0.14823973;-0.13796087;0.28547513;0.43523282;0.00027003195;-0.08870718;0.49987996;0.23766002;-0.06233281;0.12514484;0.038322266;-0.025419546;0.46418098;0.061731745;0.12134673;0.21608783;0.013678897;0.049796533;-0.17281337;0.11351234;0.039654505;0.22521564;0.039590824;0.06577169;-0.034662943;-0.21026236;-0.13857202;0.061829977;0.0019081885;0.07604651;0.06449919;0.03182968;0.09084998;0.09096552;0.073679015;0.036579948;0.06976573;0.047930956;-0.34154603;0.15243867;0.037306838;0.064268254;0.11639008;0.20715159;0.058676753;0.007370348;0.089915656;-0.014336358;0.13386075;0.07092237;0.016722245;-0.011485837;-0.049013823;0.3756039;0.09365519;0.12906796;-0.05592226;0.0501692;-0.12887427;-0.070278175;-0.048109308;-0.21489233;0.2800549;0.49132362;0.060443856;-0.26044324;-0.009725482;-0.020475917;0.2967515;-0.10205057;-0.034378935;0.23848666;0.18967731;-0.19409566;0.12645097;0.23520696;-0.040684886;-0.07049983;0.0010680448;0.016930312;0.112097405;0.02604435;0.24143687;-0.007507534;-0.038458318;0.10328665;0.37910855;-0.03320913;-0.24654894;0.18469986;-0.0046511292;0.3262981
0.009937293;-0.11814709;0.04120722;-0.2383781;0.00045943705;-0.011452792;-0.28368014;-0.03796017;0.04584683;-0.06271336;-0.07718444;-0.14159623;-0.0024033117;-0.015010261;0.40472496;-0.06109536;-0.08310657;0.15764692;0.38259292;0.1465054;-0.19095029;0.08713766;0.007823572;0.0018948779;0.008578325;0.1218272;-0.03326225;0.13516694;-0.009046367;0.20549215;0.00328402;0.11771506;0.33700684;-0.002325089;0.023878872;0.05046011;0.064557426;0.1770019;0.08708337;0.572756;0.000872212;0.052176364;0.4643383;0.1040064;-0.21282378;0.34127587;-0.08080502;0.07352288;-0.07887347;-0.080676265;-0.050893247;-0.25851297;0.26483017;0.5398105;0.1544513;-0.026679687;0.14680867;-0.046604533;0.1782814;-0.051900826;0.0066106627;0.072336756;0.00046895244;-0.004985707;0.19447222;0.26035538;-0.05698778;0.031837247;0.08899519;-0.042330485;-0.041540388;-0.005905905;0.19823542;0.021559857;0.24621582;-0.0025866432;0.12634633;0.32538018;0.03866801;0.11016782;0.02929271;0.43875626;0.05140311;0.17166643;0.14978383;-0.21101561;0.0930638;0.090424605;0.054475788;0.04551395;0.10384714;0.0853587;-0.04670139;0.036397442;0.15278727;-0.23290232;0.09875312;0.22196119;-0.1683322;0.17300373;0.09007511;0.06363736;-0.097669505;-0.1609206;0.1165066;-0.32875627;-0.082749695;-0.045562465;0.32708436;0.19074932;0.016743435;-0.13944085;0.06916901;0.33295354;-0.1832194;0.031213026;0.036039133;-0.17061712;-0.005098156;0.18598549;0.042823527;0.046574585;-0.5183533;-0.23836784;0.25409278;-0.044929784;0.24306309;-0.09056734;0.0023014802;0.03157134;0.18453658;0.1269022;0.19523846;0.0109064095;0.2508029;0.029707039;0.2511722;-0.015921922;-0.0024155448;-0.018314289;-0.08461314;0.211944;-0.12812519;-0.5206445;-0.0718967;-0.026097944;0.0012836036;0.05019804;0.094322406;0.1595734;0.031282026;0.026255883;-0.026347559;0.023224825;0.11039337;0.12626691;0.098879084;-0.19422768;0.0544564;-0.21427734;0.11744306;0.07231575;0.09954923;0.0443504;0.07683207;0.18459655;0.03246758;-0.1391954;0.014206725;-0.074819095;0.034410235;0.035527084;-0.16528037;0.32417792;-0.012455065;-0.17058255;-0.028623492;0.16845265;0.27743843;0.007449894;0.08291967;-0.02798598;0.09640292;-0.27590582;0.067852154;0.17460364;-0.0510847;-0.0793729;-0.03980875;-0.009469415;-0.1422673;-0.04333955;-0.009041754;0.03351584;0.10054772;-0.17714989;0.25357705;0.12104686;-0.12119849;-0.26105773;-0.29012486;0.18056348;0.04340704;0.21588309;0.039628364;0.1669183;0.1276548;0.21868387;0.33604208;0.20665877;-0.009198313;0.2007909;-0.1396105;-0.016457615;-0.006727018;0.012662003;0.11712342;0.26876378;0.13400201;0.33261877;0.08809376;0.07434699;-0.039727304;-0.06786946;0.33267748;-0.15997714;-0.28845245;0.3075143;0.4868431;-0.05298534;0.019441416;-0.18987077;0.20850001;0.07220882;0.12654796;0.3595191;0.18968855;-0.0075829714;0.07743423;0.05944222;0.023490392;0.107172444;-0.05973856;-0.035341688;0.13692999;0.014603531;-0.2562959;0.27190843;0.06372043;-0.026174828;0.09180647;0.00021429184;-0.18266481;0.5132845;0.049716473;0.27787483;0.28392178;-0.10775164;0.047783636;-0.02294822;-0.3425112;-0.0018642677;-0.02663028;-0.0776795;0.06996835;0.085044384;-0.24484845;0.007810786;0.25144354;0.25354508;0.058925536;0.17474188;0.2735226;-0.059447844;-0.01678614;0.028157607;0.1554082;0.15391852;-0.0044775405;-0.041753944;0.05209567;-0.4176225;0.52022976;0.08872041;0.04941883;0.027834678;-0.0042631896;-0.08712351;-0.013477315;-0.29332048;0.20909561;0.17385606;0.28360078;0.34584224;0.22190869;0.21922857;-0.18664667;-0.44065225;0.037754662;0.009711993;0.062286947;-0.025656603;-0.0070524737;-0.067952804;0.2665473;-0.035845958;0.12541144;-0.033022095;0.111269794;0.22900788;-0.11748677;-0.0069903983;-0.34312412;0.0072987634;0.15171784;-0.081382066;0.17613937;0.25898677;-0.049956508;0.027469367;0.16017677;0.09907713;0.2868637;0.011569409;-0.00025951283;0.098376356;0.24918272;-0.031044446;0.10324612;0.0078653395;-0.008343629;-0.06635367;-0.024118781;0.04456245;-0.15301664;-0.055245657;0.2740301;0.09622466;-0.4927383;0.037793227;-0.019666094;0.21301934;-0.04464998;-0.12663178;0.00066103606;0.08105817;-0.11887465;-0.13882191;-0.04670542;-0.061190553;0.027173739;-0.36190537;0.16571806;0.082245395;-0.022088047;0.14975964;0.37500945;0.21577004;0.02734034;0.08355516;0.067818254;-0.039202582;-0.1070803;0.037461597;0.08330983;0.05618689;-0.16202399;0.15994947;-0.07082577;-0.22316344;0.022769082;0.0587392;-0.009800093;-0.040525556;-0.03090793;0.033149194;0.010152925;0.32398382;0.14641686;-0.25620428;-0.4516084;0.10543941;0.17646822;0.3500259;0.25605157;0.099229254;0.19125633;-0.11471285;-0.2561506;-0.30442065;-0.087028846;0.008263113;-0.013385753;-0.0045316885;-0.016970124;0.26347128;-0.06891659;0.008660211;-0.027787471;0.048214085;-0.08162558;0.1794381;0.105086185;0.05017158;-0.07068277;0.05705544;0.19211799;0.20562603;-0.07741272;0.03468461;0.27800208;-0.028171886;0.26658326;0.029213708;0.17807116;0.13365583;0.15058622;-0.07013933;0.21902005;0.09564264;0.042661857;0.13500135;-0.013643167;0.077602245;0.29616418;-0.1665913;0.0912169;-0.15065812;-0.112347454;0.022908142;0.32607093;0.05701064;0.21756895;0.12727952;0.18827482;-0.06815213;0.040417664;0.071804576;-0.024386065;-0.046174575;-0.066091634;0.024198927;0.08744809;0.2544309;-0.054334007;0.030893635;0.07997104;-0.097404554;0.0045782854;-0.038101856;-0.211032;0.26909366;0.037522186;0.27341875;0.070529;-0.06256767;0.035651404;-0.03762229;0.090458654;0.011640024;0.045558624;0.07442234;0.16141306;-0.028774394;-0.06946107;0.050867245;0.15868746;-0.054798234;0.06046853;0.041450135;0.07283645;0.53834754;-0.02475538;-0.036787555;-0.21354303;0.07907119;0.14971893;-0.20585354;-0.015395438;0.19785938;-0.0556608;-0.06472546;-0.05493221;-0.05905275;0.090440005;-0.2390735;0.27721387;0.49296752;-0.053618796;0.05822435;0.44623607;0.15875913;0.0066068457;0.29608336;-0.057012472;-0.031045634;0.39560732;-0.00060484145;0.10368392;0.10996344;-0.014921675;-0.021756086;-0.15127262;0.10068992;-0.0038243702;0.18254493;-0.03148037;-0.038356017;0.09969534;-0.2583778;-0.31495348;0.07559617;-0.023265874;0.03731759;0.07912689;0.025953574;0.11689549;-0.02723742;0.12794036;0.0070569264;-0.0070936107;-0.065170825;-0.33670875;0.20968702;0.08502184;-0.028104996;0.1454225;0.06556915;0.003953392;0.008092913;-0.042395968;0.07442831;0.13948563;0.061525524;0.07551792;0.05355929;-0.05621419;0.20199883;0.24438904;0.05385072;-0.013152406;0.006373059;-0.06496061;-0.123603426;0.08664963;-0.36372402;0.37644356;0.4470764;0.031383198;-0.15564664;0.06951397;-0.10403011;0.31225494;-0.08851339;0.055151064;0.41440722;0.24534553;-0.16586816;0.22540334;0.093987875;-0.1954687;0.02927394;-0.03853939;0.039546628;0.0050599496;-0.04694881;0.18569247;-0.03235803;-0.009146699;0.085404485;0.3753658;-0.14762935;-0.081944786;0.03775499;0.039673645;0.32478523
-0.05098966;-0.20616618;0.055443168;-0.22838522;-0.07560737;0.00059708284;-0.33984658;-0.04639659;0.10337603;0.004534973;-0.0056646294;-0.13892648;-0.050816715;0.056518402;0.3066907;0.027624054;0.025907418;0.059548065;0.4425063;0.10018533;-0.15502508;0.09201939;-0.030395314;0.25281858;-0.062479474;0.13196932;-0.04604617;0.008868368;-0.020277433;0.19359757;-0.04787229;0.06534487;0.32631466;-0.03253791;0.08637301;-0.0407902;0.055728696;0.05619555;0.14436434;0.44544965;-0.11719642;-0.07419329;0.34547842;0.06690292;-0.2435225;0.27012232;0.010196811;-0.041686904;0.016751848;-0.06556581;0.031716116;-0.27235976;0.11038882;0.60330415;0.15188435;0.024186166;0.1365147;-0.20720932;0.036168184;0.0643991;-0.0064592133;0.10618967;0.025379455;-0.009478669;0.051261604;0.2520257;-0.040378656;-0.020278482;-0.00437762;-0.05835337;-0.046073932;-0.07683839;0.09780396;0.13111411;0.24105175;0.048093785;0.098445624;0.39028546;0.07896173;0.035531502;-0.083969615;0.5172386;0.028567217;0.03526624;0.05962946;-0.20565848;0.055020276;0.18197936;0.022762759;-0.041457806;0.078629956;-0.032096323;-0.035051886;0.08150298;0.101479486;-0.32432252;0.1039695;0.1851619;-0.14834318;0.07394749;0.03755975;0.040797636;-0.24280134;-0.078724906;0.22692125;-0.3815943;-0.0116733145;0.064314134;0.16765088;0.2022109;0.08047156;-0.18198216;0.014758542;0.3293244;-0.14919354;-0.0046493346;0.05244178;-0.09733342;0.047625776;0.25478715;0.15708292;-0.006265139;-0.4528859;-0.07917464;0.12869154;-0.06689194;0.15796499;-0.03360613;0.04985019;0.011508994;0.056272656;0.12844425;0.101865664;0.063957855;0.11574405;-0.06826458;0.21800935;0.031871866;0.072761364;0.029125787;-0.019568356;0.28585044;-0.08018227;-0.63957196;-0.008578517;-0.0031772275;-0.09385251;0.025086202;-0.029791541;0.050197747;0.02124602;-0.06800219;0.08504561;0.16081153;0.061048504;0.21344669;0.06774998;-0.23171172;0.09989747;-0.29229409;0.07307852;0.11280441;0.11464225;0.008259103;-0.03261101;0.22514655;0.02884871;-0.1841494;0.05804576;-0.047755808;0.10970315;0.059671715;-0.11198072;0.3086095;-0.13469411;-0.08496935;0.029469863;0.10204662;0.37956434;0.06501046;0.024657238;-0.060348924;0.1945483;-0.23421514;-0.04202324;0.13611026;0.038779937;-0.022240674;-0.01600968;0.02718188;-0.31551352;0.09536523;0.031346507;0.0589158;0.1665971;-0.16421418;0.25853416;0.12604849;-0.15665954;-0.39498731;-0.38404372;0.17551592;-0.003237744;0.11473857;0.043820683;0.14513452;0.20425992;0.41148576;0.5754458;0.15696484;0.0032482678;0.13691944;-0.15463817;0.039932076;0.024371006;-0.01946485;0.22359352;0.34141815;0.031009618;0.34863818;0.18143249;0.16571519;-0.10123449;-0.014597948;0.2530479;-0.150913;-0.16285196;0.30438954;0.3952407;0.08272755;0.10566368;-0.25242022;0.062430196;-0.0414862;0.2447107;0.2413674;0.25371155;-0.009357878;0.17920473;0.0023137438;0.09262178;0.06506909;-0.14831638;0.0321072;0.06997114;0.0068748794;-0.2630253;0.338384;-0.059065167;-0.09166124;-0.018857336;-0.075537555;-0.038098995;0.3468221;0.0007966719;0.32367155;0.29943934;-0.17112476;0.032505658;-0.07037445;-0.20513108;-0.07086331;0.012549064;0.012832877;0.024539981;0.0683615;-0.21550359;-0.0052563036;0.32792538;0.19715035;0.13861229;0.22975652;0.27038398;-0.045641653;-0.046367947;-0.08361039;0.09324846;0.19831106;-0.01965773;-0.031247923;-0.069139026;-0.47750422;0.39884177;0.033454042;0.11266769;0.0056039505;-0.06551887;-0.008929655;-0.009711321;-0.355383;0.17471898;0.12019755;0.4128058;0.40070856;0.12761053;0.033980474;-0.1369241;-0.3591837;-0.06633931;-0.02811258;0.05425737;-0.018317232;-0.005753246;0.11482435;0.27464184;-0.20607325;0.13649088;0.0061561684;0.0311265;0.19107851;0.040781323;-0.0005108293;-0.22658816;-0.007873773;0.28628886;-0.100878604;0.19506516;0.081729844;-0.0035452107;0.005502322;0.14571874;0.1760326;0.22804499;0.03385742;0.083530664;0.02949693;0.1890138;0.019482352;0.09040696;-0.025742022;0.042047054;-0.043391444;-0.031891678;0.077052444;-0.08660371;0.024412602;0.29864153;-0.018428592;-0.5139785;0.043064687;-0.023442242;0.15989125;0.01897837;-0.12732355;0.006468483;0.14007194;-0.15028739;-0.21306008;-0.05766344;-0.03373811;-0.049598012;-0.4099619;0.03141323;0.07890016;0.06645124;0.17753506;0.25998294;0.014587499;-0.01928029;0.053215288;-0.04965929;0.06672888;-0.12602197;0.13998051;-0.04109942;0.19641793;-0.12771516;0.1305799;0.04151031;-0.2430566;-0.032292146;-0.055500258;0.022938378;-0.13712206;-0.03936116;-0.074388854;0.0076151923;0.45268327;0.048476323;-0.19040474;-0.23928447;-0.102222584;0.19591488;0.4292607;0.27599382;0.066481;0.29623473;-0.041489333;-0.24873024;-0.34283683;-0.104795694;0.02945774;0.011311358;-0.04744476;-0.04479063;0.31369883;0.03020554;0.0032543018;0.077966295;0.04400575;-0.091340914;0.3024521;0.07935456;0.0070137326;0.027442602;-0.019293064;0.08772548;0.26271367;0.009726615;0.014312206;0.23844656;0.033633195;0.14954516;-0.022440048;0.07761968;-0.08856663;0.059217393;0.052601576;0.32518002;0.081788056;0.087697044;0.010877322;-0.035793025;0.08757954;0.4188594;-0.053431768;0.102307566;-0.12282286;-0.11035827;0.087644175;0.28591692;-0.0032172364;0.18104711;0.114208765;0.02623166;-0.12896569;-0.0098153;-0.005931111;0.12536643;-0.035317153;-0.009668759;-0.19082958;-0.038770407;0.30329943;0.02746446;-0.08480066;-0.035214737;-0.043345205;-0.02141895;0.08811222;-0.17460378;0.15100202;0.032172747;0.1330097;0.037326366;0.0018753271;-0.028299583;-0.0014169283;0.19621167;-0.03563095;0.050901163;0.04370238;0.2208868;0.024804669;-0.05522226;0.010708138;0.25131243;0.031205582;0.07969153;0.047887277;0.13981445;0.5567373;-0.046912845;-0.22649309;-0.2733943;0.051732782;0.20680556;-0.35240448;0.104409404;0.30057886;0.00020262532;0.059813943;-0.0075074914;0.00234894;0.1020689;-0.077231735;0.28423402;0.3495974;0.090206146;-0.09985736;0.27003542;0.09146921;0.023623463;0.35319915;-0.09208113;0.022068335;0.40705484;-0.13105388;0.17180721;0.12546538;-0.00043156493;-0.08786119;-0.29546323;0.18603364;-0.043313667;0.25702316;0.06778322;0.0035951405;-0.028491126;-0.29593703;-0.25448787;0.10188171;0.042785846;-0.06551415;0.14884418;0.018548544;0.23236826;-0.018178731;0.010517484;-0.024441635;0.10164212;-0.008769182;-0.25156334;0.23366563;-0.030469295;0.042486433;0.17089431;-0.035203837;0.08827893;0.054993253;0.08522417;0.05817773;0.091115184;0.15778376;-0.058792878;-0.03704337;0.009381305;0.28827703;0.33431196;0.18844098;-0.041128498;0.02905244;-0.027837247;-0.1181035;0.023609059;-0.43599543;0.32809126;0.26744142;-0.06188831;-0.11230665;-0.013057672;-0.15787569;0.25231168;-0.25714704;-0.08166142;0.32440576;0.19499595;-0.14045233;0.28498462;0.058785256;-0.25813425;0.011404065;-0.063538365;8.69089e-05;-0.09946459;-0.011639141;0.20426236;0.08549024;0.0037745475;-0.0034975442;0.2908104;-0.0014180873;-0.033305902;-0.00771808;-0.058634434;0.28033948
0.030970817;-0.20724943;-0.06472322;-0.10638271;0.057329595;-0.096069194;-0.2973884;0.054998253;0.011243728;0.009728479;0.054589797;-0.16529264;-0.033333555;-0.035307754;0.2688315;-0.042151846;0.040108524;0.06134165;0.45292443;0.27087477;-0.16480161;0.052644376;0.011490282;0.17995466;0.0797804;0.043843288;0.056490675;-0.002800743;-0.04232168;0.09126491;0.092134304;0.16396269;0.3475311;0.05989608;-0.021235533;0.010506946;0.007970811;0.14103526;0.28777903;0.4111473;-0.108003214;-0.07355477;0.28880885;0.0827176;-0.3257175;0.29034615;0.018249555;-0.06146001;0.07080577;-0.068075046;0.07021547;-0.28443453;0.17179896;0.5629624;-0.02443678;-0.015080062;0.066880226;-0.19130184;0.055716086;-0.06287633;0.047860358;0.12552086;0.0016147025;-0.010776722;0.04542567;0.30371;-0.059930664;0.012069461;-0.044091884;0.016730897;0.010634581;0.034745682;0.15130912;0.05913269;0.12764713;-0.06681804;0.045085132;0.29008457;-0.062420145;-0.06673474;0.061133604;0.42623165;-0.07848007;0.03042374;0.08374528;-0.17861137;0.067449994;0.19387488;-0.01175292;-0.035426978;0.18416442;-0.0013079116;-0.03432542;0.045253586;0.104971744;-0.3370468;0.07796035;0.3157095;-0.22492822;0.16937365;0.043415464;-0.045029648;-0.2058557;-0.1469339;0.04286995;-0.39645937;-0.11156372;0.12100106;0.2760526;0.059503164;0.028063266;-0.28018877;0.0069952263;0.4263862;-0.10719;-0.05126309;-0.05018961;-0.11419274;-0.0013700185;0.29529968;0.19437839;-0.0354123;-0.39688805;-0.110120796;0.12738824;-0.06716936;0.16895512;-0.20166764;-0.0026254905;0.055939518;0.31293455;0.041423008;0.10770212;-0.0501638;0.23948129;-0.008093217;0.21552381;-0.028426575;0.09772762;-0.13687018;0.040563647;0.21102075;-0.030469414;-0.53859544;-0.097139545;-0.004283976;-0.009270586;-0.032741487;-0.04393587;0.14477594;0.04024706;-0.026928017;0.013089138;0.08563298;0.14439288;0.17921233;-0.026189843;-0.15370943;-0.01118199;-0.19914082;0.079318464;0.20050876;0.19585852;-0.055619214;-0.038599372;0.2221112;-0.042222217;-0.2291975;-0.009401901;-0.039245486;0.01903641;0.008508624;-0.0024949745;0.33254063;0.003884536;-0.12334299;-0.06529884;0.13327059;0.41670728;0.02222704;-0.040428717;0.030413536;0.158847;-0.13304587;-0.04676376;0.13470362;-0.04219746;-0.121994324;-0.1736242;-0.031329084;-0.3714796;0.016250152;-0.049654838;-0.026452813;0.16481782;-0.029463474;0.15410015;0.10186945;-0.25382337;-0.36974367;-0.3100653;0.2673585;-0.008951721;0.07431124;0.14071329;0.03423343;0.29242742;0.41478053;0.59705496;0.20899205;-0.029559296;0.08596283;-0.09563859;-0.07740408;0.011406515;-0.0063578887;0.19643053;0.29722652;0.007149807;0.45549273;0.12810981;0.17598708;-0.08451699;-0.02266078;0.26301196;-0.13893862;-0.07251207;0.29155105;0.48179036;-0.015490302;0.03342533;-0.20224845;0.099579565;-0.071688406;0.14771782;0.16098928;0.22475012;-0.018822473;0.13962595;0.033872306;0.22968888;0.042235553;-0.04123541;-0.022663156;0.11876164;-0.009932624;-0.2628635;0.2682927;0.015475333;-0.07446811;0.021014856;0.028943276;-0.093253456;0.35924175;-0.0350533;0.3542771;0.223595;-0.04301611;0.054437395;0.07451156;-0.26078022;-0.17202371;0.0455203;-0.011969126;0.021425352;0.052212328;-0.19442767;-0.004257558;0.35084784;0.24579953;0.1700366;0.2508014;0.261806;-0.040383916;0.066721216;-0.022159528;-0.0076993546;0.33842272;0.014878437;-0.06396307;0.034877006;-0.47157845;0.43359426;0.03466143;-0.08812903;-0.03066099;0.06975041;-0.03384198;0.023263762;-0.2862949;0.20555545;0.13337626;0.36461815;0.32530984;0.13899967;0.1527569;-0.111630306;-0.26132637;0.015396733;0.064912975;0.05894116;0.04686909;0.07238761;0.038171206;0.21327825;-0.16600499;0.11840698;-0.05654714;0.09636028;0.3242961;0.10949983;0.022707539;-0.25546208;0.019900281;0.29566234;-0.18540105;0.167658;0.12920152;-0.09580137;-0.060891755;0.06685948;0.15948671;0.13487431;-0.0018985556;-0.048665464;0.10581677;0.15151219;0.0037101482;0.05288818;0.036447678;0.061061975;0.04040408;0.03949885;-0.012069871;-0.06737908;-0.046536356;0.3248285;0.0819573;-0.4018266;0.21231784;0.054810118;0.2421154;0.010595188;-0.21883866;-0.08675404;0.26295626;-0.12712242;-0.15760098;-0.17680027;-0.066654675;0.018580277;-0.28039077;0.11576819;0.027623458;-0.036970023;0.1796786;0.29718748;0.092883095;0.024956955;0.034908026;-0.0074678445;0.09949479;-0.08007344;0.1938079;-0.010721261;0.1768723;-0.18675858;0.19332829;-0.059433535;-0.13813193;-0.049003296;0.012728155;-0.053395353;0.026426317;-0.15157236;0.060259894;0.052281123;0.28126615;0.18721884;-0.22349004;-0.21333973;-0.16025506;0.21673486;0.30980057;0.2743738;0.010123657;0.24112272;-0.14037424;-0.23487568;-0.40883818;-0.22535805;0.027081996;-0.013662686;0.046669535;0.033643536;0.24480997;0.021256411;-0.07150507;0.08599066;-0.030727312;-0.08418201;0.2830157;0.09613162;0.011390867;0.0104215825;0.05206322;0.11290929;0.2368735;-0.07841443;-0.02992973;0.26310113;0.022459185;0.096570484;0.0051797065;0.06764598;-0.08263265;0.0901789;-0.010041857;0.25235862;0.16633359;0.13341202;0.11178135;-0.06662227;0.13739242;0.39358377;-0.013465891;0.1959573;-0.053406477;-0.17763397;0.018565519;0.18603776;-0.12035724;0.20306587;0.16358201;0.10496814;-0.20092426;0.03452451;0.009482333;0.011973699;0.07418694;-0.010289508;-0.046785854;-0.15691584;0.23270153;0.06082642;0.0050711;0.05118747;-0.013316178;0.048893575;-0.06896836;-0.2804654;0.1891475;0.02652992;0.11372271;-0.030691424;0.052805685;-0.13367175;0.020490892;0.12171868;0.0009087915;0.06886876;-0.069528416;0.093208045;-0.026872845;-0.027076809;0.030714393;0.25348973;-0.029596828;-0.039493375;-0.05365047;0.028924642;0.60684997;-0.010900029;-0.087906845;-0.24305494;0.021343794;0.17792137;-0.34341183;-0.046097662;0.23239325;-0.043120142;0.030829512;-0.08263304;0.037964117;0.10831437;-0.19969562;0.40678534;0.29727858;0.0967621;0.07539616;0.36877757;0.16282149;-0.044193532;0.31618643;-0.04578859;-0.04852105;0.40701288;-0.12078471;0.15926483;0.14116439;0.023513984;0.025315948;-0.08512024;0.1730912;-0.018242508;0.11188751;-0.035066262;0.023966147;0.057594065;-0.3283298;-0.29610926;0.12504086;0.042595025;0.014528126;0.21046111;-0.026234724;0.33670625;-0.045957208;0.085998364;0.018066367;0.083421245;-0.048653875;-0.2632555;0.2942336;-0.0054536383;-0.007343831;0.15737876;0.038233936;-0.013038134;-0.01298684;-0.04509402;-0.07595929;0.15283722;0.2111385;0.0148332855;0.008687237;-0.047805134;0.28569454;0.24598259;0.01413215;0.010343761;-0.008903918;-0.0045172716;0.005816861;0.15840352;-0.5284488;0.32229552;0.27558714;-0.050974306;-0.14259268;0.06179554;-0.11474718;0.17130485;-0.32229242;0.07849673;0.2860751;0.13616607;-0.1638193;0.24582739;0.08026644;-0.16498241;0.103680156;-0.07351759;-0.041423723;-0.08667941;-0.012882281;0.1269686;-0.031038567;-0.051701747;0.020271692;0.15265214;-0.010859904;0.18794972;-0.07008851;-0.013433523;0.15842906
-0.026274685;-0.20035341;-0.05082809;0.058000658;-0.025263883;-0.105167866;-0.14411594;0.05348442;-0.022150738;0.03356719;0.061267816;-0.16200714;0.022378856;0.037957683;0.2772868;-0.03717148;0.020416556;-0.058216453;0.41503635;0.21377814;-0.006007538;-0.090123534;0.018865434;0.2930038;0.029478911;0.105727;0.054750066;0.097229026;-0.10197553;0.1637105;-0.010760238;0.16600242;0.32880077;0.027734077;-0.026326615;-0.05790426;-0.066991195;0.040558275;0.3320201;0.2740279;-0.08826606;-0.027152913;0.30744436;0.04776746;-0.4544786;0.21891932;0.0118556265;0.046591405;-0.03580842;-0.07343143;-0.018413257;-0.26927266;0.1393683;0.64726645;-0.09541248;0.05568333;0.20274608;-0.18379502;0.055268113;0.069431305;0.013406618;0.0873012;0.057177287;0.08215227;0.022685537;0.300227;-0.017223712;-0.05338623;0.07650506;0.003205459;-0.051642492;0.015904464;0.104808286;0.08082671;0.2095695;-0.051466875;0.06405192;0.3562056;-0.06911997;0.054547742;0.040967032;0.4820956;0.030424004;0.095752954;0.08491846;-0.12421394;-0.06904059;0.17918728;-0.02845298;-0.006713175;0.15055183;-0.03145687;-0.090252385;0.056361854;0.04125849;-0.35852036;0.18681017;0.15504678;-0.20863946;0.11967106;-0.05475389;-0.08649862;-0.2564631;-0.09841804;0.108564034;-0.19662926;-0.118059434;0.101936445;0.16566247;0.118457705;0.1240293;-0.2734448;-0.055091284;0.32194796;-0.19022208;0.0035307799;0.058971826;-0.029487181;-0.04825154;0.2697904;0.17841901;-0.09105407;-0.45007455;-0.13943595;0.07603445;-0.043326158;0.26683924;-0.17368688;0.0013430467;-0.05331799;0.15719946;0.06047163;0.16455837;0.062079463;0.0596337;0.072013535;0.0964727;-0.052748904;0.08536416;-0.16945039;0.03242038;0.30569437;-0.004672477;-0.6695897;0.060103677;-0.010139554;-0.099204615;0.0112430705;0.037347008;0.20251249;-0.0643946;-0.14812137;0.06644754;0.14118236;0.2951269;0.20702344;0.04302158;-0.19708736;0.0012233722;-0.28359127;0.13660038;0.12056202;0.18608612;-0.041394856;0.0062257475;0.16621226;-0.02884677;-0.057714045;-0.07021083;-0.18227302;0.054461397;-0.0085380245;-0.023315884;0.31919652;-0.10731424;-0.10830113;-0.06540512;0.19404124;0.2844682;-0.06331473;-0.019944543;0.04572434;0.18265557;-0.15235499;-0.015375835;0.15813452;0.060431316;-0.07256443;-0.30505788;-0.03632982;-0.23999588;0.085216336;0.029106842;0.037531283;0.2494229;-0.10612239;0.22932428;0.21095237;-0.26875845;-0.26172414;-0.48749065;0.11893734;0.052563976;0.08009512;0.008143214;0.09990956;0.35203823;0.41210136;0.5395027;0.11200595;0.03929023;0.11189703;-0.14016402;0.015743092;0.016006505;0.03907285;0.1727147;0.3278139;-0.032491237;0.4671624;0.13091333;0.13772465;-0.053007625;0.06409471;0.28986582;-0.2593161;-0.15933375;0.20639077;0.36294243;0.07002047;0.081878304;-0.29315695;-0.030054586;-0.09901018;0.23499909;0.24081191;0.22370963;-0.029185848;0.21306203;0.02048344;0.14798987;0.18137428;-0.0747711;0.018414538;0.08773714;0.007334489;-0.3272821;0.22279115;-0.04476195;0.04718359;-0.15088342;0.027956719;0.044837847;0.29780698;0.07313804;0.1670364;0.26058835;-0.039317966;-0.0052378066;-0.07397102;-0.2625158;-0.11263597;-0.054411016;-0.023800952;-0.062400315;0.028299823;-0.1596662;-0.02300157;0.24255079;0.2399376;0.075037315;0.37514466;0.11204883;-0.03961485;0.016242055;-0.06651992;0.07062983;0.32311627;0.01203467;0.06336106;0.03281643;-0.49892104;0.31538275;0.050869282;-0.019026587;0.0572175;-0.044888154;-0.08746433;0.03303444;-0.10418553;0.1251704;0.0944337;0.48137745;0.24234387;0.03319297;0.0975085;-0.0527047;-0.25520334;-0.0128370095;-0.031128922;0.1319363;0.028517665;-0.055314973;-0.03217907;0.069756;-0.15597412;0.21171574;0.009130709;0.030584788;0.23318401;0.0731837;0.004336584;-0.3050569;0.036696766;0.3490275;-0.06185982;0.09756899;0.17330809;-0.069909796;0.06327368;0.15048929;0.09877259;0.18225886;-0.046446983;-0.055830408;0.07564147;0.0770152;-0.06655939;0.15840203;0.0055892942;-0.08301066;0.03884284;-0.018729432;0.07435099;0.11185094;-0.011593743;0.28208435;0.06392003;-0.42077973;0.17476302;-0.016567916;0.19968669;-0.052256174;-0.17386547;0.04301685;0.19121036;-0.30381066;-0.17783153;-0.061383516;0.006326094;0.029335566;-0.31672165;-0.042616256;0.017935487;0.008369409;0.101143405;0.3913814;-0.07670061;0.0688073;0.18302271;-0.05139457;-0.055916473;0.031418376;0.15774253;-0.010269001;0.17645895;-0.20241006;0.030209875;-0.06390599;-0.16939823;0.053174376;-0.04896663;0.054305308;-0.07063348;-0.22189806;-0.07207261;0.056910973;0.4312495;0.07917812;-0.26673272;-0.22476557;-0.13364562;0.11832818;0.2956288;0.1906326;0.03808762;0.25352523;-0.06347001;-0.2566639;-0.35195705;-0.15503815;0.054454904;0.00023857444;0.06684513;-0.015346816;0.3168537;0.04731922;-0.046351403;-0.037120108;-0.02697677;0.04128207;0.28064176;0.19173285;0.039587855;0.08647914;-0.0075570364;0.045974992;0.18974322;0.01608751;-0.030610647;0.247389;-0.041544046;0.11975158;0.050766785;-0.0040680584;0.005905155;0.19670525;0.08586544;0.24837196;0.14706881;0.119649164;-0.0490889;0.009982137;0.028736183;0.35174185;0.003466242;0.29674965;-0.13659129;-0.109055996;0.022829566;0.246432;-0.04952391;0.10152571;0.034143407;0.10325958;-0.21230961;-0.035647735;-0.0037381453;0.068934985;-0.047023762;-0.012751137;-0.17377733;-0.040645108;0.22924274;0.16786392;-0.043750256;0.010021725;0.17209771;0.053523988;-0.0013345531;-0.18373007;0.051443182;-0.02677042;-0.051822186;-0.017544994;-0.057858568;-0.1491075;0.1137738;0.20386536;0.2006155;0.017485702;-0.061793666;0.21211731;-0.023651442;0.031673692;0.053584713;0.2614979;0.017188177;-0.10804166;0.0071749287;0.048967917;0.65770054;-0.026375694;-0.16823758;-0.26584384;0.021824466;0.24604544;-0.35199353;-0.06449482;0.20690931;0.019581607;-0.0013689289;0.010776166;0.020382086;0.0695184;-0.19092028;0.32128993;0.37110415;0.12640919;-0.00044591934;0.33057466;0.15642275;-0.0076698344;0.35396305;0.056613736;0.06925225;0.2809548;-0.120546356;0.07426395;0.06085916;-0.008204531;-0.0015643741;-0.20849515;0.09806173;0.016941322;0.2738618;0.0061865393;-0.05288009;-0.0030960462;-0.253787;-0.21901686;0.26622325;-0.029607525;0.034074076;0.21075483;-0.006251966;0.20772855;0.078654334;0.009732319;-0.0137698455;0.15360196;-0.013491408;-0.22612981;0.13695358;-0.08177822;0.012218451;-0.018713567;0.018360239;0.014723241;-0.038006824;0.026772399;0.08663893;0.12757184;0.08832015;-0.0011955855;0.01750717;0.10924848;0.21142846;0.18086655;0.09091988;-0.11815259;-0.083393976;-0.088718764;-0.043320835;0.22212674;-0.54578215;0.28267196;0.27018985;-0.0151037015;-0.05358351;-0.004608345;-0.18997535;0.14943108;-0.24987742;0.042029925;0.34422246;0.21038127;-0.14989431;0.2846525;0.057575185;-0.18674532;0.14650737;0.04325598;0.02467729;-0.14220755;-0.053691912;0.15593642;0.012030018;0.035076093;-0.061023984;0.18153939;-0.086497076;0.15139444;0.013566644;-0.030126458;0.22476463
0.020897398;-0.2411148;0.020801945;0.012528075;0.020665314;-0.06311369;-0.24679719;0.06213378;-0.10380844;0.031169932;-0.022054195;-0.15454383;0.006805767;0.0070974426;0.30000734;0.029032324;-0.04254296;-0.12921788;0.35721397;0.26354185;-0.09068992;-0.0073794974;-0.056503363;0.36783957;-0.011056112;-0.06919428;-0.081513345;-0.11191097;0.054429024;0.13164844;0.028971616;0.16549794;0.31902;0.012900536;-0.013445939;0.044392172;-0.056526486;0.11229064;0.34383553;0.24647164;-0.19595434;0.0062501356;0.2696147;0.032912433;-0.45386156;0.22083591;-0.013322715;-0.0032436454;-0.08954805;-0.06208994;-0.0023175154;-0.28769323;0.09491782;0.5615116;0.044332765;-0.05407752;0.06203897;-0.12913999;0.08582245;-0.03711457;-0.07984527;0.12842795;-0.01789434;0.04521733;0.06295793;0.20865136;0.08527962;-0.09866569;0.070311464;-0.032668497;-0.036599156;-0.089091115;0.097417645;0.0736477;0.1742197;0.07749735;0.06676423;0.37571874;0.0370858;-0.06336335;0.051329557;0.48053563;-0.092153;0.043685548;0.066484824;-0.08133688;0.0011566906;0.11986293;0.089722395;0.02954436;0.03902159;-0.03000374;0.014851645;-0.024935922;0.06843406;-0.31984583;0.18271795;0.15342724;-0.16234669;0.10647793;0.1106172;-0.08884836;-0.18650521;-0.13205512;0.16346124;-0.2884957;-0.13858351;0.08254237;0.19424315;0.08201534;0.18938965;-0.16684216;0.015714226;0.28504315;-0.17074601;0.09560117;-0.040065765;-0.07292965;-0.20384915;0.305763;0.20229173;-0.16710602;-0.39392033;-0.15152182;0.09174401;-0.13909544;0.2845554;-0.1963783;-0.06733501;-0.09186844;0.16432233;-0.07302505;0.075854406;0.010402113;0.09120061;-0.0383953;0.24442488;0.005207814;-0.040072117;-0.15503465;0.02555429;0.26031634;-0.027529433;-0.6019135;-0.015137835;-0.0491338;-0.027940014;0.036032483;-0.060478963;0.3046827;-0.060769185;-0.14850828;-0.02279029;0.13486783;0.20630214;0.2477422;0.006809818;-0.12290584;-0.04124586;-0.26685554;0.054755528;0.14961672;0.086723894;-0.014373199;-0.003956683;0.11254103;0.012136356;-0.08432959;0.049922142;-0.054698233;0.13585854;0.046482034;0.014893132;0.33365175;-0.017582878;-0.015820852;-0.016764164;0.15769905;0.3350373;0.07220157;-0.039869457;0.04479906;0.16348864;-0.10727909;-0.00054812146;0.305154;-0.02526131;-0.07576911;-0.29972294;0.0025315343;-0.22790952;-0.047921747;-0.053941343;-0.043956045;0.19401786;-0.17873532;0.084985346;0.07778327;-0.16784614;-0.3504084;-0.3915165;0.22297172;-0.036120765;0.025177624;-0.021853842;0.0725903;0.30945638;0.3861756;0.5129196;0.09013544;-0.067095615;0.059449363;-0.24352165;0.04899029;-0.028357085;-0.0210851;0.12006218;0.33929706;-0.117789514;0.43704715;0.07324967;0.08043599;-0.20304413;-0.03493039;0.29107705;-0.17717487;0.0018257594;0.2431118;0.34367982;-0.06282921;0.19715665;-0.19660607;-0.007920582;-0.11997076;0.18871272;0.1578849;0.17662768;0.0044611744;0.21962069;0.05007298;0.14513797;0.14871167;-0.15794705;-0.0466542;-0.01495023;-0.040265232;-0.39164373;0.20134877;0.046434473;-0.05510643;-0.20240594;0.024719143;0.002248665;0.31921068;0.022559606;0.17183362;0.1310177;0.009996402;0.013074134;-0.008232623;-0.21821345;-0.10531535;-0.06561145;-0.010934591;0.09341344;-0.02863726;-0.14416532;0.089504324;0.33992752;0.06334639;0.1714365;0.34689;0.16297461;-0.0024069282;0.048599605;0.04561875;0.03441838;0.23123434;-0.043216422;0.0617996;-0.01529874;-0.38160405;0.4790551;0.04038361;-0.20577061;-0.035373185;-0.04672159;-0.11296356;-0.029324858;-0.13106862;0.20394598;0.15286084;0.44712156;0.4044062;-0.045919705;0.12250692;-0.055868424;-0.22772649;-0.005210002;-0.0079847835;0.04443136;-0.06101035;0.0105769085;0.06834916;0.07520742;-0.23046973;0.05697463;0.026827015;-0.05963418;0.19337992;0.0504008;0.028737329;-0.31308547;0.018992133;0.32523453;-0.12978405;0.14591795;0.061318103;-0.0029900644;-0.021999944;0.06108289;0.0081203235;0.05225088;0.03799394;0.02689927;0.13378148;0.03446324;0.089628346;0.14074782;-0.061462387;-0.007679212;-0.013824039;0.07363638;-0.040637635;0.2193799;-0.044585783;0.47703573;0.050182916;-0.1888656;0.18740115;0.0016101924;0.19118589;-0.0015698434;-0.089003436;0.09054041;0.32936552;-0.24825478;-0.17632376;-0.035732277;0.05177375;-0.03984246;-0.4846971;-0.0062556188;0.038526624;0.06630196;0.1186488;0.32279179;-0.035873376;0.06866077;0.06760764;-7.7287244e-05;-0.03419387;0.052118003;0.20233567;-0.08554858;0.17666426;-0.22872268;0.04749079;-0.01894082;-0.1346767;-0.019472055;-0.0015594992;0.054304138;0.029438687;-0.12275385;-0.030589797;-0.022038536;0.2729375;0.11917291;-0.22344884;-0.1593344;-0.1685473;0.116082825;0.22551523;0.22532722;0.04946661;0.31574365;-0.07575262;-0.41828352;-0.33404762;-0.21544462;-0.07881265;0.042353377;0.020136084;-0.16548136;0.14290051;0.025620064;0.021200484;-0.04050758;-0.059226595;0.15248406;0.2506307;0.11254685;-0.048391804;0.19372977;0.021796828;-0.08957557;0.26265538;-0.07737519;-0.07071544;0.15573221;-0.04223371;0.049491856;0.017283289;-0.028435789;-0.05752578;0.2863234;0.107962616;0.19943161;0.15436354;0.16616674;0.086667314;0.032435477;0.15817988;0.40090412;-0.04708082;0.3168052;-0.011749648;-0.17332715;-0.043217596;0.15647042;-0.14937115;0.17482445;-0.02621399;0.06243983;-0.19129378;-0.005510931;0.012154893;0.014072638;0.054321196;-0.07159619;-0.1587053;-0.017468404;0.21348366;0.1327125;0.017405558;-0.0019275866;0.15300183;-0.017262379;0.0959811;-0.28553957;0.13453282;-0.043380287;-0.009363386;0.06492433;-0.014646789;-0.14288019;0.18291484;0.22139974;0.16587202;-0.050394364;-0.036398027;0.210835;-0.02461459;0.021252314;0.07643512;0.16002661;0.055613026;-0.03863518;-0.07882255;0.008150289;0.59146136;0.07975462;-0.14822143;-0.123940125;0.03563576;0.16259141;-0.4342079;0.04832275;0.23785186;-0.034779754;-0.046637744;0.04301342;-0.010160856;-0.005723556;-0.20502464;0.2860637;0.3250289;0.24753502;-0.008300363;0.31701493;0.044012614;-0.059070844;0.39462787;-0.04950817;0.03454668;0.23919527;-0.2056203;0.044311732;-0.033286396;0.048728853;0.009856971;-0.10423575;-0.09090294;0.04101469;0.209336;-0.052131407;-0.025568916;0.0743656;-0.27697915;-0.31305632;0.24675386;0.030664787;-0.050410867;0.20430103;-0.06863639;0.26163566;0.04889296;-0.10907297;0.027801847;0.071560204;0.073855974;-0.07786102;0.14494292;-0.069700554;-0.04408287;-0.0047017788;-0.14032418;-0.043378763;-0.060205262;0.027686683;0.02421789;0.06842378;0.23938362;-0.0152720045;-0.01747394;-0.052497145;0.10210045;0.29730153;-0.01965764;-0.0670281;-0.06418134;-0.10258477;-0.086850345;0.12390336;-0.38859922;0.2373235;0.23120171;0.050237227;-0.0071993805;0.074969284;-0.07366999;0.23160222;-0.3005858;0.07482967;0.27573016;0.18175189;-0.2092215;0.16190088;-0.09326166;-0.22472684;0.041991565;-0.05097788;-0.021092111;-0.156565;-0.12642044;0.19843048;-0.01543144;-0.0018479122;-0.036432184;0.09473868;-0.017621713;0.2753681;0.022184938;-0.024499241;0.23603652
-0.0581082;-0.190205;0.030852418;0.029475493;0.045930784;-0.030295828;-0.034520008;-0.0449637;-0.12812929;-0.05699402;-0.06893869;-0.12952493;-0.007272066;-0.059283122;0.25348285;-0.04468749;0.045835853;-0.11139554;0.35629016;0.20413159;-0.15030335;-0.0073869396;-0.06012864;0.2857455;-0.015472741;0.06509732;-0.043356504;-0.039112452;-0.023799093;0.21394509;0.120981485;0.24522413;0.2591021;0.032812513;-0.022425685;0.07243479;0.042262673;-0.0186526;0.2541207;0.33013585;-0.16574615;-0.06392227;0.19748126;-0.03442333;-0.47987723;0.2293807;-0.0100618815;-0.028505027;0.060101945;-0.06663767;0.05761211;-0.38021794;0.029149847;0.51754075;-0.009181557;0.07331375;0.115616575;-0.1864036;-0.053159773;0.04275595;0.006217019;0.059630558;-0.059180513;-0.061060727;0.07128798;0.16364619;-0.042988423;0.02143735;0.081962295;0.011451119;0.024992898;0.022365136;0.10238863;-0.03356523;0.34421557;0.0038606904;0.076321736;0.3924849;0.06861275;-0.029996596;0.020447671;0.449031;-0.019598948;0.010082903;0.15629962;-0.14430107;0.019734606;-0.02465859;-0.032107398;-0.024185006;0.061477892;-0.0017773019;-0.04333869;0.11472075;0.06809012;-0.3336651;0.1253551;0.19848527;-0.18286636;-0.034481753;0.09994661;-0.013289911;-0.2181914;-0.20122397;0.100480534;-0.27463868;-0.13144337;-0.007860348;0.21015875;0.075352535;0.18731806;-0.12561618;0.021499114;0.26277688;-0.17921083;-0.041987125;0.009492789;-0.13372105;-0.27796617;0.1568042;0.14466673;-0.15536548;-0.38467667;-0.07728819;0.0073832604;-0.0967454;0.28927627;-0.06510443;-0.091007456;-0.04146515;0.13005218;-0.013672997;0.0005142048;0.025947025;0.1505028;-0.0087932795;0.2926854;-0.043825563;0.064076535;-0.18994682;-0.06162746;0.30372328;-0.15687758;-0.5737612;-0.02223927;0.015049351;0.0008939578;0.04275703;-0.12585212;0.23456708;0.04292174;-0.16993217;0.15323639;0.14659144;0.34473065;0.16198562;-0.009006756;-0.2558527;-0.016948016;-0.35872194;0.20273568;0.2193853;0.21456265;-0.015444241;-0.08146642;0.16945569;0.032765195;-0.03580766;-0.02734691;-0.11455714;0.1637556;-0.05349882;0.00236795;0.2749867;-0.024725497;-0.0901202;-0.04635621;0.010369604;0.2276012;-0.007285451;-0.016134659;-0.041925147;0.1163755;-0.062647365;-0.0061297207;0.25818476;0.004426026;-0.08929004;-0.38584772;0.060088154;-0.28817284;-0.017159278;0.040331975;-0.016641384;0.026339326;-0.0751671;0.14223093;0.09679592;-0.13077925;-0.25280982;-0.30412114;0.1578268;0.04982887;0.058361646;0.05582692;0.2221771;0.39750338;0.23166324;0.5133574;0.09038824;-0.030088061;0.17657004;-0.17502704;-0.061591037;-0.075177506;-0.0264897;0.0457103;0.2266898;-0.14536364;0.4743419;0.08089982;-0.012294398;-0.14343138;-0.042207472;0.32549623;-0.1973609;0.11510363;0.17346433;0.43396717;-0.06333448;0.12778321;-0.20657507;-0.032876085;-0.026588203;0.26444912;0.15665075;0.063525625;0.08624615;0.26052344;-0.016008826;0.08314455;0.18782757;-0.046303745;-0.012551163;-0.00035239637;-0.08125117;-0.30264884;0.29558024;0.03024836;-0.0011799985;-0.16683984;0.0499996;0.08943824;0.20497654;-0.045833822;0.17389993;0.062222097;-0.07593094;0.030989906;0.07404061;-0.099270575;-0.036051225;-0.0010569429;0.025841543;-0.048377927;-0.06825569;-0.15755352;0.04167703;0.16352628;0.10887263;0.111740075;0.38820812;0.08222234;0.10832295;-0.008492517;0.01022549;0.009562759;0.2866857;0.022169271;-0.0142810615;-0.060982086;-0.3855278;0.44781855;-0.07573406;-0.123683505;-0.07444639;0.028581565;-0.08358282;-0.0030508619;-0.096486464;0.1934371;0.050314836;0.18629366;0.2399938;-0.024605678;0.1711923;-0.08430451;-0.22641529;0.07722249;0.0610838;0.12081903;-0.021902185;0.03728478;0.008763508;-0.02175333;-0.28032085;0.104718775;-0.012269634;-0.06585933;0.2056141;0.028945312;-0.005632755;-0.15500629;0.05487234;0.36133695;-0.040412795;0.1297367;0.055494394;-0.08931948;0.00039002407;0.024438325;-0.012028625;0.035384443;-0.039048694;0.005830876;0.08086061;0.084613524;0.016030213;0.095766;0.05019229;-0.0041259658;-0.025898807;-0.0054478925;-0.061324034;0.1948074;0.065242134;0.42664766;-0.047865037;-0.19461583;0.16804335;-0.0072790817;0.20346245;-0.005032681;-0.17704225;0.07154769;0.2608416;-0.17816289;-0.035671502;-0.11996111;0.00912394;0.041340098;-0.51832074;0.026507644;0.09580303;-0.014995286;0.1108045;0.44880852;-0.102821656;0.013661866;0.13643001;-0.031322826;0.0050443136;0.004827461;0.24498579;-0.008748038;0.24352077;-0.13385382;0.09527591;-0.1447032;-0.09599814;0.011781294;-0.049207676;-0.07596427;-0.042438384;-0.297042;0.013274513;-0.035919406;0.35002804;-0.010038485;-0.20572776;-0.058601607;-0.29438564;0.009272464;0.20013437;0.23813157;0.04188038;0.15832244;-0.07096232;-0.36799073;-0.21316601;-0.22842991;0.05155709;-0.0066679018;0.012010006;-0.10441066;0.14756313;-0.04336207;0.07940533;-0.043440685;0.063868485;-0.031019688;0.30990595;0.07661539;-0.079389974;0.1597288;-0.012216865;-0.18126531;0.19767183;-0.07399319;0.07338255;0.111115284;-0.07841419;0.1723003;-0.020413617;-0.038026202;-0.051443055;0.34211394;-0.032275263;0.14157549;0.29055524;0.13765997;-0.011009241;0.063976355;-0.005701901;0.36611393;0.07388527;0.32219592;0.095651664;-0.30234197;-0.058987487;0.1014182;-0.1203001;0.16214634;0.04725335;0.10503011;-0.07066798;-0.03665009;-0.008229236;0.12237947;0.040671684;0.052467432;-0.28265655;-0.12364557;0.23908472;0.11273705;0.008267559;-0.0027654653;0.10338823;0.024852952;0.08176165;-0.1743089;0.009671137;-0.01575476;-0.038892027;-0.02038682;0.097339734;-0.16959777;0.19855557;0.26508853;0.24746737;0.028671794;0.05378077;0.27957663;-0.003127369;0.023551865;-0.0636127;0.13630491;0.08420594;-0.017626889;-0.05846617;0.021916622;0.47742558;0.0021023268;-0.22830547;-0.12919526;-0.05878823;0.254652;-0.46471006;-0.03858578;0.22877717;0.009321209;-0.0215716;0.050334472;-0.0018341801;0.044539865;-0.21394956;0.1855634;0.35767493;0.30696198;-0.024358043;0.31547377;0.069422446;0.0037290533;0.3798876;0.04248517;0.0077404813;0.23925804;-0.21959208;0.005213295;0.04397278;0.008833597;-0.01480464;-0.0871587;-0.0896443;0.025378302;0.12832049;0.05462436;-0.026370043;0.03795924;-0.18818061;-0.1652603;0.2160688;-0.052142225;-0.06910149;0.09799003;0.048701964;0.19228977;0.15846586;-0.15185702;-0.023966976;0.0050794664;-0.050933845;-0.16827355;0.16171081;0.04805388;-0.031699367;-0.049536303;-0.15765217;0.066535704;-0.027209466;0.04386316;0.08949133;0.04054208;0.25027266;0.02381021;-0.030018285;0.05768165;0.016295642;0.2783576;0.04579621;-0.04332932;0.03668944;0.07411131;-0.03771557;0.1409833;-0.42947608;0.17682733;0.3877851;-0.046884913;0.048105635;-0.013535404;-0.028458815;0.29722276;-0.31663683;-0.058423918;0.25595585;0.15661357;-0.27150217;0.19179896;-0.069828376;-0.30954093;0.10118029;-0.030624604;0.058353066;-0.07509703;-0.054124888;0.19461015;-0.061983574;0.03883665;-0.024409534;0.17509949;-0.065296784;0.19359986;-0.08784272;-0.003838;0.19644272
-0.057393152;-0.09908079;0.05517112;0.09708273;0.015067747;-0.0663699;0.042760435;-0.024442233;-0.071219176;0.004706853;-0.08331694;-0.06515001;0.06689505;-0.056649335;0.14184071;0.07915856;0.028799713;-0.13363846;0.22711697;0.20937948;-0.076289564;-0.2180504;-0.0032766673;0.37531433;0.039330922;0.11865167;0.060845114;-0.005479504;-0.122011416;0.0986991;0.09971441;0.2332006;0.28309903;0.015153794;-0.00072916254;-0.013198042;0.047438774;0.1121119;0.22350383;0.19255899;-0.20841105;-0.023238644;0.09405562;0.033022434;-0.4966222;0.16321315;-0.016081877;0.063951306;-0.04546766;-0.11002581;-0.066225916;-0.28690198;-0.0022972038;0.47857758;-0.011695698;-0.048252046;0.074847974;-0.28766704;0.03067297;-0.030366246;0.041026577;0.071924455;0.036071688;-0.032485504;-0.095286004;0.33901793;0.06371897;-0.021443889;0.10000985;0.023263453;0.003011311;0.0355702;0.08110308;0.114195414;0.24214044;-0.008552684;0.14760369;0.49179393;0.027787147;-0.09805889;-0.0040848637;0.5453337;0.02460595;0.014284248;0.16246597;-0.09554573;0.05562231;0.12548597;-0.070853405;0.0910635;0.007949695;0.078343295;0.0024758407;-0.032526985;0.08048671;-0.23168783;0.18882895;0.3071359;-0.10672346;-0.041651133;0.10661196;-0.056656342;-0.24773778;-0.13631745;0.053238638;-0.23155588;-0.09113455;-0.02312261;0.17443183;0.049982037;0.2119524;-0.13107538;0.0015211849;0.35583022;-0.14557904;0.0097174;-0.086708605;-0.07790092;-0.32660124;0.19435114;0.087632746;-0.24683909;-0.39569786;0.018491326;0.06270879;-0.21820079;0.279361;-0.22023469;-0.17190146;-0.048144136;0.10528053;-0.03733638;0.071659744;-0.06368614;0.032532193;-0.027587181;0.22158594;-0.028631201;0.023473622;-0.12128346;0.049115103;0.32113725;-0.03677245;-0.6962412;-0.09957357;0.025878865;-0.004800476;-0.015636701;-0.12672853;0.1880778;-0.027816545;-0.14129715;0.17305057;0.19866435;0.20543958;0.3034703;-0.051609233;-0.18220568;0.009530641;-0.26119888;0.24962476;0.08632973;0.17676808;0.004118199;0.003437722;0.12778108;0.0069299215;-0.03568417;0.005336121;-0.1535229;0.0065472126;-0.054923717;-0.10288387;0.28396478;-0.20668921;-0.030574074;0.006687521;0.07734278;0.19952238;-0.029559886;-0.032460168;0.037209135;-0.025156379;0.015088196;-0.024148729;0.273798;0.07647845;-0.059121754;-0.4034531;0.059729986;-0.15018529;0.020455478;0.012308586;-0.017453905;0.1456933;-0.1622636;-0.036271147;0.24107972;-0.12573047;-0.25648278;-0.15784015;0.047639877;-0.017903415;-0.09584467;-0.017168144;0.13625494;0.31509778;0.3816493;0.37770683;0.043927886;-0.14712583;0.14876519;-0.14755808;0.04600959;0.024359705;0.07124539;0.014886378;0.21394466;-0.10022827;0.4378536;0.043796916;0.06173125;-0.07848569;0.06276101;0.25924143;-0.17583533;0.2656183;-0.035760246;0.37552366;0.030762631;0.1958979;-0.219201;0.05264962;-0.16294192;0.20729715;0.14827862;0.030191224;-0.06274653;0.22963876;0.014200689;0.12675038;0.08659805;-0.11860182;0.025809653;-0.054413382;0.02725881;-0.41773385;0.30554813;-0.001957835;0.045528937;-0.13626987;-0.014851708;0.06854526;0.22476508;0.0091703385;0.10390295;-0.0058793277;0.04438858;-0.0065141087;0.010729131;-0.12347494;-0.013768315;-0.024180094;-0.008891961;-0.06796679;0.012280485;-0.13231014;0.0370409;0.102256395;0.0018273758;0.09278572;0.3243301;0.013976176;0.07909742;0.026028018;0.009445547;0.06726019;0.29621637;0.03944076;-0.013884857;0.014031335;-0.41082758;0.37094864;-0.1798444;-0.26497838;0.0030764916;0.021465644;-0.060284324;-0.06897121;0.067355365;0.22942585;0.0020066453;0.17652243;0.26429957;-0.23063861;0.1684917;-0.009479852;-0.12769482;-0.054470953;0.07063366;0.084323846;-0.051203568;0.0054935464;0.050968237;-0.13378264;-0.2374951;0.018864727;-0.07195485;0.010503069;0.20181568;0.03330072;0.012639362;-0.10496924;-0.039094336;0.35252616;-0.05711188;0.16002142;0.09573471;-0.20821981;0.026244057;0.0400412;-0.08502003;0.021960873;-0.015052064;-0.017871311;0.10188743;0.058897514;-0.044881213;0.14892888;-0.04209044;-0.017628534;-0.0072852466;-0.021044532;0.0035409844;0.12665695;-0.045646805;0.4600445;0.026269717;-0.115589455;0.3430956;0.014487128;0.1185137;0.06318838;-0.2494375;0.032598414;0.26602265;-0.17998481;-0.08192796;-0.11925185;-0.0038722996;0.05265305;-0.53250045;0.06366773;-0.028699504;-0.030413542;0.043183636;0.45712262;-0.21549477;0.027817782;0.081393994;-0.0028370004;-0.015884934;0.07931985;0.13128419;-0.05004159;0.20950617;-0.07920497;0.11043275;-0.1536969;-0.15539657;0.055392507;-0.029112652;0.033072222;0.071351744;-0.34070247;0.00030005057;-0.055636372;0.21480851;0.024377402;-0.17890179;-0.0914131;-0.27411768;0.046518885;0.2311315;0.20485798;0.0076102936;0.1599177;-0.043426495;-0.40029484;-0.23466307;-0.15927696;-0.04298894;-0.008467329;0.15680419;-0.18502122;0.14583585;-0.0090951435;-0.0044960813;-0.0077164927;0.08097524;-0.040675074;0.29058602;-0.0025913059;0.018567225;0.21064517;-0.009032363;-0.16450146;0.24145806;0.07291932;-0.046781667;0.052672803;-0.11601658;0.12255018;-0.019952003;-0.10578494;0.04205115;0.24691868;-0.015046896;0.225205;0.27801484;0.13641387;0.08207556;-0.050875194;0.022079593;0.37205577;0.1048948;0.17699634;0.05854216;-0.28164157;0.034350283;0.062038068;-0.18905802;0.16268176;0.14027308;-0.051392674;-0.1321503;-0.022085879;-0.038575463;0.14935017;-0.04262922;-0.07489794;-0.121834904;-0.052614324;0.2319914;0.22030668;0.0418816;-0.015347237;0.09684903;-0.053898595;-0.027079208;-0.12892717;-0.028757995;0.03253852;-0.054903183;-0.04908159;0.027597668;-0.2683209;0.06725279;0.20038506;0.20450617;0.12675087;0.012844158;0.23495872;0.03947481;0.016730426;-0.116767235;0.12453529;0.0113903;-0.056415513;-0.082279354;0.09985376;0.5528818;0.0054207337;-0.21246603;-0.1520535;-0.059724838;0.19028051;-0.38180253;0.067862354;0.28238848;-0.00045470143;0.010875313;0.036052343;-0.038171496;-0.0018616808;-0.12119231;0.15612435;0.3782501;0.2646023;-0.03196315;0.35241854;0.020152457;0.045517538;0.34827578;-0.06673448;-0.044476274;0.3246128;-0.12748848;-0.16903186;-0.04231091;0.02305281;-0.12330534;-0.19317654;-0.046899673;-0.043004382;0.19214435;-0.05209381;0.082170695;0.13143058;-0.09968457;-0.20104928;0.15083934;-0.0007478572;0.026243925;0.10360247;0.053520095;0.32091343;0.046068117;-0.035049397;-0.06459197;-0.10509144;-0.0015954928;-0.21150668;-0.012121597;0.057326414;-0.0065703276;-0.05555092;0.009443656;0.10051798;-0.03759011;0.1538254;0.11454716;0.09713202;0.23304692;0.013810407;0.012120863;-0.010339474;0.060243458;0.3865676;0.110445045;-0.02368147;0.05092466;0.008021474;-0.07484987;0.23955321;-0.49556482;0.061435767;0.30408448;0.069193736;0.025630228;-0.0793227;-0.12133931;0.21171273;-0.40888953;-0.08126501;0.25327316;0.0067267474;-0.31653184;0.14875495;-0.045217305;-0.30619252;0.122920565;-0.030273346;-0.06815063;-0.13775122;0.095892936;-0.0061707944;5.3357242e-05;-0.02972535;-0.040766638;0.18786022;0.018464923;0.11831403;0.012909025;0.0031860126;0.24334946
-0.09299729;-0.17509547;-0.043027204;0.020716958;-0.007571421;-0.017700177;0.045196828;-0.037082005;-0.08519748;0.03322355;-0.22241238;0.043499265;0.052433483;0.07095711;0.08819329;-0.025970267;0.038746573;-0.11662742;0.2999216;0.18401963;-0.21141292;-0.07374403;-0.054324597;0.32516536;-0.030989444;0.055275444;0.0356355;-0.08793114;-0.05899885;0.25274348;0.09201804;0.32531548;0.28084776;-0.06943086;0.042184338;-0.0005173252;-0.048442785;0.07624746;0.25572562;0.23244613;-0.18191758;0.05230825;0.14320987;0.03787503;-0.51274586;0.2204627;0.018726632;0.035703953;-0.0046919435;-0.16650234;0.045966614;-0.43301207;-0.078401536;0.52227724;-0.04059836;0.0004196932;-0.04220734;-0.27895457;-0.043112636;0.0027628292;0.012261389;0.24402623;0.058221836;0.046845086;-0.011921919;0.28066683;-0.0012707749;0.03248167;0.11765375;0.018881133;-0.03591353;-0.0813271;0.039943445;-0.045609668;0.24712677;0.07543916;0.012431098;0.48794022;0.029039739;-0.09125633;0.015210915;0.5142731;0.05905867;0.025825987;0.06941974;-0.040181875;-0.06272128;0.030772915;-0.029670361;-0.048693106;0.06380955;-0.057524145;-0.06386615;-0.043903455;0.11539326;-0.20352349;0.20977497;0.35457778;-0.31700918;-0.039170157;0.08217678;0.041828424;-0.18997237;-0.14962842;0.1765132;-0.25224683;-0.098058976;-0.10480873;0.2684527;0.18746501;0.11130094;0.037890274;-0.029294163;0.24105899;-0.10786684;0.07443819;0.04919301;0.018088292;-0.3297335;0.23036276;0.22623809;-0.1784787;-0.3084065;0.08639596;0.09074388;-0.23112205;0.38875905;-0.096552335;-0.13827284;-0.22566745;0.14528371;-0.14336862;-0.04580566;-0.01048406;0.079349354;-0.0041772793;0.2646737;0.02444257;0.07003211;-0.21899703;0.034525648;0.34019497;-0.18734376;-0.5870416;-0.108107224;0.082501926;0.09648465;-0.019169653;-0.09356282;0.25496632;0.05550164;-0.13273077;0.18746416;0.12683155;0.21389331;0.25440067;0.011140861;-0.29087785;0.060728528;-0.1657787;0.13403805;0.11412823;0.21081586;0.036029987;0.084342904;0.059016414;-0.047198985;-0.13921796;-0.016052712;-0.015777942;0.018114809;0.09389596;-0.07179681;0.17578165;-0.22703387;-0.10894126;0.011425099;0.14959216;0.20439237;-0.06011202;0.024128964;-0.009332374;0.0028476538;-0.0751382;0.025472518;0.4482692;-0.015889931;0.084548846;-0.4414892;0.026420092;-0.29034096;-0.20884678;0.07486212;0.017366057;0.16738419;-0.08475621;-0.03580551;0.15950382;-0.06791977;-0.19557847;-0.16345872;0.106018074;-0.00892872;-0.08601314;-0.13886122;0.2796902;0.30307084;0.24380264;0.28994414;-0.04602125;-0.090345785;0.2479924;-0.0866409;0.007164475;-0.0019865218;0.0015592638;-0.015841627;0.28584787;0.0088158585;0.36870146;0.00025054323;-0.014464351;-0.12668157;-0.0047621042;0.16010632;-0.19451296;0.34517187;-0.081058145;0.26653245;-0.06684399;0.1944664;-0.08037581;-0.014822979;-0.08992493;0.21470387;0.12801842;-0.0004438832;-0.0350185;0.3063453;-0.058382414;0.14677614;0.122315;-0.055898067;0.049446166;0.019849408;0.08681834;-0.3257272;0.28879568;-0.045123175;0.04768762;-0.17490584;0.039244395;0.042756565;0.09644592;0.036990367;0.088252276;0.099753045;-0.12739739;0.058987428;-0.034925304;-0.012387196;-0.03398508;0.025039094;-0.0018572513;-0.07089894;-0.03610303;-0.17951281;-0.08063799;0.09678876;0.094148986;0.11247951;0.24715005;0.06777627;0.07669635;-0.05469865;-0.027610766;0.13982636;0.26228568;0.027979163;0.03106271;-0.0005191499;-0.4649337;0.4062434;-0.15283552;-0.15037765;-0.015207256;0.03984802;-0.029069494;0.03104388;-0.12922505;0.20436043;0.0573243;0.29274228;0.2641398;-0.20454761;0.27900228;-0.038659874;-0.10167044;-0.048626177;-0.031501852;0.14011717;-0.07582374;-0.036448553;-0.062177878;-0.15015492;-0.2699337;0.10933559;-0.083268635;0.04726313;0.21318857;-0.041864727;-0.015867932;-0.15158156;-0.0066646654;0.30800992;-0.09831009;0.17323898;-0.04258481;-0.11800332;-0.046074763;0.022843845;-0.026910858;-0.05813404;0.02257633;0.013628136;-0.061434127;0.018171588;0.06282773;0.088351265;0.03876345;0.053257383;0.022129508;-0.06987207;0.035553023;0.17463188;0.055169217;0.5680634;0.030187579;-0.045744866;0.42469501;0.048062053;0.14043818;0.057431024;-0.16466463;-0.10133712;0.26305318;-0.18498358;-0.032665297;-0.08815209;-0.016122453;0.018490264;-0.6202661;0.020766972;-0.07290346;-0.082402885;0.088876456;0.47559786;-0.11343585;-0.05726489;0.04903252;-0.025338264;0.026692523;0.12402391;0.14672954;0.030502448;0.11473848;-0.081455186;0.09627063;-0.29294354;-0.13801567;-0.048267145;0.07428776;0.03020969;0.18141484;-0.36050287;-0.04121587;-0.15099092;0.33233783;-0.12363477;-0.19508988;-0.014033905;-0.24619034;-0.040981006;0.08005959;0.26953304;-0.018121308;0.20382014;-0.17780003;-0.3580403;-0.18733531;-0.18385638;-0.033869103;-0.04568032;0.13664615;-0.10569139;0.14012577;-0.083215125;-0.024322398;0.014638497;-0.033228543;-0.11567077;0.20930338;0.103659526;0.014434041;0.23186716;-0.050984498;-0.23976757;0.13370058;0.060761463;-0.015368515;0.031175938;-0.0849782;0.1543352;0.023644593;-0.19932972;0.06041442;0.3689503;-0.022469377;0.18935435;0.20111032;0.14930438;0.09929442;0.023763135;-0.054464202;0.3077566;0.23815368;0.15061213;0.082748316;-0.21788874;0.06476884;0.06787112;-0.07286011;0.17029491;0.012399734;0.05944067;-0.1690354;0.014609016;0.0016208942;0.14087199;0.0015933368;0.045902457;-0.11054781;-0.1608505;0.19011708;0.18637219;0.04330543;0.012030673;0.0792203;-0.059117988;-0.060707144;-0.23175544;0.06387431;-0.028831525;-0.05188495;0.06498653;-0.03417334;-0.21140952;0.0066247266;0.272263;0.20000124;0.11263334;-0.021148127;0.314134;-0.033088565;-0.03615748;0.034789138;0.11920792;-0.034101628;-0.09143168;-0.084785305;-0.009367596;0.44300893;0.03852198;-0.18209082;-0.14207494;-0.13040179;0.08338317;-0.5200232;-0.03300648;0.23781563;-0.037959073;0.0014586526;0.061009686;0.040621787;-0.0011505412;-0.22813727;0.10280018;0.24013446;0.18442398;0.134185;0.26042193;0.045054104;0.06617369;0.39623678;0.075233355;-0.045744237;0.23140581;-0.17267972;-0.19104882;0.07451176;-0.011657113;-0.1088222;-0.05428602;-0.1203528;0.07094514;0.17635699;-0.04657599;0.056928184;0.03583353;-0.11074096;-0.23546918;0.15266502;0.0312763;-0.0415559;0.16001424;-0.012934075;0.22630106;0.08878766;-0.053321004;0.060898285;-0.13520834;0.065033406;-0.08050849;-0.012098004;0.004633146;0.07498103;-0.03269786;0.004037862;0.15961288;-0.059815764;0.19585006;0.080992565;0.18531288;0.1231016;0.060550686;-0.017657874;-0.023336194;-0.025812918;0.12721147;0.09131001;-0.029533973;0.05618548;0.097599134;0.015964912;0.20448776;-0.4307887;0.14816089;0.2947792;-0.053803366;0.12162202;0.044046182;-0.11056161;0.24557637;-0.30512276;0.021761516;0.11703172;0.024734288;-0.39197633;0.3127342;-0.109598175;-0.4259147;0.16247934;0.0031741825;0.039579447;-0.11589058;0.08249853;0.105481766;0.07978214;-0.03826129;-0.037060194;0.13686946;-0.030036604;0.19347392;-0.009474859;0.06616577;0.20222853
-0.12832627;-0.1028858;-0.074148715;-0.032873668;0.0084146345;-0.04632432;0.021718405;-0.007018813;0.029687956;-0.042593196;-0.23132573;0.03492371;-0.03559794;-0.0060675833;0.03687916;-0.040286466;-0.060133316;-0.1680781;0.14957042;0.15442736;-0.2001575;-0.1736207;-0.033803478;0.2763992;-0.029141251;0.02643848;0.06665763;0.050568502;-0.09501045;0.16650891;0.104453035;0.2316946;0.3592123;-0.055074565;0.049109716;0.0047655967;-0.056814823;0.010654898;0.17731985;0.092831254;-0.16270843;0.023379223;-0.004567101;0.07737019;-0.49046984;0.16622707;-0.0019335895;0.042932224;0.03745429;-0.056741122;-0.050832894;-0.38997385;-0.15419571;0.56884277;-0.15223444;0.014188835;0.093436025;-0.30574253;-0.07842649;0.001400775;0.023396814;0.22146274;-0.04124673;-0.059103873;-0.014282359;0.30991966;0.089558974;-0.0020062292;0.2501101;-0.07079701;-0.024865557;0.03721859;0.051932223;0.084492646;0.2839016;-0.03861317;-0.006636775;0.47988802;-0.015517415;0.019722844;0.009412677;0.4809139;0.029449288;0.008617356;0.05021121;-0.09649275;0.0075815604;0.057798307;0.017953394;-0.046132702;0.035825502;0.022277849;-0.00514386;-0.0103644375;0.084226854;-0.11962814;0.14905883;0.36949408;-0.20784633;-0.042843014;0.07662461;-0.016888434;-0.18876994;-0.22296815;0.18028507;-0.26262254;-0.030365184;-0.0935017;0.2042037;0.102758646;0.22268054;0.120179325;-0.06221636;0.294622;-0.14292145;-0.08221128;0.07270413;0.012442332;-0.16344884;0.16748907;0.11212022;-0.060829673;-0.32020742;0.012952403;0.08041547;-0.27225015;0.4419624;-0.14776807;-0.1433882;-0.12262428;0.06590806;-0.14141974;0.02280856;0.0337888;0.069956295;0.06713244;0.28463235;0.06988725;-0.034029383;-0.24307618;0.0034366196;0.33529276;-0.16677451;-0.6731643;-0.008965072;-0.040067982;0.10663429;0.023600958;-0.008322804;0.16390659;0.05031919;-0.07097961;0.25018448;0.16140695;0.21994278;0.32814327;0.0710568;-0.22435552;-0.048757154;-0.26785326;0.099198736;0.0058937175;0.280803;0.058258303;0.06034837;0.08975729;0.034653336;-0.0981276;0.10146356;0.032939564;0.025816489;-0.06611028;0.09890825;0.17048693;-0.24620964;-0.11922409;0.03364417;0.14179654;0.17244834;0.01418498;-0.013430027;0.02169179;0.10023826;-0.097247116;0.038574584;0.44211817;0.0025171435;0.083835475;-0.45279506;-0.03005472;-0.14166188;-0.18216868;0.04686665;0.010039801;0.07800339;-0.18286075;-0.0048707803;0.2354069;-0.16983183;-0.052467156;-0.0864927;0.071548775;0.049328405;-0.13975444;-0.11928835;0.21720344;0.26653954;0.25802654;0.22143707;-0.018361818;0.028011436;0.18879344;-0.036236152;0.008252224;0.045789942;-0.034283683;-0.08111527;0.16325729;-0.042096037;0.36200342;-0.06073294;-0.009483955;-0.106516555;-0.048735954;0.058830585;-0.11972014;0.33121026;-0.041043334;0.14567955;-0.0006962799;0.19002935;-0.3308886;-0.061450724;-0.10429653;0.16985467;0.055895176;-0.020462554;0.03284679;0.37970728;-0.008694542;0.06245384;0.1858216;-0.10561556;-0.0072118207;0.09312003;0.0361003;-0.121549994;0.20535272;0.03212609;0.041369624;-0.2179697;-0.0963504;0.102612115;0.034414575;-0.052206166;0.06780606;-0.009659189;-0.031620752;0.029676942;-0.004242384;-0.03584838;-0.11623199;-0.036583073;0.0462703;0.037588213;-0.031000776;-0.16197866;-0.09799298;0.09558268;0.19227527;0.07260861;0.3401417;0.011712257;0.07757109;-0.0092953155;0.04956218;0.04202001;0.2521611;-0.041811153;-0.0105615435;0.026591731;-0.41534403;0.409996;-0.037582014;-0.08639608;-0.104727596;0.059517395;0.054970857;0.06801565;-0.02051275;0.29843384;0.09758171;0.3226183;0.22269231;-0.26473427;0.1886287;-0.08759423;-0.15900142;0.04268343;-0.017690787;0.22134823;-0.07848582;-0.048164167;0.10064293;-0.31785494;-0.2589736;0.06683364;0.032308914;0.08567022;0.26841894;0.098271266;-0.04139956;-0.2963724;-0.046863534;0.36614177;0.015059551;0.120189525;-0.040214732;-0.08930312;0.06746028;0.015687099;-0.08426581;-0.002377574;0.07230569;-0.058499537;0.08979191;0.012102647;-0.08156838;0.18532543;-0.03515849;0.041663844;-0.057924252;0.059308607;-0.015953718;0.099194616;-0.05156618;0.38167754;-0.016617741;-0.05219408;0.24424282;0.017276775;0.13368282;-0.023646608;-0.14379509;-0.030110432;0.20204702;-0.25754726;-0.08374962;0.007032752;-0.06039868;-0.04560186;-0.5745524;0.023771306;-0.03935618;0.04880341;0.011475782;0.45783898;-0.092626765;-0.09724652;0.17114596;0.044584263;-0.028513152;0.052988052;0.0486136;0.032451626;0.06889865;-0.19459803;0.11457623;-0.32036868;-0.20004447;-0.0065256697;-0.013338724;-0.009446392;0.084656745;-0.27337685;0.07016328;-0.22125363;0.15057755;-0.17991592;-0.17997365;-0.1271932;-0.12309476;-0.02446085;0.16973853;0.31962797;0.032234766;0.22924846;-0.021885935;-0.30066296;-0.22038536;-0.23549394;0.053551648;-0.033183903;0.07893708;-0.06352258;0.06971398;0.010234497;0.07225774;0.01450778;0.052077603;-0.045921665;0.22061826;0.16694133;0.016690612;0.31213135;0.0147025;-0.18900795;0.22922418;-0.0073869145;-0.030849392;0.13280809;-0.10071453;0.17797272;-0.042307712;-0.13988578;0.03455665;0.33185735;-0.022129148;0.2758201;0.19415413;0.17495081;0.007247002;0.037516747;0.014921206;0.19141603;0.09337693;0.19880286;-0.025269704;-0.22626734;-0.042235382;0.03564252;-0.0052804183;0.04502053;0.016380858;-0.010044196;-0.11115787;0.029914455;0.04095177;0.26193392;0.026441729;-0.03357022;-0.106388725;-0.2009086;0.23127146;0.12008806;-0.016536599;0.04118737;0.15818174;0.056468423;3.0536e-05;-0.09882538;0.086414926;0.03214688;-0.005345702;-0.025198271;-0.010036202;-0.14428726;0.0881568;0.31028828;0.29800788;0.061927363;0.012956522;0.39871368;-0.0097761005;0.048363496;0.019527351;0.075863205;-0.059191126;-0.14329481;-0.086187065;0.10995805;0.40768212;-0.026243035;-0.120157905;-0.17342886;-0.16256075;0.2301156;-0.3785433;0.00937991;0.36709097;0.049893;-0.014995144;-0.0010689183;0.045362595;-0.02467873;-0.20194913;0.043401077;0.31462285;0.14325969;0.0077849394;0.17604718;-0.03148784;-0.03320076;0.28205934;-0.056537718;0.0764678;0.24438699;0.030335853;-0.16976613;0.1295926;0.010234434;-0.018168125;-0.074834436;-0.012211278;-0.03699962;0.117070824;0.029088765;-0.069009595;0.11460674;0.08810309;-0.23206863;0.07475398;0.004133357;-0.054167487;0.087037735;-0.05891379;0.4030123;0.10515775;-0.032677863;-0.003277486;-0.16930358;-0.017211314;-0.18913029;0.021951599;0.017356783;-0.0716742;-0.123061724;-0.017223684;0.19601676;0.06704128;0.09546148;0.08405408;0.1989168;0.260491;-0.0026019567;0.034998026;0.044950306;-0.146353;0.09910803;-0.0059711235;0.105879836;0.026800364;0.17843105;-0.023675598;0.2821248;-0.3993685;0.059428547;0.12425704;0.022641584;0.042895477;-0.03688434;-0.13434093;0.23741609;-0.23765314;-0.005062429;-0.07035241;-0.12698884;-0.2877168;0.25786582;-0.15230276;-0.4707296;0.11739694;0.055559617;-0.04287698;-0.052295115;0.13678865;-0.08893614;-0.03356291;0.002092868;0.16390632;0.21543981;-0.1775885;0.02936394;-0.10376892;-0.03231454;0.1933945
-0.07773871;-0.021122437;0.07889072;-0.033700068;-0.065833874;-0.005653679;0.0072324257;-0.035002597;-0.027873209;-0.011059235;-0.26465133;0.04150466;-0.0136640305;0.011729427;-0.07719607;0.034828372;-0.04887623;-0.03264384;0.17929488;0.10544828;-0.26093623;-0.06460077;-0.020788345;0.21333267;0.023140581;-0.041951448;-0.05830514;-0.027575344;0.07999839;0.13644266;0.19087537;0.24736105;0.33288032;0.020596622;-0.015977085;-0.024112156;0.029683929;-0.025517872;0.17200993;0.1649792;-0.0736698;0.06037623;0.09221056;0.10269256;-0.4079192;0.098346524;0.09157057;0.040663652;0.029543005;-0.1589172;-0.010377867;-0.49944133;-0.12351966;0.5084589;-0.18543863;0.00019190465;0.0011415343;-0.301469;-0.043720372;-0.07784471;-0.047589988;0.2590642;0.058334645;-0.062494487;0.06756322;0.25752968;-0.05213081;-0.086026065;0.26669323;-0.038823616;-0.030700007;0.010212564;0.00973442;0.10490716;0.33961856;0.01152152;0.013533746;0.4033047;-0.05321664;-0.02458203;-0.04787166;0.47248062;-0.038738713;-0.049371578;-0.034750994;-0.18272953;-0.04131945;0.15807751;-0.040606298;0.027411152;-0.028156755;-0.037727173;-0.08384798;-0.081122935;0.004561575;-0.07882832;0.08213474;0.3502992;-0.2952614;0.029084481;0.10721349;0.10608783;-0.09157243;-0.21516256;0.16770594;-0.23652123;-0.05835087;-0.08804974;0.1518437;-0.041029382;0.13234144;0.15058327;0.08278433;0.18233573;-0.13507284;-0.060005274;0.013762384;0.049940307;-0.30000964;-0.029294372;0.12478958;0.021738436;-0.26401037;-0.01771249;0.073376715;-0.12968408;0.3503607;-0.036643818;-0.1617508;-0.2772177;0.108368285;-0.12095325;-0.112967625;-0.040375233;-0.06322164;-0.026472611;0.36067697;0.02717188;-0.120885424;-0.10762217;-0.05785733;0.34287608;-0.19317576;-0.6602602;-0.04799089;-0.03571353;0.041164406;-0.04750836;-0.041867893;0.23239525;-0.006847533;-0.02508581;0.27522483;0.19277993;0.31174493;0.29057485;0.07774564;-0.19285397;-0.04646922;-0.2344377;0.12956974;0.02186262;0.2661292;-0.012818851;-0.018644307;0.06973669;0.0043985937;-0.14316265;0.028091742;0.091316864;0.010633938;0.07728369;0.030040974;0.08268702;-0.32486796;-0.09383566;-0.0121956915;0.11662879;0.06708579;0.04652193;0.04219619;-0.05700443;0.021789335;-0.15449391;0.05507788;0.36792123;-0.061824895;0.028780753;-0.39133504;-0.03780567;-0.21420392;-0.21677174;0.084348544;0.067944005;-0.0022921904;-0.1785062;-0.020664016;0.11795459;-0.19961643;-0.031920616;-0.1852595;0.074642844;-0.0749889;-0.06640898;-0.0341502;0.22092657;0.1840403;0.3059121;0.16440219;-0.045516357;-0.06633691;0.18384017;-0.08052437;0.01817595;-0.05414542;0.031428773;-0.13254704;0.24224705;0.12821652;0.41609114;0.020004546;-0.096537516;-0.031376485;0.08958701;0.023100462;-0.06049499;0.4075377;-0.03966452;0.2582416;-0.05896894;0.26213625;-0.34990844;0.056300476;-0.044832163;0.24246638;0.037707314;-0.01829442;0.082799256;0.38773754;0.037530445;-0.017201575;0.17970778;0.06473537;-0.027972294;0.050276496;-0.061439328;-0.14695606;0.3510041;-0.02161608;0.023674887;-0.25088537;0.036752768;0.02469884;0.046540126;-0.004546916;0.08970044;-0.07998599;0.01791353;-0.021354387;-0.06966818;-0.07522732;-0.019197796;0.021744035;0.006643795;0.031660452;-0.1132192;-0.09056691;-0.17489919;-0.017706424;0.16878717;0.12672424;0.27119455;0.021875031;0.14815702;-0.03818713;0.017971106;0.12630995;0.23045793;0.05305463;0.004486955;0.031845737;-0.44643334;0.43119872;-0.17041793;-0.093834646;-0.20183587;-0.051580947;0.067102715;-0.033057697;-0.06029942;0.375614;0.028596152;0.1835909;0.19658479;-0.22060363;0.23127788;-0.20519769;-0.06538772;-0.0076485514;0.009831471;0.23138262;-0.009928114;0.057542052;0.09246887;-0.30155915;-0.33331832;0.1004834;-0.058249544;0.013664404;0.2248195;0.024310853;0.075624354;-0.46459773;0.05262495;0.3007075;-0.020224461;0.2801784;-0.093811795;-0.1763807;0.01474215;0.03769843;-0.08737711;0.019667877;0.0043143407;0.03009677;-0.039915316;-0.02848099;0.0076940977;0.23948054;0.0061375177;0.013993568;0.04378882;0.0015497353;0.03427027;0.08584695;0.0012342423;0.50936043;0.1402142;0.04547095;0.24011123;-0.06479886;0.09534968;-0.013575519;-0.23058756;-0.07859046;0.18868588;-0.27613583;-0.017083146;0.045996033;0.09866162;-0.066311374;-0.5656521;0.040763702;-0.061891407;0.04233808;0.09898807;0.39680868;-0.14116904;-0.08082113;0.08836547;0.020009706;-0.013082622;0.18729268;0.065531716;0.022518402;-0.09176056;-0.055230066;0.075272545;-0.2907552;-0.12003144;0.083723456;-0.033070624;-0.0524355;0.19912218;-0.31648487;0.031586822;-0.28597578;0.17163868;-0.09438867;-0.22033861;-0.14512706;-0.16772604;-0.13500065;0.03912047;0.30287737;0.052168183;0.3408241;-0.09119084;-0.36455375;-0.10754249;-0.22796129;-0.022559237;0.045896392;0.12418941;-0.051806197;-0.019426798;-0.038225427;-0.08239655;0.05311643;-0.06853046;-0.15163495;0.20060922;0.14934611;0.030604318;0.30701452;0.045924462;-0.13467233;0.23171726;0.0013593365;0.0397329;0.084721655;-0.054177746;0.1528794;0.024667747;-0.12649193;0.07734222;0.22495063;-0.17476358;0.35799512;0.2701799;0.12670803;0.10585281;-0.0815765;-0.015480341;0.11220591;0.18038547;0.26977727;-0.014179001;-0.20724718;0.094570994;0.093143776;-0.093421586;0.02470182;-0.062707566;-0.05842756;-0.031548277;0.009387083;-0.034549963;0.29907212;-0.06261449;0.046130374;-0.11444919;-0.1695297;0.26205525;0.018367391;0.032163396;0.044378903;0.16709794;-0.08231481;-0.04877938;-0.055768486;0.19214879;-0.066456065;-0.023992188;-0.04537516;-0.013248236;-0.20918232;0.04618405;0.26654088;0.29067212;0.045862366;0.06640924;0.32810608;-0.028479598;-0.066332415;-0.010178126;0.032043453;-0.053174753;-0.124040835;-0.15218061;0.03724196;0.35173306;-0.01775971;-0.12913524;-0.0893605;-0.24341345;0.20898715;-0.3895097;-0.010912119;0.35387403;-0.022952255;0.014627309;-0.070010826;0.028639402;0.0409728;-0.35951376;0.12585473;0.31289113;0.17167835;0.122709766;0.14885284;-0.018759126;0.023007408;0.2424972;0.037670314;0.011347717;0.15969916;0.022269925;-0.17949969;0.073329665;-0.0360353;-0.19158144;-0.031765882;-0.090134785;0.015022219;0.07461555;0.08830205;0.036862966;0.07123537;0.08748663;-0.15396985;0.10982261;-0.024761092;0.05402076;0.07445358;0.067857705;0.33503038;0.14666475;-0.039574314;-0.016378095;-0.263273;0.053226717;-0.026729036;-0.13443169;0.0058279536;0.071822114;-0.010307217;-0.05325889;0.3191103;0.052960146;0.22147714;0.0062892786;0.13712704;0.13527915;0.049119953;0.03825883;-0.07118353;-0.21145543;0.025352905;-0.026071489;0.16895579;-0.058088973;-0.0030781373;-0.05371924;0.07789871;-0.39979684;0.06678819;0.17599007;-0.056365296;0.10994402;0.017728673;0.037471984;0.34878856;-0.306198;0.055919476;0.0024288646;-0.05735865;-0.2762742;0.19139984;-0.15324432;-0.36756578;0.17193633;-0.08829561;0.052650087;0.057869017;0.2384324;-0.02675073;0.04067416;0.0866245;0.16853227;0.2845812;-0.07211884;0.043876365;-0.13718401;0.07968158;0.14535077
-0.096203566;-0.14351772;0.009857081;-0.06689882;-0.048669074;0.03777491;-0.16071008;-0.062401727;0.034955375;0.07137574;-0.16694044;0.058904544;-0.034821883;0.020589095;-0.048867173;-0.0394716;0.019655265;-0.01999511;0.021445986;0.21474545;-0.20507781;-8.862276e-05;-0.04328028;0.11354251;0.062438246;-0.07891113;-0.008685249;0.023178006;0.0099537335;0.13656107;0.23313913;0.31652597;0.24117103;-0.037408605;-0.004480675;-0.029496366;-0.00016648007;-0.12061821;0.052373484;0.06074897;-0.14027841;-0.028925374;0.044736713;0.11528403;-0.31053504;-0.024458217;-0.014293835;0.061770085;-0.0065812473;-0.19105026;-2.7985638e-05;-0.5013469;-0.081649296;0.528095;-0.09194673;0.060757823;0.15457168;-0.31550634;-0.0803471;0.019183569;-0.020345459;0.24464045;-0.049818065;0.02970586;0.055476908;0.21969073;-0.029722955;-0.036542587;0.1577721;0.0078019407;0.04236442;-0.008481811;-0.012604895;0.019055396;0.28130254;-0.045486342;0.022403777;0.48665932;-0.020257276;-0.038408503;-0.016640985;0.38084325;0.024866095;-0.017389197;-0.09962693;-0.10541696;0.03527387;0.14452614;0.053569287;0.012795851;0.043277886;0.016459301;-0.13014464;0.009200489;0.06756555;0.04923399;0.07217717;0.38364834;-0.21978189;0.088448085;0.20773938;0.098405704;-0.06008859;-0.09853866;0.1271702;-0.227993;0.02553952;-0.074201;0.15156141;-0.025129978;-0.014225213;0.09149724;-0.07469767;0.09244112;-0.030796714;0.046893593;-0.05475432;0.20182636;-0.22629076;-0.025315797;0.10948692;-0.06468232;-0.21883525;0.001959289;0.03594882;-0.2150479;0.36538225;-0.14033537;-0.21928477;-0.30985716;0.13465731;-0.19225585;0.0039192326;0.010493332;-0.092530936;-0.0028839693;0.45431918;-0.0133713195;-0.122029446;-0.25025648;0.007805128;0.3789738;-0.21988852;-0.56236887;-0.12378852;-0.07710218;0.17104979;-0.020734243;-0.1025289;0.019808928;-0.0032025515;-0.19927004;0.24319616;0.27960587;0.32500204;0.21665804;0.12812594;-0.15771025;-0.04204936;-0.08321412;0.042133085;-0.01532858;0.12676626;-0.06891845;0.012164728;-0.0035117748;-0.0049201217;-0.1467827;0.018944304;0.17309436;0.11709299;0.024094664;0.0033350752;0.15119207;-0.22254385;-0.07741332;0.045472886;0.14891273;0.093627006;0.06021094;-0.017008597;-0.04630425;0.060781088;-0.06124175;-0.061265487;0.38720965;0.0059043057;-0.007342147;-0.30963263;-0.06466333;-0.26731926;-0.15857607;0.037499078;-0.036483206;-0.0019148607;-0.19356772;-0.06260995;0.13341603;-0.083968684;0.02454174;-0.026337769;0.08173904;-0.015591584;-0.036764197;-0.09680052;0.24646692;0.123987466;0.30402243;0.08172505;-0.12649187;0.10610172;0.23688443;-0.19434305;-0.056993958;0.058658846;-0.041727263;-0.19774581;0.1567574;-0.05070352;0.26643577;0.077850424;-0.04742222;-0.07548723;-0.06153367;0.057205606;-0.17130418;0.3197928;0.04261706;0.15595396;0.07768851;0.21580914;-0.31314006;-0.027931418;-0.16633835;0.26959142;0.017137459;0.1083286;0.010807557;0.38326198;-0.08452395;0.06713563;0.118037745;-0.04187864;-0.03650351;0.17748672;-0.040194534;-0.039437182;0.2118037;-0.029649472;0.08220757;-0.2876352;-0.029642133;0.029090617;0.0413269;0.012708206;0.10440465;-0.18292798;-0.057035405;0.039524194;0.08770027;-0.11547736;-0.0013752271;0.054280747;-0.06377877;0.055030387;-0.03849896;-0.074369356;-0.12553318;-0.0021081388;0.19835079;0.09713317;0.24017917;-0.12934844;0.2160194;-0.009595898;-0.0012223737;0.16019027;0.20566733;-0.061549105;-0.030522326;0.044243924;-0.43070605;0.38102767;-0.04750864;-0.11509592;-0.14241034;-0.06048181;0.11949277;-0.031375423;-0.18832707;0.37339002;0.11475659;0.18510272;0.33390954;-0.21348062;0.25082883;-0.14626814;-0.059159964;0.0146109965;-0.046383165;0.23671843;0.006162059;-0.017737385;0.09225178;-0.3369575;-0.21446235;0.12108469;-0.045981955;0.008759853;0.20825751;0.026102787;0.0014270685;-0.3333624;-0.02310636;0.39066336;0.05863561;0.18420158;0.0099607045;-0.12140808;0.003338252;0.018734386;-0.16792297;-0.032893207;-0.0055044433;-0.050333556;-0.10031348;-0.047890823;-0.067810036;0.18183841;0.03351013;-0.042661145;-0.011178166;0.04374278;-0.048079416;0.13749275;-0.013553662;0.54242617;0.20217633;0.09390105;0.25592196;-0.04732151;0.07489518;0.027426153;-0.15789391;-0.06910032;0.11937178;-0.18901968;-0.08765887;0.06983536;-0.0055483747;0.0083967345;-0.5551095;-0.037771143;-0.01501619;0.024827939;-0.067707464;0.42503592;-0.072678246;-0.055293202;0.19037637;-0.051118355;0.024841802;0.1887902;-0.049560066;-0.04290529;-0.09559925;-0.22804174;-0.028327541;-0.2774116;-0.22665958;-0.06296108;0.046706025;-0.053272612;0.22481056;-0.15416282;-0.0641696;-0.47460118;0.13504155;-0.0055829245;-0.1662539;0.0036164545;-0.017120454;-0.1669068;0.020974077;0.31013745;-0.07543341;0.34740078;0.007544014;-0.3084326;-0.07335037;-0.21909548;-0.02248503;0.03514646;0.10113074;-0.07764617;-0.1522352;0.04903378;0.041739814;-0.03673134;-0.052916877;-0.158919;0.22341599;0.093867905;0.038833644;0.15246902;-0.030192327;-0.2078437;0.16506994;0.08035323;0.044709828;0.026732694;-0.044973757;0.07444072;-0.039457478;-0.18728735;-0.012458368;0.22325823;-0.045370065;0.26096895;0.29067934;0.23285913;0.09913191;0.05250775;-0.0015460191;0.18945126;0.22291814;0.2348071;0.07563702;-0.21984267;-0.058935132;0.07031288;-0.08690076;-0.03464359;-0.014179662;-0.029959356;-0.13343954;0.012479028;-0.052364975;0.2510074;-0.012368328;-0.010853106;-0.18497345;-0.06764895;0.27181834;0.009485926;-0.040404763;-0.045037754;0.07691881;0.013242319;0.011628606;0.0006535532;0.21836315;0.07143984;-0.036450904;-0.011327721;-0.02713817;-0.1224051;-0.13679233;0.3063418;0.30323505;0.16270205;0.0013447407;0.45292032;0.037190318;-0.016831469;-0.068402626;0.048623558;-0.035181064;-0.14622577;-0.05821307;-0.010472337;0.36398703;-0.013603065;-0.039468396;-0.08273465;-0.24224706;0.19905768;-0.4702092;0.020208627;0.3294376;-0.022975737;-0.06220054;-0.025019353;-0.0654733;-0.053451102;-0.26586866;0.089546844;0.25396842;0.16797008;0.033221953;0.19772747;-0.16310357;-0.038037036;0.11162818;-0.055012215;-0.04724806;0.21534932;0.114146054;-0.122016005;0.10095055;-0.011140541;-0.15246563;-0.10923929;-0.1261414;-0.07548857;0.04711623;-0.05177883;-0.043731306;0.06348361;0.10769105;-0.015062942;0.16026023;-0.01924705;0.045480177;0.053544197;-0.038813062;0.38125333;0.20122033;-0.025818355;0.008941295;-0.30940956;-0.0068105846;-0.11428556;-0.14066136;0.080171466;-0.06910992;-0.07445133;-0.07674336;0.34250182;0.018940944;0.15614866;0.037193835;0.20170824;0.18540359;0.028234012;0.0031705517;-0.028220361;-0.31548652;0.008606546;0.01633756;0.15234573;-0.047334567;0.037177186;0.044361968;0.17432517;-0.38652664;0.13069493;0.18990026;-0.06863059;0.17001355;-0.012240978;-0.0583853;0.24182746;-0.13629219;-0.07774644;-0.09199201;-0.20797998;-0.28031415;0.22558877;-0.12646112;-0.45468876;0.18908268;-0.028520623;0.052575715;-0.023307139;0.27382243;-0.11660326;-0.06337043;-0.044081964;0.20551586;0.21542527;-0.21694012;0.0096311895;-0.13734789;0.013475359;0.22241494
-0.16412932;0.050775733;-0.037575625;-0.117194615;0.06371081;-0.0043886784;-0.11033147;0.03440218;-0.0007624273;0.029023841;-0.3466665;0.13484256;-0.02434585;-0.051473483;-0.18903607;0.082196124;0.054372374;0.015022603;0.06924159;0.26823562;-0.28082928;0.04028067;0.009724869;0.12285413;0.0037365695;0.020067496;0.07000849;0.02418535;-0.019553822;0.19844314;0.09151174;0.29764244;0.16122766;0.058513436;-0.020826548;-0.02446786;-0.0077386904;-0.08905304;0.06932726;0.114140026;-0.07533582;0.11071191;0.14324635;0.100696184;-0.3648992;-0.10640247;-0.010979471;0.024292879;-0.061190348;-0.16153763;-0.05975247;-0.5370587;-0.049673058;0.42847854;-0.112517096;-0.05014809;0.123591505;-0.3671293;0.011425803;-0.0038885095;0.017302226;0.18904215;-0.07712433;0.08510803;0.109348424;0.16346009;0.055518847;-0.0015656975;0.14219469;0.050720975;0.029499765;0.063989125;-0.12476018;-0.017000956;0.27733788;0.055972338;0.04913712;0.43768942;-0.033048492;0.061179947;-0.023407312;0.31088886;0.057348385;0.022632454;-0.040291414;-0.1523551;-0.056144018;-0.021968398;0.030791892;0.02978581;0.02401509;-0.02585198;-0.10891897;0.102514;-0.015789166;-0.07865588;0.12910932;0.280972;-0.216261;0.063716345;0.17384341;0.08424088;-0.1328571;0.01917186;0.1856664;-0.21751355;-0.026461698;-0.09514585;0.24798943;-0.14219813;0.03539151;0.25279915;0.06326284;0.09903968;-0.025532333;-0.047198076;-0.04335886;0.22806738;-0.14665402;-0.08253673;0.12919185;0.069413744;-0.34026682;0.065710634;0.13410582;-0.14075105;0.2847655;-0.13734898;-0.07556617;-0.29592577;0.07575676;-0.056568094;0.008855319;0.0756055;-0.18520537;0.0042681796;0.35089248;-0.0045124884;-0.08719855;-0.21307819;0.06413904;0.35275117;-0.09864725;-0.5892264;-0.04733478;0.02541536;0.13807355;0.07677308;-0.008926458;0.044571105;-0.061756197;-0.14662313;0.2577197;0.24692951;0.34502226;0.22919871;0.120929435;-0.1449506;0.022246582;-0.20789136;0.06282495;-0.115156636;0.088845;0.04480052;0.05807668;0.028654711;-0.071826644;-0.091350645;-0.019632336;0.14770162;0.04017436;-0.07315904;0.19604725;0.011352956;-0.21445288;0.011246125;0.06488899;0.26038232;0.13987812;-0.04522717;-0.0080062775;-0.007278246;-0.04457672;0.036056858;0.034443438;0.4049232;-0.046343382;0.012410069;-0.34321746;-0.04355173;-0.35023096;-0.15485391;0.09470867;-0.035422314;-0.08531272;-0.197305;-0.08481832;0.20146133;-0.2872519;0.17165974;-0.069533624;0.018806709;0.012553037;-0.013185581;-0.18868305;0.19021942;0.07177577;0.16584821;0.14038624;-0.038872145;-0.016366404;0.25525987;-0.16038361;0.005943721;-0.026146758;-0.063918315;-0.1478103;0.13705195;-0.022145746;0.26809403;-0.068646304;-0.03912757;0.03865848;0.02238702;-0.09307515;-0.100722715;0.38578284;-0.04412427;0.18403912;0.027658317;0.2585714;-0.36560738;-0.041935798;-0.19044463;0.3783097;0.07210768;0.0934081;-0.0068812207;0.32251197;-0.013181207;-0.029491942;0.1912351;0.16134328;-0.014701921;0.06610418;-0.09352281;0.010913049;0.1852711;0.017534275;0.046519496;-0.28271982;-0.024309264;0.048784755;-0.05300439;-0.04674858;0.08124478;-0.242805;-0.14157127;0.013858195;0.04903389;-0.027561743;0.0709464;0.07822335;0.030130723;-0.050747875;-0.01487929;0.017652182;-0.12735558;-0.12134741;0.1347663;0.066236205;0.28825033;-0.17874873;0.31927302;-0.059830427;0.05201462;0.13325399;0.21324421;0.035923008;-0.015222456;-0.044026773;-0.423035;0.30628395;0.007935085;-0.046726625;-0.19491643;-0.0040886183;0.1708187;-0.023826307;-0.14920458;0.33321747;0.06677307;0.09152608;0.3251763;-0.19808432;0.16432464;-0.22288959;-0.048258442;0.025292432;0.03523655;0.2986339;-0.049217377;0.0214915;0.018895715;-0.30842617;-0.20410536;0.06378297;0.047283903;-0.033329744;0.07090822;-0.078538336;-0.059205256;-0.3688917;-0.021065434;0.38946927;0.0007503687;0.24861239;-0.0004903655;-0.048298895;-0.058181968;-0.012440312;-0.14556007;0.102003425;-0.015354468;0.030046567;-0.12049858;-0.1825987;0.03282313;0.14259835;-0.046864234;-0.047849603;-0.014594183;-0.07702365;0.031133128;0.24159598;0.022815524;0.5534018;0.1820461;0.024565442;0.28966573;0.014055025;0.04100458;-0.05483908;-0.21972178;-0.14658467;0.116764545;-0.24363594;-0.034223158;0.083348565;-0.008256735;0.020187423;-0.53235024;0.033679303;-0.05420327;0.022262938;-0.08585465;0.2562867;-0.097855136;-0.102162555;0.17285973;0.041378774;0.035498355;0.11990887;-0.085660726;0.017369105;-0.25402075;-0.24150373;0.041610084;-0.16512826;-0.103197664;-0.06820732;-0.025359608;-0.040888026;0.22368498;-0.20038413;-0.011362407;-0.52197206;0.039981492;-0.021069637;-0.16368943;-0.14949803;-0.08623139;-0.1934806;0.026689995;0.21700022;-0.06999367;0.3862497;0.0015970394;-0.21091057;-0.028332861;-0.18825467;0.052877173;-0.035918232;0.14768378;-0.122056425;-0.12047919;-0.010195048;0.053254835;-0.013849823;0.013212937;-0.19130358;0.14647786;0.119281024;-0.024959283;0.19716294;0.01525192;-0.332753;0.15728801;0.1040743;-0.0025029397;0.1372996;0.05227732;0.12833665;0.03462156;-0.17042416;0.02902839;0.124815345;-0.11344405;0.39410302;0.31357592;0.23909627;0.13960475;-0.060402475;0.0324407;0.06351493;0.1473263;0.037667736;0.07855257;-0.037974562;-0.05493386;0.030497547;-0.0516355;-0.12425604;0.00877566;0.0049971924;-0.15082368;0.018731594;-0.011469219;0.36487058;-0.026275614;0.069805674;-0.15615974;-0.12666246;0.1626537;-0.11585765;0.0309693;0.03976252;0.09746813;0.053028163;0.06541242;0.07358274;0.21460134;0.062333398;-0.07158654;-0.021016836;-0.036427423;-0.16362584;-0.039592266;0.30470133;0.26936907;0.15065043;-0.03242502;0.40466735;0.06114227;0.004407361;-0.14548683;0.007916967;0.085778;-0.07756029;-0.032746974;-0.05164146;0.30497888;0.031451058;-0.060779005;-0.048273515;-0.28538147;0.14461578;-0.49855438;0.031890158;0.283513;0.026042439;0.05715748;0.04513904;-0.002666375;-0.01614769;-0.26917914;0.1277289;0.24539815;0.15444118;0.004894015;0.15263462;-0.13307486;-0.023920538;0.1562008;0.02803834;0.022906493;0.14369948;0.13272688;-0.25198522;0.24883871;-0.057429843;-0.2834611;0.025845708;-0.097303614;0.03350707;0.10546321;-0.0045612385;0.030140435;-0.022556046;0.09607641;-0.08679069;0.16658443;0.031662304;-0.014071799;-0.010488999;0.008259797;0.37877905;0.25287336;0.013909694;0.029237462;-0.36188388;0.0006640888;-0.18679066;-0.19601539;-0.054075275;-0.028668167;-0.05596994;-0.0038600187;0.34893638;-0.021799482;0.1036953;0.040367212;0.0729685;0.1638274;0.028689858;-0.048259582;0.06516434;-0.27732694;0.06949842;0.0053162067;0.20044175;0.01397216;0.016392384;0.016223984;0.026810167;-0.24159816;0.098353796;0.16486655;0.08068861;0.09669409;-0.05611317;-0.11436123;0.34832776;-0.23293473;-0.037794914;-0.29932103;-0.049181473;-0.29977864;0.21729696;-0.16691783;-0.43364927;0.04153664;-0.089911595;-0.064178996;0.10547091;0.23004803;-0.13074848;-0.037197255;-0.02514934;0.17882268;0.21634242;-0.23923832;0.10670327;-0.043913163;-0.043708373;0.21324196
-0.07355389;-0.039818183;0.03811322;-0.07604137;0.03948891;-0.001879604;-0.19450775;-0.028324548;-0.10317557;-0.013754853;-0.28358096;0.2039581;-0.018481705;0.083916746;-0.11170327;0.034629475;-0.06554341;-0.17175747;0.08304864;0.1530837;-0.085533045;0.035272155;0.05231773;0.07404098;-0.012376424;0.015891256;-0.06224456;-0.0031052895;0.12077756;0.0814549;0.23467979;0.33018205;0.08798777;0.037840627;-0.002470827;0.035361357;-0.0046014218;0.0172898;0.12578304;-0.06203699;-0.006148339;-0.00046291013;0.1118004;0.09443789;-0.3431761;-0.03679183;-0.029226564;0.01628909;0.034676302;-0.09256254;0.06563589;-0.51781476;-0.095337;0.49834165;-0.11750047;-0.038262833;0.14951448;-0.32776108;-0.060146548;0.028625576;-0.024065446;0.0129024;0.009688356;0.017232096;0.09777738;0.10420421;-0.048196215;-0.06726755;0.17641494;-0.03466281;0.064292006;0.022612536;-0.15867826;0.015409488;0.14290659;-0.03799205;-0.08679993;0.42183182;-0.06135142;0.0034910063;-0.0421848;0.44485193;-0.03945888;0.07436134;-0.103173785;-0.1063411;-0.06296343;-0.051996306;0.045486312;-0.06804035;-0.061863538;0.074758135;-0.0871222;0.058932886;0.024788428;-0.060188804;0.04813926;0.21341133;-0.13371517;-0.051265113;0.074759215;0.06055002;-0.046731766;-0.06315548;0.14094728;-0.1011129;0.006509422;-0.108422846;0.20747331;-0.038853083;-0.11551281;0.19034006;0.020119958;0.19286253;-0.040647782;0.06385116;0.04418613;0.24166273;-0.2342456;-0.070655234;0.10548266;0.05560103;-0.36912897;0.061704244;0.033045787;-0.109475;0.31558466;-0.14694794;-0.2571729;-0.17009911;0.10149086;-0.17782779;-0.081480056;-0.021508921;-0.25316992;-0.07549556;0.41685846;0.033744838;-0.09930905;-0.15653701;-0.027688235;0.33125284;-0.16294329;-0.3643405;-0.020889549;0.048683587;0.070894904;-0.07182288;-0.09761262;-0.038436662;0.014974402;-0.09195675;0.03142449;0.19555795;0.2497569;0.3748202;0.07446618;-0.16842283;-0.049891643;-0.08602699;0.08070547;-0.2342942;0.14321864;0.02503214;0.034050938;0.088935204;0.07121759;-0.13656454;-0.0624351;0.20713626;0.048145946;0.034094986;0.045687605;-0.111318946;-0.32361346;-0.078661524;0.072344206;0.23621403;0.17720298;-0.042637236;0.018683936;0.044102997;-0.058492996;0.07217168;-0.0079291025;0.37151098;-0.038330495;0.0070523364;-0.29873884;0.03289118;-0.28955644;-0.19581452;0.029564012;-0.02363848;-0.0040731733;-0.21194886;0.003681991;0.18737112;-0.19307694;0.09208394;-0.24029377;-0.07192709;0.07191629;0.05086507;-0.18549275;0.13388108;0.11601428;0.2538019;0.07797251;-0.06349563;0.0931311;0.25006104;-0.26083544;0.037159916;-0.00024515128;-0.054111153;-0.2560666;0.026532402;-0.023358136;0.28002915;0.09623653;-0.051728535;-0.058542937;-0.0138293095;-0.06189623;-0.10435312;0.36595052;0.053486235;0.28662005;-0.07568368;0.37380546;-0.4560826;-0.1441687;-0.13057104;0.2936865;-0.025499092;0.00645996;-0.053052098;0.44718033;-0.13921809;0.048386764;0.21458425;0.10533296;0.021327827;0.11296402;-0.12780084;-0.047131673;0.120398335;0.05526759;-0.0011386091;-0.2557131;-0.0024356644;0.037972294;0.07622346;-0.01228303;0.02253495;-0.12704429;0.013125155;-0.009473057;-0.05522466;-0.04318391;0.19095333;-0.046518225;0.0401788;0.04739182;-0.045533437;0.12781087;-0.09688105;-0.0135908285;0.055038087;-0.028048392;0.29439437;-0.13972391;0.22111247;0.0548421;-0.05935475;0.17572081;0.30208224;0.05917499;-0.007124518;-0.02750312;-0.3370356;0.27685153;-0.013950845;-0.044930816;-0.13618031;0.023273744;0.102843314;0.020224992;-0.011856576;0.3195657;0.0142992195;0.032910306;0.3293741;-0.21769735;0.31182364;-0.26546356;-0.024728106;-0.04135003;-0.0021044507;0.26875365;-0.10363994;-0.017000308;-0.05851968;-0.28494257;-0.17144665;0.04580868;0.018567659;-0.081532985;-0.0003650529;0.08739451;0.08409126;-0.39256704;-0.01011006;0.24239929;0.05217372;0.2145648;0.0063972753;-0.07225595;-0.036585085;0.01589146;-0.028906034;-0.10961791;-0.043707326;0.012854481;-0.124450624;-0.2480771;0.018175807;0.23326908;-0.040082287;0.044937592;-0.07387635;0.0051450497;0.015195286;0.2033801;0.004470566;0.48035446;0.2188712;0.1715582;0.20188016;-0.034665167;-0.029358573;0.024467612;-0.35654417;-0.039357368;0.05975704;-0.15758303;0.06821513;0.0883824;-0.0021156673;0.05835367;-0.50525796;-0.07987947;0.10802074;0.016423436;-0.084921494;0.3143836;-0.04770877;-0.07519584;0.059143543;0.013227266;-0.028196683;0.20229314;-0.020121671;0.014125942;-0.11991256;-0.19149326;-0.09228424;-0.21845588;-0.16679043;0.027034367;0.0576607;0.0044194083;0.14918503;-0.26545572;0.016601961;-0.50768614;0.05785497;-0.10693551;-0.19981481;-0.23411892;-0.09857066;-0.262614;-0.050358117;0.20662226;-0.071979575;0.3668531;-0.05012706;-0.2712081;0.067051694;-0.12483942;0.035644304;-0.0121459635;0.09462902;-0.2665996;-0.14192212;0.05826684;-0.000931495;-0.027315073;0.04533688;-0.20057124;0.18168399;0.18118602;0.02826371;0.095485516;-0.047969162;-0.1414165;0.07612303;0.1435637;0.048755646;0.21048394;-0.024114043;-0.06805333;0.013309704;-0.06126764;-0.026646547;0.24970616;-0.03153552;0.3799393;0.28880754;0.14679661;0.07944612;0.08844416;0.123716295;0.11196336;0.1413975;0.050316926;0.1176246;-0.07064653;-0.10118269;0.116909295;-0.012031933;0.017521244;-0.053132884;-0.04815444;-0.11505863;-0.0023075817;-0.022419795;0.38624093;-0.01932445;0.024264531;-0.12900671;-0.01972322;0.14145301;-0.049406808;-0.038896378;-0.034944206;0.115149006;0.05219963;-0.03570969;0.0458641;0.20063944;-0.03732078;-0.09320719;0.0407671;0.014304137;-0.21949272;-0.08142869;0.27375016;0.32600477;0.124224715;0.053322725;0.31380093;-0.003735443;0.004383843;-0.14402461;0.035904907;0.08436156;-0.020778602;-0.09404251;0.052414145;0.33022803;-0.05113466;-0.06453346;-0.10213503;-0.19299331;0.26615041;-0.3376127;-0.09481067;0.21316686;0.005961741;-0.056330997;-0.056034155;-0.07782699;-0.012091711;-0.22405447;0.113195516;0.27027664;0.07742337;-0.11198918;0.08050701;-0.2004964;-0.00049291033;0.11855439;0.046304032;-0.041117195;0.08307846;0.2874546;-0.23933347;0.105234705;-0.072010756;-0.3316243;-0.096935;0.005148961;0.0077312333;0.123633474;0.0080811875;0.028732412;-0.08087575;0.13457336;-0.037612695;0.10461897;0.05592924;-0.05079084;0.013518258;-0.0029354852;0.31410527;0.2641853;0.035697754;0.027493836;-0.22166356;-0.0074127344;-0.1443814;-0.122134745;0.018234573;0.01216393;-0.029615955;0.0071165;0.369912;0.024373913;0.30432817;-0.10076768;0.1867853;0.22939336;0.08640509;0.036623374;0.06120586;-0.33694395;0.17693575;-0.094744414;0.012917984;0.053149015;-0.05292269;0.098719895;0.12104853;-0.31009105;0.04628571;0.029003268;0.016153637;-0.013799655;0.024598053;-0.042633984;0.22940962;-0.10471025;0.007971614;-0.24344674;-0.096169084;-0.16909139;0.098271474;-0.21678944;-0.37067336;0.08639297;-0.0044341455;-0.021908514;0.005525672;0.1903398;-0.1073401;0.08517914;0.014440306;0.26909122;0.1779642;-0.26236263;0.08969307;-0.10321632;-0.005420065;0.1601511
-0.1006068;0.15939434;0.0070882486;-0.10420813;0.005793725;0.021750595;-0.20651507;0.06020532;-0.11813736;-0.028614705;-0.17602193;0.26002336;0.051722545;-0.035828434;-0.23642096;-0.0451926;0.04220979;-0.21067967;0.1288042;0.2258751;-0.17245531;0.055829376;0.037760146;0.1868598;-0.05525678;-0.035719335;-0.05038258;-0.120551325;0.13109352;0.06975831;0.1270617;0.32304633;0.18691906;-0.019914083;-0.07314442;-0.012276157;-0.008430985;-0.042512607;0.14728963;-0.057654552;-0.14080904;0.01753618;0.0032936826;-0.018425636;-0.30162638;0.018531842;0.022593;0.02819117;0.035388615;-0.18552244;-0.022940733;-0.62138844;-0.08023612;0.56668127;-0.13762414;-0.053893868;0.117184475;-0.17172782;-0.08001331;0.022740722;0.046663124;0.08312573;0.069483116;0.031516176;0.027539168;-0.0076611354;-0.061495192;0.022362543;0.18448177;-0.049579237;0.16352434;-0.040037584;-0.1935605;-0.04374725;0.22816545;-0.004568353;-0.048336674;0.25183392;0.0027646027;-0.00672487;0.0036510378;0.32575533;-0.059750237;0.033518538;0.005688115;-0.15888126;-0.078572884;0.105882116;0.00050008495;0.059027076;-0.039152756;-0.04646382;-0.0761871;0.048062187;0.13748726;-0.028257804;0.13764134;0.21047212;-0.2435848;0.0437498;0.031826608;0.026217422;0.010878021;-0.1204433;0.25606677;-0.10053847;0.061788898;-0.19161287;0.11671131;-0.111682884;-0.15768251;0.20530774;-0.0076386556;0.11481223;0.095309205;-0.044446997;0.02017674;0.28869632;-0.20029011;-0.10956539;0.12017561;0.15991019;-0.39677683;0.0022258242;-0.005255468;-0.022123106;0.31047934;-0.14380209;-0.2859112;-0.164238;0.1262178;-0.20701215;-0.04248439;-0.06348357;-0.2969677;-0.05201734;0.3799133;0.07305755;0.01975481;-0.24009803;-0.043317474;0.29163063;-0.14774252;-0.46543992;-0.22408104;0.04202433;0.06992846;0.02442114;-0.002465913;-0.13018851;0.05613947;-0.06910654;0.13215052;0.19885112;0.29581076;0.23474543;0.11213628;-0.027649052;0.020796355;-0.25590017;0.1534349;-0.29853612;-0.0030512086;0.044774186;0.061179295;0.09157465;0.033224296;0.03842511;-0.1650165;0.16802081;-0.06677138;-0.040043868;0.108687274;-0.18319367;-0.2959208;-0.050543394;-0.053763893;0.0904849;0.133007;0.008750965;0.05019984;0.025529394;-0.09506568;0.017305536;-0.026132522;0.33565527;0.060071744;0.013921673;-0.2586845;0.00814423;-0.39610937;-0.12857756;0.07032905;-0.038614187;-0.09418302;-0.20916313;-0.03473832;0.0966186;-0.1716053;0.10720156;-0.27500412;-0.024683427;0.0736683;0.060384326;-0.1733504;0.20794241;0.015677325;0.17687923;0.14338236;-0.06003482;0.10445777;0.20123823;-0.23501284;-0.0049594697;-0.0038779299;0.07353327;-0.23948684;0.14458074;0.07424105;0.23753466;0.0919974;-0.011175344;0.04612923;-0.08274018;-0.15732244;-0.09086393;0.26846373;0.0920721;0.20223415;0.086296424;0.33643264;-0.4901379;-0.11559183;-0.15607814;0.19231659;-0.06160408;-0.03358886;-0.059231255;0.4736115;-0.10696239;0.05802426;0.12961534;-0.0075187827;0.047908198;0.15665358;-0.17951283;-0.17671148;-0.003948276;-0.008121607;0.037318148;-0.30345544;0.0053766994;0.08503222;-0.054918163;0.017950667;0.096368134;-0.13866213;0.059272036;0.004321933;0.023176784;0.10766682;0.062004924;0.014411284;0.049899388;0.00012532077;-0.07711177;0.09544051;-0.13579439;-0.10573963;0.08275411;-0.053441912;0.3048571;-0.21258739;0.2870694;-0.041967068;0.018518278;0.15619032;0.18894432;-0.010492747;0.013162084;0.041999817;-0.19714496;0.2392652;-0.024512887;0.0010561319;-0.24720119;-0.0073786257;0.0796748;0.011637258;0.01848494;0.24484335;-0.052581426;0.16670692;0.112136334;-0.19649504;0.22599483;-0.19198781;0.16327219;-0.005148208;-0.027205013;0.38460526;-0.030465392;-0.025792338;-0.03350249;-0.25808424;-0.24105512;-0.058492716;0.008641803;-0.141035;0.11669427;0.059345774;-0.061983608;-0.31837037;-0.0081675425;0.16959153;0.16131015;0.28466678;-0.022786418;-0.101203166;-0.019183524;0.1016649;-0.08732293;-0.15329579;0.039681684;0.0022747703;-0.11664114;-0.31511685;0.022913348;0.16943866;-0.0068026325;-0.029165758;0.0701048;-0.0019621311;0.011957589;0.2421642;0.02554584;0.38379678;0.10979456;0.27964205;0.2362788;0.06494528;-0.06709474;0.010483376;-0.33988884;-0.08463275;0.041677892;-0.12330903;0.0048343684;0.17580435;-0.009428864;0.022568217;-0.5221444;0.008541611;0.08308435;-0.087075904;-0.09863629;0.18323223;-0.12479406;0.055679094;0.11925413;0.05252912;0.012003181;0.14215961;-0.045001756;0.034492422;-0.028116465;-0.3189967;-0.189126;-0.19090925;-0.21774183;0.08393317;0.059712667;-0.01013921;0.27292582;-0.29560554;0.038079754;-0.4376879;-0.030547315;-0.15309897;-0.2307784;-0.18350913;-0.09491103;-0.22958024;0.025957877;0.1372885;-0.07970819;0.4628369;0.038298752;-0.16404836;0.05929213;-0.16136293;-0.038562484;-0.014438588;0.062812224;-0.1800616;-0.16673739;-0.012979952;-0.019791426;-0.048367467;0.0028592742;-0.1953368;0.18251209;0.059506513;-0.0053447247;0.08032725;0.043323867;-0.20094287;0.11224861;0.06383976;0.06958283;0.19875899;-0.0017766821;-0.06553746;-0.080256075;-0.24296312;-0.035169303;0.18538839;-0.0658339;0.28389648;0.31676733;0.17635411;0.0751913;-0.079598315;0.247014;0.26572895;0.12130324;0.09752699;-0.07484392;0.026296962;-0.10858161;0.06655746;-0.042646408;0.049546376;0.0456638;-0.04699252;-0.12374609;0.041972253;0.068929546;0.22903049;0.05209992;0.056772582;-0.100279026;-0.0119027225;0.1557016;-0.07838274;0.0006575444;-0.05380304;-0.054197498;-0.08962791;-0.039508723;0.12507996;0.1206064;0.014654719;-0.08297768;0.020745315;-0.046454944;-0.09043115;-0.017079577;0.25098023;0.25620288;0.22344713;-0.017011391;0.3913448;-0.029071044;-0.03349958;-0.1405871;0.08548887;-0.065201044;-0.14762516;0.06868741;0.10069125;0.210811;0.074473076;-0.15317631;-0.059124924;-0.25796452;0.2538778;-0.36797172;-0.030887216;0.24693029;-0.003042599;-0.010714668;0.042468533;-0.010402291;0.023019845;-0.28703853;0.039531197;0.32263124;0.037208676;-0.07767997;0.07548421;-0.20607688;-0.04035981;0.10997814;-0.024714306;-0.018330604;0.07218044;0.2817003;-0.34120613;0.20725824;0.0388134;-0.18965882;-0.12344977;0.038574163;-0.038804304;0.17095098;-0.04999064;-0.033164278;-0.071676135;0.060671307;0.061130807;0.043334905;-0.07448952;-0.005516777;0.016028846;-0.03546181;0.3751121;0.25236073;0.02994554;0.06807871;-0.11892201;0.03266533;-0.039500985;-0.09610979;-0.057667825;0.02095138;-0.03799275;-0.13432635;0.41778123;-0.05679778;0.3525564;0.03409984;0.21122509;0.07757213;0.079822905;-0.058077354;0.026120856;-0.37413952;0.0746616;-0.107325315;0.047375925;0.007076066;0.16096625;0.10446648;0.10467921;-0.27879852;0.050500028;0.0015443487;0.02537423;0.050348748;0.029526113;-0.07723777;0.14150783;-0.003012867;0.004762623;-0.26342478;-0.088247456;-0.13719222;0.0095884735;-0.09580545;-0.32117411;0.061994653;-0.025048202;0.05277307;0.14855607;0.11182134;-0.039024763;-0.063449435;0.00410663;0.19173545;0.09640903;-0.2442306;0.03622403;-0.08295291;-0.022708897;0.19426149
-0.23802218;0.18215962;0.0002442363;-0.041115314;-0.01913686;-0.0972595;-0.18269815;0.02484021;-0.14794362;-0.040219188;-0.33672372;0.19479991;0.018325336;0.016475772;-0.14291394;0.028820205;-0.034261953;-0.04288827;0.12662809;0.18844281;-0.19895294;0.014673052;0.0042137476;0.22928473;-0.0015340659;-0.03329493;0.003262758;0.009809442;0.13945651;0.011417746;0.15409344;0.3736477;0.16881171;-0.022349853;0.018023955;-0.045208935;0.06277973;-0.04297461;0.113352135;0.08003979;-0.12540069;0.06150191;0.06850709;0.114293434;-0.17504027;-0.10087097;-0.05652991;0.026047677;-0.059902802;-0.09875465;0.00064361334;-0.7229136;-0.1310207;0.51670873;-0.3011349;-0.033053126;0.11123339;-0.23779538;-0.039844085;0.007585794;-0.01625118;0.1627187;-0.03283254;-0.03223881;0.03446437;0.043699916;0.026311211;-0.01896844;0.1563043;0.014014477;0.13158937;0.054622523;-0.18390821;0.0281517;0.1702191;-0.03120327;-0.16721837;0.3805655;0.031387087;-0.06505155;0.0076827738;0.22614186;0.004128661;-0.0029777647;-0.10636462;-0.19698094;0.061945062;0.045924406;0.0036847705;-0.013439612;-0.048810743;-0.049578622;-0.04156445;0.030248316;-0.05044539;-0.06663257;0.031802725;0.2051401;-0.18728013;-0.029001044;-0.0037605027;0.016878115;-0.05281679;-0.017141446;0.29278097;0.030898405;0.018364592;-0.2643377;0.16973105;-0.13512467;-0.097568855;0.21110056;0.053800944;0.120642714;0.0766402;-0.031240158;-0.0102232415;0.29726377;-0.03930918;-0.10487609;0.20870924;0.28138828;-0.4869579;-0.05804876;-0.05321087;-0.07233256;0.29176113;-0.12714206;-0.16799459;-0.14424746;0.113093175;-0.06099786;0.051654946;-0.019133149;-0.25712577;0.05962501;0.45221037;-0.000588276;-0.056957006;-0.18964711;-0.0559551;0.24259835;-0.043943275;-0.28846157;-0.2064949;-0.003608712;0.03545416;0.057241246;-0.0039482675;-0.23264568;-0.03749085;-0.02152055;0.13427505;0.23545797;0.28330684;0.29902557;0.042544723;0.01905164;0.099033386;-0.16845335;0.056802966;-0.3319586;0.08538109;-0.11463486;0.026811207;0.06063721;-0.0023859418;0.014153441;-0.10356138;0.22746746;0.073287874;-0.05269998;0.18184365;-0.23662524;-0.21791404;-0.03820369;0.014489441;0.17324129;0.18848105;-0.06938004;-0.022201402;-0.016819347;-0.15133503;0.12625022;0.019181954;0.34805304;-0.041577753;0.07337757;-0.27944744;0.025581045;-0.32826072;-0.12090855;0.026730375;-0.018485801;-0.14810379;-0.21554391;-0.06649368;0.15326919;-0.0802091;0.24028271;-0.42843997;0.06723935;0.046913378;0.15949602;-0.04841052;0.14322396;-0.0008642681;0.09422867;0.22549416;-0.041665692;0.03887439;0.19457594;-0.3026162;-0.057562463;0.03605397;0.07144214;-0.21230087;0.073524185;0.088427305;0.22480394;0.0031907086;-0.07979122;-0.020173091;0.055634066;-0.18286477;-0.09561085;0.28806448;-0.012623777;0.08303161;0.03668985;0.34206942;-0.51226455;-0.21303274;-0.14987832;0.28439024;-0.017033342;0.024157867;-0.06551161;0.5181807;-0.058804486;-0.074649386;0.17617986;-0.026891433;0.0291524;0.123279005;-0.088354014;-0.07259466;0.08011462;-0.021465823;0.053492367;-0.21247602;0.032492813;0.0061635897;-0.079292335;-0.017962033;-0.005419449;-0.14529702;-0.04911255;-0.06353824;-0.0545788;0.07726664;0.0998824;-0.016927803;-0.036423005;-0.026706493;-0.004130631;0.020270452;-0.08099157;-0.111609794;0.07670432;-0.026787024;0.2118024;-0.24567476;0.24912871;0.05733224;0.036197416;0.16863877;0.16617809;-0.019305868;-0.051154703;-0.037286807;-0.09619287;0.17765415;0.08827869;-0.060730428;-0.21684209;-0.019492226;0.14037329;0.021652538;0.09679073;0.3434093;-0.050628684;0.08059014;0.15176675;-0.15684362;0.22625102;-0.13338679;0.10517185;-0.03584242;-0.023593359;0.38221505;-0.026468461;0.0027114286;0.021088786;-0.27501616;-0.24740848;-0.025104368;0.07318572;-0.12345031;0.03735064;-0.005533535;-0.021982452;-0.37377214;-0.030979997;0.054392323;0.069221705;0.29371083;-0.054061472;0.0024761015;-0.05238789;0.067291796;-0.06648078;-0.19974354;-0.039584063;0.037399665;-0.20812516;-0.23822908;0.032252792;0.2125231;0.061849475;-0.043603588;0.061293468;0.041183867;-0.08679317;0.30471528;0.044200588;0.3261044;0.1595482;0.28157124;0.34689924;0.031479478;0.0013712703;-0.011907034;-0.3113133;-0.09135518;-0.032611284;-0.1504659;0.14572082;0.22367601;-0.026056413;-0.028564049;-0.32423404;0.03584348;0.016206717;0.026392967;-0.10621177;0.16816904;-0.11530561;0.000589882;0.028886737;-0.052367166;-0.039492086;0.18026455;-0.07374026;0.027345764;-0.09189363;-0.25763512;-0.12722383;-0.034204785;-0.23700006;-0.016566852;-0.035682995;0.07173876;0.26845068;-0.36484772;0.0076830084;-0.4202792;-0.1397213;-0.014898159;-0.16250327;-0.33515176;-0.15344554;-0.27995694;0.055033647;0.14692277;-0.11593925;0.38422558;-0.06601088;-0.18349136;0.041295145;-0.22915916;-0.053528912;-0.0074297134;0.057564396;-0.39743638;-0.13531314;0.010958578;-0.0434938;0.06896124;0.023488587;-0.11112781;0.24163821;0.08024103;-0.021578625;0.0071581323;-0.021933652;-0.15689817;0.09519984;-0.0035949529;-0.024130406;0.15362199;-0.030229561;-0.1208536;0.052107286;-0.20373239;-0.038054246;0.12988348;-0.167477;0.24865156;0.2179324;0.2546424;0.031905722;0.032995634;0.22254306;0.25787708;0.03437983;-0.019500315;-0.08012276;0.08993231;-0.08447161;-0.012077314;0.044925045;0.015960483;0.0071709673;-0.11542637;-0.13151646;-0.03700945;0.037091624;0.39326388;-0.038391124;-0.041544065;-0.08962182;-0.07332426;0.26268;-0.04621338;0.046612896;0.016306942;0.024781547;-0.025033534;-0.0006610472;0.07306728;0.10439586;0.01438107;0.1026501;-0.06616812;0.06673881;-0.06042946;-0.07656798;0.29017746;0.21520379;0.10434413;0.01863477;0.4220928;0.009507594;0.040676147;-0.14923742;0.042458173;-0.05760439;-0.14122841;0.14797771;0.024159763;0.25527084;0.025139373;-0.04900411;0.0013480794;-0.19670099;0.15566327;-0.33784118;0.00053952396;0.16189215;0.0064101606;-0.045524828;-0.028496603;0.08084731;0.08376476;-0.3309549;-0.003037116;0.14960925;0.16770492;0.040759232;0.1398197;-0.17507362;0.044092555;0.1522377;0.053467836;0.0016336406;0.008670251;0.22503407;-0.34396794;0.20956238;0.0015095719;-0.17039655;0.036216456;0.030895865;0.047178056;0.32698864;0.0540158;0.04425333;-0.11574792;0.029977867;0.10021901;0.16922194;0.0042895814;-0.0033426303;0.057873286;0.050795313;0.35533687;0.30518517;-0.060531165;-0.05906469;-0.19988306;-0.07219432;-0.11693458;-0.045681536;0.006696257;0.06905255;0.07792012;-0.06770918;0.38101143;0.04262224;0.31452855;-0.113921955;0.08245013;0.1472088;-0.017216334;0.030168261;-0.004151602;-0.32065046;0.13225494;-0.13984276;0.033805676;-0.019514179;-0.1007739;0.1292846;0.057250865;-0.2693929;0.07455612;0.07897052;0.05614509;-0.07908502;-0.0004335913;0.021810856;0.15118314;-0.05257721;0.06688228;-0.29603562;-0.05339664;-0.10783601;0.088756226;-0.10977981;-0.24480206;0.06286796;0.12505355;0.008516428;0.107738584;0.088227205;-0.085884035;0.06860069;-0.04746192;0.26276758;0.04166077;-0.348764;-0.020189699;-0.098931424;-0.015808888;0.11788083
-0.16193974;0.054442424;0.030906567;-0.18108441;-0.0011619398;-0.084549785;-0.3299365;-0.024266476;-0.12676205;0.031215819;-0.28615054;0.22006348;-0.020037651;-0.003122067;-0.10197206;-0.03866175;-0.06839783;-0.05103234;0.22242714;0.27761427;-0.16480465;0.062194917;0.03129534;0.13919638;-0.07487826;-0.023889504;0.00524521;-0.09651941;0.11200741;-0.09634849;0.08983655;0.34471545;0.111418806;0.020457108;0.026875397;0.0010469334;-0.0058216825;-0.03480799;0.17821088;0.10702973;0.032653525;-0.050488055;0.016679093;-0.032696676;-0.026777752;-0.19440626;0.0020846308;-0.051073182;0.048635133;-0.10043638;0.07691314;-0.5444698;-0.15573595;0.49192384;-0.33242625;0.041251402;0.21045874;-0.29735014;-0.039280344;-0.005155682;-0.0622565;0.17730325;0.00047593538;-0.056614116;0.02800799;0.008527338;0.011898597;0.0065000667;0.24235837;-0.048563983;0.21677165;-0.0036567554;-0.19919518;-0.18000335;0.243852;0.008976676;-0.16923857;0.37698847;0.081589565;-0.06310175;0.07797197;0.3106285;0.035232957;0.082065634;0.07026231;-0.116116546;0.073523864;0.0873581;-0.07791271;0.062346883;-0.13759872;0.00047409453;-0.13128787;0.1771957;-0.057875548;-0.02383016;0.03821756;0.12758838;-0.13339168;0.043574944;-0.008682411;0.031102883;0.010576979;-0.14586724;0.28371572;-0.034134064;0.062005717;-0.30849785;0.034375984;-0.038400453;-0.0807657;0.19763584;-0.041934684;0.18674557;0.0817106;-0.007753128;0.0066539296;0.3965339;0.07153025;-0.13007426;0.14109063;0.3108195;-0.41058967;-0.015726533;-0.02538868;0.04789337;0.2511524;-0.027484708;-0.2091302;-0.2168487;0.11319065;0.017886586;0.042364467;0.03390927;-0.2601176;0.082605354;0.46544158;0.0042327857;0.00036359782;-0.23836268;0.0032410976;0.33347285;-0.16939178;-0.27055305;-0.26863047;0.0121337855;0.02628725;-0.0047314386;-0.08080641;-0.1699567;-0.052927256;-0.013728986;0.11729025;0.27372265;0.114037395;0.15751065;0.06748571;-0.022829652;0.047838863;-0.023798741;0.17525937;-0.31888118;-0.06951724;0.013374737;0.00029213255;0.057212748;-0.042087782;0.17537922;-0.058054343;0.19856712;0.040042356;0.09752201;0.18622509;-0.26366156;-0.27232498;0.012313734;-0.015190975;0.13293391;0.18274693;0.015894856;-0.018262796;0.03249788;-0.18754873;0.13162878;-0.06316284;0.3336236;0.019810336;0.040822774;-0.23454258;0.04104815;-0.2617092;-0.16510569;-0.07037606;0.055068824;-0.11183879;-0.09515076;-0.061458346;0.110389575;0.0032617538;0.26154742;-0.44327125;-0.062225167;0.07055304;0.17355534;0.013574462;0.26137236;-0.078245334;0.1268009;0.1526702;-0.03222501;0.07739015;0.1189969;-0.25747955;0.06859757;0.029445322;0.04652324;-0.23250364;0.092796504;-0.010174765;0.13491262;0.013854964;-0.06495598;-0.10942397;0.07428604;-0.072956525;-0.04501982;0.22619253;-0.033568565;0.06334271;-0.039636634;0.3335743;-0.6206993;-0.11093483;-0.1431325;0.16746393;-0.09540158;0.02476129;0.02164032;0.4932276;-0.06621599;0.0094992;0.102069736;0.14666857;0.009413282;0.1101863;-0.088042855;-0.04023975;0.0067020776;-0.055692952;0.01221104;-0.27237728;0.038838208;-0.01721465;-0.030673586;0.01507618;0.03332768;-0.039346512;-0.052379504;-0.033445053;0.023826022;0.12556534;0.14724259;0.04181155;0.014081398;-0.006673431;-0.03562992;0.06339871;-0.012567432;-0.12030018;0.119332366;-0.1184973;0.2561376;-0.33317122;0.31655362;0.020276276;-0.059865195;0.05520804;0.096180744;-0.037312973;0.03836163;2.5750882e-05;-0.02112444;0.22596301;0.1483788;0.030032983;-0.20535377;0.01745224;0.108948745;0.054681797;0.067818865;0.30428174;-0.13918927;0.07555835;0.09667441;-0.19043906;0.20466562;-0.10928241;0.09542836;0.021892576;-0.019952776;0.3773995;-0.001433933;0.025897129;-0.0052218908;-0.24167919;-0.20414189;-0.054963797;0.04591921;-0.0647428;-0.1668859;-0.096807964;-0.05604993;-0.42603385;0.030664152;0.07502388;0.021181649;0.242177;0.024856187;0.06816856;0.0724223;0.13183;-0.06550971;-0.25983796;0.08025594;-0.01258832;-0.09620531;-0.25917086;0.01698815;0.13228875;0.052061442;0.0002958482;0.01760629;-0.062058587;0.02814127;0.27441835;-0.026958838;0.3416314;0.23534012;0.3598714;0.32149994;0.03265474;0.048084203;-0.06325744;-0.22141106;-0.039004046;-0.01693488;-0.015522011;0.05374853;0.20614661;-0.005293615;-0.03599707;-0.3602577;0.024700236;0.033980228;-0.068263724;-0.11179665;0.08147896;-0.01911686;0.02015127;0.04540564;0.03205019;0.00238145;0.10309498;-0.066281356;-0.021172656;-0.034298025;-0.1358812;-0.087515846;-0.12607227;-0.18501595;-0.011710857;-0.06342524;-0.009953122;0.22306342;-0.3850185;-0.015866274;-0.441085;-0.073440924;0.02423327;-0.124185674;-0.2882331;-0.12149411;-0.38286307;0.07537161;0.114723764;-0.040584598;0.40700722;-0.026726965;-0.12448027;0.21004876;-0.06685046;0.040247865;0.09132287;0.010260815;-0.35220075;0.0003844954;-0.02972805;0.050674796;-0.009822494;0.012357711;-0.15737814;0.109158635;0.15972655;-0.052396774;0.012002988;0.035397254;-0.26470357;0.13728367;0.043812796;-0.043032557;0.12913053;-0.057424363;-0.027532626;0.02666397;-0.28516597;-0.026153306;0.06447427;-0.16114835;0.27719674;0.20826136;0.24665596;0.015256615;-0.039250825;0.16968417;0.22198448;-0.094449066;0.06245709;-0.057563428;0.24898109;-0.027209349;0.03045286;0.092511706;0.05352396;0.006244285;-0.10446374;-0.19383273;-0.0034255278;-0.028256124;0.3299803;0.044106398;-0.05693431;0.001846558;-0.046074398;0.118072644;-0.08804004;-0.082999825;-0.07005529;-0.05447138;0.059422683;-0.03707571;0.10685358;0.0784281;-0.06169104;-0.07586116;-0.010016588;0.056355905;-0.1536027;0.003563102;0.15316351;0.14200099;0.28424922;-0.02091982;0.3428047;-0.0039136657;0.029030465;-0.092282064;0.010547456;-0.01012745;-0.046844684;0.051947296;0.05252482;0.20409721;-0.019872716;-0.15611762;0.061030798;-0.024595737;0.16642363;-0.22549894;0.005458741;0.1146835;0.028343774;0.05156169;-0.032917492;0.032336723;-0.0013626309;-0.34198976;-0.1281952;0.060536887;0.11541193;-0.0017296697;0.09521433;-0.11980921;0.053644765;0.1275524;-0.0586078;-0.0046276627;0.04857632;0.35415953;-0.2965413;0.22537233;-0.003619765;-0.17023101;-0.06912328;0.0045952196;0.03182242;0.20975882;0.07750995;-0.07349518;-0.124995075;0.030156966;0.1185973;0.2273697;-0.018073887;-0.042973593;0.03443197;-0.03771287;0.44755948;0.24491715;-0.10540071;0.024347229;-0.16981609;-0.051173784;-0.09084038;0.19917606;-0.042571004;-0.035208683;-0.043215547;-0.13982736;0.3988811;0.008536207;0.30279082;-0.10966521;0.03484662;0.13705365;-0.04398614;-0.010820074;-0.061414108;-0.28352973;0.13682067;-0.23214984;0.17737974;-0.046485174;-0.17452481;0.20215744;0.06494844;-0.24447614;0.12036975;0.05861819;0.021501778;-0.14736237;0.06603428;0.094693385;0.24858719;0.057572838;0.042272795;-0.36797512;-0.048118;0.019560428;0.1253875;-0.21982923;-0.16868292;-0.10857629;0.042465996;0.01565788;0.17100546;0.07145962;-0.06088441;0.017088141;0.005482142;0.22054778;0.06499467;-0.3879242;-0.12751175;0.033972926;0.022033319;0.054272227
-0.067707665;0.19741805;-0.06378916;-0.07947142;-0.072221875;-0.11315531;-0.30324063;0.060254846;0.014517785;0.03134836;-0.30402502;0.24326111;-0.018064419;-0.021696443;-0.124273404;-0.02123575;0.035282504;0.029527523;0.1377577;0.2035958;-0.10192438;0.10657534;0.050503355;0.06292814;0.038818743;-0.02133782;-0.024930505;-0.06547422;0.107249156;-0.029257044;0.05576008;0.343064;0.1320714;-0.04034276;-0.009150854;0.07714403;0.07250326;0.06585513;0.050701033;0.18264113;0.012471232;-0.019449344;-0.01422373;0.15783374;0.058955707;-0.25020844;0.06569379;-0.037223402;0.03635548;-0.029997468;-0.08080209;-0.5107635;-0.23870443;0.38989565;-0.29468024;0.039055362;0.07756891;-0.21684884;-0.106090635;0.042238723;-0.01815757;0.10956322;0.057282057;-0.05440263;0.10523918;-0.04473349;-0.07304974;-0.0035567544;0.16345263;0.07237669;0.15050747;-0.06579269;-0.13078532;-0.27750805;0.18888482;-0.018290509;-0.09728875;0.36869726;-0.04498628;0.052788366;-0.07187084;0.18951616;0.009076678;-0.021226592;0.054220434;-0.15551503;0.03333234;0.060771197;-0.062361445;-0.07650336;-0.11921627;0.058463354;-0.14694758;0.11168632;-0.09916478;0.15405369;-0.021507524;0.10216085;-0.16809072;0.05451322;0.12536383;0.029779844;-0.09162631;-0.07967005;0.21945056;0.07469016;-0.06060736;-0.21149687;0.049132925;-0.10903009;-0.062152106;0.14987622;0.042131647;0.0772447;-0.05440274;0.033298943;-0.06976899;0.34155214;0.15897764;-0.115731604;0.06826113;0.27430627;-0.31596205;-0.08817853;-0.0011811008;-0.07652203;0.25577444;-0.12829879;-0.1272447;-0.29463688;0.10440069;0.071564995;0.115997344;-0.0070405654;-0.08011471;0.03673397;0.42349017;-0.045732673;-0.109580256;-0.2609966;0.004815608;0.30299085;-0.1206452;-0.3336841;-0.348405;0.03063919;0.046080247;-0.03871531;-0.026441084;-0.13130711;-0.046199035;0.044077966;0.109635346;0.24137057;0.1480744;0.19514762;0.14208773;-0.15114868;-0.014296151;0.09432473;0.18682978;-0.14872123;0.007190134;0.042734735;0.04818091;0.06663126;0.028784739;0.097406775;-0.16516173;0.18498434;0.006962839;-0.047184758;0.22810654;-0.22030443;-0.25095722;-0.0067772884;0.0032410182;0.117235936;0.18967445;0.074149825;0.04357184;0.0034097838;-0.21795644;0.09031397;-0.03564359;0.2543224;0.024845535;0.04933789;-0.121769354;-0.035939857;-0.28159657;-0.24502735;0.020218454;0.030196868;-0.3052495;-0.017612578;-0.057161506;0.05235368;-0.13606691;0.06776007;-0.42749757;-0.002922239;-0.051518623;0.054910686;0.047006626;0.28789565;-0.09934695;0.16697146;0.17801988;-0.00088453485;0.12219518;0.0486113;-0.18922855;-0.023539148;-0.048167523;-0.080513105;-0.14764485;0.06433239;0.07556266;0.16163266;-0.047670845;-0.19172435;-0.048146605;-0.042018194;-0.1055965;-0.14410378;0.10998069;-0.038019866;0.22828266;0.061886378;0.33189315;-0.5333406;-0.18177131;-0.2316549;0.16928174;-0.0664605;-0.035193942;0.079954766;0.5234167;-0.0003573515;-0.042942766;0.17296225;0.0056020813;-0.060858995;0.26905724;-0.09300459;-0.0012431991;0.049098145;-0.008394949;-0.041933898;-0.03184585;0.00084879156;-0.016237952;-0.0045380727;0.025743514;0.12313379;-0.02715179;-0.080666654;0.0058569936;-0.03636655;0.07213101;0.2309576;-0.019479726;-0.054976884;0.04533207;-0.06925813;0.1657971;0.076699175;-0.07463677;0.15475793;-0.14458531;0.15356304;-0.31186754;0.37671572;-0.06675863;0.06452477;0.11133663;0.12229206;-0.058161926;0.07138828;-0.05398238;0.03964963;0.17452624;0.21331143;0.06327834;-0.22275014;-0.040307723;-0.023215687;-0.074416496;0.046424747;0.34571502;-0.11160832;-0.073422655;0.10512736;-0.16649726;0.13745867;-0.106904924;0.2210319;0.06409591;-0.023391217;0.33653417;-0.03632993;-0.035200544;-0.10847532;-0.28846455;-0.16575791;0.0017861126;0.03318908;-0.1635331;-0.12608275;-0.121089235;0.06397379;-0.25530005;-0.0371229;-0.00411499;0.09248652;0.25173932;0.12368959;0.024538469;0.029244257;-0.03391754;-0.00896701;-0.2775854;-0.0330507;0.062213175;-0.1144302;-0.22281717;-0.029416239;0.15728292;-0.06443473;0.044290893;0.006452108;0.031381678;0.008653329;0.25058872;0.06153839;0.30549574;0.30673805;0.38126066;0.1829969;0.008441463;0.032986067;0.056649495;-0.27861458;-0.03296621;0.15301305;0.11631025;0.08319008;0.33163983;0.06301988;-0.048542365;-0.46867022;-0.02411894;0.0493465;0.0056713154;-0.1333057;0.09249247;-0.05990276;0.0020096742;0.036698;0.028560515;0.0520311;0.22827648;-0.10686282;0.043330416;0.024590457;-0.24086519;-0.1191646;-0.07389088;-0.15679272;-0.06424085;0.0066114836;0.025389606;0.21848296;-0.30597314;-0.0710178;-0.38972303;-0.0688829;-0.058218572;-0.07698473;-0.21457782;-0.124793775;-0.32470113;0.040078096;0.21602964;-0.07992703;0.40990904;0.04964828;0.0034782523;-0.004395845;-0.2157703;-2.0520314e-05;0.0014681561;0.12356342;-0.30790463;-0.03786092;0.021786591;-0.10014281;-0.0071190065;-0.03157383;-0.09662766;0.12600948;0.1748703;-0.007399263;0.090298325;-0.027051363;-0.244619;0.14537273;-0.0033101165;-0.07806816;0.07502523;-0.007602377;-0.06541716;-0.016021093;-0.23882167;-0.09911459;0.04868244;-0.2458418;0.34729856;0.30401048;0.24555022;0.055667132;-0.0214172;0.2255237;0.26539636;-0.109980136;0.0276496;-0.09004873;0.33944276;-0.011608842;0.112830095;-0.023185235;-0.033158846;-0.14446141;-0.14952172;0.019109815;-0.036388416;0.015995378;0.22376537;0.012447889;-0.06037974;-0.04032919;-0.10250577;0.07491985;0.009109719;-0.06841495;-0.028416779;-0.17057244;-0.05580578;0.020586709;-0.050308462;-0.017448878;-0.022812432;0.03143936;0.0824037;0.008725784;-0.2638536;0.014657173;0.16311511;0.111174755;0.20756598;-0.03340734;0.2760915;-0.07040806;0.024961883;-0.046255477;-0.015600549;0.010518232;-0.023451896;0.12596105;0.04904135;0.21109371;-0.03867662;-0.116320446;0.04833317;-0.096668266;0.098932415;-0.28639156;0.037826538;0.13929752;-0.031783238;-0.03251102;-0.06851311;-0.028457604;0.098816186;-0.43953264;0.014119475;-0.03031896;0.16976315;0.08789208;0.079377815;-0.1852566;-0.051435605;0.0065542315;0.07368119;-0.0689166;0.02942983;0.22946028;-0.39387998;0.14166088;0.004313453;-0.071673594;0.047779035;0.12192;-0.006480593;0.28516895;-0.011419946;0.04430599;-0.019286096;0.00087479537;0.1278742;0.14523089;0.049777493;0.07402373;-0.11361325;-0.068008;0.33045676;0.29943132;-0.19521259;-0.052155335;-0.2687145;-0.021572663;-0.031194864;0.19162266;0.009785598;-0.06629521;0.009951208;-0.13201433;0.2594395;0.029785572;0.29827595;0.009836391;0.009412228;0.0527545;-0.073007934;0.08193099;-0.0017433353;-0.34092587;0.029255409;-0.36059;0.13862097;-0.02304983;-0.02586586;0.23288132;0.099562645;-0.110084504;0.1486316;0.082747765;-0.001573935;-0.094267935;-0.019679617;0.12486351;0.28165197;-0.07032001;-0.014565161;-0.19178389;-0.063697934;-0.04117314;0.16381733;-0.12682672;-0.16458763;-0.19362858;-0.030691696;-0.047763806;0.034762595;0.089451045;-0.029933505;-0.005443562;0.012017203;0.21673551;-0.05535061;-0.49311623;-0.06262629;-0.045414723;-0.08474951;0.12187014
-0.12450857;0.28634724;-0.07281594;0.002381537;0.021319903;-0.12327126;-0.21235856;0.02375244;0.05147993;-0.04481134;-0.26594916;0.2596467;-0.05655104;0.08364386;-0.0048561194;-0.044370104;-0.009551464;-0.17883322;0.2117889;0.2773242;-0.0018834608;0.05239549;-0.034962483;0.11258783;0.042951062;0.012686501;-0.007825266;-0.069793314;0.16152026;-0.104424745;0.07749513;0.4393224;0.15726578;-0.0368376;-0.009823745;-0.044593375;-0.020890499;-0.05042127;0.03550413;0.16704558;0.113409914;-0.05874654;-0.011811305;0.046719138;0.24695848;-0.21570033;-0.0098592285;-0.08729786;-0.023017187;-0.012821896;0.020412775;-0.47551116;-0.13576308;0.31890866;-0.3819366;-0.0024396286;0.18899207;-0.24528389;0.015878517;-0.046401925;-0.0011558693;0.18675008;-0.0951651;0.0100380285;0.022461463;-0.10027829;0.00629879;-0.04137605;0.06805851;0.0057240785;0.17678513;-0.023882836;-0.086948894;-0.34418568;0.22791149;-0.043477423;-0.2239053;0.24964029;0.02900532;-0.023803405;0.02033974;0.20855586;-0.008739042;0.0687599;-0.07067034;-0.21639763;0.0402963;0.20129623;0.023002269;-0.058719955;-0.09613684;-0.02295661;-0.04191617;0.09853969;-0.03134429;0.0618377;0.016609354;0.13990894;-0.1973587;-0.061337117;0.019412978;0.014561729;-0.13368204;-0.18717238;0.25064757;0.14275807;0.029705223;-0.09935378;-0.1432754;-0.093669765;-0.016126363;0.16677289;-0.09224809;0.14964798;0.12369591;0.05113267;0.05075483;0.28917202;0.045538742;-0.0027257048;0.06804733;0.343853;-0.3269723;-0.04139314;-0.025826579;-0.15414837;0.19029646;-0.03364752;-0.14438511;-0.32787782;0.05123756;0.06320811;0.0681076;0.07555285;-0.10880236;-0.058807615;0.3189604;0.053789604;-0.037826974;-0.20156951;0.0074398182;0.23610978;-0.02970208;-0.3143262;-0.20979024;-0.025376113;0.057524964;-0.03383351;-0.077263355;-0.23474598;0.04439076;-0.038281973;0.006378992;0.15518138;0.102928184;0.09768038;0.06724485;0.013021361;0.01923452;0.066298865;0.07063041;-0.115548514;-0.025527187;0.025934316;0.0078862095;0.008405929;-0.011337466;0.23941858;-0.13120997;0.2621127;0.12664995;-0.058719233;0.1287101;-0.25266725;-0.22825274;-0.04351953;-0.077309296;0.157601;0.16253899;-0.06653381;-0.06325206;-0.03588565;-0.14372632;0.19130237;0.02992036;0.22286908;0.06051185;-0.006780199;-0.17643766;0.02374096;-0.23169236;-0.19788508;-0.010663603;-0.003426058;-0.31267592;-0.1348074;-0.17835955;0.13303067;-0.031723753;0.21007785;-0.40485737;0.06778959;-0.017954415;0.18181226;-0.042913858;0.26742524;-0.01052084;0.05916383;0.16731985;-0.12415375;0.19601355;0.03363251;-0.13744813;-0.034797233;-0.031034855;0.026995081;-0.21568093;0.0076122303;-0.07304914;0.036486827;-0.18200018;-0.07575406;-0.068662085;-0.04233983;-0.11012787;-0.064543106;0.12425651;-0.020393891;0.14083725;0.014646236;0.30723432;-0.48212844;-0.040669706;-0.083936;0.21520834;-0.03854686;0.029225376;-0.049337436;0.5571458;-0.06301316;-0.020457407;0.050392795;0.13218871;-0.005922448;0.07774421;-0.14478165;-0.027287012;-0.022657942;0.008566729;-0.03777829;-0.016670976;-0.0327332;0.06556818;-0.043813754;0.033392627;0.048353396;0.05468273;-0.017724609;0.014422052;0.06877043;0.1540221;0.2573829;-0.056836832;-0.058714077;0.016121317;-0.02693604;0.16987842;0.047024034;-0.03766451;0.06264397;-0.1836417;0.20114732;-0.4196911;0.34618518;0.03837742;-0.011667594;-0.014283019;0.060427513;-0.0003435253;0.004811178;0.07674403;0.08870585;0.11875229;0.13763863;0.030165812;-0.15480773;0.048811276;0.061641525;0.0018064013;0.17899577;0.19689019;-0.027250439;-0.041351948;-0.011778679;-0.17366625;0.11088746;-0.061759386;0.22796936;-0.013644361;-0.05345161;0.34538618;0.03549;-0.023613092;0.018364035;-0.24188197;-0.03728344;0.004134411;-0.04627553;-0.16803542;-0.101538576;-0.022142991;-0.028591335;-0.23020619;0.019595979;-0.07591865;0.095907636;0.2648374;0.06650086;-0.06403492;0.03046113;0.02732651;-0.035241865;-0.3093942;0.005183535;0.012692247;-0.19099148;-0.19085556;-0.031381994;0.032151602;0.019864563;-0.01959057;-0.105701864;0.090630524;-0.03427204;0.3663646;-0.02098628;0.20244698;0.18850777;0.43415564;0.043269403;-0.017168157;0.005849794;-0.083007425;-0.26099497;-0.059403762;0.29295003;0.11550891;0.1329774;0.29448077;-0.056156844;0.03003532;-0.47293472;-0.018214973;0.018675655;0.09928961;-0.021528075;0.1253408;0.019239774;0.015782485;0.13740847;-0.026763683;-0.04854062;0.22469838;-0.033991095;0.102427825;0.01688884;-0.30830842;-0.19342472;-0.08296062;0.08394197;0.048218504;0.027683882;0.060336147;0.21944915;-0.29552934;0.0150505;-0.46550077;-0.18897706;-0.096170425;-0.15111566;-0.431991;-0.080608346;-0.28652957;0.0021286688;0.23915493;-0.120793566;0.31538036;-0.026974935;-0.03146965;0.0029413463;-0.06074;0.023368696;-0.02569771;0.136932;-0.3020422;0.050066885;0.051795047;0.04744157;-0.03410021;-0.057972126;-0.1059894;0.05364833;0.007882418;-0.0118874125;0.06613915;0.058721248;-0.35877398;0.107717976;-0.09133485;-0.0036950673;-0.06600242;-0.025852317;-0.012830084;-0.055250566;-0.3282823;-0.08088797;0.060899347;-0.14021614;0.3062377;0.26293164;0.31325457;-0.058412913;0.07670994;0.30697688;0.2867814;-0.17703953;0.1292016;-0.0539215;0.3927818;0.05334004;-0.029741406;-0.1203003;0.032073993;-0.24728307;-0.23085676;-0.092629;0.03635927;-0.04685434;0.29387298;0.04881713;0.07404017;-0.08553879;-0.06656334;0.20133387;0.11770037;0.058587372;0.05497661;-0.09334326;-0.018581087;-0.06740815;0.04915034;-0.0137090385;-0.04967313;0.1510709;-0.053312555;-0.060926974;-0.20209585;0.0035721462;0.065590985;0.035850976;0.27693802;-0.012679816;0.28928605;0.07049962;0.06121836;-0.07773717;-0.11423577;0.0014924555;-0.011795818;0.051270578;-0.016809693;0.09198972;0.027399689;-0.22939089;0.095224984;-0.050679475;0.06710038;-0.15701203;0.026541643;0.16310997;0.017220495;0.016590975;-0.08411459;-0.01607581;0.14674114;-0.37644246;-0.059255548;-0.07536938;0.109229386;0.051774595;0.21946083;-0.15253538;0.011690053;0.044973828;-0.044619884;0.07028865;0.021281082;0.23964454;-0.34466752;0.055941988;-0.013793268;-0.008234154;-0.014260539;0.048721317;-0.014987183;0.326294;-0.022303648;-0.051567916;-0.047813885;0.06681593;0.12972297;0.1818629;-0.062094115;-0.013935626;-0.014344048;0.09295019;0.36861226;0.14687772;-0.087910414;0.0101784095;-0.28162962;0.03237769;-0.05219828;0.15995955;-0.03939027;0.028233439;-0.07043939;-0.061814953;0.2999831;-0.080593444;0.2862526;-0.013926511;-0.039860018;0.16091056;-0.10073964;-0.060903616;-0.05225529;-0.1988914;-0.06528082;-0.3528814;0.07480275;0.013390725;-0.09648737;0.14831455;0.20791286;-0.05366289;0.006823904;0.025987387;-0.06949762;0.092194445;-0.068010405;0.15162492;0.26232266;-0.051533677;-0.056409027;-0.2617947;-0.053211987;-0.0017817162;0.09702371;-0.21513882;-0.05190647;-0.030164715;-0.05614054;0.017244501;-0.043059267;0.20193867;-0.05397997;0.0009559461;0.07548727;0.09307569;-0.12965111;-0.40245613;-0.2667044;-0.019233033;0.059916817;0.15403461
-0.11958742;0.11528431;0.027041806;-0.058905996;0.063598745;-0.098380744;-0.15854764;0.010470679;-0.049000338;0.036592297;-0.21589138;0.26695308;0.0072356523;-0.042259734;0.017406581;0.06718248;0.049877424;-0.20501603;0.23651423;0.32139978;0.0539634;-0.053376645;-0.056007057;-0.008978896;-0.021333268;0.0530973;0.05633913;-0.14689815;0.16872998;-0.22777873;0.035626102;0.34940505;0.1137335;-0.00042441257;0.07386312;-0.04127699;-0.035151664;0.029208038;0.015538416;0.17379254;0.071346685;0.02354797;-0.03319981;0.098846674;0.24895601;-0.2477474;-0.040190723;-0.08010933;-0.027417913;-0.083181635;-0.074618705;-0.40565616;-0.27624643;0.31952834;-0.40787697;0.027476553;0.1960491;-0.22829771;-0.034800623;0.03691594;0.013400325;0.04197794;0.045971196;-0.051601138;0.10816573;-0.051337972;0.05834829;-0.021685593;-0.10211354;0.08254338;0.08796196;0.004540368;-0.04305049;-0.19153069;0.27428773;0.08350706;-0.16352217;0.31474623;-0.0037059244;-0.04490354;0.01651393;0.07986093;-0.056455173;0.034878418;0.007386345;-0.07476069;0.033105843;0.25830254;0.0020541113;0.03231094;-0.06538712;0.071953796;-0.08219751;0.06636184;-0.06408009;0.20402357;0.06177999;0.122397736;-0.160772;0.030052666;0.0827124;0.10869962;-0.15444428;-0.16277665;0.26266724;0.134586;0.0141931055;-0.089734346;-0.16183876;-0.25172392;0.07407176;0.048099004;0.045857556;0.08148553;-0.03612415;0.024962924;0.017140457;0.31779188;0.02265103;3.4112945e-05;0.023240434;0.25769454;-0.34357733;0.06604024;0.008186392;-0.06988336;0.20148446;-0.09559631;-0.14531647;-0.18051943;0.060314145;0.06029375;-0.023865312;-0.067299746;-0.10757098;-0.021956177;0.37227455;0.040258206;-0.044041842;-0.14453992;0.06957062;0.31555364;-0.23608726;-0.25565362;-0.3087651;-0.058559597;0.12266913;0.055388518;-0.06576056;-0.1471739;-0.00057778036;0.072829396;-0.050288744;0.25806302;0.08689761;0.116791554;0.11917172;-0.028472804;-0.04967736;0.088783145;0.022443853;-0.24085832;-0.07262343;0.01536871;-0.00843392;0.114419505;-0.03987965;0.22741851;-0.05217768;0.29016134;0.030954538;0.09776134;0.19320202;-0.20970024;-0.08549373;-0.0029202092;-0.00918081;0.09659677;0.094778046;0.032256443;-0.050575208;0.03544541;-0.1029352;0.13701749;0.06048407;0.18998976;0.036649242;0.10066086;-0.10064807;-0.08175665;-0.16661833;-0.22452751;0.057527404;0.029356407;-0.26501435;-0.17610481;-0.12839083;0.09598124;0.049140155;0.21654974;-0.33119273;-0.026880171;-0.048099544;0.05768396;0.017750286;0.16173056;-0.15087472;-0.010654287;0.20003028;-0.05933158;0.21752608;0.067373075;-0.24947688;0.027623242;-0.040070638;-0.030180687;-0.12347466;-0.012694907;-0.014257836;-0.05600151;-0.23577286;-0.21964487;0.0650493;0.063425206;-0.05221817;-0.038254447;0.18502474;-0.1797289;0.21851629;-0.012403761;0.24952343;-0.5680999;0.019896677;-0.11202432;0.111388005;-0.000987929;0.091821164;0.04822316;0.6291669;-0.11915894;0.030212915;0.15677984;0.120732196;0.058754653;0.12871692;-0.11989575;-0.05165853;0.0850716;0.07046751;-0.034356274;0.011162678;-0.006089872;-0.021348177;0.04367449;0.020374088;0.10088524;0.14665985;0.020273287;0.008526996;-0.024103265;0.11471145;0.1395443;0.022895474;-0.013255534;0.010693045;-0.08682563;0.26284274;0.09592364;-0.07280459;0.14406985;-0.18413757;0.102349654;-0.3736339;0.32319504;0.08695314;-0.076122366;-0.03426988;0.033729427;-0.00054302404;0.008187484;0.07905913;0.184047;0.12964526;0.09702077;0.032009672;-0.12932204;0.026200982;0.009842671;0.048143797;0.119305804;0.29768366;-0.075372815;0.006223457;0.026015226;-0.09377879;0.1874496;-0.13427362;0.09324472;-0.045569304;0.05154137;0.19366412;0.0521183;0.017506765;-0.1236542;-0.2840693;-0.021737173;-0.10296171;0.0043191975;-0.01839988;-0.17856118;-0.15384819;-0.005146279;-0.21314965;0.033671968;-0.13849121;0.032537658;0.20241916;0.0410946;-0.071586184;-0.0495847;0.06924525;-0.10284729;-0.18812284;-0.03144078;-0.036776017;-0.05322804;-0.22791258;-0.0030320135;0.001852232;0.05658315;0.014278087;0.044591982;-0.048326727;-0.063117;0.32758382;-0.012376243;0.1957879;0.2403346;0.33681077;0.11929997;-0.036120713;-0.097717345;0.073010884;-0.11467774;-0.09836614;0.1939681;0.042658936;0.026215114;0.24155334;-0.0011786233;-0.019514449;-0.46363762;-0.068769485;-0.013629898;-0.058665067;-0.022498783;0.02700573;-0.07383554;0.080474615;0.12591481;0.0053149047;0.02383229;0.23302312;-0.10957449;0.09062433;0.042481735;-0.22330038;-0.18005568;-0.12514797;0.049724422;-0.04853367;0.0058949827;0.026723294;0.25159508;-0.36249343;0.009461257;-0.37613508;-0.13039698;-0.069086835;-0.095980756;-0.44277394;-0.040231973;-0.17612079;0.042798977;0.18684894;-0.17918795;0.2739328;0.016678026;-0.081830084;-0.03475954;-0.03402029;-0.016726624;0.049459584;0.10077102;-0.3945932;0.045823183;-0.05103511;-0.027985264;0.042185243;0.010917847;0.00012869156;0.094901495;-0.037714202;0.015737085;0.022689264;0.008706312;-0.41477042;0.040022474;-0.04169083;0.06516126;-0.06350868;-0.021105122;0.03712073;0.034515485;-0.26031095;-0.13802798;0.004384202;-0.16470243;0.27203012;0.2571805;0.3322782;-0.094735645;0.011755143;0.36303085;0.3513586;-0.20546558;0.09987493;-0.033118002;0.41399357;-0.038954716;0.053806487;0.04564074;-0.048616663;-0.28814426;-0.17316975;0.044549614;0.021768086;-0.044097126;0.23647054;0.008341945;-0.06302516;-0.14102696;-0.00047439983;0.14257361;0.17577864;0.030183334;-0.086627595;-0.18830417;0.029633993;0.068127215;0.10910335;-0.12793064;0.035518635;0.16759683;0.048504535;-0.031821158;-0.06981875;0.1896308;0.10051118;-0.08771725;0.13506405;-0.004119803;0.24926251;0.065479964;-0.03323735;-0.12705404;-0.09963504;-0.042321242;0.031513833;0.14119782;0.01361025;0.06991395;-0.03803241;-0.15094788;0.12338888;-0.05800265;0.17084096;-0.23395087;0.050073974;0.18819003;0.028914569;-0.0063475077;-0.013254763;-0.051115744;0.16880979;-0.36268094;-0.031658266;-0.21356024;0.19172198;-0.0025290677;0.17193654;-0.04405577;0.0044534095;0.15432554;-0.042136986;0.039592702;-0.09671308;0.21155262;-0.3486932;0.005100726;0.026812356;-0.05164209;0.045988575;0.23506844;0.034283448;0.34207654;-0.012785388;0.032726362;-0.0764589;0.06122143;0.09864673;0.13284245;-0.017435927;0.022843523;-0.045509674;0.028167361;0.47654805;0.30208308;-0.13320827;0.006681487;-0.250154;-0.005635021;-0.027892536;0.20610462;0.04115769;0.032680966;0.067610696;-0.029941374;0.18103911;0.07175298;0.32897383;-0.037931457;0.10407413;0.0963156;-0.044891704;-0.011141953;-0.028817821;-0.21867122;-0.063505754;-0.2483994;0.14171779;0.028467918;-0.0916368;0.21083662;0.12790197;0.08983522;0.07078384;0.031669017;-0.034195554;0.03790439;-0.045010876;0.118971735;0.17614;-0.14435835;0.042657666;-0.19376796;-0.11651825;0.10427663;0.046060193;-0.21022896;0.0140586905;-0.12117532;-0.070087664;0.020137327;-0.028402478;0.067172505;0.004995796;-0.056228373;0.012427261;0.22793718;0.031807166;-0.428943;-0.37865293;0.07062092;0.02262593;0.20137672
-0.11093517;0.24579144;0.015928682;0.09612813;-0.03441688;0.079943776;-0.1342021;-0.0047585876;-0.005709842;0.027733361;-0.13901727;0.40377164;0.05300889;-0.045474913;-0.028574787;-0.06716215;0.036596578;-0.26183432;0.34463596;0.23046757;0.14866912;-0.034253925;0.014013836;-0.07868315;0.010998844;0.0742737;-0.0017241916;-0.14798863;0.079585;-0.1523881;0.14560755;0.44876057;0.06846075;0.072889835;0.0013904844;0.06016027;-0.018128458;-0.071194634;0.050285023;0.24174297;0.04637384;0.030836552;0.004603332;0.10247304;0.2786364;-0.17494988;0.07267609;0.025489893;0.03274505;-0.12160309;0.04474673;-0.26558527;-0.29129633;0.19362661;-0.28502092;-0.0127508035;0.20660244;-0.24165408;0.04443628;-0.017065154;0.036635667;0.0667083;0.011247486;0.06864397;0.07212113;-0.057955362;0.06417577;-0.030259393;-0.11636953;0.011578565;0.184802;0.023418097;-0.036185708;-0.3005751;0.24601528;-0.026476804;-0.37252283;0.25038657;0.030383043;-0.08017857;0.05776665;0.099624425;-0.061050836;0.21245877;0.04030726;-0.06856412;-0.05768545;0.20085418;-0.008873795;0.037766907;0.1127861;0.03700387;-0.046106208;0.108100615;0.0042115687;0.09624191;0.07741825;0.07156998;-0.0830617;-0.012448444;-0.017616699;0.04200989;-0.02194773;-0.17202564;0.30512577;0.18171813;-0.002997463;-0.07849189;-0.16167942;-0.14816894;-0.05595957;0.079197034;0.0075314795;0.14553162;0.037662473;-0.06600709;-0.04866251;0.24386664;-0.054412775;-0.07090039;0.0383684;0.19829729;-0.25416237;0.025343524;-0.05912602;0.013165601;0.20830116;-0.08669839;-0.22496815;-0.2483524;0.16674697;0.015598392;0.08538921;0.008785733;0.0028171304;0.04530212;0.3497683;-0.040279716;-0.032330167;-0.21034071;-0.03286511;0.30988902;-0.184461;-0.19640337;-0.16108815;0.022240594;0.11183788;-0.023836212;-0.067934155;-0.13299745;0.0026701044;0.10873325;0.00725286;0.29389513;0.18169937;-0.014886085;-0.012740457;-0.0033608507;-0.03524681;0.11548571;0.11477749;-0.23578173;-0.05738636;-0.07204237;0.014797557;0.20262815;-0.06467243;0.19652739;-0.115016684;0.284049;0.12728442;-0.046995603;0.07815833;-0.082603924;-0.09705764;0.014707872;-0.013200739;-0.079833;0.0563795;0.06306761;0.063175514;-0.020971065;-0.064792;0.13193886;0.025962964;0.13325301;-0.07610359;0.17514788;-0.29076463;0.05012168;-0.07940117;0.018810032;0.016831791;0.021663204;-0.16885827;-0.1339912;-0.20380445;0.16319242;0.14678885;0.25926292;-0.33784738;-0.20346354;-0.061104175;0.17125145;-0.11692106;0.25164327;-0.12790899;0.065962635;0.023106825;-0.10554835;0.116165265;0.049085416;-0.15942158;-0.035376277;0.06791681;0.008442787;-0.0631294;-0.026018351;-0.11504721;0.01698271;-0.26102194;-0.14166941;-0.032916028;0.0002421988;-0.24506041;0.04981055;0.12152926;-0.10342599;0.08885171;-0.05254312;0.32639045;-0.5690756;-0.029174138;-0.13945335;0.017221814;0.058488898;0.08313623;0.0007423007;0.46844396;-0.21411791;0.021912651;0.23437186;0.08067216;-0.037592463;0.03295276;-0.088431776;0.09423535;0.08175663;0.01150048;-0.020048438;-0.03339835;-0.05867859;-0.0040807826;-0.0002558406;-0.047976248;0.04958032;0.064685635;-0.020711353;0.034558855;-0.024591431;0.18568155;0.21003747;-0.029032793;0.08085525;-0.01670333;0.06493761;0.39748365;0.043361656;-0.19705202;0.13583216;-0.14886978;0.14628024;-0.38322192;0.46589977;-0.041229848;0.0068044793;0.011864115;0.080911815;0.01537282;0.03024546;-0.024387447;0.32530865;0.18005672;0.03676174;0.042846445;-0.26514396;0.0339115;-0.0015032238;0.009653557;0.1962527;0.26483637;-0.07220006;-0.08615076;-0.068870105;-0.20349367;0.22974734;-0.039836586;0.1863916;-0.025941731;0.002561109;0.3242786;-0.015683332;0.03960451;-0.10075933;-0.26430753;-0.022197692;-0.14275329;-0.019754939;-0.04213259;-0.19215034;-0.0501323;0.030446379;-0.1878351;-0.03121669;-0.14401655;0.12783925;0.2582191;0.02122609;-0.06769441;-0.0062975027;-0.007527728;-0.108289935;-0.25122076;-0.032021653;-0.044841815;-0.14213595;-0.17020942;-0.0029666156;0.04698635;-0.043163348;0.05793198;0.058775663;-0.018894609;0.06827946;0.32462662;-0.051824603;0.15674177;0.20717897;0.4642593;0.07126332;-0.040019684;-0.06914496;-0.057334326;-0.14013018;-0.05208987;0.3806137;0.06937949;0.058075074;0.2258649;0.067952566;-0.010480293;-0.44601232;-0.11715332;0.077334434;-0.049473792;0.007159526;-0.01574392;-0.12549852;0.11645967;0.12753525;-0.06641499;-0.024633218;0.2506745;-0.16602369;0.14457297;0.105327524;-0.18871467;-0.20658967;-0.03353772;0.09407498;0.026090726;-0.016206758;-0.08816162;0.3241617;-0.33978614;-0.01833778;-0.3715249;-0.18769933;0.018808383;-0.029654587;-0.39387852;-0.036258716;-0.12429883;0.053353973;0.2044009;-0.23722912;0.19496113;-0.030259699;-0.058761068;-0.12764093;0.01498535;0.027913881;-0.055334166;0.13485819;-0.44266188;0.07511224;-0.06805104;-0.0810397;0.05231993;0.066291355;-0.037471354;0.04774549;-0.15195261;-0.062384166;0.07864505;-0.030690664;-0.4340625;0.08535811;-0.054912418;0.048756424;0.012014269;-0.07028336;0.13169397;0.0065614786;-0.24920547;-0.20218663;0.019445801;-0.09751904;0.32277265;0.37370786;0.27243087;0.03913265;-0.047890157;0.3006954;0.28287533;-0.13083626;0.119898126;-0.06389296;0.42790702;0.050357915;-0.021063779;-0.06451261;0.0069024907;-0.37054577;-0.17576171;-0.022057295;-0.03813071;-0.042154714;0.3174195;-0.039704803;0.04146532;-0.16564861;0.02300763;0.18775298;0.08226214;-0.02974868;-0.061774258;-0.30204827;0.038929276;0.022384208;0.037607346;-0.09960293;0.011522852;0.09246773;-0.011191657;0.0028293405;-0.004070935;0.18338577;0.05676129;-0.0028467637;0.22466245;0.043440647;0.042186145;-0.027814364;-0.07216936;-0.10959416;-0.044825323;-0.028077222;0.038083248;0.04120094;0.14333236;0.06425161;-0.031615257;-0.141424;0.14672925;-0.059455574;0.07253058;-0.15360355;-0.059259303;0.18108965;0.03835893;0.014323069;-0.046480857;0.050862927;0.10402656;-0.27133712;-0.09506965;-0.17881581;0.2542429;-0.12205978;0.14008373;-0.055861924;-0.050063495;0.11075878;0.033157315;0.003582142;-0.11848807;0.2739285;-0.16123287;-0.05757851;0.032525208;-0.09853455;-0.03180573;0.27877086;-0.027522625;0.3512963;-0.0038366711;0.06821849;-0.019973483;0.16718554;0.07432382;0.051500104;0.06872674;0.05105352;-0.010330547;-0.047175184;0.31504643;0.2872649;-0.06756022;0.0033954643;-0.14849773;0.055706598;-0.045608446;0.256149;-0.05488287;0.0044702822;0.059595283;0.003672393;0.22313972;-0.053018533;0.11269585;-0.10786559;0.03827665;0.1067491;0.060958847;0.087947436;0.02631013;-0.22146687;-0.044058643;-0.31930298;-0.0019799066;-0.010920222;0.07666554;0.2276496;0.10386154;0.029670492;-0.104896255;0.043391652;-0.05035371;-0.008532045;0.022058299;0.13617834;0.2105502;-0.19482681;-0.021103078;-0.016400144;-0.1369305;0.16007122;0.05799057;-0.11317008;0.11459742;-0.08068281;-0.14596827;-0.0851713;-0.0780185;0.0847392;-0.0699712;-0.03003974;-0.059829447;0.10315455;-0.032569204;-0.3506478;-0.22887428;-0.002992198;-0.010229149;0.210378
-0.060903247;0.081263214;0.053048916;-0.043076213;0.056723006;-0.010420871;-0.21092932;-0.0504853;0.04961235;0.01362101;-0.19923836;0.34647506;0.05079611;-0.055465873;0.056939833;0.023044284;-0.05391935;-0.2549681;0.25600728;0.3074136;0.16479434;0.041528847;-0.090588555;-0.12503469;0.01652498;0.24417582;-0.0051572025;-0.24123842;0.20218645;-0.23884843;0.064917974;0.38635606;0.0025830723;-0.01637259;-0.00011437688;0.053163942;-0.028040787;0.06146471;0.01878471;0.10434312;0.09304679;0.02534787;-0.052087862;0.028068652;0.40343308;-0.14876892;-0.06269043;-0.0640346;-0.033363104;-0.04876832;0.020466805;-0.3295304;-0.115548186;0.07027694;-0.275903;-0.056532353;0.23014581;-0.1614153;-0.06351123;-0.025556445;0.011804302;-0.030756604;0.046498373;0.05921522;0.08483785;-0.0499075;-0.061373312;-0.029201997;-0.15163468;-0.054922927;0.15511684;0.045412425;0.0019183198;-0.34124425;0.27393395;-0.023352383;-0.2837683;0.20816599;0.045465216;-0.17876382;-0.050802574;0.14372519;0.055875044;0.13653253;0.1206558;-0.18522482;0.0205209;0.1348339;0.030269224;-0.0021324924;0.11075983;-0.062022794;-0.053890906;0.06928924;0.06304176;0.114525005;0.20661844;-0.03794272;-0.17329973;0.025100252;0.09896375;-0.017974505;-0.13544615;-0.20752266;0.2656514;0.16604176;0.038204685;-0.029568255;-0.1858631;-0.17133838;-0.011044009;0.023356259;-0.01849857;0.10511429;0.105215445;0.004463452;0.053436074;0.14874011;-0.028280364;-0.029315406;-0.015016974;0.14948379;-0.0947339;0.019797238;-0.10238497;-0.06919826;0.19539337;-0.037232988;-0.3906553;-0.34663716;0.17908825;-0.003824184;-0.0029478536;0.014159805;0.13476546;-0.001274078;0.22684182;-0.061356522;0.007442773;-0.147946;-0.024212003;0.35446116;-0.17342702;-0.28091758;-0.29391122;-0.07336444;-0.018150907;-0.047684252;-0.040262002;-0.12809896;0.02289729;0.078449816;-0.02750713;0.27776313;0.24633707;-0.0017281015;-0.06633857;-0.08856294;0.07275602;0.0905838;-0.029151302;-0.115715116;0.07010012;-0.008928947;0.04133623;0.091495454;0.009060933;0.17652634;0.058215685;0.35671347;0.09357107;-0.04600686;0.15122385;-0.21392678;0.04532788;0.013484961;-0.045376167;-0.053770043;-0.061827756;-0.019907922;0.049613554;-0.058869272;-0.10422629;0.1748392;-0.0026426308;0.16508672;-0.0048108175;0.15768161;-0.14059596;0.020916358;-0.13655192;-0.11530782;-0.03052392;0.03454345;-0.16890833;-0.18435587;-0.25573415;0.20049775;0.14876151;0.077932335;-0.29143685;-0.20655565;-0.07086347;0.19484742;0.062331203;0.17336603;-0.17417917;-0.045683436;0.14850837;-0.21103013;0.13075571;0.009732187;-0.23225379;-0.0038738374;-0.049671214;0.010379894;-0.14943391;0.04000194;-0.16190614;-0.13760695;-0.24260876;-0.09667883;-0.02013917;0.055749267;-0.35213453;0.05482176;0.13446066;-0.22076327;0.15864691;-0.025243966;0.31556037;-0.5194443;-0.0829795;-0.07018624;0.08005929;0.066387795;0.0641548;0.03073388;0.5287723;-0.31910184;0.19358903;0.13789953;0.14863439;-0.004398331;0.124471165;-0.028160753;0.079743885;0.15966484;0.004286424;0.05448488;0.084805906;0.041185044;0.016170662;0.05899451;-0.025312187;0.09274356;0.11663684;-0.0005473497;-0.033031464;-0.0071993303;0.24832901;0.1901428;0.06517706;-0.05993609;-0.060235664;0.05613189;0.3215158;0.14873706;-0.21893236;0.21360235;-0.09469771;0.17279017;-0.3824338;0.4029223;0.040051218;-0.049309585;-0.00730044;0.18931845;-0.00047916392;-0.03621405;0.0015247732;0.22155298;0.14107674;0.104826376;0.12577789;-0.15837356;-0.07347172;-0.043295216;-0.040588826;0.041221745;0.35459524;-0.11402115;-0.081539884;-0.13067546;-0.085851215;0.26863965;-0.080549605;0.078601666;-0.0030576536;0.011286221;0.2450364;0.061088867;0.041131414;-0.0863297;-0.17647475;0.06137447;-0.07881485;-0.0029579157;-0.16456738;-0.18206154;-0.08418666;0.020625254;-0.10154329;0.0084793735;-0.10247497;0.15445368;0.30940378;0.060516354;-0.09721346;0.020611942;0.031070936;-0.10424674;-0.22225654;0.08829688;0.01766711;-0.00954792;-0.14437836;0.039285228;0.004202853;-0.028624406;-0.04801388;-0.07620209;-0.046651784;0.0329738;0.40971;-0.021252483;0.2717796;0.14000814;0.35123733;0.009389348;-0.0077328524;-0.06400703;0.075951904;-0.07032676;-0.13434124;0.37158346;0.11953392;0.08651087;0.17925422;-0.050316636;0.06406054;-0.59518737;-0.07298655;0.07329562;0.016058108;0.049882587;0.012425197;-0.1054035;0.2528544;0.082044505;-0.08515783;-0.015695188;0.104811944;-0.07781241;0.18457255;-0.017335871;-0.16811459;-0.1333681;-0.031277478;0.054794215;0.055098444;0.008927688;-0.018795947;0.23460998;-0.3410784;0.005302153;-0.35428742;-0.055302095;0.016465297;0.050465308;-0.31655782;-0.00096466154;-0.13569097;-0.024131078;0.2647227;-0.1847222;0.22539821;-0.066001706;-0.02643146;-0.17048351;-0.061641388;0.024993375;-0.03807615;0.24438313;-0.37495068;0.10620468;0.08702328;0.042169917;0.057140045;-0.0454174;-0.17255916;0.024227036;-0.17122011;0.09762629;0.1416269;-0.001476421;-0.33618444;0.015213381;0.009442199;-0.013717525;-0.16481966;0.092932306;0.23752521;0.04290347;-0.25816163;-0.22645962;0.02572461;-0.20475207;0.31839842;0.32045257;0.24636707;-0.11427967;0.020499477;0.39958635;0.3582975;-0.1703209;0.12669688;-0.04176306;0.49041414;-0.042203568;-0.033740878;0.034493558;0.0039924076;-0.3555084;-0.2196164;0.07317935;-0.021796973;-0.117604926;0.31408596;-0.029922023;-0.015942961;-0.16783567;-0.040115368;0.09547017;0.16290526;0.04143302;0.061716136;-0.33321574;0.053111054;0.04099196;0.10794535;-0.11819866;0.0060908557;0.08654908;-0.017416852;-0.036628608;0.11497446;0.043592457;0.000867709;-0.15974283;0.20247161;-0.045356635;0.029228423;-0.037126165;-0.05655918;-0.11581978;-0.10489805;0.069212794;0.010993984;0.018820096;0.023462558;0.03365599;-0.05024302;-0.23971939;0.023312552;-0.066242;0.16576138;-0.2071755;0.039573833;0.0060126614;-0.054693524;-0.08561242;0.06686689;-0.05848258;0.1250818;-0.23215315;-0.041075535;-0.245647;0.05695527;-0.18446146;0.12869436;0.017493214;0.03496799;0.16021802;-0.018980077;0.001649348;0.00075214857;0.24883549;-0.17184654;-0.115711726;0.030095158;-0.20231031;0.12344515;0.19812535;-0.041102763;0.35839474;-0.03412816;-0.04307237;-0.049859155;0.08881741;0.22264047;0.085170485;0.045380764;-0.038677175;-0.005629937;-0.048968274;0.30448177;0.17609511;-0.113959104;-0.022589404;-0.17346674;0.04327809;0.06736675;0.1747206;0.03709912;0.05936977;0.061935063;-0.0019693316;0.11690691;0.0530718;0.17498602;-0.18807146;0.12135986;-0.021696016;0.035745997;-0.020612326;-0.011357519;-0.13782227;0.050932918;-0.28752264;-0.0037212132;0.019103033;-0.012481405;0.25531214;0.18582661;0.05125591;-0.07127826;-0.024206717;-0.012315295;-0.019449115;-0.037370943;0.16546205;0.28842026;-0.21580301;-0.03372504;-0.04547908;-0.043265548;0.10672002;0.092883885;-0.07984687;0.0372379;-0.122311026;-0.17711782;0.021429118;-0.029017312;0.06324287;0.10042852;0.014904899;-0.04904081;0.32422835;-0.16315138;-0.3192313;-0.18983255;0.05377342;0.019639581;0.12008431
0.033700455;0.09243207;-0.068760805;-0.025945198;-0.03237056;-0.061424714;-0.10122035;-0.049149938;0.015779467;-0.008259759;-0.17970066;0.27620292;0.056072157;0.06881013;-0.020467112;-0.010004924;-0.033290938;-0.17645447;0.29278395;0.20992775;0.19342032;0.13818698;0.044295624;-0.100964084;-0.027849548;0.1253268;-0.02442532;-0.35885522;0.17207931;-0.15435134;0.0005401184;0.35698605;-0.04379126;0.06689114;-0.03265026;-0.038911913;-0.015502157;-0.12727293;-0.04775361;0.18533874;-0.016761562;-0.019950423;-0.16417359;0.17481929;0.32156774;-0.15458463;5.2580435e-05;0.025013566;-0.0120512815;0.11342078;0.0055782855;-0.23198748;-0.11116253;0.12332131;-0.22622761;0.026856778;0.23787467;-0.23025662;0.016520575;-0.03112063;0.032393686;0.030632205;-0.08604049;0.042034913;0.13903728;-0.06737706;-0.07789401;0.07032466;-0.17829913;-0.057493813;0.14139484;-0.061420154;-0.12473661;-0.38297606;0.32077926;0.036361158;-0.31843525;0.30831578;-0.047410637;-0.019562572;-0.029743286;0.006855724;0.012672467;0.25545868;0.19920665;-0.11680149;0.020154372;0.055961296;0.04441374;0.02403006;0.14398065;-0.0019329616;-0.019402092;0.09984861;-0.036597814;0.0031219092;0.16471705;-0.00042043344;-0.16907547;0.060681187;0.16407518;-0.028799921;-0.14121254;-0.12230974;0.26536146;0.16944477;0.006972299;-0.09632133;-0.22615677;-0.28743657;0.08365048;0.07890675;0.04452731;0.07971775;0.11499193;-0.0056244796;-0.0523392;0.06799768;0.0604005;-0.005503482;-0.012490684;0.21240613;-0.25913313;-0.023788191;0.039500315;0.03771116;0.1720504;-0.1077685;-0.3388664;-0.3964635;0.15668258;0.1105387;-0.06870772;0.021563185;0.17986538;-0.072082825;0.1820461;-0.0073781805;-0.08629375;-0.12319528;0.059146203;0.2666135;-0.15727477;-0.3073848;-0.2975511;0.031649023;0.078921564;0.02864087;-0.11557232;-0.058336362;-0.0138018485;0.18693873;-0.021754172;0.24284978;0.26391405;0.008081686;-0.18132152;0.07761949;-0.058225498;0.107259765;0.111126676;-0.19622326;0.11163717;-0.008385355;0.06520124;0.13282853;0.040583532;0.19463971;0.044431206;0.28113717;0.15249838;-0.030199923;0.1503085;-0.21431626;0.07878961;0.044042595;-0.04925238;0.008804834;-0.117088504;-0.074248835;-0.027535446;0.08147644;-0.18916993;0.08166501;-0.008913824;0.095254056;0.027206173;0.059135575;-0.10234135;-0.025608676;-0.078298494;-0.23059154;-0.10010568;-0.047240652;-0.020807143;-0.24339697;-0.19146776;0.20652966;0.11845176;0.08745498;-0.20247976;-0.2490854;-0.05088999;0.31004253;0.026991801;0.25796765;-0.16233616;-0.1292512;0.034627475;-0.09433977;0.0407799;-0.10679336;-0.24712324;0.015006121;-0.057144787;0.05747677;-0.10520159;-0.052515067;-0.27849635;-0.11420484;-0.33167896;-0.09440834;-0.02181607;-0.05271758;-0.26781127;0.06442823;0.04988809;-0.1969222;0.18729015;-0.029817589;0.27655676;-0.5916104;-0.11913287;0.02144461;0.06435141;0.08536877;0.012389126;-0.03604835;0.51631504;-0.2264658;0.024403917;0.014528474;0.064447366;-0.05508201;0.21792364;-0.07939843;0.041995898;0.17111148;-0.01251253;0.025523787;0.055158373;0.044065665;0.057248604;-0.005406168;-0.052836567;-0.048937134;0.0331027;-0.015894856;0.0014066064;-0.023149328;0.1151435;0.21224397;-0.050312787;-0.035969336;-0.0064645065;0.059652098;0.35557634;0.22400394;-0.19150673;0.1127764;-0.108257115;0.17270482;-0.30670285;0.3418056;-0.017709568;-0.031529292;0.050715532;0.14662382;0.0015280283;-0.023375403;-0.054598145;0.28246382;0.2383629;0.022046544;0.0699563;-0.20070922;-0.021689355;-0.11759108;0.020088365;-0.0026831632;0.3271061;-0.1070896;-0.10598226;-0.018396022;0.01877541;0.24298546;0.0026500414;0.18031177;0.016069144;0.045904696;0.20543888;0.046814375;-0.026997244;-0.08723774;-0.033951264;0.086358756;-0.008515832;0.013134503;-0.17134508;-0.1323152;0.02058373;0.015287855;-0.0476111;0.013178134;-0.14646327;0.07545352;0.29654372;0.099694476;-0.070991255;0.021067858;0.08416886;-0.11540657;-0.27313927;-0.056797322;0.017397001;-0.04350591;-0.2350878;0.015400867;-0.095597535;-0.016186614;0.070391774;-0.05026484;0.05814795;-0.052678112;0.40492305;0.037825122;0.19636491;0.0173377;0.3294146;-0.18904516;0.0027808833;-0.019337954;-0.057388518;-0.021580465;-0.047675487;0.24428822;-0.094898425;0.040307302;0.12168941;-0.07242431;-0.04515122;-0.5893939;-0.10817292;-0.04659892;0.029573618;0.14507951;0.016635932;-0.056567743;0.13327624;0.10691115;-0.031028628;-0.014501441;0.12096166;-0.12028156;0.076481886;0.04185905;-0.17731981;-0.14849842;0.105168715;0.19674085;0.07085227;-0.0032167458;-0.041466936;0.13754834;-0.2244632;0.022810739;-0.35413647;-0.19824165;-0.09154455;0.0020873658;-0.37450534;-0.11510364;-0.13789608;-0.073157005;0.18271926;-0.17828329;0.18017943;-0.09050583;-0.0848129;-0.22194655;-0.13528216;0.05740917;-0.044487428;0.17963256;-0.3086638;-0.0338963;-0.009366541;-0.012507312;-0.033420723;-0.02697889;-0.1381433;-0.091022246;-0.041302517;0.042935148;0.21170983;-0.05742833;-0.34602085;0.04185979;-0.03263352;-0.07063019;-0.11418777;0.0128264455;0.15782131;0.021570902;-0.27954957;-0.19282553;-0.059192207;-0.21228941;0.29552996;0.2828433;0.26913068;-0.023105703;-0.04513236;0.2915014;0.3467923;-0.17420755;0.11272589;-0.028097454;0.47876477;0.094993025;0.0075181224;0.049553715;-0.08023001;-0.38717186;-0.26340848;-0.00025417874;0.021518912;0.0355762;0.31637737;-0.074404635;0.052573495;-0.28745198;0.013159896;0.017892264;0.20692226;-0.03176647;0.023563508;-0.42573133;-0.07610503;0.03816022;0.07523616;-0.1434036;0.043817382;0.08132502;0.004056258;0.054924995;0.06888688;0.052371465;0.0040833354;-0.21211468;0.09049032;-0.022691624;-0.0604877;0.014201549;-0.011178963;-0.03191163;-0.020620747;0.046872776;0.12702037;0.10855056;0.054266665;-0.08331663;-0.014215788;-0.13708352;0.04957574;-0.018575018;0.087624446;-0.26510167;-0.05096607;0.08104804;-0.01197416;-0.015110032;0.078920044;0.018543268;0.10096678;-0.22239418;-0.07093909;-0.13711743;0.034644373;-0.11407051;0.19356702;0.18718582;0.029176082;0.14493544;0.05944878;0.0694145;-0.122668244;0.22611639;-0.16748647;-0.0309227;0.026653225;-0.12195948;0.13445428;0.058525644;-0.0068553444;0.31296942;0.006388322;0.032262754;0.060186177;0.22182006;0.24135228;-0.0670945;0.013693199;0.027849533;0.011885486;-0.022223214;0.19841789;0.22218373;-0.09993818;-0.021689633;-0.15554294;-0.031065304;0.019208716;0.21434154;0.032805935;-0.04046109;0.09115124;0.010036611;0.072521575;0.06621662;0.05080492;-0.19234635;0.12717627;-0.109019116;0.027308743;-0.045356765;0.008129372;-0.19154426;-0.0652709;-0.1532147;0.051231574;0.018837156;0.046815403;0.18024178;0.15054585;0.0566013;0.057802413;0.0612459;0.038680896;0.049937166;0.07122388;0.3713345;0.1986973;-0.2231078;0.08049722;-0.07954813;-0.1655617;0.11793598;-0.04125456;-0.07652636;0.19776319;-0.039631277;-0.07100018;-0.07303119;0.07050148;-0.0664568;-0.032274857;0.02946912;-0.06831488;0.18229924;-0.12991403;-0.24914578;-0.37932914;0.06333395;0.017350014;0.20130342
-0.018234381;0.07868811;0.06686256;0.029704321;0.0313746;0.040135644;-0.047577593;-0.03102197;0.040239394;-0.05545694;-0.18607737;0.33095828;0.013752701;-0.0012142123;-0.0350934;0.075924166;0.047074404;-0.18078764;0.30816624;0.30824012;0.05059732;0.17299825;-0.039340388;-0.1492315;-0.007675452;0.10647655;0.069309495;-0.45475712;0.23332302;-0.36695096;0.08122108;0.31807733;-0.012479274;-0.027152503;-0.03421242;0.038416516;-0.005023425;-0.0807768;-0.028786961;0.14002433;-0.052889574;0.013411547;-0.17388523;0.052492198;0.40579417;-0.069994375;-0.06882793;-0.037486006;-0.0118039185;0.09914185;-0.07188094;-0.065806575;-0.12415185;0.039968673;-0.2646878;0.02141703;0.098089315;-0.24158548;-0.1314068;0.011152872;0.0141703095;-0.008120403;-0.007893802;-0.043675933;0.051137734;-0.10748922;0.04113915;-0.051574152;-0.015527629;0.03072779;0.05239508;0.034951873;-0.11169992;-0.27941772;0.304687;0.045164272;-0.36326548;0.26764938;-0.07099557;-0.27722704;0.03736771;-0.01732762;0.04534843;0.19157103;0.2777799;0.006734172;-0.06209874;0.12469994;-0.06641433;0.022247512;0.09249792;-0.05667537;-0.11691595;0.053441238;-0.010098251;-0.057650823;0.14063805;0.030260121;-0.13803533;0.08601971;0.14028314;0.0030098092;-0.31019682;-0.2147596;0.28221396;0.24220295;-0.0075857737;0.017072633;-0.195026;-0.29659593;0.045359243;-0.019733544;0.0014599012;-0.0064940634;0.029502522;0.008900344;-0.046743616;0.07137877;0.023747025;0.018597549;0.012444117;0.29364407;-0.17179292;-0.035354663;-0.07081651;0.04653119;-0.010945588;-0.17948245;-0.32747254;-0.27033937;0.21845724;0.018189479;-0.0023945007;-0.03688044;0.23260297;0.020285869;0.22818027;-0.004922139;-0.06780512;-0.09703713;-0.013099305;0.087097965;-0.27785295;-0.35812005;-0.23806426;0.06270727;-0.03766176;0.021235794;-0.031603385;-0.27561706;0.0013668694;0.16016383;-0.058392245;0.15764713;0.17048053;-0.010957952;-0.26447427;-0.10722488;-0.04613779;0.24522437;0.121618;-0.19430436;0.081486225;0.07064407;0.01692038;0.10150231;-0.022191405;0.19998619;0.092359856;0.391839;0.2269835;0.058064293;0.1961082;-0.1421565;0.122171916;0.103374586;0.043582022;0.0772935;-0.12569694;0.036206942;-0.045633886;-0.023757974;-0.17833893;0.09424026;-0.08186745;0.06006519;-0.056568988;0.0048603155;-0.1175083;0.06818661;-0.098787755;-0.13212122;-0.14192128;-0.07816245;0.051925544;-0.22906984;-0.13265406;0.15059637;0.04633016;0.03431871;-0.14335406;-0.25314677;-0.072871864;0.3016556;0.051445186;0.15536812;-0.27478492;-0.17778488;0.03287683;-0.16738513;-0.006333798;-0.020696143;-0.29837957;-0.047908995;-0.06320868;-0.072424814;0.020306995;-0.10219085;-0.123922154;-0.23485963;-0.3157746;-0.2602943;0.13929361;-0.060585726;-0.253466;0.11067153;0.11194327;-0.24723203;0.35346335;-0.04478596;0.18953754;-0.49774066;-0.1844156;-0.015952375;0.17007822;0.067173116;0.052304924;-0.07734239;0.5395274;-0.2432413;0.05191508;-0.047842257;0.1393061;0.056596935;0.05159318;-0.070490025;0.1231686;0.06301648;-0.050303217;0.081815444;0.20290104;-0.00070492126;0.027881993;-0.015911305;0.024643749;-0.06217967;0.011933734;0.058101594;-0.10793194;0.029289272;0.06758746;0.099292845;-0.05514384;0.07630718;0.031259246;0.04269812;0.43906283;0.27513415;-0.15382046;0.2071978;-0.09685931;0.07144976;-0.3679687;0.349744;-0.060483176;0.03552002;-0.09919751;0.1466693;0.02514134;-0.03126339;0.04549854;0.26086652;0.0578548;0.04028165;0.03688062;-0.09683088;0.0014135404;-0.081448294;-0.028877027;-0.109143585;0.19143169;-0.011874166;-0.23632815;-0.15752955;-0.18348397;0.18794805;-0.007910395;0.06424894;0.057416443;0.00889979;0.2257418;0.11551025;0.016810317;-0.1075086;-0.06976382;0.22663036;0.05651894;0.025858462;-0.11429085;-0.121652104;0.1243663;-0.0076419567;0.035375044;-0.025829943;-0.14022134;0.12362116;0.25844526;0.14797342;0.047494292;-0.06925416;-0.018366406;-0.15210198;-0.067342065;-0.0025007874;0.030262075;-0.09185065;-0.17791413;-0.055605758;-0.025937416;0.00343185;0.008395184;0.033957254;-0.03477864;0.027448656;0.38167828;-0.058651682;0.2939011;0.0076778024;0.23440671;-0.12413019;0.052487377;-0.1099302;-0.031847518;-0.03327134;-0.12728599;0.16172504;0.11131907;-0.07516052;0.15347014;-0.019481052;0.061597437;-0.47150877;0.008086644;-0.11080248;0.024880704;0.14225727;-0.07848256;0.012549444;0.21807747;0.03795011;0.040151846;0.07395851;0.028047519;-0.17967694;0.044696733;-0.016850505;-0.20467162;-0.26330227;0.11159157;0.11008322;-0.0057829753;-0.026302777;5.570759e-06;0.10761452;-0.20616134;0.028656518;-0.30546397;-0.21913444;-0.100590676;0.09078639;-0.22079623;-0.022310475;-0.096290246;-0.103598535;0.28452381;-0.17175749;0.13049665;-0.03675828;0.02344488;-0.23856701;-0.21560997;-0.036593985;0.042677023;0.22318356;-0.28181952;0.030512666;-0.045398273;0.05259776;-0.068484955;-0.06586318;-0.18254107;-0.07926418;-0.08159266;-0.038836114;0.1928022;-0.049258895;-0.3765717;0.11480274;-0.05492025;-0.059958022;-0.11335306;0.1008054;0.25575578;-0.03000712;-0.31933358;-0.25890434;-0.08453591;-0.1485191;0.29101065;0.34812486;0.32864425;-0.009798067;0.030027406;0.33502683;0.33937767;-0.12888649;0.13411346;-0.054017894;0.34782618;0.12973766;0.021001957;0.101593666;-0.009665972;-0.3478997;-0.14624056;0.048788138;-0.0188063;-0.055365473;0.22588173;0.046736695;0.05703473;-0.22043233;0.13041277;0.07402089;0.22723956;0.038865395;0.048070665;-0.53887933;-0.021196248;-0.08029726;-0.02344093;-0.0923754;0.035290193;0.15581574;0.0018929375;0.0586836;0.099515066;-0.061867476;-0.005817093;-0.23802447;0.045137346;0.03493617;-0.042293876;-0.026373403;0.080794595;0.044748817;-0.106134385;0.009180579;0.14878947;0.015351727;0.07838625;-0.13725086;0.006438883;-0.16779281;0.098369785;0.12364026;0.14238605;-0.22911103;-0.05320371;0.088474415;-0.012409699;-0.0070741647;0.069616705;0.05182334;0.2293983;-0.056760136;-0.0796501;-0.17176011;0.13220055;-0.17276345;0.35686147;0.19021082;0.01935914;0.28700486;-0.05576316;0.030890882;-0.034944016;0.21064222;-0.29676616;-0.027112003;-0.10800077;-0.3513368;0.19321467;0.19765651;0.036841832;0.36460447;-0.07040199;-0.057883758;-0.012300269;0.2208589;0.20486991;-0.058584705;-0.012641365;-0.0680937;-0.052508626;0.015780052;0.33641973;0.083255254;-0.020471655;-0.02040018;-0.17052625;-0.008525629;0.16845939;0.15228926;0.04855798;-0.053457554;0.11934739;0.031496223;-0.027243888;0.029178936;0.0651085;-0.06462323;0.03262277;-0.11537766;-0.09239055;-0.03603233;0.0672273;-0.09249032;-0.0447852;-0.16152732;-0.0090067955;0.036421157;0.032538936;0.1669065;0.13187964;-0.07114772;0.0893504;0.026331564;0.055491857;-0.0028164934;-0.013128289;0.33159035;0.38139197;-0.27337846;-0.06115637;0.0020542257;-0.04453349;0.07676226;0.08823097;-0.097928435;0.13314898;-0.004609177;-0.10958121;0.027234403;0.14925376;-0.088109784;-0.0064610722;0.0359067;0.08196116;0.1982125;-0.27328524;-0.22414847;-0.31306738;0.010265166;-0.10534639;0.13285728
-0.061898515;-0.056714356;-0.06487996;0.05399914;0.018924862;0.024211762;-0.058103573;-0.023695972;0.084359616;-0.049532678;0.0023732581;0.24333793;-0.06223154;-0.06634954;0.04246811;-0.0013287971;0.002147607;-0.093923405;0.39028803;0.2052737;0.22100261;0.18789735;0.042236418;-0.28252017;0.049403846;0.027523238;0.05678056;-0.4348671;0.04703135;-0.35982105;0.13638851;0.2953156;-0.068510085;-0.003982183;-0.0127756605;-0.009807894;0.07067445;-0.22923811;0.061379936;0.1937697;-0.032203242;-0.012600195;-0.19431531;0.10396958;0.48203528;-0.12927642;0.07556627;-0.010585064;-0.002911829;0.15743211;-0.004981243;-0.18512088;-0.14192285;0.018902956;-0.36553007;-0.00821108;0.1277265;-0.043010812;-0.029075228;-0.022078086;-0.05228736;-0.100818776;0.054629456;-0.036196407;-0.01875791;0.010779192;0.036801856;-0.0255475;-0.18569176;0.008460948;0.19772092;0.036159765;0.0010861076;-0.2520799;0.22384508;0.0096773;-0.39083567;0.38334855;-0.04775261;-0.20511508;0.0799763;0.112560846;0.002155083;0.19248463;0.2807922;0.063159466;-0.00066786376;0.09827472;0.051012844;-0.048664913;0.15423392;0.08318996;-0.036978524;0.052169546;0.071420155;-0.0518544;0.19143985;-0.101034656;-0.1512423;-0.07208331;0.1360979;0.04287973;-0.101832725;-0.16357678;0.2500382;0.17113441;-0.017691152;0.08210696;-0.1815966;-0.22312616;0.009255332;-0.026288038;-0.079612486;-0.012116951;0.031820644;0.056447037;0.08223546;0.039580017;0.08461277;0.05293329;-0.19548585;0.13042724;-0.16986085;-0.0018770628;-0.15766557;0.089222886;0.029494304;-0.08777436;-0.41977477;-0.28712887;0.10551298;-0.0033727102;0.014734357;-0.04936957;0.3011509;-0.00017692737;0.16467778;0.029427893;-0.16655594;0.0027406747;0.042531755;0.071728274;-0.25335205;-0.29326528;-0.17941783;-0.033669785;0.15295927;-0.07556258;0.083772786;-0.14488678;0.009312036;0.31263885;-0.070515044;0.18511444;0.15037319;-0.09309603;-0.26775637;0.054076847;0.039208718;0.23796524;0.019311467;-0.10521655;-0.042150106;-0.04696656;0.051277563;0.10094156;0.026286442;0.12041559;0.1082729;0.26394662;0.3161301;0.032284163;0.10792988;-0.18936142;0.14639269;0.16090648;0.05843384;-0.00096007064;0.013977515;0.03539053;-0.017055737;0.03328586;-0.19439061;0.032956284;-0.015421549;0.14165343;-0.032530643;0.063146405;-0.27246252;-0.050062913;-0.02617861;-0.15242855;-0.1952993;-0.037101198;-0.121163465;-0.18101951;-0.29269767;0.23444669;0.18344018;0.12501839;-0.16027136;-0.20687242;0.016872112;0.37936664;0.019458557;0.2618815;-0.15994923;-0.15327904;0.10592605;-0.23647018;-0.124548264;0.023678716;-0.15623511;0.012595334;0.06494497;-0.021059781;-0.05487519;-0.06638589;-0.38483155;-0.2709433;-0.19779338;-0.17783876;0.080704965;0.0641882;-0.22878276;0.113195516;0.08059597;-0.18065049;0.38026237;0.044588495;0.26189333;-0.5604283;-0.21379936;0.08379746;0.057849955;0.042063214;0.05507946;0.02280052;0.47174942;-0.3324893;-0.033518128;0.03285533;0.052571684;-0.06378602;0.123637185;-0.21405746;0.21943401;0.22736962;-0.04731078;0.08837076;0.12756698;0.03859272;-0.12791948;0.00014607672;0.063516855;-0.009055273;0.157671;-0.026314033;-0.03412255;0.05455139;0.064449705;0.02448776;-0.011843059;0.05958429;0.01973371;0.063493125;0.38542408;0.2218357;-0.2038295;0.17442603;-0.070465885;0.08886618;-0.14102273;0.30552918;-0.04197816;0.0224242;-0.098854855;0.30547586;0.071832806;-0.041711334;0.017007183;0.25815138;0.016534328;-0.0526346;0.0135237705;-0.19343297;0.069966055;0.0438221;-0.010126294;-0.1112033;0.1921765;-0.093966864;-0.28887352;-0.06397528;-0.04486717;0.16899659;-0.105021015;0.20741737;-0.00046090965;0.07155781;0.15716958;0.0017075855;-0.0013087909;-0.09953143;0.105644494;0.21403016;0.025687959;-0.005893794;0.06738095;-0.09461807;0.13167194;-0.04162917;0.02637345;0.0061843386;-0.21575871;0.04864617;0.22358632;0.19669998;0.0075428537;0.02970808;0.055386353;-0.100720465;-0.14431146;-0.044899;-0.06294007;-0.03936705;-0.09753449;-0.0043183435;0.014285181;-0.039464194;-0.00915723;-0.0379415;-0.013075097;0.07185834;0.32791758;0.04387711;0.32561067;0.049938533;0.30880812;-0.21475162;-0.00023663054;-0.098228216;0.059650876;-0.02420927;-0.0064348117;0.2526546;0.03678869;-0.021212656;0.12807377;0.06743296;-0.023836039;-0.5346108;-0.11678254;-0.026119573;-0.053554803;0.29331195;-0.061308555;0.09431824;0.15000272;0.08201716;-0.051406004;0.006086652;-0.051372904;-0.21086876;0.07470735;0.026465338;-0.14321333;-0.24489775;0.1684663;0.1432877;-0.044551853;-0.03459238;0.051112935;0.15323971;-0.2599928;0.016474964;-0.3336796;-0.18106003;-0.12113664;0.009846456;-0.31139848;-0.04430621;0.03440337;-0.081552476;0.3415203;-0.21618569;0.073794045;0.10256952;0.008348455;-0.18631819;-0.12470767;-0.06829984;-0.006375651;0.05514341;-0.36243767;0.18027273;0.05052273;0.0360026;-0.011742291;0.052461844;-0.21806598;-0.030624414;-0.19396244;-0.0029743342;0.17425627;0.010167692;-0.42874357;0.074948765;0.06543311;0.07305874;-0.0387463;0.051023036;0.17680465;-0.09152827;-0.23045088;-0.18354118;-0.2126288;-0.18825148;0.16440493;0.26200223;0.38327447;0.09657461;-0.02357973;0.29632992;0.40004918;-0.07601453;0.16505407;-0.19164725;0.34012806;0.022833165;-0.0026046701;-0.06273573;0.0209091;-0.5328795;-0.03285504;-0.021105178;0.0074309567;0.028862491;0.18747944;0.0011204912;-0.07154799;-0.2185975;0.049424853;0.014056225;0.34667414;0.0002685683;0.04072443;-0.47317776;0.035907667;0.05757875;-0.041469377;-0.12687601;-0.02993983;0.044321682;-0.023027066;-0.017265169;0.041741647;-0.03731528;-0.0041577807;-0.29762048;0.15220965;-0.03494384;-0.022250345;-0.011773097;0.08354907;-0.091369316;-0.042347837;0.031298757;0.13081707;0.006024914;0.08968242;-0.2102448;0.08043369;-0.18075846;0.10369307;0.011666091;0.16189738;-0.26813924;0.05572406;0.041265044;0.03894137;0.07476686;0.01455506;0.070409045;0.20105344;-0.04317568;-0.06523263;-0.24273574;0.10714922;-0.08725531;0.241322;0.19161136;0.008652921;0.3351821;0.011626765;-0.021785706;-0.19351134;0.31045613;-0.26453528;-0.17282623;0.03356299;-0.2882316;0.07739777;0.02577133;0.054274447;0.38448492;0.0058800303;-0.06486403;-0.029955732;0.26856866;0.21563107;0.012693359;-0.034542672;0.05658013;0.06604992;-0.0272109;0.2597705;0.02119237;-0.07314496;0.009595084;-0.00053613965;0.009886361;0.12710999;0.14643969;0.022621628;-0.0403491;-0.024128063;0.102441534;-0.02925047;-0.058098014;-0.025666084;-0.12570022;0.0038862734;-0.051486515;0.030809456;0.00513923;0.017035438;-0.10867909;-0.16128384;-0.094135724;0.09608769;-0.035046354;0.0059460877;0.21573687;0.20682737;0.027185062;-0.013836852;0.06575352;0.024521375;0.016451553;0.072687104;0.31140754;0.36752072;-0.23759805;-0.007869307;-0.10067711;-0.0469656;0.089749075;0.047583252;-0.103935644;0.14783238;-0.06404143;-0.116011634;0.010050937;0.06461702;-0.11078179;0.07978647;0.0060234694;0.05079956;0.19700034;-0.14364195;-0.08061182;-0.31157306;0.07704877;0.059145976;0.17320596
-0.009555238;-0.03560226;0.024373218;0.08224092;-0.06524182;0.02201438;-0.10382629;0.042230207;0.040607885;-0.014056239;-0.16923839;0.13286549;-0.07509891;0.08287082;0.087840445;-0.040756088;-0.010881462;-0.14399353;0.34103328;0.33862492;0.18950014;0.19629717;-0.008783727;-0.09914809;-0.025275525;0.1735832;-0.052239154;-0.41181332;0.0763408;-0.30313674;0.036825992;0.23194252;-0.03299387;-0.06635006;0.06590044;0.0031918047;0.06870448;-0.16892613;-0.017149853;0.16594627;-0.011061124;0.069452524;-0.21258329;-0.0083354255;0.46201354;-0.12686786;0.015354323;-0.0721212;-0.05166191;0.12523146;0.033889618;-0.01631245;-0.1183547;0.04399666;-0.16143413;0.032955445;0.1362361;-0.16448854;0.059206486;0.02479422;0.037219126;-0.08292892;-0.021898095;0.047507297;-0.05017031;0.0012384003;0.0012297599;0.018663319;-0.17569833;0.0067410264;0.011707533;-0.00097341824;-0.06681098;-0.32362148;0.18148506;0.0007937778;-0.44865528;0.22785036;0.07475374;-0.089824006;-0.037565865;0.033570074;-0.04556896;0.2105779;0.30415303;-0.050939783;-0.07964632;0.15830387;0.052621275;0.030029507;0.14410804;-0.030393085;0.092437126;-0.033673517;-0.0128845405;-0.08747595;0.12556754;-0.054900877;-0.0752127;0.074151985;0.06656667;-0.060943615;-0.018046811;-0.22026487;0.14584887;0.14119847;-0.06897657;0.20685548;-0.29350284;-0.30252597;0.042883687;-0.022043005;0.05602588;0.16608457;0.00817774;0.004129108;0.056799907;0.031221854;0.11661227;0.08360375;-0.2095283;0.16791217;-0.1573889;0.07432843;-0.19954348;0.011201956;-0.021095727;-0.044026714;-0.45941892;-0.22948727;0.1340783;-0.013399886;0.06817207;0.04828376;0.21668944;0.07599714;0.24157996;-0.07841705;-0.08204847;0.0027506184;0.0053998185;0.20283242;-0.14955764;-0.3452493;-0.14297575;0.019607492;0.11040235;0.08504709;0.12372649;-0.1891899;0.052533675;0.13962378;-0.14215083;0.30782506;0.23408817;0.022011958;-0.201205;0.05414444;-0.039528627;0.2037911;-0.118478626;-0.0505788;-0.066219404;-0.0071575115;-0.09322417;0.0889113;0.018006204;0.03539989;0.15271176;0.42074588;0.29480976;0.05726093;0.04465842;-0.08936511;0.22525026;0.07652815;0.03227459;0.122014746;-0.036189586;0.0059517464;0.062376436;-0.03998617;-0.1411742;0.104907066;0.059265822;0.11316952;0.038827054;0.061825857;-0.26265574;0.041277636;0.0015461671;-0.22125633;-0.16838695;0.031439442;-0.050140478;-0.17858933;-0.1694655;0.28591594;0.1397256;0.06180212;-0.24901849;-0.23668042;-0.103566535;0.32570007;0.03850949;0.14673798;-0.34755093;-0.08825716;0.14145489;-0.17019822;-0.18211174;-0.1369685;-0.25705934;0.05582793;0.07285431;0.02813279;-0.08729629;-0.0033283706;-0.31774583;-0.2356526;-0.26071793;-0.18266894;0.103797;-0.033006188;-0.19448347;-0.031562693;0.048372425;-0.088872485;0.25454876;0.038592204;0.1226101;-0.41264486;-0.124500215;0.058020294;0.08057321;0.074991934;0.14321277;0.049158838;0.55788773;-0.18960305;-0.059920512;-0.027121663;0.053748347;0.049307086;-0.0047998624;-0.13060729;0.20895518;0.14556721;-0.07003179;0.010031708;0.20693596;-0.050240725;-0.12224241;-0.06525552;0.040391926;-0.043581914;0.06601339;-0.02392839;0.009346243;0.01701621;0.075241506;0.096898876;0.09007298;-0.07812138;-0.052366853;-0.042444464;0.322668;0.32170266;-0.15331581;0.27677086;-0.12270132;-0.007955785;-0.17536584;0.21015176;-0.038344234;-0.041024446;-0.17699462;0.26397353;-0.03171388;0.09448738;-0.058097806;0.2582185;0.04693587;-0.10033003;0.16956267;-0.1364617;-0.030543204;-0.027016673;-0.023914944;-0.15074053;0.2548878;-0.09662672;-0.3469901;-0.046160474;-0.14494935;0.12717953;-0.028369972;0.15947886;-0.053333186;-0.010563134;0.19703494;0.09260114;-0.060583487;-0.10979914;0.13818242;0.30135727;-0.054349817;-0.055516604;-0.03519968;-0.047609925;0.062972896;-0.03321744;0.15530884;0.06491104;-0.14953354;0.111284286;0.17321403;0.24069242;0.048874527;0.0021616023;0.04436746;-0.20721214;-0.20542662;0.06825619;0.07619913;-0.13835496;-0.047541;0.05553331;-0.088403694;0.03338776;-0.04089473;0.018130034;0.07325536;0.017223738;0.22169587;-0.0598354;0.24791561;-0.047027953;0.2849383;-0.07643686;0.08205407;-0.039475996;0.01714552;-0.05044272;0.0250951;0.16838214;0.24199854;0.0033743395;0.057671424;0.0028290784;-0.08441073;-0.37302944;-0.06708621;-0.111897245;-0.041624036;0.2374634;-0.14998412;0.052394006;0.3628994;0.12566492;-0.00837443;-0.038624514;-0.056053914;-0.061574362;0.13202803;-0.05810937;-0.14309186;-0.23966384;0.21134979;0.13238503;-0.03445487;-0.03694842;0.03013175;0.057409596;-0.22682306;-0.0016063973;-0.3040369;-0.17926987;-0.013491694;0.0117898295;-0.1855518;0.019585637;-0.055909354;-0.03594381;0.2678871;-0.16722569;0.17175384;0.06463847;-0.10664243;-0.22988735;-0.25457874;-0.031804223;0.0045027626;0.14261785;-0.32913825;0.06128802;-0.053265914;0.0081149805;-0.047772314;0.028783644;-0.12403307;-0.11295664;-0.21392728;0.04753938;0.09778916;0.025476728;-0.36353496;0.14525133;0.006356103;0.034432884;-0.14572828;0.033210345;0.06963297;0.029245272;-0.22448906;-0.16799605;-0.2170769;-0.14760832;0.25799608;0.2240548;0.30286717;0.111656554;0.01072554;0.44955572;0.36665118;-0.003945628;0.15339012;-0.027944598;0.12105584;-0.008419115;-0.048739642;0.036577754;0.010291565;-0.53894687;-0.018027404;0.0346165;-0.054776058;-0.025448408;0.30072442;0.063490175;-0.019016715;-0.1270323;0.0013248705;-0.052749485;0.23413599;-0.020152938;0.0017255621;-0.41706082;-0.003831793;0.018975925;-0.046871956;-0.061056416;0.05162212;0.0357153;-0.048249684;0.032590654;0.20696765;-0.110074125;-0.050527003;-0.28427702;0.092077844;-0.019317193;-0.2205262;0.010923763;-0.051631875;0.003368088;-0.051431753;-0.025162257;0.06688443;0.09415833;0.11730229;-0.17711867;0.0073892702;-0.18368717;0.06816677;-0.02000583;0.30256557;-0.23605089;0.031883575;-0.06534458;-0.037388742;0.021962864;-0.039298885;-0.07042633;0.23777027;-0.012885007;0.014283614;-0.15976198;0.17988719;-0.041847575;0.3048358;0.23035894;-0.04161987;0.24854083;0.07721966;-0.026636325;-0.21898338;0.17442283;-0.1911573;-0.09404915;-0.0021822138;-0.31531578;0.20490064;0.17370088;0.05283254;0.256584;0.03132903;0.07150262;-0.024292922;0.18931492;0.23550127;-0.058499582;-0.093227506;-0.05263432;0.09808617;0.075939946;0.34669346;-0.010703065;0.08470289;-0.027991142;-0.057999294;0.060028274;0.16800791;0.23909833;0.003306631;0.007179816;-0.045075964;-0.06322396;0.06782469;-0.08952687;0.0059479247;-0.08127071;0.027248321;-0.30002382;-0.0347883;-0.044224907;-0.06546927;-0.07121783;-0.18157871;-0.14308295;0.08784976;0.062413417;-0.024452286;0.1687397;0.13702552;0.07270187;0.046321142;-0.057317603;-0.01923883;0.020667328;0.028084677;0.22688839;0.27567565;-0.20665362;-0.06590217;-0.06737729;-0.022907896;0.13739297;-0.06265724;-0.017384142;0.088916674;-0.09166317;0.016788866;-0.019912465;0.16226044;-0.016494198;0.09789605;-0.054848198;-0.04202241;0.22967084;-0.18900035;0.03235084;-0.18019354;-0.0818431;0.036254365;0.18499145
-0.040566776;-0.065102234;0.07697503;0.099744074;0.04884169;-0.022994747;-0.13230178;0.07280332;0.094449006;0.002101184;-0.031238336;0.08615716;0.06009427;-0.03464165;0.08211509;-0.023243679;-0.017604709;-0.19457537;0.2735886;0.25940174;0.2215419;0.034053564;0.037111428;-0.17438123;0.024256686;0.17890856;0.012706032;-0.436387;0.0992111;-0.35327432;-0.00889273;0.18438022;-0.069927596;0.035498053;0.011208054;-0.003986415;-0.050695684;-0.15484959;-0.06753139;0.06124758;-0.05767909;-0.058681976;-0.15767148;0.0034753869;0.23781796;-0.105429344;-0.0028735336;0.069647096;0.05279302;0.23393647;0.03535929;-0.045816973;-0.03281572;-0.107755855;-0.19678357;0.051867247;0.14209086;-0.05893693;-0.05435691;0.018676361;-0.089916855;-0.03019989;0.00912068;0.0030665696;-0.0794844;-0.027401745;-0.013799161;0.06657015;-0.05525614;-0.043482237;0.20106047;-0.014270297;0.07468139;-0.2008822;0.18941769;-0.0774015;-0.3475568;0.22930084;0.046602778;-0.10140152;-0.06510913;0.1635533;-0.027191468;0.19199622;0.30834907;0.008912458;0.016845783;0.14313444;-0.014348056;0.00701852;0.20207961;-0.027355336;-0.023409085;0.08792879;0.010649813;-0.09865389;0.13200673;0.04482587;-0.18349355;0.04035113;0.17019814;0.008261994;0.014921602;-0.17624296;0.23022102;0.29661462;0.005036168;0.11910221;-0.20598608;-0.24152476;-0.024431067;-0.07456116;-0.0030285865;0.15930063;-0.02353715;-0.056162655;-0.053936675;-0.088031076;0.06693838;0.09325747;-0.21794787;0.23609038;-0.049823474;0.08289571;-0.21291113;0.1919477;-0.10571021;-0.101154976;-0.31949264;-0.07757935;0.04505333;0.036919445;0.03687085;0.013164109;0.20656084;-0.013826353;0.18347937;-0.051573608;0.0016008777;-0.01278911;-0.0127903065;0.20977567;-0.16791227;-0.27503604;-0.14769429;-0.00095487427;0.037646018;0.01840364;0.083640926;-0.10821447;0.056733236;0.16269615;-0.030226106;0.21884684;0.14253189;-0.09458928;-0.26894602;0.010038366;0.04026602;0.13023701;-0.14489855;-0.15340216;-0.021897955;-0.013075462;-0.0607771;-0.05931155;0.0019179531;0.115695566;0.13672279;0.3873032;0.32663107;-0.017979773;0.078803346;-0.0631372;0.29309627;0.102454014;0.021180809;-0.075174384;0.060379554;-0.029768746;-0.019838719;-0.031053102;-0.003908153;0.05289872;0.08606395;0.08589803;-0.05146126;0.09885873;-0.35368833;0.034088824;-0.106790036;-0.09300079;-0.18276483;0.072066635;-0.013945313;-0.14232615;-0.21061689;0.23517938;0.07606351;0.022409856;-0.22711661;-0.14773926;-0.025526877;0.39564317;-0.034901522;0.16418403;-0.27041352;-0.25169465;0.16008914;-0.1966867;-0.065351486;-0.042245917;-0.112904824;0.0043991366;-0.016057635;-0.0005523341;-0.1927858;-0.0069540823;-0.29242498;-0.18993098;-0.17571108;-0.21041483;0.01742461;0.0006846779;-0.21026519;0.067036666;-0.061174534;-0.07267755;0.39256957;0.058208004;0.17805314;-0.38674983;-0.11101659;0.050698508;0.107100695;-0.015696464;0.16655777;0.04730758;0.49237242;-0.27420694;-0.039322525;0.025519565;0.0934379;0.01675171;0.10828026;-0.08353035;0.11229944;0.062918365;0.054172203;0.07710423;0.025181355;-0.050932534;-0.060708832;0.035572886;-0.053408265;-0.02308551;0.051483195;0.12141402;0.010819117;-0.093671344;0.19444567;0.0911705;0.018657109;-0.04404218;0.07272078;0.009502675;0.2664727;0.25383198;-0.20720631;0.19794533;-0.0096551385;-0.10119707;0.02473848;0.25170332;0.06187244;0.07072059;-0.12777168;0.1655725;0.014246446;-0.014651735;-0.01614694;0.1823207;0.023059903;-0.036220986;0.05688666;-0.09516516;-0.024946619;-0.019502342;0.009070275;-0.11481294;0.2731963;-0.04270519;-0.28489196;-0.1273872;-0.11937765;0.03114822;-0.08667863;0.25108427;0.01749467;-0.019669233;0.11775402;0.08581549;0.023984164;-0.1612247;0.12457068;0.2676409;-0.030985247;-0.020375228;-0.029014537;-0.11234096;0.15847014;0.056696407;0.032043114;-0.0015441915;-0.22713785;0.012216419;0.22823623;0.24087235;-0.014083516;-0.02415838;0.01236921;-0.16875842;-0.082211494;-0.017381221;-0.062333316;-0.15366988;-0.13353518;0.03415993;-0.02193402;0.021866987;-0.06809172;0.028120337;0.014031037;-0.04733695;0.2587431;-0.039400317;0.2736428;-0.08301457;0.17801043;-0.091084555;-0.04366741;-0.01653466;0.06356368;-0.12370066;0.025120113;0.18659341;0.106714725;-0.0016459635;0.20002742;0.014258743;0.06535632;-0.34695405;-0.13670617;-0.20731664;0.03996442;0.33302292;-0.2668647;0.037885353;0.405964;0.044831365;0.025827235;-0.020526228;-0.12995264;-0.19173194;0.14559108;0.09194252;-0.004368042;-0.14577429;0.16306038;0.081666306;-0.023045255;-0.0055695395;-0.047120977;0.030592782;-0.23156045;-0.023327995;-0.27101743;-0.19078012;-0.060513146;-0.10913258;-0.29382026;0.12200686;-0.01816759;-0.043317627;0.22878715;-0.21193574;0.081174366;-0.019052466;-0.064587414;-0.18436891;-0.1288781;0.004425579;0.005854966;0.15789604;-0.26561517;0.06629513;0.013988325;-0.008244259;0.04181877;-0.016167419;-0.08908042;-0.09190222;-0.2340851;-0.06410074;0.019349618;0.04906385;-0.39522845;0.17136848;0.050306786;0.009146545;-0.11264485;0.02214743;0.14976496;0.014641504;-0.2519455;-0.08486623;-0.26511332;-0.18235992;0.16273609;0.27832118;0.2664984;0.08395029;0.042613164;0.39419913;0.359622;0.07474501;0.108251765;-0.029934194;0.121986255;0.09185809;-0.054561693;0.104961164;-0.07491021;-0.60559773;0.019511733;0.052835196;0.03663668;0.04591298;0.3034538;-0.018103134;0.08692931;-0.0357146;0.056106344;-0.01784494;0.25900176;0.011767782;0.036612853;-0.36282706;0.018746374;0.015698137;-0.028801067;-0.018232048;-0.05548912;-0.001207075;0.020138144;0.012469489;0.16096288;-0.14104731;-0.06917756;-0.34636274;0.060309447;-0.005144926;-0.18984464;0.0212524;0.05194589;-0.04599172;-0.00092001416;-0.048478868;0.10109894;0.025267383;0.16649222;-0.1807596;0.06875442;-0.031708762;0.15728886;-0.06436958;0.30003303;-0.1579523;-0.032204986;-0.1394287;-0.020977;0.023080178;0.06724673;-0.035717707;0.23258898;-0.104723565;-0.020719953;-0.09277192;0.194908;-0.13564247;0.24184392;0.15106195;-0.033330634;0.2998335;-0.05694516;-0.07331791;-0.27132398;0.21406998;-0.12328824;-0.11701746;0.05095168;-0.35877305;0.2159413;0.04359489;-0.0812755;0.35217652;0.015048983;0.027599046;0.046468206;0.22251016;0.20634195;0.025804665;0.056175277;-0.02703193;-0.042325605;-0.06571693;0.2998352;0.04724157;-0.027051987;0.057382617;-0.16010968;-0.08052755;0.09702627;0.31315738;-0.06927803;-0.009604391;-0.061331343;-0.047895696;-0.03327592;-0.046012964;-0.18520626;-0.059904758;0.084676445;-0.19157971;-0.09132656;-0.018836554;0.012817371;-0.072584845;-0.25781476;-0.107996896;0.056364987;-0.07066036;-0.04987885;0.1447309;0.102365166;0.18757541;-0.029917989;-0.02026858;-0.031698912;-0.020467943;-0.060751427;0.251877;0.3501221;-0.12650822;0.03410351;0.034278814;-0.0023411103;0.1801263;0.068064965;-0.12131251;0.23868655;-0.034474853;0.06116718;-0.006026921;0.10035421;-0.07372949;0.07068826;0.04288975;0.034695376;0.27506965;-0.16065693;0.060493235;-0.11629357;0.004658761;0.013150582;0.24841094
0.010438146;-0.08462419;-0.05023843;0.17165084;0.06959392;0.028347272;-0.061147302;-0.018993624;-0.062735125;0.05964988;-0.11194413;0.033418074;-0.070754685;0.00357344;0.04171804;0.033667635;0.083941646;-0.16534543;0.16281135;0.40795794;0.20441766;0.07681299;-0.09852666;-0.23256074;-0.0011299895;0.08009954;0.02871407;-0.27836758;0.2040267;-0.33069187;-0.047760367;0.2423777;-0.09385988;-0.0013565104;-0.026602974;0.032959297;-0.079967275;-0.22224642;-0.041296367;-0.009179685;-0.038459852;0.00043492072;-0.254342;-0.058120843;0.40923214;-0.25976777;0.055331793;0.03562164;0.036443293;0.16983038;0.050603963;-0.08410191;-0.03009961;-0.064982936;-0.1464333;-0.063633725;0.12318967;-0.038572762;0.06742944;-0.052941218;0.05673249;0.009425229;0.027858777;0.04411622;-0.10750595;-0.13226187;0.0394933;-0.02871989;-0.14486781;-0.00720539;0.17707597;0.021707531;0.11980569;-0.16537096;0.085930794;0.01243684;-0.43227684;0.33079338;-0.02168487;-0.1840506;-0.023591572;0.14200859;0.06560471;0.13381797;0.27507007;0.05906923;0.044190194;0.18868075;0.01935268;-0.0119218165;0.14306083;-0.074843906;-0.0702317;0.019718574;0.026440687;-0.11052336;0.13386516;0.06004012;-0.20716068;0.08988067;0.15610814;0.02249008;0.031757604;-0.027392268;0.28968272;0.15938115;0.0010899426;0.22953759;-0.10178182;-0.17921385;-0.02297851;-0.18026575;-0.053605627;0.10599949;0.05878769;-0.0021544828;0.008765255;-0.1148745;0.016603539;0.13083285;-0.11182587;0.24041262;-0.13568425;-0.051312197;-0.123103864;0.16423656;-0.041814685;-0.07154806;-0.20886074;-0.026774356;-0.05289535;0.031202354;0.07725765;0.062796965;0.1151569;-0.046363357;0.18404637;0.0561576;-0.11492118;0.0649382;0.0035910145;0.25697193;-0.23807453;-0.20422506;-0.17500801;0.056852926;0.05579207;-0.025671236;0.05422328;-0.12374569;-0.05678373;0.10198684;-0.07489233;0.21266198;0.23235741;-0.08066791;-0.28372368;-0.037020225;-0.00048666974;0.08627308;-0.06082218;-0.064429544;-0.05018686;0.08340169;-0.0014854075;-0.002768706;0.04461073;0.05787263;0.11693067;0.41389543;0.30775836;-0.07582675;0.15130042;-0.16598389;0.2687976;0.17707573;-0.020608122;-0.0941629;0.035237003;0.061666574;-0.03524458;0.027817456;-0.119413465;0.005354801;-0.047814038;0.16015857;0.06672421;0.056558892;-0.2795571;-0.029831136;-0.03411845;-0.11603423;-0.14557208;0.028043423;-0.01494921;-0.13991502;-0.19759364;0.18152577;0.01884762;-0.014176846;-0.102824934;-0.08547238;-0.05077257;0.3118779;0.101911984;0.20144337;-0.22240257;-0.2616504;0.17782633;-0.1363944;-0.08701447;-0.186226;-0.14678486;0.053436074;0.016264966;-0.0702154;-0.13043033;0.08994973;-0.2533285;-0.24217436;-0.21799655;-0.2291726;0.09932874;0.012535863;-0.1348068;0.013210575;-0.0043968726;-0.15246437;0.34471118;-0.036815464;0.2189518;-0.34449977;-0.1529538;0.02687796;0.023949705;-0.07024078;0.11372165;0.036863312;0.4853584;-0.17931096;0.099572316;-0.08879702;-0.078353435;0.047259;-0.032408807;-0.04654373;0.11802316;-0.08189091;0.05917759;0.037059654;0.16474923;-0.0040503563;-0.13561252;-0.05692068;-0.045013335;-0.06627986;0.11469009;-0.0121741975;-0.023546547;0.045511015;0.108139694;0.14324182;-0.06547276;0.063972786;-0.014314434;-0.0011176183;0.29827732;0.22799627;-0.04702881;0.30383036;0.116120726;-0.07693871;0.08258663;0.33556125;0.043266207;0.037567243;-0.15190522;0.26677915;0.033148117;0.010699122;-0.019706605;0.2007692;0.07454119;-0.025781253;0.11012527;-0.11339326;-0.061427236;0.022628812;0.03666566;-0.0977283;0.16986966;-0.035482854;-0.38589084;0.0027651098;-0.12886865;-0.008281612;-0.027089339;0.21668404;-0.027373392;-0.039744712;0.1563739;0.03080201;0.01986202;-0.16913189;0.0669042;0.32651305;-0.046456933;0.068748906;0.04075185;-0.0025426622;0.17056009;0.010126058;0.14535445;0.041638955;-0.2163458;-0.053793043;0.23434035;0.16840833;0.044117853;0.04969261;0.009293628;-0.06338529;-0.08277668;0.05340765;-0.021049958;-0.14197682;-0.019526465;-0.060308937;-0.07247817;-0.06341747;-0.07694747;0.055027895;-0.05564056;0.0017617907;0.20139912;0.068482965;0.23348476;-0.03399397;0.23504783;-0.13738553;-0.044848274;0.020191;0.028886085;0.057715937;0.07704241;0.2540064;0.19166291;-0.05826655;0.16727246;0.030010017;0.06288666;-0.34998092;-0.1180733;-0.2749416;-0.026266444;0.26732928;-0.19695958;0.0885642;0.40839615;0.004660107;-0.03374953;0.03688702;-0.05735113;-0.081897356;0.11710898;0.040450547;0.03817823;-0.16536626;0.13129784;0.0700701;-0.03669588;0.075793535;0.07003371;0.073849514;-0.26292714;0.030378496;-0.3973256;-0.1764744;-0.006110068;-0.05318831;-0.21752009;0.022656137;0.015030261;0.049010668;0.11858649;-0.20999296;0.07056651;-0.031578198;-0.012938252;-0.25360683;-0.2678488;-0.046870485;0.021528715;-0.006100939;-0.22171612;0.17817956;-0.05025742;-0.06334212;-0.038782407;0.056812175;-0.15218782;-0.12302444;-0.3151598;0.07192753;0.15080999;0.017248137;-0.39874423;0.2136552;0.004837152;-0.07579594;-0.12183797;0.1211152;0.1811417;0.014001295;-0.19250421;-0.22453368;-0.17757602;-0.23806015;0.30138662;0.15340018;0.30626917;0.17763668;0.03306642;0.39970198;0.2559848;0.07706521;0.06708163;-0.04970595;0.1348712;-0.07116875;0.06148292;0.00627943;-0.0078750625;-0.61090696;-0.012884275;-0.051469635;0.012715386;-0.018076198;0.23882438;-0.04015903;-0.029750152;-0.061093286;0.1603762;0.059832018;0.36406305;-0.012353754;0.06582036;-0.40885472;0.03892494;-0.08711532;-0.10249864;-0.0317324;-0.0063026045;0.014086316;-0.019309966;-0.029189909;0.28075108;-0.036843732;-0.046874367;-0.47554472;0.044765044;-0.035024025;-0.16711296;-0.017537735;-0.075033866;0.027891211;-0.06362716;0.024120161;-0.015984254;0.068323925;0.106371194;-0.26718378;-0.042116597;-0.15666893;0.008067388;0.054243527;0.24407521;-0.2284235;0.015157355;-0.24183226;-0.047509026;0.058282282;-0.04824912;0.07261143;0.026630772;-0.029384041;0.04814993;-0.15165935;0.029018426;-0.038768288;0.25546852;0.23605718;0.09524846;0.195017;-0.07348501;-0.030142453;-0.18690646;0.017821506;-0.12674621;-0.1712547;0.014339927;-0.3476279;0.2239653;0.108425625;0.033317782;0.4099444;0.030897126;-0.084244624;-0.021227408;0.22218236;0.15566802;-0.11653263;0.011122513;0.056745503;0.020688824;0.07830654;0.26243326;-0.040094003;0.06481283;-0.04056589;-0.1570314;0.01648365;0.13389273;0.13820444;-0.023892963;-0.023851331;-0.14490893;-0.10236363;-0.044459913;-0.046276312;-0.13854903;-0.10255295;0.15676941;-0.2957383;0.016152479;0.030094963;-0.053810317;-0.044640843;-0.28293008;-0.070729606;0.08560694;-0.022924827;0.07036926;0.2415129;0.17032488;0.2412217;-0.092302024;0.020531492;-0.015656127;0.06375636;-0.05560929;0.31919006;0.32228324;-0.16557367;0.013444327;-0.07930207;-0.013312772;0.21347427;0.099975765;-0.07753581;0.12386772;-0.09378796;0.004096727;0.046234693;0.10306998;-0.05346233;0.13327907;-0.00601966;0.032286957;0.29755422;-0.22855484;0.110870324;0.07594238;-0.02090908;-0.011300328;0.2243427
-0.01039998;-0.16569562;-0.042664487;0.14299671;-0.04545576;0.041761223;-0.112481095;0.019557627;-0.10213806;-0.0012445821;-0.13466285;0.082357615;-0.0043722703;-0.095082745;0.12193623;0.0275273;-0.060859893;-0.123825684;0.20154116;0.38338086;0.18225548;0.08124336;0.036444314;-0.093491554;-0.057492293;0.21785483;-0.05249028;-0.2595438;-0.01690066;-0.21205543;0.09050052;0.285057;-0.06919783;-0.047973193;-0.04263193;-0.054282732;-0.004407474;-0.12817623;-0.06336678;0.10177475;-0.13790043;0.034579482;-0.2527704;-0.12552968;0.32195935;-0.10873213;-0.072853655;0.07024639;-0.022407578;0.1575673;-0.03869103;-0.025202243;-0.12839696;-0.19394773;-0.2290727;-0.026542982;0.13000335;0.004591526;0.07802998;0.048091277;-0.0028589305;-0.1572527;-0.04610892;-0.054211695;-0.0056173904;-0.20193304;-0.014577708;0.079177216;-0.14819627;0.015004868;0.08302173;-0.07032241;0.0843892;-0.085801914;0.0684976;-0.035790127;-0.4293326;0.31707108;-0.028692536;-0.08770605;0.06309459;0.24646002;-0.0021657585;0.06793209;0.37827995;-0.018060328;-0.026660278;0.07579894;-0.054743662;-0.035827916;0.15822104;0.05868838;0.07881272;0.14001554;0.035410266;-0.1628011;0.072880805;0.031611864;-0.040912423;0.016364617;0.12131603;0.12317273;0.1900953;-0.048825655;0.17437637;0.22666006;0.07723321;0.2966606;0.0050860518;-0.18581948;-0.010966006;-0.25641975;-0.07075434;0.15856151;0.13822564;0.0038975982;0.029690763;-0.16217242;-0.08689839;0.24098377;-0.07960561;0.13381878;-0.12715745;0.0384649;-0.11905914;0.14600413;-0.030006967;-0.17182483;-0.1954542;-0.13364445;-0.099682644;-0.05804369;0.17155884;-0.069870114;0.062315468;-0.024250424;0.078561366;0.014688119;-0.025926642;0.122739755;-0.04956458;0.11527111;-0.24819528;-0.094727;-0.06117843;-0.01531347;0.11235604;-0.03141292;0.048369315;-0.03722241;0.06115518;0.10462178;-0.18103376;0.27916515;0.22595058;-0.033571437;-0.35630745;0.0068822717;0.043572858;0.029233633;-0.086605996;-0.07606408;0.0064591076;-0.010866996;0.0012677213;-0.14298972;0.021822039;0.10709294;0.13760544;0.41102478;0.29690674;0.049149495;0.1463454;-0.123679556;0.30567703;0.17393734;-0.03733068;-0.11222555;0.11861592;0.021899128;0.048996575;-0.0057711666;-0.054171756;0.17043614;-0.052170515;0.13150999;-0.06813903;0.14309675;-0.36380818;-0.04876322;0.0077435295;-0.007878708;-0.12212979;-0.021270834;0.023349961;-0.19813994;-0.22791417;0.21249142;0.041410383;0.0062508285;-0.019204086;-0.044925813;0.0007205815;0.28788903;0.08552783;0.14782982;-0.2613064;-0.2648251;0.088470474;-0.14841558;-0.0389822;-0.08754645;-0.026788402;-0.06608818;0.0010271035;0.045575563;-0.13802332;0.057514835;-0.2899601;-0.2993822;-0.17163447;-0.14684463;0.062529095;-0.0014915662;-0.138269;0.029559333;-0.13057588;-0.01829191;0.39103922;-0.053323697;0.25742283;-0.25117737;-0.12056099;0.0105876485;0.017686179;-0.026176274;0.15326433;-0.04552367;0.34124994;-0.220872;-0.029364852;-0.070289806;-2.9458362e-05;-0.077271916;0.048487242;-0.097986765;0.08259582;-0.13221253;0.050508242;-0.03468608;0.109042235;-0.011565294;-0.05711967;-0.044284455;0.010177498;0.024369681;0.113390446;0.09886082;-0.019477217;0.053504936;0.12138518;0.11966071;-0.040725537;-0.053088494;0.04439337;0.010650037;0.33323875;0.28152743;-0.22319719;0.21377844;0.12035788;-0.17851411;0.07507093;0.23426472;0.015849875;0.023929995;-0.16670759;0.25194046;0.0026232009;-0.04350191;-0.047856934;0.24180913;0.010150563;-0.1116014;0.07764936;-0.10815556;0.040482957;0.00087358296;0.03529097;-0.019528897;0.19081162;-0.1014579;-0.3684933;-0.03420032;-0.059142042;0.07241172;0.03184337;0.3480312;-0.022509702;0.039489985;0.08698593;-0.056650292;-0.01350739;-0.07629533;0.13412262;0.30608422;0.054128066;0.052846074;0.038355086;0.06447931;0.081181616;-0.036063503;0.032720186;-0.011311642;-0.27764747;-0.03524742;0.26666015;0.06281281;-0.0941233;-0.035026543;-0.05449715;-0.07217659;-0.14602143;-0.0015186728;-0.0040158937;-0.008531368;0.0015252813;-0.034339815;-0.08490322;0.054745406;0.07805365;0.0293386;-0.004490364;0.018748445;0.18718192;0.0038677566;0.26651704;-0.027188968;0.26164427;-0.10147987;-0.034954652;-0.09452991;-0.089918226;0.05047047;-0.008193661;0.31406277;0.17576112;0.010582064;0.057013843;-0.006445038;-0.03178364;-0.2991831;-0.14871328;-0.1348252;0.07429854;0.16970257;-0.24726778;0.051767867;0.35683444;0.026496312;-0.048971746;0.048879936;-0.016443858;-0.12875304;0.10949736;0.03923663;0.032571837;-0.0013929656;0.11621972;0.10740715;-0.01884139;0.03931983;0.072672226;0.08170972;-0.20759983;-0.05602659;-0.26021504;-0.18293428;-0.12312609;0.03536291;-0.18030372;0.12622657;0.11739224;0.03528769;0.14610441;-0.17218824;0.107852586;0.0322797;-0.04389112;-0.25022578;-0.08567757;0.08294995;0.0014408948;-0.036554873;-0.1640775;0.15194717;0.018679954;0.039564185;0.04018679;-0.011366225;-0.18301082;-0.09316265;-0.24636772;-0.01840423;0.13332199;0.016481007;-0.30554536;0.25999206;0.036419645;0.07109506;-0.21800645;0.0072499635;0.21134149;-0.016811507;-0.06471701;-0.06342677;-0.21035849;-0.21016529;0.26589096;0.13574523;0.17467098;0.12813574;-0.08012328;0.3730537;0.35626027;0.18596995;0.13374643;-0.11483899;0.21087898;0.047633477;0.066361226;0.07692861;0.20682319;-0.7181435;-0.03641657;0.020419242;-0.009452001;0.06379677;0.12535858;-0.02459402;-0.05049435;-0.046325188;0.023191916;0.082413;0.34355527;0.019384157;-0.0025505212;-0.2826157;-0.0048665972;-0.03428003;-0.09379309;-0.012809945;-0.07819887;0.032878835;0.030712228;-0.08013819;0.31314746;-0.049035016;-0.06401573;-0.30388296;0.10908471;0.0656329;-0.22818013;0.012600418;-0.0730791;0.01519145;-0.038088817;-0.06538856;0.095602594;-0.030394424;0.10006865;-0.22527842;-0.034662668;-0.10162115;0.04123973;-0.09167306;0.19216293;-0.2982046;0.032463726;-0.105330154;-0.042715363;0.072276205;-0.009665319;-0.052867737;0.046509597;-0.088193;0.04121763;-0.08279027;0.14106032;-0.119275026;0.24967271;0.19799428;-0.050600633;0.22923002;-0.007879222;0.01714525;-0.26061258;0.08609106;0.03152273;-0.11656448;-0.015629508;-0.39944136;0.2772203;0.021874754;-0.073822476;0.37810078;0.033465795;0.027649192;0.098011814;0.17601092;0.110443965;0.044973377;0.05559689;-0.018070411;0.0929135;0.062237147;0.13243252;-0.008777109;0.08547537;0.0063402136;-0.14051011;0.024180155;0.20724182;0.1798615;-0.0057618706;0.07116283;-0.08621768;-0.10698991;-0.017574254;0.05500724;-0.28955916;-0.1538286;0.14718796;-0.24857005;0.045787863;0.036223378;-0.01637408;-0.120316006;-0.43317118;-0.031333294;0.059860144;0.00424491;0.09116239;0.16778973;0.18225038;0.20982245;-0.07423505;-0.015618259;-0.026415598;0.0116272345;-0.04595337;0.3461934;0.19278702;-0.14780162;0.064069144;-0.10353046;0.06734376;0.24952875;0.0008938569;0.03110428;0.15709399;0.11407179;0.11789459;0.069217026;-0.0067767953;-0.088030525;0.03381618;-0.059806067;-0.024335707;0.17386992;-0.21058512;0.08120516;0.093846776;-0.092573665;0.019476105;0.14102493
-0.021108055;-0.15176585;0.067737326;0.16061315;-0.0631721;0.1447626;-0.060714718;-0.04941831;-0.13406357;0.05230046;-0.049238466;0.0775133;0.0043195477;0.061212458;0.15066122;0.023093078;-0.014566592;-0.11959523;0.3217713;0.30454507;0.16945899;-0.019556092;0.062088214;-0.1605515;0.01510143;0.22113065;-0.053039487;-0.20835233;0.026737984;-0.1709359;0.078735806;0.284464;-0.14385065;0.07091006;-0.018739095;-0.0734901;-0.05789994;-0.23637721;-0.0100488765;0.121952504;-0.085726;0.06559355;-0.14534357;-0.13085812;0.26637214;-0.019685287;0.00042416118;-0.035654362;0.03340802;0.13098451;0.020403538;0.029784685;-0.058865972;-0.20938477;-0.07108977;0.07623658;0.18893905;0.08039507;0.0706447;-0.043189436;-0.055575088;-0.02845656;-0.021325834;-0.08838498;-0.091837816;-0.178783;-0.027392192;0.02326781;-0.15888686;0.037245847;0.11204328;0.033726703;0.1100503;-0.15539783;0.01657479;0.06320243;-0.32697877;0.41474664;0.013324139;-0.032153584;-0.06162932;0.067730084;0.031474162;0.016925734;0.4018962;0.078518026;0.056610055;0.16686438;0.019981995;0.015187199;0.17072022;-0.009270767;0.12778372;0.16881914;-0.09677967;-0.03219291;0.01924263;0.06982389;0.009766491;0.10449745;0.27669933;0.20925938;0.15178668;-0.03401045;0.2785454;0.32835424;-0.06462718;0.21362674;-0.016531209;-0.24769413;0.13279624;-0.32394537;0.07232921;0.04199544;-0.040382322;-0.0135277165;-0.020525128;-0.14370924;-0.21678622;0.10214045;-0.21129552;0.15808393;-0.04423942;-0.028083393;-0.16004097;0.22108352;-0.07241967;-0.19781287;-0.23674048;0.11222366;-0.18103291;-0.14643517;0.12031166;0.05315711;0.100659624;-0.01608046;0.09042086;-0.037171572;-0.044461597;0.09966089;0.071247436;0.19532272;-0.11000988;-0.102907345;-0.03604166;-0.054927178;-0.026416995;0.013770775;-0.089520685;-0.13105696;-0.062139697;0.056349885;-0.054516535;0.22942667;0.09515134;-0.061227128;-0.3038137;-0.059034143;-0.09267529;0.14382283;-0.12477482;-0.020944607;0.076819636;-0.04813725;0.060499176;-0.06939456;0.049143177;0.09701999;0.09920754;0.41166338;0.26829964;0.02154523;0.15634757;-0.115518205;0.39302337;0.103229426;-0.05181572;-0.08364094;0.16183288;-0.034539863;-0.03180223;0.020632755;-0.1469857;0.21623707;-0.010822093;0.07931911;0.08607864;0.059435688;-0.45172366;-0.052298553;0.043695714;-0.08301362;-0.20120025;-0.028213361;0.1440911;-0.1919628;-0.044951078;0.19517227;0.040397327;0.073508725;-0.03591342;-0.042460807;-0.17307235;0.20268264;-0.08127486;0.2133022;-0.16056748;-0.28022036;0.105594784;0.0062813126;-0.07462726;-0.06420424;0.04445153;-0.06027285;0.06847101;0.047632888;-0.1922775;0.078268945;-0.3962834;-0.27341917;-0.19488823;-0.083172515;0.05372266;-0.01464311;-0.05486186;-0.06985811;-0.13218053;-0.034339476;0.35793847;-0.041821163;0.19673876;-0.19140413;-0.10414719;0.051201127;-0.033145443;-0.06257131;0.23523691;-0.044063218;0.29290375;-0.06441233;0.025932107;0.092934415;-0.082283385;-0.058322545;-0.048269156;-0.028239278;0.07590965;-0.041016914;0.051079113;-0.022218917;0.09397835;-0.03808568;-0.13379174;0.0063437293;0.061732266;0.045339692;0.102278434;0.092324525;0.01995006;-0.015591863;0.15664479;0.11286224;0.052555177;0.030199613;-0.056143414;-0.098709;0.35030526;0.27639142;-0.23247543;0.30071256;0.06804936;-0.068180844;0.066054665;0.320322;-0.00584223;-0.012937725;-0.14995144;0.090202965;-0.049549963;0.020214044;-0.008556464;0.2616237;0.05749672;-0.14827676;0.095093615;-0.19707967;0.04208026;-0.02028433;-0.056846432;-0.015604241;0.17839003;-0.08381833;-0.3132911;-0.091335274;-0.12260507;-0.0014033746;0.055900626;0.2436979;0.04602724;-0.05869993;0.21646339;-0.036418006;-0.080597945;-0.07069888;0.20023362;0.3795666;0.004032189;0.003852842;-0.11960912;-0.03423631;0.07938886;0.00863431;-0.056965385;-0.052551784;-0.3361207;0.033798944;0.20104448;0.064423114;-0.12724856;0.0031329626;-0.0009010754;-0.0916661;-0.08231188;-0.0440961;-0.007781966;-0.015720142;0.07160891;0.028167052;-0.06428735;0.07001683;0.03402273;0.018770933;-0.04253305;-0.032600094;0.09587775;-0.031243086;0.25272802;-0.05159389;0.1656527;-0.26758704;-0.043107286;0.019160427;-0.08527557;0.026338292;-0.025517458;0.2854993;0.1177863;-0.016585993;0.16571414;0.012438762;-0.0366499;-0.2664575;-0.13915563;-0.15407175;0.016849918;0.23964986;-0.23140892;-0.016218282;0.46733302;0.061598066;0.0084551005;-0.062302604;0.027388725;-0.1897439;0.055943657;0.08607977;-0.08543218;0.043749094;0.25063354;0.063603684;-0.035176802;0.06260927;-0.08062849;0.14628391;-0.25745317;-0.014064925;-0.2632241;-0.10216969;-0.15032825;0.05499914;-0.15201987;0.025449326;-0.013327519;-0.064077094;0.2104208;-0.18640892;0.009658476;-0.01827167;-0.0611502;-0.13955796;-0.08753621;-0.016350126;-0.015463286;0.10746697;-0.26616192;0.108922794;0.06861172;0.044535067;0.035584994;0.055735324;-0.07954188;-0.10235412;-0.20176859;-0.059254263;0.1875698;-0.025831407;-0.41595745;0.27106673;0.07971791;-0.0565758;-0.0758325;-0.08212156;0.19907773;-0.04713984;-0.06967096;0.0980091;-0.19718435;-0.24047142;0.1045748;0.26944923;0.22485477;0.12391828;0.017328426;0.38092715;0.22099933;0.23242545;-0.028338809;-0.11251103;0.1702597;-0.026942087;-0.0031530345;0.027927587;0.11573089;-0.65755653;0.13315392;-0.089229055;0.07351916;0.056152824;0.110808626;-0.010407197;-0.05146099;-0.07274738;0.1781267;0.11006771;0.42690015;-0.00052674115;-0.07465366;-0.2661709;-0.051624283;0.026489956;-0.25574365;0.10228701;0.06287307;-0.07887194;0.05031192;0.033859305;0.37326398;0.02914774;0.025163611;-0.35530284;-0.015515164;0.06307372;-0.19211699;-0.056026634;-0.054870855;-0.042598233;-0.004839956;-0.018438634;0.04926579;-0.0746173;-0.029820766;-0.3408805;-0.014514746;-0.16331406;0.11632529;-0.024831457;0.18926038;-0.23944716;-0.066595756;-0.03890439;0.09198503;-0.040256307;-0.0018013198;-0.01484124;0.045313157;-0.049317263;0.061879463;-0.071013965;0.23199958;-0.20019744;0.285287;0.20493115;-0.011932286;0.27578264;-0.062199447;0.0076608127;-0.18260352;0.040665504;-0.099672854;-0.1583177;-0.04374776;-0.4102696;0.23376842;0.09417396;-0.08470294;0.3463375;-0.023140976;0.0054783635;0.013704507;0.0029838677;0.084469266;-0.051202163;-0.041651584;0.04386611;0.041707404;0.043755043;0.089487895;0.104528464;0.043957196;0.0680071;-0.2146185;-0.05716899;0.12423535;0.16794237;0.06175136;0.0068398356;-0.07318158;-0.105427;-0.082336426;0.052669138;-0.32244596;-0.079391584;0.16977064;-0.18230982;0.00764713;0.019434324;0.04603403;-0.04090124;-0.44637117;-0.017454991;-0.076137334;0.025671195;0.12152054;0.16069283;0.07446347;0.23291816;-0.1976833;0.016307661;-0.046289153;0.016919252;0.049545407;0.3811962;0.21963224;-0.26518202;0.025858348;-0.12105972;0.009696205;0.27530086;0.1028877;0.06870617;0.114830576;-0.008191612;0.08836918;0.0030610696;0.04608026;0.06698692;0.14943554;-0.015871856;0.02147001;0.0587492;-0.105470754;0.15190369;0.079743065;-0.1274896;-0.009200395;0.16196689
0.11157053;-0.18777122;0.0057716197;0.19824483;-0.083666794;0.09181775;-0.07243642;-0.020971084;-0.2114153;-0.021427153;-0.12898003;0.017750904;0.022998817;0.034724843;0.1607704;-0.057877183;-0.0028468065;-0.05274776;0.29947266;0.27354023;0.084085666;0.11233914;-0.042102713;-0.23577952;-0.07077895;0.19681242;-0.061553888;-0.25715375;0.01804891;-0.19263747;0.04497874;0.303585;-0.16915654;-0.0028753518;0.063124284;-0.012653615;0.07154045;-0.1472923;-0.042049978;0.131941;-0.09576216;0.017868085;-0.16069154;-0.05610399;0.19739668;-0.08197199;-0.024815237;0.020149209;-0.02476513;0.1298169;0.018798197;-0.025078153;-0.11745169;-0.094092384;0.044380277;-0.0544251;0.10930965;0.20259166;-0.023518747;-0.0034612315;0.046739977;0.004921262;0.03625969;0.052134335;-0.022921039;-0.11290955;0.066169485;-0.027336122;-0.031728923;0.05192525;-0.05707894;0.010707894;0.011935475;-0.070085116;0.0318217;-0.008376347;-0.3650416;0.34327465;0.081129715;0.04185441;0.0486423;0.0960538;0.025891047;0.0877237;0.33083692;0.070739344;-0.033331554;0.20573151;-0.038559172;0.0058357785;0.13345377;0.047090966;0.073425695;0.22705317;-0.028570648;0.056617998;-0.028182182;-0.056475226;-0.0091619305;0.14485553;0.3192594;0.19376321;0.13415182;-0.06790724;0.29673174;0.22941475;-0.100752756;0.367289;-0.10940057;-0.1024073;0.15587758;-0.2546333;0.01201621;0.018752895;-0.075071596;0.025386097;0.0005192414;-0.10550032;-0.09941615;0.17633575;-0.053740937;0.18554896;0.059976343;0.06938231;-0.17836729;0.19850099;-0.11383846;-0.20417273;-0.2965041;0.22588395;-0.15834683;-0.13186745;0.044386223;-0.030924015;0.042510886;0.008527714;0.19175415;-0.05653012;-0.0116649475;0.2469444;-0.005878661;0.17300472;-0.27464777;-0.20572065;-0.07610286;0.02124383;-0.16207106;0.026424719;-0.03643597;-0.2094999;-0.024319455;-0.024836682;-0.11794017;0.2467343;0.05384518;0.05225163;-0.3384309;0.014825189;0.025235215;0.06875232;-0.09809746;-0.023540245;-0.012497311;-0.05609312;-0.015186828;-0.06204664;0.048897892;0.07558845;0.1800092;0.4160975;0.16676432;-0.087892786;0.13999031;0.0359287;0.31813458;0.25820565;0.00273252;-0.014672227;0.0739565;-0.043642584;0.040170133;-0.05103865;-0.16250977;0.084401086;0.040226802;0.21584952;0.051532324;0.0843615;-0.43513927;0.01541275;0.120254576;-0.18266283;-0.20066802;-0.074046;0.08436496;-0.30851635;-0.091988325;0.09678936;-0.084206834;0.05855199;0.01578719;-0.102629766;-0.11174753;0.18274976;0.047140393;0.21943021;-0.15300111;-0.24674325;0.1840899;-0.017814485;-0.03094781;-0.14432114;-0.057578035;-0.052443042;0.04754102;0.0020879665;-0.07592093;-0.056240086;-0.37197983;-0.1552953;-0.13672279;-0.13311006;0.023132844;0.022311108;-0.0833635;-0.036763676;-0.15765183;-0.09026472;0.29086754;0.024513112;0.16068892;-0.22825487;-0.06830528;0.099374734;-0.15313195;-0.06620205;0.25739986;-0.04191642;0.24102645;-0.13748215;0.06756595;-0.021206917;-0.09134231;0.068717405;-0.03200701;0.10519575;0.10738744;-0.056773107;-0.0821555;0.09446935;0.059680738;0.079493254;-0.048635386;0.10295546;-0.084047794;-0.055610184;0.054844107;0.11562253;0.037384696;-0.07752697;0.075602904;0.13722885;0.032989614;0.018645417;-0.016224349;0.015029476;0.26161388;0.24226618;-0.1380711;0.35501364;0.06325173;-0.03646203;0.0697189;0.22237398;-0.057549424;-0.002512727;-0.24490114;0.014400734;-0.07083816;-0.036424387;0.021911735;0.18436629;-0.027032368;-0.09878952;0.005144759;-0.10356173;-0.012924819;-0.086516745;-0.036966402;-0.087556265;0.12585238;-0.045137413;-0.3668465;-0.080248825;-0.073552586;-0.0031470102;0.09681056;0.22948462;-0.011785317;-0.008059235;0.1781684;-0.03293867;-0.0016970241;0.011871873;0.10892795;0.3202902;0.021878062;-0.030739283;0.013315796;-0.024635073;0.13162994;0.024947982;-0.033394612;-0.061721846;-0.31059292;0.023733795;0.18116958;0.034656465;-0.08685262;0.040246364;-0.010721842;-0.00703042;-0.12167785;-0.05824118;0.007885165;-0.008100179;0.049473107;-0.029932061;-0.08431169;-0.018630812;-0.0415924;-0.08069833;-0.049729332;-0.030177565;0.036704995;0.05729915;0.31196138;-0.14508706;0.26954806;-0.15769129;0.02063259;-0.10542966;-0.023608156;-0.01103898;0.115854345;0.23476924;0.14855808;-0.009695398;0.17235379;0.026882512;0.01057685;-0.2298525;-0.14373372;-0.19342954;0.034614712;0.26266447;-0.115854226;-0.07675422;0.4320919;0.07714811;-0.016193006;-0.015446355;0.001170639;-0.12045154;0.12387306;0.06001366;-0.010457011;-0.014759379;0.2595389;0.09640375;-0.012942438;-0.029817378;-0.014452164;0.1390262;-0.22610056;0.021753067;-0.0905872;-0.013621014;-0.07935213;0.07562496;-0.08944741;0.07723471;0.14772901;0.0009727438;0.1825759;-0.09847811;-0.043009996;0.06792256;-0.05204843;-0.16866204;-0.1738816;0.010160815;-0.035857107;0.07480965;-0.09950758;0.02372513;-0.04777268;-0.03217159;-0.058798607;-0.03995054;-0.09023595;-0.18595177;-0.2748597;-0.009802483;0.1028756;-0.073053785;-0.33330822;0.31814894;0.12735492;0.0044121244;-0.03109532;-0.10105908;0.13409229;0.045305826;-0.013722898;0.08510036;-0.17707114;-0.26355672;0.12307483;0.15978904;0.20504312;0.1557448;-0.036806226;0.37105715;0.29533112;0.13382602;-0.08350761;-0.08551313;0.0473099;-0.07826406;-0.07363257;0.05304952;0.1883894;-0.59865606;0.06056844;0.035575442;0.053810794;-0.09057853;0.01559603;0.0358952;-0.03651604;0.041829795;0.1653263;0.16654406;0.3359692;0.011899374;-0.009846114;-0.2726629;0.029455423;0.008883424;-0.21001425;0.16654962;0.044443537;-0.018884081;-0.041640475;0.044021066;0.48927835;-0.09227649;0.20160958;-0.1432431;0.038440064;0.029326953;-0.05690984;0.05132595;0.05789295;0.08398586;-0.13470414;0.01999318;0.18949096;-0.0952388;-0.05257925;-0.35393584;0.042522583;-0.04996468;0.083952025;-0.011356102;0.13767068;-0.3166691;0.029798081;-0.07335837;0.016424572;0.01917482;-0.010853891;0.047977317;-0.017131798;-0.039077546;0.05520171;-0.067055546;0.10701944;-0.17215788;0.416548;0.14590187;0.04975504;0.22499914;0.04697349;-0.018545374;-0.14662421;0.058939394;-0.13523908;-0.13673373;0.029325437;-0.3683571;0.170657;0.03896116;0.040161334;0.2917951;-0.07059908;0.055467263;0.080347225;0.055302273;0.13907488;-0.09930932;-0.044418585;-0.027790826;-0.078015335;-0.08567682;0.16689946;0.10223858;0.2220492;-0.037962254;-0.14302166;0.02698897;0.15326186;0.15381664;-0.020421548;-0.07178324;-0.2336104;-0.005176897;-0.0069504525;0.02554149;-0.26478714;0.04938724;0.14210074;-0.22982778;-0.004470671;0.042068586;0.047900394;-0.041180655;-0.48005432;0.026652109;-0.09152215;-0.05553793;0.07699226;0.22940275;0.07330156;0.28292087;-0.03036016;0.06426121;0.06130311;0.09299862;0.035457477;0.44780868;0.29149055;-0.1440197;-0.039910156;-0.20130917;-0.091530174;0.29855236;0.04631579;0.006790395;0.16585957;-0.02029185;-0.11474783;-0.049542822;0.107115515;0.094548844;0.15876877;-0.007298217;-0.087273836;0.1221793;-0.09861599;0.19800611;0.06391349;-0.110915765;-0.030305061;0.1416995
0.03456316;-0.035050716;-0.05642113;0.100105345;-0.008643632;-0.009622285;-0.002630857;0.025295326;-0.26886097;-0.04879347;-0.16057225;0.03676343;0.00072011724;0.043047722;0.19412228;0.044731397;-0.02172664;-0.1165067;0.20775302;0.3304483;0.09382908;0.023481;-0.037126694;-0.14295356;0.027671244;0.13414346;-0.004292786;-0.30111092;-0.019151036;-0.031042954;0.028381225;0.37978747;-0.15862888;0.047710545;0.051822983;-0.003690044;0.029648922;-0.063926026;-0.10168833;0.0375552;-0.20349446;0.013444037;-0.23763378;-0.117166296;0.26253128;-0.023380868;-0.01096934;-0.05343445;-0.038547907;-0.08858342;-0.07505083;0.10010076;-0.0825522;-0.2984643;0.016634872;-0.014528514;0.14692533;0.13042021;-0.08421235;0.049139965;-0.10092485;0.08792481;-0.049344197;-0.0038043058;0.050290603;-0.03731244;-0.05665926;-0.045189966;-0.018931536;0.08734264;-0.14445697;-0.0021520501;0.06824646;0.0045052636;0.032204755;-0.036599178;-0.11523472;0.39813972;-0.0068135764;-0.011398965;-0.073769726;0.0060025086;-0.021431439;0.07348511;0.37483275;0.11537238;0.012353076;0.16192096;-0.03219897;-0.065133214;0.07718267;0.0071066157;0.058601797;0.2164433;-0.13801767;-0.004202142;-0.08930648;-0.0015383831;-0.07973277;0.13428687;0.4386852;0.2756178;0.10840125;0.026629627;0.228624;0.16592155;-0.09001889;0.3142226;-0.1292879;0.005425557;0.077215664;-0.284262;0.026816042;-0.028805818;-0.09916149;0.0698246;-0.060480926;-0.15289411;-0.21375637;0.20941651;-0.014034016;0.21937422;-0.012202885;-0.015909558;-0.18169557;0.08104114;-0.1154368;-0.21521075;-0.27316794;0.1459921;-0.21046056;-0.20073187;0.07300749;-0.049132437;0.06174484;0.057812538;0.17335497;-0.027666379;0.0062109646;0.18730147;-0.041456398;0.0680921;-0.22153793;-0.104912676;-0.1497244;-0.06076801;-0.26381657;0.03973497;-0.090790704;-0.08145354;-0.04356559;-0.042077202;0.05639189;0.18781316;-0.07803263;0.16674465;-0.21726875;-0.103974685;-0.024537642;0.10908166;-0.12506679;-0.08459291;0.022277417;-0.032412667;0.093856335;-0.052870147;-0.07038332;0.17673926;0.09525861;0.26223353;0.09377308;0.015681472;0.09603459;0.023902208;0.3198485;0.1865749;0.023384862;-0.12489997;-0.09397197;0.004075453;-0.033537447;0.045452178;-0.07838787;0.20560136;-0.015674297;0.22434913;-0.077946804;0.15281837;-0.43964896;-0.022793347;0.057510566;-0.10429109;-0.21348348;0.05512941;0.13075428;-0.29562154;-0.07385618;0.06117865;-0.19548541;0.06338572;0.1996187;-0.006841334;-0.25787768;0.0644042;-0.10661916;0.25848854;-0.14577277;-0.30746502;0.113778256;0.03613642;0.08873532;-0.120404065;0.049029414;0.079247534;-0.07570626;-0.0712896;-0.08098323;-0.042865437;-0.29265037;-0.15865079;-0.27514976;-0.057168588;0.10834853;-0.033708654;0.11299948;-0.03231812;-0.26108995;-0.10599058;0.30087543;0.06041099;0.07259888;-0.15486641;-0.2069884;0.122700475;-0.06641024;-0.10674058;0.23404925;0.006909113;0.28550273;0.106624536;0.11284892;-0.034812707;-0.07386401;0.018504916;0.019653426;0.0012032699;0.062813126;-0.20686997;-0.0070093633;0.08120225;-0.029048406;0.045605786;-0.10807815;0.064548194;0.035267603;0.0080960365;0.07770825;0.114165895;-0.01049488;0.00024097072;0.053590965;0.015435962;-0.011733828;0.021029918;-0.05608707;-0.009434581;0.2998182;0.40598828;-0.014734285;0.3767448;0.11914403;-0.06295747;-0.026645973;0.21053629;-0.0625412;-0.057597794;-0.17663689;0.01718816;-0.025763638;0.025611034;0.0382373;0.160077;-0.14881228;-0.19521657;0.036890864;-0.1659235;-0.0009010906;-0.0108183315;0.05997822;-0.08954855;0.13688268;-0.0114196455;-0.311314;0.038194075;0.05107355;-0.11488442;0.17161474;0.31373933;0.057396535;-0.008358486;0.35739964;0.025344407;0.028389815;-0.033245157;0.12691763;0.37912056;0.008159526;-0.0864521;-0.022139417;-0.09721087;0.1226654;-0.097129315;0.123453796;-0.048483737;-0.1854297;0.02227057;0.14095813;0.014157042;0.010857378;0.0057449583;0.053233683;-0.123832755;-0.0920178;0.07674497;-0.00040492692;-0.009998579;0.11138124;-0.039953206;0.03531122;-0.06722888;0.056362756;-0.056231733;0.03949409;0.07257376;0.08996173;0.06799672;0.35851526;-0.19408019;0.09720338;-0.26048255;0.053177897;-0.07830425;0.0055263443;0.046907328;0.013338156;0.17353797;0.2331192;0.026260803;0.1533835;-0.014285667;-0.051728923;-0.2647021;-0.12934053;-0.266122;-0.023761649;0.15252373;-0.21599583;-0.04916639;0.35016122;0.15219435;0.062039424;0.040505048;-0.08435758;-0.12455271;0.086247355;0.0113631785;-0.010601391;0.08832833;0.13894188;0.065417305;0.043551482;-0.045963947;-0.07588044;0.024281766;-0.08914088;-0.028983328;-0.15608042;0.08475447;-0.031198101;0.13163286;-0.03902739;0.14743234;0.061894413;-0.055458922;0.19400947;-0.013838741;0.060805995;-0.08715618;-0.053118378;-0.14980878;-0.1155226;0.019444222;0.05845148;0.11637136;-0.08036521;0.103134066;0.01498241;0.03951911;0.026000477;-0.077765636;-0.047438994;-0.22059189;-0.17646068;-0.032104805;0.13541272;0.077721;-0.42243844;0.21743606;0.047747687;0.0003746434;-0.14424972;-0.048091676;0.14649308;0.023784429;0.00906267;0.10409212;-0.074417464;-0.32045218;0.26432154;0.20774393;0.18175086;0.08021276;-0.051684625;0.25990495;0.1248437;0.19676885;-0.03617707;0.0023016804;0.11191596;-0.08619969;0.027331278;-0.024992317;0.10889799;-0.5159981;0.048753534;-0.11541365;-0.06917624;-0.057269655;0.08158462;-0.030891374;0.015474534;-0.04871667;0.10841924;0.0786269;0.26802516;-0.074210696;-0.066622764;-0.16062339;0.0107973805;-0.085949644;-0.25896236;0.1565592;-0.02071449;0.03164035;0.0027150975;-0.05677363;0.3887396;-0.057673033;0.27791724;-0.18376985;0.1674984;0.04741423;-0.14084983;-0.008808112;0.06071374;0.06363622;-0.22858219;0.060458317;0.042763382;-0.098925255;-0.12697849;-0.37303156;-0.02704006;-0.20632577;0.08154967;-0.022034822;0.07531581;-0.3592145;-0.06484501;0.023555651;0.02449646;-0.01866344;0.03271702;-0.08042923;-0.100588106;-0.12636892;-0.011120726;0.023162106;0.17433904;-0.0784882;0.37317827;0.1697348;-0.050706234;0.13017832;0.045770768;-0.028311754;-0.15060516;-0.09176744;-0.18492128;-0.104895435;-0.046505857;-0.2734333;0.10741004;0.045705236;0.02619801;0.20133387;-0.022441559;-0.05379996;0.052269913;0.03876953;0.17555936;0.03566192;0.03960972;0.065940574;0.031646617;-0.082015105;0.1541281;0.099916846;0.23849751;-0.048545122;-0.2345811;-0.027920444;0.12927766;0.17419273;0.03012281;0.034612153;-0.09803438;-0.026274987;-0.03735746;0.053308703;-0.17303236;-0.02075754;0.18456267;-0.3522494;0.027040923;0.024026668;-0.032110766;0.024390317;-0.39148602;0.0014045727;0.041067414;0.00018119394;0.18112235;0.27800766;0.065914944;0.32382852;-0.06533096;-0.015939033;0.05026563;-0.04809253;0.014865351;0.5319563;0.2528591;-0.23466714;-0.032652844;-0.20748769;-0.06290411;0.21484503;0.04648024;0.00426302;0.17342679;0.08586665;-0.17131233;-0.011985234;-0.031505443;0.17596593;0.093268074;0.035911232;0.02965607;0.10259521;-0.050868094;0.2226723;0.15392043;-0.007729714;-0.03233271;0.139466
0.0691642;0.029656112;0.021031683;-0.026229173;0.030217031;0.09146101;-0.004589198;-0.030066414;-0.21461238;0.019992383;-0.24991298;0.044712823;-0.006254089;0.0059601297;0.14135501;-0.028858272;0.027850728;-0.042778514;0.29118174;0.2762393;-0.036508836;0.0037897509;0.052963573;-0.07353915;0.050710738;0.061847817;0.080809474;-0.20169106;-0.094657466;-0.097926445;0.15899982;0.36247182;-0.072635;0.033586744;0.0015185165;-0.024083322;0.03623309;-0.06473085;-0.13320524;0.08599199;-0.29099968;0.03508941;-0.29432276;-0.17167896;0.31860676;-0.10526174;-0.024982894;0.03678823;0.06849121;-0.19065034;-0.048442926;0.060539015;0.030119816;-0.26035827;0.14872459;-0.03794632;0.21091792;0.17291465;0.009306265;0.017582783;0.049325377;0.008423721;0.017890565;0.015961608;-0.099400066;-0.07695126;0.07203357;0.005132076;-0.090487495;-0.038897697;-0.22159192;-0.03366217;0.11994662;-0.08959217;-0.073284045;0.062419023;-0.047084868;0.392874;-0.06676439;-0.06849424;0.085249215;-0.055171795;-0.051362734;0.10245773;0.38118103;0.14687315;0.027810998;0.19069247;-0.034341253;0.024013516;0.22452357;0.072907545;0.120268606;0.25836012;-0.091901004;0.07040578;-0.14289692;0.09708568;-0.015207048;0.1634454;0.36539623;0.15469275;0.16111057;-0.069392025;0.32568994;0.31397355;0.018140068;0.449825;-0.24252446;0.059051663;0.19191803;-0.12850535;0.021184107;0.08298823;-0.08126842;-0.06612293;-0.0060285763;-0.16938324;-0.28878993;0.07706054;0.005238337;0.108367376;0.076052524;0.013191686;-0.22347474;0.10296294;-0.119860984;-0.25213417;-0.18345119;0.31961212;-0.18778089;-0.12570415;0.078776784;-0.011059471;-0.006566108;-0.042939454;0.07869486;-0.030587345;0.04268704;0.29287893;-0.03625247;0.029934183;-0.1833306;-0.13019823;-0.1542297;-0.04180481;-0.28623182;-0.005429427;-0.11737868;-0.113030195;0.06634955;-0.083382405;0.027667848;0.4079146;0.033148475;0.20869161;-0.23388122;0.0034075095;0.0055793007;0.15166612;-0.11182051;-0.086972326;0.1927718;-7.124316e-05;0.08686431;-0.16684149;-0.054805852;0.021712046;0.1890801;0.39471892;0.27320328;0.019484729;0.18152402;0.037067838;0.23995505;0.20105922;0.08306682;-0.036480878;-0.09580506;-0.038720027;0.06633623;-0.071440645;-0.09983097;0.05937125;0.05199447;0.18192922;0.021199342;-0.007896644;-0.34313273;0.09202941;0.014702;-0.11709874;-0.2996616;0.030561838;0.15001877;-0.23849967;-0.08153126;0.08785584;-0.17179725;0.25808388;0.25507212;-0.105818234;-0.25962812;0.09124045;-0.07196023;0.18383984;-0.19826186;-0.32902506;0.10688267;-0.047144752;0.01655483;-0.039714094;-0.03070482;0.014917619;0.027241617;0.04600963;0.085413545;-0.08652417;-0.3744721;-0.07599002;-0.20639382;0.0029677202;0.057475805;-0.012233986;0.041794427;-0.0039859344;-0.31744432;-0.030968918;0.2301755;0.052205633;0.06059923;-0.12987089;-0.0660636;0.14432615;-0.22471267;-0.25337544;0.2943487;0.00035018343;0.2929938;0.058523707;0.08238785;0.019757865;-0.06329727;-0.01073655;-0.0667379;0.23166889;0.107504964;-0.19461536;0.004185257;-0.010435663;0.072939865;-0.07238505;-0.1716836;0.07890486;-0.0012318039;-0.06223144;0.042245947;0.056684006;0.067499146;0.0108269565;0.007462135;0.09984753;-0.024604546;0.060352013;0.014019066;-0.013518725;0.092552975;0.30304268;-0.07170018;0.30682305;0.15503746;-0.10263318;-0.11666492;0.18340549;0.08325672;-0.032609012;-0.26690552;-0.062967174;0.027820382;0.04214458;0.028774695;0.13622135;-0.07989721;-0.13398501;0.06604511;-0.06416726;0.044651803;-0.10786324;0.065734036;-0.12926401;0.098834254;0.11394672;-0.43495214;-0.043050822;-0.1006722;-0.08615857;0.044133607;0.34849674;-0.019963559;-0.019686421;0.21636312;0.043737367;0.05537641;-0.07121309;0.11873428;0.27677926;0.13640513;-0.0095326975;0.013951964;-0.1842117;-0.0166865;0.058523342;0.03049396;0.045230713;-0.16623789;0.044882216;0.06125871;0.110825576;0.016297845;-0.005591833;0.066155046;-0.05353003;-0.039969217;-0.016823173;-0.062035665;-0.10875847;0.008466118;0.05751332;0.0712704;0.088044286;-0.06287764;0.013001455;0.05002642;-0.049584366;0.17772913;-0.008742542;0.25980294;-0.13074851;0.07602981;-0.1769281;-0.034315575;-0.05218014;0.06578128;0.14967844;-0.053518355;-0.018556938;0.33655134;0.015364604;0.034647413;-0.02636718;0.05893289;-0.20557453;-0.031625383;-0.34906825;-0.041150104;0.14107786;-0.0922396;0.036681592;0.34049174;0.06664864;0.04244382;-0.053493727;-0.13646024;-0.03279723;0.0025377306;0.087438785;-0.012936798;0.049720615;0.16409412;0.11790171;0.041231506;-0.024795279;0.041155905;0.17918277;-0.1364948;0.02639179;-0.022141293;0.15610008;0.034736663;0.15552893;-0.013951281;0.012266481;0.08524889;-0.11861386;0.057906922;-0.09362284;0.017758653;-0.09649775;-0.037434235;-0.082576364;-0.09473492;-0.055817448;0.046819087;0.05740321;-0.07216571;-0.015912762;-0.024209287;-0.057569347;0.075544916;-0.011164607;0.096073285;-0.17465244;-0.04687308;0.074445896;0.23079453;-0.0047767027;-0.31354174;0.30587122;0.021124404;0.031175662;-0.2200124;-0.031476557;0.23876111;0.045423176;-0.08112207;0.09080424;-0.07920583;-0.19314495;0.26034087;0.15554799;0.11792817;0.045201052;0.03243608;0.20433591;0.09215573;0.37597376;-0.17331287;-0.02706806;0.03385071;-0.09769576;0.06198204;0.024029406;0.07599859;-0.39697975;-0.08438271;-0.012414315;-0.059432194;-0.05915758;0.06288064;-0.0136092855;-0.012083968;-0.008273444;0.24566358;0.07897204;0.26456448;0.035153847;-0.009584427;-0.122813836;-0.046920437;0.053720895;-0.24539982;0.22544914;-0.015256408;-0.0876653;0.029467996;-0.07446861;0.517447;-0.09008111;0.24101122;-0.25077567;0.14105405;-0.06846636;-0.20962353;0.02422067;0.05121789;0.12573154;-0.36729375;0.06492004;0.23211953;-0.21116675;-0.028248867;-0.36560127;0.04311896;-0.064095475;0.053652756;-0.04689377;0.11378187;-0.31998533;0.038346816;0.19700445;0.0012213632;-0.036371365;0.061118864;-0.023395864;-0.0452036;-0.1026001;0.034620542;0.04780766;0.046042085;-0.07435619;0.3572698;0.049127314;-0.029693047;-0.0041367253;-0.025950748;0.03756826;-0.16408388;-0.090243675;-0.021961754;-0.04837219;0.016582603;-0.2606159;0.11797084;0.04982116;0.024186665;0.28534517;0.06379283;0.065644875;0.1315051;-0.11765444;0.123880826;0.0060548442;-0.01864368;0.016676847;0.012095136;0.033264697;0.18580928;0.00908272;0.25113645;0.07694346;-0.25441968;-0.024279905;0.13356446;0.12839288;-0.05226389;0.05308777;-0.124554776;-0.026441023;-0.03281789;-0.07784213;-0.24159297;0.041703932;0.3153925;-0.31197244;-0.00986128;-0.0022216972;0.03056039;0.047543675;-0.38047606;0.048411455;-0.06061021;0.02392431;0.22248797;0.34467837;0.05490855;0.16466188;-0.07459352;0.04042858;0.06575826;0.051056188;-0.083494775;0.4593644;0.17763641;-0.14899378;-0.048106574;-0.1398609;-0.06328317;0.30060118;0.04199782;0.03921542;0.28714362;0.020347156;-0.17061391;0.07533137;0.10466458;0.22897528;0.0017207257;-0.03211962;0.057035737;0.12004691;-0.055484608;0.27684015;0.10988576;-0.13570288;0.078193896;0.030183468
0.18596286;-0.080667876;0.044672463;-0.097929165;0.05310996;0.11690866;0.00056137185;0.02921237;-0.23811005;0.053304877;-0.24537273;0.049845804;0.020354789;0.010380924;0.13976358;-0.035727877;0.0034273057;-0.008972133;0.24983752;0.36078298;0.08294307;-0.051242854;0.113444455;-0.11581502;0.05202585;0.039565664;0.020391438;-0.26257965;-0.17441382;-0.11258096;0.18824165;0.4385322;-0.12358437;-0.06736538;-0.02460126;0.018434074;-0.054455604;-0.06729912;-0.14840412;0.15053909;-0.27957207;-0.08490282;-0.21558642;-0.18890157;0.20367701;-0.055284847;0.06686532;0.039923828;-0.05406138;-0.12887187;0.037515633;0.03240203;0.020431219;-0.36233357;0.19142449;-0.010441063;0.1443578;0.23822206;-0.07587886;0.0054129227;0.035917014;0.030106619;0.061651576;-0.04098138;-0.034331284;0.13768533;-0.058249965;-0.057842188;-0.004902832;-0.052397117;-0.20138104;0.01746365;0.068137035;0.019394284;0.045463014;-0.033916455;-0.10445304;0.39842123;-0.015193279;-0.016581947;-0.062163197;-0.069474585;-0.031599015;-0.0025362591;0.42149717;0.1265406;0.06708616;0.22534831;0.0043539805;-0.054659683;0.18568565;-0.041642666;0.023028428;0.3104699;-0.057423618;0.008786035;-0.15149939;-0.0016316812;-0.056097593;0.21213007;0.3366438;0.29045394;0.14391518;-0.21667054;0.28533375;0.22861624;-0.10340279;0.40208733;-0.18654558;0.05021048;0.17314388;-0.16273387;0.043499272;-0.015760085;-0.00504631;-0.023090037;-0.0013973628;-0.22421986;-0.2402174;0.01651585;-0.10117561;0.0509737;0.03972649;0.005427882;-0.24216755;0.05991297;-0.07247033;-0.13404383;-0.14032723;0.20649064;-0.2533991;-0.050670296;0.026572682;-0.008678828;0.058720034;0.08740954;0.053504873;0.03321484;0.004115632;0.34618047;-0.011552138;0.007169868;-0.23598792;-0.018946791;-0.28136358;0.05017445;-0.36662316;-0.0266601;-0.0987219;-0.1399166;-0.015828842;-0.08229565;0.030915082;0.2696171;-0.054522112;0.19264585;-0.25190794;-0.072119296;-0.0057395166;-0.042688698;-0.061334137;-0.13892338;0.11764407;0.061381012;-0.029124998;-0.058379877;0.059167318;0.09592418;0.08704458;0.29142997;0.19232528;0.020512288;0.10064965;0.18875423;0.164998;0.17371894;-0.04698145;-0.090451494;-0.13933638;0.054748043;-0.023506116;0.07762781;0.0811369;0.063762695;-0.08725112;0.15549327;-0.030897193;0.123548314;-0.4847699;-0.00054515136;0.007923529;-0.29559115;-0.16066651;0.07042909;0.2743713;-0.3254971;-0.018728865;-0.039877154;-0.10009623;0.25517988;0.14185974;-0.16865027;-0.13856132;0.1754241;-0.18732728;0.17299968;-0.14149174;-0.2849564;0.19267249;0.0910931;-0.13030261;0.06864367;0.016486514;0.08548122;-0.010470192;0.02322648;-0.0076164496;0.06386313;-0.3466758;-0.20518208;-0.2899427;-0.071186244;-0.03651508;-0.039676987;0.056496378;-0.020464476;-0.37048033;-0.10847711;0.3349853;-0.07604144;0.06132298;-0.12968954;-0.14820804;0.054484192;-0.21582237;-0.25582606;0.17343538;-0.0531606;0.23995216;0.14906333;0.1813775;0.0100653665;-0.24899234;0.04549779;-0.0635974;0.1733772;0.049545463;-0.09518453;-0.069202445;0.016472753;0.03281436;0.04993356;-0.15310566;0.06959766;0.041201174;0.050007183;0.06721144;0.19081451;-0.08232669;-0.025664972;0.019462453;-0.029966831;0.036201853;-0.039555687;0.023881895;0.06262269;0.061812155;0.30201474;0.018018043;0.40541336;0.105874114;-0.18511905;-0.15330698;0.17873847;0.013875925;0.035883207;-0.16573508;-0.04396766;0.033204805;-0.02428141;0.022615124;0.21786125;-0.07672504;-0.11037809;0.13129434;-0.10427888;-0.053824823;-0.056811754;-0.059398778;-0.08593151;0.11949117;0.06900906;-0.41956836;0.08158018;-0.13078518;-0.10063062;0.13795324;0.2665662;0.05640396;0.011168411;0.25090012;-0.010049528;0.013096023;-0.07230773;0.1675671;0.23133689;0.19440627;0.089436926;-0.10870588;-0.1565648;0.015215554;0.060811386;0.010133986;0.01877051;-0.24455269;-0.031868994;0.03509821;0.06265127;-0.013671963;-0.04253508;0.17658092;0.022697674;-0.016458204;-0.008699924;0.051920153;-0.0009796157;0.067412354;-0.053148147;0.007578162;-0.029641787;0.057188492;0.070956886;-0.013794256;-0.059859797;0.1551715;-0.06967892;0.3706662;-0.13543986;0.1517777;-0.3133553;0.03666449;-0.12900859;0.011879754;0.19608836;0.042150714;-0.05463033;0.42652166;0.031648386;-0.0111725135;-0.053081118;0.000506146;-0.024894338;-0.0035816303;-0.2344829;-0.04127349;0.0703293;-0.099372834;0.009542325;0.35936287;0.051416993;0.04813532;-0.0057555926;-0.11234993;-0.061562322;0.08670794;0.0060974406;0.16471824;0.10787452;0.23604581;0.13849726;-0.03168868;0.05255941;-0.012285889;0.131477;-0.093368515;0.0035006234;-0.014115849;0.14966114;0.17226827;0.03316785;0.030246792;0.08917333;-0.025808565;-0.038628817;0.16017582;0.009932491;-0.104996815;-0.000475036;-0.00096333865;-0.11200341;0.0096652;0.09528397;-0.082207344;0.12614569;-0.11105532;-0.045945153;-0.0063604224;-0.017903032;-0.00912609;0.029341206;0.09730933;-0.120165326;-0.10352116;-0.014175867;0.17682593;-0.06703557;-0.21731797;0.34453198;0.11969176;-0.061337784;-0.13336274;-0.0387661;0.21660641;0.032724097;-0.07817543;0.07400758;-0.099800035;-0.20583007;0.2589739;0.0821313;0.15402813;0.120244384;0.03608982;0.17078646;0.04225459;0.35112956;-0.19770336;-0.0634062;-0.00035153812;0.043933522;0.010475482;-0.009949372;0.069213785;-0.39082935;0.021869997;-0.11113113;0.053494286;-0.055914532;-0.06346955;0.09191903;0.03562428;-0.19279605;0.15898456;0.1701762;0.23439552;-0.044789374;-0.012380896;-0.105638005;-0.09084738;0.006404383;-0.32379037;0.31096354;0.08067009;-0.09704919;-0.00027834665;0.057824504;0.3850667;-0.20123121;0.23123331;-0.26931334;0.23390491;-0.031662587;-0.15453063;0.00552789;0.011331737;0.08507861;-0.31383887;-0.09823296;0.16172223;-0.1858628;-0.14353396;-0.35524955;-0.034092844;-0.08137524;0.033593472;-0.03826736;0.07688037;-0.19611779;-0.0041933353;0.06998117;-0.029683402;-0.004669907;-0.021456124;0.056634054;-0.14281675;-0.10337824;0.014648174;-0.0026988357;0.029042983;-0.012486294;0.28390568;0.14633134;0.03073089;-0.029508732;0.048509233;0.045174677;-0.052283414;-0.06388456;-0.024758738;-0.046420913;-0.0012097534;-0.22766306;0.11132556;0.11585543;0.023602638;0.12048138;-0.051335618;-0.031761143;0.06462598;-0.011592395;0.13910696;-0.029642893;0.016973298;-0.03502755;-0.023216007;-0.012833039;0.17224772;0.105042696;0.2977139;0.009140506;-0.2503638;-0.035304688;0.2873691;0.12813517;0.0027397978;0.057264537;-0.1652956;0.0026688746;0.066445805;0.05196071;-0.23671485;0.09603568;0.2913784;-0.24609403;-0.018568926;-0.035689894;-0.0002915816;0.056636777;-0.37100548;0.0041282047;0.039706204;0.009899097;0.20933868;0.3112948;0.041408543;0.22178213;-0.07698302;0.08064903;-0.02413209;-0.027997421;0.06959351;0.5585503;0.33868894;-0.11179178;0.05895514;-0.23228519;-0.15124784;0.32200688;0.018369118;0.0086758295;0.2737535;0.10078933;-0.14054728;0.04975613;0.008261158;0.24712157;0.004297888;0.033150934;-0.07173178;0.0750112;-0.020877669;0.12781106;0.11278103;-0.07231553;-0.04402392;0.06831959
0.113634095;-0.0072873835;-0.042746827;0.036496226;0.023489345;0.13212383;-0.020045236;-0.017350543;-0.25781763;0.0066720014;-0.31502563;-0.01816152;-0.009631039;-0.06208762;0.17103603;-0.011860627;-0.01678681;-0.084490746;0.24574062;0.28127262;0.096792795;-0.12613176;0.12040518;-0.049049642;0.0066977246;0.0933423;-0.0471906;-0.19822063;-0.21106313;-0.025504751;0.19760668;0.29953092;-0.01589995;-0.05858589;-0.03688943;-0.008996539;0.055120803;-0.12895818;-0.20141293;0.11774362;-0.37340668;0.06736967;-0.21080688;-0.103549935;0.24866629;-0.03894831;0.007557299;0.062460154;0.03939874;-0.10372811;0.08798344;0.1253959;-0.0131057175;-0.35919696;0.1309617;0.07114916;0.0071078236;0.26195267;-0.045677148;0.019788042;0.016070025;0.11296463;-0.051343143;0.06651702;-0.014211206;0.25691307;-0.027791752;-0.0013797875;-0.13366748;0.07834421;-0.058852017;-0.043954097;0.12044195;0.064076684;0.07832474;0.002411672;-0.07289427;0.34406585;-0.06833128;0.00048275245;0.07947689;-0.09100118;-0.016923673;-0.017629467;0.32837594;0.18647297;-0.051465996;0.22792767;0.04349505;0.06333861;0.19698441;-0.014771608;0.10377332;0.21965799;-0.05993432;0.042662494;-0.16794592;-0.014879673;-0.08613015;0.13429356;0.43674046;0.35128233;0.23110378;-0.24459226;0.2435974;0.3167837;-0.0062626135;0.4689815;-0.15617777;-0.054633748;0.12837937;-0.17473856;-0.029937983;-0.13495244;0.020463277;-0.0007707565;0.027351804;-0.03306001;-0.27133772;0.13663857;-0.13686362;-0.03427316;0.085682996;-0.02511026;-0.1855071;0.10293113;-0.015673712;-0.13054165;-0.1682201;0.33211207;-0.25039464;-0.24898231;0.117549606;-6.3969506e-05;0.014857368;-0.03516152;0.09600371;-0.012567685;0.030047175;0.28012034;-0.045457773;-0.09558467;-0.060280606;0.026424456;-0.2125079;0.035073455;-0.27956432;-0.042378347;-0.07357841;-0.20959108;-0.03450215;-0.02065815;-0.016117534;0.31722125;-0.06357009;0.22105668;-0.19104539;-0.00012015509;-0.0077901212;-0.09099654;0.06109547;-0.21834922;0.111748934;0.018004881;0.044840574;-0.10037764;-0.06345964;0.10367165;0.061877478;0.30148265;0.17326555;0.015582833;0.11265519;0.115463495;0.19235948;0.015103773;0.058296975;0.015757188;-0.08740435;-0.051881634;-0.0031955852;0.062391907;-0.042393018;0.1762666;-0.038385663;0.15768278;0.01225176;0.010965846;-0.44231242;-0.031205175;0.033019595;-0.11597465;-0.17351767;-0.038383204;0.21398994;-0.19982791;-0.062343236;0.1607381;-0.20053121;0.14474863;0.23668723;-0.09427051;-0.07781967;0.038596585;-0.14531404;0.1873563;-0.048394732;-0.34974033;0.041239746;0.14859194;-0.07677457;0.06514013;0.04787086;-0.0059268065;-0.060207434;-0.029799933;0.083917975;0.04058658;-0.24736537;-0.23918022;-0.14575918;0.011602417;-0.026384177;0.0011052502;0.05897957;-0.17217167;-0.28190148;-0.08191221;0.20579024;0.0025698387;0.07285075;-0.20695646;-0.09528863;0.12120052;-0.27184027;-0.16230725;0.254704;0.08459292;0.24166617;0.17920099;0.1016303;-0.014692861;-0.19683099;-0.0525104;-0.2129371;0.1734488;0.10030244;0.06493568;0.061571952;-0.0580346;0.06431571;-0.059445202;-0.11319259;-0.04480123;-0.05304862;0.054911893;0.15264495;0.25864625;0.070285104;0.032426436;-0.043906134;0.019299293;0.039026465;-0.0020581647;0.030357072;0.048989292;0.12747563;0.38564304;-0.03931981;0.3537918;0.10924349;-0.1564777;-0.14970109;0.2070747;0.046611827;-0.018114636;-0.12255702;-0.004067049;0.00021584991;0.059979696;-0.02749955;0.23520938;-0.10527257;-0.111825824;-0.013868168;-0.11523054;0.046799272;-0.059545048;0.01261155;-0.13558435;0.02188712;0.15640552;-0.4189715;0.043008823;-0.06808239;0.006597839;0.09034626;0.3770794;-0.03486375;-0.066223666;0.28543922;0.034264218;0.03968882;-0.115716055;0.10137552;0.2502945;0.12104679;0.055572618;-0.05347217;-0.19820653;0.21588786;0.018119376;0.14803751;0.029887198;-0.19808751;-0.023479745;-0.039459355;0.0012521581;-0.04258492;0.06579187;0.18105431;-0.013517128;0.020804448;0.0022012931;0.023423444;-0.019726045;0.18144554;0.058807187;0.08029474;0.04679692;0.0054824874;-0.05730911;0.03585232;0.070325546;0.11437823;0.017618801;0.44316375;-0.25840738;0.17773642;-0.29751417;-0.018717753;-0.082175724;0.043110628;0.11054823;0.11281075;0.13356209;0.37912345;0.004363845;0.10681701;-0.028670192;0.08518224;-0.06107467;-0.09048118;-0.3056214;0.09234857;0.08579863;-0.24200757;0.055027302;0.28658664;0.018763255;0.024113297;0.0004522831;-0.16191365;-0.18940207;0.124742046;0.088563554;0.21620551;0.04943719;0.075233035;0.21618536;0.06511554;-0.01151503;-0.02862575;0.012204082;-0.06184312;-0.018010627;0.019053383;0.14579815;0.12888971;-0.07080004;0.090288796;-0.01878808;0.11817419;-0.0029478082;0.25510442;-0.033920303;-0.075780064;0.08598116;0.04394061;-0.07054547;-0.02276545;-0.048171215;0.05191483;-0.07050506;0.016570488;0.010552967;0.053240065;0.046445046;-0.035633344;-0.016141932;0.19295408;-0.0868176;-0.14566766;-0.057917267;0.24916185;-0.05525839;-0.3349042;0.27440926;0.04187629;0.073983245;-0.1485333;-0.034073748;0.20659481;-0.07471783;0.10953648;0.052385606;-0.16056368;-0.10805184;0.28206012;0.15956858;0.15231065;0.14743415;-0.011461057;0.072296344;0.01606074;0.281645;-0.26823366;0.011510422;0.09271003;0.04590349;0.025553664;-0.09630692;0.17580101;-0.23840407;0.013830322;-0.120370165;0.0028036651;0.066363364;-0.057249658;-0.0038916115;0.060013343;-0.10583098;0.3120315;0.13881421;0.055092257;0.041781206;0.003775652;-0.27722657;0.01224882;0.032194924;-0.29220882;0.19875132;-0.016697126;-0.18336706;-0.06935305;0.010562322;0.4179593;-0.055948295;0.36515036;-0.22379237;0.35249823;-0.03434082;-0.2154244;0.0301756;-0.055607837;0.1843357;-0.45255375;-0.031228933;0.079121396;-0.25789848;-0.059174847;-0.2434427;-0.052213475;-0.107358284;0.03492626;-0.062041175;0.14961778;-0.10025129;0.057913825;0.25149876;0.032761395;-0.034477476;0.007976073;0.03183215;-0.03720572;-0.021981535;0.027510485;-0.03571955;0.019539108;-0.045043446;0.24667172;0.13060805;-0.02552217;-0.056739364;0.045186054;-0.00016787987;-0.14805016;-0.14813118;-0.09434208;-0.1283873;-0.010309093;-0.3366434;0.027302172;0.13447131;0.043356586;0.10360309;-0.0016995042;0.080115266;0.055462252;0.013792236;0.106468126;-0.090404;0.05012768;-0.024492884;-0.1373532;0.007834896;0.15333185;0.17272188;0.26590917;0.0018482262;-0.14806841;0.06824757;0.24506694;-0.043360192;-0.04665759;-0.044102293;-0.05933378;0.07350356;0.100782655;0.009901302;-0.17380957;0.1346749;0.2651362;-0.19433275;-0.049900368;0.0025422352;-0.026592707;0.10618576;-0.47157207;0.0132067315;-0.10869576;0.043743674;0.19714904;0.27479848;-0.02376354;0.13134181;-0.09677575;0.051282384;-0.049777564;-0.10287508;-0.0478147;0.56355816;0.33799794;-0.20261313;0.012141655;-0.26826128;-0.00465444;0.21164137;0.06172605;0.018171856;0.24414697;0.19531435;-0.35912186;-0.066404216;0.06413433;0.34898522;0.07019098;0.04534835;-0.030450929;0.10559809;-0.000639432;0.2796898;0.092834905;0.00094882475;-0.062008347;0.058952644
0.24236877;-0.045326155;0.07571482;-0.0016354381;-0.04294351;0.24095087;-0.018302964;0.06749093;-0.12943394;-0.011867121;-0.2915787;-0.032952014;-0.008307375;0.024610126;0.062561736;0.071733594;0.047257144;0.040354792;0.17933708;0.26953998;0.054853167;-0.106814384;0.10458214;-0.03639311;-0.04696212;0.0048262565;-0.011819039;-0.037538525;-0.13279495;0.033655185;0.18229243;0.2944032;-0.012413921;-0.0657254;-0.07062576;0.058147967;0.050677247;-0.21569528;-0.09534262;0.17882684;-0.34462267;-0.07249973;-0.07834072;-0.071307555;0.30647653;0.020242427;0.05117182;-0.074718595;-0.0638032;-0.23814325;-0.062128026;0.04403221;-0.066966996;-0.24800292;0.16284755;-0.07765596;0.08302937;0.3253155;0.09802738;0.059768196;0.011308483;0.12359888;0.0058732624;0.030327484;-0.085018456;0.2666853;-0.039851815;0.024375986;-0.08251408;0.07700962;-0.060007744;0.07567467;0.035240974;0.025311565;0.10382083;-0.066878356;0.05101373;0.2951489;0.059349123;0.11432602;-0.024202378;-0.04958457;0.059248623;-0.08379221;0.38216326;0.21584326;-0.04872718;0.17125311;0.060669012;0.039393056;0.1502114;0.031866934;-0.04652426;0.21880135;-0.059569072;-0.0025262258;-0.080245234;0.015060327;0.05002532;0.019158175;0.42880023;0.23281245;0.08613764;-0.22695398;0.22908352;0.3673512;-0.105345614;0.44840017;-0.198679;-0.08813989;0.11244965;-0.15942995;-0.039770186;-0.12414875;0.013352924;-0.0009802578;0.060794752;-0.17312929;-0.32321262;0.14389397;-0.066270255;0.13051346;0.06280734;-0.021940773;-0.12143804;-0.0450567;0.03866673;-0.057363372;-0.12193854;0.2987936;-0.18861336;-0.22767529;0.07608527;0.03941953;-0.089994505;-0.042138446;0.012424556;0.022774596;-0.10573894;0.26990646;0.07038405;-0.17455928;-0.04787157;0.05549234;-0.29713374;0.06409276;-0.2862128;-0.03664546;-0.11608592;-0.18255857;-0.071504444;0.12715086;0.0061287144;0.2792631;-0.16712804;0.20323743;-0.11818497;0.04398166;0.060628794;-0.16851364;0.03505518;-0.15305246;0.14462379;0.017335562;0.02075482;-0.06813951;-0.035852198;-0.008109941;0.057037387;0.19878799;0.2863486;0.004924288;0.16206463;0.1483459;0.1284793;0.016741918;0.060929466;0.03562893;-0.13415675;0.033418674;-0.056193605;-0.010395246;0.09802501;0.08816678;0.029110054;0.17101616;-0.016279532;-0.031909067;-0.34388998;0.007529851;-0.027310366;-0.25184065;-0.0692609;-0.007858109;0.20553005;-0.20738421;-0.046120625;0.07171804;-0.07402986;0.17794484;0.261292;-0.1027735;-0.06884931;0.03100747;-0.04936352;0.21272187;-0.21659203;-0.3164469;0.0144187175;0.15374169;-0.08535261;0.1706644;-0.07617545;-0.036664985;0.04059904;0.043618597;0.016661298;0.027568737;-0.2708054;-0.17991476;-0.24268368;0.055176206;-0.14837998;0.08264566;0.1402755;-0.15570462;-0.35969114;-0.06692047;0.19269252;0.0031469604;0.07584676;-0.16964272;-0.27516368;0.16473763;-0.18038069;-0.21486667;0.24560337;-0.005556121;0.065136485;0.24443154;0.089451455;0.01704867;-0.30925128;0.015919939;-0.22832084;0.13471979;-0.035628468;-0.016623717;0.01756742;0.032179307;-0.01771258;0.077275604;-0.07108499;0.048040073;0.0106691215;-0.10446007;0.07478017;0.15795995;-0.035365943;-0.010714721;-0.016008595;-0.011879925;-0.08714028;0.026352653;-0.026182313;-0.026519692;0.08047623;0.29949352;-0.09268981;0.30484566;0.052236162;-0.11680602;-0.23871234;0.0880377;-0.031317912;0.02977654;-0.037718516;-0.028097393;0.01886805;-0.06834899;0.05508258;0.097198255;-0.085654356;-0.0914448;0.09710189;-0.25575706;0.041659262;0.033702012;0.05046936;-0.0300011;0.03346373;0.11282711;-0.49330568;0.103687994;-0.07130789;-0.048952673;0.103346206;0.22100653;-0.07870179;0.065421015;0.33265433;-0.057409156;0.029713174;-0.105889454;0.08205087;0.066793285;0.1812972;0.04936228;-0.1653217;-0.15447612;0.21087743;-0.05650295;0.034878656;-0.016516423;-0.20985493;0.00782882;0.09210514;0.061505713;0.10765223;-0.07217301;0.073058605;-0.067550115;-0.007256789;-0.068184264;0.03902634;-0.13209218;0.13968208;0.043507114;0.18392113;-0.03896427;0.024322899;0.052159205;0.0032611135;-0.03929379;0.026984058;-0.04426475;0.4556787;-0.24120806;0.041385792;-0.31543505;-0.014923192;-0.045739755;0.036096714;0.097765334;0.06543384;-0.034257732;0.36051565;-0.06573969;0.0627077;0.034052946;-0.07964544;0.11789838;-0.06785291;-0.30835286;-0.03714699;0.069711745;-0.2206353;-0.028516037;0.25409478;0.04639664;0.012939441;-0.05264479;-0.1024812;-0.048769053;0.041713864;0.021683725;0.10343628;0.184107;0.19439356;0.15148737;0.047182094;-0.0431955;-0.018105257;-0.035896715;-0.022328913;0.02629756;0.08650769;0.21795107;0.10575216;0.011954064;0.06863777;0.12396331;0.026418952;-0.04069657;0.23191711;-0.028421154;-0.15678208;0.09608519;0.07008623;-0.088505544;-0.0855806;0.013463501;0.023617376;-0.0829415;-0.06712424;0.031061701;-0.0069945417;-0.049489204;-0.03298313;-0.009472192;0.19673888;-0.112660125;-0.1342923;0.054055482;0.2186373;0.066041745;-0.2157346;0.3065228;0.08694829;-0.019943368;-0.039235726;0.099877;0.19860107;-0.024768917;-0.0048938426;-0.017234623;-0.26308274;-0.17092714;0.21407954;0.036254317;0.067323886;0.034570467;0.03564579;0.14104928;0.06797499;0.3994031;-0.36391607;0.09965998;-0.06334792;0.078185216;0.009071475;-0.12042386;0.11778778;-0.07917056;0.09064493;-0.16609193;-0.02043475;0.04754794;-0.1762512;-0.02001492;0.011094446;-0.0652022;0.17186658;0.18166615;0.003955958;0.062092297;0.0007368192;-0.32768187;-0.016012058;0.046889994;-0.15926708;0.20889977;-0.063717335;-0.20039454;0.04535726;0.063811064;0.38338143;-0.15840946;0.2916993;-0.057077494;0.31076518;0.038383022;-0.20055752;-0.06609722;-0.00955176;0.14392065;-0.38675672;-0.023560453;0.10881236;-0.25987837;-0.05019472;-0.37198168;0.031461198;-0.10362629;-0.078958705;0.038551454;0.21017754;-0.032217305;-0.010546336;0.1645777;0.05205478;0.061356004;0.052497678;0.034106176;-0.09094578;-0.0036079434;0.074744456;-0.15073118;-0.052837864;-0.10490899;0.3089887;0.10905631;-0.026775565;-0.00450073;-0.010539584;-0.023898143;-0.20666571;-0.05711152;-0.057393536;-0.042936664;0.013708716;-0.41031778;0.12687393;0.13143647;-0.04764514;0.12620716;0.060129754;-0.030040575;0.13588916;0.022226643;0.15029712;-0.04531449;-0.03413346;0.031169478;-0.14262433;0.025263768;0.17212272;0.18585607;0.25668007;-0.052227642;-0.00043822642;0.011623778;0.16520064;-0.08769755;0.01968204;-0.065429546;0.029585404;0.06686642;0.15571854;-0.03323291;-0.20250745;0.16586106;0.20667733;-0.16845667;-0.050840963;-0.06444599;0.048371013;0.117182024;-0.3941111;0.115904145;0.005241413;-0.012449205;0.117638476;0.3030537;0.011015906;0.18368068;0.011490464;0.04033176;0.036804695;-0.11804393;0.013580996;0.53518593;0.23688488;-0.09466343;-0.0519988;-0.11161845;-0.07649167;0.29576054;-0.086213894;0.11437988;0.22406071;0.14705218;-0.25599867;-0.019682337;0.08767296;0.30815426;0.03035437;0.021901704;0.044880494;0.15395716;-0.04601353;0.1995516;0.07038221;-0.018285425;0.0093115475;0.017675318
0.2573686;-0.027975308;-0.020788275;-0.0137923295;0.017361136;0.18454848;-0.073561035;-0.021219123;-0.26743415;-0.059801172;-0.4450022;-0.23084451;0.036148995;0.028029872;-0.020221926;0.06519889;-0.036517233;0.05348558;0.1214288;0.18062128;-0.07095299;-0.1556715;0.057919815;-0.050393153;-0.048264947;-0.07846221;0.011222223;-0.047033675;-0.04086289;0.058991868;0.14585868;0.28488848;0.04283859;0.047004253;-0.040557843;0.067053795;-0.03434552;-0.07178828;-0.20535372;0.16914696;-0.22478135;0.021884201;-0.122964926;-0.13355371;0.16808605;-0.057607915;-0.030192247;-0.024384918;0.0051561585;-0.2115767;-0.0628318;0.01542848;0.026622808;-0.27650052;0.104597285;-0.030574184;0.02559144;0.29996702;0.06493785;-0.052700102;0.007392306;0.083940014;-0.0011374358;-0.015715335;-0.047346164;0.13158046;0.024893029;0.03195927;-0.007926228;-0.027930621;-0.14703412;-0.04416912;0.024039509;0.054343626;0.03837736;0.049620803;0.1132082;0.2012557;0.031456053;0.19382462;-0.033637825;-0.08774197;-0.02961413;-0.09695643;0.31963703;0.10021994;0.015814625;0.15878691;0.039608125;0.057447843;0.013325413;-0.046514604;-0.10169805;0.02355351;-0.15969703;-0.091220275;-0.08656548;0.113154255;-0.05444549;0.21823137;0.44166997;0.16584252;0.09611707;-0.23383723;0.2773647;0.25869003;-0.020231849;0.44246837;-0.17029102;-0.07875395;0.15019983;-0.11049743;0.023874523;-0.24328502;0.08317246;-0.013026196;-0.053639546;-0.10197512;-0.17473684;0.027951548;0.03116694;-0.005210436;0.19581018;-0.110356115;-0.1322697;0.031551298;-0.005061052;-0.026013602;0.012540009;0.28299868;-0.08894258;-0.13388653;0.058963403;-0.0040191696;-0.08274463;-0.027757218;0.0356049;-0.039852664;0.014501972;0.23548451;-0.06579248;-0.26877257;-0.030714322;0.112207465;-0.32365274;-0.050990496;-0.18604733;-0.04369556;-0.1323573;-0.20496076;-0.03353398;0.033342868;0.106376745;0.13989058;-0.09464386;0.24214312;-0.12556495;0.074842736;0.047158383;-0.080663756;0.02927586;-0.2286057;0.1553025;0.041288804;-0.03513186;-0.021140916;-0.009272787;-0.007192037;0.03372152;0.32527956;0.15799251;0.010990183;0.22186503;0.13979422;0.21441376;0.041035347;-0.020367477;0.20084308;-0.010069644;-0.04882268;-0.055617757;-0.016527195;-0.0221026;0.087219074;0.069089554;0.18157637;-0.020552048;0.04307321;-0.30204996;0.00069396204;-0.16033958;-0.25371492;-0.21569288;0.059516188;0.109934285;-0.13621873;0.058696933;0.11846562;-0.16289806;0.24444035;0.23437521;-0.05657269;0.04920238;0.025732186;0.07904667;0.17232692;-0.13566737;-0.32561132;0.12092464;0.16370922;-0.10686134;0.11733754;0.0055525973;-0.04584042;-0.010415951;0.031058628;0.014217141;-0.084092565;-0.4078577;-0.10787623;-0.111573964;0.1825741;-0.06686917;0.050436985;0.22575651;-0.24834758;-0.42946684;-0.07218924;0.2395258;0.032358516;0.1569109;-0.16487595;-0.28636205;0.16460001;-0.20468158;-0.23424466;0.26199988;-0.03210531;0.16649707;0.34753564;-0.04106345;0.10820378;-0.1740966;-0.018592143;-0.18592279;0.1916254;0.12958254;0.090897486;-0.036776792;-0.1215124;0.12674183;-0.025081022;0.025611453;0.04931983;0.04953802;0.0065292325;0.09321995;0.09607535;0.05846804;-0.02381747;-0.1273107;0.029184658;-0.005066779;-0.006145173;0.023753284;0.08355541;-0.03359932;0.29755417;0.026827384;0.4090905;0.115876324;-0.2615712;-0.13903014;0.0996457;0.07451323;-0.021846287;-0.074071966;0.021873083;-0.046165492;0.07235653;0.018596863;0.13995773;-0.089866005;-0.0398589;0.22055164;-0.34471714;-0.06872092;-0.04878704;-0.05676822;-0.05305495;0.17232014;0.14754201;-0.4515744;0.1622047;-0.018057706;0.08149401;0.11558824;0.3174481;0.03663279;0.06590244;0.16439337;0.04745325;-0.0783085;-0.099425;0.1068441;0.15636568;0.11373392;-0.06604853;-0.09909659;-0.21748482;0.1275253;0.04514204;-0.037675437;-0.06441871;-0.25113252;0.011640916;0.042248912;-0.01606217;0.15114905;0.044636842;0.12294461;-0.18071713;0.07575723;0.03883175;-0.00845784;-0.14725977;0.022641938;-0.00024093507;0.19969441;-0.011073988;0.0050367624;-0.038678758;-0.012156022;0.08299358;0.06716682;0.013907019;0.4570877;-0.17473266;0.13546756;-0.27320042;0.003368878;0.0022629835;-0.020483617;0.18927793;0.08819367;0.020172013;0.44816223;-0.031180471;-0.039765842;0.013201052;-0.019951442;0.13264686;0.087136135;-0.24448805;-0.068242244;0.008939854;0.0030911413;0.060317192;0.2580922;0.05154805;0.028208014;-0.00491408;-0.028071852;-0.10727026;-0.080670655;-0.11319804;0.23294698;0.18723361;0.27171278;0.07754806;0.03989256;-0.07053392;0.04250722;-0.13651633;0.050938696;-0.038184825;0.14014846;0.2261353;0.13132282;0.038471337;0.16169173;-0.004192217;-0.048834383;-0.03517055;0.26535115;0.06258532;-0.10546989;0.06391147;0.13426356;-0.1321999;-0.16931958;-0.055625774;0.009485341;-0.048578154;-0.042097513;-0.16120358;-0.051940966;-0.004390174;-0.04883151;0.03375932;0.35026106;-0.10733967;-0.029467976;0.00940982;0.11442254;0.067541726;-0.23429437;0.431654;0.09923844;-0.015698213;-0.027077558;0.07987814;0.15225005;-0.019457784;-0.02020658;-0.08102153;-0.16417062;-0.13700657;0.2088531;-0.029446624;0.07070248;0.022762908;0.032665573;0.17434987;-0.1379037;0.44640562;-0.3602012;0.13917638;0.010066057;0.060023617;-0.039865598;-0.13821565;0.08200197;-0.23749815;0.06768103;-0.096390486;0.00059611996;-0.07297765;-0.038447462;0.0138184605;-0.024815254;-0.12566993;0.17580934;0.17313522;-0.021432696;0.0031803888;-0.029101998;-0.29909328;0.04927521;-0.047907397;-0.19189832;0.3102692;-0.03064836;-0.23898342;-0.004796695;-0.011844871;0.22948964;-0.24176168;0.31526604;-0.16931586;0.19996767;-0.013376337;-0.1053951;0.0349293;0.07795887;0.15620542;-0.30274713;0.05744088;-0.020460395;-0.18295108;-0.12541224;-0.23968035;0.0250974;-0.0654106;-0.0803877;0.10872011;0.26245052;-0.036920868;0.028559819;0.10067161;0.019342877;-0.076824;-0.02508115;-0.029202776;-0.10481063;-0.20074111;0.21302487;-0.039626166;-0.02889489;0.10295915;0.25804436;0.119591154;0.019084886;-0.09297067;0.06133717;-0.029520256;-0.14125551;0.037553;-0.04789526;-0.049482197;0.025342345;-0.34123194;0.0004009562;0.050246987;0.053174924;0.10754477;0.06562701;-0.060007542;0.043398846;-0.020869905;0.03380326;-0.12734777;0.046114273;-0.036661703;-0.12721705;-0.041770276;0.0038389878;0.23897348;0.18992898;0.06395298;-0.030798944;0.050285418;0.26681933;-0.017827956;-0.028105328;0.022498557;-0.008566252;0.02169436;0.16925217;-0.0632278;-0.119204745;0.15694326;0.10240291;-0.10878029;0.044389334;0.0037079323;-0.056996595;-0.007952555;-0.4674365;0.06598374;0.08916487;-0.00010078176;0.2171181;0.2641993;-0.025462402;0.12810501;0.05105811;0.055297207;-0.052025158;-0.11061004;0.044313744;0.42993516;0.30339953;-0.13791195;0.0057126083;-0.045002937;-0.05422756;0.30511725;0.03908424;0.11546815;0.12505661;0.23636138;-0.32506797;-0.050755177;0.14845558;0.33098778;0.061878394;0.04117739;-0.04300033;0.18829273;-0.12441504;0.18945518;0.082459845;-0.056995023;-0.009893992;0.12377979
0.33289182;0.095295385;-0.037199344;0.053965773;0.022458559;0.22349437;-0.19871171;-0.04971893;-0.13896146;-0.0071760607;-0.3571826;-0.08691888;-0.046319902;0.01162641;0.08383558;-0.038047686;-0.053944305;0.0021678964;0.122406915;0.18597318;0.014026087;-0.12301651;0.13260813;-0.073399;0.004369257;-0.17523557;0.078991205;-0.023171304;-0.05223058;0.03652829;0.08775217;0.28352812;0.020557465;0.036793098;0.06205495;-0.0031942222;-0.009095355;-0.039787177;-0.23139758;0.03442637;-0.28544396;0.038614504;-0.08728525;-0.15664214;0.048276026;-0.079019226;-0.060612585;0.08220287;0.021576222;-0.2147765;0.028893065;0.056449026;-0.023667512;-0.37738442;0.14339787;0.07149041;0.18464915;0.23017769;0.03143873;-0.06248262;0.043613803;0.09882507;-0.055173665;-0.06492836;-0.0472139;0.08250201;-0.050254513;0.11006008;-0.05148569;0.04216389;-0.09334399;-0.02210193;-0.020667596;0.06714822;-0.007277411;0.056391224;0.12388986;0.111683175;0.051442456;0.25996038;-0.019160049;-0.18748668;-0.007491324;-0.097240075;0.37459567;0.062247723;-0.05616886;0.19797638;-0.02355941;-0.028550355;-0.0070336703;-0.043521423;-0.1167894;0.029083472;-0.16782203;-0.10315123;-0.08607971;0.07822874;-0.07178016;0.056105338;0.43438727;0.20167698;0.13740285;-0.32230648;0.24364752;0.40944695;-0.11122818;0.43152168;-0.14002591;-0.1750868;-0.0095324665;-0.12601572;-0.056422044;-0.28858057;0.06722949;0.003125685;-0.02749989;-0.13751036;-0.19994424;0.03140736;0.04797474;0.028202249;0.14702323;-0.123942375;-0.23245092;0.13198566;-0.026898086;-0.11083253;0.059754282;0.27327058;-0.22181898;-0.07748047;0.09535036;0.016743416;-0.089331865;-0.04945561;-0.04287142;-0.06757731;0.014277311;0.22499327;0.036811456;-0.1601212;-0.03708757;0.03310568;-0.4125185;0.0060659014;-0.11132103;0.05433799;0.0074677244;-0.1818896;0.059542805;0.15522505;0.090689115;0.122592315;-0.064554356;0.25694668;-0.09784126;0.05164467;-0.019503845;-0.14610715;-0.063197866;-0.20237227;-0.016113823;-0.05283359;-0.043816593;-0.08012351;-0.03927967;0.048006702;-0.041545868;0.33224112;0.3030404;0.01324068;0.16849202;0.16316883;0.23689169;0.08842016;-0.06690419;0.14227943;-0.0032893592;-0.0024337624;0.0452947;-0.06725411;0.14484952;0.14854933;-0.011518251;0.18227597;0.030682864;-0.054790102;-0.47491926;-0.07363521;-0.13898335;-0.13966247;-0.21032454;-0.059736107;0.07089333;-0.17902057;-0.029316407;0.08698631;-0.17607488;0.1522818;0.14385273;0.030893287;0.1105661;-0.11050511;0.059108518;0.07837694;-0.21894166;-0.50903285;0.0495973;0.11150539;-0.06605583;0.14204511;0.018478181;0.013541815;-0.03493915;-0.077295825;0.10610656;-0.106898256;-0.4275215;-0.21307676;-0.17700371;0.13239624;-0.04254157;-0.046432827;0.2329918;-0.1487955;-0.38675457;0.024242792;0.28915644;-0.061298717;0.018712655;-0.17909563;-0.14969873;0.16748491;-0.09447849;-0.062071286;0.19860952;0.03663447;0.10506745;0.29989213;0.06671456;0.05357758;-0.23617233;0.045083374;-0.26588878;0.28298584;0.0995381;0.06828287;-0.0113893645;-0.015238098;0.12310262;-0.028576098;-0.027942223;-0.0437156;-0.045782093;-0.10756444;0.12783918;0.14220951;0.09770279;0.08662405;-0.07178422;-0.080842584;0.0009910824;-0.052518416;0.031325966;-0.008509608;0.0034591132;0.3349001;0.011701794;0.34200558;0.11859426;-0.15087357;-0.11384533;0.018512497;-0.05598079;-0.0026271944;0.009473892;-0.02084747;0.04313531;-0.030676946;-0.02033372;0.027608175;-0.037572525;-0.14303999;0.19337246;-0.30541724;-0.07854164;-0.0014354635;-0.03747098;0.08166006;0.17637163;0.14872053;-0.43853426;0.14419988;0.02727966;0.036763165;-0.01194522;0.35808805;-0.07301218;-0.061605666;0.29501885;0.0034362366;-0.0044689425;0.024221705;-0.0072534014;0.14067864;0.14949808;-0.058286887;-0.13709162;-0.06497619;0.08700285;-0.056263328;0.06393077;0.056744266;-0.23803626;-0.004315016;-0.09742593;-0.0024098232;0.051550575;-0.0010950832;0.03754601;-0.14004688;0.13196708;0.04000668;0.053249147;-0.13946754;0.05988549;-0.044519186;0.1645321;-0.036011398;-0.003747993;-0.038443606;-0.06932811;-0.034179166;-0.020172969;-0.013139831;0.4641861;-0.061708465;0.13776264;-0.36565745;0.06752097;-0.12387527;0.05510171;0.027088583;0.1525491;0.018730411;0.4123355;-0.03391083;-0.17862573;-0.048406802;-0.050742667;0.15210073;0.02111404;-0.29470634;0.039170712;0.056591548;-0.1322217;0.05187572;0.3431427;0.08718482;-0.03792701;0.0779719;-0.023018131;-0.06339567;-0.01687631;0.007085304;0.14922751;0.23457024;0.18197866;0.11501823;-0.023268469;0.034435764;0.007659753;-0.09707873;0.022046339;0.0063574226;0.08476574;0.20125642;0.3486046;0.035874058;0.21473272;0.019195504;0.049569923;0.02880612;0.27713764;0.16391644;-0.11445351;0.10724356;0.19230324;0.030510783;-0.035181876;0.05541675;-0.025161278;-0.117419735;0.12058051;-0.065555304;0.013508353;0.02961065;0.009924851;0.059028327;0.33465075;-0.15773278;-0.09074967;0.04081599;0.06367935;-0.047560006;-0.18629996;0.43876114;0.07349649;-0.009591798;-0.012883112;0.12477864;0.01923662;0.012401436;0.1034463;-0.03357177;-0.2611057;-0.025943702;0.19307603;0.11580341;0.061838567;0.106328584;-0.042867374;0.17308715;-0.01765934;0.5089341;-0.49100158;0.053341538;0.036376853;0.06317099;-0.13767055;-0.06414015;-0.08005358;-0.118284866;0.18663657;-0.13512975;-0.025687326;-0.074541464;-0.10496151;-0.03521373;0.03975364;-0.044977;0.05108404;0.11363663;-0.19222035;-0.04833058;0.022228532;-0.1881367;0.026304884;0.030895893;-0.097375035;0.28255448;-0.010232129;-0.17688921;-0.0041130567;-0.03527676;0.20972157;-0.18758902;0.27021194;-0.09457692;0.20376113;-0.017345766;-0.10456294;0.01091787;-0.052109197;0.085356295;-0.32784805;0.026048573;-0.0058183;-0.0273353;-0.016432831;-0.20128885;0.019679718;-0.03074749;-0.0537403;0.07257652;0.3261739;-0.053796962;-0.04381105;0.08670013;-0.052432116;0.0029346882;-0.04204504;-0.016981233;-0.1225288;-0.10755936;0.26794687;-0.17838106;-0.07156326;0.058173705;0.15216893;0.14450252;0.023576763;-0.11777767;-0.05664617;0.01523733;-0.34311238;0.0057821563;0.029094627;0.070054956;-0.02689095;-0.2832723;0.17418784;-0.11037888;0.032036617;0.17306314;-0.005709605;-0.068943806;-0.0049233157;0.15865278;-0.015079616;0.026089543;0.006913302;0.0045542005;-0.2230064;0.048554346;0.011054827;0.26724753;0.12850088;-0.040895037;0.06382049;-0.07138569;0.42372328;-0.026958553;-0.025367104;-0.06374779;-0.07237853;0.030320767;0.117457554;0.014326763;-0.17152001;0.082694255;0.19997893;-0.0467952;-0.018111669;0.04620863;0.03868286;0.03176363;-0.45107594;0.08269596;0.03882795;0.02897265;0.13297132;0.21062946;-0.031792462;0.18130335;0.082339026;-0.028796937;-0.048821963;-0.22898053;-0.054108355;0.40435842;0.3571625;0.0029532497;0.07072115;-0.16127121;-0.027595744;0.2560244;-0.042092938;0.06760839;0.18131037;0.18218805;-0.22401981;-0.019898677;0.1183981;0.33784634;0.18276897;-0.052434664;-0.030039148;0.22615053;-0.0708141;0.12707655;0.15009159;-0.03603441;-0.008174241;0.09737544
0.35989502;-0.08145377;-0.027086493;-0.0069638384;0.018987186;0.21941724;-0.28020772;-0.037561286;-0.19337772;-0.011274336;-0.3664912;-0.28950843;0.013018319;-0.07125765;0.086352564;-0.058216386;0.043540508;0.09270431;-0.044542614;0.14676943;0.02093232;-0.28943586;0.00075028674;0.0125477165;-0.03767299;-0.10590447;-0.03677722;-0.08592301;-0.027525192;0.04237916;0.13008028;0.32883283;0.051512193;-0.01900645;0.032000363;0.018406026;-0.014467947;0.097431526;-0.21827763;0.1364799;-0.06178998;0.022273721;-0.16517639;0.0032712698;0.122372925;-0.032964535;0.006810288;-0.06249654;-0.031763814;-0.21714413;-0.036297362;0.034031734;0.00570913;-0.40875244;0.32557824;0.008336194;0.09856363;0.32261086;0.012168636;-0.03932101;-0.05903636;0.07002253;0.061886013;-0.06491911;-0.21359585;0.06650221;0.064812765;0.06593292;0.08009794;-0.077972695;0.006418273;0.0430897;0.039297897;-0.043403905;-0.023242855;0.00013962461;0.30916464;0.06337258;0.0052246326;0.16861504;0.034484424;-0.19186112;0.0532;-0.09359847;0.2616739;0.08779447;0.06014491;0.15064673;-0.07590267;-0.01968379;-0.06312657;0.025106924;-0.0371785;-0.06494457;-0.1222319;-0.2203283;-0.028126972;-0.099435985;-0.057962757;0.08404866;0.50682837;0.28625298;0.06686496;-0.314761;0.24937825;0.28550833;-0.0032459653;0.48955396;-0.2026834;-0.10895559;0.11209973;0.0033380266;-0.0026890773;-0.16962175;0.09931311;-0.038703397;0.005874261;-0.11067867;-0.14746803;0.008219362;0.024209682;0.16084088;0.17387141;-0.017902656;-0.12157625;0.07665802;-0.060424022;-0.02881075;0.1503936;0.25008196;-0.25700837;-0.16401723;0.1436064;-0.018209048;-0.16553831;-0.00040696686;-0.090122946;-1.3053259e-05;0.09183545;0.19869834;0.024293466;-0.20405243;0.0145942215;0.025399858;-0.3811418;0.04068611;-0.16661273;-0.030856416;0.022423951;-0.09586292;-0.0128474245;0.22599052;0.1325688;0.215588;0.025527703;0.25326437;-0.14230163;-0.04419328;0.027974907;-0.1547733;-0.016650531;-0.25679672;0.047200933;-0.016866626;-0.037769448;-0.08716485;0.0682184;0.05026874;0.08979445;0.20331295;0.25598893;-0.05287764;0.17663221;0.07296873;0.14404453;0.01580722;-0.04852771;0.23793751;0.03386926;-0.040135078;0.0513644;-0.029655688;-0.020392306;0.021555943;-0.06793256;0.16520847;0.03634806;-0.10501886;-0.47590694;0.061328072;-0.18456239;-0.26484007;-0.09433361;-0.058868494;0.062066738;-0.18315968;-0.101239756;0.14223155;-0.03782604;0.07495793;0.15881105;-0.075625524;0.17426734;-0.11738731;0.01644637;0.0962006;-0.19186223;-0.5556204;0.05663247;0.22125608;-0.04384122;0.16673753;-0.07177313;-0.03785654;0.057614014;0.013476267;0.21108386;0.021415133;-0.55168164;-0.2127735;-0.12870905;0.22431324;-0.0043302346;-0.0023916524;0.16767485;-0.28005403;-0.3605196;0.04430094;0.20981309;0.040326335;0.050377846;-0.0466415;-0.20774582;0.083683826;-0.19244112;-0.17258371;0.18810454;0.011616759;0.062247943;0.17264745;-0.045505114;0.037551284;-0.12591414;-0.0037307886;-0.33858243;0.18708043;-0.03497844;0.07333689;0.04449619;-0.0780782;0.012861862;0.027298506;0.07913779;-0.100288056;0.013405829;-0.11236764;0.17344245;0.1312048;0.0030791503;-0.043573175;-0.13517211;-0.021360597;-0.00748612;-0.034054406;0.030203767;-0.012775193;-0.028869236;0.14809781;-0.040217083;0.36683562;0.037486304;-0.19210395;-0.011472;0.12998037;-0.047350183;-0.0030160802;0.012233689;-0.046240903;-0.01169244;-0.032681927;-0.005779064;0.14386871;-0.1361069;0.035530735;0.20242319;-0.1642539;0.043613747;0.016259829;0.0018070898;0.095379986;0.29097003;0.06188746;-0.3468608;0.025310768;-0.014113182;-0.025449976;-0.050613217;0.23285042;0.0030061896;0.04628558;0.25623438;-0.008767118;-0.013455216;-0.052749783;-0.039178837;0.018608315;0.1382071;-0.010251309;-0.107523926;-0.07411316;0.17398287;0.020643799;-0.14382535;-0.0343091;-0.09662809;-0.085738845;-0.11098493;0.024600478;0.13452359;-0.0573399;0.018814372;-0.19979025;-0.004040882;0.028141916;-0.033769168;-0.062634416;0.09399194;0.06716001;0.17308548;0.07765074;0.04646596;-0.03490098;0.049950775;-0.02399778;0.087249495;0.000990895;0.3384358;-0.084392905;0.10391035;-0.17707871;-0.049610693;-0.13594389;-0.042192582;0.08006768;0.071644194;0.06684049;0.3969711;0.008859681;-0.1279927;0.0530701;0.05474045;0.15919283;-0.018292062;-0.1330305;-0.040019445;-0.022157377;0.058817796;-0.049445365;0.40790763;0.15994534;-0.085508555;0.07778664;0.058515463;-0.0055963653;-0.048204426;-0.05891129;0.18029301;0.127915;0.2703304;-0.021823896;-0.021115685;0.046889126;-0.00027802822;-0.1574751;0.10208492;0.013319632;0.186039;0.15323271;0.2951888;0.21753058;0.25753516;0.037499756;0.11207903;0.005979507;0.21749857;0.16971737;-0.14578684;-0.019582339;0.24974835;0.017431268;-0.08248899;-0.02531335;-0.056252606;-0.21369897;0.14431155;-0.10968844;0.021002762;0.04510278;0.06676822;0.005725826;0.40226826;-0.11398864;-0.07568443;-0.07328514;0.12310028;0.022352656;-0.17183295;0.3651577;0.12837274;-0.025464153;-0.018667903;0.083948955;-0.013437745;0.0074811643;0.0995681;-0.15745096;-0.31513745;0.024534553;0.24550945;0.019599495;0.081802584;-0.004983425;0.03695181;0.13320176;-0.13183174;0.44157708;-0.49510324;0.07646653;0.19766791;-0.00013206044;-0.091346286;-0.046700723;-0.058190756;-0.011399332;0.1014206;-0.15541907;-0.0057292776;0.007319625;-0.048907045;-0.036613524;0.008361847;-0.15227792;-0.043904733;-0.0021362172;-0.22503583;-0.052315738;-0.0056117326;-0.21751842;0.0020941484;0.050028898;-0.14603944;0.22600797;0.031337924;-0.19274458;-0.010242735;-0.0027818752;0.20747657;-0.17301753;0.24285789;-0.078562275;0.14048357;0.01285819;-0.148203;-0.069852956;0.08608251;0.04847361;-0.2518131;-0.074525304;-0.06689277;-0.0461688;-0.019362003;-0.32982776;-0.044092987;0.109875426;-0.01696765;0.020007664;0.2780373;0.018842777;0.01871633;-0.031743936;-0.00880198;-0.025711194;-0.028012123;0.038215756;-0.045612007;-0.18664248;0.25445879;-0.14586514;-0.18404654;0.053744398;0.2039615;0.03155552;0.02295087;-0.23577146;0.05048806;0.03540069;-0.3357008;-0.078082696;-0.05975521;-0.062710404;0.069396794;-0.28451845;0.19826563;-0.12943515;-0.057287686;0.1292034;-0.080045305;0.01817982;-0.021853704;0.05280331;0.02291389;0.040584896;0.027311249;0.07097092;-0.19729388;-0.0047981753;-0.066417344;0.32899046;0.17045261;-0.028713679;-0.06192779;0.026203245;0.3690514;-0.09955536;0.016983364;0.084560685;0.08664943;0.10171123;0.11571256;0.064639926;-0.1122153;0.01296552;0.18383753;-0.056547914;0.007553066;-0.04314456;-0.060913466;0.17880991;-0.44618893;0.29455137;-0.010478103;0.03719537;0.18185072;0.14432181;-0.16484751;0.0870294;-0.02909626;-0.02990487;-0.0465311;-0.2084149;0.046110343;0.507392;0.34273848;-0.015305507;0.03003458;-0.16141202;-0.029485377;0.21259595;-0.050256252;-0.0010539665;0.079958074;0.11758914;-0.256831;0.026262065;0.066148505;0.34224316;0.16614626;0.0003182026;0.0830773;0.26660037;-0.078494005;0.19036148;0.25166774;-0.060729794;0.026483843;0.0744114
0.40683118;0.003478388;-0.046767022;0.038683966;-0.011086335;0.21627447;-0.2118386;0.06407234;-0.26910847;0.06518999;-0.39859423;-0.18121062;-0.02974847;-0.061803102;0.069725245;-0.073570624;0.030119361;0.10248792;-0.07302142;0.013559807;-0.06783783;-0.30089295;0.07425913;0.05713529;0.06863571;-0.27951223;-0.018818827;0.065100096;0.06002767;-0.0147586735;0.099459834;0.23189367;0.048180297;0.039601866;0.0004212739;-0.05116451;-0.043813776;0.06448293;-0.22412755;0.07152407;-0.083574764;-0.08480161;-0.123497;0.027534548;-0.052907877;-0.045414295;0.013790136;-0.021292817;0.0179612;-0.27544677;0.09468529;0.15198515;-0.031771626;-0.36465612;0.19237366;-0.040712565;0.20100428;0.34145856;-0.0026071328;0.02131269;0.036810044;0.0675081;0.04049944;0.004234355;-0.23001397;0.14510214;-0.028705293;-0.030815559;0.0052856915;-0.09399008;0.08398897;0.056658197;0.01760599;0.01630467;-0.032202575;0.013075303;0.33507904;0.1560582;-0.009110758;0.081576824;0.004788383;-0.17041686;-0.04957227;-0.038522717;0.34577554;0.109382264;-0.02996743;0.19963731;-0.015036371;0.010986115;-0.0027440127;-0.026941374;-0.038697977;-0.04044503;-0.088928774;-0.18735175;-0.04709739;-0.03366679;-0.008946381;0.09504526;0.53320366;0.24122274;-0.054560803;-0.22490408;0.36338374;0.3917494;-0.049970612;0.39071712;-0.192079;-0.023083122;0.158113;-0.042423815;0.025926888;-0.2836446;0.033172954;0.007644947;0.020982273;0.0226988;-0.14043729;0.044942997;0.1156006;0.09200134;0.14312488;-0.14085494;-0.13192192;0.10037516;-0.0022947004;-0.010578357;0.13785422;0.22714965;-0.24169144;-0.13512723;0.030779334;0.027065964;-0.3380189;0.05986784;-0.014773306;-0.02618958;0.10197707;0.1531975;0.03295284;-0.20353644;0.04943314;0.16791448;-0.46748778;-0.04993097;-0.14428803;0.052060917;-0.11019455;-0.05483263;0.06541021;0.24995975;0.17955782;0.1977516;0.11939891;0.23162894;-0.10324766;0.09926565;-0.024701696;-0.2446775;0.026559135;-0.3004127;-0.06730372;0.013684158;-0.016191497;-0.036634207;-0.038046043;0.00773825;-0.107473604;0.099948175;0.15296835;-0.044920284;0.29103187;0.11223698;0.09767695;-0.030125245;0.037437104;0.2187004;-0.104352474;0.035110567;0.048936993;-0.046152942;0.032324713;0.022574797;0.052249126;0.2289198;-0.024258126;-0.016183684;-0.28158304;-0.045570016;-0.17323601;-0.22987102;-0.14638433;-0.037350174;0.012553758;-0.20557451;-0.16776395;0.014209846;-0.033846684;0.13640696;0.123571746;-0.028838012;0.19083625;-0.10598091;0.059742745;0.17327915;-0.19040853;-0.58191997;-0.04228904;0.25039315;-0.1074082;0.21876231;0.05861789;-0.005052367;0.018981036;0.05080153;0.2188773;-0.016724812;-0.46436486;-0.2263373;0.020830126;0.16331007;-0.08566643;0.035513766;0.15793352;-0.26848015;-0.28652155;0.042942133;0.2586131;-0.015535177;0.025777988;0.00046002428;-0.2952563;0.046776667;-0.118281364;-0.1581756;0.19234072;-0.034150872;0.037717696;0.2762324;0.057757758;0.16921535;-0.09934172;-0.06094167;-0.25854093;0.30413616;-0.019286493;-0.056878872;0.031412512;-0.024418622;-0.010313092;-0.04912957;-0.025877865;-0.19224617;-0.012137361;-0.02628895;0.19420052;0.12661658;-0.012958308;-0.04150871;-0.017539335;0.00072115497;0.070133455;-0.069086835;0.0167587;-0.0149531355;-0.0654885;0.18663481;-0.02321943;0.30755433;0.0077882106;-0.16594994;-0.081055075;0.12616485;-0.06062025;-0.023142777;-0.022349231;-0.016335996;-0.035042077;-0.06093065;-0.035081174;-0.009561062;-0.11135962;0.021923253;0.16140424;-0.20642647;0.041120052;-0.059989616;-0.028561808;0.059942294;0.24334492;0.08899913;-0.39131165;0.108103454;-0.03845621;-0.10072311;0.08019747;0.22057968;0.070418164;0.011206057;0.23308808;-0.06196949;-0.040800247;-0.017613234;0.05349882;0.028271943;0.02834822;-0.021063784;-0.10317717;0.07076158;0.24375573;-0.06841948;-0.15318651;0.010502424;-0.16387507;-0.06662709;-0.12200132;-0.054250643;0.07200487;0.029557;0.117670536;-0.24390799;0.025384577;0.027901543;0.01951222;0.020755725;0.13040803;-0.096125156;0.02196917;-0.049701314;-0.05492679;0.04222399;0.057757344;-0.021017084;0.11665541;0.0031189425;0.36210242;-0.20720692;0.12221271;-0.21165927;0.060362704;-0.11356168;-0.08078944;0.08818102;0.024918044;0.091892816;0.3284287;-0.053201474;-0.11139148;-0.043966852;0.02345304;0.11605307;0.072728746;-0.17726672;0.07207027;-0.17601457;-0.05728855;-0.02523897;0.3414468;0.035959687;0.03978729;-0.045648996;0.1781567;0.014543248;-0.11100527;-0.0065756417;0.14346653;0.14569701;0.1381076;0.036737747;-0.03214906;0.0726123;0.03818649;-0.083516315;0.06368754;-0.026985034;0.16552451;0.25171435;0.30601865;0.17209725;0.3076743;0.041677836;0.0033927516;-0.048430968;0.14383902;0.25301173;-0.097421154;0.08504773;0.2556045;-0.018005027;-0.18322147;-0.010352837;-0.006457842;-0.30051622;0.12289873;0.04963849;-0.0044638324;-0.059201084;0.046106175;-0.0737112;0.4623568;-0.12048747;-0.051575284;-0.077870145;0.1721289;-0.050153926;-0.19776288;0.33007362;0.038917124;0.05971249;-0.05506038;0.048694227;-0.015157543;-0.0016721993;0.057802614;-0.26092783;-0.31046304;-0.025771732;0.057104353;0.04213569;0.040172715;-0.02066127;-0.019237608;0.117402926;-0.1400073;0.36994126;-0.45743412;0.15576115;0.009423105;0.031852674;-0.031762507;-0.025075715;0.091715865;-0.07646674;0.2511931;-0.29925653;0.012642032;0.04915369;-0.07160464;-0.022010097;-0.0070487247;-0.10050826;-0.097508304;0.029612951;-0.05034653;0.057588175;-0.008923274;-0.18394248;0.07717885;-0.026894107;-0.12582135;0.16796084;-0.08214758;-0.18628556;-0.033164833;0.053272165;0.21085061;-0.15766193;0.17709766;-0.14426266;0.1025291;-0.039153226;-0.23552729;0.015910633;-0.06478361;0.031907298;-0.20130113;0.048053734;-0.029942658;0.040057678;-0.043767694;-0.2678526;-0.038533982;0.08211553;-0.014334985;0.11105422;0.35236013;0.109630145;-0.02420249;0.00038376905;-0.045195706;-0.027029179;-0.07387109;0.061311316;0.06466254;-0.20560095;0.2573239;-0.12829383;-0.12351758;0.0626129;0.24105187;0.055113457;0.04700874;-0.2397623;-0.03071657;0.059263792;-0.3357123;-0.20260853;-0.03800336;-0.0050372886;-0.05250327;-0.3610229;0.18904677;-0.1255383;-0.046971478;0.16142747;-0.021210134;0.04087469;-0.07041323;0.045032788;-0.075716235;0.08913163;-0.0123605095;-0.029891485;-0.3042683;-0.05899036;-0.054892488;0.25691524;0.08520251;0.023909895;0.08650565;0.021044841;0.4292664;0.062281165;0.05207553;0.007622122;0.09287989;-0.02387724;0.005292081;-0.037583865;-0.07766632;0.002220724;0.12708516;-0.14295526;0.08474374;-0.003202966;-0.0323049;0.15999721;-0.40493825;0.25027862;0.14578253;-0.05778331;0.11518726;0.09945747;-0.18860331;0.089948185;0.103981525;0.05616943;0.09278795;-0.22476332;-0.0024999527;0.5123413;0.3571187;-0.048172235;-0.0578674;-0.13779305;-0.07152771;0.23906569;-0.11021964;0.16576144;0.13904415;0.15863004;-0.15218394;0.06812544;-0.066910334;0.24002488;0.16372952;-0.076270774;0.035966486;0.27006185;-0.07100424;0.14814614;0.22776967;0.0012498838;0.07366701;0.00041255332
0.23412775;0.07998223;-0.027974641;0.21168475;0.028471483;0.31713465;-0.2743983;0.019075211;-0.17860048;0.04589893;-0.45085138;-0.29496154;0.09393361;0.07262077;0.06001398;-0.044687316;-0.016668841;0.09049798;-0.02813953;0.06870436;-0.062430225;-0.4062417;0.06215839;0.009774002;0.01586766;-0.15794793;0.07323565;-0.053146176;0.11514156;-0.0058545345;0.10863862;0.3006637;0.0822495;0.0066453614;0.026452098;-0.062096227;0.03067516;0.11532556;-0.12379292;-0.06332732;-0.059282497;0.061147872;0.044219647;-0.028016783;-0.0063019074;-0.048754912;-0.09319422;0.058901727;0.07489053;-0.17614241;0.01538643;0.06413344;-0.015200824;-0.41742852;0.25960046;0.027731279;0.079316884;0.38278756;0.06035164;-0.013756831;-0.03271162;0.054030992;-0.017396409;0.08622926;-0.15688762;0.12312774;0.053882822;0.07751824;0.0340123;-0.024111891;0.056900334;-0.0710451;0.15464477;0.08150186;0.05137599;-0.096007556;0.21096785;0.075139225;-0.041469507;-0.13485579;-0.00168895;-0.10002379;0.029501427;-0.19541724;0.24180856;0.037773658;-0.026246598;0.21296173;0.027146239;-0.04926893;0.06632495;0.07818088;0.031896003;-0.06642784;-0.09929893;-0.12548576;-0.007282906;-0.06810511;-0.04412239;0.025528537;0.5209382;0.27409393;-0.03152188;-0.11613583;0.26918182;0.28544053;-0.046805438;0.39601535;-0.21908507;-0.015919942;0.1318111;-0.03559489;0.032026395;-0.27029222;0.10847326;-0.0032032365;0.009613471;-0.10864694;-0.08312939;0.028214198;0.054505873;0.030916844;0.18801685;-0.17713782;-0.24237584;-0.0048705367;-0.05107093;-0.022198988;0.11537034;0.21220641;-0.286165;-0.07079863;0.056246083;0.037301537;-0.3700523;-0.007030403;-0.09009941;-0.082399555;0.09840245;0.23409708;0.03628035;-0.12681913;0.0097126225;0.079889864;-0.4819722;-0.04564083;-0.07611839;0.0586851;-0.15767966;-0.19296272;0.057645258;0.14543986;-0.0033411672;0.12871958;0.25513253;0.22618838;-0.20730942;-0.00020206122;-0.056392923;-0.19740497;0.024057226;-0.20492783;-0.025260292;-0.019599091;-0.038139816;-0.060192965;0.074456744;-0.04056703;-0.058706954;0.19947237;0.23839697;0.05546151;0.26275015;0.0751318;0.2032486;0.011023998;0.029424503;0.16648479;-0.102441944;0.047498632;-0.057747126;0.03082796;0.11864528;0.022229077;0.041574996;0.28033018;0.054893147;-0.051269546;-0.28787372;0.06571737;-0.06508894;-0.23828721;-0.058222927;0.043684848;-0.019787962;-0.16859862;-0.13743499;0.12979072;0.080747165;0.18061115;0.10396029;-0.0072358376;0.2331068;-0.1491043;0.12192609;0.1074651;-0.08130001;-0.52133286;-0.07585302;0.1636381;-0.020054996;0.17502907;-0.054636654;0.04920865;-0.026989318;-0.06777045;0.128893;0.08338055;-0.4397605;-0.18947066;-0.05090198;0.13175267;-0.03804004;-0.054744072;0.23429038;-0.30553243;-0.1637334;-0.048559353;0.08644127;-0.025591472;0.033033043;0.081805505;-0.29337746;0.16317175;-0.04947965;-0.2812993;0.090999074;-0.04368581;-0.073727556;0.123593494;0.05828408;0.15776256;-0.11408557;0.017834952;-0.18659547;0.22635724;0.0021596951;-0.075677626;0.012939733;-0.023202261;-0.04151181;-0.026858095;0.018274952;-0.1584337;0.05674652;0.0023277716;0.23892333;0.26507708;-0.02310606;0.002273741;-0.11798104;-0.06307373;-0.02065994;0.04012782;-0.044994313;0.038544126;-0.094083674;0.10636087;0.043753896;0.28099793;0.03759452;-0.26142657;0.08632986;0.14918628;0.0108476365;0.05787361;-0.15941817;0.07179082;0.06540706;0.024277586;-0.014900276;-0.011977392;-0.13080078;-0.032693565;0.06865643;-0.17120078;-0.033518072;-0.107813895;-0.028790297;0.029331908;0.28985068;0.18461987;-0.24759741;0.06573807;0.0017725965;-0.0010225383;0.025932906;0.20220503;-0.013800694;-0.0118235545;0.24217826;-0.02409359;-0.011515387;-0.10655027;-0.034481116;-0.11503516;0.07016372;-0.036704417;-0.033249024;-0.023483235;0.3321757;0.044285275;-0.026004203;0.014880357;-0.09480183;-0.10868752;-0.10677104;-0.052766334;-0.024692817;-0.02799688;0.12853415;-0.1507838;0.0115295965;-0.038027283;0.0035417257;-0.034053292;0.12048249;0.014685479;0.040525705;-0.050057363;-0.014671138;-0.003767465;-0.02160937;-0.045526836;0.16558683;0.03755456;0.399889;-0.2076029;-0.035398666;-0.04348741;-0.050290417;-0.008265345;-0.037709564;0.09886169;0.085863404;0.11529132;0.27042615;-0.060486946;-0.09355091;-0.0074320235;-0.073294535;0.19084762;0.07808113;-0.1923339;-0.026637506;-0.08995057;0.025844723;0.0679502;0.3940992;0.012089172;0.02035977;0.0138788065;0.106665626;-0.061595876;-0.06567485;0.124318935;0.22733937;0.14300166;0.061176106;0.15340258;-0.04111436;-0.0673053;-0.018778408;-0.09759075;-0.03322023;0.050694324;0.22172563;0.08961476;0.20425646;0.11454192;0.3712452;-0.06908916;-0.024516216;0.08024319;0.26710084;0.22176977;-0.08458758;0.005744894;0.276147;0.10705392;-0.14618996;-0.029766914;0.011588661;-0.34687242;0.17787513;-0.060964618;-0.043453407;0.07556035;-0.058903106;-0.075376995;0.45399654;-0.03902875;-0.18642247;0.055164423;0.022395631;-0.00665748;-0.031770393;0.31607294;0.03865467;-0.014122002;-0.19670579;0.13076477;-0.084887885;-0.04271336;0.084072776;-0.35437015;-0.2825873;-0.09656888;0.09576008;0.15697739;-0.025101025;-0.08054634;-0.044225954;-0.024491098;-0.07374226;0.21270911;-0.44828132;0.22670457;0.073924676;-0.021402009;-0.01800786;-0.0057394677;0.09605291;0.09166655;0.12185193;-0.2502324;-0.0033313048;0.003395091;-0.04434095;0.00097284914;-0.004959588;0.028361095;-0.121091;0.11716179;-0.121195674;-0.07020549;0.09278368;-0.12060815;-0.00021128781;-0.039748732;-0.12591365;0.12517248;0.07243623;-0.15530978;-0.032402817;-0.06801326;0.15588692;-0.017643617;0.20517342;-0.24979681;0.0045326883;-0.019067416;-0.39557767;0.00061075477;-0.06467263;0.0597791;-0.060213786;0.07235134;-0.031140832;0.07916674;-0.073834956;-0.25556916;-0.005574072;0.035031833;-0.14581478;0.054214012;0.28369355;0.0959856;-0.043922987;0.005255393;0.008789671;0.07368084;-0.08510897;-0.05802801;0.12910178;-0.12518845;0.3022033;-0.2797561;-0.07262855;-0.07950712;0.069418564;0.008037142;-0.039661363;-0.14149511;0.027495569;-0.07489608;-0.41522604;-0.20290592;-0.09583626;-0.118596695;0.073717415;-0.31383288;0.30207607;-0.1312339;0.014473177;0.22777465;0.026331538;-0.06881378;-0.07060488;0.10347879;-0.08192821;0.112916745;-0.03574494;0.011607184;-0.29444572;0.039625213;0.012808997;0.25102246;0.06861728;-0.033785928;0.06861758;-0.05965822;0.30901906;0.08459265;0.05874878;-0.058862444;0.10819692;0.03457704;0.085299514;0.023785708;-0.10280632;0.0151546765;0.11923979;0.0012132376;0.06970826;0.027456326;0.08447696;0.19683002;-0.42470515;0.2521517;0.101757385;-0.058919284;0.06678137;0.11337179;-0.12436992;0.00018479237;-0.10077845;-0.03257851;-0.036705654;-0.27633762;-0.039781976;0.50343204;0.26935282;-0.0032345084;0.050219163;-0.08383146;-0.050152764;0.12611759;-0.11266853;-0.012185871;0.19541381;0.20072994;-0.21731803;-0.029523723;-0.0024536964;0.34723902;0.114854254;-0.027314622;0.038266905;0.20348118;-0.13368534;0.09555998;0.22849593;-0.027329048;-0.080294795;0.027644202
0.3528175;-0.110519595;-0.04475888;0.25222784;0.018554771;0.26426995;-0.36730582;-0.07967238;-0.20237198;-0.037346523;-0.5614784;-0.41165727;-0.053552344;-0.07337339;0.06185761;0.010500495;0.002465968;0.055057082;0.002430916;0.0021465442;-0.0017201134;-0.3586079;0.097082585;-0.12538894;0.036000237;-0.22048284;0.0020507707;0.064853154;0.1673346;0.014811598;0.13158463;0.30799043;0.011888965;0.009547688;-0.0055428687;0.06293626;0.05221132;0.020235857;-0.29872465;-0.13156621;0.055846177;-0.05978377;0.06687039;0.10073133;-0.21536773;0.010264632;0.056842763;0.05441883;-0.0022006093;-0.21219718;-0.049088243;0.12758224;0.010352371;-0.4174646;0.15694745;-0.0020312392;0.12152039;0.38358527;-0.02134154;0.04404421;-0.034477375;0.13294052;-0.04066875;0.00039067183;0.0103236055;-0.046933006;-0.08125104;-0.02015704;-0.08399802;-0.041672368;0.045068882;0.08381267;0.033519182;0.011805232;-0.10574982;0.023935335;0.33092287;0.12131109;-0.016682684;-0.1621397;0.029994933;-0.21657054;0.00045137276;-0.09022808;0.14932132;0.21256481;-0.02281126;0.16710296;0.051152576;-0.034396414;-0.0013879227;-0.01808721;0.036134083;-0.15788852;-0.06663844;-0.076394506;-0.03482578;-0.1372124;-0.018071467;0.024219716;0.5495676;0.2175342;0.04445911;-0.09481468;0.37923086;0.35347906;-0.06095173;0.23518755;-0.19172686;-0.07730776;0.15321456;-0.073474064;0.024560677;-0.18978876;0.05096194;0.08452037;-0.052786775;0.00087605993;-0.05049962;-0.0052563804;0.06839949;-0.016868362;0.16433005;-0.123562366;-0.13247213;-0.011362107;-0.037453394;0.11196709;0.107775375;0.19297557;-0.31279927;-0.017660022;0.10377713;0.041206107;-0.3210053;0.043532766;-0.18457142;0.045279033;0.07067078;0.20793784;-0.024389353;-0.20243633;-0.0708345;0.10081199;-0.534049;-0.03875558;-0.07780397;-0.03909329;-0.044007443;-0.060345236;0.040697757;0.15590891;0.09896076;0.09492236;0.28772447;0.16367947;-0.2215375;0.1521082;0.007658376;-0.14029017;0.028294604;-0.117911436;0.017945101;0.021490065;-0.025150137;-0.13916473;0.033176176;-0.077161185;-0.13849755;0.08943599;0.23543406;-0.06425906;0.17465398;0.022901347;0.0879256;-0.02466967;-0.036063693;0.28880432;-0.07919186;0.078086376;-0.049325187;0.054788053;0.10980541;0.037055913;0.025867537;0.14679086;-0.06391798;-0.045464236;-0.16237037;0.0057004252;-0.09323567;-0.33314547;-0.16919124;-0.011770809;0.059425753;-0.0046757087;-0.14970815;0.11727617;0.18101195;0.18618025;0.029222814;0.019800622;0.2093056;-0.13421685;0.023092706;0.30680615;-0.21837756;-0.53676313;0.042976774;0.18488154;0.020246638;0.20155182;0.059632387;-0.054589655;0.040723126;0.033655446;0.14868413;0.013626111;-0.42244807;-0.011274774;0.038342975;0.12683024;-0.13032968;0.03716168;0.20895126;-0.26410186;-0.17555523;-0.16002218;0.14697404;0.032080002;0.015437726;0.30308098;-0.20569706;0.16002029;0.09343926;-0.3703708;0.14126112;0.0049068877;-0.090626225;0.18177448;0.03463208;0.014136855;-0.25206536;0.04802105;-0.10483815;0.27783608;0.07726138;-0.20516303;-0.019103266;-0.0107572805;0.073720954;-0.008136052;0.10917969;-0.14570613;-0.05727222;-0.12748955;0.26567796;0.116223365;-0.046720788;0.093505055;-0.045557674;-0.030872608;-0.04367489;0.070050724;-0.008735461;-0.030449891;-0.17806222;0.17226194;0.01838333;0.2613149;0.10949822;-0.13587189;0.030906582;0.26936203;-0.010074468;-0.071299136;-0.16797203;0.012268652;-0.055887096;0.016498039;0.0646758;-0.07015433;-0.1281715;-0.0020803253;0.020185597;-0.23278469;0.035345007;-0.060713083;0.054501254;0.17846723;0.19812365;0.18846485;-0.25581545;0.1062958;-0.12045074;0.0030408786;-0.003277139;0.2597307;0.0449791;0.014579254;0.09210248;-0.023076525;-0.0033045735;-0.004091852;0.0073776585;-0.09221522;0.085845985;-0.013067632;-0.16929615;0.01596148;0.44695875;-0.03653401;-0.13511811;-0.0017004766;-0.18409704;-0.058409095;-0.12393807;-0.00161099;0.1117755;-0.02296112;0.13906294;-0.18359081;-0.028329961;-0.06805063;-0.050803196;-0.033447158;0.13304776;0.018238787;0.066928975;-0.053476095;-0.06738539;0.033026885;0.06137306;0.022471774;0.0742946;-0.032112487;0.38228512;-0.13263743;0.021408772;-0.04685181;0.03710268;-0.058233898;0.017870791;0.10799648;-0.0101831155;0.11547012;0.32307583;0.054074008;-0.12184275;0.09872559;-0.05786662;0.24796827;0.1345392;-0.22216135;-0.033581607;-0.13844876;0.12411178;0.016417753;0.35042584;0.052987754;-0.08632611;0.017953813;0.024383305;0.058053397;-0.0026233788;0.104352824;0.14597346;0.022520224;-0.012474773;0.21461208;0.06140771;-0.062741354;-0.036878414;-0.18749933;-0.04015031;-0.07968806;0.37174842;0.072676584;0.14084749;0.20054437;0.32872477;-0.007318418;0.02494626;0.013094542;0.16838485;0.24897017;-0.10288327;0.0935338;0.32131827;0.039495997;-0.2355422;0.06491268;0.0005619702;-0.1619238;0.23506744;-0.08542922;0.04024531;-0.03799128;0.026804395;0.06658901;0.58148533;-0.051535983;-0.0902602;0.034902398;0.100014664;0.017899014;-0.08053342;0.27302206;-0.025312142;0.041617658;-0.16687341;0.121630184;-0.094702765;0.023328213;0.011221933;-0.46975797;-0.38281226;-0.17540899;0.050039247;0.009301971;0.15473212;-0.11913022;0.03635605;0.015341596;-0.113944285;0.19196345;-0.45277786;0.22663558;-0.1394863;-0.038564622;-0.020543627;0.004258217;0.108707234;-0.11268958;0.1540648;-0.37463933;0.020717748;0.030521175;-0.13480663;0.061299756;-0.033707075;0.18645002;-0.24405573;0.018720832;-0.089565255;0.078381285;-0.054883156;-0.1115448;-0.057399716;0.017482296;-0.16698155;0.077250175;0.07369035;-0.3152623;0.08186056;-0.032997977;0.17991869;-0.070023365;0.16090205;-0.25446075;0.001510837;-0.01943787;-0.31265992;0.011643833;0.014449058;0.1366593;-0.036483597;0.0004282205;-0.13594641;8.867965e-05;-0.14240438;-0.3859234;0.011971907;0.14739023;-0.2681633;0.016027568;0.29610676;0.28153643;0.04374284;0.013765422;-0.025065772;-0.086370274;0.016236186;-0.01895805;0.16550733;-0.18665804;0.2552423;-0.17567582;-0.057074856;0.045697432;0.2192806;-0.043204915;-0.027304474;-0.21210688;-0.061544076;-0.024122603;-0.3792792;-0.3710534;-0.07420954;-0.104443714;-0.056986455;-0.29924172;0.15892178;-0.04992456;-0.03196821;0.20391051;-0.06691458;0.076539434;0.030234056;0.15845963;-0.15808527;0.13644303;-0.011423762;-0.030981407;-0.16648832;0.00813324;-0.19074842;0.21189494;0.035797223;-0.049993042;-0.02884756;0.08182856;0.40784532;0.112539366;0.020652032;0.049922295;0.14839181;-0.0059156483;0.031398628;-0.059283286;-0.070482425;-0.0016261915;-0.011397971;-0.1853087;0.024815403;0.00050381315;0.010858065;0.17110418;-0.305458;0.35812187;0.071398385;-0.04670275;0.108216405;0.14029065;-0.1320985;0.17450829;0.023051089;-0.09273727;0.011152742;-0.28810534;0.019878065;0.48400065;0.3594144;-0.11300663;-0.06302263;0.025147881;-0.04272435;0.110758886;-0.04316402;0.06467414;0.1467845;0.10868519;-0.050323073;-0.014855405;-0.027946332;0.1894489;0.12964454;-0.045611106;-0.05273134;0.16903259;-0.1084661;-0.08856179;0.13171779;-0.11096971;0.07578182;-0.08777867
0.28684658;-0.15669674;0.038736925;0.09387239;-0.026769955;0.20604967;-0.24780396;0.06847806;-0.22967641;-0.037300635;-0.49963406;-0.3542885;-0.021214725;0.0037731829;0.15278873;0.040634125;-0.013564917;0.06969384;-0.040802408;0.034126922;-0.16234359;-0.38036552;0.13714744;-0.22719204;-0.08275657;-0.27730253;0.02489082;0.13781594;0.17223582;-0.049230345;0.14775594;0.26599994;0.1423333;0.033878528;-0.052414965;0.00803499;-0.07660498;0.0224757;-0.24234928;-0.18300265;0.02767544;0.06361184;0.14001454;0.1782135;-0.19965431;0.028353846;0.03907584;-0.0021708678;-0.019563973;-0.1551653;0.00086198124;0.066523336;-0.032863107;-0.4537354;0.12926264;0.060675863;0.09663541;0.35930854;-0.023627652;-0.017890012;0.008637396;0.11934348;0.00299606;0.04798051;0.014455145;0.003448692;0.06335353;0.039021257;-0.066915564;0.012416826;0.12436381;-0.005272886;0.15389842;-0.10613734;-0.058816325;0.04996466;0.40548342;0.096392944;-0.060094107;-0.21552514;-0.023482397;-0.13702253;0.03618869;-0.2703405;0.22116156;0.23441175;0.07539784;0.030863808;-0.011990485;0.010451893;0.0007224481;-0.06168878;-0.11853186;-0.22643775;-0.18507381;-0.0863263;-0.011203782;-0.16586567;-0.07775312;-0.042832237;0.590798;0.32197747;-0.03806947;-0.010033428;0.30219176;0.20939195;-0.101026185;0.26160824;-0.12654068;0.0046364507;0.23469447;0.03463988;0.036560383;-0.28761384;0.14119993;-0.022521693;0.04028739;-0.19567533;-0.21944502;-0.008649677;-0.006075424;-0.06293858;0.21674155;-0.13253021;-0.08894646;-0.041367445;-0.035891023;0.11590188;0.11964738;0.22874928;-0.2982661;-0.13788536;0.039559115;0.013703914;-0.27163452;0.05751383;-0.14666839;0.0023431464;0.051384643;0.11940539;-0.029408239;-0.12165474;0.028611274;-0.018499859;-0.48813725;0.095208265;-0.10529828;0.02849943;-0.11439501;-0.19045632;0.01997751;0.1136811;0.09002458;0.13648884;0.32101586;0.09570067;-0.19979988;0.035459094;-0.022936683;-0.22714888;-0.083980635;-0.1932201;-0.06216277;0.056313418;0.022233501;-0.2357081;-0.043655504;-0.07155266;-0.06674625;0.13329531;0.21992564;0.044981826;0.19918591;0.011811482;0.14771774;0.025335055;0.049715053;0.1923135;-0.07943639;0.054518007;-0.014950574;0.06586349;0.110803835;0.04566627;-0.0481859;0.11454554;0.042704936;0.0067334347;-0.017400015;-0.08583378;0.0031944423;-0.4293226;-0.17325276;-0.002066575;0.038048837;0.014633652;-0.011070431;0.1274843;0.038086675;0.16875456;0.055124577;0.021462841;0.19752577;-0.108094566;-0.013245882;0.29956958;-0.14906606;-0.48378646;0.028766073;0.1788705;0.0060901614;0.08874224;0.08897225;0.021808613;-0.07852206;-0.031911135;0.18070988;0.08833243;-0.3174598;0.03444642;-0.09541427;0.20927142;-0.079130694;-0.049292672;0.30940992;-0.22812161;-0.17399077;-0.21905054;0.047486708;-0.02070046;-0.08196669;0.2952166;-0.19202968;0.21656656;0.10824105;-0.294743;0.15822381;0.043005794;-0.06664699;0.13443083;-0.076017566;0.021286858;-0.17787924;-0.02616626;-0.121662654;0.2700369;-0.019767515;-0.14039722;0.023981817;-0.038109474;-0.049031384;-0.02537638;0.047071315;-0.11476693;0.07400986;-0.10064504;0.35435614;0.27439612;0.08668834;0.0096186185;-0.074691005;-0.10993679;0.037726995;0.008636764;-0.040012676;0.02838;-0.20115405;0.018271204;0.033537358;0.12865335;0.039150782;-0.16867381;-0.060125396;0.25958237;0.076589786;0.026843779;-0.2930707;0.026647856;0.080066964;0.017654588;-0.09044388;0.006929966;-0.17515013;0.0734967;0.04724157;-0.21209848;-0.04911923;-0.11234225;0.048871852;0.1062179;0.20500064;0.12213727;-0.18886487;0.10635168;-0.152946;-0.004808941;-0.06492671;0.26921523;0.016578432;-0.044760652;0.25814423;0.008214831;0.05545087;-0.087593876;0.04150611;-0.13006528;0.18999854;0.0876609;-0.0697907;-0.08381245;0.4095641;0.08773478;-0.12396742;0.05571316;-0.096010745;-0.1601316;-0.09376478;-0.15194952;-0.010361332;0.05211745;0.0030599884;-0.2225405;-0.031494584;0.055230737;-0.0019113473;-0.18078047;0.08243604;-0.03666966;-0.12729923;0.0031929438;0.044413082;-0.04427788;-0.024074292;-0.0028686046;-0.06048634;0.05126045;0.44426426;-0.16038567;0.09543564;0.069028914;-0.062235147;-0.054118037;0.01380012;0.12875183;0.0440404;0.14702252;0.216633;0.034949422;-0.14796874;-0.039936256;0.05693202;0.2401671;0.10123083;-0.10232799;0.038550895;-0.20736033;0.036160305;-0.062759265;0.27654764;0.080048755;-0.04079063;-0.023288947;-0.08008954;0.11098154;-0.087777905;0.030247696;0.2239103;0.031473093;-0.031756543;0.15932085;-0.05664001;0.009527264;0.05785995;-0.10982815;-0.032017216;0.07096523;0.33188263;0.12083432;0.05120508;0.22871822;0.27416834;-0.042297546;-0.03364705;-0.01931711;0.17456752;0.13578184;-0.106509514;0.08275237;0.30639368;0.15470727;-0.16419625;-0.017648712;0.0029372734;-0.28579256;0.1752138;-0.015524015;0.05303226;-0.069863595;-0.0056621423;0.036780782;0.44459605;0.08986487;-0.05848391;0.054814186;0.040117916;0.050140385;-0.086648464;0.34232372;-0.0032506397;-0.062371615;-0.3079623;0.058866065;-0.02728109;-0.028570393;0.11698332;-0.5569814;-0.3060903;-0.22969371;0.17243825;0.03918971;0.123751245;-0.20451885;0.012206613;0.07195474;-0.12025734;0.10633517;-0.4993568;0.21546158;-0.20156026;0.049030963;-0.1026092;-0.051291537;0.023468334;0.04367964;0.096300215;-0.42231968;-0.03066284;0.06920764;0.019574879;0.012722619;0.0022830758;0.18022472;-0.21716766;0.14314148;0.047327098;0.07412133;0.01268814;-0.17407195;-0.02214015;-0.0009843883;-0.08812489;-0.03720961;-0.021258745;-0.20579538;-0.020751745;0.06075725;0.14423068;0.015302122;0.19617873;-0.22964716;0.07304533;-0.06479167;-0.2929462;0.012164328;0.073137246;0.17311983;-0.042831417;0.024322787;-0.08958029;0.07516939;-0.15923241;-0.30549657;0.028570171;0.034221556;-0.23635647;-0.0044786115;0.25279146;0.23936923;-0.08779045;0.11226862;-0.002178856;-0.03468921;0.014650381;0.012572859;0.12426341;-0.1254016;0.2783815;-0.3205075;-0.053100888;0.00042038958;0.15706287;-0.006445107;-0.103957534;-0.07599967;-0.06642937;-0.0030894557;-0.45194605;-0.38355848;-0.04467491;-0.17485559;0.05608111;-0.15449229;0.24513145;-0.037146468;-0.06318922;0.10876283;0.07223581;0.007606534;-0.002612008;0.13411537;-0.035353;0.07661412;-0.0886389;-0.03562588;-0.332663;0.038980473;-0.14077455;0.1245651;0.12163111;-0.03370956;-0.07519517;-0.058865957;0.31988755;0.03823882;-0.026536282;-0.025013389;0.108200006;-0.022913633;-0.042738747;0.05876303;0.062203757;0.08455431;0.0029198907;-0.116800375;0.015658407;0.021558646;0.006542876;0.08480324;-0.18187182;0.37530997;0.05801148;0.029708767;0.13420832;0.18793193;-0.17393714;0.20721138;-0.03292144;-0.13718061;-0.057206593;-0.21383068;-0.036600847;0.43826216;0.4129639;0.00099004;-0.0033032694;0.08036389;-0.05393299;0.18568085;0.07697357;0.091618165;0.23723614;0.18779755;-0.109737806;-0.041672003;-0.10698176;0.30302116;0.14109896;0.064105265;0.018467378;0.20134033;-0.13351487;-0.12984203;0.0774721;-0.110941194;0.015928432;-0.064798094
0.103666075;-0.28125042;0.015467846;0.09854546;-0.034675565;0.3381355;-0.14083137;-0.061767098;-0.21546037;-0.04759268;-0.56348515;-0.30702657;0.015566445;0.026079927;0.17389244;0.047934324;-0.0055144583;0.1259304;-0.03563019;-0.103660025;-0.15297346;-0.39043427;-0.0060083754;-0.26892537;-0.045098543;-0.2529792;-0.048923563;0.055454683;0.25357407;-0.05890316;0.23210283;0.38246146;0.042622723;0.03697165;0.023402775;0.0369031;-0.043401048;0.11537016;-0.3039243;-0.16038845;0.14033934;-0.018676003;0.10073731;0.18608397;-0.30698064;0.068865955;0.051919017;-0.06573207;-0.019383172;-0.1011122;-0.0022983095;-0.060353868;-0.036779094;-0.4214786;0.20839013;0.011144515;0.16691571;0.3035554;0.021969862;-0.0045473785;0.047869023;0.1706995;-0.06263091;0.028511258;0.07162849;0.11653441;0.05528101;-0.05030164;0.034985285;0.046005055;0.05258669;-0.01777603;0.13063994;-0.041592862;0.030336648;0.010910226;0.444977;-0.012354939;0.06492797;-0.18500885;-0.06533715;-0.272922;-0.07777298;-0.24181774;0.1034411;0.25910476;0.07197047;0.039894525;0.03526331;0.016494336;-0.050399814;-0.054084398;-0.04510397;-0.14439493;-0.13311212;0.02734698;-0.15732764;-0.16433139;-0.012967671;-0.038821865;0.56183743;0.36151028;-0.18342297;-0.0031872424;0.260499;0.29773664;-0.09980933;0.10294279;-0.27315372;0.051159315;0.19735645;0.059945792;-0.014803502;-0.2625299;0.053409524;0.0039706468;0.01749434;-0.07976068;-0.10429163;-0.0019990066;0.075231895;-0.101693094;0.24294913;-0.29415485;0.067374885;0.0019127328;0.0012287012;0.30604905;0.0943897;0.23079255;-0.28393474;-0.08708142;-0.06416924;-0.07573572;-0.35068044;-0.04597273;-0.22598925;0.0403204;0.12907055;0.14247546;0.0030084439;-0.09414321;-0.0054757665;-0.012858089;-0.34023416;-0.024929002;-0.17493612;-0.008303555;0.0016330865;-0.07563692;-0.050775193;0.017302696;0.11266819;0.10110643;0.22675912;0.11882151;-0.31017482;0.17040694;0.03706467;-0.2566358;0.01363711;-0.10455273;0.08336691;-0.02243822;-0.004233912;-0.09020493;0.062309746;0.09299696;-0.17691588;0.07505782;0.19171388;-0.020710606;0.20681028;0.062056307;0.1391518;-0.008637964;0.08354643;0.24071625;-0.030693876;-0.07182641;0.082168795;0.03228361;0.017390838;0.10223275;0.045647033;0.114886984;0.036639318;0.042265683;-0.05738848;0.07561882;0.09737126;-0.3301836;-0.1309927;0.0038947738;-0.083553255;-0.033972032;-0.04075985;0.068792306;0.12447112;0.19039617;0.08175384;-0.10784483;0.21043248;-0.18793999;-0.052954417;0.34710556;-0.092505865;-0.61865556;0.023967462;0.15943033;0.056054503;0.018253436;-0.016885206;-0.014620498;0.053542368;-0.031327114;0.09699332;0.08069604;-0.32034555;-0.050979212;0.04789519;0.13178577;-0.2208238;-0.041061655;0.15186527;-0.28119192;-0.2069876;-0.30716142;0.10148161;0.07694477;-0.02556262;0.2199001;-0.14536999;0.13958056;0.18562827;-0.26629275;0.19434504;-0.030936817;-0.066320084;0.12400809;0.06621665;-0.035521217;-0.28593403;-0.037951156;-0.13845837;0.23990119;0.06821049;-0.16189815;-0.07154368;-0.055980187;-0.02395133;0.09939013;-0.00793781;-0.22641215;-0.053384956;-0.11991481;0.31218204;0.17305411;-0.040898487;-0.03624125;0.024384158;-0.15585104;-0.03214347;-0.072783984;0.03592632;-0.08411411;-0.18425748;0.048859872;-0.05362658;0.2161299;0.006148718;-0.14125496;-0.09508781;0.20143537;-0.08744129;0.046096638;-0.27707556;-0.05299252;-0.06420928;-0.005144853;0.025803545;0.06459839;-0.21358329;0.036311872;0.069297984;-0.20150837;-0.01987868;0.04068998;-0.036235247;0.15144098;0.08953806;0.2570911;-0.28644308;-0.031156905;-0.08151428;0.06609542;0.1158137;0.23192665;0.029767413;0.030476065;0.123241216;-1.939745e-05;0.03735379;0.07591656;0.122718245;-0.110699646;0.1550786;-0.07300359;-0.07553249;-0.07745767;0.3530731;-0.046441097;-0.10125347;0.044404566;-0.06319031;-0.08478317;-0.06260898;-0.1738654;-0.058956884;-0.022397863;0.13869032;-0.33339602;-0.082085;-0.02548851;-0.011184575;-0.11913048;-0.048687063;0.043592267;-0.011166581;0.08496105;0.024209617;0.0051152976;-0.038450256;0.05230774;-0.16369839;-0.002717699;0.29332772;-0.21648058;0.08217695;0.08049242;-0.012939063;-0.026640382;-0.00042275357;0.19356753;-0.013128345;0.1310573;0.17431247;-0.049036913;-0.024218896;-0.0042763185;0.048391122;0.099376775;-0.017224897;-0.031853437;-0.019940643;-0.12298257;0.12989539;0.021389516;0.3241286;0.04561407;0.015517027;-0.04232493;0.012668287;0.020224722;0.009383246;0.03776734;0.060515914;0.065620035;-0.08646011;0.14681001;0.013583813;-0.03240455;-0.022529075;-0.11282964;-0.052681882;0.05004385;0.3927637;0.06434362;0.048398223;0.25404397;0.29411536;0.042700443;-0.0020517684;0.06405573;0.16588354;0.22616583;-0.15182264;0.017656945;0.31387645;0.19732808;-0.22715321;-0.015056186;-0.045977302;-0.16649407;0.2931827;-0.009937607;-0.0035582753;0.0049810084;-0.037323643;-0.024822066;0.43162754;0.026357803;-0.19163282;0.014977304;0.08904037;-0.044761468;0.09663317;0.2981007;0.043125626;0.050093956;-0.23595157;0.10326409;0.021836704;-0.010823844;0.13161923;-0.3975355;-0.31794515;-0.10364553;0.13867292;0.18833193;0.1637845;-0.28112125;-0.0031249928;-0.0074705495;-0.20712247;0.011427602;-0.49873084;0.14851506;-0.21118845;0.026889183;-0.24839067;0.056255993;0.063049026;-0.049895506;-0.012740975;-0.35154375;-0.013155925;-0.023935715;-0.03208119;-0.07536513;-0.0112007875;0.15824406;-0.24464737;0.12043712;0.11097055;-0.037211996;0.010315036;-0.09440577;0.03631275;-0.045769013;0.013104742;0.0022683558;-0.058252178;-0.33999646;0.015711887;-0.05451227;0.12642553;0.060261432;0.20589298;-0.26467744;-0.025902247;0.0405679;-0.3166725;-0.007540803;-0.07874173;0.22103243;0.07099144;-0.042718306;-0.18406573;-0.049646113;0.016125726;-0.33683157;0.048163153;0.1417907;-0.23231652;-0.026404375;0.21380317;0.3189731;0.06102445;0.013606849;0.01280544;-0.008279856;-0.066365704;0.0074846605;0.21609892;-0.14118466;0.21831733;-0.3440244;0.010290075;-0.026744945;0.18706912;0.13655004;0.040756565;-0.07366248;-0.036505852;-0.023262694;-0.45285076;-0.47317633;-0.15930448;-0.1740642;-0.044479746;-0.07654245;0.18597049;-0.07303769;0.08095583;0.096620515;-0.056584638;-0.018396096;-0.057005886;0.122131355;-0.17602754;0.045459904;0.01877063;-0.011237173;-0.34209266;-0.018682024;-0.21278685;0.06582941;0.16097456;0.08840266;-0.07688131;0.052278887;0.2799549;0.09147472;0.060326613;-0.05902075;0.1529679;0.0063202614;-0.0032375052;0.036671355;0.004791615;0.1027894;0.087429635;-0.07592864;-0.03553287;0.028718168;-0.058545597;0.13506524;-0.14285141;0.33414632;0.0532269;0.061626203;0.17417188;0.14555089;-0.16979536;0.15761356;0.04748591;-0.2880409;0.029781671;-0.3108286;0.01840179;0.43218696;0.37790012;0.017325306;-0.02169952;0.012194174;-0.029689334;0.23078561;-0.022452923;-0.034907043;0.18414125;0.2270819;0.0027196552;-0.046602897;-0.017100953;0.25923705;0.069468565;0.051648896;-0.060742002;0.28723723;-0.16707776;-0.088443466;0.04234032;-0.14210302;0.015567913;0.05441436
0.19958876;-0.21143658;0.044694096;0.16813652;-0.056738544;0.32969335;-0.097037464;0.028825855;-0.21474707;-0.04635561;-0.5520161;-0.23521487;-0.010700996;0.05045696;0.1589391;0.0045354;-0.027572086;0.09565931;-0.068296604;-0.12685779;-0.09069351;-0.4907117;0.107539825;-0.3606169;0.045572452;-0.11337401;-0.010954501;0.27879953;0.25071988;-0.19212434;0.2499122;0.45063218;0.111090414;-0.046035428;-0.01233525;-0.0020482554;0.01516123;0.11107434;-0.24611856;-0.18439141;0.17266802;-0.07091902;0.13563155;0.10152748;-0.4094715;0.046943687;-0.043027934;0.0011765799;-0.015604386;-0.014177299;0.07344425;0.0015045917;-0.17277616;-0.4041794;0.1690435;-0.045930307;0.020061322;0.30608395;0.032867346;-0.03573708;-0.017956266;0.01722125;0.05677458;-0.01956632;0.07227678;0.00068781554;-0.0042195288;-0.09269021;-0.10756904;-0.025646064;-0.07743526;-0.01134065;-0.006697094;-0.12448633;-0.12761073;0.0458381;0.43985435;0.081480384;0.006364106;-0.2649662;0.029558484;-0.20874786;0.029993465;-0.12069647;0.0502389;0.1819821;-0.064647764;0.09109216;-0.060665227;0.018323805;-0.050429665;0.07724501;-0.02126263;-0.19414988;-0.18111147;-0.09217927;-0.0076016993;-0.04697486;0.06621377;-0.20107554;0.4707865;0.25322187;-0.11658512;0.066415444;0.12682869;0.32431194;0.024148291;0.07105353;-0.25807917;-0.020797454;0.21617469;0.20182738;0.019187376;-0.33491993;0.15341249;0.048583932;-0.058986686;-0.085584916;-0.1699055;0.017321972;0.07809369;-0.1281784;0.15087713;-0.31162694;0.06984416;-0.05244576;0.010368286;0.2634464;0.05442779;0.1274743;-0.21882622;-0.08006543;-0.07713682;-0.058961544;-0.34732434;-0.062829964;-0.1721397;0.066262014;0.18246862;0.1261274;0.036537368;-0.045751847;0.013378054;-0.14245872;-0.28223234;-0.061483856;-0.04127306;0.05052818;0.021382589;-0.037896726;-0.03611612;0.04917791;0.15355745;0.13817237;0.26438037;0.23334222;-0.20522255;0.19277349;-0.046576384;-0.1299851;-0.13090312;-0.19964194;0.13723162;-0.061477493;0.034677286;-0.14869416;-0.024690328;0.123500936;-0.19901624;0.094617434;0.1901823;0.03286928;0.17794037;0.072784595;0.20454295;0.020222858;0.007418675;0.12617029;0.020101234;-0.06357835;0.01675583;-0.06801614;-0.07654795;-4.4465323e-05;-0.05957616;0.2649519;-0.06699481;-0.030270137;-0.03427367;0.0011901987;0.19023462;-0.41095865;-0.15406658;-0.0026840926;-0.08446453;-0.08514836;0.08821719;0.035673056;0.16947736;0.20979886;0.07933656;-0.0023420071;0.16976802;-0.12642652;-0.0030339053;0.3071517;-0.12135987;-0.54001814;-0.028775217;0.09467679;0.010630643;0.044564955;0.14823566;-0.008069849;-0.05643858;0.025334476;0.15126787;-0.0009796753;-0.35942325;-0.07233027;0.07095619;0.11913088;-0.15799594;0.055422533;0.115609296;-0.35829338;-0.13625723;-0.31765944;0.01276222;0.013627562;0.029201888;0.27618188;-0.04314303;0.09603337;0.20007919;-0.21382873;0.13413143;0.080147;-0.029975701;0.06645242;0.07336034;-0.09602414;-0.29708028;-0.02735781;-0.16764826;0.235514;0.1569084;-0.26120666;-0.05980978;-0.04691685;-0.017747918;-0.016752966;0.07471452;-0.21856609;-0.043007385;-0.05865029;0.21573304;0.18325596;-0.048607685;-0.015249757;-0.025001222;-0.076757304;0.03573279;0.010078319;-0.046515778;-0.047382202;-0.2533348;0.08806395;-0.058608543;0.21330623;-0.094645865;-0.20680043;0.021923013;0.21893245;0.030490294;-0.02424176;-0.2749028;-0.069265515;0.00048483672;0.024098942;-0.014895273;-0.012565173;-0.236436;0.04148646;0.095679134;-0.12736836;0.022427183;-0.01483219;-0.0011783094;0.13606998;0.07922362;0.17550077;-0.16143017;0.08722162;0.0019540056;0.08100128;0.09908296;0.19168392;-0.028112937;-0.036516413;0.17299956;0.043643996;-0.062393717;0.022775428;0.02368261;-0.062085778;0.19513631;0.04278243;-0.07504558;-0.08517147;0.45848238;0.022288563;-0.12029188;0.018594509;0.035165824;0.013852111;0.017150233;-0.12430182;-0.055727392;-0.015165757;0.124175094;-0.20404594;-0.024668504;0.008447094;0.0042433986;-0.06603316;-0.07313498;0.021500915;-0.18278481;0.0021614844;0.0060117296;0.06274298;0.007336354;-0.011723506;-0.046889834;0.0794553;0.3003154;-0.14922999;0.07403701;0.09188748;-0.0215017;-0.054912798;-0.013731507;0.20541602;0.0776757;0.07393964;0.26961133;0.08750046;-0.11377368;-0.012657468;-0.0057350527;0.109603785;-0.072637394;-0.025181796;-0.082469665;-0.17766742;0.08316486;0.00425962;0.22375622;0.11283035;0.024574665;-0.018440487;-0.09249518;0.05387219;0.06646301;0.005245396;0.013119353;0.08628809;-0.09247112;0.2920779;0.021238193;0.07391625;0.061133604;-0.13111684;0.076519564;-0.07080741;0.29876515;-0.002965439;-0.051074613;0.22939649;0.3581891;0.09028718;0.07309574;-0.04233658;0.246217;0.19382961;-0.03332176;0.14198634;0.2843167;0.059663504;-0.21072248;-0.07276943;0.07074919;-0.23731995;0.31266648;-0.082068495;-0.055412065;0.028084554;-0.03510593;-0.07547216;0.36663294;0.022393255;-0.19919722;-0.03574009;0.052275643;-0.0011451506;0.19508135;0.2045224;0.0078242095;-0.07644817;-0.2110096;0.01684043;-0.051721208;0.06862652;0.2099268;-0.45432004;-0.17522453;-0.10030691;0.1671209;0.11056984;0.09788838;-0.22517823;-0.014253074;0.04861726;-0.15172806;0.080802664;-0.5582352;0.21527733;-0.20184769;0.02826223;-0.24203888;0.01268342;-0.052158903;-0.042314194;0.11243259;-0.41968238;-0.03587038;0.052622344;0.08137236;0.008221786;0.039760206;0.2561786;-0.2813505;0.107180394;0.14147882;-0.040487517;0.049751326;-0.0064174198;-0.05844754;0.015553935;-0.014483765;-0.03110554;0.019912379;-0.19367222;0.07919728;0.052302014;0.09918401;-0.0806241;0.16334258;-0.26705706;-0.10121153;0.054556843;-0.23665349;0.014931163;0.06498006;0.23515037;0.028701916;-0.027546978;-0.18039761;-0.040036928;-0.006535029;-0.5003883;-0.054880876;0.105603024;-0.29777497;-0.06270856;0.21147196;0.3750637;-0.020811051;0.022495462;-0.019818101;-0.01764551;-0.009826474;-0.032986227;0.11164255;-0.16905847;0.23282808;-0.40173393;-0.09581458;-0.14168625;0.19869441;0.096367694;0.04446086;-0.012999754;0.014729455;0.041292705;-0.3781836;-0.53112596;0.007223119;-0.21275237;-0.09003702;-0.072701246;0.09241225;0.07448954;-0.020004103;0.15343899;0.00010190849;0.0897969;-0.023940286;0.01354765;-0.21196118;0.13967292;0.0069163656;0.011634656;-0.25868392;0.028845854;-0.22861476;-0.10949641;0.14397663;0.08335026;-0.077806115;-0.059488703;0.29142714;0.056765523;0.015112832;8.7416614e-05;0.13500494;0.14677238;-0.07943312;0.025995543;0.053934;0.078719795;0.096928515;-0.14472573;0.09435277;-0.06182877;0.009978083;0.06696895;-0.044283267;0.36033568;0.052031122;0.016761111;0.10257146;0.23184183;-0.10639333;0.2437462;0.029366877;-0.31515476;0.021940071;-0.28154644;0.007259276;0.44903982;0.3474572;-0.017963931;-0.053738005;-0.08134576;-0.0037437188;0.21291994;-0.0014292948;0.042831376;0.10947943;0.15844603;-0.05313987;0.045889635;-0.053097673;0.2441224;0.08010162;-0.04907131;-0.039130237;0.20791253;-0.178627;-0.1353533;-0.105512396;-0.000625969;-0.08548882;-0.08559944
0.04954284;-0.11093171;-0.017710323;0.13276146;0.063029476;0.35411668;-0.066779375;-0.020628871;-0.23742138;0.040744632;-0.50435305;-0.29238993;-0.028743593;-0.011687646;0.06063294;0.0023693556;0.027454732;0.069876276;-0.08377719;-0.1321774;-0.09935437;-0.48034748;0.008498806;-0.3809025;0.038115725;-0.0899583;-0.0065405793;0.18213409;0.30810678;-0.1682746;0.19042541;0.33556744;0.07747682;0.011535195;0.014737937;-0.02770714;0.016846137;0.069992125;-0.26626396;-0.2826107;0.33264852;0.016315226;0.1461589;0.32436907;-0.3300974;0.014809805;-0.09345679;0.059683952;-0.05211744;-0.07596901;-0.052706506;-0.032532904;-0.10969847;-0.3901139;0.17057706;0.002025807;0.10053022;0.259216;-0.01504449;0.046079863;-0.036936384;0.13673905;0.0048391535;-0.01776316;-0.0011912265;0.15695405;-0.061962716;-0.041999694;-0.0096557215;0.07007498;-0.06059986;-0.018206777;0.03959236;-0.25779432;-0.045098715;-0.051305357;0.47955817;0.026290921;0.015123253;-0.41132468;-0.0072099636;-0.24721551;0.06381378;-0.09580094;0.14015009;0.14147994;-0.047750127;0.10962918;0.057513945;0.022864763;0.012643696;-0.010448358;0.04698971;-0.17370418;-0.15797433;-0.073510356;-0.03771945;-0.049845442;0.024262978;-0.07782209;0.48074672;0.22844206;-0.1676187;0.05875584;0.13545725;0.19348738;-0.014173409;0.02575274;-0.1964691;-0.11900145;0.29818332;0.15695226;-0.013428883;-0.38208398;0.11419314;-0.056755356;0.019003568;-0.10518753;-0.236569;-0.027790032;0.094143026;-0.08126502;0.22607478;-0.23140074;0.06559364;0.004030137;0.051225565;0.30322394;0.2101612;0.20299922;-0.22225836;-0.25043604;-0.010201282;-0.016416844;-0.27875042;0.021089364;-0.42954284;0.04686101;0.2631098;-0.032870993;0.036456157;0.018399477;-0.11846839;-0.1689704;-0.41314557;0.085292265;0.049011104;-0.035017245;-0.00536657;-0.09711448;0.021701334;-0.0070659285;0.1711405;0.16338435;0.21608645;0.112456374;-0.31689107;0.12607756;0.053608388;-0.1885039;-0.08390286;-0.06758633;0.1784384;0.01395963;-0.056972314;-0.1811319;-0.059058294;-0.06638878;-0.2482951;-0.027763927;0.2445236;-0.027421592;0.22795348;0.070712596;0.06794347;-0.02235152;-0.035773747;0.11379934;-0.13948777;0.053133007;0.036627036;-0.008818787;0.07398201;0.0114553785;0.006894371;0.26278603;-0.01008912;-0.0011619772;0.07230318;-0.035925858;0.14670952;-0.52019197;-0.10593367;0.059447262;-0.13924216;-0.18912473;0.013098263;0.02217927;0.2614083;0.16846265;0.1284261;-0.17451122;0.24911588;-0.120306596;0.06665895;0.294921;-0.1605595;-0.5968559;-0.04446248;-0.024147725;0.03946404;0.0010857382;0.07376964;0.0663816;-0.020052722;-0.045286097;-0.008902028;0.08404839;-0.31225076;0.012490915;0.0006290699;0.0041304096;-0.003898973;0.025502121;0.107091144;-0.33513904;-0.10122217;-0.22279772;0.09244505;-0.021729283;0.056015853;0.15374267;-0.070816964;0.21188343;0.19694836;-0.21078004;0.22963133;-0.0086173825;-0.089075185;-0.055736918;0.08950382;-0.13453099;-0.28312185;-0.012210668;-0.19121626;0.23376538;0.18747693;-0.21407059;-0.015229479;-0.101411216;0.08240983;-0.011893479;0.04865216;-0.18301295;-0.015859734;-0.10464213;0.25419286;0.29658908;0.060813636;-0.030144434;0.029531894;-0.07735705;-0.008909979;0.044555362;0.022890015;-0.019051643;-0.19501968;0.009746818;-0.077827506;0.21835338;-0.056028347;-0.21884386;0.044059157;0.10974057;0.040664565;0.03604155;-0.24958995;-0.07455141;0.033366717;-0.06747182;0.02751127;-0.19438553;-0.25505036;-0.025339382;0.025784304;-0.147923;-0.036217794;0.06826574;0.029695533;0.17189126;0.041373726;0.2577772;-0.08862354;0.10282006;0.0013687076;-0.04063757;-0.020825854;0.044989374;-0.028329603;-0.0004704317;0.16152988;-0.0044176406;0.067008786;0.021082075;-0.017879846;-0.21563868;0.21069905;0.033548135;-0.08245513;-0.10098865;0.480794;-0.09126577;-0.06344751;0.005442509;0.035202317;-0.06782328;0.07353724;-0.12673658;-0.072555356;-0.008044684;-0.019689692;-0.19398905;-0.05909499;0.018976586;-0.039857537;-0.022879433;-0.10500136;0.010725161;-0.15930271;0.037603676;-0.052725848;-0.015155085;-0.050640974;0.01606573;-0.11852574;-0.06346647;0.2892534;-0.011369225;-0.0811248;0.16426446;0.0687919;-0.07398579;0.037279785;0.093987405;0.020531695;0.009830685;0.14954348;-0.066489786;-0.038783997;0.013730339;-0.04695308;0.08892053;0.075752206;0.06592673;0.052683357;-0.3011951;-0.0046825283;0.024217544;0.085814044;0.15967382;0.06440522;0.03493512;-0.14472377;0.07797425;0.03748054;0.12659685;-0.13243772;0.039899025;-0.14061463;0.239682;-0.023210958;0.036809042;-0.022652289;-0.12602231;0.049496043;0.046056587;0.2837312;0.05876945;-0.0051460583;0.27304977;0.27569172;0.143981;-0.010180792;-0.08205896;0.23615889;0.06450515;-0.14349553;0.07590433;0.20112847;0.15108056;-0.25334114;0.03579031;0.029982103;-0.2150748;0.35398975;0.03118192;0.040477727;0.06654532;0.053651683;0.08088842;0.3822671;-0.09406525;-0.18562487;0.029003207;0.008461152;0.011037242;0.27348447;0.24995476;0.054872528;0.041922536;-0.21139923;-0.020604547;-0.09876428;0.07084244;0.124219075;-0.475834;-0.27880257;-0.23814197;0.122006826;0.14573626;0.114287294;-0.26530325;-0.02366159;0.107675105;-0.19990297;0.095269114;-0.6266824;0.30853745;-0.39015388;-0.07009706;-0.20493047;0.1263096;0.0807931;-0.070441276;0.06625371;-0.37703294;0.037430372;-0.02790854;0.105253525;0.049876947;-0.0046453276;0.21768863;-0.22989716;0.11429952;0.07283354;-0.053872216;-0.05047844;-0.17524058;0.035683557;-0.028491274;0.14858657;-0.052094325;0.041729182;-0.23183435;-0.05704282;0.016020663;0.028585376;-0.018303268;0.07940845;-0.29507348;-0.04896222;-0.04436874;-0.13790007;0.0038603847;-0.05045028;0.17139024;0.048515048;-0.01982251;-0.32327732;0.079625115;-0.0020885367;-0.4858812;-0.027557883;-0.022695882;-0.47582713;0.056760944;0.2124961;0.30802807;0.016948508;0.048098255;0.056272876;0.06422802;0.06783936;0.011067212;0.17862283;-0.1750906;0.13165468;-0.62061024;-0.14037;-0.063442245;0.1446056;0.06393952;0.038771216;-0.10069048;-0.045012943;0.007121231;-0.4359982;-0.49998727;-0.008849482;-0.17620184;-0.037442405;-0.015708895;-0.10783732;-0.013368866;0.0312062;0.042854946;0.030178022;-0.046685837;-0.16323581;-0.08414928;-0.18600097;0.100933656;0.0268859;-0.045375995;-0.3071934;-0.05843251;-0.2401974;-0.17689227;0.13483243;-0.03920811;-0.13307829;0.006989645;0.3030431;0.1365706;-0.06565654;0.060793106;0.1883323;0.21363889;-0.05659584;-0.07018494;0.11957383;0.11610025;0.022290455;-0.14621595;-0.044808;0.05110794;-0.02781706;0.19397378;-0.07110166;0.34706378;-0.029173888;-0.076734036;0.100595;0.17445274;-0.11798623;0.15646826;-0.005080179;-0.2821803;0.05820535;-0.18078588;0.05937006;0.4645495;0.3284685;-0.15000398;-0.006508458;-0.10984269;-0.012598737;0.0613028;0.0002681539;-0.0022954165;0.046988342;0.12697688;-0.1857529;0.037398074;-0.10155627;0.25501323;0.167491;0.027755272;0.020433107;0.28068796;-0.042815182;-0.13675329;-0.09361202;0.025038188;-0.007793063;-0.06887485
0.029529123;-0.1402845;0.043774888;0.09515322;-0.007407722;0.38458318;-0.1465557;0.013163862;-0.22380851;-0.014179005;-0.42177922;-0.25169575;0.016721943;0.06091751;0.1631828;0.017437773;0.026664121;0.16046537;-0.0363976;-0.15585361;0.042347606;-0.46388128;-0.00920139;-0.24563895;0.016717948;-0.07202689;0.0018603345;0.28355592;0.23386571;-0.28371012;0.29512447;0.380034;0.10620499;0.016005782;0.042997476;0.01345185;-0.025057781;0.10591909;-0.34965748;-0.1874894;0.35263565;0.018624386;0.1445892;0.24979933;-0.3592926;0.04012151;0.06604831;-0.067251645;-0.014850918;-0.044870388;-0.05491664;-0.038686983;-0.20073433;-0.4679717;0.049875442;-0.02926584;0.080805235;0.23878099;-0.08388338;0.073446795;0.012188022;0.09740946;0.06573872;0.024312044;0.0063606305;0.028135499;0.021425463;0.057355326;-0.016473005;-0.05056717;0.0070065265;0.007488485;0.03616114;-0.18142958;-0.13445102;-0.059957407;0.5721382;-0.09875676;-0.021364314;-0.41690186;0.043823764;-0.19581455;0.040217582;-0.06087267;0.112569086;0.26542065;0.0020350125;0.17721626;-0.06422476;0.047490094;0.1314038;0.015625631;0.03207487;-0.29605108;-0.21105604;-0.018437449;-0.11366968;-0.08098654;0.008059195;-0.111423545;0.515695;0.2410956;-0.23646756;0.019428086;0.16075434;0.21349342;0.06517937;-0.041009516;-0.17192924;-0.05664069;0.2995999;0.3011334;-0.06600949;-0.4530565;0.16904786;0.0021227538;-0.0075618844;-0.082079366;-0.21778736;0.011009625;0.0365362;-0.15042022;0.17232652;-0.35621017;0.080483146;0.024248675;0.03405081;0.18256654;0.20996752;0.22325583;-0.15912126;-0.13423438;-0.067575544;-0.00059199065;-0.1855211;0.016599594;-0.43379083;-0.09230049;0.2533629;-0.015888816;0.052570537;0.024067061;-0.10197985;-0.07135335;-0.28930646;0.071912006;0.09272426;-0.034221843;-0.017106144;-0.0073404727;0.027833726;-0.11137694;0.17188239;0.18815589;0.27112067;0.14213438;-0.23211974;0.06717936;0.052254237;-0.18114977;-0.08545687;-0.1661893;0.102879375;0.0621586;-0.060265146;-0.13674666;0.024681538;-0.0057948967;-0.20128606;0.0016882784;0.30453748;0.036890753;0.29880705;0.014959771;0.10008677;-0.12217582;-0.0041177967;0.18608387;-0.026257755;-0.03575117;-0.039701317;-0.014822688;0.030202692;-0.031842653;0.026699232;0.13321409;-0.054254632;0.09171067;0.027147561;0.03494782;0.23254591;-0.5301243;-0.07256509;0.056456722;-0.13738005;-0.08420434;0.021394113;0.114025414;0.1076749;0.2067124;0.08896619;-0.24808556;0.36364505;-0.08437648;-0.036228716;0.253298;-0.11118734;-0.4638029;-0.16053224;0.030984927;0.030984508;0.0261428;0.056553908;-0.03351564;-0.047230415;0.019954076;0.09431257;0.1568988;-0.31303582;0.021792145;0.046169646;0.09564552;0.00055442494;-0.060962096;0.120921336;-0.31577265;-0.21709299;-0.2862639;0.08623149;-0.04403163;-0.026932258;0.26304156;-0.039238643;0.18395823;0.17572233;-0.19336566;0.13789223;-0.028613573;0.0035494524;-0.1027033;-0.01662999;-0.15036604;-0.15806143;0.021214092;-0.090637736;0.29635668;0.14180453;-0.17134447;0.065462664;-0.07134145;0.11520846;0.008948628;0.041334383;-0.16463615;-0.0037722015;-0.014616858;0.34725472;0.24267244;0.058055893;-0.0317214;-0.1079827;0.031355098;0.023876313;0.07790989;0.044625554;-0.008039196;-0.18866296;-0.12157742;-0.21533167;0.25454065;-0.02706268;-0.1277307;-0.019014532;-0.0053018127;0.050194304;-0.022549616;-0.18170446;-0.13428748;-0.009508102;0.008480281;-0.01238022;-0.19316812;-0.21857499;-0.07028165;0.024876865;-0.115924366;0.02553069;0.006781817;0.036897276;0.10642005;-0.0399517;0.18892989;-0.069196716;0.10649288;0.03360846;0.031851985;0.010754631;0.0072388262;-0.06608396;0.03333199;0.08441971;-0.019855252;-0.023274332;0.026108796;0.01110206;-0.26184458;0.23177212;-0.0029850153;-0.008779528;-0.093434945;0.41424188;0.028537292;-0.039936986;0.00930885;-0.09524657;0.021163221;-0.018202186;-0.035425037;-0.11265757;0.078295894;-0.07190863;-0.2478452;-0.07037909;-0.025789458;0.0009752481;-0.049905572;-0.05905885;0.020054864;-0.050037846;-0.030682992;-0.038817514;0.0627129;-0.026521623;0.025006138;-0.082732156;-0.02475922;0.24185194;-0.0049948944;-0.010254988;0.15242706;-0.033769716;0.01731411;-0.05731483;0.010886945;-0.0028103867;0.049097333;0.26088378;-0.050419353;-0.19451033;0.015922949;0.03310455;0.18644597;0.09280672;-0.05940927;0.058735482;-0.33828795;-0.027059866;0.105443254;0.16390406;0.09564521;-0.03915439;0.065939195;-0.12551975;0.06620459;-0.022905637;0.17511289;-0.10443616;0.09841543;-0.17380928;0.11455878;0.022850659;-0.029441237;0.039644483;-0.095662825;0.11177191;0.018662175;0.33104128;0.047039505;-0.032918446;0.2877261;0.22224578;0.096315555;0.0073010866;-0.054319758;0.24850282;0.2107357;-0.13501768;0.07460703;0.19866103;0.083465956;-0.15027091;0.0145895695;-0.04195208;-0.024814779;0.29719833;-0.022898415;-0.016252374;0.017537015;-0.009441989;0.043584023;0.2833009;-0.08896744;-0.13989016;0.019255938;-0.052178763;-0.045513194;0.22349688;0.13464338;0.12780705;0.07762836;-0.1325999;0.026342787;-0.064099096;0.0054910616;0.26114342;-0.31515974;-0.20687889;-0.14712018;0.2489702;0.065944545;0.092496835;-0.25837198;-0.06588402;0.00074647676;-0.14752635;0.08296444;-0.6254296;0.28210786;-0.38898104;-0.021579634;-0.15740477;0.14819564;0.07863373;-0.047869485;-0.06743801;-0.40620747;0.06164884;-0.050268076;0.054231912;0.054800488;-0.03721412;0.33529684;-0.124134526;0.08098821;0.10589431;-0.020665951;-0.0762011;-0.059681945;-0.06044312;-0.0077754734;0.13570252;0.047417596;0.041998394;-0.097141296;-0.04763125;-0.02864149;0.10385218;-0.12416456;0.021940954;-0.21512344;-0.07060849;0.038717814;-0.19106676;-0.008082578;-0.07683256;0.15319166;0.048855294;0.005564796;-0.34526098;0.0857594;0.073505506;-0.56938535;0.051404316;0.023641614;-0.4787011;0.04526978;0.14377557;0.43646634;0.048115466;-0.05627047;-0.04906418;0.066109285;0.009060931;-0.057104584;0.13204952;-0.2521946;0.067928374;-0.56752753;-0.13458039;-0.082934014;0.115479805;-0.029605035;0.056420606;-0.072780974;0.067912705;-0.014107332;-0.3530187;-0.5544163;0.0467341;-0.22740087;0.02803899;0.10359051;-0.07888491;-0.029145634;-0.010323143;0.16311997;-0.03044624;-0.04090993;-0.085081756;-0.018799681;-0.24338341;-0.025942815;-0.034702692;-0.04158522;-0.22929513;-0.07579865;-0.31962258;-0.14845103;0.14256717;-0.07671709;-0.2703162;0.04369885;0.35315657;0.086630784;-0.04406155;0.026657782;-0.007200591;0.117866844;-0.027971562;-0.015114155;0.057942484;0.0015275917;-0.07646264;-0.113627166;-0.038494375;0.016636629;0.053440318;0.17291361;-0.08006846;0.37379003;0.13230222;0.020181151;0.15554836;0.17860314;-0.06839681;0.17259707;0.12533611;-0.26556435;0.045556515;-0.20624214;-0.036033534;0.37612325;0.31896764;-0.0034172628;0.07061739;-0.047912877;-0.013943145;0.062948205;-0.099077426;0.06941287;0.035943687;0.038408644;-0.20125176;0.07470917;-0.06582745;0.19944233;0.16231251;0.01713733;0.05899203;0.27707958;-0.090799496;-0.21586783;-0.053959604;-0.009493814;0.04988412;-0.063663684
-0.02220128;-0.1205936;0.029032063;-0.0028866571;-0.075406075;0.4382523;-0.08786769;-0.0045823497;-0.35109493;0.07572693;-0.47347227;-0.29960644;0.011218368;0.022885658;0.058004547;-0.04948935;-0.026878705;0.13742295;-0.13620979;-0.2079762;-0.007987996;-0.416525;0.019467052;-0.3396974;-0.08154402;-0.1317274;-0.04186944;0.22193693;0.35416332;-0.28608283;0.33072263;0.24938032;0.14502369;-0.008123687;-0.07796178;-0.035510328;0.050738923;-0.043605678;-0.22586302;-0.25748312;0.29416013;0.042164337;0.12774253;0.19920725;-0.25269032;0.094391085;0.033063468;-0.060689665;0.095623925;-0.048400763;0.020712795;0.11281249;-0.20493393;-0.4642571;0.06517793;-0.063105464;0.04669501;0.27045467;0.04277537;-0.042031795;-0.04020857;0.057077456;-0.06978189;0.007547913;0.019284908;0.07311009;0.041686732;-0.022518117;-0.11600986;-0.003750347;0.016994072;-0.0030166404;0.021513928;-0.24033402;-0.11544983;-0.047503673;0.56401145;0.068487026;0.062339537;-0.51960933;0.03708703;-0.24893403;-0.08005706;-0.022442002;0.072438054;0.19942044;-0.032465834;0.022127721;0.05928349;-0.05537221;0.18470223;-0.058692258;0.101131655;-0.23811126;-0.15778825;-0.106305525;-0.022387926;-0.16377255;0.0108439075;-0.093727276;0.507404;0.25931638;-0.28177518;0.10164483;0.06222079;0.17591883;-0.028584726;-0.12433433;-0.1988407;-0.083128996;0.1821771;0.17080198;-0.0025430475;-0.32656586;0.1682713;-0.050104298;0.07416246;0.015454088;-0.35830355;-0.021287505;-0.009860059;-0.10920551;0.2499179;-0.31542572;0.03459994;0.08949586;0.01986216;0.24564812;0.15879197;-0.0066791;-0.06270516;-0.28750268;-0.007203348;0.029302035;-0.30112612;-0.000609756;-0.4389666;0.05585116;0.2681195;0.046606418;-0.05146353;0.052443456;0.030787151;-0.12454238;-0.38469216;-0.06161179;0.010433384;0.012015211;-0.010555219;-0.11669824;-0.05249932;0.052203815;0.12388731;0.2267458;0.25579947;0.09030861;-0.29494125;0.12902318;-0.045774516;-0.04515067;-0.012542567;-0.18598649;0.036704957;-0.049086396;-0.079680674;-0.13192908;-0.009652969;-0.14251997;-0.18810552;-0.13834606;0.22572263;0.023681477;0.14999877;-0.03544667;0.13574435;-0.064574204;0.021080641;0.21207206;-0.011592779;0.048282668;-0.03197738;-0.012843842;0.1013073;0.018369665;-0.05013125;0.15007345;0.0132489195;0.093179554;0.07028551;-0.029579971;0.23736204;-0.5737423;-0.16668744;0.03608825;-0.23942053;0.010074575;-0.049757764;0.14516787;0.08867387;0.09223497;0.21073024;-0.37463003;0.42250484;-0.10552567;0.05008116;0.29676008;-0.18635544;-0.5614505;-0.24374197;0.03203574;0.17282616;-0.0954159;0.056726146;0.0121734645;-0.028311418;0.03890014;0.012372857;0.15912652;-0.16601619;0.1028878;0.072927035;0.09983114;0.015931968;0.03790952;0.257202;-0.2525203;-0.06977866;-0.22109261;0.038095124;-0.059446335;-0.07944916;0.17525347;-0.072233714;0.11984273;0.11978878;-0.1695108;0.14109235;0.016230466;-0.1607478;-0.0816876;0.030009326;-0.37887454;-0.19371074;0.07667378;-0.08352293;0.24021308;0.22571236;-0.016128352;0.05290149;0.001972447;0.24384819;-0.022272224;0.0026565227;-0.20091887;-0.010023985;-0.141354;0.26053047;0.30554432;0.03118662;0.027767586;-0.13858455;0.091780744;-0.042905837;0.00821888;-0.04228858;-0.02583771;-0.2797372;-0.009989187;-0.23871592;0.19986121;-0.021092722;-0.017240776;-0.058759615;0.022512665;0.041170746;0.048023928;0.00078783603;-0.092052594;-0.058954567;0.0025885364;-0.029260041;-0.33378366;-0.19318713;-0.0614146;0.029408216;-0.029569784;-0.02678847;-0.019656979;0.011425535;-0.006837648;0.004056682;0.20787582;-0.17799735;-0.009122221;0.012731363;0.09459111;0.06777617;-0.019739136;0.044895973;-0.016334936;0.020653611;-0.10204803;-0.028473482;0.017141743;0.18389797;-0.28989336;0.13395984;-0.041915037;-0.043832622;-0.07329065;0.49511176;0.013476504;0.03675826;-0.06551797;-0.0586834;0.07796007;0.039079968;-0.03998451;-0.15643272;0.01921995;-0.005688225;-0.15321842;0.09678433;-0.026244305;0.06627445;-0.027231174;0.026694175;0.02374615;-0.07765108;0.03249104;0.103143126;0.062170833;0.058875833;0.040616576;-0.14244236;-0.047115114;0.2840007;-0.07240385;-0.06636035;0.08427495;0.03422404;0.03420517;0.04272863;-0.08799153;0.0025615445;-0.033956807;0.068414435;-0.024237515;-0.15466315;0.033660684;0.020262597;0.16941862;-0.048951957;-0.011516277;-0.04472946;-0.1920818;-0.1610994;0.089111224;0.06549207;0.18740465;-0.079124644;-0.027199792;-0.14029193;-0.008602779;-0.008781714;0.1144584;-0.17445606;0.031518657;-0.32451072;0.10184951;-0.074251436;0.05719152;-0.05032319;-0.028075779;0.09636003;-0.078750655;0.38348868;0.14395471;-0.18601343;0.2614352;0.26772386;0.048913587;0.0051381723;-0.007022181;0.17456667;0.2736969;-0.02460907;0.090192154;0.1920918;0.071707934;-0.25122225;0.03939126;0.03255541;-0.10210416;0.22176322;-0.14161892;-0.058602184;-0.05611671;0.039441667;0.0021886022;0.43640494;0.02039922;-0.1808233;-0.00011557249;-0.084660485;0.004219795;0.34307566;0.017631406;0.23997958;-0.07118344;-0.1663525;-0.0146396635;0.007603491;-0.013322254;0.3001971;-0.27511406;-0.1505933;-0.2009322;0.18598716;0.13388985;0.036157154;-0.08753465;0.09059322;0.007201862;-0.13326411;0.23226431;-0.49907285;0.27533343;-0.49879953;0.032375388;-0.18166795;0.09257464;0.038979925;-0.0039306832;-0.024223588;-0.4569982;0.05966706;0.0007645277;0.09119973;0.0019766786;-0.045038853;0.2726426;-0.1858654;0.20054936;0.10662479;0.028575113;0.037634693;-0.012564521;0.016541947;0.021231173;0.13546775;-0.07675226;-0.0009471766;-0.17977385;-0.03690567;-0.025712196;0.0006881837;-0.15099093;0.07178409;-0.16820724;-0.10377516;0.04251822;-0.1679952;0.020082204;0.027648063;0.08647482;0.09276806;-0.02410082;-0.302688;0.06279628;0.13958327;-0.3770869;0.07107817;0.09037027;-0.36652467;0.22843482;0.16827065;0.47540015;-0.039266825;-0.043155946;-0.024409207;0.013402668;0.035706006;-0.0045652017;0.016313644;-0.16953236;0.033226583;-0.54685485;-0.10505767;-0.18142341;0.06115588;0.026514838;-0.05162266;0.112265736;-0.020519877;0.021459496;-0.42127126;-0.42404273;0.018708372;-0.1747796;0.033083174;0.12657152;-0.21843055;0.056973193;-0.0067224507;0.12005652;0.02170677;-0.028099295;-0.11167863;0.0037282507;-0.31543848;0.0001350748;0.06706821;0.1005211;-0.0887687;0.06014967;-0.30683097;-0.23703836;0.19229077;-0.03136329;-0.31559947;-0.026331758;0.5155121;0.070995115;-0.033535153;-0.032944202;-0.014976665;0.24910961;0.04085691;0.038151223;0.066962;0.15149742;-0.027176524;-0.1432067;0.031373475;0.0031751848;-0.024489408;0.13221131;0.09879133;0.2669196;0.010285223;0.02387943;0.05133293;0.2336483;0.06780507;0.1182815;0.09242727;-0.41295788;-0.06329977;-0.17921583;0.007190819;0.30977607;0.28319106;0.06665689;0.053687464;-0.111886725;0.20487627;0.085923135;-0.18399349;0.052650265;0.18777786;0.07505328;-0.14507756;0.02108397;0.0147446515;0.2512937;0.2734238;0.04827145;-0.019820875;0.32261634;-0.05394596;-0.20593457;-0.13962685;0.029736176;-0.005521336;-0.13244109
0.024311166;-0.1202269;0.059256934;0.04945743;-0.016524997;0.43870595;0.06873361;0.08064675;-0.2520401;-0.042758152;-0.48452994;-0.37427825;-0.021689408;-0.079966605;-0.04649804;0.0779526;0.072479025;0.11482797;-0.11949736;-0.2777525;-0.05460173;-0.37380785;0.10657561;-0.23447944;0.022829069;-0.16987918;-0.028524656;0.19396703;0.30384076;-0.26142234;0.22041476;0.29663482;0.024038354;-0.058912706;0.023283217;-0.03963717;-0.029117435;-0.03517671;-0.35307795;-0.1541509;0.34085342;-0.03315991;0.18603563;0.23032938;-0.23758242;0.071824215;0.031471685;-0.011581792;0.0325999;-0.06281737;0.07051245;0.07364788;-0.18775955;-0.40958855;0.1085983;0.06763131;0.063080154;0.29286712;0.03048457;0.05282249;-0.046264596;0.12582067;-0.002621696;-0.049665578;0.0050300574;0.031553898;-0.027203696;-0.012126583;-0.09260549;0.049412515;-0.0123225665;-0.041009836;-0.09578889;-0.3353629;-0.0728121;0.026293872;0.5334263;-0.05853895;-0.017712587;-0.39988962;-0.009450539;-0.24583401;0.06798959;-0.06517414;0.03587833;0.29614457;0.0060880654;0.059371833;0.0102024805;-0.027295612;0.18898934;0.06464202;0.042990796;-0.38967088;-0.13157967;0.022840073;-0.1352851;-0.13373879;-0.050916295;-0.09059123;0.44144684;0.107602336;-0.24951667;0.040285073;0.008599113;0.2361875;-0.025728645;-0.08488322;-0.11042085;-0.1716011;0.18447803;0.25743532;-0.0019769124;-0.38092238;0.15530346;0.067212276;-0.025329432;-0.08804903;-0.17985415;0.003081581;0.13560392;-0.0963801;0.24543625;-0.3875461;0.07139768;0.006510957;0.043735392;0.1395214;0.27426875;0.010245546;-0.025606327;-0.34182537;-0.034631465;0.036531188;-0.27463898;0.006754113;-0.31229207;-0.018130198;0.27196887;-0.043905217;-0.04691611;-0.008459928;-0.024324955;-0.07403879;-0.41951632;0.016365033;0.031328198;-0.0069324896;0.030864283;-0.088569224;-0.06463144;0.027114792;0.12707257;0.105709985;0.2395073;0.15652427;-0.3177656;-0.0020437706;0.030450158;-0.15939967;0.10699362;-0.15778795;0.03462936;-0.020293498;-0.0007153132;-0.16206299;0.063995905;-0.06377574;-0.06556504;-0.08191052;0.18347554;0.03952987;0.2092258;-0.16306809;0.08604035;-0.0017425632;-0.081348814;0.20151113;0.027742408;-0.036180254;-0.0044664685;0.035052497;0.08051493;0.06595888;-0.049183458;0.14016746;0.07815379;0.090923294;0.072492324;0.017300176;0.23239246;-0.4679916;-0.17919393;-0.04979354;-0.27446315;-0.13354805;-0.19572741;0.08723434;0.029619817;0.052248206;0.1371301;-0.4117776;0.4292;0.025315434;0.03913055;0.43808982;-0.16848363;-0.42350417;-0.13930239;-0.015542987;0.07732818;-0.13305172;0.026268283;0.051622104;0.041811734;0.05775268;0.0522527;0.08086454;-0.15921289;0.02662617;0.07250185;0.07235124;0.23022267;0.018271314;0.29711747;-0.29344013;-0.14221598;-0.22192542;0.116263114;-0.032544993;0.048343766;0.16909406;-0.15415493;0.12845808;0.069139384;-0.13478239;0.19085819;-0.056544896;-0.110456444;-0.25012705;0.11295719;-0.29030895;-0.074913464;-0.03166619;-0.07791425;0.33586717;0.16022418;-0.020694843;0.056241672;0.0203809;0.28236586;0.0147124035;0.017752435;-0.20799397;0.068634436;-0.056478538;0.26195526;0.22144236;-0.06274059;0.021617388;-0.13086173;0.154595;0.001804157;-0.07982081;0.03480301;0.088717215;-0.19121008;-0.21829541;-0.14507052;0.21030901;-0.07051274;0.09682254;-0.13936444;-0.00083205116;-0.07667341;-0.07763869;-0.0995922;-0.13514851;-0.006209744;0.058485094;-0.04390388;-0.47602534;-0.11027076;-0.04633466;0.061883982;0.026873363;0.03423345;0.02864805;-0.0004936135;0.11625784;-0.05110301;0.2087816;-0.21545725;0.061364003;-0.004756484;-0.011321123;-0.113633804;0.11368322;0.05488521;-0.051515047;0.012106184;-0.09236947;-0.039773032;-0.00046065953;0.14594983;-0.37013555;0.15429491;0.04940188;-0.016898094;-0.13263047;0.5181762;0.005206213;0.19143873;-0.011771448;0.028392533;0.08518956;0.1090415;-0.00382981;-0.09688181;-0.007832009;-0.023590395;-0.121973276;0.06956545;-0.053525887;0.021307465;0.02487437;-0.023225639;-0.0690541;-0.109737635;-0.018710695;0.004803645;-0.061436497;-0.031921893;-0.038663473;-0.076238394;0.0008793528;0.20558348;-0.047658443;-0.15551272;0.17832854;-0.011719993;0.11254978;0.04355311;-0.03797284;-0.09849177;-0.031058101;0.20474866;-0.05364274;-0.24939913;-0.059989773;-0.017673492;0.15012616;-0.024709595;0.034377906;0.036242306;-0.26130435;-0.11905648;0.00929986;-0.058449127;0.02154974;0.021813529;-0.043690566;-0.33100533;0.1270496;-0.12223759;0.058254905;-0.08521703;0.064686686;-0.2828114;-0.0074903597;-0.015770243;-0.041805543;-0.03414822;0.06418467;0.15576898;0.06965759;0.38071588;0.116485246;-0.08419611;0.3347551;0.2731523;-0.03258975;-0.016767759;-0.06239354;0.20304358;0.27839476;-0.05725739;0.12890829;0.21115118;0.11713266;-0.15622099;-0.02016743;-0.07201255;0.09186964;0.32083285;-0.1849355;0.07349162;0.03194867;-0.047598828;0.07544762;0.25821227;0.075587325;-0.06773127;-0.021186965;-0.10422381;0.08706838;0.32376736;0.0011587971;0.2604479;-0.047814142;-0.1611188;0.03253469;-0.041332427;-0.04513026;0.26669806;-0.23379505;-0.18413621;-0.28357786;0.20789623;0.12505402;0.017289247;-0.104467414;-0.042211216;0.13258518;-0.28748998;0.28380567;-0.4483394;0.32429406;-0.546131;0.07627959;-0.18064426;0.15083064;0.005232402;0.0047859317;-0.11937636;-0.43212488;0.045852844;0.032241043;0.06880319;-0.06769934;0.00035879697;0.21607703;-0.24724941;0.12490721;0.081598684;0.06599803;0.0027888948;-0.10434675;0.06533779;0.001776886;0.043608926;-0.10400854;-0.01938626;-0.21273519;0.0038559993;0.076383024;-0.0799143;-0.118604355;-0.02195312;-0.21251696;-0.19670232;0.0275635;-0.1573529;-0.080527954;0.07748364;0.1774416;0.046833187;-0.0059982077;-0.29035413;0.017936073;0.013535247;-0.4201471;-0.09016471;0.18701725;-0.44534376;0.22213957;0.104004666;0.45122215;0.034881927;-0.057344433;0.01712566;0.07314661;-0.026077483;0.034823723;-0.0030461377;-0.262184;0.002250122;-0.5160611;0.041578237;-0.09301729;0.065682776;0.027321102;-0.0727082;0.09388386;0.045508616;-0.036928486;-0.39667535;-0.5247907;0.011144299;-0.09532068;0.026881324;0.10175387;-0.20877121;-0.023662837;-0.03806433;0.14077404;0.043336056;-0.0031567279;-0.08175487;-0.021519389;-0.31970075;0.030771643;-0.023156924;0.023714172;-0.067408994;-0.06872537;-0.25051558;-0.3307253;0.25476816;0.013370593;-0.35870552;-0.017336752;0.4256463;0.0912688;-0.0040295552;0.034138456;-0.03825668;0.11686464;-0.10195029;-0.014097344;0.09956571;0.17245068;-0.13736618;-0.23367575;0.007491848;-0.048174176;-0.051221028;0.23157157;0.1429173;0.30940259;0.074375376;0.009075243;0.053476974;0.24523397;-0.021553177;0.036999278;0.15834254;-0.41395894;0.049364734;-0.13831307;0.02620374;0.27367783;0.34967348;-0.037321284;-0.008804458;-0.19462478;0.18727803;0.006269754;-0.28868973;0.20672525;0.2048346;0.053370114;-0.17616156;-0.0421607;-0.03807377;0.2488788;0.2740238;-0.0011129009;-0.0084806895;0.33299428;-0.13548908;-0.26315382;0.028932024;0.00082333985;-0.017756183;-0.21081448
0.044528678;-0.15000878;-0.07273023;0.09969207;-0.0059950296;0.45090052;0.044365495;-0.04578697;-0.37354982;0.00089513574;-0.42360884;-0.35710496;-0.024723524;0.036287654;-0.016305327;0.06713435;-0.07869583;0.07985244;-0.19056223;-0.3111044;0.11658248;-0.28911534;0.08748257;-0.1382803;0.0045480975;-0.23685059;0.025383445;0.33784086;0.34709588;-0.07343978;0.17900431;0.25828105;0.12304492;-0.039435532;-0.07163827;0.027059793;0.041641854;-0.03814494;-0.20368828;-0.243242;0.4831233;-0.052803844;0.036913447;0.28129184;-0.27486882;0.07429357;-0.013282445;-0.016459838;-0.035608612;-0.048929073;-0.016569614;0.10073672;-0.19643301;-0.51644737;0.048798896;0.0012926427;0.121255934;0.17655772;0.010610351;-0.044842172;0.052886136;0.11620581;0.036756627;-0.04858384;-0.14968866;0.071485445;-0.021055777;0.1235807;-0.28652465;0.04266277;0.10530716;-0.032181818;-0.09506887;-0.25964007;0.012841876;0.0038958262;0.4533845;-0.004726121;-0.035193965;-0.338058;0.017109204;-0.30851707;-0.09453585;-0.035617784;0.031341046;0.23585671;0.06342759;0.10236583;-0.06921723;-0.040131234;0.09653513;-3.6607238e-05;0.1212565;-0.2453081;-0.14343171;-0.027565418;-0.14821643;-0.16468807;-0.02962778;-0.18245214;0.4925409;0.21407108;-0.1505307;0.02166461;-0.09304941;0.1629174;-0.031304747;-0.04453284;-0.18441239;-0.17795475;0.20218176;0.23135506;0.011552645;-0.36725315;0.16714577;-0.0384928;-0.041984975;-0.074484766;-0.3067394;-0.012512842;0.08660649;-0.14141634;0.22744946;-0.35637003;0.0061626825;0.00901491;0.10774008;0.20493922;0.2568147;-0.10615019;0.20678078;-0.34203753;-0.004501302;0.059380945;-0.22847955;0.034419604;-0.32200179;-0.042335846;0.24589589;0.041136023;-0.067972645;0.0849058;0.13237657;-0.08214657;-0.34353098;-0.036070623;0.043607567;0.039952092;-0.018137878;0.030076131;-0.013900576;0.11531407;0.16177465;0.13341434;0.24489641;0.014194026;-0.27674004;-0.0021649294;-0.041861348;-0.051800013;0.15118274;-0.14602731;0.0400495;0.07389735;-0.025053028;-0.23923661;0.009393375;0.013276703;0.05538424;-0.11617869;0.2093178;-0.037275214;0.2422893;-0.15688375;-0.013308887;-0.08262805;-0.02828054;0.11710385;-0.0110308835;-0.016703162;0.00423978;-0.06726403;0.06230547;0.1690367;-0.019942075;0.21800876;-0.038375694;-0.0711622;0.095619425;-0.021009652;0.23394638;-0.45870492;-0.272401;-0.034210525;-0.48376223;0.06487619;-0.2642888;0.06769502;0.03932907;0.14056872;0.11880934;-0.5056462;0.3739372;-0.011993485;0.014521113;0.3347368;-0.056522053;-0.4460669;-0.078780726;0.057667144;0.16441752;-0.13781598;0.13702704;-0.0372683;0.090081684;0.020561926;-0.059219718;0.11861604;-0.16115753;0.00126397;0.06114512;0.029903065;0.20887774;-0.02025074;0.2129206;-0.35523057;-0.12414644;-0.09585793;0.045280524;0.0599712;-0.0019316765;0.18329228;-0.07086768;0.08463332;0.22907552;0.018344646;0.18650492;-0.0072727045;-0.18489236;-0.2206121;0.109608784;-0.19464876;0.107107;0.07643071;-0.18330532;0.40133882;0.2729561;0.010749688;-0.044100042;-0.04028462;0.2552638;0.06974715;0.058002718;-0.1420327;0.059023164;-0.12293226;0.3292705;0.24683519;-0.08994267;-0.02406851;-0.18500437;0.067486875;0.020390866;-0.07179473;-0.015937801;0.04503215;-0.35141382;-0.23346479;-0.1380329;0.33887038;0.012400026;-0.00064152083;-0.029809345;-0.024535174;0.053234443;0.08651361;0.04975674;-0.18256438;-0.045258526;0.0085282065;0.07256969;-0.44114244;-0.2015336;-0.09790118;0.22912711;0.14199647;0.057880137;0.18466447;-0.059883468;0.08425361;-0.17337048;0.13281514;-0.0914279;-0.043131374;0.17073834;0.023143299;-0.0053204177;0.11096058;0.00986767;0.02557486;0.08290487;-0.12513709;0.08764048;0.18918279;0.18344632;-0.3777873;0.07366273;0.063262664;0.08029138;-0.12846613;0.45656312;0.029030308;0.06116957;0.0078121973;-0.0690576;0.05249775;0.1161416;0.07535606;-0.13253753;0.016358113;0.017570455;-0.085589506;0.100905776;0.058688335;-0.066050656;0.11687333;0.03341245;0.011670725;-0.07098701;0.009517429;-0.052870557;-0.054262526;0.022563512;0.045990672;-0.08016869;0.005140796;0.16443504;0.029674053;-0.0024863568;0.0337585;0.028761575;0.14306691;-0.02214812;-0.14288731;0.0542952;-0.10027832;0.2312159;-0.044290125;-0.24817012;-0.030523013;0.052186646;0.3042546;-0.07081425;0.0037157908;-0.0011658284;-0.2994794;-0.20229381;0.001381765;-0.14713195;0.11274132;0.04212065;-0.051000595;-0.2665034;0.18691133;-0.1414061;0.20491517;-0.1096445;-0.053626288;-0.20157073;-0.005452105;0.009963271;-0.063627385;-0.085993044;0.078060664;0.22679512;-0.050758667;0.35550845;-0.0442229;0.0067306706;0.20803571;0.15836398;0.009049882;0.042292334;-0.16629042;0.20208015;0.20235926;-0.057189647;0.178827;0.25962263;0.103211;-0.13463362;0.007987656;0.012749608;0.056581255;0.24619433;-0.07295338;-0.034513045;-0.0703886;0.05379984;-0.050462786;0.33718982;0.006259626;-0.1671107;-0.03431586;-0.22712402;-0.013941095;0.32625106;-0.08271924;0.240055;0.014148861;-0.17580675;0.06303862;-0.026292173;-0.031091461;0.24772501;-0.25763154;-0.07639075;-0.29833448;0.103587806;0.08408258;0.07438717;-0.10207586;0.053804837;0.1835532;-0.21556117;0.1684739;-0.50582653;0.26373693;-0.5518792;0.075568795;-0.054079082;0.12697539;-0.08164948;0.08276124;-0.06798836;-0.3871653;-0.08732578;0.00527131;0.069397256;0.055203807;0.03307715;0.35694283;-0.18401608;0.10035557;0.083009444;0.029190391;0.03535576;-0.057551906;0.05481842;0.016876526;0.029284552;-0.09545925;-0.055682078;-0.12665418;-0.01785837;-0.032043956;-0.18328574;-0.15176329;-0.025265109;-0.06967585;-0.13355005;0.022322714;-0.10199409;0.06406091;-0.014754811;0.07353294;0.14169464;0.05892724;-0.46344057;-0.0010249203;0.00021439072;-0.38240463;0.06525846;0.14792994;-0.44655508;0.2839701;0.11713296;0.42886075;-0.060793232;-0.03533863;0.058503598;-0.017070852;-0.01303177;0.07283313;0.015935132;-0.23663832;-0.042480677;-0.46137428;0.044856675;-0.100706115;-0.045750085;-0.09000637;-0.01827542;0.13304111;0.053303838;0.047207605;-0.42406997;-0.5651742;-0.11505279;0.051419187;0.047225546;0.1993905;-0.14515318;0.02688318;0.027378019;0.24989514;-0.04006147;0.060533848;-0.04276503;-0.123911805;-0.3970929;0.06437652;0.04329446;-0.04311205;0.019002147;0.053864453;-0.32737097;-0.29010442;0.17801078;0.06622464;-0.29480216;-0.03712877;0.46235296;0.072579324;0.029561182;-0.008653957;0.03550053;0.16898295;-0.13982147;-0.034961183;0.1862509;0.05416046;-0.031474266;-0.1539439;-0.12958126;0.030588362;0.0063101193;0.1365817;0.25922212;0.2517852;0.01316516;-0.0530068;-0.1306592;0.17548884;0.076893725;0.02040367;0.1679113;-0.518413;0.024434758;-0.20299968;0.023835182;0.23640123;0.27650544;-0.01967426;0.06623141;-0.076975696;0.1024941;0.05432237;-0.21838227;0.24353074;0.11380235;0.107807904;-0.087761834;0.0065217963;0.025047736;0.15186317;0.28163677;-0.049481522;-0.04243253;0.31347623;-0.16212964;-0.17261538;0.1036399;0.01531415;0.019374115;-0.23776096
0.07706728;-0.13398497;0.048616674;0.1782773;0.07554685;0.46087587;0.20347579;0.085874364;-0.28078854;0.046477545;-0.26228923;-0.3229377;0.03167453;-0.081132755;-0.014722857;0.02649711;0.018739032;0.03044911;-0.20797722;-0.26092348;0.082525544;-0.25156713;0.13718577;-0.07601423;0.016503772;-0.20799744;0.048758615;0.27384335;0.35742274;0.024540985;0.2264235;0.27836475;0.13947846;0.02896914;0.022016842;-0.031617727;0.041418053;-0.09529395;-0.17419806;-0.15471506;0.48380825;-0.0051956354;0.03486566;0.20541897;-0.3287847;-0.03462697;-0.031907674;-0.0038411305;-0.034374017;-0.28587833;-0.019048141;0.111718155;-0.08914721;-0.5228786;-0.003622388;0.02018787;-0.017457627;0.1318245;-0.022790136;-0.016120883;0.033405893;0.054976657;-0.043077383;-0.02595492;-0.17590928;0.022654597;-0.021593357;-0.03916098;-0.35666087;-0.0024052819;0.19565572;0.0058960696;-0.044762027;-0.30889142;-0.035481073;0.05759093;0.45290676;0.012385546;-0.008408353;-0.27138463;0.0003100903;-0.2836375;-0.02159135;-0.12864386;0.110373616;0.28761023;0.025204387;0.08174652;-0.018121146;0.040639106;0.12735648;0.07528168;0.042242583;-0.17789458;-0.20300408;0.025030755;0.033398353;-0.21636392;-0.15222214;-0.17594407;0.37972695;0.21535368;-0.12568355;0.037494104;-0.0035457085;0.26297748;0.060577694;-0.18175639;-0.11859266;-0.22434759;0.18472853;0.29223233;0.014391655;-0.4888215;0.19462787;0.049777314;-0.059146788;0.11663012;-0.24087366;0.16285636;0.036137655;-0.11101346;0.28376025;-0.38284647;-0.011822581;0.037963104;0.12707263;0.2519054;0.25959706;-0.072731614;0.35265115;-0.3254997;-0.054219868;-0.059014168;-0.25053442;-0.046288796;-0.35947034;-0.025482882;0.24334222;-0.058970455;0.063603655;0.01774908;0.18701153;-0.18904394;-0.33138978;-0.029541885;0.13614395;-0.04315214;0.1152755;0.10288729;0.029508257;0.021161614;0.06209932;0.12607722;0.19702846;0.08585672;-0.20457381;0.008606954;0.015503789;0.041690547;0.105375536;-0.1097459;-0.0694142;-0.040240906;0.0456782;-0.16656162;0.0022891809;0.124291085;-0.041123264;-0.0593967;0.22554114;0.0008210534;0.18267731;-0.15864974;0.028736636;0.02978931;-0.06357487;0.11827919;0.07032359;-0.005154649;-0.013121938;0.036067754;-0.059944548;-0.024144555;0.028381858;0.055370167;0.035559613;-0.053039618;0.08237807;-0.014044274;0.2256631;-0.40671936;-0.18462221;-0.06455362;-0.635479;0.11012092;-0.30479005;0.0904283;0.05890789;0.12144502;0.09989196;-0.4855298;0.3895456;-0.113432795;-0.057010893;0.41178322;-0.13198708;-0.3998725;-0.19018812;0.010399392;0.02117534;-0.11941911;0.14559996;0.036904395;-0.009222209;-0.04961975;-0.028497122;0.064493805;-0.113897;-0.025638375;0.15469721;0.060317025;0.33812132;-0.027574934;0.31096682;-0.38753656;-0.117808565;-0.053344358;0.10733825;-0.014354963;-0.003744837;0.18559676;0.014904627;0.20440562;0.23057815;-0.020041924;0.17941412;0.05440555;-0.1272509;-0.16000201;0.21529488;-0.21777166;0.060259875;-0.002441503;-0.1956249;0.40277824;0.2495558;0.11672768;0.014600777;0.0027103333;0.31268385;-0.02592472;0.049688626;-0.29560938;-0.071720414;-0.06148234;0.36086404;0.24906763;-0.022264108;0.03472526;-0.16733623;0.13528392;-0.026027203;0.018640151;-0.03304241;-0.057486176;-0.26949477;-0.21607266;-0.11776413;0.2534288;-0.05708868;0.042785477;0.06878944;-0.13411728;-0.050805166;-0.046382762;0.1342919;-0.17587762;0.06693051;-0.043601383;0.028428352;-0.5569476;-0.18736438;-0.23670694;0.23366232;0.078834236;0.019726003;0.15986274;-0.077701665;0.092147015;-0.20023125;0.18563972;-0.027009765;0.08593935;0.13725317;0.024495322;-0.07665329;0.015601914;0.0020766438;-0.020889992;0.00995658;-0.016305882;-0.051724203;0.1704629;0.21305084;-0.51404667;0.15422548;-0.06412885;0.11396383;-0.13382208;0.44456327;0.029945133;0.12693232;-0.024018187;-0.1164291;0.0066130874;0.045811806;0.067889154;-0.06838656;-0.05666401;-0.03639455;-0.020814117;-0.017905287;0.019842826;0.007055744;0.039620697;0.15371644;0.03593828;-0.15562929;0.01908569;0.031170055;-0.038586073;-0.032514624;-0.04192256;-0.0651233;0.045189634;0.050106652;0.12282739;-0.10192187;-0.006452907;-0.020282662;0.020916414;0.0508234;-0.13815023;-0.08467264;-0.10405123;0.072687045;0.05374195;-0.3526722;0.052839614;0.048774227;0.27725977;-0.05165511;0.045290187;0.013835509;-0.33277202;-0.22666335;0.03378402;-0.0991378;0.05934434;-0.031893574;-0.022487314;-0.26465353;0.10434493;-0.13438979;0.1203137;-0.12556452;0.09313189;-0.22627549;-0.037135717;0.037096556;-0.00894176;0.032748464;0.07030788;0.17806436;0.00653379;0.31230006;-0.021031456;-0.10122929;0.24558775;0.09340724;-0.0935564;-0.0031066868;-0.1463416;0.32586834;0.1896751;0.009723121;0.19077826;0.11751054;0.03387667;-0.17001034;0.048020825;0.005034143;0.1939346;0.2129001;-0.0967328;-0.050841212;0.011147065;-0.06021707;-0.06163541;0.22002098;0.033962503;-0.013430771;-0.085988976;-0.20259698;-0.048941553;0.326097;-0.037435014;0.25028202;-0.06859969;-0.044759136;0.01105955;-0.12555261;-0.010813729;0.24397393;-0.21924233;-0.01874521;-0.18695061;0.100852676;0.056205414;0.11706843;-0.04756858;-0.032014396;0.2117566;-0.23273878;0.2391357;-0.36004975;0.24354775;-0.41156402;-0.036669984;-0.014433649;0.10878887;-0.06385829;0.1316595;-0.099791184;-0.38065594;-0.029645033;-0.029831685;0.044287503;0.030859986;0.055193137;0.4003476;-0.21139821;0.17552172;0.07393314;-0.043579523;0.07674773;0.05516625;-0.027176334;0.054466434;0.07458687;-0.16697438;-0.058976118;-0.10441641;0.105748974;-0.06107264;-0.099210374;-0.12305268;-0.073298186;-0.17194702;-0.1957725;-0.04458964;-0.13528873;-0.056336656;-0.045507368;0.11748124;0.14980824;-0.063413106;-0.47650182;-0.022305042;-0.045425765;-0.21821985;-0.09156486;0.16156806;-0.2770898;0.41436148;0.114568025;0.51729053;-0.0043427385;0.047948245;0.043107934;-0.08005553;0.022609068;-0.03283289;0.02657384;-0.2745339;-0.004017774;-0.5636817;0.107857995;-0.1739615;-0.087193176;0.02449623;0.049388397;0.1749173;0.033348955;-0.007668227;-0.53860015;-0.49212146;-0.12566286;0.10354051;-0.05158795;0.23933057;-0.22618392;0.15336545;0.05449053;0.20254667;0.048104405;-0.016536603;-0.039319295;-0.11107313;-0.25347972;0.06688565;0.020863665;-0.070068195;0.000681319;0.042654287;-0.3315717;-0.45668772;0.22470401;0.023747545;-0.24728122;0.050438005;0.4441463;0.12856242;-0.06397442;0.052759517;0.019439239;0.097293116;-0.13716406;0.04080805;0.055013686;0.17323296;-0.042416986;-0.18848236;-0.00489221;-0.040664244;0.04841991;0.19192836;0.3061983;0.30256826;-0.044118006;0.06686212;-0.24426457;0.26025656;0.061359894;0.07067869;0.14698233;-0.50748533;-0.08411715;-0.06311872;-0.032350376;0.2621643;0.1817759;0.0073462673;-0.06259139;-0.06112927;0.17173783;0.059795637;-0.35580638;0.18968919;0.090372294;0.042792186;-0.11406827;-0.08565711;-0.0008075408;0.20676406;0.26618382;-0.036560297;0.036367778;0.20221661;-0.12404076;-0.14186046;0.046101827;-0.047257714;-0.05646571;-0.28079507
0.16655271;-0.18095095;-0.044176064;0.15604442;0.00556001;0.35091338;0.2074624;-0.010188845;-0.43824482;0.020624774;-0.28519794;-0.28321952;0.07605816;0.018115742;-0.13988344;-0.057476494;0.042021766;0.053173117;-0.1868501;-0.31269374;0.15477572;-0.19150181;0.19772592;-0.021546703;0.06711803;-0.21045013;0.031629648;0.2678161;0.25727507;-0.04901734;0.20847571;0.28392515;0.09191002;0.029167019;0.029494327;-0.04031142;0.027356837;-0.06847609;-0.2070563;-0.12949759;0.4705155;-0.09994929;0.022156814;0.1551458;-0.35894686;-0.036567878;0.026416557;-0.0012109514;0.004031255;-0.26034275;-0.040299658;0.094038084;-0.07975329;-0.47583824;-0.14859803;-0.0095833065;0.08347531;0.100507565;-0.02429069;-0.074886836;0.052909795;0.019029541;0.003841551;0.05904912;-0.1285783;-0.15284802;0.021447197;0.092729606;-0.38139084;-0.08335934;0.110085174;0.024254702;0.025059637;-0.16965397;-0.17078014;0.05856481;0.53043926;-0.07163117;-0.0351534;-0.3136568;-0.07337674;-0.29535604;0.02231871;-0.10263699;0.26460433;0.4057888;0.062327694;0.14512382;-0.012611571;0.0035105548;0.25682542;-0.05390242;0.1270264;-0.090099506;-0.23504168;-0.118306376;0.07498956;-0.23193645;-0.178194;-0.14366768;0.3678575;0.14630781;-0.2089184;-0.05698945;-0.06658656;0.15690425;-0.07943676;-0.14108938;-0.14405751;-0.13153265;0.013220962;0.17183551;-0.050343785;-0.49614486;0.17568627;-0.035953894;0.05643223;0.046880107;-0.19682215;0.15220225;0.025648335;-0.11830972;0.28661036;-0.36000034;0.10345017;0.09341464;0.14704895;0.18923108;0.3222357;-0.1839766;0.30957058;-0.29339612;0.07957703;0.0061446736;-0.32896602;0.044442058;-0.3796678;0.043769084;0.14183348;-0.09550187;-0.059629064;0.10914241;0.4274052;-0.20913406;-0.31982702;-0.031276766;0.02136263;0.011654936;0.015767163;0.024729643;-0.005010251;0.11757264;0.10136417;0.15249495;0.21103919;0.00022756094;-0.2637874;0.018382419;-0.014547811;0.032779105;0.14112325;-0.11578735;0.004637544;-0.052880835;-0.087895274;-0.28235075;-0.021423277;0.12355254;0.06341992;-0.030257115;0.24962;-0.069648825;0.15360828;0.018308185;0.056622908;0.015335779;0.024147347;0.12915005;0.016585508;-0.01221054;-0.059329994;-0.022941617;-0.013493497;0.04169476;0.021121882;0.14105223;-0.03740871;-0.14111103;0.12261046;-0.0028254662;0.06956459;-0.47049576;-0.18704692;0.0073759463;-0.75008;0.029969769;-0.39703584;0.09198205;-0.036998145;0.14038979;0.035933174;-0.62135816;0.34121314;-0.19285554;-0.031870574;0.40063506;-0.21088375;-0.38514364;-0.099905394;-0.043895952;0.019341065;0.020418316;0.20627971;-0.05834622;-0.025696672;-0.057391718;-0.21685944;0.07158318;-0.03926255;0.04174563;0.172468;0.058956772;0.41934586;0.03906827;0.28560036;-0.39604536;-0.087345704;-0.08113561;-0.0062286425;0.010193801;-0.06745147;0.037514985;0.102400035;0.04213684;0.22291571;0.021564445;0.24800092;-0.008276781;-0.18449447;-0.1297024;0.29723793;-0.2473357;0.23209277;-0.05719431;-0.22232345;0.38666347;0.16291955;0.026024397;-0.0015198339;0.047171574;0.24817522;-0.050689183;-0.058677416;-0.1959579;0.04111668;-0.18490091;0.3400892;0.33713412;-0.07353294;-0.068556786;-0.22970365;0.27756757;-0.06288296;0.067595206;-0.062185664;0.03330309;-0.26430357;-0.42093724;-0.1894334;0.36454886;-0.007761836;-0.040395364;-0.06759924;-0.08711987;0.040376347;0.033471778;0.022485547;-0.14625618;0.07728547;0.0052065966;0.07534356;-0.5896962;-0.068753615;-0.1723619;0.2868013;0.12138314;0.016260622;0.15102543;0.07295995;-0.030111158;-0.24594632;0.19410528;0.1461553;0.0034818286;0.08168241;0.019382337;-0.12938443;0.11108028;-0.04728557;0.019987319;-0.059047837;0.043182235;-0.04136772;0.09435673;0.14727508;-0.5146265;0.15546893;-0.08271152;0.13987102;-0.17781945;0.42264336;0.021524765;0.19502449;-0.035319846;-0.027653197;-0.010687943;0.055988155;-0.040943142;-0.068444416;-0.046860393;-0.058418628;0.023403315;0.05001707;0.03132881;0.047697507;0.06852699;0.09101672;-0.04767977;-0.09670186;0.02033294;-0.034689136;-0.055559233;0.02483244;-0.06313055;-0.05616693;-0.012767169;-0.08182006;0.08426527;-0.12318712;-0.0837428;0.012918528;0.0045288913;0.025599798;-0.11582536;-0.068934105;-0.121205516;0.119362526;0.029635783;-0.336135;-0.03042542;-0.038308553;0.22509201;-0.046840232;0.0025348999;0.016393872;-0.31671706;-0.23269117;0.08135081;-0.14475644;0.08495427;-0.02302587;-0.06447144;-0.25168025;0.26046768;-0.1103005;0.19475041;0.02116211;0.05126341;-0.23421377;0.048057474;0.00019734875;0.04161321;0.029573869;0.19553462;0.14188337;0.019833913;0.2671563;-0.06929632;-0.10943773;0.25434637;0.06550764;0.14640519;0.0069975746;-0.04440712;0.34989238;0.16949153;0.035901193;0.11536298;0.11211341;-0.008113418;-0.2576594;0.038954478;0.045331232;0.2818926;0.18626347;-0.23188837;-0.011679235;0.012989418;0.006782238;-0.012669756;0.3181601;0.07307988;-0.0039254916;0.058804177;-0.34184065;0.027721506;0.32159263;-0.08321706;0.2287628;0.06592264;-0.21702129;0.05695148;-0.15791093;-0.015971627;0.34082747;-0.18670508;-0.034025878;-0.32122576;0.15345278;0.15058552;0.03437425;-0.07404355;0.010881575;0.19102058;-0.34924063;0.34022936;-0.29486552;0.329178;-0.41595146;0.030966725;-0.053135842;0.051472954;-0.05463648;0.078093156;-0.018013509;-0.3744284;-0.016177004;0.065037884;0.017286435;-0.06902024;-0.008716594;0.37858897;-0.18876205;0.11369428;-0.004609867;-0.018135652;-0.0020119636;0.015420442;-0.017655026;-0.051003866;0.06481035;-0.22575244;-0.045186263;-0.19851902;-0.021295263;-0.004148135;-0.22801152;-0.03743042;0.014365941;-0.1132878;-0.17385995;0.047069695;-0.095955975;0.071852766;0.051477358;-0.04413137;0.21032126;-0.019778933;-0.5284622;0.09678582;0.023587191;-0.2938052;0.027820624;0.18950883;-0.22985058;0.42217788;0.036983028;0.43400648;0.029903678;-0.0058646593;-0.020938212;0.058240615;0.041814677;0.050336853;0.037488896;-0.29330108;-0.088335805;-0.5898529;0.0943075;-0.17021286;-0.11653295;-0.104075395;-0.043396022;0.14498708;-0.001862643;-0.075419925;-0.5932034;-0.40570226;-0.082547456;0.06435316;0.07063671;0.1662478;-0.11163211;0.20367704;0.008574408;0.25259176;0.0007308836;0.014487221;-0.09308458;-0.2207984;-0.29313725;0.07335242;0.06828323;0.07280303;-0.03579376;0.004556734;-0.22552304;-0.5068389;0.14955135;-0.015096245;-0.20045194;0.0047476995;0.40760165;0.121341;-0.021422075;-0.068084076;-0.05568414;-0.0684868;-0.2031562;-0.037187938;0.16585389;0.104423486;-0.06241991;-0.08106489;0.021904172;0.034106795;-0.0067466996;0.21452981;0.38493595;0.18717211;-0.069862485;-0.030993445;-0.24642052;0.21712749;0.06319041;-0.108666494;0.19536658;-0.48892707;-0.042591956;-0.04073483;-0.045506287;0.29541072;0.18956652;-0.13971448;-0.009431594;-0.0058082715;0.20658648;0.042966872;-0.37846398;0.18448481;0.23383382;0.24568574;-0.13095336;-0.010116163;-0.0900537;0.28469524;0.23728904;-0.024780238;-0.006236263;0.23818676;-0.12743323;-0.26593438;0.0636292;0.07199168;0.029031636;-0.27072343
0.21677244;-0.04031466;-0.004566306;0.043322638;-0.009321941;0.3139892;0.24462025;-0.021065772;-0.2951675;-0.02380924;-0.21491468;-0.14945467;0.0375843;0.012974473;-0.18430531;-0.043254264;-0.0535582;-0.043170758;-0.28277385;-0.25969505;0.00047342447;-0.10865009;0.16681999;0.10169437;-0.05015898;-0.16091031;-0.05315827;0.23593889;0.28684554;0.018776925;0.08287948;0.17211665;0.13273937;-0.03518634;0.011162323;0.085600026;0.038609806;-0.08119503;-0.26631263;-0.09420084;0.409033;0.04424995;0.11976201;0.20702334;-0.27908894;-0.012678693;-0.062084842;0.01696287;-0.0074241166;-0.34645268;0.019077128;0.005589773;-0.038885906;-0.36942682;-0.08228483;-0.011588342;0.096069954;0.16358224;0.08606647;0.017380545;0.021941107;0.058740787;0.048615474;-0.057543572;-0.23557562;-0.26031098;0.07232418;-0.054367147;-0.41720268;0.01584435;0.14860965;0.018957779;-0.042577397;-0.2631882;-0.12001475;-0.011951277;0.5482968;-0.06699013;0.055295456;-0.17944703;0.004134119;-0.3466083;0.019678388;-0.072412364;0.18072203;0.42076236;-0.067096725;0.17823063;0.051988803;0.030764401;0.11129788;-0.050801117;0.15391454;-0.07641449;-0.3057429;-0.19865604;-0.0010505262;-0.34460667;-0.34470809;-0.19430055;0.40447113;0.22465704;-0.16065435;-0.09292243;-0.07198913;0.2002274;-0.113545895;-0.16221058;0.018079875;-0.14882083;-0.036508016;0.14584117;0.023168085;-0.55997217;0.0602123;-0.04934369;-0.0086260615;0.04798243;-0.19915117;-0.005794096;0.027490176;-0.13316768;0.16477516;-0.35760042;0.003531666;0.1239656;0.15733248;0.24995162;0.3761646;-0.2676329;0.30617508;-0.2062745;-0.014328502;-0.041640993;-0.39743826;-0.09099192;-0.30903906;-0.059393097;0.17000557;-0.12682085;-0.07390641;0.15084636;0.4537882;-0.19818883;-0.32561377;-0.01938014;0.045649413;-0.045110267;0.04468734;-0.00924588;0.032534484;0.0868063;0.078463845;0.12796529;0.16833921;0.085663736;-0.18662457;-0.066195205;-0.009862468;0.12517151;0.05036446;-0.102935135;-0.10665705;-0.007216101;0.01678589;-0.08784727;-0.017741539;0.047878884;0.087218724;0.12780818;0.22461997;0.011122537;0.11371079;-0.0263428;-0.06084606;-0.018782312;-0.082117;0.036598314;0.10054892;-0.055865314;-0.045105502;0.08678805;-0.20432763;0.15163782;0.06525633;0.05816728;0.09985551;-0.05331659;0.13094127;0.037305877;0.261335;-0.375165;-0.198922;0.030850304;-0.7952228;-0.082788564;-0.4382787;0.010147932;-0.08879698;0.11247496;0.08811743;-0.55737054;0.17431854;-0.22826803;0.0029235687;0.37620035;-0.2945435;-0.32228994;-0.13457344;-0.024727728;0.03553296;-0.10068447;0.25451967;0.07089146;-0.009506186;-0.0017038829;-0.12246759;0.09422997;0.09532621;0.047119506;0.10857184;0.022356162;0.46946;-0.035408463;0.20876594;-0.35042936;-0.15892495;-0.056522127;-0.006930593;0.011676074;-0.09145021;-0.015493138;0.1318987;0.019070126;0.16492435;0.08277153;0.14946364;-0.024939636;-0.20059817;0.02180438;0.30596521;-0.27535054;0.19856067;-0.05812123;-0.18987344;0.3957644;0.282743;-0.030058876;-0.054733496;0.090855256;0.20559399;0.10107705;-0.05001874;-0.40287304;-0.07899454;-0.04765868;0.32030216;0.31933147;-0.048939925;0.041993327;-0.274987;0.27359405;0.03118648;0.035693258;-0.055545352;0.035990622;-0.1660992;-0.3716749;-0.28155404;0.26026303;-0.09736008;-0.12965873;0.015380297;-0.06724802;-0.06516553;-0.046673257;-0.0051410072;-0.2512015;-0.062411673;-0.022070497;-0.06719749;-0.50375456;-0.013210017;-0.05896879;0.19584434;0.0396192;0.0036450878;0.015151772;0.0005754843;-0.1060473;-0.16307223;0.20026444;0.19765219;-0.051987883;0.22491817;0.03344754;-0.08321947;-0.01656222;-0.043426067;0.06498313;-0.057689536;-0.013301079;0.07079099;0.003293343;0.20480374;-0.53465796;0.039654203;0.024619162;0.14603055;0.001330274;0.48139772;0.013702472;0.0525752;-0.045778006;-0.18542929;0.027861847;-0.015832406;-0.020185772;-0.06675036;0.04835272;-0.05967679;-0.04578584;0.030356584;0.05446971;-0.0749293;-0.06590094;0.21126148;-0.07376932;-0.1457685;-0.049698282;0.064201064;0.03166971;-0.0004955895;0.00761885;-0.015203205;0.039185118;-0.16937782;0.031405725;-0.12515919;-0.055063076;-0.050094366;0.17864044;-0.02233652;-0.32278457;-0.11655831;-0.072602615;0.03581561;0.03950141;-0.26969895;-0.02575263;-0.0035002013;0.17142421;0.05632357;0.024931498;-0.07335306;-0.4398461;-0.2445556;0.024150006;-0.2655097;0.16075386;0.029666558;0.057910457;-0.27400586;0.17064378;-0.097877115;0.22275285;0.06131339;0.05108889;-0.20986983;-0.07004239;0.07254406;-0.03322973;0.037884124;0.18725961;0.21015933;-0.02066743;0.21482012;-0.010129007;-0.09582463;0.3275934;-0.03264265;0.12061087;0.05459871;-0.019291583;0.27405143;0.2141157;0.020714227;0.01954189;0.13529666;0.06950905;-0.07836479;-0.0949396;-0.0367458;0.23571181;0.2312194;-0.11822843;0.049149234;-0.06281896;0.026265778;-0.052225634;0.1889214;-0.01313004;-0.011244057;0.0034925463;-0.31787318;0.0031986772;0.36178502;-0.086221755;0.34548172;0.056837622;-0.2236706;0.0836579;-0.09937382;-0.027271833;0.21499763;-0.18095347;-0.16247173;-0.2621972;0.080099925;0.13468999;0.06017995;-0.05138889;0.019900147;0.28968298;-0.4529177;0.2018736;-0.29837975;0.20739037;-0.4134214;-0.021266041;-6.206715e-05;-0.040772628;0.06556644;0.09006722;-0.16212194;-0.255871;-0.062422544;0.059095006;0.17378485;-0.010934599;-0.054735146;0.43091226;-0.2499321;0.11398273;-0.09733818;0.046662524;-0.014743258;0.14391206;-0.067488045;0.034697488;-0.010672897;-0.13571031;0.06604221;-0.06254733;-0.017151063;0.040643364;-0.16893023;-0.17198837;-0.06330745;-0.18351683;-0.09441211;-0.050348103;-0.18085091;-0.019831004;0.032795537;-0.014569906;0.20000781;0.039300777;-0.5810038;-0.061367445;-0.12268423;-0.099359356;-0.0055051753;0.184211;-0.09355666;0.41859555;0.023666508;0.5611686;0.05609219;0.009094067;0.050647937;0.033679463;0.0697104;-0.040355537;-0.0857673;-0.39923432;0.015198903;-0.5899616;0.10891758;-0.00033083456;-0.21910244;-0.096559696;0.042996984;0.24039167;-0.0063576377;0.0125061795;-0.54871047;-0.42240182;0.0393764;0.12814565;0.071396716;0.28925994;-0.04878413;0.19373235;-0.03837306;0.3762515;-0.034064695;0.029305676;0.007419524;-0.18234038;-0.36654824;0.16026077;-0.06931441;0.0008807166;0.12235146;0.045351002;-0.32716584;-0.6574554;0.18911074;0.05064732;-0.2634637;0.015501039;0.39729184;-0.044888403;-0.0046772724;0.02374508;-0.063211165;-0.121775314;-0.3407874;-0.003604312;0.07133775;0.20877326;-0.11042156;-0.09353166;0.06638971;-0.04804538;0.010286852;0.18073009;0.3234615;0.14248613;-0.08410868;0.08051196;-0.27390847;0.3166623;-0.03976199;-0.106769115;0.20187499;-0.45825768;-0.059689794;-0.07274926;-0.0589665;0.14983723;0.09360647;-0.07272075;-0.04739476;0.0019937884;0.2046141;0.049838927;-0.2967048;0.17533967;0.32090056;0.06597952;-0.044798017;0.052055117;-0.026160855;0.23060478;0.2424893;0.01299421;0.058291636;0.20538771;-0.117357284;-0.37636974;0.052494176;0.06660723;0.04612854;-0.40275627
0.19758402;-0.18471777;0.038675603;0.12697303;0.013953179;0.37525272;0.2516888;-0.019179763;-0.34279662;0.036261193;-0.111363165;-0.17298615;-0.035537444;0.029559253;-0.2817208;-0.06815826;-0.040767904;0.08327641;-0.24779026;-0.25866032;0.081314996;-0.12165641;0.14857468;0.24387768;0.07527485;-0.068450995;0.027017266;0.22848319;0.35103166;0.14400432;0.08654655;0.13135451;0.08074168;-0.018847464;0.023832545;-0.051003728;-0.06391722;-0.056294844;-0.21313488;-0.112891644;0.31469563;0.07514679;0.12975097;0.2825423;-0.3184785;0.040843505;-0.0035289808;0.06325679;-0.005466884;-0.50118446;0.027034434;0.13463628;0.13150702;-0.45522645;-0.18155615;0.07678738;0.2525818;0.18188871;0.044841915;0.032807082;-0.025354639;0.039979428;-0.041297134;-0.003138562;-0.31151676;-0.27909425;-0.035099156;-0.09783045;-0.3679337;-0.049798187;0.11883064;0.06451312;-0.07062612;-0.14961344;-0.15716572;-0.0060979472;0.5136412;-0.11100559;-0.004791281;-0.09129836;0.01201324;-0.21214901;-0.043931153;-0.15609208;0.2319795;0.39687014;0.019267421;0.19658956;-0.034133837;0.049332887;0.16903691;0.06215043;0.10083045;-0.12901579;-0.27632242;-0.13461469;0.03275125;-0.21934718;-0.30754223;-0.20366482;0.40749887;0.20068042;-0.06336672;0.01122288;-0.16018347;0.14667213;-0.06458549;-0.10372607;-0.03734837;-0.22279117;-0.015210134;0.12792471;-0.007416869;-0.47963622;0.06673693;0.041037742;0.0030572563;0.064748876;-0.38325894;0.11951725;-0.053216666;-0.09098597;0.35023698;-0.3674621;0.04165758;0.10256129;0.32794133;0.17785896;0.3879702;-0.1591021;0.27247626;-0.1463879;-0.0010757501;0.032531902;-0.3506344;0.029089088;-0.37341803;0.006887696;0.10494594;-0.13073564;0.07221219;0.21483295;0.5470141;-0.17459458;-0.33681217;0.070003904;0.16291836;0.013308859;0.097182915;0.068581305;-0.01337058;0.26143727;0.056224626;0.0068085273;0.13020507;-0.0021426897;0.056803145;-0.14897418;0.0472341;0.2545799;0.027689032;-0.106654875;0.04625801;-0.034997292;0.0022486933;-0.17534336;-0.07274184;0.18038096;0.10375841;0.17360069;0.15947865;-0.003567406;0.095593244;-0.0043404666;-0.20242752;-0.03163759;0.0030932818;0.16606326;0.055868633;-0.024686908;0.043679595;-0.05588495;-0.15915303;0.02831995;0.008955256;4.166643e-05;-0.05248257;-0.16945311;0.055742953;0.03577507;0.28727272;-0.4357039;-0.16323793;-0.05213306;-0.79219055;-0.057441875;-0.47016594;0.02398592;-0.085935675;0.11382251;0.2479435;-0.7013611;0.2310367;-0.33558384;0.067673184;0.2676251;-0.3259097;-0.100783125;-0.04694198;-0.10455684;0.074626856;0.0030976231;0.30093879;-0.04363913;-0.0031412866;0.027499815;-0.25784913;0.028166378;0.12656602;-0.049688727;0.08997802;-0.17496204;0.40303516;0.032386646;0.19935371;-0.31812623;-0.31022534;0.0017618794;0.039651085;0.019277867;-0.056055177;0.072307155;0.18191682;0.14099264;0.16163084;0.0888002;0.20671642;-0.041930385;-0.04448838;-0.0047998833;0.29891384;-0.34692338;0.2024368;-0.05013385;-0.20267765;0.5444938;0.17198215;-0.014060981;-0.01575196;0.0027337684;0.119671;-0.052551515;0.053134058;-0.4084435;0.06911034;-0.11414725;0.19691817;0.2853716;0.05330527;-0.013943698;-0.38940516;0.3877104;0.07156622;-0.048698094;0.027901564;0.035315555;-0.12300336;-0.5495417;-0.25858256;0.3487831;-0.1642836;-0.028573692;0.0030272012;-0.23592913;-0.078047544;-0.037973806;0.015752738;-0.17336968;0.0112148365;0.05680024;-0.039940763;-0.6063428;-0.11264873;-0.084401146;0.2600977;0.017328942;-0.06489225;-0.031629685;-0.0069444217;-0.16245875;-0.080962725;0.12433746;0.30259582;0.0065473923;0.18761633;0.07099902;-0.13282065;0.059370004;0.045169376;0.029906753;-0.15896587;0.03351828;0.02034608;0.17541206;0.268474;-0.6891487;0.20713769;-0.015620614;0.11401743;-0.0920522;0.47655928;-0.06414213;0.0775906;0.0011308669;-0.16324532;0.0030914606;-0.13742633;-0.05924185;-0.039628148;0.0152227655;-0.09313741;-0.10049688;0.16392493;-0.04125251;0.026844868;0.041390736;0.19369014;0.05449479;-0.16976435;-0.03856167;-0.008361863;0.05802639;0.0036372384;-0.006711215;-0.02084952;-0.039084245;-0.28010055;-0.025906837;-0.16639484;-0.049850054;0.06080851;0.18501125;-0.03186477;-0.2805184;-0.12509868;-0.20293297;0.06229112;0.06650123;-0.36460474;0.0195702;-0.05751993;0.11046302;0.025906654;0.039320774;-0.010522339;-0.42374048;-0.2372068;0.0005511113;-0.31362525;0.18536408;0.013336271;0.027688019;-0.19482584;0.16360486;-0.008464798;0.26983473;0.138881;0.10824913;-0.31639075;-0.089093454;0.036416218;0.024720531;0.025777074;0.10530136;0.20111635;-0.04075327;0.2344769;-0.14594665;0.023983555;0.26692837;-0.12201591;0.06149871;0.07328322;-0.07826978;0.2596356;0.27923277;0.13364804;0.15337437;0.18901914;-0.014044172;-0.021747814;0.020584676;0.038730923;0.458145;0.19319128;-0.32472843;0.050134763;0.022257797;-0.043052662;0.0031491418;0.21133295;0.0061258883;0.100898854;-0.023218684;-0.3778009;-0.03129482;0.26661372;-0.20994323;0.37918356;-0.05249193;-0.31164733;0.19431111;-0.12208714;0.0066394494;0.3084534;-0.03235045;0.020852268;-0.21322776;0.11037563;0.1538779;-0.055379312;-0.048930153;-0.038858324;0.18313095;-0.46266347;0.25924155;-0.2827953;0.3242566;-0.32289156;-0.039281607;0.028560292;-0.074511;0.1380009;0.097550765;-0.17841867;-0.2796919;-0.047441687;0.069150425;0.15010433;-0.003356035;0.014022253;0.48962295;-0.23334303;0.039661888;-0.0849623;-0.09649146;-0.007992429;0.091053;0.00035518047;-0.030057294;0.08622881;-0.21215402;-0.021258418;-0.14391752;0.04968606;0.015354469;-0.24441849;-0.13740392;-0.11078373;-0.04333217;-0.12943727;0.038484976;-0.18375824;-0.02616782;0.013485738;0.050008766;0.23267323;0.041648563;-0.5913807;0.00059951533;-0.22457942;-0.03971471;0.04938851;0.17516467;-0.025454152;0.34601888;0.041371375;0.5387261;0.020160878;0.012479493;-0.090538755;-0.089316346;3.4851168e-05;-0.018736199;-0.08453014;-0.36575863;0.05149196;-0.62219065;0.09192596;-0.07213815;-0.1505077;-0.10956281;0.07035589;0.25634846;-0.0690184;0.04159576;-0.62489533;-0.5384428;0.02705442;0.17490512;-0.0127583295;0.18146051;-0.08885467;0.27527002;0.029223166;0.3250237;0.012369206;-0.042899836;0.048784908;-0.09410598;-0.3432128;0.20932387;-0.07122681;0.036053225;0.13491285;-0.0818668;-0.16703796;-0.6279413;0.096315175;0.03467048;-0.23716986;0.044341482;0.24011002;-0.07411261;0.016126567;-0.037765745;-0.037209928;-0.050006654;-0.3565794;0.0025143102;0.060971405;0.36329657;-0.10615948;-0.20978379;-0.07571852;0.012831671;-0.011190088;0.14569643;0.4069841;0.18097739;-0.10943143;-0.05872592;-0.32842338;0.1576166;-0.028470047;-0.06961913;0.35673857;-0.5874908;0.051085938;-0.05170072;0.051961757;0.09985485;0.030668123;-0.111494035;-0.038281478;0.08837785;0.049972773;-0.13206924;-0.26797828;0.11147199;0.19750197;0.12781346;0.13079314;0.008521834;-0.07742276;0.30129898;0.19218946;0.031347275;-0.07361979;0.2813191;0.005853647;-0.29897895;0.12527545;0.05843799;0.034909595;-0.33377093
0.13066708;-0.07413643;0.019019417;0.04988355;-0.008188569;0.35893863;0.31970793;-0.012783106;-0.43140194;-0.047897603;-0.1263291;-0.17081404;-0.027644107;-0.011799396;-0.27716827;0.050701316;0.00054966577;0.010580288;-0.28580073;-0.24671756;-0.045545887;-0.2246989;0.26765582;0.31701604;-0.0353786;-0.16589771;-0.028441682;0.18095146;0.31889424;-0.010979517;0.052164704;0.019621039;0.12003242;-0.011937075;-0.009578344;-0.03396017;-0.010571279;0.019379057;-0.25491908;0.0039033883;0.32843116;-0.022273276;0.14985777;0.23412018;-0.08998604;0.0945308;-0.0012635331;-0.0069481996;-0.044265036;-0.4864589;0.053887844;0.016208459;0.14305742;-0.34301683;-0.15961277;-0.03919785;0.16552764;0.023921408;-0.08763994;0.044725522;0.0056469426;0.14001158;0.037384667;0.059041295;-0.27511188;-0.3920286;-0.021496112;0.018769292;-0.44965395;-0.010639166;0.21701205;-0.096413486;-0.010056656;-0.2117202;-0.28201616;-0.005836042;0.57290596;-0.18311253;-0.0145769;-0.23146851;0.046701517;-0.19215274;0.039873462;-0.18181504;0.25879216;0.50954664;-0.077463046;0.296473;0.01594364;-0.031559333;0.06576034;0.057338625;0.1270965;-0.09089544;-0.37614444;-0.0939945;-0.09558667;-0.20395966;-0.11855393;-0.2052297;0.4081219;0.30213398;-0.12734719;-0.032793354;-0.16221204;-0.038148213;0.037523102;-0.12738656;-0.092827745;-0.13135086;0.04925385;0.17427748;0.060928635;-0.5361158;-0.010052669;-0.00975542;-0.005119377;-0.041281436;-0.4026293;0.097632244;0.008115004;-0.10047871;0.37214392;-0.23938516;0.1251025;0.13734947;0.18814033;0.13175388;0.24590044;-0.17931424;0.21587756;-0.26717955;0.057145476;-0.00971206;-0.3950344;0.014028423;-0.27075145;0.08961776;0.06892229;-0.104789376;0.021188647;0.25973535;0.51556915;-0.19491643;-0.11525123;-0.04798317;0.07909991;-0.013288731;0.01275634;-0.041612044;0.029947277;0.24852438;0.13667883;0.0911247;0.15997197;0.05704102;-0.04325314;-0.1725727;-0.056525934;0.30952907;0.006029896;-0.12254518;-0.041667588;0.0013454173;-0.02141001;-0.053972416;-0.0019947896;0.0555471;0.15343751;0.13430487;0.23526073;0.033355795;-0.054490093;0.043628648;-0.21247552;-0.038145512;0.07214923;0.053945716;0.007982722;0.08738024;0.025181105;-0.03750608;-0.2546676;-0.039203577;0.026739175;-0.008573452;-0.051163703;-0.19853492;0.083855614;-0.035748843;0.31373936;-0.42565584;-0.15082303;0.08679014;-0.89395773;-0.16365476;-0.4140858;0.07626086;-0.10657635;0.14339186;0.291667;-0.8022119;0.14442386;-0.30035433;-0.003993476;0.3765082;-0.28892574;-0.042026594;0.019840032;-0.14153731;0.025494967;-0.14663057;0.26341692;-0.04237323;-0.011108737;-0.06660617;-0.12905426;0.0014456086;0.16293913;-0.06149057;0.14896566;-0.085727;0.42553207;-0.020752316;0.08845348;-0.25468487;-0.20520332;-0.006348414;0.066685654;0.04669803;-0.009245826;0.055837076;0.2953475;0.2282475;0.09369672;0.21309513;0.32013187;0.037383858;-0.13564156;0.021189477;0.3595165;-0.397637;0.25492778;0.03564762;-0.076946594;0.4705001;0.2302905;-0.12103185;0.029909214;0.08603543;-0.05963181;-0.04530905;-0.0040127803;-0.41669053;-0.03317805;-0.11444299;0.08375205;0.40986764;-0.039953973;-0.032278255;-0.48735073;0.368567;-0.017272532;0.038817797;0.08179275;-0.015035265;-0.1675211;-0.55503446;-0.30744013;0.3387177;-0.25258413;-0.045552667;-0.14995492;-0.30063894;0.037341036;-0.0041737882;-0.1686801;-0.109609954;0.016499566;-0.046066567;-0.058177788;-0.5370573;0.012673976;-0.20771617;0.32048687;0.07934401;-0.03687502;0.106686965;0.018680945;-0.102215275;-0.12429104;0.21211985;0.24055418;0.04015929;-0.035578318;-0.054377876;-0.12832057;-0.00796224;0.05554422;-0.04541789;-0.21717903;0.14778008;-0.048432507;0.11680536;0.23391841;-0.78977716;0.07714275;0.03857331;0.1461397;-0.15902527;0.46340856;-0.014286345;0.14501913;-0.020477025;-0.11150221;0.08210122;-0.21111782;-0.014097387;0.08886332;-0.071351476;-0.013289574;-0.0030681125;0.15404256;0.017144898;0.021261772;0.17113112;0.28596875;0.02348085;-0.16420534;0.053227086;0.0027709105;-0.021212636;0.0043094144;-0.014201688;-0.09362213;-0.060018506;-0.29422045;0.03256682;-0.23923734;-0.08673533;0.014031733;0.25888276;-0.027112799;-0.4928043;-0.18418281;-0.20501044;0.06847042;0.11571204;-0.2699188;-0.02351863;-0.0052786046;0.054029208;-0.1311473;-0.011065799;0.040858876;-0.35700426;-0.21412611;0.021142766;-0.2726917;0.10744034;0.050140727;0.031684257;-0.12133201;0.13591084;-0.101840064;0.1287564;0.07323485;-0.059567094;-0.2762861;-0.20248471;-0.04325177;0.01977499;-0.05734491;0.23079258;0.27982965;0.033575553;0.38785446;-0.1237065;-0.16871324;0.25275224;-0.14855969;0.23409034;-0.070734404;-0.0050996663;0.17351916;0.1898744;0.07782834;0.11489451;0.10590411;0.037198808;-0.033429433;-0.08077835;-0.019533593;0.36820513;0.20715299;-0.33579567;0.013453784;0.023713535;0.05509231;0.06853076;0.16093561;-0.055443414;-0.0102251815;0.025230484;-0.40135422;-0.032845024;0.20232467;-0.17549987;0.31955925;-0.0034904762;-0.2950988;0.18139206;-0.26733038;0.06499113;0.25638956;-0.031723596;-0.01287175;-0.089341566;0.07836939;0.20783801;0.033110525;-0.027756589;-0.011049579;0.2078136;-0.65841854;0.17128193;-0.23769966;0.25207338;-0.37622103;-0.01493251;0.1762032;-0.16152927;0.049104966;0.15325448;-0.19746025;-0.17120115;0.08774778;-0.0017131427;0.27234218;-0.010991221;0.04897526;0.59809655;-0.20146945;0.16812155;-0.21691406;0.024340196;-0.014356528;0.016722675;0.012734672;-0.06415285;0.06815672;-0.31539378;0.08825351;-0.0023458605;-0.00970131;-0.034994245;-0.15323055;-0.113971494;-0.074877635;-0.01300427;-0.044693936;-0.06322233;-0.1909255;-0.014226483;-0.08039509;-0.011247132;0.27475426;0.025056217;-0.45898697;-0.07346871;-0.2048019;0.0048915567;-0.049358077;0.14346817;0.01537782;0.4322497;0.045714274;0.5736664;-0.04710546;0.05454129;0.052757073;0.014051478;-0.07078522;-0.021139847;-0.102074414;-0.23447417;0.0010774694;-0.46566308;0.15004121;-0.1979139;-0.156829;-0.040347815;-0.0676517;0.20026171;-0.05705198;-0.013374849;-0.66287553;-0.45985827;0.10409214;0.24237852;-0.06332296;0.11598701;-0.041466445;0.27635854;-0.057037644;0.33796373;-0.008691876;0.025254652;-0.04657769;-0.2936144;-0.28205433;0.17042537;0.023316;-0.029529043;0.17694171;0.035495546;-0.14463618;-0.719707;0.2773417;-0.073576815;-0.3680409;-0.01928185;0.32463476;-0.12126718;0.04271321;0.061089557;-0.15319002;-0.224183;-0.21182212;0.073255226;0.04007612;0.4568446;0.0015267673;-0.09783572;-0.04278192;-0.022596335;0.011983673;0.08592149;0.35504872;0.3278635;-0.1700887;-0.050294884;-0.24344188;0.16272905;0.008039552;-0.24505915;0.2372711;-0.4672139;0.042070504;-0.0951851;0.0037844088;0.15451042;0.11410664;-0.09964303;0.05885772;-0.041058965;0.03684012;-0.20300269;-0.26522347;0.1265452;0.221992;0.12984276;0.035528593;0.013666593;0.009035389;0.3700533;0.22530216;0.012692928;-0.046435047;0.2590233;0.0029509992;-0.21516128;-0.007499228;0.15893055;-0.07114661;-0.22637601
0.07724281;0.10256;-0.0745122;-0.05072067;0.01352114;0.46286616;0.44721234;-0.029052464;-0.47481516;-0.0034924087;-0.10878329;-0.11825925;-0.027072022;0.0126646375;-0.37250254;-0.003268734;0.057346784;-0.11211133;-0.2963914;-0.28423163;-0.13477919;-0.10520634;0.23814988;0.4090656;-0.06046694;-0.11328926;0.026902359;0.2761245;0.24254434;-0.0050168373;0.1708628;0.053015124;0.14629123;0.054971777;-0.02421953;0.060196076;-0.05073916;0.108529024;-0.21865241;-0.10369498;0.3591617;-0.027895305;0.14489424;0.24240124;-0.02701496;0.060116436;0.018714836;0.025314556;0.06428339;-0.5391328;-0.067268945;-0.011618558;0.178789;-0.28003606;-0.074938215;-0.0324662;0.18546617;0.05844204;-0.014740617;-0.038744096;-0.04180641;0.09368947;-0.030536091;-0.0013100674;-0.23273458;-0.39408496;-0.004561357;-0.03504278;-0.6182095;0.009762802;0.10106247;0.037303418;-0.069722295;-0.1663063;-0.299959;-0.030048193;0.4395473;-0.26774824;-0.006109536;-0.17835468;-0.021600617;-0.24457969;0.009266952;-0.25650284;0.3223498;0.47386187;0.036492597;0.25068632;0.03377357;-0.0360168;0.16215794;-0.08624025;0.1521354;-0.067458995;-0.35589322;-0.05961297;0.050991233;-0.13034278;-0.10531956;-0.2123144;0.2427992;0.26050365;-0.09557993;0.0021197966;-0.11763531;-0.08582011;-0.021458812;-0.047757518;-0.22047369;-0.107771315;0.122207925;0.033533737;-0.028265292;-0.53304243;-0.10627502;0.0139863165;0.01838201;-0.07764781;-0.5294665;-0.007846639;-0.014312189;-0.12027753;0.3491331;-0.21795246;0.021407016;0.13480246;0.2704857;0.16237065;0.17402935;-0.19866635;0.23993605;-0.3172549;-0.010221069;0.014257615;-0.20517686;0.015268204;-0.22571892;0.14253484;-0.0009206055;-0.07871161;0.017336901;0.30334544;0.5391626;-0.21590815;-0.077621244;0.04357925;0.080279574;0.031306647;-0.017822675;-0.2918148;-0.011981473;0.26117575;0.18490718;0.08762666;0.22662038;0.0030663598;-0.022504777;-0.25410745;0.024741484;0.31828392;0.098433666;-0.12106742;0.04240735;0.07950348;-0.011354763;-0.1120347;0.054006692;0.068146065;0.13079838;0.23998004;0.19151439;-0.0026720194;-0.036151577;0.06799629;-0.30634156;-0.09465792;-0.008972418;0.12688549;0.024841864;0.019396955;0.03807314;0.026275888;-0.1654519;-0.019001458;-0.06825519;-0.035302043;0.028308615;-0.17829886;0.24732262;-0.014386942;0.25398818;-0.34039694;-0.03473885;-0.030291637;-0.99529064;-0.18200196;-0.45371142;0.061476987;-0.2962737;0.17587094;0.44015366;-0.8079536;0.19884637;-0.31913227;-0.02083007;0.34378347;-0.26425767;-0.14311875;-0.033933684;-0.19508545;-0.08412622;-0.11430846;0.24842799;0.031353693;0.03301973;0.05267968;-0.15873843;0.015954588;0.23126793;0.021775262;0.11875475;-0.08098835;0.49457777;0.014663862;0.03239963;-0.17972428;-0.235663;0.09272436;-0.07586357;-0.064190865;-0.15384267;-0.032715343;0.31732044;0.11136976;0.21344139;0.23910397;0.30813667;0.021172756;-0.099690065;-0.04458235;0.38088202;-0.40244505;0.28555554;0.04269538;-0.075960524;0.4499239;0.2094812;-0.32799515;0.018587627;0.103036456;-0.027461413;0.020519186;-0.0040872185;-0.46449476;0.00036116003;-0.16593522;0.12445722;0.28394946;0.046502136;0.043072525;-0.44068292;0.45360157;-0.011383774;-0.047397163;0.005030443;-0.08389546;-0.13476305;-0.7408343;-0.27585655;0.4560691;-0.31706834;-0.094231285;-0.07028571;-0.38259348;0.04213774;0.047289923;-0.19758165;-0.1907755;-0.026443992;-0.012956347;0.06723452;-0.7206086;-0.06192354;-0.2021466;0.2868361;0.13086164;0.022251166;-0.054324843;-0.014378352;-0.07510711;-0.046477765;0.16354588;0.30929056;0.054016065;0.012649366;-0.029665386;-0.32543203;-0.04620382;-0.048582636;-0.04071575;-0.13451901;0.118655615;0.008861989;0.1274146;0.31628045;-0.84081167;0.20606776;0.01989856;0.059674546;-0.13548024;0.4440232;0.018165993;0.23875242;0.0956456;-0.13209577;-0.046466086;-0.12790078;-0.15386432;0.06345835;0.045907926;-0.057901274;0.12253581;0.16534932;-0.050955914;-0.0041490817;0.051737305;0.2555429;-0.0048682145;-0.13505793;-0.015144402;-0.043435853;0.016033174;-0.008944403;0.037717357;-0.07980434;0.06648246;-0.3481716;-0.025576206;-0.2003627;-0.15351693;-0.05585527;0.23402908;0.00483738;-0.57369596;-0.29760957;-0.31971836;0.08165276;0.20710024;-0.34818417;0.03804735;0.019589681;0.054499496;-0.086343355;0.010107267;-0.011302584;-0.35497475;-0.19393583;-0.032234892;-0.28087032;0.14448322;0.089491285;0.0077449703;-0.17607187;0.17773762;0.048576087;0.23547341;0.20716916;-0.03536895;-0.39964443;-0.22794071;-0.03590297;-0.013350365;0.020901341;0.17953624;0.23732436;0.013012088;0.36218327;-0.031917073;-0.2229719;0.13680924;-0.080986455;0.26656923;0.048085447;-0.12493141;0.252474;0.15232584;0.13802947;0.0044701025;0.08850978;-0.0151493475;-0.016162068;0.048136126;-0.011942697;0.39424977;0.07175776;-0.2708158;-0.038762692;0.018399965;-0.010014523;-0.0054815277;0.16456044;-0.091322295;0.116027616;0.0155786155;-0.61013436;0.0405773;0.319765;-0.18233591;0.5310106;0.02094632;-0.37178743;0.21265784;-0.29385844;-0.008746878;0.34787956;-0.066021174;-0.13695666;0.054230843;0.12102022;0.21857093;-0.02529335;0.06042018;0.012089664;0.23798905;-0.6094684;0.20962822;-0.39072382;0.2248854;-0.4228219;-0.10902602;0.10270009;-0.24508235;0.200828;0.22787593;-0.22803329;-0.26249027;0.017033609;0.038645152;0.3529764;0.03144539;-0.012614953;0.62661314;-0.09853515;0.059545364;-0.32911056;0.03843032;-0.049877334;-0.13628986;0.020805947;0.050174676;0.13326703;-0.25726342;-0.033323914;0.060508344;-0.033221703;0.01137944;-0.10948353;-0.014610314;0.0024599202;-0.23984419;0.0327329;0.003546628;-0.23190513;0.01662768;0.017547647;0.043176964;0.2632959;-0.037955575;-0.5535213;-0.16757995;-0.16081643;0.18454257;0.007076283;0.26573265;0.1643479;0.43441394;0.044533834;0.5199189;-0.020007586;0.06965009;-0.04892478;-0.034913205;0.029092656;0.008216041;-0.20850588;-0.34222895;0.0118719805;-0.551556;0.086112395;-0.1474001;-0.2861064;0.0071302326;0.016053237;0.2683096;0.06172527;0.02159472;-0.68881553;-0.64956367;0.07949889;0.34345227;-0.04110472;0.06704354;-0.1136184;0.43791434;0.030117145;0.44663247;0.0051867147;-0.016714877;0.13400927;-0.26361153;-0.21552055;0.1401174;0.00094468234;0.00091338536;0.27927527;-0.025617886;-0.16980934;-0.8694743;0.31620392;-0.028438943;-0.36450705;-0.038544934;0.25127295;-0.15421514;0.025090303;-0.030176934;-0.18714906;-0.24561031;-0.16818869;-0.03228935;0.03333271;0.4498949;0.035998717;-0.04533145;-0.017912013;0.04118813;-0.015061118;-0.03726537;0.5494137;0.3902638;-0.23321642;0.0331686;-0.22945191;0.297865;-0.07209653;-0.28242987;0.28393835;-0.61071885;0.015417077;-0.08505114;0.020635655;0.026172567;-0.02059884;-0.18027093;-0.0016415068;0.10721485;0.03029083;-0.11602748;-0.31887254;0.042080622;0.27647576;0.027675796;0.10087126;-0.021171385;-0.056981795;0.32923603;0.17501704;-0.013471439;0.062189393;0.27487296;-0.10247965;-0.24625932;0.001026516;-0.017966475;0.004651855;-0.23069586
-0.20298918;0.26417574;-0.036283635;-0.4523721;-0.031136094;-0.07163693;-0.15040575;0.0068844776;0.072918735;0.035276577;-0.041041598;0.037791543;-0.004829568;-0.042851947;0.30711943;0.0607986;-0.005243198;0.30727315;-0.10181557;0.021720804;-0.107466005;-0.06145955;0.20373192;-0.12344555;0.0018106077;-0.0638901;-0.0068889656;-0.07915183;0.17167844;-0.25572366;0.357516;-0.18901049;-0.3442931;0.04940378;0.01879793;0.005430293;0.02838141;0.25723702;0.21262039;-0.17059612;-0.25561932;0.031243486;0.27543247;0.13121903;0.011323692;-0.04123773;0.01019401;-0.089900665;0.02328369;0.23889606;-0.040548507;-0.5710636;-0.13418938;-0.09548651;0.45842928;0.0005556138;0.09065951;0.16498111;-0.005276984;-0.016313894;0.016867792;0.14689931;0.011663525;0.004159349;-0.51625407;0.301088;-0.046620563;0.06880234;0.21421216;-0.05397775;0.015473858;0.0014976709;-0.04232106;-0.16106954;0.02999197;-0.015561684;0.15380754;-0.50634664;-0.039029498;-0.7312773;0.013804183;-0.007320401;-0.0052458015;-0.025147421;0.38072866;-0.14570963;0.020701172;0.5170235;-0.015516212;0.07433831;0.12456165;-0.031428844;-0.15131271;0.37574956;0.18496639;-0.17550637;0.3576795;0.21051188;0.30957943;0.290588;-0.5568729;-0.39391312;-0.4213427;-0.1835183;-0.17111051;0.39758822;-0.09406362;0.53157765;-0.07219004;0.21771811;0.22038883;0.33496994;0.05267472;0.5717983;0.123200014;-0.025507076;0.029653681;-0.14521407;0.17317109;0.12951043;0.23232849;0.3277653;-0.3011053;0.1990244;-0.56677693;-0.12304485;-0.1580449;-0.74988127;-0.45479575;-0.0120895775;-0.5695074;-0.029675914;-0.17634228;-0.031688493;0.008985795;0.0063385265;-0.35930964;-0.015641859;0.4468503;-0.06685506;-0.05144499;0.40641585;-0.080045976;-0.4056603;-0.12991908;-0.021562075;-0.9676437;0.015647603;-0.15809281;-0.020284964;-0.06377875;-0.2749056;-0.07902759;-0.24548292;0.30540496;0.1655534;-0.20025393;0.01991466;-0.021946758;0.16928996;0.09462571;-0.28596455;-0.07926987;-0.0022440497;0.032976028;0.017393494;0.042613287;0.25883585;0.11017191;-0.10092406;-0.18371409;0.005194116;0.21624647;-0.019075103;0.23925422;0.11901015;0.011306607;0.032074034;-0.47292498;-0.035601027;0.013498178;-0.018515721;-0.062200442;0.23682904;-0.02814143;0.11442593;0.020196911;0.41303137;0.2224766;0.0674307;0.09999164;-0.14153533;-0.002541677;0.053321604;-0.236158;-0.19538558;0.048735306;0.18906228;0.3220059;-0.06880863;0.19837484;0.027191004;0.23437274;0.36450437;0.14126123;-0.14026946;0.115409374;-0.042125326;0.31142113;0.13020216;-0.114594184;0.044555772;-0.47230867;-0.019441586;0.026273934;0.0059930948;-0.35918173;0.30534136;-0.18061732;-0.12574126;0.057729177;0.0741818;0.049832255;0.01813558;0.1888502;0.24564557;-0.073726706;0.096334845;-0.047500905;0.007979535;0.206613;-0.15522094;0.057880886;-0.14880373;0.045685235;-0.22584474;0.015717242;-0.027606372;-0.358963;0.047727186;-0.19328643;-0.22239143;-0.08195853;0.008961292;0.067213625;-0.22081524;0.21996798;0.43820366;-0.038086537;0.016267171;0.43925473;-0.03717183;0.2771726;0.16116849;-0.032902688;0.1019602;0.314369;-0.16102324;-0.05011921;0.03984595;0.112241514;-0.068631545;0.021748153;-0.017547328;-0.011358651;0.012073552;0.353688;0.25476548;-0.11291975;-0.14100105;0.35588628;0.14501952;-0.13268206;-0.57345116;-0.056692414;-0.030127894;-0.17375457;0.15361698;0.0054686973;-0.0032919128;0.0013230768;-0.06666266;-0.58183396;-0.0608712;-0.13554858;-0.24880552;-0.012236968;-0.018383157;-0.0056284913;-0.030331086;0.29999885;0.38857675;0.17522374;0.1585839;0.0041905455;-0.27965832;0.6076428;-0.44163498;0.026212895;-0.01317937;0.029530765;-0.030901706;-0.06281474;-0.002911402;0.044311713;-0.23037995;0.39488846;0.03928223;0.0022599048;-0.05347162;0.072946176;-0.014895145;-0.52379715;0.019549979;0.0051994207;0.08979769;-0.9377332;-0.14376138;0.3277815;0.026927289;0.026392112;0.24127148;-0.046310157;-0.042209245;-0.039452694;-0.06367169;-0.5867134;0.034988508;-0.019281501;0.0028184417;-0.020331418;-0.004708182;-0.019614048;0.015452855;-0.33588132;0.015278567;-0.46812513;-0.057927884;-0.16918442;0.24779847;-0.036407143;0.28131828;0.031115925;-0.10756897;-0.05574562;-0.4763842;0.27974626;-0.100553215;-0.20179646;-0.004872794;-0.022563796;-0.030359337;-0.006128386;0.10487234;0.010804165;-0.2893338;-0.005436257;-0.36766112;0.19706789;0.12086403;0.05548359;0.014841477;-0.24836047;-0.17384554;-0.106348865;0.22347824;0.051975187;-1.0246673;-0.071339376;0.23035713;0.050191905;-0.032943405;0.018244144;0.14095512;-0.13407503;0.04376006;0.08594273;0.27198854;-0.05540526;-0.09842782;-0.8100495;-0.19141974;-0.046863314;0.21826644;-0.36116952;-0.18207505;0.20544389;-0.17733784;-0.033841226;0.5181948;-0.26985914;-0.054276306;-0.025729321;-0.23026142;0.19058408;0.20474039;0.02557559;-0.01987103;-0.027151423;0.057007838;-0.6046017;-0.15878177;-0.012277059;0.05017644;0.16735332;-0.025691992;0.39549777;0.2065835;0.33926058;0.018865945;-0.12335537;-0.11833754;-0.15352142;-0.016927026;0.17062254;-0.4265056;0.08836764;-0.0154103525;0.40526992;0.016195403;0.029769128;-0.4499964;0.011375708;0.18655705;-0.04120788;-0.4624106;0.046503924;0.048689663;0.12861389;0.016870398;0.030864207;0.23066156;-0.04046979;0.023867134;-0.5670258;-0.28253037;-0.017748157;0.053656574;0.29862508;-0.03540448;-0.047714364;-0.49710315;0.21866143;-0.15499699;0.3502571;0.023312336;0.03577393;0.13647802;-0.031344354;0.0039282944;0.055901155;0.00861705;0.034449358;0.4508855;0.0137231285;0.0018368617;-0.25786284;-0.24706955;0.060067363;-0.29350555;0.41922978;-0.0010779782;0.09811092;-0.046761394;0.07940779;0.39292374;-0.028894538;0.034989767;0.1364491;-0.007061753;0.26626933;0.24782205;0.009001678;-0.17450511;-0.542249;0.07747178;0.2660628;0.33101773;-0.023699706;0.07456796;-0.0023290191;0.07705707;0.09149421;-0.009670173;0.10237622;-0.008570815;0.19133572;-0.18827242;0.12425027;0.40004924;-0.79938513;0.25869405;0.053165063;-0.20484509;-0.0006058762;0.06015345;-0.07168385;-0.09897035;-0.0900649;0.19033161;0.0051874286;-0.052572057;0.023264226;-0.3649775;0.042915218;0.021518234;0.037967157;0.034640696;0.14382532;0.029990293;-0.08425953;-0.3171888;-0.017365796;0.070337616;0.16697775;0.023378186;0.19897705;0.020948162;-0.08392631;0.023515088;0.5964929;0.011137516;-0.64187366;0.07243027;-0.023491569;0.02158928;0.3450358;0.45139003;0.46004358;-0.0002326721;-0.2467218;-0.18980694;0.2737731;-0.046252407;0.017490238;0.028017132;0.020759081;0.08039652;-0.14297943;-0.023677263;-0.01175845;-0.0007486612;-0.30491847;0.26433977;0.19753218;-0.36525774;0.009219887;-0.3904374;-0.009209902;-0.030057319;-0.02854936;-0.7064384;-0.05657487;-0.21748658;0.02150406;-0.07344934;-0.16533203;-0.33895418;0.15567392;-0.14355096;0.0872699;0.021578968;-0.16332866;-0.0036249578;-0.050165687;-0.031243786;-0.064321116;0.0090677105;0.026976816;0.14707226;0.33273244;-0.045025118;0.061771415;0.0025232828;-0.005861587;0.028247096
-0.17371428;0.40400523;-0.015052326;-0.27210194;-0.015842155;-0.024437524;-0.05313299;0.029644324;0.28480035;-0.062866054;0.13835269;0.04718624;0.009661813;0.026074668;0.33699694;-0.042536546;0.014132619;0.3615478;-0.027261535;0.1606083;-0.005985374;-0.07305177;0.15020178;-0.46088126;0.033191625;-0.016148819;-0.009665583;0.0045907833;0.11203549;0.13555056;0.18377025;-0.20130655;-0.18666676;-0.012693957;-0.030212939;0.024229638;0.024508653;-0.08518704;0.24811983;-0.14983636;-0.072852075;0.014660813;0.08953047;0.34615183;-0.0070662675;0.10778385;0.05156753;-0.017579766;-0.025189279;0.3863186;0.054368358;-0.36767527;-0.10391389;-0.16314247;0.16602084;-0.054538034;-0.061743125;0.2763284;-0.06993993;0.06311373;-0.03972088;0.13294643;0.038757753;-0.022236943;-0.35950136;0.23063245;0.03975983;0.09604081;0.20319958;0.035111375;0.26865032;-0.048487898;-0.053255558;-0.19955721;-0.0009622219;0.015981022;0.1777501;-0.41371214;0.013422437;-0.5861202;-0.022382421;0.1965668;0.042107195;0.055899106;0.21706995;0.12517266;-0.01888301;0.27433473;-0.03937764;-0.029194675;0.081315376;0.0497085;-0.19296367;0.33393812;0.06519295;-0.055234257;0.3180797;0.123110406;0.39361444;0.12828162;-0.2213334;-0.22403751;-0.48585075;0.070959136;-0.12662798;0.30498558;-0.070696704;0.44871375;0.011979535;0.049326777;0.2990647;0.50086;-0.03368164;0.2629196;0.088450685;-0.036475394;0.02909258;0.12765387;0.11718841;0.26477903;0.24772468;0.23190197;-0.18416975;0.055913273;-0.41107318;-0.12982026;-0.16713712;-0.56543356;-0.44655094;-0.114114165;-0.43573484;-0.18755348;-0.31051192;0.040546592;-0.12044244;0.01620806;-0.14018938;-0.0015436147;0.34091237;-0.14014612;0.029933196;0.39602438;-0.07952887;-0.4582635;-0.220177;0.056726214;-0.73598456;0.028015751;0.06898333;0.03436671;0.050218035;-0.06757467;-0.030908747;-0.28937456;0.10231674;0.088513024;-0.29684836;-0.21747905;-0.008663783;0.2551909;0.14416282;-0.15162317;0.028893642;0.00018511932;0.059279893;0.02257328;-0.03474655;0.18875228;-0.005183759;-0.1958446;-0.22696428;0.044173688;0.17317012;-0.055192072;0.23293881;-0.12444093;-0.015586063;0.098921336;-0.41161698;0.052759007;-0.0052559515;0.05811842;-0.25677007;0.24049035;0.0076504406;0.18033804;-0.0806474;0.40326595;0.17690563;-0.06119596;-0.08856635;-0.02825342;-0.06747086;-0.054523602;-0.43287194;-0.3084807;-0.17655939;0.23415506;0.3267585;0.051537782;0.08895512;-0.095660634;0.18129538;0.08439672;0.17974064;-0.08952481;0.18143462;-0.33626187;0.26066625;0.14455223;0.18975879;-0.13503061;-0.3392085;-0.016983658;-0.0074134436;-0.04982899;-0.607304;0.21662085;-0.18753758;-0.18751739;0.16706546;-0.056120485;-0.04810447;0.062807105;0.19118902;0.15225795;-0.20828004;0.12323117;-0.047798242;0.013623197;0.18346752;-0.02667784;-0.049757317;-0.18661924;0.041730933;-0.20064692;-0.20883687;-0.0020025398;-0.42327845;0.10693763;-0.18274416;-0.09889224;-0.02472967;0.018890925;0.22666432;-0.4540624;0.25664684;0.36104527;0.024913035;0.1349598;0.16881032;0.03392278;-0.006919366;0.061492443;-0.010855893;0.057764128;0.29446748;-0.15138786;-0.013982246;-0.025322042;0.12121587;0.011977091;-0.03126079;0.040712245;0.033803456;0.056205105;0.1947549;0.16975752;-0.07605976;-0.12794632;0.2521834;0.3797124;-0.24034482;-0.454367;0.038182773;-0.021078084;-0.045535527;0.07986465;-0.009349353;0.022227038;0.019317044;-0.14369503;-0.49788648;-0.20083915;-0.047212493;-0.11081131;-0.030171389;0.025369642;-0.0025513184;-0.06781093;0.28423405;0.33879456;0.08979775;0.10881205;0.33609313;-0.22846004;0.5153934;-0.3893403;-0.054534268;0.029246716;-0.02959648;-0.0017892093;0.04294986;0.16090249;0.052273188;0.077236935;0.35593596;0.043547034;-0.077052906;-0.0077813338;0.07998498;-0.017070225;-0.22414447;0.03525743;0.09062334;0.080630064;-0.65964544;-0.014603274;0.3032276;0.024759969;-0.04668203;0.27000418;-0.19014435;0.0033746113;0.06897796;0.058741637;-0.38004863;-0.056030083;-0.0938295;-0.027568689;0.047119316;9.155027e-05;0.00018206914;-0.069927536;-0.21401864;-0.0061750333;-0.19836363;0.29026732;-0.18586667;0.26441082;0.031156821;0.248354;0.008216882;-0.27082032;-0.007873475;-0.2061001;0.3358192;-0.015877016;-0.026899148;0.033240885;-0.009121509;-0.23329274;-0.08483928;0.23902664;0.010474396;-0.23772332;0.067162536;-0.09805383;0.003277607;0.056775402;0.0020070628;0.0010549156;-0.010933991;-0.0059245224;-0.07181664;0.19912936;-0.018542422;-0.6383884;-0.005385158;0.21711996;-0.083406;0.044609264;-0.049557805;5.562892e-05;-0.08870688;-0.05004875;-0.1087487;0.12945935;-0.14022556;-0.109719776;-0.79642856;-0.38554406;0.13585745;0.28358814;-0.19006899;-0.270801;0.17253369;-0.17287189;0.09146992;0.19254272;-0.1265488;0.027374187;-0.0054589044;-0.17274286;0.055696446;0.25759625;0.007612806;-0.023931675;0.01722738;-0.04915465;-0.61616856;-0.113850825;-0.13093193;0.021583637;0.07730032;-0.030780034;0.32479712;0.16500612;0.2604129;-0.013552782;-0.024350682;-0.00057594513;-0.16683537;0.03261334;0.09094959;-0.31367654;0.017859027;-0.04125449;0.24579068;0.14790851;-0.16619378;-0.32481194;-0.04612259;0.06571171;-0.122650154;-0.32706347;0.1552451;-0.012438522;-0.14547662;0.07613567;-0.010542332;0.11223454;0.20934528;-0.14503983;-0.32831347;-0.25122508;-0.03266781;0.027332844;0.041410223;0.010534439;0.021203423;-0.51751393;0.21798815;-0.004320801;0.24317408;-0.0063082855;-0.054327715;0.21680771;0.03150124;0.01743308;-0.07283967;-0.01381928;-0.06514094;0.47587812;-0.005033286;-0.032669537;-0.32411402;0.049689405;0.11618802;-0.14489754;0.22111994;-0.041649364;-0.101497374;0.036842104;-0.021503836;0.30048144;0.2019947;-0.07764462;-0.047810636;-0.22588426;0.1864496;0.136896;0.0039275535;-0.15936352;-0.5038432;0.16172166;0.48232037;0.24444537;0.001614776;0.077849455;-0.016321123;-0.037207644;0.045838423;-0.008074918;0.13629583;0.012931696;0.113662176;-0.21509041;-0.0594106;0.3001792;-0.57477105;0.23124647;-0.08171837;-0.10586869;0.023084875;-0.070955634;-0.124941885;-0.07616577;-0.19904998;0.06937433;-0.039887715;0.010613723;0.05228327;-0.48829094;-0.060967203;-0.002408802;-0.029705085;-0.033119306;0.091239646;-0.05411164;-0.048073564;-0.12671731;0.018059904;-0.038104337;0.21756043;-0.019916046;0.20411794;0.02813528;-0.1269587;0.057330746;0.5050867;0.039057948;-0.3499277;0.03836156;0.013704532;-0.060479846;0.32178867;0.39591974;0.28284946;0.03738808;-0.20517527;-0.045627136;0.00759589;-0.004364883;0.009401195;-0.05188734;-0.023292981;-0.07279494;-0.072797485;-0.23729408;-0.020114422;0.033481773;-0.14588025;0.1165836;0.38164863;-0.37120017;-0.03359962;-0.33920866;0.026591659;0.07525056;0.039483704;-0.49882528;0.019582473;-0.18435003;0.016688503;-0.04261885;-0.2802623;-0.4551368;0.15696836;-0.11035371;-0.13835777;-0.026038457;-0.1351571;-0.01682172;0.015139083;-0.09552045;-0.05924607;-0.025573267;0.030064857;0.29817003;0.15636264;0.0004833409;0.1882933;0.091945775;0.06642672;0.06138051
-0.07339526;0.24980544;0.05189867;-0.084994465;0.028225435;-0.09383524;0.0693568;-0.016675651;0.1787005;0.02061386;0.09702198;-0.17793433;-0.0004663178;0.025117995;0.40615022;-0.016315259;-0.0073659206;0.41363835;0.019972717;0.22983353;0.12891804;-0.056009546;0.14959927;-0.400611;-0.045179058;0.081900746;-0.033537395;0.07410419;0.19523653;0.12642781;0.0725691;-0.24781194;-0.0147714745;0.0005732063;-0.016287591;-0.029446542;-0.05865154;-0.20036067;0.26515746;0.06017091;-0.059970126;0.049542136;-0.049364083;0.25935808;0.00040245513;0.10914023;-0.06396646;0.07828497;-0.000120072684;0.33073625;-0.0027999363;-0.21765476;-0.12373004;-0.15386677;0.04312936;0.05895566;-0.15409584;0.21738684;-0.058821462;-0.045128435;0.05421718;0.13680267;-0.044626504;0.029517317;-0.34073153;0.10711033;-0.0107403165;-0.028638477;0.13120747;-0.009662156;0.2826562;0.051540952;-0.05840337;-0.34193957;0.04234597;0.03051403;0.13045843;-0.3338224;0.036342323;-0.65344054;0.010264385;0.19785984;-0.04680742;0.042330004;-0.043524425;0.099238776;-0.022995431;0.009647122;0.040701076;-0.024857111;0.07907102;-0.03725732;-0.103816606;0.15594423;0.13079356;-0.13634388;0.31298053;0.18500853;0.30962083;0.16749124;-0.13701783;-0.21370733;-0.36589324;0.07383371;-0.12268894;0.03288991;-0.026523806;0.31478065;-0.15995502;-0.07775991;0.113136135;0.33230838;0.0011737555;0.10012913;0.05684783;0.10756347;-0.051580742;0.1659128;0.017014235;0.5235924;0.19916993;0.12387841;-0.16768491;0.19996823;-0.49087092;-0.15383178;-0.09403287;-0.25415856;-0.4047511;-0.18960847;-0.24812123;-0.22390829;-0.37642136;-0.015570485;-0.15782009;0.018294841;-0.03866003;0.09054737;0.1360779;-0.3140384;0.050620843;0.16708024;-0.16106465;-0.64520466;-0.07761276;-0.036733408;-0.64075816;-0.03514276;-0.11332234;-0.27595592;0.032823157;0.025134336;-0.18033522;-0.51225597;0.05588071;0.077111624;-0.3132036;-0.26184484;0.07402899;0.25027224;0.24819987;-0.115440175;0.15585262;0.026213657;0.07903928;0.10827195;0.02845489;0.15533453;-0.020970805;-0.053813756;-0.28418925;-0.050921213;0.1907184;-0.03893965;0.18511544;0.008238049;-0.033209004;0.09027434;-0.13721474;-0.0090591945;0.008424946;-0.0058603897;-0.100370385;0.05256424;0.015927348;0.2472902;0.03185584;0.28249133;0.13817021;-0.04032459;-0.1028233;0.017719176;-0.01390645;-0.054026477;-0.4134448;-0.23761645;-0.1908887;0.2085253;0.20892362;-0.066920735;0.07293595;-0.10514579;0.11272686;-0.22031265;0.26086637;0.05337031;-0.0070673404;-0.26515403;0.062190417;0.07631487;0.15179865;-0.119988635;-0.17964867;0.06314892;-0.0016107877;0.016378075;-0.61202115;0.41312066;-0.23000167;-0.2414104;0.1260084;-0.056438353;-0.07095625;-0.05661145;0.28118005;0.078192025;-0.16166104;0.22203894;-0.02014422;0.0010233924;0.108354144;-0.051355604;-0.08686583;-0.27125037;-0.16000976;-0.09652882;-0.17757754;-5.6333123e-05;-0.24861374;0.08525719;-0.28680584;-0.22083454;-0.09298275;-0.050609834;0.22765371;-0.3317797;0.24222088;0.4741996;0.019659532;-0.04657808;-0.04149713;-0.02109519;0.026421268;-0.006537119;0.082192495;0.008713681;0.3520544;-0.037021644;-0.030828446;-0.0005418347;-0.004903704;0.066674314;0.03356926;0.033569116;-0.005461456;0.058716394;0.111493856;0.038406335;-0.23472475;-0.12074555;0.21581557;0.45731372;-0.2199712;-0.12219066;0.033294763;0.076850645;0.16214152;0.10736359;-0.050525546;-0.03590582;0.023757745;-0.42604402;-0.40353385;-0.24708495;0.00858767;-0.0807796;0.018544681;-0.0071295537;0.0026871376;-0.012527251;0.25269228;0.26977932;-0.087741986;-0.0012938355;0.50715417;-0.06309746;0.30931586;-0.29327264;-0.0040701674;-0.029347977;-0.18651378;0.0010017665;0.040387463;0.13380156;0.09779904;0.14358418;0.25631127;-0.079130314;-0.14322188;0.0106869675;0.058355;0.032281026;-0.07207594;-0.055588853;0.08422362;-0.10345711;-0.47376367;-0.023303542;0.3562009;-0.038505543;-0.13254976;0.1405045;-0.07776161;0.016336095;-0.07113286;0.06962353;-0.21503301;-0.0013431027;-0.39296162;0.059040878;-0.001900842;0.017586399;0.011038791;-0.020259617;-0.16531627;0.06477151;-0.23953535;0.3722796;-0.2926734;0.18859912;0.029919058;0.26853654;-0.069288336;-0.42303154;0.12988256;0.017012872;0.30029273;-0.10477673;0.08507196;0.023721011;0.011277241;-0.20592827;0.007479088;0.2043353;-0.049066685;-0.049472176;0.08933497;0.031960323;-0.1733777;0.08149161;-0.061612803;-0.025962386;-0.07776947;-0.046889063;-0.011404849;0.3628255;0.09481247;-0.59048706;0.17005263;0.12259107;0.0014049336;-0.0016202736;0.03651602;-0.006943148;-0.07039604;-0.0035400009;-0.35194656;-0.07930917;-0.045181815;-0.09281361;-0.5693802;-0.5623887;0.08273845;0.20302191;-0.071856074;-0.15453216;0.04474186;-0.12716788;0.12900071;0.15447117;-0.076023154;0.026211353;0.052518025;-0.13335943;0.15993658;0.1923653;-0.012985769;0.03812857;-0.024368264;-0.018882811;-0.7002564;-0.06994888;-0.051144093;-0.12027895;0.069586806;0.085249014;0.0874768;0.2398451;0.22064647;-0.01767806;-0.17346957;0.06271468;-0.22442894;-0.043814603;0.058528796;-0.22529538;-0.063899554;-0.13735203;0.24542129;0.09818643;-0.1868991;-0.28950453;0.04679922;-0.055993628;-0.07131819;-0.57802176;0.22380617;0.054801792;-0.31389597;-0.018082276;0.051794138;0.17287949;0.24065688;-0.056443628;-0.10036375;-0.24263585;0.058838967;0.10238736;0.10602038;0.05847599;0.009029616;-0.4496577;0.22514555;-0.040986408;0.24076983;-0.026742654;-0.02867166;0.13597164;0.023213798;0.04394559;-0.09863396;-0.04402367;0.022885468;0.51538974;0.036330886;0.0539524;-0.47436363;0.12757245;-0.019535681;-0.0925107;0.040714364;0.064265795;-0.12656382;0.0010201815;-0.05735697;0.13807741;0.21866255;0.02962099;-0.08419747;-0.11379482;0.12685247;0.12149123;0.03101262;-0.22711265;-0.37413168;0.056656606;0.33655542;0.12340453;0.02089585;0.0020896015;0.009667075;-0.0005547298;-0.03514462;0.018652566;0.25631613;0.094220504;0.081665784;-0.075587906;-0.022519931;0.09100573;-0.55960906;0.13319379;0.04594108;0.10551617;-0.036986426;0.030477853;-0.27330226;-0.1802436;-0.034548305;-0.030962726;0.0459741;-0.110109694;0.17161344;-0.44637308;-0.009308153;-0.21201304;-0.024524134;-0.040303577;-0.0078103086;-0.2684524;-0.0021033084;0.060297098;-0.033394724;-0.009230569;0.16468203;-0.039971363;0.16761054;0.013905971;-0.12125074;-0.059567634;0.5161944;-0.052931193;-0.30320325;-0.024775019;-0.00073825597;0.019793551;0.2670533;0.26234916;0.16380171;-0.014460643;-0.21498714;-0.098944664;-0.07153542;0.07177489;0.03395101;0.04414921;0.0006505032;-0.25155255;-0.14957364;-0.4646503;-0.088426925;-0.02629726;-0.16627017;0.07873857;0.36331168;-0.44962585;-0.03101343;-0.33451286;-0.044199266;0.20610134;-0.010530518;-0.35923404;0.19679698;-0.18922777;-0.01808446;0.027309468;-0.13738212;-0.46345818;0.21477158;-0.026976345;-0.3164155;0.02519612;-0.098743536;-0.035846587;-0.04158923;-0.032440126;-0.032134466;0.03613133;-0.0502866;0.056975722;0.20249167;-0.08302749;0.2015724;-0.05313342;-0.07579327;-0.14016354
-0.088180184;0.10066932;0.030683871;0.0473561;0.05621857;0.031808864;0.0068444507;0.03724106;0.22346812;0.06124737;0.18799147;-0.03326664;0.0653184;-0.017071277;0.18041186;-0.026827918;-0.036997296;0.3987993;0.10899227;0.34668988;0.10535159;-0.023693485;0.08911606;-0.40829858;0.024434872;0.18078847;0.07917273;0.123959914;0.17889313;0.22507788;0.122535996;-0.24881876;0.101313435;-0.040740363;0.06189673;-0.027947973;-0.0023480689;-0.28924304;0.46606883;-0.12661143;-0.08878582;0.0707167;-0.2861993;0.13118598;0.011114612;0.15974501;-0.07031586;0.10207997;0.023675386;0.36087993;0.03427432;-0.1382345;-0.102394685;-0.2291172;0.0571804;0.058371678;0.02555602;0.106827974;-0.03382446;-0.053187657;0.0094262175;0.19561802;-0.015088752;-0.045452382;-0.275368;0.15478733;0.028599765;0.012433975;-0.01976118;0.061421994;0.30599555;0.034414675;-0.118965544;-0.25754878;0.092538886;-0.056788433;0.12524578;-0.42981157;0.02294323;-0.5559896;0.017503835;0.18534169;-0.0021463158;0.0003753055;-0.20700352;0.013143368;0.023002567;0.13455784;-0.038361493;-0.028828837;0.07152283;0.038644154;-0.13010438;0.21765368;-0.0007052006;-0.26212215;0.23583773;0.37645006;0.16933209;0.2103215;-0.2692517;0.030383874;-0.3459259;0.21844536;-0.21954222;-0.050855722;-0.1585724;0.25302354;-0.124337904;-0.25404748;0.18724722;0.23793247;-0.012147547;0.20958231;0.0966067;0.012781574;-0.07930012;0.11812236;-0.15743968;0.3565276;0.15764923;0.069758214;-0.19244471;0.14761686;-0.39426583;7.663664e-06;-0.18928777;-0.17716812;-0.4872496;-0.25511774;-0.11602377;-0.15986091;-0.36071485;0.042625308;-0.06572473;-0.045805883;0.19194596;0.0041896105;-0.020384388;-0.2758114;0.000108903885;0.09294482;-0.0029894388;-0.5894379;-0.19705206;-0.016507953;-0.6344599;0.010210797;-0.004400705;-0.37261695;0.02375452;0.045089822;-0.10967016;-0.51575714;-0.03455795;0.19727816;-0.29631072;-0.160905;-0.043377563;0.1942465;0.23200898;-0.17918874;0.1900401;-0.05277504;0.058632422;0.13552478;-0.044281244;0.117720865;-0.08727605;-0.04419565;-0.21435611;-0.012258895;0.009408539;-0.011336111;0.037433695;0.043275476;-0.017583955;0.12126798;-0.181117;0.012936235;-0.022094637;-0.060145527;-0.12245815;-0.14349206;0.03991864;0.11406409;0.049269583;0.06318793;0.1500983;0.07689131;0.05738958;0.19802706;-0.1406908;0.066806994;-0.3757166;-0.28687528;-0.091385305;0.10947149;0.06032263;0.027092211;0.13336842;-0.1546656;0.081597336;-0.23208538;0.21166435;0.015347917;0.14440417;-0.20460892;0.036769234;0.120127104;0.15164463;-0.06506165;-0.06850369;-0.05733431;-0.02013558;0.083585516;-0.44624203;0.18321848;-0.10618211;-0.2417084;0.12202947;-0.048399985;-0.058292516;-0.058978356;0.1595758;-0.10223691;-0.081161596;0.21091053;-0.20602912;-0.0035487881;-0.0023195003;-0.09774051;-0.034185193;-0.28353754;-0.20488675;-0.036903497;-0.11386973;0.07986007;-0.060804117;-0.04727059;-0.30559146;-0.22259149;-0.13354395;-0.009237106;0.108383164;-0.26445225;0.16484718;0.435113;-0.005738104;0.02591896;0.006328659;0.019087413;0.11805368;-0.13435419;-0.033101838;0.17571673;0.20661382;0.04185206;0.05325249;-0.018663255;-0.14314523;0.10778031;-0.051707674;-0.078261726;-0.019974146;-0.034146644;0.0013158768;-0.014583144;-0.0571222;-0.07697752;0.3056796;0.36022562;-0.16087157;-0.07815613;0.017296873;-0.050309468;0.2141682;0.18137297;0.021626359;-0.010795009;-0.020976733;-0.26347366;-0.38467154;-0.3114231;0.24521224;-0.15776888;0.04555349;-0.17520878;0.059207715;0.03857718;0.2299109;0.3200256;-0.07707298;-0.046786185;0.41543186;-0.20177706;0.44321063;-0.19729173;0.024223875;-0.029449962;-0.25023326;-0.046888333;0.0016627776;0.19979633;0.14094704;0.21865188;0.40360203;-0.06431172;-0.1347185;-0.13677244;0.059087142;-0.030347895;0.050443217;-0.029617729;0.19578841;0.078420036;-0.24925959;0.07209317;0.34195665;0.0067372285;-0.19442397;0.18465461;0.053909093;0.046333835;0.053439148;0.13006732;-0.089918375;0.05024174;-0.37262058;-0.032479003;-0.006074786;0.010965626;0.055934623;0.05721445;-0.10065817;-0.050203945;-0.124552414;0.17829691;-0.04422053;0.25840282;-0.026632244;0.24857354;0.02567355;-0.46799606;0.083924785;0.020898664;0.20054162;0.06735313;0.060877647;-0.031552687;0.044167876;-0.070424095;-0.07161758;0.17748429;0.07805597;0.10945055;0.02557034;0.029070752;0.07398251;0.17570457;-0.021509992;0.03114067;0.008034092;0.04777876;0.009080515;0.2701307;0.030359557;-0.50744426;0.18959522;0.051376235;0.054502454;-0.050578345;0.014913445;0.08092034;0.20044802;-0.011416264;-0.2689028;-0.17112751;-0.15643062;-0.20570874;-0.51181877;-0.36182553;0.14878154;0.24456172;-0.1808714;-0.060259365;-0.019337703;-0.03465006;0.124500096;0.1175892;-0.06208433;0.03903845;-0.065769635;-0.04202248;0.10541094;0.041058287;-0.019374559;0.03460961;0.039416946;-0.02972532;-0.7134964;-0.029675214;0.124805585;0.020839768;-0.016026467;-0.01921367;0.089453936;0.30650678;0.20004149;-0.010071699;0.055754695;0.16084169;-0.14127396;0.025126044;-0.102350265;-0.20116273;-0.23007493;-0.056003455;0.24868092;0.046666548;-0.17704624;-0.21832769;-0.039448876;0.12108627;-0.1099358;-0.5356905;0.14256929;0.037709255;-0.25892457;-0.03987084;0.075838365;0.11400174;0.08189272;-0.11230911;-0.06778909;-0.15364829;-0.014998303;-0.008813361;0.18636458;-0.043513406;0.029905684;-0.26741877;0.081357874;-0.09259438;0.20077285;0.0031634166;0.07484256;0.08332708;0.02063913;-0.06340223;-0.069714;-0.09053186;-0.019194653;0.21972999;-0.0202478;-0.014215389;-0.43312833;0.06494484;0.23843645;-0.0877491;0.07624652;-0.01780659;-0.041378602;0.02162833;0.018038992;0.22160532;0.12445919;0.05226585;-0.18460424;-0.30717257;0.09959808;0.03765486;-0.03312572;-0.09094263;-0.2876377;0.07824319;0.46832317;0.08146792;-0.030830821;0.07991599;-0.018336114;-0.035926666;0.021712953;-0.029272897;0.14832267;0.04453143;0.1883222;0.06630734;-0.12867337;0.17660378;-0.39775622;0.17433147;-0.023792021;0.03864415;-0.063538894;-0.029407894;-0.0521502;-0.12827356;0.021619733;-0.10122218;-0.049010124;-0.025837881;0.16291766;-0.28233606;0.062398233;-0.17595415;0.0013057638;-0.023390336;0.010579814;-0.33482987;0.012089766;0.1586151;0.02357085;-0.06504081;0.19682705;0.08274435;0.12399123;-0.019331904;-0.17774124;-0.035570987;0.35944727;0.019954054;-0.36156964;-0.14673865;0.02425417;0.02004338;0.00029571922;0.14326675;0.1334546;-0.027091376;-0.17691143;0.0060816226;-0.10949512;0.24098513;0.06541394;-0.025002494;-0.02116403;-0.3214474;-0.23684642;-0.2839862;-0.08478415;0.0019509956;-0.182661;0.2055273;0.3450444;-0.37537852;0.05738714;-0.25144434;0.0051449146;0.20625252;-0.026700273;-0.3633909;0.24604693;-0.16029502;-0.0022935257;0.113623165;-0.050673105;-0.5506871;0.06585247;-0.10091103;-0.31428668;-0.08177553;-0.124561004;0.06921256;-0.1637824;0.08710754;0.17306012;-0.04768402;-0.0053618844;0.16883144;0.025746278;-0.12023187;0.27181458;0.073340505;0.022609044;-0.05638439
-0.03171674;-0.082839824;-0.017244257;-0.02424474;0.00075131544;0.15932539;0.09768346;-0.08444403;0.2046317;-0.04600165;0.4291155;-0.027963154;-0.054709375;0.035277415;0.15210468;0.08157934;0.048773773;0.30896932;0.10354166;0.30821452;0.10212438;-0.062407535;0.1565969;-0.22903694;-0.05283564;0.16566584;0.02931837;-0.03899819;0.23696746;0.2903488;0.110642076;-0.31268248;0.11649792;-0.03969256;-0.04249574;0.01769532;0.00013107732;-0.37088922;0.4634508;-0.058891855;-0.07003965;-0.028532516;-0.3719336;0.2192857;-0.050136935;0.17679536;0.04613653;0.08005985;0.0035111858;0.23390189;-0.012396052;-0.17830472;-0.069396324;-0.17209978;0.11150643;-0.029336661;0.028884208;0.10149478;-0.0111195985;0.02606963;-0.07596853;0.14831567;-0.01205524;0.041286472;-0.24455132;-0.016506467;0.018495996;-0.08479007;-0.057929263;-0.020450264;0.28032783;0.018186405;-0.17202045;-0.22086301;0.043055646;0.0329068;0.0969527;-0.30561665;-0.0023813979;-0.5983704;-0.045668874;0.3174943;-0.0047778166;-0.021536347;-0.23244593;0.21007045;0.030644374;0.031443056;0.046258245;-0.008756643;0.07294089;0.055184115;-0.06439896;0.12389013;-0.02021936;-0.19524467;0.15521981;0.2899108;0.25444183;0.15279333;-0.35293922;0.05831634;-0.44299573;0.07006693;-0.14593208;0.05791808;-0.021327281;0.2826618;-0.34963578;-0.26453584;0.12814148;0.12895475;-0.009194169;0.29352742;-0.026026577;0.004168874;0.04929141;0.022886086;-0.18340956;0.23926096;0.12293398;0.10190783;-0.12903814;0.1390219;-0.33627546;-0.17646791;-0.13535482;-0.038602486;-0.5152905;-0.089952976;-0.049695365;-0.26967993;-0.38551852;-0.06404206;-0.14147343;-0.022363689;0.21249823;-0.016773885;-0.15046723;-0.26130995;-0.052034855;-0.05063683;0.08715749;-0.35361;-0.069617376;0.021667186;-0.5934547;-0.032608964;-0.18250829;-0.5031476;-0.040438678;0.18214263;-0.026024261;-0.46762317;-0.053282745;0.22232619;-0.43859848;0.050502744;-0.021530928;0.19564098;0.15165967;-0.09621813;0.14503099;0.044735085;-0.017415436;0.051563643;0.014119525;0.116939515;-0.09757985;0.07566954;-0.12129016;-0.047165483;-0.037813995;-0.30244493;0.013789459;0.051700253;0.05451495;0.24580999;-0.12733042;-0.016918242;0.014507838;-0.0017812902;-0.21289243;-0.0673804;-0.0077515664;0.0407084;0.0016202938;0.14275083;0.007657262;-0.036909275;-0.020339595;0.3720698;-0.09565742;0.011742458;-0.28597376;-0.43299657;-0.1874883;0.22408095;0.15767153;-0.09571487;0.16954061;-0.15001099;0.10207871;-0.13190971;0.3161055;0.1323932;0.258266;-0.1407963;-0.06905984;-0.062548645;-0.009477777;0.10905014;0.26667792;0.0037001306;-0.047926623;-0.036681972;-0.4803896;0.18928847;-0.14735964;-0.050029494;0.121803686;-0.11630279;-0.07259512;0.011268288;0.12637183;0.057288237;0.053407937;0.1321169;-0.3112214;-0.032390997;0.07861389;0.06865418;-0.07421133;-0.22916225;-0.22752094;0.01374923;-0.14572701;-0.05512974;-0.03423652;0.002500404;-0.19981867;-0.21657543;-0.16250771;0.070260406;-0.14287318;-0.013926171;0.16085778;0.34551853;0.019614642;-0.035343703;-0.13472734;0.05239873;0.015191395;-0.2664582;-0.037968364;0.012308476;0.117966786;0.15579073;0.024695283;-0.03253942;0.066878624;0.18470031;0.04988791;0.023932556;-0.026720794;0.019575765;-0.20472647;-0.086365245;-0.11155503;-0.15515324;0.33305734;0.38332447;-0.2273118;-0.017151061;-0.0009072973;-0.026280617;0.18367995;0.20012361;0.04010242;0.06665313;-0.07095176;-0.24194412;-0.17475249;-0.18667597;0.16513097;-0.12930089;0.013303295;-0.10308085;-0.052699454;0.20502365;0.2836068;0.17327823;-0.038619168;-0.12391823;0.54142845;-0.2631214;0.2901564;-0.03771493;0.05804172;0.04571272;-0.17394724;-0.036328536;-0.02016172;0.19887125;0.064317085;0.020199493;0.18182522;-0.038586687;-0.20492713;-0.1315556;0.03437115;0.034501918;0.1233748;-0.011392313;0.3229779;0.058565646;-0.22886312;0.0903164;0.31956056;-0.0068466878;-0.121597335;0.16386013;0.022226794;0.0016641659;-0.00024311032;0.07044942;0.057643633;0.0014865082;-0.22191629;0.003094248;-0.020467384;-0.04156652;-0.04214386;0.04280234;-0.045940544;-0.05907943;-0.31362575;0.12015357;0.06919143;0.27654916;-0.004531767;0.28999776;-0.0066528386;-0.31316173;0.07803242;0.124828085;0.23274459;-0.0149935065;0.22397211;-0.038839865;-0.035538334;0.043921195;-0.14131562;0.21297099;-0.04616037;0.15612948;-0.14787875;0.25045902;0.19909924;0.1953495;0.06678328;-0.022921238;0.03972799;-0.022680527;0.09190946;0.27776444;0.011262852;-0.3431371;0.1267591;0.14108962;0.024882643;0.043046985;-0.0049896715;0.029322563;0.10248117;0.030113643;-0.31307116;-0.27615875;-0.24054924;-0.30050644;-0.39796713;-0.36966896;0.1467786;0.208746;0.008104383;0.017057369;-0.036814813;-0.1407923;0.08146981;0.042237133;-0.17254245;0.0053031086;0.046150867;-0.063728444;0.12289594;0.10745217;-0.035003964;-0.04154568;0.024063095;0.022268027;-0.58609384;0.05372741;0.08824251;0.03793621;-0.0038467539;-0.020151898;0.18069771;0.25230452;0.32208878;0.039454833;0.104518555;0.038804136;-0.12478679;0.055082556;-0.29342395;-0.28622833;0.018884715;-0.08887969;0.34773183;0.12737378;-0.091022104;-0.19897729;0.039954513;0.06396075;-0.15256311;-0.6869055;0.19613335;0.1337628;-0.19313793;-0.02722853;0.124829054;0.1751091;0.039641995;-0.020476885;-0.009162666;-0.08244853;0.018971978;-0.04544483;0.28352818;0.0014592715;-0.0072736065;-0.1341442;0.07932979;-0.03396646;0.13213347;0.022325573;-0.025745256;0.10708008;-0.021950789;-0.027693266;-0.20694226;0.11573676;0.05060003;0.2550728;-0.071434535;-0.027037017;-0.455927;0.11352003;0.090494394;-0.12147467;-0.060526162;0.06009146;-0.29465553;-0.037480224;-0.06381912;0.084725074;0.059811704;0.0019423108;-0.17617387;-0.3266953;0.06612954;0.15895534;-0.013180027;-0.1811165;-0.09910234;-0.012630837;0.39115068;0.16347979;0.058624137;0.11040764;0.025087724;-0.030301364;0.038218454;0.088457756;0.105572164;0.04233698;0.13350104;0.03374214;0.04007346;0.111531086;-0.42606366;0.02063859;0.020393597;-0.092462994;0.0646023;-0.0043796315;-0.013670281;-0.12814505;0.049512446;0.005631981;0.00772444;0.011047541;0.14152297;-0.27818862;-0.036796913;-0.29555878;0.012108429;0.055713583;0.02714293;-0.26655436;0.013602058;0.28292808;0.030232105;0.03922456;0.0898585;-0.018044509;0.1824969;-0.06217342;-0.013840974;-0.017310197;0.20340297;-0.0669178;-0.48322126;-0.17079039;0.0068565574;0.0450523;0.025360541;0.09707835;0.054742772;-0.018047491;0.023348423;0.051938713;-0.047452066;0.2714591;-0.05905937;-0.0029234046;0.022670625;-0.32076403;-0.11180145;-0.31892088;-0.0026804602;-0.013798548;-0.11629844;0.2021934;0.16429728;-0.41062522;0.10026374;-0.4574504;-0.018004177;0.18673699;0.013482799;-0.29445592;0.23051277;-0.1622968;-0.04304669;0.08590735;-0.052381057;-0.6223745;0.011351518;-0.14383762;-0.12339232;-0.06922596;-0.025607493;0.026916502;-0.04285804;-0.08189211;0.14388105;0.04097131;-0.02980111;0.06777846;-0.051068928;-0.16304667;0.26415953;-0.009737962;0.022726022;-0.20683163
0.12751986;-0.16558266;0.002864667;-0.040780596;-0.032669816;0.09724517;-0.06043842;0.009684019;0.15457904;-0.021509718;0.40499356;-0.12415614;-0.01749891;-0.025833927;0.10250466;-0.052370556;0.011606274;0.28187382;0.08394098;0.36230707;0.06586401;0.00914709;0.1132261;-0.19512087;0.01190255;0.25909215;-0.073323146;-0.058412414;0.15626791;0.41809216;0.014748628;-0.20617323;0.15010142;-0.005360824;0.013050916;-0.018706836;-0.030488543;-0.35755435;0.4904305;-0.1163327;-0.07679722;0.071108416;-0.51329577;0.12291391;-0.11710716;0.1659984;-0.032422077;0.00891764;-0.022713564;0.21000442;-0.059671495;-0.08105504;0.08747305;-0.21838284;0.24152888;-0.043357804;-0.08495732;0.07611116;-0.029471813;0.04304899;0.04776153;0.19119002;0.039827522;0.020270545;-0.23058115;-0.15726443;-0.025387857;0.015867455;-0.11581139;0.07703591;0.1771251;-0.07967986;-0.07952286;-0.11302376;-0.06706596;-0.009727234;0.21358642;-0.25005493;-0.007236901;-0.39401856;0.053787846;0.3441172;0.032866117;-0.10890569;-0.19882394;0.03782857;0.032461423;-0.008138465;0.006959203;-0.008446179;0.08997428;-0.07034897;-0.009219956;0.1468912;0.01946927;-0.27918425;0.07882139;0.35000536;0.19631438;0.16185853;-0.2769166;0.21562287;-0.3914949;0.08675298;-0.15605463;-0.070300736;-0.09536336;0.415634;-0.15793967;-0.47685063;0.09872647;0.30416867;-0.037084077;0.3258404;-0.027316468;-0.01182397;0.029341182;0.101384744;-0.20387773;0.34234738;0.13519306;0.061548818;-0.1754386;0.14988516;-0.19426326;-0.0077410634;-0.10311652;0.081637286;-0.47251275;-0.09088002;-0.075021215;-0.23742591;-0.3646702;0.01771908;-0.16995977;0.054436926;0.15051733;0.063470475;-0.077997044;-0.13226426;0.04738331;-0.04282021;0.08413456;-0.38660395;-0.12706645;0.036455188;-0.3667486;-0.034417935;-0.12706012;-0.3747629;0.014313067;0.13047417;0.050340567;-0.42583966;-0.04137846;0.23795241;-0.4992616;0.08843785;0.028838838;0.036331907;0.24139749;-0.13359067;0.20247094;0.0039545493;-0.018103223;0.022046475;-0.0058704824;-0.008546001;-0.18411683;0.16211484;-0.12058812;0.04260414;-0.16482648;-0.1752403;-0.010827518;0.10404196;0.041568276;0.21836478;-0.1685999;0.011327813;-0.06441713;0.021771558;-0.20089315;-0.061851144;0.01726043;-0.0002949924;-0.017375581;0.17309348;-0.0456975;-0.027154826;-0.096861556;0.25558627;-0.16835658;-0.06565112;-0.4010129;-0.2542056;-0.16384047;0.28297;0.2096826;-0.13380183;0.20261048;-0.024030045;-0.0405889;0.009470841;0.23479371;-0.02331788;0.29021555;-0.251486;-0.10058047;-0.10550948;-0.074058294;0.13867393;0.36356664;0.050709985;0.039426662;-0.019801136;-0.35824314;0.124565415;-0.16292539;0.13051294;0.022252828;-0.1250523;0.17281935;0.028933914;-0.12682778;-0.00908386;-0.05956869;0.296593;-0.42455903;-0.009352507;0.04993311;0.22067371;0.117080644;-0.07439228;-0.1794188;-0.03304387;-0.079583846;0.007979872;-0.06369946;0.010573283;-0.1791981;-0.086436845;-0.23866722;-0.04282197;-0.21614711;0.004761115;0.23500142;0.28445205;-0.036538202;0.07945988;-0.26366636;-0.03813495;-0.032474183;-0.21998945;0.045807384;-0.016431013;0.07185274;0.06384941;-0.00731558;0.036484573;0.085157424;0.21601428;-0.0037192907;-0.0043096365;0.07584282;0.03231323;-0.15719719;-0.22597119;0.047515143;0.004362525;0.26576486;0.10506928;-0.3515564;-0.16745566;-0.010709643;0.044351928;0.20345594;0.18785574;0.07535311;0.012073583;-0.025545258;-0.070030965;-0.1807485;-0.21888912;0.12697038;-0.13428637;-0.073939115;-0.21396501;0.022482926;0.3190104;0.07003188;0.08245078;0.06482286;-0.26298228;0.42464125;-0.32340395;0.2312813;0.103355415;-0.04908522;-0.0028905994;-0.15696362;0.05030293;0.04468093;0.18743765;-0.008148958;0.24552202;0.117035925;0.05120246;-0.13867103;-0.029679319;0.07839486;0.005656908;-0.024685694;0.055988085;0.19650503;0.040839586;-0.17059462;0.25431377;0.27820137;-0.025855174;0.0019800619;0.008911722;0.12222631;-0.028855674;-0.02783265;-0.03304686;0.0948759;-0.02814163;-0.25678;0.025766019;-0.0064434987;0.016918706;0.012794093;0.023494383;-0.15155677;-0.017087022;-0.2872868;0.1198121;-0.13908277;0.13873492;-0.0011962983;0.38518777;-0.007836607;-0.355075;0.0014867913;0.20123859;0.14229739;0.04508337;0.16746071;-0.01901616;0.058631305;0.14296253;-0.12866469;0.24432248;-0.04046461;0.054506753;-0.06540999;0.2758217;0.31291455;0.18437934;-0.0072537786;0.023548873;0.052294083;-0.041408293;0.019607067;0.2801808;0.14102213;-0.16160527;0.07529204;0.10832853;-0.04479341;-0.0077732913;-0.0113584725;-0.0068744845;0.30019873;0.029272918;-0.36218968;-0.20754102;-0.26470745;-0.284271;-0.39943382;-0.2983042;0.17122777;-0.0056518815;0.027220096;0.21821147;-0.15095058;-0.07946565;0.10799467;0.019447396;0.0027805578;-0.07050299;-0.0005633865;-0.044259958;0.1002097;0.12358285;0.015140525;0.020435382;-0.042694274;0.011949631;-0.5091444;0.004169535;0.16148773;-0.047021642;0.0004677341;-0.008298678;0.22522494;0.13953894;0.23968107;-0.05464078;-0.0003168735;-0.037967328;0.048745543;-0.07812197;-0.4122112;-0.18322323;-0.08052476;-0.08065793;0.22999418;0.022563698;-0.1890217;-0.1247013;-0.0043533775;0.067211725;-0.18275647;-0.8461975;0.13817796;0.12946647;-0.16506512;0.055017866;0.10889384;0.19977394;0.039110325;-0.1650318;-0.015701555;-0.09248345;0.0029540758;-0.066167906;0.25716603;0.009143341;0.013889724;-0.014518715;0.04419365;0.0024223502;0.17088515;0.03808491;-0.053134628;0.15410767;-0.056820717;-0.017584665;-0.12813948;0.057765357;-0.0012847573;0.2617481;0.0461517;-0.0032437625;-0.42624566;0.172465;0.07558673;-0.054007735;-0.009346298;-0.04679023;-0.13003366;0.08339319;0.044054434;0.010890516;-0.121888325;-0.04962686;-0.15958266;-0.23526827;-0.059745666;0.19737902;-0.054427125;0.016770298;-0.24649191;-0.13458633;0.26110926;0.17575528;-0.02735334;0.16994736;-0.017712973;0.008874434;-0.055018667;-0.056728072;-0.004201698;0.047244944;0.2366133;0.05852373;-0.08772718;0.124018356;-0.26813483;-0.08568743;0.021901075;-0.04080874;0.03255058;0.0012739503;0.11552378;-0.12798794;0.013391939;-0.12906119;0.040080898;0.13801728;0.14197622;-0.29048124;0.022690231;-0.23737735;0.018387675;0.061456054;0.028667359;-0.25768626;0.03703016;0.22950213;-0.025782252;0.06281302;0.17317268;0.008246262;0.043161612;-0.21062912;-0.08277108;-0.01140353;0.11773496;0.039149757;-0.3745818;-0.30693448;0.022821706;-0.025075676;-0.18225178;-0.06686523;0.08344809;-0.041387193;0.15772639;0.16489278;0.014303809;0.2157885;-0.013179825;-0.022795912;0.007073618;-0.19517049;-0.2513635;-0.22553991;0.016837759;0.0033641427;-0.09263459;0.020370843;0.101424396;-0.3989059;0.12547505;-0.35284683;0.081927046;0.05314443;0.04058784;-0.26338875;0.098768;0.039099377;0.020550014;-0.13256316;-0.22074634;-0.6540648;0.01392382;-0.10206582;-0.2643305;-0.014275326;0.11223695;-0.03584066;0.043785263;-0.06859563;0.13783275;0.017483314;-0.0069112494;0.14098974;-0.10348352;-0.15891844;0.14781928;-0.044931002;-0.021498939;-0.26269773
0.15989487;-0.03639312;-0.058569346;0.12857139;0.011657719;-0.017808363;0.08151335;0.02887613;0.11609185;-0.017661149;0.44017962;-0.21933764;0.0019571672;-0.023113454;0.08385881;-0.016641451;-0.058031294;0.24800171;0.012836564;0.3196319;0.13560273;-0.08110862;0.24225658;-0.20596781;0.05308121;0.20850953;-0.042509414;-0.11915956;0.23754783;0.43700466;-0.027745595;-0.19964959;0.13331744;0.035240397;0.010297779;0.05890486;0.041882228;-0.2608303;0.5129255;-0.048998967;0.014610507;-0.08468349;-0.42888084;0.12495619;-0.011046043;0.016679436;0.04689445;-0.05940723;-0.029769354;0.055884365;0.009691456;0.050996654;-0.000531591;-0.25790852;0.051777393;0.0010666013;0.042137522;-0.049860165;0.0005114582;0.040795982;-0.03254843;0.17900483;0.0062222127;-0.035358462;-0.20466273;-0.17626774;-0.05883029;-0.022593537;-0.027125156;-0.0525439;0.28823048;-0.010501511;-0.08196603;-0.18767232;0.040167253;-0.02016249;0.04592437;-0.04693041;-0.0019305014;-0.35921147;0.0021685916;0.2934927;0.0015179014;-0.13997367;-0.27177644;-0.08264104;-0.05977589;0.046512052;7.895654e-05;0.05382513;-0.051331144;-0.002078249;0.13055168;0.13553059;0.031219702;-0.09006043;0.023026688;0.30072376;0.14382888;0.12058865;-0.17355467;0.21535948;-0.45915633;0.022900678;-0.2698161;-0.09047122;-0.001801396;0.16085966;-0.103291385;-0.45136762;0.037524387;0.20366801;0.06459695;0.37427947;-0.0054474873;-0.049120218;0.020650849;-0.014846418;-0.16909836;0.26103732;0.08065095;-0.035941765;-0.21127418;0.24486849;-0.15929456;-0.1242857;0.08094527;0.08882334;-0.59738296;-0.04057487;-0.0037616629;-0.28352064;-0.1413557;-0.00062906987;-0.1728584;-0.024291007;0.126404;-0.057928875;-0.15286721;-0.35393927;-0.037964955;-0.07562895;0.067108944;-0.16612382;-0.16485451;-0.04105374;-0.47153717;0.056624778;0.03171034;-0.30732885;-0.02618922;-0.020237597;0.019205742;-0.43098906;-0.19793534;0.15710726;-0.3755004;-0.018505642;-0.024625793;-0.0342571;0.12418892;0.09407294;0.21884638;-0.029766146;0.039443497;0.02598004;-0.032956887;-0.0587395;-0.28915203;0.1110869;0.016547913;0.056023043;-0.30421236;-0.20672537;-0.012271465;0.057866056;-0.035622843;0.4015918;-0.0123597;-0.030219316;0.041817825;0.028242828;-0.052209955;-0.02977727;-0.035594672;-0.07505442;-0.032528717;0.02222555;-0.121745534;-0.010321952;-0.106092505;0.36023134;0.028728776;0.08529862;-0.36228317;-0.3173872;-0.18029;0.22470577;0.18582647;-0.09214458;0.21559489;-0.064403415;-0.14581442;-0.13338721;0.16299318;-0.06562876;0.16925326;-0.29742086;-0.13580047;-0.07208294;0.04202749;0.12637691;0.36225563;0.023595864;-0.022156307;-0.03222558;-0.37328073;0.15553991;-0.12206563;0.17079756;0.11063962;-0.0087127015;0.29230654;-0.05946196;-0.032655314;-0.062907465;-0.010335069;0.36326012;-0.373356;0.018696846;-0.057873625;0.083933435;0.099374354;-0.14460488;-0.06437753;0.070879355;-0.019332826;0.015000429;-0.124937445;0.062221404;-0.19841363;-0.025532598;-0.11260364;-0.029493239;-0.32448512;0.08854335;0.26041397;0.21876681;0.030094072;0.08266885;-0.317708;-0.021586273;0.10979154;-0.42298847;-0.006687919;-0.038684797;-0.023655089;0.15207595;-0.03195201;0.040249076;0.1841972;0.2164591;-0.016750844;-0.0039267708;-0.030314138;-0.019519508;-0.2689391;-0.24311408;-0.078915566;-0.10984577;0.2292818;0.27549362;-0.2804247;-0.058399007;-0.014832938;0.044407666;0.25223795;0.22273323;-0.06438158;0.016477585;0.048332565;-0.08585482;-0.07417489;-0.08048061;0.17614444;-0.056397818;0.06417522;-0.15787633;-0.014752344;0.26164243;0.10711915;0.065683685;-0.11657651;-0.2660563;0.41327018;-0.23680077;0.07931954;0.3056228;0.032351125;-0.004255317;-0.15293911;-0.002556799;-0.04410024;0.2397159;-0.14548266;0.18201242;0.026192503;0.063315876;0.03331609;0.0375355;0.07761544;-0.016923936;0.023016233;0.0048411563;0.35489097;-0.11578604;-0.1254562;0.32404158;0.25514066;-0.043936487;-0.028561348;0.047292233;0.24595389;-0.00964776;0.033747286;-0.03603388;0.18943302;-0.008810237;-0.44420528;-0.01117771;-0.014462872;0.066167094;-0.014300793;-0.02050963;-0.04657501;0.046801094;-0.16067995;0.17520368;0.007284383;0.16151729;0.0077562253;0.30876938;-0.0045345137;-0.22971629;0.091588184;0.17247388;0.015373087;0.04600838;0.2571713;0.06852231;-0.007318437;0.11437531;-0.10908149;0.27499673;-0.019956956;-0.0563862;-0.013572012;0.2792988;0.3089596;0.11276615;0.020502117;-0.076720566;0.21422893;-0.0010585629;0.019043168;0.428331;0.09969637;-0.1005895;-0.13292682;0.1752071;-0.02262443;0.01865434;-0.008679352;-0.051673423;0.30968636;0.0147368675;-0.23108718;-0.07975242;-0.13424756;-0.33174646;-0.3605977;-0.20516987;-0.006862637;0.092126764;-0.012665631;0.15637796;-0.017384415;-0.11344418;-0.061187524;-0.020539468;-0.017787913;0.029339673;0.0019192699;0.06760524;0.16577645;0.15082943;0.050445914;-0.009299528;-0.0056589874;-0.0005643229;-0.43687627;0.07736865;0.103771865;0.04739419;0.02503635;0.01566058;0.14301565;0.1680276;0.18906029;0.035662524;-0.1386072;0.040284555;0.0019877222;0.04598619;-0.25429633;-0.011516955;0.008445047;0.04236522;0.2803524;-0.046700004;-0.24321508;-0.10571618;-0.03151543;-0.025604306;-0.18630302;-0.7164773;0.1536191;0.05832489;-0.088634156;-0.06382816;0.06241596;0.14998415;0.18524392;-0.05185151;0.20177129;0.06193558;0.04834742;0.018957818;0.05570618;0.03738945;-0.029741637;-0.20964622;-0.106407665;0.026198462;0.19366491;-0.042981338;0.08114409;0.2607202;0.0130374385;0.046234496;-0.048796166;0.115543954;-0.05063217;0.099811;0.006959617;0.05520391;-0.21847537;0.1494126;0.036667205;0.038815953;-0.05346792;-0.045518834;-0.16765499;-0.027173202;-0.0033058191;0.12869161;-0.06589375;0.001528428;-0.11049837;-0.27268338;-0.07683704;0.0015332499;0.073862426;0.13371381;-0.20230183;-0.1613842;0.17075682;0.1384052;0.008521426;0.11622889;0.037804298;0.0144406315;-0.05032718;-0.03941635;-0.049816016;-0.09871709;0.13977337;0.06597594;-0.04561523;0.106785215;-0.14054078;-0.07605319;-0.0732649;-0.1225968;0.03495352;0.024936918;-0.048349578;-0.0691825;-0.16797058;0.06207687;0.028491007;0.13239653;0.14420371;-0.17046888;-0.0588628;-0.11477348;0.025289057;-0.028821269;0.03972507;-0.33738354;-0.03161803;0.38116696;0.0023074257;-0.060183823;0.25634354;-0.04020249;0.0105939675;-0.09205022;-0.20977843;0.07677419;0.04233052;0.0056475718;-0.48522878;-0.2322361;-0.00026459634;0.016274327;-0.15652652;0.051638015;-0.060567632;0.018630218;0.055643804;0.13291302;0.014774521;0.30574393;-0.07315921;0.069645956;-0.0087468345;-0.4476063;0.01654961;-0.27177823;0.06509961;-0.0016648077;0.029635638;-0.042859085;0.14062089;-0.27114543;0.09415765;-0.24078058;-0.017295439;0.118974656;-0.031948354;-0.29671502;0.054908227;-0.036825206;-0.038959906;-0.09023979;-0.19230542;-0.62254626;0.10396019;-0.034895945;-0.16627385;-0.013238532;0.23285455;0.06663784;0.014461513;-0.017147873;0.094541535;-0.073710315;0.06315089;0.08030557;-0.045189705;-0.19376878;-0.011865946;0.058633555;-0.04076409;-0.18972343
0.08895913;-0.27407774;0.08866541;0.005335946;-0.04892216;-0.0017815018;0.0898604;-0.017282953;-0.086151764;-0.010943048;0.31700754;-0.18265003;-0.01149641;-0.018032;0.22268021;0.036747597;0.026703926;0.23904657;0.17122269;0.31068328;-0.06900936;-0.10686768;0.13115793;-0.32355914;0.045109224;0.2029793;0.08082855;-0.05204861;0.29443198;0.5159993;-0.08941181;-0.22794798;-0.028808203;0.025120843;0.0022865145;-0.028048716;-0.04162411;-0.16438104;0.34804797;-0.08811567;0.25135535;0.026284859;-0.45432281;0.09989008;-0.14081256;0.009947336;0.07751091;-0.008862081;0.044391528;0.0368017;0.007954019;0.21331191;0.14066544;-0.24622768;0.127032;-8.342402e-05;0.03365911;-0.037855115;0.007360319;-0.06563136;0.031372596;0.22557709;-0.045746222;0.015884874;-0.14497134;-0.008173811;0.015814025;-0.054234844;0.0034785916;-0.03593214;0.35721326;0.058665026;-0.038203552;-0.16965394;0.100271665;0.038413767;0.15655316;-0.01681424;-0.005516406;-0.3264689;-0.010303561;0.18226407;0.013043698;-0.20127465;-0.20418689;-0.020534191;-0.0325324;0.0037392501;0.030184332;0.006996501;0.039828047;-0.037093144;-0.03835424;0.11072378;0.027321296;0.03276727;0.14991823;0.1429892;0.26353374;0.092308566;-0.0468908;0.14606266;-0.50806814;0.24187067;-0.22140947;-0.10369779;-0.066466555;0.2958554;-0.16351525;-0.3597272;0.05399899;0.01318826;-0.011867941;0.26994744;0.01645817;-0.025949473;-0.027624594;0.15937188;-0.14696144;0.22196887;0.09262195;-0.18361789;-0.012710165;0.004097618;-0.08788781;-0.0917563;0.1317895;0.1362532;-0.40822175;-0.08016975;0.00698501;-0.236411;-0.23196565;0.02559088;-0.23349166;-0.046061754;0.12924014;-0.07715618;-0.11896723;-0.27085012;0.013192773;-0.19901106;-0.083981425;-0.12235576;-0.12098079;0.027898524;-0.30432042;-0.0113972835;0.023739737;-0.018107552;0.0074463733;0.014403173;0.2299892;-0.34446964;-0.26593226;0.13347544;-0.26456562;-0.017371722;-0.0009054397;-0.087112695;0.030846361;0.16122223;0.13291024;-0.0052401293;0.007374394;0.044818502;0.039734192;0.0982099;-0.38393417;0.086655855;-0.19441922;0.0020162712;-0.3046434;-0.015187414;0.07119981;-0.0031924564;-0.051784504;0.297485;-0.07301458;0.039136313;0.009981417;0.004621631;0.09242875;0.15027271;0.018351462;-0.18023083;0.020864105;0.0637515;-0.12094545;0.016186493;-0.04423345;0.39573154;0.14562471;-0.052839134;-0.37408867;-0.23346293;-0.04998894;0.15100166;0.12741733;0.120925896;0.22588547;-0.12699933;-0.048516262;-0.19924158;0.02992006;-0.08246235;0.19662799;-0.3594701;-0.18500292;-0.08223243;-0.0023310566;0.14445782;0.37350097;-0.06486081;0.056962833;0.053364504;-0.46019992;0.1055;-0.102609895;0.2122285;-0.10573561;-0.020418387;0.29230338;0.070292845;-0.116429515;0.04216964;-0.12947197;0.4073147;-0.32786435;0.029292194;-0.05450296;0.10681078;-0.024453387;-0.028999146;-0.25188878;-0.032695323;-0.06569012;0.02954912;-0.13885196;0.007189097;-0.2016733;-0.02929008;0.06045622;0.0012185836;-0.3335995;0.2074545;0.14897546;0.2455727;-0.030330257;-0.025284844;-0.16781788;0.028686391;0.17110732;-0.37068403;-0.029211747;0.02319489;-0.042035237;0.037363835;0.03433174;0.01381328;0.22447833;0.14601299;-0.04489284;-0.02145083;-0.014423971;0.027155472;-0.16253097;-0.063909724;0.011829042;-0.07412032;0.23034407;0.2176112;-0.20623738;-0.051820114;0.045564547;-0.06789281;0.24910775;0.08103419;-0.057780016;-0.06508735;0.009912223;0.008210198;-0.06169467;-0.07788306;-0.0011439306;-0.11895079;-0.0103611555;0.015589592;-0.032018058;0.33803806;0.123049766;-0.029066062;-0.024305997;-0.24829869;0.3658312;-0.16553423;0.0755214;0.18296388;-0.03169614;0.000356053;-0.05655671;-0.00026499643;-0.022762705;0.21736546;-0.21682751;0.11969827;0.018590184;0.0003672065;0.0058347844;-0.06412054;-0.10300792;0.012561924;-0.020897884;0.011038334;0.33412942;-0.11950793;-0.19476001;0.061470997;0.1715988;0.07405077;0.29771903;-0.06539553;0.07816665;0.07235613;-0.029723793;0.008609095;0.24706613;0.015593981;-0.30708897;-0.0037185487;0.02279169;-0.047696605;-0.008436968;-0.012541541;-0.22607787;0.056844383;-0.08509383;0.35818872;-0.044271685;0.16843122;0.016904624;0.19537248;0.03351439;-0.029217651;0.11000044;0.13605495;0.03263934;0.12937842;0.39035594;-0.049410984;-0.04142138;0.13583507;-0.04239903;0.17694941;0.07876062;-0.13613537;0.09556572;0.28444442;0.38596705;0.09876497;-0.015161803;0.058656532;0.2236028;0.0132256;-0.0189548;0.29804662;0.090373114;-0.14895871;-0.009410629;-0.00085106224;0.021678787;-0.011910418;-0.005111482;-0.041941397;0.20404008;-0.04340725;-0.28261757;-0.070233814;0.05165507;-0.3882514;-0.2942097;-0.2331069;0.14524667;-0.09394482;-0.06790347;0.21755743;-0.14419988;-0.0970476;-0.074696675;0.0410145;0.10174133;-0.054410454;-0.019008026;0.13537888;0.21876459;-0.04920954;-0.035668932;-0.04231414;-0.0029913748;0.058054436;-0.3817627;0.15677333;0.20062618;-0.04341915;0.062034614;0.047548838;-0.01563868;0.13208239;0.109521896;-0.008655316;-0.24807787;-0.10274267;0.09843748;-0.05067326;-0.3838551;-0.119139746;-0.12318498;0.14274547;0.217022;0.03721062;-0.35741943;-0.039148156;0.032227024;0.0075696968;-0.120447166;-0.58080125;0.19317648;0.018037802;-0.23886868;0.0021548278;0.13686398;0.16729504;0.14143261;-0.15495153;0.063696414;0.09836756;-0.053923246;0.02642619;0.059863254;-0.0054560327;-0.007738623;-0.28557828;-0.05810594;-0.044151835;0.06653841;-0.030068194;-0.041280694;0.34382266;0.055964142;0.06288102;-0.05174482;0.09809118;0.029228035;0.16736034;0.0010018895;-0.0049147517;-0.045617744;0.16090374;0.09298867;0.15478182;0.121489376;-0.058176212;-0.16220924;-0.02936253;0.0547303;-0.006194706;-0.18941349;0.01145165;-0.15367363;-0.1788274;-0.07268191;-0.1802581;-0.016539047;0.15103626;-0.21223143;-0.26236477;0.10488882;0.050651018;-0.01296395;0.15128843;0.035034098;-0.038882222;-0.031405058;0.022483924;-0.14213078;-0.15377487;0.12942654;0.058683597;-0.03741064;0.16711375;0.06298003;-0.071591586;-0.018518269;-0.34490237;0.0020137178;-0.0057588466;-0.025578942;0.033906255;-0.02768829;0.022405177;-0.01208736;0.056722913;0.28947324;-0.2422127;0.026928242;-0.17507552;-0.040909607;-0.036981255;0.027770333;-0.5120799;0.08840776;0.31785068;-0.0015934666;-0.04626271;0.27909115;-0.025039995;-0.06380908;0.07272883;-0.22516978;-0.045779563;0.11592978;0.04091338;-0.35791686;-0.07501029;-0.035008162;-0.018447366;-0.2201258;0.05981936;-0.034613065;-0.013627867;0.19667946;-0.025767108;-0.01328904;0.20821632;-0.029937059;-0.014898537;-0.036756087;-0.3163613;0.0792805;-0.02426434;-0.0139479935;-0.03772511;0.07873701;0.049179573;0.2102346;-0.17195947;0.08786527;-0.19311766;-0.02970163;0.17735188;0.012990685;-0.22732022;-0.09452114;-0.035325367;0.06982051;0.014107649;-0.39894462;-0.32528168;0.118733294;0.006865971;-0.15103324;0.022426626;0.16203262;-0.051035937;0.004288446;-0.027544498;-0.06407754;0.05449542;-0.04108327;-0.028106093;-0.2068873;-0.0843078;0.012347342;0.038268346;0.023091126;-0.15596612
0.09531164;-0.26766676;-0.040298183;0.07411929;0.024844497;0.00015997261;-0.005731456;0.030112443;0.012524773;0.060051627;0.21283263;-0.090648316;0.029942334;0.06475832;0.21303375;-0.080437794;0.022199262;0.33902684;0.03200913;0.2889864;-0.1747196;-0.05409004;0.2177602;-0.4326179;-0.03686643;0.16763315;-0.01006073;-0.1202291;0.20878042;0.44678923;-0.021651696;-0.25149384;-0.18520965;-0.029673986;-0.00837921;0.038209658;0.017465366;-0.042184707;0.38261276;-0.12175863;0.18923512;0.042753287;-0.44523436;0.12453943;-0.21816245;0.037818246;-0.06293896;0.052912857;-0.004989395;-0.07899348;0.04328664;0.11443345;0.08469285;-0.20978461;0.22965595;-0.011623335;0.10044807;-0.13336018;0.048623208;0.01618147;-0.0074582556;0.25393736;0.043377668;-0.0035169073;-0.026385441;-0.044349097;0.01723552;-0.040013757;0.027384693;0.041957963;0.18763849;-0.044560138;-0.1603457;-0.183155;0.08417626;-0.017136192;0.1953874;-0.011495469;-0.008248176;-0.2718544;-0.052735396;0.09844818;-0.044956736;-0.20193163;-0.06161153;-0.011457339;0.013327345;0.07646479;-0.038205545;-0.017804114;-0.05800338;0.029233838;0.07197905;0.034305606;0.04762202;0.09366212;0.15266107;0.22795388;0.2769163;0.07877591;0.06947749;0.18905073;-0.4160779;0.3008624;-0.101386465;-0.045079686;-0.10090624;0.15825765;-0.12689102;-0.20344096;0.06018882;-0.053928148;-0.0079447245;0.058467217;0.09133012;0.045717645;-0.03424658;0.1366477;-0.10798321;0.20536217;0.13961647;-0.0068739643;0.1262149;0.13902354;-0.16761914;-0.027246725;0.17296661;0.16791172;-0.42116797;0.09676456;0.040900107;-0.13827065;-0.18100011;-0.01733868;-0.11322251;0.029011834;0.071937084;0.040023476;-0.12358231;-0.30709112;0.013097782;-0.14891395;-0.05559266;-0.008636602;-0.03504695;-0.058566254;-0.2644318;0.02845184;0.14731874;-0.01981407;-0.016693288;-0.23317048;0.15090308;-0.37228003;-0.27388522;0.103024215;-0.3229606;0.07766932;0.0051194527;0.023076538;0.14961718;0.065155655;0.015151979;0.003165481;0.013892973;0.044235133;-0.012187791;0.079466045;-0.38984948;0.06977559;-0.16948774;-0.07814895;-0.31184778;-0.056042187;0.15156431;-0.05573622;0.03266883;0.27672204;-0.032589685;-0.042187892;0.03868093;-0.0007001471;0.04441539;0.18597525;-0.042976703;-0.12401047;0.0051118555;0.090173915;-0.10458508;0.060738705;-0.13645571;0.22618957;-0.04881242;0.0451796;-0.3251461;-0.16517778;0.0034026315;0.14109126;0.19736949;0.17359889;0.32161883;-0.15915787;-0.0065635904;-0.17682709;-0.06970242;-0.06948851;0.15921739;-0.3882249;-0.19092217;-0.08124309;-0.112785906;0.044163655;0.44355834;0.014253831;-0.04210512;0.009302012;-0.46628717;0.009265026;-0.04815009;0.13481167;0.012035913;0.016117234;0.37078968;0.019321281;-0.08018471;-0.010392084;-0.1665799;0.4856911;-0.22173716;-0.008151402;-0.056828238;0.038011312;-0.032545246;-0.0064527043;-0.065510124;-0.0851173;-0.1071655;-0.039681304;-0.17542917;0.1965117;-0.23080698;0.06569078;0.07884794;0.0016810319;-0.22829336;0.15533178;0.002587068;-0.015182019;-0.029483281;0.04346582;-0.22002757;-0.038846087;0.15721351;-0.2907198;0.017677527;0.05282404;-0.05906372;-0.0632497;-0.012645437;-0.06588811;0.08245796;-0.02257475;0.023804968;0.04148055;0.03605952;-0.034031995;-0.0687799;-0.13090347;-0.078257285;0.00078012055;0.18756804;0.16368021;-0.2012638;-0.0778407;-0.059450764;0.0061248015;0.264222;-0.015490626;0.04404307;-0.038913526;0.022342129;-0.16916424;0.010648705;0.044795766;-0.0005009105;-0.24744974;-0.02500638;-0.08103254;0.04905385;0.24808212;0.09733197;-0.060443092;0.0698693;-0.057285104;0.48918003;0.0406945;-0.05029504;0.17902331;-0.053248502;0.055728834;-0.15181068;0.04842045;-0.0007614796;0.27446496;-0.1697666;-0.07410277;0.029207867;0.037144966;0.053559024;-0.15712173;-0.2437434;-0.026837451;-0.15954141;-0.0140996855;0.3183477;0.024704698;-0.14689808;0.089909576;0.07198157;-0.010977542;0.22346933;0.037598975;0.19215228;-0.05320467;0.006897975;-0.09849443;0.050286144;0.021271398;-0.36360323;0.0043756803;-0.009219773;-0.0051048775;0.012323739;-0.05408342;-0.18296511;-0.044494357;-0.04981269;0.0031974863;0.02312017;0.03808726;0.033678737;0.03494987;-0.023451341;-0.09692566;0.012910473;0.27899656;-0.12896687;0.06708964;0.31996185;-0.009667597;-0.01905465;0.07832526;-0.13301466;0.25112155;0.046940554;-0.17794186;0.09897978;0.30164352;0.37246197;0.18187794;-0.014670296;0.016189009;0.2140906;0.06358568;0.0011641601;0.4166648;0.023700772;-0.053164512;-0.068809636;0.077814;-0.031840388;-0.0012995197;0.06716245;-0.043350875;0.15437008;-0.010516234;-0.229857;-0.16270132;0.06495209;-0.32204103;-0.22672252;-0.13847005;0.11193509;-0.10978382;-0.15958014;0.06971795;-0.040125012;-0.13668028;-0.028597938;0.09386091;0.13796529;0.07455441;0.056412943;-0.06390483;0.0016253705;-0.096129365;0.018055083;0.054602332;0.015679812;-0.06674755;-0.21482067;0.17582327;0.12258529;0.043102648;0.12393543;-0.026033081;-0.023347449;-0.09187459;0.13928668;0.027343256;-0.19915915;-0.0626189;0.10603187;0.010635863;-0.35396895;-0.17429811;0.03176664;0.11316146;0.14725052;-0.016222013;-0.18916526;-0.12765051;-0.023392348;-0.1175928;-0.027713118;-0.51599425;-0.018213952;-0.21305433;-0.18377015;0.026966901;0.07823026;0.04066333;0.12393147;-0.24253625;0.08762469;0.20987356;0.016135091;-0.020827923;-0.046502918;-0.06486047;0.038647253;-0.30460688;-0.08737029;0.031184787;0.0051891245;-0.0561427;0.038387384;0.26327825;-0.03593735;-0.04977684;0.03981195;0.21907142;0.009507537;0.103550114;0.008674962;0.0036846763;-0.0035704277;0.28829616;-0.06278394;0.28305855;0.33740816;0.071212694;-0.21418762;-0.033627015;-0.04988052;0.0013871082;-0.20832361;-0.01371504;-0.109032355;-0.21704689;0.14656204;-0.2039947;0.010429556;0.08901967;-0.15659907;-0.065607175;0.10069663;0.061332673;0.014780226;0.17188281;-0.06432833;0.05726532;0.05244201;0.021927666;-0.01883017;-0.39859518;0.12523185;0.095703796;-0.07879779;0.060567897;0.11252573;0.020837866;0.07207071;-0.30316988;-0.054129228;-0.022975113;-0.11337008;-0.030015029;-0.18130818;0.05320124;-0.054066196;0.22215675;0.21731523;-0.12101417;0.029785948;-0.16583167;0.014228622;-0.036949687;0.017567324;-0.47412473;0.05717631;0.16473795;-0.043351848;0.023920657;0.17637835;-0.018480632;-0.121634185;0.0009604762;-0.19610895;0.0400403;-0.09716127;-0.051480606;-0.56787527;-0.18524551;0.013619783;-0.051904872;-0.058203924;0.13394904;-0.008899405;0.050279368;0.170903;-0.023759004;-0.07006881;0.12788166;-0.04221116;-0.05448902;0.06316595;-0.28297198;0.0024709515;-0.11015837;0.06014768;0.026828786;-0.051317465;0.05243661;0.16151728;-0.07579136;0.15086542;-0.2670933;-0.034549784;0.11303797;-0.0117661655;-0.21529679;-0.014721022;0.0012017338;0.028336812;-0.08496957;-0.454593;-0.35306242;0.03631925;-0.113898724;0.075657755;0.1374988;0.12350637;-0.024530277;0.0121444585;-0.06666728;-0.1652598;0.04176111;0.021823546;-0.015460838;-0.10182938;-0.16702594;-0.046119217;-0.008390368;-0.00017615657;-0.077296525
0.0641786;-0.11762661;-0.037269447;0.01258273;0.026248714;-0.084129676;-0.076366566;-0.038990736;-0.1176391;0.009811469;0.26400667;-0.12508903;0.01117915;-0.06048691;0.18074548;0.043100663;0.02032363;0.4112666;0.13823459;0.2067092;-0.119407155;0.045559913;0.21014673;-0.32844114;-0.03339535;0.24938576;-0.035008226;-0.13780707;0.27481982;0.21488981;0.043307345;-0.18388382;-0.087779716;0.042527862;-0.014026163;-0.04649888;0.022159453;0.031395573;0.3882444;-0.17620856;0.047393195;-0.06245022;-0.2404832;0.2033871;-0.073848374;-0.06393003;0.02067178;-0.10888844;-0.041937444;-0.059394557;-0.005298011;0.111373305;0.0553371;-0.1635761;0.30667627;0.03677592;0.13434902;-0.12474388;-0.063323036;-0.01108594;-0.01577232;0.17393537;-0.058452573;-0.028918006;-0.2417929;-0.011985365;0.025824843;0.007899286;0.19901031;-0.06385019;0.28451326;0.048542466;-0.067563534;-0.13432269;-0.06838556;-0.009582013;0.17961484;-0.20245728;-0.04524086;-0.3650543;-0.0047436175;0.19403675;0.02735549;-0.24604252;-0.18252105;0.09676482;0.029233743;0.0036584781;-0.028181877;-0.048059285;-0.0059978114;0.024320994;0.16709936;0.05682549;0.045479268;0.09846028;0.035424247;0.22931382;0.17433998;0.053813405;0.081957184;0.051341046;-0.37965772;0.12461058;-0.19904487;0.109776676;-0.0036032135;0.025459643;-0.25776297;-0.087592974;0.1275869;-0.05976485;-0.04501811;0.13302007;0.18213223;-0.041005313;-0.016711399;0.32976815;0.0022967174;0.25717384;0.0644143;0.10357307;0.102948435;0.09913867;-0.21771024;0.06802302;0.17726967;0.19895755;-0.47056442;0.028338043;-0.04187961;-0.11557633;-0.21501587;0.014447984;-0.14283794;0.041907847;-0.13412608;0.019100074;-0.022515569;-0.23957244;-0.04501711;-0.23181887;-0.3471915;0.054614764;0.01238072;0.0037429936;-0.05080507;-0.0016376417;0.09731915;0.014504017;0.06603434;-0.09251914;0.16217852;-0.27512106;0.011110141;-0.018769642;-0.30117863;0.120725244;-0.01512431;-0.042503927;0.11794027;0.07446941;0.032875035;-0.018729683;-0.101269454;0.041320913;0.020199882;0.001434256;-0.3749589;-0.053844742;-0.21077931;0.025993772;-0.21571489;0.01405747;0.17533147;0.010970778;0.022587597;0.39412808;0.100358024;0.04766543;-0.021162158;-0.04571473;0.15313475;0.24669789;-0.06498347;-0.15690629;-0.03524559;0.14362462;-0.12771504;-0.04005153;0.09745057;0.3511228;0.080148645;-0.004886326;-0.30032572;-0.14555624;0.053971183;0.10638417;0.24004236;0.16366954;0.2726725;-0.30782142;0.05059325;-0.34351838;0.0034145704;0.0023689864;0.22810565;-0.33163986;-0.11943898;0.06785666;-0.10511313;0.047045577;0.34787068;0.0026898466;0.048753098;-0.012307939;-0.21183075;-0.084069625;-0.16991778;0.05182041;-0.15232056;0.17095743;0.23797402;-0.036582712;-0.11048646;0.019808829;-0.16267487;0.4359281;-0.03646916;-0.038167752;-0.13079108;-0.16442142;0.031422745;0.18689516;-0.09255072;-0.009943785;0.034608237;-0.031997014;-0.084310465;0.29083034;-0.25410968;0.18239218;0.20480838;0.018846506;-0.21358696;0.0114845;0.06266374;-0.11265642;0.05276536;-0.060101915;-0.11053934;0.026572669;-0.059254587;-0.30173856;0.03493045;0.10652247;-0.059076775;-0.003398183;-0.04076527;-0.018225081;0.1488666;-0.18349886;0.007956148;-0.0026364385;-0.0053806445;-0.026974434;-0.0446891;-0.2613901;-0.004159133;0.11740375;-0.0062173577;0.17277627;-0.21031746;-0.06881261;-0.058524556;0.008766048;0.29990438;0.116266996;-0.0072197565;0.041906863;0.009391156;-0.045524962;-0.012757002;0.019770436;-0.1711345;-0.16449623;-0.02428874;-0.20429765;0.01103404;0.34581313;0.08317754;0.081124514;0.20213644;0.052365754;0.43107224;0.11706834;-0.04505383;0.15766674;0.048417583;-0.02967264;-0.051288452;0.010677574;-0.007125218;0.27316755;-0.14848334;0.010894566;0.17078762;-0.008789634;-0.02862745;0.027101135;-0.12196705;0.06467025;-0.13746843;-0.04361361;0.3048131;0.031436894;-0.34259328;0.025555609;0.113287434;0.01574112;0.20186754;0.020658849;0.008290457;-0.06911097;0.02789684;-0.046561588;0.037764713;-0.039010398;-0.5280355;-0.022045447;0.08009752;-0.037629385;0.014111094;-0.0038313516;-0.15116638;-0.046242677;-0.09547648;0.0057902904;0.046066113;0.064537786;-0.061258335;0.021440255;0.04995163;0.079673536;0.14564784;0.29591238;-0.25385562;0.047172602;0.3713967;0.044500276;0.042246662;0.062293705;-0.10267648;0.29105583;-0.028497923;-0.199503;-0.07220218;0.20217688;0.30784312;0.11348602;0.013877311;0.024604889;0.19066976;0.11095383;0.05449469;0.26348984;0.20364656;0.005023021;0.115246;0.093665965;0.06894515;0.0048877103;-0.06802712;-0.08647874;0.098496675;0.02243265;-0.19409785;-0.20367147;0.0273046;-0.20845406;-0.16566119;-0.03898951;0.06943257;-0.08097053;-0.16785885;0.11145216;-0.058964297;-0.13206573;0.045157406;0.17757696;0.16128375;0.0053311284;-0.05986653;0.013769552;0.11827285;0.0134538645;0.011762382;0.013508764;0.05312861;0.009021615;-0.17474711;0.15984079;0.12975778;0.007237286;0.14335528;-0.032093495;0.17176609;-0.16754478;0.07656976;-0.024880728;-0.20817913;-0.09730074;0.068019405;0.0025155265;-0.40595475;-0.019663207;-0.0035455956;0.119220994;0.23441078;-0.10465867;-0.1477519;-0.19506772;-0.012502212;0.06066307;0.053742096;-0.2810656;0.0017543178;-0.155854;-0.18517333;0.014764615;0.070002176;0.114703074;0.066721484;-0.26072285;0.16164473;0.10469891;-0.038801342;-0.11724896;-0.09078004;-2.0459975e-06;-0.054864533;-0.24903405;-0.062814794;0.01362301;-0.07251005;0.063139535;-0.0051983814;0.4093736;-0.008613216;-0.022888446;0.014895821;0.12397272;-0.0002553042;0.012899205;-0.041286875;-0.054307878;-0.052938815;0.2134971;-0.17484194;0.27502826;0.19170095;0.06929287;-0.23822792;-0.012617899;0.040170837;0.09177924;-0.1643315;0.0034372872;0.07920092;-0.0740389;0.07575166;-0.15903401;-0.015788106;0.04907686;-0.21173754;-0.14517549;0.17709653;0.1825485;0.04637092;0.020330489;-0.0059671416;0.021476228;0.036785945;-0.013174872;-0.13370952;-0.31363127;0.22399381;0.18361376;-0.067546576;0.04890142;0.031208454;-0.038215052;-0.024369664;-0.21183094;0.016917337;0.0031820417;0.01735759;-0.10297184;0.017635882;0.11480133;-0.023490475;0.2852026;0.24527569;-0.15845075;-0.0150202215;-0.18989955;-0.014911948;0.013021556;-0.06691358;-0.24570608;0.047768533;0.018168354;-0.00065324095;0.02550052;0.1525036;0.023243506;-0.13569833;0.02921994;-0.12539425;-0.012067482;-0.08757118;0.012876285;-0.44557983;-0.042310145;-0.0002241527;0.035422023;0.0030189392;0.17596127;0.013852011;0.050898578;-0.00578861;-0.07292689;-0.012668803;0.108496234;0.008610315;-0.008617468;0.0036263647;-0.34440577;0.08949617;0.07077313;0.043669984;0.0037415742;-0.038273025;0.108011976;0.16823792;0.022506641;0.14726216;-0.18739074;-0.0037157307;0.024211684;-0.0023354113;-0.14444952;-0.077603444;-0.0049689165;-0.05319261;0.016627852;-0.38461772;-0.2912548;0.032049462;-0.029389784;0.1268131;0.056971446;0.12503068;-0.03333228;-0.0041128476;0.027419493;-0.11227288;-0.06584945;-0.0025573822;-0.05841914;-0.16948041;-0.1433686;-0.07815035;-0.033209383;-0.014972224;-0.14223267
0.10744517;-0.14212096;0.019521518;-0.015945483;-0.05270461;-0.07899238;-0.04435244;0.041321255;0.087074585;-0.040409088;0.23592961;-0.16446538;-0.07564771;0.03540539;0.17327642;0.013293193;-0.036090646;0.36004326;0.15601444;0.16864492;-0.16671975;0.16920313;0.19202183;-0.39137167;0.005054902;0.3355178;-0.004896891;-0.17143263;0.24333893;0.06320162;-0.07356205;-0.10616292;-0.13647085;-0.055546593;-0.013675256;0.0034183378;0.06012931;0.10021696;0.3537038;-0.13414429;0.03493222;-0.054950852;-0.36898458;0.17360495;-0.016609253;-0.12196841;-0.03968985;-0.009933812;0.032056104;-0.06849116;-0.05560446;0.12317803;0.05505078;-0.245141;0.08873654;-0.074344985;-0.0015340999;-0.21361817;0.009670337;-0.048551235;0.050776795;0.22381818;0.00042463111;0.04569779;-0.20128424;-0.024813104;0.00475089;-0.04386935;0.14622848;0.023843564;0.31908125;-0.036732204;-0.13292138;-0.105361804;-0.13792689;0.036502603;0.16590072;-0.1370934;0.003567745;-0.31110123;0.04857616;0.15415618;-0.028368333;-0.17832062;-0.18184914;0.10435161;-0.053093605;0.09959778;0.034654718;0.020353587;0.07739734;-5.8296402e-05;0.043918304;0.22547369;0.07172945;0.06039657;0.2868306;0.08520064;0.23351671;0.1108644;-0.07718426;0.002499094;-0.16818817;0.1211583;-0.29628494;0.17013419;-0.105134636;-0.05815028;-0.22894053;-0.23435025;-0.039717995;-0.011266776;0.038082585;-0.04735779;0.026930181;0.03457596;0.07045185;0.17610736;-0.03973326;0.03433967;0.08892484;0.0681169;0.18442489;-0.034067847;-0.22427462;0.050150618;0.14562145;0.1395158;-0.24551885;0.012211743;-0.18906231;-0.19104142;-0.21341811;0.021784972;-0.10492236;-0.026435133;-0.22030006;0.04936299;0.10306399;-0.118857585;0.044843085;-0.38591412;-0.22095327;0.14620414;-0.036461942;0.04561029;-0.059883267;-0.049478207;-0.07916041;0.041207924;-0.022930434;-0.197591;0.102669634;-0.1298398;-0.07999893;0.009844907;-0.3796988;-0.016545102;0.03151363;-0.023001097;0.028277356;0.17498478;0.07275551;-0.0056191958;-0.007915483;0.0454395;0.036557022;0.10085709;-0.21857029;0.04478478;-0.19996709;0.0060247635;-0.188;-0.12411319;0.061670765;0.055393834;-0.0015621881;0.3597754;0.056154896;0.022308694;-0.055346474;0.009832563;0.17055261;0.24581966;0.05737368;-0.19113992;0.027563212;0.22306763;0.015556804;-0.014290168;0.009607729;0.37279144;0.19564001;-0.009488688;-0.26984504;-0.09533627;0.18058157;0.140446;0.24816133;-0.0036940812;0.17452513;-0.30747432;-0.056065336;-0.25311548;-0.12232286;-0.031888306;0.038760543;-0.37208223;-0.27541754;0.09058695;-0.042784862;-0.051636804;0.28357884;-0.021634264;0.015066691;-0.038548995;-0.41189963;0.104852684;-0.15126823;-0.07982043;-0.052942824;0.13732925;0.35262412;-0.0077813123;-0.17547667;0.006427436;-0.18460631;0.27986988;0.053798553;0.01896401;-0.15647058;-0.14862001;0.1564874;0.07323245;-0.012458386;0.039866257;0.09812545;0.017169641;-0.20514818;0.16614805;-0.27600732;0.23619796;0.07984583;0.050729245;-0.24275292;0.10402312;0.24868296;-0.14061582;0.053917516;0.023373486;-0.17672533;0.007955877;0.039846268;-0.20723179;-0.025016574;0.2482479;-0.06588637;-0.064483315;0.04923349;0.0147620775;-0.0034552433;-0.11599272;0.0195321;-0.024620205;0.01794016;0.074078165;0.010077841;-0.19030291;-0.061605886;0.11753725;0.107747674;-0.05454396;-0.14184679;-0.09819888;0.048621476;0.031988733;0.3304828;-0.031221336;0.010706991;-0.0028668474;-0.02984173;-0.18683818;0.1418132;0.0550293;-0.37473837;-0.16760743;0.02868586;-0.08289821;-0.03117424;0.24260572;0.18370923;0.19640705;0.15256006;-0.019794047;0.3499457;0.13285059;-0.123625144;0.1557342;0.07641355;-0.0034786193;0.0645007;-0.010502061;0.028862657;0.06519642;-0.197188;-0.018204346;0.16212627;-0.021929102;-0.20258203;0.08021784;-0.2012298;-0.0880928;-0.27391982;0.021160273;0.13311605;-0.05385044;-0.3369488;-0.008866987;0.22398193;-0.016644645;0.24603325;0.004117907;0.023840643;0.05235297;0.005981609;-0.025078114;-0.034041278;-0.0041078576;-0.5046909;-0.013516796;-0.044247225;-0.011200396;-0.03836191;0.0014827201;-0.087023824;0.017708622;-0.06323668;-0.06450042;0.094161645;0.0033292535;0.051812246;0.04585126;0.010320978;-0.10351274;0.14891197;0.15766327;-0.25913185;0.13112047;0.2749043;0.041395873;-0.05252952;0.119581416;-0.18549685;0.21070786;-0.037283607;-0.3249294;-0.081784695;0.29438728;0.17465198;0.18989961;0.015541907;-0.014270435;0.30383557;-0.060384832;0.046127725;0.11048336;0.21613988;0.053025916;0.17341404;0.027327107;0.005879022;-0.050123747;-0.02630304;0.04246638;0.114389524;-0.02778931;-0.3022935;-0.33478954;-0.12123546;-0.024774605;-0.28191075;-0.019174213;-0.03415764;-0.11565879;-0.12160333;0.032748047;0.05610289;-0.1867193;0.043534294;0.270255;0.25199318;-0.057787035;-0.046870835;-0.079574436;0.07851517;-0.06351968;-0.031306487;-0.041600473;-0.049974654;0.023096094;-0.10015308;0.09222711;0.18721846;-0.0074484465;0.14327306;-0.03328175;0.12089613;-0.25982177;-0.029475488;0.020817319;-0.2347419;-0.1381621;-0.05926833;0.06860002;-0.40460157;-0.05704639;-0.18174303;0.027643163;0.12341933;-0.11503394;-0.09375898;-0.12587553;0.045142736;0.0067786984;0.079851195;-0.29513392;-0.014549408;-0.21662372;-0.20160358;-0.0902476;0.10426988;0.15768467;-0.112265065;-0.18538894;-0.060811862;0.15571792;0.026971968;0.046990193;-0.1212705;0.043716054;0.026453335;-0.10912471;-0.056684423;0.109704114;-0.08320489;-0.00080929225;-0.03589415;0.25683913;0.030468434;-0.043091305;0.035789825;0.13121755;-0.00064748724;0.08670431;0.019718608;0.029178854;-0.15567075;0.08735601;-0.06638591;0.21392047;0.33138812;-0.048024226;-0.23374861;0.04641232;0.033994768;0.24027002;-0.3021554;0.04214528;0.007384395;0.12571035;0.03961973;-0.1429376;0.01567836;-0.038761042;-0.20277447;-0.15511121;0.12302189;0.19734097;-0.055234067;0.055752657;-0.024680234;-0.0029961949;-0.038531803;0.026376853;-0.074200474;-0.33694783;0.21800663;0.24890776;-0.019764055;-0.04854077;-0.07425795;-0.050188087;0.048880797;-0.2748838;-0.05401944;0.016089318;-0.02736339;-0.1802351;0.16470563;-0.08624157;-0.0011473339;0.21475214;0.25648856;-0.106688954;-0.045047592;-0.14604495;-0.035028793;0.04334855;-0.05418341;-0.035039283;0.064023845;0.104867995;0.04553303;0.06556836;0.13312258;0.020154009;-0.021598583;-0.17340127;-0.14035797;0.04418173;-0.15786563;0.024808986;-0.4368708;-0.106204964;-0.060029984;-0.02606055;0.040346928;0.036063824;-0.021078227;-0.064314514;-0.058702387;-0.003540565;-0.005163901;0.108545646;-0.049375027;0.0738157;-0.06474039;-0.32413566;0.0024574613;-0.047337566;0.09341029;0.04831003;-0.011884251;0.019526543;0.09468833;0.07332605;0.14984277;-0.07843616;0.009274905;-0.008443633;-0.0019287416;-0.20228522;-0.15271771;-0.14276907;-0.046857104;0.08561967;-0.2865762;-0.16724864;0.08808138;-0.08866937;-0.04213167;0.12085988;0.06772371;0.05476707;0.10356796;-0.041970976;-0.085278;-0.015351886;0.0030353528;-0.004359134;-0.21540917;-0.18362674;0.09351501;-0.05398921;0.025852509;-0.07519532
-0.035708226;-0.11337054;0.023660779;0.08576878;0.027574886;-0.039073426;0.0011316801;0.015714593;-0.06304618;-0.02112212;0.29950213;-0.13572083;0.04764259;-0.009754878;-0.06524771;0.015523624;-0.02352804;0.31559142;0.2402517;0.13144727;-0.1426277;-0.053805497;0.139777;-0.424085;-0.027286073;0.29512563;0.065507464;-0.052043017;0.18363868;0.110693306;-0.08869194;-0.09995786;-0.10074636;0.08054576;0.012413097;0.05932913;-0.047421645;0.0026592675;0.36158893;-0.21078286;0.08165248;-0.022871539;-0.29155993;0.05202528;0.049800687;-0.018469933;-0.042704105;-0.09174299;0.034158606;-0.109057;0.0056811417;0.13654982;0.11862604;-0.12938969;0.10138477;0.06729887;-0.064561225;-0.16405378;0.07441613;0.03622331;-0.03831788;0.04671287;0.04115379;-0.0471464;-0.21533774;-1.6041395e-05;0.034128793;0.054792535;0.111600235;0.014090817;0.34101263;0.03550931;-0.11317556;-0.2604656;-0.018425291;-0.004482387;0.11342367;-0.18519244;0.032685176;-0.30622327;0.02674698;0.06744963;0.025028272;-0.2287915;-0.14170326;0.08627065;0.003963741;-0.022357216;0.0073914113;0.015426366;-0.026745941;0.013021017;0.069100656;0.1758036;0.05610703;0.0017377506;0.27423516;0.2481038;0.21573378;0.09195653;-0.13728495;0.061743516;-0.16918333;0.03518623;-0.32705888;0.108427666;0.008072374;-0.10836929;-0.21633747;-0.17918952;-0.025692582;-0.016877862;0.0087500885;0.048538327;0.1329895;0.026381915;-0.006711201;0.3643819;0.010521988;0.11992882;0.027861407;0.11838323;0.123202875;0.06170618;-0.12813854;0.1784236;-0.02281368;-0.069480285;-0.3288147;0.099270076;-0.011503344;-0.21869648;-0.17102183;-0.07201339;-0.13457996;-0.007741778;-0.25444493;-0.042091418;0.13501023;-0.01724889;0.008159478;-0.35561514;-0.13167353;0.26500273;0.033757202;-0.0069686165;0.16508691;0.03221092;-0.11636408;-0.02980826;-0.04619528;-0.1478551;0.084535345;-0.047739;0.04996071;-0.009753003;-0.4297977;-0.011318559;-0.0012963953;0.01871973;-0.005800204;0.2179174;-0.020139309;0.07957759;-0.020131756;-0.07794559;-0.08870234;0.18568261;-0.10675188;-0.1383187;-0.07290951;-0.013675217;0.03217339;-0.05815271;0.059362974;0.059611294;-0.024258357;0.26060927;-0.030225212;-0.06373502;0.033547677;-0.013290164;0.1040177;0.028887603;0.038687702;-0.11150884;-0.029515322;0.38295865;-0.07270976;-0.045119803;-0.056587;0.3795676;0.107859164;-0.02141685;-0.3427571;-0.19230467;0.09989;0.06899644;0.07550696;0.10432056;0.14079428;-0.37800777;-0.043371867;-0.441216;0.06008691;-0.17880085;0.005923498;-0.4412754;-0.008083962;0.07143039;-0.07964544;-0.17215942;0.23972832;0.031904157;-0.0327119;0.029435776;-0.37789625;-0.09596937;-0.18290737;-0.07742567;-0.10620275;0.23509465;0.228527;-0.0010025944;-0.28650638;0.117368534;-0.10058741;0.09502937;-0.019570615;-0.019598573;-0.12892331;-0.16196142;0.323201;0.22040509;-0.04766625;0.05485614;0.10675385;-0.00926777;-0.02746208;0.027328106;-0.2556491;0.23717876;0.02060327;-0.03602864;-0.26532182;-0.004543449;0.12483449;-0.18043444;-0.04336767;0.086689785;-0.10107523;-0.008852942;-0.0028001987;-0.30963898;-0.05271791;0.27261552;-0.049358446;-0.059494432;-0.06490851;0.02977535;0.16048175;-0.23683785;0.013979034;0.01282096;-0.058374956;-0.020630633;0.026753377;-0.11673773;-0.16658726;0.124143094;0.11116153;-0.023770725;-0.13583761;-0.2136406;0.07211072;-0.06281926;0.2983484;-0.0077969856;-0.0040016123;0.0452337;0.013895069;-0.12511523;0.06437772;0.2133437;-0.4190494;0.067186825;-0.041456487;0.032412942;0.012973123;0.4444182;0.086105496;0.30821282;0.21977475;0.05894674;0.14877042;0.031192232;-0.15907061;0.16879399;-0.03158378;-0.021677686;-0.010061851;-0.03871318;0.050927248;0.13647993;-0.119825706;-0.109638125;0.24577214;0.016460422;-0.16576418;0.04005429;-0.06469891;0.036118656;-0.1922985;-0.007891699;0.26566136;-0.0044825496;-0.36317146;0.13210359;0.070669025;0.059379257;0.2788069;-0.014856593;0.07744745;0.049390413;-0.045903724;0.01414956;-0.07684826;0.013829053;-0.15847561;-0.018337226;-0.03145468;0.019282531;0.05071094;0.04361304;-0.09893953;0.0082646515;-0.10115828;-0.049490754;-0.05197511;0.06294968;-0.06630261;-0.03009033;-0.045946468;-0.22539555;0.19359519;0.17509389;-0.1856975;0.02828895;0.28084162;-0.04117684;0.018790219;0.18698297;-0.15449472;0.3752218;-0.043958995;-0.20610051;-0.07396413;0.16484132;0.12523237;0.05864445;-0.017073136;-0.02899452;0.13510658;0.062136292;-0.029359197;0.2184657;0.08442595;0.086601265;0.2526561;0.014314779;-0.0454675;0.05768009;0.030325588;-0.029796034;-0.017056897;0.037917443;-0.15555418;-0.22177249;-0.07690165;0.02256199;-0.15028593;0.13503742;0.012410757;-0.124178566;-0.012794816;0.06491853;0.041802213;-0.13595106;-0.06159615;0.21022525;0.15278834;-0.0077385046;0.01690256;-0.07886894;0.14988777;0.006196275;0.039397214;-0.029854877;-0.035579756;-0.019228527;-0.116936244;0.036678318;0.15132192;-0.020767784;-0.00880286;0.06898312;0.16202179;-0.13265245;0.0931776;0.015217806;-0.15719514;-0.23267366;0.011205242;-0.06564375;-0.35404956;-0.026346872;-0.017623575;0.14511003;0.15402895;-0.14292535;-0.08425196;-0.0770162;-0.057024952;0.05371693;0.12399252;-0.16930091;-0.042533763;-0.22715732;-0.13545834;-0.01572027;0.07094734;0.10305293;-0.17346872;-0.13738583;0.025321158;0.13998857;-0.03744633;-0.03025325;-0.14139494;0.015933786;0.01341802;-0.20036836;-0.028013421;0.09354103;-0.22814879;0.072786614;-0.014820357;0.06733692;-0.038999647;0.05001882;0.010123268;0.11969014;-0.046699855;-0.07871854;0.029965106;0.0028813404;-0.11766804;0.03742323;-0.20908272;0.21448278;0.18877955;-0.05496112;-0.21132858;-0.0063938596;-0.016819164;0.41724107;-0.15987346;-0.0558502;-0.08781455;0.09698759;0.055412102;-0.07831974;-0.022821693;0.035075184;-0.17094344;-0.17346168;0.2430371;0.18329209;-0.043075595;-0.04880379;0.051907342;0.05604606;0.02118414;0.007804349;0.04752269;-0.19450372;0.32886142;0.22290027;-0.15300763;-0.007993554;-0.14033207;-0.050832164;-0.011843495;-0.16239;0.05874473;0.012726615;-0.104510635;-0.09981468;0.050594974;-0.022423983;0.014183014;0.18159714;-0.03919854;-0.023877911;-0.02139311;-0.036685433;0.050120838;-0.041695297;-0.10290257;-0.16499342;0.12095627;0.078670055;0.06101882;-0.03851162;0.17596474;0.05546665;0.0034578517;-0.1866002;-0.046592314;-0.03937655;-0.1713344;-0.042692296;-0.31459674;-0.20823379;0.0314637;0.078257576;-0.005484404;-0.060770847;-0.102219604;0.044456307;0.08365124;-0.14168699;-0.06997226;0.15612575;0.09551511;-0.04142353;0.04115736;-0.23530175;0.05249152;0.022384742;-0.0071075903;0.05180648;0.00811129;0.07112241;0.21677113;-0.08544217;0.101009876;-0.029072922;0.078471825;-0.10140126;-0.016243571;-0.22085887;-0.3171454;-0.072777815;0.062685914;0.17641628;-0.3740299;-0.08848289;0.063333765;-0.11846714;0.09606266;-0.007576775;0.06400127;-0.023906525;-0.04076051;-0.044196833;-0.107050434;0.037325308;-0.011454857;0.018455151;-0.082463264;0.042645864;0.07600512;-0.02834201;0.025817143;-0.1667975
0.026510976;-0.08020499;-0.06060121;-0.017251002;-0.0017431288;-0.06622646;0.07890907;-0.030673178;-0.05118385;0.04662172;0.09163261;0.03209086;0.01404753;0.027301813;0.048485927;0.0046421746;0.009519295;0.2675519;0.22316831;0.0928006;-0.16412334;0.024311895;0.19990078;-0.48175147;0.0698604;0.38438568;-0.026807394;-0.1542155;-0.019339668;-0.08482436;-0.09095738;-0.18267377;-0.056277417;-0.059847105;0.05090099;-0.018181115;-0.018513558;0.07999411;0.26722524;-0.16545597;0.1848948;0.08941365;-0.34984225;0.15945713;-0.008311147;-0.029068109;0.041385178;0.04701768;-0.06194199;0.045929812;0.024744209;0.25000244;0.08639975;-0.16215865;0.010636145;0.051724713;-0.05652837;-0.18434662;-0.0038400998;0.027256923;-0.029941944;0.13070765;0.023873681;0.03793087;-0.16400984;-0.012587156;-0.0029790776;0.015734322;0.083171606;0.07800172;0.22907323;-0.039459597;-0.1455812;-0.31934753;-0.00093193137;-0.014214471;0.17917405;-0.10488775;0.009721328;-0.15760748;-0.0074091805;0.07224608;-0.060489234;-0.15518555;0.008942879;0.060490463;0.036076028;-0.059124097;-0.007407045;0.03797949;-0.10010048;-0.029555064;0.016282007;0.30504927;0.014261596;-0.011535336;0.022981716;0.14033021;0.121069185;0.11374722;-0.11988247;-0.2796643;-0.20857634;0.0605412;-0.5347386;0.041221656;0.010208993;-0.15374133;-0.19031172;-0.15212874;-0.065372854;0.1761228;-0.006676038;-0.03139772;0.11492644;-0.014579316;0.027785968;0.28226322;0.05742484;0.006898805;0.18417466;0.21849637;0.18703727;0.08232409;-0.2970637;0.112745486;-0.14994298;-0.0076543097;-0.26451242;0.09451448;-0.06294495;-0.15025681;-0.22766428;0.06751953;-0.10609986;0.040313005;-0.3015954;-0.05047963;0.14109272;0.031727627;-0.07118032;-0.33772865;-0.18748406;0.31384027;-0.21520428;-0.042233486;0.17483307;0.012355965;-0.024423935;-0.13167383;-0.011357284;-0.15229978;-0.05403871;-0.02823989;0.13974866;-0.029706823;-0.3440046;0.10937973;0.008958396;0.03816656;-0.021923099;0.031998016;0.019318635;-0.022129102;0.09232397;0.033351816;0.034616765;0.34959978;-0.038550902;-0.21909064;-0.12337296;0.05422614;-0.08525542;-0.09066801;0.08081415;-0.0008585186;0.06019945;0.17629676;-0.08936518;0.010451396;0.021058457;0.04567443;0.11728512;-0.03863939;-0.0034719838;-0.12732653;0.05397349;0.19309308;0.083174214;0.026791172;0.077319466;0.2178338;0.1888734;-0.045906175;-0.32194787;-0.07950827;0.15126526;-0.04602686;0.045327824;-0.011979663;0.0077811466;-0.27217895;0.019186651;-0.5909033;0.009336863;-0.086410254;-0.04116755;-0.44563696;-0.06890432;0.11383903;0.010272841;-0.23491427;0.2806125;0.006975272;-0.027995316;0.03238394;-0.4386848;-0.2137258;-0.10770035;-0.1923135;0.006317866;0.23319006;0.27946475;-0.0038878205;-0.3909465;0.08769857;-0.16866854;0.0166922;0.069856495;0.008754598;-0.016405722;-0.065805;0.20965342;0.0626023;-0.040956035;0.09549967;0.055761445;0.040593207;-0.025312299;0.17711525;-0.22163127;0.14292327;0.11146736;-0.039846495;-0.35628363;-0.030813219;0.15934089;-0.15837447;-0.029808445;0.021079602;0.012512674;0.009560854;-0.10526156;-0.27446288;0.081406824;0.16596083;-0.18736742;-0.066346526;-0.016021542;-0.046426684;0.158161;-0.052642778;0.029055249;0.028836811;0.0067649065;0.008336239;0.017147908;0.09675427;-0.092597;0.18648128;0.020886028;-0.050743252;-0.11684868;-0.1273718;-0.053974476;0.023419628;0.1582674;-0.13483617;0.018338844;-0.04073732;-0.0336963;-0.09079001;-0.10303798;0.2035269;-0.24943508;-0.09017256;0.017694436;0.019176066;-0.024015453;0.23895627;0.18236749;0.2117864;0.06503216;0.047271267;0.04985384;-0.018232867;-0.2194808;0.082076915;-0.06456783;-0.03705721;-0.074394554;0.05658974;-0.07981132;0.037652645;-0.25495726;-0.18969843;0.255488;-0.010351154;-0.051405657;-0.16297168;-0.080521956;0.04123094;-0.09941397;-0.011587485;0.13646485;-0.03805801;-0.3664026;0.10976001;0.14641961;-0.046860665;0.04105201;0.1573684;-0.11568274;-0.029635914;-0.019362604;0.021692306;-0.011928371;0.036396727;-0.1279694;0.050735503;-0.0052661262;0.06325522;-0.02274174;-0.0136120925;-0.19713761;0.032777324;-0.28047958;-0.11857131;-0.111684784;-0.0578543;-0.016138088;0.013751657;-0.040596675;-0.16060747;0.19264157;0.2655272;0.00867705;0.06661714;0.1366579;0.049237665;0.027521431;0.20260908;-0.14858583;0.29426152;0.0108125005;-0.21285404;0.08969193;0.18861689;0.01717491;0.055590965;0.0006789418;0.02125904;0.1840013;0.029667573;0.030981846;0.122935645;0.006551253;0.035339016;0.41896248;0.017073782;0.019449469;-0.027289951;0.025684142;-0.12996595;-0.17216666;-0.01187235;-0.06674802;-0.1212943;-0.10458547;0.0010319499;-0.2294291;0.12382084;0.0037880077;0.0029723502;-0.030343547;0.1221974;0.04794184;-0.17693864;-0.27491358;-0.06097129;0.09931281;-0.020237043;0.037801802;-0.14142868;0.34002617;0.010160042;-0.05249216;0.06013473;0.023588778;0.0023380886;-0.08803282;0.09054981;0.16194268;0.00039171864;-0.046453793;-0.0030253176;0.19948784;-0.1351161;-0.06419967;-0.03674366;-0.06426008;-0.052582182;-0.018792646;0.005464745;-0.1169848;-0.006880521;-0.102410495;0.020147271;-0.019023165;-0.063718;-0.034915216;-0.08810625;0.052208796;-0.112985015;0.26053736;-0.028357109;-0.022659078;-0.070564404;-0.10019743;-0.008438615;0.16908225;0.09732023;-0.25291207;-0.0010961281;-0.031909768;0.2715357;0.048763994;0.021117073;-0.10774325;0.015552413;-0.0062385243;-0.18849249;-0.010780095;-0.123717286;-0.2902946;-0.07584999;-0.007927645;-0.13812798;0.024683189;-0.015965275;0.08126838;0.042633202;0.013761797;0.03436769;-0.03523447;-0.06348487;-0.14536;-0.11657669;-0.28983337;0.10645728;0.12997131;0.0512107;-0.21791258;0.015545874;-0.06478215;0.19380465;-0.21427025;0.050365087;0.05008222;0.20075035;-0.0034756295;-0.016113644;-0.01608096;-0.024115903;-0.11432297;0.017733574;0.30261874;0.17254207;0.0030183091;0.03359811;0.014340056;-0.07967633;-0.08266489;-0.021661809;0.028882552;-0.20526554;0.33735874;0.08997119;-0.13451262;0.11073216;-0.35226354;-0.17163333;-0.040887926;-0.21480726;-0.046606354;0.006747803;-0.10585578;-0.17444994;0.008524215;-0.10174396;0.07218524;0.40726566;-0.18429042;0.07976137;0.07315304;0.007312493;-0.01897243;0.019185523;-0.025948336;0.0038679473;0.25430635;-0.05658783;-0.034142833;-0.0066540837;-0.051246613;-0.013194347;0.24470887;-0.056882832;-0.16551933;-0.044479016;-0.24812017;-0.017643064;-0.20112734;-0.10938193;0.03697861;0.020230776;0.033672474;0.10522191;0.079168014;-0.013642821;0.2570599;-0.07700704;0.01981797;-0.093789004;0.04951828;0.0373341;0.042597733;-0.3084156;0.015489953;0.056512006;0.036290225;-0.043832682;-0.0042943577;0.022448651;0.091985345;-0.110206015;-0.06428324;-0.05617213;-0.05025285;-0.06821176;0.0050665066;-0.19625762;-0.30621663;-0.13208911;-0.047283266;0.01012806;-0.24403487;-0.015450717;0.018256433;0.0023762623;0.03565058;-0.021139562;0.005946908;0.02502549;0.05577208;-0.20523728;-0.058332298;0.020393891;-0.014487693;0.17157015;-0.19907707;0.069528736;-0.07917808;0.033062197;-0.0018281295;-0.11733954
-0.09581634;-0.13001072;0.06739403;-0.13728307;0.056377094;-0.077815734;0.13511474;0.013617033;0.022534188;-0.0070949337;0.24927038;0.1876712;-0.05165157;0.031397;0.06510271;0.0077067935;0.019176565;0.32903013;0.37247506;0.10948665;-0.18115559;-0.114516996;0.2099729;-0.53055954;-0.02946922;0.2906936;-0.04408732;-0.15344647;-0.16636664;-0.18303257;-0.02660114;-0.028104313;-0.18999112;-0.0029853624;-0.015252793;-0.012237037;-0.023551775;0.12429073;0.24008691;-0.102862574;0.20229268;0.0139120435;-0.29242727;0.1541018;0.11858505;-0.10193481;0.07052063;-0.051362783;0.01752517;-0.0383767;0.05709201;0.112007834;-0.09399219;-0.24741597;-0.033941515;-0.012880996;-0.0052370694;-0.15835854;-0.06707134;-0.015771508;0.073708095;0.028717462;-0.023737498;0.009591662;-0.24529901;-0.08891823;-0.04231867;0.047580104;0.08886555;-0.023108698;0.0072438866;0.03855896;-0.054197796;-0.24110965;-0.16264433;-0.03447508;0.19063258;-0.17748109;0.021204848;-0.037545417;-0.03092915;0.07143873;0.04495741;-0.13831103;-0.008355859;-0.007939195;0.011943349;-0.008420556;0.016070012;-0.029222187;0.101266295;0.0041976436;0.247822;0.37908527;0.089739956;0.012889832;-0.052170385;0.20823145;0.352436;0.19887829;-0.117641784;-0.105613336;-0.36651814;0.2386834;-0.40253624;0.011434509;-0.04837212;-0.20519207;-0.2611474;-0.056389574;-0.026791554;0.15487365;-0.017176533;-0.19008657;0.0055040293;0.028202163;-0.0283704;0.44912815;0.17943236;0.10239126;0.2342503;0.24277161;0.10919018;0.387131;-0.18699273;0.12048534;-0.2033661;-0.07311079;-0.2635748;0.18749012;0.095216505;-0.3330463;-0.18470922;0.012267011;-0.015815906;0.019865012;-0.415352;0.014955393;0.08425074;0.03693392;0.051793773;-0.3976274;-0.090025984;0.4065833;-0.15143374;0.03857078;0.07544485;-0.022377202;-0.00072164944;-0.09640681;0.04558932;-0.1312144;0.061775114;-0.07206141;-0.022759907;-0.077707894;-0.20641735;0.01702017;-0.03390668;0.07841072;0.024986258;0.072512046;-0.028211351;-0.014679778;-0.047841903;-0.018922372;0.039158814;0.25453886;0.13446;-0.30837166;-0.12253758;-0.002465321;-0.0944908;0.022718221;0.090595886;-0.028946912;-0.018767664;0.26785895;-0.058366857;0.011113236;-0.020655505;0.010388568;-0.0082801385;-0.026111513;0.040858775;-0.14325964;-0.062149327;0.24310209;0.09738679;0.035223052;-0.00754539;0.2739058;0.2598941;0.069422275;-0.15660694;-0.111074254;0.021791287;0.04855422;-0.036215827;0.08110629;-0.14778742;-0.315343;0.037934005;-0.3763272;-0.11562724;0.027471632;0.08341791;-0.50150853;-0.09308423;0.05278776;0.056333296;-0.14821346;0.122002475;-0.008190862;0.023538174;-0.07885582;-0.29979023;-0.08577653;-0.16100864;-0.05457759;0.059005085;0.24552923;0.1648587;-0.012351181;-0.20776233;0.010997993;0.043458536;-0.0005131949;0.1545443;0.010958762;0.09232823;-0.1644666;0.087537386;0.1514841;-0.20258813;-0.0009849707;0.111599185;-0.056568187;-0.10997094;0.03424497;-0.12906793;0.055160295;0.1708547;0.03589219;-0.005329921;0.013632799;0.019717773;-0.19566405;0.012221047;-0.023883743;0.13290319;-0.010719217;-0.06260801;-0.21925057;-0.036025465;0.25838414;-0.0822999;-0.108545564;-0.020163566;0.031682815;0.09612392;-0.059915815;-0.018279418;0.0020838545;-0.0066634524;-0.07047821;0.014273462;-0.0254652;-0.27420503;0.07427758;0.009877645;0.018462943;-0.16461702;-0.0863677;0.029747097;0.00892299;0.0070752595;-0.07452409;-0.03267772;0.013830973;0.023686117;0.10100016;-0.059060235;0.22337303;-0.25595468;-0.025695944;0.027186822;0.08214721;0.026970312;0.22050321;0.07675779;0.24583802;0.10762421;0.0043236488;0.0023722257;-0.079902016;-0.19766523;0.17074783;0.015315572;0.021729518;-0.0027000338;0.003826481;0.01976251;0.020587225;-0.14213249;-0.010662963;0.18566872;-0.040996667;-0.18646239;-0.09668263;-0.0855538;-0.057921752;-0.14184482;0.048682578;0.18897773;0.03172235;-0.29271385;0.009389029;-0.009457338;-0.01571909;0.20480894;0.24376728;-0.124199286;-0.01842002;0.014487057;0.15351498;0.047798827;-0.048564654;0.084261954;0.060445115;0.006638269;-0.027172292;-0.018317675;0.023911713;-0.10615613;-0.04686805;-0.4720346;0.13119444;-0.19795266;0.061757196;0.032246478;0.05707178;0.04445218;-0.0089123985;0.12558843;0.08333119;0.009682561;-0.10307118;0.05029524;-0.07522349;-0.024125041;0.16090652;-0.12001385;0.2006432;0.051709432;-0.12000317;0.11812173;0.02214723;-0.039454684;0.15973036;0.058725465;-0.029284628;0.21300344;0.048639268;0.026827505;0.20355442;-0.0076373075;0.04395146;0.20680287;0.112719536;0.015460472;-0.0009788872;0.028626975;-0.1686631;-0.19313005;-0.0433504;-0.11890257;-0.050790522;-0.14331025;0.05940805;-0.1261055;0.08894516;0.14697754;0.1104742;0.09716172;0.07609724;-0.046270747;-0.15545286;-0.3386042;0.019981984;0.16141865;0.090706155;-0.012993856;-0.023702923;0.26826414;-0.053980824;0.009877522;-0.016869476;0.02278353;-0.038425855;-0.039256062;0.09350286;0.09164558;-0.007925032;0.029468914;-0.030242996;0.109671116;-0.08596453;-0.06940804;-0.009343277;0.058696516;-0.19720818;0.002024348;-0.05281765;-0.26104483;0.06200986;0.055169884;0.07866861;0.10406165;-0.008135866;-0.16025212;-0.07300908;0.026046637;-0.0010402679;0.27741748;-0.010588783;-0.1366453;-0.115630455;-0.23405775;0.039087653;0.20329913;-0.040700436;-0.18032812;0.24100956;-0.09858501;0.24914746;-0.04008272;0.05296802;-0.049620487;-0.06818269;0.0160268;-0.13717102;0.10810023;-0.04808403;-0.21620642;0.032509767;0.06195014;-0.31674522;-0.014195029;0.051722925;0.080357604;0.17267768;0.050777808;0.025269223;-0.015791059;0.03932066;-0.1903992;-0.18464768;-0.03758736;0.11474607;0.13773142;-0.019299392;-0.21624318;0.012879735;0.042712986;0.32488757;-0.21844326;-0.018654736;0.059791613;0.03788066;0.09901403;-0.08851382;0.010781514;-0.092665926;-0.007388589;-0.06593523;0.2500289;0.22787774;0.043579165;0.1636735;0.0082531525;0.0022337209;-0.021169858;-0.06315679;0.020142915;-0.34087634;0.24128132;0.19775906;-0.19840905;0.085109256;-0.27874216;-0.14846568;0.026472265;-0.15814503;0.035114124;-0.0305346;-0.024226418;-0.28627792;-0.14686486;-0.10153406;-0.041554928;0.38282606;-0.1898459;-0.052856065;0.008288426;-0.09306728;0.038738977;0.002237038;-0.13912222;-0.054676365;0.1560795;-0.029013563;-0.04410325;-0.0012969503;0.033821393;-0.0021670095;0.106802665;-0.19078681;-0.15315798;0.028963896;-0.15109293;0.043657687;-0.039321613;0.042843673;0.036991443;-0.049181126;0.16793364;0.20543861;0.2645124;0.025170108;0.13765639;-0.058196433;0.1733024;-0.07452806;-0.054111682;-0.0034825895;-0.06354322;-0.3052162;-0.10878844;-0.08122489;0.075452715;-0.06647111;-0.09055756;0.16062155;0.19451872;-0.014467225;-0.12543276;-0.056795985;-0.031371944;0.16069943;0.05432724;-0.097447;-0.29473945;-0.07273183;0.047413003;0.06261573;0.039199572;-0.010857929;0.18899214;-0.06430326;0.2470029;-0.01442178;-0.0069424463;-0.060570553;0.0788421;-0.0006040303;-0.18796788;-0.016597811;0.04750716;0.19650936;-0.1785233;0.0895795;-0.05665637;-0.00910976;-0.060298055;-0.044079468
-0.016869793;-0.056243077;-0.017612487;-0.14616823;-0.022833752;-0.077145934;0.024448887;0.030457703;0.15051657;0.036889836;0.1979081;0.042148266;0.05656671;-0.04479656;0.05225421;-0.053084128;-0.031904288;0.37096152;0.4193158;-0.008794457;-0.15869735;-0.06828372;0.105873294;-0.4804612;0.022121338;0.25812358;-0.0125968065;-0.036431924;-0.039634228;-0.13939866;0.04135939;-0.12395484;-0.20803298;0.057542354;-0.03428955;-0.042359624;0.03464797;-0.1034628;0.2842165;0.034928396;0.13097265;-0.06647828;-0.27893546;0.1130005;0.027177425;-0.15740414;-0.05601687;-0.044667397;0.030888984;-0.03912298;-0.027600124;0.16205677;0.03276106;-0.24667323;0.042394962;-0.024921607;-0.11808713;-0.091424145;0.009343526;0.040044326;-0.049616046;0.0685895;-0.01771676;-0.040498137;-0.42013425;-0.06994377;-0.059352964;0.014190878;0.16639255;-0.06884428;-0.2104227;-0.020371502;-0.17608047;-0.39225826;-0.13823453;-0.02328936;0.2296181;-0.14850895;-0.004166837;-0.06833745;-0.014219519;0.10285655;0.00079448713;-0.18792139;-0.07207399;-0.034348086;0.00814525;0.06695155;-0.061690126;0.001176547;0.044434275;-0.034356132;0.16964696;0.33274043;0.17409107;0.078533545;-0.1083611;0.20928374;0.19492182;0.16473132;-0.06631773;-0.12739585;-0.13833414;0.23773742;-0.3826733;0.085093826;0.00047649507;-0.12699644;-0.13994089;0.01596127;0.036415316;0.16957308;-0.010681547;-0.10559641;-0.060493942;-0.02729448;0.02495837;0.3872417;0.25709656;0.0962771;0.11732843;0.45681855;0.15003468;0.2909644;-0.07535343;0.09119461;-0.32089785;-0.01889617;-0.09015845;0.027651794;0.103064395;-0.2787174;-0.08990707;-0.05023507;-0.17886381;-0.033384208;-0.38862324;0.016689677;0.088673115;0.009614067;0.029089736;-0.4252778;0.020776037;0.4530852;-0.12953348;-0.010901537;0.11142724;-0.0037803878;-0.0025691625;-0.047476344;-0.057298027;-0.0670506;-0.00022884863;-0.25552788;-0.089336045;-0.23789097;-0.22519077;0.035038583;-0.026394928;0.14157565;-0.04873574;0.05530839;0.024965335;-0.038551148;-0.08099164;-0.0068282094;-0.074332334;0.24155898;0.10047568;-0.16258523;0.039833046;0.005311245;-0.09342988;-0.0323061;-0.029740894;-0.09569455;-0.08034851;0.3485683;-0.101436846;0.011076488;-0.05057256;-0.00087436073;0.03900794;-0.22329341;-0.049200498;-0.10370551;-0.0008693986;0.082217425;0.0990627;0.015168781;-0.04568193;0.2820271;0.19100276;-0.018890938;-0.12535875;-0.022452949;0.19000529;0.053755537;-0.02509285;0.05160739;-0.1829206;-0.2073746;0.05855087;-0.40703157;0.110186584;-0.105533764;0.075409405;-0.5103373;-0.13463418;0.046114672;0.0947414;-0.11722748;0.11000867;-0.03906303;0.007473338;0.020886473;-0.3409887;-0.17260002;-0.00780752;-0.17973237;0.0005160733;0.016186679;0.23246568;-0.0002597217;-0.22969495;-0.018370796;0.047171444;0.07306563;0.2595672;0.008059935;0.15317646;-0.15236229;-0.0038555071;0.061826807;-0.090627454;0.06680204;0.1427479;0.03947393;-0.12007846;-0.07463895;-0.16582632;-0.06555223;0.23807433;-0.010587845;-0.100571096;0.11048954;0.30185923;-0.1677212;-0.036838595;-0.053786837;0.00067084236;-0.014448704;-0.07492507;0.04827219;-0.024814015;0.218956;-0.01503559;-0.09637265;0.018068014;0.009478248;0.01365102;0.021790236;-0.077153966;-0.0426609;0.04956804;-0.010624514;0.061215192;-0.104842596;-0.1754095;0.029754367;-0.07933705;0.07063006;-0.084075555;-0.19806907;-0.03709361;0.0410963;-0.040437624;-0.13909467;0.010989714;0.033350386;-0.037046585;0.18329605;-0.035737004;0.075585894;-0.17696187;-0.05140624;0.009123916;0.086474806;0.032069135;0.18554105;0.18793096;0.2906696;0.11289862;0.05552309;-0.12115856;-0.13998933;-0.19004583;0.100067854;-0.02465568;0.019871125;-0.056525003;0.033741307;0.007292269;0.06291103;0.0035647675;-0.16362013;0.2952728;0.011145529;0.029030886;0.016233463;0.12843505;0.008814768;-0.059571877;0.036472127;0.25803813;0.107903674;-0.31766835;0.10792326;0.10915916;-0.04579004;0.14295793;0.26209468;-0.1079237;0.024594415;0.023619745;0.019632833;0.03068066;-0.0122981705;0.016947644;-0.061741374;0.009122931;-0.0037836728;0.03750815;-0.039626103;-0.018667847;0.047356445;-0.50882924;0.26966816;-0.016455773;-0.040059205;0.041054413;0.06260274;-0.021454202;0.10530479;0.042539533;0.13945672;0.22805879;0.039639916;0.07233253;0.01118314;0.054260917;0.10697943;-0.09545453;0.29144296;-0.02521505;-0.20362043;0.07959712;-0.16246924;-0.1032904;0.113108836;0.008734519;0.016781198;0.071115;0.16765437;-0.0032047795;0.26623207;0.0666949;0.061945196;0.24905744;0.2027581;-0.02917632;0.036506947;0.016378941;-0.22851832;-0.018811233;0.026026625;-0.17116979;0.08437939;-0.13581756;-0.025810245;-0.011072354;0.1303069;0.081691116;-0.049289808;0.22630507;0.054355312;0.042709935;-0.13939756;-0.28989238;0.07722503;0.2322667;-0.05629583;-0.017463394;-0.22448152;0.22301586;0.0052092806;0.02899487;0.03509186;-0.056039292;0.06547726;-0.08163777;0.10197732;0.08939988;0.05693857;-0.03900672;0.033959746;0.01855405;-0.019553233;-0.21470848;-0.014388349;0.009444072;-0.15055154;-0.012954875;0.07183116;-0.16234683;0.035557903;0.013164227;0.1195704;-0.042426024;-0.08673164;-0.049474183;-0.053791896;-0.057118695;0.11566053;0.19291478;-0.071392685;-0.11323473;-0.094026305;-0.06867803;0.09157019;0.2545776;0.0531931;-0.20776805;0.01857139;-0.12722893;0.068404324;0.035404224;0.053309;-0.08108119;0.04479658;-0.0410023;-0.04851698;0.044056438;0.016301678;-0.40608922;-0.05080413;-0.038091175;-0.20309009;0.019389726;-0.015990311;0.2779287;0.040004503;-0.05266808;-0.015873602;0.05443713;0.019241998;-0.13235213;0.043194577;-0.01668963;0.1345848;-0.0028371625;0.03082623;-0.1280715;-0.033025246;0.052008826;0.243753;-0.28304195;0.049308434;-0.053306997;0.16707553;0.031418458;-0.11404042;-0.032388728;-0.097242855;-0.0056412546;-0.054666694;0.20877175;0.09804323;0.034884468;-0.03724811;-0.024719607;0.011375675;-0.06348461;0.09228654;0.018635007;-0.2964985;0.027263492;0.024692912;-0.29213446;0.12346468;-0.39735684;-0.24752453;-0.053560544;-0.2922889;0.01218627;0.038841225;-0.17163542;-0.18688853;-0.05103619;-0.09006563;-0.043193877;0.26163;-0.18345426;0.12530415;-0.045385372;0.017446015;-0.036051486;-0.013621276;-0.062161762;-0.041765492;0.12581876;0.05431579;0.031686157;-0.009109719;-0.046422202;-0.047406573;0.21448712;-0.26693258;-0.18299995;-0.015417295;-0.17792194;-0.025315398;-0.032250166;-0.0027705526;-0.048053667;-0.042230345;0.07419113;0.22089311;0.21000057;-0.035156287;0.14941883;-0.023084858;0.13937396;0.03137555;-0.08940386;-0.06319514;0.04488386;-0.34642085;-0.07951406;-0.021246977;0.004441952;0.043898873;-0.042831473;0.12129109;0.3085244;-0.107332595;-0.15371232;0.0800154;0.01870078;0.24579401;-0.014865481;-0.21543117;-0.25563934;-0.057149723;-0.0081508765;0.039214935;0.096474886;-0.10807465;0.20000221;0.01900675;0.06454316;0.03195531;0.07407462;0.025584968;0.21001138;-0.35201406;0.0316828;-0.03962538;-0.062316056;0.12342454;-0.24416728;-0.007579021;0.036506318;-0.03890015;0.004773894;-0.13197744
-0.1305866;-0.13698411;0.025966471;-0.18259454;-0.008220273;-0.01551415;0.102405764;-0.027400233;0.09564834;-0.055652294;0.028101703;0.16039282;0.009634915;-0.021150364;-0.09667566;0.048471376;0.035285205;0.24952877;0.2767518;-0.006552115;-0.0020700558;0.07453983;0.17789227;-0.37979916;-0.043535955;0.19692136;0.046860605;0.07872317;0.03634248;-0.07748279;-0.046685293;-0.1172243;-0.13300785;-0.027542932;0.017309299;0.041531276;-0.028503064;-0.13536063;0.1255459;-0.10300981;0.10195404;-0.05822533;-0.3840019;0.029511409;0.10693517;0.0066814614;0.020489305;0.03141173;-0.06684468;-0.10909436;-0.066092655;0.024749184;0.13013339;-0.3216644;-0.076724276;-0.028322933;-0.2720094;0.080692366;-0.012261251;-0.0473783;-0.026793769;-0.07353241;0.029100556;0.019113287;-0.45287365;0.050569702;0.053542916;0.043869175;-0.03988693;-0.042644795;-0.34492406;-0.00558435;-0.17904188;-0.3871075;-0.3555699;0.05818417;0.18437733;-0.16006963;0.01110714;-0.28600836;-0.029317144;0.0015158396;0.021833995;0.034294013;-0.07146902;0.16878891;0.0070103845;0.22862853;0.06261359;-0.02204594;-0.016699623;0.009944029;0.046662807;0.36085343;0.25760478;0.07523259;-0.09579758;0.185868;0.23989575;0.023794938;-0.08968224;-0.19317271;0.045342397;0.17564216;-0.40764543;0.052483227;0.098888144;-0.16783164;-0.030807761;0.011938057;-0.005426844;0.1103477;0.041626237;-0.046378512;-0.013972539;0.025653528;-0.032062616;0.28941113;0.23957533;0.10371661;0.1763858;0.25639445;0.042217717;0.26825204;-0.1061532;0.13458088;-0.27865788;-0.09856111;-0.09039157;0.049433734;0.0793221;-0.3089027;-0.11359098;0.013915946;-0.1399912;-0.0500636;-0.12548894;0.008318491;0.045682933;0.087118484;-0.07238554;-0.37081784;-0.048317112;0.5075098;-0.22018388;0.026376583;0.25848565;0.027980309;0.097638;-0.05910266;0.048720457;0.021270284;-0.13147165;-0.27077755;-0.08175699;-0.32780635;-0.2591709;0.06269946;0.03012571;0.050580557;-0.16590351;0.02475483;-0.048515618;0.03709256;-0.020620495;-0.14721574;0.0666824;0.17302792;0.16431814;-0.06402737;0.036438756;-0.045857683;-0.064333156;0.031039026;-0.037957445;0.002729528;0.0059490716;0.33449897;-0.2362358;-0.026946193;0.05075426;-0.041154556;0.16821544;-0.07397282;-0.031941615;-0.038091272;0.08254074;0.20498091;0.070386305;-0.0069189593;0.1179503;0.15373087;0.2999339;-0.00032605662;0.021116925;0.17362931;0.14788042;0.18096033;0.14092758;-0.15258604;-0.28626978;-0.14932092;0.10084212;-0.2543333;0.16303961;-0.04627725;-0.07766749;-0.5164954;0.059052378;0.1164392;0.16158736;-0.045256082;-0.12807071;0.016254766;-0.038217753;0.028571205;-0.39376235;-0.32626703;0.052214585;-0.08190716;0.14189483;0.096025296;0.12004754;0.0069227787;-0.1635613;-0.013305408;-0.06412741;-0.031747885;0.07145653;0.022168668;0.08413836;-0.16757464;0.05523159;0.1122347;-0.24531409;0.05335817;0.047889322;0.0019361367;0.034774773;0.03981539;-0.21243645;-0.063223414;0.23861948;-0.05649498;0.035035726;-0.054963402;0.3040296;0.02121488;0.0550585;0.030515935;0.024375996;0.06845511;0.103607655;0.07732207;-0.018653374;0.15885271;-0.20446223;0.008745417;0.039430432;0.012798419;0.124974854;0.096432924;0.017679842;0.03914876;0.0048999703;0.01926032;0.11866292;0.05449494;-0.2410524;-0.0060087824;0.062686816;0.12129846;-0.080674574;-0.39577094;0.011927377;0.015968274;-0.09643053;-0.016622368;0.010808671;-0.06516469;0.010649829;0.25400168;-0.10389842;0.027981598;-0.16259728;-0.08507623;0.023156235;0.052812554;-0.030758597;0.22227897;0.03683706;0.31923845;-0.029516831;-0.091328144;-0.048192877;0.009238567;-0.14928064;0.19925024;0.06265963;0.015874486;-0.2078428;0.04912726;0.023764195;0.117073655;-0.025611924;-0.0988536;0.18276326;-0.049642067;-0.09641967;-0.04548034;0.12722723;0.018279482;0.012746816;-0.044995047;0.25617942;0.28510466;-0.26954708;0.16573156;0.20118047;0.045651756;0.15399808;0.2614247;0.00050531054;-0.021539738;0.037284527;0.04537309;0.18163815;-0.012328178;0.032726668;0.017189149;0.034818213;-0.05896094;0.0026142749;0.028751906;0.11969915;-0.01625445;-0.45510742;0.30934757;-0.095630884;-0.16835943;-0.038168818;0.107702136;0.046083253;-0.016578732;0.25822917;0.11508063;0.1893112;-0.06334858;-0.10748103;0.019074151;-0.02489565;0.101344146;0.037922125;0.25993532;-0.002193849;-0.042183433;-0.05441273;-0.25747648;-0.13242294;0.09750243;-0.030296957;-0.070962936;0.12715976;0.022681974;0.020637726;0.37460265;0.14606087;0.058774438;0.29607788;0.1587009;-0.030543147;-0.011898748;-0.053659093;-0.24637686;0.05027873;0.037973475;-0.19451606;0.115471534;-0.03450651;-0.0059165056;-0.01179032;-0.011393723;0.21274866;-0.09951183;0.11961319;-0.051027108;0.08591014;-0.03344631;-0.25995037;0.14217292;0.29789853;-0.010368939;0.031102752;-0.18978067;0.05422215;0.03927751;0.0012631229;0.011435791;0.029695796;0.022169396;0.012386045;5.9751263e-05;-0.04262411;-0.04402381;-0.041777723;-0.018939639;-0.11556751;-0.016279314;-0.1866851;0.022458572;-0.009821469;0.08635258;0.036303733;0.05107973;-0.043467104;0.06018508;-0.08876644;0.08871328;0.056385804;-0.086786084;-0.13917367;-0.09184121;-0.019277483;0.080169834;0.19299579;0.0037274477;-0.06333069;-0.11063058;-0.18966311;-0.018071327;0.09070608;0.01916469;-0.053122796;0.10614816;-0.17640798;0.17521133;-0.02065123;-0.016504558;-0.069182366;0.012746525;-0.05944458;-0.005296891;0.049485683;-0.048197623;-0.3536983;0.0325532;-0.0276802;-0.36153823;-0.00793597;-0.049238823;0.15315768;0.049040742;-0.0068574036;-0.102682374;-0.021571578;0.029653186;-0.20772159;-0.03503402;-0.02611189;0.03365382;0.08430946;-0.009672242;-0.07365104;-0.024003115;-0.07402152;0.2691244;-0.08605268;-0.047820464;-0.017418453;0.088794;-0.01757656;-0.23382883;0.071578726;-0.11428819;-0.118929595;-0.0083462;0.16043745;0.23776379;-0.054989398;-0.16049184;-0.026392194;-0.03296508;0.086375386;-0.059481256;-0.19254896;-0.25992185;0.026704071;-0.041044105;-0.33594126;-0.0049718837;-0.12789708;-0.0030589628;0.011370963;-0.17232704;-0.009773115;-0.058931127;-0.13136593;-0.27244374;-0.08331104;-0.1327928;0.015894486;0.12543918;-0.1962267;0.11003216;0.069497004;0.07174293;0.038684286;-0.002608665;-0.033988237;0.113219395;0.2130129;0.0771122;-0.022082709;-0.033236284;0.045106255;-0.011506336;0.23210454;-0.17237897;-0.07147501;0.026336677;0.007865468;0.016127188;0.09129195;0.046557926;0.019242825;0.02342803;0.21449824;0.15418477;0.25847137;-0.03351358;0.08989355;-0.029560464;0.007170456;0.05387354;-0.06731328;0.00637814;-0.022979457;-0.38996542;-0.12023016;-0.07023572;-0.0514595;-0.019105092;-0.009085099;0.07884819;0.42982045;-0.1001017;-0.15688919;0.15546992;0.01922486;0.16447537;-0.0068223393;-0.16284876;-0.26685348;-0.003501534;0.02515809;0.12981555;0.060815655;-0.070992015;0.12828174;-0.056633726;0.2116532;0.011248109;0.16201599;0.050787706;0.07909571;-0.19019681;-0.031022595;0.028649181;-0.0018825466;0.18934134;-0.33882245;0.04440258;0.07040175;-0.11221988;0.010020124;-0.09270495
-0.17781068;-0.2416554;-0.009302348;-0.25961655;-0.034210205;-0.13308698;0.090141766;0.0051639844;0.14175536;0.039973427;0.20684674;0.09478925;-0.02678093;0.016633509;0.023056474;-0.013451131;-0.026783632;0.30238006;0.17920916;-0.057851057;-0.23313461;0.099307925;0.056040294;-0.37736687;0.04463638;0.19747731;-0.026908575;0.06493414;0.022287454;-0.0833104;-0.024937572;-0.16812724;-0.10223593;-0.07425072;-0.0077057686;-8.326342e-05;-0.047449794;-0.109942704;0.08655103;0.04397771;-0.027227486;-0.081441924;-0.4076721;0.12534492;0.020333534;0.017398741;-0.013055646;0.06957979;0.044952303;-0.028976796;0.016398033;0.20646766;0.10334898;-0.32919946;-0.10431901;-0.00037587938;-0.055304207;0.1656743;0.07474584;-0.024965255;0.0052779405;-0.05144902;0.020715492;0.02045078;-0.41520923;0.107379824;-0.006470677;-0.014641709;-0.08430264;-0.020775735;-0.39538255;0.04984166;-0.2017551;-0.2189999;-0.18824725;-0.02560833;0.23448455;-0.13137083;-0.062607065;-0.16840081;0.045738988;-0.21573028;-0.0061905175;-0.0045516207;-0.035871252;0.079615146;-0.028135411;0.21551266;-0.021678455;0.019430257;-0.036795437;0.055108245;0.02954113;0.35002786;0.1526838;0.12285531;-0.058633227;0.16415346;0.18674251;0.17354819;-0.0016839623;-0.2101386;0.10358956;0.2343119;-0.2973673;0.094527006;-0.012345941;-0.24639806;0.15929493;0.019942874;-0.00029420896;0.06383344;-0.050787207;-0.0422707;-0.120030716;-0.05647114;-0.016381383;0.19852453;0.2558937;0.1526577;0.1646179;0.15280657;0.20244817;0.28051;-0.1774204;0.18112126;-0.38721716;-0.20954992;0.06834707;-0.10419865;0.13300145;-0.1839276;-0.020519316;-0.0064110886;-0.01525301;0.05484874;-0.050928693;0.070816725;-0.11147905;0.08554396;0.016000815;-0.21805587;-0.096960515;0.34263605;-0.057569057;-0.046998695;0.36563072;0.006411333;0.041405443;0.04381815;0.04095661;-0.12299939;-0.112059;-0.37777;-0.12639293;-0.35358956;-0.18654047;0.06989295;0.04631937;0.2504654;-0.1541932;0.0649356;0.0011350727;-0.0524596;-0.07827362;0.025599865;0.023016332;0.04083554;0.06060982;0.03582832;0.013788414;-0.05190297;-0.10560803;-0.025554039;0.01333371;0.009062198;-0.02400216;0.22550517;-0.18792315;-0.0088235345;-0.0357859;0.049641144;0.08037319;0.1273352;0.004221424;0.15592322;0.0045546284;0.1179168;0.16649827;-0.060980983;-0.1462816;0.1072791;0.26157996;0.0052766753;-0.12116887;0.041792795;0.17701311;0.1294256;0.024632582;0.05747924;-0.3070001;-0.09496887;-0.06406527;-0.24041262;0.22749288;0.0616022;0.020244697;-0.43979204;-0.04680061;0.07841379;0.1792204;-0.11540559;-0.26160222;0.047854155;-0.02867064;0.033219744;-0.40683234;-0.3146577;0.11170349;-0.03764139;0.041159082;0.014198934;0.019183885;0.06789917;-0.278821;-0.038546916;-0.038524117;0.05448244;0.15577471;0.0009996451;0.06402196;-0.19114506;-0.037157528;0.05519168;-0.1283778;0.02943531;-0.07937738;0.058945168;-0.09194634;-0.11481152;-0.3172132;-0.05298533;0.1229372;0.04946803;0.19632924;0.0688939;0.3026494;-0.15505539;0.032681823;-0.06779159;0.052658595;-0.06538496;-0.02661896;0.23832092;0.07233833;-0.015991893;-0.10033546;-0.09730736;-0.009024148;-0.033712015;0.06147668;-0.014061608;0.015629437;-0.018694622;-0.02271969;-0.009526995;0.1841453;0.106062286;-0.1501228;-0.052194923;-0.007902153;0.0011713832;-0.042890087;-0.41350603;-0.032980524;-0.07691879;-0.15994893;-0.0035777397;0.061250888;-0.0151811475;-0.0097118765;0.20090552;-0.019601332;-0.14728285;-0.11975722;-0.017928781;-0.056662768;0.14782728;0.027266538;0.23549253;0.120062396;0.1710122;-0.13601679;0.0036628887;-0.124992274;0.049676858;-0.1709408;0.14371526;-0.013111483;-0.011193738;-0.3179992;0.06860307;-0.014486643;0.014191915;-0.07759101;0.008865798;0.31067282;0.08394131;0.013487994;0.103152975;-0.037595294;0.047035776;0.1635438;0.011886321;0.22029597;0.054872297;-0.29652414;-0.07271802;0.24723774;-0.016585633;0.12489147;0.44910792;0.17362247;0.029823398;-0.012656855;0.051688;0.1331286;0.028715113;0.017504672;-0.0013971311;-0.015583589;0.043820243;-0.042103656;0.007368175;0.06726627;0.053740636;-0.5762377;0.26651335;-0.13309567;-0.27814317;-0.004464052;0.17476943;-0.08139013;0.0033000659;0.171601;0.06728191;0.014818931;0.0077756904;-0.12391978;0.012474255;-0.022223257;0.0026839385;0.071511745;0.2078562;0.022388453;-0.17930727;-0.003763975;-0.44191328;-0.14749873;0.20733404;-0.018125108;0.041513324;0.08851433;0.16627835;-0.03218179;0.437734;0.1411273;0.0082484195;0.33254123;0.27358595;0.036819857;0.0021799558;-0.03834323;-0.14570183;0.08817903;-0.0022523922;-0.035308674;0.1729645;0.13225141;-0.0070267795;-0.039094016;0.060899682;0.13333099;0.07599728;0.11998747;0.048928533;0.099866785;0.06217458;-0.19263127;0.2161818;0.18465698;0.034321286;0.0065902476;-0.25494283;0.05921845;0.0664184;0.02525745;-0.04490754;0.035095986;-0.048994057;0.07018471;0.1470159;0.069173895;0.05531865;0.21842085;-0.027371584;-0.18084754;0.0765251;-0.25727472;0.019020246;-0.058823604;0.013078525;0.12956771;-0.0063083805;-0.015262532;0.15262836;0.11796025;-0.0135045145;-0.013125898;-0.15201154;-0.036822513;-0.0022265445;0.036148876;0.061404083;0.25005785;0.017921727;-0.0060975146;0.038048062;-0.24319318;0.009909147;0.11868269;-0.034839943;-0.06084025;0.14517719;-0.23252258;0.13648587;-0.039968077;0.0005206283;-0.1523983;-0.032538805;0.05033846;0.030075941;0.1950558;-0.1613058;-0.26201186;0.019581195;0.06561242;-0.2958343;0.03127905;0.03336768;0.034004964;-0.14999796;0.027229086;-0.06479709;-4.688554e-05;-0.04880297;-0.22262242;-0.041880835;-0.00441806;0.0047598267;-0.020769367;-0.031437997;-0.22723867;0.06255484;0.008438637;0.26285505;-0.16569413;-0.046846736;-0.11815205;0.09492326;-0.11859729;-0.07667312;-0.017907102;-0.09843763;-0.0064754565;0.057044517;0.106713675;0.06647148;-0.00044372858;-0.09089163;-0.021521788;-0.06764706;-0.057363354;-0.015614306;-0.12880856;-0.3404657;0.12564291;-0.014731317;-0.20537782;0.17122781;-0.29302582;0.046846814;0.031839173;-0.067810744;0.025328666;-0.016206654;-0.13959722;-0.39166456;-0.17820679;-0.096460275;0.03261313;0.14075322;-0.047524884;0.017454863;-0.04115345;0.022752468;-0.075239554;0.046681486;-0.07179945;0.07256845;0.20823711;0.14706975;-0.03719598;-0.010858421;0.05831463;0.025085295;0.089290135;-0.26362577;-0.045305245;-0.002868889;-0.057885922;-0.025042;0.14405459;0.046614446;-0.056573424;-0.0221544;0.120182894;0.058859;0.2768414;0.014352174;0.07713385;-0.01769739;0.07739485;0.028595667;0.02255552;0.01502611;-0.05552038;-0.24421445;-0.19040519;-0.19077624;-0.005178212;0.010334597;-0.0919957;0.11902432;0.34059575;0.1544291;-0.24260795;0.19274577;-0.012120067;0.2426453;-0.052212432;-0.24115232;-0.32765993;-0.18911266;-0.038202703;0.2525561;0.18117227;0.05468315;0.16332312;-0.079132766;0.112176746;-0.13062946;0.1845919;0.018938916;-0.038735993;-0.2921989;0.13508055;0.03153291;0.024499828;0.14377274;-0.41769797;0.12697227;0.18207845;-0.07770101;0.050872903;-0.026941797
-0.09586278;-0.37305948;0.0043131746;-0.28169972;-0.015424273;-0.047502775;0.090073265;-0.03756637;0.025118139;-0.0721611;0.12151994;-0.049503766;-0.06555536;-0.044206228;0.059676617;-0.040200926;0.04798651;0.24139032;0.13502374;-0.1842535;-0.2315064;0.07091077;0.0039316267;-0.44306526;-0.010592929;0.21172464;0.0448388;0.017654793;0.0022393311;-0.07178147;0.00045990353;-0.22420646;-0.010034332;0.034625407;0.004357817;-0.026271896;0.053050894;0.0063543622;0.06041408;-0.05694008;-0.13702251;0.021662744;-0.27390674;-0.058688384;-0.07342597;0.024055533;-0.025174493;-0.048607685;0.014271487;0.0053261416;0.026212806;0.08226868;0.10050446;-0.30225965;-0.09202531;0.010042726;-0.21482791;0.13361351;0.014151171;0.08310074;0.010974788;-0.17603017;-0.06764272;-0.013327998;-0.40594372;-0.044730872;0.0214147;0.019226035;-0.06633365;-0.006136962;-0.30839083;-0.051245905;-0.16056554;-0.23782316;-0.3430524;0.0046265675;0.24775383;-0.16687304;0.026739946;-0.27919638;-0.018574588;-0.3601277;0.011905707;0.0114642205;0.14914586;0.068070814;-0.041858383;0.11579769;-0.043048806;-0.030242544;-0.008093126;-0.0034587248;-0.09216577;0.23339781;0.1915218;0.087658696;0.025352579;0.2403104;0.12124219;0.15485896;-0.029553192;-0.39752662;0.03592521;0.16145845;-0.37321112;-0.02636212;0.017383778;-0.082646385;0.20994818;0.024187472;-0.002282165;-0.08525267;0.046691965;-0.1021835;-0.052230097;0.023842977;0.043488372;0.18484582;0.23291132;0.13708228;0.15333222;0.106377386;0.20007809;0.23671715;-0.19236399;0.11105918;-0.32727072;-0.2715791;0.14019528;-0.12430792;0.18127295;-0.09396044;-0.03168971;-0.0008783076;-0.15451877;-0.01514361;-0.13082787;-0.031608377;-0.24405359;0.13106884;0.021875966;-0.32421222;-0.26976022;0.36135685;-0.20281936;-0.026566349;0.15015763;-0.019750278;0.12969816;0.14122178;-0.03970437;-0.1959645;-0.037429485;-0.19846305;-0.037244912;-0.34248585;-0.10118492;0.19924402;-0.036363896;0.35077283;-0.027101174;-0.029550476;-0.016624741;0.07869043;-0.008647829;-0.059317894;-0.07202734;0.15017357;0.0017106918;-0.039531432;0.1472891;0.049712326;0.021856846;0.04337284;0.014094911;0.030575804;-0.034081437;0.25010246;-0.059683725;0.009391274;0.06524848;-0.0102171395;0.24286957;0.2918493;0.049023163;0.096954055;-0.03818547;0.08399659;0.27626848;0.07571581;-0.19037329;0.11945957;-0.030610206;0.037092566;0.00012359589;0.14574833;0.03240381;0.09005573;0.080071405;-0.012820971;-0.35970485;-0.18292713;-0.09034064;-0.22466238;0.23889627;-0.05949862;0.005034703;-0.4524444;-0.2029139;0.021897132;0.11407651;-0.1782772;-0.25341022;-0.033572845;0.061958686;-0.024503917;-0.36185998;-0.37914145;0.11304875;-0.022840714;0.025220225;0.09943925;0.07125274;-0.055470128;-0.3209992;0.11331268;-0.039987005;-0.017181776;0.08203847;-0.05076817;0.11651324;-0.11056043;0.10940073;0.069701165;-0.22225;-0.004694563;-0.17396861;-0.049656134;-0.15385833;-0.03530799;-0.30842033;-0.033280667;0.14500794;0.03132039;0.10955924;0.14291945;0.1792031;-0.26637512;-0.01928235;-0.04598676;0.104924;0.02625176;-0.026585193;0.20258178;-0.06803391;0.025344614;-0.1977087;-0.109159894;-0.059540894;-0.058771014;0.23563644;0.07548376;0.015417615;-0.020982567;-0.08879961;-0.08015398;-0.0070307576;0.1922554;-0.20987913;-0.12918524;-0.06790504;0.0977607;-0.03476499;-0.18248975;0.017457899;-0.014705185;-0.26920974;-0.026389683;-0.054970086;0.08328691;0.044573277;0.2756496;-0.07971247;-0.080860265;-0.09348157;0.044827066;0.017031956;0.023440534;-0.08353719;0.14639732;0.04961157;0.2934298;-0.084483445;-0.12724003;-0.15178546;-0.05632687;-0.2171802;0.034476414;0.06793602;-0.007822235;-0.22881277;-0.023113832;-0.017341986;0.030344484;0.036453266;-0.000525703;0.2949534;-0.03650367;0.10943967;-0.01588501;-0.022789178;-0.028161507;0.09503366;0.017834406;0.21064325;0.07520922;-0.27238962;-0.00906336;0.17855665;0.07035046;0.08483791;0.26379305;0.07427898;-0.017907515;-0.026493097;0.18800673;0.1179831;0.059300307;-0.10454804;-0.020535467;0.01345693;-0.013079836;-0.027212912;-0.036263477;0.12136125;-0.04111245;-0.51404107;0.22727785;-0.18570803;-0.27045432;0.050160166;0.0032475865;0.07224337;0.048185326;0.10233891;-0.017369898;-0.010382303;-0.09853946;-0.013353626;-0.01568485;0.031136582;-0.025173977;0.15003368;0.1811538;0.020070478;-0.15758838;-0.020054238;-0.37253085;-0.1416524;0.19687127;0.03438872;0.037299193;-0.085182264;0.113149025;-0.029368078;0.21965404;0.059474554;0.06029668;0.24035396;0.21664688;0.018762482;-0.01914301;0.0013468626;-0.06519394;0.10966762;-0.038987756;-0.10518238;0.1457349;0.13197032;0.13678269;-0.13029769;0.018706623;0.063086756;-0.04051433;0.009458428;0.09422646;0.09921252;0.06140964;-0.10162273;0.17762889;0.020472795;0.05310579;-0.03927785;-0.27200484;0.10530369;0.10104006;-0.032239076;-0.022429252;0.0066070943;-0.0648897;0.22156703;0.18375513;0.119815685;-0.035015654;0.1503371;0.031399615;-0.21984312;-0.043107286;-0.16538122;-0.012666593;0.10089975;0.16387968;-0.08008329;-0.026007492;0.006529593;0.035343166;0.2158329;0.04043295;-0.014131153;-0.09022698;-0.15316327;-0.00921516;0.01674035;0.09971758;0.26278576;-0.102013044;-0.07411138;-0.008428967;0.051620234;-0.04668112;-0.0060609444;0.05124963;-0.048870247;0.3649316;-0.3229786;0.11260399;0.030377954;-0.012215153;-0.09315225;0.010207611;0.04728252;0.02458563;0.06551218;-0.26127344;-0.22373062;0.018248688;0.0036606886;-0.2454629;-0.06943115;-0.0033785321;-0.06513693;-0.08584595;0.013094555;-0.12423331;-0.02882014;0.010883612;-0.18004876;-0.04223672;0.005923538;-0.0580822;-0.05692462;0.035985477;-0.151952;-0.022033527;0.013733601;0.3044622;-0.06729341;0.067829974;0.019974427;0.075370945;-0.08500484;-0.10640454;-0.014364951;-0.08584176;0.043190956;-1.2163422e-05;-0.0032760783;0.06346648;-0.009515176;-0.16639242;-0.028398905;0.063906476;-0.06614684;0.06581876;-0.2031698;-0.20195934;0.2380648;0.09032531;-0.19832696;0.049394585;-0.21143179;0.03492598;0.010084401;-0.06868111;-0.06423685;0.0375758;-0.17806624;-0.29089555;-0.02505453;-0.08415876;-0.04526296;0.15520696;0.097961314;-0.028720737;-0.06108201;0.09274809;0.03812623;-0.040964533;-0.04986324;0.1508761;0.12783243;0.06203349;0.017913587;0.021153329;0.11870211;-0.01649039;0.0593891;-0.12837145;-0.09044405;-0.0006972635;-0.026365085;0.060271997;0.03788895;0.087246224;0.03619871;0.032045912;0.23162591;-0.010001993;0.23729135;0.017737892;-0.082028985;-0.12480345;-0.06887701;-0.08054404;-0.09132272;-0.0017928684;0.029002508;-0.2049647;-0.299554;-0.27224705;-0.033884563;-0.041493263;-0.12918304;0.14066263;0.19421248;0.20378748;-0.26123008;0.20742518;-0.018237492;0.2150426;0.034411363;-0.09906283;-0.33942205;-0.20827498;0.013833509;0.10646748;0.21451059;0.17775743;0.0755154;-0.11441806;0.17187823;-0.072473176;0.08936346;-0.0051262593;-0.062759325;-0.21059293;0.11249655;-0.036248498;0.004209355;0.22263801;-0.22886285;0.11330485;0.32299626;0.09434564;-0.05745618;0.116031066
-0.15352118;-0.32138076;-0.050467957;-0.29533234;0.020759111;-0.009731196;0.16918756;-0.05546734;-0.08662422;0.043300357;0.17818253;0.0890551;0.06857401;0.023604633;0.04324151;0.035697296;-0.016449645;0.28255087;0.2483831;0.0038350893;-0.28147325;0.15193465;0.079421766;-0.32011715;-0.06024143;0.10365035;-0.029589016;-0.053822715;0.0869185;-0.0570628;0.086704575;-0.34355405;-0.066000775;0.03668532;-0.027067317;-0.029547691;0.020442426;0.08230076;0.02914384;0.023961494;-0.10247421;-0.03537863;-0.11705508;-0.10834506;-0.11440857;0.016987098;0.006933279;-0.06746324;-0.009181628;0.091310486;0.01623352;-0.022593442;0.07680514;-0.38431308;0.023516396;0.0053233486;-0.156447;0.15159768;0.097207054;-0.065961674;0.052606303;-0.10107235;-0.03223924;-0.018827071;-0.34723878;-0.048186336;0.026556773;0.016900131;-0.005638665;-0.02903377;-0.17416544;0.019487176;-0.13876794;-0.16468632;-0.15211968;0.01993834;0.26802066;0.0012374159;-0.021927979;-0.23467189;0.005849232;-0.24474357;-0.019565266;-0.0058014095;0.21254462;0.15657325;0.016270759;0.024685819;-0.0013258478;0.032541424;0.027154606;-0.0039818184;-0.007848286;0.176248;0.15188572;0.11114657;0.07774906;0.04822981;0.14610471;0.12985167;-0.04082202;-0.34867108;0.07338687;0.332367;-0.272306;0.034992974;-0.039290037;0.054068852;0.17117527;0.124249324;-0.052120022;-0.20400156;-0.03406852;-0.16124514;0.05281923;-0.014571978;-0.04881231;0.17695005;0.061947085;0.19875696;0.04953824;0.083572306;0.25009155;0.15710391;-0.24646072;0.026200386;-0.3329825;-0.2640783;0.037442416;-0.08406524;0.21227352;-0.19591682;0.103512675;0.03143843;0.010130316;0.0037237082;-0.10935901;-0.04626071;-0.40138403;0.34679458;0.03207666;-0.12201578;-0.22367384;0.2929213;-0.18664663;0.055705454;0.02409535;-0.030128898;0.2383127;0.08558191;0.03114339;-0.06270992;0.005893606;-0.09518757;-0.076372795;-0.19071878;0.050951235;0.32252547;-0.03672123;0.354893;0.058103453;0.123981;0.007419414;-0.07449728;-0.06881324;-0.18056096;-0.020220423;0.0022870342;0.015848208;-0.0035470384;0.08581831;-0.031505965;-0.043321572;0.04533088;-0.008365464;0.05475294;0.026853886;0.15070017;0.03464738;-0.0067064483;-0.025008611;-0.084465764;0.14046037;0.23974231;-0.01865684;0.07519231;-0.035973504;-0.027390182;0.07669081;-0.017008321;-0.16511276;0.1378477;-0.11590852;0.0005081179;0.025244806;0.1422434;0.019830301;0.1083563;0.07348802;-0.07403596;-0.27239707;-0.09839174;-0.11350881;-0.2383365;0.3204794;-0.037305743;-0.076623246;-0.22216697;-0.18132742;-0.01287373;0.061088882;-0.20882757;-0.3535783;-0.028490854;-0.060303397;-0.04394883;-0.3221361;-0.37502068;0.18872617;-0.018104812;0.055616006;0.015066746;-0.050819844;-0.0074598826;-0.24892145;0.063343965;-0.13717166;-0.017280474;0.18788245;0.0016296479;0.022096166;-0.1358108;-0.016885176;-0.0054726503;-0.18104444;0.13579929;-0.10238406;-0.050080504;-0.014469089;0.07659559;-0.23148252;0.10221806;0.07167681;0.020908346;0.09551594;0.04883607;0.20012286;-0.28245285;-0.0014151159;-0.009492078;0.087644964;-0.02595189;0.09105029;0.28266364;0.04454297;0.041185614;-0.12413531;-0.16281779;0.021753415;0.044859894;0.33919758;0.023281958;0.014259211;0.03423468;0.04533578;0.06821034;0.09738534;0.20690128;-0.30252287;-0.22287744;0.063864686;-0.019243117;-0.15714295;-0.39386788;0.013771415;0.031057375;-0.19406477;0.0961121;-0.035933517;-0.08348816;0.0016341145;0.43831992;-0.11932401;-0.0833916;-0.10723315;0.10628442;-0.034024097;0.032881774;0.024644298;0.05094079;-0.021492941;0.06597814;-0.07712713;-0.18015297;-0.13519779;0.008362952;-0.2875876;-0.00026391368;-0.051082484;0.007963782;-0.14332446;0.029506246;0.03842332;-0.062271006;-0.032336816;-0.13022795;0.06229643;0.031604312;0.16799366;-0.06550275;-0.024598433;-0.022861786;0.060715217;-0.012897084;0.12683865;0.02651586;-0.36894694;0.09007567;0.12528047;-0.029952174;-0.050637852;0.10623454;0.022623336;0.005701848;-0.06612494;0.17855984;-0.12837178;-0.023625819;0.028234698;0.013989009;-0.024606513;0.030404713;0.047101058;-0.044102836;0.09508023;-0.0038380206;-0.59310114;-0.08704815;0.11386999;-0.25675276;-0.036956806;-0.13785157;0.0031433383;0.041604996;0.05344657;0.011316601;-0.023892362;-0.15390836;0.00918606;-0.037915103;-0.02634448;0.0754053;0.20366094;0.13706592;0.02393543;-0.3163109;0.0071592135;-0.3708553;-0.13347152;0.15290287;-0.027092708;0.036893416;-0.15266526;0.113613084;0.0056500025;0.36366135;0.09186373;0.19672608;0.26323363;0.10922339;-0.038546506;-0.015535239;0.04434093;-0.16189541;0.13433416;0.0139930565;-0.014452815;0.18782488;0.1010996;0.16905315;-0.1947485;0.06449674;0.0033345514;-0.008237758;-0.107134804;0.07805684;0.12090067;0.005405155;-0.027467446;0.17850211;0.15288633;-0.042573407;0.027372234;-0.21884422;0.17020535;0.105236314;-0.04124703;0.008056369;-0.031945076;0.054079026;0.23681347;0.095563605;0.07023908;-0.06154323;0.2648206;-0.028448977;-0.18353513;0.03498903;-0.15943429;0.019502169;0.04542791;0.14284372;-0.019245433;-0.018645626;0.033191655;-0.032036494;0.22271958;0.07784236;0.13207375;-0.1371477;-0.15694825;0.009047902;-0.044495415;0.0051897336;0.2159258;0.10648167;0.037330918;0.01013007;0.1151763;0.012202187;-0.03948353;0.030478494;-0.029343136;0.31543976;-0.22275944;0.14355499;0.028501166;-0.040564556;-0.14236899;-0.022310503;-0.0014239396;0.14008091;0.06522292;-0.27537528;0.0022680843;-0.05052001;-0.059056662;-0.19976893;0.02235217;-0.0012980489;-0.036242194;-0.02733847;0.054474197;0.00077776116;0.013859105;0.04403613;-0.17132795;-0.0035863018;0.05874057;0.01214628;-0.008644353;-0.05766131;-0.2339094;0.020126345;0.0035563034;0.10015724;-0.12464165;-0.068625376;-0.004788263;-0.010803165;-0.067131095;-0.04474423;0.0030511392;-0.0530307;0.088066235;-0.07927379;0.022667522;0.10699149;0.050390355;-0.19309923;0.051426847;-0.0310104;0.063381776;-0.017869262;-0.32299528;-0.28716177;0.25112736;0.21605645;-0.15473014;0.06571009;-0.094200365;0.01610697;-2.0494197e-05;0.053725068;0.06462833;0.018150646;-0.20628339;-0.3683835;0.022903176;0.08378237;0.0038715368;0.24712251;0.16243331;-0.10142362;0.050765205;0.07124933;0.05869897;-0.043069508;-0.061368298;0.3290286;0.16248517;0.0825524;-0.033241346;0.06878911;0.057209466;0.006236023;0.006809426;-0.14102514;0.04357852;0.002966537;-0.18396729;-0.07095272;0.10343181;0.1072738;0.046827603;0.048383575;0.27697283;-0.10223579;0.057506956;-0.01752943;-0.11055282;0.03313567;-0.025008082;-0.048416875;-0.023082403;0.032248374;0.03890775;-0.29739884;-0.30505547;-0.17495789;0.0441519;0.0041078995;-0.15079372;0.07496937;0.033022206;-0.10540154;-0.2896209;0.07536959;0.022848671;0.1940277;-0.0028287421;-0.1166853;-0.3940617;0.0017193537;0.008215904;0.12185698;0.2702204;0.17795262;0.17518231;-0.046812214;0.16830811;-0.011898969;0.13325551;-0.029813867;0.016490538;-0.22633795;-0.09778362;-0.01166583;0.054423295;0.09563655;-0.23646703;-0.08493395;0.34475586;0.03582358;0.045996822;0.029974157
-0.14010297;-0.2968188;0.024083445;-0.2290042;0.003062912;-0.056188907;0.1106456;0.05457359;0.0328291;0.053422842;0.09353213;-0.040230926;0.038321085;0.07920079;0.12060975;0.035474684;-0.04609706;0.33331683;0.17774045;-0.010305937;-0.37302616;0.13559863;0.014051667;-0.45419317;0.021719009;0.1660115;0.010106632;-0.06563272;0.08311278;-0.17794947;0.12207896;-0.17422041;0.012277242;0.02592571;0.02263379;0.06643597;-0.0032977294;0.008991171;-0.056782916;-0.024643904;-0.05269972;-0.04128717;-0.24750087;-0.080334656;-0.079360105;-0.15080887;0.060741913;0.03605339;0.012754005;-0.16040911;-0.008235405;0.13997497;0.08426667;-0.3381973;0.08917681;-0.027762506;-0.14522524;0.060894515;0.013716903;-0.027864646;-0.04913392;-0.052027296;0.00323934;0.016252138;-0.26786098;0.009255566;-0.067280054;-0.046047103;-0.043075718;0.019603878;-0.2512433;0.0066896733;-0.107222624;-0.109840035;-0.07214082;0.01817192;0.14433785;-0.091961965;0.050696176;-0.080419056;0.041164592;-0.24160695;-0.006590372;-0.03014213;0.08594771;0.1997341;0.036760513;-0.09258582;0.07024376;-0.030171378;-0.16225447;-0.0032746415;0.057009514;0.15420286;0.022059752;0.021053607;-0.13612187;0.0918677;0.18247487;0.07289536;-0.15640698;-0.3354678;0.12868163;0.25974366;-0.086148426;-0.061596032;0.030514091;0.042081058;0.08521777;0.0774611;-0.13211475;-0.21814251;-0.008031141;-0.11313266;0.036992084;0.009329273;-0.05451245;0.13609886;0.04871464;0.20367236;0.0655243;0.1313491;0.09545798;0.05228094;-0.04541266;0.00034871965;-0.26273954;-0.16529694;0.12743548;-0.10903414;0.12137964;-0.036835235;0.08269973;-0.0012995693;-0.101094544;-0.03354456;-0.04476148;0.023428671;-0.48030642;0.36402312;-0.039352972;-0.15413687;-0.23859963;0.42804593;-0.12898427;-0.060381368;0.13562904;-0.02391521;0.1365442;0.15304254;-0.049878065;-0.15386285;-0.062063448;-0.13201603;-0.0017734378;-0.20712586;0.09608821;0.36163;0.05477805;0.30929402;0.1094055;0.02558571;0.12167843;0.046925656;0.03653722;-0.21631482;0.035648167;0.06829508;-0.0489986;0.021276914;0.09302567;0.043945078;-0.009247247;0.18957922;-0.114573635;-0.058947396;0.020838318;0.029701702;0.01769772;0.053915087;0.033374097;0.014523872;0.124669075;0.31774703;0.02791035;0.05779156;-0.001223809;-0.091219485;-0.07133561;-0.01973323;0.023983246;0.021332046;-0.24791585;-0.022499107;0.06386375;-0.024629975;0.14422211;0.085847996;0.24122867;-0.057713646;-0.2557681;0.07271138;-0.15286136;-0.28772607;0.24554992;-0.19869143;0.03728407;-0.20400213;-0.08437788;-0.09025925;0.042041715;-0.27999848;-0.22608227;-0.006503433;0.0536941;0.0063819964;-0.22041641;-0.37081042;0.2118226;-0.059502225;-0.17281425;-0.021933109;0.00798319;0.013553627;-0.24056482;0.060753975;-0.20612918;0.003117353;0.11661799;-0.023217872;-0.040316094;-0.06812583;0.13274615;-0.043085836;-0.114886865;0.26620468;-0.16098362;0.029926049;-0.017061595;0.15611294;-0.1755165;0.009678369;0.166531;-0.037070706;0.0747929;-0.032165434;0.073827185;-0.13040386;-0.043539744;-0.007942052;-0.039092936;-0.0068667317;-0.01524164;0.33526912;-0.006506018;0.061073005;-0.20742917;-0.10854828;-0.045305178;0.020013507;0.33424744;0.16897051;-0.010975631;-0.030871708;0.03571026;0.022254672;0.06207252;0.10919461;-0.29239863;-0.03856111;-0.13838603;-0.07334195;-0.1998796;-0.3433853;-0.016699908;0.023129556;-0.37850934;0.008631643;0.008504625;0.05678004;0.018041225;0.5073771;-0.19866359;-0.18374865;0.08964329;0.02127458;-0.0054429136;0.1108761;0.068817094;0.025464687;0.12897038;0.18426816;-0.1065255;-0.21876833;-0.31098792;0.054680794;-0.22526729;-0.04499235;-0.04159094;0.060737286;-0.24155423;-0.007493926;-0.042776015;-0.0115197925;0.04486263;-0.20144148;0.113915734;-0.0007865055;0.10725291;-0.028047496;0.00525448;-0.008189888;0.06589009;-0.033319533;0.081746295;-0.066213585;-0.31823972;0.05727641;0.20624289;-0.05083489;-0.068317614;0.2079033;0.07300037;-0.04435148;0.06889602;0.03795059;-0.107500866;-0.05520267;0.008381293;-0.03690272;-0.015664598;0.037772983;0.026767464;0.05224568;-0.0046750093;-0.045085408;-0.59848917;-0.18129799;0.062263314;-0.22601862;0.009683472;-0.048025932;-0.017750645;0.025845448;-0.025070474;0.004416107;-0.01858354;-0.085314736;0.13059293;0.05099319;-0.035588656;0.15331532;0.26098388;0.1932771;-0.048314814;-0.21811324;0.030119674;-0.4197391;-0.16176325;0.21075012;-0.04169936;-0.040910147;-0.1362483;-0.03470315;-0.10429892;0.20965971;0.14564331;0.04767818;0.28430948;0.18434966;0.050056707;0.024508836;0.025466759;0.026400212;0.105680354;0.035350297;-0.115553826;0.10985308;0.14253952;0.20104595;-0.18753332;0.051736847;0.13298967;0.010796293;-0.12369052;-0.037123155;0.052813597;-0.022868142;0.07143991;0.13482653;0.15585122;-0.030306948;0.018351328;-0.14870307;0.17597076;0.15781896;-0.007847097;0.048679642;0.02308215;0.0054451316;0.2379094;0.07766589;0.07552135;0.075944364;0.17267616;0.0055234847;-0.16463542;0.16489287;-0.11927391;0.003960614;0.006221722;0.17291981;0.035657387;-0.02669775;-0.056942586;0.01726049;0.29756835;0.07629231;0.041454945;-0.033316538;-0.038012706;-0.0010703885;0.04063566;0.003391995;0.25209996;-0.046235695;0.06417599;0.058207255;0.03169331;0.09025348;-0.04226951;-0.06396168;0.011935828;0.1722725;-0.14701599;0.027914505;-0.025647381;0.094586305;-0.017677102;0.031209467;0.017649956;0.22094935;0.23634222;-0.0933893;-0.033517286;0.01663292;0.0071994006;-0.0669618;0.028434567;-0.014272599;-0.09981815;-0.043201424;-0.062294163;-0.066569805;0.017819831;-0.085184716;-0.12401792;0.17360015;0.0492187;-0.028119585;-0.113343716;0.037648115;-0.1592284;-0.04765849;-0.06606581;0.13477613;-0.25624484;0.0420575;-0.027786124;0.13506147;-0.13345446;-0.02675966;-0.04006582;-0.110440455;0.08177606;-0.056935266;-0.04885218;0.0035953182;0.03252758;-0.32184553;-0.0017449671;0.05723764;-0.049989976;-0.014569219;-0.2378213;-0.23197733;0.2213093;0.29625896;-0.00037097602;0.19755112;-0.020905213;0.079317495;-0.000981636;0.03874705;-0.02050396;-0.019234926;-0.1208355;-0.21024941;0.0865774;-0.067612946;0.04374738;0.3036298;0.1667557;-0.09741555;-0.06556469;0.13419978;-0.017404556;0.048553817;-0.09381576;0.12986246;0.124357685;0.11349536;0.0645565;-0.050873633;-0.117466845;-0.007496884;-0.022264022;-0.09691969;-0.11074372;-0.0263826;-0.19234182;-0.018220827;-0.00087710127;0.1823611;-0.021557655;-0.0053641303;0.13237196;-0.08446191;0.0050512147;0.03310673;-0.10927588;0.03193323;0.051065877;-0.10844339;0.061753575;-0.026461875;0.0040420094;-0.23421659;-0.3294441;-0.09957351;0.057115026;0.06701446;-0.2579853;0.17196761;-0.046708666;-0.05965206;-0.12275516;0.13529268;0.02544952;0.22390296;0.020746218;-0.15060613;-0.3444336;-0.030243373;0.038868554;0.18118753;0.34485266;0.22913863;0.118069306;-0.08413068;-0.03111079;-0.07813288;0.008792058;-0.037082028;0.012362004;-0.12750773;0.09221408;-0.0038961088;-0.051727522;0.050952416;-0.07867185;0.04576219;0.17867485;0.1187337;-0.07200359;0.06362157
-0.0334012;-0.36476782;0.018003128;0.015691975;0.011610811;-0.0004152505;0.35195324;0.06712399;0.013901928;-0.05046242;0.10040367;-0.034682114;-0.028863944;-0.02233977;0.24927081;0.021153558;0.043112244;0.15446593;0.18132633;-0.006224283;-0.31310168;0.07239545;-0.017068373;-0.4285362;0.0071452125;0.17924477;-0.018482754;-0.0424923;0.10750198;-0.15848225;0.057331078;-0.08065259;-0.011376972;-0.03382789;-0.053769425;0.04513411;0.004612216;0.024244819;0.054735348;0.039099555;-0.0314075;0.0021333082;-0.15385033;0.0074987975;-0.12727758;0.03778138;-0.073315986;0.01050303;-0.012142347;-0.009928521;-0.06292717;-0.062059306;0.075905554;-0.47253132;0.14671832;0.033932768;-0.34585804;0.04471209;0.10795022;0.046527065;-0.024011508;-0.0984177;0.0631894;0.022351203;-0.17997745;0.11258764;0.022761572;-0.0091805225;-0.21281083;-0.008597938;-0.11933666;-0.009069489;0.034811072;-0.16055396;-0.07354662;-0.059786655;0.19902213;-0.060628057;-0.05029456;-0.09259985;-0.018046295;-0.20738803;-0.008024755;0.06969959;0.20080571;0.35146302;-0.05391777;0.016282495;-0.026141508;-0.01795502;-0.026523488;-0.015796104;0.04044915;0.018526481;0.15709747;0.06437331;-0.057528175;-0.0018264084;0.121864885;0.030038666;-0.10491805;-0.13069305;0.059984367;0.2908297;-0.08153493;0.04060089;-0.0988734;0.17024076;0.14418204;0.25409046;-0.09552125;-0.16126761;0.018456824;-0.14958686;0.0047438075;-0.0049680695;0.08870602;0.07470261;-0.021126311;0.26579106;-0.052583016;0.06653883;0.115434475;0.099550195;-0.06215231;0.1210623;-0.089779824;-0.09934181;0.0064907526;-0.04679171;0.20045133;-0.11804245;0.15323292;-0.019618891;0.025574373;0.0053285426;0.13803051;-0.01436469;-0.30923566;0.21935451;-0.013484093;-0.18252526;-0.3645515;0.39521253;-0.18493448;0.09540017;0.1636026;0.05259141;0.26726344;0.19069937;0.0071856645;-0.000439849;-0.15109493;-0.0012533001;-0.11554222;-0.17130321;0.06343771;0.30453274;-0.004479172;0.27174482;0.2112838;0.058993407;0.22086826;-0.000914293;-0.036107127;-0.15428229;0.023150133;0.0082583185;-0.18509267;0.026238466;0.13821054;-0.027006984;0.08135624;0.20239066;0.045503467;-0.1858347;-0.04986877;0.04837561;-0.05577945;-0.03413189;-0.0052215606;0.04726185;0.17169511;0.17533202;-0.0463488;0.14811437;0.020395065;-0.027417034;-0.21768962;-0.0604245;0.00614247;0.07726804;-0.27422646;-0.029386563;0.012219504;-0.011405268;0.1759313;0.07187973;0.27375674;0.04841205;-0.20893778;-0.008938413;-0.06284139;-0.24061936;0.20880142;-0.08083568;0.018130878;-0.18903205;-0.08737747;-0.052708954;0.12967537;-0.18116777;-0.06035397;0.03064596;0.017464682;0.036993597;-0.13155119;-0.30731243;0.23944964;-0.15989514;-0.21826507;0.04656922;0.04056727;-0.0037389824;-0.19376415;0.01757882;-0.1284759;-0.086042374;0.102626614;0.0315634;-0.072204396;-0.06560374;0.15487464;-0.14148031;0.05698385;0.0040739877;-0.091888376;-0.04279201;-0.12525615;-0.116025746;-0.051166806;0.06267881;0.100698456;0.022784906;-0.026243942;-0.09351409;-0.022449028;-0.14739542;0.02944563;-0.101917565;0.029440233;0.033125848;0.09761651;0.27459297;-0.032339714;0.057363532;-0.005218844;-0.12750152;-0.016254276;0.024109777;0.218457;0.13850988;0.015147485;0.014720701;0.020865094;-0.029011194;0.15680626;0.22128063;-0.34300673;-0.000429872;-0.114973076;-0.0026372257;-0.09433776;-0.26763153;0.044728443;0.0014188064;-0.13918324;0.027654748;0.010447341;0.008593959;-0.0730537;0.30777922;-0.21126062;-0.05825872;0.032416467;0.15432231;0.055846576;0.11933146;-0.017319625;-0.11887482;0.17315741;0.12737966;-0.04262518;-0.24004957;-0.22096655;0.17604862;-0.26365384;0.1039744;-0.0031373599;-0.06478397;-0.22381495;-0.03817493;0.025612282;-0.06779423;0.112437814;-0.08302626;0.07152407;0.0132340565;0.33169124;-0.12559147;0.042830784;0.0296614;0.028741868;0.011951242;0.10474794;-0.057618506;-0.20927209;0.2542643;0.059033155;0.0048639397;0.07645063;0.09433635;0.005881704;0.052904367;0.075759284;0.028537499;-0.122062534;0.019937664;0.0686632;0.023021806;-0.02559841;-0.06110061;-0.072603606;0.015476012;0.05004492;-0.017148776;-0.5959273;-0.090843216;0.18233515;-0.30778995;-0.0019120745;-0.03205953;-0.0041025053;0.07073398;0.13379645;0.11606294;0.034978934;-0.006273166;0.093668856;0.042971082;-0.008316829;0.1794851;0.123796;0.17419958;-0.02127178;-0.11445328;0.03483665;-0.4219799;-0.05439886;0.116498545;-0.048739664;-0.012203802;-0.1987577;0.038052443;-0.033458564;0.28451124;0.24438679;0.13511673;0.11922728;-0.0111053465;0.015460837;0.04690219;-0.065757945;-0.084232934;0.15773872;-0.039540768;0.0047377236;0.070628434;0.20790865;0.28869116;-0.073810294;0.059743613;0.07715082;0.15226635;-0.284029;0.035766;-0.06894425;-0.0746739;0.20243102;0.0755656;0.037124515;-0.032793615;-0.029649016;-0.12326603;0.12886657;0.2339244;0.005746356;-0.008682451;-0.015883032;0.0488877;0.31691524;0.07748923;0.11922724;-0.051544685;0.14431587;0.022412999;0.07214328;0.2637772;-0.077754065;-0.058265597;-0.07238836;0.26363268;0.054076716;0.02126162;-0.0020710065;0.024052393;0.18427977;0.07202766;-0.026341204;-0.07677398;-0.06490562;-0.037359662;-0.012396455;0.07247286;0.35889643;0.15382601;0.044580646;0.06895106;0.21447839;-0.067821786;-0.12147911;-0.033977382;-0.046705488;0.13003682;-0.11316492;0.09604828;-0.008078132;-0.023751814;0.0769946;0.003361148;-0.053305723;0.20102496;0.21115924;-0.08251216;0.018777343;-0.04461774;0.029656196;-0.046784922;-0.056452084;0.0038957105;-0.042443495;-0.14672527;-0.040996164;-0.05901076;-0.041692536;0.052514367;-0.13196191;0.13797987;0.008089396;-0.148143;-0.06498523;-0.007174056;-0.0032906297;0.044061583;0.06749438;0.064332224;-0.20508605;0.06430474;0.05497347;0.18459399;-0.12519644;0.0134875;0.041753795;-0.20549765;0.20795268;-0.116895236;-0.0055323876;0.018484183;-0.04011692;-0.19750865;0.058106676;0.021940053;0.024042299;0.012502581;-0.37745258;-0.31775293;0.07865969;0.1188438;-0.025280913;0.11358652;-0.039926685;0.10081949;0.006573869;0.029279068;0.04709397;0.008946439;-0.06051588;-0.0635657;0.1291363;-0.12880693;0.0019931574;0.032889128;0.18139623;0.08627669;0.06699563;-0.0054714135;-0.030533282;-0.004050851;-0.07962292;0.26009104;0.062877625;0.19752708;0.035736468;0.06222469;-0.06859427;0.011829905;-0.17793447;0.012739065;-0.23721068;0.00895073;-0.17893913;0.0362456;0.008943588;0.039151765;-0.05478993;-0.031013774;0.028729497;-0.13639906;-0.031164564;0.04854089;-0.24707521;0.0638476;0.070112795;0.09171071;0.017787712;0.037579;-0.048341423;-0.16330123;-0.2599657;-0.13506673;-0.05986923;0.046379715;-0.27447307;0.08167762;-0.007431558;-0.20164034;-0.22621332;0.011029683;-0.023583073;0.1954076;0.030437466;-0.14814974;-0.34615892;-0.038875155;-0.053661145;0.12111459;0.24700746;0.19882916;0.11404039;-0.070898645;0.18929991;-0.018461637;0.033011224;-0.013407096;0.103923716;0.06455715;0.0794899;0.082878165;-0.04398683;0.0057277046;-0.16700578;0.19135642;0.10045878;0.12879735;0.057009432;0.04721746
-0.02292287;-0.35235366;-0.02063059;-0.006160755;0.02199284;-0.045429625;0.36778536;-0.07979393;0.15831146;-0.02417322;0.11261113;0.022548808;-0.06792755;-0.042433206;0.101734385;-0.049877323;-0.05402632;0.091763124;0.1889406;0.0025574865;-0.23058157;0.06006374;-0.089520924;-0.4824961;0.022853475;0.085508645;-0.0022525173;-0.099944025;-0.01959146;-0.11685351;0.018230107;-0.0818345;0.003741048;-0.008005357;0.07406972;-0.0413149;-0.022364615;-0.011051444;0.01290011;0.010793025;0.016116837;-0.010811764;0.04246013;0.0049069603;-0.16259734;0.11849649;-0.007315526;-0.048823226;-0.037171528;-0.070496626;0.040385537;0.036792215;0.20668526;-0.3429397;0.09655793;0.0012429064;-0.32618102;0.03506698;0.004946195;0.04554477;0.0647048;-0.13637136;0.0033444352;-0.020639727;-0.31324705;-0.08872559;0.054053232;-0.05267547;-0.15166388;-0.01421298;-0.1223031;-0.025268482;0.006408887;0.026999896;-0.019445391;0.014889839;0.19391242;0.106825925;-0.008591714;-0.29479992;-0.0063003907;-0.17671339;0.0026517226;0.024006872;0.06963379;0.29704988;0.008996619;0.1312729;-0.003809688;0.014753192;-0.069694534;-0.026207399;-0.037335508;-0.012324528;0.13583945;-0.12889564;-0.14739342;-0.023396682;-0.0072403005;0.045217477;-0.012293822;-0.0061622337;0.1093638;0.1592347;-0.016369987;-0.03670266;-0.008847713;0.106592044;0.30879614;0.14362971;-0.20964962;-0.12576315;-0.01896036;-0.14293694;0.044812243;0.034280833;0.04692703;0.041009653;0.084236346;0.18289852;-0.08320334;0.07029498;0.1455421;0.075310975;-0.01767399;0.052808132;-0.13194701;-0.05259566;0.052727442;-0.23004974;0.21678239;-0.09870321;0.12116309;-0.06590813;0.020297915;0.016701384;0.14821881;0.06363405;-0.30117476;0.2344383;0.060914695;-0.14036277;-0.40420923;0.3288456;-0.06679396;-0.016446754;0.19944337;-0.017360011;0.11182056;0.17280735;-0.037267298;-0.0036741695;-0.13288255;0.06946735;-0.24859984;-0.069777295;-0.04878846;0.17964287;-0.07108588;0.29054496;0.27610776;0.1329999;0.24140215;0.020641621;0.07220859;-0.12440349;0.030820725;-0.08112193;-0.21548983;0.2077956;0.012232587;-0.004069029;-0.013087762;0.30999032;0.026625259;-0.2066533;-0.00085746637;-0.087126225;-0.21802644;0.0026913097;-0.03601757;0.019533081;0.01359091;0.24267516;-0.050833583;0.18359256;-0.007978852;-0.19269744;-0.14159444;0.049257133;-0.14300191;0.06128037;-0.23736894;-0.04285172;0.10310259;-0.20516928;0.16910803;0.10230664;0.2143959;0.09844668;-0.20440131;0.081379965;-0.08127985;-0.067796044;-0.06780386;-0.12904944;0.13386598;-0.07978669;-0.07783699;-0.042947542;0.11816733;-0.1745323;-0.05140403;-0.012093258;0.041093107;-0.048831176;-0.14426763;-0.4632199;0.37372372;-0.091580205;-0.13014412;0.031104058;0.043596562;-0.018534696;-0.2579178;0.22133468;-0.1803501;0.083249636;0.016793698;0.023360236;0.0025802883;-0.0117436275;0.03586382;-0.20160957;0.10956147;0.017764403;0.07077307;0.07059743;-0.027038738;-0.07675729;0.08020347;0.004721955;-0.024998296;-0.028994307;0.01964831;-0.067631125;0.097533196;-0.06226749;-0.049060218;-0.0023332636;-0.15534243;0.020714;-0.056392033;0.20201497;0.09452316;0.025265679;-0.16439775;-0.1793681;0.10457118;-0.04274316;0.28189865;0.12701622;-0.03963053;-0.030438196;-0.0041539907;0.069973595;0.06500316;0.09129966;-0.33234528;0.15200697;-0.15198115;0.047909323;-0.09155257;-0.10502878;-0.024357669;-0.053990662;-0.05165949;0.07402235;0.011889549;-0.054648023;0.045170914;0.22335003;-0.23520865;-0.077656806;0.1661104;0.2765549;-0.045804687;0.13314585;-0.006142536;-0.10178246;0.28927192;0.19433482;-0.118211344;-0.12223063;-0.2918355;0.18309066;-0.36079752;0.14986993;0.030434944;-0.051330056;-0.058982793;0.034261864;-0.023243634;0.043066103;0.08440093;-0.00074821897;0.16216303;-0.012869401;0.15956205;0.06624374;-0.004409428;0.0034482114;0.08906601;0.026893167;0.009653287;-0.056263253;-0.18407576;0.18960693;0.044608742;0.05247863;0.27017447;0.11068875;0.019433618;-0.081158064;-0.043388687;0.32612997;-0.10172137;0.003933193;0.062883206;-0.0034049952;0.03673357;-0.037698377;0.042427912;-0.009569853;0.02171302;0.029522609;-0.53774726;-0.19500631;0.10114373;-0.21632044;-0.0096537415;0.03345512;0.005182563;0.12647185;0.028864065;-0.045864522;-0.103847526;-0.07827785;0.23614393;-0.047431372;0.08297085;0.24237622;0.26610652;0.081541404;-0.017833035;-0.121854424;0.07362163;-0.36384934;-0.10615891;0.13218905;0.08464888;-0.02683415;-0.15206288;-0.03418442;0.039407875;0.15000387;0.29205117;0.09783523;0.010273251;0.021226462;-0.0163772;-0.03386974;0.031386886;-0.017507525;0.17014703;0.02191024;-0.025662674;0.04982993;0.16750461;0.41452652;-0.13133764;0.04619355;0.013233162;0.040830415;-0.21778433;0.028313728;-0.106194474;-0.08470018;0.08517736;0.06388424;0.16280195;0.034958214;0.0186692;-0.11164598;0.083257064;0.13709651;0.052153923;-0.013882771;-0.07650567;-0.04637261;0.14441597;0.053499248;0.090746924;0.025987953;0.018628743;-0.004054898;0.07857537;0.34393033;-0.23807184;0.014728381;-0.10701346;0.17446671;0.02763391;-0.031336505;0.08754084;-0.030291473;0.15347412;0.027543513;-0.03421428;-0.057965077;-0.15494376;0.10425944;-0.004518799;0.035980273;0.3072751;0.11816117;0.019131204;0.09818346;0.2106318;-0.047738984;0.060724065;0.05436624;-0.21475556;0.15994722;-0.15257423;0.23070197;0.044597488;0.051820543;0.050496873;0.02372017;0.009479242;0.08240429;0.10847918;-0.17244911;-0.094946116;0.07210743;0.02323345;0.024447571;0.038554452;-0.047017;-0.15188594;-0.09764306;0.07212824;-0.055077508;0.0016897002;0.0155124515;-0.03602618;0.0054970523;0.097611904;-0.21654868;-0.020022035;0.009294515;-0.09620712;0.028160024;0.032777116;0.115632884;-0.2754179;-0.047527265;0.034440283;0.121644825;-0.071989454;-0.06613348;-0.0034379247;-0.116786405;0.14450882;-0.026294729;0.03262648;-0.026129873;-0.029838506;-0.07803733;-0.012589944;-0.017491931;0.04603444;-0.01867371;-0.5128979;-0.26240268;-0.048210457;0.19289877;-0.008268293;0.00050819496;-0.03902175;0.0014370475;-0.010763302;-0.05200776;-0.058857586;0.045562454;-0.008200639;0.017720332;0.0224699;-0.19831832;0.030993136;0.0029897182;0.12767018;-0.0026258943;0.030604096;-0.1312546;-0.0404597;-0.015875844;0.052551474;0.114761084;0.21596293;-0.02283393;-0.020011239;-0.07870046;-0.0062105423;0.000106636435;-0.09628934;-0.058623657;-0.15641117;0.0046474584;-0.19071844;-0.0005687467;-0.013430264;0.029678136;-0.036714576;-0.00916291;0.042303633;-0.100026295;0.06578364;-0.011644138;-0.26722938;0.16892026;0.112111874;0.23957917;0.019726437;-0.023172228;0.031212302;-0.21282005;-0.33637246;-0.011555275;0.105147436;-0.07421236;-0.1256302;0.09109074;0.069032244;-0.1937195;-0.2897728;0.26819134;-0.04548922;0.21674281;-0.0575266;-0.055867106;-0.45294687;-0.06075867;-0.04453949;0.114321865;0.32751575;0.18739322;0.13045678;-0.12718059;0.2017946;0.13094862;0.11725457;0.04402618;-0.007299152;0.06685853;-0.019123968;-0.022216195;0.018740362;0.08628358;-0.2375217;0.212204;0.015321064;0.045217812;-0.0111356545;0.047826312
-0.025548363;-0.36685073;0.033399656;-0.025732877;0.027165929;-0.0039201556;0.28184488;0.046208408;0.12551014;0.0025082468;0.17306739;0.06447794;0.0352644;-0.005324943;0.12192028;-0.0611574;0.04204326;0.14119071;0.0042303945;0.05931118;-0.20432334;0.037951432;-0.0992504;-0.42729768;-0.009138561;0.047978003;0.027713364;0.014090304;0.10417326;-0.15013477;-0.09720115;-0.054502986;-0.035354853;0.02320711;0.04052648;-0.036853537;0.03989152;-0.2086035;-0.08981805;-0.053691838;0.08222392;0.04498612;-0.075943835;0.2899432;-0.17599763;0.14689061;0.060556233;-0.04958993;-0.03155856;-0.106875464;0.038357243;-0.027207335;0.30331206;-0.3146312;0.007535384;0.016528001;-0.29165563;-0.024060508;-0.017186843;-0.050811823;-0.022174537;0.0054630986;-0.052933827;-0.030934896;-0.22489156;-0.12892754;-0.06974874;0.022227207;-0.19295287;0.035287295;-0.18820332;0.04586941;0.07860761;-0.1731926;0.038821418;-0.0009453363;0.2449255;-0.031726614;0.014412561;-0.14810921;-0.014645346;-0.06268566;-0.0021571098;0.064613685;0.12912074;0.28006285;0.052658778;0.16287038;-0.029094512;0.041392114;-0.018616758;0.041899923;-0.11801788;0.029288633;0.10903244;-0.09545229;-0.2573695;-0.005311472;-0.06404396;0.0920038;0.06959929;-0.22348851;-0.023926921;-0.013998739;0.19022585;-0.08799989;0.031562727;-0.015308513;0.053054813;0.12592737;-0.11889884;-0.03004885;0.0365105;-0.22050306;-0.028960397;-0.047639176;-0.059358276;-0.13787101;0.14612854;0.21156226;-0.004917098;0.033160497;0.34397346;-0.1074193;-0.015594995;0.026446367;-0.1743873;-0.06434132;-0.023271404;-0.23288366;0.1313243;0.014146896;0.20947635;0.06333021;0.042515133;0.037557274;0.13677636;-0.06525739;-0.3409375;0.29410785;-0.04880498;-0.0750638;-0.25085264;0.3258281;-0.16102324;-0.024358904;0.2234615;0.036854684;0.13204207;0.06557528;0.017214116;-0.0084335515;-0.065737;0.13187551;-0.13442004;-0.18913688;-0.03569161;0.2425953;0.08403377;0.33910573;0.22467771;0.17717282;0.29674393;-0.05869963;0.012568042;-0.12766528;-0.09456175;-0.014483973;-0.17880404;0.18207888;0.06650946;0.038108103;0.0072894306;0.24023952;-0.06065025;-0.06956534;-0.040577285;-0.019355366;-0.15739101;-0.017896768;-0.017513223;-0.01488489;0.10850068;0.4062814;0.031158864;0.26846358;0.039240085;-0.115228675;-0.020745268;0.03585374;-0.025512286;-0.050299685;-0.22582063;0.044549085;0.15679015;-0.1933889;0.07989517;0.10393756;0.15086786;-0.03215033;-0.010026918;0.14654684;-0.0176184;0.022145001;-0.023994401;-0.039448004;0.1401879;-0.089782074;-0.086194955;-0.10318228;0.13302012;-0.08021808;0.0071106725;0.006884825;0.00082158466;0.02154116;-0.10490121;-0.43121502;0.38983276;-0.13597772;-0.14198549;0.07387146;0.11896686;0.04168768;-0.036594726;0.2592028;-0.1634114;0.07620015;-0.11649785;-0.033143654;-0.03795106;0.0049771303;0.048356317;-0.18514751;0.07416923;0.11059136;0.17209248;-0.010491425;-0.06470856;-0.18177246;0.16479082;-0.016626827;-0.1521094;-0.025078896;-0.061715506;-0.24261479;0.10322902;0.08004079;0.025355013;-0.011014745;0.02193605;-0.02950202;-0.012212631;0.07845168;-0.03781623;0.12973386;-0.07375638;-0.10933732;0.04108335;0.057775423;0.30599946;0.1990102;0.05794974;0.001449957;-0.019218612;0.021502757;0.020313833;0.0753431;-0.2792461;0.15781009;-0.18198627;0.0056112236;-0.15902376;-0.15473531;0.014992821;0.013205525;-0.3123582;0.11874;-0.0031281172;0.02111703;-0.041418936;0.07523466;-0.19582048;-0.055129603;0.23186451;0.3340353;0.06937494;0.036652565;-0.05477819;-0.022172501;0.24853781;0.09832099;-0.11603494;-0.11730731;-0.43367708;0.0806557;-0.24754128;-0.028455894;-0.0051265783;0.013913583;-0.23114245;0.0664005;0.0065273405;-0.0024702193;0.0994862;0.07601911;0.10980078;0.006922638;0.16758628;0.020747744;-0.08566325;-0.07449121;-0.023793334;-0.054737404;0.15768215;-0.04231812;-0.32182124;0.2818287;0.17960672;-0.0045783157;0.08902003;0.25546575;0.06821456;0.0394071;-0.03169154;0.17477845;-0.03756592;-0.0027301097;-0.13391572;0.009416498;0.012925929;0.0558646;-0.020286944;-0.058287382;0.018583525;0.07091605;-0.49933887;-0.24229395;0.15163834;-0.16407803;-0.037429005;-0.06851089;-0.035151765;0.0040015285;0.09516519;-0.012900934;-0.060080882;-0.06021035;0.1958824;-0.020165106;-0.023232585;0.08843483;0.20110142;0.11229899;0.026950443;0.04054364;0.018247971;-0.21692534;-0.16942327;0.061744496;0.02072423;0.016759671;-0.25164315;0.023123978;-0.019068219;0.08990529;0.3031078;-0.0038267593;-0.09357206;0.13628301;-0.047638983;-0.0101797795;0.056367397;-0.031511616;0.19802487;-0.030202342;0.1044685;0.094411835;0.090461664;0.45432174;-0.06996798;-0.051387228;-0.041103438;-0.05816892;-0.17213866;0.015171947;-0.16579881;0.017146975;0.061918944;-0.0667482;0.13838223;0.012083089;0.048519816;0.0071499543;0.013591278;0.2154709;-0.03823458;-0.021637846;0.08195087;-0.015219544;0.15814228;-0.056254555;0.103599094;-0.03278286;-0.038958706;-0.035434812;0.078938566;0.40242544;-0.1832485;0.005707265;-0.18303624;0.20408882;0.043774474;0.093501896;0.01442507;-0.04583253;0.16861863;0.028549688;-0.04518895;0.08910864;-0.28081995;-0.006985083;-0.007377511;0.10340954;0.21179277;0.116770506;-0.024991335;0.032282;0.25922716;0.022654805;0.1263675;-0.104383364;-0.15558997;0.17739367;-0.09966724;0.20818529;-0.013729835;-0.04452391;-0.027390165;-0.033269953;-0.0013598772;0.042422123;0.103081934;-0.2367878;0.097245455;-0.02701146;-0.043458544;0.045072775;-0.04915115;0.0655621;-0.22102933;0.087930344;-0.01818921;-0.108635604;0.07860279;-0.0086070765;0.005842219;-0.08732027;-0.07308878;-0.319035;0.066437796;0.050734103;0.05928093;-0.0437477;-0.02611165;0.2603282;-0.13599181;-0.008481699;0.06305927;0.18652026;-0.021947227;-0.17829186;-0.019497512;-0.03919007;0.04413349;-0.02999127;0.096801795;-0.13306928;0.034503255;-0.21617696;0.023363909;0.009842687;0.066207565;-0.028638769;-0.32337633;-0.21534227;-0.038657084;0.23117037;-0.056324244;0.16746463;-0.07561118;0.11536558;-0.009979133;-0.06950819;-0.0041190595;-0.008619685;-0.17255609;0.118712746;0.17371294;-0.12996309;-0.055356983;-0.18691924;0.13126661;-0.037970513;0.015885707;-0.043141756;0.008484055;0.05873493;-0.0138213225;0.09542131;0.08540679;-0.018190626;-0.03458295;-0.028366175;-0.13993183;0.058852337;0.13225928;-0.017461145;-0.25390387;0.029949045;-0.032186914;0.03232254;0.11760936;0.058728978;0.028045716;0.043198384;0.07178265;-0.13947558;-0.08100314;-0.089706965;-0.30335838;0.04650939;0.029859671;0.060666185;0.08438181;0.0015923908;-0.05430398;-0.17254537;-0.35395506;-0.13470133;0.008990798;0.015819458;-0.18148707;0.11751548;0.1716389;-0.23926938;-0.1294402;0.16201903;0.04721685;0.32901648;-0.01053804;0.024496784;-0.39503366;0.08118311;0.03158896;0.23535927;0.306781;0.23928541;0.14367832;-0.29278928;0.29203522;0.0688784;0.009763362;0.024094854;-0.002606598;-0.049761597;0.021699801;-0.062246412;0.05431015;0.082432725;-0.22741999;0.2447059;-0.22021805;0.051265184;-0.028902104;0.16417895
0.07470139;-0.23917238;-0.041752618;0.03508614;-0.019080792;-0.10226736;0.10601327;-0.0142045915;0.15693203;0.042109247;-0.036803223;0.08223366;0.0015954523;-0.005101474;0.16333659;0.025384119;-0.022476045;0.122852676;0.011133764;0.032018;-0.16965808;-0.14827359;-0.038735934;-0.4668306;-0.01858431;0.15634619;-0.039603338;-0.013815507;-0.030364951;-0.07051505;0.053258166;0.033929244;-0.0117365755;0.017846048;-0.05279564;-0.02387275;-0.02121894;-0.19511892;-0.06501976;0.20758921;0.1037518;-0.020781385;0.07208333;0.40155736;-0.1857962;0.09914994;-0.086971134;0.090928264;0.09285889;0.0818417;-0.00636195;-0.001824147;0.12849534;-0.45747775;-0.1676308;-0.0445231;-0.308436;0.07518384;0.0021485544;-0.011687288;0.023482727;-0.08468807;0.048754517;-0.017922767;-0.33652434;-0.13824618;-0.003273186;-0.010010299;-0.16725561;-0.06387291;-0.22977166;0.04206049;-0.021367947;-0.11643817;-0.008058662;-0.024331376;0.2099675;0.03791343;0.031928424;-0.06170647;-0.002943151;0.018694805;0.007434515;0.030905364;0.086759366;0.28850046;0.004056877;0.034289002;0.0008891645;-0.05437493;-0.029600723;-0.03766336;-0.044172183;0.04231293;0.15816134;-0.032958604;-0.35170954;0.012693958;-0.06483856;-0.009862654;-0.026820315;-0.24278595;-0.06493905;0.060251042;0.13687034;-0.06390784;-0.018501995;-0.10291001;0.1848446;0.102554075;-0.14114244;0.0071717766;-0.029470712;-0.36891532;0.10168153;0.004782754;0.009915162;-0.17977656;0.043563906;0.09355933;0.14856707;0.18210587;0.27396184;-0.058905475;-0.017022451;0.15656461;-0.1793645;-0.22850993;0.14578392;-0.26706663;0.03136822;-0.1337174;0.21992542;0.007838429;-0.027435401;-0.04509955;0.2258252;0.05486083;-0.1939056;0.2637278;-0.05809414;-0.13454609;-0.2530843;0.2207604;0.068035305;-0.002827942;0.12137627;-0.028159427;0.06978626;0.1803339;0.01979522;-0.11939496;-0.104455814;-0.030400725;-0.23622526;-0.20169494;0.043234047;0.19396175;-0.010916692;0.19081989;0.08975031;0.19923499;0.2179502;0.010432782;-0.11704537;-0.045625884;0.038594566;-0.06593059;-0.29391953;-0.03758322;0.10522783;-0.01808153;-0.019096745;0.24624607;-0.15612966;-0.13519442;-0.027770167;-0.03249508;0.02299426;-0.028196959;0.0136824325;-0.021747641;0.01853909;0.30853945;0.059766475;0.32992008;-0.023236878;-0.18473242;-0.12744817;0.011435902;0.23493822;-0.06623601;-0.19500981;-0.017951872;0.10390208;-0.15387581;0.080198705;0.04805249;0.24570441;-0.1469981;-0.111945935;0.038242653;-0.0025619725;0.11261819;-0.058901478;0.0046796845;0.031870063;-0.07862525;0.021255799;-0.11974996;0.26701528;-0.1162658;-0.016519327;0.027097614;-0.049758222;0.026787454;-0.043553445;-0.34969226;0.24249984;-0.040965416;-0.12968823;0.07676296;0.010446949;-0.07375485;-0.08869913;0.29400244;-0.22371091;-0.010475898;-0.0202836;0.056133684;-0.10199107;0.048490852;0.024503056;-0.10011931;-0.07280018;-0.058189847;0.022381896;-0.032249156;-0.19347137;-0.18354052;0.12564182;-0.0008044428;-0.012566112;0.0067240815;-0.08443947;-0.25326058;0.08695563;0.19683345;0.03777257;-0.039434258;0.07949274;0.032533593;0.0728263;0.09529853;-0.030688291;0.13924973;0.02191755;-0.16773047;0.044035055;-0.0042987;0.14383897;0.2308875;-0.020260008;0.034809463;0.012385687;0.023734264;0.024086852;-0.09387673;-0.2734584;0.09441048;-0.03972027;0.0188166;0.06823766;-0.04522188;-0.04456775;0.014467198;-0.24533896;0.15827116;0.04587709;0.047489077;0.022197293;0.034764517;-0.0542748;-0.043807764;0.073339246;0.34133574;-0.07495893;0.1422416;0.044680983;0.0144839985;0.17391203;0.054938115;-0.2308786;-0.14642029;-0.42913878;0.0690689;-0.29174125;-0.059014536;0.009716339;0.07174875;-0.24894768;-0.077336356;0.040031526;-0.031860087;0.20173334;0.048571635;0.20376083;0.018203747;0.12154175;0.12919323;0.039550595;0.05587583;-0.011067271;-0.008347387;0.0458694;0.024660164;-0.24034567;0.18025243;0.0028183844;-0.04178266;-0.0033196493;0.29977655;0.16506043;0.03134764;0.0038580731;0.11302401;0.058956254;0.04533029;-0.07638078;0.029018506;0.025225056;-0.0021886642;-0.004222058;0.03530705;-0.09512696;-0.060904425;-0.45001635;0.12739827;0.1325955;-0.073346995;-0.00575087;0.06941674;0.023179218;-0.15880743;0.13666831;-0.06855836;-0.15604587;-0.04690911;0.25337452;-0.014234395;0.04397447;0.1815515;0.24055038;0.14144424;0.025413329;-0.024901494;0.19056381;-0.27561542;-0.3033763;0.15893625;0.016217535;-0.07655873;-0.17003356;0.054799087;-0.014415632;0.050046716;0.1484948;-0.106878825;-0.091280244;-0.08333899;-0.04698464;-0.030030943;-0.029734548;0.12110045;0.061059296;-0.0024300788;-0.022097789;0.020916618;0.1603228;0.46721855;-0.19679019;-0.15671095;-0.036066536;-0.020453613;-0.029142706;-0.0010916701;-0.049473815;0.01103075;0.1243182;-0.1680602;0.1715765;0.026644353;-0.060628794;-0.0004948953;0.0034714246;0.31904137;0.054057054;0.024784539;-0.016562767;-0.018452423;0.1800011;-0.1771572;0.028078882;0.014457235;-0.1041584;0.017842367;0.02619833;0.35470784;-0.31410107;0.00030739102;-0.12666048;0.1512679;0.02263877;-0.036563993;0.2306151;0.15323919;0.01545671;-0.0705711;-0.14391828;0.055249233;-0.317786;0.062558904;-0.009276397;0.086335324;0.18951017;-0.06993367;0.05517175;0.17013277;-0.005242035;0.040591516;0.118315294;-0.0033785806;-0.09480904;-0.06617767;0.007943859;0.21691027;-0.007864942;-0.008428251;-0.16696472;-0.025941731;-0.0033298873;0.10609366;0.15809649;-0.35202572;0.04267404;-0.0029209638;0.03787985;0.20594099;0.06623252;-0.011800433;-0.0049361647;0.07713504;-0.008412124;0.04649333;-0.0017800797;-0.04142209;0.083887406;-0.033884585;-0.06197629;-0.24265356;0.06129471;-0.022991536;-0.10766633;-0.055445783;0.010714801;0.26856765;-0.05142084;-0.018988512;-0.081788614;0.19661361;0.06441189;-0.06421085;0.030894896;-0.14031288;0.013311616;0.031179987;0.23777178;-0.016424274;0.00537644;-0.20628193;-0.051240638;-0.022840176;-0.04687889;0.027634889;-0.2815026;-0.22923157;-0.091080114;0.035783358;-0.16609022;0.10729844;0.0039308416;-0.09235335;0.019545503;-0.087872215;-0.052125495;-0.00016040521;-0.09836125;0.11659506;0.26146996;-0.13339539;0.031141391;-0.17629501;-0.026081378;0.056861404;-0.020110626;-0.1523664;0.0049779452;-0.036516897;0.037579793;0.09881889;0.13805114;-0.12538396;0.014294619;0.05707167;-0.120426014;-0.03194171;0.07328917;-0.17286143;-0.22356564;0.0016001692;-0.0883203;-0.04433744;0.042585947;0.070809506;0.07907119;-0.007071797;-0.015250366;-0.16391051;-0.16997059;-0.0003183461;-0.4266735;-0.005921749;0.06176843;0.1551405;-0.0061384905;-0.012857951;0.066052265;-0.18145508;-0.25559396;-0.24407302;0.18061204;0.009339423;-0.15382724;0.015113085;0.12418803;-0.17790036;-0.18831453;0.20001234;-0.01851761;0.25979644;0.05655481;0.0049003283;-0.28334472;0.12470009;0.04745532;0.09163448;0.3034;0.13526253;0.10458039;-0.19812834;0.3257751;-0.008710565;0.10541202;-0.023857038;0.089307;-0.07341288;0.069785506;-0.024043882;0.018027714;0.09057831;-0.094207875;0.2588787;-0.20509356;0.14776069;-0.017785897;0.11668549
0.14529037;-0.34262654;0.02422598;-0.19529963;-0.02660697;-0.06897127;0.12541734;0.039462313;0.13326749;-0.017588189;0.097107425;0.12660348;-0.035328113;0.019828754;0.159432;0.0066068014;0.0031742766;0.2799582;-0.09275332;0.09886079;-0.09395006;-0.28134698;-0.0747089;-0.3728099;0.054300193;0.19259486;0.07297878;0.06350722;0.0020415266;-0.043839823;0.005786883;0.093400836;0.053797815;-0.060030192;-0.036166225;0.050989572;-0.014882954;-0.10150723;-0.18976837;0.0485837;0.0691969;-0.041040216;-0.08577241;0.36956844;-0.10421211;0.034885086;0.05545771;0.02075182;-0.058138274;-0.0064488985;0.0027108842;0.11027102;0.31080353;-0.567694;-0.22352505;0.029690638;-0.118095115;-0.050432812;-0.05157806;0.04826069;-0.010946164;-0.1124693;-0.021934105;0.05352639;-0.44950444;-0.014237237;0.058225665;0.0019466084;-0.13119929;-0.07608767;-0.16295026;-0.022065287;-0.037289318;-0.21256807;-0.14467123;0.045807574;0.07977317;-0.033538967;0.031066831;-0.18448874;0.021801507;0.0362459;0.02687142;0.21527816;0.18173982;0.23650481;-0.03768482;-0.1574864;0.057264917;0.024610063;-0.011527686;-0.021768536;-0.1328657;0.10908676;0.067112;0.09585158;-0.40596735;0.04232778;-0.0060799997;-0.10862295;-0.04743521;-0.06334864;0.018045768;-0.042250432;0.21759106;0.09172925;0.011196692;-0.09644397;0.097274214;-0.0025326402;-0.035114814;-0.10746887;-0.0014387966;-0.42816484;-0.026160944;0.04221711;-0.019978337;-0.1734023;0.14784525;0.20367265;0.07564341;-0.13335079;0.22575268;0.1020631;-0.056245487;0.07354058;-0.2311451;-0.5036391;0.10947272;-0.2654132;-0.04953483;-0.027425384;0.13629515;0.009286639;0.16161972;0.027656958;0.31931993;0.0073252385;-0.3311423;0.28638044;0.05278884;-0.04114544;-0.22646222;0.35906422;-0.0063466723;-0.0042321556;0.010662707;0.0035181146;0.17443535;0.2885585;0.05370536;-0.058518972;0.00689103;0.03440914;-0.17796633;-0.2023854;-0.028495686;0.358337;0.021739066;0.25608945;0.18675043;0.2667229;0.20075867;0.010054696;-0.07434571;-0.11741293;0.014846148;-0.21732976;-0.25304452;-0.03651599;0.011691147;0.036578853;-0.015499064;0.15291642;0.012723479;-0.08124772;0.016264478;0.07369091;0.051791254;0.0003212299;-0.0050521786;0.0063641835;-0.10722174;0.30203316;0.030041782;0.3926244;0.032014724;-0.06358165;-0.091526076;-0.026383577;0.23786792;-0.13267455;-0.21711358;0.06438816;0.15253742;-0.19250283;0.124534965;0.15871857;0.034383934;-0.029290047;-0.046024054;-0.06894068;0.076906875;0.038641334;-0.05545178;0.07740503;0.058566507;-0.05989551;0.01699631;0.02237824;0.1305544;-0.1813265;-0.14157836;0.004123395;-0.04192403;-0.046018206;0.016160939;-0.3381088;0.13742168;-0.07053008;-0.034896933;0.07341012;-0.30487168;0.029629424;-0.16370368;0.068295226;-0.18991226;-0.13847342;0.0322319;-0.06202122;-0.18026742;0.05500328;-0.14547779;-0.13022886;-0.117580466;0.037666954;-0.11144894;0.008609579;-0.1819927;-0.20066744;-0.02210776;0.009109166;-0.121567115;0.023882788;-0.115265906;-0.29319027;0.12611113;0.2021529;-0.024915261;-0.06565575;-0.0047295564;-0.078997895;-0.17286453;0.08467481;0.0014722791;0.10486993;-0.009094211;-0.21456292;0.011732696;-0.040358186;0.22776414;0.11405426;-0.0302134;-0.029849716;0.001677142;-0.052789796;0.021554662;-0.0040782765;-0.06783912;-0.04376096;-0.040381666;0.09224007;-0.14317934;-0.14222732;0.03978964;0.0097122295;-0.32001644;0.0932321;-0.054850277;-0.02935746;0.0143473325;0.043594208;-0.21709;-0.01895974;0.24816847;0.16486795;0.005960143;0.22022806;-0.014066345;0.011822715;0.3949269;0.06233514;-0.13060501;-0.15035355;-0.38664633;0.16882093;-0.22577716;0.091923565;-0.055774942;-0.014433985;-0.06877447;-0.03780415;-0.023171112;0.01662965;0.22453953;0.2676543;0.13816698;-0.07501334;0.036454193;-0.025126502;-0.011580148;0.020970806;-0.2927711;0.0629474;0.023764182;-0.1222895;-0.4097443;0.09141946;0.057601;-0.014499655;0.010782702;0.16759337;0.28736085;0.060691074;0.009814835;0.039488763;0.032427635;-0.01005787;-0.022948114;4.4839217e-05;-0.052982286;-0.037263293;0.014778249;0.026295027;-0.15371735;-0.009754861;-0.57289696;-0.042938754;-0.05150783;-0.2542523;0.034695245;-0.11877856;-0.012009007;-0.16036521;0.04768018;-0.099197716;-0.012411619;-0.045734335;0.08612329;0.00788711;-0.048063923;0.19545397;0.18561338;0.11138278;-0.03120268;-0.025389016;0.10219571;-0.31065243;-0.3464697;0.069102466;0.009065978;0.076323494;-0.1998339;-0.0570058;-0.0017897532;0.081427515;0.21985857;0.042806517;-0.08777843;-0.14573932;0.06381395;0.009919268;-0.022871915;0.006432115;0.23976053;0.03349416;0.0014035625;0.14511552;0.23512095;0.29032528;-0.06272055;-0.084048934;0.072958864;-0.019935891;-0.06767916;0.07018251;-0.21036065;-0.016235664;0.05021234;-0.29473463;0.19970933;-0.008060571;-0.015357058;-0.12233195;-0.06458987;0.1795186;-0.04288391;-0.049320366;-0.014014928;0.040016863;0.28596273;-0.089222096;0.09311302;0.0048840577;-0.17373104;-0.008213976;-0.069000036;0.30573028;-0.3583447;0.05365163;0.053397756;0.12961367;0.054253705;-0.04107646;0.078939006;0.015245757;-0.06891332;-0.1363751;-0.11336809;0.019173361;-0.31357035;-0.031806637;-0.025791284;-0.051076565;0.21128574;-0.16698475;0.032931805;-0.011576693;-0.12229854;0.072434;0.049438816;-0.086383015;-0.022397552;0.03318502;0.0578423;0.3126191;-0.033236768;0.03119026;-0.17171597;-0.004982709;-0.009445493;-0.07433073;0.076826215;-0.36324748;0.0024372842;-0.008875993;0.015355718;0.24376012;0.020092865;0.018198382;-0.07987909;0.17783022;-0.022184137;-0.10904277;-0.052685995;0.029286599;0.17561743;-0.0022730657;-0.13837141;-0.34015304;-0.11216689;0.015266806;-0.059632596;0.062425904;-0.07273963;0.23242985;-0.09640888;0.06774118;-0.10640392;0.11391316;0.050440352;0.00024268961;-0.033851657;-0.08356011;0.14217414;0.06911525;0.07127387;-0.0027069515;-0.06573606;-0.14421527;-0.024294091;0.018378872;0.021143055;0.019214455;-0.24902861;-0.30628076;-0.14871156;0.20135593;-0.0044407225;-0.03756082;-0.0046805954;-0.012184565;-0.011616458;-0.056968242;-0.005228146;-0.032310713;-0.059225217;0.28863588;0.12358807;-0.07713499;-0.0010723099;-0.15753487;0.059497457;0.10583448;-0.036719114;-0.19956489;0.07668995;-0.015809206;0.037628464;0.14199702;0.018033696;-0.22451124;0.0014583076;-0.05434984;-0.050626952;-0.015061877;-0.06627717;-0.0027393592;-0.15006062;-0.018859003;-0.073560685;-0.008265486;0.10086442;0.11935245;0.0010603985;-0.07457545;-0.06197622;-0.24556905;-0.13015917;-0.05102201;-0.26811886;0.010908778;0.06317418;0.22591643;0.04160318;-0.036172163;-0.020027505;-0.0027037284;-0.20274508;-0.1115025;0.16612035;-0.021599486;-0.09224826;0.07208276;0.074029416;-0.2780872;-0.10614618;0.038340606;0.02242138;0.24298681;-0.0036739341;0.060230717;-0.19391876;0.10912346;0.0024636358;0.014887423;0.16021335;0.1933059;0.12406549;-0.20836;0.28399536;0.067652926;0.14857373;-0.011869133;0.10974052;-0.04901846;-0.075654626;0.010374185;-0.07797495;-0.03526358;-0.2645727;0.14645258;0.0035929878;0.038503196;0.029198233;0.06619932
0.124079175;-0.19033766;-0.05438502;-0.06374164;-0.02760588;-0.115471095;0.1722944;-0.036806557;0.15514955;-0.00066280673;0.041384548;0.15663205;0.06406217;-0.022139663;0.11671876;-0.030893784;0.022185566;0.2586043;-0.053421192;-0.057323344;-0.028575573;-0.2734457;0.04984641;-0.25460416;-0.031216823;0.09163579;-0.032696284;0.0056266556;-0.22903682;0.009865441;0.08090018;0.066837706;0.01244383;0.010405188;-0.017273964;-0.019372769;0.007989049;-0.15456149;-0.04438909;0.15177286;0.15684104;-0.025761325;0.048026066;0.24043646;-0.009929769;0.18107036;0.009284773;0.019726954;-0.007304215;0.06111876;0.015374359;0.08577463;0.12008611;-0.38451093;0.011136462;0.013080924;-0.05372223;0.1197074;0.0153214475;-0.019237906;-0.051953;-0.002444965;0.0006612614;-0.024940098;-0.31075054;-0.07097075;-0.06087245;0.017758327;-0.21379964;0.04231883;-0.11972392;-0.06592242;0.0077819605;-0.28518844;-0.11159427;-0.015088306;0.043875314;0.03814251;-0.06913173;-0.071655475;-0.052189823;0.074672036;-0.076886;0.10014532;0.30084512;0.28508642;0.0077413344;-0.19227113;-0.025649551;0.021011332;-0.10177514;0.080781385;-0.1426204;0.08183847;-0.01484076;0.15519111;-0.45107254;-0.02459744;0.04780589;-0.014489276;-0.08271821;-0.13137548;-0.12281718;0.04699513;0.0077685234;0.16786347;0.06377237;-0.051599067;0.03705385;-0.07127318;-0.13986608;-0.20927218;0.026878344;-0.58721006;-0.056119442;0.019839603;-0.036887918;-0.26648462;0.124373965;0.1311726;0.11492067;-0.0902561;0.25256422;0.20513475;0.08252765;0.20331112;-0.21840535;-0.40522468;0.10300369;-0.15831147;0.15909228;0.06584515;-0.048379645;-0.005111248;0.0546424;0.0005224421;0.12472575;-0.049029283;-0.2420093;0.123183176;0.026484983;-0.21685798;-0.1319832;0.3034415;0.012018501;-0.024930768;-0.020845503;0.019229202;0.037926488;0.18864332;-0.060072225;-0.21361998;-0.11882556;0.082051;-0.11158632;-0.18274021;-0.026135188;0.17282756;-0.04820345;0.0851473;0.17073576;0.24224338;0.16268538;-0.034587048;-0.009057839;0.13544728;0.039791007;-0.27408764;-0.26852447;-0.022013742;0.12534776;-0.0056287833;-0.041376173;0.014262179;0.109640986;-0.124821864;0.025671642;0.16687934;0.15907823;0.054681946;0.040543925;0.0647856;-0.029758032;0.29612473;-0.017591644;0.44394612;0.028199628;-0.19354427;-0.07560357;-0.03219422;0.06157192;-0.029028213;-0.039457303;0.034901433;0.14694686;-0.22102773;0.076074935;0.060248308;-0.041381918;0.023179095;-0.074971765;0.017113347;0.11443767;0.11393411;-0.054264974;-0.06534149;0.18987338;0.10869348;-0.14242277;-0.12843214;0.21802732;-0.19599967;-0.21747191;-0.014263503;0.010229118;0.051054925;0.005108469;-0.23809241;0.1581375;-0.06304532;0.005765992;0.032418467;-0.07441655;0.008080411;-0.19591577;0.089312315;-0.35161585;-0.048994258;0.1403202;0.0117065115;-0.21729557;0.11769116;-0.17911285;-0.008139496;0.028710274;0.063725814;-0.05333568;0.034470264;-0.24665031;-0.124114014;-0.11948264;-0.09055187;-0.024950577;0.015065341;-0.14502713;-0.24446517;0.15812276;0.04810101;-7.780911e-05;0.039485835;0.027459934;0.039483987;-0.12999919;0.09505434;0.0111270975;-0.039992057;0.17220932;-0.1967488;0.08615004;-0.012571727;0.094935216;0.043997653;-0.038014002;-0.0035301398;-0.0366353;0.018911848;0.18750761;0.03181514;-0.039360557;-0.11327215;-0.039511357;-0.044636883;-0.07043451;-0.13922073;0.017079968;0.018134812;-0.3813177;0.07918922;0.017576315;-0.054347605;-0.009276382;0.17783646;-0.28572565;0.07289815;0.22375232;-0.042536575;0.044935152;0.06505107;0.015748143;-0.022883657;0.14424242;0.07165237;0.01942338;0.002033485;-0.47442406;-0.010392459;-0.30101302;0.2789332;0.053756192;-0.029723942;0.051041577;0.010022411;-0.055000488;-0.11819927;0.27438053;0.029576393;0.0412616;-0.026708923;-0.061434083;0.062202748;-0.09136825;0.0207157;-0.30035642;0.03505471;-0.009988645;-0.0720546;-0.47470158;0.035071768;0.11625514;0.015250631;-0.03133762;0.32082397;0.2527119;-0.06812817;-0.069550544;-0.007084202;-0.07061587;-0.04424584;0.027674118;-0.043582853;0.066897035;0.034837324;0.03620929;0.025917798;-0.084497094;-0.031049374;-0.54608923;-0.036760952;-0.15598926;-0.14227426;0.07571964;-0.17987485;0.006891185;-0.21789171;0.10517272;-0.24181914;-0.0064851353;0.016521314;0.02154044;0.060185093;0.0088457;0.2345609;0.20370394;0.14612289;0.015863674;0.11970893;0.1990933;-0.17079021;-0.22733143;0.066967204;-0.0321903;-0.025795465;-0.12748136;0.008127922;-0.046488978;-0.032945063;0.0022058524;0.0233768;-0.058213852;-0.29411122;0.00010948181;0.02832165;-0.02292169;0.04089173;0.20967942;0.055120144;-0.05874792;0.10243027;0.12610376;0.35939083;0.0083019305;0.08558307;-0.01658905;-0.048808932;-0.11153162;0.042107634;-0.1477966;0.104166865;0.017080676;-0.1666614;0.03685034;-0.02294441;-0.005519389;-0.0632738;-0.05389794;0.19391222;0.007936104;0.05561578;0.04737462;0.038907103;0.12819181;-0.078648515;0.0656461;0.027596265;-0.19371681;0.04019055;-0.2161214;0.17731172;-0.28580225;-0.07880132;0.10240287;0.11399731;-0.16414855;-0.05842941;0.201305;0.02948393;-0.1313964;-0.028582824;-0.16521806;-0.022468733;-0.19908874;0.105483465;0.051473938;-0.14827402;0.06973099;-0.060637455;-0.026604185;0.03247879;-0.0017739121;0.06343666;0.21379411;-0.01176676;-0.086463146;0.016623387;0.09236656;0.20158184;-0.034719042;0.012005271;-0.20259166;0.052569542;0.036029983;-0.07796744;0.24256715;-0.44274294;-0.10652226;0.0015782836;-0.023634212;0.15312722;-0.03142875;-0.04543823;0.041909296;0.17826246;-0.013769795;0.064954795;-0.0050525493;0.039350078;0.2912164;-0.04748584;-0.1913171;-0.25376007;-0.04351565;-0.03854966;0.08403559;-0.004991471;0.06078159;0.1868671;-0.13925222;-0.038794193;-0.2526087;0.016352838;0.05279257;-0.18856987;0.010757084;-0.17440367;0.22816499;0.21251704;0.0018003219;0.14893988;0.010597678;-0.041592836;-0.05334293;-0.030697454;0.060993157;0.039101765;-0.20621984;-0.1568802;-0.17994967;0.08731413;-0.15963177;-0.014848401;-0.061982475;-0.16214633;-0.0104991095;-0.09896143;0.06543695;-0.035451118;-0.21416171;0.3789027;-0.029854871;0.0033320829;-0.013098976;-0.23867315;-0.08469776;0.0002531923;0.0030544603;-0.15889193;-0.0040049497;0.036893588;0.12717544;0.19092815;-0.03443863;-0.37707978;0.016580712;0.07290236;-0.09293561;-0.014622075;0.03377378;-0.054677594;0.031640843;-0.032326873;0.08947709;0.0014692585;0.1416234;0.10794727;-0.07023091;0.06085445;0.027423142;-0.33593282;-0.08902974;0.070429854;-0.313041;-0.05260757;0.009889208;0.17627001;0.07714141;0.026020719;-0.015944317;-0.032135274;-0.17378154;-0.19685732;0.115004554;-0.036955755;0.027374983;0.24902454;0.252059;-0.36615646;-0.095236406;0.022213304;-0.041674756;0.18789025;0.006440451;-0.026860386;-0.21333748;0.119293086;-0.044203557;0.120991625;0.08350386;0.24492629;-0.07708629;-0.1712128;0.09316772;0.14022376;0.11504652;0.017198764;0.20890714;0.13369212;-0.09728267;0.057273652;0.0123334015;-0.026061665;-0.24559548;0.08739909;-0.050604448;-0.04293202;0.033640325;-0.04364466
0.056595076;-0.1500787;0.04882965;-0.067367725;0.0010240041;0.029380977;0.05871132;-0.035964556;0.22048329;0.03305287;0.0040118587;0.17009065;0.058485657;-0.0028953713;0.27139732;0.06781894;0.018221788;0.22769369;0.07154036;-0.0016176034;0.15955964;-0.0033568107;0.033275228;-0.13674076;0.037867017;0.028284676;-0.0001534966;0.017961523;-0.29037768;-0.052934583;0.05125924;0.20215641;-0.18235622;0.038739346;0.112003714;0.034507226;-0.014938587;-0.118513815;-0.12862895;0.052405104;0.104494564;-0.008351234;-0.033683453;0.27227542;0.06640386;0.13266629;-0.02840911;-0.01724241;0.01249281;0.31156233;-0.039715353;0.056472953;-0.05258114;-0.51580876;-0.046108328;0.0016282485;-0.034683682;0.17669086;-0.001725596;-0.046010792;0.008200109;-0.1357287;0.012493772;0.02505609;-0.3450761;0.020981632;0.049395595;-0.047996297;-0.10366896;-0.026766311;-0.10976526;-0.017237047;0.020436412;-0.11706065;-0.03910372;-0.005625072;0.03530347;-0.08033424;0.038646292;-0.0022069158;0.0436523;-0.010601366;0.049331784;0.19233382;0.26596567;0.15383731;-0.04013196;-0.34352997;0.0022809992;-0.021390764;-0.09535474;-0.022961717;-0.018052539;0.025798308;-0.11547377;0.04656223;-0.3190097;0.026737934;0.1602118;0.030107219;-0.20381263;-0.07543671;-0.027443567;-0.036581066;-0.116617255;0.19955295;0.1107632;-0.046228394;-0.067781225;-0.12204547;-0.14475334;-0.13815367;0.029047675;-0.4435743;0.112358905;-0.042296823;0.042134468;-0.40406454;0.14346325;0.17815985;0.21679291;-0.09460332;0.33169913;0.134774;0.09008891;0.13399175;-0.15204175;-0.36719608;-0.09022865;-0.218971;0.22753887;0.08773068;0.018254824;-0.0071875695;0.022056328;-0.046888087;0.005715959;-0.045034077;-0.3013354;0.14318646;0.047449358;-0.17447343;-0.14846745;0.16291931;0.1471342;0.004847592;-0.119327515;0.0039988793;0.19124514;0.18117857;0.026920611;-0.163222;-0.065000914;0.12777404;-0.12956613;-0.0031961943;0.04095488;0.12922682;0.021718731;0.13972071;0.096035585;0.24159826;0.13333058;0.052121207;0.0032817228;0.027123498;-0.029406436;-0.21778186;-0.05887744;-0.11432906;0.06482358;-0.027765732;-0.10252552;0.03952962;-0.021190088;-0.081785426;0.011326533;0.14233084;0.17601462;0.018014876;-0.0017924553;-0.046053696;-0.020708743;0.246012;-0.059219018;0.3194404;-0.024212584;-0.13928011;-0.1941864;-0.0019310251;0.29386607;-0.16308264;-0.064875044;-0.0330081;0.11180423;-0.3131845;0.22926758;0.046822194;-0.08119814;0.106398456;0.027661333;0.00957702;0.062458616;0.218852;-0.23717162;-0.07765751;0.06356453;-0.055605013;-0.18544145;-0.16172665;0.25441322;-0.37319225;-0.13803011;-0.011029882;-0.00050724286;-0.03743441;0.089116395;-0.12086685;0.262964;-0.025705462;-0.03181221;0.054541472;-0.053608228;0.009311681;-0.12009391;-0.12614891;-0.40875092;-0.07479101;0.21575116;0.012103685;-0.09635746;0.056683492;-0.038410097;-0.020344548;-0.093142934;-0.07368358;-0.01948431;-0.004784357;-0.22332884;0.0015854433;-0.10517925;-0.08778285;-0.054351088;0.01074134;-0.19032525;0.06893389;0.018435204;0.049296472;0.02556126;0.007041357;-0.0013403713;0.04546853;-0.13835277;0.19131668;-0.024195112;-0.0027116053;0.16630949;-0.05981027;-0.041617796;-0.03040646;0.08932743;-0.16866764;-0.009928913;0.002675105;0.023857825;-0.020892804;0.095862;0.06408983;-0.13801393;-0.16592914;-0.03713852;-0.069015495;-0.14702117;-0.19041613;-0.06800391;-0.019291472;-0.30777544;0.12724613;-0.026099285;0.05518012;-0.011907711;0.28123024;-0.24900785;-0.03308595;0.08004372;0.0006025773;-0.0631463;0.06437825;0.008137143;-0.10613924;-0.07682965;0.1005064;0.021426758;0.09670884;-0.34493583;-0.13087508;-0.06737702;0.08963386;-0.015391136;0.023080211;-0.09050815;0.0625358;0.05629529;-0.11984273;0.17317164;-0.024443667;0.005880075;0.069804706;0.13204549;0.084227;-0.101374924;-0.051462386;-0.32200608;-0.05803839;0.065861925;-0.012281685;-0.35301667;0.043144826;0.10326117;-0.02530279;0.08623466;0.2768144;0.22056447;-0.050962985;0.031069178;-0.11943001;-0.17334934;-0.051160704;0.026642188;0.042896666;-0.043977305;0.015066842;-0.012333837;-0.00015529788;-0.059216853;0.039076146;-0.5016951;-0.10791385;-0.12780815;-0.18685089;-0.048660852;-0.23949623;0.0062029473;-0.41379154;-0.022309633;-0.34876865;-0.015069384;-0.13334017;0.118793406;-0.07169228;-0.022457514;0.26739952;0.22171602;0.10019342;0.040434297;0.044339955;0.092975825;-0.23094223;-0.15811448;0.069482155;-0.06942506;0.0055690994;-0.016571132;-0.041876465;-0.07039534;0.02894545;0.066580474;-0.040097818;-0.06446048;-0.19043739;0.030874897;-0.0018115691;-0.0024706603;0.10816473;0.2606334;-0.0867463;-0.14157203;0.08414051;0.3039516;0.3609953;0.0087649515;0.19504079;-0.0064813895;-0.1177872;-0.108756825;0.037315156;-0.009691586;0.16737664;0.12787293;-0.31824756;0.035324026;-0.058136504;0.05174074;0.007907183;0.0723225;0.1204097;-0.034753133;-0.008570969;-0.019254405;-0.051151898;0.011965064;-0.12294188;0.084249444;-0.009285029;-0.012308296;0.015560828;-0.07902503;0.0033834886;-0.23787493;0.029271705;-0.003509856;0.12298018;-0.06250569;0.052622277;-0.017916372;0.20006521;-0.06804327;-0.06715423;-0.13516709;0.09975392;-0.11619731;-0.09483958;0.012293239;-0.14751244;0.19184178;0.07146407;-0.113288626;0.17766821;0.00078543957;0.014351952;0.0031475937;-0.1033046;-0.1227974;-0.040480107;0.15446155;0.15757655;0.034110926;-0.051242888;-0.16259634;-0.047693614;-0.006019209;-0.1118915;0.12231039;-0.35682255;-0.10669767;0.023639403;-0.004691512;0.14520876;0.009772855;0.03925704;-0.00897924;0.24436215;0.051758293;0.066995606;0.013573098;9.884686e-05;0.42992216;-0.09829188;-0.26015714;-0.19730408;-0.09590624;-0.025586003;0.03530132;0.040287625;0.019564657;0.14553544;0.014800363;-0.039961006;-0.22544299;0.0852813;-0.017633153;-0.1593137;0.041437924;-0.10446512;0.26863524;0.31579918;-0.030328296;-0.047052074;0.040073346;0.08064177;0.01811115;-0.0016092841;-0.03499626;0.00080912944;-0.17830391;-0.15569167;-0.007315017;0.19672726;-0.03807328;-0.03207727;-0.07547947;-0.124337316;0.0020355026;-0.02256902;0.00047643675;0.00068191445;-0.07824283;0.3931771;-0.21446098;0.035129044;0.0066930503;-0.23917739;-0.0130694425;-0.055161558;0.005908199;-0.21564949;-0.052272055;-0.011689601;0.108040586;0.004539024;0.049283046;-0.47424352;-0.0071101887;-0.03784738;-0.093719125;0.0057855523;0.06146225;-0.077326454;-0.14344276;0.019417992;0.010231585;-0.024665974;0.15995902;0.092312254;0.047941312;-0.032855984;-0.101744816;-0.28034824;-0.09209018;0.035597075;-0.37909627;-0.0007686637;-0.03579367;0.020453243;-0.052997947;0.029111225;0.0041189725;-0.057454806;0.04239673;-0.18569958;0.11174973;0.019689947;0.25668353;0.21491547;0.15219855;-0.37836593;-0.056243047;-0.12226997;0.0175333;0.23468603;-0.047396243;-0.10987567;-0.24495271;0.04309972;-0.023998804;-0.012956903;0.027077822;0.2596532;-0.111133985;-0.20771314;0.11372774;0.06660822;0.070712104;0.038639314;0.19493318;0.12696442;0.065248914;-0.007216109;-0.023264036;-0.09974573;-0.18449777;0.09304858;-0.118161015;-0.066266045;-0.04121568;0.021187482
0.121773;-0.1808106;0.0035730258;0.0078017805;0.048255302;-0.066151425;0.10667728;0.02216883;0.28679824;-0.042049583;0.03421068;0.096502885;-0.06420759;0.052840013;0.23378353;-0.07113139;-0.03425758;0.25525957;-0.098853074;0.06599743;0.12652984;-0.010245373;0.04161619;-0.22744925;-0.030774843;-0.017241517;-0.08048838;0.00720497;-0.30929795;-0.05120804;0.07103371;0.27821323;-0.1892198;-0.039806344;-0.02591842;-0.033230986;0.050508827;-0.33829355;0.04075461;0.05542021;0.29870588;-0.016717577;0.078912765;0.018588224;0.086560346;0.122676015;0.031663977;0.03020656;-0.021846816;0.22288868;-0.018111067;0.091510214;-0.00645303;-0.5366055;0.03527704;-0.018210571;0.09345677;0.25020474;-0.010177252;0.02526944;0.009643055;-0.115507305;-0.037823148;0.049539857;-0.3258324;0.18867445;-0.056974582;0.021580758;-0.2897338;-0.02936147;0.027077336;0.048054483;-0.02879093;-0.09527523;-0.1383139;0.021170475;0.05322194;-0.14927533;-0.037896816;0.122514024;-0.008589455;0.06627667;0.042856667;0.19415747;0.327433;0.30661577;0.05699975;-0.30763522;-0.054961257;-0.00018955678;-0.17455079;-0.06862104;-0.0035962763;0.035067417;-0.22178979;0.04744309;-0.26881212;-0.09976309;0.1784368;0.14288597;-0.07218351;-0.032763142;-0.01619275;0.082847975;-0.17717697;0.2832669;-0.020512002;-0.17823324;-0.21212873;-0.11081439;-0.08450332;-0.2609218;-0.052154794;-0.43203193;0.04880751;0.0036542884;0.035259895;-0.22824292;0.028116623;0.04931501;0.17259328;-0.21575393;0.2970726;-0.020000884;-0.04296182;0.1677702;0.0036794832;-0.27752972;0.0008163028;-0.21756552;0.015339468;0.11172686;-0.012864971;0.005885323;-0.10662758;0.022157393;-0.1395019;-0.0848458;-0.21914262;-0.008303653;-0.073388;-0.304225;-0.07992296;0.1064909;0.16994467;0.056968696;-0.20743318;-0.04673465;-0.024420967;0.01129433;-0.016585656;-0.13976938;-0.11558751;-0.006635288;-0.11710907;0.14664239;0.12140151;0.17913711;-0.0046575186;0.09751474;0.045044407;0.2579395;0.0668601;0.0027913789;-0.060559653;0.11553752;-0.0447008;-0.11707858;-0.01352102;-0.07698085;0.1022261;0.005523084;-0.02843795;0.093343;0.07718148;-0.14508387;0.038573157;0.17520107;0.12802842;-0.047747716;-0.05051248;-0.079558074;-0.12899548;0.23434421;-0.016125876;0.40120947;-0.04432898;-0.16897044;-0.2643753;0.059735548;0.33085388;-0.17760943;-0.11076277;-0.027407188;0.04304522;-0.28663528;0.14530742;-0.060121458;0.048886772;0.15391031;0.06901312;0.045241866;0.0055688666;0.41558006;-0.19873936;-0.021296686;0.06833225;-0.031804573;-0.3580953;-0.14109261;0.13911138;-0.33489588;-0.07729356;-0.04707545;-0.002443774;0.012529956;0.32741794;-0.030519078;0.12565118;-0.08461941;0.014645865;0.04053157;0.07504254;0.035517655;0.0733393;-0.23387203;-0.40600657;-0.03563008;0.2894904;0.05056769;-0.086347125;0.10735249;-0.08194583;0.012880958;0.0029175647;-0.051909186;-0.101608165;-0.044348754;-0.2559646;-0.03144058;-0.103025585;0.034915294;-0.20815878;-0.055239238;-0.18939027;0.12375396;0.10241991;0.050974954;0.014387653;0.083027504;0.0007271433;0.016696656;-0.094807886;0.22053969;0.03324035;0.039471418;0.20156132;0.0016658921;0.08562347;0.06356835;0.0046694027;-0.10297272;0.045188863;0.048663184;-0.0096984515;-0.048153177;0.09744374;0.15883471;-0.028487096;-0.13324597;0.018356277;-0.14527248;-0.1908872;-0.019115025;0.054010116;0.030945383;-0.19627087;0.04900728;-0.013976334;-0.035621718;-0.019178009;0.35957783;-0.12984528;0.05183124;0.02113606;0.0074986224;0.047631055;-0.11524617;-0.025335114;-0.15645686;-0.26249045;0.1296813;0.08179724;0.16076384;-0.22166795;0.086370856;-0.094800524;0.017304715;0.027401472;0.013665196;0.033457074;0.043321557;-0.033544816;-0.050090894;0.090403475;-0.019812325;0.033682592;0.028051013;-0.054091673;-0.003165016;-0.0030163063;0.0097343065;-0.19755791;0.0152006615;-0.1254805;-0.089367405;-0.3141265;0.04660847;0.15294363;0.058688134;-0.014632325;0.070592135;0.18366042;0.064743996;-0.012207776;-0.22917981;-0.04479489;0.06816988;0.0003763652;-0.065704376;-0.041720178;0.0021931;-0.012984891;-0.026779082;-0.22843783;0.019694818;-0.43219313;-0.06455524;-0.09448741;-0.17109843;-0.024710517;-0.16990872;-0.026980907;-0.36501002;-0.005031993;-0.22616673;0.005587402;-0.14752117;0.105819404;0.04408381;-0.009963181;0.20903859;0.13292643;0.16247854;-0.04429435;0.07222839;0.11706533;-0.15170819;-0.24701549;0.1196862;-0.05227391;0.056295034;-0.023746464;-0.079998195;0.08185576;-0.023015948;0.08794342;-0.051531754;0.006654399;-0.11060254;-0.04140286;-0.036127195;0.06980606;0.117341325;0.33951128;-0.06281134;0.014567944;0.047222227;0.34206408;0.29769564;0.20705788;0.023877718;-0.04985586;-0.073189974;0.021814104;-0.139789;-0.09770506;0.09384054;0.19643208;-0.25467205;-0.08792101;0.040850054;-0.017291527;-0.0019877723;0.14414048;0.22338557;0.055139005;0.024384566;-0.0027592804;0.03707128;0.15144123;-0.03786569;0.18769963;0.012826808;-0.03071354;-0.05538782;-0.20464434;-0.10454215;-0.12737693;-0.024621887;0.14066967;0.0067571523;-0.2821085;0.03477052;-0.017403474;0.29903802;-0.00032777837;-0.096966006;-0.3468747;-0.008654056;-0.13096634;0.0014772968;0.019113151;-0.21137926;0.0709863;0.039033215;-0.10274766;0.17072982;-0.04393244;0.022724401;0.02936754;-0.14749506;-0.23511484;-0.030420894;0.17218903;0.08939916;-0.0026430744;-0.06711112;-0.14757107;0.015547539;-0.054036394;-0.06116837;-0.004677495;-0.32004842;0.04015208;-0.0037452728;-0.07477236;0.010867456;-0.04367765;-0.063080765;0.037145987;0.35209253;-0.015421537;0.009348222;-0.037611417;-0.04012984;0.2741325;-0.104929425;-0.23528999;-0.08721937;0.049516387;-0.06297624;-0.054172702;-0.04862743;-0.031682245;0.067470126;-0.044668652;0.042994067;-0.21196671;0.0546543;-0.1314357;-0.13645217;-0.017356299;-0.08746024;0.19884154;0.26536024;-0.111198455;-0.03622872;0.030354124;-0.05857242;0.060061056;-0.010334882;-0.06454456;-0.036008764;-0.021880183;-0.12988795;0.16332363;0.23478316;-0.044482168;-0.04831981;-0.037657496;-0.08909687;-0.043844283;0.12280093;-0.029149499;0.03762463;-0.17907684;0.350083;-0.0733578;0.15604153;-0.04701633;-0.17187358;0.052596945;-0.13195059;0.009772005;-0.029318467;-0.043425072;-0.027112072;0.079988025;0.24011336;0.0031755294;-0.39148644;-0.024044603;0.012199244;-0.042340104;-0.0145024555;0.002516305;-0.085140996;-0.11197489;-0.045778196;0.000889728;0.07357982;0.0575211;0.2321313;-0.010808571;0.05728482;-0.21995132;-0.3607939;-0.1421478;0.0674865;-0.33537236;0.00280323;-0.06330906;-0.006493338;0.09700326;-0.0026123235;-0.009175393;0.11264457;-0.019172944;-0.20507656;0.03584702;0.006149538;0.117212504;0.18243563;0.1558558;-0.24439727;0.10703846;-0.11391983;0.02460496;0.1121994;-0.019674776;0.05240947;-0.2686935;0.11031172;0.022276333;0.100296296;0.13155074;0.2724571;-0.3030656;-0.10212492;0.19662403;0.1528822;0.16799675;-0.012969437;0.14261131;0.056141827;0.030811045;0.010098565;0.06990481;-0.10236109;-0.11778004;0.058044564;0.012884534;0.05711999;-0.027086072;-0.07058013
0.29411253;-0.0527389;0.012861554;-0.19158773;-0.014379488;-0.03546527;-0.010058883;-0.052412402;0.20082048;-0.044241533;-0.007715685;0.056481715;-0.015291544;-0.052711714;0.1352425;0.06221535;-0.0069720754;0.27907506;-0.007726347;-0.019723576;0.13984479;0.029724156;-0.14877628;-0.071354724;-0.045858443;-0.108690806;0.045385122;0.01649949;-0.14402603;-0.019890351;0.12923653;0.33975935;-0.2929174;0.024952548;-0.030377492;0.062284593;-0.039145242;-0.2747843;0.061656155;0.14315602;0.26752675;0.07427984;-0.053519342;0.24318008;0.20670316;0.18757178;0.034236915;-0.0780702;0.055542156;0.285011;-0.0047320616;0.10148582;-0.10306362;-0.49678054;0.06737916;-0.011355968;0.14854814;0.22686477;0.0093996925;0.0152588645;0.05404461;-0.044773705;0.01976965;-0.068913855;-0.21925157;0.1876997;0.047303595;-0.10014919;-0.074779905;0.01813772;0.107621364;-0.026380133;-0.1404845;-0.10998173;0.0055415784;-0.033054773;0.043333944;-0.16076376;0.030535799;0.09800968;0.031506125;0.060274582;-0.038334403;0.21224603;0.26856086;0.20385382;-0.05082192;-0.13513447;0.047181442;-0.018071331;-0.2637305;0.02934029;0.08491294;0.020173417;-0.25178838;0.1291796;-0.19430993;-0.055376265;0.038006693;0.13362503;-0.10912653;0.04511823;-0.064991504;0.10991663;-0.080377944;0.24981;-0.115692616;-0.10328616;-0.009781168;-0.27447906;-0.13537817;-0.1390866;-0.006251497;-0.34403515;0.1601062;0.009485886;-0.023819389;-0.14997527;0.11317604;0.05386051;0.1659101;-0.0793936;0.20987739;0.031191083;0.052147187;0.037767377;0.1510807;-0.1310389;-0.0003103001;-0.4389605;-0.07367958;0.28057146;-0.013914508;-0.05449093;-0.011259553;0.010940886;-0.08880933;-0.01979019;-0.20198876;-0.051770978;0.03555848;-0.34566173;-0.10885491;-0.0021754962;0.12466682;-0.034099836;-0.08266993;0.00861431;0.10061203;0.033870187;-0.07097923;-0.18383999;0.013974223;0.029710675;-0.022981422;0.11734617;-0.021570483;0.057362832;-0.034683533;-0.014465778;-0.08950188;0.112179056;0.04780787;-0.012588499;-0.006707587;-0.07813232;0.05976427;-0.12621783;0.008525192;-0.09807215;0.1270051;-0.043636132;0.09577216;0.13131005;0.17661177;-0.01380732;0.08810796;0.2350321;0.056463175;0.002314297;0.048164044;0.07063104;-0.0015276083;0.23747441;-0.008147142;0.14675197;-0.019638857;-0.11150658;-0.10155384;-0.05638798;0.29773962;-0.06014147;-0.11407741;-0.007757983;0.16588587;-0.34238955;0.23125327;-0.14937188;0.08277413;0.07077573;0.07477411;0.2216231;-0.07560256;0.4579023;-0.023264509;-0.11026827;0.07995676;-0.18115109;-0.13005647;-0.029556962;0.11813964;-0.4237563;-0.168099;-0.015392917;-0.028039321;0.004182189;0.22331154;0.16718344;0.054643437;-0.08439769;0.07362649;0.15422648;0.00806037;-0.036777467;0.26639375;-0.13116036;-0.27752116;0.068926185;0.3236907;-0.05010454;-0.15722384;0.09812398;0.07677335;-0.09972072;0.0063655907;-0.18670917;0.036991164;0.0215194;-0.2773098;0.051372707;-0.106829025;0.09359271;-0.18609703;0.028155312;-0.23151234;0.1374369;-0.030282322;-0.030296687;-0.06860664;-0.057919707;0.015962634;-0.06991426;-0.034875777;0.21486588;-0.03025882;0.053024758;0.27096072;-0.01863585;0.022996435;-0.039287813;-0.14498155;-0.09875703;0.05749317;-0.04779691;-0.0540528;-0.08459278;0.14387119;0.07167147;0.11780928;-0.065953806;-0.15156795;-0.28195524;-0.23253135;0.017003946;-0.046657916;-0.07037899;-0.07656757;0.106306404;0.054166015;0.0064308736;-0.033183884;0.28260586;-0.24328664;-0.026002616;-0.117631674;-0.06929868;0.031356636;-0.10188876;-0.008319;-0.07444681;-0.2717611;0.07037679;0.18579037;-0.036296815;-0.14716098;-0.19431493;0.065753564;0.15730079;-0.0031864992;-0.009896723;-0.050270543;-0.05338888;-0.0012428918;-0.1931157;0.03207101;-0.19323833;0.060912166;0.033487596;0.020942818;-0.013243254;-0.072886534;-0.0060526715;-0.059329133;1.1833966e-05;-0.03994628;-0.07399381;-0.44274446;-0.0405167;0.03628624;0.0017205015;0.0027663892;-0.04561105;0.09865666;-0.087150514;0.030590935;-0.06403867;-0.038827766;0.044423904;0.18737884;0.017051894;0.00274326;-0.022803415;-0.042292356;0.01931687;-0.13163005;0.032368697;-0.4288699;-0.18101673;-0.14111508;-0.23100443;-0.0056165997;-0.1073614;0.06777785;-0.2625455;0.09389318;-0.23398396;-0.14409761;-0.15792054;-0.119484976;0.005840939;-0.009186025;0.3468075;0.105534956;0.11988376;0.014253828;0.09907856;0.14398238;-0.050168123;-0.15770629;0.062505364;0.00199919;0.035225637;0.028749278;-0.071628205;-0.070872985;0.06196402;-0.02070979;0.030560602;-0.07745678;0.014242997;0.051773936;0.05438156;-0.017141111;0.05706677;0.20907295;0.06791941;-0.011604834;-0.15120752;0.39831296;0.25252828;0.25182784;0.010500388;-0.037465163;-0.053212628;-0.06020532;-0.03955549;-0.09081065;0.1802309;0.13079546;-0.15153164;0.02127696;0.0112775965;0.0053998833;0.19710328;0.026835525;0.15822469;0.042944837;-0.081858225;0.0067354254;-0.06883119;0.09543375;-0.16707078;0.28692198;-0.0073193065;-0.10400081;0.026476067;-0.14808165;-0.09590793;-0.14705591;0.049512703;0.027644861;0.10870688;-0.3325526;0.02095303;0.0064893803;0.3137656;-0.04036283;-0.12580325;-0.16950776;0.03325177;0.0029093206;0.008131812;-0.092951104;-0.08910922;-0.049096625;0.09563916;0.05206559;0.174704;0.012501011;-0.01924842;-0.083920486;-0.03428492;-0.2634299;-0.109136626;0.18641342;-0.09515747;0.0023332331;-0.0069296015;-0.22404636;0.03410875;-0.010309204;-0.014387714;-0.08071088;-0.23454139;0.05151738;-0.035896786;0.03632959;0.13067476;0.033592552;0.046821184;-0.037039496;0.29737008;0.015036168;0.22591543;-0.0033657034;-0.02940185;0.3115189;-0.16752167;-0.12867369;-0.10885567;-0.07008232;0.04612633;-0.18843362;-0.014858517;0.01990833;0.07679092;0.056125928;0.008382708;-0.14394228;0.11038359;-0.012848009;-0.15462363;-0.053386953;0.059282582;0.44387314;0.20370571;-0.080332726;0.05364023;-0.046849545;-0.00956625;-0.016370157;0.10862564;-0.0090634115;0.019524034;0.023687113;-0.1276437;0.09856284;0.16547917;-0.08303052;0.13954955;-0.26430142;0.064826965;0.05970588;0.019609481;0.04143155;0.014751734;-0.22396949;0.41762316;0.039378073;0.21896163;0.038521975;-0.24367213;-0.009990061;-0.12644427;-0.032558054;0.0938967;0.007153262;0.029380945;0.063002944;0.2555146;-0.15213415;-0.17629212;0.009410216;0.018077109;-0.051464558;0.05158842;0.05959442;-0.11092542;-0.0113451835;0.011644131;0.17684677;-0.026994564;0.18121094;0.270046;-0.025545793;-0.04346672;-0.22349297;-0.416724;-0.116539665;-0.05784247;-0.275796;0.08703576;-0.12350544;-0.075892076;-0.097165346;0.06793665;0.030243598;0.017103283;0.10551267;-0.32489324;0.0033582202;-0.007277759;0.038557615;0.194186;0.26129755;-0.275264;0.010118745;-0.10571771;-0.0071854573;0.11091975;0.081714295;-0.13648601;-0.26781666;0.082218654;0.016207293;0.14222445;0.1858641;0.1212152;-0.31700006;-0.19012164;0.138178;0.036249958;0.087077305;-0.06793336;0.25542906;-0.019860659;0.04340396;-0.054300714;-0.02894243;-0.1249032;-0.05925903;0.15606022;-0.09048368;-0.024653194;0.019244002;-0.09092387
0.22682649;-0.16593464;-0.006246544;-0.123181276;-0.056959417;0.004732578;0.0056024827;0.022783246;0.099699266;0.09006071;0.035533667;0.093577765;-0.029997362;0.04404216;0.08484223;0.0034110069;-0.013295319;0.30838275;-0.022712084;0.07272502;0.17731524;-0.0018680772;-0.14750466;-0.05648078;0.0045261416;-0.093921304;0.039071407;0.20389844;-0.1864863;-0.032260988;0.07576434;0.2997861;-0.17594868;0.035934407;-0.04153878;-0.05406962;0.01689589;-0.3426818;0.26411664;0.0007413142;0.19815706;0.030913305;-0.21742629;0.0761609;0.109343916;0.16515283;0.016890917;-0.011502499;-0.04070242;0.35729864;0.0051352493;0.0915581;-0.003851595;-0.40967578;0.06996785;-0.027758652;0.19064367;0.30861336;-0.09493091;-0.010573595;-0.026200842;-0.053680547;0.016249336;0.013150922;-0.2480782;0.09683221;-0.012112068;0.06866262;-0.005585641;0.040410552;0.06868216;-0.01952406;-0.1575403;-0.096772835;0.012881396;0.04483688;-0.06124308;-0.15698092;0.031207977;0.15626742;-0.057541266;0.15775949;-0.010055198;0.20555733;0.20172755;0.19301607;0.0025475891;-0.058468714;-0.035286475;0.03136936;-0.2917531;0.06264527;0.024969526;0.17196876;-0.20680387;0.14593206;-0.19274166;-0.018232046;-0.0050420486;0.09814987;-0.20656408;0.026245132;-0.07606332;-0.0014347389;-0.12898813;0.2144039;-0.062603846;-0.07703161;0.10124078;-0.29611892;-0.15969339;-0.27327505;-0.017510267;-0.23967941;0.01033867;-0.010167834;-0.06442981;-0.2402473;0.066746235;0.0677088;0.11172131;0.0003386023;0.06371745;0.029857835;0.02276561;0.089860454;0.059882313;-0.058069482;-0.11411435;-0.3482323;0.031998433;0.14763047;0.09394544;0.023876289;0.06274856;-0.0059373393;-0.072460815;-0.0055855457;-0.15152863;-0.0056547904;-0.044221465;-0.21882582;0.05964152;0.08455525;0.081148386;0.0047949874;-0.092805386;0.035990406;-0.03714318;-0.036549985;0.06280911;-0.02561801;-0.00593885;-0.030837642;-0.0031236887;0.045263447;0.037161984;0.15941149;0.02773801;-0.058748048;-0.012253916;0.19651079;0.0016003355;-0.017425818;-0.06208565;-0.064068936;-0.04490826;0.043354776;0.1547914;-0.050441764;0.15164441;0.03110708;0.15874344;0.1560472;0.14143819;-0.074167795;-0.014306371;0.18539724;0.05368592;-0.010584081;0.047480043;0.023235017;0.10092819;0.016398532;0.02023445;0.030609658;0.043218;-0.26535612;-0.082614645;0.058087908;0.04349781;-0.07404547;-0.14587873;-0.040775754;0.2668453;-0.20060574;0.17162403;-0.12225676;0.066426024;-0.030011663;-0.061740823;0.2563319;-0.026629712;0.3916873;-0.040779114;-0.10147179;-0.08331328;-0.14290653;-0.035069905;0.12249494;0.18205817;-0.27398717;0.010466606;0.080121025;0.040018447;-0.0022284822;0.26009092;0.2386244;0.09235844;-0.026726052;0.17319241;-0.016777;0.016447226;0.0057763606;0.3177461;-0.08219819;-0.16879933;0.12421204;0.079753816;0.007181603;-0.20182028;0.16713847;0.13966325;-0.07330135;-0.0070805107;-0.14110662;0.11143547;-0.04208486;-0.030354608;0.02017425;-0.05792469;0.18017453;-0.18685369;0.026330236;-0.39491943;0.050592326;0.109652855;0.07190306;-0.022301182;-0.0458205;0.0730081;-0.02685019;0.08331957;0.08601024;-0.01706946;0.124272235;0.26463068;-0.065365784;-0.061129376;0.03386309;-0.0050693387;-0.0010509155;-0.032371696;0.016268382;0.076111935;-0.0022692475;0.027080799;0.020269591;0.068282805;-0.043841988;-0.07114531;-0.27433163;0.05066168;0.040755443;0.025627192;-0.040613547;0.07743539;0.0450504;0.02347455;0.051034395;0.024867319;0.30666107;-0.1828638;0.1346633;-0.26962346;-0.113000594;-0.014471921;-0.0040084207;0.00023259327;-0.047134034;-0.37814495;0.1728766;0.08078051;-0.020954462;-0.0488577;-0.31580588;0.106434375;0.04930565;-0.016753275;0.007496958;-0.11452648;0.01976615;0.035514437;-0.08109227;-0.0961673;-0.07240131;0.15500522;-0.024772847;-0.06164401;0.08755638;0.050386973;0.027797293;-0.011876664;-0.027305417;-0.048410416;-0.03750039;-0.513603;-0.011900012;0.22952083;0.0016887519;0.017520333;0.07550468;0.19232623;0.040064383;0.02015573;0.07459988;0.04063443;-0.03938443;0.05939986;-0.009311849;0.0016676544;0.018726138;-0.045340072;-0.022230634;-0.25305432;0.008389136;-0.4146333;-0.0692964;-0.009094941;-0.058170006;-0.057467137;-0.018491324;-0.090040736;-0.1548116;-0.03283055;-0.13753463;-0.20089614;-0.18863386;-0.065358095;0.040727053;0.02406192;0.23313218;0.11113237;0.024216384;-0.040862236;0.094678394;0.07253321;-0.03336901;-0.13619077;0.15336013;-0.04591873;-0.034267552;0.12862518;-0.01689479;0.00045833024;0.15546958;-0.10642499;0.05611857;-0.12305001;0.07437226;-0.06450263;-0.036893148;-0.04753938;0.16626844;0.14487919;0.05658528;0.026395053;0.010417575;0.32820314;0.22764686;0.11773458;-0.16006094;0.038625754;-0.017976617;-0.121640444;-0.1395682;0.064998545;0.10409211;0.11155126;-0.068930395;0.11891896;0.028016636;-0.010691106;0.12126915;0.059416648;0.11944635;-0.037286486;0.018292133;-0.029145518;0.04639483;0.05036886;-0.12452116;0.32215697;-0.042505324;-0.092392154;-0.0033732408;-0.09958737;-0.19899052;-0.09389907;-0.07357245;0.1534854;0.10208064;-0.23479429;0.061628018;-0.13518164;0.37492475;0.22671686;-0.04753919;-0.050844364;0.033296477;-0.062891684;-0.03945599;0.039967466;-0.09457591;0.06746098;0.013971667;0.027296428;-0.014419785;0.10788366;0.0043215044;0.054622468;-0.11241243;-0.25186944;-0.10672654;0.08348498;-0.12290618;0.006122509;-0.0037468378;-0.16583002;-0.012094582;0.041710872;-0.020667491;-0.059345055;-0.20327649;0.0038181953;0.0073733707;0.052465077;0.23480853;-0.029140051;0.0019590526;-0.013154185;0.29534996;-0.009780437;0.29675096;0.048892878;-0.0011401759;0.34133956;-0.11920438;-0.116325356;-0.12361848;-0.06320793;0.07695676;-0.13957782;-0.02356899;-0.013569506;0.18632679;0.13884817;0.021497287;-0.15530819;0.09140963;-0.05145627;-0.21497121;0.06682961;-0.03515936;0.29508612;0.15685123;-0.10875778;-0.031298965;-0.03737462;-0.037464768;0.0057473057;-0.03853403;0.05226298;-0.022911988;0.06177979;-0.13920574;0.26337364;0.035158083;-0.059748497;0.15784602;-0.2813234;-0.00052844605;0.005962618;-0.039771117;0.012250148;-0.057384226;-0.23017278;0.29705295;0.1322963;0.08654109;0.0042805914;-0.15166686;0.16446799;-0.03330874;0.0049794964;0.18626818;0.044295326;0.0061575416;0.022636384;0.1660037;-0.30596566;-0.23285505;-0.017104574;-0.018749665;-0.024447406;-0.03915468;0.12726621;-0.032635283;-0.13210157;0.03489968;0.21259083;-0.0008621776;0.12583277;0.27905232;0.015214994;0.045259617;-0.25413483;-0.4630897;-0.14672212;-0.0021084459;-0.14582755;0.22246464;0.0149671985;0.101958305;-0.032351673;-0.035572562;-0.031477172;0.18707646;0.07526588;-0.29525438;-0.01162063;0.012323646;-0.06101794;0.24081221;0.29503065;-0.11164439;0.023785612;-0.20468064;-0.0019575262;-0.02834617;-0.042402886;0.022518901;-0.204018;0.16351947;0.029555343;0.22721235;0.23043595;0.18217687;-0.19974774;0.0016945952;0.26588288;-0.0032344803;0.078724526;-0.0039098;0.28881234;0.08971524;0.035188664;0.04656475;-0.0038271165;-0.171001;-0.13481064;0.03805397;0.03945068;-0.010804595;0.0063971616;-0.052034687
0.108290665;-0.091432154;-0.061067935;-0.02691851;0.07256319;-0.047843512;-0.025737979;0.02641585;0.035852596;0.028069073;0.09447994;0.11194243;0.059019506;0.0047870507;0.07131695;-0.019261718;0.04348801;0.16534837;0.1309261;-0.011125396;0.1273753;0.0043565705;-0.0380775;-0.08402514;0.056656647;-0.042094488;0.0053435783;0.28069142;-0.10514898;-0.06312731;0.1281314;0.42011216;-0.11101662;-0.02364214;0.027665613;-0.036967907;-0.04892422;-0.28456393;0.1789151;0.002819884;0.18236066;0.029986212;-0.13531426;-0.0078070066;0.04696055;0.34599376;-0.062276483;0.07930045;0.019764237;0.27939492;0.03156279;0.21524599;0.035423093;-0.39776537;-0.12562652;0.05184966;0.3512187;0.16345924;-0.098887675;0.024231704;-0.051182404;-0.09858457;1.5408397e-05;-0.0041112853;-0.14848849;-0.013230269;0.016668025;0.020022336;0.11855257;0.044849515;0.11854685;0.058243778;-0.16059648;-0.06265949;0.05729085;-0.032924257;0.019486869;0.00076916994;-0.06620908;0.16276288;0.029427603;-0.009285882;0.0068520377;0.16293372;0.21731149;0.23187187;-0.008228268;0.13197778;0.05845502;-0.029487833;-0.25526688;-0.025009342;-0.09926188;0.1965015;-0.16318402;0.25919947;-0.35626134;-0.13814095;0.100331545;-0.020817457;-0.04273735;0.00013009521;-0.27037406;-0.0023174859;-0.105668575;0.13858293;0.016782831;-0.089843355;-0.0057694456;-0.12747599;-0.08347137;-0.2991384;0.027309604;-0.21044978;0.113372006;-0.0035080458;0.052941274;-0.11373011;0.032145537;-0.0902652;0.05912201;-0.2145282;-0.081322104;0.09950575;0.041602973;-0.0053086546;-0.12537901;0.115641765;-0.06847906;-0.09545106;0.28612792;0.2612912;0.082023114;-0.01893647;0.094105;0.014245072;-0.008987532;0.018948665;-0.30045536;0.05495843;0.038510147;-0.2865355;0.043108054;-0.11746368;0.16939783;0.004451025;-0.011298574;-0.023552425;-0.13356362;-0.1053972;0.015966022;0.10407567;0.019138178;0.033411756;0.051627032;0.008153966;-0.12655394;0.09211431;0.044827513;-0.035722326;-0.024119811;0.07167315;-0.10918369;0.0046461914;0.04270901;-0.08809913;0.030819917;-0.018563794;0.116258904;-0.05666409;0.09204959;0.01350632;0.021439282;0.16098996;-0.069152944;-0.13715176;-0.010730588;0.1464455;0.082738474;0.015663868;-0.028715393;-0.057149235;0.006825863;0.037010856;0.008020245;0.03450369;0.011920384;-0.24090008;-0.021183247;-0.027970303;0.10328049;-8.756942e-05;0.06241004;0.013923828;0.2284048;-0.26694998;0.1609506;-0.15332228;0.020653967;0.1721981;0.047729384;0.32116234;-0.059121303;0.46171436;0.07330517;-0.008460073;-0.10726522;-0.16176116;0.10859651;0.23478767;0.18951406;-0.25900492;-0.18572603;-0.03683425;0.014828564;0.0066090263;0.029255416;0.16803879;-0.08911579;-0.13211177;0.09591425;-0.025429131;0.09871917;-0.02439325;0.17418754;-0.053019695;-0.18426712;0.110525146;0.098819606;-0.03784564;-0.100328065;0.13064541;0.069208704;-0.08490231;0.08159924;-0.17958786;0.10997982;0.03167186;-0.14003055;0.00954968;-0.04699699;-0.051446415;-0.19362733;-0.0634846;-0.23492005;0.18811639;0.106041186;-0.049384817;0.04072044;0.004686224;-0.02134395;0.012166918;-0.042573996;0.15042266;0.081472486;0.061388794;0.3634037;-0.086144276;-0.06974134;-0.0057529514;0.05376105;-0.04370551;-0.01331807;-0.016045228;0.027676791;0.06375527;-0.15356612;0.035256363;0.020663174;-0.11704961;-0.10468006;-0.26445165;0.00817281;0.06915127;-0.036134146;0.07350048;-0.11170994;0.051168084;-0.07846764;-0.05883361;0.025224501;0.26880178;-0.17402673;0.14129533;-0.052190173;-0.14997515;-0.060359366;-0.17789981;0.01326325;0.0029068766;-0.25430468;0.075633526;0.049476445;-0.07829596;-0.16324912;-0.24760288;0.26757735;0.16036308;0.027071632;-0.044456974;-0.06385463;0.03391512;-0.025335472;0.14627247;-0.009576975;-0.0024395392;0.19896762;0.02256826;-0.09599246;-0.12451436;0.101302676;-0.018753193;-0.056068666;0.02829611;-0.07904578;-0.072583586;-0.5257572;-0.22138129;-0.0140643595;-0.0033411758;-0.033284284;0.059611835;0.23854421;0.009787627;-0.041897573;-0.0011229551;0.011991243;0.0060463976;0.13273083;0.044851337;0.023969365;-0.03629728;0.04511419;-0.03656118;-0.2425168;-0.06176506;-0.34683943;-0.06675199;-0.033948038;-0.020114008;0.07148247;-0.122726604;0.014837555;-0.079058655;0.053561922;-0.1513543;-0.1162811;0.0841301;-0.010307625;-0.08703855;-0.0062694177;0.16382128;0.22797519;0.15797389;0.06735662;0.12793864;0.22459161;-0.039685745;-0.12695804;0.18881492;0.04706722;-0.016554104;0.030063465;0.0905197;0.044290498;0.072269335;-0.089694254;0.16240646;-0.08445155;-0.0009917438;0.055579897;0.022765545;0.030549373;0.19980486;0.12956639;-0.023040548;0.028680785;0.095390655;0.24773578;0.23493905;0.32776955;-0.16246834;-0.18624729;0.16006307;-0.2600994;0.116186485;0.07701011;0.019992245;0.02508558;-0.14370003;0.031097202;0.009917621;-0.0152394865;0.18015188;0.025043314;0.1635381;-0.076602295;0.041792393;-0.010031904;-0.0049895933;0.04542383;-0.043402307;0.30870485;0.04169628;-0.09569637;-0.03212232;-0.2607401;-0.3809717;-0.059250034;0.03143239;0.07744487;0.16728924;-0.089097045;-0.08162283;-0.17010036;0.3423268;0.20994721;0.029553715;-0.06879345;0.17057703;0.06669368;-0.017708173;0.03417616;-0.14335419;0.053354256;0.21947259;-0.07180894;-0.14300355;0.20501247;0.045383394;-0.054617513;0.048510768;-0.15103081;-0.11272847;-0.008532715;0.0014345052;-0.014175866;0.10666372;-0.30605698;-0.017989162;-0.044357333;0.11301016;0.033347134;-0.13532795;0.051210396;0.016438825;0.03355388;0.17488188;-0.053132366;-0.0361854;-0.052991122;0.20426093;0.014943035;0.20823802;-0.030811615;-0.0068703895;0.26984164;-0.039695635;-0.17101271;-0.11339293;-0.070514016;0.05873372;-0.106698945;0.03919699;-0.01011264;0.16018718;0.21743844;-0.008038122;-0.12445606;-0.12096512;0.04380155;-0.13482457;-0.045445893;-0.016648898;0.40764847;0.28725564;-0.07559486;-0.020056799;0.036883533;0.07418134;0.035688482;-0.0644601;0.023131322;0.009101156;-0.05408202;-0.1703838;0.19418107;0.14035779;0.016473133;0.0924826;-0.19629268;-0.118019514;0.011299547;-0.079425655;-0.00060894893;-0.028254578;-0.19329032;0.20110872;0.076624796;0.06365008;-0.018477269;-0.17909987;0.12956128;0.050727114;0.015572732;0.10613738;-0.027706062;-0.065555446;0.06349858;0.05075003;-0.21163762;-0.1747657;0.029757293;-0.06669915;0.005812239;0.028125914;0.09567913;-0.005899078;-0.002739739;0.02785879;0.18356428;-0.04582788;0.10987728;0.303461;-0.015962195;-0.009335354;-0.38648424;-0.41020545;0.021367488;-0.050441124;-0.060755447;0.17890875;-0.054851897;-0.04021113;0.006667811;-0.021809995;0.06574737;0.081187606;0.12919442;-0.13190648;0.062304933;0.021676816;0.011944657;0.26334086;0.32540187;0.06807653;0.039437078;-0.13088894;0.021542186;-0.06652546;-0.023390582;0.10178439;-0.008672836;0.22057545;0.005256159;-0.0101508275;-0.022693418;-0.023737552;-0.1495918;0.011043981;0.20928192;-0.15385044;0.091997996;0.06739523;0.13453794;0.085349426;-0.17099191;-0.02044977;-0.04168404;-0.15548243;-0.17616095;0.17678832;-0.16577718;-0.12801236;0.04363494;-0.20882362
0.18790948;-0.18594064;0.05108018;-0.026822882;-0.016625285;-0.032014783;0.039785955;0.0059252637;0.09287262;-0.06523131;-0.0015532414;0.024503745;-0.044470128;-0.0527878;0.097359076;0.021959629;-0.049851645;0.12595344;0.07924131;0.077331245;0.1683093;0.0065733436;-0.052715074;-0.25373587;-0.08343594;-0.07390467;-0.0542003;0.15685907;-0.11812147;0.010445258;0.17559084;0.255008;-0.03672016;-0.02269204;-0.018379485;0.084123924;0.047880135;-0.23643157;0.11569484;0.083624;0.20701025;0.01112871;-0.21492168;0.023067897;0.042998686;0.27033266;-0.04351975;0.072422646;-0.03539164;0.16718253;-0.02338605;0.2636619;0.038232528;-0.44752058;-0.15661395;0.0011155125;0.2825753;0.13804427;-0.084912054;-0.03998537;0.06177738;-0.080951184;-0.024666464;0.019247131;-0.13394926;0.04922081;0.0021169602;0.047721967;0.27220997;0.007008924;0.056804463;0.013293709;-0.11121963;-0.1454394;-0.012800756;0.0022747747;-0.13796903;-0.08960411;-0.02976523;0.061676234;0.022573136;0.15837537;0.03949293;0.08917117;0.25327483;0.2042045;0.011283811;0.10635092;-0.0053206915;0.041241158;-0.24992315;0.025411379;0.027103012;0.124987185;-0.21197566;0.22433546;-0.32198268;-0.009539684;-0.00089863053;-0.019359747;-0.04185973;-0.15509804;-0.15871699;0.06902147;-0.07774116;0.07512773;0.041059267;0.01794038;-0.06550012;-0.06287577;-0.008335318;-0.24636924;0.008703954;-0.16096807;0.08247818;0.00858316;0.057593208;-0.004407729;0.016484754;-0.0661634;0.067230836;-0.08439706;-0.15382142;0.005774515;0.11355655;-0.029829916;-0.12432319;0.03731109;-0.10555151;-0.18590188;0.18794835;0.3106082;0.08523026;0.01777635;0.19316906;-0.0027680492;0.012145809;0.06740011;-0.41192293;0.114201106;0.035499733;-0.330498;0.16827391;-0.16817649;0.054686937;0.029524148;0.09495111;-0.010797336;-0.037045434;0.008834183;0.025362972;0.12062758;0.0152664725;0.05322669;0.12220456;-0.026702022;0.076176144;0.18692559;-0.044205613;-0.03404471;0.053019315;0.16588345;-0.22035341;0.005755437;-0.015787782;0.037428968;-0.0022374424;-0.08058515;0.07288258;-0.0556578;-0.032911815;-0.048256036;-0.11321058;0.1340485;-0.172471;-0.071405925;-0.018489992;0.19718002;0.14963828;-0.003849304;-0.032226756;-0.012223082;0.08013718;0.21518111;0.027086163;-0.009639898;-0.019601788;-0.08604758;-0.14071244;-0.041408423;0.018732507;0.07687771;0.02400906;0.031645384;0.2434356;-0.05275086;0.20963642;-0.12569652;0.19880559;-0.090904936;0.15003513;0.31682473;0.029334597;0.17820594;0.021924803;0.056885593;-0.15804753;-0.11421809;0.0034752036;0.24254495;0.28940696;-0.3270911;-0.04790051;0.023396762;-0.019218443;-0.025362814;0.023841621;0.04137552;-0.09386535;-0.0664321;0.08802051;0.052088622;0.014425406;0.014013054;-0.043020543;-0.08968913;-0.10561537;0.1818942;0.17225236;0.019834766;-0.062154967;-0.024957314;0.06839985;-0.023062067;0.0074378788;-0.21667044;0.12410614;0.022142133;-0.16214317;0.122524306;-0.12331516;0.05498701;-0.25418893;0.029219816;-0.3943992;0.1366216;0.10312506;-0.07427263;0.036597077;0.03892815;0.048312657;0.049772616;-0.043262653;0.17029472;-0.034008473;0.030864941;0.32528067;-0.010863179;-0.052661482;0.041427854;0.1185823;-0.19000383;0.008768922;0.036962975;-0.05847615;-0.0008196273;-0.33150682;0.085945696;0.13570829;-0.06450731;-0.061524123;-0.31175873;-0.11669007;-0.03607525;0.032463368;-0.035170916;-0.1578339;0.16154842;0.0367194;0.069630876;0.0397832;0.10764304;-0.20900512;0.21393146;-0.026579402;-0.12525612;0.033958722;-0.2192619;0.021285463;0.080788426;-0.21572107;0.1635222;0.18133926;-0.16387816;-0.07998639;0.009801247;0.3148748;0.20634042;-0.045763124;-0.040025715;-0.06519952;-0.06978522;0.014834101;0.0070889145;-0.10633463;-0.04164342;0.054707237;-0.04807743;-0.15417722;-0.16946702;0.122368895;-0.033226803;-0.01203003;0.025987957;-0.12720726;-0.10190179;-0.45759374;-0.10186059;0.03065675;-0.03675187;-0.14930296;0.10905726;0.2386491;0.024959005;0.03893707;-0.13880044;0.033611964;-0.04072936;0.085745074;-0.004796489;0.042813662;-0.0033175691;0.041510012;0.050421096;-0.30152395;-0.005137518;-0.2548458;0.055249296;-0.04738637;-0.03167098;0.0055333115;-0.030308995;0.006302418;-0.010527085;0.025668183;-0.022088477;-0.11835237;0.029633954;-0.010455147;-0.012098114;0.05047472;0.30747896;0.1919836;0.09092828;-0.036819503;0.12170935;0.22979513;-0.23466244;-0.08782006;0.20775831;0.115783796;-0.043264303;-0.028222378;0.07424824;-0.055745304;0.1257285;-0.18653932;0.14229155;-0.14665242;0.13799454;-0.028213426;-0.007278762;0.061981063;0.040227547;0.14049812;-0.03475257;0.020934394;0.109455906;0.3504176;0.13876002;0.38461262;-0.117654435;-0.18621545;0.14995202;-0.2668159;0.061967764;-0.0018152458;0.105940714;-0.08656726;-0.24422115;-0.08686472;-0.003886319;0.035227712;0.32377934;-0.064072415;0.18846682;0.05903738;0.028635602;0.04718377;-0.070739664;-0.010116751;-0.05486095;0.32069364;-0.07587597;-0.16058443;0.022858419;-0.14364247;-0.2599068;-0.11668606;0.054947466;0.10455144;0.23677419;-0.16672058;-0.042146895;-0.20307949;0.4830177;0.16673689;0.039187293;-0.16595703;0.029560408;0.04972535;-0.09091757;-0.005870309;-0.049291175;0.13719966;0.17966749;-0.09790698;-0.25175488;0.1689116;0.057085656;-0.02022645;-0.0692102;-0.116398014;-0.09722893;-0.1581874;0.05589632;0.052964542;0.02004714;-0.27310306;-0.0402767;0.057230543;0.012518262;0.017835615;-0.112242535;-0.08320568;0.003942022;0.015985975;0.15139173;0.048158944;0.04210073;0.034304045;0.32141235;-0.032289576;0.12481171;0.06284995;0.05541783;0.21630041;-0.08578934;-0.19138964;-0.12380616;-0.2668962;-0.028315455;-0.035285156;0.016322969;0.03983943;0.1738353;0.020838777;-0.0366966;-0.14458019;-0.19780123;-0.21967727;-0.15518622;0.012231026;0.10656467;0.31653845;0.10655359;-0.07909625;0.0036617152;-0.012132759;-0.08269348;-0.027842466;-0.05138853;-0.05712364;-0.034675907;-0.12209931;-0.25543928;0.07127527;-0.027081357;0.14821883;0.016907474;-0.104900055;-0.066343285;-0.053840525;-0.0065359557;-0.067353375;-0.00011176961;-0.16737276;0.19678727;0.06955178;0.06298228;-0.02205662;-0.1492766;0.2052881;0.039500095;0.026897412;0.07501037;0.04623515;0.031588122;0.030583698;-0.093650416;-0.27918229;0.006285712;-0.058252327;-0.014370599;0.16182242;0.0021182722;0.16748488;-0.10713236;0.049408305;-0.035102054;0.15488769;0.05103586;0.048379876;0.38956186;-0.004770346;-0.06814273;-0.3262674;-0.45908156;-0.019503586;0.0349046;-0.170068;0.24414991;-0.010338303;-0.17579214;0.027129628;-0.045776147;-0.083175495;0.09616307;0.14790289;-0.29891998;0.04355822;0.025543222;0.06131385;0.09471337;0.25398976;0.22566023;0.00915251;-0.25654274;0.00853834;0.030863736;0.037537407;0.18180238;0.074556835;0.13406439;-0.05389653;0.09364292;-0.023153502;-0.02118975;-0.03245865;0.018158924;0.1684423;-0.032337368;0.029603267;-0.063169144;0.012975506;0.10972777;-0.16481774;-0.04061624;0.06570122;-0.031630613;-0.22962914;0.13837948;-0.17873468;-0.0052536037;-0.04372435;-0.14177075
0.20481642;-0.30008456;0.030660449;0.021434184;-0.0680722;0.023679633;0.021473847;-0.022568054;0.15673164;-0.05893829;-0.02441365;0.020740537;0.024016418;-0.0079504;0.23619902;-0.055652685;0.009073552;0.19679563;0.07957408;-0.0042913733;0.16072722;0.14390942;-0.11781437;-0.11746203;0.06307569;-0.06217232;-0.0137992585;0.12584037;-0.16943614;0.014065605;0.17594545;0.3390294;-0.07054413;0.03152995;0.04953707;-0.072669566;-0.047242567;-0.12626274;0.17666437;-0.041209776;0.25019172;-0.015194445;-0.027396524;-0.042670455;0.08937223;0.17411263;0.04182016;0.07173137;-0.013688681;0.184338;-0.011773844;0.25028688;0.10490574;-0.36952034;-0.055839058;-0.007319132;0.2928013;-0.0041835094;0.06995421;-0.015592858;-0.04580709;-0.10961558;0.04054147;0.011882194;-0.09048699;-0.15511756;-0.022483006;-0.08224989;0.17579022;0.012592836;0.039366387;0.022246622;0.08712538;-0.027623655;0.02184371;0.027349582;-0.19264947;-0.14338297;0.06696293;0.13556217;0.018417457;0.19429068;-0.03434772;-0.011699337;0.13066055;0.14032866;0.050366648;0.14172383;0.005590626;-0.022878427;-0.20693658;-0.043478582;0.049217712;-0.045926202;-0.112498544;0.21261954;-0.10150457;-0.007906871;0.175914;-0.07769511;-0.20155224;0.009248537;-0.10511191;0.1099802;-0.1111214;-0.006581596;-0.02126239;0.14087935;-0.10828579;-0.070594855;-0.06850502;-0.20850968;-0.007865097;-0.02863174;0.13573149;-0.0018059497;-0.056493096;-0.16488;-0.010386138;-0.04062243;-0.03559154;0.0470174;-0.12183664;0.027046524;0.115088515;-0.075172305;-0.17918047;-0.009039081;-0.22824189;-0.086752854;0.08827412;0.24956807;0.12057531;0.075989574;0.23592451;-0.039465472;0.028767776;-0.017554259;-0.33628765;-0.048135072;-0.007243006;-0.28348112;0.2727482;-0.11882669;0.06500668;-0.049083102;0.10856983;0.012811217;-0.100256965;0.014581181;-0.02593306;0.04716576;0.12000758;0.026163533;0.1735099;0.08776465;0.08001752;0.11498685;0.039757036;0.0060778223;-0.03984266;0.07781366;-0.04403242;0.036176775;0.06819906;0.088300094;0.01156045;-0.19400422;0.009349128;-0.010094568;0.12951997;0.013808676;0.011406187;0.12487911;-0.0750826;0.019853689;0.07132157;0.18697064;0.16910008;-0.03965899;-0.020147203;0.035016797;-0.13746844;0.06922649;0.0382279;-0.19491452;0.0075617903;-0.14282815;-0.053054687;0.04293493;0.07412635;0.10798303;0.029403476;-0.01083185;0.11228384;-0.15170318;0.17513025;-0.056571025;0.1975714;-0.05968571;-0.017207991;0.28797585;-0.0095003275;0.17733306;0.03766294;-0.19406801;-0.08316744;-0.09221143;0.086329855;0.2613887;0.20534939;-0.32210347;-0.18394364;0.06690288;-0.017736783;0.035575207;0.1546991;0.106233105;-0.14402062;-0.21909751;0.09526649;-0.058640715;-0.010892999;-0.020323785;0.13969766;-0.07382425;0.099004745;0.05387067;0.20464708;0.018071694;-0.07222365;0.09697349;0.112046584;-0.005891128;-0.06867739;-0.049715575;0.077498235;-0.036611356;-0.038074005;-0.1006949;0.022653857;0.035052534;-0.1783161;-0.0065366495;-0.41862237;0.17128205;0.11547066;0.006110422;0.0031405198;0.048216887;0.044540238;0.0057146726;-0.20727955;0.11206731;-0.0067441436;0.024111409;0.30966064;0.027970418;0.0035329196;-0.029956425;0.08197866;-0.008330396;0.024056943;-0.015285463;-0.0031920602;-0.08114199;-0.40055063;0.012784486;0.28781205;-0.011653855;-0.1265311;-0.2911854;0.012419688;-0.012558937;-0.008966474;0.044834405;-0.3928703;0.184031;-0.0068803374;-0.05232715;0.0028599862;0.1571597;-0.030126845;0.20643201;0.031371385;-0.13280845;0.008340686;-0.17083777;-0.06227842;-0.16012877;-0.13866046;0.22930117;0.004396815;0.0043898225;-0.25776276;0.041948576;0.22813118;0.01700398;-0.004772358;0.0050964067;-0.13090986;-0.065554306;0.05434271;0.056998245;0.041057553;-0.07735294;0.133986;-0.028146125;-0.020040309;0.10580326;0.09382563;0.029551443;-0.07863059;-0.012586354;-0.112623155;-0.020258144;-0.39122784;-0.33701596;0.072437815;0.013225791;-0.07905496;-0.098171234;0.27756312;0.0022288195;0.0035159625;-0.0856155;0.13319606;-0.0010869779;0.17568268;0.01726547;-0.0029424701;0.018430833;0.021746902;-0.049576264;-0.09775384;0.058315847;-0.48911852;0.061390407;-0.13760571;0.026683316;-0.04970797;-0.017612182;0.05725234;-0.030598707;-0.09469532;-0.064449914;-0.20197053;-0.024981663;-0.06081191;0.04454241;0.019994874;0.24997182;0.26394844;0.06607065;-0.01960912;0.02354234;0.14088155;-0.14525165;-0.004242541;0.21663786;-0.0047063315;-0.040075652;0.087250896;0.031742867;-0.057476174;0.02300466;-0.1689806;-0.057958838;-0.10413724;0.11866375;-0.014268514;-0.02040778;-0.08151648;0.008856037;0.30339795;0.049189817;-0.024411485;0.031935304;0.38210168;0.060482446;0.18957847;0.007802391;-0.018494666;0.085315794;-0.17942068;0.08796801;-0.068568416;0.05454926;-0.03632376;-0.22186086;-0.039045725;-0.036834434;-0.04110256;0.1702878;-0.076916374;0.31381485;0.018549986;-0.060106907;-0.012200957;0.036815688;0.059115503;-0.08905687;0.17050554;0.007052173;-0.16367845;-0.024805177;-0.145233;-0.39455807;-0.08767347;-0.044983927;-0.119055316;0.29576916;-0.1831617;0.016842939;-0.13797238;0.2950063;0.001842702;0.045978654;-0.06915226;-0.027254397;-0.046510465;-0.13073942;-0.00087556546;-0.11270517;0.08961302;0.21081397;-0.18370399;-0.044448648;-0.039303668;-0.040488306;-0.036832824;-0.08369801;-0.07580807;0.09051699;-0.0525287;-0.015928341;0.0030953363;-0.014031014;-0.25694063;0.012774043;-0.055897787;0.19388774;-0.05186425;-0.038798578;-0.05841321;0.025162164;-0.07972659;0.20533417;0.052181534;-0.03314472;-0.0896834;0.21405056;-0.02992587;0.06635237;-0.028629305;-0.0044237534;0.45465526;-0.029470276;-0.06746444;-0.17999265;-0.27469105;-0.052720234;-0.14844622;0.023239711;-0.038309824;0.050354484;0.040422503;-0.033000723;0.012220915;-0.1730717;-0.09312862;-0.17312422;0.024435237;-0.072099954;0.1921221;-0.030390728;-0.15356533;-0.0121630505;-0.00097145874;-0.021807423;0.026744325;0.039876264;0.07633915;-0.0045906305;-0.25784814;-0.18212838;-0.0131924115;-0.1354366;0.1959936;-0.12690088;-0.21395957;-0.113724306;-0.0124473395;-0.023776501;0.03325963;0.07189629;-0.2001903;-0.045521006;0.0063731596;0.21446961;0.0028317745;-0.12829977;0.03946818;0.30276456;-0.012254441;0.18455973;0.023701157;0.012841487;0.021798091;-0.022975877;-0.21258876;0.067339346;0.047261193;0.06465493;0.20864704;0.005974846;0.4126222;-0.08539515;0.16631658;0.009311157;0.17303689;-0.024070552;0.09368772;0.41784182;0.02415164;-0.00028560538;-0.26910397;-0.4172324;0.07474648;0.0021812285;-0.23368804;0.15382744;-0.0030332415;-0.057216905;0.033517063;0.036019497;0.03726947;0.09503311;-0.06745643;-0.04538037;0.013862998;0.012725257;-0.020346846;-0.122201554;0.1482022;0.19821323;0.038791787;-0.23125081;-0.0019166693;0.0038903758;-0.01282178;0.020674175;-0.05156748;0.07635356;0.011448705;0.024227377;-0.12310582;0.009312418;-0.06808406;-0.0033288312;0.16684686;-0.22706266;0.007779059;0.06601525;-0.118466735;0.041515473;0.024229748;0.023060353;-0.013975201;-0.094498165;-0.14619294;0.17592424;-0.1787784;-0.011569421;0.071422845;-0.14652161
0.0025886844;-0.38670403;-0.01424043;0.09154811;0.02599354;0.08274107;-0.09238287;0.020881237;0.054145195;0.039682306;0.04599935;0.058879375;0.013401688;0.031388197;0.016072439;0.042469963;-0.015870022;0.08841749;0.08503111;-0.016602818;0.10312183;0.19241057;0.023077145;-0.16840832;-0.0068475544;0.0070755165;0.041465186;0.3472543;0.052335817;-0.004496814;0.15725906;0.22481765;0.0076874685;-0.022027476;-0.06635058;0.0097847255;0.0766227;0.023475273;0.06123205;-0.0070340484;0.1299086;0.00037083606;-0.05246081;0.14641915;0.2044013;0.2150222;-0.016748946;-0.04205631;0.030865416;0.14248252;0.05868997;0.0029434543;0.109247684;-0.38797966;-0.12173842;0.0110663045;0.29947352;-0.04143455;-0.025847115;0.060102213;0.01496807;-0.0010306342;0.0033049718;-0.040216666;-0.12622337;-0.21053763;0.037441716;0.001367073;0.2114603;0.012144827;0.021625083;-0.01744847;0.016570266;0.13188836;-0.0061488464;-0.037052717;-0.2428166;-0.13165624;-0.04091206;0.13270971;-0.02678731;0.026852986;0.018290853;0.20864381;0.06740095;0.00031300666;0.017268892;0.041236214;-0.054260015;0.0037417412;-0.21073054;-0.021627853;0.016327266;-0.15103568;-0.019080041;0.14672348;-0.10990375;-0.007714752;0.026995264;-0.17442614;-0.08673081;-0.0704839;0.075058356;0.12850204;-0.15671301;0.12516701;-0.044316515;-0.026566373;-0.110141665;-0.021715775;-0.09734229;-0.31044954;0.025346441;-0.1920556;0.2240993;-0.058391143;-0.042326808;-0.14804867;0.018152634;-0.10222686;0.033262078;0.04586307;-0.12688467;-0.02789826;0.13572206;0.011838896;-0.14223474;0.10131604;-0.27423272;0.018518435;0.132216;0.19572997;-0.0052213515;-0.042492487;0.22712693;0.015825639;0.054278754;-0.024267344;-0.3155067;-0.005124796;-0.032638744;-0.14472416;0.1967926;0.0364619;0.063031524;0.008703817;0.19718558;-0.025495606;-0.19475159;-0.028534755;-0.042636473;-0.011648359;0.10914985;0.01652406;0.30415174;0.006574804;0.05311021;0.05043928;-0.07620471;-0.056367084;-0.06731167;0.108811;-0.20184772;-0.0014369404;0.057187494;0.13274853;-0.07533963;-0.08879909;-0.038842786;-0.1786956;0.1495335;0.039430782;0.03189085;0.1579552;-0.13381858;-0.0855154;-0.011003671;0.20165335;0.2298615;0.04959293;0.020730253;0.05538088;-0.1403995;0.052642014;-0.09118593;-0.058283657;-0.014524619;-0.006357625;-0.08699153;-0.025094114;-0.09203225;0.069683015;0.039227102;-0.019909222;0.17644295;-0.012864529;0.1823208;0.068893336;0.23009989;-0.08749732;0.04901604;0.3424522;0.09050157;0.2015075;0.061613094;-0.17921771;-0.03327589;-0.16576788;0.09774406;0.14239928;0.1572196;-0.29939345;-0.09847959;-0.01038998;0.04071214;-0.038208436;0.040679056;0.20125602;-0.082339056;-0.2980538;0.10132363;-0.0998208;0.03618165;0.04902102;0.16425179;-0.033572715;0.07039487;0.062177192;0.103060804;0.011613843;-0.08339663;0.09421299;0.10188209;-0.0074913097;-0.09039109;-0.09965413;0.08237207;0.06697289;-0.11706123;-0.067685544;-0.017294487;0.10405273;-0.16211808;0.0360321;-0.28582016;0.06388527;0.08352847;-0.1312273;-0.01962487;-0.031092515;0.097094096;0.0038425957;0.010982466;0.16409707;-0.008536341;0.13142382;0.28649262;0.043150578;0.038719214;-0.015113209;0.11235629;-0.25034362;-0.015066741;-0.015986182;0.04818493;0.04703812;-0.2630234;-0.023215659;0.24922949;-0.11453412;-0.053631615;-0.24139883;-0.024070127;0.13695727;0.019796755;0.04027456;-0.29689422;0.07458463;0.0005526792;-0.021654576;-0.032507736;0.19101362;-0.1267444;0.22383559;0.06848342;0.03726612;-0.052228365;-0.07182009;-0.0004337196;-0.0046740673;-0.14264978;0.30563545;0.01817887;-0.13701804;-0.07349382;-0.12507467;0.27626216;0.1877601;0.043450274;0.056224857;-0.12818667;-0.054273628;-0.054144587;0.12494323;0.16728093;-0.06504457;0.051574096;-0.048880763;-0.1662061;0.038511097;0.23246357;0.027290137;-0.10772455;-0.01334971;-0.18332712;-0.075572826;-0.41753775;-0.3251725;-0.07866964;-0.010891927;-0.15086551;-0.14391801;0.18248218;0.03334768;-0.037475646;-0.1376689;-0.04763152;0.020536145;0.1426558;0.01289361;-0.030868722;-0.0021621787;-0.034984086;0.006829945;-0.16875541;-0.057190947;-0.50782484;0.014488666;-0.2386967;-0.023844924;0.05360384;-0.25674644;-0.0050481833;0.033241995;0.06604307;-0.1920055;-0.17928824;-0.0925206;-0.10344762;0.023374753;-0.02559723;0.21824273;0.2650444;0.16629605;0.003006084;0.118506946;0.2134485;-0.19406866;0.066791505;0.07442112;0.037401926;0.058771633;0.15164512;0.07132484;0.022920992;-0.019189704;-0.17663059;0.020207321;0.03717289;-0.16293219;-0.033928957;-0.03135635;-0.012338605;0.040613957;0.2970887;-0.035238877;0.0032864166;-0.029223243;0.16353065;-0.0076980595;0.1422486;-0.057443768;-0.06912971;-0.055792406;-0.28426975;0.029665975;-0.0038684309;0.09041462;-0.04959463;-0.1854251;-0.020970041;-0.0029423914;-0.011013496;0.096412666;-0.0413951;0.048415378;-0.014202595;-0.014569311;-0.057939224;0.044506066;0.03681207;0.06356454;0.26872194;0.06641069;-0.18827489;-0.0036116047;-0.23994823;-0.31129026;-0.060478233;0.047070567;-0.16295134;0.24803844;-0.061426196;-0.06662914;-0.04930228;0.20257865;0.078377865;0.06338164;0.00040629526;0.05855579;-0.052190885;0.010590402;0.005012604;-0.1876773;0.062209632;0.2370653;-0.19269392;-0.25473818;-0.086358674;-0.09783424;-0.052514855;-0.073039725;-0.1297389;0.17204514;-0.05144098;-0.049624816;-0.04326929;0.0043114275;-0.1514211;0.00306059;0.053820852;0.2959683;-0.16295986;-0.10982341;-0.039921317;-0.03218956;0.001389636;0.18500362;0.015428675;0.006920592;0.051758893;0.17070456;-0.021669663;0.085511304;-0.0027226107;0.03599035;0.32065767;-0.11129208;-0.015864087;-0.2324168;-0.23836483;-0.05267709;-0.19594607;-0.05482026;0.055510662;0.1330896;0.16198072;0.01624242;0.050729495;-0.121806;-0.014890028;0.06639238;0.01778757;0.043866754;0.13343666;-0.0049601733;-0.120537885;-0.13200277;0.03936741;0.082385436;-0.05378608;0.05226768;-0.06435183;0.06432315;-0.24935924;-0.04527621;0.029230347;-0.19304161;0.13861269;-0.006043998;-0.100608386;-0.32306096;0.02723855;-0.114296846;0.013705247;0.05590596;0.07363568;-0.09347873;0.10015916;0.16982843;0.025955148;-0.24083954;-0.12594366;0.1588785;-0.0016484128;0.1465434;-0.09232605;0.06373626;0.0033292894;-0.012674983;-0.18954149;-0.027382217;0.040561162;0.045706652;0.12152538;-0.042636495;0.17920133;-0.028339582;0.15419325;-0.026095942;0.22429924;0.0065287123;0.21855478;0.25785512;0.027902836;0.05635247;-0.19385788;-0.22279656;0.13948599;-0.008152801;-0.23941584;0.21376665;-0.10479147;-0.07083772;0.027199343;-0.0047503123;0.04237194;0.115448095;-0.1623863;0.096960716;-0.0086901905;-0.055177856;-0.1354599;-0.21294473;0.14664142;0.34801763;-0.022322107;-0.102084115;-0.050233033;0.019137496;-0.019206969;-0.089028895;-0.11633389;-0.042915978;-0.0004423465;-0.067173354;0.1288276;-0.08502175;-0.004492674;0.104578964;0.009594022;-0.039007712;0.00033800205;-0.045659702;-0.0074575013;0.08145285;-0.19454923;0.06925455;-0.013664324;-0.15893033;0.036662027;0.22779809;-0.25830755;0.16367392;-0.045938052;-0.22011901
0.11280909;-0.24225661;0.0139654325;0.019421475;0.033069916;0.022719601;0.077834815;-0.023477698;0.04713764;0.023107674;0.08587502;0.11297433;-0.0618455;0.056086335;0.11980035;-0.028613167;0.02819834;0.05419163;0.12002403;0.063378155;0.15291229;0.14946882;-0.11046478;-0.2751107;0.04086842;-0.14482597;0.01068101;0.24458937;-0.1968451;-0.021680787;0.19144768;0.13557188;0.07175011;-0.009389805;0.046632934;-0.022078846;-0.026877128;0.12593521;0.03247102;0.025570411;0.0037533834;0.05816055;0.03335305;0.2625841;0.21032667;0.06981813;0.035605136;-0.070587054;-0.043295246;-0.011096954;-0.061296593;0.15893765;0.18905126;-0.41188824;-0.19655629;-0.026073603;0.18892637;-0.09680324;0.07847501;0.0008213411;-0.01660024;0.02520078;0.004121588;-0.010713879;0.09691612;-0.22248977;-0.045589387;0.020368636;0.15767227;0.06325593;0.16752884;-0.037854802;0.03313544;0.19926739;0.04092904;-0.035962984;-0.30775014;-0.18441463;0.008293938;0.10754523;-0.059717502;-0.13467318;-0.015980536;0.15867761;-0.010171934;0.06873303;0.016431153;-0.086837515;-0.021448677;-0.05318047;-0.1765275;-0.01050172;-0.020485358;-0.16046548;-0.17351839;0.078738876;-0.0036901669;0.027078552;0.12156695;-0.21615861;-0.13568054;0.0035162112;0.16690177;-0.052674286;-0.09441093;0.06269574;-0.0008616646;0.014885876;-0.12163344;0.07454473;-0.21642883;-0.27995533;-0.0077537554;-0.20681582;0.24868767;0.03035151;0.05415536;-0.028775655;-0.02678296;-0.06715783;0.102866374;0.033096023;-0.049954053;-0.06364523;0.05946364;-0.032835998;-0.067970276;0.09635128;-0.18571094;0.08076688;0.25325036;0.26704633;-0.019156946;-0.0060198857;0.10207109;-0.0047568684;-0.0074289376;0.021041818;-0.31176442;-0.003994947;-0.044267785;-0.16980055;0.15600021;-0.065016516;0.053146902;0.026657727;0.012444514;0.019033397;-0.06247411;-0.05019712;-0.034679465;0.059155304;0.08843393;0.15216361;0.09502031;0.0866826;0.01364606;0.007889688;0.024041642;0.046392318;0.084108725;0.012529384;-0.18938144;-0.034320846;-0.06471663;0.19282234;0.02726251;-0.17453577;0.07820635;-0.25241262;0.18932174;-0.015718723;-0.008089511;0.13047726;-0.109782584;-0.018928647;-0.02139181;0.11619599;0.036911305;-0.050027028;0.010274672;-0.004232495;-0.11560778;-0.13592756;0.049552742;0.14196053;0.013925371;-0.037315883;-0.12564485;0.0054619494;-0.25830173;0.08899566;0.19895104;0.02177203;0.1756491;-0.014740019;0.2588738;0.09694282;0.14738193;0.033880305;-0.008878603;0.22293238;-0.05681814;0.24341583;-0.16697215;-0.13308911;-0.03622725;-0.32232416;-0.0066546053;0.20072846;0.08111083;-0.1858816;0.022420483;-0.06865515;-0.010573979;0.0065254625;0.018597342;0.14817855;-0.012824937;-0.28706262;0.09525111;-0.15881014;0.02705169;0.0020557076;0.137712;-0.084114574;0.22440532;-0.09337684;0.055086657;-0.02129666;0.03644427;0.17904411;0.18876064;0.0028610793;-0.105575494;-0.07450816;0.12900063;-0.032081876;-0.062661484;0.049862057;0.056230355;0.046388358;-0.20134395;-0.028698113;-0.29220903;0.037644524;-0.08796802;-0.12308987;-0.014499714;0.0013496486;0.09768909;-0.002629926;-0.010658447;0.06494203;-0.01006565;0.22858053;0.16599227;-0.12402938;-0.009199974;-0.040546827;-0.009224348;-0.3427928;-0.05488806;0.013742684;0.015189718;0.099086456;-0.3262133;0.07388689;0.1278185;-0.11678608;0.099593796;-0.1556099;-0.026829608;0.1718793;-0.02375689;-0.06401514;0.045590412;0.20089523;0.041818827;0.00015373183;-0.05298617;0.047774665;-0.03662022;0.059585452;0.17544541;0.0176777;0.06217131;0.0121407835;0.04747241;-0.04919328;-0.036017705;0.27566797;0.037828866;-0.20912507;0.021778619;-0.12789775;0.28417188;0.1028917;0.02506776;0.059335016;0.018093584;-0.06531108;-0.06575796;-0.06489465;0.28298944;-0.017578837;0.15761055;-0.013534546;0.0120442165;0.00019818112;0.076420195;-0.016866116;-0.26955393;0.0032466222;-0.227449;0.077645585;-0.18482374;-0.2905221;-0.05670837;-0.000111792004;0.05135247;-0.09457732;0.24461459;-0.02891418;-0.025014987;-0.036421277;-0.121202886;0.033537272;0.3231877;-0.06673829;-0.041786976;0.010940424;-0.039978627;0.03931397;-0.085536726;0.055542305;-0.44560337;0.04361942;-0.14251693;0.04733676;-0.021459926;-0.1675762;-0.04965358;-0.041572638;-0.125078;-0.2605581;-0.3929884;0.05538071;-0.02950517;-0.010267131;-0.036746394;0.12608184;0.24870344;0.20440839;0.03303735;0.0046396707;0.20544334;-0.19743718;-0.061736;0.121989116;-0.060756925;0.00668676;0.07135784;0.00088302477;-0.057478357;-0.03951507;0.118849225;0.026071709;0.08911362;-0.17668456;0.023482146;0.027666999;0.031342532;-0.0042772237;0.28391442;-0.012972229;-0.033907976;-0.022756347;0.1653076;0.12116081;0.032814078;-0.00019626434;0.16170993;-0.050385807;-0.23143946;0.06519805;0.10738761;0.0062644407;-0.023918271;-0.1031144;-0.036435682;-0.03445562;0.038327698;0.058946494;0.09676558;0.13644192;-0.03493038;0.053280544;0.0714675;0.04273275;0.2311207;0.09366785;0.24355668;-0.019661574;-0.09595127;0.07949214;-0.19236256;-0.25259843;-0.04718073;-0.057363093;-0.18991466;0.24546607;-0.13329406;0.045429558;-0.03449413;0.07329934;0.00819265;0.007177421;-0.07224014;0.05128356;0.12881169;-0.15550828;0.010641342;-0.23796272;-0.015468206;0.20073575;-0.12934169;-0.2149116;-0.06887947;-0.044240613;0.0069656703;-0.069420956;0.10232604;0.3371998;-0.054723416;0.026872078;0.026992133;0.04250824;-0.122610785;0.016205389;0.03922652;0.25241375;-0.016343286;-0.013733031;0.035979982;-0.024032075;-0.02065433;0.050813783;-0.0039366684;0.030306702;0.008332525;0.2931402;0.012050153;-0.017083643;-0.032651328;-0.032952596;0.21297304;0.07655331;0.05135896;-0.12819076;-0.17321153;-0.033232316;-0.07637947;0.038229525;-0.094069436;0.23774147;0.055653587;0.036807947;0.13726363;-0.18745145;-0.09074681;0.020628192;-0.056834914;0.07491407;0.16147174;0.0040664584;0.021248039;-0.014246539;-0.027547896;0.23966537;0.008935565;-0.007958411;0.07778844;-0.07069207;-0.2896903;0.017678676;-0.008073601;-0.0784883;0.34016412;-0.08848449;-0.17029083;-0.3366164;0.008563244;-0.037971612;-0.04033335;0.0066821342;0.09197238;-0.11440715;0.09297979;0.07544862;0.024163721;-0.0863152;-0.07820884;0.053481948;-0.0071804915;0.10246708;0.023336938;-0.04836912;-0.08352413;-0.0020133571;-0.062541746;0.124727085;-0.04408879;-0.041011047;0.23671265;0.024020996;0.07514008;-0.024437513;0.2565717;0.093013056;0.09640943;0.016934495;0.23866442;0.08557662;-0.029902203;0.02434776;-0.091446154;-0.223479;0.12515675;0.021747775;-0.21822496;0.0023018129;-0.27547342;0.08452623;-0.11424357;0.02974082;-0.07613352;0.021852044;-0.07709886;0.025000837;0.066611394;0.018530177;0.056458358;-0.08065501;-0.015489913;0.2228653;0.13826156;-0.09861057;-0.033842206;-0.08822454;-0.014781739;0.002786988;-0.18169838;0.041058894;0.0059134015;0.089683354;0.07674082;-0.13237484;0.07753744;0.011038172;0.09140291;-0.017569665;0.08531101;0.03316313;0.06004631;0.18327641;-0.17820656;-0.033172473;0.009304033;-0.056614865;0.21030867;0.24896626;-0.0913738;0.021961734;-0.018931214;-0.36225852
0.07217211;-0.16286524;-0.03486872;0.021666802;0.0054377513;-0.002554548;0.046254657;0.0064027584;0.10211447;0.013745062;0.11409101;0.085989214;0.055019632;-0.05191588;0.04562729;-0.029632473;0.024231954;0.018465653;0.13170047;0.07570851;0.009380417;0.26139307;-0.056058135;-0.31973413;-0.044778816;-0.19396034;0.035296272;0.25503018;-0.09174387;-0.052797507;0.20949398;0.256553;-0.0026228398;-0.048001107;0.038433712;0.02384593;0.014504086;0.060658578;0.17186654;-0.0879408;0.049551506;0.012107571;-0.025482222;0.19858623;0.1349594;0.21833491;0.007887428;-0.03982665;0.034015518;0.109868534;-0.0025980081;0.117459685;0.19053535;-0.2960229;-0.26019448;-0.043034684;0.01924242;-0.11421226;0.08791104;-0.013056208;0.04261918;-0.046289332;-0.023854027;0.04039424;-0.041066814;-0.26387876;-0.039777104;-0.026973667;0.2439656;-0.036498994;0.00786988;-0.018920805;0.1132658;0.027991958;-0.01944226;0.019341981;-0.21347766;-0.1733368;0.055093385;-0.047050696;0.042001568;-0.023994649;-0.029407926;0.006120526;0.18247083;0.031125281;-0.049026832;-0.059042655;0.04063315;0.011528766;0.040160727;0.0652794;0.15783377;-0.20723209;0.032368224;0.15030536;0.19317141;0.08258433;0.12050357;-0.22612132;-0.05414947;0.0038448635;0.15076186;0.030532524;-0.11876405;0.07164796;0.047956675;-0.11258044;-0.078611955;0.09068165;-0.3236232;-0.3880148;-0.062686175;-0.26035866;0.28228;0.05116099;-0.053104248;-0.047409404;-0.020887608;-0.03321508;-0.014921437;0.0790981;-0.013777967;-0.19672474;0.1745391;0.021315949;-0.18661296;-0.09652014;-0.14974119;-0.0517426;0.23260723;0.23896688;0.10770251;-0.0536048;0.036933552;0.04913391;-0.07419376;-0.004695682;-0.18319337;-0.078440994;0.039513107;-0.15908064;0.2855022;0.05384304;0.24169071;-0.02669024;-0.0074554384;0.028797245;-0.047134697;-0.117292814;0.06289435;0.0934919;0.12317121;0.19635177;0.11343869;0.011291223;-0.13205747;-0.098831035;0.0075674355;0.02153779;0.06554753;-0.14562817;-0.14645255;0.014382544;-0.005541189;0.24694028;0.06245079;-0.23953046;0.12786107;-0.22265266;0.20738924;0.027422873;-0.044110235;0.015293421;-0.10451324;-0.064767845;-0.0008745214;0.17665434;-0.15810958;-0.0075597432;0.006037197;-0.04860177;0.12159539;-0.09304412;-0.011983786;0.069641456;-0.0130772935;-0.1600859;-0.096546516;-0.03301733;-0.36113647;0.033157535;0.31001395;-0.024614446;0.377323;0.017652689;0.1688269;0.10423719;0.08395742;0.08562505;0.020134911;0.21680401;0.0019591681;0.13928106;-0.10014009;-0.05156198;-0.09866583;-0.2787834;-0.12074347;0.24440981;0.06722852;-0.1087212;-0.12793994;-0.07672087;0.012214072;-0.02569835;0.21448986;0.15137942;-0.03946778;-0.3005106;0.015196782;-0.053829364;0.026362035;-0.027232429;0.14771074;-0.04364748;0.31663865;-0.026471535;0.24332401;0.002925589;0.10243191;0.08100183;0.14639308;0.022567537;-0.013044234;-0.13203247;0.20018524;-0.04347314;-0.05519193;0.11685693;0.15735687;-0.05046925;-0.05805374;-0.044100564;-0.14144823;0.012885366;0.0050634746;-0.15628035;-0.0060568727;-0.06733316;-0.025117807;-0.03528921;0.10323282;-0.16171278;-0.019023718;0.27723083;0.14117356;0.015134371;0.046779573;0.067078024;0.05793497;-0.29436478;0.020402152;0.019818341;-0.020329813;0.06990715;-0.10274096;0.0033539298;0.26891366;0.09672909;0.13956176;-0.2743647;-0.04629985;0.045979124;0.0572912;0.012429463;-0.07517816;0.15186253;-0.06646561;0.034662575;0.036253903;-0.051780354;-0.14392933;0.05019804;0.15016323;0.15354651;-0.0035478042;0.009797996;0.013695564;-0.09299423;0.040906172;0.24795863;-0.09573842;-0.096186526;-0.1503002;-0.12634152;0.34055284;-0.020611115;-0.03114086;-0.042348668;0.05731413;-0.1000856;0.07087802;-0.0059791715;0.10366187;-0.05729283;0.1612288;-0.025675705;-0.042810556;0.09158122;0.036545657;-0.056883987;-0.21094172;0.024882238;-0.3153066;0.17910156;-0.2588847;-0.24505366;-0.117638044;0.0128731355;-0.081621684;-0.16571495;0.23304817;-0.0396415;-0.016208265;-0.13027234;-0.020051675;-0.020960359;0.40248412;0.03905077;0.025495399;0.00338715;0.046030104;0.027101187;-0.19543272;-0.043584853;-0.41816288;0.09721317;-0.17949755;0.05371334;0.015408009;-0.12797801;0.015546084;-0.08392275;-0.056479592;-0.19186644;-0.16855529;0.042511676;-0.10925516;-0.031444836;-0.04168284;0.23720096;0.19715482;0.20933796;-0.03536784;0.03080121;0.14037159;-0.08952786;-0.004638165;0.090239815;-0.012890086;-0.055722512;0.21259886;0.017844453;0.012605389;-0.060294062;0.066700734;0.014225283;0.15776233;-0.16769455;-0.027230322;0.054101314;0.008175478;-0.11040634;0.32594097;-0.015610791;-0.07470158;-0.0702515;0.13580678;0.022915082;0.13677931;0.055897433;0.034465674;-0.19863646;-0.038344014;0.061589073;-0.03349712;0.10378911;-0.016015572;-0.04340123;-0.069037355;0.033026654;0.024024477;0.2194869;0.028422263;0.09009827;0.048746035;-0.03881861;-0.040972847;-0.02692916;0.0977681;0.022231737;0.27802643;0.024116715;-0.048603944;-0.047219265;-0.2505989;-0.13926941;0.03590301;-0.020199392;0.015366758;0.21281996;-0.20051716;0.052794047;-0.048827276;0.034526113;-0.0003890264;-0.017438231;0.010713056;-0.027591133;0.08262022;-0.017771421;-0.051499408;-0.29165938;-0.07954225;0.21130161;-0.20717083;-0.19542816;-0.07930701;0.01902515;-0.06299674;-0.2506592;0.099402286;0.38337007;0.020809362;0.19197582;0.0023192505;0.11166751;-0.22226675;0.014037481;-0.010398584;0.1594972;-0.049852103;0.061581716;-0.059967797;0.025048215;-0.02950577;0.05652814;-0.028787876;0.018168727;-0.084076315;0.17271905;0.052914616;0.10742174;0.012697065;0.011815588;0.1932772;-0.028315578;0.25689372;-0.2062769;-0.12159392;0.071121514;-0.15425545;-0.06575988;0.02417375;0.20197903;0.12408804;0.026259137;0.056632984;-0.05780244;-0.15224533;0.16985747;0.035737853;0.025945472;0.17442493;-0.06981424;0.074062765;-0.014625742;0.0046076295;0.24090922;0.051187348;-0.031046173;0.040361382;0.056455035;-0.28168437;-0.024560384;-0.18182726;-0.045043167;0.3327384;-0.057581257;-0.27465305;-0.2376414;0.0027217676;-0.06592411;0.0111136455;-0.05715992;0.11399835;-0.212239;0.06471114;0.11562479;0.019065468;-0.10779392;-0.13727617;0.019980682;-0.018560464;0.1643578;0.029709294;-0.021048967;-0.02944304;0.078878015;-0.021204107;0.20423178;0.010521018;-0.06612937;0.3046467;-0.037161004;-0.07400368;-0.065447114;0.17749842;-0.07343701;0.1453285;0.00015179884;0.23366223;-0.04267698;-0.023784764;-0.008142809;-0.14784211;-0.3781769;0.094160855;-0.022215562;-0.14353204;0.05668418;-0.3454452;0.052118912;0.0640679;0.031011444;0.00012236193;-0.12671483;-0.11735164;0.04765444;0.12848075;-0.011070637;0.1397233;-0.15183431;-0.10054461;0.14739648;0.115476355;-0.16690674;0.060535606;-0.2389548;0.03398953;-0.06914347;-0.19242115;-0.012266493;-0.03352696;-0.115621544;-0.010167099;-0.08253144;0.042810746;0.051906757;0.011172728;-0.13888912;0.09788806;0.035932604;0.053321216;0.16196674;-0.26484784;-0.0079592755;-0.012723207;-0.11549305;0.29875222;0.354263;0.047670256;-0.115467615;-0.008243324;-0.25926614
0.07804563;-0.10651723;0.003946533;0.13391306;-0.0042258254;-0.07455704;0.049538713;0.017277367;0.15299264;-0.070403285;0.058382064;-0.020518826;-0.019197972;0.0011971806;0.11731823;0.017789558;-0.020840833;0.009769486;0.14719616;0.20270929;0.0096341735;0.31872523;0.0780796;-0.33255002;-0.033470698;-0.31642106;-0.061785534;0.16000943;-0.18627582;-0.037955582;0.3277818;-0.0042435466;0.005406914;0.043588065;-0.030261511;0.0598986;-0.039108373;0.26222572;0.025374092;-0.20048057;0.123087585;-0.021313958;0.017168192;0.24940966;0.254029;0.17974308;-0.040045165;0.004563542;0.015855389;0.04064985;0.07282822;-0.0035666823;0.14267106;-0.3041766;-0.23160402;0.045335818;-0.077671446;-0.24466479;0.018342381;-0.043672275;0.0058377143;0.10203083;-0.05421846;-0.022469545;0.017187364;-0.29886332;0.0032613399;-0.0012157697;0.3483087;-0.002279896;0.052794635;-0.032673493;-0.03800157;0.07066864;-0.16543758;0.019087223;-0.22997667;-0.122329935;-0.049733497;0.06653208;-0.011783005;-0.047972616;0.009062999;-0.003333692;0.15979663;-0.03280848;-0.050264113;-0.07989341;0.005478199;0.0559641;-0.105986595;-0.030434882;-0.009950957;-0.08869128;-0.0066178394;-0.037938625;0.08151874;0.20449646;-0.0382265;-0.11441419;-0.047842238;-0.09313848;0.14573832;0.0069844774;-0.048801724;0.04942023;0.017334126;-0.15872605;-0.074614204;0.12546416;-0.23419663;-0.20680246;0.043172024;-0.09376265;0.31387696;0.014225198;0.035886843;-0.13397665;0.08517288;0.04254286;0.019198252;0.15297525;-0.16132362;-0.13303971;-0.018233228;-0.0022259273;-0.2575506;-0.05147325;-0.20897892;0.106405236;0.1507593;0.28480273;0.24696337;0.025664711;0.02585542;-0.04646199;-0.07215908;0.058951315;-0.04802375;0.065312535;-0.04957833;-0.05785842;0.16891831;-0.12405103;0.17616148;0.019124951;-0.08983455;0.011396484;0.05639903;-0.1313247;-0.013954654;0.11312263;0.14875117;0.20292147;0.13984811;-0.032589994;-0.018764058;-0.24113391;-0.0035867752;0.022171227;-0.21628682;-0.26468626;-0.17534797;-0.028896809;0.0650906;0.33732265;-0.04495674;-0.2770189;0.14791584;-0.24971038;0.06989956;-0.08007388;0.12129259;0.072499;-0.11954634;0.12890187;0.011986861;0.088969484;-0.10496621;0.055277687;0.022497036;-0.0100815585;0.18344885;-0.15797268;0.029579358;0.10929877;0.0026507657;-0.1125199;-0.081899196;0.050442446;-0.25209707;0.067461915;0.2618158;0.060100075;0.27783844;0.0010509607;0.09930485;0.08935579;0.2293623;0.15568012;-0.074655674;0.23818822;0.06169062;0.043337952;0.060985807;0.03033045;-0.02750312;-0.24999307;-0.14358562;0.08376708;0.024274394;-0.089035876;-0.064046316;0.039778046;-0.06809176;0.061053842;0.18312612;0.08555295;-0.028524332;-0.2315435;-0.029471882;-0.016418708;-0.03267288;0.012789866;0.06621297;0.050923422;0.1980417;-0.09055066;0.20262124;0.038595892;0.16398288;0.16231461;0.08931569;-0.0943659;-0.05821832;-0.08278082;0.31102043;0.032732308;-0.1265978;0.14127864;0.0540059;-0.10257276;0.017364947;0.011272666;-0.15919216;0.03806762;0.04604856;-0.4229283;0.023209358;0.031114355;-0.15208879;-0.03310929;-0.11760788;-0.13397816;-0.02389267;0.2926203;0.04718111;-0.039672337;0.014055604;-0.05622364;0.036604553;-0.28686234;-0.0090863425;-0.048399147;-0.01735328;0.011209771;0.044820834;0.022297427;0.22737779;0.08705519;0.08964083;-0.25469193;-0.06680468;-0.0012992658;-0.041860297;-0.0234988;-0.11843738;0.12300835;0.013385808;0.038583044;-0.039751858;-0.061959438;-0.18137155;0.19225034;0.17734689;0.21175581;0.010260531;-0.05814392;0.02635033;-0.054143947;-0.04226367;0.1852006;-0.21670525;0.040144026;-0.1252777;-0.14293368;0.102092944;0.072524175;-0.06308065;-0.037964348;0.06720888;-0.056240447;-0.040872842;-0.01882556;0.26165536;-0.2853591;0.13957447;-0.0018485229;0.047010247;0.06297223;0.022354452;0.030975483;-0.28738025;-0.053030267;-0.19044532;-0.014189175;-0.19089624;-0.25483075;-0.11681774;-0.04550626;0.066812836;-0.08556672;0.1877627;-0.034615546;0.061259612;0.0047983564;0.031015638;0.0462709;0.31546983;-0.067382105;-0.041103825;0.012727997;-0.006607203;-0.015945802;-0.20236528;-0.045979533;-0.34500086;0.13696322;-0.044452995;-0.00068105565;0.028875245;-0.03428876;0.03473547;-0.26139185;0.075418755;0.029124405;-0.23942624;0.02143018;0.01721552;0.046106055;0.04715373;0.053509414;0.2895963;0.16300704;0.04252838;0.06260238;0.08833977;-0.12360829;-0.07191748;0.1046186;-0.03563399;0.039290052;-0.025878849;0.018946623;-0.058724068;-0.06613005;0.025409779;-0.124120206;0.05218095;-0.29005593;0.0030796642;-0.08348944;0.003450056;0.0721354;0.20849009;0.028047306;-0.16647469;-0.103186816;0.06356157;0.050118003;0.037639353;0.03277713;0.10021301;-0.31979874;-0.010139845;0.103564754;0.11744117;-0.021806799;-0.027320005;-0.0045875367;-0.104010925;-0.0011182175;-0.032480758;0.12069189;0.06210226;0.11698366;0.003416017;0.010965941;0.0491221;-0.012201239;0.04244856;0.1074922;0.26118648;0.0062568057;-0.14254893;-0.007947873;-0.29524925;-0.17642607;-0.056443665;0.036127813;0.050750315;0.24420612;-0.09361318;0.04193298;0.0742751;0.0389585;-0.13644987;0.08813447;-0.040319752;-0.04446155;0.021151427;-0.12286334;0.036286462;-0.32514954;-0.052448142;0.25985602;-0.23319776;-0.2398465;0.019282611;0.013541892;-0.05955713;-0.17228858;0.050638437;0.43504012;-0.041007407;0.16139062;-0.061236903;0.0027155534;-0.16625495;-0.0050002695;-0.015081617;0.112322256;0.11789078;-0.06592625;-0.17592935;-0.0148699805;-0.005364222;-0.035240233;-0.050694846;-0.036314078;-0.059577566;0.20389949;0.04924946;0.051695347;-0.042288072;-0.02947009;0.19846289;-0.032458425;0.27248728;-0.1604943;0.013022999;0.039979603;-0.04186359;0.036404822;0.013901728;0.13301659;0.070167564;-0.022550317;0.15718697;-0.042878136;-0.02565029;0.11054475;0.020378215;0.09482196;0.07768704;-0.1901913;0.047479175;0.01770287;0.030756267;0.17047994;-0.03709547;0.022121703;-0.007950321;0.023259133;-0.09642387;-0.123076305;-0.23572837;-0.11067159;0.21191345;-0.043711565;-0.2629995;-0.22241431;-0.03340414;0.027255954;-0.02125198;0.027357655;0.15501055;-0.19396526;0.18143973;-0.041143157;-0.03043823;-0.277839;-0.15554957;0.027628202;0.030118342;0.14206634;0.03620701;0.01377396;-0.02539603;0.05457983;-0.111184284;0.10445939;-0.002342543;0.049231157;0.21022147;0.06433783;-0.10071594;0.0015730478;0.20106664;-0.040553942;0.16574878;-0.044481166;0.09086928;-0.2049776;0.04753423;-0.0071637;-0.1515694;-0.34687412;0.15406308;0.023787303;-0.02016134;0.08959597;-0.43076107;-0.13188979;0.032501757;-0.07648716;0.018116008;-0.1518611;-0.24142924;0.12376763;0.11197804;-0.040267613;-0.04907314;-0.07769465;-0.09952771;0.031617112;0.057512924;-0.09831581;0.030990269;-0.2979252;0.0072694165;-0.07904411;-0.23378259;-0.056709517;-0.0010978485;-0.24052326;0.043652628;-0.00084441254;0.11545722;0.124132134;-0.06943239;-0.26201138;-0.0697652;-0.050855674;0.04121106;0.23907854;-0.1774235;-0.022152508;0.027120968;-0.03428827;0.34259853;0.34187865;0.07651677;0.064404555;-0.052586477;-0.12268762
0.017007401;-0.040742114;0.035832856;0.11545037;0.023365825;0.06370375;-0.033664662;-0.027373303;0.078259654;0.07046493;-0.062567726;0.0126774805;0.039526045;0.027448354;-0.004418968;0.01860546;-0.011934095;-0.06491849;0.040789478;0.23764664;0.013774464;0.19031763;-0.1360523;-0.25934502;0.04686221;-0.2922049;0.048111368;0.11830015;-0.15984076;-0.16045594;0.24199566;0.052608903;0.10946832;0.015720772;-0.026433522;-0.06856468;0.020412385;0.26678398;0.10445958;-0.26631743;0.30824867;0.03777557;0.10442838;0.34412038;0.23085374;0.02611506;-0.014616596;0.012305032;-0.04055707;0.19802587;-0.04644915;0.03899615;0.03879698;-0.21883093;-0.17339629;0.002886752;-0.17491092;-0.23592913;0.0071662664;-0.010748381;-0.026303684;0.052790206;0.019636324;0.033326346;-0.09586881;-0.1711658;0.024945574;0.07929577;0.32065952;0.07141085;-0.030306982;0.02328726;0.037194207;0.22557926;-0.11645957;0.015009168;-0.17804612;-0.09295892;-0.027200272;0.086243644;0.04124489;-0.06544806;0.034600526;0.00091326;0.021025268;-0.0038544838;0.048921023;-0.05022013;0.009758221;-0.048379242;-0.061912727;-0.030810216;0.04488272;-0.09436696;-0.13614497;-0.21342258;-0.06707493;0.20764561;-0.06189727;-0.18423769;0.07427723;-0.017269626;0.34711933;-0.025075387;-0.026117075;0.1408024;0.019206606;-0.28858927;-0.012610923;0.18242227;-0.26347932;-0.2085735;0.005964553;-0.21998629;0.31388894;-0.04892467;0.034514073;-0.08018856;0.2273603;-0.12721023;0.10279976;0.12396994;-0.03528532;-0.11617493;0.096086755;0.112543546;-0.17309949;0.056642327;-0.113173634;0.095649816;0.01927896;0.23251027;0.27452976;0.030979102;-0.0634576;0.027274506;0.04298677;0.07116394;-0.053951677;-0.0022115165;0.046589494;-0.24155736;0.2906261;-0.099219814;0.16023745;-0.042525746;-0.12664552;-0.031149508;0.051288646;-0.04639289;0.0154510755;-0.06760645;0.04305656;0.084989205;-0.052954398;0.06330137;-0.0044627613;-0.22347544;0.06949689;0.19056006;0.0041623684;-0.21266206;-0.20258144;-0.049857818;-0.080090344;0.076290496;0.031140003;-0.22926286;0.30605727;-0.23537368;0.15529239;0.021092413;0.1911501;-0.052965216;-0.23203911;0.007205301;0.047917187;0.16188143;-0.12491347;-0.025878439;-0.08735533;0.0131556615;0.013319626;-0.18397108;-0.031734213;0.044597916;0.021155583;-0.06167895;0.026082873;-0.011172646;-0.16238202;0.024930425;0.22678794;-0.025732273;0.36041385;0.1485421;0.17408998;0.18542646;0.12635046;0.2641706;-0.06517958;0.24136262;0.11817138;0.045693234;0.11771784;0.055894062;-0.01416275;-0.26935607;-0.17384712;0.002521087;-0.08325893;0.052323595;0.035762947;0.047240905;0.059932943;-0.044395465;0.13044298;0.0046576103;0.038090795;-0.14298062;-0.026153203;-0.033120297;-0.08761308;-0.04262894;0.0977072;0.05754041;0.10320838;-0.021195855;0.28923884;-0.00050990545;0.21653391;0.18649362;0.046196498;0.021958547;0.046206556;-0.079358354;0.15870723;-0.04104243;-0.054382123;0.13401976;0.13865705;-0.12309488;0.05411092;0.0093279;-0.21600735;0.10471157;0.080126785;-0.38144526;-0.014724374;-0.01810463;-0.2197959;0.040742967;-0.089236245;-0.21618709;0.029776301;0.27704075;-0.051398184;0.005901728;-0.012900182;0.008699038;0.041975174;-0.19295062;0.023633271;-0.0052627367;-0.012068187;0.0982526;-0.086754575;0.051823895;0.35385516;0.10932137;0.14365739;-0.2555627;-0.07163286;0.011851317;-0.038166177;0.035842657;-0.021651363;0.22770256;0.017588658;0.008594596;0.00011508021;-0.001594311;-0.021631213;0.10280796;0.026020635;0.13454837;-0.023231002;0.067732066;-0.030315107;-0.058700416;0.13016507;0.18050364;-0.35406134;-0.0072360313;-0.053473838;-0.12942855;0.04892792;-0.011196843;0.04963893;-0.010181744;0.053833652;0.03910306;0.021626243;-0.008295076;0.26175594;-0.33791453;0.15344574;0.089696586;0.027999666;-0.16903678;0.028225249;-0.015806533;-0.49937725;-0.023082573;-0.22774467;0.005850701;-0.2988367;-0.20702125;-0.10301628;-0.015727995;0.062378854;-0.03501233;0.35848454;0.054241292;0.019236159;-0.021703936;-0.19115216;-0.045971546;0.26916593;0.03156539;0.02249044;-0.02493599;-0.0012303424;-0.031513426;-0.23973289;0.10072197;-0.419986;0.070466176;0.013044786;0.10385109;-0.074087776;-0.042242147;-0.044954173;-0.09678374;-0.016424986;-0.014570957;-0.27623662;0.058832955;-0.0017161004;-0.056978863;0.014984148;-0.053489197;0.35135707;0.20701946;-0.026849683;-0.017708413;0.11496551;-0.037667103;-0.0568826;0.06976665;-0.06591351;0.015835352;-0.057061594;0.113060534;0.05627238;-0.14776257;0.00040285796;-0.22753556;0.08739247;-0.17691456;0.06643979;0.039123718;0.023194091;0.093329385;0.21667841;0.052073948;-0.040190484;-0.0772524;0.040273752;-0.10818233;-0.021886123;-0.019095771;-0.0806833;-0.24599443;0.029066563;0.21403976;0.08427482;0.019122679;-0.044042163;0.06597864;-0.13019891;0.055743568;-0.046842802;0.16311006;-0.031774815;-0.03131637;-0.0034074814;0.039058972;-0.048099805;-0.030548628;-0.055841774;0.038645696;0.29581288;-0.04432499;0.06617714;0.020967714;-0.09554125;0.09094647;-0.11925475;-0.024303567;0.16292048;0.16160655;-0.07198649;-0.018738374;0.047232714;0.027665393;-0.20018746;0.21050477;-0.08490145;-0.17888094;0.05687968;-0.09746687;-0.05281252;-0.12857175;-0.09983442;0.23701;-0.1493807;-0.123429835;-0.04289788;0.020530792;0.085090294;-0.28619528;0.00048468524;0.2730497;-0.012753503;0.124756455;0.033050686;0.0137905665;-0.18048435;0.030245038;-0.07308904;0.087510444;0.17282987;-0.01223041;-0.33229864;-0.06506611;0.059990283;0.00278526;0.016498197;-0.020365909;-0.00767995;0.1581352;-0.054245614;0.09146632;0.013277193;-0.031847306;0.122914195;-0.0037245534;0.23630573;-0.18738446;0.056259505;-0.058315985;0.02041281;0.04201648;-0.013693902;0.10371603;0.08960289;-0.042308044;0.15958488;0.07922029;-0.03029638;0.1109838;-0.034330986;0.08204874;0.17109981;-0.14548995;0.13153946;-0.097374246;-0.045617417;0.25510502;0.014624682;-0.0145910485;-0.04100343;-0.021435264;-0.07954647;-0.15583682;-0.47337118;-0.14259861;0.22216684;0.17277685;-0.05410907;-0.1509705;-0.003944637;-0.16718382;0.04039023;-0.045909517;0.015005606;-0.23981652;0.18265623;-0.0804971;-0.056919;-0.23141196;-0.24305293;0.076492645;-0.03715998;0.13815959;-0.06690246;-0.008594009;-0.076526426;0.12247593;-0.026166953;0.18198952;0.009370027;0.022011127;0.14495698;-0.020056827;-0.08182049;0.03795046;0.11856994;-0.0043657203;0.09516598;-0.02602786;0.14589667;-0.19926302;-0.031879146;-0.03265739;-0.054726794;-0.23553714;0.11650361;-0.027817722;0.06436534;0.23776518;-0.32417384;-0.07392904;-0.017357297;0.01865473;0.03600641;-0.10777994;-0.17791504;0.096905895;0.28243518;0.0123060765;-0.026970638;0.0153418975;-0.12124318;-0.014117642;0.13513196;-0.12280007;-0.06004851;-0.28223893;-0.008065668;0.02412164;-0.14685044;0.09771423;0.02365265;-0.2534929;0.19428587;-0.0963454;-0.014776926;0.0767259;-0.024971982;-0.25770965;-0.17919081;-0.014365038;0.04005463;0.17380513;-0.0890351;-0.0030445692;-0.016049612;0.0020281486;0.31209934;0.30883023;0.00968482;-0.12819472;0.0241073;-0.19187239
0.15071863;0.15591924;-0.039695926;0.035661742;-0.04968081;0.11943608;0.02613945;-0.03434459;0.109828345;0.040981036;0.0105185695;0.08842179;-0.06760651;-0.06729442;0.06871438;0.029756326;-0.011354019;-0.11695464;0.07054256;0.1698322;-0.12551542;0.15783994;0.0069298646;-0.297244;-0.033169065;-0.26445025;-0.04728871;0.10146718;-0.20461304;-0.38994664;0.25907978;-0.08615617;-6.4618915e-05;0.034754768;-0.014834047;0.025966413;-0.034609903;0.18107565;0.11950395;-0.21477154;0.15008156;-0.03405771;0.10497301;0.27185327;0.09562002;-0.070383124;0.04521776;0.027154597;0.040138677;0.0694609;0.002060178;0.046783287;-0.12293386;-0.27772596;-0.15647791;0.0029197538;-0.25172478;-0.25278118;-0.025519151;0.03350074;-0.01729146;0.09424205;0.040901665;-0.05957928;-0.080568604;-0.13564636;0.010156482;0.008221053;0.18674982;-0.025445625;-0.04139192;0.03754491;-0.021469263;0.13566749;-0.103443034;0.012512385;-0.19360884;-0.07165121;0.040551204;0.12204649;0.0064020753;0.018981941;-0.029037314;0.082838945;-0.10339184;-0.11411028;-0.0178474;-0.004088638;-0.019793574;-0.030323062;-0.034522906;0.09212048;-0.015597218;-0.22061571;-0.071474366;-0.112138085;-0.12432794;0.16678317;0.0504154;-0.24918126;0.170461;-0.095474005;0.3203864;0.08817133;0.040357057;0.15721716;0.11934155;-0.35337323;-0.098173566;0.24878387;-0.2337316;0.031018084;-0.03932574;-0.084101304;0.2766197;0.03464702;0.0073150597;-0.19113386;0.34966415;0.057507694;-0.05558513;0.2701389;0.0070005152;-0.11690284;0.057101037;-0.029978238;-0.1143398;0.24981385;0.0048659854;0.08515703;-0.042548865;0.24464694;0.29772285;-0.039863463;-0.15886934;-0.038006406;0.07182526;-0.04548382;-0.045683768;-0.018900622;-0.03261302;-0.06462591;0.2427201;0.07641889;0.09219869;0.028098537;0.150974;-0.022838017;-0.09389468;-0.04421294;0.0011229244;-0.028390875;0.092913054;0.18328686;-0.024814676;0.039320108;0.13278472;-0.12883075;-0.02771115;0.10472718;0.091378205;-0.28316078;-0.2747908;0.07043384;0.02957942;0.06498597;0.045006946;-0.11333302;0.29464877;-0.18034811;0.058236424;0.01772549;0.030373089;0.012936875;-0.15111075;-0.03034009;-0.0083028525;0.16106787;0.0041840705;0.007016069;0.055958483;-0.026211422;0.011167167;-0.102112845;-0.030140052;-0.00094919;-0.0012138769;-0.009589718;0.1094309;-0.0057388134;-0.057917826;0.14373673;0.065355435;-0.016009925;0.23273739;0.14004098;0.05707202;0.124013275;0.15775897;0.21135978;-0.1807075;0.33346757;-0.038739905;0.041003816;0.21314476;0.028732147;0.051340003;-0.32703188;0.0785279;-0.06414663;-0.08512053;0.12116636;0.016369129;0.01859185;-0.040247995;0.0026614126;0.11183921;0.12914704;0.0366435;-0.029062672;0.0038534466;0.022683118;-0.09202242;-0.030835295;0.18090278;-0.06837597;0.14342046;-0.09306859;0.34975964;-0.06384286;0.17377524;0.23529696;0.01762778;0.06065959;-0.11874217;-0.004437554;0.14198768;0.025090111;-0.050248656;0.012648347;0.1773917;-0.113215275;0.23984788;0.028053902;-0.24911232;-0.02196583;-0.044796914;-0.26376238;0.004447854;-0.03203575;-0.2793118;0.035994023;-0.033301126;-0.18993197;0.056439113;0.23157316;0.011330535;0.07538127;0.045549363;0.029450549;0.028023763;-0.0961326;0.023054067;0.016178379;0.0029539336;-0.034925766;-0.045729145;-0.24916591;0.38288853;-0.0633037;0.0843709;-0.1730734;-0.12777333;-0.0548473;0.0014123803;-0.044222623;-0.04094609;0.29052544;0.014985203;-0.043696273;0.062835924;-0.057431616;-0.08357382;0.11972177;0.02168344;0.16129231;0.005040897;0.07638447;-0.053817883;0.07927728;0.027943943;0.06758772;-0.53554124;0.08097781;-0.12127212;-0.20057665;0.09339728;0.1092828;0.0067183236;-0.0014265416;0.021209685;0.06736179;0.021994341;-0.036443096;0.25417915;-0.103323095;0.045890085;0.023101812;0.005619345;0.06552588;-0.048957717;0.04929195;-0.24733299;0.015725292;-0.1048588;0.094327144;-0.14911063;-0.07517207;-0.11786924;0.029810252;-0.05686242;-0.083995104;0.31952763;0.03441855;-0.010929075;-0.113504015;-0.1327944;-0.079251975;0.20887208;0.061440516;0.012963063;0.005923681;0.008320347;0.019873409;-0.25414655;-0.010910062;-0.3323195;-0.042324025;0.13974711;0.08466302;0.022653619;-0.022329058;-0.063199244;-0.12863095;0.014077405;-0.10277166;-0.25340253;0.055443674;-0.12701131;0.04567858;-0.0044539077;0.17337334;0.27047035;0.20876877;0.011609674;0.041561093;-0.0019632871;0.025139261;-0.0040967134;0.23046133;0.06603569;0.030793462;0.021361118;-0.029730272;0.0041652243;0.09141272;-0.13332361;-0.2300742;0.02822362;-0.3131795;-0.023801634;0.037259065;0.0050975587;0.1967289;0.23991004;-0.053189203;0.120590225;-0.035303712;0.06556723;-0.099306025;-0.14514835;0.033862047;0.047133505;-0.21912895;0.042760458;0.10552773;0.0030717782;-0.0051173;-0.058309805;-0.003838355;-3.9452148e-06;-0.030652652;0.029989142;0.024681926;-0.2603844;0.101570494;-0.029892487;-0.07060159;0.0097155655;-0.052747093;0.0073667415;-0.08265802;0.20228545;0.018504998;-0.045844644;0.0071532642;-0.046486463;-0.040113557;0.025956098;-0.0018603968;0.066428095;0.17050658;0.029901832;-0.04755631;0.025317816;-0.16642526;-0.19593368;0.2271584;-0.15810916;-0.11652044;0.112045474;-0.2613405;0.008026039;-0.12260047;-0.13177134;0.22687255;-0.0067832423;-0.052257743;-0.01747993;-0.05736479;0.12281216;-0.3542182;-0.09315363;0.23119973;0.04298044;0.2652407;0.011137624;-0.04400722;-0.19612785;-0.07057912;0.056724656;0.014018237;0.087747104;0.034825645;-0.30921167;0.048600618;0.02222767;-0.071913935;0.08572863;0.028928384;0.070911154;-0.12944947;-0.076786265;0.2278902;0.054941896;0.008815587;-0.0038670253;0.07180597;0.11610636;-0.07004479;0.039968096;-0.011334129;0.056361012;-0.07781486;0.045290418;0.09139488;0.036892965;0.046790384;0.060989663;0.19352353;-0.0086126365;0.14432168;-0.012487534;0.09901667;0.0863463;-0.12507983;0.08018994;0.014641874;0.063010864;0.25811142;0.0008518992;0.014533463;0.04259655;-0.03506583;0.014563562;-0.14369357;-0.37666014;-0.1273469;0.3717933;0.06236398;-0.063081674;-0.37671486;0.030814122;-0.10937099;0.0026789764;0.03490338;0.12059033;-0.13124625;0.3073851;0.048929848;0.034416135;-0.38484228;-0.08157694;0.05928025;0.027770367;0.26525867;-0.0086294515;0.021869583;0.029218035;0.066012494;0.029909054;0.19623257;0.005527274;-0.006987125;0.07141243;-0.03437772;-0.104945175;0.099840224;0.12137372;0.0889939;0.18793473;0.059943546;0.16385698;-0.18414056;-0.05516578;0.017079908;-0.11963767;-0.091699764;0.18591933;-0.012021521;-0.085246496;0.21985638;-0.25884145;0.00438986;0.012932909;-0.035423484;0.028926067;0.062624745;-0.08637827;0.09538443;0.20506743;0.030778449;-0.008047561;0.010827355;-0.08246293;0.12066351;0.119574614;-0.31885734;0.02747857;-0.15775731;-0.036504783;0.1394988;-0.2309037;0.17412606;0.019016422;-0.25863287;0.17817217;-0.17675574;-0.036327723;0.10027663;-0.00085442315;-0.08905825;-0.02120732;0.04389636;-0.12251481;0.07900693;0.01977012;0.0059183124;-0.0030902275;0.056305252;0.35049534;0.25475678;-0.0046634306;-0.0108501455;0.011010027;-0.008346509
0.10295774;0.25948223;-0.024693014;0.043864664;0.0053395284;0.04296032;-0.0929602;0.026107015;0.07419646;-0.054581404;0.05349008;0.0023307025;0.02834068;0.046463817;-0.022958511;-0.04017458;0.03663099;-0.13271277;-0.121095516;0.18692611;-0.17152682;-0.00012231067;-0.0433362;-0.35116795;-0.0089488095;-0.22674383;-0.05464303;0.10727274;-0.003388386;-0.24899696;0.17514549;-0.0907553;0.14469767;-0.05967141;0.020136053;0.020371096;0.038002074;0.11642969;0.0024902462;-0.30279213;0.1572057;0.04595087;0.008004343;0.24964184;0.320918;-0.10646031;0.057200618;-0.00992062;-0.017173978;0.15481493;-0.0021217605;-0.01712531;-0.13434166;-0.24849336;-0.18453649;0.025953788;-0.42366868;-0.3851385;0.003987183;-0.016795773;-0.018734474;0.10744234;0.02730408;0.029458748;0.023427922;0.016836543;0.0050550266;0.048553303;0.20077926;-0.028260628;-0.030591004;-0.005009735;-0.07878948;0.025201071;-0.12322058;0.0037497284;-0.10565813;-0.11111203;-0.002532446;0.14265035;-0.019789815;0.079364076;-0.013571809;0.016877221;-0.104184665;-0.14876758;9.5945055e-05;0.058576882;-0.036511067;0.06450524;-0.046408262;-0.020541057;0.0760265;-0.2871711;-0.062374897;-0.050943278;-0.24253911;0.23563693;-0.06715913;-0.118684076;0.003919817;-0.050699614;0.20147218;-0.10544297;0.22340584;0.22250466;0.011098889;-0.4315531;-0.07050833;0.3252374;-0.22192112;0.053635668;0.052238487;-0.14451414;0.17465736;-0.027488846;-0.0182103;-0.27642873;0.33698392;-0.06704857;0.08282509;0.18623708;-0.02024836;-0.067243874;0.075692564;-0.04914726;-0.07024768;0.14515573;0.04254814;0.18623212;-0.08935358;0.12765595;0.27186155;0.034999557;-0.0920227;-0.010654782;0.039039247;-8.5085e-05;0.0024261551;0.05606288;0.011803162;0.09007384;0.17451905;0.023969378;-0.07693413;-0.011075959;0.11204757;-0.03325088;0.13334219;0.08955056;0.015610027;0.06241862;0.07375694;0.06938525;-0.12758943;-0.04035749;0.14888948;-0.04956917;-0.03482634;0.029219577;-0.025916703;-0.28420165;-0.29654637;-0.021275321;0.052541167;0.14910561;-0.054215346;0.035718825;0.1595244;-0.2433022;0.08312228;0.031175848;0.113425404;-0.00019202723;-0.21113011;0.06973954;-0.023060821;0.109787494;-0.013966265;-0.05052462;0.021062886;-0.005500794;0.020161683;-0.24888767;0.028839491;-0.118765816;0.019776518;-0.051647462;0.2809395;0.015323412;0.009120279;0.14621;-0.029953502;0.006384115;0.16196723;0.18538201;-0.03147987;0.099080086;0.0658237;0.07120019;-0.04583684;0.31247485;-0.024648532;0.04644443;0.25348306;0.008888755;0.2546904;-0.30047387;0.10244014;-0.029771103;0.22408251;-0.04897233;0.13262305;0.0010987935;-0.0098727895;0.023660835;0.20651531;0.11393851;-0.057655238;0.23067835;-0.022680055;0.22198452;-0.05346891;0.06241465;0.11965514;-0.0012383477;0.18845639;-0.092841685;0.11778704;0.029917302;0.24871515;0.18895032;-0.0076571396;0.089227654;-0.1042237;-0.023908235;0.27926332;0.050065085;-0.14300649;0.08473792;0.21288541;0.06450896;0.23027831;0.019793743;-0.31558272;0.00845543;0.06718818;-0.27749947;-0.0025331357;-0.0700757;-0.27031416;-0.04534758;-0.052982967;-0.23193148;0.00701291;0.15604427;-0.119320236;0.020051772;-0.061356414;-0.021334749;0.017433064;-0.09107635;0.039432395;-0.017681653;-0.0031816035;-0.039855722;-0.030864203;-0.35265037;0.39169645;-0.0801896;0.036382735;-0.2019535;-0.039615255;0.06554319;-0.02043017;-0.008895556;-0.1316696;0.14803065;-0.033280067;-0.024252499;0.00204244;-0.13111724;-0.15184863;-0.021854334;0.046415884;-0.108380735;-0.059195165;0.087190494;0.028894585;0.1962671;0.048351597;0.010465204;-0.52346134;-0.03827862;-0.09004152;-0.06689788;0.04776659;-0.038495287;-0.022375293;0.063883394;0.16517745;-0.014211398;0.0066203605;0.14355992;0.22308394;-0.010588735;0.00028502534;0.08264726;-0.04295499;0.034172397;-0.036941793;0.03184571;0.031480204;0.029655565;-0.16856463;0.0071801995;-0.18354899;0.021522177;-0.031992573;0.024934484;-0.07158631;-0.11865863;0.3458171;-0.012835229;-0.019052532;-0.02996767;-0.12675741;0.053228505;0.17669542;-0.06893218;0.06348407;0.0031091517;-0.042027693;-0.023692511;-0.09848068;-0.030017292;-0.23454522;0.032023165;0.007371146;0.08688831;0.027332466;-0.044205993;0.03263657;0.1363071;0.034010876;-0.04835143;-0.30004627;0.031448144;-0.047535777;-0.015695754;-0.015595722;-0.06056036;0.17029212;0.26678234;0.0020589978;0.20464909;0.039531622;0.22142723;0.065661944;0.123609915;0.038960848;0.011362523;0.17208773;-0.0400816;0.02737818;-0.12132015;-0.30536306;-0.10851904;0.09629763;-0.2503915;0.045722384;-0.075245075;-0.052003045;0.31383246;0.33596894;0.045257054;-0.037701875;0.031331718;-0.04789254;-0.16103688;0.02323141;0.26282096;0.015955595;-0.29722673;-0.02391763;0.16105102;-0.028982414;0.06592675;0.02220464;0.025997944;-0.15312071;-0.03230986;0.018278196;0.042185;-0.43294382;-0.044909652;0.013625986;0.035167504;0.008365703;0.050071668;-0.05146437;-0.09638332;0.14673139;-0.052974135;-0.11121624;-0.03135985;0.017734976;0.07765301;-0.1115003;0.039288618;0.13481054;0.21018751;-0.060142826;0.005762592;-0.0045037265;-0.047364794;-0.117136195;0.17181781;0.001277732;-0.10455032;0.07782939;-0.23903678;0.035731167;-0.06366633;-0.1341627;0.28793746;0.13864146;0.098023295;0.08211584;-0.0022797878;0.02114966;-0.28517282;-0.26992112;0.04995191;0.050144684;0.20556213;-0.02157031;0.044058956;-0.17740463;0.040415864;-0.035732165;-0.009572663;-0.11493004;-0.044074237;-0.3204678;0.024819698;-0.032666046;0.08809424;-0.040358637;0.02333193;0.039535385;-0.13033965;0.04952356;0.27690974;-0.022846485;0.058309626;-0.017644566;0.12745732;0.2409384;-0.057270274;-0.09730178;0.040919762;0.06382577;0.03446137;0.043344602;0.042808983;-0.03889747;0.010647184;-0.018820379;0.14988115;0.059335675;0.17614439;0.011923256;0.11436345;0.058217384;-0.1729059;0.12709244;-0.13924313;-0.06685854;0.25905752;-0.018748691;0.015127258;-0.04027224;-0.03898443;0.069494754;-0.19576058;-0.43678257;-0.087309696;0.3384725;-0.013626152;-0.118867606;-0.46793747;0.021198982;0.1620859;0.025094537;-0.02165437;0.25702566;0.019517962;0.28715715;-0.1360083;-0.020270623;-0.25429717;-0.123821415;-0.05367903;0.004024756;0.25014013;0.023318343;-0.04093602;0.0017132064;0.020063821;0.10593569;0.191625;-0.060331132;0.0028454799;0.13323684;0.017763551;-0.19495223;0.1454151;-0.042901184;-0.037594333;0.05882552;0.0038128153;0.25964734;-0.16969794;0.049929995;-0.026949307;-0.20073785;-0.20864408;0.088683054;-0.015949402;0.019042172;0.14837797;-0.36813974;-0.13795263;0.08162626;0.026312578;-0.034956984;0.15010482;-0.060177352;0.122340225;0.1530076;0.029947294;-0.07055024;0.063395016;0.0073835542;0.052774865;0.110673144;-0.2904569;0.00019531828;-0.12929894;0.018568205;0.04046834;-0.1378343;0.21656722;0.008218781;-0.2946244;0.16275209;-0.024277639;-0.045489218;0.095712304;-0.101953015;-0.16129531;0.031404603;-0.06039998;-0.054870673;-0.011592242;0.18033923;-0.017845223;-0.030926613;0.118913345;0.15885758;0.30301926;-0.1399158;0.009514036;-0.022968564;0.03561167
0.06823142;0.21382262;0.051832065;-0.04553431;-0.03858056;0.11341704;-0.022028046;-0.033263963;0.1451485;-0.039813418;0.11187129;0.038055778;0.008562215;0.03481697;-0.062939756;0.0031033226;0.013280969;-0.23140277;-0.08354892;0.18932173;-0.21144302;0.04318458;0.02141973;-0.37917265;-0.01608303;-0.21461701;0.05065729;0.18723728;-0.03201725;-0.37228957;0.07558083;-0.1968382;0.19681035;-0.00534072;0.014743622;0.003776177;-0.06324738;-0.039861437;-0.05427054;-0.19469696;0.23528263;-0.026169026;0.06088869;0.32412142;0.28446358;-0.048772346;-0.042761862;-0.035375834;0.0508001;0.07260748;-0.024142276;-0.07556461;-0.005333101;-0.22049576;-0.2819154;-0.05305615;-0.36604023;-0.44596264;-0.013528365;0.05122085;0.029301712;0.22590409;-0.06892585;0.0026514155;0.09396083;0.06746754;-0.003442702;-0.0459861;0.254019;-0.00046214156;-0.00826662;0.031387307;-0.23819597;0.047417186;-0.09204385;-0.0048798393;-0.10198436;-0.015872175;-0.002795273;0.104942836;0.010530246;0.02690829;0.015789606;0.044973075;-0.049657874;-0.2779602;0.013012939;-0.03001181;0.05741284;0.018771533;-0.014392008;-0.05624357;0.022495259;-0.28597483;0.003995025;0.015410689;-0.1280203;0.004583629;-0.17830324;-0.17120244;0.0036151018;0.031150894;0.2613532;-0.10718196;0.035271626;0.15408261;0.07741164;-0.40999377;-0.0549735;0.34206325;-0.071731694;0.22593811;-0.05444291;-0.09981802;0.15525223;-0.00946726;-0.008837425;-0.2644448;0.29889992;-0.05664556;0.13574366;0.159963;-0.028301073;-0.17219006;0.06858951;-0.12040408;-0.08726119;0.19572492;0.05132307;0.02406306;-0.026315998;0.0111537995;0.17302488;-0.000611043;-0.057208057;0.0068295645;0.11856629;-0.027845336;0.031586386;0.0070229056;-0.0055928226;0.015738368;0.2613311;0.06528869;-0.095098965;0.06155563;0.15941374;0.07446521;0.06783092;0.08079568;-0.03285829;0.0716193;0.07767045;0.015306577;-0.2740389;-0.10783301;0.14921546;-0.033926856;-0.05365269;0.17144544;0.0452865;-0.1424656;-0.10727611;0.0433799;-0.060850468;0.124796115;-0.06255681;-0.010647106;0.008716362;-0.23460492;-0.091284454;-0.019264389;0.059996437;0.013329388;-0.2232378;-0.027903667;0.018035198;0.060664047;-0.013848537;0.07562209;-0.050706077;0.056968365;0.05885527;-0.122571416;-0.0006541283;-0.21825992;-0.07919603;0.00016214763;0.36251947;-0.052578133;0.046104778;0.110533044;0.050172787;-0.02535344;0.34110248;0.22136961;0.09098546;-0.00996539;-0.03172193;0.11625208;-0.16261849;0.12606558;-0.070047215;0.20087723;0.13526085;0.07070866;0.1530008;-0.32809958;0.14956385;-0.25787604;0.12779185;-0.010914956;0.20333162;0.02032225;-0.00976989;0.017860105;0.26955423;0.11456716;0.08362087;0.24727944;-0.2767454;0.11090964;0.010320181;0.021140007;0.116271056;-0.08919592;0.13435446;-0.24191166;0.09754091;-0.0113021;0.22343825;0.1224495;0.027491683;0.04008014;-0.08740788;-0.009717038;0.1363609;-0.014458421;-0.21283832;-0.17241004;0.23928429;0.17356686;0.23153132;-0.09135705;-0.16499284;-0.13390559;0.101941116;-0.27749643;-0.0006113923;0.015168644;-0.28667578;-0.003180841;0.07917465;-0.0449946;-0.029311214;0.13277149;-0.13315086;0.03735681;-0.025798539;-0.005420191;-0.041843988;-0.05662054;-0.06749208;0.058684178;0.0076536136;-0.018594349;0.06761227;-0.2896955;0.45440015;-0.03987967;0.1301634;-0.07532408;-0.042037636;0.06489953;0.067694746;0.015568435;-0.12233607;0.17747183;0.02548751;0.029950636;0.03213639;-0.15958133;0.03636673;-0.141469;0.07085555;-0.33217442;0.055052195;0.03592899;-0.037872657;0.12904412;0.032424238;-0.020897329;-0.32046306;-0.050021484;-0.044644844;0.05478111;0.23546697;-0.030229593;0.0061354665;-0.056810156;0.15855083;0.03870443;-0.047007747;-0.029966434;0.09545389;-0.10271814;-0.08593168;-0.054518923;0.046596672;-0.06618133;-0.18428048;-0.04756054;0.14043248;0.03273326;-0.15831076;-0.013857036;-0.13634902;0.015248163;-0.0924932;0.05061266;-0.08664535;-0.040786095;0.29511806;-0.040245067;-0.015914086;0.09110121;-0.22265646;0.07449779;0.10239837;-0.014050911;-0.036133222;-0.027200993;0.04906315;0.032060813;-0.068401575;0.0072125336;-0.23252185;0.13361949;0.106330834;-0.14227761;-0.06592274;-0.04482275;0.032269727;0.035071366;0.04558328;0.025400704;-0.07403759;-0.05376015;-0.019879064;-0.031041915;0.0025482085;-0.08801207;0.26864722;0.25403193;0.023195472;0.101798005;0.06566265;0.15875588;0.029824074;0.15053195;-0.06390437;-0.027207505;0.070858784;-0.06151511;0.04669873;-0.095267534;-0.3685377;-0.10015382;0.26767084;0.058660112;-0.034205984;0.05433857;0.023029855;0.2943113;0.34966353;-0.054394636;0.06648831;-0.016325008;-0.21112932;-0.022972267;-0.0760658;0.05131355;-0.07626581;-0.12358014;0.1080901;0.3898739;-0.2666995;0.12809928;-0.14522578;-0.11788886;-0.120546296;0.016473614;0.024593417;0.2605568;-0.20113744;-0.13289493;0.048129242;0.02354053;-0.0052749654;0.057487104;0.07079735;0.103983834;0.21592355;0.04422203;-0.06766935;0.0048531685;-0.152587;0.09880242;-0.11472688;0.054246902;0.09467866;0.24129897;0.035711095;-0.026228609;-0.0066427193;-0.048304494;0.012712325;0.007628911;-0.0154051175;-0.10386171;0.09714561;-0.15152502;-0.033496562;-0.1374977;-0.072306104;0.13308802;0.064786926;0.103537;0.13786721;-0.07864951;0.10366204;-0.3331653;-0.08367395;0.008255447;0.058315292;0.17624356;0.08182089;-0.12669854;-0.23500273;-0.0015042031;0.01043702;0.049466886;-0.01977092;0.11847314;-0.09094425;0.0252445;-0.045292974;0.012959888;-0.047358193;-0.009959899;0.010005355;-0.07536059;0.03331114;0.23990892;0.0032624884;-0.050146174;-0.052743755;0.10668929;0.17767048;0.032698836;-0.1092088;4.480071e-05;-0.037315093;-0.0018091182;-0.06073822;-0.0718346;-0.062458355;-0.043957096;-0.17356691;0.032849543;-0.14563051;0.2396742;-0.016656308;0.07777231;0.071931764;-0.20095502;-0.10996078;-0.25337395;-0.019499633;0.18527573;0.013336012;-0.035778433;0.013839711;0.007192129;0.13443048;-0.17670244;-0.39495018;0.036123846;0.24254535;-0.090088174;-0.0931709;-0.28397113;-0.032077674;0.26866737;-0.0069594397;0.0061928458;0.17386943;-0.08962159;0.160127;-0.06479154;0.03202243;-0.3877482;-0.093554504;0.0321365;-0.047452223;0.14350465;0.0056351614;0.021178236;-0.012862628;-0.06357668;0.07440925;0.021232922;0.087637015;0.022802614;0.06425222;-0.0285804;-0.10933835;0.22360039;-0.14511813;0.04616205;0.06522523;-0.027548825;0.20737223;-0.14460218;0.0607983;0.0025666088;-0.15345366;-0.21355551;-0.015637849;0.053242277;-0.0054836217;0.009059757;-0.25908738;-0.17265187;-0.049090944;0.012438187;-0.0065812487;0.07923334;-0.031189773;-0.010267054;0.2536937;-0.025231328;-0.1514486;0.2418389;0.01423007;-0.1581323;0.11456185;-0.16079251;0.015377172;-0.09796407;0.03481943;0.08853707;-0.2979988;0.16145882;-0.027417922;-0.23753372;0.19858295;-0.095974;-0.022526015;-0.027989509;-0.1135106;-0.08105224;-0.07359571;-0.011976246;-0.17684674;-0.060189765;0.06383259;0.06265567;0.07193574;0.15272127;0.20104381;0.38317487;-0.02807236;-0.039986067;0.07362621;-0.070384674
0.1051899;0.26277924;0.019601205;0.04282234;0.033913802;0.04207976;0.097201034;0.01192618;0.15154187;0.030954821;0.04068866;0.16364555;-0.009645113;-0.039103366;0.02707671;-0.009531525;-0.03793012;-0.20410106;-0.03047408;-0.03281417;-0.16231172;-0.059631072;0.090252146;-0.23507501;0.023027744;-0.38328958;3.6641704e-06;0.15061924;-0.07890381;-0.50343496;0.1736152;-0.1039648;0.17227376;0.049116928;-0.001550687;0.0074168923;0.0958775;-0.21037059;0.034455903;-0.06336534;0.17011632;-0.03267256;0.070965014;0.20351641;0.31619948;0.04788471;-0.049685128;0.03933152;-0.0389939;0.036120754;-0.03704745;-0.035849206;-0.09508893;-0.20849235;-0.21521929;-0.026911141;-0.4127275;-0.46986547;-0.011553488;-0.029291099;0.005101522;0.19126709;0.050094448;0.0014932283;0.079742245;-0.056768965;0.007888739;-0.0716483;0.09890728;0.032194342;-0.113925226;-0.0597797;0.02632258;-0.036790725;-0.14789754;0.00221129;-0.07778163;-0.047750548;0.028490467;0.04190509;-0.028944826;0.052318178;0.011108984;-0.13580413;-0.14408006;-0.0855125;-0.029954635;0.010880788;-0.06606019;-0.04817326;0.14413217;0.0020114093;-0.13944964;-0.091039695;0.057193;0.025404798;-0.01450295;-0.086705945;-0.091543935;-0.09661621;0.15855788;0.20966126;0.23425134;0.005068354;-0.08137918;0.077800475;-0.08537908;-0.40371138;0.06548235;0.3124084;-0.03409942;0.098512955;0.0060802824;-0.06822226;0.18357028;0.043362822;-0.0022263145;-0.40987796;0.13394836;0.09447099;0.12947577;0.24555433;-0.075937554;-0.060780406;-0.10751087;-0.05935891;-0.21992585;0.024959575;0.048753522;0.09552786;-0.041492205;0.10511146;0.1866635;0.0127909;-0.09002087;0.06428962;0.022219226;0.015871428;-0.07407796;-0.14105761;0.030170413;-0.042720336;0.3011258;-0.09168786;-0.08077179;-0.050847355;-0.029628895;-0.066618435;0.07481687;0.020129215;-0.030000525;0.12967128;-0.030084098;-0.09181264;-0.23666173;-0.17703009;0.05466111;-0.057017915;0.075476766;-0.02007952;0.13403393;-0.12631553;-0.25388992;0.014457773;0.038090967;0.031632002;0.03589366;-0.016873829;-0.055648938;-0.27266765;-0.03267724;0.034631398;-0.098414406;0.20545182;-0.056071013;-0.20782365;-0.039351624;0.034003634;-0.07415748;-0.0250961;0.028034113;-0.012757683;-0.06817966;-0.14879034;-0.037297644;-0.22539693;0.035322838;-0.113980785;0.16283;0.030197758;-0.014584876;0.123221524;0.023483949;-0.011690524;0.2073607;0.35423625;-0.106619895;0.14614028;0.15636818;0.11306486;0.008664693;0.10813689;-0.19736913;0.25909394;-0.016890906;0.08501088;0.17489591;-0.40487474;0.07838235;-0.20880835;-0.0040665017;0.08958023;0.024607768;-0.05876323;0.06506906;-0.04201291;0.1920032;0.22937404;0.21798208;0.2764666;-0.113881886;0.08322548;-0.012477657;0.03486782;0.19007544;0.042493436;0.26354268;-0.15098937;0.11448353;-0.011951299;0.4161401;0.060853023;0.0067614517;-0.034312803;-0.14919376;0.03299733;-0.046024997;-0.024459299;-0.22797664;-0.21694295;0.2144114;0.13788897;0.062890776;0.02708885;-0.2895613;-0.12981054;0.01436371;-0.24688643;0.013698778;0.011035245;-0.16865677;0.013369226;0.088550985;-0.239728;-0.055235557;-0.06295953;-0.06002559;0.094268486;-0.02579141;0.0060341284;0.06200181;-0.10671603;0.010258086;0.03034621;0.0034547506;0.05724304;0.08031027;-0.22987069;0.2868774;-0.018037153;0.056775942;-0.12595709;-0.11493573;0.057360526;0.036611095;0.05754486;-0.07751715;0.13092716;-0.06497571;-0.02799736;0.0023139708;-0.14438419;0.07632064;-0.26158458;0.02510478;-0.37032515;-0.01065975;0.12709515;0.026328653;0.041962985;-0.18933848;-0.25466937;-0.3621728;-0.020871026;-0.2508831;-0.070505805;0.10215218;-0.10204966;0.027695164;-0.0033281238;0.25535515;-0.07277155;0.0375005;0.0156117445;0.009563627;-0.11010101;-0.07610971;0.038235333;0.20263144;0.06691259;-0.009656578;0.031635966;-0.0129507035;0.011358575;-0.26091266;0.039916415;-0.25287902;0.046056893;-0.018701158;-0.035983514;-0.1212856;0.08257408;0.15593818;0.058846172;0.04542592;0.109758414;-0.06243685;-0.05221044;0.08766431;0.03637206;-0.015851118;0.0438571;0.005715168;0.009861738;-0.12519109;-0.026081897;-0.12377591;0.04971076;0.0942558;-0.14019243;0.018688912;-0.3242892;0.037161168;0.07481283;-0.11292165;-0.0631662;-0.029146422;0.02517113;-0.2709273;0.037406247;0.0057511665;-0.06529412;0.19378173;0.31741047;-0.05932132;0.04176084;0.0065918136;0.1232617;-0.08229568;0.093639605;0.016712597;-0.0509678;0.07931755;0.029832808;0.14013457;-0.0152468635;-0.43270454;-0.09537975;0.13170005;0.06386821;-0.034634892;-0.009358237;0.0031850697;0.09576083;0.26346067;0.0065327557;0.08087393;-0.08078135;-0.33008847;-0.12677541;0.10071712;-0.01904131;0.08862043;-0.150541;-0.032625;0.121935;-0.31931242;0.0772501;-0.0784937;-0.08287429;-0.111456804;0.03392377;-0.058369145;0.16121411;-0.17974345;0.07302275;-0.057323735;-0.029467588;-0.016147705;-0.07214554;-0.109886736;0.049516555;0.1959592;0.00920668;-0.16273294;-0.0198318;-0.10295499;0.014496486;0.015950302;-0.06364852;0.06568385;0.071987875;-0.014142187;-0.037084803;-0.07826987;-0.20039637;0.043471165;0.104894884;-0.002223751;-0.073052146;-0.042779885;-0.1268204;0.036641054;-0.17237139;0.03305929;0.11965908;0.04772364;-0.033155728;0.25936803;-0.07789887;0.122833505;-0.297962;-0.08405654;0.07760521;0.03822129;0.13567676;-0.07979024;0.03308828;-0.2739764;0.0069087585;0.07096229;-0.09768939;0.03539096;0.13365012;-0.1494825;-0.031096244;-0.043209787;0.021096434;-0.0064837015;-0.036694877;0.03965635;-0.29092255;0.007168278;0.23263343;0.05482376;-0.00801788;-0.08787651;0.19213757;0.1452464;0.028921323;-0.057105742;0.02425083;-0.052145746;-0.016489431;0.031544156;-0.21142285;-0.0254373;0.045856703;-0.24310145;-0.03782257;-0.070842355;0.32435173;0.046052538;0.086636424;0.023326168;-0.27999362;-0.16927704;-0.050510027;0.043976333;0.16309711;0.06479603;0.047910664;-0.03297258;0.049941555;0.13801146;-0.11645784;-0.36070898;0.035995983;0.25603855;-0.15422566;0.05140503;-0.22609758;-0.024970597;0.34765127;-0.04330034;-0.0017200805;0.2147682;-0.08101774;0.16373053;-0.015643466;-0.013079772;-0.28517053;0.022766506;0.02438614;0.035636634;0.14609289;-0.058937527;0.028899066;-0.07801342;0.051827934;0.059937317;0.02473994;-0.06145472;-0.046761304;0.0012991561;0.024825675;-0.14699557;0.24403132;-0.03699875;-0.030903462;0.29717797;0.03577226;0.25687385;-0.017595423;-0.05401706;0.06691045;-0.10167132;-0.096560635;0.0394513;0.046661064;-0.013405251;0.10678122;-0.23805796;-0.027218454;-0.013360081;0.016925447;-0.0052855955;0.046466794;-0.028154522;0.030171579;0.12883033;0.052719906;0.06719712;0.14960313;-0.03908421;-0.49487308;0.030577993;-0.009706653;0.03570316;0.012280624;-0.041191466;0.20554954;-0.1301456;0.10640953;-0.03816048;-0.2896402;0.2231374;-0.24477738;-0.048819374;-0.09369554;-0.23780173;-0.07165344;-0.036236007;0.049431626;-0.14831156;0.03968046;0.12662676;-0.048011698;-0.0045050443;0.012186519;0.23299083;0.35312468;-0.062474266;0.031953048;-0.023820719;-0.06658542
0.20335148;0.08957928;-0.056859303;0.08705089;0.019324727;0.012390457;0.11597724;0.04162462;0.09161207;0.020957625;0.14741904;0.094524354;-0.039568566;-0.020490801;0.09015362;-0.02552683;0.0037961188;-0.11338968;-0.034013014;-0.18452151;-0.15555719;-0.11741485;0.08753347;-0.27026588;0.023957731;-0.24279389;0.04044865;0.046709348;-0.079681925;-0.45642146;0.077989094;-0.13164756;0.28797534;0.012396606;0.009032154;-0.049141183;-0.04503997;-0.12866437;0.014225917;0.073488094;0.22265553;-0.014097277;0.15959935;0.014526995;0.5398083;0.009752712;0.022697255;0.005827501;-0.023437027;-0.15090127;0.05049271;-0.025039075;-0.08682166;-0.17264853;-0.1561686;0.003910999;-0.1586968;-0.46550903;-0.081924416;-0.043156244;-0.018353269;0.18872029;0.037144806;0.031663578;0.034879044;-0.06749249;0.043977376;0.014822443;0.14761883;-0.016610423;-0.28443828;0.05482982;0.0569029;-0.00049827644;-0.07950104;-0.024588289;-0.1890567;-0.0849491;-0.0534214;0.09209336;0.014940452;-0.045909293;0.009311428;-0.14524654;-0.18218441;-0.042128623;0.08401051;0.10338443;0.07931643;-0.023245972;0.12292849;0.04205433;-0.13882074;-0.015834853;0.025385568;0.07554196;0.08642648;-0.2708693;0.04290635;0.016375821;0.17706928;0.07291636;0.09832149;0.0594785;-0.023353452;0.10272534;-0.13244748;-0.390818;0.14481136;0.23429656;0.049488414;0.17920786;-0.015517877;-0.21365954;0.067345314;-0.0018336218;-0.011077007;-0.37553367;0.21656874;0.09093572;0.18483448;0.24900039;-0.17674455;0.017277345;-0.08984384;-0.11134822;-0.10043856;0.0746803;-0.14423186;-0.043498322;0.15738975;0.09978037;0.09421171;-0.008113941;-0.14180458;-0.071461804;0.11768074;0.066681355;-0.040981475;-0.14169508;0.065149024;-0.06024598;0.28262836;-0.06313786;-0.04310434;0.0036403344;0.12479774;0.06455283;-0.11552278;0.11825697;-0.0023071873;0.14222467;0.052486625;-0.05840806;-0.26862505;-0.15603355;-0.04990795;-0.05396952;-0.02594008;-0.04892812;0.059555765;-0.12494297;-0.24106996;-0.037624225;0.056549743;-0.05762221;0.013216707;0.0025203088;-0.09850587;-0.28356826;-0.10339152;-0.033358745;0.006662202;0.12948245;-0.101892784;-0.18316476;-0.0075979163;0.019298673;-0.11371109;-0.015516754;-0.0440024;0.0048098736;-0.056644447;-0.13429789;0.008369472;-0.16396715;0.050643094;-0.1202142;-0.019669207;0.017888533;-0.18109164;0.047722355;0.029151205;0.017264696;0.058835965;0.31924433;-0.063497685;0.05433937;0.20400026;0.024644254;-0.018423457;-0.08398844;-0.19815797;0.13733374;0.04824796;0.14840162;0.30798545;-0.38821903;0.114129305;-0.33730742;0.012612048;0.18978034;0.09589367;0.0023013933;-0.04574126;0.014735494;0.061525077;0.21513435;0.20630878;0.320311;-0.317694;-0.04665009;0.22334008;-0.08974589;0.13583373;0.17794704;0.30960542;-0.23838611;-0.012624402;0.009046858;0.33367836;0.068061106;-0.04533462;-0.09362296;-0.17579438;-0.11201946;-0.09147377;0.018159563;-0.16103342;-0.283308;0.20881183;0.25448364;0.12771897;0.0077955024;-0.25247824;-0.23609304;-0.080389135;-0.25142592;-0.012439676;0.009679677;-0.15813372;0.033349384;0.011598787;-0.16178371;0.043596715;0.022153217;0.102053486;-0.016633857;0.041338757;0.052404292;0.08018976;0.0048477645;0.018248312;-0.06631494;-0.0018856742;-0.047711458;-0.0149386665;-0.18212964;0.29242775;-0.12953885;-0.13307539;-0.17056412;0.018033326;0.029188767;-0.018539075;-0.04306577;0.08199069;0.16251132;0.05773588;0.012801676;-0.007594349;-0.053734265;0.100226656;-0.25888726;-0.060391404;-0.40980998;0.00024667534;-0.0093287425;0.07367137;0.056262925;-0.2668247;-0.22281492;-0.19186878;-0.05187033;-0.15573113;0.02043863;-0.16196819;-0.14663897;-0.0011301285;0.034571562;0.05369544;0.008165168;-0.03842802;-0.037421558;-0.02596665;0.074229546;-0.1825864;0.015051284;0.23828374;0.11531793;-0.08396016;-0.056391057;0.151438;-0.033088397;-0.2909055;-0.1413588;-0.15265341;0.07261827;-0.07764101;-0.045951176;-0.080316216;0.12427119;0.200101;-0.046149984;-0.031074204;0.05516409;-0.08481476;-0.054740924;0.13312766;-0.018596994;-0.028100334;0.0007359496;2.2857537e-05;-0.044714693;-0.026969107;-0.0053284126;-0.087117486;0.0105163185;0.15339291;-0.28023794;-0.00771928;-0.09980241;0.007057264;0.13597918;-0.08507137;-0.06347899;-0.02041069;0.074893676;-0.15300629;-0.05636942;0.03108366;-0.015654625;0.26262093;0.23909652;0.00079139025;-0.03767373;-0.056793753;0.059786275;-0.0054449076;0.20367715;0.1109787;0.045157842;-0.056184016;-0.06918852;0.12134295;0.007637651;-0.49807996;-0.024277572;0.12991215;-0.07678034;-0.028329307;-0.04755795;-0.018718597;0.035602074;0.1071624;-0.02947251;0.05269802;-0.062005613;-0.11809923;0.07923285;-0.0018483246;0.084863774;0.19425032;-0.13765016;0.0057056197;0.14665249;-0.27681038;-0.014021568;-0.18161912;-0.03987356;-0.25301734;-0.018406337;-0.023249144;0.15583853;-0.11708935;0.11328152;0.003534094;-0.015854552;0.010382371;0.037388965;-0.119732484;0.15035576;0.22756405;-0.02672711;-0.20314868;-0.002582745;-0.10731817;0.016152823;-0.06738593;-0.057424292;-0.0842228;0.07157936;-0.09857999;0.055874072;0.0330534;-0.0684412;-0.030093635;0.089287244;-0.027120026;-0.07783262;-0.2232866;-0.19620204;0.045419876;-0.16913904;0.057436302;0.23945759;0.15624066;0.15036875;0.31811228;0.034546055;0.111824684;-0.2887268;0.102036566;-0.003502115;-0.007938545;0.08083707;0.043321945;0.01267196;-0.18955997;-0.04078589;-0.022662776;-0.11539937;-0.045815222;0.16676101;-0.11582914;-0.0023587095;0.03902941;0.09057527;-0.023253674;-0.03325646;-0.1138826;-0.31325704;-0.02750944;0.10644281;-0.07374556;0.056578234;-0.10642138;0.17525493;0.14368868;0.14105314;0.0693239;-0.051348295;-0.024265358;0.03459161;-0.07109298;-0.2354771;-0.08051069;-0.018117;-0.1395007;0.013930696;-0.024593094;0.13902912;-0.056645274;0.069204636;-0.22194631;-0.23698138;-0.29871094;-0.041516922;0.030858055;0.13554467;-0.060304;0.022735763;0.031343527;0.05396316;0.10436467;-0.21623047;-0.3369071;0.06672514;0.18188137;-0.26113904;0.04667075;-0.23962146;0.0005374768;0.339269;0.033526424;0.011402267;0.3266314;-0.012936324;0.028061872;0.05393904;-0.06737455;-0.33701578;-0.089865185;-0.123444006;0.020310787;0.092424296;0.053518068;-0.019972377;-0.026113745;0.058332056;0.14936765;-0.12642242;0.056404762;-0.008866832;0.12325859;-0.038743522;-0.28967175;0.19391134;0.0921129;-0.035855614;0.15258048;0.052810375;0.1451302;-0.029986912;-0.06624095;-0.09334662;-0.118841484;0.0036859259;0.049788874;-0.014992889;0.03938952;0.04386443;-0.09296204;-0.014676274;0.040356632;-0.006887212;-0.020304766;0.14083436;-0.043445658;0.025388982;0.0935093;-0.00025236115;-0.00031778193;0.06600941;-0.07746002;-0.44629163;0.04936342;0.1798582;-0.05323103;0.099759795;0.00789291;0.2820912;-0.28434122;0.03125523;0.00085407955;-0.13972458;0.07214889;-0.06754393;0.059494138;0.07308091;-0.22376183;-0.12647441;0.019487772;-0.003226007;-0.10762328;0.06469409;0.15428706;-0.005773513;-0.0575836;-0.09702818;0.33957115;0.41189897;-0.084273174;0.021462645;-0.019925658;-0.011577978
0.27748394;0.0051262984;0.04840165;-0.009626213;0.036724653;0.034563463;0.122338265;0.00759406;-0.009046833;0.045971714;-0.010402692;0.038901802;0.061187014;0.05492969;-0.1740268;0.08061096;-0.025751479;-0.15841739;0.06010947;-0.18033351;-0.20647293;-0.17073591;-0.027490849;-0.055959173;0.023274466;-0.18429767;-0.017277783;0.016106445;-0.024324706;-0.6801329;0.10710981;-0.03040512;0.32318497;0.013824153;-0.008651962;0.00521792;0.05929789;0.019036204;0.07828628;0.09296549;0.106011994;0.06543802;0.22624642;-0.021790756;0.3806808;-0.103558324;0.04500238;0.09551417;-0.0042164046;-0.18863118;0.032411188;-0.049664617;-0.15137517;-0.18213402;-0.11697424;0.050128702;-0.10202673;-0.38763097;0.011493514;0.061845485;0.02365118;0.23940107;-0.05689069;-0.07023145;0.16438635;-0.012012855;-0.023110542;0.0013448291;0.13714759;0.06428682;-0.34367216;0.012242047;0.016270077;0.13024805;-0.0010521048;-0.020915553;0.033588365;-0.028123952;0.0008136477;0.07067873;-0.04738655;-0.022108447;0.01101549;-0.06670391;-0.19264063;-0.0994401;-0.058035325;-0.0049890336;0.041673616;0.0034067673;0.17885803;-0.06180606;-0.1544127;-0.08990954;-0.14480814;0.07584796;0.070417985;-0.11050214;-0.004329378;0.095753886;0.10784489;0.007538992;0.20173252;0.22195725;-0.1748004;0.06773058;-0.10656677;-0.36791593;0.02439902;0.24995506;0.11030725;0.24135722;0.026864516;-0.306153;0.026855415;-0.005788482;-0.030395346;-0.56283075;0.14274164;-0.093440644;0.11452447;0.090043955;-0.17118506;-0.0030366892;-0.031286716;-0.16375779;-0.06558545;0.028003247;-0.23375084;0.01823397;0.0053765723;0.15423399;-0.045879036;-0.0026698173;-0.105547346;0.039619707;0.0013241223;0.061816476;-0.080572;-0.17344463;-0.05504896;-0.06631782;0.24010038;0.013211361;-0.06305012;-0.026059419;-0.055261847;0.01618004;0.11139639;0.061917517;0.032165274;0.06632633;0.12487328;0.0749859;-0.31643954;-0.14497074;-0.02035757;-0.10684427;0.06207194;0.05986733;-0.052931264;-0.18889168;-0.07084121;-0.017902939;-0.064136215;-0.15569504;0.03063701;-0.024634035;-0.00954001;-0.27890536;0.07575831;-0.037228096;0.15253696;0.13317834;-0.031135788;-0.1169933;0.027351828;-0.029283063;-0.090971775;-0.06852607;0.052994188;0.0136766955;-0.067889154;-0.124017164;0.057997867;-0.21253863;-0.05971319;-0.15592928;-0.20203204;0.028346242;-0.030017281;0.0082859695;0.17086223;0.059489287;0.24031216;0.42426607;-0.0843176;0.034674395;0.1916879;0.11832849;0.016969271;-0.11305745;-0.20102215;0.15177453;0.12196723;0.18229894;0.31808242;-0.3552795;-0.03423943;-0.36308715;-0.0377062;0.1534899;-0.060966384;0.058863726;0.020313893;-0.025420569;0.05390519;0.15595703;0.17380944;0.3287724;-0.4987543;-0.03397785;0.05263871;0.038815577;-0.0013548892;0.14380959;0.2131344;-0.15649365;-0.089698285;0.045522306;0.17475714;0.00011495125;0.0049384627;0.035531126;-0.08103495;-0.026297433;-0.022819592;-0.058710482;0.0119573595;-0.17701766;0.13322224;0.2531423;0.024531038;0.038048204;-0.13202208;-0.33301887;-0.018733406;-0.005588517;-0.034265038;0.054754756;-0.32123503;-0.046076216;-0.03608448;-0.13665959;-0.0060917074;0.03760814;-0.055383608;0.06395799;0.030147115;-0.023651615;-0.07426691;-0.0498482;-0.01789802;-0.008218813;0.044856694;0.034062542;0.14403206;-0.14097437;0.2224962;0.0043777297;-0.023416204;-0.16096522;0.046078354;-0.091474995;-0.03811808;0.055398073;-0.022780875;0.08465997;0.03145782;-0.02530297;-0.047626276;-0.032463484;0.002736904;-0.15519811;0.1460464;-0.52112997;0.013347041;0.14353964;-0.04724869;0.086910985;-0.22695445;-0.027461544;-0.27772048;0.03321402;-0.3010273;-0.06680804;0.0045951847;-0.17539664;0.0032927499;0.01593084;-0.04588764;0.0070785917;0.020603519;-0.005281013;-0.030338665;-0.035553064;-0.12694761;-0.043711673;0.044502225;-0.08551722;-0.036991782;-0.0702274;0.045962963;-0.009367041;-0.2578414;-0.1717403;0.009700348;0.1622189;-0.08142923;-0.02491423;-0.093643375;0.06934949;0.22057183;0.013953966;0.011261055;-0.07745259;-0.21421863;0.04287387;0.10446185;0.021287497;0.03022389;0.00010761074;-0.0050083864;-0.0068989173;-0.07319937;0.03440853;-0.061345406;-0.14105605;0.07888241;-0.28182125;0.019747425;-0.11150571;-0.052052587;0.076326504;-0.059766006;-0.07985314;0.027210418;0.10621863;-0.05040926;0.03721076;-0.019670062;-0.020126237;0.34731007;0.14100033;0.022096014;-0.025055833;-0.04907891;0.15460151;-0.036720686;0.08152927;0.050885573;-0.068384744;-0.059111208;-0.059299238;0.123166375;0.032830745;-0.59158;-0.08467372;0.11191781;-0.19218343;-0.021735642;0.026100386;0.03831034;0.035470862;0.1317387;0.023739876;0.003683113;-0.12709899;-0.1474183;0.025719652;0.079615995;-0.053733375;0.028276058;-0.14614306;-0.06130977;0.041864164;-0.3860137;0.025834326;-0.13036387;-0.060329236;-0.08442832;0.028727042;0.017170561;0.32829067;-0.20443796;0.13267359;0.021119662;0.0015044516;-0.0018534759;0.050916623;-0.09162233;-0.037773553;0.31298515;0.061292313;-0.23010927;0.033585288;0.06881344;-0.037463415;-0.026002165;0.049017355;-0.026299251;0.10255486;-0.16051464;0.019199356;0.050881956;-0.15422195;-0.083988205;-0.028705245;0.09794435;-0.06780236;-0.18517034;-0.14041825;-0.047388855;-0.2537282;0.043353256;0.13056886;0.15483359;0.240242;0.14224704;-0.0036744706;0.14718984;-0.28262895;0.04694748;-0.031887963;-0.11874995;0.09853271;-0.034953285;-0.047471147;-0.117058314;0.017981501;-0.03835961;0.1318735;0.004268401;0.06505589;-0.20879973;-0.028296798;0.057493765;0.09477055;0.046695825;0.06540949;-0.08176391;-0.18473676;-0.06152992;-0.026532907;-0.00772761;-0.056475084;-0.18854477;0.040863458;0.26844087;0.11675452;0.13383417;0.059894457;-0.0069504003;0.04174767;-0.038714636;-0.19340917;-0.10659473;-0.04788208;-0.30310068;0.085767195;-0.09233471;0.33671963;0.048562035;0.107473925;-0.07974981;-0.23206958;-0.20591456;0.10598564;-0.057863325;0.15410458;-0.059245396;-0.052694626;0.049448308;-0.07749242;-0.051729932;-0.1724206;-0.16098154;0.042208888;0.1637859;-0.18628949;0.06957004;-0.2744799;0.04426973;0.25289485;-0.0036004095;-0.051739186;0.31989193;0.00010755512;0.011223224;0.08924479;0.10244766;-0.23863848;0.055463444;-0.12817056;0.03281858;-0.032015778;-0.024574537;0.01810086;-0.061587144;0.08107996;0.049329944;-0.12812021;-0.038965747;-0.0019124994;0.13524273;0.06443289;-0.1969319;0.13622808;0.07655391;-0.05090561;0.13886005;-0.057645798;0.17414348;0.15976039;0.039745357;0.013876263;-0.12024846;0.1929247;0.030143548;-0.042050604;0.1282605;0.029225528;-0.06966641;-0.03747705;0.044530235;0.028547112;0.022206016;0.16805962;-0.046334513;-0.019282889;0.07825277;-0.027698876;0.13103852;0.12315299;-0.048662122;-0.5062605;0.07881163;0.035173777;-0.024509158;0.048004452;-0.058918606;0.2535092;-0.23038939;-0.04340609;0.055098623;-0.15193106;0.056705173;-0.07309232;0.14045104;0.10227415;-0.280469;-0.11866395;0.06704373;0.049619503;-0.28763404;0.058797143;0.062890455;0.06841687;-0.039804462;-0.043870676;0.37958235;0.19357233;-0.023461832;-0.051743656;0.038132977;-0.004854209
0.2539492;0.0853411;-0.056848586;0.038523793;-0.031390615;0.077391036;0.24374335;0.0012766027;-0.08325637;-0.07283628;-0.040272605;0.10802789;0.032049123;-0.036219653;-0.26940194;-0.0040756087;0.003532672;-0.10960256;-0.109704785;-0.111606635;-0.2257168;-0.17978229;0.065719016;-0.026697276;-0.055775944;-0.2607647;0.037579328;0.088651724;0.08423397;-0.55926484;0.079634205;-0.118147016;0.43377414;-0.06936435;-0.04201782;-0.03607978;-0.05920075;0.041284647;0.1680373;0.16076103;0.25858986;0.042468272;0.1668731;-0.09899686;0.26761553;-0.12775746;-0.019681498;-0.019987015;0.0044615506;-0.37196448;-0.0374253;-0.006742197;-0.0465083;-0.19618618;-0.14488132;0.04732861;-0.17426272;-0.41286474;0.004035472;-0.0699216;0.033927344;0.1237801;-0.004507044;0.0068100044;0.25315264;0.009138231;-0.06475767;0.06442275;-0.070618965;-0.03622094;-0.3821402;-0.037323635;0.1482715;0.07774899;0.06978801;0.050372034;-0.13812506;-0.055253386;0.044031877;0.013449052;0.021454679;-0.20004591;-0.041705336;-0.010308037;-0.32355678;-0.12605594;0.0040846043;-0.11939561;-0.06789649;0.048230875;0.16063794;0.054668628;-0.06889689;-0.043471992;-0.19938348;0.14124814;0.1256186;-0.25592977;-0.069698215;0.04099042;0.20225659;-0.016223064;0.22626014;0.04878847;-0.16896303;-0.072679184;-0.08139634;-0.3992563;0.007156464;0.031709965;0.09074239;0.19320837;-0.019718457;-0.48770538;-0.010538856;-0.026529236;0.034972757;-0.5354218;0.10388897;0.0041281427;0.10867486;0.15621172;-0.19550806;-0.07133506;0.041614562;-0.1231149;0.010808264;0.17742543;-0.2489979;0.024371276;0.09332986;0.10246867;0.0823526;-0.0108712185;-0.09563603;-0.0009539814;0.08914425;0.021216642;0.011084937;-0.0134176845;-0.022460915;0.06064266;0.09748042;-0.03355938;-0.07236545;0.023109294;0.10947452;-0.068247564;-0.04603265;-0.053630073;0.0633002;0.046484146;0.10252726;0.028092884;-0.14161685;-0.074650615;0.012847298;-0.10791944;-0.01983911;-0.044196814;0.012094438;-0.2770408;0.03736025;0.05451534;0.08494644;-0.097736955;-0.02519906;-0.12534581;0.09530283;-0.0567498;0.15686287;0.03182793;0.16514981;0.010634338;0.08993988;-0.03367901;0.026621705;-0.02284839;-0.14377551;0.062058683;-0.02896477;-0.027726907;0.09120079;-0.26003644;-0.013338096;-0.2100056;0.039422613;-0.030297572;-0.0020824997;-0.019902546;-0.024307732;-0.06568595;0.09536562;-0.066325486;0.36645174;0.24280523;-0.03378645;0.0102376295;0.1880523;0.061126962;-0.10095837;-0.003637793;-0.17010272;0.030929701;0.1164763;0.15080689;0.34250876;-0.35086077;-0.021174064;-0.17940675;0.037523363;0.18543015;0.03795097;-0.015649503;-0.0033284877;-0.029376276;0.20748782;0.12534513;0.1301659;0.25754964;-0.50534976;0.13944525;0.1801794;0.009980232;0.028222112;0.026682163;0.30456415;-0.11518319;-0.029941725;-0.0057906937;0.28112122;-0.12557077;0.11548082;-0.13167353;-0.0931018;0.05057394;0.0596838;0.01751239;0.041866206;-0.31759098;0.09302069;-0.0075113424;-0.18638259;-0.024895376;-0.23823297;-0.31731138;-0.00094504014;0.03832493;0.075881384;-0.04796219;-0.30081868;0.011616085;0.025438365;-0.16123904;0.0011814343;-0.08217553;-0.03851092;0.02788323;0.04009891;-0.02719058;0.028362453;-0.05109604;0.0041789743;-0.013503461;-0.018476924;-0.04852056;0.07658906;-0.26669517;0.031181732;-0.09665966;-0.12755387;0.079401255;0.102482565;-0.18290299;-0.0008096963;-0.03327762;0.023437578;0.19919634;-0.013799803;0.014039727;-0.06210897;0.031676386;0.15950145;-0.23548268;0.060927384;-0.47473398;0.002530983;0.17878973;-0.085740164;0.044998415;-0.155688;-0.086560905;-0.242797;0.03075276;-0.070042744;-0.06438294;0.14666428;-0.2813186;-0.012461927;-0.028124189;-0.030122943;-0.0035472394;0.039041758;0.007869698;-0.13843696;-0.07159372;-0.22183575;-0.028302561;0.18156004;0.000110757916;0.07630948;0.06031825;-0.05411382;-0.030699287;-0.28259316;0.05384003;-0.23268309;0.47785252;-0.004026875;0.04964129;-0.2676204;0.061840627;0.14589337;-0.0060227388;-0.03928067;-0.008205304;-0.2354937;0.049762923;0.049270652;0.03911325;-0.013936732;-0.026679516;-0.074397795;-0.019387875;0.02349258;-0.01570919;-0.07203955;-0.08692053;0.1901463;-0.30349696;0.03276358;0.12059978;0.016086308;0.007316151;-0.024787325;-0.14057618;0.06014809;0.06803253;0.06082512;0.00048172107;0.002403514;0.19101834;0.24274996;0.0965281;0.0058463854;-0.023014676;0.04028359;0.13892305;-0.021169527;0.24287185;0.018250396;0.053194694;-0.073299214;0.077209435;0.053122826;0.06503899;-0.58094704;0.11867146;0.09557701;-0.21034443;0.047388233;0.0042104977;-0.014231406;0.063960575;0.111094475;0.051793236;0.02789656;-0.15687183;-0.26532888;-0.06020003;0.019877894;0.055383187;0.052658018;-0.048454575;-0.09266886;0.09142165;-0.3552825;0.043027647;-0.14837007;-0.20872778;-0.18291269;-0.07691152;0.089240044;0.330895;-0.21976954;0.04524294;-0.045204293;0.06656137;0.024991006;-0.06279608;-0.035810858;-0.037633736;0.23885241;-0.051341843;-0.30058804;0.0046478114;0.023620944;-0.03830499;0.018268779;-0.0039784336;0.036299992;0.17943934;-0.27329245;-0.032097615;0.032282505;-0.20285362;-0.12569976;0.049936924;0.07610842;-0.04838333;-0.20869352;-0.006674584;0.011540584;-0.05045057;-0.11314675;-0.050830074;0.107279584;0.20203267;0.17014712;0.0137240775;0.07985147;-0.14564085;0.025884302;-0.03610964;-0.07937765;0.2275129;-0.033580467;-0.031658918;-0.16623245;0.020058414;0.025769597;0.09035943;-0.095691994;-0.064668074;-0.19748802;-0.010396168;0.05704178;-0.07934389;0.041961517;0.03200195;-0.10689663;-0.23007044;0.04864205;0.043443065;0.0065682563;0.004730029;-0.16142397;0.032553867;0.089014985;0.023855831;0.16685109;-0.069964044;0.058353595;-0.015401894;0.04520644;-0.26479194;-0.08572041;-0.042588174;-0.31175846;-0.012592059;-0.042667076;0.2737593;0.020086374;-0.029463172;-0.075442865;-0.22624438;-0.19949971;0.085322015;0.009360203;0.13489904;0.049678303;-0.0054748827;-0.06982758;0.006544723;0.07159863;-0.13241158;-0.16909374;0.07659051;0.13706958;-0.25294626;0.06896628;-0.242896;0.03390582;0.19804107;0.0056956164;-0.009656297;0.19314563;0.22758576;0.28143826;-0.073051974;-0.073459566;-0.29209226;0.14574671;-0.20766476;-0.034556698;-0.051911585;0.048511166;-0.037634872;-0.04714178;0.039721977;0.23778892;-0.1186987;0.0095914155;-0.0018280303;0.13217281;-0.07382006;-0.2911946;0.14524859;0.026019841;0.047217593;0.075352825;-0.062472638;0.15771928;0.095825665;0.03615747;0.033904225;-0.07993306;0.15461065;0.10568742;-0.028403075;0.23812655;0.015446853;-0.0677197;-0.059575327;0.053620595;-0.056967825;0.007993361;0.21558449;0.18063395;0.19044374;0.14408906;-0.051838413;0.06922061;0.10690008;0.04300261;-0.5303268;0.007219901;0.15782404;0.001838516;0.106763475;0.07373963;0.28604934;-0.19370013;0.08610465;-0.028000744;-0.04567427;0.13260199;-0.11079889;0.022739423;0.03516239;-0.27761716;-0.13693343;0.026588473;-0.030046828;-0.13409081;0.0460521;0.023445506;-0.076485686;0.037527267;-0.1478567;0.30207697;0.27030465;-0.02459272;0.013684665;-0.055275176;-0.05947905
0.16939239;0.03726061;0.020429812;-0.077999815;-0.026369205;0.062617436;0.2932629;-0.01748515;-0.04178667;-0.010643874;-0.032762304;0.2285159;-0.07166954;-0.009001922;-0.14245547;-0.024305042;0.066757545;-0.23054549;-0.19578728;-0.08207812;-0.112817466;-0.14849767;-0.029827302;-0.15542863;0.013676877;-0.22357565;-0.051676907;0.010019514;0.043013986;-0.6052704;-0.020969277;0.018856987;0.36162463;-0.018254023;0.027138362;0.043961212;-0.06576786;0.10323182;0.102472626;0.1024942;0.14136927;0.015875602;0.18582465;-0.24292344;0.1572196;-0.10884936;-0.02746455;0.037297;0.05780015;-0.26095542;0.0019087564;0.0138653945;0.070164345;-0.18833424;-0.11174672;0.026700692;0.13529766;-0.27743763;-0.08655365;0.05525366;-0.01647908;0.27768424;-0.010600251;0.0340942;0.22563148;0.058810446;0.027029889;-0.082686864;-0.101278715;-0.0054085758;-0.37063423;-0.026665421;0.14895266;0.25602213;0.0037043458;-0.056093644;0.035606492;0.02691635;0.018638913;-0.12965809;-0.009396826;-0.15362652;-0.01720692;-0.06298241;-0.28914714;-0.058066633;-0.015817992;-0.15691702;-0.061746776;-0.068266205;0.048120517;-0.020551898;-0.10190835;-0.04574179;-0.14587444;-0.030696144;0.12919912;-0.20601453;-0.082446;0.057725906;0.04066969;-0.22491442;0.14885925;-0.020586735;-0.011832744;0.005069315;-0.07065451;-0.46480474;-0.07597037;0.038313407;0.15842271;0.20734943;0.03142961;-0.62745;-0.099193655;-0.03150996;0.033709787;-0.44081324;-0.104920596;0.013575756;0.27129745;0.10937681;-0.26850885;0.031123532;0.09516535;-0.13755704;-0.048068754;0.23750539;-0.34485936;0.065372325;0.16014028;0.09760453;0.006028975;-0.03389916;-0.23050748;0.012577862;0.055788994;-0.02210434;-0.06935407;-0.01047621;-0.01543809;-0.009440783;-0.011084818;-0.13698344;0.090312;-0.01158029;0.122960664;-0.007229758;-0.06385089;0.15170582;-0.012262271;0.15734182;0.22078604;0.023000743;-0.11299802;-0.13343735;0.12114159;-0.10347422;-0.068841815;0.016218537;0.09100838;-0.29668933;0.13459717;-0.05678972;0.054581303;-0.28322262;-0.011305749;-0.04683013;0.21641266;0.03916858;0.0035873512;0.031575076;0.10834796;-0.010668281;0.04679163;-0.05637929;-0.02142735;0.07515129;-0.2391903;0.054535743;0.020152014;-0.07704815;0.07014238;-0.40330672;-0.0013812301;-0.17091687;0.018238274;0.01769957;0.10811001;-0.035063274;-0.0836997;-0.05176392;0.13921992;0.012526901;0.2937733;0.2872845;0.057042405;0.03476703;0.17691877;0.04450577;-0.08500828;-0.119139105;-0.089355014;0.07329404;0.08084163;0.12871662;0.3907234;-0.30370334;0.0417009;-0.24318884;-0.15038852;0.19861013;0.012828054;-0.07305164;-0.038828906;0.035511635;0.18314877;0.026486844;0.13348722;0.25959522;-0.3339312;0.0012218565;0.1058041;-0.03128313;-0.039912753;0.011943095;0.14910139;-0.14816609;-0.20396306;-0.05852354;0.15699944;-0.038698398;0.053726185;0.04760777;-0.17832352;0.24083936;-0.015395509;0.039380286;0.11540311;-0.32473522;0.045908768;-0.100681305;-0.11159818;0.021003375;-0.07555946;-0.25727782;0.14411221;0.14972642;-0.05415906;0.068901435;-0.52183706;0.016356945;-0.023641132;0.010673959;-0.019523202;-0.18217924;0.018426225;0.054714806;-0.059486315;-0.012865893;-0.042825587;-0.0031366837;-0.021923913;-0.0012292815;0.00081536244;0.0060305344;-0.007878494;-0.37298888;-0.020046419;-0.18181144;-0.056676935;-0.015416724;0.22794162;-0.074549936;-0.01811347;-0.008034962;0.027858905;0.1298619;-0.019093292;0.02611444;-0.0009979274;-0.019923138;0.05352779;-0.1917964;0.040144455;-0.40827838;0.005926244;0.09182971;0.04556162;0.2362572;-0.19872752;-0.17548442;-0.17919165;0.05012982;-0.23757711;-0.09046442;0.02687197;-0.36446765;-0.068365045;0.04723169;-0.09440209;0.06579294;-0.034623917;-0.08131439;0.044294935;-0.12664293;-0.32802296;-0.047856417;0.11195546;-0.024564514;-0.06943693;0.05646743;-0.037019894;0.014524443;-0.12417379;-0.008561999;-0.110475816;0.3690098;-0.012070196;-0.0002924264;-0.27132154;0.00984284;0.08874285;0.040127765;0.08574686;-0.018433483;-0.14543265;-0.013297038;0.15514486;0.00019427566;0.03426048;-0.012427724;0.046851248;0.03784639;-0.016162053;-0.016824434;-0.019135337;-0.11942406;0.08461079;-0.30263165;0.0469669;0.12591332;0.060734265;-0.056218475;0.076367505;-0.2180075;0.033330813;0.11261009;-0.013140942;0.035708867;-0.065036684;0.23902477;0.3338644;0.10758387;0.01124276;-0.10678034;0.006715658;0.064504944;-0.14157403;0.15231207;-0.048683953;-0.009024039;-0.07601221;0.012939658;-0.0025991926;-0.065576434;-0.35378018;0.03766199;0.20256259;-0.23931669;0.045500353;-0.015453327;-0.056720592;0.1499749;-0.03074802;-0.015788427;0.06753891;-0.11595425;-0.15016821;0.008066547;-0.06976901;-0.05390683;0.15923625;-0.003682468;-0.12242513;0.20076773;-0.30182505;0.048142154;-0.112474225;-0.11375695;-0.20005687;0.049582478;-0.046053838;0.40498853;-0.1761699;-0.06922224;0.0024507234;-0.0538509;-0.036191642;0.007864265;0.02957245;-0.13081099;0.3318975;-0.017523358;-0.16126508;-0.029195776;-0.021706784;-0.09568581;-0.0022000673;0.010166064;-0.0870558;-0.051251896;-0.24124351;0.011578328;0.1646665;-0.12860897;-0.0919211;0.11536662;0.13728133;-0.032878492;-0.15809526;-0.19348782;-0.023718964;-0.07360578;-0.12938842;0.035873014;0.03139458;0.18096374;0.20470297;-0.043917295;0.09744129;0.055567257;-0.1968512;-0.07220143;-0.060683444;0.2656539;0.04098024;-0.021535266;-0.1087303;0.0252267;-0.04704605;0.19200423;-0.14232856;-0.12958913;-0.14434017;0.014366702;-0.05244;-0.1271028;-0.02172944;-0.064993225;0.05360921;-0.06287416;0.030180253;-0.05180866;0.032924622;0.035046816;-0.035193227;-0.027788969;0.0919016;0.22523235;0.23759638;-0.02758789;0.005436881;-0.026684958;0.020958504;-0.22323368;-0.07464198;0.08095269;-0.1845777;0.060491744;0.055081714;0.1538298;0.005766243;-0.0127016725;-0.12863815;-0.18903892;-0.0057563237;0.20657016;0.016252743;0.009630682;-0.02055854;0.016198143;-0.07572719;-0.011752617;0.03600978;-0.20003341;-0.14913572;0.05787374;0.118415475;-0.25633088;0.101096496;-0.20109536;-0.038783588;0.26522875;-0.04519669;0.06467986;0.24518648;0.17246363;0.24669904;-0.056342166;0.018659648;-0.2231819;0.07272802;-0.13961719;0.0069028647;-0.14967021;-0.019695416;0.049706288;0.04519435;0.1268722;-0.032182273;-0.05131477;-0.040767293;-0.007936518;-0.021904299;0.002062346;-0.43010187;-0.08361995;0.09681974;0.0047074375;0.1305877;0.07746674;0.084910296;0.16167621;0.011338762;0.03495649;0.0025615438;0.18240823;-0.0028498129;-0.028476851;0.20991631;0.03783096;-0.009587262;0.100532755;-0.11190133;-0.032773737;-0.00045207396;0.20085283;0.1676994;0.04177029;0.0712674;-0.06211242;0.19069791;0.192156;-0.07789504;-0.51287866;-0.030130444;0.12255767;0.02556435;-0.032576997;-0.030970983;0.17061533;-0.21263984;-0.06403856;0.030966885;-0.088911906;0.10304464;-0.07701112;0.088941716;0.08018928;-0.13479845;-0.12421113;-0.012805263;-0.019679924;-0.13690677;-0.020058228;0.00055001024;0.03980655;0.011209029;-0.20431432;0.104162835;0.19969065;-0.08080987;0.009049105;0.025384547;0.0668161
0.19484675;-0.03419512;-0.03490292;0.0019540743;0.002538105;0.14387846;0.4193301;-0.035556998;0.064129785;-0.0026773128;-0.0194677;0.029116645;-0.0062981085;-0.048324432;-0.11827659;-0.033309884;-0.053074986;-0.17715575;-0.21948385;-0.19581874;-0.12795356;-0.12985063;-0.05428498;-0.087102905;0.010481299;-0.19413683;-0.045630895;-0.027564324;-0.17335993;-0.5043417;0.03684398;-0.04541155;0.41021863;0.08620129;0.010418366;0.030533059;0.06532762;0.10394599;0.056813307;0.1421153;0.21978123;-0.046010464;0.20812091;-0.3275204;0.12622313;-0.2990055;-0.005951347;0.047338497;0.02004748;-0.013012399;0.023050575;0.09161532;0.14734736;-0.2405347;-0.058047768;-0.031459197;0.2753355;-0.18423367;0.09014852;-0.022325313;-0.07695177;0.30223727;0.041936934;-0.039436407;0.34936187;0.24781343;-0.025815476;0.047453493;-0.051304087;0.046307594;-0.2634642;0.014603003;0.22109917;0.19429286;-0.06131918;0.04070141;0.04988243;-0.03681093;-0.038619976;-0.31701326;0.01774243;-0.23675014;0.0072131874;-0.082731076;-0.39411545;0.0018252131;-0.012188938;-0.21801354;0.0034653684;0.037979368;-0.0047694887;0.03430322;-0.00444226;-0.120991774;-0.09758686;0.06468739;0.12042173;-0.0707423;-0.09421155;-0.10510327;0.17065376;-0.19801216;0.17474806;-0.0894796;-0.045911226;-0.14287113;-0.011465096;-0.37254673;-0.059791077;0.15208496;0.05718264;-0.02257791;0.0014054779;-0.63703346;-0.15776882;0.03332781;-0.046683606;-0.45281243;-0.004961317;0.023794664;0.12789544;-0.055629134;-0.1924214;-0.013421614;0.11886405;-0.21384542;0.1574618;0.21323062;-0.43183616;0.11624006;0.18927269;0.101095095;0.108528376;-0.0035595305;-0.101874605;-0.027826307;0.10514927;0.08269051;-0.02858808;-0.018084226;-0.011974741;-0.043679357;-0.03622468;-0.09934777;0.0057327263;-0.0044663264;0.044908024;0.019456325;-0.022075733;0.054017004;-0.023328993;0.123581775;0.21034208;0.16231757;0.07091187;-0.14070535;0.23467022;-0.2359904;0.043565057;-0.057782345;0.3020275;-0.24812305;0.18394683;0.0054026595;-0.02769193;-0.23675014;0.022858795;0.14966263;0.12950808;0.00343857;0.07281292;-0.08254925;0.047431163;-0.004118356;0.0753239;-0.121398255;0.04198788;0.11245167;-0.13488905;-0.022273393;-0.034593888;0.06119797;0.06896797;-0.09715679;-0.07069941;-0.21831617;-0.04449549;0.073271796;-0.024830645;0.031120215;-0.24076208;-0.13286194;0.0069136834;0.031746898;0.3412944;0.14776297;0.21808381;0.034164853;-0.04068916;-0.09580029;-0.10478801;-0.13669041;-0.13930976;0.06660694;0.015268149;-0.054236654;0.33900532;-0.32042345;-0.011650679;-0.054313846;-0.090426855;0.1731468;0.00575339;0.041512955;-0.022855641;0.064674646;0.113963686;-0.0716445;0.25764772;0.20180525;-0.14599705;-0.03781686;0.17244482;0.007387904;0.01916959;0.09577344;0.27248093;-0.025419248;-0.28414166;-0.012215222;-0.0112969475;0.036244117;0.19548339;-0.016083842;-0.15515305;0.1466328;0.050851446;0.03501468;-0.08578873;-0.22276604;0.13666295;-0.08587978;-0.3384683;-0.022131117;-0.11649279;-0.37896568;0.052150074;0.1834568;-0.01397354;0.029750107;-0.27983642;-0.038765818;0.019552536;0.07821044;-0.01571929;-0.11374351;-0.0053452263;0.07425833;0.00753902;0.013348798;-0.08151762;-0.15232232;-0.010312481;0.05687721;-0.023280011;-0.027408099;0.098253325;-0.2739863;0.12810946;-0.1799587;-0.11922993;-0.027545441;0.18100716;-0.09031828;0.03256448;-0.018722074;0.070433035;0.09542475;-0.012584556;0.009000516;0.052455515;0.13231519;0.075876005;-0.16620125;-0.003934778;-0.3610757;-0.05073196;0.10160407;0.06492698;0.2136428;-0.031477094;-0.3188094;-0.38850275;0.097847044;-0.1748066;-0.23253456;-0.014261723;-0.18487993;0.03336771;-0.06318839;0.009173819;-0.016959688;0.018381704;-0.0077365413;-0.05741658;-0.03130871;-0.3060646;0.010789855;-0.023140969;0.036201116;-0.09490164;0.03343583;-0.019969516;0.056166355;-0.22030246;0.016446656;-0.14342244;0.33593267;0.15104258;-0.008401225;-0.1744865;-0.07898164;0.25603032;-0.04077597;-0.07252888;-0.07420187;-0.22557776;-0.022701943;0.2568215;-0.036513288;-0.040402137;0.077878244;-0.0050936057;0.013625667;0.017164612;0.029313615;-0.09536325;0.105612025;0.06419209;-0.11962644;-0.021991698;0.1512071;-0.08573237;-0.11172717;0.02820806;-0.24128099;-0.08414787;0.04248983;-0.012221747;0.01589823;0.017556472;0.1344408;0.34486112;0.095563;-0.06616056;-0.057323296;-0.022436414;0.0059622857;-0.14164455;0.12017911;-0.049289223;0.031022415;-0.07743192;0.06915756;0.07618336;-0.070336364;-0.23388822;0.1278609;0.1710672;-0.2342492;-0.01922584;0.019648662;-0.01262149;0.16745515;-0.025068598;0.019628318;0.054834127;-0.09933677;-0.057183065;-0.26146474;-0.060746375;-0.11655467;0.029037869;-0.08442719;-0.1580004;0.1374364;-0.13608506;0.05954669;0.03977321;-0.076668404;-0.20299834;-0.04244701;-0.010408847;0.37335604;0.010461111;-0.12725651;0.018559102;-0.008096885;-0.023988029;-0.011823805;0.15072249;-0.23344116;0.4025273;-0.010689956;-0.18414138;0.027219862;-0.11247816;-0.003531671;0.053655274;0.013247443;0.044210374;0.069423005;-0.15212826;0.027749317;0.15255895;0.11655066;-0.2114995;0.08818224;0.10772309;-0.048367858;-0.2561137;-0.107292525;0.024435664;-0.10422765;-0.11894848;-0.015942713;-0.050080556;0.03868423;0.07348492;0.020723613;0.053330187;3.2172633e-05;-0.3186588;0.062312227;0.045171753;0.31317157;0.021826485;0.009809651;0.015013032;-0.055029087;-0.030425385;0.2601837;-0.08676568;-0.29676202;-0.04175234;-0.0049464065;0.020264462;-0.10257726;-0.048806995;0.009954057;-0.161698;-0.076970555;0.035524502;-0.22612077;-0.022197027;-0.002446974;0.0032866176;-0.033858035;-0.044033576;0.17495935;0.036046226;0.08074069;-0.15455554;-0.034804318;0.022972418;-0.25826797;0.09384857;0.011638903;-0.10751075;0.10726545;0.14880256;0.2148157;-0.035888545;0.0895635;-0.20731638;-0.12025825;-0.0020412276;0.0955785;0.013562655;0.033519365;0.0025630116;-0.06843663;-0.036176242;0.05246892;0.15652499;-0.18687189;-0.1654867;0.14445215;0.01763563;-0.22487947;0.07043628;-0.115933426;0.016192043;0.023586666;-0.02611849;-0.0040519168;0.11558522;0.29649308;0.21558149;0.08381723;0.015746875;-0.19704683;-0.063228145;-0.29752573;-0.049478788;-0.19754256;-0.014895184;0.017565321;-0.032543108;0.09158271;0.0442386;0.03735114;0.044258468;0.054053426;0.05224203;0.04041887;-0.2979191;0.0002209228;0.14096852;-0.010641218;0.106726505;-0.021876417;-0.048542872;0.049528535;-0.027734715;-0.0072969487;0.041470103;0.091870375;-0.035795752;0.031065669;0.21886778;0.097695604;-0.21912764;0.008144782;0.04713464;0.051887523;0.0034434502;0.04581346;0.13381335;0.0011880003;0.0103797745;0.038968604;0.17338587;0.1669873;0.1108863;-0.36104006;-0.056307603;0.13824423;0.0036776392;0.030600412;0.061933585;-0.007997155;-0.2835038;-0.008482111;0.040556673;0.007095983;0.19315058;-0.025881305;0.047887255;0.091162495;-0.15324302;-0.046547864;-0.00955858;-0.05589822;-0.21587402;0.06388643;-0.1081586;-0.041473802;-0.010904473;-0.20171137;-0.03304088;0.10858353;-0.06676249;0.01546334;-0.03808151;-0.005803199
0.09010135;0.055692185;0.083961464;0.079105146;0.02852211;0.20941035;0.4838163;-0.055486824;0.03208911;0.03239019;-0.044494443;0.07492743;0.07152559;0.04606271;-0.03475052;0.01223989;0.05087893;-0.19263476;-0.2345515;-0.1591738;-0.011851608;0.032169282;-0.072971866;-0.081404984;-0.03208429;-0.1648763;0.067219354;-0.15292093;-0.10595514;-0.40392557;0.040355194;-0.1776881;0.44478247;-0.041754544;-0.015512215;-0.038087305;0.010132243;0.07470694;0.08802018;0.1256745;0.12529153;-0.019143606;0.47819886;-0.36147335;0.19411102;-0.16496001;0.053337175;-0.12693295;-0.034649674;-0.084909424;-0.011763756;0.13554758;0.24803941;-0.19594716;-0.116340175;-0.03980581;0.27261862;0.029181136;-0.02312007;0.049355697;0.020605005;0.26624852;0.029881325;0.032029957;0.40655887;0.24808249;0.016422104;-0.039643023;-0.11999385;0.013460188;-0.09163522;0.04674532;0.25545782;0.3247409;-0.06450543;-0.06523182;0.051768064;0.010724255;-0.006471446;-0.2459365;-0.003682208;-0.047371615;0.06695356;0.074890494;-0.3821538;0.036918882;-2.0886528e-05;-0.12637049;0.030769331;0.031862304;0.18025431;0.011610557;0.036323678;-0.035728823;0.009027922;0.08434447;0.10872863;-0.02842026;-0.08602495;-0.038309235;0.007144887;-0.33750063;0.10238277;-0.27732763;-0.012684175;-0.112594806;0.095636606;-0.24720007;0.041415706;-0.06795777;0.09603522;-0.011825325;0.010242299;-0.66172326;-0.14224958;0.00089334295;0.009220981;-0.38095325;-0.056727156;-0.04185852;0.19282654;-0.18861309;-0.12489866;-0.00586051;0.05294044;-0.063110456;0.27508172;0.2031718;-0.3550331;0.11699915;0.1784383;0.10849028;0.044409055;0.050647523;-0.060269613;0.014194262;0.062296342;-0.07264747;0.092692055;0.08122236;0.0036867906;0.08046849;-0.15175399;-0.020248136;0.22319776;0.017618826;0.1685545;0.0020419294;-0.15986884;0.1254319;-0.05553109;0.15830162;0.17947675;0.37608233;0.06504453;-0.11759094;0.15775307;0.0035308355;-0.03669605;-0.053519696;0.2258183;-0.24051009;0.20664527;-0.0017555315;0.013385248;-0.28213352;0.022482997;0.10217354;0.092622064;-0.024489397;0.10041727;0.07350714;0.02451656;-0.1853283;0.18713526;0.012229904;-0.022701316;-0.069759555;-0.150017;0.021302026;0.01025163;0.047363367;0.0012317926;-0.16163999;0.050481725;-0.28005058;0.020520711;-0.012821969;0.048241336;-0.004637045;-0.10452178;-0.03967953;0.0978661;-0.01821087;0.09714772;0.1552748;0.13435932;-0.030459415;0.091906205;0.008534225;0.021074556;-0.13438317;-0.001250279;-0.013758983;-0.060782008;-0.15528455;0.33191746;-0.25149864;-0.07936873;-0.012779699;-0.13103259;0.34493986;-0.0023939877;-0.0075899437;0.07065374;-0.05494987;0.07967866;-0.022531584;0.23281048;0.21220708;-8.55041e-05;-0.001213412;0.12224519;0.009158265;-0.013449473;0.03569983;0.19240612;0.03221984;-0.2957985;0.060273692;0.056482278;-0.13810153;0.16719876;0.0974538;-0.2988798;0.17266653;0.026753385;-0.048253756;0.03822682;-0.22662495;0.08441851;-0.07023451;-0.25901386;-0.031134158;-0.2053799;-0.32999504;0.07713392;0.17304681;0.036894407;0.025079666;-0.20789285;0.04016892;-0.051128924;0.21494965;0.01603664;-0.124801226;-0.13525468;0.07728026;-0.07462048;0.03718802;0.0038952925;-0.21518919;0.034736905;0.0048420946;0.0061150417;-0.060091145;0.06217854;-0.41302827;0.06045976;-0.01473351;-0.2403993;-0.015463924;0.23148698;0.022072744;0.040171023;-0.038059518;0.09552607;0.13859591;0.003079164;-0.014113792;0.017199282;0.1875896;0.17933977;-0.057862315;0.18323946;-0.44293934;0.04069655;0.22380589;0.010917773;0.047294155;-0.07999153;-0.31608483;-0.22143343;0.12926103;-0.2250019;-0.14830288;0.038254697;-0.31840205;0.053247515;0.0036406624;-0.06042597;-0.09152114;0.028204588;0.06929323;-0.13838969;-0.036411032;-0.27379957;-0.041776862;-0.048733663;0.040106263;-0.1364147;-0.018093541;0.06137659;-0.030086067;-0.16286957;-0.08119342;-0.19162707;0.1939144;0.18242584;-0.005597011;-0.19834265;-0.105572335;0.15716974;0.009621053;0.011761548;-0.1953128;-0.08958339;-0.04214701;0.09914742;-0.017218428;-0.021935659;-0.03581504;0.01872121;0.041348185;0.04475748;0.015247647;-0.12696289;0.2691227;0.050051603;-0.030638548;-0.03176371;0.0412762;-0.03454798;-0.0013965885;0.12255447;0.047136426;-0.07422534;0.049718432;-0.03865083;-0.05190516;0.028643984;0.08934918;0.25519878;0.14106151;-0.01243026;-0.18832377;0.12823859;-0.01681577;-0.0085890135;0.17381656;0.00019106027;0.030869223;0.11706631;0.18197277;0.009661329;-0.16133076;-0.35013008;0.055940628;0.22241081;-0.19505283;0.013282183;0.007899646;0.054300796;0.08157996;-0.05609675;-0.036232173;-0.0636214;-0.23211272;-0.26342088;-0.12673722;0.19192615;-0.12557833;0.17038335;-0.15816604;-0.14951535;0.2368407;-0.1253586;0.05026235;0.10624877;-0.10458996;-0.07469624;0.019908495;-0.016560491;0.39738202;-0.03475338;-0.08497562;0.015734987;0.024749538;-0.0058071306;0.044028524;0.020725075;-0.24051768;0.2749106;0.04920778;-0.12326879;0.047306787;-0.06664043;-0.033810638;0.12416071;-0.018525058;-0.023539372;0.22957093;-0.21852618;-0.05391198;0.1396571;0.2043035;0.06802897;0.1860839;0.100980006;-0.03265871;-0.15603904;-0.25615886;-0.04964683;-0.13347887;-0.037474494;-0.05675132;-0.035175372;-0.045143332;0.1038055;0.011018208;-0.042435035;0.15311353;-0.059651528;-0.09127753;0.1526994;0.20559375;0.002907981;-0.04532428;0.012258139;0.044940334;0.04232489;0.21678986;-0.12710692;-0.22049221;0.09802687;0.035918057;-0.007998176;-0.20058331;0.04994641;0.053915147;-0.07180169;-0.042360503;-0.038846847;-0.28212225;0.014367026;-0.041971426;-0.040261377;0.10196473;-0.05623427;0.10145713;0.20357497;-0.04072771;-0.09595871;0.051058643;-0.009308092;-0.23389998;0.15067181;-0.043080978;-0.094922476;0.12529199;0.0018019095;0.1398427;-0.028329229;-0.03759941;-0.16900763;-0.09544959;-0.0832287;0.1515646;-0.0034361244;0.06101428;0.053805742;-0.010286879;-0.00412933;-0.05792642;0.23545566;-0.14168662;-0.24485978;-0.10435254;0.16845594;-0.14366224;-0.017602455;-0.09122823;-0.02420194;-0.0103170825;0.049416997;0.008446498;0.09428949;0.16698353;0.23681468;-0.01598147;-0.018394211;-0.1706541;-0.22305787;-0.18692845;0.008005644;-0.1566853;0.0393848;-0.04232218;-0.013506774;0.061990816;-0.020425487;0.049024314;-0.021168424;0.015195224;0.02838368;0.013420272;-0.3078057;-0.093619324;0.17802791;0.053758997;0.10092656;-0.054999996;-0.037230488;0.042367894;0.0029151335;-0.03302966;0.053960275;0.1760923;-0.04721942;0.062226277;0.22011496;0.014318078;-0.2132854;0.12919457;-0.0017590356;0.014259108;-0.05662248;0.12067141;0.15322454;-0.081722744;0.009167379;0.038898878;0.110071994;0.034139898;0.035101954;-0.22097275;-0.01719284;0.12003832;0.030694086;-0.09756681;-0.030232703;-0.062907934;-0.36742643;0.011983035;-0.08640866;0.05607745;0.14689799;0.016409434;0.09007715;0.06014359;-0.11031326;-0.040778603;0.15596499;0.04580498;-0.16557284;-0.04853382;-0.1744698;-0.002036085;0.04386162;0.0026165918;0.118561715;0.09036164;-0.015050618;0.0989164;0.08993177;0.10144028
0.03259828;-0.035674956;-0.03675565;0.1745843;-0.018666837;0.15566118;0.37394565;0.083369724;0.06278965;0.0050112065;0.009467318;0.04065078;-0.08200277;0.006170477;-0.044016823;-0.008926246;-0.035206508;-0.14491725;-0.19296664;-0.28733912;0.07393443;-0.008629921;-0.0841925;-0.021814886;0.05280975;-0.024490962;-0.07327056;-0.18057708;-0.14843212;-0.2676217;-0.04525194;-0.16783929;0.3460854;-0.013692461;0.04385321;0.0078866035;0.0064218757;0.17745157;0.06185037;0.1638048;0.08958176;0.01051715;0.40856805;-0.2597484;0.11254861;-0.22614364;-0.01413311;-0.05431762;-0.064160466;0.028027106;-0.040215816;0.17117952;0.07321327;-0.23285457;-0.123953685;-0.05518931;0.1123829;-0.09591615;-0.0019928173;-0.060826503;0.025833089;0.32742795;-0.022508847;0.03446479;0.33551517;0.15189016;0.0191764;0.014203966;-0.09268231;-0.041969076;-0.08508603;-0.021217555;0.22087556;0.28901356;0.05855419;0.04303971;0.004383258;0.15076469;0.032263547;-0.264478;0.0013742787;0.032426845;-0.0072112544;-0.024133025;-0.2768721;-0.028619751;0.019337725;-0.23209499;0.06108288;0.027587904;0.15688384;-0.073640384;-0.013660724;-0.062583186;0.09678171;-0.014145325;0.20486943;-0.098093905;-0.022885913;0.058622736;0.15943365;-0.29170287;0.10564547;-0.21347116;-0.019677507;0.0647565;0.18463348;-0.32671195;0.033883918;0.11871579;0.15226519;-0.02290045;0.013733299;-0.792177;-0.17791021;0.009437481;-0.016220914;-0.43720466;0.006106573;0.13762394;0.09863282;-0.13996764;-0.05669176;0.19393128;0.21030776;-0.06511068;0.16725081;0.32421762;-0.33795372;0.11985322;0.088170566;-0.07499959;0.19928388;0.022471577;-0.07126925;-0.032300852;0.117176704;0.009452073;-0.019362923;-0.1553364;0.033326887;0.016668288;-0.2080265;0.017355096;0.25875714;0.009146821;0.23625685;0.01984036;-0.12011084;0.053841643;0.043747086;0.33505154;0.08815243;0.37632513;-0.03818172;-0.15236576;0.12600109;-0.09249838;0.07464616;0.053627517;0.12115296;-0.14367987;0.10325825;0.038555194;0.007364943;-0.17300895;0.043074653;0.2076227;0.19054855;-0.15677543;-0.02819551;-0.023860129;0.08773301;-0.22169471;0.047856897;0.05657737;-0.043823313;-0.090368375;-0.2690825;-0.028383795;0.0034355;-0.0030461664;-0.09299134;-0.2106167;0.045211054;-0.18017046;-0.05380938;-0.23963079;0.08961371;-0.019866195;-0.16094464;-0.0735149;0.020336669;-0.0015495513;0.07779213;0.015601009;0.19266154;-0.0010822635;-0.08530017;-0.004435193;-0.020731933;-0.12472863;-0.13154836;0.014669976;-0.18123604;-0.08237948;0.31165287;-0.24420677;-0.11105418;-0.08464087;-0.2203846;0.45819357;-0.059152327;0.03422423;0.008903487;-0.0005073902;0.090556055;-0.09962329;0.31054604;0.17021379;0.0052935174;-0.12737504;-0.026971629;0.011375255;0.030377576;0.04681677;0.011933314;-0.19752645;-0.2434103;0.04067051;-0.03415128;-0.12779203;0.18874158;0.21676387;-0.13558985;0.25662756;0.049065024;0.01851566;0.014954761;-0.19559576;0.12893413;-0.15233803;-0.2340036;0.019331135;-0.17544694;-0.4821009;0.13877475;0.29578024;0.018222895;-0.02617576;-0.16771905;-0.029841213;-0.042918723;-0.012694446;0.06660757;-0.07550738;-0.058774255;-0.03437338;0.017147247;0.015444537;-0.07532051;-0.32804832;0.03086849;-0.023049306;-0.039811663;-0.060373798;-0.064883165;-0.34028387;0.1613093;-0.0671468;-0.22803554;0.1494235;0.18608844;0.06343944;-0.088422224;0.060746934;0.06414658;0.0132415285;0.04622216;0.010406593;0.06698425;0.057439823;0.19251129;0.07507363;0.18111014;-0.4071526;-0.04416368;0.20613894;-0.031482875;0.005207241;-0.19263224;-0.2438171;-0.11846519;0.080046006;-0.26706117;-0.14771637;-0.20439802;-0.28066218;0.024596645;0.053184092;0.07402707;0.04178135;-0.0674208;-0.07683888;-0.19911483;-0.07104536;-0.25902975;0.05167097;-0.014561317;-0.03241397;-0.17028192;-0.05038172;0.15464623;-0.06764365;-0.22870925;-0.06465549;-0.14988582;0.013437815;0.17944144;-0.007918601;-0.31110322;-0.24293359;0.069543645;0.020892952;0.018467177;-0.22272408;-0.04678628;-0.01356959;0.07654262;-0.0050600087;-0.006383304;-0.04642753;0.016938854;-0.006616955;-0.06834613;-0.01205838;-0.028576685;0.008227797;0.16138566;-0.020689782;-0.033929486;-0.006638415;0.021067176;0.04780737;0.0020935023;0.18640414;-0.049685802;0.11806145;-0.104182266;-0.0042042146;0.042472355;-0.059300907;0.17236242;0.06382997;0.066261366;-0.16588655;0.06573799;-0.10984803;-0.05479821;0.109310344;0.008876362;-0.00794902;0.042310085;0.22371684;-0.028740833;-0.08326647;-0.09049269;-0.0056863003;0.18368937;-0.18614857;-0.04452748;-0.0066770273;0.005538393;-0.0016276264;-0.1027118;-0.056919023;0.008448404;-0.33100936;-0.09607148;-0.23143077;0.119336456;0.042102065;0.2659373;-0.05335343;-0.09891312;0.053708922;0.121709645;-0.018369634;-0.037138857;-0.08585737;-0.14983903;0.049056668;0.025555452;0.333333;0.14702669;-0.10827345;0.028693832;-0.035222467;0.050793312;-0.021740628;-0.11592996;-0.31233835;-0.003906621;-0.014270432;-0.18530026;-0.05903794;-0.18028438;-0.094359405;0.07262932;-0.0024724628;-0.15748186;0.09933579;-0.05796899;0.06782227;0.25222456;-0.003913457;-0.050632935;0.10079351;0.10732778;-0.11257557;-0.31145245;-0.23703153;0.09265574;-0.17268331;-0.11047813;-0.13678887;0.07818528;-0.10838161;0.04122009;-0.047840726;-0.052741136;0.097351864;0.09580808;-0.054171663;0.062404692;0.26191688;-0.04946236;-0.028392745;-0.06036581;-0.011015592;0.048191145;0.13158758;-0.06291039;-0.18527667;0.081574395;-0.02353129;-0.025229197;-0.22222103;-0.063923426;-0.02264588;-0.09832007;-0.060642272;-0.009080131;-0.28360394;-0.03431178;-0.048331957;-0.020192133;0.24032679;-0.06548473;-0.087219626;0.053355806;0.068268776;0.025932625;-0.022144182;-0.046675704;-0.25613517;0.17790867;0.012625165;-0.008837847;0.041642882;0.046668034;0.18949531;-0.035621896;-0.039027836;-0.07526771;-0.07411604;-0.11654797;0.06988887;-0.04042348;0.23536651;-0.015068171;0.03482463;-0.04738817;0.0075090798;0.3672355;0.02296357;-0.16893351;0.06684485;0.15255275;-0.16977431;0.09999732;-0.040615242;-0.034350503;0.19818108;-0.0047642095;-0.022671036;0.15691563;-0.011976743;0.056451205;0.010843099;-0.015042388;-0.29356807;-0.33160335;-0.44327092;0.01984389;-0.13857658;-0.033766933;-0.011848515;-0.044486973;-0.09289731;-0.11474475;-0.04118186;0.015008525;-0.016801417;-0.09380745;0.046591587;-0.50255185;-0.09879398;0.19912204;-0.017344458;0.16066441;0.017075414;0.0020814152;-0.08724843;-0.0070693707;-0.005637386;-0.073977;0.0582108;0.036246203;-0.0035176645;0.21265405;0.020623196;-0.118635714;0.17488158;0.009798456;-0.023343407;0.04354421;0.24703443;0.1108189;0.08233384;0.07437872;0.038286075;0.11523977;-0.01630213;-0.22627233;-0.13465466;0.033520315;0.1751006;-0.012370222;-0.12351366;-0.02372261;0.1298586;-0.25988862;-0.04019825;0.049433075;0.11273686;-0.038006287;0.061305813;0.0766941;-0.030289095;-0.22731388;0.05702124;0.07645543;0.07659588;0.009937821;0.03874534;-0.22046855;0.018976213;-0.03699442;0.006402603;0.09363077;0.2685506;-0.12758772;0.11610397;-0.03703748;-0.03192479
0.040875126;-0.013345351;0.0028854718;0.12551735;0.0020344255;0.16602819;0.37663484;0.02474099;0.17064032;0.009848725;-0.08524564;0.0010050476;-0.0023751562;0.006679644;-0.16586038;-0.004226124;-0.025872717;-0.10143117;-0.19780831;-0.24275512;0.053241037;0.021949986;0.035608135;0.03314809;-0.04327393;-0.117585815;0.045927905;-0.1430472;-0.09859313;-0.24954742;0.12530103;0.047869537;0.22345069;0.0413197;-0.024624353;-0.027924757;-0.06106705;0.105050296;0.033864155;0.2852277;-0.01355205;-0.052330464;0.27950498;-0.25240108;-0.042536236;-0.17894886;0.0060744225;0.041912958;0.015556432;-0.202687;-0.020693677;0.1620875;0.07564422;-0.26491892;-0.09824972;-0.018536223;0.1010422;-0.15696451;-0.09813808;0.053192254;-0.012493775;0.26536322;-0.047420714;-0.027270688;0.3260894;0.039617185;-0.010951816;0.034637433;0.006830221;0.025557658;-0.07383243;-0.026286334;0.3367106;0.31493807;0.20780975;0.027787313;0.098001905;0.16986103;0.0035824357;-0.1582458;-0.005916452;-0.08425906;-0.07643654;-0.07312207;-0.15689158;-0.2439323;0.04976107;-0.17834772;-0.011951489;-0.04577233;0.31002367;0.028286219;-0.038024165;-0.11778158;0.117317215;-0.08717181;0.2287735;-0.060185965;0.08511734;-0.016506586;0.048342105;-0.13460106;0.06411471;-0.108843386;-0.11133548;0.05353967;0.22702195;-0.43996423;0.13668363;-0.07888376;0.25946537;-0.09047621;-0.004346637;-0.819982;-0.190649;0.036939714;0.056176856;-0.3199084;0.06616558;0.0015332194;0.13627668;-0.20091213;0.028912062;0.24683863;0.25738227;0.015600043;0.27831462;0.14103524;-0.30002037;0.20186283;-0.01869129;-0.002136552;0.23891273;-0.045192968;-0.08442938;-0.0014418189;0.081366785;-0.0069081164;-0.12100649;-0.06999301;0.045263518;-0.055974714;-0.39489198;-0.03592054;0.2949657;-0.042627282;0.23402846;-0.033309486;0.061365556;0.005162284;0.048181247;0.44501612;0.16701701;0.17684479;-0.03786082;-0.083087355;0.15516825;-0.12628692;-0.012392235;0.08426369;0.11785393;-0.0005839101;0.21475829;0.010484189;-0.015595905;-0.041473668;-0.05044819;0.2551147;0.050595757;-0.28709155;-0.15408088;-0.06692716;0.047727488;-0.3132607;0.026721913;-0.024155488;-0.0647582;-0.089032255;-0.14111984;-0.02282355;0.018285533;-0.02693301;-0.04857454;-0.2677917;-0.053086076;-0.100900054;0.07926959;-0.21112895;0.24309434;0.017311696;-0.1749882;0.032432;0.14944279;-0.025270373;0.023613382;-0.17028452;0.24210915;-0.013296192;-0.1413869;0.11498411;-0.08345145;-0.0933031;-0.14856353;-0.12983371;-0.24886005;-0.032597214;0.27300692;-0.24472262;0.00014161534;-0.14464717;-0.17329888;0.3508679;-0.19936381;-0.015916718;-0.033143573;0.0016297884;0.07628356;0.1539033;0.20279859;0.070641726;-0.012754646;-0.17488824;-0.13898796;0.022231257;-0.10127642;-0.055930715;0.0475958;-0.098379485;-0.2724098;-0.10692749;-0.15268543;-0.12551416;0.21168047;0.27428272;-0.094592676;0.24976455;0.15016414;-0.03761245;-0.27278954;-0.0962326;-0.12507366;-0.21735811;-0.25911236;-0.019224992;-0.18955624;-0.38490385;0.16132662;0.25664952;-0.005617698;0.106400244;-0.057252355;0.028610501;-0.07515687;0.012486087;-0.047303237;0.0035814228;-0.08012488;-0.011516562;-0.04720304;-0.002055632;-0.07425049;-0.39518303;0.043595552;-0.046301574;0.024470976;-0.054155096;0.10581166;-0.36359036;0.11432459;-0.097114064;-0.225343;0.052401062;0.028574444;0.060397096;0.04035786;0.019293005;-0.053129613;-0.028317902;-0.014668781;0.0026179743;-0.05300073;-0.021606058;0.31136182;-0.038178783;0.12935846;-0.5648311;0.053044148;0.03188876;-0.0627001;0.01040235;-0.13495986;-0.21557492;-0.22756778;-0.083397165;-0.1304826;-0.062210225;-0.21890076;-0.2577405;-0.07845277;-0.067804486;0.13336045;0.018824395;-0.0049607637;-0.055649165;-0.26488742;-0.109095134;-0.35908392;-0.021208284;-0.02015497;0.050444815;-0.13339606;-0.011958313;0.26808167;0.050044782;-0.20120507;-0.073282614;-0.040465146;-0.03026939;0.2759491;0.041843727;-0.33485404;-0.17759535;0.0048932224;-0.028551504;-0.0076400014;-0.35275304;0.086212985;0.041238025;0.0260813;0.043526515;0.06983551;0.07206277;0.018132117;-0.056060676;-0.015942406;-0.047597386;-0.047162242;0.009242224;0.13336599;0.058115963;0.0014605726;-0.053804304;0.034652594;-0.050497927;-0.06519949;0.019109165;-0.0019742828;0.09273815;-0.10963574;-0.019538308;-0.050228894;-0.083423324;0.17856096;-0.002976816;0.038428556;-0.05778302;0.13066539;-0.00629652;-0.035431303;0.14078383;0.00047201366;-0.050580826;0.12725383;0.04136267;0.05637675;-0.13436587;-0.07952439;-0.002989165;0.2685301;-0.20245598;0.03533842;-0.0039161807;0.045294926;-0.0934374;-0.18812117;0.021621488;-0.14849442;-0.19140986;-0.06745089;-0.307759;0.0871638;0.14809805;0.22941324;-0.12031745;-0.11138994;0.014094502;0.06705169;0.018408844;0.0065375105;-0.09663774;-0.09786215;-0.0142880455;0.021179756;0.4935751;0.035456263;0.04699719;-0.054414533;0.02704809;0.031155173;-0.05368137;0.0820023;-0.33334407;-0.09518285;0.0481202;-0.04139459;-0.022194326;-0.1333131;-0.054262392;0.09814619;-0.025163533;0.019889511;0.049830534;-0.043693554;-0.055339377;0.24602596;0.0369875;-0.13461764;0.21901959;-0.016555758;0.0754939;-0.17256367;-0.20340218;-0.029280271;-0.12424093;0.0037015402;0.0016449627;0.20964655;-0.12510821;-0.022790954;-0.042605136;-0.19800663;0.1796638;0.13779703;0.094523065;0.1897457;0.24455535;0.018143825;-0.058722753;0.0031194144;-0.017109806;0.00875672;0.23402622;-0.16180079;0.0042950753;0.01980172;0.06872953;-0.0403244;-0.19381984;0.0888139;-0.096080676;-0.0058379867;0.16913217;-0.033969488;-0.22639735;0.02300591;0.033880822;-0.1305374;0.25395447;-0.01973313;-0.04618398;0.13738115;-0.063098565;0.016176723;-0.003779552;0.013683539;-0.2602642;0.2171411;0.026450709;0.022673007;0.010033071;-0.15296455;0.23128422;0.04644939;-0.024154149;-0.043097463;-0.018110583;-0.0849104;0.06287415;0.020876564;0.22384942;-0.0035749592;0.048604786;-0.06213708;0.020021064;0.30029294;0.10087488;-0.30559793;0.112196125;0.17546925;-0.11444901;0.10716305;0.043700516;0.04245996;0.15302086;0.025446441;0.02647174;0.05588546;-0.014282021;-0.15799737;0.0740014;0.062186584;-0.24880786;-0.3810513;-0.4253592;-0.046150967;-0.17741601;-0.019710062;-0.04594995;-0.03191225;-0.14440449;-0.0778462;-0.02684604;-0.057979338;-0.042586666;-0.11456107;-0.076662235;-0.52321297;-0.11251879;0.28604975;-0.021763355;-0.025970094;0.057143852;-0.012511083;-0.13695106;-0.0337204;-0.007524653;0.07503651;-0.009152231;0.030770399;-0.020968383;0.15053755;0.1305319;-0.13381313;0.03473113;-0.089042336;-0.05467129;-0.021168627;0.06073467;0.22932082;-0.078086086;0.022229228;-0.06368677;0.11624931;0.011335782;-0.27316973;-0.10608593;0.1289222;0.11156607;0.0111731095;-0.050099645;-0.02009979;0.1629788;-0.13960223;0.101214334;-0.037948865;0.12405893;0.0071996143;-0.050034605;0.16876733;-0.03813553;-0.26074767;0.1461755;0.13036056;-0.038094144;0.07871941;0.071095325;-0.32687086;0.04088916;0.015267834;-0.06860662;0.15960552;0.24677716;-0.16460255;-0.07826518;-0.029777858;-0.078810245
0.1373707;0.123535275;0.0048476188;0.26383477;-0.011589647;0.2151058;0.20384784;-0.010751781;0.09509618;-0.021656241;0.006715891;0.009160651;0.04247323;0.04543965;-0.17412044;0.09185666;0.013910614;-0.14282662;-0.1604893;-0.29016358;0.13743636;0.04212106;-0.050254293;0.22528084;-0.015452469;-0.056860223;0.041221153;-0.15747277;-0.12273822;-0.18465404;0.101653956;-0.0036326507;0.22387098;-0.06964367;-0.024786333;-0.014924673;0.056355964;0.2203747;0.06289081;0.3692118;-0.18679173;-0.038342424;0.25119328;-0.29728714;-0.0024357808;-0.06816191;-0.049087122;-0.054478984;0.05031293;-0.3362067;0.08040414;0.1929494;0.09467063;-0.23024423;-0.21763858;0.05376018;0.09349975;-0.12189789;-0.02626425;-0.031465154;0.029419435;0.26765192;0.007471682;-0.04122339;0.18255308;-0.091405615;-0.031586222;-0.11077836;-0.10563406;0.06106388;-0.03813229;-0.006830138;0.2564891;0.115026064;0.16933832;0.021976521;-0.016507776;0.051024377;-0.07084585;-0.19117452;0.035857122;0.043649692;0.029651882;-0.08667413;-0.25383064;-0.22846197;-0.03288438;-0.23589282;-0.059307896;-0.023156606;0.16258973;0.0011151092;0.015405439;-0.10907882;0.09375035;-0.0686193;0.24723814;-0.26094806;0.047609154;-0.023721088;-0.07501562;-0.21790609;0.027038993;-0.1596694;-0.03219985;-0.000288406;0.07606876;-0.4737009;0.033715136;0.037769184;0.116374806;-0.13215224;-0.054573607;-0.7677389;-0.15899721;-0.043427378;-0.03712874;-0.20181142;0.014974008;0.084777616;0.15093881;-0.1954091;0.24014013;0.26240918;0.17065933;-0.060447372;0.27838984;0.09952;-0.26239383;0.21290122;-0.05997854;-0.06249278;0.21020201;-0.030475337;0.15660244;-0.005733669;-0.016871776;-0.07000791;-0.05205755;-0.25816667;-0.08976246;0.014408661;-0.30193934;-0.03674807;0.30347472;0.044954684;0.12884197;-0.00056526595;0.044088125;0.026369391;-0.0040990044;0.4134362;0.17755227;0.25760663;-0.02407404;-0.078560315;0.09458104;-0.29171923;-0.04490909;0.13537972;0.020579305;0.01916501;0.17514184;-0.059652112;0.059024;-0.16889726;-0.016421309;0.22075711;-0.19634615;-0.30837342;0.016840434;0.07493544;0.08570516;-0.21299158;0.09622665;0.088375375;0.06552655;-0.0026985907;-0.102865644;0.011329614;0.00068532804;0.004074736;0.16013515;-0.087444045;0.053953703;-0.07158483;-0.007143838;-0.23123881;0.35847008;-0.012354449;-0.06950186;0.025411075;0.14528447;-0.009350816;-0.089448944;-0.22837327;0.17114808;-0.03165236;-0.020881457;0.18905541;-0.09027911;-0.15323023;-0.27527112;-0.12286779;-0.11501865;-0.02577651;0.058984444;-0.24902125;0.07156528;0.016090035;-0.17795937;0.39509675;-0.06308859;0.014427694;0.009684571;0.022745525;0.09287578;0.13959116;0.24792327;0.057894334;0.10235163;0.056901798;-0.081895;-0.014912385;-0.13557234;-0.020949699;-0.09783136;-0.09497082;-0.2668572;0.022669142;-0.26829624;0.034502197;0.18768151;0.1270561;-0.11922099;0.20143147;0.0827515;-0.030402787;-0.08719454;-0.14906843;-0.20948869;-0.122212745;-0.11287141;-0.014621192;-0.25984713;-0.33830258;0.011707376;0.22979315;-0.056935236;0.038229965;-0.103144854;-0.032439686;0.00746885;-0.103786804;-0.026404137;-0.083497316;-0.2282115;0.032371603;0.026951997;-0.025432607;-0.16066672;-0.29910976;-0.077660345;0.06409696;0.028579185;-0.039258126;0.10441219;-0.17346935;0.006404413;0.041673195;-0.1756448;0.012514745;0.08071552;0.15386637;0.04170967;0.018778315;0.008444977;-0.0012533289;-0.055637907;-0.05235525;-0.059175216;-0.20350033;0.25529638;-0.015123484;0.09405813;-0.6129469;0.047485515;0.0043665282;0.03824786;0.009203008;-0.1593091;-0.3115596;-0.14464344;-0.071849346;0.0231124;-0.17960013;-0.060643602;-0.2889268;0.032414842;0.07262477;-0.015942942;0.03942867;-0.006992111;-0.0795789;-0.25321838;-0.09366969;-0.28076065;0.07200057;0.081168234;0.10051963;-0.2225324;0.050056465;0.28003228;-0.002444968;-0.15214187;-0.057921205;-0.009323379;-0.10543226;0.19764115;-0.015887253;-0.39916664;-0.099641755;-0.10391878;-0.033136558;0.011732295;-0.089241944;0.051263385;0.0404302;0.007094712;-0.03231202;-0.023086846;-0.02459362;-0.018150242;0.034891844;-0.02187451;0.024631988;-0.19025886;0.067975625;0.2520769;0.09315709;-0.016970076;-0.12023687;0.000988671;0.10298588;-0.17014495;0.13260859;-0.018207619;0.026689759;-0.26303956;0.04623195;0.040104643;-0.15420988;0.16257042;-0.06306415;-0.018316472;-0.0483164;0.14044365;-0.06266888;-0.036088344;0.24096538;-0.030982843;-0.050846346;0.075115524;0.0016465146;-0.071891636;-0.05571872;-0.004521563;0.00241943;0.22394723;-0.17419556;-0.050921563;0.027993936;-0.06599436;0.036985353;-0.14331575;0.010827378;-0.096525304;-0.10195765;0.10139491;-0.36955932;0.08208666;0.14575695;0.17024755;-0.012915376;-0.1286531;-0.0065423986;0.28693312;0.08271695;-0.08502412;0.04113997;-0.18032686;-0.037541315;0.013375991;0.36051676;-0.017755078;0.0006824308;-0.0256384;-0.025336526;-0.044703655;0.011108857;0.036102746;-0.27196524;-0.017533211;-0.028361676;-0.07702501;0.0037414827;-0.0229957;-0.13332239;0.026114687;0.03880355;0.07913001;0.034312423;0.079422824;0.029175876;0.15958875;-0.069415666;-0.062211633;0.15487476;0.0479059;0.0165806;-0.19195631;-0.20646366;-0.0052841;-0.0789343;-0.04653965;-0.00503794;0.11772915;-0.16851398;-0.03744863;0.027094407;-0.23637614;0.16599387;0.21489921;0.012428076;0.09947251;0.19803885;0.021414356;-0.05375838;-0.08107281;-0.04182208;-0.06613452;0.33691105;-0.17056987;0.04511055;0.18812256;-0.048317496;-0.05882168;-0.10872758;-0.0450651;0.01408612;-0.14786974;0.20508577;-0.046654683;-0.297606;-0.025662443;0.050483733;-0.20688815;0.20247065;-0.0088189775;-0.16563055;0.12849426;-0.03914653;-0.05430707;-0.04369785;0.075669385;-0.27518228;0.17062724;-0.014151631;0.12721786;0.07440264;-0.24636033;0.20977868;0.06137399;0.092179865;0.12937993;-0.08193485;-0.15675716;0.0614038;0.04135596;0.30644485;-0.020698931;-0.037393864;0.07160939;0.02275002;0.37800324;-0.016892862;-0.16800284;0.173769;0.07268973;0.09368355;0.023920534;0.02829212;0.01142683;0.21011741;0.06135921;0.0077913688;-0.009523217;-0.05675655;-0.08910054;0.22473198;0.017940419;-0.11465194;-0.31006372;-0.3950517;0.018751709;-0.09003196;0.029830895;0.024902059;-0.034270454;-0.26264122;-0.010881235;0.023448283;0.03173158;-0.0425356;-0.24603875;-0.006372523;-0.5403778;-0.16557999;0.3273671;0.041301306;-0.0063715777;0.0015693684;0.024605302;-0.11360028;0.057981905;-0.00567189;0.088208005;-0.013890165;0.08234486;-0.033795763;0.2918202;-0.009601691;-0.11797127;-0.0058481977;-0.044630326;0.052840263;0.061149653;0.12270795;0.2443959;0.06595107;-0.050346207;0.08227053;0.09496342;0.16132277;-0.27151516;-0.083612695;0.31723115;-0.029671067;-0.015865637;-0.24261153;0.06096675;0.19301024;-0.1439358;0.052782286;0.03905813;0.2033903;9.793765e-05;0.077567734;0.055611413;0.07011299;-0.2413937;0.2808046;0.2549022;-0.052854076;-0.03854237;-0.0038976227;-0.25101414;-0.07554866;0.009456525;-0.11386556;0.076402426;0.15160933;-0.28953022;-0.07066508;0.05071096;-0.14169805
0.04121015;-0.012674428;0.013366927;0.35543224;-0.010835499;0.3091514;0.24345005;-0.040176924;0.028498335;0.0188695;0.008563381;0.09120556;0.010313051;-0.06172573;-0.17153984;-0.022582196;0.048587672;-0.22423683;-0.08753644;-0.23966828;0.22845988;0.094615184;-0.09474114;0.23444359;-0.028536728;-0.020593435;-0.042999417;-0.1807824;-0.31396413;-0.012773296;0.1492914;0.05141726;0.21193478;0.047975753;0.021517787;0.044627413;0.04968763;0.21889782;0.103897795;0.42875582;-0.22002856;-0.032262374;0.2985457;-0.20756353;-0.07126887;-0.15600564;0.05789011;0.006058305;-0.019737426;-0.22275329;-0.055824295;-0.03376323;0.08537634;-0.12023896;-0.20320861;0.0035351352;0.16448613;-0.13968407;0.033963952;0.016226668;-0.039829347;0.15384308;0.048704445;-0.020231105;0.14166519;-0.1394993;0.069323465;0.036408324;-0.049997576;-0.029629285;-0.15346275;0.025438268;0.24603643;0.20235685;0.24321173;-0.020375507;0.025995007;-0.06465107;0.029238742;-0.08217053;0.0054152585;0.059818164;0.033004522;-0.07613521;-0.104429305;-0.483367;0.0124548795;-0.14484599;-0.0019599802;-0.01431796;0.24709757;-0.009666633;0.06304607;-0.04561221;0.1723966;-0.06917387;0.15149832;-0.22406505;0.0037046487;0.06666901;-0.22347726;-0.051109914;-0.031280834;-0.3068427;0.005520915;0.05492526;0.017492177;-0.47318962;0.08527444;0.07036796;0.13725533;-0.09061077;0.0346731;-0.43882588;-0.15802523;-0.048286647;-0.039171625;-0.18646117;-0.09107585;0.14758745;0.09372499;-0.2812624;0.18557541;0.2455498;0.24139549;-0.08922471;0.32434696;0.010302721;-0.25279972;0.27480796;-0.057701092;-0.10700118;0.13470343;0.02230859;0.014619397;0.06332788;0.11059206;-0.02320942;-0.1335643;-0.34284467;0.039391756;0.03349787;-0.34565133;-0.0470413;0.37868345;-0.021939132;0.020556556;0.0018791368;-0.06991177;-0.1954743;-0.012209039;0.30482197;0.11117578;0.27829984;-0.046729825;0.13496238;0.07966723;-0.46341515;0.04524426;0.0288354;-0.050083864;0.061145216;0.18478315;-0.0052541266;-0.02730295;-0.14030616;-0.0037682874;0.1181672;-0.23786706;-0.25653228;0.051867783;0.013997889;-0.053420074;-0.087156355;-0.038679387;0.113210686;0.01897021;-0.073533945;0.029256878;0.0048776367;-0.040695775;-0.041379314;0.082290925;-0.19519371;-0.052328743;-0.18207107;-0.05728526;-0.318187;0.24756514;0.016286192;0.054920726;0.19033979;0.1110613;0.0540368;-0.0555207;-0.24304555;0.048507143;-0.0518932;-0.027279729;0.11356596;-0.109829046;-0.09531361;-0.12229121;-0.21254796;-0.22258428;-0.1896021;0.1371034;-0.1595125;-0.08295387;-0.103516944;-0.32904893;0.31163216;0.095026165;0.029774131;-0.001707417;-0.04022457;0.062739536;0.12056069;0.012057894;-0.046688493;0.13189007;-0.069176726;-0.051296603;0.0011169726;-0.13361938;-0.07207552;-0.3052959;-0.090770364;-0.20746623;0.006204003;-0.3236751;-0.15683196;0.21229875;0.16804036;0.121588744;0.23491904;0.10554854;0.040206414;-0.20122886;-0.07926352;-0.15097122;-0.09852358;-0.05414003;0.024253799;-0.17130134;-0.18144076;0.071586415;0.15672788;0.0020645813;-0.006736361;-0.03604566;0.064453386;0.095953405;-0.1709204;0.054598153;-0.07361781;-0.07984945;0.13746913;-0.059466325;-0.03271624;-0.022998458;-0.29263183;-0.034088504;-0.02976145;0.040499404;-0.05275594;-0.0010843723;-0.088923335;-0.0018042901;0.00111702;-0.17482819;0.015253258;0.2158329;0.11466566;-0.03936353;-0.015337734;0.09312763;0.02953303;-0.03345744;0.047417767;0.012704672;-0.19952881;0.30882487;0.10428987;0.10183038;-0.38877627;-0.060108636;-0.082410395;-0.01952796;-0.073614195;-0.012522054;-0.32227415;-0.25029042;0.009006189;-0.045455452;-0.13976233;-0.30629387;-0.14477745;0.004703743;-0.03627045;-0.049693074;0.020640593;0.064600825;-0.05978544;-0.13977428;-0.29200992;-0.37064466;-0.025793398;0.020269025;-0.04026145;-0.054992408;-0.058542483;0.14616872;0.018810734;-0.19169433;0.06833829;0.016308473;-0.17572066;0.2653892;0.041969594;-0.39455742;-0.12984115;-0.13859941;0.07011185;0.00043546534;-0.047754254;0.093558535;-0.03390319;-0.022273785;-0.03130049;0.015705196;0.027028559;-0.02567681;-0.06263922;0.0934235;0.033157453;-0.2117066;-0.10295097;0.30847317;0.21045476;0.06882065;-0.04960743;0.019690717;0.065730385;-0.16977665;0.019622326;0.108158626;0.012752436;-0.38815877;-0.030263158;-0.0654236;-0.057677057;0.1897014;0.12915368;-0.08024254;-0.081956886;0.1592255;-0.052749287;-0.020173112;0.20667687;-0.052749917;0.061253425;0.1660447;-0.07340574;0.012229178;0.03560764;0.068808764;-0.106821895;0.25737444;-0.2529239;0.0324861;-0.031512182;0.027501617;0.023868024;-0.13296068;0.025138676;-0.050942566;-0.1360067;-0.014748166;-0.21834426;0.20142259;0.28225395;0.13737594;0.012263332;0.04167501;0.050473016;0.21544927;0.13024311;-0.23486441;0.034708798;-0.13418372;0.0346578;-0.029069083;0.16339833;-0.08905701;0.024724657;0.029482534;-0.0056457524;-0.030094985;0.07075787;0.01866068;-0.20217237;-0.06921444;-0.011913052;-0.076506145;0.001333897;0.05119547;-0.066750735;0.09893223;0.006800607;-0.042128827;0.023644786;-0.22518085;-0.0388014;0.05219461;-0.05956553;0.0016338966;0.16727632;0.019390333;-0.012172967;-0.14447515;-0.085139476;-0.06413685;0.044439953;0.016793707;0.17132106;0.15414406;-0.21807703;0.13305333;-0.04220864;-0.37954652;0.1071207;0.43571258;-0.168478;0.07238123;0.16177917;0.02835321;-0.001665844;0.014484653;0.047193844;0.017548123;0.40183046;-0.062341295;0.124280944;0.17198253;-0.034502603;0.08072067;-0.08277199;-0.041386433;0.06711375;-0.0721948;0.09569328;0.068948634;-0.40349874;0.012188051;-0.015005687;-0.16304573;0.16005537;-0.16127183;-0.016994962;0.11411493;0.07561339;-0.099691994;0.039940625;-0.065187715;-0.3615399;0.40823632;0.012834475;0.06451088;-0.007009444;-0.042911123;0.037304904;2.5723415e-05;0.0017646329;0.11396977;-0.15380579;-0.22295102;0.04106547;-0.033038512;0.22411975;0.023780685;0.024834042;0.06277374;-0.058251485;0.42247376;0.0672865;-0.16051936;0.060990926;0.054744963;0.13113359;-0.19311374;0.14170004;-0.040979017;0.1425306;-0.07264728;-0.03350472;0.029629964;-0.104502894;-0.053162053;0.12991416;-0.03581755;0.018598167;-0.26979476;-0.30839556;0.033616524;-0.21988773;-0.036576647;0.049638238;0.14735465;-0.09825147;0.06777438;0.01221904;0.045643892;0.056445614;-0.14273527;-0.019922258;-0.43482512;-0.12772797;0.3477713;-0.04432351;-0.009972389;-0.034421086;0.09609198;-0.025488878;-0.06125233;0.017620925;0.046474427;0.11321587;0.10215862;-0.021470983;0.20449115;-0.03304219;0.07926753;0.07499233;-0.064134315;0.014727842;0.011794481;0.05642572;0.15312642;0.05946864;0.009358008;-0.03789947;0.16553093;0.21385999;-0.30972755;0.012116327;0.28130218;0.10055271;-0.029499447;-0.24207182;0.021160485;0.014903821;-0.09091409;0.16543075;-0.051529907;0.22158417;-0.12040569;0.10945894;0.10684077;-0.017466266;-0.23517942;0.14518087;0.16444075;0.035103332;-0.011339975;-0.0053011472;-0.16476627;0.034996342;0.00433199;-0.12930477;0.07097844;0.22379509;-0.20403527;-0.1520654;-0.04140611;-0.07791493
-0.03599647;0.07953897;-0.028843284;0.28900298;0.024016825;0.3756941;0.34679902;0.06430379;-0.12378817;-0.025561301;0.18747883;0.07673712;0.02999026;0.025708074;-0.039992783;-0.044717878;-0.056796324;-0.2312284;-0.1123123;-0.13480353;0.17490204;0.11289862;-0.049135894;0.32341373;0.045479335;-0.113942854;0.0010036989;-0.08677185;-0.3404654;0.07849207;0.05762804;0.04450415;0.1575621;0.012040893;-0.010196427;0.038903892;-0.063519634;0.18432136;0.10965268;0.3475516;-0.23932968;0.03401059;0.31565174;-0.38623357;0.09994861;-0.09810523;0.0045242994;-0.027376106;0.0021320423;-0.18269108;0.06521959;0.13821614;0.09091324;-0.15296708;-0.2000916;0.022336423;0.09962668;-0.24135815;0.046163585;-0.036377758;0.037161667;0.18011343;-0.05629231;0.059333496;0.096260905;-0.062812604;-0.040696185;0.012773577;-0.15733966;0.0575324;-0.1756349;0.031798195;0.3795709;0.20602001;0.21978742;-0.05044309;0.07852655;-0.06559664;0.040025115;-0.05902311;-0.044703484;-0.031329125;0.00012151239;0.0056515457;-0.16566655;-0.36129314;-0.026503032;-0.19404584;0.0033544449;0.041413225;0.093022026;0.05895747;0.16651826;-0.072255194;0.10330176;-0.101794586;0.0908303;-0.27764568;0.16015972;0.02538611;-0.17818996;0.15525644;-0.09407073;-0.27094856;0.07927916;0.09430465;0.09845697;-0.35986954;-0.0112946015;-0.09116218;0.0040348037;0.06360191;-0.009031552;-0.4117672;-0.14464638;0.036045883;0.0474131;0.057528164;-0.14584853;0.07216011;0.14626043;-0.17092836;0.28440896;0.31542885;0.4102226;0.043399666;0.08405085;-0.04400715;-0.24955998;0.14321823;-0.15271693;-0.08679393;0.20391515;0.023033798;0.016013997;-0.025922442;0.17699468;-0.043182056;-0.07677674;-0.37724662;-0.013827901;0.19755934;-0.2950668;0.13183726;0.38319084;0.035544157;0.056240197;0.054535758;0.03978453;-0.33260006;-0.035750654;0.28480592;0.11596742;0.17773926;-0.036017694;0.07550263;0.15676975;-0.33791715;-0.042269297;0.002842904;-0.24501346;0.014131001;0.13024934;0.0665408;-0.012183401;-0.08092229;-0.0080812005;0.14280932;-0.028511608;-0.2515797;0.09635734;-0.052728817;0.03487903;-0.1835665;-0.0067459247;-0.021643406;-0.017468423;0.03173005;0.024123864;0.0009432267;0.013189602;0.0028102705;0.23421693;-0.14854188;0.004001438;-0.124862604;0.04834477;-0.2598066;0.18425608;-0.02240828;-0.1461535;0.10205043;0.18753847;-0.036644164;-0.14543472;-0.2990161;0.067953594;0.013972386;-0.23547189;0.059522558;0.07081087;-0.20895088;0.0044611883;-0.16469151;0.04826316;0.049349558;0.11814269;-0.2484814;-0.098705076;-0.18545684;-0.24170774;0.1968785;0.20260721;-0.048903633;-0.06903201;0.03666279;0.16659501;-0.06892218;-0.020028278;0.01867981;0.12295;-0.0014016619;0.08830346;-0.07427932;-0.11108585;-0.111320265;-0.24548657;-0.062372487;-0.07310509;0.0039502564;-0.36574885;-0.24385351;0.26128536;0.20118506;0.029583098;0.29000732;-0.0020096854;0.04493697;-0.15015608;-0.17273335;-0.16419327;-0.09692173;-0.048413876;0.030515552;-0.25495332;0.029063467;-0.0099908775;0.20573233;0.040111486;0.08060851;0.16463788;-0.010644743;0.11188357;-0.2822586;0.015527556;-0.13588656;-0.20375416;0.13375497;-0.012076265;0.046733502;-0.07720775;-0.04693988;0.032980215;-0.034528285;-0.054508366;0.024784153;-0.07675005;-0.048039686;0.0052847005;0.0028782887;-0.15241948;-0.0050967117;0.027573207;0.08402826;0.0028900714;-0.025123315;0.11879753;0.006382448;0.069524586;-0.014765744;0.08519566;-0.13265048;0.2543273;-0.015484639;0.27823293;-0.10115278;-0.04948178;-0.14181612;-0.00033082924;-0.028581178;-0.06000653;-0.25719923;-0.06434947;0.023756586;-0.023713456;-0.14980862;-0.081092626;-0.16571271;0.014392398;-0.0043868227;-0.2554389;0.0009839883;0.042565875;-0.21182255;0.0010374542;-0.31847697;-0.2526489;-0.008625959;0.062076725;-0.1170857;-0.058953058;0.053381067;0.2201023;0.012044799;-0.17889157;0.04521446;0.058838446;-0.19575155;0.16116127;-0.076380335;-0.40824065;-0.0913335;-0.12614535;0.041705057;0.031079244;-0.025587091;-0.0014227938;0.031798765;-0.16738988;0.050458934;-0.052694425;-0.05523638;-0.055126566;0.013584063;0.15317062;-0.012447312;-0.27134916;-0.011049267;0.37496743;0.33415344;-0.030081602;0.1939332;0.03695835;0.15761754;-0.053911496;0.13220727;0.15758406;0.04397521;-0.38770977;0.003914103;-0.0008697734;-0.059928987;0.19737253;0.17534828;0.03273071;-0.06428155;0.049357966;-0.20820493;-0.157737;0.2536332;-0.03710838;0.008780163;0.16300571;-0.058824096;0.07908466;0.013609839;-0.0141498465;-0.07833994;0.3310305;-0.0858012;0.046230454;-0.02570447;-0.022527838;-0.118195556;0.07293436;0.0061183637;0.028285807;-0.24694252;-0.066272266;-0.12657577;0.1240995;0.14431182;0.1578532;0.076421544;0.07098827;0.14281707;0.07751701;0.05369582;-0.18108821;0.088591985;0.089627564;-0.022468371;-0.029656656;0.20714474;0.0073043685;-0.00989599;0.07447008;0.027979828;0.029162014;-0.014628265;-0.07387709;-0.24331287;-0.035466604;-0.033171717;-0.1235874;0.019047812;0.10509855;-0.1791834;0.06916736;-0.03597667;0.09987119;0.102874406;-0.29377672;0.0006659292;0.0014748141;-0.20149313;-0.058804512;-0.010651638;0.09505366;0.020735677;-0.07093932;-0.0141511755;0.029178731;0.09358968;-0.028920222;0.23679179;0.10293455;0.12490291;0.18168649;-0.05560043;-0.4318468;0.098659955;0.39434355;0.09088783;-0.10366491;0.12912548;-0.035407666;-0.032584347;-0.032884624;0.046198446;0.050631523;0.24388471;0.035499513;-0.01832614;0.21850504;-0.020694265;0.0038311558;-0.025503637;0.061620306;0.019263403;0.04740385;0.191718;0.043863732;-0.36942017;0.022246953;0.020947041;-0.15713894;0.13253511;-0.24880521;-0.12220236;-0.014971449;-0.03220535;-0.08624209;0.043440524;-0.030656235;-0.22464696;0.2836022;0.021854049;-0.07585226;0.032856;0.09598;-0.07896153;-0.05604371;-0.048506293;0.18356854;-0.083553016;-0.11514145;0.12667973;0.028689917;0.22397488;0.033995736;0.026845872;0.054541297;0.056293108;0.25332415;0.047110416;-0.17948304;0.12228801;0.28854275;0.23566368;-0.10892704;0.0588719;0.05264517;0.09599532;-0.062132295;0.035060674;-0.054434504;-0.0924656;-0.14206001;0.05433549;0.002504346;-0.10398303;-0.097436324;-0.2907281;0.013494274;-0.11445972;0.012177853;0.041296028;-0.026394513;-0.22585185;0.020214405;-0.07999157;-0.061023183;-0.056079745;-0.12784806;0.027886009;-0.6237713;-0.15919381;0.29484764;0.013738267;-0.059002295;0.00035870052;0.05360506;0.056156516;0.047699735;-0.010534742;0.051442627;0.05634608;0.031734366;0.022955619;0.202709;-0.20752218;-0.026631491;0.1413742;-0.028479682;0.021680847;-0.043243848;0.2284221;0.13230096;0.08275399;-0.070153646;-0.042486608;0.20929466;0.096700884;-0.28628197;0.058202818;0.2392228;0.041222923;-0.002518305;-0.21507923;-0.029708052;-0.011746372;-0.00014763836;0.14491172;0.042436745;0.029214904;-0.08728868;0.18302275;0.06257142;-0.20029038;-0.14502262;0.044769708;0.04312313;-0.031030834;-0.05891627;-0.010269093;0.03683389;0.06415483;-0.0043115416;0.0410907;-0.009864211;0.18190789;-0.26510498;-0.15644187;-0.0037961192;-0.002301705
-0.0703909;0.083533294;-0.047510732;0.29719207;0.027049486;0.415351;0.24858662;-0.070946656;-0.12219787;0.023876948;0.31380734;0.0009823069;-0.020862909;-0.018633144;-0.191862;-0.013944164;-0.024165558;-0.25411293;-0.06108672;-0.1794645;0.1149767;0.2047902;-0.09746534;0.347381;0.015645942;-0.16880968;-0.024091242;0.017590258;-0.13924332;-0.013415814;-0.013409613;0.0762365;0.10491539;-0.030175786;-0.016015543;-0.06805811;-0.03851868;-0.028502382;0.09727416;0.16344504;-0.2899795;0.065392956;0.23323312;-0.22866261;0.021531418;-0.067084886;-0.010369501;0.09120414;0.040109795;-0.22236586;-0.057699963;0.11260412;0.195581;-0.17184071;-0.29125234;0.04601557;0.11405475;0.06854567;0.059531607;0.04826914;0.032088846;0.2046627;0.03760715;-0.013389745;0.08444617;-0.105463035;-0.006680608;-0.042510193;-0.07902316;-0.056125186;0.08528002;-0.018334981;0.41693702;0.2797643;0.035586827;-0.005653961;0.06349611;-0.037413053;0.01631666;-0.14508103;-0.00567132;0.06802066;-0.061007306;0.05467309;-0.021113334;-0.30594376;0.02248382;-0.220026;0.062453516;-0.018855307;0.104396604;-0.051304568;0.087867096;-0.060228515;-0.03856777;0.03676735;0.0060468265;-0.40617234;0.17560396;0.043991223;-0.42842758;0.17226066;0.044953357;-0.19588077;0.04620606;0.09917114;0.0846187;-0.22234045;-0.091383874;-0.054847714;-0.12986752;-0.08369833;0.0055596293;-0.2522077;-0.13232164;-0.008041858;-0.051378902;0.17151849;-0.02185469;0.085961446;0.030287597;-0.20786348;0.22298186;0.17181005;0.37451944;4.6485267e-05;0.11368927;0.10449564;-0.28693947;0.1876769;-0.04909044;-0.16009375;0.19670664;-0.03546588;0.007952405;-0.0022551026;0.19150284;-0.014922119;-0.14348836;-0.16443384;0.019872142;0.2147563;-0.19203898;0.16547091;0.42255935;-0.03091366;0.045635056;-0.0060487245;0.062009357;-0.36348966;-0.048761327;0.21344343;0.03148275;0.002353089;-0.02599657;0.16368872;0.023785345;-0.26771247;0.010414645;-0.047953375;-0.27485237;0.03374416;0.07764487;-0.069460526;0.073706284;-0.15588176;-0.009050774;0.089360565;-0.08894911;-0.17560485;0.1811793;0.034593996;0.065869704;-0.28790155;0.07142682;0.09165355;-0.01488079;-0.033470728;0.15083008;0.03609593;0.02276541;0.07491396;0.06053261;-0.10887296;0.01357643;-0.24260639;-0.021988401;-0.0015687761;0.25819266;0.034271743;-0.22242388;0.2640754;0.2433095;0.038305465;0.014259966;-0.2937708;0.028979272;0.0013696749;-0.23991367;0.010647885;0.0947206;-0.08824339;0.041436866;-0.2349846;0.040549774;-0.1688086;0.051066477;-0.16134362;0.10209781;-0.13424528;-0.24667953;0.19577213;0.21099196;-0.010339004;0.046014737;-0.022016058;0.14725137;-0.007989267;0.062447432;0.2170388;0.0833499;-0.17135197;0.052262783;0.071810745;-0.08809199;0.040380187;-0.24842316;-0.08721298;-0.057755057;0.059080042;-0.23743898;-0.18384008;0.13174666;-0.0333883;-0.11390381;0.30618295;0.036013868;-0.04362632;-0.11971499;-0.18070735;-0.047785133;-0.07610968;-0.17515597;0.017218119;-0.2536094;0.06083495;0.07516273;0.16256046;-0.02142462;0.024427397;0.045309324;-0.06920022;0.06186399;-0.15148512;-0.009133694;-0.15890992;-0.18351115;0.25450104;0.049445853;-0.033955958;-0.048391525;0.0076149367;-0.020063061;0.030846281;-0.056203473;0.03333344;-0.027711788;-0.10076129;-0.017479403;-0.05925484;-0.108781725;0.076260075;0.10317644;0.13643105;0.040043857;-0.030698478;0.00046179173;-0.0073380684;0.038300455;0.03570114;-0.0447667;-0.055200856;0.2907818;0.0021222432;0.16710709;0.017640635;0.05250675;-0.17203179;0.046813473;-0.09210651;-0.17417212;-0.18483296;0.08650869;0.17673175;-0.30276927;-0.08656514;-0.08410373;-0.12608641;-0.003560165;-0.035863694;-0.23018095;0.01288843;-0.0479296;-0.055937376;0.0559882;-0.54767746;-0.22351639;-0.03835088;-0.021217449;-0.026455684;0.08348508;0.0055189803;0.18079804;-0.060403045;-0.025997922;0.037078265;0.09464695;-0.080466755;0.1882323;0.0071573416;-0.29618764;-0.11512733;-0.09524928;-0.094838716;-0.059813183;-0.19311248;0.05837805;-0.031235209;-0.0724005;0.026916318;0.009049552;0.014720721;0.053097118;0.031717017;0.11757865;-0.011452546;-0.30101457;0.03839005;0.30320206;0.19801942;0.08663718;0.12331356;-0.05003734;0.26486087;0.029051136;0.1538126;0.064174406;-0.066775106;-0.16558085;0.00820413;0.04382553;0.06261601;0.2631378;0.022117954;0.05581377;-0.069282465;0.09825461;-0.1580221;-0.15142599;0.26643312;-0.039523806;-0.05129;-0.1411747;0.031608295;-0.0014166835;0.0240861;-0.09273736;-0.08868523;0.25315568;0.19788454;-0.058271494;0.027420366;-0.00614711;-0.19348682;-0.014362079;-0.04049689;0.1803946;-0.09995614;-0.042779647;-0.12163765;-0.037660707;0.1195205;0.16201684;0.20232297;0.07487941;0.13997947;0.16008349;0.12598729;-0.25109816;0.00022788657;0.06112407;0.017009616;0.078167796;0.15974568;-0.10071486;0.10068476;-0.064188324;0.03966845;0.006749188;-0.045106728;-0.08107512;-0.07914174;-0.003923828;-0.006070537;-0.14142318;0.0075416826;0.19391043;-0.162837;0.1384731;0.032814816;0.02617234;0.07278839;-0.1668255;0.0359152;-0.043549057;-0.23042578;0.09269479;0.04683587;0.10225442;0.009062084;0.121113904;0.011766988;0.026068615;0.20482937;0.07369428;0.10024814;0.21261252;0.02739403;0.062185403;0.084716015;-0.3956467;0.06071842;0.15973781;0.0044849496;-0.08241791;-0.023803568;-0.056217235;0.005350783;-0.019339873;-0.056795932;-0.026781933;0.30311716;-0.07112509;0.0910514;0.40997127;0.032918904;0.034375694;-0.013256663;-0.038254306;-0.007227835;0.09516797;0.1135998;-0.064937584;-0.39501092;0.033468146;-0.010415068;-0.088849835;0.19997558;-0.23319906;-0.04779833;0.08092094;-0.025211945;-0.27707335;-0.020869896;0.02996278;-0.2418501;0.2893241;0.010725628;-0.0481057;0.08314839;0.22927824;-0.20237207;0.03678462;0.073923536;0.24989259;0.0122114;-0.1776295;-0.061006393;-0.023094283;0.12161207;-0.018258506;0.0043510096;-0.06599348;-0.031523686;0.2833827;-0.09911315;-0.02320582;0.15612078;0.26712775;0.18190747;-0.13675809;-0.029106637;0.0051660854;0.06899949;0.086774506;-0.04395916;0.031008335;0.019085476;-0.10915913;-0.0223708;0.03160168;0.00104306;-0.14279176;-0.12741503;0.021596758;-0.15517367;0.07785035;-0.04517314;0.022525948;-0.2826977;-0.080291964;-0.07843601;0.041365843;0.03110635;-0.1398659;0.03412635;-0.6164529;-0.16219138;0.41948736;0.019662632;-0.045728713;0.0038998416;0.12779693;0.04588063;-0.03579229;0.0009290192;-0.064791076;0.11114317;0.099895045;-0.045461494;0.27461267;-0.08660513;0.15986441;0.005595204;-0.04233826;-0.053849217;0.004341993;0.096911676;0.08670254;0.10730125;-0.026768649;0.01957996;0.1667235;0.12964934;-0.13161956;0.0394033;0.18878184;-0.0046814475;0.0016679345;-0.27693543;-0.047232933;-0.091226034;-0.14947121;0.06611754;0.050868124;0.20815244;-0.23719968;0.021460114;0.15202446;-0.14865825;-0.014091005;-0.14916775;0.13729142;0.0069244523;0.14224797;-0.023895176;0.08603952;-0.052547403;-0.059140496;-0.05717132;-0.10161102;-0.010208757;-0.24901365;-0.13817525;0.042710766;-0.08695173
-0.040728252;0.35789612;0.06750775;0.3449557;-0.036187753;0.39854357;0.19479978;0.069595814;-0.019336965;-0.053765338;0.40417546;0.086743824;-0.030964563;0.033816636;-0.12750244;-0.032688484;0.051778033;-0.19453128;0.037423003;-0.09322675;0.2662326;0.21202938;-0.20476598;0.40934983;-0.013610005;-0.23459095;0.074086465;-0.11650718;-0.13013518;0.017032161;0.006847502;0.110049754;0.033873446;-0.014334926;0.050520018;0.028669765;0.03795829;-0.107940905;0.17617722;0.033352528;-0.09388379;-0.010964303;0.19950145;-0.32429406;-0.03575162;-0.15478107;-0.063630424;-0.039864656;-0.032297473;0.0029327418;0.039785717;0.08607032;0.014849166;-0.16930634;-0.3554122;-0.019357402;0.10067837;0.032106522;0.109917715;-0.03242981;-0.07022783;0.1958507;-0.011032453;0.035411716;-0.0155645795;-0.14249697;0.0034715442;0.013318066;-0.010724332;-0.03226589;0.11231919;-0.033726536;0.46676612;0.35511994;0.078145206;0.003422124;-0.093668066;0.034024253;-0.017573003;-0.061646685;-0.036948685;0.15316355;0.06155613;0.12103914;0.0689219;-0.32768136;-0.046004724;-0.3632874;-0.0124539;0.06317785;0.1135181;-0.021502845;-0.039493278;-0.039494175;-0.13786577;0.0010884916;0.048714027;-0.35125148;0.1369837;0.07211778;-0.33883184;0.10658481;0.036072515;-0.24377662;0.1723958;0.1516496;0.060047675;-0.11519832;0.01629767;-0.24116978;-0.21425623;0.08858821;0.0704262;-0.15039827;-0.12619767;0.009077272;-0.010930593;0.09397292;0.04978925;0.10012563;0.02479828;-0.23932233;0.18703222;0.3080346;0.3540288;0.017122263;0.16157041;0.10102919;-0.13183793;0.09395056;-0.14828035;-0.02951658;0.086970896;0.03821999;0.059172913;-0.0017177132;0.17968288;-0.03859876;-0.006508099;-0.2439074;0.025183013;0.1427949;-0.14556363;0.24988717;0.2813053;0.009254627;0.15618779;-0.031631656;-0.12207462;-0.3149742;0.059775252;0.14213164;0.19896436;-0.15733162;0.024473852;-0.030080494;0.20940053;-0.21490747;-0.05117525;-0.12458632;-0.25677997;0.032268554;-0.12473712;0.022395255;-0.051160473;0.0062997392;0.0114639625;0.17273526;-0.12527877;-0.22713949;0.107314326;0.007436598;0.049977925;-0.22078703;0.089543946;0.119176075;-0.07111372;0.022419533;0.08777687;-0.04623377;-0.042756155;-0.029626122;-0.06326262;-0.08536795;-0.015188255;-0.23909019;0.0025018994;-0.08196888;0.25278923;-0.026512684;-0.16943918;0.2961978;0.20899476;-0.012636574;-0.17675453;-0.20294377;-0.043776236;-0.064237066;-0.3166313;-0.08992808;0.020795532;-0.012929691;0.015938373;-0.05243441;0.03682663;-0.08351006;0.04508888;-0.12112866;0.1449388;-0.1082137;-0.35091165;0.17161721;0.19885434;0.015308595;0.06233497;0.034818206;0.09053502;0.06447173;0.07398902;0.22988302;0.16860059;-0.16457406;-0.19877407;0.006839408;-0.24359147;0.06918988;-0.15623033;-0.12068114;-0.068257794;-0.047998603;-0.23266056;-0.05373795;-0.1794473;0.08484473;-0.17711057;0.16177335;0.088599585;0.014280946;-0.0594542;0.009691382;-0.07763037;-0.18395;0.043508515;-0.047432475;-0.12403895;0.16563003;-0.039855134;0.19346344;0.03298313;-0.09064013;0.13491338;0.03543191;-0.04569078;0.031671643;-0.023221109;-0.061633717;-0.109334506;0.13737746;-0.027131615;0.06499248;-0.11708683;-0.070926316;0.02068378;0.037799884;-0.0017741661;0.016675211;-0.03169798;0.022123266;-0.010472478;0.10638677;-0.012630829;0.037766267;0.13020177;0.0485712;-0.02593549;-0.029212;0.025819505;0.07282136;-0.06766345;-0.012124865;0.0046602753;-0.11322455;0.33779484;-0.008364316;0.113387525;-0.03738033;0.019414796;-0.23004913;-0.006407761;-0.13259105;-0.14375812;-0.19321978;0.0059560565;0.20169657;-0.1978309;0.16585219;-0.14263068;-0.13075502;-0.04249564;0.06494943;-0.18880673;0.03557745;-0.05248312;-0.17097509;0.057381444;-0.5382675;-0.2479828;0.068834975;-0.112932235;-0.12149483;-0.04952155;-0.039787177;0.09929098;0.057918463;-0.073805474;0.0787986;0.008786287;-0.18724206;0.1788773;0.0010343343;-0.27876967;-0.1783137;0.117731825;0.015564715;0.032588825;-0.18700284;0.040536635;-0.026869353;-0.104332075;-0.027263653;-0.00410633;0.016445007;-0.0058450736;-0.030329417;0.19590661;0.028035123;-0.1447294;-0.020179719;0.21499553;0.28919017;-0.04646695;0.32699117;-0.032429367;0.24684268;0.07076354;0.13486229;0.028686117;0.032002375;0.034128975;0.011308178;-0.029884512;0.039824437;0.20864624;0.13186397;-0.03324668;0.056454707;0.12929155;-0.082860805;-0.34179854;0.30346203;0.015096278;0.024631293;-0.19653209;-0.069645554;0.0069208625;0.002202767;-0.03303119;-0.11127572;0.21963464;0.13215403;-0.017732635;0.012024812;0.029340219;-0.30220303;0.02257657;-0.020815441;0.121704675;-0.11302682;0.017325345;-0.08200956;0.09132229;0.13429329;0.10997059;0.23936637;-0.022619942;0.1719041;0.0012877414;0.044056047;-0.26213932;-0.061357144;0.18655008;-0.016682794;-0.02585169;-0.059965506;-0.17694153;0.043014538;-0.061504293;-0.020731047;-0.007534301;0.062961;-0.101127155;-0.039084416;0.09593757;0.062007505;-0.119854495;-0.007927336;0.20683946;-0.2047703;0.16634165;0.0060940315;0.005695992;0.15892915;-0.16228215;-0.027221814;0.15790959;-0.0021896646;0.0775;0.038204726;0.089968055;-0.13580585;0.18588626;-0.052639183;0.013850415;0.27672806;0.11719103;0.12864915;0.3177;0.24770764;0.22337374;-0.018900849;-0.33709887;0.03866588;0.16026935;0.023491655;-0.15583438;-0.015672207;0.03242719;0.036130805;0.004767247;-0.009218111;-0.06987522;0.13874577;-0.16199137;0.23861556;0.3038247;0.03358126;-0.01955996;-0.0017935283;0.040005878;0.007589373;0.1412164;0.09222364;0.0463549;-0.20167826;-0.0004017934;-0.01269875;-0.06022493;0.19277452;-0.3403978;0.04922481;0.017870286;0.059595317;-0.20312023;0.02448928;-0.0036301427;-0.29711235;0.35543743;-0.016369054;0.056029897;0.091199;0.18993892;-0.124898195;-0.07298353;0.171895;0.14519948;0.023688452;-0.19954579;-0.042499404;0.016318906;0.048699852;-0.077499904;-0.041309357;-0.009487561;0.03343793;0.19111536;-0.23064438;-0.012747501;0.11326245;0.24658121;0.41777316;-0.095182784;0.116683066;-0.061595276;0.16366452;-0.06933553;-0.027775627;-0.06219212;-0.018642154;-0.16079797;0.20028712;-0.057921503;0.101378515;0.018383786;-0.2144945;-0.042547837;-0.1554214;-0.048807394;0.017451929;-0.00028823962;-0.101510175;-0.09827272;-0.23325711;-0.039316133;0.044985797;-0.1395942;-0.023940342;-0.7299703;0.041572843;0.37763137;-0.015868478;-0.072669625;0.03502619;0.09232353;0.14921115;0.015506421;-0.0065701585;0.03839392;0.045608863;0.24930498;0.048370413;0.15950763;-0.08588244;0.06891753;-0.12995034;0.06321972;0.06404379;0.036215536;0.07922968;0.01867246;0.019855643;-0.011442529;0.04413151;0.070881754;-0.019951677;-0.10604562;0.18195994;0.116527595;0.14476928;0.034387004;-0.11969201;-0.006017608;-0.110576235;-0.1363172;0.14802177;-0.06736242;0.10748284;-0.3271148;0.024083477;0.107267834;-0.01263805;0.025129719;-0.18669738;0.11862255;-0.029902998;0.22103633;-0.041364126;0.16885714;0.01583732;0.06123824;-0.11737135;-0.22284912;0.098399416;-0.17552285;-0.13799843;-0.009152675;0.036067557
-0.08452596;0.28512985;0.025943616;0.1566013;0.025960207;0.33364898;0.20501198;-0.00841829;-0.05092693;0.044779558;0.23304713;0.18494712;-0.0077603157;-0.07175119;-0.13681571;0.035383858;-0.020419762;-0.12895437;0.12342126;0.059013087;0.25614768;0.30980995;-0.034001984;0.22713456;0.050735377;-0.3417185;-0.07218277;-0.078008346;0.040895488;-0.07153739;-0.058034863;0.034504306;0.016078448;0.026762176;-0.0126518;0.029637206;0.017122468;0.012162351;0.082142465;0.10406772;-0.09616388;-0.0829335;0.23455407;-0.34366825;-0.07892803;-0.091411605;0.02016282;0.06580959;-0.044308987;0.1765581;-0.032108773;-0.02442056;0.045278266;-0.22450763;-0.20181361;-0.053322613;0.093317434;-0.023134088;-0.09394069;0.058733843;0.011336605;0.2097644;0.011937829;-0.06280066;0.006269345;-0.35880783;0.012806678;0.0062301867;0.044402014;-0.0072218184;-0.049705308;0.04047841;0.25432253;0.38410097;0.13032226;0.05298359;-0.116970636;0.026739858;-0.004806902;0.031168684;0.08151624;-0.016014852;-0.045421846;0.030873872;0.109519064;-0.13265224;0.06531839;-0.2658713;-0.036672726;-0.019483756;0.13241123;-0.008526832;-0.17999008;-0.08658738;-0.14612599;-0.07562175;0.07121879;-0.38701153;0.06103741;-0.014227194;-0.22295384;0.061480436;0.11000938;-0.26216736;0.21116167;0.27713516;0.07886655;0.19293128;0.11465952;-0.17027886;-0.06233865;-0.0672267;-0.04183766;-0.15424232;-0.104569994;0.0032920213;0.03132565;0.16678566;0.16635688;0.038507886;0.088330716;-0.20778796;0.09193389;0.23533209;0.31666005;-0.022665527;0.116238266;0.06729368;-0.11428242;0.08031924;-0.14061353;-0.091153316;0.0819877;-0.05113766;0.02422285;-0.06998685;0.106935084;-0.048619177;-0.0182109;-0.21728256;-0.04732093;0.04814962;-0.18576716;0.2317219;0.3025988;-0.0038055913;0.19958016;-0.039671134;-0.24312994;-0.29420996;-0.0151321925;0.06711571;0.19184776;-0.14311811;0.0158476;-0.053474627;0.035467494;-0.17187357;0.0485064;0.0040801656;-0.24089356;0.15144901;0.012528093;0.056188855;-0.038098015;-0.018639104;0.027426738;0.08763444;-0.10820805;-0.10046668;-0.039570697;0.02543849;0.017343711;-0.28037292;0.0269483;0.114551626;0.039872307;0.11895835;0.105054595;-0.031737257;0.0558431;-0.03962963;-0.12278196;-0.021804972;0.014098925;-0.10906803;0.011527644;-0.09905528;0.25453618;0.021558933;-0.08534821;0.21899852;0.15932384;-0.058610104;-0.12598796;-0.15567836;-0.16695487;-0.093012266;-0.252524;-0.11055611;0.18288626;0.065638825;-0.016903006;-0.0071120877;0.096899815;-0.08721184;-0.08075154;-0.19663793;0.19858344;-0.042168424;-0.35153207;0.21251988;0.081960715;-0.01649144;-0.08444806;-0.009069361;-0.08682949;0.20202942;0.18479018;0.22869246;0.04383532;-0.043945502;-0.23731193;-0.023814287;-0.2178509;0.10685217;-0.19775316;-0.06660101;-0.0010076684;0.021477116;-0.3386933;-0.032396965;-0.20347168;0.19929057;0.092542134;0.090884395;0.17734435;0.012424522;-0.03799452;0.15462248;-0.0747214;-0.16018312;0.13129571;0.04130189;0.06827726;0.2403651;-0.10077486;0.04446736;-0.04242066;0.0013823349;0.1210945;-0.032404818;-0.018413644;0.02727871;-0.033000574;0.012598834;-0.21039218;0.20311241;-0.062209416;-0.08790272;-0.10821681;-0.12417493;-0.04427043;0.0013444579;0.041878317;0.06516899;0.10974583;0.023418678;-0.091575846;0.06389317;-0.08498804;-0.033583485;0.2537111;0.14034097;-0.01503288;0.033221014;-0.16625904;-0.06783882;0.036264665;-0.012504398;-0.031357713;-0.22178118;0.2931428;0.059956335;0.087716885;0.05150555;-0.0088649;-0.13205388;-0.00979675;-0.16132665;-0.089659885;-0.108299576;0.0991858;0.23922934;-0.33334148;0.13700794;-0.21706457;-0.017012222;0.028928246;-0.009103048;-0.109845065;0.0028792021;0.031066684;-0.08733696;0.09740783;-0.6507856;-0.204701;-0.025403047;-0.2464532;-0.14458741;0.11761413;0.06355645;0.0833747;-0.0108137475;0.082835585;-0.11220515;-0.043540917;-0.11253713;0.19335909;0.028182775;-0.2106457;-0.1970122;0.06978089;0.0025698554;-0.03795715;-0.106033154;0.06705235;0.005590609;-0.15774958;-0.015354098;0.019555947;-0.033484418;0.08249277;0.009806799;0.03393647;-0.018366704;-0.14930041;0.052580968;0.08313577;0.16821718;-0.017777229;0.16623048;0.057645492;0.2363076;0.041546106;0.036868203;-0.1370661;-0.019435786;-0.05641826;0.021916823;0.094709806;-0.071393214;0.30687076;-0.03277628;-0.026454063;-0.044450752;0.2576135;-0.123079866;-0.3053166;0.22325855;0.042184822;-0.020221747;-0.15245819;0.00940061;-0.06630153;-0.17707051;0.012952552;-0.021632778;0.20339565;0.043383237;0.087177746;0.003382737;-0.030712094;-0.23952629;0.038271833;0.07658835;0.016800601;-0.17277001;0.21557365;-0.18817776;-0.0054621454;0.11152607;0.049433764;0.13158502;-0.06260355;0.12324639;0.09304441;0.12880827;-0.25338754;-0.16104071;0.23423499;-0.04741293;-0.064797476;-0.13522333;-0.128389;0.06417865;0.034351032;-0.069849506;-0.01235491;-0.037267055;0.075682044;0.019742288;0.21298112;-0.051203486;-0.04893572;-0.012697129;0.16997848;-0.04264473;0.08749174;-0.042859007;-0.14198853;0.21538495;0.030721445;0.022106865;0.093279086;-0.2257179;0.02485731;-0.04174525;-0.015696855;-0.10989309;0.049908612;0.039760355;0.015057128;0.27777922;0.08275377;0.04918986;0.26283324;0.27265924;0.11279262;0.025217827;-0.26021302;-0.020759294;0.30494618;-0.33971572;0.007652911;-0.07151515;-0.005306986;0.06437512;-0.04545103;0.031479113;0.009047869;0.24509296;0.018264523;0.21445847;0.25204152;0.003391474;0.038330406;-0.079205565;0.016173355;-0.05029502;0.14240995;0.11571074;-0.045022566;-0.20911323;-0.064683706;-0.041836604;0.0021108768;0.18555222;-0.27645978;0.17753881;0.2009281;0.0036029103;-0.17650494;-0.029765634;-0.022855138;-0.183555;0.3140802;-0.00520217;0.058589086;0.05492427;0.16741508;-0.1112288;0.044030283;0.14857496;0.17302261;0.102584265;-0.2821613;-0.15942386;-0.039473876;0.00030730834;0.058655005;-0.0073681353;0.019352105;-0.030348543;0.016813003;-0.255958;0.03572196;-0.051053204;0.17872626;0.47483522;1.3763828e-05;0.04056883;0.05720568;0.25539753;0.02964319;0.06078476;-0.21985395;0.13700287;0.04447053;0.20942955;0.060430724;0.12976931;-0.052402988;-0.28205898;-0.014342392;-0.1436188;-0.043199982;-0.035878044;0.14906982;-0.21492432;0.032069847;-0.1185259;0.020790294;-0.081773184;-0.13097236;0.036091127;-0.6511714;-0.0065527367;0.35258353;0.025077114;-0.082143396;0.016403597;0.15616962;0.0055094627;0.0003395981;0.0055694324;-0.008813432;0.003254265;0.042263724;0.040664658;0.15269208;0.028514529;0.025184339;-0.1906714;0.04367411;-0.060413413;-0.058707625;-0.063473016;-0.19606303;-0.06531406;-0.03869427;-0.028184507;-0.08757091;0.027175805;-0.0652186;0.31620038;0.20651601;0.041710522;-0.016338166;-0.23710105;0.039046343;-0.028157126;-0.042662833;0.1858607;0.002753858;-0.02322887;-0.22217672;0.16253038;0.18683845;0.02902714;0.14353679;-0.13768323;0.07667217;-0.011427105;0.1338879;-0.11771496;0.12640254;0.00684968;0.011665445;-0.25763413;-0.14748417;0.14683202;0.010422199;-0.027734794;-0.02249302;0.044987775
-0.18491596;0.34912196;-0.05674649;0.24268848;0.0109150205;0.25112844;0.31299108;-0.031755418;-0.014254733;0.027033942;0.15702802;0.18940766;0.021943621;0.020673709;-0.08558732;0.0272455;0.03229525;-0.13137901;0.038245603;-0.12646648;0.17392245;0.23803848;0.008946495;0.061597127;-0.042002603;-0.21395211;0.046318963;-0.0072051417;-0.099284254;-0.10527943;0.042790696;0.06347349;-0.024025152;-0.0022903292;-0.03636529;-0.05801543;0.031560548;0.09488878;0.017250804;-0.0059163547;0.054411706;0.022069318;0.2775879;-0.29727685;-0.120910496;-0.105840385;0.027565135;-0.010568153;0.042957492;0.19310513;-0.040342417;-0.009978627;-0.062700845;-0.29371092;-0.041193727;-0.0020168708;0.14884472;-0.09075569;0.06580699;-0.045893908;-0.019444127;0.095254645;0.021773297;0.032040846;0.107151195;-0.30932733;-0.028336294;0.060051728;0.08202054;-0.022064213;0.019887123;-0.04742231;0.2847493;0.364211;0.17206332;-0.029088648;-0.12743567;0.047920182;0.0029337676;0.23690465;-0.082427;-0.10850701;0.019620987;-0.109028906;-0.05697472;-0.22065009;-0.0520167;-0.21447894;0.064979844;-0.07547131;0.015416111;0.047459602;-0.14327061;-6.19774e-05;-0.16882479;-0.008570024;0.053866405;-0.29068995;0.15584096;-0.07514549;-0.30291617;0.24722326;0.19030653;-0.23207521;0.24312742;0.11160443;0.017062465;0.17134708;0.20292698;-0.063405655;-0.29081997;-0.095373854;-0.04204573;-0.09765319;-0.22311248;0.0014019622;0.03067668;0.23730354;0.14667834;-0.048500974;0.068768755;-0.2595969;0.054371145;0.4119277;0.26157957;-0.041124087;0.062957324;-0.029807288;0.050576277;-0.019654633;-0.15367045;0.2664405;-0.02750336;0.04225209;0.09456968;0.09661612;0.09104542;0.035333015;0.10078642;-0.12675498;0.0366371;0.1762816;-0.10244343;0.14682795;0.24175842;-0.014148249;0.027508218;0.011043855;-0.0715787;-0.26253647;0.021260973;-0.06679022;0.32788065;-0.13554138;-0.05673822;0.05984166;-0.016300892;-0.037389953;-0.0070759994;0.017860377;-0.214883;-0.07436066;-0.15038086;-0.021085443;0.023850072;-0.07912768;0.004136476;0.058860276;-0.12426263;0.057596877;-0.11842325;-0.010906843;-0.17482516;-0.2026385;0.043705467;0.12108785;-0.0407835;-0.06831325;0.17112951;0.029945536;-0.025608884;-0.027106913;-0.110285506;-0.076930694;-0.010818893;-0.33141106;-0.03489569;-0.19695012;0.10432747;-0.058101006;-0.15166976;0.23302975;0.024433274;0.075661495;-0.13623369;-0.14966294;-0.04707469;-0.053484652;-0.45086622;-0.04211256;0.25261697;0.023248756;-0.023207486;0.1460651;0.17375825;-0.1555304;-0.15463087;-0.1516414;0.068617076;-0.21814066;-0.25344732;0.10854616;-0.14451735;0.017161664;0.0058477237;-0.04765105;-0.08483527;0.22840866;0.061611217;0.13620496;0.08409094;-0.16402276;-0.32828465;-0.03875439;-0.045254763;-0.12055307;-0.18497817;0.025559854;-0.006845841;-0.045108754;-0.31956327;-0.001488455;-0.28615057;0.102868356;0.06453394;0.120268404;0.24386765;0.0064351787;0.23974538;0.27893525;0.02227856;-0.14438738;0.18766095;-0.053385913;0.012992954;0.13841148;-0.075323574;-0.0003786665;-0.03585696;0.028976819;0.07673236;0.04157697;-0.03972788;-0.12940592;0.024552902;0.0009481432;-0.30391797;0.109944634;0.07060847;0.05274253;-0.117727965;0.05867163;0.053350903;-0.029366506;0.049769163;0.023309302;-0.011657708;-0.060642563;-0.021110928;0.08432532;-0.053199302;0.028219549;0.27990136;0.17406465;-0.0065538315;0.013425616;-0.18827575;-0.22918549;-0.04479172;-0.02029066;-0.0027390183;-0.20400032;0.13872582;0.19631177;-0.01633312;0.0848665;-0.014686679;-0.07826278;-0.011187076;-0.27160904;-0.11433072;-0.05370641;0.012538032;0.31478792;-0.29805312;0.24485078;-0.09894204;-0.03400371;0.010472765;-0.024836143;-0.0062305643;-0.07952362;0.026643349;-0.24462748;-0.042814203;-0.5515775;-0.10207114;-0.058298863;-0.17943041;-0.15315114;-0.10536303;-0.071758926;0.22033006;-0.06803679;-0.022760296;-0.060311873;-0.008485323;-0.03614488;0.18258919;-0.0080650095;0.042723686;-0.10636489;0.068343066;0.020199992;0.002341585;-0.11499392;0.18448552;0.038118735;-0.112060875;-0.005789477;-0.0072570285;-0.0039598183;-0.033821054;0.10427722;0.12107485;-0.036766086;-0.120051384;0.053049237;0.012829986;0.16532905;-0.02285081;0.021344204;-0.060106874;0.17587729;0.006859638;0.108858444;-0.15448652;0.006718306;-0.06666755;-0.044063188;-0.05186827;0.04269061;0.38260955;-0.07765782;0.029115582;-0.17149223;0.17122716;-0.03883872;-0.28022712;0.16884084;0.08216372;0.013535262;-0.013841521;-0.09215639;-0.0518456;-0.11203431;-0.024097385;-0.09541778;0.27117574;0.053855237;-0.025752455;-0.013909774;-0.04718027;-0.22125281;0.14093284;-0.027339533;0.15950939;-0.0791125;0.24623254;-0.25285608;-0.031545658;0.1855186;0.12567098;0.11149167;-0.044446733;0.17619385;-0.051512666;0.09312559;-0.22615652;-0.08971806;0.06614837;0.08178567;0.013230257;-0.02617687;-0.1905038;-0.0016935033;0.04297382;0.058391277;0.00625379;-0.075587794;-0.12480225;-0.020057933;0.259161;0.036412433;0.10546586;-0.0012893993;0.07215059;-0.13767235;0.1712128;0.020643262;-0.15173271;0.16545863;0.10786114;0.008639769;0.16708815;-0.03285649;0.06065261;-0.03509519;-0.12849137;-0.049102966;0.13603808;0.020867536;-0.02215044;0.2990345;0.10558695;-0.018438902;0.33597603;0.23086175;0.14620656;0.025272673;-0.18463586;0.06492166;0.2210298;-0.40919453;-0.04181434;0.019241562;0.02029407;-0.010325699;0.27310792;-0.0053448393;0.025410878;0.23179162;0.1631468;0.21252386;0.113282725;-0.04641616;-0.041872982;-0.03904945;-0.018398434;0.0026338943;0.2687663;0.081465065;0.03275943;-0.117817454;0.023990158;0.02898619;-0.11602637;0.05492348;-0.11359184;0.22644846;0.24544635;-0.058505036;-0.17997158;-0.01669248;0.02298278;-0.22299598;0.16773851;-0.03621408;0.12419919;-0.0774715;0.10289513;-0.21462601;0.0062245973;0.101640336;0.06418279;0.32012808;-0.16264509;-0.041307393;0.009418111;0.008561466;-0.05268655;0.0040458865;-0.06853545;-0.03982802;-0.17860848;-0.20771869;-0.02998051;-0.0818868;0.14328602;0.45540467;-0.09044675;0.14177312;-0.0037434;0.21530601;-0.046940457;0.031523604;-0.06623068;0.22221673;-0.121485695;0.21288402;-0.057018355;0.09447699;-0.10893862;-0.29332495;0.03742138;-0.23018578;0.017344277;0.00968048;0.022086969;-0.19864143;0.039446812;-0.15670389;0.028365634;0.035357986;-0.069153875;0.01173881;-0.6783293;0.07289727;0.30098355;-0.06941502;-0.09629075;-0.032606006;0.08710086;-0.073827416;0.006718118;-0.02535324;-0.03123069;0.13194421;-0.085314386;-0.010136665;0.13969906;0.15176111;0.12153776;-0.0380071;-0.01641266;-0.025531292;-0.0077169766;-0.0005109684;-0.34362733;-0.025332963;0.020758368;-0.015413646;-0.13170035;0.014406055;-0.061991837;0.34468493;0.12034659;0.09347289;-0.031028569;0.07222786;0.034413546;0.046946876;0.06463668;0.019932233;-0.009288562;-0.15764102;-0.16822113;0.19332579;0.117090106;-0.0498578;0.06299249;0.15551767;-0.057631206;0.046279993;0.1414748;-0.08637678;0.15119399;-0.030087072;-0.046697695;-0.18317914;0.018989906;0.06889677;-0.03890261;0.12694901;0.00093559007;0.13669349
-0.08875259;0.46534458;-0.071578965;0.29094565;-0.06393617;0.23298518;0.12912168;-0.03666288;0.05296593;-0.0664615;0.06117575;0.21488908;-0.007167839;0.047156926;-0.0104113845;-0.045716144;-0.024743082;-0.14966294;0.0693927;-0.13491987;0.1507545;0.34054253;-0.10114131;-0.007897191;-0.0181903;-0.105027504;-0.0069500855;-0.1151779;0.06987463;0.078831814;0.001395127;0.23661369;0.076932594;0.023804024;0.002247057;0.020095456;-0.08406777;0.03632855;-0.049334206;0.124197334;-0.14495103;-0.011888653;0.35907948;-0.22276345;-0.117997326;-0.07573893;0.048143905;-0.047564518;0.0025573461;0.070087805;0.033549186;-0.03487866;-0.089315146;-0.30582783;-0.1476424;0.016129667;0.06610691;-0.06872384;-0.009601104;-0.028445173;0.033606943;0.27578026;-0.036937736;-0.011047745;-0.041896336;-0.30714357;0.03377659;0.072847955;0.03735016;-0.019241503;0.03890504;0.025535244;0.24899922;0.25887853;0.2709187;0.004205747;-0.20015767;0.059661698;-0.036433935;0.1549205;0.041729577;-0.086928904;0.009615498;-0.1124603;-0.048654348;-0.17851391;-0.026805082;-0.20548992;-0.07701957;0.037724532;0.08924773;0.021636942;0.021886319;0.11901513;-0.14578833;-0.058739353;0.072192036;-0.3886476;0.17949979;0.041660406;-0.1291077;0.4295512;-0.053823866;-0.1603104;0.0992358;0.16422136;0.01993237;0.15389225;0.20782201;0.043883532;-0.13617437;-0.14501528;-0.00096498505;-0.2265966;-0.057498347;0.03333506;0.02601867;0.35281646;0.15420184;-0.059367266;0.14070888;-0.42668253;-0.0088249855;0.38311577;0.22939833;-0.0578633;0.10107431;0.12401621;0.011115022;0.13953471;-0.11654047;0.2447231;-0.1599199;-0.02927338;0.18575206;-0.02787762;-0.1179902;0.08233541;0.027404148;-0.17152286;-0.049088284;0.023569401;-0.0652753;0.23396835;0.39456493;0.02136111;0.07721152;0.025697812;0.017389946;-0.24635604;0.047541853;-0.019856932;0.20883252;-0.18697917;0.012403631;-0.006109432;-0.10124463;-0.07372268;0.052887432;0.11131006;-0.18819542;-0.097368635;-0.04705337;-0.05694084;-0.0023465673;-0.047452893;0.017669437;0.09608144;-0.08130133;0.043349855;-0.120611586;-0.040181383;-0.03137308;-0.06895545;-0.01510511;0.1267081;-0.014634856;0.05738577;0.20454364;0.04612601;-0.0007998575;0.009177405;-0.088835515;-0.16091189;0.018857528;-0.1241169;0.0014589431;-0.06768175;0.1942037;0.08112434;-0.03558635;0.12145042;0.09214268;-0.027310045;-0.10110997;-0.20475303;-0.13307908;-0.099252254;-0.42351428;-0.25799116;0.2356047;0.115134194;0.0153777;0.041329056;0.019984782;0.0025179759;-0.10730244;-0.021745015;-0.16378352;-0.16540658;-0.28125677;0.13319361;-0.010464596;-0.067581736;0.01995565;-0.0075625214;-0.079190694;0.29803237;0.18100475;0.08907963;0.2070702;-0.07208476;-0.2173535;0.082562;0.07949954;-0.22369598;0.0010677162;-0.06258563;-0.01600334;-0.00976705;-0.09362147;0.044005793;-0.16331278;0.052721616;-0.072108515;-0.047787756;0.1663749;-0.032986566;0.16234851;0.3548452;-0.029934885;-0.18884243;0.31489912;0.002876036;0.024921589;-0.075654075;0.052422106;-0.14352515;0.052106105;-0.08754883;0.20592992;-0.020938395;-0.017500117;-0.15252483;-0.0027978418;-0.09293492;-0.2864079;0.18808459;0.03858825;0.03480719;-0.06879293;0.0036166683;0.016519865;-0.019601233;-0.060564425;-0.021725496;-0.015941719;-0.058734193;-0.06550563;0.1279912;-0.04049604;0.14882717;0.16045961;0.10601976;-0.013627476;0.02849171;0.071607895;-0.1158342;0.07680788;-0.008037444;-0.03356238;-0.24793467;0.20393844;0.12721397;0.020347724;0.17346075;0.009882105;-0.048190385;-0.027127909;-0.22380285;-0.07837759;0.105815;0.13229018;0.14858298;-0.028635886;0.12724507;0.06270255;0.03673828;-0.05163408;0.02299559;0.26010162;0.038925044;0.0005433805;-0.15665777;0.027493523;-0.59632283;-0.026318619;0.023461653;-0.22451039;0.10491256;-0.13925785;-0.027867207;0.31841657;0.05080435;-0.03634426;0.06503975;0.008834324;0.07417452;0.11734644;0.062346883;0.05445108;-0.045042086;0.12939048;-0.03901472;0.031427633;-0.117469676;0.13008782;-0.07806051;-0.07340816;0.05136895;0.06583999;0.02013016;-0.044672955;-0.04852778;0.097623125;0.028350104;-0.06171866;0.0025383593;0.042236328;0.220853;-0.04534614;0.028824681;0.011472628;0.13893977;-0.083526656;0.074098386;-0.26203847;-0.01705012;-0.024511866;-0.03349484;-0.037321404;-0.04396998;0.3596518;0.0068722568;-0.017225958;-0.04752998;0.16488859;0.07867508;-0.34602067;0.13972571;-0.0365058;0.055340104;-0.022916358;-0.07219433;-0.14976485;-0.06472024;0.053031262;0.06376624;0.3208428;-0.06228493;-0.033316962;0.016918112;0.027897095;-0.1245783;0.056034192;0.0047223475;0.013329866;-0.038036395;0.25357327;-0.14054923;0.19397484;0.06103734;0.08433016;0.15815416;0.1289837;0.05815069;-0.007941584;0.07914351;-0.2412853;-0.05385536;-0.0283541;-0.031863425;0.028522655;-0.038297247;-0.04749889;0.008203071;-0.027622478;-0.0017617219;-0.0063240346;0.08379381;-0.21781765;0.012620234;0.04781534;0.056000136;-0.009543613;0.011904635;0.011387658;-0.15303923;0.15854116;-0.0011778398;-0.12378817;0.2274653;0.124173395;-0.050431322;0.07926293;-0.04270545;0.10050048;0.057790358;-0.14194499;-0.09119943;0.19469668;0.0067539173;-0.009683379;0.22329527;0.08350036;0.023571797;0.13490185;0.13086951;0.31120417;-0.039246876;-0.11709761;0.06916261;0.26569104;-0.49152517;0.12503669;0.08203569;-0.04225855;-0.02266413;0.15642843;0.038753502;0.011899192;0.14737107;0.3219287;0.24074394;0.14183784;0.030599037;0.0011964616;-0.09557932;-0.034148548;0.0006159342;0.08818754;-0.17479026;0.0068938485;-0.060357835;-0.033478882;0.007528283;-0.11046734;0.03299224;-0.032603137;0.27402458;0.120605536;0.06489119;0.025749212;0.020671738;0.02000958;0.018606592;0.19668354;-0.04261559;0.069411285;0.045650464;-0.0032008244;-0.35665706;0.044073228;-0.0492078;-0.078973845;0.25953853;-0.19058505;-0.18315071;0.054489426;0.104339175;0.047416165;0.029614296;-0.08067904;0.055244684;-0.12468143;-0.3210684;-0.05594734;-0.06465539;0.09412003;0.4062728;-0.001118295;0.029604703;-0.032678604;0.18859287;0.031056082;-0.02531961;0.10402664;0.23727848;-0.08949012;0.11007146;-0.023802962;-0.12996462;-0.26173857;-0.27464932;-0.008764421;-0.061051764;-0.0011927522;-0.00998429;0.060410216;-0.19181292;0.018007437;-0.16739161;-0.00080256996;0.052842353;-0.24359177;-0.03684191;-0.58569306;0.08923574;0.277312;0.016458705;-0.10833367;-0.03580204;-0.07665858;-0.10080632;0.022486666;0.07010295;-0.060166426;0.05478107;-0.027172994;-0.068064414;0.04897655;0.040873162;0.05552317;-0.13708021;0.04885388;0.012424095;-0.030063596;-0.017678762;-0.30302504;0.0798496;-0.013782752;0.020957772;0.053165447;0.1436159;-0.115254775;0.3182032;0.10871166;0.12362748;0.021179626;0.06335045;-0.07068858;0.0969403;0.07313079;-0.00463181;0.039920826;-0.2385092;-0.24113925;0.2214135;0.075764805;-0.09180306;-0.06017149;0.16901983;-0.04345482;0.0005846544;0.03965715;-0.02801337;0.0509322;-0.067036316;-0.03240921;-0.3277174;-0.021647492;0.058789935;0.04342111;0.06159839;0.03134411;0.21237211
-0.18192224;0.37318102;0.03127143;0.16680568;0.058459885;0.07079006;0.26678383;0.029384844;0.09666525;-0.008986849;0.050525516;0.36481202;0.058601093;-0.0526644;-0.049428493;0.06265374;-0.012556034;-0.21571226;-0.008522861;-0.056935184;0.17333268;0.38919458;-0.06930432;-0.042559203;0.027845517;-0.030939402;0.00728553;-0.21981172;0.14120032;0.011838652;-0.00094242766;0.23349881;0.12704705;-0.069583885;0.0049304296;0.035168163;0.045103207;0.09689972;-0.00062892;0.041329514;-0.19699082;-0.06429234;0.17689173;-0.29003033;-0.13627334;-0.069358066;0.00466975;-0.10724677;-0.008518313;0.09834259;0.011520345;-0.056012757;0.036756366;-0.3032655;-0.064860076;-0.019463016;-0.05933716;-0.24892919;0.053719938;0.027222358;-0.012635535;0.13373224;-0.016343314;-0.026744114;-0.081613004;-0.19580968;-0.046296168;0.005618473;0.2690955;-0.06572561;0.05891485;-0.06112688;0.20373538;0.1874311;0.2199836;-0.0117729;-0.17210265;-0.00922323;0.027117668;0.26039767;0.07277299;-0.23874015;0.02070448;-0.11036489;-0.0769495;-0.25471503;-0.0074832127;-0.21527608;0.0055721193;0.045622196;0.06393879;-0.038588416;-0.026129968;0.0058963555;-0.09465811;-0.24170919;-0.109923504;-0.37165293;0.2522366;-0.08088554;-0.32921907;0.32993606;0.011511306;-0.16637726;0.17246209;0.10725403;-0.025461808;0.28679448;0.19106658;0.036742937;-0.0693729;-0.14037426;0.04446429;-0.22115576;-0.16075353;0.027863897;-0.03334347;0.22959378;0.20952865;0.0019022853;0.20912641;-0.41134351;-0.083297536;0.4080749;0.23591495;-0.037016544;-0.03844362;0.13953632;0.07489368;0.06010194;-0.044499047;0.21330206;-0.044000912;0.050406273;0.1978565;-0.020523397;-0.09006107;-0.09080674;0.032294065;-0.15086086;0.023542065;0.1326978;-0.08063129;0.22232829;0.3870088;0.026338372;0.05545337;0.004916715;-0.02260952;-0.27034444;-0.02926151;0.038596403;0.2918901;0.05245031;-0.0055566896;-0.09802223;-0.043326847;0.079945564;-0.012343501;0.062852025;-0.12748276;0.0062629348;-0.024126887;0.042694766;0.032707248;-0.03470382;-0.032452043;0.092490345;-0.0057171173;0.15096085;-0.060835756;-0.0108490875;-0.089173794;-0.027801864;0.011629327;0.13393778;-0.011263079;-0.021940714;0.08814093;-0.03969111;0.022516351;0.056313597;-0.047757078;-0.113648005;0.030603655;-0.103064895;0.021170989;-0.18315679;0.041990414;-0.05015893;0.025396632;0.24701671;-0.02922238;-0.029904526;-0.110174455;-0.25211677;-0.067165;-0.023135811;-0.4140693;-0.2650823;0.13120611;0.045633376;0.20027249;0.09808596;0.058659196;-0.24114704;0.011085306;-0.09095506;0.027347228;0.068559095;-0.3361752;0.12390912;0.061615262;0.060775336;-0.00225987;0.056517348;-0.19311267;0.1826665;0.07928517;0.007211449;0.25951117;-0.14932972;-0.23463893;-0.0324522;0.12380683;-0.06464075;-0.13399014;-0.16252968;-0.2356291;0.05281678;-0.079323016;-0.09475231;-0.14981633;-0.00069378037;0.053243574;0.020706784;0.05947663;0.0025273578;0.22078238;0.34582126;-0.16936257;-0.0696127;0.26363537;0.0139108775;0.07869359;-0.08794814;0.013984482;-0.03743766;0.010633536;0.047904335;0.25556588;0.0155634405;-0.03753322;-0.1285325;-0.026248667;-0.03523706;-0.20180635;0.11648167;0.046541367;-0.06209231;0.04533342;0.003072036;-0.02117041;-0.02379063;0.05246825;-0.05332797;-0.104358934;-0.018643081;-0.08240767;0.072167486;0.0812417;0.031913545;0.17202066;0.122772045;-0.0035993287;-0.028010678;0.02981359;-0.20289022;-0.05463173;-0.026106792;0.04692754;-0.2547076;0.19444175;0.1612362;0.049423385;0.059187073;-0.046951152;-0.0029778702;0.0423037;-0.035227656;-0.09187012;0.13339584;0.071020454;0.0005791972;-0.045563035;0.18484807;0.060252413;0.1907375;0.0039495085;-0.007980433;0.2535594;0.0801471;-0.015954208;-0.08982581;1.67082e-05;-0.53168756;-0.01420255;0.016835412;-0.07625787;0.18789454;-0.26343855;0.065569304;0.22418602;-0.043292023;-0.09974058;-0.023897618;-0.101499826;-0.014530001;-0.07509644;-0.039540853;0.13388604;0.031213945;0.01668842;0.021363163;0.018192865;-0.025360122;0.103962;0.06620171;0.03874751;-0.041570324;-0.052885797;0.012697302;-0.030228725;-0.041491542;0.056423444;0.0007115831;-0.029584955;0.08909954;0.032696385;0.073708765;0.019789262;0.054321814;-0.014370349;0.14343683;-0.15345281;0.011716197;-0.26486787;0.0043648235;0.0028374495;0.04003211;-0.035791468;-0.085099414;0.29158363;-0.089103945;0.05572465;0.07997884;0.22790655;0.16747594;-0.16848889;0.22432372;-0.02967868;-0.019063829;-0.041184176;0.023434158;-0.13226552;0.09617314;0.18181929;-0.16155443;0.25250515;0.004266465;0.007099637;-0.006854653;0.037359625;-0.12559593;0.0043127937;-0.03302753;0.072520204;-0.108611;0.1541371;-0.18318322;-0.03500241;0.015442553;0.22208571;0.14439565;0.1064721;0.13963851;-0.17305587;0.009727574;0.08173607;0.027442118;-0.04302441;-0.06892984;0.039004795;-0.18472661;-0.04904625;0.069571964;0.0036094936;0.020648722;0.005665663;0.0034370644;-0.11178764;0.17477328;0.017528284;-0.0049289432;-0.042626023;0.0015864909;0.0045694057;-0.1877329;-0.040683314;0.04603088;-0.17556532;0.062413447;0.1067933;0.036397595;-0.03915622;0.050893176;0.15385139;-0.13037919;-0.2394231;-0.05452035;0.16333216;0.2543821;-0.00937799;0.23856659;0.18561518;-0.015911495;0.1981548;0.078227185;0.053483803;0.005213882;-0.17906934;0.20116386;0.17048799;-0.3298797;0.21565492;-0.010381401;0.06082699;-0.07721771;0.27301094;0.010548781;0.014142465;0.049187765;0.2827789;0.16112915;0.17232293;0.034097064;0.005557471;0.015500125;0.046617996;0.0038226843;0.1402894;-0.13773282;-0.029451864;-0.18989916;-0.014580268;-0.035252582;-0.1564041;0.110556275;-0.03636584;0.23928227;-0.026373425;-0.047496602;-0.00036808572;-0.06904904;-0.061169747;0.014644785;0.14531258;0.028623512;-0.014709343;-0.04130332;0.03957718;-0.24307391;-0.07146203;0.007904246;0.10465258;0.18150869;-0.18941796;-0.3088623;-0.029845651;-0.010999036;0.039911892;0.013570938;0.08842295;-0.013078426;-0.13689548;-0.2282998;0.054995693;-0.07975778;0.116772085;0.21504223;-0.15246858;0.045454416;-0.025064705;0.1384763;0.014648445;-0.051010545;0.081258684;0.25323874;-0.13840897;0.16264057;0.016659996;0.0195893;-0.10417085;-0.26599792;-0.017537307;-0.07350282;0.049593695;-0.059937026;0.008304304;-0.21494696;-0.09422098;-0.14176305;-0.0016668123;0.0048237727;-0.1797005;-0.049931236;-0.51520044;-0.07743024;0.17432147;-0.006549458;-0.19362716;0.05962192;-0.062411897;0.10758238;0.041309994;-0.004390749;-0.043595515;0.069160625;-0.009729163;0.026437324;0.14134532;-0.09806531;0.078309044;-0.115105875;0.0012389096;0.026706483;0.0605183;-0.025317041;-0.3093957;0.025847713;0.056039963;-0.03292406;0.14381541;0.08506603;-0.066063315;0.32180053;0.044067036;0.0784294;0.023751006;-0.13029638;0.032176986;-0.079378426;0.08568967;-0.0938632;0.056015614;-0.21972297;-0.04729176;0.16155072;0.13704787;-0.038469825;-0.03796453;0.201418;-0.05703407;-0.009610929;-0.058910817;0.0038156377;0.12265748;0.047271144;0.07097114;-0.101433866;0.0330358;0.07648134;0.08913049;-0.14121155;-0.04132935;0.24374264
0.031642765;0.19695345;0.0656341;0.1696596;-0.07632111;0.13458388;0.1315954;0.006329788;0.12726395;0.021519009;0.092952706;0.28402779;-0.027390977;0.03290334;0.009026245;0.0017905121;0.00775865;-0.10523269;0.103946075;-0.18059728;0.21333718;0.24575429;0.016479073;-0.19343208;-0.027193328;-0.05097286;-0.038673863;-0.12771639;0.26145318;0.051765088;-0.07505496;0.1148279;0.13243428;0.022652691;0.0673206;-0.061234836;-0.00812671;0.09250348;-0.0489014;-0.09866459;-0.26333722;0.09687663;0.16635475;-0.21482287;-0.2959931;-0.094453484;-0.044492662;0.027772197;0.045206957;0.045635056;0.03545314;0.018028736;-0.046853166;-0.12104806;0.03157708;-0.029251765;-0.10203597;-0.3446537;-0.0007274024;0.0051203514;-0.027519083;0.17826502;-0.009407502;0.03487701;0.047342163;0.007989685;-0.0020259512;-0.11893571;0.32246226;0.027629776;-0.018680273;0.0444352;0.19424142;0.00023695201;0.15275463;0.014738912;-0.07049633;-0.15443365;0.03920917;0.35798603;-0.0642616;-0.15501265;-0.0011594493;-0.108025536;-0.0482221;-0.39255637;0.041954793;-0.16727132;0.0026078904;5.3852054e-06;0.06602703;-0.0090024425;-0.015626317;0.08418238;-0.111799896;-0.11560155;-0.033748828;-0.40422252;0.24321102;-0.044625882;-0.28443682;0.15079597;0.1074634;-0.166653;0.05967456;0.05826266;-0.00914973;0.2782518;0.12883838;0.08790336;-0.0069680996;-0.048273;-0.010310888;-0.27755192;-0.01824922;-0.06841553;0.008314788;0.05992278;0.2360789;0.06694843;0.1011182;-0.34092745;-0.08765642;0.42108384;0.12004511;-0.15936054;-0.009017874;0.14723697;0.12859261;0.09858058;-0.030122448;0.32612225;-0.24490175;-0.028783562;0.32415253;-0.018564757;-0.2897997;0.0648923;0.33766827;-0.10369354;-0.003974443;0.20351838;0.04257199;0.22568665;0.33574006;-0.038851175;-0.065984525;-0.010443182;0.032421857;-0.14084043;-0.08194367;-0.14492115;0.22139342;0.092057586;0.016680066;-0.2757537;-0.09211317;0.11147726;-0.04607364;0.12481865;-0.24779256;-0.046339758;-0.054956015;0.038957383;-0.013761605;0.055714007;-0.015520504;-0.11720843;-0.02944987;0.12361702;0.033761755;-0.012223483;-0.055596773;0.04663211;-0.005727129;0.11237903;-0.0068013617;0.0074347067;0.10080354;0.075415604;-0.04796026;-0.019756302;-0.041880157;-0.21127328;-0.02980371;-0.14979248;0.029768037;-0.07609711;-0.089228675;-0.008802572;0.013522284;0.14962728;-0.016595982;-0.0038970965;-0.049303196;-0.18401156;-0.3395891;0.05213982;-0.31825098;-0.1439447;0.006510305;0.020528847;0.1242919;0.093080126;0.13434246;-0.30877367;-0.16645572;-0.0943664;0.123942286;-0.103091724;-0.29810417;0.19085532;-0.03485867;0.022564506;0.029519692;-0.06319559;-0.08818301;0.1762487;0.08208083;-0.23919675;0.20654967;-0.028820405;-0.14533591;-0.029300243;0.10633697;-0.0118579725;-0.20995054;-0.17185692;-0.17702755;0.029684143;-0.03173102;0.1491349;-0.26038116;0.03346132;0.11080144;-0.19613303;0.18393709;-0.02163424;0.22725976;0.37549886;-0.30783078;-0.15958896;0.20535338;-0.035981417;0.036592133;-0.22911775;0.13309318;-0.14878957;0.0025940123;0.012627949;0.18188648;0.03912321;0.04013089;-0.15744106;0.079645805;-0.08580564;-0.15097596;0.0917661;0.041489873;0.00083769974;0.015314129;-0.035197183;-0.00060810253;0.0093094995;-0.031964727;-0.031184431;0.08758663;0.1338482;-0.21238613;0.079054765;0.04392429;0.02006393;0.1496609;0.27893806;-0.00034250386;0.022943452;-0.09759905;-0.12227834;0.021690052;0.027802955;-0.027720995;-0.2690219;0.23047894;0.17807257;0.19667558;0.2008798;0.03452382;0.11850822;-0.07942522;-0.07461212;-0.06269185;0.080597684;0.15977836;0.13508959;0.1304247;0.12614508;0.06266819;0.093247704;0.05361964;-0.021121912;0.14216608;0.0048142946;0.015860772;0.06247047;0.044644587;-0.5680657;0.06801415;-0.035873327;-0.17092301;0.2375902;-0.23995352;-0.04006432;0.12993829;0.046286806;-0.0705946;-0.024780033;0.041830465;0.1741838;0.026732206;-0.047070906;0.16962548;0.12268468;-0.020204855;-0.0072026104;-0.07022609;0.057099756;0.10034375;-0.012231179;0.05377139;-0.0030292268;-0.001834327;-7.7900906e-05;0.010034637;-0.0360471;0.050200682;0.011427917;-0.15038829;0.030356528;-0.026275424;0.1568028;0.024896052;-0.019037997;0.07954324;0.1161297;-0.32538423;0.11357749;-0.14570394;0.0530911;0.0019077257;-0.03567941;-0.03874379;-0.1245721;0.28755754;-0.052210692;-0.024740074;0.15203904;0.1896497;0.079661384;-0.13727178;0.25280413;-0.07535952;0.012520306;-0.13282214;0.010878658;0.005609727;0.11040712;0.21017525;-0.04467911;0.24559085;0.046997234;0.012213705;-0.018238226;0.0012646329;-0.09220036;-0.10519289;0.012713483;0.0689229;-0.012601644;0.11334231;-0.08456798;-0.17115293;0.014301571;0.33086422;0.078670084;0.038556196;0.21594076;-0.007906004;0.081191085;0.201955;0.17712764;-0.0378285;0.023966238;-0.0071765347;-0.16317394;-0.050251503;0.12259854;0.027684724;-0.02256252;-0.018717924;0.0027374336;-0.22474052;0.0769916;-0.17061672;-0.037665714;-0.008189167;0.03949726;0.18614164;-0.062221143;-0.009990795;-0.026008751;-0.15381056;0.02847586;0.12115119;-0.027189737;0.17681128;0.014972537;0.16293603;-0.17535356;-0.27508295;-0.041973718;0.09884632;0.28142554;-0.0019955998;0.22335458;0.056702673;-0.07343514;0.052180745;0.06514802;0.13081178;0.08856461;-0.21449865;0.2604835;0.35048136;-0.349484;0.087146305;-0.0501353;-0.027715495;-0.04132853;0.12856102;-0.061163444;-0.008038336;0.011744687;0.41481274;0.052497186;0.12269589;-0.011714488;0.036038004;-0.14293979;-0.06117562;0.013288527;0.10357262;-0.16146545;0.034003876;-0.25259095;0.042148564;0.07597662;-0.2236346;0.2224574;0.100848936;0.2599901;0.017090585;-0.04750571;0.04482239;0.054789674;0.022524145;-0.033629753;0.24242829;-0.0020526003;0.07384068;-0.06335381;0.14521551;-0.16833149;-0.013417223;-0.09883446;0.056277104;0.18185396;-0.17909692;-0.1412183;-0.04220476;-0.025378367;-0.055278867;-0.06291316;-0.03259178;-0.011314124;-0.18631868;-0.22952504;0.10110151;-0.2053289;0.17424159;0.2815997;-0.19567224;-0.0038578392;0.0662016;0.01468923;-0.020014301;-0.026296537;-0.039470807;0.073858775;-0.15033863;0.1075995;0.0080234725;-0.00016415022;-0.13618341;-0.19661835;-0.011164544;0.13448414;0.0049316073;0.053242665;0.11702489;-0.24671778;-0.1475664;-0.2730112;0.001123384;-0.07427189;-0.06919175;0.04827961;-0.37133747;-0.018815374;0.18271437;-0.010194499;-0.16110705;0.00313457;-0.012728205;0.15103652;-0.04819873;-0.0594089;-0.21987346;0.08627395;-0.013223271;0.020079002;0.24305674;-0.12651081;0.14326757;-0.22775303;-0.005540751;0.012794831;0.035479713;-0.012211423;-0.21316917;0.074081995;0.027739434;-0.016044147;0.14940527;-0.09317426;-0.116573624;0.15251307;0.26089826;0.01260931;0.015554974;-0.14097026;0.015877783;-0.18293211;0.09910156;-0.061864424;-0.057013683;-0.24567735;0.011791441;0.29617974;0.08221695;-0.006042284;-0.07850724;0.16382591;0.18096015;0.026867013;-0.04975248;-0.07405303;0.2340663;0.03550001;-0.03377609;-0.10109271;0.011618825;-0.054988932;0.07323054;-0.092806816;-0.0031676807;0.16171956
0.07314071;0.24085206;0.0026580428;0.0678533;0.03902791;0.3054739;0.16448483;-0.050096802;0.014947192;-0.033854112;0.06648375;0.32078868;-0.06361369;-0.01912977;-0.04349139;-0.0057759923;0.029063497;-0.14031477;0.0014741756;-0.07550341;0.19827592;0.081376635;0.0034003095;-0.19799735;-0.05484657;-0.11657083;0.017917767;-0.2986611;0.3339517;0.19534694;-0.000536955;0.08980722;0.1545496;-0.035673305;-0.045318455;0.032454446;0.05620071;0.039619017;0.15073298;-0.17883982;-0.31523964;-0.058446646;0.0449288;-0.19909321;-0.19951554;-0.13676526;-0.03675121;0.06026889;-0.030631345;0.106820814;0.006211332;-0.07827237;-0.039378643;-0.1379142;0.21858153;0.04783807;-0.08034221;-0.34054327;-0.059971415;-0.01462479;0.04552051;0.14875025;0.05298247;-0.026725886;-0.1102845;-0.07097968;0.016639765;0.032185007;0.08306798;-0.010550863;-0.082403846;0.014370205;0.0089922035;0.08439551;0.025051177;0.0067789187;-0.1390174;-0.12748846;-0.060430538;0.2108966;-0.0360888;-0.15336612;-0.022452824;0.04944326;0.058360152;-0.21220362;0.030729407;-0.16102538;0.024717312;-0.037961572;-0.10405812;-0.022794444;-0.013406483;0.02797756;-0.06510941;-0.07461561;0.010141778;-0.2083469;0.18237475;-0.07532809;-0.30747423;0.07852488;0.10340313;-0.21652368;-0.04299322;-0.0048397533;-0.06783557;0.1950507;0.21121313;0.05156403;0.036592882;-0.22780778;0.033026136;-0.21870822;-0.003983426;0.04401008;-0.02110276;0.018433468;0.194262;0.0035903226;0.1738406;-0.217325;-0.041715626;0.37434274;0.023985162;-0.018633595;0.1804439;0.103709795;0.05363159;-0.043086648;-0.07451126;0.29824838;-0.017834978;0.00980743;0.30503502;0.068736866;-0.19977872;-0.060589544;0.27918407;0.073064685;0.07181213;0.28223655;0.047138534;0.13444865;0.32534742;0.053540032;-0.09166879;0.025906863;0.03181087;-0.18565588;0.023443164;-0.17051709;0.22813866;0.15801547;0.04457014;-0.17775892;-0.062021296;0.22471294;0.010029622;0.1486958;-0.14191937;0.004873209;-0.11404031;-0.059375297;-0.02570964;0.041162297;0.012410433;-0.05748322;0.0011201513;0.18368396;-0.007170524;0.036433667;-0.1448064;0.043169156;-0.021437634;0.20873712;0.008000929;0.069906786;0.18369658;-0.036563836;0.045026124;0.017779162;0.06758976;-0.11818591;0.023619635;-0.15324852;0.032436315;0.0035384574;-0.15704882;0.016646635;-0.029950598;0.18123268;-0.09695444;-0.019607997;-0.050897203;-0.1318922;-0.34862852;0.12952472;-0.15089285;-0.08303446;0.07865902;-0.14778812;0.20653735;0.0083206715;-0.022645487;-0.18214309;-0.15744556;-0.01969464;0.07031768;-0.009533678;-0.20845033;0.0632485;0.057130914;-0.0013855271;-0.012316857;0.020221055;-0.14833382;0.0670364;0.027214102;-0.16593386;0.26774296;-0.18033452;-0.12546259;0.028602038;0.0072526364;0.009024196;-0.049305957;0.007065019;-0.33464527;-0.048707306;0.019605733;0.11468884;-0.09049942;-0.079126775;0.04020338;-0.26590276;0.13978551;0.060648665;0.25339234;0.41465035;-0.21524963;1.7419402e-06;0.16985883;0.041406117;0.01756377;-0.356761;0.078351855;-0.15667468;0.025872882;0.026467279;0.21754782;-0.039964885;0.01662333;-0.09910318;-0.014895839;-0.013718943;-0.20157982;0.21145315;-0.06983989;-0.011818372;-0.017597249;0.052675158;-0.012957418;0.024979694;-0.02439095;0.1137547;0.11013276;0.07565931;-0.32448056;0.12329588;0.053155757;0.07048197;0.25882348;0.05284409;0.029556785;-0.045099746;-0.04879133;-0.1593618;0.022063216;0.034450397;0.0077179037;-0.15361649;0.24706186;0.09469293;0.077351265;0.2931716;-0.012547894;0.15202507;0.001505008;0.052848767;0.08323088;-0.08216819;0.029029764;0.034933306;0.17434442;0.21737611;0.096135505;0.14718139;0.038818333;0.05622708;0.039914332;0.12982288;-0.03744215;0.09527901;0.111837275;-0.5436626;-0.010187827;0.06138486;-0.106686175;0.22087093;-0.25875938;0.014015445;0.16781335;-0.018393023;-0.032441102;0.07905979;-0.04447074;0.12286574;0.059544176;0.0039474126;0.03749635;0.05637571;-0.07146705;0.04906675;0.037151314;0.020203622;0.019461317;0.0149882035;0.13409679;-0.0040339157;0.007587354;0.015198486;0.07691143;-0.014499098;-0.001172281;-0.020548962;-0.16739741;-0.042596325;-0.007900669;0.031298034;0.016355747;-0.08599562;-0.04677002;0.17859177;-0.19833364;0.03261428;-0.127985;-0.072020635;0.020871082;0.059286356;0.0571991;-0.20267452;0.29305735;-0.1070109;0.0043152547;0.081885904;0.09085556;0.07177495;0.0023515169;0.30099672;0.013971008;0.0074445466;0.051215105;0.0073923515;-0.10073448;0.00847563;0.0791764;-0.049987935;0.099452615;0.118822746;-0.025931861;-0.038217653;0.031282574;-0.058012553;0.015929632;-0.0060495716;0.24677233;0.1927863;-0.097190246;-0.1639765;-0.0449579;-0.06910859;0.1463199;0.11758252;0.09761666;0.09308996;-0.040174823;0.035755247;0.09737106;0.16460231;-0.03670939;0.047748882;-0.037906546;-0.10017876;-0.104626946;-0.037055206;-0.0021320167;0.010208542;0.04801222;-0.053847555;-0.15234709;0.14996529;-0.08390034;-0.02149118;-0.027202025;-0.026666118;0.16463315;0.061737917;0.07847725;0.024097718;-0.07055733;-0.00251532;0.15591094;-0.011302882;0.038081896;0.124919735;0.26536667;-0.038585655;-0.3704681;-0.004706509;0.14124511;0.07639574;0.010054752;0.090202406;0.06251409;0.033575725;0.17286049;0.011781073;0.09697738;0.03418274;-0.13133119;0.2314222;0.31005156;-0.3477393;0.18515882;-0.15012379;-0.012235476;-0.01003205;0.32080966;-0.06622846;-0.049210798;-0.005732659;0.41599813;0.13532351;-0.030404113;-0.0077682673;-0.030370096;-0.043808192;-0.03081626;-0.002243034;-0.025690436;-0.09987452;-0.016744703;-0.31688115;0.007852427;-0.039619166;-0.30640513;0.12852703;-0.054343805;0.20614347;-0.03283361;0.077505566;0.021141566;0.02587947;0.026558613;-0.030803714;0.11872329;0.08393971;0.09625214;0.0034551355;0.15506108;-0.26738834;0.018828666;0.042626582;0.014101518;-0.041748166;-0.1870165;-0.15491486;0.032959566;0.048007663;-0.023798771;0.0026768178;0.08853108;0.058667235;-0.17751706;-0.09022687;0.010616648;-0.30362213;0.04638492;0.21550117;-0.15898594;0.016426565;-0.05863339;0.058441646;0.06779212;0.061859354;-0.109124795;0.06420779;-0.05038167;0.1833971;0.030653099;-0.27578923;-0.18366224;-0.24625719;0.008652024;0.118334204;-0.04563559;-0.005585059;-0.036113515;-0.16558222;-0.202601;-0.12824522;-0.059507184;-0.058461297;0.056488182;0.040420547;-0.21231896;0.044255055;0.19417709;0.034692954;-0.0029158879;-0.06114878;-0.021584012;0.18757881;0.010231963;-0.035207946;-0.19712141;-0.040091198;0.031076552;0.015282983;0.2452152;-0.095747106;0.02561021;-0.061390676;-0.020460324;-0.05995918;-0.07710605;-0.02632195;-0.16759537;-0.080909856;0.048931025;0.048005298;0.105479136;-0.10117925;0.09735178;0.13048036;0.25303257;-3.643337e-05;-0.0037260365;-0.1264669;-0.026942406;-0.15668617;0.041104622;-0.05036607;0.03472444;-0.081612155;0.00312195;0.35870832;-0.034119543;0.12518325;0.02485358;0.1423087;0.09473514;0.033345576;0.095141344;-0.085426435;0.119836465;0.019006956;0.07035522;-0.111357406;0.14179187;-0.21980153;0.1206129;0.09991844;0.07767227;0.27999502
0.03189732;0.090773664;-0.022684386;-0.018048454;0.049127374;0.34066728;-0.07358772;0.048441645;0.16785395;0.0676006;0.21260315;0.18022144;0.067745484;0.03583185;-0.25980586;-0.02533102;-0.028170014;-0.009305914;0.036725838;-0.13966127;0.1288862;0.108225524;-0.12959999;-0.2557792;0.05542175;-0.18276054;0.003744632;-0.35761636;0.37261045;0.29988286;-0.001429564;0.09331839;-0.0067074867;0.060793106;-0.017079448;-0.003294546;-0.075677454;-0.011973922;0.030402793;-0.12775671;-0.35687244;0.013009097;0.073314026;-0.13821182;-0.18508756;-0.119529314;0.072675735;0.023694094;-0.06918118;0.16163501;-0.028138341;-0.20298843;-0.09888604;-0.11723906;0.06451374;0.028272416;0.03002736;-0.16769202;0.043343198;-0.0014105076;-0.00440386;0.052467216;0.00684838;0.017722275;-0.1508606;-0.029939666;0.056837946;-0.021941762;0.17523804;-0.05649983;0.06498899;0.014291268;0.11556321;0.22434844;0.023040602;-0.040969096;0.051322185;-0.051818278;0.044209138;0.1284784;0.034057695;-0.12264588;-0.03819204;0.0726241;-0.021990802;-0.29061788;0.013281372;-0.099606134;0.054187313;-0.029188922;-0.078158535;0.019370852;-0.10143066;0.017910277;-0.04113024;-0.13046198;-0.038088493;-0.419921;0.23851593;0.034219243;-0.49458292;0.054965984;0.18734403;-0.12142659;0.06230736;-0.05644932;-0.087826215;0.15708666;0.11513969;-0.09116483;0.07322816;-0.2212823;-0.053671435;0.07769752;0.07786149;-0.05598058;-0.0330842;0.007847788;0.31157798;-0.09545162;0.029405847;-0.20230128;-0.025751483;0.36636418;-0.004277336;-0.028074194;0.10786392;-0.032840926;0.00036429957;-0.025758969;0.035142288;0.3014954;-0.04752113;-0.049034342;0.14874965;0.0030970057;-0.15185462;-0.02905131;0.1879877;0.14439587;-0.03440893;0.44037843;0.028575882;0.11263247;0.39059082;-0.07096326;0.018856626;-0.0057146796;-0.043831825;-0.22426233;0.027824966;-0.2425572;0.13440007;0.20659582;0.19814901;-0.1468378;-0.08064342;0.13230464;-0.04295639;0.07918639;-0.35451025;0.005920099;-0.025414608;-0.0046726703;-0.061268404;0.11871998;0.019434044;-0.20889337;0.038155463;0.12841612;0.03898549;-0.05738581;0.099074386;0.040805504;0.045892444;0.29350904;-0.05395897;0.14766827;0.029908786;-0.023893137;-0.053476974;-0.016100673;-0.0814097;-0.0694771;0.015090502;-0.26622874;-0.038512535;-0.027041614;-0.049614146;0.044387877;-0.1256286;0.03114783;-0.122349694;0.017953668;0.08036807;-0.05509282;-0.28784677;-0.0018742762;-0.30644327;-0.09166245;-0.13854055;-0.26158834;0.14781867;0.15506615;-0.08081436;-0.39495695;-0.23611891;-0.011934142;0.12698351;0.075729474;-0.3114338;0.16460451;-0.020013781;0.01369095;0.0018593892;0.045772597;-0.11198368;-0.04849969;-0.07464367;-0.19553615;0.23958996;-0.0666301;-0.121280044;-0.003359358;-0.04989556;0.062690064;-0.013909555;0.05053794;-0.29930407;-0.042234696;0.08423626;-0.029746892;0.07111646;-0.17377892;0.00844836;-0.30064702;-0.021965519;-0.04713251;0.26982453;0.3660721;-0.32674843;0.1873431;0.29564178;0.037251614;-0.3325599;-0.23271286;0.1788087;-0.16712344;-0.046253294;-0.085287645;0.07795353;0.009149064;-0.031997338;-0.095846854;-0.0097381575;-0.020414582;-0.150261;0.2776713;0.04449638;0.025996625;-0.01861098;0.0686026;-0.023904473;0.039538346;0.016480064;0.12139503;0.20308661;0.22577876;-0.28317344;0.080586255;-0.008340891;-0.06260137;0.2258924;0.046793234;0.044093437;0.038646966;-0.0076937927;-0.1545508;-0.05880767;0.029294059;0.017772516;-0.111041985;0.17029025;0.18624619;0.16358012;0.3040501;0.006372057;0.058198597;0.022628462;0.13031131;-0.02035152;-0.25012803;0.18037014;-0.08077322;0.09382654;0.24793236;-0.10792248;0.11704272;-0.04878098;-0.032047965;0.12532449;-0.0103117265;-0.030558033;-0.012037567;0.06075686;-0.5167787;-0.118010335;0.0051445398;-0.036767013;0.19943094;-0.19453977;0.038917847;0.06907109;0.03427379;0.059176028;0.060113627;-0.15890194;0.10333984;-0.08395339;-0.009734527;0.13088742;0.1145468;-0.0061224;-0.051760335;0.021626543;0.11284426;0.012620113;0.014545148;0.02980707;-0.011847702;0.0012682505;-0.023220275;-0.05492149;0.09134653;0.024472624;-0.014255637;-0.3441549;-0.1526783;-0.02940306;0.18413967;0.030557983;0.010188274;-0.020935502;0.098290786;-0.21971542;0.06891257;0.025574397;-0.12531202;-0.046281524;-0.028341737;0.069677845;-0.09200411;0.32257426;-0.011304816;-0.039058324;0.13206334;0.09745421;0.16018002;0.11612524;0.14061305;0.018160645;-0.03239509;-0.09545808;0.08273322;-0.026399411;-0.056372117;0.24000762;-0.07817756;0.12669455;-0.093114465;-0.013402682;0.08848026;-0.05463844;0.03465288;-0.09045232;0.0020011135;0.16605963;0.25718382;-0.068711974;-0.14348318;-0.14105643;-0.21849386;-0.011839994;0.09432811;-0.016674737;0.020113716;0.013452286;0.07690068;0.081384555;0.012332022;0.008655387;0.037000116;-0.0011645362;-0.18340033;-0.10097378;-0.08072241;-0.009930382;-0.004889631;-0.01754397;0.05333037;-0.05809101;-0.007309845;0.03295218;-0.0419593;-0.03594747;-0.038689245;0.17025068;0.09227407;0.2504229;-0.029213285;0.11328671;0.08876204;0.12972607;0.031522777;0.05622638;0.13977493;0.28908145;0.063269414;-0.19758406;-0.025812974;0.2095715;0.038952347;0.011273143;0.07300123;0.09160777;0.08525839;0.13480431;0.07750615;0.22942957;0.015736604;-0.22064546;0.30182034;0.12775563;-0.21144855;0.11456856;-0.20209274;0.018096296;0.02425662;0.3050217;0.05934172;-0.026792277;-0.20461455;0.396371;0.24694706;-0.019575233;-0.01713078;-0.029268682;-0.11683836;0.03340397;-0.0021473432;0.13021164;0.057531968;0.010073279;-0.30026;-0.004234863;0.021654963;-0.256457;-0.008506923;0.051946912;0.05300018;0.031138852;-0.03188536;0.086506546;-0.026693314;-0.0036258397;-0.18864001;0.15161566;-0.039922424;0.03319989;0.010549769;0.11018016;-0.1936799;-0.00013015483;0.010210517;0.017243095;-0.09895819;-0.17664164;-0.04097822;-0.016811049;-0.030835252;0.04013189;0.05750371;0.01951787;-0.05152875;-0.30776596;-0.058213413;-0.117722325;-0.2568382;-0.054324802;0.054360677;-0.33191496;-0.062923275;0.036683932;-0.19472758;-0.042269096;0.031596866;-0.04784334;0.054098435;0.020654006;0.10285368;0.064616926;-0.16620855;0.00010233183;-0.07766604;-0.0031595472;0.15562512;0.031581175;0.0066938996;0.008696021;-0.10195567;-0.19208224;-0.026300047;-0.0075664716;0.038753975;-0.13457279;-0.023364423;-0.03183961;-0.049738307;0.17907804;0.029502159;0.111564994;0.02344717;-0.055790316;0.047099207;-0.039308794;0.0042664884;0.011939928;0.04758682;-0.024059253;-0.012256372;0.35718626;-0.16325837;-0.007870188;-0.020923479;0.018444115;0.084266685;0.055454105;0.118016906;-0.1466005;-0.0059449766;0.043508578;0.022299772;0.10075094;-0.13339159;-0.07336142;0.14874819;0.22220619;-0.0017798309;-0.07457672;-0.15877326;0.034128513;-0.27382967;0.002468255;0.0038660113;-0.07485341;-0.095119685;-0.027751056;0.33655697;-0.08138707;0.085521735;0.0023856282;0.17518306;-0.12270123;-0.07705011;0.08782904;0.022247994;-0.00986032;-0.0063305735;-0.02687018;0.13810182;0.03732338;-0.049721405;0.03153634;-0.06806619;-0.030483624;0.15947054
0.1719395;0.24769327;0.026416862;0.047612026;0.01796646;0.3500616;-0.018182267;-0.0018726878;0.046296775;0.009344129;0.27597186;0.15889415;-0.0135113;-0.027603673;-0.1840408;-0.013416301;-0.029572662;-0.20845175;0.1331039;-0.0842902;0.17327568;0.10103604;-0.08145321;-0.34022295;0.022812294;-0.17891985;0.0017516494;-0.18455088;0.13464887;0.34714493;-0.19287121;0.04269125;-0.03852438;0.04969756;0.042558916;0.04284482;-0.0074705626;-0.056176692;0.094433896;-0.1210623;-0.33011493;0.037932765;0.119227044;-0.18371452;-0.3018787;-0.18930455;-0.042484548;-0.02398005;0.041299794;0.16047741;-0.037063733;-0.18667373;-0.10224835;-0.023924299;-0.031759664;0.028652174;-0.17835084;-0.04236193;-0.07970024;0.038603254;-0.00030495445;0.036815714;-0.013567739;0.037668522;-0.03478578;-0.014206387;-0.04525438;-0.019889617;0.20326112;0.03411944;-0.017897166;-0.025182616;-0.0056996755;0.0757422;-0.08400211;0.0731671;0.042837877;0.07511449;-0.023653595;0.121203475;-0.0103148995;-0.22995748;0.009400823;0.00685293;-0.14119467;-0.1071047;-0.033682097;-0.2013575;-0.045486618;0.024755113;0.09116314;0.01913817;-0.21846534;0.094437055;0.061047874;0.14695892;-0.040730815;-0.28473267;0.25027618;-0.0516397;-0.3768869;0.17335981;0.11927402;-0.18369348;0.07848851;0.07906007;-0.15258645;0.2403304;0.10169452;-0.08145824;0.108079284;-0.023670057;0.023659982;-0.22756615;-0.04100817;-0.02844311;-0.015990531;0.02071579;0.318655;-0.13750856;0.13130008;-0.251558;-0.0318817;0.44576877;0.122918494;0.07335983;0.043909434;0.10092591;-0.0083822105;-0.047835387;0.13653705;0.34358394;-0.0029465156;0.03860227;0.2356434;-0.05745511;-0.055040088;0.10230822;0.28150845;0.42449594;-0.09082587;0.26459876;0.08711513;0.18863514;0.29450068;0.016659414;0.008819969;-0.010237588;-0.06509278;-0.20104876;0.065365724;-0.1289692;0.06754712;0.14644942;0.15682559;-0.06426571;-0.023929069;0.17326325;0.0759274;-0.11640037;-0.30930203;-0.050945688;-0.001054346;-0.012395734;0.059938617;-0.012279011;0.012393027;-0.26929128;-0.08753917;-0.011693107;-0.13772003;0.018733712;0.040211566;-0.0013031657;-0.015205316;0.15720141;0.0545795;-0.006843376;0.098688334;0.0058742957;0.023360394;0.038215313;-0.1032305;-0.06619744;-0.055672564;-0.12618239;-0.039533023;-0.10622157;-0.14053227;-0.064728074;0.026082624;0.093671575;-0.25325692;0.074591346;-0.0155171435;-0.0011086797;-0.21553932;0.04889764;-0.26807246;-0.08690783;-0.25352326;-0.19029169;0.34363574;0.057075523;-0.06296213;-0.1948458;-0.21213312;-0.23953694;0.11858538;0.06927576;-0.2853368;0.16664158;0.14636816;-0.03558717;0.01680495;-0.022536742;-0.22573145;-0.16051012;-0.17868881;-0.22305709;0.2495078;-0.0680152;-0.21813974;-0.036987476;-0.109030746;0.04986689;0.09841992;0.11931247;-0.28516197;0.004181042;-0.04139239;0.14169422;0.053567387;-0.009512702;0.05615734;-0.097948514;0.013161931;-0.004864629;0.14917089;0.38105112;-0.30279088;0.27228144;0.1336008;-0.019925894;-0.2802925;-0.3266181;0.088932104;-0.17918149;-0.0012392239;0.0022581066;0.09508807;0.01854778;-0.14620285;0.08465356;-0.01862169;-0.10310262;-0.05506497;0.38096333;-0.052515823;0.026663605;-0.0038555895;-0.011075206;0.058988925;-0.04792393;0.012903424;0.03376249;0.10218338;0.13647722;-0.054806937;0.039028697;-0.0886408;-0.20745909;0.19116908;0.12166476;-0.065318644;-0.031293586;0.092473306;-0.10971541;0.021470482;-0.0067976676;-0.020421812;-0.19943042;0.15076734;0.24250187;0.13330835;0.23411877;-0.02843732;-0.10977929;0.036392305;0.13651757;-0.0079670455;-0.33172998;0.102494076;-0.06577473;0.15051298;0.051176317;-0.12777781;0.14291346;0.003587445;-0.0023372446;0.19325046;0.016268142;0.08593079;-0.03820706;0.10972639;-0.30049533;-0.2495375;-0.013355772;0.08112118;-0.02602211;-0.041220527;-0.022086201;0.26180905;-0.015010207;0.10005114;-0.021662679;0.054794833;0.077954024;0.016457753;0.0045658634;0.1622649;0.17109184;-0.08218161;0.009062746;0.015173752;0.03218283;-0.01729487;-0.04383838;-0.02540807;-0.036043532;-0.03937013;-0.016540013;0.00711967;-0.03378401;0.054286163;0.045679446;-0.24249712;-0.17564988;-0.009660297;0.14419566;0.012543949;-0.09019782;0.037623756;0.06194543;-0.27421543;0.023221456;-0.040106162;0.06859432;-0.0057697757;-0.012484021;-0.0026239324;0.010091369;0.3519575;-0.16648886;0.006998346;0.21659735;0.068076625;0.022793885;0.070570804;0.24677186;-0.016049758;-0.021355113;-0.068355456;0.09353189;0.04539057;-0.0752286;0.08498178;0.084621;0.29770893;0.024375973;0.011639219;-0.03338067;0.0033912598;-0.06460186;-0.13664116;-0.068069994;0.07529106;0.24390748;-0.04652684;-0.110156916;-0.09871583;-0.21670336;0.05124015;0.04969097;-0.16133787;0.0060960455;-0.013754481;0.028598284;0.042609643;-0.09028039;0.084264286;-0.021587566;0.027279148;-0.220061;-0.10899324;-0.26120937;-0.042775918;-0.04721028;-0.014829202;-0.06349778;-0.044559367;0.14493828;0.000110422356;0.041032862;0.03347962;-0.026978703;0.2336276;0.02806476;0.17168361;-0.010296231;0.17170064;0.15588392;0.28591368;-0.02530256;0.27596763;0.093883015;0.30333552;-0.10663725;-0.28106666;-0.06294652;0.13081256;0.029462678;-0.047832437;0.11678569;0.19781718;0.032585427;0.15615697;-0.11292964;0.020761589;0.007174613;-0.21614344;0.20073044;0.026429709;-0.2918075;0.123182274;-0.21195672;0.013801608;0.025664657;0.14714071;0.034639824;0.038162276;-0.07040272;0.30583787;0.2888213;0.018331086;-0.014281033;0.009926764;-0.2958808;0.07691588;0.03171014;0.19458975;-0.0707043;-0.018338267;-0.14559267;-0.017079312;-0.01965358;-0.23980801;0.025719943;0.11131159;-0.10583188;0.02214822;0.0016013355;0.016033111;0.02271343;0.026616193;-0.1708665;0.18985435;-0.029795406;0.042012498;-0.15370938;0.29539704;-0.25200918;0.017129712;-0.09831563;-0.033756256;-0.028629698;-0.23327842;0.018808313;0.053788766;0.08038318;0.013677046;-0.025482021;0.024330806;0.043107446;-0.25160736;-0.0351076;-0.31291434;-0.25777778;-0.12968229;-0.013253869;-0.23891234;0.013520746;0.011583394;-0.10671733;0.032176457;-0.03492132;-0.009400316;-0.1476442;0.04240225;0.21466435;-0.04602542;-0.10872503;-0.04602329;0.066013046;-0.01657514;0.026759202;-0.04743268;0.08337541;-0.03313259;-0.1811623;-0.12551616;0.0034860752;0.056345068;0.02058699;-0.2100054;-0.05146003;-0.12414407;0.07191718;0.16025518;-0.06615405;0.09435325;0.01535095;0.02595901;-0.05458323;-0.033429828;0.02837564;0.13863708;0.18358195;-0.014565079;-0.026932122;0.31246772;-0.16775052;0.15246773;-0.2060309;0.032974485;-0.01853315;-0.0033474774;0.10820572;0.029076219;0.04975709;-0.043696124;-0.026798097;0.1314273;0.008866976;-0.08370044;0.29256898;0.18487316;0.010004333;-0.02756098;-0.07375927;0.023372928;-0.11662652;0.12149839;-0.032265533;-0.0068642134;-0.14973411;-0.029274488;0.25476614;-0.047839895;-0.1263529;-0.08961236;-0.010089777;-0.1434785;-0.027808204;0.18992321;-0.026800584;-0.13166852;0.004538067;-0.050977018;0.020436501;0.031246971;-0.0077438955;0.02860058;-0.04238791;0.016512096;0.13358328
0.22481097;0.06221318;0.008518988;0.06140641;-0.07267803;0.341683;-0.051536314;0.009036519;0.16477266;-0.017992761;0.31332907;0.17416403;-0.009781606;-0.049139883;-0.23285434;0.006552306;-0.006646725;-0.21551515;-0.03264881;-0.0109489;0.20254211;0.18168262;0.00174786;-0.3667069;0.010697444;-0.0020452098;0.010622379;-0.24556439;0.12699346;0.2847148;-0.1687499;-0.017757488;-0.10215225;-0.0318173;-0.022575554;-0.042143125;0.0112765115;-0.048654508;-0.046845015;-0.20742753;-0.4007144;-0.025827466;0.078458585;-0.21505287;-0.25633785;-0.1753925;-0.03937818;0.0055894204;0.025659729;0.16927712;0.022833938;-0.2811875;-0.041977745;-0.13625322;0.075097635;-0.08022247;-0.28740746;0.08585118;0.05408292;-0.0044826195;-0.026911495;0.105835885;-0.050810855;-0.0043882285;0.046227667;0.02430752;0.066301;0.054426976;0.21877287;0.10638021;-0.093931854;0.033423282;-0.21824554;0.28862825;-0.08804478;-0.051079877;0.06025496;0.06498425;0.018341959;0.4108188;0.027282447;-0.13225044;0.009054879;-0.0063603413;-0.05757455;-0.039877906;-0.03150135;-0.279973;-0.011348625;-0.01661375;0.06063193;-0.064158835;0.0040645916;0.09387827;0.031722102;0.1386372;-0.03233899;-0.08470016;0.2269699;0.07570241;-0.27752185;0.1800602;0.20629069;-0.27736294;0.19648337;0.04848466;-0.04110887;0.20510466;0.07274436;0.09858788;0.23269978;0.032716647;-0.06134093;-0.296678;-0.07327589;0.042254694;0.06708108;0.079497814;0.32516116;-0.037548345;0.11946975;-0.23384489;0.004069309;0.45475692;0.0040013115;0.06973934;0.1695774;0.11651031;0.14421453;-0.16085519;0.18698724;0.3148196;-0.09858306;-0.024583565;0.18157859;0.066948116;0.03247877;0.0633374;0.2558604;0.25673866;0.028854636;0.30472225;0.01959341;-0.049420826;0.31964716;-0.008634259;0.11104582;-0.031592168;-0.124756075;-0.26132336;0.005575075;-0.21051344;0.086119495;0.027394544;0.15431076;-0.04099324;0.14634435;0.09648677;-0.059878234;0.04545089;-0.3202891;0.010419133;-0.035815585;0.03495211;-0.01253543;0.09944585;-0.057006236;-0.17472242;-0.10824079;0.112208836;-0.15097198;0.051620126;0.044111427;0.019226952;-0.032170255;0.22086067;0.10565569;-0.003387904;0.055241536;-0.021955123;-0.014332839;-0.0008905843;-0.28086984;-0.012628669;-0.04871634;-0.08390099;0.024560627;0.018806452;-0.08558802;0.003215491;-0.033712283;-0.017122474;-0.2744705;-0.029499466;-0.14966743;0.1336997;-0.29905683;0.08313422;-0.21055664;0.015140167;-0.10230128;-0.09222353;0.16116561;-0.027107224;0.019170446;-0.10777133;-0.11809637;-0.19878921;0.20524617;0.064081065;-0.15962876;0.15541108;0.06697736;-0.0021627815;-0.017276712;0.00912331;-0.18534683;-0.09811638;-0.09021941;-0.10779904;0.22518682;-0.20860496;-0.2218885;0.011359255;-0.0018311416;0.040753216;0.017861728;0.01572623;-0.2367223;0.032682706;0.08654063;0.300683;-0.052678637;-0.06300181;0.1753177;-0.15301616;-0.0069087725;-0.020740999;0.18248366;0.4059304;-0.31492633;0.14320214;0.20036146;-0.055943057;-0.16269758;-0.21559606;0.1158338;-0.12611708;-0.05088767;-0.024522388;-0.028673368;-0.04616743;-0.21434724;0.0043602656;0.0035751092;-0.08767673;-0.075564966;0.34506354;0.07249237;-0.020312225;0.10140365;0.073739186;-0.02436348;0.004511102;0.0073609333;0.07241063;0.06825296;-0.04750678;0.023258079;0.03069807;-0.13441339;-0.053358316;0.033748243;0.011783407;0.0125071015;0.057825424;0.27782354;-0.16981024;-0.0010450991;-0.08078397;0.032149162;0.040124867;0.08455891;0.21214324;-0.0043274923;0.15767917;-0.0009161825;-0.1398568;-0.00066446257;0.07838209;0.14809002;-0.29632354;0.034589745;-0.13306709;0.38516364;0.04058419;0.03269272;0.1508578;-0.050826866;-0.016857343;0.13910991;-0.07216155;0.008852438;0.045041926;0.07236153;-0.22393663;-0.23400286;-0.0067730746;0.043290544;0.042526465;-0.0049464055;-0.009276639;0.30221543;-0.0051156674;-0.0027272513;0.054807164;0.07963174;0.10361213;0.07709997;0.033312097;0.20058088;0.17637795;-0.09819817;-0.016651908;-0.06615874;0.0006298778;0.28218243;-0.0030560659;-0.001512033;0.07932579;-0.0020314702;0.026173472;-0.024964148;-0.025701428;0.25994143;-0.05932631;-0.13935712;-0.11727834;0.00095191697;0.08103585;-0.07533646;-0.051724333;-0.059167843;0.13939616;-0.19986393;-0.009445511;-0.07090708;-0.023726337;-0.010704831;0.023578098;-0.037605412;-0.07561958;0.27941585;-0.14950095;0.016039144;0.07562648;0.18538171;0.11815772;0.019862343;0.15983863;0.07830834;-0.02423925;-0.18900663;0.06349401;0.024571352;-0.14707102;0.14581917;-0.004433081;0.268028;0.06508102;0.050088007;0.009167705;0.0058593294;0.034313716;-0.09665938;0.05357525;0.06538425;0.22043309;-0.10790316;-0.01682016;0.09328679;-0.24484773;-0.086934604;0.051279467;-0.008916472;-0.083823025;0.17647819;-0.031955242;-0.050712068;-0.09297921;0.048991103;-0.00035506676;-0.037492774;-0.2198775;-0.24881902;-0.23586783;0.027407506;-0.006424229;-0.019800154;0.06797982;-0.034982335;-0.07062353;0.037105754;0.008598552;0.083103016;0.02172579;0.32632503;-0.022979453;0.22442763;0.03716382;0.13016179;0.10078627;0.36710647;-0.015316963;0.14306119;0.0652282;0.24197865;-0.12577192;-0.21345703;-0.08957323;0.10691098;0.09250096;0.07685905;-0.018584656;0.1002955;-0.13319764;0.11034446;-0.1643066;0.012846482;-0.031405725;-0.16229841;0.060488675;-0.079860635;-0.24795298;0.10022388;-0.047774088;-0.042384468;-0.030546775;0.28753972;-0.020359708;0.05175551;-0.12518243;0.22215895;0.30683994;0.068622954;0.0051439414;-0.05508314;-0.44723943;0.020336961;-0.060584974;0.11771287;-0.05705008;-0.012586423;-0.17466854;-0.019536909;-0.031228552;-0.14511906;0.022281941;0.071820535;-0.20726517;-0.11863069;-0.03007431;0.16424787;0.040990464;-0.024201883;-0.17038068;0.13224064;-0.030390913;0.10981879;-0.18339962;0.09221935;-0.30168343;0.03446074;-0.109501556;0.089262396;-0.06202659;-0.17725968;-0.11981191;0.0074034366;-0.14957294;-0.031484272;0.009639343;0.013324447;-0.092130095;-0.113274895;-0.10837309;-0.34624556;-0.1166534;-0.1922662;0.10869299;-0.14919731;0.08188897;-0.040376656;-0.19144045;-0.06692319;-0.008971313;-0.021624286;-0.13167694;0.0658378;0.21473137;-0.016401526;-0.09639332;0.034282096;0.036217015;0.008972163;0.16361412;0.011598097;-0.04301187;-0.0063894503;-0.19661334;-0.06728711;0.011840044;0.018915594;0.0673858;-0.18243887;-0.00095228566;-0.21435495;0.07489271;0.084504135;0.020337543;-0.08117324;0.03224471;-0.023787234;0.03516674;0.044959802;0.049006503;0.1928429;0.20325449;-0.10618559;0.035842504;0.18575951;-0.14075066;0.17295817;-0.05515209;0.060057063;-0.026794817;-0.003068791;0.148428;-0.051601656;-0.025282752;0.041840937;-0.01623231;-0.035135455;0.0010554466;-0.11118399;0.38464463;0.30871484;-0.007308978;0.05317529;0.021001888;-0.02399134;-0.23044112;0.1317146;0.052207697;0.044873994;-0.09600574;-0.031207874;0.236236;-0.019079955;-0.14014992;-0.019968875;0.13394861;-0.17954569;-0.006608375;0.18978317;-0.110643595;-0.08272185;-0.059947047;0.013668401;0.11156093;0.07420206;0.062708005;0.07944948;0.03159631;-0.04060705;0.056933083
0.34311658;0.12790146;-0.03069946;0.0023763264;0.011925741;0.35135764;-0.09370486;-0.0012946713;0.2532519;-0.010271649;0.23718666;0.16351987;-0.061843794;0.038642824;-0.073421806;-0.034130942;0.063535914;-0.30704534;-0.0541412;-0.033114247;0.1797842;0.010613973;-0.06995373;-0.23645413;-0.073747806;-0.034188323;0.00011680645;-0.04241126;0.13843778;0.07823085;-0.3234814;-0.0941447;0.04351907;0.003300158;-0.018596692;-0.007869328;0.02179365;-0.0727109;0.004092525;-0.25957254;-0.42517188;-0.021347355;0.010569303;-0.22871779;-0.3998683;-0.20410997;0.027245646;-0.048348997;-0.01640093;0.2106908;0.022909775;-0.009755333;-0.014788926;0.025403453;0.00054084894;-0.016164187;-0.23055246;0.04795431;-0.07674062;-0.010097641;-0.0295437;0.056158703;0.06544642;-0.06863872;-0.025076477;0.035105456;-0.05042811;0.015635952;0.18036416;-0.013295919;-0.06354169;0.008737089;-0.13231172;0.2474413;0.0073154024;-0.061075013;0.09956793;0.28902307;-0.032715186;0.30728295;-0.02304104;-0.12345095;0.0065501835;0.11165473;0.08421885;-0.22868632;-0.062620394;-0.25646877;-0.06573534;0.0076709134;0.09597009;0.04850638;0.15123068;0.08050683;0.101235844;0.19671962;0.019689271;-0.0305634;0.16841157;0.16145098;-0.3526146;0.16062142;0.09895656;-0.106427774;0.21052894;-0.08640501;-0.00034095737;0.27736175;0.02318212;-0.012214786;0.24178383;0.16452296;0.045763314;-0.3872344;0.0543059;-0.0013845214;-0.05037026;0.17878127;0.22287306;-0.087967224;0.17170344;-0.10677752;0.084322646;0.30425158;-0.0064549916;-0.081777155;0.20867503;0.02116799;0.060483012;-0.18380013;0.020317214;0.31376332;-0.08114388;0.060960878;0.2110264;-0.041071802;0.120262444;-0.042708058;0.24714044;0.21478915;0.040113833;0.14921357;0.07497839;-0.10616348;0.32472175;0.048933;0.06954761;0.035060994;-0.17349677;-0.28290325;-0.044691645;-0.23373178;0.11088079;-0.16266887;0.10273443;0.14813164;0.15316817;0.18081988;0.052173063;0.06257404;-0.2044011;0.034747027;0.08440977;-0.015149681;-0.00091762707;-0.03174168;0.049700696;-0.13140993;-0.19354978;0.25190216;-0.17954311;0.020282999;-0.080257885;0.21167424;-0.1431231;0.16227107;0.015878253;-0.091113046;0.17790568;0.01531465;0.053977042;-0.058498867;-0.26258555;-0.046390682;0.009133503;-0.21409644;-0.019821139;-0.030855956;-0.11161333;0.032224458;-0.3628435;0.0699114;-0.2495371;0.011483447;-0.22404407;0.016053187;-0.16023947;-0.09003923;-0.13482308;0.13178298;-0.0315339;-0.0005130194;0.12037815;-0.017520528;0.11081195;-0.2582855;-0.1351607;-0.2926238;0.08491269;-0.09102031;-0.050110728;0.020504333;0.14746529;-0.02015439;-0.04317147;0.025868751;-0.23010941;-0.30301186;-0.19224842;-0.012577412;0.010852867;-0.07026991;-0.12086829;0.01599864;-0.19947594;0.049292535;-0.04179899;-0.027418783;-0.27085268;0.028365234;0.013713462;0.2932235;-0.062009506;0.021113232;0.10257933;0.015434719;0.037247673;0.027908126;0.10422464;0.3396816;-0.31894597;0.10588449;0.17944466;0.060572755;-0.2107144;-0.053540897;-0.0024071871;-0.1013751;0.056314;-0.0033398564;-0.039669994;-0.041316167;0.0028986614;0.19560915;-0.013418579;-0.027016353;-0.027701186;0.4056104;-0.091360815;0.035459325;0.03554735;0.07858671;-0.0024186324;0.053461086;-0.03525698;0.07995606;0.066182815;0.18337885;0.13729274;0.09727466;-0.06611444;-0.12607366;-0.0280354;0.032861087;0.016868895;-0.055797365;0.15937552;-0.062194947;0.020855326;-0.0496825;0.046160504;0.23239006;0.07179535;0.19640532;0.019123826;-0.021287961;0.016371861;-0.15417977;0.03577967;0.06731223;0.15978432;-0.24931794;0.09307764;-0.12844801;0.28406096;0.10781612;-0.019156199;0.08388605;-0.001355316;0.044160653;0.13526462;-0.10609303;-0.031347916;0.012423066;-0.03715546;-0.19785058;-0.30161655;0.072597645;0.029207408;-0.06520126;-0.118426695;0.026841564;0.33858824;-0.03865287;0.040436897;0.080658056;0.027155047;0.019801341;0.16763234;-0.054034956;0.33821577;0.11387103;-0.16681778;-0.044432603;0.028069474;0.02408427;0.2746917;-0.003028608;0.19941331;0.068153866;-0.027590776;-0.009228234;0.03544759;0.011217364;0.22467035;0.05128853;-0.18516876;-0.037569955;0.048974723;-0.13021186;-0.03400449;-0.1852694;0.025978882;0.22451055;-0.05321075;0.100325935;-0.09482715;-0.07008407;-0.16739187;-0.022303525;-0.076532446;-0.08566027;0.2703065;-0.11355155;-0.06334099;0.27133423;0.2996428;-0.016742745;-0.04800332;0.16589543;-0.0604057;0.05413318;-0.0040707393;0.080600865;0.10517782;-0.16720523;0.18393779;0.060655605;0.26689786;0.079326496;-0.030645343;-0.023608591;-0.038944837;-0.0034689947;0.019371036;0.01807337;0.120376386;0.1991051;-0.2146896;0.06891918;0.12396473;-0.022751577;0.038116567;0.055838108;0.15118268;-0.16064085;-0.07848988;-0.06925384;0.0064092483;-0.22575311;0.09671298;-0.028925246;-0.016128775;-0.06548786;-0.120263755;-0.29523283;0.0027185797;0.0044261054;0.0064436514;-0.052789092;0.058090556;0.05509213;0.010378115;0.03339711;0.15107739;0.025075907;0.25727314;-0.019708272;0.12310285;-0.023918489;0.09623962;-0.0071509704;0.44959956;0.088320464;0.06708717;-0.0821522;0.3102587;-0.021908585;-0.16263828;-0.046086922;0.06671911;0.13041213;-0.05631999;-0.054777198;0.060277894;-0.06621501;0.09809197;-0.0865054;0.09715473;0.047152814;-0.1814745;-0.022774637;-0.09682942;-0.14276539;0.01745364;-0.029985813;0.039184555;0.0084970305;0.1504681;0.005789993;-0.030503752;-0.17635944;0.0568688;0.33523917;0.04171107;0.009843471;0.047532916;-0.3825304;-0.08010089;0.027618889;0.0822281;-0.122532636;-0.00325753;-0.121773556;0.0013634332;-0.018846659;-0.12926823;-0.07965152;0.25733262;-0.115498915;0.05469386;0.006708474;0.2137509;-0.05232019;0.007855215;-0.17068805;0.1598099;0.039323315;0.13321963;-0.15167485;0.10458036;-0.25434735;-0.01707643;-0.13856825;0.26387295;-0.17623165;-0.18626933;-0.17176592;-0.07476649;-0.12804078;-0.042525433;-0.05792797;-0.024268629;0.027528118;-0.075444415;-0.12137206;-0.21709287;-0.2699936;-0.1313775;0.14476503;-0.15107909;0.058541723;0.047035266;-0.1558589;-0.010714523;0.023277508;0.043854546;-0.12151899;-0.102863535;0.100267075;-0.0001589478;-0.042789664;-0.028419811;0.1254473;-0.041085776;-0.049914494;0.06595893;-0.046576295;-0.031854454;-0.07269401;-0.059923586;-0.05033589;-0.059315056;-0.021072837;-0.22364794;0.023348443;-0.017070867;0.12645039;-0.021745019;0.04782117;-0.10374081;-0.04106825;0.023295742;-0.11867381;0.02890992;-0.033740737;0.19303712;0.07440233;-0.19675271;-0.04578903;0.12920365;-0.1737233;0.18865784;0.03492879;-0.07513146;0.009780697;-0.04790581;0.10013775;0.09940125;0.102404036;0.010468415;0.01380461;-0.0053745583;0.082858525;-0.0523077;0.2594944;0.32043305;0.022037903;0.043584436;-0.005481137;-0.039424047;-0.16021048;0.11702324;-0.15703113;-0.008303137;-0.07843253;-0.089998886;0.009786448;-0.017907137;-0.29498753;-0.004813805;0.07039396;-0.3225739;0.032400183;0.18883619;-0.13512453;-0.14655572;0.005135015;-0.036794376;0.14833595;-0.02133719;0.036801025;0.34138095;-0.08977934;-0.05252757;0.0058017834
0.295626;0.11103326;-0.0303581;-0.007626951;-0.029559799;0.32048327;-0.076965526;-0.016259959;0.07789906;-0.0399348;0.25166592;0.1625834;0.059323996;0.04485309;-0.07816894;0.063756235;-0.03806702;-0.4084231;-0.07970004;-0.017054796;0.18883719;-0.12861714;0.013181958;-0.09800367;0.065635614;0.07967362;-0.045530636;-0.0606242;0.07472583;-0.048406873;-0.14372036;-0.09406263;-0.03156721;-0.032391578;-0.025179427;-0.02665877;0.004387143;0.041341875;-0.004713634;-0.21593289;-0.5104538;0.087772265;-0.023456415;-0.25501952;-0.31606057;0.006122461;0.022132196;0.08253965;0.014795614;0.13637397;-0.06481126;0.021170154;-0.1348908;0.053315926;0.08269503;0.065255016;-0.17471895;0.099253155;-0.05146056;-0.07861588;0.037066;-0.037462007;-0.04044965;-0.011588413;0.025499947;0.069148116;-0.030774098;-0.044605557;0.11308596;0.008804515;-0.14302722;-0.060695656;-0.21623024;0.22307214;-0.12729086;0.035775065;-0.012207166;0.16530104;0.010308082;0.29954138;-0.0445593;-0.15207769;0.02390251;0.15223497;-0.0688921;-0.09157213;0.056435376;-0.23945713;0.050720163;0.018158145;0.19840528;0.012703884;0.06194339;0.117305025;0.1773337;0.12003129;-0.04609025;-0.051986247;0.3060274;0.08504643;-0.5290109;0.17805724;0.24654126;-0.2553552;0.2419945;0.085644536;0.07567835;0.4184433;-0.06215928;0.1254102;0.26334888;-0.0012853963;0.035816513;-0.33727288;0.08332294;0.014629697;0.0015392493;-0.07471964;0.103321515;0.07759649;0.1606096;-0.15283562;-0.073146366;0.3704125;0.07747404;0.06813847;0.21947426;0.08114634;0.07948907;-0.06890501;-0.11242235;0.21532625;-0.031996965;-0.045626402;0.14932476;-0.05442333;-0.054282546;-0.05502162;0.21669339;0.011604945;0.005978845;0.33496776;0.0032570502;-0.08106222;0.45053464;-0.028443327;0.08893269;-0.046282798;0.01815558;-0.3300323;-0.017706554;-0.17570135;0.08839159;-0.3569406;0.23734513;0.029542593;0.15980296;-0.034858428;-0.022515202;-0.025949756;-0.3825035;-0.12023513;0.019654514;-0.0042187367;0.042921223;0.047512192;0.02504009;-0.033299107;-0.1669821;0.14758267;-0.26053295;-0.025735186;0.056313597;0.17074113;-0.12272338;0.21953341;-0.02947402;-0.18663798;0.34817284;-0.030336563;-0.049488444;-0.055616483;-0.30510938;-0.004053728;0.026589084;-0.31917754;-0.0011196587;0.047420386;-0.012714513;-0.067152254;-0.19222064;0.066871785;-0.19509035;-0.059187945;-0.2180393;0.16542476;-0.1394722;0.0816948;-0.2024205;0.21542992;-0.09369888;-0.056226727;0.053171035;-0.004178606;0.10680368;-0.21643919;-0.19645227;-0.4726825;0.108075984;-0.2070117;0.041323096;-0.16732013;-0.025403941;0.018715886;-0.0060795955;-0.041513182;-0.14419055;-0.20738995;-0.17321847;0.04515228;0.10137173;-0.09896637;-0.027481021;0.0019970636;-0.07768984;0.15047365;-0.17575441;-0.04554908;-0.27730435;-0.028434;-0.06430562;0.2903204;-0.19954254;-0.04914449;0.04323248;0.04028043;-0.06592488;-0.003283528;0.13164057;0.36616054;-0.21496013;0.20970388;-0.022530489;-0.017873053;-0.28324997;-0.12005665;-0.10073062;-0.23968819;-0.01115643;-0.09935898;-0.047998328;0.04689796;0.045594025;0.08610935;-0.032734744;-0.07089757;0.025820302;0.4014293;-0.028535174;-0.039944604;0.14300409;0.18055601;0.044064384;-0.045042664;-0.03571589;0.0015266952;-0.14240764;0.036523603;0.010393553;0.1132388;-0.097621605;-0.05338098;0.16166514;-0.09523116;0.026599467;-0.046012513;0.08973536;-0.023716042;-0.07276776;0.055820372;-0.022019584;0.13387495;0.105632186;0.24896468;-0.03575856;0.016391767;0.014548817;-0.012421701;-0.043787297;-0.07932369;0.0039719697;-0.30364525;0.07284325;-0.1273433;0.006557989;0.21322836;0.07051809;0.19283244;0.043138325;-0.073130295;0.032137685;0.037510768;0.0012861296;0.07621296;-0.07269733;-0.106981665;-0.24810375;-0.08123775;-0.048815124;0.05282266;-0.2683178;-0.051559377;0.14612696;0.022732882;0.13300595;-0.06607291;0.034048814;0.0061828494;0.045936182;0.046112068;0.29942167;0.19782756;-0.16791618;0.054109186;-0.008011599;-0.056747977;0.1559924;0.032257643;0.12203094;-0.060939386;0.050392594;-0.008767116;0.04733491;-0.0077185733;0.28524855;0.02009264;-0.128146;-0.1574161;0.045027547;-0.12654065;0.05865692;-0.25521642;0.035727903;0.25760657;-0.06676441;0.24124074;-0.13666904;-0.057190355;-0.20660348;0.038296245;0.075126216;-0.201352;0.34980997;-0.06548219;0.049449068;0.22730982;0.12827593;-0.09742633;-0.065286264;0.30667135;-0.021463998;-0.06441518;0.012408198;-0.046219803;-0.04285706;-0.15840307;0.20191617;0.0099445935;0.122091316;0.04051396;-0.020699041;-0.039515298;-0.029415535;0.048330817;-0.10363425;0.033835173;0.057092443;0.13296476;-0.17250346;0.07637046;0.1149101;-0.01493231;0.12644325;0.20882061;0.22834857;-0.28799117;-0.042580288;0.015731571;0.036855876;-0.10502943;0.12086925;-0.042653143;0.0746483;-0.22721738;-0.07700119;-0.29847848;0.014371884;0.029969707;0.04471208;0.021565298;-0.03434545;0.08995385;-0.067115165;-0.033421278;0.19575588;-0.002798803;0.225181;-0.12827377;0.07215689;-0.019332046;0.14986295;-0.031629562;0.2721652;-0.02195462;-0.0055620344;-0.10910388;0.1652875;-0.13833715;-0.20032276;-0.06969835;0.14171506;0.009699906;0.038692564;-0.16188756;-0.015278862;-0.1621671;0.11407306;-0.029354496;0.15910561;0.017600754;-0.2637421;0.044600245;0.09082716;-0.19254759;0.12815487;0.017917324;0.036064256;-0.07255394;0.032008912;0.05129999;0.003606429;-0.15049498;0.0707704;0.35662976;0.020615514;0.038405538;0.08141388;-0.36031982;0.032073066;0.030334055;0.034204178;-0.12960832;0.08420196;-0.04996636;0.0043378375;0.077566974;-0.029054884;0.038512573;0.31321192;-0.23039813;-0.011600462;0.046978287;0.26857787;-0.037958305;-0.06619212;-0.31760183;0.06862296;0.049715225;0.031070214;-0.18752564;0.12647286;-0.1493695;-0.04869562;-0.058157947;0.3536686;-0.22556657;-0.15226872;-0.2755105;0.043569386;-0.14711697;0.054859664;0.0712363;-0.0027685738;0.02273686;-0.028937804;-0.1801164;-0.16590303;-0.16378406;-0.077846125;0.102817275;-0.19584249;0.09509171;0.02040724;-0.25456044;-0.03200273;0.017089808;0.04303988;-0.056369472;-0.12093478;0.11829956;-0.0369463;0.061540373;0.046694055;0.09773675;0.06718104;-0.093027346;-0.040636458;0.01241174;-0.06838943;-0.20426609;-0.083711505;0.07538296;0.015657732;-0.04456724;-0.16368455;-0.0016670083;-0.1501518;0.28892604;0.03462425;-0.026646592;-0.10253933;0.014496885;-0.080298945;-8.110329e-05;-0.07370481;0.043975245;0.25653118;-0.04084537;0.11604297;-0.04182826;-0.046387397;-0.057319388;0.20799781;-0.0026227382;-0.05246089;-0.01860723;-0.028905567;0.14537692;0.147619;-0.03631787;-0.026108084;0.018368095;-0.035740808;0.08505259;-0.20139259;0.34491894;0.21778038;0.12450318;-0.03134146;-0.013778993;-0.018410744;-0.19777597;-0.031373322;-0.097832024;-0.00044793382;0.08975021;-0.0008072664;0.0389166;-0.07549108;-0.25085503;0.008456499;-0.0936292;-0.37308812;0.041461844;0.08338159;0.07678138;-0.073433146;0.013110488;0.0765238;0.0013415077;0.18275826;0.12744783;0.21194585;0.110202916;0.046763908;-0.11488554
0.32755667;0.22779943;0.014974303;0.11840539;0.006353192;0.35263878;-0.09467625;0.032860998;0.20131013;0.075128876;0.37088355;0.118621945;0.03491131;-0.06265204;-0.12858549;0.028711092;0.03891938;-0.32724887;-0.062683284;0.0304153;0.12806687;-0.11453394;-0.022823153;-0.095146306;-0.02888178;-0.090635315;0.044073544;-0.124119475;0.010220892;-0.030736981;-0.13574918;-0.034740478;0.10316623;-0.048557676;0.05907186;0.0017493267;0.034604598;-0.0384557;-0.094881654;-0.07585736;-0.45266342;-0.021196464;0.028159808;-0.190332;-0.31951615;0.16670814;-0.026771639;-0.029964568;-0.0074744676;0.1650133;0.0024227656;0.017163165;-0.09739391;0.033318557;0.031054957;-0.03133699;-0.23685417;0.33469394;-0.0014764336;0.06312038;0.040323813;-0.06305483;-0.025675584;0.08040476;0.0152996;0.18618454;-0.005287421;0.05623366;0.09577642;-0.038086347;-0.11263916;-0.02606462;-0.39442918;0.22985992;-0.33503088;0.03753252;-0.132416;0.32603616;0.02391785;0.193279;0.060862083;-0.1702505;0.007942085;-0.001870531;-0.1548987;-0.04337467;0.031428713;-0.3703847;0.04673823;-0.021238087;0.28572142;0.041426133;0.10515714;0.025600296;0.32646665;-0.046573486;0.08830346;-0.06403711;0.18041393;0.14538613;-0.47079977;0.08774796;0.25396833;-0.06684997;0.42521158;0.048857845;0.14609349;0.25366843;-0.13646768;0.05894567;0.07564916;0.0017610146;-0.034420222;-0.23271795;0.15107115;-0.0017581594;0.06070492;0.00081274926;0.23081557;0.002191498;0.07307642;-0.05201613;-0.20828864;0.32346335;0.003555593;0.013683697;0.16553912;0.013971488;0.19868648;-0.20809962;-0.044503696;0.40674767;-0.10456891;-0.012927947;-0.009673434;0.013654346;-0.01782437;0.0069472874;0.42497054;0.039094694;-0.009572009;0.14630742;0.16756573;-0.11067062;0.3319872;-0.020144999;0.17657751;-0.010298802;-0.045086235;-0.134244;-0.005839732;-0.0897729;0.0898819;-0.38436052;0.06666432;0.017234113;0.24787739;-0.12528224;-0.01439826;-0.1410026;-0.3688039;-0.019524185;-0.105809614;0.02044766;0.048427474;0.112185694;-0.032675605;-0.03634167;-0.10823338;0.015330988;-0.20142613;-0.0517714;-0.03220729;0.24219754;-0.029093089;0.101413995;-0.046066012;-0.3401221;0.30943465;0.05649953;-0.0019638278;0.0748714;-0.29679313;0.06720234;0.045297228;-0.3629351;0.015308021;0.04997378;0.0035576222;0.067581065;0.030917652;0.17746183;-0.3403096;0.014854941;-0.16246437;0.12806472;-0.14585553;-0.056397274;-0.12095773;0.13161278;-0.11771612;-0.25392327;-0.019581506;0.07110794;0.1979142;-0.31950513;-0.16359812;-0.48703468;0.08400867;-0.1543312;0.08506945;-0.1779914;0.006148376;0.014720744;0.028374925;-0.050943274;0.061268717;-0.13215381;-0.06934508;-0.020466838;-0.11935481;-0.063752875;-0.09571981;0.019618783;0.024650007;0.24509718;-0.18783556;-0.059931908;-0.23044561;0.07456466;0.062324006;0.27774295;-0.2935257;-0.07709179;0.16731092;-0.076967224;0.03785078;0.053160064;0.09109868;0.40489277;-0.2539241;0.13344853;-0.10038565;-0.032707553;-0.12176494;0.107207686;0.011898368;-0.21417528;0.022713384;-0.06489724;0.044206597;0.05710986;0.14975156;0.16852291;0.024448488;-0.06670583;0.0060067107;0.34540442;-0.082778074;-0.038544312;0.1331104;0.11366275;-0.04513252;0.005207966;0.029775476;-0.067923374;-0.113764875;0.12950857;0.13040677;0.097436294;-0.1847441;0.011386508;0.035512373;0.09128265;-0.034466203;0.009682092;-0.008425772;-0.072014056;0.053845476;0.047378056;-0.088997096;0.3093289;0.142571;0.15076761;0.016210087;-0.045083694;-0.008158519;0.020707292;-0.04186998;-0.09550552;0.043120973;-0.26499957;0.27697325;-0.08012892;0.009511268;0.306635;-0.062451355;0.14485654;-0.027789311;0.03309397;0.010531815;-0.017020673;-0.05231543;-0.11852069;-0.1897269;-0.18442373;-0.16589165;-0.0107516125;0.04706324;0.057812404;-0.07752955;-0.034039505;0.07563921;0.036280543;0.17843097;0.011521767;-0.0015617091;-0.06614281;0.0055634063;0.0056924005;0.1700075;0.00022360377;0.0032132366;0.008113059;0.0056481077;0.07471025;0.13355401;-0.035180386;0.15986234;-0.068408474;0.038332384;-0.030321334;-0.031776745;0.06662883;0.23373272;-0.041227855;-0.035549473;-0.3269078;-0.027516808;-0.037072968;0.013225428;-0.29809806;-0.031428754;0.35103983;-0.02167486;0.2988262;-0.24508914;0.018255737;-0.2211894;-0.05287076;-0.02786496;-0.19023493;0.22872351;0.07927342;0.022812922;0.034702916;0.13162151;-0.07889436;-0.14174181;0.262718;0.037621047;0.05941515;-0.13683967;-0.045596104;-0.028788911;-0.123170026;0.112229295;0.05574583;0.15112293;-0.08510523;0.04997255;0.062546425;0.005252507;0.17052059;-0.03639525;-0.036601637;0.01801413;0.040557224;-0.18611489;0.14442582;-0.17515872;-0.043850586;0.090467125;0.15086311;0.17946243;-0.40558267;0.010114876;-0.06550988;0.09006298;-0.11625772;0.17207667;0.028471818;-0.02955783;-0.15377885;-0.21694203;-0.19352005;-0.04626361;0.040972184;-0.05697089;-0.014221794;0.05425609;0.18819144;0.042440116;-0.0063308226;-0.044787697;-0.0061637633;0.23313086;-0.124762595;-0.1034312;-0.040675405;-0.023254927;0.17064147;0.06809965;-0.005841528;-0.15373673;-0.180579;0.057122823;0.00905592;-0.33406276;-0.10328374;0.049778897;0.021666445;-0.03734195;-0.20993124;0.035353728;-0.056745894;0.10486426;-0.10199308;-0.04378734;-0.0025295143;-0.17916204;-0.026695209;0.04029139;-0.28745216;0.022474281;-0.026059704;-0.044383727;-0.0083865;-0.048808314;-0.06641378;0.053612437;-0.15866214;0.04660967;0.21238746;-0.040924773;-0.068958536;-0.0205582;-0.15501074;-0.033683967;-0.0008891745;-0.06297723;-0.17759636;-0.004181625;0.033579767;-0.0009022395;-0.02760708;-0.014904951;0.04770382;0.15684554;-0.20931007;-0.039656736;-0.03691042;0.15957251;0.018669793;0.055721052;-0.11215229;0.060572956;-0.070394054;-0.03861917;0.08368678;0.049087767;-0.15990853;-0.012428298;-0.055939198;0.370394;-0.21692806;-0.11185021;-0.28633782;-0.04868492;-0.08323592;0.09219012;-0.0077488935;-0.05043425;0.032978285;0.026082387;0.08706322;-0.04124082;-0.1638837;-0.23132075;0.026772361;-0.06967379;0.184438;-0.06484908;-0.19215226;0.06374787;-0.048224233;0.057568103;-0.11865505;-0.28044766;0.072315454;0.018161371;0.18824483;-0.03089413;-0.021900836;0.037088037;0.018932493;-0.04590645;-0.006536233;-0.07327016;-0.046402574;0.010511775;-0.015686627;0.03658213;0.032358613;-0.22298075;0.0044943145;-0.08018731;0.21865867;-0.024141617;-0.060938932;-0.15854175;0.0015756189;0.017107436;0.089958444;0.04384251;-0.06622213;0.19887447;0.09510531;0.09655518;0.004429269;-0.17400397;-0.08838907;0.21813363;0.008787217;-0.031688426;-0.041630607;0.062109455;0.007078908;0.2979032;-0.088362366;0.024027927;-0.049356837;-0.17093696;0.040835403;-0.048961673;0.21089163;0.15520929;0.06141088;0.030878153;-0.10692194;0.03659114;-0.38469705;-0.010861313;-0.15212749;-0.025418662;0.08608865;-0.008074695;-0.055180993;0.039827783;-0.27700895;0.043005675;-0.16298959;-0.48919916;0.016443182;-0.17185028;-0.018082842;0.06185892;0.01994001;0.0064627016;-0.07499097;0.0159661;0.0062557836;0.18207446;0.123250104;-0.05003443;-0.21180123
0.31947908;0.119931586;-0.018593997;0.065293394;0.043325234;0.37256685;-0.19062771;-0.037246924;0.200852;-0.07633103;0.21545573;-0.064333886;-0.017170032;-0.05079927;-0.12227386;-0.09543793;-0.024086747;-0.3642972;0.04644172;0.054748256;0.25447553;-0.1349172;-0.1115012;0.073007055;-0.016322581;-0.024216698;0.0076820166;0.031927455;0.13904436;0.123329826;-0.3035569;-0.033093873;-0.04202295;0.022229157;-0.034964897;0.07601493;-0.019926542;-0.01901383;-0.034021396;-0.164685;-0.41943252;0.058558293;0.02591787;-0.37293833;-0.2863394;0.1533229;0.0012509488;0.037688527;-0.040861435;-0.07616369;0.0020625;-0.022970771;-0.061131652;0.036888514;0.06388427;-0.049191635;-0.3731804;0.4300446;0.10307451;0.043092668;-0.05817277;-0.16997872;0.03241926;-0.01576773;-0.077086225;0.21939896;-0.0020724197;-0.113278694;0.109247014;0.038569864;-0.17925099;0.04362862;-0.32292315;0.18584713;-0.33852646;0.025676923;-0.12927844;0.19679028;0.01494732;-0.017293904;-0.010372565;-0.22054484;0.008262995;-0.007546892;-0.11399919;-0.068862826;0.0279474;-0.31085426;-0.013883837;5.292649e-05;0.11025118;-0.07216132;-0.034757663;-0.06521975;0.23568591;-0.21578448;0.05587;0.040563826;0.07589576;0.15639286;-0.49942127;0.2905687;0.37532037;0.05180192;0.38827953;0.0011273419;0.18466346;0.24140243;0.07720917;0.116033405;0.124788776;0.01754313;-0.043220613;-0.11715326;0.15380645;0.0073962193;-0.0083350465;-0.004280756;0.09769079;-0.12098638;0.0004236433;-0.05505345;-0.27106336;0.18651788;-0.055826183;0.039276645;0.23605601;-0.09376888;0.042246256;-0.1627909;-0.19110607;0.28999114;-0.18881695;0.051756524;-0.012364907;0.047928847;-0.029946614;-0.07234059;0.27083564;-0.11857083;-0.01202263;0.073308185;0.075675756;-0.09354059;0.3030714;0.0066502257;0.08304773;0.047147322;0.113031484;0.010623672;-0.021117855;-0.082216196;0.08259945;-0.23539121;0.13804966;-0.008063437;0.26357493;-0.17105871;0.0018693911;-0.14000036;-0.30894986;-0.016265182;0.05403282;-0.030419441;0.019382922;0.113442846;-0.041652393;-0.15261348;-0.2727878;0.101839945;-0.17425665;0.039913855;-0.06467525;-0.017123582;-0.13274911;0.09872377;-0.016652258;-0.17535684;0.1042291;-0.013999851;-0.00466444;0.016466483;-0.0070495657;-0.08903538;-0.03327582;-0.42693612;0.0030412704;-0.051170148;0.14485186;0.000416185;0.08807302;0.12910657;-0.21779728;0.067125954;-0.25812775;0.08438305;-0.10688054;0.13686162;-0.23776084;-0.09411229;-0.12050997;-0.26275283;-0.067736775;-0.0029445442;0.18372631;-0.29540125;-0.2605808;-0.50822276;0.10730877;-0.1317745;0.087341025;-0.23111095;-0.17191277;-0.0346209;0.023918215;0.08383029;0.046126816;-0.029367676;-0.15449955;0.028526397;0.14043754;0.012301788;0.088341;0.031657603;0.09115894;0.16401955;0.056984466;0.010491425;-0.31330854;-0.06909596;-0.097311534;0.1503708;-0.15943938;-0.049321044;0.168683;-0.14055009;0.16526352;-0.041169308;0.028636489;0.4466222;-0.15825348;0.030858628;-0.15214601;-0.012032696;-0.273251;0.13121767;0.09763771;-0.08513809;0.008010577;0.013264615;0.08967575;-0.055213615;0.038697366;0.05304352;0.06497784;0.11519474;0.060927134;0.4003885;0.11786182;0.023179043;-0.13151823;0.10793539;-0.040211897;-0.010209304;0.028937358;-0.13966422;-0.13521457;0.054357257;0.13799953;0.16404533;-0.010970705;0.036550455;0.12507698;-0.054481152;-0.05276614;0.05908643;-0.054080307;-0.026011672;0.019928982;0.018747276;-0.018871777;0.08890043;0.079328366;0.19805074;-0.03924268;-0.19894458;0.01878841;-0.014346384;0.059949756;-0.17272916;0.13520351;-0.12026558;0.17792077;-0.014791234;-0.025878016;0.2638779;-0.005970947;0.12644538;0.0013687923;0.012626599;0.12154666;0.047975153;0.024786018;-0.07033868;-0.3071288;-0.22839129;-0.09291479;-0.05576718;0.024807643;-0.0041385493;-0.05585309;0.093499005;-0.0040883175;-0.010628953;0.0330752;0.026098806;0.012031815;0.17329271;0.123962104;0.038614675;-0.024594383;-0.029397115;-0.003431855;-0.003539986;-0.0040121535;0.13174337;0.13259059;0.050364986;-0.030748127;0.03570998;0.029293202;-0.031776246;-0.048150133;-0.02002546;0.17226242;0.03307015;0.14365754;-0.30483896;-0.011595754;-0.050029855;-0.021839116;-0.1449689;-0.014781206;0.38022658;-0.10387082;0.09712648;-0.19720899;-0.04978265;-0.15820022;0.06709743;0.019429665;-0.24589208;0.3324673;0.052599255;-0.008747177;-0.087974444;0.27011576;0.017941585;-0.30752805;0.21014296;0.002161569;-0.05065588;-0.119824626;-0.070530154;-0.026725529;-0.1182932;-0.09296682;0.092642695;0.13959803;-0.19548798;-0.058417313;-0.010671559;0.036590904;0.151662;0.11659813;0.05701045;0.1099284;-0.07059614;-0.29511485;0.11604146;-0.0042877686;-0.085727155;0.071277745;0.0023470512;0.21693927;-0.28025728;0.013808724;-0.07071041;0.030219588;0.14415325;0.122109875;0.021889474;-0.0028551675;-0.115844674;-0.11335858;-0.15238805;0.0240077;-0.013531709;0.03160065;0.028416047;0.020211315;0.10302454;0.18179096;0.011393294;-0.05973965;0.05591876;0.10910546;-0.015244526;-0.08209646;0.028488623;0.13236724;0.07359113;0.037103236;-0.036794264;-0.16825902;-0.25429305;0.028245216;-0.097010426;-0.21653168;-0.014088603;0.113161184;0.13880812;-0.018192142;-0.18169503;0.11784217;-0.1438985;0.07036022;-0.077249736;-0.09610702;-0.0006264971;0.0021370796;0.09794339;-0.12355233;-0.19955952;0.09815971;-0.1278254;-0.04184228;0.06355155;0.08927353;-0.0063851858;-0.0526817;-0.31079236;-0.040959157;0.3418928;-0.028131803;0.021581283;-0.039351135;-0.0024481344;-0.02817042;-0.037000444;-0.14141367;-0.14479345;-0.038264435;0.06730408;0.0303257;0.025997851;-0.004676941;0.1467338;0.060098093;-0.11479395;-0.19641092;0.00047614932;0.13305081;-0.015954735;-0.07324775;-0.07234781;0.03058516;0.026689796;-0.1437152;-0.09497091;0.04139545;-0.07635789;0.009820264;-0.09075617;0.3218215;-0.17885138;0.08721149;-0.19589178;0.042685885;-0.21557175;-0.07193073;-0.036326427;0.08184667;-0.044775553;0.17385815;0.11892858;0.0043475013;-0.16436423;-0.2557345;0.15861125;0.08346584;0.3464201;0.03354753;-0.19495669;-0.0040023155;0.026033185;0.043396905;0.04166071;-0.18339142;0.14905135;0.038540736;0.2870495;0.035605412;-0.29184943;-0.03522994;-0.1978741;0.057085004;0.023343721;-0.0898306;-0.008863107;-0.02699449;-0.04954714;-0.014972311;-0.06362051;-0.1483845;0.006675139;-0.17134501;0.24200784;-0.17701882;0.043956008;-0.06642204;-0.034711376;0.029388577;0.10405915;-0.047547467;-0.021666585;0.17063262;0.14257872;0.044493865;0.042952202;-0.22428109;-0.10490839;0.1205329;0.02397199;-0.008803885;0.08576091;0.0039261277;0.021886572;0.26070848;-0.05045431;0.24853149;0.020112887;-0.20702735;-0.1336324;-0.21323088;0.1622119;0.10548651;0.08006275;-0.031095328;-0.027984781;0.020502815;-0.30949545;0.15598781;-0.2973886;0.022710688;0.02627007;-0.21348682;-0.19772671;0.060246233;-0.18398148;-0.13401662;-0.18372361;-0.5534042;-0.067359135;-0.2207494;0.018421775;0.042276524;0.0121609485;-0.053589962;0.006626317;0.009377759;0.046673574;-0.08504583;0.010746842;0.0659155;-0.20438969
0.13066258;-0.034209333;0.0063438984;0.08864457;-0.03601323;0.3185342;-0.21126409;0.0053947847;0.22854763;-0.038916968;0.21432571;-0.0033767426;-0.017640715;0.068891436;-0.2225114;0.0055086548;-0.0073983204;-0.281814;0.03868879;0.08972989;0.10279268;-0.20791717;-0.090074435;0.10875993;0.014631841;0.050836492;-0.06510701;0.050655175;0.1098464;0.0012749375;-0.16061142;0.0493671;-0.059504416;0.025609398;0.040488683;-0.061309915;-0.07192185;0.015839009;-0.012393835;-0.22450656;-0.45189366;-0.041368138;0.0628221;-0.32635692;-0.3294555;0.09878073;-0.021080023;0.046091843;0.059991132;-0.039520677;0.08979374;0.060896885;-0.039517585;-0.02492807;0.12085572;0.05810086;-0.2542302;0.46249142;-0.016555939;-0.03936596;0.017352859;-0.07919614;-0.026663367;-0.063042186;0.019723225;0.27827016;0.039814442;-0.032244775;0.15461797;0.014169497;-0.20477094;-0.04574495;-0.24506244;0.17592932;-0.10510296;-0.008545341;-0.10279536;0.044481516;-0.052680362;0.01704752;0.0365936;-0.1562002;-0.0526309;0.08766594;-0.22560918;-0.15815124;-0.01971978;-0.38106588;-0.028655991;0.0560385;0.1843822;0.058871232;0.058946926;-0.11196443;0.2611157;-0.17469251;-0.09137152;0.09647029;0.08939576;0.057491675;-0.52335787;0.16502273;0.32358634;0.053314347;0.5615701;-0.11607765;0.024613582;0.031368703;-0.049938913;-0.015308036;0.1556568;0.06526117;0.03723183;-0.17602818;0.032544263;0.030047284;-0.024843838;0.0941637;0.21276617;-0.079867646;0.11668392;-0.15301172;-0.15132831;0.11500427;0.005152113;-0.019144874;0.19228046;-0.13338742;-0.03226895;-0.0063491347;-0.24580076;0.18750663;-0.1942349;-0.06133065;0.024936866;0.018706212;0.014442334;0.046310097;0.1937824;0.10742002;-0.056784105;-0.07278653;0.30099338;-0.05163035;0.270715;0.0394367;-0.020042185;0.05517523;0.118727006;0.07136113;-0.041135333;-0.03570415;0.17056577;-0.2866206;0.26951706;0.17241587;0.20406802;-0.11748817;0.000113004186;-0.1256238;-0.16284192;0.09756953;0.106841266;-0.018992865;-0.069121815;0.040398695;-0.01350521;-0.15049979;-0.20454437;0.11995858;-0.27756846;-0.046645727;-0.27248505;0.014591535;-0.13201901;-0.13200183;0.05674191;-0.3309028;0.12744516;-0.04840929;0.0002700524;0.01156206;0.15338132;-0.18052095;0.033524003;-0.43888688;-0.047476247;0.09500762;0.30636033;-0.054766487;0.07928744;0.058315292;-0.24088761;-0.050669096;-0.3111975;0.22802924;-0.055322092;0.043724015;-0.16641529;0.05966598;-0.03894453;-0.3033251;-0.109521024;-0.11614505;0.36936814;-0.35036734;-0.07972198;-0.6238227;0.027749361;-0.25602022;-0.11678615;-0.15357968;-0.32186657;0.01452007;-0.00032507727;-0.0389766;0.008348132;-0.20620114;-0.13563319;0.04794918;0.07554839;0.051310457;-0.15023045;-0.05906067;0.045298293;0.07402971;0.061790194;-0.05712958;-0.40460074;-0.005719377;-0.13277267;0.11618884;-0.1882967;-0.19883789;0.18000212;-0.25462642;0.1172475;-0.03399076;-0.015651613;0.2641403;-0.3710725;0.08207867;0.0538974;0.033237398;-0.3029128;0.077253275;0.12337717;-0.1397377;0.013826829;-0.015275809;-0.062218606;0.009897422;0.011330681;0.15801571;-0.06824159;0.06724169;0.13893941;0.25659314;-0.029712424;-0.024499593;-0.11817372;0.105341926;0.01709563;-0.0063589104;-0.03645725;-0.04764144;-0.16506812;0.021457892;0.045560822;0.2735964;-0.030738177;0.04893412;0.1356061;-0.15155381;-0.023463571;0.00912371;0.0025473498;-0.12470198;-0.013525712;-0.06515258;0.03297034;0.032720838;-0.012363169;0.13133618;-0.16073546;-0.22193693;0.019328464;0.025115138;-0.055420935;-0.1328338;0.2319047;0.05061495;0.002215809;0.015916115;-0.055533003;0.015131754;-0.020005474;0.13490354;0.021550465;0.006898647;0.3201609;0.064866245;0.028970163;-0.026030034;-0.37832254;-0.29916057;-0.014023158;-0.06520936;0.027087618;-0.0138271265;0.07369485;-0.039247133;0.11700721;-0.07528736;0.14530216;0.16958192;-0.005569479;0.09396935;0.113015674;-0.0913742;0.006012643;-0.07094987;-0.15762511;0.0029693895;-0.016060928;0.20811194;0.120931625;-0.034669727;-0.1598983;-0.00024389161;-0.084155686;0.031241266;-0.037181456;-0.022993864;0.34028018;-0.049347017;0.059490412;-0.53148735;-0.08764314;-0.010651951;0.017940113;-0.26967967;0.092007704;0.33734208;-0.0026732816;-0.069523744;-0.3675668;-0.0044531813;-0.16072626;-0.04078318;-0.0020267782;-0.12265293;0.41378066;-0.07048363;-0.040325187;-0.19530214;0.2212817;0.029685562;-0.20434842;0.3376779;-0.03985575;0.04196065;-0.10844378;-0.11380031;0.017107103;-0.020013442;-0.26132816;0.085748464;-0.018203791;-0.111891605;-0.011235133;-0.022556009;0.0362531;-0.014466609;-0.0018333612;-0.06155632;0.11860832;-0.007405819;-0.26375625;0.19170934;0.12688154;-0.04475942;0.11111332;-0.043179795;0.16459422;-0.49262998;0.033031482;-0.0055703437;0.11442074;0.07559895;0.32532376;-0.04152563;-0.05342055;-0.213294;-0.04335409;-0.053427257;0.033097282;0.006825341;0.037985917;0.0031725108;-0.04280991;0.06397097;0.14638993;0.03285989;-0.08866921;-0.062283844;0.06353201;0.1681262;0.07217567;0.009887548;0.25003994;0.15584692;0.055768408;0.025366267;-0.17170036;-0.22881791;-0.15237969;-0.10012184;-0.09379746;0.07120828;0.045809206;0.11744573;0.043525886;-0.26846865;0.037465878;0.00512319;0.07047077;-0.24903043;-0.15945034;-0.01211385;-0.07099063;0.067606635;-0.029776735;-0.38942733;-0.08023456;-0.09354943;-0.011802823;0.02255881;0.0927596;0.026109055;-0.0335536;-0.15732506;-0.12479037;0.33542538;0.061762877;0.020097034;0.01028536;0.09756997;0.063322835;-0.004900422;-0.07192529;-0.23892584;-0.032547727;0.07471819;0.03460393;-0.037259746;-0.073451355;0.08663244;0.069726765;-0.037933696;-0.13947897;0.04264777;0.23872456;0.050673638;0.07358849;0.115703896;-0.11775663;-0.014198614;-0.112539984;0.028540209;-0.029500969;-0.08246506;0.018142594;-0.031937063;0.20683435;-0.0807999;0.08657443;-0.17097524;0.01348099;-0.050888214;-0.051172923;0.031026537;-0.013435813;0.012982298;0.28365302;0.13847579;-0.013954642;-0.2731184;-0.23924202;0.07046349;0.19267535;0.33891186;-0.013962276;-0.23832823;0.017680846;-0.029171912;0.11508317;-0.066980176;-0.19597784;0.019361872;-0.04165813;0.3154522;0.096062295;-0.36207053;-0.048916597;-0.20249124;-0.035173364;-0.02527677;0.01756441;-0.05206599;-0.11722905;-0.14301868;-0.010009223;0.014853979;-0.123931505;0.034910116;-0.18730232;0.10174651;-0.11396581;-0.020009425;-0.05507403;0.016915128;-0.026623344;0.08550538;0.044941712;0.055588875;0.13911588;0.08403793;-0.015875781;0.04413352;-0.18174364;-0.11408068;0.39578977;0.057744086;-0.0149883125;-0.006051813;0.05091843;0.062501416;0.35981816;-0.044783875;0.39329034;0.016674338;-0.28015062;-0.13490322;-0.07576659;-0.04793619;0.2704736;0.06625714;-0.030553091;-0.058853604;-0.019483743;-0.4123457;0.269988;-0.28178847;0.02359211;-0.025536682;-0.24681894;-0.17493583;0.12562618;-0.21033235;-0.15303577;-0.040194448;-0.3671541;0.024204409;-0.27708516;0.15656771;-0.037053328;-0.011820761;0.0006416139;-0.01035485;-0.075739026;0.18695039;-0.2829865;0.047576655;0.035848126;-0.25684243
0.23819387;-0.089883044;0.030797789;0.16839102;0.04975421;0.26935878;-0.14570667;0.037904955;0.25743198;0.056415424;0.19913195;-0.10454438;-0.013246257;-0.006351234;-0.037531164;0.062271338;-0.0045525283;-0.2094754;0.053610675;0.102943935;0.18625017;-0.10626532;-0.18251202;0.17452012;0.04638162;-0.012336338;0.044532076;0.0974442;0.037808757;0.17086846;-0.19658235;0.07673879;-0.022047387;-0.02721341;-0.06872062;-0.010254013;0.07185548;0.0040425705;-0.17445798;-0.07437928;-0.39181003;0.008322246;-0.10022839;-0.30761558;-0.2907529;0.105630025;0.04745217;0.027450131;-0.03631676;0.03901122;-0.028899962;0.076636;0.043368015;-0.0071828417;0.10195019;0.007910704;-0.018908465;0.46332464;0.03182105;-0.025126506;-0.0009861253;-0.102047324;0.046730325;0.05670305;0.1296943;0.36812735;-0.03080111;-0.00091053726;0.12845078;-0.048430678;-0.022787225;0.022415692;-0.18057722;0.2525327;-0.0060923654;-0.007835893;-0.15794988;-0.052542545;0.04731828;-0.04185074;-0.026108377;-0.10773504;-0.014715055;0.03673692;-0.23268563;-0.024521334;-0.0063235657;-0.39262113;0.064380765;-0.050189223;0.11593373;-0.05989142;-0.020573407;-0.040301885;0.16622183;-0.3258496;-0.22240543;0.23222159;0.036411345;0.111699805;-0.43834406;-0.07110747;0.30237028;0.21857493;0.6271138;-0.06269644;-0.05866495;0.011811953;-0.06667868;-0.017422605;0.13826716;0.0702287;0.0077434084;-0.21134563;0.14511232;-0.06856787;0.013994478;0.10689928;0.37357715;-0.17941682;0.033729482;-0.13100901;-0.20476386;0.1202715;-0.007250557;-0.057246454;0.10249379;-0.16450398;-0.09758711;-0.10934838;-0.19026682;0.039431274;-0.20046118;0.03578179;0.048106212;-0.032154363;0.084963985;-0.03935663;0.24192643;0.23430493;0.0801832;-0.15557247;0.14506474;-0.13290282;0.27115643;-0.018122625;0.04808369;-0.05668438;0.13800864;0.07683684;0.07777264;-0.024848413;0.14198275;-0.25972915;0.23736061;-0.029365063;0.12012932;-0.050927743;-0.04847392;-0.11622803;-0.14978339;0.033881396;0.119877405;0.061466057;-0.056526426;0.03275174;0.05557636;-0.20691453;-0.17115015;0.22645228;-0.31173193;0.012701426;-0.29382604;-0.035089046;-0.17011571;-0.07082273;-0.04812375;-0.28225818;0.20235285;0.037038844;-0.011759485;-0.00017159799;0.11618342;-0.19950478;-0.036319707;-0.5324826;0.07052741;0.049706418;0.31696698;0.06632326;0.29707387;0.067862585;-0.30712044;-0.013357957;-0.31264594;0.33433074;-0.19357723;0.08486408;-0.20821531;0.0047119246;-0.08906307;-0.33773258;-0.070005156;-0.102192566;0.31865597;-0.3963931;-0.16694793;-0.54652137;0.036826674;-0.30867192;-0.092744924;-0.13251011;-0.42610422;0.009193007;-0.05016889;0.033468466;-0.12415828;-0.06546009;-0.09893549;0.09547744;0.037895977;0.14918676;-0.25948083;-0.07596314;-0.047089938;0.25065914;0.28356355;0.014550537;-0.23408744;-0.050457355;-0.1211989;0.03231858;-0.17333543;-0.032721665;0.11019317;-0.2559225;0.05361391;0.03912656;-0.04454982;0.2874213;-0.23601453;0.061946757;-0.12994562;-0.0074203513;-0.42751098;-0.025248567;0.13524802;-0.1482874;-0.057951603;-0.04967169;0.06756497;-0.008155957;-0.05436464;0.2672769;0.062579185;0.11299419;0.072366565;0.3228864;0.04901921;0.025449976;-0.10873941;0.098723784;0.009594635;-0.0027804333;-0.00946499;0.0385963;-0.08589213;0.003557897;0.14994073;0.15785038;-0.01817867;0.121505626;-0.021559723;-0.05413605;0.062922634;-0.017744763;-0.039623957;-0.055921834;-0.0011416351;0.028426137;0.032564085;-0.030471312;0.018670231;0.25894675;-0.2559558;-0.32358262;-0.025969805;0.01985435;0.0024608334;-0.12043282;0.16068171;-0.0562693;0.12501386;0.034858264;0.059283856;0.03065165;-0.1640296;0.17773195;-0.0052909697;0.008607837;0.27230948;-0.033313233;0.012166068;-0.094471425;-0.40922904;-0.2767789;0.01982119;0.04125818;0.061099827;-0.05689531;-0.07485568;0.008816735;0.049555764;0.029024504;0.14664684;0.11715013;0.07990111;0.13968822;0.11858194;0.006062399;-0.03425242;-0.07236113;-0.15212828;-0.0051703895;0.026992775;0.2724769;-0.035577748;-0.024647368;0.07336431;0.022972507;0.03359771;-0.00013992627;0.020005072;-0.011051624;0.24751122;-0.033830635;0.09171545;-0.6748496;-0.047191877;0.017401185;-0.045309428;-0.22844286;-0.033970714;0.40160653;0.021132303;-0.0504366;-0.33300075;0.055688985;-0.19523065;-0.00020862122;0.0281595;-0.18266398;0.44772947;-0.14039269;0.05157221;-0.04300274;0.36828193;0.1425672;-0.39487073;0.28824952;0.06547971;-0.027619366;-0.18877277;-0.121595286;-0.06455607;-0.13945839;-0.23982756;0.17918447;-0.010843654;-0.09876984;0.083474725;-0.01325131;0.057007324;0.06588804;-0.06931435;-0.052686602;0.15338203;0.09014549;-0.33960915;0.032168597;0.23246862;0.117341295;0.11321104;-0.045806903;0.051263124;-0.32474166;0.11982113;0.030117057;0.14147384;0.09197974;0.25076252;0.06037168;0.036443647;-0.056199055;0.0682272;-0.03595491;0.017982252;-0.048436604;-0.034805894;-0.015734965;0.043231696;0.24574323;0.0706824;0.0019437346;0.10978252;0.014596161;0.13474393;0.23313566;0.098848194;0.05071459;0.233809;0.15198949;0.01105637;-0.036903203;-0.19830102;-0.2772265;-0.11440393;-0.07715246;-0.18656956;0.07732542;0.22895743;0.31786627;-0.031038014;-0.2203227;0.09890741;0.15744223;0.0875104;-0.22763917;-0.26115415;0.0597005;-0.08666099;0.0061849942;-0.10622669;-0.42567134;0.020334823;-0.06543733;0.03230144;0.0006171809;0.14262752;0.014297647;0.004537411;-0.03774989;-0.17345673;0.1672417;0.05487664;0.023147063;-0.010727674;0.056210324;0.043174524;0.017770901;-0.06572531;-0.19196077;-0.030464591;0.1899354;-0.0597377;-0.036024436;-0.11538612;0.104352474;-0.017290061;0.10369345;-0.23859343;-0.027530637;0.28671733;-0.005386046;0.022025887;0.14150703;-0.15729561;0.029181318;0.01882778;0.10909465;-0.09317133;-0.16839346;0.024339056;0.029102819;0.071403146;0.040846646;0.13546127;-0.014839388;-0.019676603;-0.09802388;-0.039950863;0.01505099;-0.04013814;-0.0007449218;0.101464994;0.1604498;-0.0056358282;-0.08119257;-0.20504601;0.16907115;0.2628074;0.29387048;-0.028156301;-0.029349102;-0.020438384;0.015889315;0.183023;-0.11584785;-0.10417348;0.0853144;0.0024244857;0.3227608;0.038772527;-0.46125755;0.044109438;-0.17897679;0.02339708;-0.009657813;-0.0237049;0.015124763;-0.041747577;-0.05072773;0.017956136;-0.020449083;-0.07068463;-0.0531982;-0.05340546;0.108302705;-0.11855811;0.0109396465;-0.0666587;0.06226808;0.0009800643;-0.0071148053;0.006871093;-0.040463254;0.24411447;0.044284943;-0.025183246;0.043193538;-0.23582572;-0.20725949;0.26643467;-0.06752134;0.0057874923;-0.0330487;-0.015169353;0.06375652;0.29897982;-0.14579439;0.35130554;-0.00059837376;-0.12279464;-0.23115121;-0.15427959;-0.10358149;0.25896597;-0.07459058;0.005331264;-0.07167547;0.027136618;-0.56113774;0.23826115;-0.10391885;-0.031669613;-0.022955379;-0.10679497;-0.14270236;0.10093067;-0.10865099;-0.10772075;0.12569763;-0.40010768;-0.069530725;-0.3843489;0.23183502;0.07832426;-0.021954775;-0.05097861;-0.02293994;-0.061903756;0.21785086;-0.2159782;-0.020275721;-0.038839255;-0.07094299
0.17372991;-0.049960338;-0.049904235;0.17517999;-0.03003575;0.31455263;-0.16517088;-0.06361457;0.21685621;0.042907394;0.12303394;-0.052603416;-0.019149378;0.06265255;-0.029270737;0.0011181942;-0.024916148;-0.27525753;-0.16194569;0.09375377;0.112699576;0.03637065;-0.13789363;0.22443336;0.035507925;-0.039578263;0.022877999;-0.21321169;0.16820525;0.18032804;-0.21685882;-0.017932974;0.034844283;0.017549954;0.048890382;0.029398607;-0.010934251;0.19420697;-0.10930958;0.050993044;-0.3847294;-0.092372224;-0.24783565;-0.31331518;-0.40142164;-0.08122942;0.06100317;-0.08049933;0.015841039;-0.18610351;-0.04296014;0.1870442;0.19596131;-0.021367535;0.16611156;-0.062207874;-0.036998242;0.40678248;-0.042569045;-0.017117238;-0.00469721;-0.13600722;-0.0153508345;0.044072464;0.039062552;0.34592715;0.03875668;0.028067375;-0.0076167653;-0.08130171;-0.05246355;0.0061771623;-0.058271404;0.13415167;0.20889217;0.012568603;-0.15961109;0.11323716;-0.022943972;-0.054068025;-0.057420157;-0.13768001;-0.009804313;-0.032752775;-0.21508175;0.18489583;-0.032766894;-0.27232066;-0.014008143;0.045747135;0.11390992;0.026972007;0.13372584;-0.082563505;0.14918178;-0.31460932;-0.4189186;0.23829661;-0.004920798;0.12391167;-0.46427777;0.034118623;0.3942146;0.22017616;0.44973198;-0.08800147;0.08070442;-0.07318207;-0.2401848;-0.14526813;0.10991272;-0.011638075;-0.00055244926;-0.15513642;0.07729834;0.054232124;-0.04158021;-0.07132153;0.34849942;-0.11459527;-0.095952794;-0.019925985;-0.081649855;0.047810942;-0.17555109;-0.16474743;0.17850736;-0.13751009;-0.1165234;-0.035302687;-0.28962684;0.074245;-0.07949646;0.042761765;0.041466676;0.009478647;0.11601523;0.084864736;0.292162;0.18990879;0.019839458;-0.16687244;0.27511725;-0.18479174;0.3815358;0.009387972;0.11777579;-0.035499442;0.10521999;0.14879273;0.014603944;0.20801331;0.2041629;-0.22168846;0.20626637;0.14144276;0.21213184;-0.08674258;0.0700425;-0.13143729;-0.015747419;0.107351184;0.019583082;-0.00710571;0.0051691984;0.023702573;-0.0003681591;-0.19666196;5.1721116e-05;0.21041003;-0.33644745;0.044155877;-0.36822385;-0.023806501;-0.02554188;-0.12440024;0.029879693;-0.30477664;0.23099826;-0.0139356125;0.011023831;-0.023670075;0.31672722;-0.09206715;-0.011755172;-0.70474565;-0.0361296;0.07412978;0.21880618;-0.045346215;0.3398953;0.13284545;-0.32464924;-0.023727702;-0.30806175;0.36768252;-0.04373958;0.04707991;-0.3271651;-0.12971766;-0.07731595;-0.38377786;-0.0484917;-0.014818759;0.15744075;-0.4547516;-0.033664845;-0.43654498;-0.24231032;-0.3044479;-0.28314117;-0.011801577;-0.2694859;0.019136;0.04534292;-0.012989823;0.021110892;-0.114650644;-0.20982261;0.10401214;0.017550584;0.24110681;-0.34722227;0.054342713;-0.07199584;0.20098704;0.30993393;-0.07151875;-0.17278807;0.034159448;-0.12631217;0.2594406;-0.22673771;-0.14604008;0.21572642;-0.15804063;0.009441723;-0.027538069;-0.034838412;0.28740332;-0.2615595;0.063927405;-0.029859243;0.045042243;-0.693664;0.0712922;0.10480187;0.12111251;0.06480621;0.058467038;-0.014926223;0.012647681;0.021601345;0.18717359;-0.030022373;0.07792153;0.22170967;0.384652;-0.053083047;0.018024927;-0.14684786;0.24213949;-0.015643897;0.04078471;0.054752793;-0.014655608;-0.120550185;0.0469859;0.24435975;0.09496359;-0.038696915;0.10265261;-0.17845637;-0.17612417;0.03706407;-0.021644626;-0.06896062;-0.053331885;-0.032367125;-0.012532288;-0.018036602;0.044036966;0.15217942;0.2756315;-0.22282359;-0.36644167;-0.04538658;0.113739036;0.028310113;-0.047090307;0.110210486;-0.04889137;-0.08873126;0.029611502;0.031803504;0.036531646;-0.29061666;0.11335137;-0.011253639;-0.033570156;0.17904517;-0.060878005;0.0028187328;-0.10547301;-0.39862838;-0.400636;0.08171559;0.048686445;0.26099864;-0.11744193;-0.0747975;0.016588299;0.17967713;0.047265332;0.3042378;0.014238915;0.08415509;0.1617885;0.21533296;0.023188883;0.15182333;-0.1644302;-0.012744914;-0.041868344;0.010102718;0.19693537;-0.13778473;0.076614775;0.12952185;-0.04622797;0.0055660172;0.011433803;0.022460807;0.021372901;0.36608386;0.050094385;0.10941222;-0.5538727;0.20578845;-0.110793784;0.06590932;-0.2600715;0.00013953529;0.35001293;0.040654175;-0.12842178;-0.5512475;0.06924814;-0.21361548;-0.005809328;-0.04909612;-0.004969784;0.36508313;-0.27581996;0.005708543;-0.056400463;0.1959472;0.12679876;-0.6128598;0.22366804;-0.024679793;0.01710441;-0.2006822;-0.10020842;0.023965884;-0.07470596;-0.00041871244;-0.06414888;-0.041481107;0.0423307;-0.052718084;0.049004614;-0.060309146;0.06982767;-0.022354547;0.038790923;0.20673838;0.112016626;-0.3495379;-0.032878347;0.36822042;0.016417136;0.089616515;0.05767218;0.10364385;-0.3948593;0.098383114;0.0045773895;0.07339573;-0.008924829;0.2640106;0.023299715;-0.020592129;-0.034682225;0.10554566;0.09291649;-0.043436028;-0.007977497;-0.042948667;0.01298784;-0.058901615;0.32588142;0.10297081;-0.040802866;0.19601293;0.016537283;0.071626246;0.23574536;0.14750208;0.03826257;0.41251248;0.04869939;0.20565958;0.00696279;-0.28106296;-0.39037174;0.079393856;-0.073079854;-0.109955005;0.067635335;0.20796387;0.35952342;0.014177578;-0.13348186;0.11300732;0.053456374;0.18024555;-0.27659976;-0.12909609;-0.06472674;-0.0030524668;-0.09420446;0.0012526643;-0.17853387;0.23271748;-0.020008616;0.033158526;0.013403888;0.0230431;-0.0016015249;0.056475546;-0.025699496;-0.15246598;0.024537118;0.17641337;0.009301793;-0.031924255;0.06350952;-0.06851541;-0.023557192;-0.09611693;-0.035270598;0.029103827;0.010804724;-0.03239311;0.08123317;0.16188146;0.07098656;-0.13307281;0.16717719;-0.040096067;-0.017125791;0.11625949;-0.03678848;-0.021811202;0.08720081;-0.20294054;-0.04359858;0.05448817;0.10967428;-0.023067003;-0.04600183;-0.0013282195;-0.052568782;-0.06336247;0.069348514;-0.012790781;-0.008839979;0.032682322;0.08672308;0.014498364;-0.023445236;0.036713827;0.037791196;0.27347955;0.26164708;-0.07277264;-0.1485855;-0.21949856;0.18632461;0.377682;0.4818164;-0.0063215354;-0.013561389;0.022427341;0.033887565;0.11931984;-0.018522756;-0.22778246;0.21886276;0.022486819;0.29795802;0.027183546;-0.46804208;-0.04615421;-0.38359118;-0.04523293;-0.0025817035;0.050019197;0.16895051;-0.066919036;0.1580499;0.013010102;0.06593968;-0.25027028;0.01774973;-0.11908173;0.3081128;-0.08603776;-0.0022168453;-0.14002594;-0.014545107;0.043156665;0.067517735;-0.025019418;0.0005889059;0.14586908;0.115742706;-0.109769;-0.086276144;-0.24130012;-0.18804815;0.2919547;-0.03060562;0.024668852;0.0034843266;-0.022709735;0.090194374;0.34806904;-0.08440035;0.3299738;0.022380248;-0.028209856;-0.17143372;0.0091802655;-0.16570756;0.35835367;-0.077271916;-0.016381606;-0.06160297;-0.061097253;-0.5887616;0.15275979;-0.12547852;0.010669535;0.061171524;-0.18954246;-0.068226844;-0.052794218;-0.25371626;0.15415116;0.07033151;-0.42922062;0.00014109034;-0.1536449;0.097555466;-0.08619737;0.014536396;0.034735985;-0.0889959;-0.17036045;0.1482888;-0.27743042;0.09999607;-0.06620148;-0.10928081
0.20246491;-0.015033997;0.031074582;0.10996612;-0.003269149;0.32185504;-0.31850493;0.024767013;0.28404537;-0.025030583;0.23115562;-0.019209098;0.036121994;-0.055006888;0.063814946;-0.03302591;0.032919846;-0.19478753;-0.116889946;-0.030259386;0.21475452;0.05695991;-0.13357513;0.28110105;-0.07083916;-0.016463192;-0.022549009;-0.26510686;0.06532987;0.23176172;-0.10440415;-0.052968126;-0.23352762;0.009201724;-0.02673648;-0.010882229;-0.0130294785;0.38990495;-0.15380654;0.35214287;-0.36262652;0.06364285;-0.1816514;-0.34177935;-0.21378654;3.0499119e-05;-0.07883565;-0.013498739;-0.009638193;-0.40120235;0.009051188;0.26300767;0.044425048;-0.15004985;0.16343696;0.038257435;0.032081977;0.29456708;0.04311755;0.031603962;0.01040722;-0.07359935;-0.019145805;-0.048567515;-0.13692799;0.41879398;-0.021777557;0.054620408;0.07185463;0.10427849;-0.00034066872;0.011296853;0.044623706;0.19173178;0.42166138;-0.021035574;-0.10127607;0.16572611;-0.002072209;-0.18867698;0.04148137;-0.08990903;0.03755617;0.045833677;-0.17176987;0.16360089;0.020355567;-0.19106059;-0.029483158;-0.04356041;0.15068924;-0.010003266;0.20600817;0.11326011;0.15035436;-0.2838941;-0.466709;0.35862422;-0.05740359;0.1614253;-0.7102029;-0.027629117;0.30005652;0.37143436;0.48319545;0.01506346;-0.026375368;-0.09061525;-0.18452105;-0.28031498;0.024976917;-0.16400158;-0.013455499;0.13054319;0.14517926;-0.034128055;0.028977796;0.08629445;0.3690342;-0.026236119;-0.039115056;0.16301328;-0.14722262;0.07686368;-0.19335702;-0.052197676;0.4008011;0.09544938;-0.2961881;-0.01137397;-0.2330511;-0.0007466435;0.06483071;-0.03798475;-0.015276128;-0.009696177;0.015188666;-0.061432842;0.20106746;0.33208016;-0.043481354;-0.18379927;0.14823677;-0.018929627;0.4682811;-0.023478381;0.046128705;0.042230748;0.072394416;0.28057888;-0.022099748;0.18139952;0.17248885;-0.27517396;0.21773614;0.10890229;0.22718874;-0.11119446;-0.013498148;-0.21784559;0.120560825;0.106117025;0.095865436;-0.015111933;0.07658953;-0.034479246;-0.0122588845;-0.34462205;0.10043657;0.24104029;-0.37929145;-0.026376545;-0.30765742;-0.032128923;-0.00082326366;-0.14905083;0.03225982;-0.3023476;0.19774093;0.010699293;0.0050079934;-0.0051260428;0.201321;-0.059766844;0.008919576;-0.77909076;0.005977802;0.0034009207;0.30248633;0.0028772394;0.25294882;0.18171489;-0.27490327;0.033375934;-0.4292437;0.29766735;-0.008960317;0.08834415;-0.13975628;-0.0814003;-0.14227451;-0.37477657;-0.04814682;-0.13810363;0.11195441;-0.5636645;0.00047396604;-0.38678282;-0.303733;-0.39797527;-0.20739917;-0.00474852;-0.14345579;-0.026652934;0.002353228;-0.008310773;0.2240139;0.020179383;-0.2101468;0.027849663;0.085054494;0.15196195;-0.39875734;0.03099972;-0.035091233;0.20357713;0.35803956;-0.0024980155;0.009370965;0.007778216;-0.20044428;0.31399736;-0.27541545;-0.12245078;0.09820122;-0.053517684;-0.10742714;0.013988536;0.058130216;0.52301425;-0.18579262;0.008048355;0.110337466;-0.043719333;-0.8465422;-0.08456117;0.15299928;0.2022002;-0.03407578;-0.0064135175;0.16350141;-0.011670083;-0.0035135427;0.21503806;-0.021427311;-0.038365036;0.13190441;0.40170544;0.05128594;-0.00901036;-0.2597461;0.36584803;0.0202314;-0.027847024;-0.035937253;-0.13023509;-0.086371616;0.035074994;0.18779781;0.11504398;-0.1520937;0.064337924;-0.26650685;-0.11388589;-0.036713857;0.008851428;-7.143074e-06;-0.11058951;0.019487333;-0.0063351244;0.015023958;0.043676276;0.069106616;0.42323512;-0.068931475;-0.32624888;0.030207863;0.15855156;0.0007532508;-0.06630298;-0.20916206;-0.12670186;-0.14314614;0.063144304;0.17058553;0.05501974;-0.24180633;-0.07103985;0.0010511923;0.013165889;0.19742242;-0.07684422;-0.024027562;-0.2848567;-0.37366924;-0.420007;-0.03602494;0.029462915;0.3467487;-0.09791805;-0.007682702;-0.028330714;0.16659422;-0.020556245;0.39438364;-0.056059014;-0.07049497;0.18158254;0.18295555;-0.0043543205;0.08370227;-0.10876685;0.18718396;0.035208207;-0.022435112;0.12780379;-0.23307733;-0.050723128;0.097880654;0.027292352;-0.021229874;0.004040979;0.0031531176;-0.016112782;0.4547288;0.011156328;0.06321996;-0.46819606;0.29040727;-0.2287361;-0.041030288;-0.24511476;-0.029358316;0.222893;-0.09070324;-0.25682414;-0.5481904;-0.008766215;-0.18405169;0.014122189;0.021927793;0.11629773;0.4153128;-0.19930793;-0.036813572;-0.35175726;0.31587747;0.22261636;-0.54037434;0.17704973;0.010070264;-0.01536663;-0.07831218;-0.14207096;-0.007709462;0.043963343;-0.098260134;-0.13147564;0.08595824;-0.0233782;0.009156311;-0.031225376;-0.01685959;-0.0041464064;0.025071042;0.018016413;0.106184006;0.13719109;-0.23681104;-0.061329525;0.6154361;-0.0069678957;0.12857455;0.13097507;0.089745335;-0.4906482;0.21985893;0.02696033;0.02459162;0.12883931;0.20506157;-0.053556945;0.027117833;0.082147464;0.14550808;0.18072839;0.0003539109;0.016661124;0.02931322;-0.014227688;-0.11643025;0.19555205;-0.027322434;0.0104306005;0.36273327;-0.025400579;0.123917416;-0.09275209;0.17672104;-0.07258037;0.57328224;0.052350022;0.16416262;0.032748748;-0.09002917;-0.15357965;0.1998254;0.0009415624;-0.13231686;0.007951098;0.23043765;0.47723556;-0.003000175;-0.21177317;0.0899295;0.23568726;0.074159235;-0.3780117;-0.008263669;-0.092385635;-0.09775623;-0.047526106;0.07395489;-0.1772146;0.3558898;0.0405667;-0.013958298;0.09820529;-0.011467199;-0.013722842;-0.032964826;-0.2021799;-0.10022178;-0.0054327915;0.14343558;-0.035981953;0.026907356;0.022149237;0.012672837;0.023653248;-0.06200267;-0.0859672;0.011900908;0.17048152;0.03062623;-0.033170156;0.3227179;0.07721358;-0.08176701;0.48384637;0.16835542;0.003109934;0.15473238;0.021592138;-0.015349322;0.028194293;-0.2988945;0.021661932;0.05415551;-0.015176695;-0.17027228;-0.23124744;-0.017667187;0.013890031;-0.21490973;0.1791631;-0.20752776;0.062490974;-0.034900397;0.10403315;0.059162185;-0.015305718;-0.009125197;-0.042329974;0.3769403;0.17954415;0.019476857;-0.07808052;-0.18849482;0.15410154;0.31449124;0.41728255;0.03196798;-0.12576255;-0.021699388;-0.031207478;0.23406453;0.17691888;-0.37848946;0.074051395;-0.005104993;0.19287442;-0.058444273;-0.40348533;0.040298153;-0.489103;0.031632245;0.017351009;-0.07715243;0.28323647;-0.0380108;0.015441277;-0.024407065;-0.0072212527;-0.33775634;-0.007173981;0.10112881;0.39760995;-0.08206057;0.012350034;-0.10089102;-0.031111939;0.06774443;-0.00013834091;0.004998873;0.02512371;0.20710558;0.23618904;-0.092521966;0.014919152;-0.41143894;-0.14912881;0.2665379;0.034208577;0.08333121;0.0021313527;-0.012588683;0.15474503;0.14224951;-0.23311962;0.5251665;-0.0364152;0.042932477;-0.15818968;-0.119464666;-0.23930757;0.3377253;0.04400839;0.043831307;-0.15020332;0.038343202;-0.62408626;0.23483938;-0.07938797;-0.015533131;0.0033763212;-0.33397886;-0.06128833;-0.11042483;-0.38233078;0.10575511;0.27424073;-0.48373392;0.05329162;0.092135005;0.033885077;-0.11020019;0.0022332675;0.0127989715;-0.13940623;-0.22504945;0.2690283;-0.21924348;0.15573926;0.0519573;-0.21517314
0.28058904;0.43145633;-0.018585782;-0.33498216;-0.016442891;0.024499716;-0.044076327;0.02070791;0.24609593;0.011755695;0.18955359;-0.22970885;0.0007175278;-0.007532738;-0.3210706;0.021055304;0.0030593865;0.18248795;-0.07065025;0.26983663;0.0421742;0.32396153;0.16302727;0.12002455;0.0031293714;-0.28031608;-0.005272782;-0.108240336;-0.27838793;0.0708562;-0.26090178;0.045915827;-0.07571138;0.007357533;0.00046872935;0.0028413455;0.023731956;-0.50880176;-0.15074743;-0.136226;-0.77130944;0.037770096;-0.7091544;0.33357027;0.075689346;0.3864973;0.016078804;0.017638143;0.0052636825;0.026801636;-0.0019631777;0.1623796;0.18164435;0.38591585;-0.40761003;0.0032169693;0.61773443;-0.33998713;-0.051184203;0.0009458144;-0.0058494755;-0.20895351;0.002024398;-0.002478154;-0.3749305;-0.0024320793;-0.016654704;0.018934183;0.2333975;-0.03159149;-0.4279621;-0.013367226;-0.26474497;-0.09371833;-0.013833061;-0.011456532;0.082747325;-0.37260455;-0.0061444244;-0.005796261;0.004429231;-0.14202842;-0.0008470046;0.13978504;-0.74947673;-0.01415246;-0.001357548;-1.1135899;-0.005317048;0.018656557;-0.07385946;-0.009165376;0.2976711;-0.5952495;0.15153709;0.07050044;-0.32159498;-0.1888715;-0.33654642;0.56927925;0.06808305;0.6825348;0.3904233;0.75725967;-0.1392086;-0.4684765;-0.058451697;-0.1707338;-0.1847761;-0.4554077;0.24963066;-0.05198691;0.008099582;-0.14045665;0.22319785;-0.0083727855;0.013457348;-0.17145066;0.13830593;-0.19548596;-0.15094571;0.32032585;-0.35004973;-0.0055076675;0.0011536205;-0.22379452;-0.17693256;-0.10597567;0.15178336;-0.5308954;0.022945171;0.3139806;0.07741469;-0.0088146115;0.08822694;0.008599069;0.041081846;-0.012143438;0.386749;0.20229568;-0.008877798;0.13197589;-0.10300751;-0.5142419;-0.025656624;-0.0033514476;0.26199505;0.00563997;0.47451258;-0.022346273;-0.020990912;0.16617729;0.2298978;-0.4319459;-0.39715394;-0.062309656;-0.3376405;0.10022712;-0.010736072;-0.26984873;0.10010573;-0.4752332;-0.39441472;0.003607487;0.06747656;-0.16959141;0.007631747;0.021311296;-0.42014164;0.4809015;0.20216568;0.004490381;0.21861088;0.5055944;-0.42061502;0.073612824;0.0033073188;0.15862076;0.71747476;-0.0054081483;0.004062512;-0.007088457;-0.008734926;-0.18016365;-0.0049023624;-0.211716;0.001131541;-0.093805894;0.2320234;0.01788879;0.13693523;0.03731541;-0.21010724;0.016547764;-0.3657909;-0.04997494;-0.20017733;0.290958;0.40397656;0.116534784;0.11765825;0.11892989;0.20437114;-0.26098877;0.18978788;-0.0074851695;0.23881856;-0.076289795;-0.26932678;0.15180835;-0.06376194;-0.20081542;0.38321733;-0.006561746;-0.0007286221;0.0024018544;-0.110289834;0.5974426;0.25188679;0.10454706;-0.22131194;-0.27388117;0.32740745;0.009034134;-0.105031505;0.4569107;-0.1401948;-0.16577934;-0.42985323;-0.002021791;-0.51948893;-0.51062787;-0.052718617;0.054661278;-0.53302985;-0.3737323;-0.32513386;-0.004655977;0.19384955;0.39634427;-0.21495871;0.44173706;-0.39830533;0.005832038;0.11522701;0.07242097;-0.3159985;0.22916317;-0.009798792;-0.064675696;-1.0158819;-0.0045094956;-0.41095266;0.15097001;-0.005561345;-0.21514884;-0.604258;-0.01419209;-0.046528284;0.0022816444;0.6772744;0.2054963;-0.0012035519;0.004665622;0.00024130715;0.061553948;-0.309151;-0.81430143;-0.17618018;0.0072333836;0.13603239;0.36547694;0.33292896;-0.5539494;-0.015050315;-0.0020033454;-0.09911546;0.30046389;6.3799125e-05;-0.0013139263;0.0035335512;0.24037085;-0.20775855;0.24902296;-0.36211404;0.5387812;-0.0018293727;0.40886402;-0.0069907783;0.022241719;-0.37427968;-0.42731518;-0.027854228;0.24827331;0.018492933;-0.15218684;-0.27794963;0.15000702;0.010506626;0.0018774697;-0.19170567;0.039564468;-0.013045401;0.29344165;-0.15018849;0.34133306;-0.3970366;-0.0062945746;0.44216087;-0.5218961;0.17127661;-0.008047587;0.6257165;0.0090880925;0.5842633;0.12576331;0.06889979;0.19216147;0.1637243;0.0038663675;-0.22895797;-0.45232388;-0.2465378;-0.010942155;-0.0025443607;0.19755618;0.43142903;0.015433983;-0.5226974;-0.0032557764;0.002575063;-0.0027487876;-0.0073854686;0.008563634;0.36896446;0.010177874;0.16234498;0.080568366;0.38795343;-0.15987505;-0.0020754759;-0.19021505;0.011281588;-0.34163144;0.06731016;-0.18038714;0.064841844;-0.010531272;0.27249292;-0.0016823156;-0.002806975;-0.35227048;-0.15899564;-0.01699231;0.007588835;0.4172705;0.10368435;-0.022139564;-0.45130458;0.42943278;-0.016420137;-0.0009090013;-0.036287095;-0.09285559;-0.049354743;0.44771352;0.09646733;0.40096894;-0.051832266;-0.058474656;0.01182336;-0.00578272;0.004065182;0.150417;-0.30105957;0.010008562;-0.51806504;-0.51932454;0.4780198;0.025549032;0.12635654;-0.4023025;-0.10838876;0.07014092;0.36601225;-0.3903349;0.06584792;0.07364793;-0.46866632;-0.4088299;0.2238211;-0.009796303;-0.007797648;0.40002668;0.25192168;0.08483776;0.00029055795;-0.00057729817;-0.0070866803;0.010547826;-0.10335043;0.11951843;-0.08579792;0.008989403;-0.011650711;-0.016419627;-0.5696525;-0.006071432;0.08732115;-0.00045512128;0.52530545;-0.20692345;-0.16258872;0.0027441198;-0.6343364;-0.024960425;-0.34988156;0.0655097;-0.3397728;-0.01590217;0.014988612;0.023124121;-0.0027052586;-0.28568074;-0.26553398;0.24257429;-0.25745267;0.46620336;0.074313834;0.024343835;0.31356445;0.19658569;0.49228072;0.17178072;-0.040455487;-0.15320568;-0.0046351464;0.041188333;0.36357763;-0.012791054;-0.0086535625;-0.21719347;-0.11298882;0.3189892;0.11245492;0.009462129;-0.007377574;0.05699218;-0.003916644;0.004949851;-0.37191373;-0.25130236;0.009774684;0.40692416;-0.004305093;-0.0020777513;-0.0031569477;0.47986183;0.0376659;-0.029444436;-0.34641024;-0.014736928;0.047937736;-0.009818375;0.025550522;-0.4327317;0.08306065;0.0071078646;0.070587985;-0.049744315;-0.024715269;-0.20071554;0.0008388852;-0.107274316;0.71309453;-0.080585994;0.3677937;-0.2757724;-0.0078088013;0.007105143;-0.006676886;0.0057373475;0.040658932;-0.0056535336;0.15164635;0.44849277;0.5085814;0.22328013;-0.46021688;-0.27463767;-0.17358708;-0.12891722;0.010495939;-0.14488646;0.0075915046;0.019606523;-0.07565713;0.36817074;0.30448496;-0.20799917;0.011392514;0.46443146;0.02111365;0.06596881;0.0043010036;-0.15925767;0.008941349;0.006541565;0.09460101;-0.7924532;-0.06634846;0.25732365;6.2929605e-05;0.032566562;-0.07776981;-0.0005625069;-0.2081396;0.31580627;0.10799373;0.009282649;-0.1212719;0.0032396077;-0.34644094;-0.3054238;-0.0047449805;0.0016533071;0.23615512;-0.15830083;0.021440389;0.023501998;-0.039441563;0.5069787;-0.45136622;0.42771965;-0.029810958;0.001253491;-0.007241473;-0.22498745;0.344835;-0.31290597;0.23512794;0.009813889;0.5329601;-0.19267493;0.10302199;-0.3481401;0.15883993;-0.28024876;-0.0062442953;0.38027582;-0.003055217;0.1412717;0.4668352;0.13008781;-0.00019516882;0.26455072;-0.019442536;-0.6642839;-0.5580437;0.3783728;-0.77919793;0.09316235;-0.035247646;-0.0074455654;-0.49553156;-0.03370485;0.59159636;-0.002173206;0.006391764;-0.06617023;-0.02933265;-0.16907011;0.15794054;0.28100476;-0.0011682143;-0.036870845
0.10826401;0.14858492;0.020520002;-0.32336226;-0.0034236598;-0.019535646;-0.060931638;-0.0236325;0.38263738;-0.017278647;0.2347028;-0.19874506;-0.00053628127;9.882556e-05;-0.21751645;-0.017398866;0.0059188744;0.13311887;0.033460703;-0.14876312;-0.0073873755;0.3675518;0.10964314;0.07631386;-0.0010800849;-0.25596994;-0.00026833458;-0.15413597;-0.22200924;-0.21133192;-0.07672613;-0.18967372;-0.23810868;0.006639321;-0.002738002;0.0023441743;-0.024220021;-0.15828592;0.018583778;-0.37958887;-0.3040205;0.021362241;-0.45901966;0.10702185;0.03801245;0.12273621;-0.008262151;0.0011165391;-0.011397996;0.04560104;0.0025730953;0.21534598;0.036704414;0.28878334;-0.1960889;-0.019794932;0.37703207;-0.084894404;-0.034460593;0.006820021;0.0040253596;-0.094857976;0.011754968;-0.0024728698;-0.04132256;0.049694244;0.017123757;0.013016467;0.1133397;-0.017738342;-0.34809345;0.015676599;-0.49959052;0.089064024;0.117306076;0.014277751;-0.06279297;-0.21064615;-0.00818449;0.032067098;-0.008319574;-0.4135006;0.01189985;-0.17839687;-0.43743658;-0.30491513;0.00869736;-0.7773959;-0.0016918696;-0.016345872;-0.05079327;0.017632175;0.0884065;-0.24794102;0.19401877;-0.12403514;-0.17388566;-0.19779018;-0.24585508;0.2573939;-0.07648836;0.49679905;0.27337193;0.42839503;-0.40991944;-0.37342936;-0.083694324;-0.008663606;-0.123199075;-0.20322828;0.2705858;-0.37558597;0.0010541889;0.2859651;0.22427078;-0.004885077;-0.012836735;-0.191652;0.3073157;-0.40971714;-0.08388683;0.28119412;-0.21029234;0.18831903;0.037183665;-0.025595209;-0.093475305;0.06891824;0.19513263;-0.4669917;0.032772496;0.23607081;-0.119090065;0.012385972;-0.08846387;-0.011804269;0.20021191;0.011939305;0.12934072;-0.09830169;0.0060205655;-0.07024451;0.07624575;-0.18975843;0.1950281;0.01133013;-0.13389611;-0.0040239664;-0.1932375;0.029154526;0.027905043;0.1427954;0.32055813;-0.29040846;0.0044936216;-0.1934109;-0.3823797;0.26097086;0.010250041;-0.2558247;0.040537994;-0.38418365;-0.58420104;-0.0056958203;0.034102526;-0.086151145;-0.0043439567;-0.08981805;-0.11501868;0.20011508;0.15628017;0.0060731573;-0.1802842;0.018142516;-0.43860462;0.16857019;-0.01376611;0.3120173;0.2761159;0.0039188582;-0.0030521438;0.018352734;0.07835146;-0.20065375;-0.0040046275;0.014184397;-0.013179104;-0.009541781;-0.2816803;-0.014870984;0.31591505;-0.11304293;0.11326979;-0.01938913;-0.11538772;-0.307497;-0.040192284;0.31677675;0.075882345;-0.20690918;-0.32934403;0.1618762;0.22658618;-0.10651229;-0.02351253;-0.09366253;0.26565906;0.18599115;-0.56675786;0.09310672;-0.05298755;0.09781159;0.22712718;-0.0060892017;0.021302283;-0.011185499;-0.08620558;0.2183466;0.43050647;0.2737149;-0.2399056;0.07250214;0.53727907;0.002954105;-0.16305654;0.09090052;-0.08630482;-0.13408084;-0.34038514;0.01617035;-0.46759322;-0.42029858;0.12692371;0.40825382;-0.34340903;-0.14864664;0.0052004643;-0.001950948;0.11646006;0.25165397;-0.23584664;0.24853417;-0.37787214;-0.0069875866;-0.046244364;0.098795764;0.013752873;0.19909567;0.013662728;0.037951965;-0.7378112;-0.010780421;0.16517545;-0.085155666;-0.0090924315;-0.109259255;-0.39234185;0.008216193;0.026407836;0.001844094;0.53024596;0.0682644;0.0061488403;0.005351741;0.001433085;-0.101031676;-0.23622775;-0.5562191;-0.0239152;0.14943404;0.16222551;0.13443112;0.1831678;-0.24505207;0.008882861;-0.011296039;-0.15493637;0.40563166;-0.0030984508;0.00480418;0.0064603295;0.21649562;-0.5546107;0.40261802;-0.021678576;0.4146483;0.00049586146;-0.026142305;0.003042069;0.12104555;-0.3062912;-0.3434219;0.18803036;-0.16955748;0.088406615;0.01478259;-0.1809161;0.20988232;-0.021859154;0.0077143153;0.09295892;-0.034777425;0.013307434;0.1551668;0.10053108;0.18190977;-0.23555236;0.052833296;-0.015412568;-0.623178;0.22615609;0.003911033;0.36970803;0.0069690924;0.30570966;0.1606143;0.1333774;0.26936114;0.23810555;0.012852919;-0.10306138;-0.27557418;-0.17740412;0.0039822357;0.01669721;0.040821012;0.2656616;-0.028490085;-0.42290664;0.006990527;-0.0049699256;0.003324091;0.008445206;-0.02539629;0.29366797;-0.013222751;0.16952044;-0.16888236;0.29680902;0.02395072;0.0015083946;-0.07206953;0.0017262337;-0.14316563;-0.2534241;-0.38753802;0.0076253805;4.8862225e-05;0.046312604;0.015013133;-0.0046549644;0.15491064;-0.049648292;-0.03197866;-0.0039847884;0.23736323;-0.012755337;-0.10999929;-0.1790522;0.33045503;0.050063;-0.00093196786;-0.09959076;-0.037939683;-0.079127684;0.0837981;0.23541866;0.34718528;-0.075201735;-0.012608506;-0.02702454;0.0077701937;-0.0054983795;0.2823249;-0.25904194;-0.01663855;-0.14398764;-0.1373151;0.31601956;-0.019522306;0.05332976;-0.051542874;-0.45972934;0.08258485;-0.053135764;0.028745973;0.07886651;0.13870466;-0.39832294;-0.2531707;0.018938428;0.006819804;-0.0010854674;0.30403754;0.2309256;-0.04458952;0.011434744;-0.010473501;0.008192197;-0.007932516;-0.24940188;-0.0020770046;-0.28228763;0.010232531;-0.11663758;0.0062472676;-0.27966735;-0.13638942;0.15023106;-0.0008400112;0.3411208;-0.16936073;-0.09710331;-0.0013622654;-0.44316676;-0.13526575;-0.34734717;0.12927592;-0.34996974;-0.19663936;0.044347923;-0.074675396;-0.00534721;-0.1768814;-0.11164087;0.06985177;-0.2786652;0.2629309;0.13787507;0.011239446;0.39153174;0.089674;0.035015415;0.07065759;-0.2227976;-0.014819355;-0.0074728397;0.022768606;0.31856015;0.0071954937;0.021872617;-0.059839986;-0.20982149;0.16616754;-0.09132053;-0.00896437;0.01690046;0.039363444;0.0021318477;-0.00313714;-0.031256374;-0.23945388;-0.021275053;0.13643785;0.015604685;-0.007892468;0.13291444;0.18485445;-0.17029731;-0.15448235;-0.230051;0.0204321;0.21284583;0.011262004;-0.016865358;-0.25708005;-0.18380614;-0.024308583;0.15190315;0.03638568;0.2792833;-0.003691973;0.0029890242;-0.18255581;0.5079272;-0.10956773;-0.22183609;-0.33845058;0.0031854028;0.028498698;-0.00012589608;0.00013039655;-0.042432763;0.00935259;-0.08670095;0.38189313;0.60248536;0.2357657;-0.32840893;-0.17912498;0.10342594;-0.2457479;-0.016887298;-0.22509314;4.867887e-05;-0.008850606;0.15286693;0.29807866;0.010812611;-0.08377516;-0.022551132;0.3947754;-0.08469697;-0.12387469;-0.009551666;-0.24170375;-0.011321666;-0.0048335847;0.087067746;-0.9152879;0.060906548;-0.17236993;-0.0052997395;-0.027306344;-0.09811896;0.008898408;-0.30668107;0.20044889;-0.010101912;0.0039285906;-0.10027267;0.016315704;-0.3035115;-0.41190886;0.015363589;-0.017279157;-0.0831146;-0.052588183;-0.089555964;-0.017591683;-0.0739404;0.3831534;-0.2677994;0.7027197;0.10557591;0.0054713376;0.009071271;-0.06552545;0.085761815;-0.26926303;0.44992772;-0.0041292757;0.1964561;-0.20184702;0.07260606;-0.3862518;0.20359091;-0.30516553;0.0061530164;0.275232;0.0026474546;0.04781784;0.40082628;0.21318772;0.0031230242;0.09167296;0.05334629;-0.43002924;-0.374314;0.34271577;-0.2984789;0.22013158;0.23220763;0.011362602;-0.14181729;0.11595995;0.23705931;-0.0030497506;0.01242173;-0.3044607;-0.10531637;-0.24419299;0.110156834;0.031263504;0.025844917;-0.013310366
0.14299366;0.15981823;0.012649528;-0.5347779;0.004066498;0.003880054;-0.04104697;0.008240984;0.25989196;0.012680141;0.29007608;0.1250612;0.0021714524;0.0061275507;-0.19918874;-0.003079471;-0.0038428083;0.032683402;-0.2594969;-0.11019755;-0.022154042;0.27098995;0.05114687;0.09780176;-0.0040220167;-0.2348992;-0.0105639;-0.050973658;-0.16111399;-0.03515023;-0.13613121;-0.10586766;-0.33743206;-0.005851321;0.0059011183;-0.0007634035;0.007348112;-0.056815542;-0.0048362114;-0.32621425;-0.0063565914;-0.01136727;-0.27318135;-0.20660295;-0.22165033;-0.090252;-0.011988372;0.04692104;0.0054062866;-0.10146279;0.008594243;0.043858655;0.025028639;0.23769537;-0.17878611;0.03027444;0.18936694;0.015606887;-0.028112115;-0.0063330084;0.008728222;0.007927604;-0.017811937;-0.0012955937;-0.02798904;-0.15603815;-0.0043883245;-0.041024014;0.013479208;0.040530495;-0.067102835;-0.0031922525;-0.27436754;0.08134605;0.047197197;0.00018751634;-0.011657162;-0.13410476;0.016456446;0.12857515;0.0058143376;-0.44635865;-0.009115665;-0.034028832;-0.0059557753;-0.2868864;-0.01269352;-0.33209497;0.007514373;0.0054664193;-0.018787678;-0.02602079;-0.010170756;-0.13482884;-0.105908796;0.039567713;-0.41931435;-0.24419335;-0.337173;0.26247248;-0.14394733;0.42241678;-0.042762093;0.21843447;-0.3145385;-0.09555021;-0.027012108;0.025379153;-0.10348993;-0.2171586;0.09365887;-0.38396165;-0.00504479;0.13177818;0.103990205;0.023103261;-0.0028140678;-0.13843721;0.49224058;-0.51855755;0.08951832;0.28881872;0.09530235;-0.055141803;0.18935438;0.03610364;-0.3061852;0.065307476;0.39424065;-0.28449354;0.0060228873;-0.037879735;-0.3262297;7.408945e-05;-0.10199736;0.013048443;0.1397512;0.044776257;0.16949253;-0.018991856;0.013049712;-0.25716728;0.2709044;-0.07262376;-0.057822492;-0.009825627;-0.33742532;-0.0012358043;-0.45197305;0.10062466;-0.0065168487;0.010966363;0.2814843;-0.18413867;-0.18406478;-0.061787006;-0.32595414;0.2758812;0.0027283835;-0.17200004;-0.032809198;-0.21003895;-0.4376211;0.014451622;0.036521427;-0.057140756;0.002294012;0.08366459;-0.47568634;0.028176308;0.36534712;-0.007818357;-0.4183874;-0.3022484;-0.21420613;0.23861472;-0.020158803;0.07785587;-0.14678286;-0.0016895165;-0.0030490644;-0.0031904636;-0.032451436;-0.17255092;0.009963559;0.103223205;0.0074803373;0.077226125;-0.13978809;-0.015913531;0.09181012;-0.087691605;-0.07153908;-0.0053747767;-0.14906785;0.08783497;-0.12124536;0.26303628;0.103228696;-0.030929454;-0.124586456;0.21556886;-0.11395466;-0.014745421;-0.25639656;-0.0411084;0.16638856;0.036193624;-0.46417493;0.03952411;0.03482013;0.20847139;0.037238803;0.010290137;-0.03991183;0.005172152;-0.11808834;-0.02688683;0.28447366;0.2006152;-0.33849669;0.07016775;0.64953285;-0.0069179297;-0.23365577;-0.10241393;-0.21667619;0.014560272;-0.34555227;-0.013762718;-0.25265115;-0.22785528;0.119369924;0.32466972;-0.046964332;0.20425543;0.090162486;-0.0034162286;-0.09837235;0.061416138;0.06912876;-0.26376602;0.0025068019;0.0053454093;-0.29081628;0.24473776;-0.24214357;0.13596325;-0.0059921993;0.031979647;-0.3690313;0.015373333;0.0042596236;-0.11195198;0.015131416;-0.12867987;-0.46852177;0.03248804;-0.031766593;-0.0012551046;0.5679964;0.05258252;-0.0069754054;0.007312448;0.009446664;-0.031749208;-0.0080602085;-0.32660615;0.022950733;0.2554564;0.16131093;0.06849224;0.12596533;-0.21220133;0.009910289;0.024377752;-0.4115256;0.3229759;-0.011659341;-0.0047536874;0.01272926;0.30277622;-0.30934125;0.2625201;-0.17906678;0.3318545;-0.0035874827;-0.2516869;-0.002829274;0.21772067;-0.25494182;-0.03468883;-0.15360968;0.14962895;-0.053977255;0.25278577;-0.042873602;0.34955242;0.009080145;-0.009124772;0.23901448;0.023434095;0.0034170654;0.22000764;0.27278164;0.25305617;-0.048994824;-0.06665087;-0.37018305;-0.5032263;0.3659269;0.0021958284;0.30144548;-0.018454703;0.16110376;0.21771519;0.199351;0.07694781;-0.11428009;-0.021305367;0.11726746;-0.49836084;-0.24723317;0.00015296062;-0.015621569;-0.0106630605;0.28413913;0.016087942;-0.18019876;0.0094966125;0.017292488;-0.0056214873;-0.0021798194;-0.003393154;0.3056571;0.006770902;0.03222664;-0.015554039;0.19333585;-0.11521632;0.010164152;0.09214213;-0.010013362;-0.34000844;-0.11974715;-0.3562535;0.005971103;-0.06391827;0.20202306;-0.0053268312;0.003223729;0.2831544;0.076757796;-0.039106578;0.0032302202;0.1633031;0.13821739;0.06809883;-0.07457829;0.2916322;-0.0053212414;-0.0008033194;0.04296347;0.07291829;-0.01330471;-0.048481934;-0.07375695;0.2602695;-0.15126973;-0.007737872;0.011079387;-0.005010961;0.0069117215;0.16540192;-0.23526362;0.005764476;-0.11567973;0.03229773;0.3200486;0.10546656;0.08653619;0.07068212;-0.23856975;-0.09155382;-0.058403846;-0.018693535;0.13585474;0.01994367;-0.6960207;-0.24390589;-0.026688525;0.0029909997;0.01852444;0.2061231;0.08347143;-0.03918231;-0.0002061153;0.018212348;-0.0024647037;-0.012369463;-0.17836817;-0.2147036;-0.37780538;-0.026234485;-0.15117359;0.017820442;0.37233546;-0.08892003;-0.025954826;-0.010888984;0.3405198;-0.32541588;-0.013127399;-0.004307869;-0.44883385;-0.07396901;-0.18695806;0.005805275;-0.2735167;-0.029936908;0.08993017;0.03147277;0.0006471606;-0.11683552;0.01886317;0.08629687;-0.14769317;0.077363335;-0.015362791;0.029960798;0.40241688;0.11468503;-0.28046766;0.1021917;-0.48453894;0.079450004;0.016126897;0.04147842;0.013103164;0.0069310423;-0.022799924;0.058351997;-0.36067685;0.122482166;0.009460343;0.001723433;-0.01718849;-0.0021983415;-0.00026045722;0.009316741;-0.00029247437;-0.20381893;0.0045661195;-0.005943335;-0.006887078;0.009738329;0.24189791;0.11271262;-0.18096913;-0.06101764;-0.11717814;-0.024349172;0.16996998;-0.0031501595;-0.011368895;0.002164404;-0.2965005;0.016696561;0.07372135;-0.22800897;0.039156772;-0.109669276;7.90389e-05;-0.13488866;0.12096897;-0.22319901;-0.11239754;-0.12515777;0.007762773;0.045545343;0.0033814597;-0.0035877768;0.07133813;-0.010858945;-0.055039182;0.15504794;0.28851628;0.27050105;-0.13224377;0.12637678;0.09195133;-0.017438024;0.0073710857;-0.2945129;-0.0176392;0.0017981293;0.19495681;0.19974232;0.08242395;-0.14020987;0.02145048;0.23862427;0.011174594;-0.018583464;-0.008089808;-0.22757901;0.00507624;-0.016061835;0.067305595;-0.55626297;-0.010535548;-0.4897568;0.0030246957;-0.008928414;0.08931695;-0.02377833;-0.24759725;-0.10004025;-0.021197528;-0.0021014353;-0.18924098;-0.010371712;-0.19649835;-0.28573796;-0.01639902;0.009447041;-0.050399285;0.064715005;0.050779898;0.01784192;-0.14052375;0.29412493;-0.18139713;0.2635412;-0.09323268;-0.0009058474;-0.015313299;-0.105880514;-0.019371709;-0.23608625;0.3800694;-0.004142607;0.21729031;-0.28388014;-0.09664362;-0.2297997;-0.21044178;-0.20265764;-0.013669323;0.1659477;0.0064107114;-0.13124424;0.2812103;0.25814793;0.0028051897;0.062881276;0.016950471;-0.1906214;-0.39487424;0.070468515;-0.049761537;0.23523691;0.35243863;-0.024020346;0.28858745;0.124354675;0.111760385;0.009240668;-0.019406516;-0.0804741;-0.40396774;-0.075773574;0.07682396;-0.005962848;-0.038193602;-0.15738547
0.06698984;0.33614948;-0.013173173;-0.45875278;0.015823714;-0.11671704;0.11147549;-0.0027822985;0.1948387;0.0218456;0.1786707;0.048868727;0.008955632;0.0034908475;-0.22429074;0.004877887;-0.0068799104;0.12235506;-0.3113343;0.045813173;-0.03361865;0.100861885;0.12797844;0.020733403;-0.0069794287;-0.27962402;0.02673087;-0.1132177;-0.1752871;0.033107672;-0.30228016;-0.032684803;-0.31060728;-0.01865519;-0.0036145656;-0.011384638;-0.0065703965;0.25953117;-0.35221428;-0.15461658;0.03445899;-0.027550759;-0.085483395;-0.13297075;-0.1293124;-0.036796447;-0.0018065535;-0.10845225;-0.001274315;-0.3555563;-0.00030588068;0.35250866;0.036752097;0.15344611;0.11875696;0.0028165572;0.13668549;-0.005855796;0.025892982;-0.020085482;0.0024292527;0.085746296;-0.0020168058;-0.0029149912;-0.18956463;-0.2052232;-0.00013287335;0.07892871;0.12412943;-0.011012925;-0.39086288;0.0165428;-0.1558424;0.263648;0.1817226;-0.010639772;-0.098559365;-0.124136284;0.0028818364;0.021858927;0.0013627459;-0.1802785;-0.004822985;-0.116395295;0.10939454;-0.07017063;0.013006024;-0.28670374;0.0027546282;-0.017682064;0.029960373;0.034275077;-0.085233726;-0.1556811;0.13561788;-0.023575168;-0.2405159;-0.3753395;-0.2305192;0.28010786;-0.011907258;0.2832636;-0.014709666;0.15219045;-0.24103725;0.06778744;0.003944707;-0.29508856;-0.08638139;-0.07554199;0.28277463;-0.07973591;-0.0047290097;0.18739352;-0.013403436;0.0015017646;-0.011524016;-0.029321186;0.30456114;-0.56571317;0.051401414;0.12931496;0.103380926;-0.13523556;0.15356338;0.08202608;0.031250626;-0.024516743;0.28576228;-0.22337103;-0.14964928;0.029468993;-0.14838165;-0.00068781315;0.004310804;-0.013078168;-0.39224967;-0.003260751;0.21234755;0.08368789;-0.0034750744;-0.18367885;0.037595544;-0.071992055;0.15293775;0.011267365;-0.10314991;0.0030758996;-0.27735794;0.26579764;0.011436383;-0.014248028;0.028770711;-0.10072884;-0.29240498;-0.15124989;-0.15329899;0.2136131;-0.0019216284;-0.08919405;0.005763722;-0.17027916;-0.075632;-0.023728909;-0.0294345;-0.027764995;-0.010497798;-0.18040612;-0.35105282;-0.20059955;0.44327196;-0.0023097806;-0.21876033;-0.20140544;0.025702529;0.1256518;-0.023261767;0.006708665;-0.240979;0.0024868276;0.0038927016;-0.0045653335;-0.09927451;-0.074129425;-0.0039910055;0.22116096;0.01263077;0.022356438;-0.24937813;0.027635522;0.13784163;-0.23742117;-0.012646102;0.009686276;-0.15597452;0.024655834;-0.33418787;0.076846644;0.40902272;0.08466611;-0.32692766;0.22708999;-0.045653958;-0.09752712;-0.16046079;-0.049633525;0.06649346;0.029883798;-0.47086424;-0.109053366;0.11475674;0.028671648;0.097839125;-0.0045669866;0.03191075;0.005171546;-0.20152533;-0.018194588;0.26135564;0.11471354;-0.5909236;0.18916361;0.7202273;-0.010658926;-0.22396958;0.24087459;-0.0486501;0.11012104;-0.33023027;0.013266943;-0.13728009;-0.019410826;0.014242521;0.2119054;-0.0034027726;0.29365474;0.111849554;0.018714136;-0.430223;0.0060922224;0.2020832;-0.11309205;-0.051482547;-0.008357632;-0.08493627;0.17467773;-0.113871165;0.17890355;0.0055899555;0.038771797;-0.11250806;-0.0069542686;-0.00036579173;-0.025493085;0.0016201732;-0.26284057;-0.16370107;-0.12052329;-0.02038982;-0.01219111;0.6425636;0.047188967;-0.009537606;-0.018182429;-0.016582998;0.10622896;0.21398368;-0.31185123;-0.08954529;0.03278676;0.0796954;0.05265231;-0.13520189;-0.11724665;-0.003113386;-0.018374823;-0.46618155;0.16755411;0.0058288784;0.0021040195;-0.012565268;0.11106958;-0.12889151;0.069115005;-0.3426633;0.32858637;0.020288324;0.008104077;0.01047875;0.1699301;-0.4181383;-0.1865007;-0.2801221;0.22279777;-0.06756192;0.19162457;-0.021785764;0.13886952;-0.006389323;-0.0005997731;0.34137043;-0.027349468;0.004186654;0.07195485;0.34371674;0.1463783;0.007852857;0.043716032;-0.33628953;-0.27979505;0.23090431;-0.0056830845;0.039250024;0.0036010663;0.22547969;-0.26005954;0.12713443;0.2190252;-0.32560465;0.011338955;-0.043421384;-0.41214705;-0.07672272;0.023356192;0.0118304975;-0.22246875;0.024555754;0.0009590015;-0.08341671;-0.0029788297;-0.015568676;0.013150514;0.013972679;0.014985962;0.1522515;-0.002151023;-0.27209386;0.24881369;0.1698513;-0.07982931;-0.011365527;0.15687704;-0.005337676;-0.22425435;-0.11535594;-0.34145418;-0.05152024;0.0011354983;0.24953698;0.0002554737;0.01135181;0.15818739;0.2031228;-0.12086686;0.0044904826;-0.10178749;0.028982434;-0.072432324;-0.04264549;0.30478325;-0.013747681;0.005918139;-0.041734546;-0.08879405;0.028850399;-0.093276106;-0.25336727;0.0153583195;-0.039990857;-0.16708499;0.0035249693;0.004892327;-0.007127407;0.0018069191;-0.06138626;-0.006881146;-0.14471179;0.11643358;0.33743098;0.020039156;0.1346563;-0.06445173;-0.22269273;-0.31876817;-0.21570069;-0.26908064;0.27101052;-0.027060809;-0.2913462;-0.24500206;-0.010624;0.017070573;-0.017685315;0.20121227;-0.097922936;-0.18249895;-0.019416874;0.0010469143;0.0046186754;0.008041494;-0.18295105;-0.19602172;-0.45887542;-0.0016861839;-0.10929739;-0.00806231;0.30963567;-0.043213286;0.009488657;0.008229531;0.023839502;-0.03312478;0.046196945;-0.0031976958;-0.26638618;-0.15007678;0.28168914;0.13407442;-0.2902272;-0.009469295;0.07185115;0.009031;0.00047973922;-0.15764502;0.06856954;0.039833024;-0.19483149;0.2932174;0.157158;-0.025691316;0.07425574;0.15564018;-0.044445112;0.09340084;-0.45291317;0.09524625;-0.0036330135;-0.016920118;-0.14650963;-0.00014780342;0.029660601;-0.06801442;-0.51541924;0.28323525;0.1461735;0.004905124;-0.005231986;0.0067230794;0.01766199;-0.0067489035;-0.21341886;-0.03030614;-0.0033126974;0.14110516;0.001353769;-0.0026058888;0.24753971;0.05906629;-0.4753173;-0.012628092;0.0061932695;0.015126718;0.14508153;0.006503397;0.0017787232;-0.14260149;-0.45937407;0.007511467;0.19275446;-0.02312176;-0.0875958;0.14753634;-0.0020531637;-0.31716546;0.034671806;-0.15460102;0.005491743;0.05810291;-0.0065620486;-0.07036978;-0.014952178;0.0030228682;-0.022389313;-0.0010415658;-0.20416936;0.054422423;0.055069417;-0.10948546;-0.14693733;0.117696114;-0.030277848;0.04145114;-0.002440637;-0.10495062;-0.008738582;0.00062420947;0.026301995;-0.02096016;-0.0020488475;-0.21637774;0.003969038;-0.0042549316;0.18106577;0.011050663;0.027163045;0.053051475;-0.010135041;0.0066340393;-0.007300648;-0.35316455;-0.17544518;-0.40258044;0.001311739;-0.0056687915;0.018015383;0.033199232;-0.2312554;-0.021316206;0.060251128;-0.018854432;0.100744344;-0.008914197;0.009689767;-0.1622133;0.010740592;-0.0033548165;0.07177385;0.3768718;-0.045872796;-0.027337776;-0.12747118;0.16216488;-0.20801929;-0.0033292724;0.0006625214;-0.00057548156;0.012486131;-0.19909094;0.13247724;-0.39856818;0.15162477;-0.000827956;0.12347454;-0.34825876;-0.18030013;-0.0854011;-0.34721076;0.056014;0.008541401;0.06910585;-0.0076206513;-0.032812983;0.09302454;0.12433393;-0.015071181;-0.074116245;-0.07947196;0.027883079;-0.32440656;-0.1083973;0.04689359;0.34414688;0.1922122;0.0237216;0.16569892;0.33586767;0.004541476;-0.007901062;0.002098586;-0.14296512;-0.084452584;0.18034501;0.1800192;-0.0013071018;0.024700534;0.08128318
-0.14895754;0.33267128;0.023313494;-0.13731389;0.002879621;-0.12278941;-0.107432045;-0.0004853804;0.09341812;-0.027075116;0.015000522;-0.05483934;-0.005683738;0.0002866832;-0.26159847;0.009628499;0.014002383;0.049884945;-0.04725227;0.014353652;0.11854282;-0.06297244;0.124565095;0.07678549;-0.0051141703;-0.23289625;-0.0054730843;0.02539083;0.0040649856;-0.08154141;-0.22036193;-0.17502241;-0.19270173;0.009748585;0.006218672;-0.0015396719;-0.0048229615;0.2563474;-0.45403564;-0.15491557;-0.021967733;-0.033716645;0.06132707;-0.1082975;-0.06743741;0.028070265;8.0203274e-05;-0.007191654;0.001957344;-0.17206563;0.0015349733;0.38891342;0.016476803;0.1110126;0.3290022;-0.0070331222;0.19580866;-0.054936495;-0.020133067;0.015534102;-0.019682618;-0.118789405;-0.0031544915;0.010056226;-0.3394565;-0.2409836;0.010132388;-0.0059859394;-0.06630545;0.0024628737;-0.4650958;0.0017688684;-0.055424005;0.24789183;0.16592875;0.010095826;-0.043884594;-0.17357491;-0.00459945;0.0038135957;-0.0075238612;-0.1710685;0.0040460923;-0.008920058;0.29113623;-0.10272028;-0.000893652;-0.32258004;-0.00056061294;0.0010334582;0.03218129;-0.012266815;-0.17397952;-0.09854194;0.10211335;0.13716324;-0.27153128;-0.17528234;0.016715907;0.27001908;0.13801138;-0.108816735;-0.069663264;-0.09645831;-0.25758636;0.13644825;0.06541181;-0.40242332;0.07697468;0.015473551;0.28830174;0.042012755;0.0030264081;0.32435235;0.0009913789;-0.00015220283;-0.0027589723;0.0565345;0.32377502;-0.5025621;0.11413142;0.034512863;0.18785562;-0.08768034;0.11511238;-0.037839938;-0.09837676;0.076206274;0.2303505;-0.2743739;-0.065625355;-0.13061616;-0.24936353;-0.00040612643;-0.036172166;0.010857194;-0.27082762;-0.0016610955;0.3366522;-0.034100566;-0.009702508;-0.023045134;0.10656901;-0.1920574;0.08099669;-0.0056386883;0.090771936;-0.012041798;-0.16510385;-0.002200525;-0.0076043615;-0.024591452;-0.0024155634;-0.06604462;-0.013086778;-0.24643533;-0.039399937;0.17102875;0.0027206058;-0.025975743;0.10067908;-0.021250365;-0.10916248;0.0139792785;0.00837849;0.03090213;0.009779536;-0.27493903;-0.39582482;-0.17681836;0.10796119;-0.009118298;0.07673706;0.093738884;-0.3285928;-0.11201448;-0.0055976985;-0.32373074;-0.16093467;-0.0011608716;-0.0050424566;-0.010049927;-0.10038519;-0.0072198473;0.010528302;0.05022799;-0.00805971;0.17467764;-0.28555807;-0.015297296;0.23089363;-0.31329396;0.08818777;0.00527155;-0.2114306;0.07186911;-0.073509015;0.03856473;0.35754478;0.3565682;-0.26985547;-0.09883547;0.031443365;-0.1984747;-0.10443523;-0.019312434;0.19835459;0.17654479;-0.34471563;-0.1513417;-0.022999657;-0.26102218;-0.17767648;-0.002129987;-0.029418547;0.0040150774;-0.06508681;-0.21639541;-0.008751638;-0.14104556;-0.48165512;0.111246414;0.44401482;0.0038536624;-0.2891154;0.060450714;-0.097396605;0.06662469;-0.06338387;-0.02148248;-0.30117467;-0.02789725;-0.10208888;0.20200011;0.045967977;0.3258516;0.2429837;-0.01093091;-0.28857735;-0.015737806;-0.01752312;-0.36454156;0.09624396;0.021971025;-0.089733765;0.12448103;-0.11156334;0.2850095;0.00016241652;0.0014020697;0.10039803;0.027047792;0.2095765;-0.099390686;-0.0045629647;-0.08172131;-0.20941499;-0.2089811;0.028083144;0.0055045504;0.32976174;-0.15386443;0.017584411;0.0038729175;-0.0013166124;0.08628032;0.15686871;-0.26453167;-0.065655105;0.2168136;-0.08765501;-0.122787006;-0.029130159;-0.09776731;0.0046762493;0.007369077;0.08303462;0.10868772;0.010887805;0.008866949;-0.008866039;0.09669685;-0.113658026;-0.16367133;-0.21757022;0.23855332;-0.0046707056;0.0054592188;-0.014187966;0.29218602;-0.3343831;-0.007672435;-0.10613109;0.24154727;-0.18592897;-0.017441696;0.21627924;0.13123013;0.020180877;0.005089405;0.10253127;-0.004382994;-0.00025848523;0.08870311;0.34548378;0.018367136;0.034747485;-0.02404306;-0.17304842;-0.014559703;0.074351735;0.011459751;-0.18009582;0.00046835965;0.1738766;-0.6582734;0.09309331;-0.14277942;-0.31628034;-0.0037590193;0.048546787;-0.24822819;0.21123844;-0.008373839;0.008052483;-0.2822197;-0.06305068;0.004026836;-0.091472894;-0.014572046;-0.003055332;-0.018621646;-0.010190026;0.00029392264;0.13051943;-0.0072412146;-0.19686158;0.14569622;0.16409586;-0.03327936;0.0045900973;0.18355106;0.012448804;-0.19039871;0.08071114;-0.3354014;-0.39019156;0.044834778;0.048926942;-0.013855001;-0.018029472;-0.07158632;-0.017317953;0.020076081;-0.010414142;-0.06705379;0.107960306;-0.15348482;-0.25802606;0.32997978;-0.00963357;-0.00093589386;-0.29718894;-0.031656843;-0.07906296;-0.3748703;0.093827315;-0.20008184;0.0007431878;-0.19659355;0.006059282;-0.011163817;0.007861614;-0.21949382;0.16011058;0.00926684;-0.07273683;0.056363933;0.5512793;-0.078477;0.023118146;0.036232535;-0.34459504;-0.3719577;-0.3769343;-0.22185598;0.31243792;0.025365397;-0.50483626;-0.39743036;0.3490229;-0.0076360824;0.01754291;0.0040582377;-0.110098764;-0.3700699;0.01623695;0.0030475645;-0.0007786374;-0.013600435;-0.23178568;0.15395468;-0.26246813;0.011688088;-0.039883446;-0.00096488855;0.17807126;-0.0024331124;-0.14437471;-0.008663818;-0.0038726078;0.30694404;0.017911064;0.015039595;-0.30176434;-0.1893547;0.05755537;0.18285559;-0.16783375;0.04625223;0.06531146;-0.03667966;-0.0061765476;-0.13120231;0.18225582;0.112505585;0.032934703;0.09738091;-0.08038256;-0.017083012;-0.13392578;0.005065179;-0.35104817;0.19458193;-0.009812839;-0.10396625;4.1177165e-05;-0.037284665;-0.00841777;-0.0062050633;-0.013965461;0.11884253;-0.54977787;0.16649573;0.10442283;-0.0053364625;0.018295702;0.121827126;-0.021157002;-0.013738228;0.03601266;-0.2681167;0.0061736526;0.10925446;-0.008310188;-0.010947334;0.2814737;-0.060002305;-0.42181018;0.32157758;0.14413418;0.0081047;0.23594145;-0.0035328714;-0.018684857;0.034412865;-0.08398835;1.4011312e-05;0.034687757;0.16932356;-0.028181517;0.028802356;-0.0041027176;-0.14289096;0.1496729;-0.1424934;0.1808978;-0.1588151;0.015275432;-0.19730826;0.02838985;-0.005241205;-0.021202775;0.019550143;-0.34261802;0.100680545;0.07627483;0.059292044;-0.13060838;0.03374271;-0.003737792;0.35974696;0.008019102;0.10351971;0.015977819;0.008152459;-0.22557807;-0.062208973;-0.025837764;-0.122153424;-0.025379658;-0.24755451;0.2552068;0.04981338;-0.022011656;0.07773735;0.016457107;0.015968425;0.07479858;-0.19865504;-0.02612509;-0.35958618;0.011150057;0.0070594256;0.117658734;-0.0124652935;-0.18493299;0.085175246;-0.023282843;-0.0064721555;0.15529913;0.0032702496;-0.11953275;-0.05673728;0.0019709747;0.008614881;0.04300535;0.3457858;-0.13095295;0.008023337;-0.13943917;-0.1122376;-0.13468617;-0.24971622;-0.0067349635;-0.0015519678;-0.0061726146;-0.43354666;0.06731916;-0.39136258;0.052750062;0.005975275;-0.11590147;-0.027619986;0.06641462;0.12342563;-0.4313894;0.14402673;-0.01896568;-0.009458136;0.009466494;-0.047012374;0.004736936;0.11632434;-0.008384959;0.08562077;-0.14679839;0.27963793;-0.25250602;-0.14022402;-0.040467855;0.34910154;0.061393835;0.0006113996;0.13316877;0.2417709;-0.111071125;0.0062139723;-0.015644757;-0.22379354;-0.092588976;0.16664435;0.13744667;-0.044410784;-0.011720731;0.2021845
0.14155655;0.28879395;-0.0114474725;-0.2182576;-0.00931023;-0.10230277;0.1765926;-0.008693631;0.14394446;0.0064354017;-0.1341065;0.075000405;-0.015234616;0.0013673054;0.01739352;-0.00681888;-0.00606524;-0.055107083;0.03133405;-0.05819709;0.06528603;-0.12700069;-0.061052755;-0.12522587;-0.0030323784;-0.09228741;-0.011532898;0.09170361;0.110170215;-0.1868628;-0.3009157;-0.19936754;-0.012977991;-0.010707791;-0.012770543;0.0058515077;0.011322609;0.039379705;-0.5720011;0.18027678;0.006837686;0.032254808;-0.07454849;-0.15713106;0.08524697;0.07220018;-0.0028482927;0.025557365;-0.0014317662;-0.3227014;-0.015311724;0.22924927;-0.12609865;0.1328059;0.085332915;-0.0057186433;0.17166209;0.12402385;-0.029274935;0.009542259;0.008815571;0.13666412;0.012667654;0.007162792;-0.18185706;0.0058227824;-0.011810115;0.0061515225;-0.21695201;0.0042741196;-0.3093749;-0.012678771;0.09780136;0.14654325;0.0330809;-0.0012501349;-0.13436013;-0.327132;0.008055897;0.120150685;0.007472634;-0.26412758;0.009204081;0.024032146;0.04306493;0.0819662;0.009239361;-0.25263485;-0.006531171;0.010830681;0.089972585;-0.0035994374;-0.08383562;-0.17641893;-0.10026706;0.11650128;-0.24857414;-0.1615014;0.04095253;-0.09948615;-0.21099907;-0.19852987;-0.36465216;-0.054727245;-0.2820345;0.09261833;0.15391546;-0.36997408;-0.06198921;0.15832554;0.17472133;-0.2874014;-0.015001552;0.3101975;-0.00556415;0.0035588304;0.0014730195;0.10584763;0.28568658;-0.21698415;0.11927919;0.19728306;-0.06461538;0.24064745;0.031500768;-0.097193666;-0.06729862;-0.03419487;0.054906808;-0.16632476;0.022826957;-0.14706415;-0.11792559;-0.0014574594;-0.008152139;-0.017979762;-0.11878935;-0.011537598;0.28177285;-0.12501752;0.019839741;-0.12485584;0.28678223;-0.014785103;0.10778381;0.006835794;0.03885373;0.00395844;0.27019334;0.06533694;-0.0038462023;-0.12318033;-0.16570488;-0.06701652;0.18138582;-0.20080298;0.04178498;0.36104703;-0.0034236815;0.051927928;-0.07468727;0.00076592603;-0.2558385;0.00044393676;-0.009206481;-0.20991854;-0.012209153;-0.19772412;-0.050246138;-0.27606377;-0.09193227;-0.00018657952;0.095848024;-0.054692972;-0.43887943;-0.1262888;0.05186087;-0.17835076;-0.19776292;0.0022898368;-0.012575836;0.015966233;-0.01350964;-0.17343883;-0.0038335526;0.056680802;0.004155195;0.1154923;-0.10833853;-0.013429935;0.37349507;-0.32513952;0.017460063;-0.021968592;-0.17995243;0.024389556;-0.28411615;-0.051415585;0.32143772;0.40911114;-0.08843597;0.07330622;0.04150377;-0.33288953;-0.01897153;-0.12558895;0.20740852;0.13277768;-0.38981283;-0.21450832;-0.19251633;-0.33069202;-0.20403205;0.0016676271;0.013648885;-0.010055993;0.03132939;0.052678414;0.21374243;-0.21166368;-0.14325857;-0.10780378;0.23954102;0.004045606;-0.25082383;0.2651535;-0.18122998;-0.019855648;-0.12821141;0.008493754;-0.41510588;-0.05543017;-0.35099924;0.20501639;-0.2608951;0.16266921;0.28893778;0.0031071238;-0.21527547;-0.14856677;0.09565955;-0.30223566;0.06331491;-0.014966124;-0.13304582;0.103117615;-0.09503654;0.1642612;-0.007491078;0.072164446;0.22608835;-0.028687812;0.39652902;0.09148801;0.0024251954;-0.17995062;0.07976761;-0.11825077;-0.0034838093;-0.0012833286;0.1055608;-0.067978166;-0.008921411;-0.0064738085;0.017829817;-0.030303113;-0.01240669;-0.011432689;0.05246582;0.22779326;-0.016453283;0.029360663;0.39101806;-0.09206822;-0.00053049804;-0.0008562952;-0.0076086023;0.1388887;0.020740826;0.006811331;-0.0075974534;0.10822461;0.066811;0.012409158;-0.058849264;0.14814867;-0.012746817;0.22719432;0.0008242135;0.11159798;-0.118922345;-0.03327706;-0.23459686;0.2047239;0.13414027;0.26946718;0.35622662;0.018942488;-0.014305072;0.0020307093;0.22187127;0.021624833;0.0017866482;0.08065952;0.36830285;0.16053562;-0.053481575;-0.002035597;0.15074076;-0.2937947;0.149263;-0.0012029527;-0.15675671;-0.014050458;0.13034669;-0.2579174;0.041122917;-0.10269829;0.071616486;-0.007905929;0.21709666;-0.07141076;0.029014237;0.001852935;-0.009611899;0.031683527;0.0115451105;-0.0040426906;-0.060876504;0.03574704;-0.0036654852;0.014799768;0.004834909;0.016177792;0.056687776;-0.018166305;-0.30253124;0.052620813;0.26853895;-0.0899562;-0.0062483177;0.110558346;-0.016862847;-0.13593946;0.09253343;-0.28980085;-0.16017313;0.0668207;0.10387867;-0.00077580346;0.0070655295;-0.014580076;0.009462251;-0.012381634;-0.007955766;-0.08332213;0.006749239;-0.037533928;-0.33062917;0.14620051;0.01001581;0.0014790385;-0.18084385;0.14804527;-0.052469302;-0.29176483;-0.17013213;-0.19280098;0.345457;-0.28757274;-0.0032159658;0.018525498;-0.010221591;-0.40856916;-0.03149815;0.0071952976;0.051289175;-0.11766404;0.6263756;-0.23515669;0.042548113;0.01562744;-0.18977737;-0.15031035;-0.59888846;0.001642503;0.22885962;0.058595087;-0.39887345;-0.29559594;0.08985192;-0.011076067;-0.023397582;0.15096213;-0.1689866;-0.25239077;-0.01135124;-0.00028361566;0.0015890431;0.016229147;-0.20978367;0.32167628;-0.23380749;0.009860927;-0.23385268;-0.011027852;0.06871641;-0.011366056;-0.32348353;0.01582875;0.029393692;0.037973598;-0.10826699;-0.0026768602;-0.069525406;0.072010115;0.36291522;-0.0077585233;-0.106621936;-0.06341631;0.33630148;-0.10729506;0.021279916;0.18888895;0.210683;0.008493156;0.16079901;0.12253259;-0.25594467;0.040205155;-0.25720596;-0.07433538;-0.3386513;0.010398571;0.18503064;-0.11464604;-0.0023645826;0.00794047;-0.30670664;0.012165872;0.032531865;0.0779605;-0.6634771;0.048791673;-0.08931617;0.0108878575;-0.04377591;-0.10517425;-0.001314487;0.0036272535;0.33581436;-0.47599092;0.005745933;0.056363627;0.0064420225;-0.0016976658;0.052217945;-0.35962468;-0.4052401;0.5693787;0.02555233;-0.0032992323;0.22935729;0.009948536;0.02726061;-0.16991147;-0.040952027;-0.011393058;0.12973389;-0.06876834;0.07470885;-0.01576422;-0.018438607;-0.2969092;0.13416447;-0.041417163;0.11019381;-0.338082;-0.0063172164;-0.14480083;-0.033173814;-0.0035276546;2.7242284e-05;-0.014008943;-0.5578131;0.0673135;0.31302074;0.025710523;-0.29210293;0.034957305;-0.17230818;0.28331673;-0.0047533857;0.043078136;0.012467302;-0.014287198;-0.35274187;0.08159938;-0.0871317;-0.14090699;0.031706855;-0.05112046;0.16318774;0.25568593;0.005516692;0.21018337;-0.0005217184;0.006681697;-0.0451552;0.029146569;-0.052585322;-0.1629073;-0.0050806487;0.016920492;-0.18166794;-0.0044908836;0.009585116;-0.09946666;0.018111274;0.0026696366;-0.03308241;-0.011303878;-0.2844372;0.120292775;-0.0015986856;-0.004389971;0.1655501;0.35965762;-0.32516074;-0.0074190474;-0.26411235;-0.19789344;-0.14037552;-0.046562135;-0.03123026;-0.018326784;-0.0041867034;-0.31976986;0.08367258;-0.13133115;0.10074546;-0.016966006;-0.1888403;-0.12990615;0.039505057;0.19247264;-0.2477263;0.15469243;0.03313156;0.1666321;0.004695194;-0.11047409;0.11657719;-0.022043938;0.016684845;0.20065711;-0.1773361;0.24948527;-0.10749968;-0.26134795;0.043545958;0.1443674;5.6663608e-05;-0.0077642016;0.3281286;0.27547383;-0.021767553;0.0021167097;0.008805245;-0.41893175;-0.07945187;0.0041592456;0.38019666;-0.09419096;0.0030070816;0.30429038
0.26700622;0.04173933;-0.014790337;-0.08036157;0.008501176;-0.015778832;0.0013385318;0.0061516236;0.27582693;0.0012722522;-0.31927487;0.16008712;0.018783912;-0.0028894253;-0.31826565;-0.005459893;-0.007335943;0.17093553;0.04979143;-0.019551903;0.018541297;0.09923463;-0.011542217;0.02073516;0.029085891;-0.082850836;-0.009211052;0.17398553;-0.111119315;-0.19359782;-0.06509946;0.07224835;-0.14863494;0.010153748;0.009598662;0.011776784;-0.012256893;0.20448375;-0.3996419;-0.02920613;0.02773397;0.017630633;0.12736043;-0.09185564;-0.040107887;0.12099924;0.016024843;0.11372846;-0.010000775;-0.17981112;0.0015024766;0.23290445;0.025663646;0.15893714;0.12989232;-0.0068363934;-0.073822945;0.10998015;0.032910544;0.006101802;-0.005776466;0.040712487;-0.011403246;-0.011248633;-0.04386872;0.2209199;-0.004688047;-0.05872164;-0.3103526;-0.013240697;-0.10675727;-0.0038019859;0.071665;0.14051603;-0.090275586;-0.009849613;-0.1388274;-0.35632017;-0.0062159086;0.040513337;0.008184917;-0.019897856;-0.006167596;0.2628971;-0.10566525;0.13309266;-0.01435374;-0.19622561;0.036115564;0.0012436358;0.19721454;-0.002642038;0.025595168;-0.012827101;0.037018113;-0.010418149;-0.13750489;-0.090385504;0.0564581;-0.053524867;-0.05736844;-0.22090125;-0.48886555;-0.15141587;-0.24589562;0.13693294;0.18323629;-0.24827483;-0.08288305;0.13529912;0.20788908;-0.2578215;0.033536132;0.069534294;-0.22586451;-0.021000287;0.016340982;0.19590677;0.19273953;-0.12713403;0.08241155;0.31188932;-0.043122295;0.28049845;0.057410453;-0.01335393;-0.18412586;-0.10258184;0.018228998;-0.12924924;-0.16181959;-0.0342345;-0.2444597;0.001685656;0.025197163;0.019456157;-0.24693136;0.024242882;0.27318633;0.07035685;-0.019477503;0.08321436;0.17578727;-0.31779176;0.038486347;-0.0036939674;0.02948413;0.007920999;0.060986523;0.17983285;-0.0019837809;0.10917578;-0.21344613;0.15228023;0.08305286;-0.12204738;-0.14066194;0.16871679;0.0024902772;0.39967647;0.21068035;0.16884522;-0.31529212;-0.0033420017;0.017568238;-0.35423926;0.00520986;0.004469501;0.106444985;-0.09465525;-0.44952688;0.021261506;0.019469278;-0.05648329;-0.20038047;-0.101960294;-0.052446328;-0.13380378;0.03453384;-0.00873238;0.010952072;0.0036680046;-0.10647919;-0.36777666;-0.005970805;0.28014943;-0.005566579;0.19909798;-0.26615164;-0.0012998009;0.3308491;-0.21980222;-0.028616311;0.025688633;-0.02180264;-0.18840621;-0.21515588;-0.06314692;0.17933339;0.31574717;-0.18387465;0.13398379;0.17589363;-0.42367253;0.012156937;0.024947451;0.28309426;-0.008930428;-0.3436184;-0.15236422;-0.045973018;-0.6390289;-0.19149584;0.02083504;-0.024194764;-0.0015811359;0.10799147;-0.12379711;0.08375361;-0.1661315;0.117738165;0.0055525894;0.049888737;-0.009968767;-0.31165487;0.07786505;-0.08883299;0.09262265;-0.27852115;0.0006706842;-0.44686767;0.3121391;-0.13582802;0.36561906;-0.18336093;-0.041782416;0.05259603;0.0063410145;-0.17270476;-0.16747917;0.108697526;-0.0016816794;-0.059293024;0.0050079366;-0.27425745;0.039056566;-0.12901032;0.11040381;0.011256983;-0.0004380188;0.28643233;0.010259242;0.11850284;0.30443895;0.011393946;-0.19220808;0.0018237602;-0.05609897;-0.017688084;0.022017954;-0.09557862;-0.034855798;-0.0025107996;0.0065322486;-0.008730585;-0.13802129;-0.3219136;-0.029380517;0.21068642;0.091900945;0.11182234;-0.06161715;0.19357015;-0.11336932;-0.0023753205;0.004935945;-0.1433532;0.10091797;-0.009933284;-0.0026908698;0.0040121824;-0.20368005;-0.28249526;0.33664304;-0.024929255;-0.020080496;0.009369594;0.059599277;0.0022624917;-0.0074764746;-0.12467456;0.0067839194;0.08650564;0.0021558087;0.20864014;-0.14594892;0.04620569;-0.07607042;0.0105421515;0.0005362017;0.4251913;-0.0053578625;-0.011386709;0.20755981;0.3790619;0.16276668;0.12111694;0.017290263;0.20126532;-0.25981453;0.1477717;-0.005056799;-0.12168003;0.031273447;0.15226638;0.14937681;0.16214707;-0.1370848;0.034864333;-0.011258845;0.3429421;0.13443771;0.057571717;-0.007294976;-0.0033638128;-0.063198775;-0.23340066;-0.014068962;0.08695109;-0.018999614;-0.0038323617;0.014893257;-0.0013412855;-0.012817646;0.03451035;0.038447957;-0.25199482;-0.16921623;0.13193329;0.13128127;0.008815152;0.28578788;0.0101806475;-0.13650419;0.08147471;-0.0797159;-0.15804966;0.06547516;-0.041548993;0.01950189;0.0140477065;-0.31743783;-0.021172483;0.17022233;-0.0012197614;0.15608473;-0.16222802;-0.18367739;-0.42069143;0.19573133;0.027290793;-0.009881249;-0.13570258;0.27544183;-0.018190254;-0.32085097;0.0002879877;-0.19589196;0.29601777;-0.41286212;-0.01836088;-0.015534707;-0.0022489387;-0.32753396;-0.076917805;-0.0020362085;0.06812907;0.027238937;0.32722014;-0.043441415;-0.030832706;0.059067342;-0.09702128;-0.09801217;-0.509263;0.07190101;0.17139977;0.052145194;-0.47253385;-0.23294248;0.08709112;0.0042627202;0.028154051;0.16161239;0.030331887;-0.4651023;0.02134593;-0.0026003623;-0.00845469;0.006638988;-0.174345;0.2493855;0.013400489;-0.015764546;0.21708705;0.012828214;0.16133542;-0.05761603;-0.25561294;-0.0071744504;0.011563499;-0.021801893;0.16287258;-0.020176115;-0.23859374;-0.025171533;0.17079452;-0.16612183;-0.21515323;0.042681858;0.604118;-0.07372669;-0.033681843;-0.01598829;0.028660038;0.04156214;0.1120445;-0.32797882;-0.15737389;0.010380924;-0.30271447;0.06671015;-0.3380734;0.048609413;-0.158406;0.0946396;0.0113505935;0.01961862;-0.117343634;-0.0005469817;-0.04247298;0.17521551;-0.38006335;0.16399734;0.084260166;-0.0050439136;0.02969131;-0.042274307;0.0047344756;0.008420115;0.29023775;-0.13523237;-0.01606275;-0.07794152;0.0038692474;0.01863578;-0.029695706;-0.16245148;-0.11501709;0.44913208;0.052076552;-0.014205749;0.059663594;0.00057649886;-0.029032668;0.046962105;0.024460029;0.003512096;0.12762469;0.1810128;0.12282298;0.07733472;0.026044138;-0.20138662;0.04839689;-0.18739346;0.15019964;-0.048276093;-0.0045154444;-0.2504848;0.026771706;-0.027374294;-0.020048663;-0.008561124;-0.40722954;0.111557424;0.08758944;0.120385945;0.13635902;0.111713625;-0.21716917;-0.09459129;-0.0065658297;0.048329692;6.915287e-05;0.010351401;-0.19320579;-0.018973779;0.06969716;-0.006293219;-0.006300562;0.048901763;0.22425224;-0.06088597;-0.0072371215;0.08367012;0.0019104598;0.0017379906;0.05586747;-0.087409474;-0.08942152;-0.048754077;-0.005024411;-0.030109396;-0.16322264;-0.0037710546;0.11193247;-0.21964066;0.029258987;0.012194812;0.019262208;0.020845328;-0.27934954;-0.07180429;0.010090631;-0.00030339562;0.10512564;0.2690582;-0.20171705;-0.010400924;-0.20286253;-0.01335035;-0.24818811;-0.03411619;-0.019886063;0.034187417;0.008222167;-0.27588075;-0.027378745;-0.19828108;-0.032537088;0.011383785;-0.2590283;-0.11488858;-0.116702266;-0.011678044;-0.19057564;-0.07670686;-0.016037155;-0.0042912466;-0.009491857;0.13372587;0.31480306;0.0021629264;-0.019901317;0.2586788;-0.28205958;0.32437205;-0.14696631;0.040893868;-0.065946914;-0.15820245;-0.05565146;0.026319616;0.35301712;0.14951707;-0.25971332;-0.014669587;0.0006646519;-0.21557912;-0.096706234;0.010026747;0.48070174;-0.09792636;-0.0012362222;0.20706062
0.23739195;0.0153918145;0.026284307;-0.09527113;-0.015824655;0.024983525;-0.08143203;-0.015070532;0.23513523;-0.0064042555;-0.18683618;0.11378593;-0.014505243;-0.010659728;-0.344164;-0.0062273284;0.00059114944;0.14195515;0.2625814;-0.015670124;0.098845236;0.16267891;-0.080128126;-0.13986757;-0.0019143975;-0.18145443;0.016951753;0.17952318;-0.21747756;-0.097297;0.21891174;0.26425338;-0.07300823;0.0031154857;-0.014189191;-0.0023131124;-0.004607744;0.12273434;-0.30896488;-0.036837343;-0.16719738;-0.011697204;0.12329276;-0.20365003;-0.0039975843;0.17811055;0.0054190145;0.020982472;0.013680916;-0.14026026;0.0024532778;-0.04824585;-0.15760529;0.09633329;-0.015324327;-0.0016469626;-0.42427734;-0.051881757;-0.012269993;-0.014360256;-0.0077206013;-0.0730648;0.010362894;0.009251852;-0.19638124;0.0561667;0.003606992;-0.012392712;-0.31279135;-0.008366331;-0.36498398;0.0076679224;-0.1300421;0.072181426;-0.0942141;0.009612329;-0.097396;-0.10982211;-0.0011600833;0.118580036;-0.014605009;0.17507754;0.0072710672;0.035252713;-0.25744736;-0.12818444;0.0068435417;-0.310577;-0.018794505;-0.001284067;0.24901964;-0.012290126;0.14189912;-0.1657866;0.02151489;0.01982167;0.1600597;-0.21055196;0.18043713;-0.023324225;-0.19207565;0.1274048;-0.4397567;-0.21775882;-0.09823735;0.1285177;0.024541965;-0.41338238;-0.049291138;0.08957149;0.18501635;-0.34421915;-0.021729985;0.2250706;-0.22325426;0.017401744;-0.0018544571;0.07059032;0.17213966;-0.24795628;-0.0034909802;0.22192007;-0.16243626;0.41341466;-0.02803982;-0.11529324;-0.44953758;-0.23282447;-0.026055526;-0.20763986;-0.012733787;0.17936146;-0.23170318;0.0047200993;0.06895671;-0.02305892;-0.26353323;-0.015826039;0.14485049;-0.05413868;0.009977545;-0.29506084;0.22767574;-0.08443784;0.14151481;0.0025854106;-0.4058069;0.0063628657;-0.017854657;0.06478922;0.0016347505;0.0013991436;-0.24031556;0.06912491;0.01879198;-0.015560855;-0.29331622;0.11280657;0.0007692777;0.36103332;0.082816675;0.21061257;-0.29548475;-0.007472837;0.0029125481;-0.40854624;-0.0007567043;-0.09483;0.28447095;0.08531177;-0.017909335;0.0015328313;0.0489199;0.03828462;-0.24978547;-0.1093001;-0.004460037;0.0028498436;0.044783328;0.014261676;0.0026885828;-0.0060883756;-0.11087775;-0.144097;0.006459569;0.1674287;0.0051603005;0.118451275;-0.19716649;0.011347585;0.29319397;-0.11628898;0.0064403825;-0.011071602;0.043031126;-0.049428612;0.19122769;-0.066106915;0.082288764;-0.008713846;-0.1832896;0.10863505;0.022041036;-0.3975614;0.13495511;0.03361439;0.19415314;-0.23446521;-0.18475506;0.1657881;-0.21807842;-0.6353589;-0.17891605;-0.04212484;0.023491597;0.0023279807;0.20360854;-0.11304873;-0.04876126;-0.40884447;0.56099427;0.022126844;0.1736856;0.01796685;-0.29499182;-0.21668363;-0.067000695;-0.06442945;-0.3636144;0.008709498;-0.24263294;0.15277065;0.09682151;-0.04125394;0.034488864;-0.1782441;-0.11074579;0.002766783;-0.047753453;0.019482518;0.11746507;0.28191942;-0.16514425;-0.008456618;-0.22188349;0.10254521;-0.022421781;0.03893978;-0.009187946;0.019613078;-0.029464718;-0.0022723314;-0.36650887;0.23701109;-0.01056629;-0.21523786;-0.037516113;0.15557328;0.03257801;-0.008216349;-0.11018416;0.118067116;-0.004525854;-0.012836517;-0.006595368;0.051047638;-0.3134725;-0.17308341;-0.04185343;0.20350176;0.09654573;-0.05389643;0.01045294;-0.34178966;0.0004364625;-0.005400067;0.100201786;-0.025982829;-0.02200332;-0.010381286;0.0020186976;-0.094876006;-0.33726147;0.22325097;0.06706197;0.016483258;0.0025596889;-0.32070127;-0.0033365237;-0.17376447;0.179251;0.007058561;-0.25357687;0.15025054;0.1187368;-0.47911897;0.052710142;-0.01602758;-0.010352613;-0.0029685316;0.21695037;0.027916333;-0.004748529;0.14294086;0.26153517;0.3357221;0.13978545;0.019624174;0.03853632;0.11079926;0.17372948;0.0043476736;-0.14822325;-0.013979149;-0.19188417;0.57929784;0.20918603;-0.14134175;0.081679605;0.031576473;-0.23319517;0.18016529;-0.10771859;0.016610226;0.016683571;0.1476131;-0.3662052;0.016300276;-0.069609754;-0.006150658;-0.0009253699;-0.025282348;-0.0065459334;0.008475968;0.15067977;-0.008752434;-0.2089137;-0.13698128;0.10554108;0.027715886;0.0074955807;0.5946058;-0.0023520633;-0.3362306;-0.02360969;-0.042631797;-0.1107705;0.0010347642;-0.060168907;-0.013345056;-0.022534657;-0.1985933;-0.111622855;0.018047865;0.01412405;0.1745754;-0.1739371;-0.17924389;-0.3421925;0.2406001;-0.010034455;0.010696522;0.054031394;0.17661606;0.014936701;-0.32660267;0.15635245;-0.07620666;0.36956266;-0.18706614;0.0016823942;0.008169729;0.0076512345;-0.25334707;-0.12451029;-0.0019883036;0.088975586;-0.087879844;0.18901442;-0.07756138;-0.10966708;0.21245413;-0.24145375;0.35717374;-0.20313546;0.19785622;0.0057784645;0.06975589;-0.5518782;-0.20322591;0.09778169;-0.0046256124;-0.014868976;0.07601053;0.13297188;-0.1120831;-0.012750857;-0.0020419324;0.010378644;-0.0103384275;-0.1938726;0.023031108;-0.14207599;0.01256661;0.10830545;-0.0036544262;-0.0105512645;-0.31118366;0.072117805;0.012440765;0.144272;-0.057668;0.093791716;0.018884765;-0.04219717;0.08862853;0.01342999;-0.07072288;-0.16555555;-0.12133632;0.4479537;-0.016178569;0.029425973;0.16468434;0.34293008;0.17612106;-0.104140565;-0.023310304;-0.25415966;0.008292842;-0.2043914;0.023637407;0.037670337;0.25419864;-0.25078633;-0.074395716;-0.0003005875;0.024560912;-0.19146927;0.0011603425;0.027481737;0.34908417;-0.22191882;0.25032568;0.2883579;-0.01280476;0.007569537;-0.13607642;0.021037258;0.016343946;0.19258313;-0.06838308;0.008920511;-0.2891193;0.0018644329;-0.00041048115;-0.026335422;-0.6375792;-0.52032965;0.27493337;-0.4244938;-0.0010888668;0.017732367;-0.013460273;0.03367915;0.20513609;0.30785307;-0.0042298078;0.046816193;-0.006390201;0.23164107;0.14603797;-0.008474403;-0.079911076;0.17217067;-0.037964694;0.35956317;0.1980443;0.0077775586;-0.32525715;-0.00814508;0.028146485;0.06284152;0.009393846;-0.11493779;-0.07593762;-0.007282501;0.027447896;-0.014637503;0.020221092;-0.20246714;-0.2406915;-0.0046446365;-0.06893814;-0.0073468247;0.0010878232;-0.1470934;0.12697569;-0.23712361;-0.12869309;0.01995571;0.053570535;0.23818426;-0.094018586;0.012303914;0.21787848;-0.0045467266;-0.008258773;0.09269741;0.32516003;-0.114520624;-0.075654484;0.0018471612;-0.015385029;-0.14912806;0.00021122597;-0.15440425;0.12931032;0.102634065;-0.0037608924;-0.09160383;0.0001936053;-0.40238628;-0.16166161;-0.015658868;-0.0069140173;0.15027092;0.13697554;0.0098963315;-0.014185914;-0.3225898;-0.3630888;-0.21320371;-0.117085606;-0.0025222416;-0.00876371;-0.013622993;-0.20499648;-0.013419334;-0.3049727;-0.26147354;-0.010046867;-0.33979353;0.17183624;-0.25521353;-0.06638687;-0.052207336;0.017026618;-0.0022673742;0.026013112;0.014234357;-0.015958939;0.39939058;0.099291064;0.03251364;0.26654246;-0.20157512;0.18592626;-0.17000207;0.025044141;-0.07601909;-0.24755242;0.03750817;-0.023116544;0.33794978;0.120962635;0.12668532;0.013657423;0.0033067386;-0.19135524;-0.18619962;-0.13116618;0.56776655;-0.283729;-0.0043293443;-0.028255135
0.4060967;-0.034113985;-0.025947023;-0.18117929;0.00904211;0.17501557;-0.13690259;0.0091696;0.28762084;0.0067722425;-0.21066768;0.054220702;0.013681802;0.011549887;-0.101437636;-0.01448064;0.0061596595;-0.12509415;0.22861761;-0.1648286;0.1085085;0.15647073;-0.053843603;-0.23298311;-0.007950337;-0.11503538;0.0041447454;0.27794233;-0.41152453;-0.09087529;0.2519843;0.22370984;0.20393716;-0.013204069;0.0011975247;0.006366781;0.017358223;0.257014;-0.044578213;-0.11837179;-0.08381683;-0.025578517;0.1987628;-0.16130033;0.10169227;0.062734656;-0.0062329234;-0.08097252;-0.008546424;-0.023332255;0.015473319;-0.17890197;-0.07116339;0.10066463;0.058771506;0.0045659533;-0.43869907;0.367298;-0.0012631183;0.010783766;0.0059838584;-0.28803882;-0.0044322456;-0.008407558;0.11542877;0.017596425;-0.00410157;-0.028409384;-0.583824;0.047691993;0.038685605;-0.01355037;-0.010819432;-0.029197736;-0.16064633;-0.00083317707;-0.22175261;-0.22033586;0.000992033;0.0034361929;0.006006639;0.15101273;-0.012807236;-0.0064110556;-0.13748185;-0.06733443;-0.011748655;-0.57438624;-0.0054167723;0.009855042;0.18538453;0.011409612;-0.15325408;-0.15085848;0.12476066;-0.030724349;0.12044104;-0.099769406;0.23889047;0.03663139;-0.052588265;0.06446913;-0.23647201;-0.105469845;-0.19534966;0.08821909;0.0918969;-0.27326408;-0.0047241133;-0.20964624;0.15961589;-0.042022623;0.012990564;0.2810869;0.098166235;-0.017490238;-0.014375079;-0.18329167;-0.0015805331;0.024092676;-0.042462576;-0.07754141;-0.06134674;0.33319083;0.20333743;0.07454246;-0.26177847;-0.26217607;0.1584497;-0.21015073;0.10675026;0.12931532;-0.041023057;-0.0061366586;-0.018615777;0.0070223245;-0.01425887;-0.03097607;0.15720208;0.07211585;0.0036410687;-0.36320755;0.07193811;-0.021544619;0.15970743;-0.018188078;-0.37661216;0.0069444864;-0.022543168;0.072593525;-0.0011191352;-0.007256104;-0.33198187;0.1386786;-0.15742467;0.22332296;-0.0971477;0.14344545;-0.003316778;0.15964925;-0.040478706;0.27839684;-0.3033342;0.009384961;0.0066130315;-0.441345;-0.01101867;0.1542825;0.17232944;0.05306599;0.004640042;-0.028343763;-0.10187189;0.030700207;-0.23403622;0.024611644;0.03734137;0.073935844;-0.08818177;-0.0062424694;0.008691427;0.0028068305;-0.14034705;-0.3142141;-0.0129622165;0.055274192;-0.001749265;0.25426447;-0.09556024;0.009678353;0.44699112;0.028449096;-0.16443287;0.018531863;0.043032743;-0.15857892;-0.023027092;-0.056411806;-0.04194419;0.14686935;-0.23619536;0.23888378;-0.22556715;-0.17486131;0.006481905;0.07982232;0.096295886;-0.20337294;-0.13796125;0.030917298;-0.18061964;-0.35147136;-0.41602364;0.028814325;-0.002737501;0.0016527699;-0.009894541;-0.0229969;-0.0486133;-0.33244216;0.3461195;0.006544022;-0.20045312;-0.0012732502;-0.19956675;-0.04428046;0.12602805;-0.067810945;-0.058673352;-0.011239378;-0.09031356;0.08664384;-0.015095756;-0.12932818;-0.16055387;-0.2503238;-0.20806198;-0.005240818;-0.14061677;0.1525341;0.17367142;-0.019186217;-0.045553338;0.005585362;-0.18850504;0.039553195;0.019929849;0.043178327;-0.014678032;0.024574649;-0.26534662;-0.0026818777;-0.19340722;0.14982356;-0.0012543164;-0.39658678;0.17185435;0.16096447;-0.037978977;-0.00496217;-0.18222511;0.10170575;-0.0011357709;0.013701485;0.017167207;-0.03503744;-0.43784308;-0.043770384;-0.06440282;0.07523325;0.30203623;-0.10077067;-0.077673204;-0.12484172;-0.0019454916;-0.0025316759;-0.023813622;0.031657647;0.018976172;-0.008956772;0.018359173;-0.0046915105;-0.4701283;0.11345205;-0.024765585;-0.008649339;-0.010494818;-0.0046330057;0.009581207;0.089086995;-0.13177484;0.011733372;-0.33981913;-0.08341046;0.05206548;-0.40414542;-0.09533322;-0.18428808;-0.008906702;0.012516268;0.113635845;-0.030000174;0.0019187164;0.13732873;0.23347566;0.33194706;0.08027486;-0.034667894;-0.18501224;0.029775502;0.038033;-0.0060823984;-0.23209494;-0.0051731085;-0.1354476;0.2529405;0.25567746;-0.042460978;-0.05336344;-0.007844402;-0.29064447;0.23669213;0.0051487545;-0.01023165;-0.010993492;0.1472329;-0.32044962;-0.004968363;0.1739456;0.008342791;0.016544731;0.01510915;0.009522205;-0.031980686;0.16591688;-0.0045460197;-0.28300315;0.013494839;0.023368463;0.29913157;-0.0035863381;0.5473084;0.0065657524;-0.1742675;0.09289989;-0.24574813;-0.13500422;0.017507028;0.037504792;0.0007306672;-0.00022705008;-0.16159162;-0.17698967;0.039858732;0.02151341;0.003061273;-0.19041805;-0.17680249;-0.21736489;0.09723486;-0.027847098;0.0038275635;0.36516914;-0.1451003;0.06985037;-0.3641833;0.26785895;-0.12282566;0.32948256;0.018202186;0.00066119456;-0.0034445564;0.0009245323;-0.16097686;0.094757535;-0.01064958;0.03439439;-0.14314312;0.3598326;0.026990278;-0.25135472;0.026251834;-0.044278312;0.3496413;-0.31861624;0.09475314;-0.019838557;0.11742188;-0.5672407;-0.3248631;0.2876287;0.0047919615;0.0083900085;-0.00940378;0.07256459;0.21184285;-0.0024237658;0.0052122306;-0.0013008063;-0.0024078388;-0.1325671;-0.18587616;0.1268712;-0.0010369064;-0.096130714;-0.0009591418;0.097423926;-0.09833158;0.24022336;-0.010117704;0.27330056;-0.04950437;-0.071848646;-0.027514119;-0.13874812;-0.048161466;-0.19072248;0.1413764;-0.30816537;-0.1055983;0.35165814;-0.16981152;-0.022613531;0.12930521;0.09513656;0.022762012;0.1833181;0.11185167;-0.25297603;-0.018386692;-0.21098466;0.032070253;-0.2793553;0.50470304;-0.45688742;0.0014641199;-0.0075360783;-0.01719915;-0.05135344;-0.02110489;-0.0035563014;0.26807114;-0.15487447;0.09764778;0.24264711;-0.00054917514;-0.021191536;-0.0007510758;-0.035252444;-0.0074330023;0.32459515;-0.25571755;0.0013200822;-0.19351129;-0.007287494;0.0040511847;-0.27918127;-0.6245988;-0.023555312;0.024779953;-0.6534348;0.008082743;0.18203576;-0.0047666114;-0.01612083;-0.03493641;0.24126323;-0.0046090814;0.20838864;-0.069831744;0.017742679;0.14861825;0.0007248784;-0.08360346;0.14317971;-0.106289305;-0.0071409456;0.033229616;-0.01001417;-0.24217865;-0.002985868;-0.0021532134;-0.050474025;-0.0057498496;-0.35228938;0.09807023;0.17102921;-0.012238261;-0.10716776;0.21125112;-0.12943448;-0.35285625;0.015354035;0.09629025;0.0060815327;-0.006799721;-0.23208958;-0.11084378;-0.050480932;-0.0108990455;-0.022714855;-0.17496459;0.2679089;-0.28752598;0.006938582;0.24558811;0.0040607387;-0.014388163;0.05881411;0.40240073;-0.00416607;-0.102477424;-0.016779523;0.028075617;0.047695424;-0.014029914;-0.21661457;-0.1160968;0.11233183;0.00916064;0.06812373;-0.015840938;-0.14489028;-0.15063982;0.0046768594;-0.007581312;-0.060447138;0.06414344;0.16145039;0.040403254;-0.21718821;-0.030028885;-0.21427812;-0.090067655;-0.013536416;-0.01913782;0.016497353;0.01176897;0.14617278;-0.18203016;-0.22950391;0.011089552;-0.2778996;-0.019631134;-0.13090172;-0.10063331;-0.12539619;0.066792086;0.002885124;0.18417104;-0.019369584;0.072464675;0.24626261;0.13318813;-0.009302254;0.13337763;-0.27778754;0.11894053;-0.09446761;-0.033899367;-0.23242156;-0.2563873;0.13835308;0.009524382;0.029987045;0.19732939;0.10097026;0.0030514528;-0.00919065;-0.27394688;-0.10791952;-0.16495754;0.40797988;-0.062210705;0.002557524;-0.21430345
0.28490043;-0.1279795;0.0025784571;-0.17178869;-0.0070199957;-0.05186039;0.3054274;-0.0051767053;0.24823774;0.0017926361;-0.46340543;-0.025769567;0.002049635;-0.010816552;-0.072877765;0.017214397;0.0035241814;-0.18757959;0.13394473;-0.0024752559;0.11289872;0.06932527;-0.12796988;-0.1922802;0.0004044273;-0.51583505;-0.019312268;0.291643;-0.2638051;0.29473412;0.28718445;-0.06381904;0.1774669;0.022138586;-0.0047333175;-0.018872973;-0.008113182;0.039225236;-0.16179913;-0.11931624;0.07776954;0.014915374;-0.050501827;-0.22022901;0.055527896;0.14536004;0.00094404566;-0.043110594;0.002190445;-0.15402365;-0.021911878;-0.0120210685;0.12391966;0.10322195;-0.18348089;0.0030114467;-0.3469133;0.19884416;0.0005055291;-0.009770295;0.0041843657;-0.08017708;-0.007433127;-0.0040244325;0.14823577;0.05716804;0.003709048;0.087052494;-0.27291068;-0.046091046;-0.07293157;0.011932988;-0.06166678;-0.07027099;-0.15455373;-0.008072783;-0.20230411;0.020870252;-0.019681493;-0.0039223935;-0.01554092;0.2524359;0.007910492;-0.07770157;-0.010084313;0.05683001;0.016549155;-0.54785514;0.0057107094;-0.021642696;-0.101792485;0.001789381;-0.080367506;-0.07323862;-0.09005842;0.16871122;0.16303301;-0.118524835;0.44471878;0.029458217;-0.19631425;-0.16193196;-0.20093401;0.028811349;-0.16670372;0.09102312;-0.10869284;-0.112295166;0.0027509166;-0.17536831;0.14086239;-0.03606114;-0.013136126;0.21536854;-0.058638744;0.005516804;-0.004528962;-0.15369216;-0.048374668;-0.1698746;-0.095751315;-0.10897751;0.027910547;0.28076407;0.2202047;-0.14252155;-0.22836636;-0.04056369;0.23228207;-0.16856284;0.15460329;0.13994631;-0.06962494;0.011542063;0.008337239;0.012830622;0.15057053;0.022747627;-0.14973564;0.006238841;-0.020025555;-0.21426179;0.30859706;0.082924694;0.07234856;-0.005699052;-0.2823647;-0.004514962;0.22390735;-0.06635258;0.0063822963;-0.040899254;-0.22352032;0.23392682;-0.5885572;0.067560814;-0.09819331;-0.02467374;-0.0020274473;-0.053373445;-0.07082451;0.17339958;-0.23338479;-0.002424344;-0.039544147;-0.13248312;0.009434076;0.23580627;0.38890275;0.15085046;0.15951182;0.010230774;0.18930694;-0.2078962;-0.14011008;-0.01121862;-0.014385014;0.023056427;-0.070473514;-0.0014721898;-0.01210961;-0.0068457206;0.09172216;-0.023228468;-0.016704932;-0.06639001;-0.0023360935;0.12659717;-0.07679622;-0.016959319;0.30774274;0.06761643;-0.10491273;-0.012081869;0.012543596;-0.17080183;-0.24454427;-0.22377326;-0.0822358;0.13848476;-0.13608727;0.0877571;-0.1847874;-0.20049971;-0.0356556;-0.03834592;-0.12859672;-0.43413284;-0.16945702;-0.2447532;0.13146119;-0.26672554;-0.27062908;-0.016876942;-0.0070542996;0.0007326125;-0.1306062;0.10686218;-0.12556198;-0.18813644;0.23387109;0.0028995355;-0.30609798;-0.0006030041;-0.078203864;0.1541246;0.0131072095;0.081357926;0.112302035;0.0021425877;-0.047604963;0.13981178;-0.05248204;-0.4588316;0.02326179;-0.07902602;-0.47679973;-5.183479e-05;-0.017515121;0.033700578;0.1884344;0.036956333;0.20417756;-0.00031850685;-0.35443553;0.10017456;-0.0075358017;-0.07769558;0.028997377;0.0009796482;-0.27503583;0.00023562566;0.15184896;-0.06202684;0.013870735;-0.4289059;-0.060147732;0.1060075;0.0041431948;-0.010598003;-0.15065631;-0.027276387;0.009952467;0.0032555244;-0.008674884;0.041614316;-0.12819378;0.038379043;-0.111050785;-0.1547725;0.35804337;-0.011622879;0.008723943;-0.0003527747;-0.018478844;0.0024107553;-0.19799778;-0.2453216;-0.009476446;0.0011216723;-0.013972715;0.22669844;-0.38836604;0.056453135;0.25195655;0.19390947;0.0070890645;0.0849424;0.0033419149;0.10271263;-0.3080424;0.03627984;-0.34338853;-0.3648746;-0.20777947;-0.3617801;0.016124673;0.22068083;0.0076664477;-0.003533671;-0.101042956;-0.03384425;-0.003702715;0.08075048;0.06791885;0.10702158;0.07692707;0.012912794;0.18379317;0.036214575;0.08617166;0.016953297;-0.012809475;-0.0005588719;0.008183528;-0.0946388;0.118307106;0.07144855;0.13553385;-0.0036426506;-0.18904775;0.29624552;0.11134471;-0.015046164;0.005879754;0.14221881;-0.2876835;-0.0059436075;0.2406407;-0.018421613;0.0034343034;-0.022952916;-0.0050788894;0.010144952;0.16111992;-0.0012189884;-0.33854482;0.068618156;0.093416065;0.28963068;-0.003633798;0.30501863;0.01256182;-0.31648406;0.047715414;-0.07829865;0.09303445;-0.007427729;0.007927624;0.010028786;0.011712321;-0.23752233;-0.053560197;0.007546361;-0.014145514;-0.29740408;-0.13297322;0.21660876;-0.16569091;0.08467289;0.018971952;-0.0034795823;0.27080113;0.04385815;0.043003943;-0.15102793;0.115672305;-0.1729515;0.25189534;0.40075558;0.014802509;0.0031231744;-0.008835655;-0.13390371;0.26274732;-0.0031633466;-0.10370015;-0.055393618;0.13728537;-0.14935763;-0.22625285;0.023677414;-0.07254417;0.14653559;0.13037774;0.058004893;-0.15966088;-0.0859618;-0.7292137;0.121144935;-0.03550106;0.01648177;-0.012652091;0.107975006;0.046246912;0.1930019;0.008576943;-0.0023427708;0.017768541;-0.002026326;-0.08574183;-0.21553096;0.03894526;0.0015578311;-0.07439847;-0.0036649741;-0.22751625;-0.10937772;0.085548215;0.012570699;-0.008043587;-0.09303525;-0.1321546;0.032112505;-0.061125528;-0.04272971;-0.0032291494;-0.12050813;-0.42209607;-0.39818347;0.22340634;-0.29722232;-0.00080281566;-0.23425886;0.1063476;0.03521829;-0.08452278;0.022563284;-0.20554367;-0.020106992;-0.19368155;-0.04568222;-0.3133007;0.4212017;-0.44488066;0.106234975;-0.00073579076;-0.017430581;0.06622312;0.0058754287;0.0032267717;0.18188712;-0.10705191;-0.023378637;0.2356121;0.0019793613;0.029709032;0.11882091;0.024659181;-0.010853273;0.26566476;-0.24022512;-0.00073282793;-0.2937398;-0.0066978284;-0.015297404;0.07017967;-0.45267004;-0.2674427;0.030186964;-0.8768457;0.020993354;0.17176522;-0.0053949445;0.0048923236;-0.0013831144;0.11762548;0.0054567903;0.0634834;-0.21025407;0.13595119;-0.07296623;-0.00033653557;-0.19417553;0.31966183;0.12951642;-0.41526592;-0.045981094;0.018455058;-0.09267328;-0.006665146;0.033002876;-0.010651631;0.0089792;-0.27908665;0.06138921;0.006079041;-0.030400136;0.061999075;0.3743566;-0.20701133;0.0038491203;-0.011231551;-0.04894449;0.0038476656;0.010685788;-0.1583845;0.1006917;-0.108241096;0.19597408;-0.017170986;-0.2545257;0.027840555;-0.09110758;-0.018173458;0.37977648;-0.008537647;0.009235939;-0.11338319;0.1779717;0.095796496;0.35278568;0.009139042;0.005822366;0.17783894;0.020827478;-0.08181093;-0.044098306;0.06413546;0.004246845;-0.04648254;0.010123264;-0.11186318;0.046450958;-0.0019849134;-0.0059815086;-0.009001232;0.19833869;0.46366233;0.0057223164;0.1545306;-0.2320161;-0.12552613;-0.13827595;0.0037964073;0.014708811;-0.0062254374;-0.15345335;0.08565963;-0.17589866;-0.18479326;-0.0010542297;-0.30162185;-0.017867012;-0.007676079;-0.0065818992;-0.040055692;-0.048316684;-0.022288682;0.24752061;0.0058930316;-0.057110388;0.30838317;0.032388907;-0.001625132;-0.0038743694;-0.10196581;0.025736747;0.085155055;-0.0958991;-0.29745108;-0.5048307;0.2160577;-0.019349864;-0.20668715;-0.057858355;0.1319437;-0.011399516;0.019122465;-0.14111887;0.31668463;-0.060655665;0.48815298;0.1211769;0.0062885755;-0.20323312
0.20160271;-0.2035012;0.008954698;-0.1917051;0.0003452262;0.02058749;0.19930616;-0.008644897;0.32801178;-0.00479352;-0.390494;-0.039328944;-0.021987982;0.0028810273;-0.09392055;-0.009555033;-0.009605747;-0.16520554;0.10383887;-0.0046067797;0.1428184;-0.08263374;-0.05343282;-0.19525965;-0.0054086433;-0.33781797;0.013565626;0.35869095;-0.20815806;0.18796875;0.33682522;-0.09444923;-0.1384107;-0.026327847;-0.006968268;0.011421346;0.017922428;-0.058263507;-0.3508961;-0.31855634;0.08087633;-0.034778308;-0.09185959;-0.15753257;-0.1477498;-0.09159677;-0.0045505674;-0.01672454;0.0033716757;-0.17596184;0.00042025404;-0.07730883;-0.0544698;0.12518506;-0.022329228;-0.018553786;-0.3012503;0.05150987;0.035614986;-0.0085616885;-0.003297596;-0.09931894;-0.00293457;0.005847871;0.101033404;-0.1751986;0.0008191557;-0.06692288;-0.17618527;0.016379658;-0.14898148;-0.009679443;0.27656007;0.11046136;-0.03218399;0.013559174;-0.29002696;0.01725507;0.013806529;0.05899887;0.018095136;0.17077301;-0.009874767;-0.11888517;-0.1498285;0.020579243;-0.01038011;-0.48956516;-0.005186257;0.006838059;-0.27411282;-0.0048637493;-0.15781318;-0.1760127;-0.18606398;-0.10769426;-0.11320027;0.23264772;0.13193914;0.049059346;0.01025973;-0.18840975;-0.34277079;0.15745248;-0.06407987;0.12467221;-0.005767041;-0.2089135;-0.19628343;-0.016524661;-0.09900635;-0.114829905;0.007032268;0.2730608;-0.025480008;0.0051737903;0.015329013;-0.043814745;-0.06524318;-0.13651891;0.04239074;0.04637324;-0.09248841;0.23673469;0.32248518;-0.1207533;-0.36017767;-0.076987304;-0.0115588335;-0.21348417;0.12078829;0.048017275;-0.18741809;0.0014259301;-0.10494176;-0.007874998;0.049175207;0.030074894;-0.2503045;0.05689625;0.023552028;-0.15327589;-0.1212299;0.2784362;0.123940386;0.022036346;0.015257646;-0.00810543;0.055359956;-0.22163211;-0.004918516;-0.060904726;-0.25472048;0.10780065;-0.16783199;-0.072298914;-0.04281214;0.09628726;0.0061556436;0.2500512;-0.18777311;0.14864002;-0.086427115;-0.013638366;0.012517601;0.038486656;0.0044771214;0.34183177;0.33731583;-0.019838555;0.055701986;0.0001718668;-0.04361069;-0.22611026;-0.3171284;0.109479025;-0.00062950747;-0.0048952233;-0.06976959;0.009390752;-0.0076016015;0.009385072;-0.012373903;0.022376832;0.023953592;0.17439935;0.003612092;0.15999132;-0.14920917;0.015564386;0.4048097;-0.16515759;-0.13750134;0.015857695;-0.041371502;-0.016269755;-0.33313295;-0.34588337;-0.0908358;0.38161498;-0.043849476;0.07889913;0.0079315435;-0.16632372;-0.07355025;0.1053626;-0.14277922;-0.50625944;-0.3822846;-0.17004961;0.08496862;-0.053505477;0.11096783;0.0047997576;0.016550418;-0.013245635;-0.17549272;-0.044181004;-0.10515392;-0.108411044;0.07132831;0.050503835;-0.02582491;-0.007553754;0.17820977;0.066267796;-0.056405663;0.14651881;0.029313806;-0.0029852123;0.0856508;0.014175416;-0.017003957;-0.19243522;-0.33302876;0.12941457;-0.22863807;-0.005072628;0.13396665;-0.11090425;0.20421812;0.026178928;0.40937257;0.009726617;-0.43717933;0.13466719;-0.32033515;0.13365957;-0.0030119328;0.014026298;-0.42272455;0.003401197;-0.042767014;-0.29442528;-0.007850747;-0.25774312;-0.36046866;0.096526906;-0.020172752;0.009213183;-0.10940227;0.14911687;0.0024151432;-0.007233268;0.010628153;-0.05145717;-0.07119617;-0.029553382;-0.06433836;-0.04742012;0.27157333;0.0336411;-0.10621623;0.11319316;0.013094445;0.007923037;-0.323624;-0.13639183;0.012582765;0.011308116;-0.00025395202;0.0127672255;-0.33420888;-0.044771016;0.47210172;0.27315477;-0.0063042557;0.022076879;-0.006822071;0.097727835;-0.18853237;0.16131827;0.005265577;-0.35715023;-0.30120695;-0.22689041;-0.13303474;0.19273359;0.015743526;-0.005565014;-0.14952683;0.042177998;0.014872542;0.1027229;-0.1079997;0.042077992;0.29173702;0.0013554507;0.23486105;-0.030286545;0.18671805;-0.019656928;0.08129463;0.0036786522;0.12161732;-0.13097726;0.12662749;-0.050549097;-0.046622913;0.0073110047;-0.28007674;-0.06655833;0.20707753;0.019415205;-0.0035193432;-0.00023398713;-0.43242612;-0.00042326108;0.1937283;0.014688246;0.0006118215;0.0030442176;0.0042389394;0.0064803967;0.20820847;-0.011667011;-0.49519798;0.053900827;-0.1698959;0.17121027;-0.0056401026;0.03977724;-0.0055955825;-0.0577756;0.06303081;0.03421534;0.17996219;-0.08571608;0.115463555;0.010043643;-0.0097224675;-0.08230745;-0.060918488;-0.15745531;-0.0038903167;-0.20370513;-0.177573;0.38416803;0.03432235;0.031621523;0.022604296;0.009940342;0.098842576;0.17275815;-0.029680092;-0.0123530105;-0.107491806;-0.06587806;0.08052743;0.5814034;0.00032465113;-0.015319714;-0.014847728;-0.38721392;0.22052622;0.006488;-0.2988075;0.13289528;0.22031526;-0.32602617;0.085674286;-0.049866468;-0.061868675;0.0746903;-0.06366014;-0.008531797;-0.15895793;-0.04518437;-0.45550513;0.10074449;0.14098541;-0.026437398;-0.006571896;-0.096773185;0.048362043;-0.026540242;-0.011618083;-0.0006951536;-0.017746976;-0.008193184;0.14577429;-0.12584667;0.12612088;-0.0004441516;-0.0098462235;-0.012291039;-0.32044634;0.18427461;0.17138518;-0.0002023203;0.030193022;-0.038707666;-0.0043046665;-0.012933742;0.02978026;-0.057188317;0.16505238;-0.11758369;-0.16543008;-0.25611457;0.082050964;-0.22838503;0.0080829775;-0.103236996;0.12057716;0.13449886;-0.16259588;0.09191367;-0.19645746;-0.038870417;-0.17244853;-0.07987862;-0.22805804;0.4782956;-0.1835819;-0.117652394;-0.0044607655;0.012833254;0.19527644;0.005541346;-0.009747425;0.12122793;-0.24972197;-0.14741091;0.05838733;0.0014659858;-0.033684198;-0.09489159;-0.009080114;0.00874083;0.2597381;-0.2801691;-0.005876631;-0.21669887;0.010987754;0.013180282;-0.04273275;-0.057556007;-0.20006101;0.20231189;-0.6508817;-0.023338715;0.1285956;0.014436007;-0.0012606997;0.1945993;-0.070825376;0.0005410442;0.12976609;-0.1269061;0.000226915;0.13109636;0.0025211205;-0.077299535;0.5036677;-0.053613916;-0.43096095;-0.10136109;-0.021727968;0.036943104;-0.006855504;-0.048652537;-0.07193632;0.003217781;-0.54433703;0.08721332;-0.1522109;-0.12473564;0.04521546;0.26843598;0.01344495;-0.33434394;0.008035469;-0.19276108;-0.024211131;-0.009929158;-0.115618154;0.08120002;-0.14188349;0.27140582;0.018813344;-0.1554578;-0.078907266;-0.21960257;0.011000748;0.23669298;-0.00071877026;0.009818639;-0.05751717;-0.009483195;-0.21827525;-0.1158463;0.0043214248;-0.003552461;0.22593126;-0.005774075;-0.0932913;-0.022064844;0.03961608;-0.0034016548;-0.006308635;0.0037048298;-0.18591869;0.16305602;-0.0049214438;0.0071955365;-0.14027736;0.26823074;0.4902076;-0.028018456;0.123431556;-0.10078954;-0.22687086;-0.028320862;-0.049010303;0.0056371465;-0.0085189715;-0.18910679;-0.041344527;-0.25172734;-0.2470092;0.018780421;-0.038347322;-0.25500754;0.14296131;-0.008387463;-0.07795844;-0.15670505;0.018253157;0.49827585;0.00064306037;0.17891763;0.3099878;0.079157114;-0.0076657874;0.031609118;-0.09190184;-0.010473243;0.06803328;-0.14406922;-0.20416187;-0.46611583;0.23646076;0.018408138;0.09243346;-0.10733875;-0.2893593;0.005211018;-0.024868218;-0.2904648;0.35547552;-0.12206807;0.2811301;0.10448129;-0.009595455;-0.2375737
0.26852486;-0.17518492;-0.027122254;-0.21318202;-0.0006244004;0.09246797;-0.097613476;0.013387725;0.26097974;0.0031333852;-0.28419188;-0.3668747;0.011331786;-0.0006722206;0.1679519;0.0002740912;0.0025606141;0.0128345955;0.059579305;-0.08849997;0.04831513;0.00408259;-0.04528034;0.049872883;-0.016473064;-0.15948805;0.005351441;0.17045346;-0.21391419;0.22160977;0.20066775;-0.061485667;-0.28566805;0.03265097;0.00048714734;0.010051074;-0.013019763;0.07286954;-0.18688425;-0.18694851;0.10958429;-0.04195538;-0.103328906;-0.004274875;0.06782028;-0.09326054;-0.01172314;0.02147393;0.008531378;-0.071267545;0.0020062365;0.009454916;0.045176126;0.061445165;-0.088258915;0.02126014;-0.17514779;0.16547664;0.014101669;0.010633356;0.022728937;-0.072654925;0.017570531;-0.015375164;-0.06183552;-0.09438182;0.0040102783;-0.0028123723;-0.30146188;-0.03183059;-0.17173274;0.011187715;0.14431278;-0.052542754;0.053137332;-0.0071826545;-0.26975116;-0.13068508;0.003596008;0.19339138;-0.0002579675;0.105130546;0.0077887876;-0.017010259;-0.12878129;-0.098076165;-0.004444573;-0.29500493;0.01003581;0.0027928539;-0.1263081;0.014504122;0.14206584;-0.24661292;-0.28910866;-0.24419828;-0.39658546;0.085606456;0.06545743;-0.09788994;-0.18355222;-0.21004286;-0.14546873;0.18108463;-0.15725201;0.19348054;-0.09279302;-0.033197712;-0.046970937;0.015815122;0.026046578;-0.2831714;-0.0006764478;0.28583187;0.034275606;0.016963065;0.0038213008;0.025994185;-0.062257316;-0.25348002;-0.12906721;0.070435256;-0.013832754;0.19660269;0.2773678;-0.111590914;-0.18704015;0.035723407;0.023971453;-0.08523522;-0.035793405;-0.27404243;-0.17823756;-0.013327908;-0.14518152;-0.00078185706;0.08174154;-0.017077027;-0.28510875;-0.09046487;-0.0117371455;-0.12595968;-0.26469687;0.22719231;-0.062485088;-0.014627721;-0.08717539;0.00053553114;0.12247493;-0.08506158;-0.0027205097;-0.06864192;-0.14638355;-0.33049408;-0.023183858;-0.107075326;-0.01613579;0.2543478;0.005448012;0.2680539;-0.1626829;-0.09700899;0.032835588;0.021847371;-0.08305985;0.2503121;-0.017640488;0.09853812;0.35414857;0.11659271;0.064068556;-0.0045047337;-0.15359281;-0.353643;-0.3159095;-0.011469474;-0.028155731;0.18401265;-0.022855366;-0.008349326;0.0032133884;-0.016039787;-0.0113436;-0.13827524;-0.006057031;-0.07852638;-0.0047072624;0.054576345;-0.35116515;-0.025265204;0.2374994;0.015384635;-0.059518635;-0.012016747;0.065333806;0.11065752;-0.26288196;-0.18254149;-0.0014603873;0.26786423;0.03887067;0.20960285;0.35413542;0.22570615;-0.1146344;-0.08507391;-0.07146036;-0.51729625;-0.21548812;-0.16185115;-0.17767923;0.20751962;0.21079165;0.002125305;-0.010732605;0.016219636;0.028284006;0.153021;-0.07729334;-0.17058289;0.18998995;-0.09432902;0.0028274404;0.005436635;0.04746605;0.115963645;0.05030451;0.12844774;0.08280426;-0.00045288377;-0.02207935;0.098913;-0.08894342;-0.27655002;-0.24783781;0.060641993;-0.39059874;0.0052040513;0.051797297;-0.15916497;0.18791415;0.065648876;0.3194645;-0.007023649;-0.16993695;0.33860257;-0.28013724;-0.2896973;0.00447292;-0.022749064;-0.41429463;0.0011098951;0.03316967;0.12788475;-0.006793472;-0.37704444;0.09206123;0.07741632;0.0139487265;-0.0044464497;0.06654377;0.1901496;0.0040716613;0.008239813;-0.014062533;0.028511396;-0.101641454;-0.035781804;-0.09107218;-0.2347858;0.24900597;-0.27345267;-0.2996163;0.12366003;0.018504031;-0.01994881;-0.117961705;-0.10738623;-0.0070144744;-0.008941726;-0.0058736973;0.13526237;-0.14540914;-0.09717784;0.30386907;0.06554537;0.0034019111;-0.17917731;0.006777007;0.021811375;-0.32171035;0.08488143;-0.21912597;-0.30684793;-0.07379037;-0.020759372;0.04983592;0.017908012;-0.0004540123;-0.005397837;-0.22075383;0.014988592;0.0033723086;0.146793;0.099255726;0.031654112;0.11671768;-0.013488122;0.06762103;0.07080697;-0.102090836;0.000944205;-0.02411408;-0.0065095667;-0.11459737;-0.3200692;-0.0034948573;-0.24382995;-0.0491617;-0.0055260127;-0.057945505;-0.002407675;0.16098787;0.0041673356;-0.0076043988;0.0017878863;-0.35198173;0.008302445;-0.16155949;-0.037488993;-0.021748371;0.012863878;0.0019446173;-0.0039558974;0.18337971;0.0016531734;-0.42974404;0.20717485;0.05827304;0.13956244;-0.012134853;-0.17670381;-0.004085507;0.23896468;0.053706024;-0.1402585;0.115037255;0.043846097;0.21344182;-0.0059568966;0.0018361361;-0.031502716;0.0784941;-0.2866268;-0.014137554;-0.2350274;-0.2713442;0.2962992;-0.040024336;0.0822806;-0.011475523;-0.018139025;0.10096529;0.057920486;-0.07217049;0.13062052;0.083705075;-0.1572496;0.0120684495;0.30566043;-0.010123021;0.018591492;0.013691864;-0.3406342;0.120263375;-0.007960485;-0.17552187;0.19943887;0.23881054;-0.4013796;0.26459974;-0.103368;0.02053344;0.16814718;-0.15663345;-0.111008175;-0.15474385;0.041978683;-0.2788014;0.41547075;-0.111226544;-0.012279885;0.013617322;-0.1288484;-0.04398114;0.14086801;0.014595978;-0.016688876;-0.0001767981;0.016886897;-0.10273565;-0.028426833;-0.26190907;-0.02151008;0.031359583;0.014245608;-0.21327534;-0.0035837875;-0.0006330694;-0.008713262;-0.03178944;-0.019263031;0.13665429;-0.0015017171;0.14782797;-0.037610564;-0.07659606;-0.10680324;-0.15131274;-0.2510082;0.2518676;-0.03149926;-0.023553053;-0.02721268;0.19974619;-0.060529787;-0.44047248;0.07151157;-0.20227826;0.012729834;-0.11036055;-0.13570389;-0.025012499;0.26588443;0.018092033;0.06383025;0.00060409325;-0.0251484;0.04627179;0.0104814675;0.0071381796;0.065357365;-0.10558943;-0.07512952;-0.0511277;0.014432681;0.019662386;0.19710839;0.002416634;-0.0024258287;0.29639375;-0.3525004;-0.0047505214;-0.07819887;0.0020296723;-0.0039043566;-0.13752829;0.27235094;-0.11416164;0.02206607;-0.35885334;-8.116763e-06;0.008718325;-0.005094501;-0.0074357498;-0.053739946;-0.01365684;0.007677565;0.13559023;-0.11730269;0.22375226;0.14849384;-0.0036707064;-0.071699;0.3055116;0.28586727;-0.4784846;-0.13250576;-0.006862323;-0.01756331;0.002008841;-0.010591796;0.026468886;-0.0021885002;-0.55861485;-0.004475104;0.11667068;-0.11165698;0.2277354;-0.19069201;0.12016437;-0.16401213;-0.0037163699;-0.17170615;0.027724955;0.018924909;-0.2161289;-0.0017294463;-0.071799904;0.110069364;-0.0071705906;-0.17186572;-0.061753612;-0.5054363;-0.011622257;0.109327696;-0.0050495886;-0.017281242;-0.13025893;0.08286519;-0.20353156;-0.08395252;0.01802439;-0.013093257;0.18751754;0.0068283346;-0.27724856;0.0027410216;-0.11407554;-0.0024293703;0.09360732;-0.012419582;-0.18346588;0.5284149;0.0061867186;0.0038679685;0.07900509;0.27333394;0.4538972;0.013715783;-0.051064678;0.028406706;0.017010523;-0.14721763;0.017926967;-0.013515204;0.012724766;-0.13050005;0.09238117;-0.14537138;-0.14932697;-0.004021397;-0.011327544;-0.34302288;0.011118668;0.082491875;-0.25227582;-0.07318429;-0.0010220599;0.49033734;-0.00015351392;0.13832128;0.2546012;-0.07812961;0.009916958;-0.06151561;0.23985887;0.008493123;-0.075461134;-0.1381735;-0.38472965;-0.22557935;0.28605872;-0.0013023017;-0.16384993;-0.4307492;-0.4521849;0.00088292226;0.007324377;-0.23613791;0.27499616;-0.310748;0.34196064;0.036179814;0.010561762;-0.14371662
0.12252679;-0.020519802;0.027918369;-0.13553196;0.004152898;0.0041880417;-0.31834024;0.0166947;0.0711864;-0.0074798055;-0.23425412;-0.43290544;0.0063297646;0.0077295876;0.18018086;0.015280144;-0.0053546648;0.00038299695;-0.13802437;-0.08344123;0.0046862573;0.24579558;0.043565523;0.13619743;0.03277914;-0.18625386;-0.0056160884;0.032473594;0.075506724;0.1574716;0.28683403;-0.19469263;-0.09404013;-0.024393912;0.015600177;-0.0064375983;-0.0074914633;-0.005167232;-0.27698988;-0.5459458;0.17425694;0.041524187;-0.048835244;-0.0025705034;0.007100045;-0.29274908;0.010569409;-0.021430722;-0.010907144;-0.26683187;-0.0053509506;-0.21541157;0.12060762;0.16598159;-0.10434774;-0.0008431365;-0.005996817;0.28291044;-0.0008467634;0.0018273514;-0.023098577;0.1530925;-0.0066078887;0.0130491555;0.0540237;0.2974535;-0.0057998565;0.033678524;-0.41261703;0.027872112;-0.15899198;-0.0077107167;0.008504431;-0.31854033;-0.28462568;-0.00093939446;0.0022670864;-0.019338964;0.003952356;0.19090238;-0.0017624976;-0.040469583;-0.014285078;0.07070898;-0.4062567;0.03201217;0.019462368;-0.22233433;0.006490028;0.002400571;-0.24672034;-0.008251;0.20230047;-0.59264815;-0.17026106;-0.16510607;-0.4051112;0.049932543;0.07385495;-0.42062822;-0.05460658;-0.09952113;0.24563839;0.11073127;0.04169384;0.2709228;-0.06977118;-0.057948563;0.09302399;0.00045485972;0.27766213;-0.17894696;0.00065476145;0.08917229;0.029270612;-0.017328097;-0.007359077;-0.018726964;0.019193364;-0.25319222;-0.15645336;-0.22427553;-0.0425969;0.052471746;0.37253678;0.04905903;0.0022500644;0.23654474;-0.089179434;-0.033864714;-0.16424689;-0.20155667;-0.2242665;0.016559696;-0.0396382;0.007918579;-0.035072852;-0.013615445;-0.2938442;-0.1799617;-0.009201424;0.043025568;-0.3370651;0.09640776;0.35480437;0.0031878245;0.09305969;0.0031446365;0.14655977;0.09110141;-0.02231135;-0.088514894;0.10531502;-0.07118187;-0.079600334;-0.17274262;-0.123005144;0.08926959;-0.0016490918;0.28491095;-0.2306398;0.052570067;-0.1081552;-0.0056026466;-0.013565627;0.13579458;0.020287788;0.035527032;0.3120909;0.3085173;0.10427736;0.015798695;-0.2545767;-0.083466396;-0.07358701;0.14033996;0.00057630765;-0.113581836;-0.30438158;-0.014048713;0.0035274203;0.028327733;-0.17299423;-0.06649269;0.0064403834;-0.033501964;0.01348285;0.0062534614;-0.05794978;0.012761938;0.18795659;-0.16117714;-0.084635355;-0.004619043;0.24427012;-0.07604317;0.028504875;-0.22715044;0.15302752;0.13294506;0.21976063;0.1911255;0.29964405;0.2845618;-0.2243629;0.018512158;-0.14610763;-0.4774713;-0.16937624;-0.40386683;0.20586176;-0.17874068;-0.015225953;0.007315935;-0.0015338039;-4.138007e-06;-0.027770681;0.33512497;0.12657948;-0.0010616457;0.1334921;0.038458314;-0.051745407;0.0016566794;-0.011248111;0.12886472;0.17080949;0.052842412;-0.08885603;-0.0033562751;-0.1330508;0.0789651;0.16849281;0.02527224;-0.1593077;-0.14605634;-0.45162085;0.0052808616;-0.09704885;-0.056444984;0.1859576;0.2936406;0.2832661;-0.009985035;-0.059174526;0.36888888;-0.22594386;-0.32511535;-0.011878147;0.0035490294;-0.4115034;-0.008405099;0.10129433;-0.10322986;0.009287423;-0.19950813;0.15279484;0.09728564;-0.01672035;-0.00048674952;-0.049847577;0.06685296;0.0022077851;0.005913995;0.010703443;-0.024742046;0.050482787;-0.2903671;-0.14025252;-0.28713372;0.3916702;-0.11268959;-0.020514248;0.053327907;-0.008292438;0.016492758;-0.09798889;-0.0262327;0.0048992205;0.008644325;0.0005330036;0.056708347;0.009236961;0.038229883;0.27907586;0.0038219648;-0.009015183;-0.075515896;-0.01834504;0.14039518;-0.3817384;-0.0008655198;-0.24136864;-0.13546984;0.17107119;0.023206962;0.19807185;-0.3735727;-0.023322986;-0.008734945;-0.53501856;0.010023054;-0.017078571;0.09215089;0.05607069;0.07876348;0.080457754;-0.0052263336;-0.058656093;0.22943275;-0.051539715;0.02536923;0.017448237;-0.00021349393;-0.024667582;-0.30853578;0.0043633534;-0.15431762;-0.078748;0.0022479254;0.016168462;-0.2821883;0.22405562;-0.014011787;0.00042456682;-0.06279352;-0.5232561;0.012639957;-0.42720795;0.0284054;0.0035058986;0.0071379915;0.006939446;0.016997624;0.30701733;0.006504205;-0.3787483;0.19752255;0.32650957;0.18298401;0.007425034;-0.09152271;-0.008793607;0.2547975;0.038284536;-0.01379597;0.0029867392;-0.09307248;0.24539605;0.008704545;0.0059729503;-0.38486692;0.19639906;-0.20270082;0.012200526;-0.019594109;-0.19280905;0.13453598;0.039107706;0.091016345;0.008744276;0.012500416;0.09594667;-0.032833688;-0.06377632;0.17627047;0.06431725;-0.16166057;-0.28868213;0.098351836;0.013324413;-0.0045752665;-0.002010464;-0.33043963;0.26889098;0.011810528;-0.13465089;-0.13832788;0.23961803;-0.17098098;0.085339695;-0.020346656;-0.048991248;-0.39943308;-0.33251488;-0.1805371;-0.053156797;0.05271054;-0.012310177;0.38785204;-0.16309486;0.023464357;-0.007987505;-0.15452962;-0.21258864;0.16792019;-0.019726062;0.019741548;0.0034441624;-0.014414319;0.0077547687;-0.029318966;0.012529115;0.01926494;0.025138807;-0.002069936;-0.07922692;-0.13583662;-0.03602816;0.018418033;0.027887436;0.0213487;0.18367584;-0.003978631;-0.055315454;-0.023312643;0.08471514;-0.08776558;-0.21494882;-0.18899779;0.27667308;-0.05376652;0.02275648;-0.10954418;-0.24133562;-0.2090616;-0.31838438;0.1255946;-0.095753886;-0.0019391751;-0.23893727;0.040992245;0.095372476;0.19093953;0.20728935;0.15134235;-0.0038796987;0.017188886;-0.12847555;-0.0036080484;0.019366894;-0.34796387;-0.14941162;-0.078112826;0.035760004;-0.017549656;-0.020847512;0.2252946;-0.00015890157;-0.0017519365;0.16669269;-0.31673703;0.0021328875;-0.213268;-0.0066886786;-0.015675189;0.21450272;0.3884701;0.039195772;-0.029340956;-0.24368553;-0.0017134111;0.09485118;0.0038592215;0.002736915;0.16552141;0.052365936;-0.011289847;0.07833484;-0.17364079;0.05591455;0.15055616;-0.013570252;0.015027075;0.18242161;0.4202547;-0.63746756;-0.43108407;0.007854418;-0.100516684;0.031549904;0.057663575;0.07460706;-0.0036079257;-0.4224659;0.03331234;-0.20783618;0.13436095;0.051830303;-0.13634329;0.3084462;-0.38793796;-0.0078070858;-0.3375053;-0.032432653;-0.006351204;0.030094896;0.062549405;-0.013488513;0.07868707;0.012132427;-0.21357273;0.15003243;-0.42520705;0.013117287;0.049602363;0.012149072;0.013724034;-0.036549788;-0.091349386;-0.23902893;0.16874297;-0.0116646625;0.0043142857;0.091735594;0.011102027;-0.38501006;-0.0028291526;0.19579802;-0.0072180773;0.09574287;0.012440584;-0.07777664;0.23365563;0.0074816737;0.0029407446;-0.039013155;0.033779014;0.23678909;0.015499866;-0.51828694;0.0304577;-0.3126798;-0.014214433;0.019514592;0.018506808;0.004671398;-0.024943164;0.02549508;-0.21654138;-0.012441462;0.007813871;0.044212446;-0.43351927;0.076409794;0.2610534;-0.092951104;-0.27235347;0.0034930643;0.3814715;-0.011476098;0.10956798;0.22961318;-0.064333;-0.008269824;0.16718782;0.11192867;-0.066822916;0.021408934;-0.20371902;-0.26577854;-0.24238464;0.28680497;0.0023888752;-0.4069595;-0.6868388;-0.15136284;0.0021417679;-0.00055038347;-0.14811149;0.13806531;0.020807914;0.22282532;0.079199195;-0.0050117276;-0.01744273
-0.08313465;0.00050140294;-0.020831095;0.096392274;0.012723557;-0.0036150322;-0.15353826;-0.035454188;-0.011602745;0.012033411;-0.14168815;-0.4584139;-0.01302763;-0.0005261371;0.21823722;-0.0025212208;0.004513439;-0.040072106;-0.12523687;-0.20726854;-0.039270397;0.21313499;-0.113434;0.21831675;-0.015619214;-0.1323351;-0.0035814943;-0.014177875;-0.012248146;0.12971072;0.17386267;-0.09720517;0.016545823;0.0066602;-0.012066332;0.006083289;0.00629954;-0.30571115;-0.3053452;-0.12597279;0.026627185;-0.021196837;0.043865077;0.030407706;0.21237873;-0.1721394;0.0057603833;0.001719602;0.009068403;0.13747859;0.01671897;-0.1075467;0.23636232;0.08117812;-0.1720944;0.0059541226;-0.0911314;0.27385855;-0.015010425;-0.00084276136;0.019337013;0.052416846;0.0017809821;-0.00093570334;-0.12860519;0.13894597;-0.0074004773;-0.028019693;-0.42082596;0.030227553;0.13514228;0.0069202418;-0.25289017;-0.33155563;-0.14260398;-0.0061057527;-0.081931084;0.059103314;0.0070262337;0.027953096;-0.004553745;-0.054880694;0.006951598;0.012212025;-0.30601048;-0.09635993;-0.012508999;0.06955235;-0.01716467;-0.0033410906;-0.34586513;-0.0026741503;-0.29102394;-0.6025752;0.0675082;-0.11545472;-0.0952313;-0.14987965;-0.03716241;-0.37137812;0.06914767;-0.04892364;0.3217652;-0.19409244;-0.0012270655;0.4183753;-0.0121257;-0.011935442;0.10143459;0.021703292;0.15722235;-0.2691354;-0.004625101;0.15419872;-0.032110516;0.0155622065;0.0011056754;-0.027462285;-0.40676752;-0.17849879;-0.05582727;0.039552838;0.065224096;-0.44145232;0.32853624;0.18791173;0.09464036;0.22287902;-0.058958452;-0.1272035;0.05252883;-0.0757994;-0.24845323;-0.00088452164;0.06507627;-0.0064306287;0.036019336;-0.020753354;-0.11235404;-0.2615727;0.0032736838;0.07692751;-0.47867912;-0.14190298;0.39214593;0.006609881;0.2762802;-0.00046805767;0.08954363;-0.020575497;0.033036284;-0.11918822;0.19192317;0.10695532;-0.3330654;-0.019145546;-0.06724062;0.2724553;-0.0021601636;0.22307992;-0.045918755;-0.026880471;-0.23017459;-0.0063748728;0.012230781;0.040573183;0.0024462547;0.011275625;0.29231116;0.13293079;0.08878251;-0.0050486885;-0.36559734;-0.23049149;0.07139283;-0.06225252;0.022526743;-0.22105289;-0.20409009;0.020932063;0.00020445546;-0.0038376092;0.1881688;0.17378807;0.0137874475;-0.115754105;-0.016860725;0.011219016;-0.04306813;0.009603988;0.08078088;-0.19521987;0.11544;0.01076912;0.34708136;-0.40146607;-0.07910469;-0.29872683;0.22677657;-0.14118402;0.16358903;0.20721449;0.38031206;0.121918276;-0.115798146;-0.09398373;-0.069830075;-0.39610898;-0.06729196;-0.2833334;0.10231927;-0.04381475;0.20811796;-0.006522663;0.028943712;-0.013738526;0.011716425;0.19255492;0.057683196;0.01880126;-0.055523623;0.09729445;-0.033745144;-0.005921489;-0.21801658;0.2792348;-0.059234113;0.3012477;-0.18790217;0.0028229132;-0.16441037;0.099038355;0.18641144;0.13584514;-0.19935957;-0.1481038;-0.5153156;-0.016340172;0.0711977;0.1483502;0.08285555;0.32168636;0.061942216;0.01366376;-0.071631566;0.30479893;-0.18366508;-0.44543412;-0.009642235;0.03542206;-0.3203449;0.0031810843;0.06487787;-0.09226015;-0.004830902;-0.083367705;0.17970216;-0.022206789;-0.005116811;0.007332938;0.091835245;0.017976267;-0.0014882302;0.0062723192;0.004048898;-0.008168378;0.13414986;-0.29209903;-0.0345448;-0.5982041;0.2535723;-0.29318547;-0.14333108;0.070750356;-0.0011252023;-0.006916608;-0.067305334;-0.007872414;0.0022057919;-0.004626841;0.002420632;-0.039003685;-0.105724245;0.28437018;0.14619182;-0.021670042;0.014556243;-0.2650087;0.021359157;0.002646477;-0.24816181;-0.22555698;-0.16521385;-0.1301997;0.03679526;0.2601617;-0.019240564;-0.2122336;0.011052862;0.008787994;-0.39144525;0.005755207;0.001997153;0.16708358;-0.029423684;0.050232563;-0.15491654;0.044088274;0.032862764;-0.044078816;-0.114038795;-0.022837833;-0.012791732;0.020053683;-0.17289197;0.00623058;0.02243031;0.08643597;-0.094366156;-0.017545165;-0.004578938;-0.14652751;-0.037611406;0.0073048742;0.00598235;-0.32965428;-0.33534342;-0.02633235;-0.48688215;0.00059417915;0.00052223343;0.0016100563;-0.0069375504;-0.004061739;0.10961507;0.0002627357;-0.20459424;0.12225496;0.12604764;-0.023599224;-0.008450513;-0.26630685;0.0006256001;0.14870276;-0.08380105;0.23608637;-0.15004313;0.113829635;0.31224853;-0.015488564;-0.0013340216;-0.0560767;0.004479773;-0.10002589;-0.006058177;-0.21246855;-0.087012574;0.21622038;-0.03963566;0.05147873;0.002347749;-0.010979901;-0.057351727;-0.0040016533;0.05004262;0.09750438;0.01541122;0.00019463027;-0.1156278;-0.21216887;-0.014046524;-0.0022541157;0.008302411;-0.35552174;0.3344754;-0.012599996;-0.15651849;-0.25654984;0.3074226;-0.34044755;0.13157289;-0.0793316;-0.00029913592;-0.1545239;-0.6225896;-0.5299819;-0.059300236;0.012200552;0.15932706;0.28383422;-0.29004756;-0.015630174;0.009113236;-0.034920126;-0.17158782;0.11631924;-0.0034098993;-0.004464569;-0.0032791595;0.004455205;0.048444733;-0.26434228;-0.0831947;-0.0009654277;-0.0004351998;-0.0064177914;-0.16671062;-0.41354337;-0.054534175;-0.019817272;-0.07393044;-0.17803828;0.13639545;-0.01027604;0.05043192;-0.094453365;-0.056223277;-0.006903667;-0.17314859;-0.21317299;0.27705455;-0.03592821;-0.0020299554;-0.36041358;-0.09533749;-0.17166992;-0.17371474;-0.07748315;-0.07917467;0.029410182;-0.18194944;-0.05265923;0.06958333;0.077756666;-0.0943641;0.21558781;0.0044908407;0.008005148;-0.16698541;-0.011596957;-0.035424415;-0.18116505;-0.1841536;0.09653525;-0.053483374;0.008467918;0.028619926;0.16919963;0.0040289788;0.020597985;0.11798891;-0.4358785;0.006555027;-0.15124153;0.002230632;0.00790512;0.06269523;0.64382434;-0.057937115;-0.04621528;-0.061191536;0.0062126913;-0.043897726;0.0034562869;-0.006739097;-0.080813184;0.36401552;0.018023005;0.005548827;0.047600843;-0.14597674;0.15519312;0.008511383;-0.09019594;-0.14216685;0.19181311;-0.47086716;-0.0654281;0.0025903755;-0.19561999;-0.013330718;-0.009678182;-0.060258042;-0.01998041;-0.5643429;0.16468975;0.0075775753;0.10719765;-0.14815362;-0.07953;0.03877529;-0.43065226;0.0064301584;-0.16066997;0.024221271;-0.024565006;-0.07301911;0.14514318;0.0040434403;0.18283702;0.011810189;-0.22160505;0.24406101;-0.41693625;0.014388697;0.16763349;-0.008927192;-0.0074345483;-0.0054025566;-0.2690327;-0.072943345;-0.20803626;-0.00051608257;0.008808614;0.0021846287;-0.009327613;-0.11008554;0.022098364;0.24562275;-0.009030585;-0.14348993;-0.001993976;-0.09489357;0.2446409;0.010542557;-0.0035312625;-0.115563996;0.0020417494;-0.08298552;-0.028981408;-0.48835415;0.07884539;-0.42200062;0.22471893;0.0057599708;-0.0140803;-0.008815316;0.024876136;-0.2408153;-0.12626758;-0.12216507;-0.0163193;0.027091047;-0.5283235;-0.10312735;0.25833157;0.20966054;-0.19908518;-0.006586657;0.2637173;0.029237084;0.23164143;0.13966344;-0.15985724;0.010541983;0.09598128;-0.13684657;-0.027975513;-0.121498585;-0.14154229;-0.22393975;-0.29936025;0.4468843;-0.01256223;-0.12101453;-0.4606042;-0.15316863;0.007595825;0.013388413;-0.20266303;0.050583825;-0.12689956;0.28843522;-0.06824836;-0.0174996;-0.03536339
-0.14623293;-0.09969789;0.029787218;0.08440359;-0.014245597;0.017049352;-0.041622426;0.033815205;-0.325997;0.0062260255;-0.16580735;-0.34599698;0.009740226;-0.0017085942;0.19107704;-0.009754401;-0.003802057;-0.13977532;-0.09325543;-0.12488123;0.06501536;0.1485844;-0.22580484;0.16132897;-0.0025236686;-0.01023075;-0.009224624;0.05636493;0.19537209;0.11642309;0.059126627;-0.21878861;0.13276425;-0.0020237998;0.006785349;-0.015798911;0.0011627947;-0.2424313;-0.41470057;-0.23705387;0.040673725;-0.029407162;-0.006638787;-0.026051257;0.11036411;-0.28182814;-0.0022809955;0.085713685;0.009351393;0.03424995;-0.008708451;-0.03403665;0.23228034;0.069128856;-0.26922384;-0.0031414977;0.0034003234;0.3638822;-0.0325876;0.008618311;-0.008378339;0.051448103;-0.00023314511;-0.009054151;-0.099406615;0.10375491;-0.01054048;0.016766174;-0.43596148;-0.035634674;0.13553078;0.0022097873;-0.08833781;-0.06360011;0.033037484;-0.0066968007;-0.015243349;-0.102516554;-0.0022751554;0.23024599;-0.0047997357;-0.47204545;0.009311678;-0.043652453;-0.14779702;0.001872751;0.011483819;0.011568693;0.012492658;-0.002696634;-0.25191718;-0.0021230641;-0.11970409;-0.41431573;-0.11854303;-0.07456003;0.029752031;-0.19284071;-0.0071496367;-0.21167749;-0.081302896;-0.11022007;0.199366;-0.19261862;-0.032203585;0.10682247;0.031086557;-0.17284693;0.060064252;0.1853417;-0.10306846;-0.046796456;0.006620915;0.20596175;0.09741543;-0.011604196;0.0070414767;-0.017598195;-0.58615184;-0.36060825;-0.13651308;-0.24417982;-0.012459359;-0.5249601;0.3514998;0.12641267;0.25076708;0.058272254;-0.006927047;-0.041436926;0.25302836;-0.12526327;-0.19533561;-0.013814737;0.2172977;0.00336011;-0.0084858285;0.016307412;-0.0529634;0.05922178;0.006588748;0.02754486;-0.5029161;-0.34288448;0.434919;-0.008024813;0.097068876;-0.0069001378;-0.16564901;-0.11463694;-0.02273562;0.003289319;0.19284986;0.1295054;0.1285044;0.024136752;0.03384724;0.21863085;-2.3391025e-05;0.038821045;0.14107665;0.08059018;-0.24812482;0.0007424362;-0.030424953;0.002240926;-0.009292253;0.2249169;0.080086485;0.18304986;-0.25466776;0.0049441936;-0.25327453;0.0764685;-0.023217842;0.031571906;0.004316682;-0.20168939;-0.15580703;-0.002715153;-0.018662162;-0.013779329;0.21076602;0.19549341;-0.035168596;0.0014151599;0.010147841;0.13832791;-0.030460216;-0.011858893;-0.062601216;-0.201132;0.02147756;-0.0012689716;0.48393238;-0.5912971;-0.24586006;-0.3385091;0.35528824;-0.08403023;0.30010587;0.12649469;0.12681375;0.29196414;-0.48531145;-0.14201425;-0.17547163;-0.24721716;0.04662305;-0.37287086;0.122076854;-0.35622296;0.07947134;-0.006899456;-0.03528131;0.012089242;0.05602879;0.0120422;-0.050510198;0.072766386;-0.1857143;0.25502753;-0.07606067;0.005336536;-0.26474607;0.61520106;0.16431478;0.15954012;-0.19447125;0.0054613673;-0.049721148;0.025264537;0.23992065;-0.058852267;-0.13728493;-0.12452137;-0.4218086;0.019979334;-0.09374786;0.30860466;0.18625596;0.48869696;-0.09585077;-0.009312466;-0.29957092;0.14237534;-0.18420705;-0.26489794;0.0015389466;-0.056005843;-0.17755097;0.0117426505;0.115937635;0.14151807;0.00022208766;-0.033607323;-0.07383888;0.022467546;0.08383716;0.0016516938;0.14013697;0.14910948;-0.007367329;-0.017526625;-0.016847467;0.11516037;0.032688048;-0.11443983;-0.0006646369;-0.12779322;0.30782688;-0.39624542;-0.17206168;0.13102196;0.007028375;0.00802424;0.02094608;-0.10932685;-0.014437311;0.009569272;-0.010860343;-0.03396476;-0.22317304;0.21071514;0.17846417;0.071820006;-0.005504024;-0.15068133;-0.014151715;-0.04812768;-0.1630974;-0.16363032;-0.22188424;-0.20156498;0.102214776;0.21808676;0.07214427;-0.09484647;-0.013107173;-0.0019796733;-0.09238253;-0.026660973;0.0055264067;0.07051393;-0.16937497;0.13149427;-0.30605495;-0.040973853;-0.18547079;0.09993168;-0.15011679;0.006239134;0.1651216;-0.0010677961;-0.17174363;0.16704114;0.11046969;-0.01223855;-0.07156193;0.002989977;0.18324463;-0.20263591;-0.14877827;0.004658645;0.004493917;-0.2407842;-0.0643613;0.0056861434;-0.14516816;0.0013745623;0.0062086526;-0.0008542386;0.006350574;-0.002950402;0.16751291;-0.008365222;-0.016822612;-0.006746005;0.040315952;-0.1283863;0.015778534;-0.07412788;0.010248098;0.1334636;0.15104839;0.13894859;-0.3446653;0.031330135;0.17401704;0.0014562433;0.012866799;-0.27284026;-0.1109334;-0.10450242;0.0032739847;-0.12826696;-0.22964253;0.2728793;0.10152973;0.0058049993;0.0062274206;0.011928018;-0.12552361;0.03931653;0.041683946;-0.26823917;0.20806825;-0.089209214;-0.10265045;-0.294852;0.0035826098;0.0147455735;0.002766503;-0.011606371;0.18178469;0.012766035;-0.111039795;-0.14710529;0.28400728;-0.20603897;-0.10543246;0.12704018;-0.31051177;-0.2484431;-0.49560916;-0.14655396;-0.11244846;0.19262408;-0.096063346;-0.19532213;-0.3819516;-0.0040992545;-0.00038116254;0.16430767;0.00837569;-0.008495158;0.013297192;0.0056843124;-0.012928258;0.0044949693;0.227053;0.0027278305;0.14045376;-0.0058212243;0.37578434;0.009378932;-0.22153287;-0.21770163;-0.26194462;0.0043914276;-0.013364431;-0.1225436;0.26430818;0.01588447;-0.16649823;0.05028697;0.015179409;-0.044826195;-0.069862716;-0.32050836;0.12103678;-0.16654144;-0.008256386;-0.42202783;-0.012973149;-0.18841228;-0.084905006;-0.33285984;-0.016948568;0.011797253;-0.32183015;-0.12988044;-0.2968663;0.10415269;-0.17128778;0.150406;-0.006697279;0.009550583;0.022290254;0.004099756;0.009730908;0.011438451;-0.07792571;-0.16802113;-0.025842218;-0.004185314;-0.023813028;-0.06447782;-2.9043891e-05;-0.005239307;0.07441053;-0.068493456;-0.010223999;-0.075270005;0.0013313758;0.019200914;0.124296725;0.23199138;-0.20544632;-0.12031332;0.06976015;0.011930808;-0.01094256;-0.0070688627;0.019465098;-0.17701112;0.21918353;-0.013076222;0.19702931;0.24447809;0.04682207;0.21266888;-0.0063895425;0.06194032;-0.15296568;0.040408477;-0.4440348;0.0048596463;0.0051256386;-0.29370794;-0.005099453;-0.039887205;0.061999008;0.02262645;-0.5387306;0.21132138;0.030754723;0.3224281;0.031926807;-0.22451992;0.23323372;-0.20351915;-0.012267514;0.3165168;0.010472414;0.020040026;-0.03951128;-0.1477854;0.2891975;0.26411933;-0.023440741;-0.16342907;0.17761874;-0.37075675;-0.011941345;0.11832684;0.0028825768;0.0061503537;-0.02518452;-0.28040817;0.042006623;-0.27788627;-0.0053060083;-0.028566942;0.008855296;-0.0010898127;-0.45218232;0.13101973;0.10855468;0.006873053;-0.14070569;0.004755436;-0.12040051;0.21902543;-0.016250141;-0.017793424;-0.20877421;0.09943971;-0.08623511;0.008869056;-0.57842696;-0.054011744;-0.5433223;-0.30022275;-0.071445994;-0.008555617;0.00424316;-0.07425961;-0.21873526;0.0057795835;-0.36321047;0.0047114925;-0.12779586;-0.4169812;-0.06603558;0.3398947;0.20397672;-0.20269245;-0.0052874805;0.057514757;-0.019566655;0.049190797;0.30240282;-0.04776754;-0.0015266705;0.14189555;-0.16863099;0.027192097;-0.109821446;0.09468948;-0.02797438;-0.116037264;0.22410533;0.0022968464;-0.09462789;-0.18926306;-0.2762223;-0.008504155;-0.024239354;-0.16409867;-0.29073122;-0.029939802;0.30645135;0.044269517;0.015881697;0.11000503
-0.16022979;0.043019112;-0.020058336;0.17250119;0.008479463;0.01663127;-0.4303239;-0.010057559;-0.4323125;-0.013929069;0.14499047;-0.35741535;0.007295299;-0.017621448;0.1587808;0.00717697;0.0067003793;-0.06648744;0.07232286;-0.2169144;0.1960496;-0.26221597;-0.1531347;-0.028223073;-0.0025278307;-0.11985425;0.0062698824;0.12861948;0.008241287;0.18978469;0.021846326;-0.49403346;0.10599688;0.011590223;-0.0028139462;0.013519856;-0.00045724583;-0.11015219;-0.1518487;-0.17591587;-0.085854374;0.0069951965;0.011738388;-0.25415716;-0.18450119;-0.25719902;0.003535382;-0.07199477;-0.023130229;-0.023526842;-0.010438855;0.13923842;0.118666634;0.058571927;-0.23511639;-0.012928662;-0.13394965;0.10023693;-0.0004987191;-0.0076153497;-0.003077304;-0.085901976;-0.00014005863;0.004598331;-0.068018496;-0.12989013;0.015155035;0.061192933;-0.3633655;-0.044546068;0.32123232;-0.002065812;0.22307076;0.0051117884;0.028535536;0.011468312;0.11056217;0.20345403;0.0008384493;0.13899854;-0.0065590697;-0.37132025;-6.462925e-05;-0.07790329;-0.42885217;-0.15837477;0.005286335;-0.18369938;0.007906383;-0.00060756004;-0.17604288;-0.004877628;-0.041121874;-0.39876097;-0.19723798;-0.20686801;0.12229461;-0.188215;-0.32692668;-0.13535938;-0.06602406;0.16750343;0.2577832;-0.14139614;-0.00043538286;-0.037935182;-0.07806193;-0.1618629;0.08782464;0.18231119;-0.069222145;-0.22686902;-0.005533322;0.20098862;0.049256958;0.0036024628;-0.008846279;0.09828968;-0.42521268;-0.27940544;-0.23811246;-0.15299238;0.02044103;-0.5808533;0.049167857;0.1313078;0.089248165;-0.02671824;-0.13442673;-0.059427932;0.18385734;-0.058527842;-0.23689853;-0.0023248456;0.16137516;-0.0134708835;-0.12048821;0.03385094;0.115675196;0.16985284;-0.019943614;0.0024269125;-0.64015007;-0.35854977;0.4551086;0.019906318;0.010502474;0.0107660405;-0.30195487;0.022133248;0.017721249;-0.16175482;0.10076831;0.35369694;-0.2693679;0.08602027;0.18851562;0.22169724;-0.00078930275;-0.0035649887;0.03886088;0.07097524;-0.34405777;0.0057195467;-0.005866898;0.05198674;0.016712127;0.2030573;0.073987;0.06681171;-0.37050048;-0.015465944;-0.27188504;0.18254855;-0.100869685;0.07738526;-0.038617413;-0.22730027;-0.096909694;-0.0090773795;0.011436937;0.0030982813;-0.11659199;0.29726502;0.007929933;-0.16070731;0.008498471;0.10008512;-0.04791902;0.010603368;-0.017466336;-0.22134693;-0.13175172;-0.011547117;0.2403921;-0.48321247;-0.19620007;-0.25333872;-0.016519638;-0.04881801;0.36257932;-0.055692326;-0.03271376;0.048032;-0.38501048;-0.049916416;-0.094686665;-0.13404061;0.14378041;-0.11423018;0.15259765;-0.3435378;0.04788111;0.01709317;0.021285111;0.0041011516;0.21745855;0.098315805;0.015661366;-0.014549389;-0.121475935;0.022161089;-0.071399696;-0.0008058521;-0.30024475;0.67842185;0.15465696;0.24581711;-0.13134147;0.003745916;-0.04827841;0.25949845;0.16753852;-0.26555863;-0.29695186;0.23172425;-0.303822;-0.0013204386;-0.2930134;0.24791288;0.218835;0.27189955;-0.19485089;-0.005666198;-0.2561895;0.22801742;-0.29616058;-0.48647225;0.0046197576;-0.057652082;0.10519638;-0.0059225294;-0.13343434;0.19119537;-0.003742483;0.16027528;0.08260248;0.046094496;-0.023983994;-0.0041905865;0.12273784;0.11545334;-0.0046239668;0.016961187;0.030655552;-0.036520246;0.009546659;0.009604578;-0.2689142;-0.24245793;0.11356809;-0.21464182;0.016749296;0.13313496;-0.013579898;0.010379155;0.09417736;-0.107960336;0.01602294;-0.015374306;0.007667431;-0.037201125;-0.1603293;0.3574689;0.3999556;-0.0036646968;-0.0012853645;-0.08060096;0.0026987768;-0.02570173;0.0371864;-0.38230315;-0.14592072;0.0023944029;0.2311931;-0.0007975385;-0.16699149;-0.30177993;0.019156272;0.0044598295;-0.06815157;0.050199315;0.006269512;0.055529103;-0.19228624;0.26064706;-0.42507556;-0.0071952096;-0.050463293;0.21055491;-0.04782832;0.0052776937;0.10373401;-0.0115385605;0.029998548;-0.1742859;0.1950019;-0.05259968;-0.23248866;0.005036296;-0.037416868;-0.29220656;-0.19826286;-0.012550714;0.002810582;-0.1585129;-0.3194201;-0.0031135883;-0.30006015;-0.002729027;-0.001238418;-0.013308481;0.0032977648;0.011586493;0.028573202;0.01806931;-0.22559966;0.020205494;-0.042571757;0.23697919;0.0023968408;0.039800305;-0.009407453;0.05767938;0.04031509;0.26464316;-0.1938883;0.06842797;0.36196956;5.3448246e-05;-0.021167444;-0.20014283;-0.13382293;-0.08709382;0.00078003004;-0.04776944;-0.14595702;0.1811938;0.006372098;0.10904017;-0.025965817;-0.015057427;-0.052806135;0.09352215;-0.091159604;-0.2476321;0.14740309;-0.17456746;-0.29218632;-0.31420633;-0.007816863;-0.013563842;-0.011078092;-0.08470372;0.008968449;0.00089145394;0.02398118;-0.026912656;-0.071470335;0.052729815;-0.2149546;0.20884311;-0.2202158;-0.07612734;-0.38621452;0.21549864;-0.46408895;0.07469026;-0.03533346;-0.31211558;-0.30129638;0.0139917955;-0.0026895683;0.21961199;0.15862395;0.17366315;-0.004661965;0.0009922215;0.012069806;0.0078593055;0.17832045;0.2703518;0.37081814;0.006487809;0.40900534;-0.003194695;0.06342525;-0.3120443;-0.18033281;-0.0025118468;-0.07731841;-0.41379794;0.25153485;0.0077387383;-0.13985483;0.3694802;0.31941736;-0.088228665;-0.06128173;-0.077679455;-0.15179408;-0.16909038;0.003059093;-0.11494252;-0.00020856387;-0.108923085;-0.14014462;-0.2067672;0.32950413;-0.010049344;-0.030269606;-0.060281873;-0.017655991;-0.047839127;-0.099440604;0.039375886;0.013486875;0.025214572;-0.23137964;0.0045353933;-0.014258563;-0.07119429;0.082660824;-0.02934019;-0.044788178;-0.005452386;-0.0006466817;-0.100041054;-0.0024431401;-0.004938542;-0.21560887;-0.03195907;0.004222168;0.017240819;-4.6502264e-05;-0.011493432;0.19276038;0.24971728;-0.27612147;0.0056888554;0.044379745;-0.011066784;0.06613366;-0.0063985847;-0.020223841;-0.45519203;0.04641343;0.007481171;0.16133334;0.060924992;0.23167388;0.19585802;0.015498503;-0.09438761;0.22202696;-0.084507;-0.28305;0.0351929;0.00084678706;-0.3875407;0.012932913;-0.009611593;-0.058940254;-0.018230546;-0.20868525;0.20256254;-0.039394896;0.044054613;0.09596359;-0.10017399;-0.04391511;-0.43357635;0.005998033;0.10815854;-0.020392455;-0.014052416;-0.1941887;-0.027970096;0.41658637;0.0911435;-0.006461573;-0.12191046;0.19148935;-0.3300423;0.011119613;0.18194075;0.010527439;-0.0057354956;0.06797216;-0.27665147;-0.00096148514;-0.23338799;0.0071475;0.008371091;0.11773561;-0.0045764996;-0.30902937;0.21413504;-0.114213385;-0.0038184803;0.0004744451;-0.006785428;-0.24176095;-0.079401635;0.012194659;0.015269457;-0.22574575;0.0028740943;-0.2960221;-0.011027816;-0.37306193;-0.06262251;-0.19192402;-0.4135891;0.08181008;-0.003117526;-0.0015285912;-0.050837517;-0.19424161;0.074628085;-0.31092444;0.0041951826;0.10101896;-0.20454757;-0.030822476;0.22761208;0.033907607;-0.18743476;0.013490388;-0.035433374;0.009661759;-0.012046771;0.11364881;-0.13184981;0.013905309;0.10026975;0.09196048;0.01671453;-0.07554557;-0.010686865;-0.22029962;-0.051006794;-0.042618368;0.0138235595;-0.1575163;-0.16416018;-0.25326917;0.00565395;0.015363041;0.008400466;-0.09277929;-0.10242993;0.33550867;0.3194754;-0.0001715332;0.079857305
0.0724619;0.2841108;0.012257771;0.12384142;-0.018160326;0.11161549;-0.43224582;0.0057846513;-0.530752;0.01175635;-0.1947705;-0.17676891;-0.007797527;0.014578854;0.3013778;0.015542782;-0.010009911;-0.16885422;0.010165696;-0.12743495;0.23512764;-0.34254837;-0.13635758;0.059128843;0.015860712;-0.26902857;0.00081109995;0.11965903;-0.2902759;0.111529365;0.13113865;-0.12474028;-0.04220118;-0.021476235;-0.0011973558;0.0013257482;-0.019438861;-0.17741099;-0.24926837;-0.17803772;-0.16951853;0.012060914;0.16201189;-0.15778719;-0.0641258;-0.1676549;-0.02339514;0.00014273248;0.020967681;-0.17252931;0.0008674885;-0.23854771;0.34738576;0.03721426;-0.19087729;0.0029820146;-0.010387817;-0.006035925;0.018842971;-0.019213311;-0.009198703;-0.081559174;0.01466111;0.0040180967;0.059014447;0.0074458253;-0.019697234;-0.04053887;-0.25421265;0.030085823;0.38227;-3.0405567e-05;0.15181157;0.24638706;-0.010338943;-0.0026330084;-0.03331116;0.054263033;-0.01328931;0.1991176;0.007295437;-0.17585258;-0.001729022;0.10792676;-0.3853495;-0.047782116;-0.008448274;-0.1076361;-0.01262685;-0.004364569;-0.28632402;0.0073798215;0.12650067;-0.16682288;-0.07280221;-0.29439706;0.06893192;-0.2683501;-0.3021604;-0.2897375;-0.112958245;0.26080233;-0.0074894135;-0.02165354;0.16620077;-0.21161832;-0.10937468;-0.013807304;-0.10089502;0.22337234;-0.093105674;-0.38539153;0.009762205;0.12898149;0.13977443;-0.0119234985;0.00042894267;0.1998756;-0.34019572;-0.10392052;-0.28495377;0.09856027;-0.110758394;-0.582246;-0.028796013;0.08873218;0.1435118;0.1119627;-0.19360667;-0.12271496;-0.121565826;0.076256566;-0.18293943;0.006439944;0.12548842;0.012250598;0.11102405;-0.004677157;-0.23033941;0.32369718;0.007613857;0.07286461;-0.19883418;-0.10059565;-0.10497968;-0.020479137;-0.029718047;0.0007503189;0.0091342805;-0.2279565;0.01248395;-0.20349823;0.10593201;0.34337327;-0.27869394;-0.05653741;0.06490568;0.09609786;0.0061746305;0.058392197;0.1422309;0.03028154;-0.3670559;-0.015369703;-0.004820879;0.01033905;-0.015686058;0.25636575;0.0091593405;-0.07361096;-0.094085604;-0.0017097766;-0.32849094;0.21226816;-0.2917932;-0.113779075;0.014959823;-0.13224864;-0.09587534;0.004484666;-0.0045904503;0.0014905848;-0.13905463;0.09237203;0.006652558;-0.16700101;0.009281003;0.02659383;-0.107860245;-0.0127372155;0.03533874;-0.05159898;0.14476238;0.020510962;0.0120666735;-0.2582193;-0.3779675;-0.30870306;0.028047763;-0.5250932;0.5009784;0.036274176;0.028788116;-0.051076546;-0.6313223;-0.0883371;0.09168164;0.00063514034;0.25073725;0.2235064;0.2258342;-0.40847164;-0.042844072;-0.010335407;-0.018467288;0.007139046;-0.12730464;0.02496845;0.20046987;0.12500824;-0.36629978;0.05167627;0.20132658;0.009135423;-0.055861037;0.49318275;0.2880978;-0.064513676;-0.25821093;0.0024262604;0.07828904;0.1535334;0.034468673;-0.30075815;-0.26888794;0.14367196;-0.067475356;0.011598626;-0.22432043;0.22294492;0.34265363;0.08444923;-0.02060174;0.0030506754;-0.34731248;0.120618;-0.22990276;-0.0018876174;0.014846795;0.0017008852;0.10701561;0.0016192691;-0.18839402;0.10141016;0.010933837;0.2957994;0.14091131;0.044503875;-0.04932151;-0.0007972927;0.30053645;0.050273575;0.010156314;-0.012843085;-0.021237733;0.014318305;0.022050908;0.062168337;-0.3003662;-0.1235179;-0.08341016;-0.08783718;-0.10382722;0.22476201;0.0073593506;-0.021339793;0.038382586;-0.15352096;0.019088313;-0.0086767115;-0.008471517;0.029333076;-0.13421585;0.5597189;0.28839314;-0.06221872;-0.0044784267;0.12140005;-0.0049410844;-0.055202063;0.05343257;-0.53518385;-0.3507418;-0.022122918;0.057451285;-0.18749651;-0.031079404;-0.43629515;-0.01542036;0.005104503;-0.18084729;0.009485485;1.0390067e-06;-0.10045734;-0.10937652;0.44913632;-0.6241603;0.025408648;0.24263856;0.07051626;0.061245922;-0.0057058195;0.06348232;0.01883314;-0.1459288;-0.087730266;0.21275477;0.20945646;-0.3552489;-0.0006173048;-0.20989624;-0.2550292;-0.32491246;0.026178593;-0.0014984431;0.17299017;-0.116519645;-0.0025692028;-0.019465515;-0.0051368345;0.0029985039;0.008022807;-0.013650868;-0.010106837;-0.008851813;-0.0021564348;-0.16525084;-0.17385767;-0.0056325626;0.0149299605;-0.019021237;0.047362894;-0.0022505543;0.09614789;0.10776907;0.3072335;-0.14850381;-0.09188424;0.28957173;0.00028265832;0.0067730066;-0.09419281;-0.08461675;-0.09941839;-0.0057371175;-0.008476539;-0.083810374;0.1950492;0.01848561;-0.0033299255;0.0031375017;0.009134726;-0.12095194;-0.058813468;-0.0045771385;-0.13953583;0.25121564;0.015692268;-0.21272008;-0.26410913;0.009499381;0.011426508;-0.006484568;-0.12649271;-0.022692474;0.0020899952;0.043880664;0.03184273;0.043216106;-0.18558842;-0.026028663;0.18815705;-0.13918304;0.08501295;-0.33260214;-0.11064847;-0.6534558;-0.03488082;0.16193011;-0.16369006;0.06958269;-0.0039746147;0.010516806;0.16186653;0.039022718;0.25430995;0.011720912;-0.012945923;0.0074766735;-0.015586174;0.28998983;0.10603346;0.35920724;-0.00014553076;0.12741563;-0.0007888699;0.31505993;-0.31278804;-0.097547315;0.01442671;-0.603961;-0.47120872;0.10355715;0.0062379455;0.022313237;0.17267314;-0.16042538;-0.007364744;0.0059501217;-0.033506628;-0.3701604;-0.18199193;0.0032889314;-0.20988697;0.05106567;0.11412312;-0.067633465;-0.12398315;0.09690728;0.012518936;-0.102985054;-0.0186664;0.077226765;0.13826482;0.08515661;0.042646013;-0.034283362;0.018733665;-0.22534275;-0.006571905;0.0046706526;0.06930848;0.015062963;-0.033097323;0.1204359;0.019516429;0.016896252;-0.1417855;0.014447414;0.0029988247;-0.069361486;0.23205204;-0.003826367;-0.008110509;0.0004695817;0.00031704476;-0.15117142;0.12784794;-0.37071127;-0.21422873;-0.1312245;-0.008218299;0.17110352;0.010093871;-0.00821399;-0.40016025;-0.26544538;-0.01871939;0.094391786;0.07750664;0.12292273;0.31975752;-0.010424425;0.052619603;0.037712224;-0.07762229;-0.39260656;0.19720398;-0.008870603;-0.174885;-0.021180231;-0.018873077;0.01196609;0.0056060096;-0.29698086;0.25849503;-0.22171383;0.1980725;-0.31836438;-0.15309662;-0.07913936;-0.46871787;0.0013700741;-0.13110389;0.01209279;-0.0035887603;-0.25847584;-0.24067634;0.24554227;0.18521018;0.026061267;-0.17868397;0.20651813;-0.10231;-0.003628539;0.116923116;-0.022874886;0.009521208;-0.0048642154;-0.27908516;0.076042846;-0.27259478;-0.015592571;-0.0069362195;0.006367434;0.0103198895;0.038127262;0.12096747;-0.3386156;0.009747721;-0.010919253;0.0074366094;-0.026004663;0.054692596;-0.015397712;-0.0032468317;-0.16297956;0.048919313;-0.56698537;-0.0011641405;-0.21712506;-0.2565923;-0.24068171;-0.26580995;-0.046771433;0.0044547347;-0.008611859;0.080921456;0.080017;0.09507343;-0.13148266;-0.0027302771;0.13763526;-0.48224676;-0.12300505;-0.072650984;0.122797966;-0.24489935;-0.0057339524;0.1982759;-0.015111534;-0.0049783923;-0.00031544908;-0.043562435;-0.02501502;0.0036290872;0.18217695;0.055121616;0.08129129;0.02728106;-0.030576505;0.0057463585;-0.15923578;0.009182198;-0.24004588;0.007945823;-0.08534688;0.009818875;-0.008291995;-0.020394381;0.06618273;0.0014766493;0.29763234;0.043696716;-0.0066452175;-0.12723419
0.08003031;-0.11128869;-0.01772537;0.34605616;-0.0005581555;0.05386308;-0.28100577;-0.02495446;-0.44898295;-0.010492076;-0.34746957;0.382707;-0.01383659;-0.0071831197;0.16389051;-0.034311563;0.020427434;-0.031841293;-0.021417996;-0.020539341;0.37815163;-0.4066585;-0.1136581;0.06819561;-0.014625419;-0.2850915;0.00054778805;0.004548825;-0.3670704;0.12109346;0.07603149;0.101553716;-0.16553932;-0.00088160904;0.008685997;-0.01751153;0.027402518;-0.057835594;-0.24335226;-0.14670072;0.06825517;-0.02375078;0.20881553;0.1485912;0.120273404;-0.23859845;0.016631696;0.01653282;-0.0020841458;-0.23962899;0.015413522;-0.13213795;0.2113259;0.06460544;-0.14242727;0.0011067892;0.06432821;0.045490928;0.066326685;0.031809337;0.009767098;-0.03433078;-0.022125078;-0.0024087501;-0.05790855;0.00013449136;0.028632188;-0.0073652784;-0.10882214;-0.012740791;0.36640996;0.0018280962;-0.08138592;0.2220756;0.46845022;-0.009298179;-0.10860389;0.13052806;0.00941541;0.1423713;-0.0027575186;-0.0019567;0.009382138;0.1453045;-0.26287046;-0.30534184;-0.016698565;-0.055690475;-0.009717095;0.009009081;-0.08460206;0.012295754;0.045899298;-0.31025755;0.069845326;-0.17221425;-0.12612511;-0.09277888;-0.26393843;-0.27454013;-0.09265898;0.12740922;-0.0069083064;-0.008293453;-0.06703339;0.05934252;-0.10701058;-0.30019465;-0.1325718;0.29484078;-0.0730766;-0.15308633;-0.015023479;0.2767054;0.057822205;0.005840758;0.0068162004;0.1831475;-0.20771909;-0.14474395;-0.28313127;-0.13753627;-0.03153886;-0.3552203;0.00074919977;0.11606456;0.2089292;0.28568053;-0.28401685;-0.15196116;-0.09152644;0.13116173;-0.19595996;0.0051689404;0.22710535;-0.0024195951;0.014104841;-0.007166727;-0.09097776;0.059924476;0.011741395;0.12361613;-0.040126435;-0.15616862;-0.114494324;-0.0003161519;-0.053437375;-0.011010406;0.11950896;-0.09710092;-0.007899697;0.04110538;0.1258366;0.036330197;0.022955595;0.062394906;-0.006861343;-0.009106959;0.0027325524;-0.08609843;-0.01790514;-0.09891621;-0.5012178;0.024444893;-0.025406564;-0.21691789;0.0017632415;0.29452652;-0.04689362;0.1472145;-0.3531241;-0.0022795675;-0.059994202;-0.113989584;-0.40514314;-0.015356477;-0.012540959;-0.1653114;-0.09288085;0.0011688686;0.011302582;0.0069821714;-0.04515333;-0.22738731;-0.011831479;-0.13088413;-0.008775211;0.18477666;0.021040628;0.003624086;0.1291459;-0.047593877;-0.024784226;-0.011026071;-0.34781787;-0.29060492;-0.16169675;-0.109503336;-0.024998166;-0.22086398;0.43357313;0.1608422;-0.029413624;0.020728936;-0.3321518;-0.13896976;0.1954888;-0.18623763;0.24427885;0.019564087;0.04979482;-0.19668955;0.3096917;0.0046066376;0.008339506;-0.006963333;0.09728535;0.010422125;0.1972202;0.20229156;-0.4546317;0.14623472;0.14552848;-0.00726865;0.08269159;0.19760023;0.2819051;-0.018727116;-0.06415678;-0.0122171715;0.05619168;0.15742944;-0.05986805;-0.2653723;-0.097212486;0.23571903;0.19626328;-0.015443256;-0.18019181;0.1133309;0.093487784;0.08701857;0.019052595;0.006930892;-0.16315189;0.16101131;-0.044627506;0.19824143;-0.013347816;-0.06495188;0.03312169;-0.00036097917;-0.091837354;-0.08727584;-0.014604652;0.23564377;0.27280644;0.041079864;-0.01500657;-0.013446215;-0.018419033;-0.255171;-0.006281974;0.008019857;-0.018853981;-0.05908515;-0.0049169487;-0.121343724;-0.19334167;0.12101655;-0.087039836;-0.099347666;0.07161099;-0.096994;0.0037754085;-0.0011049678;-0.040910043;-0.067634754;-0.028969754;0.025489064;0.020620706;0.08359489;-0.016742356;0.08748497;0.5169413;-0.02611235;0.006059468;0.33555868;-0.0098646125;0.032934703;0.3270926;-0.60802084;-0.26019955;0.19271846;0.03562645;-0.018396173;-0.01683154;-0.21147148;0.025382414;-0.007166545;-0.27576703;0.009161164;-0.0043680253;0.09016528;-0.046909384;0.31337845;-0.7015565;0.019611603;0.032217436;0.050253455;-0.17136614;0.021476254;-0.15150976;-0.016236119;-0.073957756;0.12265676;0.11811862;0.103097826;-0.0835455;0.0030011388;-0.5438843;-0.08248069;-0.098671466;-0.021527844;-0.012311436;0.32864004;-0.111425474;0.032807037;0.09178859;-0.00052309205;-0.0016400616;0.0029745249;-0.0039460734;0.011035992;0.048391156;0.006730791;-0.21766946;-0.011128048;0.027920892;0.09076059;0.027642267;0.17011213;0.013582668;0.03190614;0.000433392;0.218909;-0.09627263;0.00020303628;0.35640514;-0.0013855414;0.00511878;-0.24324606;0.07697876;0.04557903;0.013082597;0.148782;0.03622985;0.12896124;-0.12584639;-0.0006478782;0.003091923;0.004444409;0.054160297;0.05316173;-0.0019780798;-0.44265124;0.510783;-0.012693991;-0.11922108;-0.032813832;-0.010807235;-0.019172812;0.0031481285;-0.1910676;0.11578644;-0.011246924;-0.019337783;-0.13873306;0.33042175;-0.129818;0.21281417;0.16867784;-0.19541982;0.08560007;-0.31620973;-0.09935587;-0.53215384;-0.069363296;0.13090447;-0.22510314;0.072584875;0.019771496;-0.016232453;0.014092294;-0.088011764;0.13284108;-0.0182902;-0.0010504428;-0.0074437503;-0.0024851123;0.1391273;-0.20746855;0.1999195;0.005287993;0.15598461;0.00049015123;0.42455897;-0.19226009;-0.065408684;-0.007523391;-0.60985565;-0.5097834;0.028426392;-0.030124262;-0.022516737;0.338922;-0.4980824;-0.124607734;-0.0065396894;-0.056188222;-0.10525279;-0.14803784;-0.0024909417;-0.24072632;0.0026508495;0.24786732;-0.037062068;-0.2346515;-0.20265268;0.011915356;-0.14861614;-0.018037384;-0.20282911;0.028904093;0.26741254;-0.063653715;0.034964558;-0.014942425;-0.26113227;-0.0018703274;-0.00681746;-0.106348366;0.06742449;-0.06523861;-0.033932835;-0.006083487;-0.0023944036;-0.22339387;-0.014790463;0.002549218;-0.13932724;0.27080292;0.0048339763;-0.102875054;-0.014797434;0.0014439214;-0.15966515;-0.17039013;-0.5450518;-0.09988243;-0.3166112;0.0026590086;0.25789124;-0.00023744446;0.008860511;-0.59208894;-0.45735154;0.017104127;-0.025722722;0.09770991;-0.15114401;0.21484555;-0.004943449;0.08019767;0.12769663;-0.04653042;-0.25859615;-0.08103404;-0.0022178164;-0.51779914;0.0060898736;0.044186644;-0.039048623;0.011393978;-0.2432179;0.07450258;-0.20129652;0.1156477;-0.21039344;-0.049288217;-0.10131265;-0.207395;0.009986569;-0.117396824;-0.0018185969;0.0044699297;-0.27990162;0.03260198;0.24424736;0.2557355;-0.015216362;-0.22435866;0.25744838;-0.049977414;-0.017822372;-0.15736297;0.014840379;-0.016099246;0.0028350381;-0.2345419;-0.0016514598;-0.08088143;0.009987564;0.013582358;-0.12794234;-0.010612323;0.28411576;-0.06709418;-0.27280658;-0.015627805;-0.18006188;-0.0068518524;-0.0596956;0.020986477;-0.007539355;0.0021287403;-0.09511715;-0.16994272;-0.38424593;0.021400357;-0.08084414;-0.12639578;-0.01968688;-0.060740065;-0.022810865;0.0060155177;0.011348902;0.040460605;-0.12772778;0.032234807;-0.14866982;0.00022396533;-0.031602092;-0.24721459;0.033833764;-0.18756941;0.20135713;-0.042107332;0.0007959818;0.22395259;0.0069170394;-0.091177285;-0.10554131;0.014488385;0.021349723;-0.15720494;0.08287842;0.010695545;-0.092694685;0.034581255;-0.16469364;0.057298586;0.061744343;-0.0070176017;-0.1885892;0.0023386443;0.025776438;-0.010906792;0.01245243;-0.020900218;0.03797724;0.19144286;-0.016562028;-0.25181317;0.012078699;-0.17428896
0.020211378;-0.17175744;0.003445111;0.3827023;0.0033312805;-0.12628667;-0.021985853;0.019635512;-0.37404874;0.0098318225;-0.086982414;0.21907194;0.025935724;0.0046987627;-0.08281307;0.033618364;-0.007400091;-0.13624094;0.0040202825;0.11214783;0.27339536;-0.3129324;-0.17719544;-0.07743888;0.0052447026;-0.17203732;0.002535637;-0.100311555;-0.3339503;0.259014;0.11085611;-0.07885471;-0.19934551;0.014466167;-0.008962744;0.010104065;-0.011997474;0.12330149;-0.20690216;-0.30480877;0.023957888;-0.037784293;-0.0020954844;0.32237914;0.3057533;-0.043444436;-0.0017749488;-0.01855724;0.0029050424;-0.26988956;-0.0055709467;-0.3798389;0.26706022;0.07470669;0.04383975;-0.004886809;-0.14618413;-0.06604024;0.04297052;-0.028323606;0.009030435;0.0061288564;-0.0055761063;-0.00902204;0.09214094;0.13832904;-0.016133616;0.026502216;0.03518341;-0.046150595;0.2844675;-0.005287799;0.04267164;0.16680308;-0.014407223;0.009954888;-0.10733166;0.08852538;-0.016771475;-0.016003918;-0.003855731;-0.29562724;-0.010506517;0.09885516;-0.24684225;-0.26128712;0.0041016038;-0.13199459;0.010020196;-0.011846524;-0.01615354;-0.0014902119;-0.088148855;-0.3143419;0.034907583;-0.12966411;-0.30293718;0.30856708;-0.27913117;-0.31422895;0.00297074;0.12970555;-0.012387075;0.083804965;-0.015669221;0.05215094;-0.05683224;-0.25007734;-0.108372524;0.41069603;-0.1921339;-8.269512e-05;0.0066766134;0.34000322;0.15700097;-0.0058870013;-0.00046649683;0.16676497;-0.28719243;0.02820514;-0.08757887;-0.02862311;-0.06464046;-0.13832714;0.16676994;0.15963082;0.024725735;0.0830046;-0.063236676;-0.247385;-0.26567224;0.10798891;-0.08166358;0.0010640315;0.30850044;-0.0032575694;0.2609598;0.00039190977;0.008500315;0.24112506;-0.004922758;0.042392068;-0.25999603;-0.042413767;-0.030905508;0.009660668;0.11618609;-0.0007351739;0.022805668;0.003455905;0.0013388881;0.071648955;0.23871145;-0.17637292;-0.116223454;0.016239636;0.019619485;-0.14805518;-0.016762234;0.0020391499;-0.3778936;-0.014359391;-0.31094438;-0.015433328;-0.06176972;-0.2549013;-0.023804028;0.1453108;0.020409979;0.22283213;-0.36816567;-0.016297141;0.06255072;0.061585847;-0.12674382;-0.14449504;-0.021180764;-0.2868416;-0.1130444;-0.0067756055;-0.0027039128;-0.032190554;-0.02266044;-0.116701804;0.024108954;0.025573622;-0.017077466;0.22783865;-0.051172193;0.011585003;0.04079445;0.09655517;-0.016319694;0.016198622;-0.31355253;-0.30297348;-0.25226122;-0.11632868;-0.086751975;0.0722658;0.3510664;0.0670412;0.022359196;0.022960048;-0.2785645;0.08317412;0.17464682;0.030801207;0.078496486;-0.13087231;-0.014684388;0.18179215;0.37522507;-0.006471016;-0.029279988;-0.003820372;0.12922338;0.010205087;0.40015098;-0.026843287;-0.26992273;-0.06551473;0.118669845;-0.00097500643;0.27591923;0.16197926;0.111665405;-0.012867271;-0.19579887;-0.00045418018;0.013118383;0.056390505;0.12839776;-0.20333275;0.08185837;0.042472515;0.4482409;-0.004075002;-0.23529819;-0.2735358;-0.025647638;-0.011445527;-0.035155475;0.0075066327;-0.06529505;0.11374612;0.1447867;0.07507443;0.009776533;-0.040982712;0.29944435;0.006033781;-0.20368814;0.00017177027;0.016388224;0.22621387;0.23025118;-0.17064165;-0.0020698367;0.0028259736;-0.0062542045;-0.15532033;0.015234846;-0.00037934756;0.009134336;0.11402243;-0.057038765;-0.1535971;-0.05140463;0.14673533;-0.1849118;0.02096713;0.045912474;0.019354999;-0.010656772;0.0033804062;0.23203766;-0.17449555;0.0050781495;-0.026882716;-0.013356188;-0.22144747;0.12384515;0.22385411;0.27509287;-0.15972713;-0.014125863;0.39385426;0.0065212953;-0.10344666;0.31536257;-0.4366397;-0.16756168;0.108223096;-0.11471937;0.08926063;0.0046986537;-0.110095665;-0.018570473;0.016077854;-0.16196255;0.021346575;0.0062328014;-0.06282357;0.085166484;0.25367695;-0.44818544;-0.03300383;0.04155334;0.19636467;0.11496711;-0.02878104;-0.09430526;0.011081062;-0.19262989;0.030280957;0.09734204;0.11479912;-0.15819608;0.008678256;0.068119586;0.014855519;-0.07991673;-0.0047534434;-0.0116907675;0.24927837;-0.16951577;-0.024013868;0.0070226;-0.0026110488;-0.0057721846;0.0052728844;0.021918299;-0.016313627;0.1211016;-0.01928253;-0.03017235;-0.0056953495;-0.27324745;0.048061587;-0.010390394;0.27858436;0.0023317728;0.09147862;0.04364107;0.37011018;-0.041313954;-0.17477588;0.12371009;-0.008096516;-0.0062287147;-0.13667339;0.029125558;-0.15324436;0.0001308774;-0.02740983;0.15342687;0.052716877;-0.18825409;0.023032626;0.0036769744;0.011772596;0.21655564;-0.055815473;-0.038573775;-0.5199508;0.2653282;0.048296433;-0.09563312;0.29720724;0.007913102;0.013759246;0.011493273;-0.013389615;-0.10102948;0.005304535;0.05019882;0.19806382;0.04908336;-0.10921335;0.17753804;0.0018366937;0.008788882;-0.15508032;-0.38245696;0.22323796;-0.20237102;0.036707204;0.087085776;-0.092027105;0.004756138;-0.026416847;0.011638494;-0.008801037;-0.15432337;0.07429293;0.0017798101;-0.009271408;0.007306256;-0.014014838;0.1774329;-0.20431916;0.04381904;-0.02028973;-0.14736697;0.004810705;0.3076984;0.06374175;-0.26598737;-0.004283489;-0.37547657;-0.61055505;-0.1929718;0.029538747;0.30741224;0.3697578;-0.2155062;-0.09435157;-0.08450001;-0.21286;0.004475501;-0.3183911;7.890989e-05;-0.25143233;0.12064785;0.12197137;-0.1875805;-0.16474488;-0.07152456;0.0056341146;-0.12006944;-0.18780796;-0.3709622;0.019642062;-0.02161117;-0.1480307;-0.015790211;-0.008355501;-0.45830122;-0.0064515346;0.023797803;-0.42618862;0.2167915;-0.000983972;-0.06322281;-0.006838412;-0.00979935;-0.3004355;-0.00049412885;-0.0049753943;-0.20629288;0.2438938;0.017748715;0.14339328;0.02105097;0.0037563131;-0.007411175;-0.22434902;-0.25723138;-0.11276618;-0.22222127;-0.0040334743;0.13548622;0.001743598;0.014007901;-0.40103492;-0.18499573;-0.0065938085;0.03187825;0.05265701;-0.20740984;0.19315034;-0.010291136;-0.019361446;0.23100917;-0.23149593;0.011285789;0.08306246;0.009568269;-0.19820373;0.0042330995;-0.0047601066;-0.04048847;-0.007619834;-0.25428492;0.081529416;-0.40256765;-0.10942663;-0.015192446;-0.0066540763;0.11667423;-0.41526332;-0.014873546;0.048240483;0.0035530573;0.0069595417;-0.22552943;0.06535688;0.19550025;0.3351488;-0.0030493904;-0.22625922;0.034636468;-0.008825634;0.0049431706;-0.115558155;0.010449347;0.002033622;-0.023207203;-0.5490812;0.25503504;-0.20131226;-0.0012412948;0.023179483;-0.062362008;0.005148556;0.30166322;-0.13979007;-0.34644988;0.002779853;-0.12449796;0.004716776;-0.22114976;-0.058134675;0.034661844;0.0133379325;-0.057590574;0.0068902806;-0.11381794;-0.02369132;0.019025242;-0.11311205;-0.09861756;-0.09055162;-0.023406241;0.0046879402;0.0050389087;-0.011721387;-0.25891903;0.080208085;-0.041010924;-0.011352928;-0.19043921;-0.32297364;-0.1450684;0.09455107;0.15259722;0.08725496;-0.0051830546;0.059322108;-0.003990585;0.047110192;0.25348428;-0.06390001;-0.013774077;-0.17689149;0.18143673;-0.104124546;0.018777637;-0.037876137;-0.11494277;-0.06242918;-0.13095021;-0.010090298;-0.010711042;0.06436195;0.30252847;-0.008624546;0.0011553215;0.056782074;0.090068035;0.31730315;-0.10445808;0.18595698;-0.0067164544;-0.076262936
0.051706623;-0.33435208;-0.00062891084;0.20545816;0.0013694614;0.13751267;-0.036468413;-0.015613241;-0.2614379;0.0072080023;0.16653018;-0.10387631;-0.0020339824;0.01776025;0.010998302;0.013924679;-0.016021755;-0.19574472;-0.20400198;-0.030564696;0.2129818;-0.36391252;-0.049443793;-0.11612842;-0.004373923;-0.021663787;-0.0022905057;-0.016403819;-0.48966372;-0.01911523;0.14405374;0.06256995;-0.11411931;0.004742499;0.0074993875;0.0047108224;0.0051127644;-0.11356287;-0.16660814;-0.2335753;-0.11878497;-0.03948206;0.07226978;0.3374562;0.31387025;-0.07087815;-0.0013090208;-0.018385014;-0.009494921;-0.18900871;-0.0010516873;-0.3226455;0.29497156;0.02489157;0.16538252;0.005126723;-0.05020473;0.0076219924;-0.010332664;0.00021897472;-0.010823763;-0.004808118;0.004671046;0.010177991;0.11627238;-0.049264666;-0.00020371904;0.0511283;-0.21436942;0.02962337;0.07525226;0.0099272225;0.17526896;0.11391704;-0.29164106;0.00051152444;-0.00057321833;-0.0030386737;0.015939148;0.0002545297;0.006213872;-0.20454012;6.8196176e-05;0.12015436;-0.32035285;-0.11443966;0.0011754124;0.07027242;0.0074992073;-0.0006443769;0.07972942;-0.00058543816;-0.07178113;-0.43006662;0.23167099;0.07798627;-0.15914887;0.22825885;-0.10731163;-0.44558376;-0.03984999;-0.040978037;-0.08511719;-0.021656327;-0.0844488;0.04353954;-0.12273661;-0.3617795;-0.092653476;0.25967577;-0.16794679;0.0822217;-0.007854705;0.3371615;0.087592684;0.00432262;-0.022670604;0.13618691;-0.20649865;-0.15108581;-0.1537954;-0.13586211;-0.102608904;0.059153803;0.10959447;0.16581759;0.11385621;0.10634825;0.10486375;-0.16209908;-0.20894687;0.051903557;0.2520959;-0.0009036274;0.20592833;-0.010472324;0.32882643;0.00618517;-0.014851154;-0.04607667;0.0063236644;-0.12687062;-0.39472398;-0.3382937;-0.051197354;-0.013048065;0.18250714;-0.00964331;0.17794722;-0.033924855;-0.010853406;-0.28567848;0.25653556;-0.18342468;-0.1695083;0.01225887;0.21779221;-0.086966544;0.017926408;-0.09381674;-0.15580696;-0.0017601766;-0.2620233;-0.00460741;-0.0032024025;-0.17814665;0.017830359;0.23068638;-0.037594836;0.15136713;-0.60722935;0.024625573;0.031918105;-0.12992133;-0.2571353;-0.13427211;0.019043054;-0.10994816;0.027354112;0.013440572;0.008949251;0.019407434;0.016975166;0.007617246;-0.009172052;-0.031600848;0.017762525;0.1981112;0.2218402;-0.020146796;-0.12795654;0.08442115;-0.04962009;-0.018871738;-0.20759802;-0.29409832;-0.11596539;-0.06568519;-0.11602283;-0.16138655;0.19377516;0.03789061;0.20030577;0.10396344;-0.17581135;-0.171598;0.05282016;-0.006209572;-0.05903631;-0.003432135;0.0008957243;0.26322204;0.30068493;-0.016493054;0.034460165;-0.0032012784;0.24156523;0.11739348;0.42725417;0.09181399;-0.038620465;0.087226756;-0.015629487;-0.0012789328;0.33211377;0.25901875;0.23670879;-0.037091054;-0.20032908;-0.0020992348;0.1920498;0.1252728;-0.06508084;-0.22219273;-0.09649497;0.008993157;0.3620309;-0.0033995858;-0.27953178;-0.2881722;0.048151933;0.12554456;-0.20876424;-0.009176892;-0.12158117;0.006503773;0.066096775;0.0630165;-0.013023296;-0.026118616;0.3215246;-0.013055561;-0.06832011;-0.175359;-0.019578671;0.07848962;0.11633459;-0.027857661;-0.0011543424;0.007851248;-0.19651383;-0.011849573;-0.012210714;-0.008010174;0.006674693;-0.11624849;-0.12158175;0.12803149;0.053872377;0.0725901;0.05302429;0.015507167;0.22996756;0.057452545;0.0161639;0.0008527247;0.23363426;-0.011144443;-0.0078516565;0.016268848;0.02102247;-0.061524518;-0.18571417;0.17511983;0.06935775;-0.24535337;0.0042647943;-0.069568425;0.018722551;-0.1429125;0.47028297;-0.29221034;-0.08518695;0.03801687;-0.15673639;-0.13819166;-0.116906404;-0.17667872;0.00377478;0.002516319;0.1330811;-0.028497193;-0.00979228;-0.12193746;0.02664682;0.44883743;-0.3704086;0.024934225;0.0056418134;0.29666466;0.18754725;0.011873313;0.08434281;-0.02362361;-0.4105005;-0.097050875;0.08453635;0.12527357;0.03312315;-0.015868172;0.13389671;-0.08522675;0.03908315;-0.004858729;0.015154659;0.20139731;-0.00980448;-0.00068019127;0.12217519;-0.010891045;-0.0039731716;-0.004801685;-0.01257425;0.007816048;0.040412888;0.02127273;-0.013755558;0.031163238;-0.015278936;-0.24540834;-0.005091374;0.024627842;-0.012004271;-0.22249518;0.17084122;-0.0018823959;-0.12088462;-0.037370387;0.10696222;0.014821029;-0.012264839;-0.27886298;-0.26344752;0.035162456;-0.01063489;0.025809113;0.07870714;0.11512743;-0.14188623;0.011032425;-0.015570424;-0.01025561;0.12167826;0.091050014;-0.08417372;-0.5182098;0.11606767;0.16392715;0.03819479;0.2600287;-0.0012081566;-0.019683663;0.0044761924;-0.11735177;-0.123845644;0.016326237;-0.06046964;-0.03812835;0.080992244;-0.046728116;-0.02691097;0.06009968;-0.12765306;-0.1703198;-0.37323147;0.27649722;-0.0999622;0.07138644;-0.11894777;-0.17814995;-0.021719817;0.0052771172;0.0037889285;-0.2944224;-0.13684343;0.04097055;-0.0074351355;0.025062751;-0.0062377322;0.03103321;0.21812227;-0.10710187;0.17070557;0.01063556;-0.19076239;-0.00877415;0.12628344;0.055564936;-0.36966667;0.017669005;-0.006525706;-0.6118156;-0.32544997;-0.026633948;0.48066318;0.12886223;-0.17359644;-0.03578705;0.022493055;-0.23208714;-0.11379246;0.026046325;0.005395796;-0.12891583;0.07664159;-0.22190638;-0.3522042;-0.35970077;0.0371753;-0.018037993;-0.0037983537;-0.24287538;-0.31830892;0.21072923;0.0059498767;0.0076418743;0.0030957486;0.03298646;-0.36006117;0.008332336;-0.010985869;-0.068969406;-0.04963226;-0.09545412;0.21241516;-0.0067798696;-0.002182637;-0.12963188;0.008224455;-0.0029615306;-0.34114972;0.25043383;-0.019042075;0.1280717;-0.009927429;-0.013702013;-0.10031679;-0.5100709;0.16896732;-0.054770578;-0.16547795;0.0063328296;0.19724374;-0.0053762416;-0.026756303;-0.27316594;-0.11052363;0.007797814;0.1261004;0.055267062;0.03535837;0.27620113;0.011853993;0.028936578;-0.07722843;-0.19204147;0.16673277;0.2247253;0.012005601;0.080737494;-0.0011544675;-0.006114267;0.0529808;0.0045111203;-0.36924928;0.014837428;-0.06969914;0.055518076;0.15928897;-0.11297005;-9.7361466e-05;-0.6091415;0.012272483;-0.19849958;0.0010658783;0.003477224;-0.27503794;0.12177863;0.14884108;0.5419962;0.012204052;0.016628563;0.07276723;-0.063774854;-0.015342663;-0.3807595;-0.0057534575;0.009515562;0.00016376803;-0.3119452;0.18417482;-0.013050671;0.008186291;-0.028170489;0.06932693;-0.0015847815;0.28153142;-0.15187168;-0.31900945;-0.0033577536;-0.13641362;-0.012493196;-0.1641173;-0.2015072;-0.02657702;-0.0025515577;0.18265168;-0.06782842;-0.063715;0.036930088;-0.10052159;-0.17541638;-0.20401105;0.19278802;0.0058737677;0.0042842794;0.0057281367;0.13320063;-0.14199722;0.33293772;0.14243706;0.034624774;0.009653275;-0.4947884;0.1816772;0.22732885;0.20308429;-0.10772897;0.0066036195;-0.059391305;0.003287286;-0.07473805;0.074123845;-0.06651025;0.014317651;-0.19168702;0.22100352;-0.13027032;0.09974796;-0.009492269;0.016500982;-0.074358255;-0.25726295;-0.008813333;0.042407736;-0.1932741;-0.2738062;0.0066993055;-0.0120154945;-0.099022985;0.17482357;0.0968704;0.10258785;-0.060061023;-0.016059699;-0.10734819
0.24639486;-0.2398858;-0.0052183843;0.14831655;0.010559717;0.021218503;-0.22571272;0.03789997;-0.181682;-0.020477915;0.07736296;-0.0052571096;-0.0034297286;-0.019601338;-0.052064933;-0.01793808;0.01211492;0.064270094;-0.23420036;0.03535182;0.13599929;-0.33995095;0.07991499;-0.34295544;0.00017628881;-0.15752451;-0.0084533105;0.24017143;-0.18372156;0.13650863;0.12871107;0.0013209953;-0.23491918;-0.004459174;-0.009962796;0.0045610336;-0.0009533632;-0.19494928;-0.12143159;0.02092153;0.110655375;0.059137557;0.052504927;-0.01722753;0.30126905;-0.07711396;-0.008430285;0.030993303;0.0028024616;0.16062625;-0.011525723;-0.12037977;0.2639102;0.06752797;0.14704607;0.009313735;-0.13756467;0.15654434;-0.0056831273;0.01579923;-0.0039056751;-0.073392905;0.013089636;0.0018122566;0.21093832;0.143889;-0.0061787963;-0.0589906;0.0677999;-0.009365094;-0.11382698;-0.010295508;-0.22097456;0.06399791;-0.39994982;-0.012763241;0.01405661;-0.055962488;-0.009114691;-0.0395215;0.0071862005;-0.26397762;-0.003890535;0.068486065;-0.07664346;-0.23276585;-0.003200515;0.21482885;-0.012284039;-0.0057699014;0.076379836;-0.003807795;0.19817746;-0.027298717;-0.00036650093;0.13379201;-0.118056096;0.27392775;-0.27947316;-0.40755385;-0.21087304;0.03193614;0.011035663;0.0800646;-0.053564392;-0.034908842;-0.07562782;-0.24420658;0.25440645;0.10419282;-0.120364234;-0.20197304;0.009310823;0.30948305;0.23418592;-0.002332724;0.032783538;0.1282348;-0.053400755;-0.27374035;-0.03223145;-0.10698088;0.20703363;-0.19056001;-0.013437127;0.11475939;0.07697139;0.17941447;0.15891632;0.053173926;-0.26015604;0.008139638;-0.01664414;-0.003518439;0.12858318;0.009249983;-0.13314037;0.023402724;0.11737291;-0.3150763;-0.018908383;-0.1214532;-0.30716032;-0.19467953;0.021243418;0.017394422;-0.0774593;0.010632081;0.17234954;0.033356957;0.008100627;-0.28230417;0.45749527;-0.1276419;-0.16685085;-0.001013951;0.07081539;0.10039399;-0.008660023;-0.15141983;-0.05502013;-0.18313421;-0.28999418;0.020358391;0.010588577;-0.20102236;-0.009129339;0.00852587;-0.005687036;0.044060964;-0.75156003;-0.010447229;-0.41280222;0.15167779;-0.3475515;0.0021377287;-0.0077135055;-0.015677331;-0.24026084;-0.00815663;0.0012824883;0.0063963705;0.16665041;0.12871231;-0.0067077302;-0.15691654;-0.013739256;0.06236264;0.2748345;-0.0018660583;-0.12562093;-0.08532993;-0.14743242;0.0039293603;-0.19229011;-0.21473108;-0.29551068;-0.13514604;-0.14240566;-0.2098119;0.04172898;0.10312142;0.19395578;0.48370662;0.0999957;-0.18026666;0.00046939004;0.05527937;0.23435667;-0.046201356;0.0024234413;-0.15570325;0.3066313;0.022161268;0.03961495;0.014432944;0.21426506;0.028138047;0.15087962;-0.04566833;0.038558386;-0.03867079;-0.23489115;-0.0046063648;0.3291931;-0.06499716;0.15218587;0.06676649;-0.25492504;-0.0029756457;0.22462346;0.20233722;0.11909259;-0.091060646;-0.29824105;0.3028706;-0.022412317;-0.004938566;-0.19310921;-0.1821704;0.05414894;-0.0029719456;-0.09678953;0.00075223943;-0.040594388;0.16101035;0.12622194;-0.07543823;-0.0030037542;-0.0028527428;0.11162694;0.016032264;-0.024889909;-0.14075418;0.0072194166;-0.123108774;0.06099249;-0.027291777;-0.018308485;0.00084910117;-0.28257087;-0.003911552;0.0029355094;0.008001907;0.005156529;-0.0012349151;-0.25085494;0.119606346;0.029643927;-0.080347694;0.10721266;-0.058410045;0.29742077;-0.07586233;-0.009780159;0.011611809;-0.08796361;-0.11492431;0.009235391;0.0029463372;-0.023932211;0.2467428;-0.02577995;-0.13908407;0.18025884;-0.035188615;0.012730723;-0.027231338;-0.018505244;-0.10676962;0.12936169;-0.3932767;-0.31422085;0.1125154;-0.07551284;-0.17576891;-0.07636703;-0.44479048;-0.0116606075;-0.0059517203;0.17235012;0.018058574;0.004535974;-0.104648754;-0.23140785;0.54867244;-0.27523392;0.004099469;-0.030202633;0.2271985;0.3280519;0.0034199303;0.00695528;-0.0028421541;-0.18896893;0.17324705;0.10484544;-0.20647687;0.09761231;-0.0075741666;0.107101634;-0.027109934;0.01447471;0.010882088;0.008847273;0.2217788;0.009014007;0.0053072744;0.13538411;0.010045946;-0.0015987194;-0.003839164;-0.008679056;0.016114835;-0.007715347;-0.021048859;0.03584929;-0.038169906;-0.10624243;-0.19547679;-0.0007105284;-0.10346706;0.007304264;-0.07699355;0.12004286;-0.38218787;0.013948406;0.04688704;0.22403936;0.0020499292;0.011767154;-0.12140467;-0.34492427;-0.03716496;-0.0009015653;-0.078610726;-0.047194213;0.064974494;-0.05160609;-0.030605748;-0.0028275186;-0.0034079347;0.025175761;0.023626512;0.076404005;-0.31148833;0.16792269;0.15746436;0.034865573;0.39255163;0.011839319;0.033389855;-0.012423433;0.068040155;-0.14146852;-0.009479194;-0.13022506;0.04122187;-0.1552198;-0.17460859;-0.20534797;-0.030839456;-0.32526034;-0.4822488;-0.010372785;0.137456;-0.17258255;0.03410459;-0.052253075;-0.46481976;0.15667592;-0.014315236;0.0045367735;-0.47352773;0.11478169;-0.24179673;-0.007745015;-0.010642562;-0.00073075213;-0.0018024261;0.006478536;-0.15630582;-0.10839089;-0.004778611;-0.31822658;0.0025644342;-0.37594503;-0.117344156;-0.26789504;-0.025634011;-0.25683796;-0.5489235;-0.46614823;0.0036719996;0.23434107;0.27791673;0.0069430894;-0.08205654;-0.121917576;-0.08769819;-0.25255567;-0.0881246;-0.0033925849;-0.10289585;-0.04881194;-0.14804076;-0.3096005;-0.6713107;-0.07012101;0.018425688;0.10489523;-0.19968079;-0.101120725;0.22045793;0.08955385;-0.11642439;-0.004675187;0.0008741822;-0.3318599;-1.07034075e-05;-0.022582978;0.109110385;0.09977399;-0.119452015;-0.007922353;0.009253452;0.013134258;-0.27035186;-0.00803253;-0.0013687082;-0.3168828;0.36392432;-0.0018878416;-0.035452764;0.004281649;0.007293229;0.05670702;-0.4963285;-0.16276672;-0.16654116;-0.05990505;-0.0075488565;0.23767626;-0.0009972872;0.028686438;-0.10477726;0.18035574;0.006947355;0.22343123;-0.18301736;0.31671175;0.13910833;-0.0038135862;-0.040542606;0.09187278;0.11950827;0.15312475;0.036836952;-0.011533978;0.0017508517;0.011990905;0.019803194;0.045662794;0.001151727;-0.04038715;0.1647643;-0.14409627;-0.018009698;0.0013318671;-0.12865171;0.035507362;-0.5567686;-0.0051958943;0.073826596;-0.0075730057;-0.02047786;-0.28936377;0.07140181;0.32551044;0.46070933;0.0031874005;0.06986204;0.08315625;-0.1898695;0.014704196;-0.25382537;-0.0057991757;-0.00029815317;-0.027143816;-0.22321647;0.07414824;-0.0013494521;-0.0027298983;0.01519303;-0.0996663;-0.0014423515;0.59529173;-0.4392786;-0.37539226;0.004566751;0.10090417;-0.0060716085;-0.17347895;-0.13643894;-0.005910031;-0.0046860166;0.10355697;-0.18699025;-0.21312845;-0.019195061;-0.13057698;-0.17013668;-0.04642228;0.056701567;0.01067941;0.0021202709;-0.007975844;-0.03186609;-0.25543875;0.26020086;0.014236798;-0.009859991;0.1204347;-0.62597615;0.10993643;0.21128911;0.054027185;0.063279726;0.0003338833;-0.034039486;0.010199482;-0.112561025;0.024944201;0.017129095;-0.019412769;-0.15556154;0.1137299;0.02033474;0.17893493;-0.19303533;-0.03739406;-0.037010804;-0.4231957;-0.00017515247;-0.10645712;-0.3685779;-0.6820505;0.0105499765;-0.013067035;-0.0018045203;0.13475226;-0.036938276;-0.046258114;-0.15128537;0.013323419;-0.20977266
0.2930351;-0.27795318;0.013438805;0.21041363;-0.00501123;0.119974315;-0.28970495;-0.015514964;-0.3839539;0.013309847;0.101365246;0.09629397;-0.008259625;0.0014831165;0.07236902;0.012885629;-0.009645075;0.19052434;-0.20817493;0.19246456;0.36881247;-0.18682623;0.014786035;-0.20855187;0.008195811;-0.06850724;0.0043394896;0.16430911;-0.25538495;0.26174304;0.10029284;0.051698633;-0.16384618;-0.002456997;0.01679341;-0.004353196;0.010286824;-0.15872061;0.031090926;0.08215923;-0.077080786;-0.06263815;-0.10773583;-0.11348431;0.15029436;-0.15985441;-0.0023638036;-0.0047391457;-0.01886711;0.27811754;0.016735509;-0.13729079;-0.20042439;-0.0997503;0.21905015;-0.006518648;0.05315407;0.025898658;0.017477375;-0.0029156893;0.008637827;-0.21516874;-0.008397548;-0.007335344;0.26546237;0.29000506;0.011926242;-0.042295076;-0.06698391;-0.025630556;0.0567714;0.000734732;-0.2634578;-0.10532987;-0.2601474;0.0067062927;-0.3380916;-0.009137985;-0.0075571043;0.045601357;-0.011743464;-0.14041442;0.0014907261;0.26606587;-0.0017135412;0.22371909;-0.012833109;-0.022838501;0.010642581;0.0029977988;0.14571904;-0.004159976;0.24337323;0.03145992;0.062935844;0.20367987;0.13779075;0.52338904;-0.16583322;-0.28648487;-0.25989738;-0.06040367;0.006528918;0.034291234;0.15303807;-0.03168293;-0.11744077;0.040159237;0.019347006;-0.107568786;-0.029734572;-0.13245979;-0.0033062366;0.23572879;0.32310173;0.013834588;0.0009142242;0.1332333;-0.2227408;-0.19964549;-0.11204024;-0.3291254;0.19317162;-0.19069478;-0.13606949;0.08275331;0.095422946;-0.102945745;0.15166879;0.021737885;-0.26595953;-0.25645855;0.06834654;-0.022357544;-0.08291988;-0.00711382;-0.17351237;-0.010414333;-0.090480424;-0.121144265;0.024486125;-0.035095803;-0.20570995;-0.15328957;0.003623777;-0.003961519;-0.10855722;-0.0030248214;-0.08478048;-0.033148833;-0.020202922;-0.072626;0.45190585;-0.18599644;-0.12253657;-0.09301165;-0.013665649;0.31275687;-0.0093086725;-0.23010144;-0.01358229;-0.04399626;-0.35581812;-0.011461878;-0.010464749;-0.13232699;0.01583755;-0.03550029;0.23552777;-0.20051134;-0.5116445;-0.0025450005;-0.17740291;0.07079117;0.0273075;-0.022418624;-0.046103198;-0.07104387;-0.2323132;0.00036340533;-0.012022371;0.0051453365;0.28059122;0.06521858;-0.016109034;-0.30985147;0.01168011;0.10265165;0.38435274;0.0012110964;-0.043574996;-0.26033655;-0.063275665;-0.017482478;0.07914961;-0.091035284;-0.22976775;-0.24199387;-0.029321356;-0.48763677;-0.009309904;-0.22687916;0.1645746;0.14280601;0.24261855;-0.11378105;-0.08181627;0.0023887595;0.10247069;0.055573538;0.0097322995;-0.048625555;0.20914418;0.0019747063;-0.04344446;-0.018048475;0.28016686;-0.19767076;-0.053615317;0.070746936;0.07501158;0.057910442;-0.5459196;0.0042288443;0.29373342;-0.32759118;0.31099203;-0.009526747;-0.18481524;0.002528064;0.14295854;0.17733864;0.20284143;-0.06859239;-0.28204465;0.0838176;-0.0187354;0.01512115;-0.10492922;0.019494547;-0.12960435;0.06380421;-0.058473572;0.00010631627;-0.038607456;0.30495095;0.016293313;0.08044247;-0.0015268454;-0.03693542;0.2023851;-0.0031843472;0.04142557;0.15980817;0.016756773;-0.17134573;0.006585696;0.048055172;-0.012458558;-0.010324019;-0.23625475;-0.09836889;-0.0029647115;-0.009109626;-0.008879069;0.0030135282;0.11888892;0.18609163;-0.013841804;-0.30491078;0.015884837;0.11831415;0.2968419;-0.11310161;0.00603673;-0.015642114;0.1970639;-0.036533315;-0.0090984255;-0.017364124;0.011953393;0.25153026;-0.09582408;-0.10159554;0.11288407;-0.0040479563;-0.011098893;-0.11783898;0.013821833;-0.17788386;0.008422051;-0.4085903;-0.43547243;0.17935035;-0.020091506;-0.11192889;0.067172885;-0.42428625;0.00871106;-0.013518405;0.049482357;-0.001030442;-0.012802192;-0.15535824;-0.22787602;0.35883763;-0.21021669;-0.028256545;-0.25239736;0.18737209;0.23855455;0.0023663542;-0.12779766;0.015966173;-0.13404973;0.22380456;0.2440162;-0.15591682;0.015973518;0.024373757;-0.30473664;-0.106349595;0.01951841;-0.014460495;0.008443818;-0.41677612;0.105471626;0.0005795638;0.08093848;-0.0028633457;-0.00625247;-0.01220251;0.007817537;-0.020502029;0.067411095;0.013116188;-0.061722185;-0.08765457;-0.22852984;-0.1126668;0.014454482;0.066808164;-0.0025691015;-0.16179182;0.15312019;-0.32851395;-0.096047744;-0.03615219;0.12493938;-0.0049053608;0.009148864;-0.20051193;-0.46658546;-0.1636936;-0.0043797796;0.083088174;0.037369613;0.024060987;-0.20714152;0.124146596;0.029967412;-0.014004518;-0.032364205;0.048238683;-0.023917286;-0.4728455;-0.077785686;0.12789845;0.38564533;0.2931994;-0.011209367;-0.028935773;0.009976595;0.16197012;-0.23006488;0.0047994135;-0.06821795;0.20042093;-0.1809627;-0.14326458;-0.17682539;0.13026203;-0.44173518;-0.88157964;0.0014145884;-0.09024755;-0.18745488;-0.04508021;-0.028959973;-0.19773489;-0.10434364;0.016461467;-0.015344413;-0.4636991;0.06391349;-0.10127464;0.025193542;-0.009339157;-0.016699858;-0.011066672;-0.097091496;-0.26423085;-0.18037415;-0.0012034787;-0.12736723;0.003052188;-0.24196284;-0.13070938;0.060456097;0.005881935;-0.32646337;-0.35602462;0.10993633;0.012225252;0.09894133;0.27865073;0.22482648;-0.23124631;-0.08684722;-0.09202026;-0.17028904;-0.24521658;-0.014776469;-0.12353934;0.006257957;-0.20880452;-0.26964292;-0.477494;0.14257982;-0.029581215;-0.21591008;0.15244026;-0.035764817;0.14293925;0.18201289;-0.09150987;0.019340193;-0.017239077;-0.14500235;-0.0010087095;0.033656877;-0.13146244;-0.0018887948;-0.09000499;-0.029874545;0.0032433807;-0.000652002;-0.38384923;0.0007770885;0.0032935957;-0.05512131;0.042471472;0.017558405;0.014164292;-0.0053966227;0.009264018;0.23145951;-0.43409914;0.21099989;-0.34398764;-0.0056795035;0.014346008;0.2625761;0.015468543;0.00051774393;-0.022488743;0.3030033;-0.0021195768;0.25785768;0.14265382;0.09896073;-0.04167246;-0.00019803146;-0.12134344;-0.27400115;-0.015686108;0.19747671;0.13905591;-0.0048629525;-0.02589614;0.009227019;-0.027631398;-0.0031253723;-0.0071380734;0.24334319;0.1590283;-0.014709161;0.0424183;-0.04629253;-0.19951749;-0.14733545;-0.009106245;0.0012306673;-0.061559144;0.0045581656;0.033447407;-0.17587173;-0.022213666;0.38644737;0.34269258;0.0048075896;0.11194163;0.06411883;-0.22001319;-0.003985446;-0.21164025;-0.0026511385;0.008669118;-0.01379512;-0.020236503;-0.07034677;-0.028443309;0.00011013303;-0.008484103;-0.14467578;0.010105034;0.41533548;-0.27121064;-0.23591156;0.0041510253;-0.1168102;0.02040314;-0.051071838;-0.21477878;-0.002874438;-0.007230257;-0.15789282;-0.17055145;-0.24217302;0.016384244;-0.13802136;-0.40760452;0.046111837;-0.1689614;-0.025503876;-0.0066610635;-0.004236316;-0.0142632965;-0.015716221;0.23132831;0.019689344;-0.011605254;0.1343965;-0.70456517;-0.043058164;0.09262858;0.34291366;-0.04413532;-0.009678874;-0.058494624;-0.009014019;-0.24651235;0.14745276;-0.14415853;-0.0060594636;-0.28768775;0.1845641;0.03458067;0.19966163;-0.17890227;0.325496;0.004195409;-0.45905647;0.011375622;0.17886072;-0.1757938;-0.56997395;-0.005238748;0.010442412;-0.0013772683;-0.122911915;-0.25717226;0.10897338;0.09805514;0.0041654855;-0.20691992
0.094104975;-0.3748458;-0.011223643;0.28266513;0.014443129;0.052090157;-0.06932405;-0.021399038;-0.4762129;-0.020625042;0.078077406;-0.050419196;-0.000108412554;-0.00805442;-0.06079979;-0.036251914;0.0014495704;0.2579707;-0.26860756;0.07916064;0.38031116;-0.1752816;-0.025635313;-0.042326324;0.010649451;-0.23634706;0.004532177;0.2067703;-0.37272692;0.42879337;0.082337216;-0.01070701;0.034654822;0.0020531074;-0.0034708637;-0.015847325;-0.00778018;-0.022764506;-0.045161404;0.20481592;0.04861039;0.028648097;-0.05723226;-0.22564502;0.37456885;0.0615242;0.013776253;-0.024823878;0.0026673109;0.38234013;0.0013781438;-0.16940664;-0.31009865;-0.069516085;0.34342688;0.015453735;-0.074567266;0.09039875;0.038268197;0.00076594827;4.2572156e-06;-0.26135728;4.709452e-05;-0.010567724;0.31622505;0.08185568;-0.01387536;-0.014028728;-0.10521784;0.0041531343;0.31760958;0.0054855994;-0.19095565;-0.01672822;-0.2167346;0.001081913;-0.28399953;-0.01203777;0.011008939;-0.04117554;-0.0018421323;-0.20453711;0.0006080096;0.11422931;0.01271531;0.26246214;0.033580508;-0.1073399;-0.03067013;0.016116552;0.07758273;0.019133234;0.3099655;-0.11868688;0.039992757;0.06516684;0.16977115;0.42090487;-0.068868555;-0.28418985;-0.031123482;-0.07177521;0.10427941;-0.13224038;0.17482696;-0.21666224;-0.1684851;0.04045729;0.20627055;0.050707463;0.03085678;0.09134978;0.0051525882;0.19370615;0.19071752;-0.01663563;-4.702467e-05;0.2328625;-0.071347624;-0.16078383;-0.17980558;-0.43811876;-0.10375809;0.011212458;-0.10854301;0.0018482006;-0.052941695;0.007985714;0.0069090417;-0.02405372;-0.1522989;-0.086683385;0.2943625;0.01977898;-0.027124912;0.027178628;0.033071116;-0.033320703;0.10898142;-0.37524816;-0.019520124;-0.033917483;-0.26972705;-0.108458765;0.035935305;-0.004602997;-0.20387046;0.007845384;0.08590694;-0.017121712;0.01940608;0.043465253;0.31273136;-0.21128595;-0.16171885;0.07045298;0.1807109;0.31222236;0.0046781683;0.14158326;0.13242748;-0.5174787;-0.1538977;0.0042074732;-0.012605259;-0.12190867;-0.026028402;-0.42746118;0.35649958;-0.32723537;-0.21537168;0.016051417;-0.00518155;0.32593155;0.08725944;-0.12144113;-0.008899941;-0.11177385;-0.34007898;0.0014955743;0.004205504;-0.0017041712;0.017230274;-0.24346855;0.012339047;-0.21215473;-0.00014293387;-0.012794098;0.23356776;0.015720244;-0.3283286;-0.22781424;-0.07210462;0.015555982;0.30867988;-0.2434044;-0.01888404;-0.2251482;-0.14989948;0.024963029;-0.13738146;-0.2263042;-0.1694121;0.10347464;0.17114282;0.013185445;-0.0034289872;-0.08285455;0.29089075;-0.1257387;0.11415544;-0.22341137;-0.01488218;-0.0017341046;0.008724881;0.017077027;-0.07700095;-0.18523851;-0.09869016;0.040167063;-0.10051589;0.019765519;-0.5473396;0.005536966;0.16021413;-0.4202782;0.36353457;0.10298283;0.044613086;-0.0031851751;0.0829933;0.11584789;0.25992066;-0.05877344;-0.26266244;0.019645216;-0.3234875;-0.016158463;-0.24033844;0.11878809;-0.32672402;0.022718998;-0.046596263;0.0005861102;0.17089997;0.02398914;-0.18074216;0.11347942;0.001756249;-0.009077569;0.2864142;0.00943684;-0.21398093;0.15716529;-0.014288167;-0.50586635;0.10001301;-0.037040524;0.03515149;0.008446557;-0.32664144;-0.16441795;0.006874493;0.007585498;0.004438504;0.0668799;0.044266663;0.013880291;-0.0049653673;-0.40594706;0.03655703;0.30083656;0.113275975;0.07902318;-0.016908973;0.0012321523;0.38796464;0.045526106;0.01400324;0.018713221;-0.0022771552;0.28542277;-0.08647322;-0.314139;0.2569854;-0.14290778;0.011279742;-0.11621168;-0.020231104;-0.34789106;-0.15289667;-0.4663165;-0.29726848;0.06604527;0.27221927;-0.10493112;0.018274236;-0.47232068;-0.0015136702;0.0042486973;0.14049815;-0.035679568;0.006580107;-0.10955393;-0.25864646;0.21149263;-0.27503207;-0.024136685;-0.1497298;0.15282604;0.28194442;-0.026488574;-0.36592767;-0.0188732;-0.1765552;0.088874005;0.31387013;-0.22529052;0.03824186;-0.0065155877;0.10803358;-0.22284615;-0.05396392;0.012654479;-0.028343998;-0.57759875;0.12265561;-0.0041940594;0.048573993;-0.009408352;0.019678846;0.006952508;-0.009306237;0.0026970592;-0.15738244;0.015134266;-0.14988035;0.07727405;-0.13603507;-0.17313217;-0.019682284;-0.13434307;-0.0047881524;-0.17024033;0.0037853867;-0.36852276;0.040975273;-0.036448695;-0.062600985;-0.007347032;-0.001838247;-0.0076933145;-0.40011054;-0.37265593;0.0045129545;-0.21099909;0.020551777;-0.01601812;-0.040288378;0.18534413;-0.015072601;0.01127299;0.04311813;-0.030993035;-0.03120537;-0.30735955;-0.15377621;0.26108217;0.31616956;-0.06723349;-0.017890196;0.015777638;0.0098679615;-0.010123357;-0.15758006;-0.011643126;-0.10975542;0.024983535;0.26799792;0.081086986;-0.15774447;-0.01047927;-0.29746664;-0.5074636;-0.021376891;-0.0182897;-0.17737822;-0.020886289;0.044386327;-0.14226314;0.06148584;-0.006862218;0.012485581;-0.4459499;-0.0076159867;-0.14672221;-0.022366572;0.012626445;0.015566008;-0.0014180084;-0.11576512;-0.1197749;-0.19204062;-0.011433037;-0.14208464;-0.011675645;-0.26849273;-0.27682596;0.0479821;0.010311299;-0.40727195;-0.4024099;0.1344148;-0.017949076;-0.071663275;0.10638883;-0.025610501;-0.18591374;-0.16944465;-0.20663098;-0.1847871;-0.32140663;0.008513277;-0.0025556372;-0.14133322;-0.13762204;-0.16928026;-0.07331155;0.15832242;0.0011417437;-0.3270305;0.21094865;-0.010762093;0.013018424;0.16932185;-0.22107343;-0.0008586917;0.0067537487;-0.24289417;0.0031300446;-0.03875584;0.0022966815;-0.007325154;-0.028877223;-0.15079635;-0.015197948;0.008516249;-0.42261526;-0.0216653;0.0022809824;0.06961214;-0.016879918;-0.0020797213;-0.07250877;0.021319311;-0.0072181644;0.22649951;-0.106537685;0.011926175;-0.17251833;-0.3665947;0.021028956;0.19280417;-0.014850587;-0.009003616;-0.2576712;-0.17574707;-0.010651781;0.19346242;0.27452144;-0.36060894;0.2515855;-0.005088167;-0.18332937;0.036868315;-0.14414485;-0.15696388;0.18640333;0.011256495;0.24550734;-0.018997196;0.03333395;-0.03254101;-0.007898218;0.0029443684;0.17855999;-0.23608826;0.057490066;-0.09207956;-0.112494044;-0.15975273;-0.27426723;0.0022068946;-0.1617637;0.0032157688;-0.031497467;-0.12311582;-0.13040157;-0.19559857;0.41836938;-0.020593897;0.43455875;0.16514844;-0.010303343;0.017435005;-0.32331786;-0.011294137;0.00011784996;0.022782752;0.038993433;-0.006566258;-0.0025783873;1.6792994e-05;-0.011326718;0.19037412;-0.0014492421;0.13362522;-0.07755428;-0.27965465;0.003983587;-0.10645914;-0.017071845;-0.05892403;-0.23811924;0.0074193347;0.015919238;-0.09526656;-0.2050484;-0.05817095;-0.02660494;-0.12543164;-0.24751489;0.16955236;-0.15695529;-0.03461343;0.006987245;-0.0077821994;0.12161627;-0.029370561;0.30478814;-0.0760905;0.013302341;-0.022985427;-0.48551357;-0.1243559;0.0016960847;0.28934184;0.008446166;0.003840772;-0.18632363;-0.0047479416;0.041888975;0.10349544;-0.08753775;0.014826598;-0.5282323;0.15952764;-0.009716143;0.072845176;-0.11166453;0.04715136;0.053089358;-0.111704424;0.003113131;0.17870803;0.13418691;-0.25154486;-0.0131537095;0.0013880881;0.14452274;-0.07623597;-0.35269052;0.2831014;0.102477305;-0.014344085;-0.36369297
-0.15730977;-0.34390977;0.016595742;0.16033973;0.00013372948;0.06282373;0.2039168;0.027327716;-0.18029504;0.028047288;0.16083899;-0.15936063;0.00018444289;0.002548238;-0.11376176;0.028906006;0.0072790645;0.2097898;-0.11341058;0.08397237;0.20591767;-0.18616061;0.003952698;0.06937422;-0.012475982;-0.16923116;-0.010865692;0.2975304;-0.33498022;0.264011;-0.12927686;-0.083810925;0.13478848;0.007900442;-0.0035073706;0.0026932622;0.008634023;0.041620925;0.092090406;-0.20364667;-0.05964017;-0.045447625;-0.02991335;-0.38376877;0.11457852;0.093144104;-0.022150762;-0.013084031;0.010507284;0.39682767;0.009764271;-0.16947146;-0.16634741;-0.020357884;0.3586006;-0.02871892;0.26937914;0.11250003;0.011037527;-0.007205345;-0.0009247195;-0.3509257;0.002942557;-0.0016844765;0.40949786;0.028238382;0.0016376949;0.053258076;-0.082560584;-0.013492691;0.21372443;0.0067049344;-0.1611135;0.09297428;-0.21122283;-0.0056269784;-0.020306302;0.062417693;-0.004636454;0.010722855;0.0021525281;-0.2617372;0.0031154933;0.13118535;0.091284566;0.16695614;-0.018241983;0.057803895;0.021204093;-0.013814619;0.18875651;-0.02268176;0.3026347;0.0038064902;-0.11211256;-0.025587587;0.25319603;0.40635186;0.001375604;-0.18690205;-0.02844753;-0.023276571;-0.060112342;0.054951955;0.11145488;-0.06908899;-0.14924721;-0.114167705;-0.012756009;0.119034424;-0.13410157;0.0985452;-0.004748306;0.138403;0.12368286;0.008950844;0.0047855237;0.11234699;-0.07124586;-0.116948724;-0.050604343;-0.20046942;-0.14258862;-0.25577432;-0.14349791;-0.062417228;0.030731916;0.14444575;-0.14606915;0.11648978;0.16364844;-0.15062833;0.02009141;-0.0021827042;0.028084418;-0.01938447;0.41018346;0.020126116;-0.06801487;-0.18973322;-0.009936972;0.11522339;-0.43152124;0.15345687;-0.086701594;-0.0059108897;-0.13207252;0.0002904051;0.05486106;-0.17213976;-0.009006714;-0.010796474;0.16461736;-0.037068214;-0.09083022;0.12921092;0.10703382;0.17336388;0.0033638605;0.023899827;0.12529765;-0.40974435;-0.11486702;-0.00051031506;-0.04639911;-0.010131676;0.0060294354;-0.1779261;0.33570924;-0.4103154;-0.013301608;-0.0039598513;-0.027514542;0.22222094;0.29751194;-0.12515828;-0.009352467;-0.0717833;-0.382898;-0.015113081;-0.00021600921;-0.0022941364;0.13669007;-0.021589318;0.0087513095;-0.055807475;0.0075838817;-0.096681975;0.05321194;-0.0018529431;-0.34580657;-0.0030043537;0.007862863;-0.0026004794;0.37406242;-0.4982834;0.2805623;-0.33633235;-0.08005495;-0.03133608;-0.109132014;-0.0425687;-0.21192878;0.31980902;0.35781634;-0.05965111;-0.13374001;0.14415075;0.2798716;0.1163926;0.1270688;-0.15127099;-0.094307356;0.022361845;0.008687003;0.00081396545;-0.21978733;-0.14753808;-0.10946834;-0.052034236;-0.020374158;-0.17592168;-0.39269018;-0.020741632;0.10240076;-0.42312405;0.44274807;-0.058466572;-0.03967399;-7.780802e-06;-0.049668252;-0.056307796;0.08134142;0.18640563;-0.17894974;-0.08035108;-0.2963588;0.019046217;-0.03808042;-0.19803016;-0.3272563;-0.018778384;-0.01551598;-0.0065868045;0.07497923;-0.09728428;-0.20606577;-0.07136624;0.0028339277;-0.08133466;0.1282587;-0.0069757104;-0.0053925416;0.27342597;0.005135313;-0.3884087;-0.10507422;0.10135215;0.079310946;0.0037931495;-0.14432177;0.16465855;-0.014322227;-0.003831088;0.00017799033;0.058057483;0.023919787;0.23644184;0.10667059;-0.24541126;-0.08819563;0.23364338;0.051361322;0.159341;0.015372298;0.003769902;0.4585218;-0.13923007;-0.006950865;-0.0028764645;0.0120314;0.21424551;-0.14151998;-0.3808793;0.3118186;-0.04378671;-0.0031069464;0.0012218993;0.015263603;-0.47646376;-0.16177307;-0.54482156;-0.37244666;-0.0977279;0.20412594;-0.1619267;0.20800939;-0.29816133;0.0112441825;0.012217029;0.024030011;0.0008303834;0.007557765;-0.19419853;-0.20938885;0.12651774;-0.37763622;0.04158938;0.104850836;0.13120203;0.11241796;0.036069278;-0.23697929;0.0036320903;-0.108367;0.0033433621;0.29975677;0.20851138;-0.1680331;-0.0049709696;0.4405874;-0.13781889;-0.17140627;0.0046248133;0.010942073;-0.21315981;0.15011995;0.0028455472;-0.06928712;0.01447915;-0.006016563;-0.0061339447;0.0042884396;0.00032053477;-0.082663625;-0.003770523;-0.14054424;-0.056984104;-0.3202303;-0.033506617;0.008392021;-0.1385163;-0.0018801563;-0.12234024;0.08731457;-0.46484652;-0.25825256;-0.035704043;-0.05798424;-0.00035986147;0.015212503;0.15300268;-0.3163628;-0.18006651;-0.003983363;-0.08293105;0.14658168;0.022599079;0.10906422;0.117622405;-0.010558495;-0.02224561;0.08933322;0.08462525;-0.07266447;-0.23398092;-0.16798867;0.31368884;0.41531605;0.13418715;0.0027412623;-0.010754813;-0.005868972;-0.4279939;-0.28503588;0.016766919;0.089678146;-0.086876355;-0.07422716;-0.23297413;-0.1950594;0.16580746;-0.19868341;-0.2508501;-0.10599334;0.05850435;-0.13921066;0.09744009;0.008948325;0.2532297;-0.23106217;0.020936133;-0.0041783815;-0.37119767;0.28540155;-0.23021072;0.0015349658;-0.0025210932;0.0079895845;0.006251693;0.083469026;-0.1990197;-0.18292016;0.007865484;-0.053783182;0.001680807;-0.17299348;-0.06312549;-0.1882995;-0.005330029;-0.3727585;-0.45687926;-0.08121863;0.039763607;-0.16170712;0.023730136;0.051541395;0.012079581;0.037986204;-0.058688536;-0.06400397;-0.42340815;-0.007302015;-0.008070894;0.05357451;-0.22548379;-0.2274904;-0.050813727;0.14138609;0.048703358;-0.40463218;0.3578099;-0.25884306;0.18994053;0.22335489;-0.13850468;-0.013692727;-0.019464968;-0.056983538;-0.010513975;0.0269147;0.037131548;-0.29997525;0.025956431;0.1787214;0.013784415;-0.008336992;-0.18876465;0.025180725;0.0030453836;0.11947797;-0.024177553;0.0063223075;-0.20803498;0.002526533;0.0036865468;0.123445466;0.0071869413;0.09619669;-0.27933776;-0.3471056;-0.017274167;0.34182364;-0.0036997446;0.021951372;-0.248031;-0.19591516;-0.0011969702;0.1778632;0.23717882;-0.24194449;0.18974774;0.012437653;-0.0047894246;-0.18891881;-0.3447646;-0.27596834;-0.103029154;-0.011507054;0.22858737;0.0062033897;0.008462875;0.0866336;0.014114787;-0.045002628;0.37830722;-0.0076557077;0.031323235;0.1527993;-0.086978614;-0.15018082;-0.056076977;-0.004389437;0.17354648;-0.023675714;0.008951767;-0.14381038;-0.1916762;-0.21740636;0.31246316;0.023261122;0.35678113;0.06712536;0.18511145;-0.013988791;-0.23696956;0.01616001;-0.001927852;-0.04866682;0.15181933;-0.10013558;0.27477372;-0.005420882;0.014080568;0.038545072;-0.0054567847;0.006569341;-0.17008784;-0.4024662;0.0031109517;0.25171146;0.009407011;0.02985366;-0.3185967;0.013326868;-0.014965612;-0.027364621;-0.07444247;-0.2558876;-0.015250493;-0.13109286;-0.08647943;0.04096816;-0.18248753;0.017649347;-0.0022836844;0.012920513;0.21063939;-0.2276798;0.29759642;-0.13182403;-0.00299098;0.078471884;-0.4432436;-0.037205774;0.015566968;0.08755923;-0.011996103;0.0027626613;-0.061128356;0.014681892;0.04631354;-0.15296212;-0.13527393;0.008391841;-0.4352368;0.39619356;-0.028878693;0.12242955;0.013476256;0.11056241;0.053523064;-0.22760266;-0.0106049385;0.14539121;0.0069631;-0.0030257287;-0.007681367;0.009847736;-0.090165086;-0.18759602;-0.10237544;0.094770275;0.15513322;0.0054525435;-0.21664517
-0.1484509;-0.19133149;-0.020967513;0.08087241;-0.013975202;0.141974;0.18180548;-0.02423678;-0.25730595;-0.010434078;0.08571459;0.07614101;-0.01637187;0.0036180934;-0.036634475;-0.025271632;-0.011043696;-0.070240505;-0.08989586;-0.13129978;0.1128004;-0.045523528;-0.026695175;0.049407173;0.012234803;-0.08613336;0.017469168;-0.038578577;-0.22754183;0.04820903;-0.28864834;0.09101642;0.28751755;-0.03088398;-0.014081843;0.0060717245;-0.015462589;0.089484796;0.08913892;0.13791502;0.13288918;0.03101438;0.078119464;-0.27618062;0.13967267;-0.026136989;0.003628084;0.023422245;-0.014433995;0.3366923;-0.008869838;-0.27179676;-0.23180504;-0.06874453;0.3664483;0.012801998;0.28685832;0.23187907;-0.036276586;0.018993394;0.0010861665;-0.17017874;0.002612447;0.012216706;0.4623089;-0.15464748;0.009336282;-0.015926369;0.12691866;0.011852319;0.08612421;0.0031793653;-0.1756693;0.09106403;-0.102741696;0.0026403838;0.01419068;0.09393469;0.0102320025;0.03814104;0.005756698;-0.1597029;0.0054031303;0.08022562;-0.018540248;0.046276584;-0.0064054257;0.076749064;0.0048246374;0.015722772;0.17437026;0.0063771144;0.14465496;-0.056451287;-0.13571082;0.09507086;0.23879965;0.32308355;-0.053007912;-0.11817292;0.112707295;-0.08508582;-0.07312276;0.024094103;-0.18200558;-0.10777005;-0.03161209;-0.07017076;-0.06842274;0.18633226;-0.12586918;0.02134994;0.0068544494;0.22641939;-0.00887608;0.0059985532;-0.012424453;-0.049041487;-0.39083442;-0.13747557;-0.13934134;-0.21474959;-0.11559208;-0.35883594;-0.06852637;0.043801952;0.21587372;0.2786754;-0.10644124;0.25460306;0.2581056;-0.20090458;-0.016713908;0.004900182;-0.01228582;0.0041499087;0.17891893;0.027287655;-0.12376183;-0.18323238;0.018485824;0.07447302;-0.59975976;-0.2167536;-0.09804616;0.006290863;0.034789912;-0.0051894835;-0.14274721;-0.18546478;0.014108436;0.07317004;0.038087618;-0.23730768;0.05228695;-0.030065728;0.02922587;0.10101287;0.0028216855;0.11455322;-0.045304894;-0.32053235;0.271612;-0.0053515304;0.05429446;-0.054562647;0.020027744;0.035702333;0.42970967;-0.14714888;0.10791246;-0.0013996434;-0.0138884;0.23206009;0.07853617;0.005628219;0.011419541;0.057769455;-0.2991016;0.01672327;0.0021731702;0.001660376;0.032693572;-0.13500671;0.00042113347;-0.13979965;-0.00013744297;0.052053224;0.2819664;-0.005025448;-0.30748364;-0.010190025;-0.03444007;0.009422549;0.1350744;-0.4516008;0.21993501;-0.2264935;0.119872466;0.08305691;0.057328463;0.0335894;-0.11771425;0.29353753;0.27274308;0.024539743;-0.106601425;0.043469656;0.32724816;0.021326697;0.28623402;0.009314293;-0.08537369;-0.0087270625;-0.044723447;-0.015336751;-0.26476833;-0.008305339;-0.17967914;-0.21608973;-0.13619608;-0.10013028;-0.28439707;0.013731698;0.3314678;-0.6107968;0.33638632;0.034925576;0.0047123507;0.0043266094;-0.1265822;0.15631358;0.007839477;0.22019176;0.0019454259;-0.20510033;-0.15925306;-0.011508393;-0.114163294;-0.24981281;-0.25866982;-0.0832303;-0.016154729;0.0077630966;0.13890477;0.0016196271;-0.30590907;0.015807286;0.0021416384;0.05770018;-0.121455766;-0.01991887;0.29986653;0.13720801;-0.0062008845;-0.39719588;0.19969396;0.045394365;0.029072639;-0.023509478;-0.3093285;0.08283792;0.00032454918;-0.0014162681;0.0011286435;-0.06176781;0.019690132;0.08703483;0.31827947;-0.232666;-0.06539818;-0.19603056;0.044921517;0.009861637;-0.015989857;0.0140908295;0.5010757;-0.13637185;-0.013980639;0.004404645;0.0021864902;0.03405366;0.051372502;-0.29657477;-0.092848204;-0.14648466;-0.009895291;-0.058992296;-0.0017679654;-0.49212232;-0.4379119;-0.2312814;-0.5345955;-0.1001848;0.23798382;-0.2149719;0.23093712;-0.36404687;-0.022371743;-0.008946143;-0.20311798;-0.017231673;-0.008647724;0.043120988;-0.21970917;-0.10092437;-0.2102077;-0.004043714;0.23487864;0.13099267;0.17037532;-0.017087817;-0.0279319;0.010080939;-0.12378466;-0.03943074;0.1436481;0.21924813;-0.17083119;-0.0027711345;0.14588995;-0.042332496;-0.23388147;0.013794065;0.0019435392;-0.16606173;0.09837705;0.0067497673;-0.02958052;-0.0050923596;-0.010340567;-0.00623088;-0.0014060282;0.01281964;-0.13776225;-0.021685371;-0.09422141;0.008202009;-0.036195174;0.17959593;0.008155375;0.23583752;0.0018150787;0.023851877;-0.042017724;-0.0300034;-0.29368842;-0.008927591;0.090517625;0.0027537476;-0.023160784;0.0035708572;-0.52880436;-0.3262338;0.009430709;0.017242273;0.1187709;0.0053059636;0.15273078;0.16172323;0.020557757;0.023094343;0.15621996;0.053808868;0.01862066;0.058195103;-0.08605085;0.097310804;0.24619803;0.11817529;0.014536368;0.0025393832;-0.0006507276;-0.11757115;-0.27252913;-0.009928206;0.2520466;-0.25213844;-0.17588061;-0.06949293;-0.20426524;0.0860099;-0.148647;0.1580073;0.065148436;0.050672118;-0.18657835;0.01387985;0.17937362;0.097836964;-0.0075544617;-0.014991511;-0.015944462;-0.40713328;0.16495922;0.0014781496;0.013868066;-0.018822065;-0.013784426;0.00041728618;-0.014722363;-0.12812279;-0.015882412;-0.010101273;-0.08267955;-0.005976698;0.08215966;-0.28072286;-0.07079718;0.017877012;-0.11075074;-0.19312966;-0.29661912;-0.06086093;-0.36387715;0.31670642;0.07233469;-0.01831273;-0.059910256;-0.04904062;0.10555899;-0.2923663;0.007989263;0.110330865;-0.16235659;-0.16373448;-0.23805946;0.20166492;0.09719349;-0.0027173408;-0.07246195;0.19193679;-0.17760217;-0.13272753;0.2557576;-0.29574978;0.015068428;0.0035214887;-0.21045782;0.0025159104;-0.0023786048;-0.10164571;-0.21501496;0.010361038;0.3950377;-0.018778088;0.020305846;-0.1285397;0.006057199;0.008241473;-0.146015;-0.023718858;-0.009809087;-0.19914679;-0.01647159;0.0029298149;-0.055855382;-0.030821947;0.07942496;-0.21352404;-0.20581682;0.00019090452;0.25331062;0.0077382964;-0.02806156;-0.17007445;-0.109595075;0.014257486;0.24281134;0.08168895;-0.25697857;0.20977393;-0.018197944;0.027871672;-0.11463029;-0.38979846;-0.21972354;-0.09351475;0.0011637943;0.17752436;-0.0027129757;-0.061144684;-0.07479137;0.00235758;0.0053074933;0.38758916;0.14127861;0.057251226;0.005618947;-0.016519403;-0.1498849;0.10865488;0.002034625;0.2569249;0.011247949;0.009772491;-0.23620093;-0.2505184;-0.11345776;0.3443763;-0.0071898075;0.3546602;0.07027554;0.22138855;-0.002823443;-0.18451038;0.01301148;0.008736448;0.04292277;-0.09083536;0.0544815;0.14279914;0.001978086;0.007554547;0.121656135;-0.0052362448;0.15354788;-0.3757068;-0.18093026;-0.0057084654;-0.006259892;-0.023561427;-0.07407723;-0.36253962;0.0047674216;-0.0078021577;-0.06434975;0.0777903;-0.32972747;0.035375215;-0.12498758;-0.03918232;0.15025772;-0.25660616;0.15752803;-0.004584797;-0.015706044;0.16953276;-0.21752591;0.2188948;-0.16825217;-0.013923797;0.06448101;-0.15636362;-0.083590165;-0.07754833;-0.0371688;0.13018939;0.01451838;-0.14879447;-0.007942487;0.024776947;-0.17302072;-0.21841294;0.002790464;-0.5902462;-0.016039697;0.1257103;0.3712541;0.061309278;0.12982532;0.07778939;-0.20998906;0.005875319;-0.14247562;-0.0017098394;0.060283482;0.005179265;-0.023766473;-0.23795779;0.059979852;-0.09924413;-0.14318347;0.028604545;0.005671473;-0.121266134
-0.27734974;-0.2488346;0.0075150165;-0.03677328;0.010675266;0.016133199;0.15976447;0.018457329;-0.25666034;0.0041457033;0.037768587;-0.1604403;0.022620045;-0.0121876355;-0.0051060035;0.0055548595;0.018014073;-0.1594096;-0.04410346;0.098939046;0.029558891;-0.10057491;-0.17757908;0.085538216;-0.00577809;-0.024294388;-0.0038216007;0.0054198215;-0.10479809;0.21848628;-0.3935017;0.09324833;0.2547846;0.029377472;0.00059717573;-0.008459259;0.015915316;0.124634445;-0.06088817;-0.03405988;0.049224544;-0.029546574;-0.05241709;-0.14917922;0.08302949;0.058855038;0.023709347;-0.009639025;-0.00074277783;0.03455357;0.018204583;-0.07794977;0.12932286;-0.18140298;0.08082858;0.0025006528;0.382679;-0.056898784;-0.0070129987;-0.012292297;-0.008471588;-0.058926422;-0.0019323438;-0.009301311;0.30743763;-0.028014772;-0.009189567;0.048021547;0.055629257;-0.017592544;0.026660817;-0.028623024;-0.12004167;0.19576716;-0.24368526;-0.00081166346;0.04690383;0.23185788;-0.018561045;0.0046235505;-0.017865147;-0.024856932;-0.01799052;0.030783158;-0.24772969;0.14023688;0.012383257;0.17596626;-0.0023271963;0.005380845;0.29331684;0.013851003;-0.13786288;-0.02843228;-0.07810946;-0.031675916;0.10282785;0.095719926;-0.12707411;-0.1870389;0.006397818;0.12981589;0.054865792;0.20006885;-0.087647334;-0.19744168;0.027277475;-0.12701334;-0.0680033;-0.0468251;-0.107741594;0.05501286;-0.009954623;0.15257962;-0.11351509;-0.0014795884;-0.0029664836;0.20663781;-0.45854774;-0.0797039;-0.10901641;-0.06363951;-0.2077161;-0.47790754;-0.07583104;-0.004070646;0.06955365;-0.26763722;0.09649961;0.14991598;-0.025663314;-0.2834432;0.27186018;0.0033585133;0.089016534;0.0027654534;0.05968372;-0.01628148;-0.10250183;0.17590348;0.0078066397;0.16159445;-0.5262465;-0.12431485;0.0037884435;-0.010337159;-0.049727045;0.012330153;-0.17398895;-0.104837954;-0.008332846;0.035324994;0.08704439;-0.1342381;-0.018752856;-0.12613848;0.22574036;0.18509619;-0.0017673605;0.09980634;0.087084346;-0.34265527;0.2253607;0.0052620196;-0.06280322;-0.1467143;-0.009219707;0.17120133;0.4443827;-0.1027844;-0.31417465;0.0075358073;-0.0117292795;0.038474724;0.15548582;0.112473495;0.019269288;-0.15376961;-0.28223497;-0.0031624897;0.004235153;0.0130621325;0.06256068;0.27488816;0.0133982785;-0.13099515;0.007482344;0.018267917;-0.019105833;-0.016355807;0.035342213;-0.09844661;0.092115894;0.017049488;-0.039675314;-0.19451666;0.16515334;-0.08816744;0.20578659;0.06643254;0.013705802;-0.015095862;-0.539813;0.10094275;0.1732741;0.057187207;-0.21224055;-0.066024415;0.27034461;0.1610214;0.40093163;0.15097938;0.10733443;0.0020341822;0.014159455;0.015414677;-0.14302291;0.09382677;-0.3489767;-0.12045372;-0.061645545;0.083124354;-0.2528697;-0.0067409184;0.26307845;-0.38426238;0.37577778;0.16099568;-0.2916581;-0.010470574;0.045880143;-0.03653108;-0.13248122;0.02213994;0.046045527;-0.20641012;-0.15351179;0.0056923092;-0.14915688;-0.20985797;-0.082761176;-0.012227364;-0.12716755;0.00036345574;0.13228919;-0.058118373;-0.1536764;-0.07164882;0.0063186768;-0.046688143;0.11635919;0.016599637;0.20271233;-0.004612849;-0.0016304733;-0.34016776;-0.101692095;-0.0097885365;0.020126114;0.0012723721;-0.2718111;-0.103298604;-0.010052806;0.007304054;-0.0044059907;-0.009170208;-0.038338058;0.41568458;0.18465331;-0.1772903;-0.13513248;-0.20224737;-0.21623346;-0.21307813;0.02417898;-0.014861689;0.3070011;-0.16661069;0.0057896595;-0.013010681;-0.0032491162;0.06526612;0.08130575;-0.305808;0.11500583;0.12290669;0.014825342;-0.052945577;0.0014614677;-0.5205649;-0.045869555;-0.3206324;-0.4250552;0.019231243;0.09381778;0.016371304;0.22602628;-0.5288641;0.017170109;-0.0048690885;-0.008951727;-0.020402757;-0.011393625;-0.04435856;-0.23585474;-0.09252851;-0.18039061;0.00562436;0.12199027;-0.081811845;0.13979006;0.017325513;0.17874534;0.008666483;0.019838782;-0.012379972;0.12947735;-0.10163538;-0.05206596;0.007010872;0.13570662;-0.25869402;-0.37271392;-0.016581742;-0.021206496;0.2580966;0.15628697;-0.023365607;0.040720705;-0.022040142;0.013979128;0.010751511;0.009956965;0.0061098;-0.27899086;0.011201064;0.21947324;0.14083733;-0.10425782;-0.13804184;0.008986011;-0.054164473;-0.010859518;-0.10094103;-0.024309104;0.25696737;-0.31416714;-0.073955856;0.026067097;0.015819836;0.011061544;-0.27200395;-0.39249697;-0.36985108;-6.68933e-05;-0.090452716;0.022301862;0.12697159;0.09367572;0.12731452;-0.026903605;-0.0035334392;0.076470815;0.13440019;-0.017818345;-0.119771145;-0.12949918;0.14279957;0.15381306;0.39669463;-0.004143684;-0.00094990345;-0.0067485394;0.023216931;-0.36273566;0.032060668;0.43685663;-0.2532452;-0.27130583;-0.1425199;-0.25154382;-0.053869944;-0.26776952;0.029988864;0.07711374;0.34073803;-0.15146998;0.024727892;0.5321853;0.18593253;0.07101723;-0.0041146665;0.0029249752;-0.15297434;0.32421586;0.16124387;-0.014567079;0.026936382;0.0172925;0.011761982;-0.017911086;-0.08462264;-0.16113874;0.014069126;0.04038443;0.016430443;0.27465996;-0.23053522;0.09596631;-0.019876799;-0.45279124;-0.3032116;-0.32820866;0.020287298;-0.24851392;0.3164881;0.044866245;0.13035078;-0.06032152;-0.07009899;-0.025022421;-0.030445859;0.013256955;0.27055043;0.03228364;0.014841561;-0.27279177;-0.16146055;-0.13160719;0.032254174;-0.20834343;0.23757347;-0.06148429;-0.07615374;-0.22151875;-0.23139077;-0.023078037;0.031833496;-0.5247983;0.010205488;-0.010514294;-0.16269316;-0.39227057;-0.033552695;0.32913095;0.010403894;-0.007065671;0.06000099;-0.014713084;-0.015266567;-0.14245686;-0.20302834;0.0023020552;-0.034901462;0.008202106;0.00903003;-0.26194862;0.054100502;0.32336342;0.02022693;-0.2557887;-0.00046427405;-0.0027107608;0.0018192265;0.008920723;-0.22899355;-0.23422821;-0.016283698;0.24155371;-0.10472309;-0.4810745;0.19278075;0.01394514;0.069811314;-0.17463647;-0.24590279;-0.112634644;-0.23463275;-0.01550659;0.30498675;-0.022667844;0.057919294;-0.0012334748;0.017849736;0.11441216;0.20142841;0.22585931;0.14634773;0.050689712;-0.21381277;-0.103428654;0.11141491;-0.010632693;0.033376213;0.014195296;-0.032897446;-0.2269939;-0.36444947;-0.035841096;0.11195884;0.0027068988;0.34560668;0.07446198;0.3577179;-0.0010978397;-0.11988941;-0.004405651;-0.007544606;-0.05091572;0.0916056;0.03296566;0.20328864;0.012772241;-0.0018203154;0.15459037;-0.012326463;-0.0022271415;0.08126261;-0.089639604;-0.0045572803;0.032615785;0.016271655;-0.025134463;-0.12886174;-0.019607345;0.008101101;-0.06975273;0.22748612;-0.120883696;-0.036284763;0.087926745;0.049033355;0.24329358;0.045296196;0.043212596;0.0084312465;0.0072243945;0.16104092;-0.026008656;0.25389615;-0.37540296;0.00926431;0.21273497;-0.37490985;-0.13036714;0.120010406;0.012235487;-0.021103753;-0.02600783;-0.33086514;-0.001990418;0.0021487009;-0.1007186;0.008062052;-0.020472517;-0.25339654;-0.18522789;-0.15790713;0.3692302;0.001161669;0.21641327;0.1649987;0.002690302;-0.0047006644;-0.2789898;-0.0891083;-0.0523417;0.009016168;0.008205169;-0.18678974;0.15567294;-0.07183494;-0.11819683;-0.04085518;-0.00086865836;-0.22473404
-0.21760899;-0.13474493;0.0012924069;-0.05648828;-0.013216645;-0.048866764;0.06728684;-0.0050939466;-0.3931548;0.004966258;0.037320178;-0.12539096;0.007574285;0.010266794;0.03727375;0.028470058;-0.002330644;-0.12981704;-0.18071428;0.0031336418;0.0978087;-0.18197425;-0.0048142145;0.3015548;0.0036809607;-0.160925;-0.0051472923;-0.13498537;-0.050073467;0.0760707;-0.06194887;0.16293995;0.027157063;-0.016025012;0.022565804;0.016581552;-0.009743166;0.032823324;-0.111745;-0.106325805;-0.037070632;0.008823394;0.23787159;-0.105869316;0.08304754;-0.0012075558;-0.02712493;0.039272048;0.00043344544;0.11595554;-0.018967973;-0.12848361;0.15204121;-0.21576715;-0.07191526;-0.0063564735;0.09076519;-0.22575407;0.044884317;-0.009588726;-0.011590457;-0.13884255;0.0057490356;0.01286629;0.3150553;-0.051672153;0.0007310093;-0.030790122;0.09757052;-0.00880215;0.119425036;-0.0022257871;-0.101999305;0.16250348;-0.059549224;-0.0016036419;0.0629783;0.08832613;0.017640488;0.034704562;0.025764702;0.020346958;0.011512312;-0.023294043;0.054938708;0.24361962;-0.025074493;0.55882347;-0.010808802;-0.0078712655;0.12122706;-0.004131032;-0.15076025;0.032809213;0.18519677;0.058937505;0.051250532;0.06137512;-0.28190416;-0.3046721;-0.067019455;-0.16969974;-0.041403525;0.040831085;-0.03385351;-0.2751737;-0.022400195;0.13726792;0.07738106;0.044812243;-0.28017947;0.25414097;0.02134377;0.13175352;-0.0002800895;0.0038419003;0.016289935;0.18557347;-0.40627208;0.0118207885;-0.19047193;-0.14444405;-0.45876694;-0.39491054;-0.19968435;0.042565804;0.047695506;-0.057412595;0.05720227;0.11728567;0.049850225;-0.2898401;0.037814204;-0.008385881;-0.20005049;-0.0069291745;0.13409138;0.010221162;-0.12933579;0.24326779;0.0032200732;0.058401335;-0.45946318;-0.06866402;-0.21216168;0.011924864;0.07810193;-0.0065510347;-0.07144532;-0.1576528;-0.0049291756;-0.10857352;0.0812368;-0.088545546;-0.09476439;-0.441022;0.35562974;0.20996918;-0.0062276986;0.06562058;-0.03338138;-0.40300438;0.2883774;0.0040446348;-0.00017666683;-0.1367126;0.000569572;0.05489059;0.27150756;-0.05696231;-0.011072514;-0.004669894;-0.03601401;0.034343112;0.30575317;0.09374177;0.043016843;-0.21227257;-0.5976292;0.014952037;-0.004925569;-0.006227831;0.011623816;0.39692488;-0.029745836;-0.027243285;-0.011015235;0.023696665;0.050137036;0.015708735;0.33465928;-0.00055325596;-0.20902307;-0.023350682;-0.172305;-0.1878303;-0.00092804583;-0.10815154;0.026005955;-0.14445572;-0.037840877;0.089359306;-0.5208507;0.0683445;0.33680952;0.003681905;-0.13194713;0.14096794;0.15731443;0.33539894;0.26163638;0.120079055;0.3115255;-0.00029780928;0.04960894;-0.012984033;-0.22708598;-0.016522225;-0.37661746;-0.23478423;-0.15378238;0.008296633;-0.15493207;0.0037846188;0.29028317;0.046042476;0.38906866;-0.11353346;-0.25461861;0.01050868;0.04981938;-0.035632048;-0.06601499;-0.16261996;0.13416992;-0.3071138;-0.27373633;0.0037927828;-0.084751256;-0.28943306;0.0450673;0.11140156;-0.12364526;0.0010665179;0.10758316;-0.24289565;-0.11519348;-0.021418782;-0.004734256;-0.024499305;0.30287784;0.01020762;-0.03126043;-0.17523594;0.008401863;-0.39465952;-0.08853485;-0.008624309;-0.0031911745;-0.008972689;-0.37265512;-0.0084646195;-0.005883562;-0.0021180573;-0.00273082;-0.02658419;0.08698404;0.26322615;0.19271094;-0.07326303;-0.13440834;0.028908852;-0.07557913;-0.13106644;-0.017287934;0.019555572;0.25469628;0.030021513;0.0037477282;0.012863041;-0.0055460483;-0.06071861;-0.10562394;0.006996294;0.2516273;0.06847268;-0.018155253;0.1777908;-0.00044191445;-0.29392993;0.16458508;-0.13633725;-0.07024259;-0.07501214;0.04588111;0.07584183;0.20880473;-0.4236311;-0.013610501;0.004623236;-0.12668651;-0.009028282;0.013281036;-0.05640126;-0.2840671;-0.18176486;-0.2452777;-0.017913627;0.024750123;-0.116849996;-0.03232761;-0.016119558;0.2145913;-0.010569701;-0.18767549;-0.050172567;0.03443068;-0.19708295;0.14644326;-0.008919396;-0.28602532;-0.1600088;-0.33927333;-0.015794126;0.003025173;0.21297154;0.2678969;-0.0050020204;0.07466393;0.025015857;-0.0034337544;-0.0018609071;-0.008478673;-0.01155652;-0.28776675;0.0038652718;0.1272303;-0.050408494;-0.27028155;-0.13209434;-0.0005142723;0.19783962;0.022112396;0.3767132;0.048586257;0.2572474;-0.2005509;-0.081104554;-0.24031718;-0.016569108;-0.012789421;-0.18341011;-0.4758158;-0.32035202;0.009193717;-0.049046353;0.036435235;-0.06484974;0.08790816;0.20180663;0.023324983;-0.0007870736;0.10232555;0.17369345;0.012740074;-0.010931747;0.12870535;0.23279692;0.1296819;0.28252557;0.01090395;0.012731246;-0.0024399145;0.23743217;-0.055923026;-0.04176553;0.33719078;0.027218262;-0.15964346;-0.08432915;-0.27157757;-0.004984573;-0.13368182;-0.16475295;-0.015006183;0.35590896;-0.0072244504;-0.15362328;0.055344593;0.067793675;0.013714014;-0.018694978;0.0081930645;-0.20978433;0.20817743;-0.0056984504;-0.00331214;-0.0102983685;-0.0039106486;-0.011604438;0.016171534;-0.4063519;-0.14585389;-0.0028851875;-0.2542774;-0.0037895124;0.17611855;-0.18927413;0.10272521;0.010136103;-0.15594427;-0.27260646;-0.16454189;-0.0021681204;-0.104224265;0.12877248;-0.10078152;0.0027981794;-0.02462549;-0.08483117;-0.4098428;-0.0849793;-0.010965272;0.053467445;-0.47210324;-0.23674256;0.08839724;-0.16070615;-0.028330991;0.019321002;-0.10691558;0.19228569;-0.03917972;0.082147434;-0.546908;0.14096989;0.023499127;-0.015340043;-0.33679605;-0.007490715;0.022898648;0.10149438;-0.3080654;-0.051736444;-0.2544445;0.0006727125;-0.031726513;-0.008906758;0.010970604;0.010317513;-0.16451836;-0.19330809;0.011083112;0.14406648;-0.002653146;-0.009047223;-0.22108635;-0.18696116;0.35050505;-0.09675771;-0.27829438;0.0034232233;-0.05994028;0.012645852;0.0018537621;-0.22807775;-0.33414185;0.004936952;0.29080385;-0.20715362;-0.15834701;-0.058713164;0.001739957;0.11225029;-0.24112464;0.26263428;-0.15656504;-0.1277178;0.01607336;0.09240499;-0.0007894075;-0.026558582;-0.010847485;-0.011120541;0.0065714004;0.41156867;0.27107966;0.28287083;-0.010154359;-0.15562356;-0.27576414;0.11114132;0.008546178;0.035120796;0.0053246715;0.00942093;-0.25650126;-0.4624453;-0.006216477;-0.18838279;0.0014938962;0.14403854;0.030653084;0.45720497;0.0074938587;-0.22913872;-0.01504195;-0.009972015;-0.0006172929;-0.0041024685;-0.024892587;0.26074955;-0.018078668;-0.0020192126;0.08088117;0.010428134;0.19666518;-0.025978249;0.14380324;-0.009344251;-0.15340737;-0.015108882;-0.03321174;-0.10693861;0.0074388874;0.0025283373;0.008048218;0.21040663;0.017027978;0.047199585;0.025844343;0.17835227;0.282086;0.069208026;0.013281797;0.0060549937;-0.01300956;0.24892166;0.0061718817;0.18264778;-0.4197185;-0.009447604;-0.11738727;-0.17397389;-0.26732686;0.3242348;-0.1382028;0.033113424;0.02275245;-0.43020812;-0.0076546194;0.13909365;-0.07534205;-0.14221334;0.0132666305;0.06882427;-0.2269571;-0.032637063;0.36591014;0.03767326;0.115115106;0.18896422;-0.02817938;0.009729393;-0.057597287;0.034152325;0.01704577;-0.00085133483;0.0075348546;-0.15012127;0.26851186;-0.020243837;0.028443053;0.0036785174;-0.0037775845;-0.31765205
-0.40551114;-0.19206062;0.018629646;-0.059117336;0.027519435;-0.070204034;0.064436994;-0.0020857416;-0.25443274;-8.62012e-05;0.008914651;0.00028147383;-0.0077469447;0.005096276;0.121418975;-0.037462786;-0.00776601;-0.10175963;-0.14661215;-0.18348087;0.14686184;-0.17927268;-0.12214745;0.23104115;-0.0050261077;-0.039494466;-0.015504535;0.115164064;-0.020760395;0.098591745;0.0024855195;0.22752926;0.13386661;0.0029150564;-0.0035088365;-0.014110377;-0.0006989711;0.1237085;-0.33326992;-0.037514664;-0.31562942;0.06009754;0.08436974;0.13141376;0.16848002;0.1529392;0.015342376;0.045877203;0.009476199;0.15616825;0.008474703;-0.22977784;0.22581263;-0.18226366;-0.19202061;0.004641832;0.14238986;-0.2096995;-0.055356685;0.012868495;0.021944907;-0.020926984;-0.012261204;0.0019339086;0.18367381;-0.029225495;0.00012883512;0.0107574845;0.18496114;0.0025886206;0.069203146;0.015064399;0.06356302;0.37663847;0.05410007;0.00023864847;-0.01646915;0.17683585;-0.017002264;-0.19474316;-0.012650325;-0.017919045;0.0076602967;0.049098924;-0.16747701;0.17739664;0.032005895;0.35497135;0.0028651909;-0.00013360262;0.35364988;-0.011589017;-0.22511382;0.15827504;0.06254292;0.15536758;0.107049346;-0.1870797;-0.26329622;-0.18311855;-0.122067735;-0.1779782;-0.057402514;-0.13945735;0.082573354;-0.16792142;0.037886616;-0.053769886;0.14548284;0.16438776;-0.28976142;0.28962624;-0.03038969;0.19496895;-0.15861343;-0.004335444;-0.009157962;0.018515894;-0.42455631;-0.052115034;0.005869472;0.010259775;-0.23244683;-0.11209857;0.0658812;0.09768209;-0.13106166;-0.26477665;0.012690669;0.3371208;0.26605162;-0.31999332;0.13710403;0.01542467;-0.076026514;0.00334475;0.28711763;-0.018026888;-0.15263647;0.23157965;-0.00823383;-0.1434867;-0.061198577;0.15721795;-0.02601073;0.009386814;0.21295302;-0.010860405;0.05246604;-0.047480065;0.0008195299;0.20584221;-0.103866786;-0.23024929;-0.12688911;-0.35090286;0.16779083;0.17000966;0.01404911;-0.2213823;0.22024786;-0.32963237;0.263654;0.0075823073;-0.014641117;0.09214791;-0.012420574;0.11760891;0.0443953;0.1892223;-0.037353057;-0.006837948;-0.008926512;0.09973256;0.054825533;0.028788969;0.051314864;-0.13519654;-0.39394492;-0.009111608;-0.007641947;-0.018875891;0.33835724;0.38621753;0.0054993746;-0.079064116;-0.010501013;-0.090164825;0.13561061;-0.008645662;0.20518857;-0.10448115;-0.11057619;0.0042584045;-0.029459503;-0.10942026;0.08377511;0.08774411;0.018986734;0.049954366;-0.17302407;-0.0035690574;-0.45291087;-0.16240726;0.2507959;0.028266743;-0.20646293;0.1243386;0.2025353;0.26428548;0.20269367;0.27538306;-0.012642618;-0.024713676;-0.04436003;-0.000491245;-0.19650143;-0.05031222;-0.35172406;-0.17703031;-0.116346434;0.063967645;-0.21368733;0.0060818754;0.027024975;-0.042278852;0.34685382;0.07855011;-0.25903806;-3.8104777e-06;0.15016432;-0.087981306;0.0017951219;-0.20682614;0.0344876;-0.011887842;-0.25599813;-0.018072497;0.06951562;-0.4211583;0.25620055;-0.07389885;-0.15586099;-0.006593277;0.15312392;-0.1701764;-0.09046771;0.029652165;0.011927814;-0.019588893;0.40826076;-0.004739097;0.18961415;-0.13812876;-0.0043758256;-0.32437336;0.022016915;-0.17835738;0.006208029;0.013367484;-0.33887276;-0.011996446;0.014876446;0.006891706;0.007637395;-0.022298459;0.26586187;0.28478825;0.07292404;-0.11775346;-0.237297;-0.0034443347;0.18554893;-0.22354421;-0.001966991;-0.008244981;0.15472649;0.1358846;-0.01865771;-0.011331664;0.0052427696;-0.04448203;-0.088884756;0.017781636;0.22505297;0.028276162;0.019232411;-0.009911247;-0.0027507453;-0.23357014;0.18715398;-0.40102303;-0.15122692;-0.1713396;-0.14243034;0.19089703;0.22906305;-0.4546794;0.01493037;0.0028403355;-0.10069425;-0.04489266;-0.004237682;-0.08136543;-0.33250478;-0.061424755;-0.3258648;0.024698112;-0.18409367;0.23786065;-0.18127903;-0.00066043856;0.24568568;-0.0010238091;0.12361787;0.07072557;-0.09360885;-0.270497;-0.054113463;0.01395487;-0.3623536;0.08524117;-0.19371063;0.022964373;0.005869093;0.6835667;0.14317647;0.021247404;0.06764799;-0.011523248;-0.010780181;0.010327072;0.007270472;0.0026168593;-0.12634191;0.010981923;0.18952231;0.042970773;-0.25174809;0.016959306;-0.002533086;-0.08275705;-0.0237834;0.19236465;-0.054710723;0.1474706;-0.15849417;-0.0796319;-0.23496452;0.012980354;0.0009619887;-0.18514948;-0.20483045;-0.29963565;-0.016665414;0.09415088;-0.053876393;-0.0480031;0.06797881;0.08638072;-0.032659117;0.015860865;0.13690507;0.16551587;0.08927655;-0.13010879;0.11128422;0.25204733;-0.19175208;0.15963927;0.0055191536;-0.01638124;0.020239653;0.1569788;-0.3067012;0.00048763637;0.24103001;0.23473713;-0.19956206;0.0150305;-0.0842286;0.1503869;-0.07637572;-0.4130516;0.010488046;0.28860968;-0.07004674;-0.08365087;-0.16710277;0.04508587;0.25083825;0.027227206;-0.0040428727;-0.16265017;0.07786781;0.044309407;0.028470062;0.00980019;0.0041719927;0.010276803;-0.022604207;-0.38268182;-0.110787764;0.016431319;-0.1693319;-0.009464901;0.029337963;-0.0001442042;0.33323258;-0.0017806344;-0.121828124;0.08575408;-0.15551402;0.021549236;-0.025790311;0.08012475;-0.02689284;0.121554315;0.1940518;-0.20996226;-0.42040175;-0.022342255;0.016744033;0.020250456;-0.35820246;-0.003355101;-0.068758085;-0.39331922;-0.11313823;-0.036020163;-0.064785585;0.050823603;0.07891331;0.017019179;-0.44429463;0.044068266;-0.011625933;0.0009471272;-0.36324877;0.008541341;-0.034668684;0.13539918;0.2653875;-0.08185638;-0.4438893;0.0019361967;0.003838604;-0.018987665;-0.009698289;-0.0004900553;-0.37392086;-0.25626186;-0.0027508282;0.14302081;-0.0013002686;0.002646491;0.0688653;-0.15772717;0.3082261;0.2442361;-0.029841388;-0.036574766;0.1778588;-0.010150956;0.026253983;-0.32514614;-0.23249443;0.0005560419;0.309641;-0.29211977;-0.09589193;-0.08212128;0.0026995451;0.023445299;-0.12493218;-0.3019307;-0.16408278;-0.24457188;0.009954638;0.16752954;0.03389755;-0.010513692;0.029511211;0.0045089377;0.010489271;0.3418143;0.18262845;-0.15624905;-0.09505061;-0.12864387;-0.22402364;-0.19793299;-0.01728001;-0.062267095;-0.013611308;0.009865798;-0.052665647;-0.31863514;0.06146246;-0.55244446;-0.010811931;0.22055888;-0.038321663;0.5428647;-0.017778218;-0.15188749;0.00079725403;0.015543694;-0.032596905;-0.18700933;0.021369422;0.028764617;0.011560393;-0.0096439775;-0.045644276;-0.0028134913;0.12407833;-0.08828722;0.087215506;0.00872894;-0.030631345;0.013421032;-0.2518868;-0.041476324;0.008688329;0.010545954;-0.081852734;0.12428544;0.17977703;0.0032417048;0.021729179;0.0784621;0.16686766;0.086848274;-0.017745173;-0.010013724;0.018292774;0.032412115;0.1983125;-0.058476634;-0.07491067;0.0064357393;0.02133394;-0.009241791;-0.26958796;0.30898628;-0.23055251;-0.13882299;-0.011846437;-0.43328622;-0.002395994;0.20848715;-0.018381119;-0.1102874;-0.0059922775;0.16124773;-0.39969382;-0.1289887;0.38267544;0.042866908;0.07501521;-0.02243019;-0.27107003;-3.2633274e-05;0.19249655;0.078259826;0.09830725;-0.0027544864;-0.00046756802;-0.34833705;0.174384;-0.055987693;-0.26339278;-0.16360028;-0.002352319;-0.29635954
-0.43583456;-0.27660584;-0.013004474;0.47415105;-0.014578226;0.06959953;0.010875527;-0.015818894;-0.055273652;-0.012882449;0.018573925;-0.13824867;-0.009467659;-0.006836584;0.019845583;0.047530532;0.007993006;-0.019473474;-0.17220263;-0.29859677;-0.072167866;-0.12183484;-0.06721764;0.23780935;-0.026778242;-0.109543435;0.0074252794;-0.0012619921;-0.14921418;0.26700982;-0.013079949;0.14256291;0.19373886;0.013068451;-0.012986598;0.010440368;0.0013448875;-0.016533008;-0.20731643;-0.33767086;-0.05750326;0.054542538;0.007460806;-0.008849182;0.12923503;-0.068631314;0.031247444;-0.02656126;-0.0039605647;0.037922174;-0.015802806;0.24223806;0.20359989;-0.16752711;-0.25936404;-0.0034778658;-0.036736883;-0.11637338;0.0026608738;0.0014275623;-0.0044480204;-0.021835074;0.0050744745;-0.011282279;0.1347063;0.01651917;-0.0009779528;-0.08955611;0.15637301;0.02970944;0.36911833;-0.010654787;0.080629036;0.2482413;-0.027596753;-0.00510348;0.08577349;0.1667302;0.01742527;0.01900755;0.0122871;0.17207672;-0.009821481;-0.07046535;-0.11040088;0.1252943;-0.02229835;0.36480698;-0.0057966276;-0.0019354429;0.060615275;0.0064131073;-0.243551;-0.27703968;0.022425491;0.20237628;0.1600503;-0.021362685;-0.40890536;-0.1272641;0.014242526;-0.31189212;-0.02589772;-0.13118394;0.076685786;-0.12757914;0.04323594;-0.0509737;0.030562086;0.33008885;-0.30605066;0.32236248;0.013852287;0.08340086;-0.051118005;-0.00413682;0.004622239;0.12650767;-0.26924604;0.13082159;0.18043263;-0.0011245714;-0.117573075;-0.2992689;0.12344521;0.09610467;0.072533;-0.14417122;0.03247845;0.24055009;0.26425025;-0.45056614;0.0656439;-0.018175902;0.09733515;0.009143739;0.12089505;-0.025637925;-0.09052165;0.25329867;-0.0012873597;0.13995206;-0.016501078;-0.033052024;-0.08485269;-0.009081662;0.28735337;0.002973504;0.15438288;-0.009439577;-0.0052976613;0.14073408;-0.17284548;-0.09016655;-0.05946893;-0.3842698;0.29445565;0.0034710797;-0.018823996;-0.1904902;0.13690147;-0.008686011;0.24036287;-0.0144762285;0.0094817765;0.24194466;0.02051209;-0.08413905;0.10524269;0.0121173505;-0.0473785;-0.0044753077;-0.1765841;0.0026516214;0.1376721;-0.061379705;0.018677473;-0.29255643;-0.3991459;-0.0077155377;0.00811187;0.019962924;0.002317252;0.2900526;0.0031632923;-0.13694453;-0.0036843931;-0.064866275;-0.29123262;0.008881944;0.23733848;0.088700846;0.13845278;-0.006760771;0.06783336;0.036474373;0.18380539;0.19352663;0.08996976;0.04162425;-0.15497;-0.044870093;-0.19139685;-0.27498075;0.020484446;0.18431796;-0.2345398;0.3383735;0.3480288;-0.08946686;0.15383421;0.113830775;0.19448349;0.014701508;-0.0013002277;0.006435488;-0.27344662;-0.38063484;-0.05537981;-0.07961388;0.17447743;-0.24070776;-0.074528314;-0.001998763;-0.20601438;-0.24474569;0.1054008;0.24849746;-0.2974237;0.0003859843;0.11391019;-0.14197147;-0.2842175;0.014913643;0.033991974;-0.013613499;-0.17262664;0.0052924566;0.24558105;-0.54222727;0.122218795;-0.018758206;0.05750815;-0.005042994;0.25253284;-0.23656109;-0.08982513;0.18451376;-0.00947429;-0.024059616;0.27443376;-0.010624739;0.04538206;-0.14209603;-0.010079888;-0.06692485;-0.2255756;-0.097524345;-0.011262903;-0.002511667;-0.31227764;-0.18300283;0.009444675;-0.0009049954;-0.01789343;-0.005084586;0.18967146;0.07891497;-0.1501841;-0.07335715;-0.15985474;0.14949006;0.07331264;-0.28394526;0.012288109;-0.015788913;-0.034782037;0.31973255;0.02562945;0.0046784095;-0.0177907;-0.077829115;-0.0944264;0.09769536;0.37730172;-0.1306337;-0.003252551;-0.1580812;0.00481864;-0.5266608;0.37117428;-0.08206255;-0.0059563727;-0.14447401;0.072448306;0.46546432;0.17354606;-0.5081753;-0.011776439;-0.0009359669;-0.24042442;0.03542767;-0.00022147204;-0.10353989;-0.18892358;-0.169368;-0.084015384;0.009029868;-0.20856754;0.06293107;-0.35070312;0.014076755;-0.14708859;0.014174443;-0.052420415;-0.17718431;-0.16343307;-0.19925272;-0.36774883;-0.011109095;-0.32603958;-0.07410926;-0.36146614;-0.027865637;0.011292735;0.010338704;0.0040977336;0.0066473517;-0.029258065;0.002438468;-0.009146349;-0.009846836;-0.019167405;0.0061178813;-0.16555496;-0.011496861;0.1947435;0.15772966;-0.13764639;0.05781621;-0.01173289;0.055839065;0.024427554;0.014999385;0.03300302;0.15006098;-0.123970255;-0.011901602;-0.11965834;0.00554789;-0.0047366302;-0.4213365;-0.005939268;-0.16194671;0.0052756923;-0.06883234;0.023940105;-0.1702159;0.048276443;0.091374606;0.01339408;0.0074927136;-0.09736232;0.2210097;0.009213207;-0.28216505;0.40329388;0.23945315;-0.19499978;0.036725167;-0.008553542;0.027441718;-0.015518468;0.23936272;-0.41898412;0.0076290015;0.08656566;0.4367557;-0.09089278;-0.02254204;-0.2380854;0.032958817;0.30461106;-0.5337619;-0.036432303;0.35701343;0.01893227;-0.010741882;-0.18213941;0.08523382;0.33703947;-0.023933806;0.004219696;-0.16489203;0.27488685;0.078470856;-0.004134311;-0.018032106;0.004659639;-0.012197974;0.016550543;-0.26102522;-0.4906049;-0.021348594;-0.15083195;0.0047130277;0.004977712;0.1918291;0.32198885;0.014908304;0.029900968;0.17239627;-0.00045358867;-0.008129366;-0.060191475;0.03452145;0.21653636;0.24940304;0.08972371;-0.083286844;-0.25311866;-0.0637722;-0.027109623;-0.17954153;-0.36970654;0.13063554;0.0054136156;-0.29139;0.31574482;-0.007893637;-0.021727271;0.11076841;0.02148717;0.1605635;-0.25013617;0.019143471;0.01122144;-0.00085007714;-0.38403735;0.015563306;0.0016373679;0.13543493;0.0018042809;-0.34309098;-0.47140208;-0.0059022787;0.014560779;0.16271816;0.0052636727;-0.009240933;-0.12847266;-0.20412754;0.0058740075;-0.10756229;0.010239561;-0.01835606;0.017839376;-0.073491484;0.21514778;0.22601552;-0.044851564;0.022276506;0.15969156;-0.0065567703;-0.03812231;-0.002801932;0.043964364;0.012892792;0.11791806;-0.066986635;-0.2410421;-0.020578267;-0.022670334;0.15418297;-0.2806381;-0.13328235;-0.0152052045;-0.022364749;-0.009189186;0.15548295;-0.026229104;0.029268835;-0.021103764;-0.014568208;-0.13183974;0.20894636;0.028441872;-0.12551373;0.040539067;-0.09810351;-0.03781086;-0.25716543;0.01761543;-0.1999839;0.018016033;-0.007915182;-0.005926295;-0.06534393;0.11021081;-0.4742044;0.010254022;0.3268969;-0.031749714;0.6042696;0.018651221;-0.2895519;-0.007728054;-0.0042488114;-0.048458412;-0.12281627;0.1120765;-0.122741766;-0.0012407841;-0.004966421;-0.029228427;0.0024247905;0.013783519;-0.13444875;0.012529378;-0.006724379;-0.0014520054;-0.00014598684;-0.2091277;0.07508496;-0.014733964;-0.010627492;-0.18867634;-0.047037207;-0.07345349;-0.035559874;0.0223508;0.1398758;-0.030654788;0.13174033;-0.043194085;0.02266386;-0.017070442;0.16921154;0.23425585;0.04908779;-0.12129335;-0.0089816395;0.11371211;-0.15746045;-0.2604157;0.30199724;-0.39778054;0.012427364;0.013468578;-0.33024752;0.020243837;0.15643099;-0.17040725;-0.1552759;0.016649477;0.019458111;-0.34360695;0.0030432201;0.3366448;-0.011353324;0.14956582;-0.035348617;-0.3031446;-0.010490225;-0.06668472;0.22862564;0.026744213;-0.0038213294;0.004794622;-0.30196613;0.20225124;0.0026040326;-0.31333232;0.08358607;0.004373469;-0.1425351
-0.22242802;-0.0805508;-0.013291165;0.3953863;-0.01164849;-0.037423417;0.08324531;0.017128078;-0.16293441;0.0069790767;-0.22121124;-0.017716914;-0.00038036858;0.00073768233;0.012862827;-0.043592278;-0.014730248;0.0057550306;-0.11523941;-0.318717;-0.19136693;-0.15993936;-0.01597949;0.23256913;0.022011807;-0.1538424;0.011237272;-0.111811966;-0.073238485;0.22426926;0.23252465;0.071683876;0.18324575;-0.0012150398;0.003030211;-0.01343506;0.0014272012;-0.12648949;-0.10581708;-0.18797177;0.034031365;-0.014162745;0.12511839;0.29853904;0.04090058;0.007849534;-0.029013658;-0.031845048;0.0045451717;0.11688586;0.0074708643;0.24756965;0.2664016;-0.18301374;-0.37388787;-0.0011791454;-0.23190247;-0.13184908;-0.04065201;-0.0060342266;-0.011004102;0.0012670123;0.00034089678;0.009189745;0.08510891;0.052369714;0.014336524;0.036729597;0.2150728;-0.008288011;0.1166152;-0.010179128;0.20613213;0.2369294;0.08104974;0.009777441;-0.19952318;0.038198344;-0.004439533;0.06330051;-0.010785416;-0.16467623;-0.0036050957;-0.08096828;-0.1027702;0.13824981;0.004865578;0.2220366;0.0006412858;0.008326552;0.04687139;-0.0007130024;-0.11153495;-0.3591244;0.03310043;-0.018311558;0.13728683;-0.16286938;-0.19198681;-0.083127566;-0.2209604;-0.25738588;-0.26481518;-0.15333752;0.075211145;0.020009113;0.08131323;0.02081689;-0.13080794;0.33108723;-0.28117695;0.17267957;-0.0046336306;-0.017371643;0.050706636;0.0050751725;-0.004007747;0.16113235;-0.18822408;0.18314613;0.18708438;-0.043798555;-0.0405645;-0.49232417;0.119967334;0.11109208;0.071312;-0.29899198;-0.10172074;0.30899614;0.2266727;-0.56494516;0.01981582;0.005732389;0.12107657;-0.01293938;0.0027127583;0.0063861706;-0.028857958;0.10637752;-0.0076093324;0.23174028;-0.1326941;0.16684574;-0.16039506;0.0029848234;0.15990311;0.0006410036;0.24452424;0.15450868;-0.0064793937;-0.12477367;-0.16475691;0.041767415;-0.22398132;-0.35654238;0.17811424;-0.048795592;0.012640397;-0.20763445;0.2176984;-0.041059535;-0.107487336;0.00207867;-0.027350513;0.15911399;-0.017873596;-0.12439745;-0.08320093;-0.2935204;0.08645247;0.003418116;-0.35240415;-0.09738153;0.04973553;-0.18414593;-0.034786202;-0.21538669;-0.26166812;0.008073226;0.005808565;0.003538345;-0.40484783;0.26373208;-0.005376296;0.006995511;0.015755726;0.08753711;-0.040565524;-0.0007696376;0.35209772;-0.028866353;0.2193284;-0.0010960961;-0.010427645;-0.18992268;0.08933029;0.26140532;0.022419246;-0.106549256;-0.15601481;0.036448505;-0.19774137;-0.2299326;0.015541891;-0.25001746;0.020012988;0.28032857;0.32992098;0.0933772;0.01676614;0.064074904;0.11909482;0.008437906;-0.0066676424;-0.0026950722;-0.12061759;-0.33170068;0.015144131;-0.25231394;-0.07384083;0.105111495;-0.025115043;-0.005101426;-0.036461998;-0.33781892;0.104928866;0.25921804;0.10597447;-0.003775096;0.13938738;-0.22136246;0.007882984;-0.015356309;-0.15851183;0.117007725;-0.30525905;-0.011702452;0.1702602;-0.25678813;-0.035704307;-0.10404174;-0.19893374;0.014306457;0.16521926;-0.013808962;-0.26645955;0.11289571;-0.011426987;-0.013687222;0.15826888;-0.0042077177;-0.40090227;0.13176206;0.020929012;-0.25583166;-0.1448807;-0.1386908;-0.058723673;0.0018783574;-0.5409193;-0.12182773;-0.0060819057;-0.008778851;0.003237236;0.02671686;0.15397789;0.11900131;0.18410358;-0.23270123;0.023947129;0.1418956;-0.036881164;-0.2862216;-0.01023048;-0.001098359;-0.09415213;0.28832862;-0.012323299;0.004242261;0.0017836642;-0.2474319;0.048982784;-0.30366874;0.21421315;-0.053675983;0.006694273;-0.112234585;-0.0016474857;-0.26173592;0.40233973;-0.30180544;0.09788078;-0.14124608;0.0791914;0.461346;0.19896807;-0.53020376;0.00068755937;0.0026975633;0.008667656;-0.009563398;0.003076604;-0.08173316;-0.12910931;-0.141106;-0.4881584;-0.0358704;0.1312665;0.06733988;-0.53124434;-0.0036414342;-0.092390686;-0.022063341;-0.112954035;-0.26364794;-0.038770165;-0.2542434;-0.4251328;0.005942571;-0.38294196;-0.55093664;-0.18740879;0.017609477;0.0009178031;-0.3940229;-0.14274752;-0.013864142;-0.0015246585;-0.00026963616;0.015736701;-0.0107075665;-0.0021816378;-0.006101656;-0.08168625;0.023841623;0.19130948;0.0771129;-0.28786337;-0.07788039;-0.014791266;0.06419146;-0.026726723;-0.058308598;0.15511739;0.026953464;-0.21201436;-0.016546087;-0.08112353;0.0037093263;0.009320862;-0.042661835;-0.2420588;-0.060504958;0.0018732565;-0.11263701;-0.09943328;-0.13249299;0.27521718;0.04616913;-0.009498301;-0.011550319;-0.1644007;0.3105065;-0.07546997;-0.30081278;0.4181317;0.09427753;0.11592939;0.013546278;0.013922894;-0.019857427;0.005684938;-0.050168958;0.004872651;0.006865365;0.120889835;0.021914328;-0.23081616;-0.313426;0.19324842;0.26354703;0.18818282;-0.2721115;-0.13366742;0.1809791;-0.13781375;-0.023964189;-0.09756299;-0.33384353;0.30778378;0.027517712;-0.0016629986;-0.20864886;0.18423599;0.18509515;0.00030678816;0.006319231;-0.016612524;0.011178796;0.018608436;-0.16078839;-0.43387327;0.0031038057;-0.16682;0.003606717;-0.08731753;0.14019622;0.2825925;-0.016028719;0.08430525;0.28429967;0.0007962853;0.022669816;0.057503965;0.17603582;-0.13736796;0.093468994;0.110705785;-0.18755855;-0.49090055;-0.08739612;0.018905872;-0.03047232;-0.104089536;0.1782195;-0.00911969;0.01541741;0.012320712;0.010527449;0.028638354;-0.07185683;0.0016611811;0.20758048;0.026980532;0.27731237;0.0018968139;-0.027511297;-0.42444336;-0.01542966;0.012031955;0.061493047;0.047592197;-0.09956027;-0.4622092;0.013063465;0.0046234713;0.072904095;-0.013787364;0.005540871;0.20074521;-0.101165086;-0.009724133;-0.23976226;-0.011234186;0.008436376;-0.02626047;-0.060613126;0.041166075;0.3599528;0.16720591;0.021205267;0.060676977;0.0054301075;0.018769162;-0.41806585;-0.26802835;-0.0071428106;0.22924629;0.007345582;-0.30114084;0.026991067;0.025377674;0.057152998;-0.3371057;-0.24664862;-0.13596307;0.32803527;-0.0032558716;-0.009543946;0.014065505;0.016369794;0.019831063;-0.0035230399;-0.24497716;0.36117688;-0.13389358;-0.11709758;0.112094425;-0.03422268;-0.08793811;0.011476891;0.008105865;-0.09938415;-0.007292429;0.006881887;-0.0065738945;0.22909936;0.06022009;-0.38228753;0.01010543;0.2482055;-0.14701593;0.44881147;-0.0060197324;-0.2936188;0.016257143;0.0012809397;-0.04470829;-0.08227623;0.12504564;-0.14109837;-0.002955289;0.031922597;-0.02440874;0.0024933894;0.018686648;-0.1551525;0.14250253;0.014017742;0.026890345;0.00013390777;0.026059926;-0.15185593;0.0012163548;0.011954134;-0.06910182;-0.02281844;0.106816605;0.037219632;0.060358144;0.117962174;-0.09162376;0.01595805;0.0041147247;-0.020576607;0.018095767;-0.0020839754;0.23382151;0.067999035;0.081650585;0.0019526575;0.020118129;-0.15136264;-0.42382318;0.1556973;-0.3548682;0.010382928;-0.005952916;-0.23958938;-0.0077148457;-0.15662019;-0.22989318;0.06572933;-0.006986002;-0.06500637;-0.09975389;0.09470521;0.34916043;0.07271714;0.33170807;0.04622703;-0.07122058;-0.005639511;0.006816147;0.12532906;0.12309787;0.003066653;-0.0011754077;-0.3280422;0.09778203;-0.19079666;-0.36880058;0.07837061;-0.0054975995;-0.03682305
-0.3483694;0.079441324;0.0084176175;-0.055160295;0.020063862;-0.17135301;-0.12618606;-0.0006009513;-0.25454128;0.020416548;-0.13194576;-0.10679296;0.008702101;-0.0009101278;0.19189633;0.033186506;0.014792209;0.06413507;-0.30138355;-0.19537939;-0.2861427;-0.28500205;-0.036063194;0.43579793;-0.0067132255;-0.030564105;-0.012156544;-0.16016203;-0.08877294;0.068358906;0.26033986;0.13376056;0.12574393;-0.0027688385;-0.007238839;0.0010914601;-0.0118829915;-0.16373898;0.07907668;0.010068918;-0.021671435;-0.042861946;0.13109106;0.3950062;-0.0937071;-0.19481367;-0.0052416446;-0.06991568;-0.0053804102;0.17576739;0.013694497;0.02830878;0.17273062;-0.0870671;-0.10526258;0.024092715;-0.20794807;0.24661487;-0.017336262;0.009934828;-0.00030441443;0.05535977;0.003280129;-0.009145451;-0.09852439;0.14625771;-0.007675015;-0.046453934;0.1968875;0.0035412533;0.14747207;0.036689073;0.431459;0.06055355;0.033393778;-0.009917274;0.026569646;0.03210591;-0.00038008112;0.2388052;0.0037900305;0.0132206185;0.008328624;-0.10057925;-0.14152764;0.26906863;-0.0010975008;0.06747049;0.017251184;-0.008622225;0.06761742;0.020428935;0.019452281;-0.320843;-0.02902405;-0.06384331;0.2599673;-0.34481308;0.22294313;-0.025345162;0.010559023;0.05080354;0.020946156;-0.25439656;0.06639016;0.121473454;0.03356873;0.16433619;-0.13729039;0.37037212;-0.12307054;0.15674251;-0.0071248254;0.058130097;0.1301636;-0.016776918;0.00015677862;0.19660267;-0.1382751;0.11370098;0.17630866;-0.13839121;0.2325188;-0.67218465;0.095366724;0.12628265;0.16210182;-0.37272203;0.070523895;0.21288937;-0.04384923;-0.24554442;-0.18683709;-0.0032071564;0.0923685;0.013335564;-0.030565482;-0.02340907;0.0008167498;-0.15583645;0.01047245;0.032799073;0.2266832;0.33979744;-0.32661387;0.0021926817;0.018510679;-0.00391739;0.18333533;0.18314724;0.02319738;-0.26156524;-0.2856161;-0.10545275;-0.16719882;-0.26617113;0.29498735;-0.16221307;0.0076645077;-0.17643109;0.31627277;-0.18894885;0.115801506;-0.00030394405;-0.0039341003;0.20538336;0.011301953;-0.024181712;-0.07733593;-0.1367131;0.027882615;0.0005709123;0.041187007;0.1893627;0.14682001;-0.16856728;-0.004568892;-0.15830879;-0.22618146;-0.0035795288;-0.010212859;-0.017911604;-0.3019917;0.122634344;0.00672452;-0.06270325;-0.0022959711;0.11429643;-0.17956363;0.002888453;0.33530256;-0.09354622;-0.0072984477;0.0008102549;0.0414233;-0.13192096;0.05503321;0.289097;0.22335364;-0.42651084;-0.15641668;-0.15481298;-0.2505966;0.19336624;-0.045614306;-0.32732293;0.019904608;0.23897564;0.19965783;0.26564628;-0.2118103;0.26782888;-0.16321337;-0.012705385;0.016372656;-0.0051618894;0.10194362;-0.2165101;-0.09077653;-0.07572193;-0.14608003;0.046305023;0.049053527;0.007044879;0.0987521;-0.016026886;0.15718803;0.18743503;0.30758816;0.0018337017;0.10436814;-0.18440634;-0.20138863;-0.051045142;-0.14564282;0.06636469;-0.40106875;0.0021528087;0.0700878;-0.24437825;0.012784008;-0.16207488;-0.12668374;-0.02089685;0.04868936;-0.075210854;-0.32692322;0.13055287;0.011087895;0.042697493;0.20839036;-0.008113971;-0.22402738;0.21130542;-0.00862496;-0.21453598;-0.0362333;-0.20993969;0.010690445;0.007940433;-0.19357648;-0.35072175;0.005211151;0.0014660291;0.02207032;-0.0021514;-0.13123067;0.040564425;0.25099224;-0.4788722;0.0023089002;0.47279903;-0.07046143;-0.45004278;-0.0019100677;0.0029671974;0.062168226;0.12227581;0.002185325;-0.008266386;0.018203238;-0.04493718;-0.00062614674;-0.4561615;-0.15980789;-0.16654354;-0.015650794;0.28507254;0.007987855;-0.38730466;0.18150026;-0.1175413;0.00071381114;-0.019146284;0.26953605;0.31287947;0.021279907;-0.6225652;-0.0024222536;-0.004053557;0.14389215;-0.063746564;-0.0038275525;-0.15683733;0.0249071;-0.18988483;-0.26762593;0.026681438;0.06848473;-0.078951426;-0.41385517;0.0018601003;-0.03165838;0.008789253;-0.1453554;-0.13499066;-0.17010978;-0.34081817;-0.21109074;0.005617494;-0.075155675;-0.62007004;-0.1574335;-0.003035772;-0.008171918;-0.47984606;-0.2200693;0.015953781;0.12889737;0.0181507;-0.0023313467;0.018000774;0.003033988;-0.0016048544;-0.078886;-0.04344259;0.34573707;-0.032908548;0.0009005672;-0.09808848;0.025828497;-0.034474842;0.0039761206;0.022784093;0.08997482;-0.38007247;-0.1451201;-0.07190909;-0.201727;-0.01752253;-0.010879378;0.2449225;-0.20400797;-0.09974246;-0.0032684756;-0.01685652;-0.16614464;-0.16035376;0.35296148;0.16612029;0.021710811;-0.0056292242;-0.15124673;0.21179913;-0.00038488652;-0.28717935;0.3536403;-0.018521806;0.16505516;-0.16144891;-0.0052089626;-0.0002111478;-0.015459047;-0.013005513;-0.088891014;-0.005755713;0.082273476;-0.12626246;-0.324235;-0.2473555;-0.14376828;0.28003642;0.13732632;-0.42198947;-0.18600464;0.268893;-0.09759785;0.08360098;-0.058332656;-0.05653213;0.473874;0.0035786643;-0.013125615;-0.04934148;0.0040122746;0.04956149;-0.02845543;0.0015547528;0.015286964;-0.00999032;0.2095566;-0.00074655784;-0.3513503;-0.01495735;-0.13275409;-0.013707308;-0.038075175;0.20736896;0.3224924;0.006990407;-0.15223007;0.10962433;-0.12388435;-0.02111027;-0.052572835;0.11989751;-0.14760123;-0.09891914;0.0123518575;-0.27461168;-0.3720479;0.008346268;-0.006815875;-0.21734554;-0.52030826;0.002601581;-0.1597705;0.2424029;-0.22343078;-0.005062236;0.23580544;0.03802482;-0.03962153;0.26135436;0.007952531;0.17534555;-0.024929808;0.015410662;-0.094607756;0.007816306;0.0077512404;0.0013779524;-0.025581561;-0.078955255;-0.2704444;-0.016726404;0.018897707;0.27962592;-0.010637533;-0.009650892;0.21810251;0.22198859;0.007298907;-0.22005875;0.011861959;-0.009052147;0.09147235;-0.19698426;0.011588225;0.24880354;0.106145576;0.015185153;-0.018258046;-0.005331978;0.0071423226;-0.3223699;-0.4010292;0.0004523463;0.1536582;0.27673048;-0.22708751;0.08714082;-0.027630208;0.1664106;-0.23964414;-0.13021114;0.013949075;0.062163953;-0.00030855392;0.03762678;0.0062948773;-0.052022997;-0.03244904;0.008660802;-0.08415533;0.036918174;-0.2130728;-0.06413475;-0.11976373;0.25163844;-0.12121316;0.051653378;-0.00681213;-0.14544384;-0.0031054176;-0.02943252;-0.01115636;0.23058899;-0.05126482;-0.3855864;-0.01727896;0.2506062;-0.23355885;0.16949114;-0.0066306894;-0.10419435;-0.014095219;-0.014535188;0.088574775;-0.18606961;0.09672356;-0.22729518;0.0031098078;-0.034735404;0.048434354;-0.0012564001;-0.1871468;-0.06257374;0.11901467;-0.00614091;-0.06916262;-0.016314946;-0.07516711;-0.37491828;-0.004408101;-0.0071842787;-0.123622805;0.09326663;0.15125081;-0.0383956;-0.034238692;0.20596687;-0.116342425;0.07237476;0.029585548;0.013078908;-0.008190629;-0.16596483;0.26050428;-0.09369451;-0.05300767;0.011908422;0.06030575;-0.18849072;-0.51151955;0.018165473;-0.3249596;0.02731756;-0.0010390534;-0.15676452;-0.0009217981;-0.17851746;-0.38804772;0.18765642;0.0067203618;0.2024999;-0.17318769;0.09473548;0.23245548;0.22301261;0.060475763;0.15793893;-0.002145501;0.022642158;0.16623548;-0.056074172;-0.014458932;-0.0013243553;-0.019165771;-0.3699995;0.13903846;-0.14555489;-0.38167724;-0.09064047;0.016359234;-0.0017133923
0.035549335;0.14226042;0.015593704;0.2548449;-0.018080818;-0.27974895;-0.12517922;-0.0020393503;0.01671819;-0.030657345;-0.11881906;-0.105108656;-0.0072665694;-0.005194487;0.14424172;-0.016679283;-0.016248403;0.056955453;-0.12386723;-0.17453755;-0.18487614;0.0042859535;0.027147632;0.45005685;-0.0066784667;0.13729961;0.00570464;0.045825068;-0.13808611;-0.038751833;-0.064931065;0.02685757;-0.000787981;-0.0018638937;0.009152622;0.013949758;-0.0032618924;-0.27459478;0.04111801;-0.075527124;-0.19706288;0.010657575;0.21799424;0.4177526;-0.02670265;-0.26572606;0.010519766;0.10652014;-0.006853845;0.21297021;-0.026424244;-0.066040695;0.16887617;-0.026524706;-0.023216039;-0.0150907;-0.32517186;0.1053996;0.007815659;-0.014815674;0.008661035;0.13272446;-0.005573943;0.012859163;-0.1385325;0.089459956;0.0016114856;0.03653207;0.17766185;0.029001025;0.12098355;-0.022046722;0.1942652;-0.00039488074;0.0005765322;0.01104347;0.095229;-0.20284437;-0.012665039;0.16797718;0.007466611;-0.012176024;-0.0078992555;-0.03021722;-0.20688246;0.11298843;0.0021433786;0.038637813;-0.018509839;0.019392269;-0.18424618;-0.011669046;-0.08059313;-0.10089071;-0.02729252;-0.094876006;0.37300685;-0.47716755;0.03758535;-0.095447674;-0.04056491;0.22080466;-0.0772633;-0.14027113;0.19076307;0.187365;0.033653412;-0.010265623;0.0797191;0.16971558;-0.38933504;0.048624616;0.024509963;-0.0072016455;-0.052337267;0.016123911;0.009839345;0.25775242;-0.16487816;0.063702784;0.1685486;-0.15875888;0.25708747;-0.38295862;-0.016478289;0.15699497;-0.011257405;-0.24119481;0.13709219;0.22488022;-0.02003723;-0.34823617;-0.2807194;0.007848936;-0.056329522;-0.011081172;0.0723023;0.026351778;-0.011365167;-0.26272386;0.004838516;-0.048911154;-0.02926174;0.13722613;-0.23677015;0.0045229495;-0.099136524;-0.00035035767;-0.1265462;0.06543247;-0.0025106773;-0.19466285;-0.3117138;-0.35331342;0.046903167;-0.19751886;0.18488412;-0.15162382;-0.014977565;-0.24264893;0.08460615;-0.24257198;0.14826833;0.00429693;0.023291355;0.18568477;0.0006148848;-0.09399605;-0.13914084;-0.44325602;0.13247591;-0.007328336;0.30882856;-0.17800805;0.20044143;-0.30144113;0.0021874942;-0.10076818;-0.26500374;-0.01552096;-0.0005591648;0.008207078;-0.08683105;-0.19198424;0.009096592;0.19587661;0.0022943416;-0.043988943;0.051297173;-0.009580812;0.09832542;-0.23568241;0.15575354;0.008672603;0.0704322;-0.047719147;-0.03573891;0.2620564;0.044393513;0.043084376;-0.2009301;-0.18237008;0.002385985;0.24243632;-0.18648605;-0.14565356;0.028528538;0.401863;0.30492702;0.19881901;-0.10592521;0.09451082;-0.2187854;0.006302669;0.014832983;0.007953008;0.0036237838;0.010302176;-0.056429055;0.036897715;-0.043862265;0.015028945;0.20603131;0.0037367865;0.17420603;-0.07291262;0.09817167;0.12395631;0.17974204;-0.013813516;0.2063524;0.079516426;0.044426616;0.11988338;-0.22502114;0.038800325;-0.3618321;0.0109753255;-0.04239712;-0.4238324;0.02935457;-0.03738459;0.047239993;0.0045568952;-0.13406017;-0.08877149;-0.41463202;0.17093138;-0.0002982513;-0.061975963;0.101307206;0.025063422;-0.1472463;-0.10220548;-0.0036024577;-0.091164365;0.15106507;-0.2141688;0.010697459;0.009378276;-0.451136;-0.20715258;-0.0040479987;0.011721682;-0.027720356;0.035592664;-0.08855163;-0.16575964;0.20351748;-0.45091987;0.17035505;0.20658615;0.120256975;-0.389281;-0.001978909;0.0012619057;-0.03446524;0.16646744;-0.009622639;0.0012863836;0.0028679566;0.05708781;-0.25120458;-0.6417835;-0.47516415;-0.09802286;0.0046781804;0.3313871;-0.008146101;-0.2834325;-0.13125859;-0.12297803;0.22967611;-0.043877035;-0.09778632;-0.17284219;-0.17557871;-0.5288954;-0.0006830416;-0.007196739;0.35828546;0.040031366;0.0034075323;-0.09579822;-0.13748853;-0.37367508;-0.20071697;-0.0047514187;0.29656062;-0.09793014;-0.5213881;-0.001242742;0.16335927;0.016200813;-0.14899093;0.09924137;-0.10840686;-0.4281934;-0.12876183;-0.019769367;0.11700301;-0.53991604;0.008886469;0.013690492;0.01564489;-0.08317647;-0.105128266;-0.01799101;-0.036803685;-0.031926624;0.019734023;-0.019721033;0.019678839;-0.016532771;-0.028815646;0.02749986;0.40661326;0.0015373112;-0.11581556;0.018132139;-0.014374026;0.039194696;-0.0030361866;0.054308236;-0.017343206;-0.3801888;-0.093192086;-0.0013825931;-0.11612841;-0.0025725863;0.018880423;0.43788746;-0.2820956;-0.30896935;0.0074923835;0.07895877;-0.04302471;0.08589267;0.2731872;0.18862167;-0.0015126996;-0.0059431978;0.066940315;0.1254071;0.027009357;-0.24412662;0.19708437;-0.040186834;0.31460944;-0.31692186;-0.018674864;0.008874768;0.023782844;0.013635539;-0.027349114;-0.0018535424;0.01533597;-0.18598616;-0.30066097;-0.3652589;-0.08795596;0.23331657;0.18217324;-0.4651959;-0.37352625;0.099703476;-0.07728555;0.11224491;0.23413694;0.030518195;0.340472;-0.0052046054;0.02320826;-0.108629666;0.09441472;-0.039444003;0.018203933;0.007197616;-0.0071078865;0.0010311394;0.094431445;0.24398121;-0.27757567;0.01744222;-0.0061903857;0.005250195;-0.36900106;-0.059588887;-0.06865108;0.00081206096;0.032850128;0.013015534;0.03442162;-0.032604143;0.061247062;0.030852653;0.052977156;0.06444297;0.3659102;-0.14146072;-0.4482486;0.16419414;0.0145111075;-0.26457417;-0.47270596;0.044761453;0.049935624;0.29059818;-0.13344328;-0.01521359;0.16619024;0.081000134;0.05340797;0.050988078;0.17103805;0.14488564;0.026008382;0.028030518;0.07028604;-0.012780227;-0.030371822;-0.0684414;0.13467465;-0.15850624;-0.07404816;0.019755285;-0.021092145;0.39883676;0.013092045;-0.003957572;0.11858879;0.11696268;-0.008915905;-0.24554195;-0.0012329639;0.0119206505;-0.0186865;-0.019076757;-0.009069973;-0.061549857;0.1882609;-0.031911504;-0.14150207;0.01721614;-0.02290618;-0.26005986;-0.15782426;-0.010706391;0.07498704;0.27925584;0.20280601;-0.013368767;0.021752365;0.3081415;-0.27522567;0.14073634;-0.101710774;-0.209013;0.0027287803;0.23829295;-0.004187114;-0.0009902667;0.1088447;-0.026915647;-0.042301543;0.07569656;-0.17400512;0.020142717;-0.0670692;0.127523;-0.16542403;0.034972325;-0.0069405767;-0.1957525;-0.008025521;0.01668757;-0.03009106;-0.003794572;-0.06972902;-0.51310265;0.009758433;0.13707061;-0.3322948;0.14562772;0.012899512;-0.12941124;0.022200529;-0.0032444822;0.0022877948;-0.14437255;0.14609247;-0.13422935;-0.017823761;0.0079545425;0.10184531;0.0016126942;-0.043018192;0.07253587;0.012789134;0.006036461;-0.21250474;0.028088989;0.0046707266;-0.4715701;0.0019338609;-0.018874116;-0.12817313;0.04914518;-0.11926516;0.03728257;0.19364314;-0.017412497;-0.07142365;0.2554895;-0.004851077;-0.017111741;-0.0029417097;-0.31835917;0.34331638;0.122369096;-0.02211967;0.008203147;-0.013905034;-0.18206327;-0.32488447;-0.3219728;-0.2165619;-0.004614927;0.020231672;-0.16461253;0.0008013209;-0.18901676;-0.3805217;0.43638375;-0.02311906;0.17552422;0.17087476;0.29164332;0.15184028;0.26834014;0.07044973;0.015189062;-0.20484304;-0.022982016;0.19337286;0.14758918;-0.25811258;-0.005767962;0.034099787;-0.30770624;0.21612063;-0.09703584;-0.3218559;0.14394766;3.2277065e-05;-0.06640054
-0.102866374;0.34526193;-0.009645814;0.10743248;0.0010449011;-0.17547725;-0.18330535;-0.0037185184;-0.031067822;-0.01136985;-0.019503873;-0.23382565;0.0039188657;-0.009495464;-0.18041845;0.007652093;0.0077009;-0.12982415;-0.25462872;0.19072792;-0.08141521;-0.13586888;0.014085333;0.19715203;0.024542063;0.14679645;-0.02021686;0.11183727;0.10898721;0.047588848;-0.17492068;-0.39596978;-0.062080506;0.0049844887;0.0025029492;-0.020134201;0.004784711;-0.37987447;0.11489461;-0.013608992;0.028483532;0.026760392;0.097298846;0.45548692;-0.019394396;-0.18890981;-0.010976262;0.048306547;0.006834693;0.20162298;0.019194046;-0.027854288;-0.08857874;-0.052201193;0.0375957;0.009527437;-0.21165013;0.06866424;0.0016127984;0.0072803185;-0.012846644;0.046529155;0.0044416497;-0.011648925;0.16076456;0.13538857;-0.00014867625;0.084897965;0.17282173;-0.007300804;-0.13485397;0.023980564;-0.062219273;0.071880125;0.10626078;0.0012022546;0.13838163;-0.027824556;0.018612282;0.07580662;0.008766034;-0.09341012;0.0048580226;-0.0064848326;-0.11556693;0.1271695;0.012542101;0.16921322;0.019651286;-0.022051135;-0.17129312;-0.0112390155;-0.036777526;0.06709297;-0.1613026;-0.04658831;0.31369108;-0.1332935;0.17889497;0.08095819;-0.031133575;0.0015533696;-0.2606451;-0.17241171;0.33222014;0.14272326;0.06992441;-0.104332946;-0.14888185;-0.11856589;-0.4501021;-0.06297156;-0.02281989;-0.11884938;-0.028849918;-0.013056732;-0.00880306;0.3249849;-0.20529102;-0.06698571;0.10602008;-0.26742926;0.43580943;-0.18848908;-0.02701204;-0.04816548;0.2345004;0.033587668;0.038471863;0.24045669;0.048467122;-0.18538484;-0.23851082;0.011650573;-0.022455633;-0.0066182096;-0.2130671;0.012583027;0.044594947;-0.08540276;-0.005460483;0.042471312;-0.24225844;0.04440533;-0.29275882;-0.016983714;-0.23840126;-0.0056045316;0.04764749;-0.098445825;-0.0014960648;0.072152995;-0.38169965;-0.6092247;-0.30868626;0.047445484;0.19047812;-0.20104384;0.011365334;-0.16169241;-0.03874977;-0.1335881;0.04224464;-0.0029167111;0.0639608;0.10862903;0.0069445227;-0.25463948;0.05316084;-0.34172052;-0.14620335;0.0016099543;-0.020841086;-0.09929977;0.0906146;-0.19000342;-0.012448234;-0.19261406;-0.2841422;0.011707571;-0.012748899;0.0010355902;0.45976985;-0.15408044;0.0027019915;0.04054266;0.00059171923;-0.15797971;0.18906617;0.005149158;-0.25693366;-0.38616046;0.3152217;-0.0072440836;0.19987601;-0.18362685;-0.10754833;0.12413365;0.018472912;0.13216181;0.23413414;-0.019705482;0.15928264;0.2980311;-0.38585114;-0.03737421;0.013707485;0.31304199;0.31014103;0.09510592;-0.009113002;0.17838159;-0.37085682;0.010824285;0.0123027805;-0.0069966163;-0.08515764;-0.19730595;-0.038185123;0.03602737;0.09614252;-0.05640286;0.17427874;-0.0015976458;0.1485923;-0.006762475;0.0095045;0.3353798;0.012494902;0.019955896;0.11641393;0.092834905;0.108394265;0.2588765;-0.108086504;-0.23549809;-0.20709978;-0.010367195;-0.07514958;-0.098355934;-0.090142;-0.085924625;-0.05839916;0.009454298;0.064733855;0.02304228;-0.24133362;0.22313432;0.009831217;0.0457359;0.032884423;-0.013015761;0.30722257;-0.089389965;-0.005743417;-0.023770573;-0.39851037;-0.14891228;0.001965376;0.00023689229;-0.27998295;-0.31102934;0.00927645;-0.005941148;0.011329512;0.10032412;0.08313772;0.07300301;0.06769156;-0.39229798;0.19605446;0.10957788;0.13421871;-0.26492938;0.016269442;-0.0012009743;0.12287655;0.13503927;0.014879128;0.0048909457;-0.0033081188;-0.07114274;-0.24521504;-0.362339;-0.31405574;0.103188954;-0.0040325453;0.1359323;-0.002826792;0.009236016;-0.12458996;-0.19024388;0.3223598;0.05725078;-0.09411354;-0.229489;-0.067209266;-0.35454312;-0.0054909927;0.01362646;0.25639367;-0.001896796;0.0032002334;-0.16699117;-0.13297649;-0.2136052;-0.1790365;0.019555641;-0.05611322;-0.23293814;-0.5311551;0.0003758685;0.10976089;-0.016105162;-0.46966457;0.1610112;0.07175577;-0.36504748;-0.388064;0.009624977;0.04568302;-0.28943202;-0.04828092;-0.0026598007;-0.011413214;0.0894356;-0.016842904;-0.0022416953;0.24418496;0.0321433;0.0004552555;0.020192059;-0.0034126707;0.0166425;-0.11614475;-0.0141725205;0.42105168;0.23628956;-0.033120967;-0.023002632;-0.00077563187;0.20660174;0.022951497;0.027311532;-0.074747354;-0.34789982;0.3204869;0.0764965;0.1302756;0.013665663;0.0027978895;0.57645905;-0.2549564;-0.23598395;-0.0045045186;-0.38133702;-0.21385975;0.22536924;0.2761119;0.21632412;0.0011675982;-0.00881556;0.14498942;0.11481399;0.039484095;-0.34695438;0.097799204;0.06264993;0.25717503;-0.41627756;0.025684241;-0.014000847;-0.02094781;0.039515097;0.0818627;0.004133227;-0.008709654;-0.12749936;-0.114928894;-0.2628187;0.14622179;-0.020410428;0.002569759;-0.53566617;-0.32691503;0.15997197;0.25030848;-0.012438662;0.1843634;0.13151793;0.42106664;0.0067894696;-0.02289944;-0.074667074;0.14910664;-0.4618966;0.011003458;-0.011790675;0.010133828;-1.3454483e-06;-0.14839049;0.062947094;-0.44980508;-0.0176918;0.2211355;-0.008782129;-0.5414036;0.15566956;-0.17669691;0.011131452;0.32878214;-0.022688136;-0.15872821;0.03637829;0.04648667;0.16088331;0.28264314;0.13575241;0.32882258;-0.110963784;-0.40416503;0.13745688;-0.015047337;0.013748806;-0.3559851;-0.19164267;0.17277265;-0.04427209;0.14108558;-0.022718556;0.12158814;-0.0052787703;0.023493003;-0.04133018;-0.025988132;0.23892984;-0.012521381;-0.00608351;0.029225366;0.00017153675;0.04227634;-0.041687384;0.23289067;-0.17205244;-0.0057432135;-0.011856481;0.018079624;0.22604883;0.01009093;0.0067267916;0.17730403;-0.0053734095;-0.011623728;-0.075086065;0.0017112806;0.0069323485;-0.061461013;0.05892454;0.2343067;-0.12376864;0.42328668;0.018748423;-0.39908338;-0.0066430485;0.04825214;-0.22355889;0.06124558;-0.004260987;0.028048337;0.12593529;0.05348112;-0.04880232;-0.0085077975;0.3406824;-0.0042608813;0.32807627;0.12243643;-0.15720057;-0.0072006816;-0.0005689934;-0.0071697333;0.06530814;-0.066545516;0.0122109335;0.21868137;0.14745852;-0.1694166;0.11296586;0.25539774;0.35987604;-0.10240835;0.20439555;0.0059816875;-0.020748105;0.0022507096;0.012076183;0.011733916;0.19731876;0.17126383;-0.68780905;-0.0020074355;0.061914414;-0.08648579;-0.021747313;-0.0067602424;0.05370699;-0.014519166;0.011492289;-0.014878184;-0.26933876;0.25040862;-0.046139833;0.022392323;0.011255797;-0.07864311;-0.007937738;-0.22553198;0.29422325;-0.045198355;-0.007878486;-0.15700309;-0.010930297;0.050002605;-0.6079281;0.008850296;0.008463141;-0.38705575;0.06504885;-0.005630737;-0.035427663;0.28390795;0.10256393;0.0070706354;0.04350232;-0.03418577;-0.0018918498;-0.008097008;-0.073044226;0.3169795;-0.1777376;0.06084623;-0.010781113;0.17719874;0.17128348;-0.3262199;-0.4500766;-0.22653612;-0.11953351;-0.025126167;-0.09463302;0.006697392;-0.08468892;-0.13530202;0.40012178;0.016624996;0.18195888;-0.0337759;0.16444899;-0.008364378;0.2831316;0.13179094;0.09643811;-0.043179188;0.021317288;0.45781544;0.07130773;-0.4303586;0.007921347;-0.014821356;0.08718278;0.5049076;-0.24587078;-0.15026616;0.1480603;-0.00568176;-0.25317895
-0.16761354;0.17223197;-0.017436832;0.0041291495;-0.006572847;-0.3214246;0.055265024;0.0070948116;-0.09539217;0.017181639;-0.17729487;0.054507624;0.0041796323;0.018224789;0.06512654;-0.009901795;-0.0005925285;-0.2469806;-0.13495798;0.27681583;-0.096129075;0.11183702;0.03291674;0.088189356;-0.012597046;0.049599174;0.019184547;-0.14266975;-0.031468242;0.11825203;-0.2606645;-0.35585648;-0.1264375;-0.014493288;-0.010638517;0.008101218;0.004845716;-0.46008852;0.0012775537;0.08457526;0.06825181;0.023474276;-0.16543782;0.23826808;-0.10344059;-0.003992341;-0.0061273966;-0.03580957;-0.000701829;0.07860835;-0.004218167;0.055744756;-0.11610535;-0.12119793;-0.08435149;-0.010929533;-0.2959857;-0.0026192463;-0.0043943385;-0.002905141;0.012544851;0.46127036;0.0073448066;0.004755697;0.2073687;-0.13626073;0.004113559;-0.064094484;0.42262235;0.010096036;-0.13058905;-0.0034276752;0.20297356;0.0630815;0.28310087;-0.009314127;0.21982896;-0.1960323;-0.0065592416;0.14191855;-0.016100958;-0.03239266;-0.0025550805;-0.084565856;0.01856367;-0.01659913;-0.00055468536;0.40930697;-0.011982623;0.023585834;-0.25348225;0.0057137;0.19380489;0.26057094;-0.06525852;0.07367047;0.0011658116;-0.41380835;0.031196736;-0.028003313;0.16782463;-0.23310272;0.13078351;-0.062165283;0.07694217;0.19608216;0.13877106;0.12255441;0.1539886;-0.06403588;-0.053540003;0.2835104;0.025604874;-0.030836707;0.07820639;0.0051004575;-0.004095354;0.07748495;-0.068380095;-0.06490794;0.209368;-0.21959925;0.18774159;-0.09445539;-0.016980072;-0.03926709;0.17216475;0.117515534;-0.102383055;0.07924899;-0.08106075;-0.3018573;-0.003557758;-0.005762409;0.064042784;0.0223784;-0.22327645;-0.015420696;0.13032289;-0.15663783;-0.0012532539;-0.05661466;-0.077256486;0.06752572;0.030425591;0.013081715;-0.4884783;0.008764621;-0.046738133;0.07687026;-0.008019296;0.15851247;-0.19469115;-0.45173678;-0.42359316;-0.09168216;0.17670542;-0.35444102;-0.026097594;-0.08061422;0.10132773;0.13657486;-0.08082994;0.006723134;0.0058055473;-0.037616953;-0.021913331;-0.12593119;0.07988843;-0.26278925;-0.12625705;0.006988971;-0.04626699;-0.14712432;-0.22459017;-0.08094482;0.018087758;-0.11919045;-0.27031955;-0.0015182802;0.009937423;0.0143882325;0.35400227;-0.091926545;0.0002339295;0.04477384;-0.009907647;-0.29907337;0.29261902;0.0071437648;-0.026078317;-0.32135358;0.05697508;0.011089535;0.09342834;-0.07721254;-0.15106232;-0.059464592;0.025834834;0.4144535;0.26659152;0.0715836;0.05392397;0.3556394;-0.44267073;0.12278314;-0.014270542;0.18699867;0.17574596;0.05614279;-0.023344485;0.17419736;-0.069416605;-0.007803575;-0.026073627;0.0035263014;-0.15590557;0.06614575;0.20252551;0.23393385;0.1972731;-0.015228501;0.0014441467;0.012257457;0.20749804;-0.13399209;0.064296015;0.18657783;0.0036320535;-0.013943218;0.28531212;0.12978154;0.038325276;0.2575682;-0.118082054;-0.13407211;-0.3905812;0.012723691;-0.21390451;-0.075050004;0.031892236;0.04391986;-0.18075773;0.0014329642;0.13097289;0.00830863;0.004118977;0.24861097;-0.0076917955;0.0032806462;-0.08674691;0.018640734;-0.10631494;-0.35498855;-0.00020773117;-0.33640257;0.15648122;-0.110730074;0.007854234;-0.007098093;-0.1317333;-0.30299756;-0.0068226685;-0.002348221;0.0036154625;-0.10920659;-0.05205413;0.03630011;0.058845423;-0.50673866;0.03854531;-0.13159443;0.15291293;-0.17223856;-0.003915129;0.011586409;0.22787516;-0.03673782;-0.012033127;-0.018572401;-0.010180212;-0.18767515;-0.21381682;-0.5530526;-0.58047265;-0.050098535;-0.0066077234;-0.18069872;-0.007233341;-0.01331027;-0.285348;-0.46819744;0.20208238;0.044615496;-0.20094575;-0.18102087;-0.062420722;-0.28095257;0.015693083;0.004520231;0.2995691;-0.013152547;-0.012464692;-0.025449874;-0.16492346;-0.2566574;-0.43309712;-0.05079659;-0.1891852;0.031571172;-0.21020441;0.003227552;0.030851109;0.014411618;-0.25819966;0.3512365;-0.024375258;-0.308427;-0.4254253;-0.00041365362;0.21355383;0.12174822;-0.12846357;0.0061174342;-0.005881353;0.09106883;0.047264684;0.008212797;0.125782;-0.022781903;-0.012132041;-0.010003878;-0.008870709;-0.017831065;-0.0676547;-0.0010012141;0.53035945;0.06611171;0.17743677;-0.10186531;0.0076952525;0.20735282;-0.013287342;-0.17124861;-0.0629716;-0.04409798;0.2721105;0.0870613;0.0075444854;0.0020697631;-0.008734436;0.4051674;-0.23691718;-0.29484004;0.0009987756;-0.4131733;-0.12219138;0.09838531;0.4240332;0.23263514;0.0048074825;0.006778584;0.15007587;0.118636385;-0.107306585;0.0835123;0.12787077;-0.09460205;0.21243523;0.07138628;-0.020846065;-0.013962939;-0.012622244;0.010874941;-0.069860846;0.0012401564;-0.0036935138;-0.15733296;0.075180046;-0.31742677;0.25476575;-0.007267972;-0.22570315;-0.25634423;-0.27139077;-0.0074981465;0.055130392;0.076108925;0.12740605;0.034781117;0.45327032;-0.02061687;0.007637081;0.22333887;0.12192098;-0.19895746;-0.01954295;-0.0029385907;-0.012688365;0.006305049;0.063422106;-0.13398916;-0.4274473;0.023949187;0.18468042;-0.0019260851;-0.11057427;0.07970898;-0.27583462;-0.008287106;0.24982516;-0.1388485;-0.05066669;-0.02938817;0.11033019;0.056395918;-0.14400347;0.07758118;0.17036355;-0.016351167;-0.36715153;-0.13146268;0.0054656733;0.19514555;-0.28426293;-0.06840112;0.40380508;0.030469833;0.19237047;0.001391952;0.007299178;-0.0092627;-0.11799449;-0.053423565;-0.018656153;0.2537886;-0.0068671987;0.024772737;-0.29722378;0.009357961;-0.024690943;-0.14662316;0.41930395;-0.35365087;-0.083799645;0.012780051;-0.03280608;0.29178417;0.011115969;-0.009571146;0.16243175;0.00804986;-0.005474;-0.20102885;-0.005051068;0.0037723007;-0.07854595;-0.12246905;0.17906895;-0.14173467;0.40258464;-0.039387554;-0.2578027;-0.0039240466;-0.04533588;-0.33851087;0.16988392;0.0065013496;-0.21936266;-0.025936253;0.18366818;-0.2697978;0.004588222;0.16603816;0.030409057;0.2833706;0.03167725;0.13952614;0.015169736;-0.02452192;-0.014252095;-0.033941165;-0.04542534;0.013673555;-0.01849822;-0.20141634;0.02910387;0.15178166;0.091614984;0.29338413;-0.13777776;0.37671354;-0.007331538;-0.15559028;0.007514585;0.026019346;0.099158555;0.12937261;-0.067343;-0.5018863;0.0025561613;0.29796505;0.102825336;-0.012457934;0.009269661;0.050819073;-0.0060649985;0.0032795975;0.015883874;-0.032579493;0.12790148;0.05517537;-0.0050287596;0.013480282;-0.18286856;0.00034977595;-0.12290597;0.12294638;-0.10119459;-0.009866524;-0.1367093;0.0034333668;0.01662511;-0.43377757;-0.012796248;0.007124723;-0.4195081;-0.036164742;0.017856507;0.017741129;0.37141472;0.102476835;-0.025179928;0.1351176;0.043612223;0.007459115;0.02085675;-0.013838015;0.3639297;-0.19262013;0.052371897;0.0021819621;0.05889895;0.31013975;-0.22968976;-0.26790172;-0.0020592758;-0.10216576;0.0005703881;-0.025485316;-0.023992343;0.021185685;-0.22579084;0.33818886;-0.019185156;0.11066183;-0.08454144;0.2230884;0.006473064;0.27556044;0.2049341;0.06043201;-0.11190832;-0.009434987;0.06266738;0.053142495;-0.13146621;0.0115663735;-0.009180429;0.12747042;0.26318637;-0.15266114;0.14548706;-0.23598008;0.018156199;-0.027218625
-0.47587657;0.04729514;0.03426267;-0.16943464;0.010170581;-0.16303402;-0.19777524;0.007872184;-0.03948506;0.006537911;-0.17112228;0.055224173;-0.007476127;0.011742891;0.049915988;0.012927378;-0.005716353;-0.2607916;-0.08647511;0.2515626;-0.20868574;-0.19805583;0.08387352;0.09166103;0.004308707;0.1987369;0.000493728;-0.18516241;0.17224073;-0.02030716;-0.013525255;-0.0035503008;-0.13681225;0.014823415;0.008071555;-0.010146108;-0.0070461435;-0.41366205;0.14362669;-0.02559553;-0.04072787;0.042030256;-0.14075325;-0.17919292;-0.04069961;0.105704345;0.015246591;0.0041150297;-0.0013039844;0.23115712;-0.0054116948;0.1396739;-0.17741276;-0.23539262;0.03270898;-0.012338292;-0.2897116;-0.08928923;0.031011304;0.017276691;-0.013092919;0.30375552;-0.0068574655;-0.012825294;0.17306374;-0.2960161;-0.00929431;-0.09438261;0.106082134;0.010540135;-0.05673102;-0.016835768;0.1442308;0.20145577;0.2671842;-0.0058896504;0.074931026;0.16539706;0.009506139;0.08434952;-0.010847988;-0.024763083;-0.005246599;-0.19003733;0.23930097;-0.03684904;0.00060556957;0.29356888;-0.011045775;-0.023451615;-0.17651613;-0.01345228;0.069727756;0.23153877;0.041257404;0.1291046;0.15266025;-0.3669862;0.09841763;0.24486527;0.11591472;-0.20956092;0.019492682;0.04911365;0.04021685;0.13807856;0.0911485;0.021782717;0.25860268;-0.16949102;-0.11358951;0.16947646;-0.009515636;0.10040319;-0.0103483815;-0.009424775;-0.0046687634;-0.054743364;-0.20351882;-0.5399601;0.08944287;-0.3451016;0.04737922;-0.04377232;-0.19774385;0.2327007;0.05853156;0.18654555;-0.082497984;0.081133075;-0.1671565;-0.15286207;0.069467336;-0.003078591;0.22919126;-0.020001652;-0.28891528;0.015563554;-0.051522695;0.0018325885;-0.0068096938;-0.09935093;-0.012626379;-0.07423438;0.19559477;-0.004915968;-0.29505983;-0.0071459697;-0.2475572;0.17323276;0.007863701;0.23240824;-0.17288902;-0.32908732;-0.39483005;-0.101447694;0.27258617;-0.50170225;0.011743292;-0.05156126;-0.13555326;0.19267805;-0.18887363;-0.0064389035;-0.019540645;-0.102696;0.009667465;-0.08870397;0.23796862;-0.28443602;-0.36910337;-0.0020611293;-0.20970331;-0.043450046;-0.11561778;0.08205436;0.019028397;-0.071151584;-0.2414827;-0.0015833597;0.002056353;0.0003576973;0.4224879;-0.18453379;-0.010767736;-0.020097578;0.006355956;-0.4106299;-0.15165289;-0.008848124;0.13038869;-0.20582184;0.09503;-0.011415505;0.17264329;0.10141782;0.044900373;-0.08156665;-0.19943637;0.035384387;0.32776433;-0.1671987;-0.045160033;0.16970675;0.02818672;0.031350747;-0.033966776;0.22914673;0.083686054;0.09035953;0.1878604;0.21615289;-0.26286623;-0.008428689;-0.007500671;-0.012349234;0.033857673;0.016862135;0.058388863;0.34123355;0.09054968;0.050397716;-0.23678266;-0.019901192;0.29413226;-0.39970925;-0.028967112;0.18269254;0.23163204;0.0072055166;0.33590278;-0.15446688;-0.08235806;0.19893326;-0.18237671;-0.21172678;-0.32385844;-0.005095706;-0.16565093;-0.080410495;0.027201718;-0.14657441;-0.31968004;-0.0041210535;0.18714456;0.082156464;0.02669448;-0.024597302;0.0021103958;0.0046480014;0.015870718;-0.010561341;-0.027353257;-0.3259517;-0.012032728;-0.5550138;0.03851253;0.08964959;0.04433219;0.0008058426;-0.027304012;-0.34634873;-0.014210571;0.007777529;0.0058061886;-0.031446442;0.008922063;0.060150493;0.047594167;-0.44875556;-0.14784305;-0.14973046;0.055405125;-0.025506388;-0.015660988;-0.011823949;-0.17478961;-0.17861567;0.01531479;0.004643394;-0.006979756;-0.013762491;-0.016328825;-0.40907696;-0.7377484;-0.15985955;0.0011141545;-0.33465302;0.014530662;-0.12415029;-0.30074143;-0.32388595;0.20406008;0.224243;-0.15706967;-0.28719667;-0.15625848;-0.11306934;0.002601879;0.008753984;-0.012379816;-0.05657993;-0.0082643805;-0.00543168;-0.12408831;-0.23603913;-0.36207104;-0.005029628;-0.47187197;0.028491333;-0.20266812;0.003507882;0.24034734;-0.0096537545;0.07146366;0.06436622;-0.02034307;-0.37127027;-0.2312632;0.0002906566;-0.1894656;0.16040282;0.027008783;-0.011264361;-0.010756296;0.027820459;0.09061646;0.019050382;-0.14593269;0.0010475358;-0.0035088356;0.008544944;-0.0068865484;0.02007711;-0.1162558;0.0020513462;0.26917085;0.09422773;0.06249505;-0.16417944;0.003920209;-0.07052524;-0.0024537358;-0.14837085;-0.043179296;-0.026319824;0.3264849;-0.043070845;-0.13179556;0.0002768385;-0.0031924108;0.20528698;-0.3054735;-0.18683064;0.00935634;-0.4802968;-0.10784065;0.0038835525;0.45109606;0.16030625;0.025545524;0.00705747;0.18245803;-0.004633278;-0.040671103;-0.14011581;-0.15016975;-0.13308632;0.060143746;-0.31258485;-0.0030616284;0.019029466;0.010007704;0.07742481;-0.023331529;-0.013348357;0.050636105;-0.10464483;0.15651232;-0.023439655;0.29783556;-0.13758852;-0.5932793;-0.47080868;-0.17134798;0.27146158;-0.14776729;0.087863415;0.08288912;0.104297094;0.4530489;-0.0013413712;0.0034753822;0.20262912;-0.1258073;-0.11826727;0.0018964591;0.014790961;0.00777698;0.021048136;-0.21101715;-0.4495969;-0.41534463;-0.0038136712;0.0017453096;0.016209109;-0.01798895;-0.014157656;0.044156786;-0.019189265;0.24751619;0.0028235589;-0.10003048;0.015863664;0.17688471;0.05056027;-0.102426745;0.042575546;0.050410233;-0.073423885;-0.34196782;-0.10961562;0.015319331;0.20530455;-0.27079165;0.07261109;0.27377474;0.074560076;0.34177577;-0.022331517;0.09796891;-0.092487305;-0.23901327;-0.06827813;0.13631107;0.3788232;-0.00042996288;0.017998014;-0.2889888;-0.0057828943;0.038268987;-0.11521834;0.38533163;-0.37008595;-0.14381246;-0.014218561;0.006579674;0.23407774;-0.010322006;0.012613961;0.02276885;-0.27563602;0.011212181;0.025378985;0.0012859431;-0.008559979;-0.11606719;-0.20169467;-0.09216979;0.075752236;0.34763533;0.010011978;-0.06953561;0.00608098;0.008076899;-0.1933466;0.070112176;0.0054914826;-0.43811262;0.14422734;-0.052617896;-0.09418978;-0.006344687;0.10648072;0.10791906;0.071286745;0.21014012;-0.09533149;-0.014173223;-0.11820744;0.0134482775;-0.044978123;0.030956157;-0.008063343;0.04989416;-0.23247428;0.12320114;-0.015045585;0.0021130708;0.045902923;-0.27888298;0.2907832;0.007641956;-0.23100992;-0.016326357;-0.014188357;0.071079046;0.123669595;-0.1417704;-0.2560907;0.022692513;0.2349794;0.046171986;-0.16731492;-0.0076037436;0.039834853;0.00477274;-0.0054437392;-0.053523056;0.07516857;0.14374746;0.14847271;0.0013290398;-0.013318202;-0.20152444;-0.0028829894;0.035973713;0.0942773;-0.23263837;0.032615427;-0.22998805;0.0047433684;0.13253666;0.018115763;0.015967479;0.006511881;-0.30375907;0.05980671;0.028370794;-0.0008354365;0.3488243;0.19836389;0.038175266;-0.0422485;-0.038372107;-0.0023793948;-0.011775757;-0.046421383;0.524433;0.02883387;0.02850089;0.0037060895;-0.16901949;0.39923513;-0.045415007;0.034839164;-0.1783234;-0.20692535;-0.020392042;-0.016009076;0.013174196;-0.020827765;-0.126166;0.28830075;0.01487326;0.16123775;0.17566887;-0.029443093;-0.10660946;0.25874817;0.14213602;-0.11285007;-0.29389447;0.011936992;0.061786626;0.1467079;0.13101828;-0.0071117636;0.0077681174;-0.053015295;0.01660909;-0.13549845;-0.08794453;-0.23311284;-0.028975628;0.16253552
-0.19337006;0.087649256;-0.02070442;-0.18451892;0.012929562;-0.10420417;-0.40109327;-0.022522537;0.038655136;-0.006449468;-0.31631196;0.07776402;0.011598636;-0.014023706;-0.31016853;-0.01317921;0.018083492;-0.22982787;-0.18519445;0.3805348;-0.5288068;-0.23586906;-0.05124372;0.19020234;-0.00465047;-0.05224723;0.01482321;-0.3156714;0.14142007;0.13698629;0.007632919;-0.07732924;-0.25416675;-0.007449237;0.008601837;0.010144117;0.018848233;-0.05702789;0.00073629746;-0.027497103;-0.07358585;-0.023930207;0.009179016;0.019143695;-0.03613665;-0.056366105;-0.008274156;-0.07492278;0.013241789;0.16493486;0.0059546037;-0.07416408;-0.3251024;-0.20087789;0.14882955;0.0010071693;-0.026922118;-0.09554566;-0.006787181;-0.013037752;0.019903565;0.22895254;-6.6937784e-05;0.021816567;0.015470691;-0.20251478;-0.011833837;0.08620422;0.14334665;0.0058533764;0.029606072;0.0040239496;-0.08884939;0.19823067;0.2801128;-0.00016759192;-0.07482071;0.15897787;-0.004437749;0.12945913;0.013273968;-0.05677811;0.0035912243;-0.09745131;0.055718217;-0.18539885;-0.012705798;0.2244194;0.0063337027;0.013678269;-0.20591764;0.018130656;-0.33119285;0.13085574;0.03099358;0.10762293;0.003467536;-0.110008515;0.07139502;0.25511837;0.15648572;-0.1931726;-0.0761972;0.21135092;-0.03829075;0.25911766;-0.06440164;-0.1916516;0.2049531;0.07234089;0.013349982;-0.020048968;-0.0041001793;0.12897238;0.123102166;0.01787518;-0.0004940917;0.30998066;-0.038331263;-0.72647613;0.0750776;-0.45228767;0.07770086;0.034117322;-0.26293164;0.24148782;0.09860992;0.1365644;-0.09748439;-0.025408337;-0.1524003;-0.12660076;0.04283278;-0.01530486;0.22364528;0.029804029;0.04682898;-0.011636016;-0.08482586;0.1577595;-0.0071626473;-0.14190392;-0.17461543;0.03393764;-0.20574005;0.0008981416;-0.12237952;0.012561309;-0.12560512;0.14427494;-0.0031768584;0.17809083;-0.10441469;-0.49891317;-0.12963149;-0.2868688;0.30795842;0.043586265;0.0138699;-0.17087567;0.010334849;0.2283267;-0.12287494;-0.00048418716;0.007674066;-0.008958899;0.004345963;-0.18587187;0.060991637;-0.37143654;-0.27709576;0.010338089;-0.33408594;-0.07192848;0.10477526;0.084019065;-0.024162544;-0.07328005;-0.19927375;-0.00021039737;-0.0011809999;-0.011377107;0.027892726;0.107103355;0.014997448;0.03984254;-0.0049161892;-0.27760774;-0.023938403;-0.0051978533;0.29071388;0.054109402;0.07378394;-0.00064005324;-0.10916393;-0.107729316;0.021774298;-0.18571985;-0.09900895;0.039709408;0.2342435;-0.13375814;0.029441396;0.140453;0.04284521;0.095194586;-0.17970735;0.41507632;0.12936822;0.18529116;0.15902157;0.2980697;-0.09948794;-0.023266075;0.006296724;-0.005111236;0.08826477;-0.14501515;0.17277972;0.29299378;0.07164328;0.2424442;-0.34738904;0.005639208;0.19949612;-0.5188996;-0.11584793;0.0067900945;0.1386398;0.0080444915;0.14332956;-0.29530802;-0.04991836;0.16499735;0.02646017;0.15436038;-0.3151518;-0.0074510393;-0.21496491;-0.072481245;0.06114492;0.08276001;-0.04218623;-0.0015893491;0.124852225;-0.13063306;0.057052225;0.013193125;-0.006597776;0.040388864;0.30535713;-0.00995897;-0.08838927;-0.11485991;0.00029329458;-0.43701547;-0.22535782;-0.062183805;-0.07457851;0.011881458;-0.13393244;-0.4109373;0.014958817;0.0062386426;-0.011630545;0.04160464;0.18356584;-0.05948984;-0.04679015;-0.4751537;-0.279454;-0.18210955;-0.14173372;0.08679616;0.011693033;-0.0019074844;0.07234885;-0.21968299;-0.007225011;0.011426668;0.005609238;0.042120047;0.08968567;-0.26344877;-0.5848294;-0.05645796;-0.00018443074;-0.070119314;0.004859932;0.057903763;-0.22565815;0.007528002;0.24180432;0.3297156;0.2663811;-0.40896094;-0.08495026;-0.34746915;-0.012159576;-0.00608203;-0.061736003;-0.044426885;0.009293843;-0.20906445;-0.038748667;-0.24572091;-0.05107155;0.02130975;-0.21950328;-0.015785566;-0.05943289;-0.023804888;0.15205483;0.0034281728;0.021582745;-0.22756302;-0.13427982;-0.1503616;-0.24183206;0.00043759536;-0.13476764;0.1009948;-0.077937216;-0.008709486;0.008290468;0.07976924;0.12574163;-0.027382502;-0.18260819;0.009000364;-0.0004054172;0.0016854473;0.00997263;-0.0013127226;0.068047255;-0.0017035864;0.37787378;0.13565676;0.07214031;-0.06808796;-0.002316835;-0.35694277;0.016662154;-0.08254835;-0.28990042;-0.074384175;0.14419337;0.09143859;-0.00063802546;-0.007701047;-0.008503859;0.1586517;-0.20510085;-0.0725215;-0.01220204;-0.24235778;0.07075685;-0.19304128;0.3930226;0.15568446;-0.027186802;-0.0052885218;-0.084849395;0.05703031;-0.008233392;-0.0075726137;-0.23661618;-0.3439519;-0.10280179;-0.16509691;0.004631018;0.007539861;0.0010185513;0.10353389;0.11941119;0.01211706;0.12963432;-0.0019717684;-0.16958274;0.010968199;0.3810844;-0.06655356;-0.73422545;-0.37069532;-0.42783457;0.14931391;-0.32078624;-0.0076365927;0.18790904;0.13248675;0.40808973;0.016792422;0.0069201537;0.05153064;-0.22850868;-0.3045541;0.006770959;-0.013246419;-0.00119737;-0.018499548;-0.12083632;-0.50865436;-0.32630298;0.005514354;-0.11208468;-0.006232426;0.2975957;0.15758887;0.32816058;0.009568996;0.08069288;-0.0729813;0.261509;-0.00062333845;0.22468027;0.12372109;-0.04098733;0.1333642;-0.06220995;-0.0095069865;-0.43052575;-0.04039894;-0.022834452;0.44572356;-0.15302308;-0.02700785;0.116972774;-0.13763562;0.45890737;0.032462668;0.22705767;0.03855219;-0.21834885;0.0023648501;0.09409634;0.16650374;0.003135968;0.015940504;-0.20452698;-0.00036460362;-0.033508245;-0.078869745;0.22789904;-0.36580452;-0.38680038;0.012286758;-0.000539629;0.37163636;0.011560997;0.007376614;0.073390625;-0.2801546;0.0078158295;0.013930439;-0.01051928;0.0040236246;-0.10687049;0.0122575285;0.14226958;0.009883157;0.2544186;0.014417459;-0.14722037;-0.018953431;-0.0069890767;-0.005369845;0.03117187;0.009223222;-0.30872586;-0.04096438;-0.023586592;-0.18392943;-0.0025286921;0.08946262;0.17988557;0.09655918;0.17985132;0.08842439;0.0099751875;0.014665678;0.0034473347;0.05244157;-0.024812398;-0.00013756417;0.06078237;-0.04135531;0.30355892;-0.0756795;0.011201907;-0.16863234;-0.1792601;0.062314905;0.004238343;-0.36418703;0.012854043;-0.017818876;-0.1419977;0.24896815;-0.04649546;-0.20758021;-0.00081656093;0.23720764;-0.14912385;-0.08191808;-0.00155273;0.25160152;0.0067110225;-0.0012695695;0.008283461;-0.13309702;0.26608148;0.2702395;-0.011299345;-0.022226144;-0.15964538;0.0067042117;-0.14732772;0.31225166;-0.31073666;-0.027651342;-0.042225372;-0.0031082164;-0.024625003;0.05752127;-0.017674837;0.011057205;-0.42390743;0.11050339;-0.06563181;-0.010579558;0.33764043;0.11052115;0.29467982;-0.038890693;0.026320608;0.0099873915;-0.013342104;0.22233403;0.46977195;-0.12422067;-0.0013935721;-0.014658825;-0.26621604;0.5908708;-0.019174634;0.10460507;-0.08334329;-0.07695688;0.032236677;0.0057613095;-0.00033305364;0.04294816;-0.082823545;0.24411842;-0.012141867;0.3123746;0.19767092;-0.0431472;-0.31876877;0.02780466;0.08537013;-0.10213176;-0.17959972;-0.01110146;-0.19453426;0.100625016;-0.009655632;-0.0010690709;-0.008858612;0.09403652;-0.048116665;-0.13590789;-0.12206283;0.0843054;0.0173018;-0.090765424
0.022286674;-0.15239932;-0.00015259904;-0.04789672;-0.00224295;-0.124276325;-0.2268745;0.00956734;0.20094548;-0.002005718;0.1360329;0.03339112;-0.010870103;0.0076300455;-0.38872388;0.0064513064;-0.012468158;0.03721203;-0.28587398;0.019105326;-0.51156926;-0.11467954;-0.06726038;0.17466597;-0.017927773;0.14622132;-0.017915571;-0.29817796;0.15980357;0.28162274;-0.17381111;0.16219884;-0.043930985;-0.0041359025;-0.0075944467;0.011982736;-0.019483548;-0.21219364;-0.04836396;0.05307308;-0.0147299245;-0.009030405;-0.13063289;-0.10792203;0.24839538;0.032830086;0.0022114965;-0.0040088105;-0.008992253;-0.01853549;0.0005708362;0.0057200133;-0.14486003;-0.16491407;0.04276687;-0.0002790941;-0.014554662;-0.055753637;0.0048730248;-0.0010505224;-0.014828458;0.06981896;-0.009117622;-0.014389204;0.1281236;-0.1818577;4.046716e-05;0.005468524;0.064237714;0.02125481;0.12234374;-0.0039659585;-0.16908355;0.25310534;0.29335347;0.007895778;-0.004076019;0.17293651;-0.004390888;0.07438706;-0.0055315876;0.16072468;-0.0038093177;0.009390306;-0.10919016;-0.02143875;-0.007539628;0.38183996;0.014762855;-0.0033240216;-0.102369785;-0.017478338;-0.0598822;0.14037399;0.024121327;0.12603198;0.0803028;-0.10398774;0.21445617;-0.06639033;0.024853066;-0.3426466;-0.1376933;0.18807533;-0.04937518;0.21101764;-0.04324312;0.10153398;-0.038944636;-0.10518314;0.13157903;-0.03906098;-0.012064106;0.18965325;-0.20675816;-0.0018689181;0.012585921;0.25081995;-0.06355066;-0.63572925;-0.065670066;-0.250583;0.15738265;-0.13631277;-0.19913146;0.11406719;0.025224987;0.21296644;-0.08632263;0.13627474;0.042538352;-0.14205812;-0.0022144157;0.0061697075;-0.020234942;-0.025934748;0.17545152;0.021057628;-0.03770995;-0.095810376;0.016698742;-0.16400097;0.2356567;0.07559915;-0.113989495;0.0038176752;-0.009058138;-0.0035882953;-0.050488677;0.15643542;0.0062086885;0.1874615;-0.20315386;-0.190351;0.12782773;-0.2954497;0.23582861;-0.0041909846;-0.018628081;-0.04471598;0.31952038;0.4185765;0.013812131;0.001829871;-0.0025090592;-0.046635073;0.0054944074;-0.08258424;-0.19682379;-0.21844359;-0.056952003;-0.01995611;-0.481161;0.14619337;0.1208412;0.047929335;0.021964459;-0.08348801;-0.25832543;-0.009860152;0.008768241;0.008227552;-0.113824196;-0.11374639;0.0037849739;0.1350484;0.0067702495;-0.33487543;-0.061960965;0.017633878;0.13105457;0.06694753;0.07608623;0.0028998028;0.120144285;0.24438557;0.0023946485;-0.36413437;-0.029401029;-0.32083082;0.035180416;-0.02187464;-0.10408648;0.27975264;-0.20679355;0.13910487;0.17223884;0.29744324;0.121135555;0.4037001;0.17131388;0.25920406;0.16660509;0.02078627;-0.0075957957;0.016316872;0.1402443;-0.075725816;0.21115474;0.22930561;0.20988521;0.109539755;-0.06643516;-0.000116812465;0.08786364;-0.7275406;-0.061136246;0.030782752;0.019924987;-0.011642427;0.24870591;-0.15615664;-0.105434254;0.124419585;0.07607638;0.053105775;-0.37375605;0.008306874;0.02718647;-0.3226877;0.016876005;0.018904181;-0.06891663;-0.0004073653;-0.038852446;-0.3675623;0.19374992;0.1170434;0.0028048893;0.0024854054;0.22278938;0.0012100621;-0.048642617;-0.1066317;0.0046323887;-0.37875813;0.008501422;0.073505595;0.011843748;-0.019923488;-0.12230974;-0.43922722;-0.011568947;-0.019361474;0.006768498;0.067169584;-0.18917446;0.056971304;0.041436847;-0.47158033;-0.26747295;-0.22765505;-0.15997139;0.32654142;-0.006845983;-0.00017408933;0.1255039;-0.3357409;-0.003842724;0.009643568;-0.009432422;-0.04220665;0.08667065;-0.3418172;-0.49701965;-0.18293197;0.008734682;-0.17367056;0.002838953;0.019576;-0.3712058;0.017619045;0.30412978;0.027617477;0.26434037;-0.55018413;0.0018317748;-0.44649395;-0.0050735734;-0.010295946;-0.12616485;-0.010744783;-0.0019022577;-0.1039193;-0.16219498;-0.13033065;0.16667941;0.010318445;-0.19818474;-0.110414445;0.1814055;0.011955154;-0.029311335;0.006516048;-0.15996788;-0.0041509275;-0.10969142;0.029736226;0.08100757;-0.016020926;-0.5068268;0.14380056;0.0948644;0.0011390059;0.004809307;0.05300566;0.03977591;0.026395427;0.0024041438;-0.019791463;-0.01995372;0.006532952;0.004643387;0.0014984265;0.009049963;-0.00956876;0.17289402;0.049634535;-0.09482313;-0.060796533;0.0023160824;-0.55239403;-0.008869506;0.17580491;-0.11904006;-0.2729886;0.13816467;0.05796168;0.0014088118;0.014991071;0.017150402;0.32720757;-0.41246748;0.08924474;0.011918254;-0.38126028;-0.18414041;-0.08594947;0.46283895;0.24318953;-0.020426676;0.0006893428;-0.13196036;0.095564894;0.05034038;0.14575423;-0.04780597;-0.09643981;0.0751024;-0.10086917;-0.003827559;-0.018220048;-0.0071205697;0.11953795;0.30809802;0.00034598936;0.055338092;0.096903086;-0.13338351;-0.08334646;0.45509213;-0.21569486;-0.6382516;-0.20444961;-0.17434993;-0.027963508;-0.3883396;-0.036145493;0.2670312;-0.061732877;0.4228904;-0.014223578;-0.014639518;-0.10917407;-0.14026909;-0.14548889;0.0013934042;0.010603818;0.0026609234;0.0014510956;-0.03450123;-0.6078558;-0.029524475;0.0004973944;-0.083454385;-0.0037171538;0.267115;0.10086024;-0.008133378;-0.008668759;0.21970984;-0.07292065;0.18023713;0.022129646;0.20579852;0.19253556;-0.014468826;-0.048717372;-0.026302207;0.14040732;-0.21095774;0.08928116;0.009955156;0.42039323;-0.13213238;-0.11807968;0.34040752;-0.040383376;0.3647019;0.01575152;0.26882768;0.102957934;-0.10456684;-0.10317891;-0.061593056;0.17323568;-0.0077287424;0.032982517;-0.10246091;0.0031471273;0.010231522;-0.065112494;-0.0026353798;-0.30965257;-0.20859015;-0.001094986;-0.014215084;0.41599926;-0.01724638;-0.011633828;0.15013716;-0.12650216;0.007282414;0.083093934;-0.0032848774;-0.003862228;-0.25505176;-0.0010593134;0.20409279;0.15225923;0.011454988;0.011060878;-0.09076216;0.013844405;0.003111292;0.13651642;0.019574713;-0.007368509;-0.29616958;0.007878287;0.15472846;0.1358046;0.012578429;-0.08135249;0.13347879;0.05030935;-0.07633052;-0.091399245;-0.005002912;-0.13789266;-0.008010208;0.013353381;-0.05635149;0.008584384;0.064743765;0.11295488;0.26148993;-0.107999295;0.014229195;-0.35548753;-0.16744208;-0.31382954;-0.016652623;-0.38083786;-0.011259785;0.011818733;0.24158518;0.30753693;-0.31528753;-0.06339433;-0.02699087;0.28799647;-0.28981155;0.07381121;-0.003514917;0.29385293;0.0023825427;-0.011717616;0.08878146;-0.011127025;0.21048328;0.24188873;0.009098926;0.024731383;-0.16795616;0.0019810905;0.10414553;0.3192869;-0.48709452;-0.008459267;-0.08538938;-0.012923915;0.074869834;0.15191233;0.012832796;-0.019589154;-0.24193746;0.08818229;-0.25697234;0.014679178;0.09474451;0.26280951;0.53563446;0.14891595;-0.003245499;-0.016663024;0.018777777;0.19630069;0.3791354;-0.024264036;-0.38179225;0.0033612682;0.030507661;0.40377313;0.14736791;0.17575307;-0.21793085;-0.0946897;-0.006014725;0.18552648;0.009013745;-0.06525377;-0.14521636;0.33947048;-0.0043059215;0.32551044;0.20038655;0.019710068;-0.41487205;-0.003683023;0.06413841;0.15895528;0.041288797;0.004442933;0.054365672;-0.118250936;0.13299792;-0.0008361809;0.016954364;-0.012233132;0.001473395;0.040529683;-0.05459014;-0.07061487;-0.02586222;-0.07529942
0.31439903;0.15286078;0.0100240195;-0.2022389;-0.0068543646;-0.31898192;-0.16591498;0.0062818727;0.2598511;0.025073268;0.16157338;-0.029616391;0.014845109;0.0016203903;-0.38564587;-0.00042701405;-0.0015621947;-0.002130545;-0.09689062;-0.20847343;-0.30767754;0.0255271;-0.05114303;0.14190097;0.010233306;0.12582746;0.010663674;-0.20893578;0.22833125;0.21743609;-0.28329653;0.16025664;-0.17145224;0.008729036;-0.005347021;-0.010143815;-0.0025685003;-0.20111492;-0.06801825;-0.038348474;-0.13530008;0.0025455777;-0.27029848;-0.17149559;0.14408402;-0.2535613;-0.0052121067;0.035367396;-0.0021508813;-0.32209376;0.0065622698;0.034431767;0.02237993;-0.22592282;-0.009895507;0.016589915;-0.01592361;-0.062028166;0.037810802;-0.0066641266;0.013018738;-0.04264677;-0.002119318;0.014527322;0.10292975;-0.097149625;-0.0033673104;0.016277453;0.1470631;-0.03439616;0.23798893;-0.0002463703;-0.397958;0.12029807;0.13717718;-0.005412117;-0.13553332;0.21794097;-0.011733927;-0.004018441;0.0037772667;0.1419751;0.012953785;-0.041870028;-0.1903277;-0.18539163;0.014491533;0.12842795;-0.017492488;-0.0064375685;-0.2296837;0.011055564;-0.003697877;0.2128026;-0.07595721;0.5391793;-0.07040434;-0.10055298;0.111883864;0.1988323;-0.07212544;-0.41126868;-0.30733192;0.27697185;-0.114007235;-0.015585229;0.085356615;0.20464171;0.18332458;-0.13695626;0.14418715;-0.060377415;0.016353266;0.19915475;-0.065801896;-0.004401032;0.0034412635;0.016502595;-0.25849843;-0.25617337;0.09175386;-0.32123873;-0.029851627;0.21828909;0.015287505;0.035947774;-0.10444517;0.10551059;-0.21351704;0.05044868;0.032582503;-0.102165155;0.05204534;0.00484109;-0.18758136;0.021198945;-0.05186329;0.008291397;-0.28242618;0.14525053;-0.017607434;-0.2296801;0.108323745;0.16561976;-0.22721358;-0.011684615;0.017206391;0.0026291453;-0.031783376;0.26333243;-0.006793942;0.4351157;-0.15614633;-0.13577467;0.07300149;-0.2711762;0.093690924;-0.027905896;0.027197944;-0.13353185;-0.2937287;0.39181337;0.25302523;-0.01325398;0.01267694;0.20495829;-0.0074374527;0.1533151;-0.44962764;0.13176581;-0.35590595;0.007974743;-0.2492466;0.25750262;0.2994262;0.11373325;-0.01011776;-0.0752313;-0.40671226;0.011900784;-0.01878468;-0.01305583;-0.32860625;-0.09769712;-0.012184833;0.20298494;-0.0055000074;-0.15124908;0.02856217;-0.009046829;0.27444604;0.076353036;-0.044133708;0.008756213;0.039340008;0.033694908;0.014169814;-0.3918158;-0.04647151;-0.27012667;-0.002021905;0.0044166073;0.06703556;0.1593137;-0.40089497;0.19918399;0.25745738;0.24964324;0.044391975;0.38758117;0.10651085;0.15065064;-0.032003757;0.014871021;0.039283387;-0.006844618;-0.087970614;-0.5394836;0.19471328;0.12391487;0.08873019;0.0416419;-0.22053088;-0.0069559803;-0.103403226;-0.47870877;-0.0048982445;-0.16964765;-0.27789682;0.009716791;0.23838742;-0.037119947;0.1604071;0.044559643;8.7191336e-05;0.24986511;-0.27703792;-0.013307787;-0.016959807;-0.17475036;0.009309925;0.044452287;0.0009998837;0.004104679;0.003497143;-0.09186998;0.37314248;-0.1322005;-0.004177882;-0.014858683;0.04597402;0.0034343617;0.01034005;-0.0117449835;0.006423946;-0.27468377;-0.012240418;-0.08754436;0.056156352;0.019374521;-0.13347863;-0.30650848;0.011800781;0.0067133554;-0.007656802;-0.083731666;0.02567007;-0.15974097;-0.1323901;-0.4378952;-0.429718;-0.15575162;0.2755277;0.38668144;0.0077851694;-0.00018045091;-0.047181994;-0.42481044;0.0074431435;0.0038565756;0.0043616737;-0.11937853;-0.022103304;-0.41087183;-0.07397239;-0.0684321;-0.009318432;-0.13621438;-0.010509748;0.17602448;-0.34518942;0.0031964043;0.48348895;-0.09973362;0.16956729;-0.49023667;0.13581736;-0.35304475;0.01613073;0.0061743595;-0.15112925;-0.0068441024;-0.0065649366;0.030352052;-0.14134793;0.10060323;0.060086805;-0.06681148;-0.19840519;-0.17297821;-0.09089791;-0.0045206305;0.06393467;-0.013474027;-0.14584611;-0.12941286;-0.124558054;-0.2086972;0.030206362;0.001326391;-0.43899524;0.3357257;-0.18273717;-0.0022156027;0.010914244;0.06493804;0.13352484;-0.020743947;0.12056317;0.0065884865;0.02262269;-0.009862161;-0.0032352768;-0.0030519853;0.100879624;0.025243554;0.39235482;0.05312268;-0.075558245;-0.11452544;-0.003204529;-0.47187278;-0.0049850983;0.032153398;-0.12174143;-0.15144147;0.19349487;0.01616283;-0.19984446;-0.018293068;-0.008132099;0.26447102;-0.29384357;-0.05522041;-0.002097144;-0.3531463;-0.245856;-0.07572542;0.33031496;0.20768306;-0.008497581;0.01853024;-0.04038061;0.003939322;0.10795507;0.289615;-0.21167034;0.05353232;0.26986247;-0.1861324;0.02568884;0.020454587;0.018101815;0.024777774;0.12468619;0.009617597;0.16415156;0.088986546;-0.046915323;-0.002665769;0.51792043;-0.008396126;-0.29363462;-0.0088449735;-0.09390072;0.04823127;-0.2965562;0.045118127;-0.0035095934;-0.23394679;0.26214507;0.015795637;0.008506873;0.050476246;-0.06854411;-0.35946774;-0.0006628063;0.0012145743;-0.004141413;-0.005352055;-0.014201387;-0.2857077;-0.13912916;-0.018014897;0.13238463;0.001940141;0.06723716;-0.055446044;-0.115207605;0.0030427135;0.15184104;-0.08724345;0.2823206;-0.003054206;0.030666534;0.25194728;0.021838386;0.022200864;0.16985591;0.008132246;-0.25040013;0.1341356;-0.00799637;0.36178535;0.03241039;-0.093490444;0.2830658;0.00033088037;0.21405551;-0.038969755;0.19374566;0.06987878;-0.14855254;0.054425735;0.029656364;0.101571806;0.0031912823;-0.020319032;-0.06342185;-0.0011091898;-0.0031434847;-0.17524418;-0.10762454;-0.42745766;-0.23288183;-0.017271819;0.022633323;0.38706183;0.009251126;-0.0065674195;0.011328631;-0.10783212;-0.0147170825;0.018049523;0.000462883;-0.016020618;-0.047130555;0.22173128;0.3248405;0.22571866;0.33208376;-0.0102292765;0.05953706;-0.0040571783;0.010986772;0.0197315;-0.02729186;-0.0021154722;-0.2743879;0.09382456;0.0051832013;0.21877857;-0.009306565;0.007739244;-0.059364174;-0.016488539;-0.2357662;-0.25985846;-0.0019032907;0.08634189;0.01858048;-0.045449167;0.1546272;-0.0014136918;0.042047784;0.08177904;0.2436868;0.12827457;0.15216279;-0.46117657;-0.17479864;-0.31122446;0.008095893;-0.15056328;0.0121118305;-0.0027921;0.16711004;0.13872899;-0.1361678;-0.15176056;0.010880103;0.12250306;-0.046458993;0.13678163;0.0048921104;0.13147263;-0.007893836;-0.0059147524;0.016267577;0.06862971;0.060170222;0.13187598;-0.00402772;-0.013130393;0.09389751;-0.002351445;-0.09567643;0.33622888;-0.54889137;0.0094301645;-0.06907066;0.0021446166;-0.0119713815;0.35254854;-0.0057625556;0.002061412;-0.1462266;-0.024768496;-0.08354571;-0.0046084365;-0.09187989;0.14457564;0.3693745;-0.09097271;0.00731042;0.0029730073;0.0014300601;-0.05461277;0.18434998;-0.04899993;-0.24529973;-0.00961643;0.055233955;0.35013756;0.28907287;0.25119975;-0.37389436;0.121389516;-0.019472359;0.12105615;-0.010318911;-0.054394685;-0.35475802;0.43474633;0.013987117;0.29098505;0.11732705;-0.16242069;-0.19176285;0.019999893;0.114718355;-0.22903809;0.2968755;-0.00057396566;-0.0055191726;-0.039051674;-0.059800744;-0.009207623;-0.008425576;-0.13143705;-0.13379845;0.04490542;0.12144304;0.3163437;0.008981071;-0.08908658
0.21923232;-0.042311676;-0.01748711;-0.026996646;-0.0015797245;-0.28814417;-0.28013292;-0.0027812563;0.14712662;-0.024345795;-0.11736563;0.15278089;-0.024052681;-0.020932805;-0.5192018;0.0060922815;-0.0020452365;-0.10504584;0.075013384;0.14324476;-0.18558057;0.11641367;0.15153208;0.28431085;0.00034380556;-0.042828653;-0.012074683;-0.065493055;0.49326357;0.29505256;-0.11603911;0.14864293;-0.2149028;0.014028191;0.0011797319;-0.0036163204;0.015035637;-0.030292489;-0.012770515;-0.031372067;-0.1875007;0.010773962;-0.2893846;-0.0024140202;0.10396787;0.14405987;0.0035200762;0.006971529;0.008564523;-0.16784717;-0.02084681;-0.024340631;0.20134057;-0.008606754;-0.052384965;-0.0041397023;0.13971114;-0.28784078;-0.017912058;0.0052306554;-0.019713461;0.015802857;0.016369747;-0.01848613;0.0745365;-0.18558206;0.0062039304;0.0064708954;0.2895339;0.014625011;0.1877697;0.007341563;-0.40207723;0.1036083;-0.12089333;0.006499771;-0.105276;0.07075726;0.012280951;0.05883941;0.0058925226;0.043044478;-0.009068823;-0.11645377;0.014530599;-0.08723334;-0.006760447;0.10913827;0.0013347656;0.0039912793;0.041704975;-0.00073296885;0.43191677;0.16356437;-0.29636964;0.47748995;0.018721208;-0.02062202;0.0816998;0.31867158;-0.17293945;-0.12333639;-0.07739911;0.17463681;-0.20418032;0.026188727;0.19183336;0.17812824;0.14823164;-0.0257156;-0.02707569;-0.28393573;-0.0035355412;0.09076322;0.0020150656;-3.4315235e-08;0.009440173;0.21657594;-0.45305255;-0.44311374;0.037181877;-0.14019799;0.049349528;-0.11627975;-0.12434113;0.056264374;0.15214933;-0.13258868;-0.35642713;-0.100660644;0.019107096;-0.10605284;-0.22564714;-0.012065575;-0.03874746;-0.024286421;-0.15406725;-0.0038282373;-0.311128;-0.09087306;0.009306754;-0.17085533;0.29126838;-0.024163967;-0.07814049;0.0003977179;-0.33395994;-0.01770084;0.31491318;0.12810917;0.009631492;0.026106944;-0.1380959;-0.068082586;0.11090599;-0.2732079;-0.03653076;-0.13381347;-0.018557444;-0.31611046;-0.4188265;0.23904885;0.23600347;0.004252253;0.02211875;0.452929;0.022317255;0.06352302;-0.46780545;0.17292513;-0.33700898;0.005125482;-0.17555134;0.24016109;0.34880367;0.041614603;0.03341225;-0.12869075;-0.090214536;-0.009851659;0.0054423907;-0.0063832016;-0.3430895;-0.16377869;-0.0043843496;0.0079250075;0.01151574;-0.1285914;0.20848571;-0.006880437;0.12496812;-0.16013299;0.2857743;-0.015355709;0.06749966;0.15252806;-0.017091926;-0.39700016;0.37702957;-0.11789525;-0.033578187;-0.20502408;0.07293129;0.1243217;-0.24087738;-0.070929304;0.0869225;0.46370974;-0.21780202;0.28055012;0.06811094;-0.3136132;0.10844819;-0.017344201;-0.053300552;0.0027878946;0.009571701;-0.54265636;0.10982361;0.13711455;0.03451189;-0.020335952;-0.2110512;0.0012399432;0.028376596;-0.25250363;-0.021593837;-0.030886779;-0.39909708;-0.013814558;0.14756833;-0.21799837;0.15784998;0.04025529;0.08072351;-0.07530223;-0.47204965;0.005506257;0.052225996;-0.1788537;0.09068756;0.043596774;-0.1446495;0.001994815;0.014397276;-0.1726072;0.25353014;-0.2557967;0.0023671694;-0.020740425;0.0318195;0.015345189;-0.031248812;-0.08784302;0.014058885;-0.18411008;-0.24205466;-0.109676644;-0.015469673;-0.0006858265;-0.056492608;-0.4488282;0.012838556;0.0014728291;0.009950462;0.025614684;0.0007703529;0.10622756;-0.14135364;-0.35171565;-0.3695657;-0.3075985;0.32627797;0.11152425;-0.029512547;0.0017416581;0.0906105;-0.45504272;-0.0073204804;-0.01965174;0.0031151343;-0.063046806;0.22096565;-0.4881421;0.0028152086;-0.17988332;-0.0011265237;-0.10151447;0.0054688226;0.15526362;-0.25324473;0.24266474;0.54739827;-0.04169037;0.09030002;-0.1485449;0.21190074;-0.2700488;-0.02312008;0.0027744109;-0.6930413;0.024003549;0.01489528;0.03215562;0.007007497;-0.09828177;0.25553656;0.10116898;0.42916492;-0.29383302;0.023227027;0.005629263;-0.19677147;-0.0055782134;-0.3095678;0.34871107;-0.19964972;-0.3654709;-0.00475697;0.0033083484;-0.14660686;0.2280471;-0.22737043;0.0220449;-0.0052976524;0.14240144;0.33634806;-0.009287052;0.21711229;0.021129305;-0.009208138;0.0061303405;0.011994234;-0.0051243706;0.1263232;-0.0005976041;0.15306456;-0.01563169;-0.011654331;-0.06861862;-0.010869155;-0.84247637;-0.014229435;0.096553855;-0.13081664;-0.25424543;0.13285375;0.032990925;-0.42227376;0.013496708;0.010147402;0.21004635;-0.0559554;-0.12459866;0.0012013206;-0.52646875;-0.113588326;-0.19735399;0.23983353;0.18981826;0.037713297;-0.014665328;-0.06543168;-0.15094295;0.06003893;0.09129284;-0.25926977;-0.01003833;0.024846284;-0.053227067;-0.021017192;-8.750636e-05;-0.0051560136;-0.012601129;-0.07038025;-0.0027525006;0.037088327;0.15512396;-0.2155612;0.021907166;0.4889172;0.06033411;-0.38891813;0.10003512;0.07902063;-0.059567887;-0.04824668;-0.008887297;0.16500808;-0.086235076;0.47712293;0.0040527866;-0.01118569;0.06389516;0.026292939;-0.22464988;-0.010400623;-0.009287763;0.005109411;-0.011808259;-0.036840424;-0.27329576;0.19453602;0.011954499;-0.054678716;0.0015219887;-0.28038082;0.09202264;-0.17550935;0.0026169696;0.13630046;-0.18867211;0.05078593;-0.026707375;0.0020884306;0.31198564;-0.05192314;-0.06924685;0.09318327;-0.10861553;-0.42420825;0.3460185;-0.0023847292;-0.015774732;-0.0632479;0.0041732546;0.15162936;-0.14704198;0.30859756;-0.04992699;0.39599085;0.13543461;-0.16120976;-0.007834613;-0.30089697;-0.1367028;-0.008223403;0.030610397;-0.058587983;-0.0038430267;-0.026030157;0.054315962;-0.1964866;-0.09494134;-0.22113244;0.0060978946;0.0028064412;0.4850078;0.01389977;0.012415816;0.017467763;0.07876362;-0.0123687815;0.027159726;0.014965386;0.016573573;0.038927816;0.006564262;0.23838091;0.1565772;0.12058805;-0.013173429;-0.10756726;-0.00699193;-0.0142653305;0.2572187;-0.082591966;0.0045004757;-0.18646204;-0.29646873;-0.11996981;0.27695018;0.0027325815;-0.047526047;-0.025157757;-0.058586776;-0.22600709;0.06265226;0.007260685;-0.19609448;-0.021081427;0.05973225;-0.012442118;-0.01667184;0.28552306;0.0332176;0.20422316;0.19083558;0.09401767;-0.40393686;-0.3739158;0.04861163;-0.010641143;-0.15807897;-0.00063370983;-0.015935317;0.102122284;0.046730172;-0.20653656;-0.27025703;-0.0051561743;0.33420196;0.06435516;0.20600954;-0.014717741;0.07809814;-0.008318249;0.0031871516;-0.00790911;0.26140964;0.20336853;-0.054664757;-0.006756256;0.0033216237;-0.038042165;-0.011357428;-0.1659701;0.25053942;-0.33602837;0.018249907;0.05791361;0.009108068;0.037259843;0.29441696;-0.015884602;-0.0036698096;0.06754235;-0.05022729;-0.15198775;-0.01888363;0.015012301;0.30946746;0.26161954;-0.002598946;-0.036591448;-0.0056136535;0.0011200956;-0.08293098;0.03769329;0.094903365;-0.13876681;0.00680485;-0.04434535;0.24155968;0.2177731;0.1887938;-0.2988886;0.31959406;0.021282932;-0.08978491;0.0016663929;-0.32647645;-0.42234492;0.11160007;-0.004588169;0.17560944;-0.0832714;0.12582773;-0.10709799;-0.014249182;0.07637252;-0.35474697;0.124680445;0.0039476277;0.11148289;0.22873689;-0.20743033;0.0026713193;0.00059183233;0.06673177;0.05990607;-0.053647846;0.12476675;-0.052688293;0.002047824;0.032746587
0.22848898;-0.24106912;0.012778424;-0.01883704;-0.010496885;-0.258623;-0.17052674;-0.015327288;0.11132587;0.01821262;0.10606265;-0.016750695;0.0040308298;0.019053722;-0.12088125;-0.017276483;0.009744545;0.047142264;0.10473534;-0.14108887;0.024929402;0.35395172;0.03268953;0.2085877;-0.0047708494;-0.13719104;-0.0073870197;0.021307966;0.3622564;0.24772045;-0.30126274;0.20838766;0.031132042;-0.026894227;0.012883298;0.019505993;-0.017341191;0.1385706;0.16118114;0.013383078;0.103444785;-0.02925126;-0.25919148;0.048073996;0.051522985;0.18790448;0.008924105;-0.008396998;0.0011720965;-0.1936747;0.01091712;0.10526277;0.23508999;0.01124044;-0.07827068;-0.002370312;0.012854472;-0.10819922;0.007070581;0.003102586;0.005277737;-0.038282603;8.944817e-05;0.0065660393;-0.23672225;-0.006273163;0.007199483;-0.09371678;0.28361002;-0.0017284658;0.09231442;0.0013214683;-0.40824464;0.026784606;-0.06250118;-0.0059530283;-0.10049674;-0.04478234;-0.010931476;0.23940058;-0.008670128;-0.13537282;0.0028852152;0.20707794;-0.12134038;0.15212649;0.00071664585;0.20779788;0.0063062743;-0.0019087351;-0.14514996;0.0026276233;0.06638936;0.38696688;-0.22705631;0.4358026;-0.037021242;-0.42500162;0.17379779;0.22022149;0.046052106;-0.22729822;0.06867356;0.20410544;-0.29873982;-0.19178097;0.18703781;0.21144919;0.033936568;-0.19121946;-0.08108577;-0.18017572;-0.0035836112;-0.03578273;-0.08353187;-0.002386317;-0.0045838077;0.24700354;-0.35014978;-0.18716352;0.063354604;-0.32914108;0.022118296;0.047347307;-0.09259773;0.02592547;0.10955343;-0.31229275;-0.36610538;-0.04960122;-0.034708507;-0.07955909;-0.057272606;0.028984567;-0.15490295;0.0071802256;-0.25341082;0.008280646;-0.0434452;0.2830975;-0.006238748;-0.36180627;0.2580911;-0.01646866;-0.24409267;-0.0040420876;-0.27744237;0.0026894533;0.18222755;0.11609152;-0.008818388;0.042013474;-0.17709781;-0.10770299;0.38280398;-0.11002684;0.043949988;-0.49745753;0.0034642091;-0.14752845;-0.4611903;0.2635023;0.30860257;0.010580664;-0.025423435;0.27652833;-0.028894173;-0.03420071;-0.20249313;0.18138586;-0.2599333;0.008723656;-0.21687965;-0.095182106;0.14530742;-0.042423055;-0.06266826;-0.16664444;-0.14914696;-0.008063985;0.009012275;0.0036228204;-0.010762373;-0.03606537;-0.0027203949;-0.02360933;-0.0155569315;0.007659083;0.045857657;0.015524126;-0.101192445;-0.19565293;0.2509036;0.01961649;-0.014767414;0.11988551;-0.008331718;-0.20512435;0.45153332;-0.18296406;0.020976448;-0.2603385;-0.027854558;0.10544258;-0.12565075;0.025990738;-0.0133954175;0.42921638;-0.3700731;0.18562526;0.08469738;-0.32399765;0.14943413;0.01327684;0.016051423;0.003995282;0.049061302;-0.2930382;0.2043666;0.22052927;-0.08367166;-0.11104305;-0.23914135;0.012527138;-0.2155115;0.03771159;-0.035379272;-0.024509748;-0.33185354;-0.0031959042;0.1065039;-0.14842305;0.0749434;0.05908578;-0.19551036;-0.103685364;-0.47339752;0.0104999775;0.20875959;-0.3587976;-0.1660755;-0.022794293;0.00061788724;0.0027105678;0.13948192;-0.1986896;0.20223725;-0.20029768;0.0043171076;-0.033611152;-0.16953768;-0.010204435;0.09201583;0.046730567;-0.0022881296;-0.2553583;-0.19560829;-0.12627055;-0.047508094;0.00641641;-0.03514024;-0.2714336;-0.013647776;-0.0060308264;-0.008269988;0.1517125;-0.031271476;0.23929033;-0.13021734;-0.4160726;0.0054976563;-0.18355429;-0.031978104;-0.0030933633;0.02162323;-0.009505443;0.11134746;-0.30329922;0.008248126;0.0066733896;0.019694623;0.08239015;0.15224159;-0.16019061;-0.13909543;-0.15716995;-0.011612503;0.0098579535;-0.016284678;-0.06252175;-0.3616755;0.24285628;0.4050579;0.06625451;0.059264302;0.05079114;-0.06852954;-0.24376805;0.0213235;0.0062793125;-0.93230456;0.0010909847;-0.0018812473;0.1717305;0.17206696;0.04470114;0.18925564;-0.019741476;0.49597776;-0.26080972;0.064390235;0.016874421;-0.11801882;0.023492608;-0.25252414;0.21582699;0.01269223;-0.22612754;-0.03469966;0.0079437625;-0.22250362;0.49395815;-0.23649716;-0.01134218;0.009129846;0.14738002;0.27514458;0.008139708;0.07046144;-0.03163529;0.014845613;-0.001134449;-0.015922105;0.008277588;-0.0914405;-0.0146845775;0.20435914;0.08667487;0.09149054;-0.16170762;0.018561628;-0.92926145;0.0066029117;0.10935123;-0.0560747;0.082973376;0.17463915;0.029668756;-0.22139679;0.0019403278;-0.015753465;0.15555228;-0.30419588;-0.00029340558;0.0014169238;-0.48924282;-0.08511302;-0.2518469;0.18934786;0.28405815;0.011245229;0.014991201;-0.1726731;-0.11504874;0.013188977;0.32795805;-0.24512431;-0.090110034;0.06301785;0.038321692;0.03276765;-0.023260651;-0.003992115;-0.23626205;-0.31617707;0.0038747878;0.06271577;0.09590308;-0.14776972;0.044383332;0.4343312;-0.40670836;-0.14432745;0.4657348;0.21037659;-0.0482572;0.075171195;0.010866657;0.20026702;-0.11966747;0.1338269;-0.022963274;0.027913408;0.06401033;0.2739261;-0.02365426;0.009608338;-0.0031407976;0.0076689105;0.007375441;0.106917284;-0.12313196;0.42096964;-0.018826775;0.18397455;-0.009485511;-0.23985511;0.052015293;-0.05550956;0.010030461;0.06969944;0.15651354;0.09393982;0.029803114;0.00084022776;0.28855336;-0.2702772;-0.083016954;0.035171017;-0.010190709;-0.5236962;0.18847172;-0.0064055496;-0.26026857;-0.076810434;0.1147416;-0.065323524;-0.21363275;-0.008572531;0.028864427;0.45594233;0.13058649;0.102987625;0.053643186;-0.11498069;-0.19036455;0.012486339;-0.020786904;0.10570235;0.0019648897;0.036243342;0.07482268;0.08973488;0.11815232;-0.2923764;0.008307246;0.0049772626;0.2233814;-0.009249214;-0.0035032271;0.28433135;-0.08550203;0.002590293;0.0629692;-0.007598841;-0.011854509;-0.3780761;0.04686634;-0.0066661634;0.1742537;0.04477817;0.018969618;-0.0329566;0.0034252687;0.022791037;0.2946441;-0.14147793;0.0039950637;-0.18399526;-0.24219957;0.04944478;0.1333851;-0.0008427918;-0.095400594;-0.12668982;-0.000823126;-0.37246123;-0.124097876;-0.003598859;-0.50743276;0.0029569045;-0.012774624;0.011043668;-0.008868558;0.138967;0.0105666695;0.1964282;-0.021176634;-0.22323222;-0.4061793;-0.20032267;-0.021582544;0.0061760345;-0.019769978;-0.008607134;0.003667145;0.022296993;0.050559286;-0.39757505;-0.18588398;0.016738608;0.090914235;0.06151433;0.24031395;0.026289629;0.001868125;0.01101155;0.0062474944;0.04676557;0.176472;0.25725898;0.11142862;-0.0054674894;0.0072595114;-0.10846434;0.0005547439;-0.022190379;0.10673086;-0.25978407;-0.013126626;-0.09715922;-0.00313016;0.039317798;0.17244144;0.017746788;-0.003762421;0.13702092;0.037646133;-0.03514007;0.017163148;0.03996523;-0.05127439;0.3450471;0.13147812;-0.03125291;0.0027579346;-0.0060252985;-0.13209008;0.10559215;0.10122174;-0.24205317;0.012746707;-0.12446214;0.077130005;0.36205775;0.21004237;-0.29528752;0.45810387;0.010564692;-0.08776288;-0.003308064;0.0030414767;-0.5100771;0.00021562852;0.005733179;0.047900192;0.01191768;0.007417337;-0.022944313;0.1187741;0.123400494;-0.544808;-0.3133631;-0.024672521;0.09549484;0.2645818;-0.45817557;0.0012850258;-0.00252459;-0.46610558;0.10321872;0.03289222;0.036343385;-0.18491638;-0.0052084113;-0.037936743
0.20091581;-0.14068289;-0.0049705533;-0.0047634616;-0.011449533;-0.11518929;-0.23850355;0.011805987;0.10064387;-0.029088587;0.059427626;-0.15608297;0.011728493;0.004329992;-0.2981926;-8.701116e-06;-0.0036100962;0.13346373;0.1052788;-0.17750758;0.0016838402;0.19775549;0.05569924;0.26639107;-0.004031444;-0.025459483;0.0038435797;0.14595664;0.104728125;0.08846057;-0.3982948;0.2443515;0.055728;-0.0014382871;-0.0075714285;-0.012273241;-0.0041089775;0.24872002;0.123160034;-0.17443231;0.076783404;0.0030200705;-0.30173576;0.062222347;0.017046066;-0.08371768;0.006472819;-0.08147882;0.005430804;-0.21846817;0.0001073229;0.1530295;0.10070905;-0.08543576;0.092300065;-0.016201572;-0.13633426;0.120416604;-0.008937506;0.0072845877;0.0035678572;0.009202729;-0.0062655965;0.0056247017;-0.18442918;-0.13656004;-0.0070044044;0.058548834;-0.041270033;0.014836684;-0.045980904;-0.005189694;-0.21562459;0.15514567;-0.07399229;0.00909194;0.04287241;0.043985084;0.01348637;0.28078237;0.0028094437;0.12380551;-0.001837473;0.06749619;-0.22765341;0.10621076;0.008099015;0.06338222;-0.010665534;0.012602087;-0.32286918;-0.023160717;0.06288397;0.0066777747;-0.3354215;0.21867797;-0.009195093;-0.4673529;0.11752624;0.16114677;0.20565164;0.2151381;-0.24550925;0.16897424;-0.20288368;-0.082260445;0.15625978;0.16587901;-0.23505719;-0.14940658;0.012287297;-0.22061056;-0.004594146;-0.16072558;0.012155742;0.010362724;0.00023467922;0.17559491;-0.0073652514;-0.08896471;0.04221404;-0.086137936;0.13962713;0.077769466;0.025369797;-0.023520397;0.001282831;-0.35635933;-0.31683594;-0.11876464;0.22358333;0.22794357;-0.11457688;-0.02033947;-0.22179425;-0.0042190733;-0.26237413;-0.0127964355;-0.06525502;0.074130066;0.0045540645;-0.51279247;0.13222724;-0.02889881;-0.13638842;0.00781719;0.17035371;0.01750722;-0.08279029;-0.12146464;-0.01189234;-0.2304789;-0.015090249;-0.021896705;0.40672532;0.05704602;0.19663809;-0.31362513;-0.0276689;-0.17180559;-0.41105914;0.08459262;0.15658297;0.009132871;0.0126662515;0.096146986;0.008588488;-0.10203768;-0.043180134;0.1762326;-0.08813741;-0.0107718175;-0.4612123;-0.048959848;-0.05295228;0.05132467;0.048312552;-0.30839384;0.1736042;0.009871747;-0.007629839;0.004044399;-0.081243;-0.28164595;0.016397286;0.008494016;0.007341652;0.042284045;-0.24302515;-0.027283186;0.1509682;-0.12942761;-0.31720316;-0.019537587;-0.22479858;0.14267762;-0.2717068;-0.028846642;0.55026996;-0.13913421;0.020626798;-0.1863171;0.098992184;0.20411016;-0.3645217;0.029970901;0.0018020789;0.41797143;-0.16794921;0.1472218;0.12787147;-0.3894099;0.017787306;0.009074062;0.009396719;0.008017598;-0.1930196;-0.122919105;0.28335992;0.020223904;-0.013666285;-0.21068794;0.012534679;0.0041940417;-0.23639245;0.16367166;0.19997975;0.024853779;-0.32058343;0.004291971;-0.015528171;-0.2213518;0.050771628;0.294221;0.07355748;-0.19284141;-0.3498722;-0.0028236888;0.2609813;-0.19353098;-0.32269713;-0.29816794;-0.111134574;-0.01939022;0.15700746;-0.059771467;0.013213558;-0.014749188;-0.0011207984;-0.011922641;-0.25071284;-0.012286108;-0.033097662;-0.19996554;0.0025035532;-0.19916286;-0.10134129;-0.036990147;-0.012181717;-0.02050393;-0.06523298;-0.15351225;0.010426687;0.01567071;0.015948692;0.0020319668;-0.040865563;-0.15275845;-0.42010343;-0.36533052;-0.060989905;-0.10405142;0.0073457086;-0.120488174;0.0018256167;0.00010718487;0.093858026;-0.25064185;-0.00665783;-0.008382483;-0.016633596;-0.010808699;0.14163609;0.007541394;-0.526691;0.2524414;0.0145445;0.09555528;0.011566491;0.027009338;-0.31784478;0.34492385;0.20168556;-0.15768681;-0.0023343593;0.07541527;-0.36947447;-0.16061918;-0.018443445;-0.009414539;-0.76512957;-0.031231336;-0.008814834;0.06337285;0.19279404;0.1502651;0.18233554;-0.016473578;0.17903689;-0.010250745;0.24353015;-0.0069790566;-0.5095739;-0.004063001;-0.19026312;-0.0013499052;0.14793418;-0.13844788;-0.100230664;0.0057070623;-0.101674266;0.15142956;-0.06047279;-0.006448928;-0.023796543;-0.123508275;0.29328057;0.01688013;0.05856165;0.012961156;-0.006723305;0.0042585926;0.01564329;-0.002059497;-0.12670094;0.020311927;0.17216471;0.12658747;-0.08379874;0.117525265;-0.01814119;-0.67924213;0.008604836;0.07273074;-0.10312364;0.04311077;0.08428037;-0.015338906;-0.07857378;-0.0101534175;0.0060888017;-0.20803186;-0.43112373;0.00846986;0.006669113;-0.026347443;-0.056903794;-0.21163847;0.1817367;0.16254899;0.018131118;-0.008316824;-0.10414495;-0.08731767;0.09868941;0.2616275;-0.25674248;0.053743593;-0.27385595;-0.109931774;-0.020504419;0.020159923;-0.004118524;-0.1866665;-0.39746317;-0.0099483635;0.11275717;0.09126974;-0.15291056;0.19602197;0.28985015;-0.24630034;0.002439958;0.34615037;0.55171406;-0.41552413;-0.04675804;-0.13801251;-0.10788123;-0.068650156;0.0243986;0.019638913;-0.0030548922;-0.108651444;-0.24201389;-0.037385114;0.005198404;0.009799622;-0.0049346546;0.0065095713;0.17724617;-0.14318275;0.069638155;0.014434812;0.06313417;0.008418046;-0.19662826;-0.1671197;-0.45310566;-0.00056508393;-0.053806078;0.09580631;0.036007494;-0.017129513;0.020524906;0.24033664;-0.112061925;-0.20945473;0.13500926;0.14283685;-0.40555325;-0.0032665827;0.01169794;-0.2348855;-0.29578304;0.09223326;0.046573095;-0.04321452;-0.19016;-0.06577165;0.2514266;0.11454193;0.05949261;-0.056399196;-0.33292758;-0.063980155;0.0105917305;-0.0039536115;-0.007015545;0.011274835;-0.016409956;0.22513744;-0.08055328;-0.0471373;-0.17661314;-0.00052989676;-0.027474469;-0.05098409;-0.015301064;-0.0016693549;0.08136641;0.024510056;0.018174835;-0.2977921;0.0068876757;0.013408208;-0.5398239;0.11278848;-0.20854026;0.20671792;-0.29537693;0.0033641644;0.016927052;0.003651094;-0.008705609;0.16126525;-0.09636012;-0.00010477207;-0.058784656;-0.2569401;0.06687743;0.120223165;0.0019740954;0.022244267;-0.061070953;-0.2976023;-0.08474305;-0.09270544;-0.0135823125;-0.4851342;0.04078208;-0.039738584;-0.14223608;0.006141084;0.065162465;0.14341073;0.3864387;-0.08762827;-0.041678675;-0.33716702;-0.20318751;0.078669235;-0.0043856907;0.04191134;0.024199972;-0.007919133;0.110501595;0.33666232;-0.23265755;-0.24393964;-0.019765386;-0.113218084;0.14712462;0.029831432;-0.019125378;0.107241765;0.0032187477;-0.0035530708;-0.01827661;0.2280859;0.008101504;0.17499404;0.009067059;0.016178837;-0.1027355;-0.0017031553;0.04151548;0.013550087;0.15248136;0.015520896;0.057607956;-0.00032992734;-0.0012165691;0.19289388;0.0049220207;-0.0027144244;0.08647283;0.19957423;0.26264453;-0.014965209;0.016792381;-0.020401696;0.19217011;0.10950164;0.068743646;0.014533553;-0.0001087851;-0.041887864;0.12683074;-0.0023704541;-0.310632;-0.025813999;-0.09531591;-0.43855068;0.33628514;0.10549375;0.021727795;0.28434426;-0.024271231;-0.06566255;0.00870501;0.059229348;-0.37242964;-0.023510503;-0.011603102;0.18807814;-0.08840037;0.19886287;-0.056088567;0.09343295;0.19993292;-0.5205187;-0.2396789;0.009586653;-0.14212234;0.18037874;-0.40221554;0.004100411;0.009763357;-0.76386034;0.054661766;0.021987384;-0.100148335;-0.14463003;0.008350589;0.08837208
-0.012286741;-0.13121551;0.0052168136;0.13003697;0.021206383;-0.20513135;-0.20615917;0.0062607536;0.0747533;0.022856658;-0.058033478;-0.06974885;-0.018210882;-0.00483678;-0.23055276;0.020298991;-0.00043254986;-0.23299225;0.1255643;-0.14378685;0.15008858;0.12700541;-0.15387847;0.23716938;0.012860575;0.25792313;0.0006247731;0.24522647;-0.11600373;0.038738504;-0.46730793;0.07862999;-0.0716196;0.024191653;0.0023635863;0.00021502102;0.008155245;0.31828156;0.14710598;-0.27714378;0.009901295;0.0062809703;-0.16974041;0.11051888;-0.025283325;-0.34084654;-0.031012127;0.088469334;-0.0029547808;-0.07960983;-0.019468121;-0.123333946;0.07925242;0.024663232;0.072379135;0.0075397496;-0.08091233;0.17301293;0.011187586;-0.003809741;-0.0041836165;-0.028805157;-0.00065252924;-0.004036232;-0.19024985;-0.07455605;0.0029756862;0.077191055;0.056183226;-0.0005499708;0.020597111;0.005168026;-0.2609512;-0.17438523;0.07991008;-0.0016628199;0.11596798;-0.12845647;-0.0177134;0.105345614;-0.0038431238;-0.023809025;0.008934924;-0.098075286;-0.030224968;0.07703734;-0.0085935565;-0.12342126;0.0026836891;-0.015326789;-0.22752704;0.015466498;0.123160586;0.33966956;-0.30745956;0.04421119;-0.1739185;-0.18570311;-0.07363329;0.037115853;0.1517869;-0.12859327;-0.20320302;-0.12837379;-0.17517684;-0.08092143;0.3449867;0.10787003;-0.13140866;-0.04087125;-0.11705043;0.00076415576;0.0021556197;-0.22848912;-0.22123244;-0.00771851;-0.0064981403;0.2013716;0.10451903;0.23629321;0.07551582;-0.1429166;0.046002418;0.3164282;-0.03759431;-0.26096296;-0.08628724;0.04213647;-0.11683299;-0.24434978;0.26886347;0.11018038;-0.14037886;0.014527012;0.1282147;0.026084168;-0.36907575;0.0019865031;-0.1428855;-0.091768675;-0.0035360013;-0.4183282;-0.115595;0.2748658;-0.13384947;-0.014661581;0.2176583;-0.021368805;-0.059645396;-0.1453086;-0.0040460983;-0.7200625;-0.12736957;-0.14202538;0.35873538;0.22595406;0.18551926;-0.36166653;0.031987455;-0.059400905;-0.087115325;0.04466058;0.024200795;-0.0027044232;-0.0076711182;-0.0059270654;-0.01076612;0.09688525;0.18467218;0.34781098;0.112726055;0.010479217;-0.35915002;-0.44027373;-0.019589884;0.027106045;0.0021639115;-0.19002923;0.13251995;-0.003718525;0.00029523822;-0.0017019707;0.04449281;-0.21316156;-0.015752431;0.12376733;-0.0044923844;0.03619176;0.026638485;0.020139836;-0.25076577;-0.0551699;-0.015504228;0.010631402;-0.19029355;0.14460143;0.0006312466;-0.117460184;0.21612841;0.102319494;-0.34408215;-0.32836556;0.11051556;0.14330077;0.030350868;-0.075817965;0.1454785;0.28296572;-0.34189722;0.048966512;0.3650024;-0.39516452;0.038961265;-0.029803937;0.01003715;-0.019780796;-0.42271686;-0.122621454;0.16293447;0.08723581;-0.065122515;-0.07835431;0.2986636;0.009803441;-0.043372933;-0.03913028;-0.033529647;-0.13328633;-0.3615194;-0.010031106;-0.344394;-0.078547515;-0.04664027;0.21034867;0.13749763;-0.28088892;-0.030733056;-0.004755022;0.28719732;-0.2265862;-0.13763933;-0.14883155;0.09776668;0.017769834;0.3048372;-0.29523146;0.068463586;-0.063844904;0.0029732916;0.08711052;-0.35772744;0.02438042;-0.052224174;-0.10994362;-0.0258904;-0.051428005;-0.012874267;-0.18875797;0.028521607;0.024027796;-0.09795036;-0.11526377;-0.014425083;-0.009178992;-0.00024726763;-0.012702593;-0.1392168;-0.18957354;-0.2814378;-0.18358546;-0.05334382;-0.09835037;0.086259164;-0.05948861;0.0102328;0.01595328;0.10229277;-0.180006;-0.008693688;-0.007301893;0.0172072;0.1501029;0.0398946;0.25903305;-0.26817355;0.19946666;-0.0040875445;-0.0052442574;-0.0025870358;0.23935853;-0.0060382565;0.25007203;0.18217744;-0.15752718;0.14165509;0.3349411;-0.057830248;-0.16757697;0.016009614;0.005547503;-0.47100893;0.043276597;0.003672536;0.18301205;0.40661448;-0.04767861;0.03155794;0.005597305;-0.1583174;-0.2666782;0.3139345;-0.0062031806;-0.43211985;0.00943746;-0.057342537;-0.31907922;0.013711485;-0.17665407;-0.0065704174;-0.009061763;0.42586622;0.21611437;-0.17408748;0.015860302;0.026923962;-0.24805501;0.13310975;-0.008770735;0.029102387;-0.017825676;-0.0057143224;0.0071708774;-0.0031219223;-0.00707343;0.035734985;-0.0140980985;-0.13275275;0.28138646;0.008596215;0.23588179;-0.0007516978;0.053675868;0.001102429;0.22277628;0.13782972;0.15008847;0.18892148;-0.011705161;0.102384105;0.006675846;-0.012659803;0.15930498;-0.34993342;0.006280101;-0.019632496;0.14397871;0.08970076;-0.14161819;0.32410297;0.29050183;-0.02022678;-0.02144848;-0.032021824;0.041642945;0.06355702;0.24738033;-0.21668212;-0.12486224;-0.358018;-0.2652548;-0.012081722;-0.013285065;0.0059275576;0.23481597;-0.34112713;-0.0059571746;0.1675425;0.20429951;-0.17067358;-0.17832246;0.07916637;-0.109294705;0.19744912;0.25045368;0.37094507;-0.438203;-0.1450088;-0.17807367;0.10390472;-0.4071758;0.16471593;-0.0018062723;-0.0131153315;-0.14902969;-0.06544878;-0.04891262;-0.016472047;-0.014741814;-0.004373894;-0.008280679;0.0850824;0.15428174;0.010039528;0.009530545;0.06352037;-0.01337562;0.017456094;-0.068283126;-0.32341367;0.0021465556;0.19405584;0.23738512;-0.12322417;-0.015490596;0.07205459;0.18827209;0.0003835242;0.035551768;0.009450924;-0.09452363;-0.4752641;0.14376555;0.00943692;-0.2806694;0.040765334;0.17717662;-0.16672102;0.040018197;-0.38921112;-0.060430534;0.28340408;-0.034636058;-0.19977777;-0.09477552;-0.21758316;0.056340307;-0.019564163;0.030544413;0.18463479;-0.018167038;0.015256293;0.2333906;-0.044044416;-0.08823473;-0.4099055;0.0046849926;0.016553978;0.14570507;0.004451174;-0.006330175;0.31054944;-0.12331209;-0.01705641;-0.36128297;0.014878097;-0.0043055997;-0.4434388;0.09321598;-0.12730518;0.18544213;-0.14446962;-0.0130571425;-0.12906891;-0.00484979;-0.04023452;0.064454176;0.053169664;-0.0047612386;-0.08576657;-0.027648998;0.05674074;0.05702204;-0.0035271451;-0.034360655;-0.12648985;-0.34154913;0.06108764;-0.022765547;0.011327635;-0.46367708;-0.0288547;0.022763541;0.040126875;0.008265289;0.14210354;0.14768416;0.5315543;-0.13991378;-0.11465726;-0.2267598;-0.06751808;-0.007965992;-0.00012621752;-0.19049108;-0.036355358;0.011877057;0.081451245;0.3684777;-0.034070194;-0.3889666;0.0035257982;-0.012682142;0.16642967;0.0064814542;-0.002798041;-0.056241695;-0.012711953;0.0036001452;-0.03283111;0.2980391;0.06670038;0.17912549;0.002696868;-0.05294882;0.23917156;0.015063049;0.058687493;-0.22009996;0.09494922;-0.010976436;-0.15257876;0.009287197;0.0067359437;0.22686867;-0.0193643;0.014005372;-0.11125752;0.035662834;0.2273121;0.022444507;0.092815466;0.20082858;0.16455911;-0.07302578;-0.003952353;-0.010710322;-0.011891701;-0.14598842;0.14978208;-0.014668927;-0.23883979;0.013092002;-0.026303275;0.030266877;0.26301506;0.19612597;-0.28846976;0.20420547;0.02537027;-0.109434664;-0.006766558;-0.18732405;-0.3101445;-0.05302767;-0.0050103534;0.34919086;0.028774919;0.07632824;-0.153479;0.120779194;0.09418879;-0.3417717;-0.10242037;0.015831966;-0.02784985;0.10711563;-0.48814264;-0.0020746118;0.0072864033;-0.65571195;-0.06751629;0.14775273;0.050640125;-0.056380328;0.0094063245;0.013124308
-0.10282022;-0.04121139;-0.0111799585;-0.18179841;0.0012158012;-0.31958824;0.36558053;-0.00814352;0.3437732;-0.011084259;-0.056393027;-0.18011352;-0.0022518865;-0.0011496113;-0.36940995;-0.03496532;-0.006631045;-0.13585256;0.07631155;0.027385745;0.10959176;0.52152854;-0.016459795;0.39683157;0.0035480382;0.13383923;0.0032281848;0.008509615;0.015924523;0.0401144;-0.39139447;0.15955451;-0.2716811;-0.014115174;0.0006238799;0.009778826;-0.012321043;0.3946225;-0.14006816;-0.2050045;0.072372094;0.01523081;-0.04959434;0.15035601;-0.24993907;-0.38948843;0.011841627;0.042531963;-0.008926839;-0.13153507;0.024251282;-0.07874385;0.18421265;-0.010888548;0.14229386;-0.022087429;-0.12165842;0.13852967;-0.032388654;-0.011722625;0.010470195;0.029516378;0.007795814;0.009583077;-0.21259633;0.114232264;0.011802258;-0.055417728;-0.14462034;0.008211506;-0.010318459;0.0041588875;-0.039150864;0.1416548;-0.15870336;-0.012261955;0.1079114;0.086263165;0.00020892954;-0.02380694;0.0030780272;-0.07966853;-0.005043662;-0.059701525;0.025256682;-0.06928134;0.029072128;-0.0068733073;0.019213773;-0.0126963025;-0.18977474;-0.0045124646;0.12523769;0.1113343;-0.23288839;-0.11396759;-0.07843442;-0.11418861;0.019835819;0.116873346;0.20105806;0.14669774;-0.051009826;-0.28303748;-0.2513139;-0.24812227;0.20625733;0.106034085;-0.18235952;0.0100111235;-0.068557285;-0.27974948;-0.012576574;-0.11301465;-0.19730736;0.0022638608;0.00036032748;0.08438405;0.12845187;0.25875497;-0.0682547;0.06659227;0.2800517;0.15385881;0.073253125;-0.104389064;-0.16753963;-0.059994236;0.07068996;0.04410262;0.3561735;0.0851915;-0.004618784;-0.005284066;0.10047633;-0.028230574;-0.42847174;0.030778356;0.05672905;0.13552877;0.03197207;-0.49618012;-0.09798931;0.40708756;-0.005455032;0.002146114;-0.0024507067;0.021085542;0.26281783;-0.13190922;0.012715222;-0.1927364;-0.13754596;0.06858907;0.42777538;0.35040653;0.31584004;-0.09640773;-0.016940767;-0.01801385;-0.2593719;0.2068273;0.14038573;-0.0035317654;0.060984686;0.1065951;0.015979718;0.069902904;-0.023211004;0.26216006;0.16186236;-0.0043870467;-0.31795585;-0.08517654;0.043837048;0.071528144;-0.008782033;-0.2915135;0.06311195;-0.000773074;-0.0021238767;0.0011705724;0.23949759;-0.20747018;0.00051560317;0.09492541;0.0074364943;-0.12727097;0.30581295;-0.0025971823;-0.17524812;-0.008986685;0.0026148723;-0.010762072;-0.19373411;0.16621724;-0.09307091;0.13886656;-0.09971064;-0.31604838;-0.04172541;-0.26547104;0.17687432;0.13495888;0.0879378;0.021306906;-0.00030457752;0.2911556;-0.63539195;-0.05795947;0.18387012;-0.3911052;-0.036000594;0.0004720561;-0.009854595;0.018283324;-0.25458297;-0.116372794;-0.019109905;-0.14580636;0.086001776;0.051950328;0.16299689;-0.019527266;-0.09178658;-0.24173711;-0.20035361;-0.0288037;-0.03690214;0.011464154;-0.19948165;-0.09756941;0.118888296;0.2985573;0.054921594;0.07160847;-0.0969854;0.0038600054;0.13510132;-0.15779835;-0.06252453;0.09945434;0.02869875;-0.010263416;0.27273107;-0.34462345;0.19277975;-0.026725044;-0.005105966;0.06925255;-0.21993236;-0.003377981;0.17006859;-0.10357756;0.019108044;-0.103817336;-0.20442224;-0.036085326;0.00663781;-0.011003204;-0.10908212;-0.37503606;0.01391931;-0.0026325965;-0.0070236325;-0.1716247;0.13983725;-0.31132707;-0.27093804;-0.30813977;-0.1123914;-0.10558007;-0.14228055;-0.015241274;-0.0051631285;-0.01363772;-0.19037257;-0.08597708;0.006896414;0.014974092;0.0045643966;0.09802205;0.12686117;0.49668893;-0.37532142;0.40230337;-0.009305288;0.025317548;0.011782988;0.22344826;0.40189135;-0.0038391252;-0.14217128;-0.10280629;0.062239576;0.064063735;0.12082994;-0.2512544;-0.0116256;0.005295174;-0.6115852;-0.03175329;0.0014634266;-0.033615768;0.18968853;-0.16305618;0.09536985;0.017971579;-0.16415757;-0.34975165;0.18483046;-0.0040363786;-0.10831317;-0.018101584;-0.08521827;-0.22733551;-0.08076782;0.13466077;-0.018913805;-0.01633644;-0.06100589;0.0024003799;-0.04716149;-0.012539971;-0.012749892;0.059523504;0.062748685;-0.006276418;0.16293663;0.020788902;0.0027730793;0.0031484736;-0.0031471609;0.0012320695;-0.041599385;0.0004890166;-0.074554056;0.24760534;-0.031789783;0.19219564;0.00060592056;-0.10590947;0.015119175;0.17455453;0.07603593;0.055143803;0.22031014;0.08313703;-0.2028103;-4.3131797e-05;0.010945886;0.14448598;-0.24106504;-0.01706463;0.018259555;0.0980013;-0.08742473;-0.12664741;0.20214191;0.16191223;0.035747863;0.015746966;0.10608445;0.07622971;0.0073512555;0.050662786;0.08549119;0.12280479;-0.1586474;0.03046073;0.009375904;0.0034523464;-0.0012476122;0.20855847;-0.1858495;-0.0020091305;0.23853792;0.10360103;-0.049527284;-0.13303769;0.03970091;0.058600828;0.12834796;0.35226184;0.23840804;-0.6046012;-0.24318501;-0.14910157;0.04691046;-0.2367165;0.009430509;-0.0052683675;-0.0023600848;-0.077181384;0.1722398;-0.42951137;0.010484294;4.7989644e-05;0.0055159563;-0.004703405;-0.0063308445;-0.15324283;-0.29782546;-0.0024082614;0.04861878;0.00087956735;-0.011394916;0.15958925;-0.19764647;-0.022154752;0.46036345;0.48613772;-0.054342024;0.027680581;-0.051880453;0.16949861;0.16340663;-0.039512128;0.15252101;-0.07874437;-0.36973068;0.022192191;0.00024062145;-0.49825618;-0.16845316;0.16415404;-0.09683612;-0.18996896;-0.2549052;0.0410264;0.08020201;0.0056513976;-0.172219;0.04255309;-0.034158945;0.2668508;-0.0013273723;-0.053815886;-0.04307898;0.009896818;0.017358733;0.15878913;0.020090269;0.042692445;-0.057793856;-0.0053819222;-0.025106872;0.1912502;-0.011083869;-0.004343058;0.3759882;-0.021295;0.0073088263;-0.23709257;-0.019504748;0.00054865365;-0.27736118;0.14449269;-0.060691252;0.10397001;-0.17050794;0.006322382;0.018171268;0.0100769475;0.030957002;-0.012303019;0.18970501;0.002443671;0.074405506;-0.101204135;0.18279915;0.116894566;-0.0030497026;-0.12119534;0.003338038;-0.12050119;0.21668132;0.00024780986;0.0076853866;-0.20129178;-0.011728718;0.021170827;0.041990444;0.016589958;0.20888552;0.06181132;0.28600475;-0.017177226;-0.12286184;0.17638575;-0.062484797;0.06223216;-0.005059717;-0.1028306;0.015354404;-0.0155248735;0.08287141;0.30226514;-0.051179983;-0.37996876;-0.01682478;-0.16053319;0.15739264;0.024577804;0.024549035;-0.17883272;0.006970238;-0.0070157745;-0.025849594;0.17958315;0.1701192;0.33143997;0.0006029813;0.032944925;-0.06804192;-0.016914954;0.014144574;-0.23608008;-0.007493632;-0.0073002004;-0.26712233;-0.0053221355;0.13624385;0.018993184;0.0042096553;-0.029524392;-0.2650374;0.033926822;0.095473334;0.00028751214;0.05151873;0.21711196;0.20072909;-0.09320161;-0.04881034;0.008899803;0.011287431;-0.21288931;-0.123996004;0.08661111;-0.10638955;0.007428709;0.066574;0.1959539;0.12483788;0.0061544296;-0.22358309;-0.006111156;-0.03365355;-0.22348264;-0.0003371164;0.006075834;-0.14405562;-0.012969324;-0.004074428;0.152601;0.07562009;-0.006003963;-0.26889285;0.06939723;0.12570465;-0.51708925;-0.1870361;-0.015060248;-0.17343956;0.019941557;-0.58016324;-0.003540506;-0.03156475;-0.55969477;-0.12848544;0.06378605;0.023735298;0.059919544;-0.02303374;-0.09822035
-0.29073274;-0.07434399;0.011546086;-0.15502274;0.003663002;-0.17184153;0.3804349;0.02371283;0.21180147;0.033136535;0.0936961;-0.25459304;0.023521347;0.0126660345;0.0444288;0.043292675;0.0012175572;-0.06915237;-0.18392833;-0.14050849;0.023427043;0.35409358;-0.05065295;0.19633608;3.9561357e-05;0.06082236;-0.000242856;-0.037631568;-0.038940202;0.28106365;-0.54522073;-0.18446317;-0.23918064;0.0036982938;-0.00094398134;-0.020466851;0.013782509;0.20269945;-0.10875293;-0.12899461;-0.12153554;-0.0011940757;-0.18362409;0.12017129;-0.25118846;-0.26493868;7.456639e-05;-0.028206035;-0.0067936066;0.08839503;0.008525328;-0.3357097;0.12585953;0.023203686;0.27528155;0.031892844;-0.025989879;0.31981564;-0.04879846;0.014457085;-0.017871603;-0.045241084;-0.009769607;-0.014064441;-0.10673882;0.4755628;-0.01016216;-0.07213455;-0.09555101;0.014469361;-0.09332295;-0.003249179;0.058372173;-0.2363578;-0.0663245;-2.1552167e-05;0.048504885;0.047600597;0.011088105;-0.02082487;-0.012994866;0.20528439;0.0033500954;-0.26088485;-0.09444415;0.020994227;-0.028624045;0.060349766;-0.011373659;0.01640353;-0.46370935;-0.010174615;-0.05581161;-0.2470076;-0.09165776;-0.33651897;-0.13107581;-0.0801458;0.08119796;-0.04113868;0.12651555;0.15358144;-0.189434;-0.050006647;-0.0064994544;-0.086134896;0.13132344;0.19446519;-0.093491115;-0.08889837;0.15422533;-0.49457845;0.020717107;-0.21136568;-0.14728655;0.008971432;-0.0045030573;0.014880294;0.14019445;0.51127386;0.06940855;0.14391051;0.15404075;0.09657217;0.019909171;-0.14591873;-0.35279873;0.13739035;-0.020058231;-0.040310048;0.33301476;-0.13343528;0.3182979;-0.0053656474;0.19628276;0.013705055;-0.41808572;0.044458095;-0.016517641;0.00077490904;-0.028647732;-0.32877558;-0.012003214;0.08077566;-0.09659415;-0.0026271248;0.4475114;-0.004597419;-0.15514308;0.15108891;-0.020311786;0.32598796;-0.11870957;0.08634352;0.63007325;0.19725922;0.2023306;-0.36964497;0.017048918;-0.123765066;0.089400746;0.13276765;0.0131202545;-0.011671946;-0.019043569;0.13644543;-0.0037317604;0.020080818;-0.02026399;0.26050812;0.046078656;-0.008650031;0.0023024844;0.32849318;0.18294755;-0.1575715;-0.017249202;-0.34709555;0.032487422;-0.020852868;0.004396559;0.010542493;0.12844382;-0.02764836;0.005698588;0.0037452502;-0.0077362345;-0.047700286;0.30129126;0.012282306;-0.021887403;-0.122745246;-0.06401454;0.027604356;-0.52850187;0.121429026;-0.061605155;0.22255047;-0.016551847;-0.6325092;0.0060012126;-0.22648294;0.25251213;0.18288572;-0.010015094;0.041146465;-0.040480677;0.42829525;-0.17561334;0.0023207364;0.0006090282;-0.1238253;0.10811167;0.02779668;0.0077542416;-0.015980242;-0.2427962;-0.17807084;0.030155186;-0.13218693;0.22371753;0.07802387;0.19126193;-0.00063287694;-0.12796141;0.28340235;-0.0941447;-0.061137125;-0.12561257;-0.0020547186;-0.21070893;-0.17396827;0.039553273;0.15204857;0.03176727;0.0713518;-0.19317582;-0.023372201;-0.1313687;-0.08500642;0.082327135;-0.13436975;0.028129963;0.012974686;0.25701052;-0.4280839;0.18350215;0.031761132;0.0028241377;-0.07732922;-0.19719304;-0.019703422;0.33738914;0.034913395;0.011231496;-0.29968485;-0.17512469;-0.0046545235;-0.0055239587;0.009031446;0.12359381;-0.14743565;-0.018231718;-0.0074337116;0.022495322;0.041216075;0.22142573;-0.44779748;-0.17236833;-0.35528603;-0.1549091;-0.011022806;-0.22934979;-0.07854392;-0.009258861;0.011467676;-0.41879994;-0.07011107;0.020883895;-0.019263214;-0.024457145;-0.301454;-0.10438782;0.17483155;-0.37564564;0.331366;0.02363369;-0.025022045;-0.00064229866;0.20920405;-0.014900871;-0.21312918;-0.13895679;0.028349504;-0.023775764;0.18834825;-0.11796312;-0.3097548;0.0039572036;-0.0009573227;-0.12370978;-0.01916794;-0.008233653;0.052059244;0.13371259;0.0061153937;-0.130351;-0.012184903;-0.0759174;-0.36470854;0.17052779;-0.017541498;-0.16192575;0.00018412506;0.02011263;0.1360654;-0.23479408;-0.065901466;0.14828657;0.0093325125;-0.20025074;0.11183635;-0.23226528;0.0001508015;-0.007900837;0.12691243;0.12273879;-0.008683221;0.10207565;-0.014111058;-0.0023619991;0.00012345439;0.004493609;0.0029818565;-0.11298009;0.0033122983;0.21405385;0.3591308;-0.14270808;0.4088834;0.010082689;-0.3789056;-0.036461577;0.11763041;0.13816647;0.39520255;0.055960868;-0.056106918;-0.15336464;-0.0034264568;-0.0058283997;0.046513394;-0.2588361;-0.028564727;-0.0071835797;0.07494623;0.06017484;-0.09672869;0.2612374;0.19273135;0.036061075;-0.010885671;-0.1428725;0.20436047;-0.009228132;0.040653653;-0.24248974;0.21495661;-0.26632017;0.16146141;-0.014314442;-8.676974e-05;-0.0021455567;0.035640996;-0.3230938;-0.0049995175;0.15084764;0.10053342;0.11492402;0.00018316385;0.2846089;-0.10409054;0.3868077;0.5082387;0.023644634;-0.3124218;0.12844816;-0.03858316;0.10075149;0.09859412;-0.21326506;0.018773776;0.0016410598;-0.19207267;0.2512979;-0.27422792;-0.009437483;0.0098317135;-0.0014283471;0.019494502;-0.00034875778;-0.16445918;-0.56617326;-0.015003212;0.05306575;0.0033107141;-0.19704214;0.123392716;-0.27552152;0.0045370925;0.422204;0.44047365;0.0035927999;-0.0054945135;0.07931322;0.21099174;0.26057124;0.12772556;-0.026646797;-0.16741498;-0.6040602;0.07980925;-0.0018247382;-0.331404;-0.35312718;0.23461245;-0.23926187;-0.24460614;-0.1116585;-0.054875765;0.12714933;-0.07583044;-0.058584575;-0.0704493;0.20494847;0.17689762;0.010949294;-0.020885544;-0.019932957;0.000508249;-0.03467216;0.15134194;0.050234072;0.22234756;0.16669148;-0.012790753;0.0317056;0.16320692;0.013680033;0.0060340203;0.25577113;-0.15884167;-0.01387783;-0.074076876;0.0027726197;-0.003998662;-0.07176976;0.156071;-0.19815865;0.052113496;-0.37940133;0.008919612;-0.028521681;0.0077663795;-0.027387772;-0.11944965;0.12936234;-0.01219211;0.034310468;-0.0851088;0.24986543;0.09285382;0.009136306;-0.07427959;-0.20866305;0.05397744;0.15208907;0.040639408;-0.018862158;-0.108528666;0.00048911787;-0.026976699;0.024048636;-0.031074196;0.27217254;0.19941393;0.24021004;0.03973619;-0.19627197;0.25188613;-0.19635192;0.098892294;0.011878108;0.16551922;-0.006907182;2.6896127e-05;0.055377312;0.17052451;-0.08360942;-0.19462052;0.027295616;-0.21740863;-0.0453551;0.0112262;-0.007892471;-0.049494874;-0.0035170189;0.015147847;-0.023294743;0.12900347;0.22420348;0.20593545;-0.0077934265;-0.010784737;-0.2439714;0.020119974;-0.21144609;0.039652828;-0.15640801;-0.0057178508;-0.1964025;-0.00057494716;0.16893487;-0.27872384;0.006528562;0.025622027;-0.30909118;-0.23498486;-0.005727185;-0.01963611;-0.17773251;0.11872404;0.10812658;-0.20719412;0.029393062;-0.0020870077;-0.0048798304;-0.25841388;-0.09288283;0.12616327;-0.056665268;-0.012817859;-0.008990305;0.031392418;-0.047365732;0.032216556;-0.15240656;-0.0006223285;0.011794863;-0.21612462;-0.002129468;-0.09122836;-0.12554084;0.17110659;0.02034361;0.18653382;-0.031204527;-0.0849974;-0.26661548;-0.020952737;0.23671009;-0.42865056;-0.36512652;0.01474802;0.18405637;-0.07651765;-0.4707154;0.01205058;0.0067150635;-0.3924228;-0.22697628;0.30725336;0.1449729;0.1882722;0.033681925;-0.011689122
-0.5135832;-0.004317378;-0.015118785;-0.08479068;-0.0015428687;-0.06542017;0.2361502;-0.0349587;0.24819742;-0.022725107;0.15769929;-0.5933341;-0.00790108;-0.011992208;0.31874216;-0.029825272;-0.00045814848;0.009667313;0.07481737;-0.20024212;0.015230524;0.21840519;-0.045601852;0.060508605;3.3175846e-05;0.0025084515;0.012176054;0.17082691;0.056283057;0.32554096;-0.2675378;-0.22061719;-0.269401;-0.014915097;-0.02270938;0.012237918;-0.01833301;0.08747832;-0.106327005;-0.12729846;-0.021816721;0.0032952067;-0.044540484;0.08038662;-0.064505;-0.46043065;0.0035963398;-0.019766793;0.010555287;0.1598167;-0.0060093063;-0.21044053;0.15611473;0.15917088;0.025303585;0.0055083088;-0.048960652;0.28187862;0.047389857;-0.010355266;0.029818432;0.10761413;0.0023849849;0.0073267417;-0.07593107;0.2835142;-0.015019502;0.0104270475;-0.04025732;-0.027598945;-0.1743322;-0.00020242414;0.12040611;-0.23326641;-0.4460763;0.008498677;0.113306075;-0.10435898;-0.007884289;0.1643016;0.012426354;0.20497504;-0.009751681;-0.20730893;-0.14858992;0.0745284;0.01772804;0.056954816;-0.0067105386;-0.005795214;-0.36883184;0.020957319;-0.26321766;-0.26913902;0.03237885;-0.368082;-0.23790444;-0.17737567;0.07304226;0.18366438;-0.04747559;0.19754742;-0.22611831;-0.21064197;-0.076669596;-0.18066785;0.19990596;0.19724818;-0.070428416;-0.024524411;0.19796363;-0.30474037;-0.019810652;-0.18468124;-0.35961807;-0.025748782;0.004221558;0.18708186;0.30754194;0.15717278;-0.032769624;0.02862105;0.23919874;0.22004426;0.093273565;0.081347816;-0.46077308;0.25385347;0.06525107;0.18455617;0.1991413;-0.18544193;0.03702348;0.006112328;-0.0010635633;0.00051456457;-0.46837813;0.030054986;0.16251184;-0.04327775;0.0074169985;-0.21315491;0.23790628;0.17830414;0.24257542;0.0011140557;0.4105528;-0.011175295;-0.31858566;0.11569554;0.0341061;0.12208258;-0.16932349;0.16724995;0.27540594;0.06554374;0.15057088;-0.27986956;-0.0031159592;0.023644915;0.042436067;0.23738319;0.035968088;0.017780025;-0.014094794;0.09218436;-0.0072433017;-0.05810805;-0.23262261;-0.058799356;-0.09354739;0.01302632;-0.116775945;-0.07797393;-0.008019128;0.023850193;0.02162395;-0.38252616;0.06620595;0.019581247;-0.0086912075;-0.013708213;-0.2701019;0.16512088;0.00032872957;0.034225695;0.006932597;-0.15799122;-0.15491576;-0.020717017;-0.26962516;-0.018783469;-0.024004579;-0.022070976;-0.32923743;0.29810464;0.11204736;0.07964494;-0.014587452;-0.4016835;0.043907523;-0.2986741;0.15118094;0.26844898;-0.25651044;0.05481195;-0.059962444;0.31516585;-0.15047567;-0.20421997;-0.016147476;-0.061810046;-0.0034360616;-0.018435659;-0.0048572305;-0.004234753;-0.3407442;-0.31415248;0.15589875;-0.18998879;0.067077674;-0.029985242;-0.17199486;0.006033577;-0.4793762;0.05582202;-0.17161225;-0.04773747;-0.37536123;0.008378274;-0.29686594;-0.19238181;-0.13916227;0.15959765;0.021065561;-0.041957196;-0.16544633;0.021564368;-0.0919255;0.06514954;-0.041558143;0.046606474;0.052160587;0.00093465374;0.3248342;-0.43500257;-0.008110135;-0.14788043;0.005495518;-0.009883889;-0.11040737;0.02427931;-0.0758574;0.2308195;-0.01530486;-0.10093741;-0.31751302;-0.007732182;0.018088056;-0.016720377;-0.041866507;-0.28586572;0.016477684;-0.005347193;-0.02522409;0.033597346;0.29183897;-0.39267808;-0.11354052;-0.3574845;-0.102864936;0.06566251;-0.21214986;-0.039422948;0.0035834864;-0.008595616;-0.40730444;-0.14217786;-0.024219882;0.010162845;-0.007226255;-0.15585463;-0.07476101;0.06384529;-0.40936077;0.21704717;-0.013067374;0.100940034;-0.026436435;0.078053325;-0.14465429;-0.20112522;-0.18998434;0.01559336;-0.12506072;0.31829283;-0.22394702;-0.08697;-0.004049136;-0.0042967154;-0.048542526;0.021843646;0.016327213;0.15008326;0.35293594;0.0032102326;0.09060833;-0.029170696;-0.13272776;-0.29703474;-0.1622227;0.013567225;-0.17522454;-0.00031160077;-0.012070153;-0.13655007;0.010796687;-0.37453333;0.049167477;-0.002087821;0.1050857;0.033655938;-0.36859947;0.008279099;0.014668856;-0.047829334;0.20123912;0.017024148;0.21227436;0.012988817;0.00068169;-0.02130161;-0.018294968;-0.020361405;-0.10491514;-0.014307933;0.22587137;0.26594;-0.1939746;0.27952626;0.00052260706;-0.7940321;0.028079126;-0.10381922;0.2667887;0.26071405;0.16257425;0.037838086;-0.1636878;0.013857772;0.010991977;-0.005971806;-0.06674446;-0.071348086;0.003938989;-0.26531488;0.009853555;-0.1607801;0.2833977;0.23212814;-0.042846877;0.0062912777;0.10926573;0.09379159;0.02170883;-0.13243264;0.026496619;0.052456707;-0.06522419;0.29669696;0.01256169;-0.00491269;0.00027384507;-0.1271159;-0.056522127;0.007962545;0.20971726;0.057571232;0.11536154;0.102606945;0.32950824;-0.2274727;0.14604613;0.38612354;-0.12894942;-0.23454876;0.2958141;-0.021584414;-0.081503995;0.2004704;-0.30262268;-0.019452417;0.010395214;-0.1990523;0.4035826;-0.038818765;0.012373258;-0.0029764313;0.009962431;-0.011296285;0.10254356;0.03392058;-0.5662223;0.0049301446;0.18244533;0.001158686;0.053611595;-0.0694032;-0.35423383;0.009860944;0.16339658;0.2560077;0.12809229;-0.020357013;0.062437356;0.28052574;0.2599954;0.022200344;0.09778002;-0.19189337;-0.29867908;0.061119184;-0.0052886894;-0.3585581;-0.077422746;0.12618491;-0.15344386;-0.30498815;-0.24266449;0.022983488;-0.06651473;-0.115717866;-0.18527952;-0.054064777;0.2296305;0.036622863;-0.009865325;-0.019604208;0.09646259;0.0003077465;0.007935199;0.089188285;-0.07710055;0.4525496;0.33927324;0.0027716283;0.016296891;0.26842964;0.00801146;0.013932773;0.032892082;-0.022144368;0.014961544;0.087035954;-0.0022971663;-0.0034919914;0.009642916;0.24971798;-0.10474292;-0.07207263;-0.42186093;-0.023219995;-0.21802197;-0.0037935255;-0.009570408;0.13885298;0.0076052435;-0.00905021;0.1151957;0.085357755;0.2988596;-0.08973204;0.007873584;0.018173292;-0.17880614;0.1723264;-0.15400931;-0.11351795;0.0045929407;-0.0057432665;0.013964894;0.009426583;-0.008868059;0.01202694;0.050486192;-0.04429985;0.021835469;0.07597114;0.112851724;0.41562957;-0.0026260058;0.2047562;0.0009656745;0.19389053;0.019737383;-0.012647058;0.1523446;-0.36730224;-0.06717972;-0.058407806;-0.01292096;0.080587104;-0.10345288;0.13275483;-0.017005712;0.056787252;0.005064501;-0.0013460441;-0.10153369;0.17416266;0.025832908;0.18375008;0.011449757;0.009869507;-0.01984485;-0.022721654;-0.16192123;0.30878314;-0.22817363;-0.0023167587;0.12287512;-0.013881506;0.12251495;-0.38724822;0.0022184926;-0.012589344;-0.38958558;-0.19215645;-0.19300663;0.0023801855;-0.18931969;0.075214475;0.10811265;-0.012371439;0.07098688;-0.02153335;0.0033747884;-0.14725548;-0.1775282;0.018384261;0.1271705;-0.012771499;-0.10510214;-0.29409832;0.13397607;0.15835351;0.14413549;-0.10909798;-0.0009577794;-0.08855164;0.0060352236;-0.03553657;-0.09313091;0.032839563;-0.011790241;0.2814343;-0.06855917;-0.23505609;-0.14665867;-0.014710514;0.24646947;-0.2388772;-0.17358741;-0.0067962995;-0.012475412;-0.1705937;-0.39478785;-0.017006928;-0.009918922;0.017728463;-0.3523075;0.26180708;0.03409026;0.12895651;-0.028681401;-0.026670994
-0.3757667;-0.10751471;0.010403342;0.21717943;-0.009367678;-0.10209073;-0.0020574748;0.02742099;-0.045395568;-0.011881842;0.052019183;-0.68359876;-0.0060892343;-0.0005131947;0.17767647;0.026927993;0.016915973;0.061852194;-0.0853608;-0.30166072;-0.13491711;0.03633765;-0.02004621;0.27694333;-0.0054854527;0.028152095;-0.021425433;0.11057288;-0.1232416;0.09798329;-0.20544049;-0.4314349;-0.14116666;-0.008284903;0.013146155;-0.00051591307;-0.0043277573;0.11260456;-0.19297138;-0.10686799;-0.010321082;0.032264657;-0.021359231;0.245917;-0.18306865;-0.30069506;-0.0060640965;0.047958832;0.0017300405;0.06359275;-0.0066411365;-0.2589449;-0.1230928;0.14767542;-0.04032908;-0.0044872025;-0.09626412;0.09847543;0.014223888;0.0029270449;-0.0124726845;0.0009760427;-0.004393133;0.0020298131;0.011692323;0.12891112;0.008418248;0.057043973;0.12749512;0.029448293;-0.23255701;-0.010219683;0.14941488;-0.06654977;-0.17536457;-0.018803833;0.083059534;-0.052058555;0.021812167;0.2152241;-0.011964514;0.20887315;-0.0029476013;-0.10204362;-0.1704585;0.074662454;-0.021349868;0.013367165;-0.012918454;0.00091966556;-0.14084136;-0.005648107;-0.115526065;-0.007437955;0.035220824;-0.31011304;-0.356312;0.04867488;0.15146452;0.19157323;-0.11954998;0.12818359;-0.17483474;-0.027219903;-0.22134182;-0.29357085;0.21324731;0.22030431;0.038851436;-0.09120384;0.23607747;-0.1087892;0.020461444;-0.051165633;-0.5617679;0.015918031;0.0048675276;0.07553518;0.3040735;-0.030459657;-0.13360506;0.20799743;0.24671541;0.037445012;-0.13375948;0.22863026;-0.19518162;0.05929964;0.2640947;0.26223776;0.05710248;-0.29602465;0.12382926;-0.010769076;0.11511123;0.00029659644;-0.31796357;-0.020220442;0.044825584;-0.32381734;-0.011647334;-0.36580163;0.17811644;0.08030812;0.1267664;0.004831876;0.20596534;0.0020265493;-0.29280296;0.06215743;-0.01102392;0.20310096;-0.31042838;0.34519485;0.2386193;0.10960127;0.054437358;-0.32001936;-0.011575964;-0.03988298;0.051405426;0.022609156;-0.046686947;-0.0136578595;0.0054935087;0.2544219;-0.00084506423;0.034402292;-0.5238252;-0.204033;-0.15294577;-0.0013314888;-0.019126322;-0.07316266;-0.015150814;0.15960655;0.022517143;-0.5283063;-0.0029257964;0.010194287;0.0026931376;-0.013108262;-0.38173681;0.14878936;0.009511148;0.111503184;-0.0030734579;-0.16461077;-0.12749328;0.0070227557;-0.10116551;0.05478041;-0.03469524;-0.001014485;-0.36768672;0.2423827;0.10136433;0.06709742;-0.18035492;-0.06950599;0.02002154;-0.251233;0.020959066;0.18744834;-0.2797807;0.01920137;0.12215469;0.40005714;-0.113286436;-0.18601915;0.259338;0.10680109;0.1780263;0.0023681;-0.020913724;0.010283055;-0.07991666;-0.21812795;0.037124816;-0.13611583;-0.30092177;0.021482803;-0.33526087;-0.014456744;-0.1344015;-0.021530516;-0.065959975;-0.21722813;-0.24316053;-0.010188746;-0.19441837;-0.0782798;-0.08154291;0.33037192;-0.04978103;-0.16641587;-0.010859058;-0.0012389952;-0.013460541;0.14078626;-0.033841096;0.14852291;0.034390528;-0.0022662515;0.19189274;-0.401372;-0.20285164;-0.095886804;-0.006784784;0.053280007;0.15358761;-0.017807424;0.03921693;0.012436631;-0.0007296534;0.19513257;-0.07119723;0.030267175;0.038447663;0.0004311346;0.035237618;-0.4541536;-0.022285888;0.0047439127;0.012578983;0.05635236;-0.057840355;-0.09798562;-0.12948051;-0.10594975;-0.10895882;0.029485976;-0.19595842;0.07301176;-0.014749967;0.0026738103;-0.41939232;-0.2032634;0.009947456;0.010965806;-0.006004662;0.16143447;-0.078667924;-0.073933795;-0.35943127;0.14086074;-0.0027515618;0.3103625;0.009625446;0.116964564;-0.32693452;-0.05970273;-0.05185243;0.0838973;-0.3396791;0.25289732;-0.083592035;-0.02652124;-0.012825228;0.0026068194;0.13623172;0.0025252502;-0.002063132;0.19310696;-0.10072668;-0.11716154;0.10491605;-0.05854646;-0.17055485;-0.15004069;-0.15543425;0.008737534;0.11092864;-0.003648162;-0.08350438;-0.37033477;-0.013560419;-0.3597373;-0.113088205;0.015693085;0.050135165;-0.0805379;-0.23352961;-0.010345868;-0.0034878445;0.052148215;0.16585752;-8.971365e-05;0.08541715;-0.008314428;0.0027063522;0.018213535;0.014788948;0.0323393;-0.056818098;0.009043833;0.044644017;0.06612871;0.04116026;0.2986931;0.010431805;-0.58053905;-0.0039080814;-0.029781992;0.09248928;0.24166662;0.21313241;-0.06932348;-0.10792288;-0.00046674628;-0.01850925;-0.058371093;-0.18080242;-0.08256925;-0.0016949924;-0.009671252;-0.027080068;-0.19953476;0.1819038;0.30651522;-0.01985591;0.001237236;0.04627973;-0.11078359;-0.10993527;-0.2977569;0.07033127;0.067061774;-0.17389253;-0.04607592;0.015047358;0.016824994;-0.011448893;-0.19658823;-0.023054305;0.0069810417;0.20933981;-0.11064185;0.097274914;-0.035625707;0.4333099;-0.050325844;-0.12317833;0.13615084;-0.08885909;-0.3897437;0.3226552;-0.08015571;-0.37972316;0.09793485;-0.13101813;0.018680967;0.004312309;-0.046299804;-0.04663725;-0.10762914;-0.018484592;0.0032161395;-0.01638002;-0.0006503958;0.09038034;0.06366755;-0.47939932;0.001225172;0.18697123;-0.004549797;0.014054596;-0.089614995;-0.40694076;-0.009662593;0.15108144;0.13519922;0.10372706;0.020866485;-0.080837026;-0.08403039;0.08322527;-0.08027453;0.109639525;-0.0810791;-0.52410185;0.10225946;-0.0024846757;-0.20703226;-0.12606804;0.2209513;0.06698884;-0.22253545;-0.1278264;0.026877444;-0.0916371;-0.21262959;0.04804724;0.011254433;0.27170882;0.2631432;-0.003387915;-0.012516052;0.031383574;0.005938354;0.009151879;0.16326249;-0.17225476;0.32958868;0.13584916;0.0017632195;-0.019163704;0.43807757;-0.008566113;-0.017951222;-0.30046445;-0.05310629;0.0072061;-0.043567386;0.010073691;0.0051936973;-0.036172718;0.034488693;0.06840818;-0.27089018;-0.3131386;0.01042497;-0.10080643;-0.009121916;0.03824548;0.1727774;-0.27914813;0.018040942;0.041966766;0.099189684;0.058781777;-0.19038934;-0.002393313;0.052486923;-0.16338234;0.1388796;-0.3811124;-0.12659292;0.009918989;0.21229951;-0.006353263;-0.031664103;-0.03528553;-0.00094743137;0.19863455;0.06369143;-0.1433654;-0.007617066;0.35874662;0.3281871;-0.13736784;0.34775096;-0.0063927392;0.13436572;-0.02029805;0.022634907;0.13171448;-0.17060481;-0.15825057;-0.022776356;0.0054384894;-0.11770686;-0.11895158;0.1323798;0.02271611;0.18979166;-0.0027333575;-0.0032290865;-0.07802768;0.016330058;-0.12613334;0.045119878;-0.01777066;-0.01541279;-0.079266034;-0.0016622709;-0.06742086;0.3815522;-0.27710497;0.008279355;0.3689919;0.0142829595;0.19895194;-0.5461033;0.005875391;0.010432294;-0.5018417;-0.31701183;-0.05007499;-0.025960287;0.008286711;0.06393621;0.1613492;0.25714;0.0020530676;0.004200519;-0.0029162369;-0.0625082;-0.27505895;0.07480005;0.12340759;-0.0068301414;-0.14790687;-0.28565326;0.016128518;0.11162211;0.06783886;-0.21781282;-0.006611113;-0.1467804;0.0008827633;-0.13356185;-0.5316461;0.00041664188;0.008879991;0.144326;0.06670493;0.03832509;-0.10715826;-0.16192997;-0.19101606;0.0922223;0.07134899;-0.009340624;-0.04972572;-0.019832812;-0.10452633;0.009147196;0.015386293;0.07079887;-0.061148364;0.16303428;-0.24864824;0.14677067;0.020958193;-0.0051334384
-0.22953807;0.0659202;-0.01923299;0.100094765;0.0069563566;-0.2606297;0.04936176;-0.030185228;0.07938579;-0.0018626474;0.07896921;-0.24745177;-0.0064968565;-0.0069730342;-0.45433566;-0.035562314;-0.014191608;-0.119310275;-0.3262332;-0.20322806;0.035222672;0.052721277;-0.03815004;0.18382722;0.008400522;-0.06587034;0.008324806;0.009464481;0.096393324;0.13903014;-0.27959022;-0.6626162;-0.4926172;0.022856042;0.003804741;0.01208513;-0.0061298334;-0.021060389;-0.3300712;0.31248245;-0.2421484;-0.028983153;-0.007328661;0.34018263;0.020151377;-0.01304889;-0.012324166;-0.0139279235;0.013007121;-0.04465149;0.00965739;-0.13413554;-0.031215401;0.11666091;-0.12162054;0.00925695;-0.07482911;-0.2695553;-0.07435022;0.0029734243;-0.013082288;-0.04079409;0.013588763;-0.014468776;-0.16643405;-0.102699205;0.0041095335;-0.016922118;0.15844811;-0.009525461;-0.15053497;-0.0017891472;-0.031545598;-0.20728338;0.40748194;0.018499643;0.16206372;0.07415901;-0.018588703;0.26176456;0.008928513;0.22345787;0.0037631812;-0.11872641;-0.13397287;0.30690804;0.016267605;-0.17911348;0.012185092;-0.0012963711;-0.07472702;0.0037576756;-0.13399899;0.27109596;-0.1950405;-0.21856041;-0.18834709;-0.21778561;-0.074121945;0.22594677;-0.035926376;-0.18625326;-0.13915837;0.046555474;-0.31937563;-0.30882892;0.2071652;0.21224481;0.12912893;-0.13489819;0.24016702;0.026547076;-0.0067702113;0.051609684;-0.72442603;-0.0124945715;0.004536519;0.13202026;0.50371873;0.14126727;0.06261782;0.24834207;0.17372136;0.044485904;-0.25471795;-0.022540865;0.021435367;0.017835194;0.41823065;0.27441087;-0.094914705;-0.15256745;0.14915597;-0.0018536147;0.24023512;-0.0063572754;-0.10553563;0.019721605;0.09940457;-0.18609764;-0.004008523;-0.31358007;0.18145548;-0.05777022;0.1357147;-0.004443585;0.09914517;0.0029504946;-0.020394983;0.024432445;-0.01460723;-0.11479965;-0.052959487;0.17763606;0.13486753;0.2018616;-0.04887574;-0.3192514;-0.0015517379;-0.103546634;0.10815284;0.11864044;-0.04089134;0.0060064127;-0.008951501;0.08662245;-0.0056793597;0.023511577;-0.5141677;-0.43985716;0.15041786;-0.010929851;-0.01906456;-0.24457699;-0.107502535;0.081668556;0.022937285;-0.42632186;0.040023364;-0.0048730336;-0.0072655026;0.022590257;-0.17003949;0.29565766;-0.019232552;0.11397701;-0.0028210524;-0.35741985;0.027864091;0.0018163201;-0.13853562;0.18347344;0.19957948;0.016377417;-0.3367714;0.15485671;-0.15808222;-0.20243147;-0.3522775;-0.062088642;-0.21226203;-0.13865642;-0.14111388;0.32402438;-0.3365411;0.06828008;0.12000385;0.26740158;-0.08406984;-0.120319836;-0.054002836;0.02927822;0.056169983;0.0028342742;0.05570624;0.0118306335;-0.045581013;-0.46999466;-0.08814118;-0.22878928;-0.25155386;0.098610915;-0.22304495;0.005013534;-0.21474427;-0.43838027;-0.04973373;-0.102479815;-0.020996777;-0.012274087;-0.22065026;-0.10239219;0.10050265;0.13293576;0.13033456;0.2978461;-0.11094546;0.0049207136;0.00056200277;0.09705011;-0.12130715;0.020860597;0.19594702;0.0048398385;0.03907342;-0.14000249;-0.16860522;0.20999454;-0.002875716;0.07089639;0.19450395;-0.003033615;-0.095870405;-0.10108776;0.0030222363;0.12181913;-0.4854547;-0.089551546;-0.012861265;0.012359157;-0.12913767;-0.25805637;0.013782929;0.010786699;-0.008926426;0.07573574;-0.032958027;-0.07813954;-0.18779099;-0.058305804;-0.0789828;0.21089077;-0.16461016;0.21790957;0.020618225;-0.010327754;-0.37018684;-0.20309907;-0.006977313;-0.013999758;0.03111012;0.17348158;-0.07761796;0.09601475;-0.21411256;0.13591456;0.004662126;0.11317231;0.008081026;0.016103148;-0.45352793;0.03475353;0.08433492;0.09518583;0.014506851;0.17235756;-0.059148952;-0.13187002;0.011081752;-0.009116598;-0.06442521;0.057629723;-0.00029840352;-0.05279998;-0.31311783;0.16461825;0.1648861;0.11361022;-0.09600912;-0.096203126;-0.29367644;0.012968861;-0.2638158;0.004607821;0.15929557;-0.27314824;-0.07164018;-0.21733873;-0.20541868;-0.013680934;0.005003025;0.07123897;-0.46352625;0.0081750145;-0.0010096792;0.18072912;0.1793377;-0.011282274;-0.026419925;-0.003966123;-0.003560779;-0.003905099;0.0017762273;-0.011912106;0.061845917;0.011201711;0.09581529;-0.15146808;0.2346898;0.29802668;-0.010320399;-0.19316043;-0.014018843;-0.21863537;0.020615295;0.49710461;0.32063457;0.08046273;-0.12390984;-0.0043559144;0.0010866333;-0.26991624;0.04675621;-0.13443588;-0.015922654;0.2336234;0.08747349;0.067518756;0.07034008;0.28320986;0.0061929883;0.0042938944;-0.0008190363;-0.13289353;-0.052430376;-0.033466984;-0.08977092;-0.1078208;-0.27048296;0.08102529;-0.0084165875;-0.011226607;-0.0063689006;-0.28539193;-0.045182172;-0.00044469154;-0.0001002036;0.0010425736;0.04101339;0.09437176;0.39909253;0.101989776;0.12366523;0.079406545;-0.036111407;-0.29654592;0.089452;0.034847386;-0.13050884;0.28482935;-0.17330752;-0.007071044;-0.014016338;-0.07641099;-0.33007106;-0.14057848;0.01618943;-0.008538587;0.0019811965;0.0038036066;0.08587353;0.23960571;-0.65036434;-0.014354368;0.18795101;0.0046829926;0.13181016;0.014346988;-0.43983367;0.015439274;-0.054463003;-0.24843489;0.1260744;0.009299707;0.06023203;-0.07387235;-0.11218187;0.083601035;0.062610075;-0.13048264;-0.37526724;0.03942688;0.0056013972;0.021922128;-0.061533723;0.22529493;0.19288732;0.055451453;-0.22432226;-0.05611543;0.06765339;-0.14448814;0.4108137;-0.0615687;0.15692821;0.24476416;0.024318425;-0.03354787;0.11056629;-0.007495722;-0.017648766;-0.067152865;0.108863905;0.25342998;0.044906944;0.006940225;0.013074387;0.32097042;-0.0010585682;0.014165692;-0.011826117;-0.1558935;-0.0024236832;-0.157859;-0.004844386;0.0057239197;-0.15045503;0.00083228183;0.15267466;0.12456825;0.10790873;-0.003571132;-0.049526438;0.000100206795;0.0066970116;0.03222458;-0.2560669;0.0038909228;0.0024302925;0.034067504;-0.36524126;-0.062579036;-0.0046169;-0.091257505;-0.12300884;0.15028293;-0.32316342;0.21584278;-0.0012669067;0.20274256;-0.016220381;0.025034346;-0.02625814;-0.000905817;0.30677107;0.08038062;-0.3263383;-0.20220742;0.33117107;0.16580598;-0.07242765;0.26208434;0.0052224225;0.25093096;-0.016977817;0.0020098027;0.33831683;-0.29811323;-0.2705258;-0.13292961;-0.016206238;-0.059501655;-0.24496928;-0.010963448;-0.02989419;0.033765733;0.003809477;0.0046298676;-0.057509776;0.040792357;-0.3122347;0.38169608;0.008441384;0.006782723;-0.005474145;0.022078108;-0.19065118;0.026483268;-0.008546495;-0.001172173;0.31996444;-0.0003177019;0.3161569;-0.5164075;0.0016965356;0.010862428;-0.5495515;-0.26046708;-0.22154552;0.022389794;0.0009167613;0.002712928;0.2199916;0.25086886;-0.0022613392;0.014690452;-0.0017730119;0.056829106;-0.1994321;0.026150087;0.26185313;0.011950817;-0.01598064;-0.18786334;-0.10287996;0.18677999;0.1901671;-0.3139052;0.027772086;-0.02246994;0.01517384;0.071139604;-0.42501396;0.0015586278;0.007102375;0.19837761;-0.15343831;-0.14952098;0.06826999;-0.07780329;-0.16871564;-0.01962728;0.25558263;-0.008765971;0.018777104;0.02139356;-0.01901314;-0.0059543294;-0.010200625;0.13563237;-0.062416345;0.3632548;-0.28432623;-0.16838546;-0.024835482;-0.09942155
-0.2918456;0.08779492;0.015385585;0.073950745;0.0010256087;-0.2756888;-0.04013658;0.01190565;0.03246943;0.015309181;0.026059285;-0.038600508;0.01729226;0.0014973816;-0.5719849;0.02117464;0.005894473;-0.15202987;-0.30712655;-0.07271983;-0.18039091;0.0765921;-0.13724805;-0.033280507;0.004527909;-0.10072774;-0.003971181;0.1333194;0.19825087;-0.0896086;-0.18898413;-0.3960261;-0.66469675;-0.017392296;-0.010491573;-0.015983364;0.018366622;-0.110912435;-0.26986682;0.35938814;-0.21016361;0.03642495;-0.33889836;0.33225536;-0.10315122;-0.037246794;0.01758994;-0.006879186;-0.019015111;-0.08927243;-0.004293446;-0.36205655;-0.122283466;0.10414622;-0.2358479;-0.021784093;-0.1377729;-0.64490855;0.0045927847;0.0050860266;0.01582745;-0.14657691;-0.003759537;0.018119594;-0.1338133;-0.071372725;-0.014218226;0.009648373;0.30349815;0.006540623;-0.33426264;0.01308297;0.049915913;-0.37272903;0.09033998;-0.017698912;0.17569244;-0.020153904;0.005067253;0.24224132;0.005513871;0.14058687;0.019071009;-0.26930803;-0.23249854;0.0013269822;-0.013811245;-0.2531415;0.0019349924;0.014707198;-0.08595964;0.0041588102;-0.23906153;0.21866894;-0.19712044;0.15628625;0.031142278;-0.25375646;-0.03455805;0.077851854;0.0012462798;0.06007655;0.026829038;0.0874211;-0.2707878;-0.25752205;0.21325049;0.2634569;-0.029469607;-0.13477124;0.11312863;0.1186849;-0.0065514566;0.15594485;-0.47811565;0.0042857504;-0.021552742;-0.018685764;0.33636287;0.18897632;0.0013921204;0.35249075;-0.0047651203;0.14123936;0.039849594;-0.05352055;0.020093307;-0.20388474;0.3026107;0.25830138;-0.17626941;-0.04292416;-0.0077958643;0.014100895;-0.008048444;0.01052562;-0.1081224;0.0063659055;0.1078379;-0.28409025;0.003216559;-0.038242217;0.30902722;0.18627958;0.15060437;0.006224144;0.0954384;-0.0007188355;0.52144605;0.17833513;0.015761632;-0.057829723;-0.0004535332;-0.17592597;0.14246279;0.18245558;-0.1070829;-0.2885682;0.0037431808;-0.1620765;0.13345852;-0.20387886;0.12828088;-0.008322981;0.026328065;-0.0043923184;0.01524516;0.15506329;-0.33589435;-0.49567333;0.19397268;0.01310617;0.106880866;0.24669296;-0.09360012;-0.18088044;0.0020075226;-0.29682326;0.06432352;0.005551002;-0.009837412;-0.0012523358;0.14454019;0.046116695;0.013141558;0.03724813;0.0077317855;-0.14495341;0.119205415;0.0048464434;-0.1351665;0.01830791;0.115791604;-0.022432033;-0.22019695;0.045522667;0.025518222;-0.07519943;-0.48221764;0.17344494;-0.11270616;-0.14920309;-0.13151674;0.36999124;-0.32899714;0.19153127;0.05351431;0.37324458;-0.04475036;-0.28611815;-0.20657764;-0.31818348;-0.2219994;0.0021806725;-0.059917834;-0.00767185;-0.0757973;-0.14622927;0.0040604565;-0.24516381;-0.30226988;-0.0020990616;-0.33053166;0.0039381348;-0.058698587;-0.55800855;-0.14561921;-0.14543435;-0.2700162;0.027415127;-0.22938144;0.023441728;-0.0117205605;-0.0610197;-0.06539839;0.23986663;-0.18481748;0.0034450905;-0.15772846;-0.0008204434;-0.07504015;0.034362853;0.05361912;-0.010239383;0.025070004;0.059565425;-0.012962849;0.21324416;0.0046260976;0.00033411747;0.0068263304;0.010188773;0.13106908;-0.08156295;0.0054022917;0.020871079;-0.29044852;-0.08251152;-0.027103767;0.0032993837;-0.28806102;-0.119558014;0.005449504;0.0026345432;0.0037555336;-0.14278297;-0.018418664;-0.07316401;-0.15947488;-0.08281391;0.12178787;0.1832475;-0.25000632;0.3283349;0.0029223864;0.011169452;-0.40559256;-0.17388904;0.008000304;0.008880423;-0.00803694;0.0009836948;-0.19293809;0.11102983;-0.40760645;0.1941778;-0.003720109;0.117184706;0.007494526;0.0108630005;-0.12163115;0.19957569;-0.052304436;-0.16120479;-0.12524319;-0.054341875;-0.0023652082;0.16217308;0.00046600492;-0.0019330981;0.07816509;-0.029333798;0.0070163803;-0.051339924;-0.13454582;0.020734342;0.14005849;-0.08186305;0.08902886;-0.0028241584;-0.31975478;-0.017901223;-0.19756229;0.004997327;-0.009516856;0.021798667;-0.11026669;-0.20953602;-0.3726998;0.002353447;0.21493419;0.20829491;-0.45423806;-0.00779205;-0.008615617;0.33014202;-0.11617568;-0.00021756886;0.36159053;0.0018506577;-0.011266651;0.004312403;0.011390991;0.016959894;0.07175813;-0.025025332;-0.0046870764;-0.32762688;0.17136274;0.27121004;-0.005794932;-0.3439757;0.0014025801;-0.05320849;0.03934306;0.36551738;0.24544397;0.13318431;-0.29114708;0.0040669935;0.00910724;-0.27748585;0.04316124;-0.08721974;-0.004253935;0.11891529;0.008550759;-0.24902755;0.011905281;0.27788326;0.0398961;-0.0036748075;-0.10921545;-0.2868164;0.027930757;0.0874798;-0.106862485;-0.14488393;-0.38670316;-0.1022945;0.008911241;-0.00056162215;0.015078146;-0.2671784;-0.06522858;-0.009881798;0.076628506;0.14851245;0.05757084;0.032044858;0.3266694;0.13232619;0.13130267;0.06417601;-0.025943743;-0.27202827;0.039912045;-0.026844809;-0.17405437;0.13201259;-0.25982052;-0.010543692;-0.006711367;-0.14793727;-0.11799542;-0.16582833;0.009339533;0.006267483;-0.004638099;0.013079496;0.0644256;0.4131915;-0.24953306;0.007630996;0.03402022;0.008435922;0.24191543;0.1115019;-0.3937706;-0.005396517;-0.21010993;-0.43084112;0.059172682;-0.023485642;0.010698264;-0.101396516;-0.23526217;-0.000956294;-0.041363046;0.13057768;-0.060660116;0.16543338;-0.011274841;-0.03816702;-0.022330048;0.061239406;0.19210273;0.014317535;-0.26829016;-0.01507308;-0.0113528045;-0.14243531;0.29514888;-0.15608251;0.18193205;0.41855842;-0.018648045;-0.03750216;-0.071814135;-0.00021818244;0.018806498;-0.015326238;-0.0042274543;0.21095325;0.077232376;-0.0012341203;-0.011166282;0.25755647;0.0063675777;0.0065987785;-0.093961634;-0.068395436;-0.0015666725;0.11629986;-0.0019403971;-0.0066729435;-0.2001352;-0.015810695;0.3472128;0.21648587;0.26704404;-0.005020173;-0.06656528;0.00027353756;-0.030191168;0.10332868;-0.18784522;-0.007152048;-0.07210277;0.05625354;-0.35337466;-0.016952572;-0.0134359095;0.036267042;0.15140682;0.06985786;-0.17383774;0.08247145;-0.00029817896;0.2792646;0.022701187;-0.043850094;-0.10326507;0.00026148997;0.028979361;0.13104518;-0.30615747;-0.17226112;0.1511321;0.1520125;-0.27039275;0.19781359;-0.009494297;0.20021477;0.027956242;-0.010146875;0.32417205;-0.045961;-0.39312354;-0.19907707;0.018643485;-0.1019583;-0.08586678;0.06035755;0.012558718;0.060289454;0.009594009;0.0013115653;0.019263083;0.020235792;-0.16706559;0.10466349;0.008838288;0.009131598;-0.034696322;-0.0049109845;-0.18802904;-0.075884685;-0.06398407;0.0048568966;0.20319115;-0.015769435;0.14671701;-0.3171857;-0.0154207265;-0.019794166;-0.1985607;-0.262741;-0.28765327;0.02193728;-0.017673317;-0.17046487;0.14543746;0.28715414;-0.022633841;-0.0096649965;0.009903345;-0.1695732;-0.30247965;0.041987937;0.30046603;-0.00012871005;0.1252558;-0.27297115;0.1029839;-0.0596844;0.08842689;-0.29026085;-0.022405034;-0.019965932;-0.023984868;-0.007870442;-0.18440765;-0.079092875;-0.025620176;0.0011469197;-0.2684072;-0.19856493;-0.0032953683;-0.06127997;-0.2841827;-0.10882172;0.255188;0.011698316;-0.17809823;0.17331651;-0.007768573;1.9780344e-05;0.0103131;-0.02120304;-0.104633495;0.19713132;-0.3785513;-0.062082525;0.027095139;0.015029989
-0.0063228915;0.2323477;0.007931988;0.005358652;-0.005739708;-0.20061278;0.09829762;0.011991258;0.07624812;-0.0077026268;0.121826604;0.03843721;-0.02181621;0.006051036;-0.22928305;-0.0057987333;0.002338183;-0.3743202;-0.22950116;0.099078506;-0.0482332;0.08854986;-0.2458096;-0.08364291;-4.7393746e-06;0.013490386;-0.0031640937;0.06756681;0.19233829;-0.027802924;-0.30420974;-0.29095766;-0.4251898;0.0055692494;0.01516491;0.00969285;-0.011017265;-0.04171872;-0.18817662;0.4420072;-0.0049215565;-0.026963938;-0.16967513;0.15748477;0.13063006;-0.17283367;0.015465715;-0.01907501;-0.010676943;-0.083526865;-0.0052668443;-0.07899158;-0.377557;0.10166658;-0.289583;-0.007931517;-0.19727854;-0.6671087;0.047061235;-0.012523304;-0.007981135;-0.20217179;0.0014994598;-0.0025781444;-0.0464822;-0.10582551;0.018778505;-0.05927773;0.37662277;-0.00832913;-0.03281261;-0.0040727174;0.12637171;-0.2145209;0.19730264;0.0075458866;0.13987978;-0.017391602;0.0061482284;0.08918163;-0.00936524;0.095180266;-0.0072269617;-0.13439003;-0.26534316;-0.16938554;0.024149917;-0.10401062;0.010408735;0.0022572658;-0.21828166;-0.008720062;-0.04761803;0.05931808;-0.40191647;0.26698822;-0.06025192;-0.14858599;0.029358482;0.03399163;-0.12587754;0.12547074;0.05806707;-0.09458149;-0.22721562;-0.29782042;0.090566;0.2101028;-0.07427978;-0.16061278;-0.100133106;0.17803071;0.0065176613;0.16613975;-0.46613008;0.013094658;0.011040803;-0.07121788;-0.018549921;-0.07872919;-0.055494245;0.34788144;0.057174902;-0.09745655;0.18440771;-0.01034321;0.05741499;0.016473584;0.34331664;0.16573678;-0.0017220634;0.07530279;-0.026083698;0.0021310253;0.0412039;-0.022768604;-0.45062524;-0.05125231;0.17360346;0.00496925;0.0036632381;-0.11049711;0.18588959;-0.26683396;0.3344608;-0.00060842925;0.0016202435;0.005999349;0.40503427;-0.0012070364;-0.008382399;-0.055594075;0.16025636;-0.04693537;0.23429802;0.26026076;0.12842643;-0.35544384;0.012126594;-0.075859524;0.19877656;-0.15401034;-0.0057379613;0.024920324;-0.0061913356;-0.15962699;-0.0041758963;0.06274284;-0.493794;-0.27992618;0.26691267;0.005408396;0.28726724;-0.08960745;0.30905452;-0.20605965;-0.017360536;-0.17645906;-0.031598497;-0.019255303;0.016806897;0.0119327605;0.19630201;-0.13694525;0.017219925;-0.06140051;-0.019237163;0.02570408;0.19657123;-0.0017080964;-0.19843762;0.2588015;0.078818;0.012684178;0.064905375;0.19859293;0.07682416;-0.123487;-0.37663236;0.24832179;-0.12683035;-0.09879526;-0.10858844;0.13136385;-0.10483181;0.10266024;0.1207259;0.14408918;-0.142852;-0.11308787;-0.2675501;-0.08114892;0.22859602;0.012304285;0.05050406;-0.012835582;-0.034194097;-0.21012147;-0.013713599;-0.12498574;0.09452209;0.062640674;-0.18357678;0.002460883;-0.016061168;-0.4490161;-0.03047819;-0.0166988;-0.16361302;-0.0063275024;-0.37067956;0.29460472;0.10856136;-0.1142627;-0.0549997;0.14588547;-0.109627195;-0.0055261445;-0.24552464;-0.058784846;-0.02652967;0.09794496;0.15321897;0.0008141289;0.11377822;0.12066114;0.042268913;0.23467305;0.006685242;0.0028998582;-0.019796263;-0.028976995;0.15730174;0.11817922;0.005781547;0.13998906;-0.23528978;0.06090349;-0.03293923;-0.0020107382;-0.6128384;-0.1468047;0.0048536304;-0.0058929874;-0.011489449;-0.176289;0.027180672;0.4118472;-0.05072709;0.005063072;0.20584099;0.024026308;-0.29683357;0.21849169;-0.0299163;-0.00078223017;-0.25415248;-0.30954504;-0.0017500354;-0.014001083;0.020796617;-0.021875862;-0.03841936;0.31606475;-0.37187493;0.30504408;-0.0070548183;-0.15061826;-0.016805734;0.27091017;-0.12195885;0.29613808;0.042379607;-0.021628732;-0.2099289;-0.14942741;-0.021177297;0.033616684;0.0041489517;0.009450061;-0.010217088;-0.060841303;-0.011698349;-0.058530714;-0.0625152;0.04859804;0.15580246;-0.004703727;0.0030350115;-0.24809392;-0.5564084;0.0042033256;-0.3006613;-0.02003105;0.24921954;0.28181493;-0.2442554;-0.2429018;-0.3439864;-0.0033301036;-0.17473502;0.21127793;-0.10775951;0.007463187;0.007630538;0.36361957;-0.15672357;-0.0071813064;0.41149282;-0.027371854;0.0067134104;-0.014832259;-0.012471445;-0.01323817;0.040145177;0.026159259;-0.0037837082;-0.13296138;0.16639888;0.17682128;-0.013870094;-0.057806507;0.0048290747;-0.1693933;-0.122250885;0.09544676;0.1399182;0.009857239;-0.036250643;-0.015040838;0.008447126;0.0008960853;-0.028916623;-0.070314825;0.021886982;-0.024775183;0.03631163;-0.11006329;0.0993014;0.3072583;0.002036161;0.007490909;-0.06125867;-0.25317895;0.07022606;-0.13828868;-0.04102211;0.08294872;-0.49446547;-0.1291303;-0.02669547;0.01306668;0.00043615783;-0.40666893;0.07905255;-0.0054094624;0.046043776;0.13677725;-0.085874476;0.2795135;0.19478692;-0.063876085;-0.111945294;0.192122;-0.062631905;-0.24871595;0.026686788;0.08224996;-0.21271981;0.3731423;-0.2015127;0.016971875;0.015196602;-0.21191263;-0.25468495;-0.049864687;-0.005875903;-0.009346366;0.012592851;-0.016710486;0.22166617;0.24166046;0.11654842;0.0043300767;0.19011049;-0.0082478635;0.17113763;0.029429067;-0.21491945;0.0022154935;0.049048983;-0.019403918;-0.013298605;0.016800433;0.1714999;-0.25173044;-0.20977712;-0.09973935;-0.038578622;0.04256962;0.048088707;0.39867717;0.021413231;0.20772032;-0.16730213;-0.12661156;-0.035453763;0.30916741;-0.26783913;0.028677816;0.07815054;-0.08334476;-0.13892078;-0.010720917;0.17095685;0.25351986;0.019200781;-0.04232918;0.0093362015;0.008493882;0.0059430366;0.21781869;-0.14404355;0.06810988;0.20681335;-0.00028596405;-0.0139770815;0.13760248;-0.009650983;-0.0062054996;-0.13915534;0.01661601;0.004529309;0.084573135;-0.0041074706;-0.020004055;-0.012777196;-0.13218;0.17114924;0.2732099;0.35467023;0.029167155;-0.24317637;-0.0018003784;0.017662644;0.08362523;-0.10590359;-0.007821235;-0.04701937;-0.006787623;-0.03519306;-0.08189205;0.0015929033;0.01600416;0.27628937;-0.23894581;-0.027951596;0.04141935;-0.007796064;-0.18005338;0.0011372389;0.017120482;0.055428445;0.0033848663;0.08542622;0.14466822;-0.38053837;-0.14413066;0.022841541;-0.0090015065;-0.22374144;0.07132727;-0.004497395;-0.12795223;-0.00042819572;-0.0026806712;0.28882724;0.017757827;-0.33823842;-0.3086788;-0.008911019;-0.04601611;0.066797726;0.09623115;0.012984975;0.25961918;-0.010762205;-0.017167801;-0.0039545237;0.121110596;-0.0987441;0.069395706;-0.007820737;-0.0015624699;0.026812835;0.013417253;-0.18104497;0.14092249;-0.11875146;0.0031945521;0.2329603;0.016897446;0.20432113;-0.19386792;0.014352139;0.004622155;-0.12273199;0.021090535;-0.14599831;-0.0360355;-0.06254485;-0.39757612;0.20760727;-0.01224199;-0.060065676;0.009421812;-0.012544412;-0.14544554;-0.114672646;-0.08246786;0.23452389;0.00827134;0.018822962;-0.02672856;0.2552906;-0.10384891;-0.09719473;-0.18417896;0.024266675;0.071729854;0.012487162;-0.017389582;-0.20394233;0.030655963;0.016473275;0.14121869;0.06866644;-0.21213216;0.006646418;0.05724966;-0.1336163;-0.16125022;0.2529082;0.013729277;0.019635785;0.114050694;0.36296222;-0.005421151;-0.0021822704;-0.060081385;0.009384626;0.05988472;-0.3394407;0.03715274;-0.006972301;-0.11629044
-0.17581944;0.108662665;-0.012096606;0.06564119;0.0076255123;-0.34742123;0.08947212;-0.0003495894;-0.08474321;0.0014941734;0.3231753;0.039980616;0.012832348;0.0065724207;-0.027520038;0.0029857568;-0.013029854;-0.35068002;-0.2031042;-0.12230668;-0.19715007;0.24269205;-0.1764073;-0.10293914;-0.010634316;0.25028464;0.0046813283;-0.07560932;0.09519482;0.021717956;-0.15775667;-0.2180834;-0.31227228;0.0055308184;-0.006069542;-0.008573265;-0.013793289;0.02375649;-0.053344257;0.39223897;0.18169878;-0.027140228;-0.19309822;0.04387986;0.12727505;-0.051862422;-0.01986549;0.0121916;0.003925402;0.12187519;-0.0072223567;-0.012671348;-0.36755157;-0.0885701;0.09320867;0.005492247;-0.4354434;-0.2764998;-0.05239898;0.011729952;0.020575128;-0.085287616;-0.020372922;-0.008430942;0.067257024;0.32223132;-0.013942298;0.0014384475;0.18753634;0.0095517365;-0.05839499;-0.0028343024;0.18193392;-0.22967875;0.1656616;0.0102808755;-0.06170093;-0.106860764;-0.00022898066;0.055262305;-0.0073551293;0.13041891;-0.013596212;-0.02213204;-0.07555628;-0.072614715;-0.017238623;-0.11934249;0.0024478429;-0.0032942158;-0.39026606;0.0005754145;0.06026911;0.18107593;-0.3982241;0.1078874;-0.010969734;-0.33183438;-0.09562477;0.13562961;-0.039368127;-0.061634;0.08177111;-0.009501476;-0.1918294;-0.23541893;0.09529156;0.18962108;-0.0817124;-0.10214441;-0.118212536;0.21025807;-0.005813607;0.033266153;-0.41752633;-0.0036624558;0.008758411;0.116867945;-0.028389616;-0.111987;0.061405767;0.18452181;0.24845287;-0.19453573;-0.07658437;-0.18738906;-0.030233936;0.19752404;0.50618035;0.025241248;0.03592559;0.047895852;-0.010024129;-0.009327345;0.025065897;0.009637353;-0.33223224;0.010251216;0.13103637;0.048253093;0.008227059;-0.08433595;0.4318577;-0.27325457;0.041062783;-0.008162695;-0.22190705;-0.011560668;0.022835959;0.17933726;0.021279396;0.013640487;-0.01405006;-0.1424477;0.36743033;0.32208934;0.03784517;-0.3250661;0.0035937817;-0.22269781;0.29117048;-0.10833677;-0.09352257;-0.019562151;-0.03787245;-0.20646328;0.0071378066;0.17369552;-0.40531635;-0.10814;0.3330975;-0.018319866;0.23304243;-0.2665588;0.2681816;-0.13084507;-0.04808758;-0.32690915;0.10812755;0.015086657;-0.0044982536;-0.019604424;0.3421838;-0.09948498;-0.0111674955;-0.0992552;0.023936654;0.36224064;0.118496746;0.0019279796;-0.33675617;0.24057671;-0.01863076;-0.004594358;0.1659946;0.31037125;-0.21550944;-0.17160316;-0.3734447;0.0987309;0.08998226;0.015093566;0.16697133;0.12857103;-0.14417648;0.18444447;-0.08536218;0.12009936;-0.14648816;-0.10487223;-0.14395063;0.18610987;0.43523154;-0.017251827;-0.022374414;0.021687295;0.12093946;-0.28563797;-0.04569635;-0.13596164;0.20909481;0.05856788;-0.13629562;0.012003694;0.0064996365;-0.22504793;0.18411738;-0.05371218;0.08344545;-0.01108247;-0.38676777;0.26403594;0.17319193;-0.19450416;-0.04068952;0.1492231;-0.2983004;-0.015355459;-0.19637507;-0.19316463;0.21319634;0.027148064;0.35657984;0.009416679;0.07138795;0.26900294;0.14812331;0.36169332;0.006299295;0.064522795;-0.12796497;0.035859063;0.086250566;-0.17448282;-0.011399518;-0.06835946;-0.09099671;0.0053084968;0.03562868;0.0032607696;-0.5650165;0.05957709;0.013798943;-0.0023484176;0.015883565;-0.008435465;-0.08978137;0.30367565;-0.17268014;-0.15452084;0.34085086;0.086695306;-0.32095766;0.19533914;0.024302682;0.0120953815;0.14656411;-0.28605488;0.01178523;0.00441821;-0.007431424;0.06740704;0.11959322;0.38598657;-0.6197121;0.13633968;0.01728838;-0.40274054;0.0016984234;0.23059388;-0.09400814;0.15812573;0.11147803;0.017888794;-0.27576622;-0.13773859;-0.074491136;0.13211645;-0.003301094;-0.01204716;-0.20353962;0.033855204;-0.0014341509;0.090611115;0.12062653;0.04403057;0.025634531;0.00030434056;0.18619055;-0.08601684;-0.26282412;-0.008888161;-0.081592;0.012093529;0.37999138;0.25723815;0.0772648;-0.10128952;-0.24602082;0.019332096;-0.018063286;0.21081851;-0.09513001;-0.010458562;-0.0021218052;0.02823751;-0.112654865;0.010259774;0.0035203067;0.02905242;0.016932458;0.013017823;0.017943142;0.007576219;0.07555951;-0.022269076;0.09283618;-0.03081171;0.19247767;0.13581416;0.014802396;0.04807309;0.0031694353;0.06503516;-0.06949133;-0.1141205;0.08001549;0.048891157;-0.10255266;0.005162759;0.0059652743;0.058385286;-0.045690034;-0.034714386;0.00080722687;0.08978749;0.18972972;-0.12522441;0.058122456;0.24161534;-0.07850376;-0.010867264;-0.2123404;-0.022814656;0.040459264;-0.07568738;-0.19726512;0.008677631;-0.7829205;0.062229317;0.031022435;-0.012958384;0.005428971;-0.086232096;0.050518237;0.010517718;0.07885829;-0.0031015978;-0.13245103;-0.020431178;0.3310843;-0.16733786;-0.1562486;0.11449256;0.08307777;-0.3101622;-0.086275876;0.03780045;0.04626327;0.25187716;0.13683528;0.0017848415;0.007825043;-0.29720068;-0.15484843;0.27705318;-0.0069411336;0.007899451;0.010863068;0.0073381355;0.43867806;0.19615622;0.15798935;0.00133909;0.14400457;-0.00751755;-0.17817195;-0.14103645;-0.33399838;-0.010348893;0.019840553;-0.08937574;-0.13883936;-0.009489002;0.05251046;-0.063846536;-0.16485468;-0.36276606;0.051570836;0.03177753;0.21707514;0.30803168;-0.007636831;0.17711084;-0.13243847;-0.28185374;-0.4203091;0.3072551;-0.060356878;-0.04410511;0.15073378;0.11309197;-0.19452854;-0.07016237;-0.00014105096;0.1704934;-0.03581099;-0.01866763;0.012407767;-0.010638073;-0.0129969455;0.13342533;0.22497949;-0.4319767;0.11571117;0.0108429855;-0.00091613823;0.22581036;0.024233013;-0.019140897;0.027383935;-0.29994413;-0.015036583;0.12709904;0.0050597494;0.020113684;0.22902909;-0.33783987;0.07884866;0.34871745;0.4875739;-0.040487938;0.004932191;0.00022240086;-0.002357221;-0.08845623;0.09803107;0.01213966;-0.13518634;0.10248566;0.06614692;-0.38664144;0.011796159;0.050020907;0.16555725;0.038162235;-0.37946337;0.0032891887;0.007544638;-0.20001534;0.0029326905;0.077059075;0.09629019;-0.008014917;0.27844504;-0.0184461;-0.19032268;0.06752596;-0.0545956;0.0675867;-0.16340931;0.123026446;0.0050796294;0.056316298;-0.013599118;0.01344606;0.14303994;-0.006590306;0.047180373;-0.0036167542;0.021610912;0.06919309;0.4132253;-0.15486957;-0.020959042;0.19600166;-0.0016297529;-0.00090682646;0.08148969;0.20549016;0.10044095;-0.14942595;-0.016240465;-0.0050535137;-0.11906367;-0.022782974;-0.29350242;-0.09277992;-0.019827789;-0.012066238;0.15899554;-0.003511623;0.047167588;0.30093303;-0.014836194;-0.00031625334;-0.07342513;0.17804874;-0.08824323;0.026161872;0.05850689;-0.31488383;0.3139432;0.21958065;0.0010697844;-0.016375287;0.0033703216;-0.102939986;-0.2237732;0.098549835;0.15136762;-0.015486488;-0.2563785;-0.026130483;0.24195063;-0.07239814;-0.12828352;-0.18168838;-0.025418742;0.06146891;-0.017351871;0.028741246;-0.11525403;-0.001724318;-0.0010758879;-0.23736031;0.056093916;-0.13285099;0.12235589;-0.020676516;0.020946167;-0.0803015;0.21805298;0.009454599;0.0045977156;0.0032035997;0.36105117;0.007127295;0.002553851;-0.30287623;-0.15409127;-0.035420705;-0.071287714;-0.06852459;-0.003095143;0.018256715
-0.12665245;0.12812144;-0.010330359;-0.27426293;-0.013173205;-0.11508544;0.2522697;-0.0043756594;-0.13097468;-0.0082712695;0.17207326;-0.11435136;0.0032626875;-0.0034422833;-0.31608304;0.018593393;0.00772415;-0.19603036;-0.22377108;-0.059098803;-0.15562649;0.19909659;-0.13081887;-0.3379567;0.004931613;0.14142916;0.0139409695;0.083930574;0.119170636;-0.12940077;-0.07351386;-0.17234796;-0.3735071;-0.030035937;-0.0038052425;-0.002564061;0.030985119;-0.04439513;-0.038543843;-0.023841174;0.30657917;-0.00038765502;-0.17464238;0.14935674;0.016606975;-0.07777593;0.008849982;-0.09056773;0.011713432;0.44467637;0.01980249;-0.11833621;-0.35654047;0.02675668;-0.057113286;-0.005572747;-0.061736453;-0.22876544;-0.01848696;-0.007763576;-0.01699697;-0.1114357;0.018204134;-0.00095144025;0.10045933;0.031053219;0.010740135;0.011075989;0.23389223;-0.0047060177;0.067124344;-0.0036055332;0.19715987;-0.18151699;-0.044253483;0.005097158;0.025594821;-0.08304681;-0.017838432;-0.007651101;0.027427323;0.27107733;0.0024944942;0.06120055;-0.06064369;0.24306428;0.025411516;-0.022817943;-0.015700784;-0.009468981;-0.35741147;0.0008336787;0.30782875;-0.08676076;-0.2652844;0.0042777853;-0.19249485;-0.09184869;0.042182073;0.08760347;0.09381086;0.18498613;0.33459994;0.016036876;-0.024087165;-0.19955416;0.11308865;0.27924082;-0.20588456;0.01477526;-0.15015097;0.055355985;-0.0087156175;0.01634699;-0.3375933;-0.0057396917;-0.01769753;0.2525145;0.21217455;-0.21615097;-0.008067126;0.18427917;0.005930013;-0.23815191;0.026305089;-0.11762635;-0.06338481;0.14691806;0.17294033;0.11468296;-0.2625862;0.17199203;0.19153397;-0.0023846028;0.03625188;0.006604265;-0.1257365;0.0014625912;0.20374154;0.17927279;-0.014851996;0.04799512;0.54456884;0.002211598;-0.061662793;0.0076654577;0.0811455;0.0007811924;-0.3680771;-0.07543907;0.003916517;0.14964579;-0.09069558;-0.15266418;0.30955818;0.13569443;0.2078998;0.11882732;-0.00884406;-0.36279145;0.2922562;-0.015385236;0.0980407;-0.0021748084;0.044940088;0.1561354;-0.019224327;0.151971;-0.15178593;-0.0488801;0.06639115;0.023170745;-0.03259115;-0.37296212;0.047173064;-0.12968701;0.01155503;-0.16857164;0.17391554;-0.0029195095;-0.002028612;0.013016402;0.08415676;0.04693949;0.011536247;-0.22534828;-0.0036911503;0.15740111;-0.07622879;-0.0034903064;-0.29031888;-0.1006575;0.0783518;0.0030399181;0.12720332;0.37552884;-0.05223451;-0.1558748;-0.3927058;0.008852713;0.09290832;-0.041235443;0.34404367;0.13036932;-0.026825711;0.04521417;-0.038864683;-0.07833655;-0.09397149;-0.047184777;-0.20764373;0.07319603;-0.031926453;0.017068438;0.006745416;-0.01316368;0.28022733;-0.25698355;0.08401067;-0.03303602;0.037177183;-0.12165158;-0.41517684;-0.016287316;-0.19519278;-0.11212269;0.2581703;-0.05104081;-0.21994497;-0.0034360439;-0.31405523;0.04063992;0.14564733;-0.18142882;0.31149396;0.18900861;-0.2852908;0.00988786;-0.24019341;0.005123267;0.24662171;-0.29405656;0.20592038;-0.013753446;-0.06164053;-0.01784584;0.25309128;0.2010404;-0.020158948;-0.008641297;-0.05927969;-0.030155957;-0.19442481;-0.05507951;0.0032732747;-0.02142505;-0.14467368;0.03186936;-0.008481202;-0.0039007352;-0.26289374;0.081197344;-0.015885321;0.0033223408;0.0016283557;0.16764444;-0.07097592;0.1534928;-0.22063892;-0.24511854;0.020396788;0.16691676;-0.36458012;0.16939972;-0.008557839;0.0058371713;0.16630377;-0.19820882;-0.034807976;-0.011163175;-0.021506416;0.042339906;0.10435808;0.20478877;-0.36386436;0.17613503;0.008389221;-0.31621015;-0.009081554;-0.04644902;-0.015339967;0.18637814;0.12669611;0.06339229;-0.039945036;-0.18947646;-0.011151322;0.10802808;-0.0051126927;0.022215089;-0.1408951;0.067715;0.0012418639;0.13895202;0.27046895;-0.07968673;0.059532948;0.039254054;0.27479783;-0.27263632;-0.23478843;0.009909844;-0.031290762;-0.0013386819;0.3072096;0.19592436;-0.024136106;0.07902465;-0.038770773;-0.0045623463;0.17942923;-0.06612213;-0.055483006;0.00015203006;0.002398769;-0.3594888;-0.0006020866;0.0101826545;-0.018742483;-0.006215126;-0.010226049;-0.0071527273;-0.02886038;-0.013023042;0.08398853;-0.0018745379;0.074139416;0.11842601;-0.2027981;0.046251584;-0.0141745405;0.16770352;0.002758551;0.074191056;0.10178342;-0.3656335;-0.3279891;0.17291951;0.07146093;0.012638522;-0.014486539;0.22984192;-0.036485005;-0.1689461;0.009383944;0.093729325;0.21782899;-0.22069946;0.05316372;0.31134564;-0.039176658;-0.012671724;-0.090557694;0.0065462813;0.007903939;-0.21539654;-0.17528683;-0.06623893;-0.60038006;0.07244479;-0.021174867;0.017857913;-0.007952254;-0.15792353;-0.050187632;-0.010039171;0.07049365;-0.09994755;-0.20839174;0.08170397;0.08551728;-0.120144516;-0.33550933;-0.0670919;0.035023205;-0.1309185;-0.30129522;-0.05330614;0.11497444;0.024335643;0.030122759;-0.012915252;-0.0012202888;-0.3068794;-0.2425614;0.23476928;-0.0060130563;0.003131369;-0.018019445;-0.011389452;0.11925625;0.29937172;0.2571238;0.0062910407;-0.01970729;0.007247012;-0.21794194;-0.27448976;-0.10386548;0.021763977;-0.053652946;-0.11103372;-0.35145426;0.00029607932;0.32099754;-0.05297492;-0.28396595;-0.070973225;-0.052670117;0.12403726;0.34349453;0.15059419;-0.009489938;-0.04443468;0.058592267;-0.10165235;-0.19373327;0.20104437;0.063037425;-0.0019336818;0.084922075;0.016305545;-0.4519154;-0.17918321;0.17796849;0.06499979;0.037169714;-0.019759579;-0.12506525;-0.0050019366;0.02854665;0.08683994;-0.107552744;-0.23399839;0.041771885;-0.0050413692;-0.015663385;-0.08065469;-0.016983232;0.009790959;0.25167838;0.07799805;-0.00569923;0.2424663;-0.008789055;-0.0013725258;0.20891999;-0.23872356;6.257907e-05;0.12490203;0.43624952;0.009184925;-0.269298;-0.017086193;0.02438534;-0.14292115;0.06171145;0.004941982;-0.228929;0.046095792;0.24696916;-0.5504316;0.017855544;0.15402564;-0.14677723;-0.0670963;-0.056804582;0.13381158;0.0102409255;-0.18505529;-0.017086003;-0.055153713;0.04190742;0.014412722;0.22103609;0.07638749;-0.39739168;-0.07032899;0.24578053;0.11114437;-0.121759295;0.17436902;0.009521687;0.016940694;0.032436624;0.008830072;0.04095206;0.011194325;0.04319792;0.27018258;-0.0010491732;0.033653893;0.24806818;0.010075335;0.018105745;-0.009392843;0.0052980594;0.0027212147;-7.8125115e-05;0.21956235;0.1562532;0.10628136;0.008911944;-0.017886916;0.2092708;0.0048740865;-0.23659675;-0.091388665;0.07827534;0.01864952;0.18336253;-0.0032954533;0.076926365;0.3404309;0.0047359527;-0.0027394549;-0.12137542;-0.047063313;-0.035409246;-0.026349586;0.0074985414;-0.15102603;0.35476696;0.19107209;0.0027611458;0.012094176;0.01994738;-0.13403836;-0.15881407;-0.072870925;0.08086635;0.02818269;-0.338404;0.03739717;0.27026325;0.1302935;-0.37130094;-0.0014745123;0.025600946;0.27881956;0.027458752;0.055702876;-0.1332468;-0.025857406;-0.0032606092;0.018318271;2.556568e-05;-0.079364814;0.085606165;-0.043967247;0.007542864;-0.315444;-0.06192859;-0.028669775;0.18436994;0.18348324;0.22828074;-0.0016532927;0.000105099556;0.0043852613;-0.18012087;-0.17919819;-0.06633491;-0.031467706;0.021019094;-0.0922429
-0.17662416;0.21021444;0.015718862;-0.15824789;0.007788761;-0.25495324;0.21582107;0.0026025937;-0.12703012;0.014412771;0.28507057;-0.037906043;0.002672844;-0.0018579478;0.006703697;-0.0019121743;0.0034515113;-0.09868152;-0.16553622;-0.22287586;-0.033134818;-0.13983895;-0.062471297;-0.18167293;-0.0113917785;0.29891762;-0.008300232;-0.05016928;0.20063642;-0.12052065;0.0778604;-0.10128157;-0.34777793;0.03661102;0.005636899;0.008279959;-0.007828783;-0.030258618;0.08710063;-0.13341466;0.2928452;0.04156459;-0.106322594;0.18763207;-0.11066091;-0.086782366;0.0053223246;0.04059174;-0.0061766035;0.34113058;-0.01773746;-0.15281512;-0.35426977;-0.22531867;-0.10964706;0.018794315;0.08750218;-0.24019283;0.05157263;0.0030471827;0.004371638;-0.13498788;-0.0023502146;-0.006978353;0.14445256;-0.123260595;-0.007605067;0.031068427;0.16234127;0.0038515113;0.2699754;0.009554977;0.16578838;0.063253544;-0.20404917;-0.0020308532;-0.0031592879;-0.11088444;0.018465545;-0.038647514;-0.017979858;0.25564548;0.0114382785;0.05711079;-0.045687236;0.2608201;-0.028879646;0.03723743;0.008903213;-0.001926768;-0.2965057;-0.005819433;0.073271304;-0.12771177;-0.3130236;-0.20763955;-0.24764061;-0.13893649;0.36374712;-0.03550804;0.093866736;0.00782357;0.26099584;0.13639833;0.17552534;-0.27013528;-0.073133975;0.22911133;0.016956;0.04538666;-0.26327702;-0.005918365;0.012753386;-0.055979908;-0.0026837084;-0.0038565607;-0.0021212352;0.04808337;0.35956612;-0.38282806;-0.16192137;0.23720539;0.042011116;-0.19179708;0.06243526;-0.13063148;-0.21976714;0.033555556;0.1571891;0.13632812;0.012597161;0.2655389;0.041568257;-0.0031989384;-0.065276556;-0.0023625174;-0.32876912;-0.06460316;-0.044185564;0.17237197;0.0028715744;0.058298703;0.50713813;-0.0071944715;-0.14678165;-0.011066036;0.050001618;-0.0008504649;-0.16119677;-0.30364487;-0.013928154;0.02948329;-0.15326747;0.05228878;0.1495057;0.009160236;0.4544905;0.12190853;0.003218136;-0.3323297;0.20000534;-0.29631743;0.16847137;-0.008557527;0.008357538;0.114187285;0.0076677282;0.13809137;-0.016002813;0.09016232;-0.09261006;-0.008024252;0.12990767;-0.28623718;0.032075394;-0.036870763;0.018757008;-0.17214176;0.24155633;0.002168069;-0.0039449157;-0.02631168;-0.135686;0.10082883;-0.012319342;-0.20924187;-0.015929138;0.13110594;-0.019724147;0.012284018;-0.5151247;0.045810353;0.14394845;-0.0076337955;0.046706058;0.48735377;-0.10378918;-0.21478373;-0.45202017;-0.06304533;0.15738831;0.1778696;0.14772364;-0.02383509;-0.13026093;-0.15751861;0.025872279;0.084911264;-0.007710915;0.1333256;-0.041091383;0.062555574;-0.2621748;-0.0040924507;-0.03431704;0.0066785924;0.20955439;-0.093431756;0.2447523;-0.054861523;-0.07038461;0.090066925;-0.2794974;0.016557975;-0.22828057;-0.047773786;0.34444532;-0.25441962;-0.15041818;0.003384741;-0.23191299;-0.004322266;0.21057275;-0.25802332;0.026634242;0.18599121;-0.2365305;-0.0049553155;-0.04377216;-0.05057436;0.19437903;-0.17657742;-0.043753173;0.0011336372;-0.045055233;0.08012198;0.17909575;-0.044349473;0.0040194374;-0.017123312;0.13242729;0.02199288;-0.29122365;-0.034516525;0.012880645;0.03704572;-0.05294724;-0.09191247;-0.037267644;-0.00827096;-0.55626106;0.11285008;-0.01587687;-0.013121391;0.010362188;0.065344445;-0.12576745;0.05244352;-0.17125271;-0.2311188;0.096131645;-0.08596002;-0.3759775;0.32340965;0.013569003;-0.010921546;0.19910075;-0.26540035;0.019878369;0.0115390895;0.018228443;0.14734314;0.10903315;0.007961962;-0.35537922;0.10212474;-0.019928157;-0.051174887;0.008199199;-0.06421791;-0.124579735;-0.084820084;0.09746577;-0.12157339;-0.029630015;-0.16177848;0.11446014;0.22346264;0.0031808869;-0.008665471;-0.26990053;0.020242285;0.018380005;-0.114492625;0.004254639;0.022811491;-0.31526595;0.032749902;-0.08351801;0.055872582;-0.35109326;-0.0070205885;0.0050257687;-0.0012949199;0.13417456;0.20736168;0.17959124;-0.051585637;-0.32869896;-0.009612724;0.15522318;-0.31159738;-0.114365645;0.010391492;0.009756205;-0.46672478;0.12277066;-0.01581888;-0.049885347;-0.017076973;0.013375185;0.01382537;0.006975346;0.0076673734;-0.022398869;0.016105698;0.091210775;-0.0069226515;-0.3935462;0.043446697;0.014043799;0.07410702;0.0019383838;-0.021828288;-0.066320315;-0.36588728;-0.511284;-0.11237821;0.45982224;-0.015900854;0.013428444;0.33949688;-0.03692199;-0.10082426;-0.02439694;0.07954585;-0.122048356;0.15360355;0.09570946;0.322585;0.011074834;0.016951425;-0.21199982;0.078425914;-0.022825839;-0.21047594;-0.07728008;0.012487516;-0.6508813;0.41236028;0.006995451;-0.0061671147;0.006390291;0.027123822;-0.20188761;0.01071921;-0.16853523;-0.016952919;-0.14972875;0.06616433;-0.17974319;-0.13520478;-0.33013338;0.19409345;0.0041537527;-0.049451783;-0.37600076;-0.09082987;0.16275066;0.103556074;0.12752508;0.0048240814;-0.011159803;-0.15524396;-0.08488098;-0.18675143;0.0042281216;-0.01253128;0.0054113287;0.02560749;0.10721838;0.23341976;0.03404579;-0.009555145;-0.0669534;-0.0052283257;-0.01676441;-0.39573938;0.0054776054;-0.01736425;-0.017483806;-0.22402985;-0.15977545;0.0029696613;0.35879472;-0.21092613;-0.096049815;-0.0066652414;0.0075633996;0.0920985;0.37923095;-0.029824484;0.0036548637;0.040611204;0.0030323435;-0.18059547;-0.00064177054;0.4485106;0.16443253;0.0038220664;0.038676236;0.06623385;-0.5653665;-0.096563414;0.23062967;-0.14442192;-0.008130211;-0.001863631;-0.023323096;0.011238541;-0.033419225;-0.016270593;-0.079341665;-0.3228635;0.05916914;-0.018225288;0.021420147;-0.35859862;-0.004301477;0.016975913;-0.006350661;-0.058763612;0.027325895;0.6049096;-3.8069582e-05;-0.002256601;0.39713293;-0.10568371;-0.2510785;0.00057311094;0.26822373;0.010134208;-0.30112854;0.01007845;-0.024561439;-0.33427438;-0.082414754;-0.0054205344;-0.12995535;0.098167524;0.21876225;-0.32670006;-0.011151774;0.37868983;-0.06599537;0.16243504;-0.21107654;0.065921195;-0.011232009;-0.21185106;0.021102587;-0.0005551325;-0.12751605;-0.016102104;0.11205128;0.09886068;-0.22632816;-0.15983707;0.317519;-0.21658663;0.025384383;0.039143123;-0.011971382;-0.088158056;-0.031539585;-0.028065933;0.14844838;-0.010585261;0.009445828;0.39438152;-0.0038731284;0.11180663;-0.018216323;-0.13936406;-0.0033063458;0.057396155;-0.013103352;0.010328526;0.01482826;0.26699322;-0.196249;0.21060589;0.014727404;0.047660474;-0.0055535254;-0.011897613;-0.05737247;-0.06028272;-0.07408846;-0.015178349;-0.011893605;0.005689629;0.08877758;0.22748029;-0.0067187147;0.0011899096;-0.2901775;-0.3513519;0.029976204;0.0040383944;-0.112033956;0.12693046;0.25622576;0.06385462;0.029266216;0.0067398488;-0.016310144;-0.06667214;-0.07641321;0.00434199;0.2741698;-0.02960646;-0.110034056;0.16275913;0.19474384;0.08790907;-0.5095469;-0.14123943;-0.018706862;0.26723757;-0.0121539505;0.13889053;-0.3592773;-0.17669025;-0.00052175985;0.076267004;0.3577988;-0.042293556;-0.24835606;-0.031731475;0.15597038;-0.25580963;-0.023136418;0.021714877;0.18805662;0.18817803;0.24982095;-0.0034563823;-0.0007215825;-0.141282;-0.06883109;-0.15466951;0.08767928;-0.042026337;-0.026399607;-0.101240665
-0.24423149;0.06655353;-0.0028146633;-0.15292788;-0.004758052;-0.27834243;0.16231439;0.014506228;-0.06944532;-0.0059577757;0.15832429;0.06521336;0.007750918;0.0005732996;0.091173775;-0.028431524;-0.009058058;-0.031325262;-0.41042084;0.014771635;0.19611605;-0.17563611;0.03348344;-0.14262666;0.019738235;0.36466253;-0.0068300404;-0.10360015;0.26357004;-0.22697183;-0.11445985;-0.17603005;-0.30816296;-0.011919618;-0.00050555274;0.01086383;-0.007222837;-0.104545645;0.018727005;-0.15807772;0.24367724;0.0005084757;-0.03977642;0.21498872;-0.16306767;-0.25127754;-0.01938373;0.14093319;0.0032677616;0.23150748;0.02039567;-0.21651426;-0.3037926;-0.02006435;-0.12889826;-0.0020710314;0.20577295;-0.15446039;0.024799256;-0.013857141;0.013135462;-0.21170478;-0.0051681893;0.016419444;-0.088970445;0.18736605;0.006930279;-0.023549521;-0.11408934;0.0034240768;0.21080707;-0.001181409;0.019617582;0.008296788;-0.019321878;-0.01613491;-0.013058682;-0.3860141;-0.0011612022;-0.14429234;-0.0029239347;0.33472568;-0.00696534;0.12989959;0.116441585;0.13910887;0.01479002;0.009195825;-0.010950308;0.0076950034;-0.21158934;0.012982712;-0.24121791;0.00886939;-0.16134778;-0.111744344;-0.35014245;0.048477773;0.44640544;-0.04302402;-0.06967371;-0.40064123;0.10278746;0.1360852;0.12494149;-0.2720282;-0.04753635;0.03646391;-0.13528104;0.013902189;-0.10952355;-0.1028989;-0.003931228;-0.039734617;-0.30900618;0.008330599;0.0140968105;-0.1473276;0.15681341;-0.14482464;-0.21733457;0.1690674;-0.095073625;-0.09770365;-0.108155444;-0.009138;-0.08234706;-0.04073322;0.062454745;0.06130634;-0.014972008;0.1654951;0.14247827;0.0050065033;-0.110005386;0.005631561;-0.1308881;-0.0066523235;0.3039686;0.008673694;-0.0003958517;-0.19603585;0.47456884;-0.21942772;-0.09121154;0.0141591625;0.25567672;0.011955459;-0.19692571;-0.1778358;-0.0023488053;0.05124599;0.070978895;0.08366457;0.06681215;-0.16553362;0.3076293;-0.074624814;-0.0047269785;-0.06637182;0.27106673;0.042047016;0.18914904;0.018664189;-0.028496249;-0.019189462;0.0041161287;0.045880206;0.26962233;0.117363125;-0.2305445;-0.0111322;0.07732034;-0.4159871;0.09308193;0.28523374;0.017884983;-0.25917873;0.25305012;0.005191994;-0.0037503927;0.017591309;-0.35953313;-0.0026389903;0.0037398408;-0.06520167;0.021135814;-0.09454906;0.058856707;-0.009564808;-0.20355701;0.10378417;0.010918626;0.010002349;0.11487054;0.39446744;-0.12688029;-0.009088102;-0.45899868;0.034355957;0.004622169;0.21977095;-0.060489748;-0.21537127;-0.00894263;-0.21637647;-0.013038939;0.17368303;0.14851534;-0.01192974;0.12128441;0.22095813;-0.1960373;-0.019984247;0.0043866546;-0.009111092;0.11800454;0.112181224;-0.19051999;-0.073392905;0.1715233;-0.31118953;-0.49860692;-0.028749889;-0.12361108;0.043558296;0.42633572;-0.0671109;-0.2997513;0.01078538;-0.055288054;0.18844923;-0.018521711;-0.16708724;0.056502737;0.23998427;-0.06747355;0.01608631;0.010150951;0.10704289;0.22522205;-0.38817704;-0.00046543466;0.015443628;-0.02356424;0.050082125;0.30235794;-0.010737438;0.0139372405;0.011659528;0.1318981;-0.0055579473;-0.20405707;0.26065508;-0.0034452227;0.09218241;0.13921955;-0.15606172;0.041173246;0.009632165;-0.3549442;0.019478312;0.015299734;-0.0057284757;-0.015470988;-0.12787077;-0.16437973;0.25927368;-0.11669052;-0.19655378;0.1327147;0.015485602;-0.33798212;0.2549814;-0.014275339;-0.007451788;0.006335856;-0.06814262;-0.006909871;-0.008474377;0.0022543254;0.04524116;0.15822542;-0.124290615;-0.5433367;-0.13772963;-0.0038717473;-0.08196701;-0.009796721;0.15621352;0.0977269;-0.27364814;0.05545017;-0.014462536;0.11876075;-0.23343924;-0.02675267;0.19869389;0.008503976;-0.006370236;-0.01469306;-0.0005789559;-0.0019941437;-0.013337697;-0.10557073;0.099200055;-0.43700492;-0.042869072;-0.048638593;0.064318724;-0.35587093;4.7092642e-05;-0.032512322;-0.00872106;0.040043473;-0.23231222;-0.055606715;0.30839664;0.0021828737;0.013705645;0.24334499;-0.22460474;-0.2701054;0.006440177;0.00095363986;-0.21221031;-0.062115416;0.010935454;0.12678549;0.02322486;-0.030347524;-0.018712875;-0.02102194;-0.005163766;-0.031293932;-0.0009466505;0.053538598;0.022931274;0.0023528205;-0.251919;-0.0028985767;-0.08794953;0.0044039525;-0.054329384;-0.042719305;-0.3654076;-0.6605008;0.045283254;0.41685364;0.0073230946;-0.0119897025;0.12885784;0.15758431;-0.09493002;0.01031711;0.2269791;-0.10550892;0.33977768;0.14137304;0.29358247;0.0005347595;0.011990884;-0.0022546987;0.09393707;0.0012111018;0.07623466;-0.21083422;-0.14418176;-0.52880573;0.18552049;0.0009905803;-0.0031834627;0.00093994325;0.151667;-0.3223587;-0.005645055;-0.17837879;0.111514054;-0.29820403;0.11339433;-0.10375874;0.14602466;-0.03547454;0.18944381;-0.017081197;-0.3024786;-0.18574809;0.0845002;0.01611201;0.030235175;-0.11400669;0.011008256;0.0027250724;-0.066671416;-0.15788499;-0.100341454;0.028219134;0.013723729;-0.008332573;-0.009036264;0.06181973;0.22722225;-0.20588742;-0.023892615;-0.14219885;0.0021226467;-0.09582096;-0.5739487;-0.11881953;0.01427992;-0.052676823;-0.1904846;0.010598777;-0.0155348545;0.48134506;-0.06732607;0.079018876;0.0843529;0.10160853;0.18232189;0.2714232;-0.25280958;-0.01746662;-0.14588304;-0.30050147;-0.053732578;0.28305006;0.06444803;-0.13755494;-0.0020312038;-0.21685766;0.20672125;-0.44140676;-0.23432165;0.20958608;-0.08111995;-0.004941031;0.020137228;0.055615325;0.0068215476;0.008744708;0.024738312;-0.3578179;-0.14562303;0.025279053;0.0005139581;0.013957639;-0.23210265;0.017204888;-0.009125574;-0.1670836;-0.093829826;-0.0064396667;0.5957899;0.00621062;0.0129909115;0.34047192;0.02836584;-0.09383279;0.21672185;-0.07338518;-0.005174872;-0.4375745;0.017719531;0.015854415;-0.42456144;-0.10727679;0.017770417;0.066554256;-0.012633461;0.041269053;-0.2941058;-0.0002575537;0.28767967;0.044279277;0.26712835;-0.359439;-0.09544808;0.007009951;-0.31373248;0.009159462;-0.009413592;0.04182423;0.010547272;-0.019988934;0.07730701;0.060244787;-0.054459956;0.08085191;-0.36696738;-0.039907094;0.19367044;0.013319615;0.26025322;-0.022373218;0.007135152;0.10823988;0.06793813;-0.12504342;0.29761413;-0.006463527;0.0848653;-0.17146726;-0.16139995;0.01438496;0.19121423;0.008006219;0.0055539105;0.06818676;0.28016922;-0.16926807;0.15315415;-0.02418249;-0.045370236;-0.29264724;0.0149845965;-0.16545448;0.15570949;0.2327725;-0.011674371;0.032454077;-0.017267007;0.14514503;-0.09080308;0.013559597;0.010372986;-0.10533875;-0.531821;0.0008474679;-0.009787071;-0.06794847;0.23897721;0.15570192;-0.2962223;-0.033057794;-0.00033777687;0.013363457;-0.07031834;0.091899164;0.12215629;0.18600465;0.0060326224;0.050976638;0.22407608;0.039388824;0.0015466333;-0.3934652;-0.12979732;-0.0062490483;0.12808058;0.009487603;-0.041511305;-0.2416426;-0.042689286;0.013910216;0.06360016;0.047185022;0.009745237;-0.1456612;-0.0027493858;-0.12151224;0.10428649;0.06384222;-0.015282568;0.023032926;0.18278481;-0.056803532;0.021447148;-0.0051387874;-0.10980829;-0.13019367;-0.069527686;0.26463985;0.25616115;0.017458675;-0.31785053
-0.05908843;0.0001357809;-0.010631893;-0.31435296;0.023402363;-0.22130817;0.19367227;-0.020090347;0.06697246;0.006869589;-0.018107103;0.035230342;-0.010100802;-0.002551827;0.25572944;0.0040628407;-0.009993216;0.0020044474;-0.18395783;-0.013491642;0.19322391;-0.18871062;0.028517362;-0.20411682;-0.0038778868;0.40958172;0.0027591381;-0.20894194;0.13208039;-0.32062167;-0.1491828;-0.28559995;-0.1576165;-0.011677504;-0.005282728;-0.007172587;-0.011324788;-0.0015260347;-0.08936647;0.07427859;0.33969617;-0.05392325;0.025753172;0.19078419;-0.20111258;-0.07597089;0.031111527;-0.088528164;0.0052755782;0.1949859;-0.014230782;-0.12502463;-0.28661764;-0.1731329;-0.21693686;0.004237903;0.09375046;-0.32202068;0.008668898;0.02393769;-0.0098200515;-0.24223748;0.0143729225;-0.0048906836;0.04576967;-0.21676485;0.00012167209;0.04457202;-0.31458816;-0.008090946;-0.1554175;0.002443834;-0.10818656;0.17468853;0.2734546;0.0021241012;-0.21989143;-0.42786044;0.0062958705;0.034546897;-0.0012700248;0.16237676;-0.010450531;0.0008938828;-0.042053323;-0.24507411;-0.0029544518;0.07748571;0.004636296;-0.0068243667;-0.17452738;-0.008812738;0.069560066;0.16732521;-0.19960776;-0.3707613;-0.033984765;0.012649691;0.2503931;-0.07427309;-0.10841975;-0.27633902;-0.12777255;0.0628273;-0.07557654;-0.25628766;0.043536086;0.06434295;-0.111303255;-0.26664522;-0.006344737;0.20316982;0.004598698;-0.06335568;-0.2527969;-0.0036147672;-0.022550358;0.026041891;0.0888712;-0.17740573;-0.17531951;-0.011996431;-0.080262125;0.019633831;-0.2318356;0.06642999;-0.15207508;-0.04387049;0.23698293;0.19478726;-0.34375033;-0.037897274;0.095873415;-0.006743459;0.047267642;0.005692969;-0.19005214;0.009313957;0.30486777;-0.18222933;0.007122734;-0.069182195;0.14774404;-0.13778509;-0.11776134;-0.011339408;0.12468323;0.0025420724;-0.048394162;-0.06543811;-0.019735996;-0.05049369;-0.009553824;0.19885677;-0.073900834;-0.035223648;0.07767568;0.08923463;0.0020303545;0.063340396;-0.11086362;-0.11118807;0.19079752;-0.018896772;-0.011220809;-0.024078012;-0.017811658;-0.08100847;-0.13358678;-0.013232764;-0.08933796;0.014273289;0.013481439;-0.11774703;-0.029162735;0.37510428;-0.035017807;-0.13556348;0.30190593;-0.004937223;0.008912064;0.011185162;-0.26617542;0.20816773;0.0015266339;-0.12846446;-0.009373272;0.008441437;-0.05861755;0.0058274902;0.123540305;0.08078075;-0.29372492;3.1761745e-05;-0.06295781;0.21157973;-0.04753337;-0.047942452;-0.5207939;0.22141358;-0.0036765053;0.16615492;-0.1717415;-0.18164277;-0.094289586;-0.12702881;-0.034959394;0.3566535;0.22046255;0.13107152;-0.18315963;0.04311376;-0.46355942;0.015001998;0.025045693;0.019721704;-0.01601;0.17434807;-0.18307401;-0.14640635;0.24352741;-0.062289406;-0.2936284;0.013254003;0.14387484;-0.3289812;0.26107478;0.10940269;-0.29687428;-0.0049447916;-0.09601996;0.08436863;-0.24089538;-0.042778898;0.25459203;0.13885605;0.07522189;-0.012212765;-0.16989878;-0.017440198;0.16484626;-0.47443518;0.045981336;0.00018713556;0.051731974;-0.11306216;0.33423024;-0.29410192;-0.019346075;0.029843232;0.17539397;-0.014677435;-0.033774693;0.013885346;-0.009195137;0.10756986;-0.2074193;-0.089865424;0.016104346;-0.0039534583;-0.26238215;-0.029602638;-0.007607367;0.00770653;-0.005345127;-0.079593174;-0.078455664;0.14564998;-0.015979873;-0.067441344;-0.030882318;-0.11212991;-0.2883286;0.17310068;0.00449544;-0.0042833155;0.01405315;-0.0048531312;0.018217616;0.014871951;-0.00415892;-0.04771535;-0.02816992;-0.16446249;-0.40444246;-0.041084882;-0.0020414426;-0.0074793356;0.016366595;0.042152803;-0.107844375;-0.30786583;0.13844942;0.12072719;0.031729873;-0.16444251;-0.17351177;0.1666343;-0.003675122;0.004470323;-0.02093908;0.03724804;-0.008875653;0.020055005;-0.088181905;0.22493665;-0.2745256;-0.029437732;-0.047480863;0.006922532;-0.54069686;0.008338659;0.08904545;0.0090766745;0.014018183;-0.20490041;-0.16063745;0.20257343;-0.003811832;-0.018353289;0.11238295;0.07073932;-0.13050844;-0.024420278;-0.009431876;-0.014903758;0.18700062;-0.004194585;-0.05291759;-0.0050471434;0.021914175;0.012215192;0.0231894;-0.0010543878;-0.034298617;-0.0063711507;-0.0757342;-0.037176896;-0.08863385;0.0861344;0.01874875;-0.020161515;-0.01330244;-0.062693976;0.2627029;-0.21049887;-0.6004611;-0.056779716;0.23376901;0.0006814439;0.017015079;-0.33361694;-0.23862565;0.018406272;0.0049808268;0.45793486;0.05095856;0.14728434;0.21059185;0.32818672;-0.014647351;-0.025976863;0.429052;0.033556048;-0.012961673;-0.15376016;-0.05781736;-0.3190019;-0.24532178;-0.062078226;-0.0054510045;0.005170148;-0.009259067;0.25366446;-0.25831708;-0.00087881385;-0.13133101;-0.28245;-0.16515885;0.15692635;-0.060317647;0.060975738;-0.017247887;0.13801964;0.16222502;-0.18451485;-0.17433307;-0.026300594;-0.110845685;0.16772014;-0.2771;-0.0035422537;0.01945103;-0.06583309;0.14407183;-0.20048478;-0.033644598;0.0028518268;0.0009281083;-0.009868314;0.24785447;0.32150933;0.1999582;0.035295006;-0.13086636;-0.002019369;-0.051036578;-0.48830596;-0.012277315;-0.011976422;-0.1483134;-0.13756213;0.108707786;0.019680075;0.3760338;-0.015562083;0.081433736;0.0845294;-0.14747036;0.17643093;0.13993691;-0.20265181;0.015256294;-0.236576;-0.2673112;0.072518155;0.076510094;0.16864212;0.022972606;0.023979286;-0.17713287;0.11381136;0.20089963;-0.26981452;0.3746539;-0.33323097;-0.022061333;0.013637234;-0.0016115193;-0.0076792026;0.00624334;0.16035396;0.14638592;-0.27118087;0.09188225;0.014386666;-0.018190188;-0.20803306;-0.010667092;0.010678203;-0.15915553;-0.01882258;-0.01019696;0.4650337;0.012029215;-0.007060204;0.37869585;-0.019953815;-0.22562736;0.18498147;-0.011227188;-0.011976155;-0.3641023;-0.016931526;-0.008632887;-0.43913;0.0016690909;-0.018035779;0.06389129;-0.12611358;-0.31723762;-0.23620388;-0.011181013;0.20549;0.13069755;0.36416054;-0.30972117;0.12697257;-0.0075442996;-0.20953724;-0.020014353;0.0297078;0.014534245;-0.007270483;-0.04428662;0.23183274;-0.11323755;-0.13784999;-0.04000876;-0.38725975;-0.25238162;0.07170042;-0.0038057698;0.23675755;0.039469298;0.009442956;0.096755564;0.18223915;-0.11836636;0.2200879;0.008873735;0.12929459;-0.027246151;-0.0017218112;-0.013853688;0.091282256;0.018717937;0.00020626346;0.012809461;0.27973112;-0.03720533;0.34255508;0.022002101;0.0060875476;-0.2288553;-0.009236763;-0.092815764;-0.07663394;0.21584012;0.026724154;-0.085673586;0.012296615;0.21254247;-0.55899376;-0.015235467;-0.004663644;-0.16628645;-0.5884715;-0.11470737;0.0018409273;-0.09424563;0.3572582;0.13126013;-0.41231996;0.0064241462;0.0037737892;-0.012364042;0.0014271674;-0.053236842;0.22117324;0.20469062;-0.015142479;0.06551558;0.11675943;-0.1402712;-0.0588686;-0.18370733;-0.08846542;0.015440663;0.11656923;-0.019593336;-0.12747878;-0.28756827;-0.088539585;-0.0026500158;-0.18356514;0.07239504;-0.08073506;-0.20275001;-0.01460847;-0.3737727;0.39998806;-0.07211742;0.0015339277;-0.25221482;0.19092253;0.02023279;-0.01581142;-0.013873964;-0.08147265;0.2633736;0.031410012;0.15567161;0.24633019;-0.003460464;-0.34856975
0.0077874814;-0.33588314;-0.0037946866;-0.2368817;-0.028854916;-0.080325395;0.15372093;0.018026387;0.23430604;-0.016702913;0.016797477;0.106302604;-0.009251772;0.010832146;0.063073635;-0.00032104214;0.011892021;0.14753745;-0.2607243;-0.2951573;0.17422862;-0.19235066;0.07926088;0.029215878;0.00883338;0.4581851;0.012478692;-0.100653216;0.27867827;-0.37917814;0.27137893;-0.3210252;-0.056730494;0.008752329;0.010437716;-0.0005091421;0.036987584;0.33801356;0.08281899;0.27276576;0.15108515;0.006429927;-0.06530118;0.13264766;-0.22856389;-0.2094081;-0.027652418;-0.029655842;-0.005505465;0.041750893;0.0058623794;-0.24279861;-0.016034646;-0.12070863;0.124451876;0.012415911;0.05574308;-0.028854357;-0.028311027;-0.010563514;-0.0041746893;-0.20813902;-0.010184567;0.013833811;0.04547832;-0.3076888;0.0006114686;-0.021695202;-0.1443636;0.016722225;-0.44504333;-0.015253483;-0.07175641;-0.23026235;0.21410744;-0.000287316;-0.049522612;-0.18583232;-0.012067672;0.2987813;-0.011778689;0.20294243;0.011131643;0.13411823;-0.1404691;-0.24298377;-0.013265297;-0.15958883;0.012313519;0.023306975;-0.19655487;-0.0020622418;0.3541451;0.22505827;-0.29924548;-0.3354648;-0.20271665;0.025903681;0.03243656;-0.08345303;0.057491407;-0.07074766;-0.16493486;0.18548721;-0.40018737;-0.3042209;-0.101996854;-0.21363328;-0.06673435;-0.13415287;0.11882328;0.18060946;0.02418718;-0.14748643;-0.11386569;0.002681097;0.005528719;-0.03104617;-0.1339239;-0.046917316;-0.0072339615;0.034980778;-0.059076842;0.072224945;-0.08088827;-0.088780686;0.12576132;0.16111477;0.3662866;0.2576282;0.022463694;0.057271674;0.049887992;0.0013759423;0.10261004;0.0028479141;-0.21158957;-0.06755699;0.136893;-0.049335685;-0.009387495;-0.017864443;0.04585799;-0.1094984;0.04970705;-0.0057254448;0.08601415;-0.0052993116;0.07810023;-0.12051668;0.027689349;0.22673476;0.015888194;0.19535224;-0.16095276;0.23109822;0.17272642;0.20941874;-0.016143378;0.2966086;0.049535733;-0.16742884;0.3423745;0.01752059;-0.025752326;-0.07610132;0.015647072;-0.019749867;-0.1508921;-0.030951092;-0.19328077;-0.0035816112;0.024914842;-0.028644605;0.041565754;0.18777011;0.008194695;-0.13736928;0.13364844;0.006915996;-0.009844391;-0.0070460453;0.0030080625;0.1745699;-0.016060831;-0.13074146;-0.0029783058;0.035330374;-0.14078099;0.0015996908;0.05578143;0.17390533;-0.00025360793;-0.00050721166;0.04737725;0.1940053;-0.18170337;0.034728024;-0.25945634;0.11846408;0.14338902;0.07245647;0.21487804;-0.30080613;-0.010440369;-0.13784444;-0.04883596;0.35417828;0.14446361;0.3593257;-0.11168423;0.18544473;-0.41433567;-0.012803894;0.012842512;-0.0049619153;0.05995988;0.03946436;-0.25550348;-0.14828496;-0.027363565;0.04164329;0.06388376;0.0034016813;0.12885408;-0.23336866;0.24636893;0.0072536287;-0.24003898;0.004209026;-0.14228222;-0.033013072;0.057232726;0.09264677;0.32671568;0.11556835;0.1307893;-0.0011084385;-0.2238677;-0.045221314;0.15669091;-0.22659045;-0.0837732;-0.009682026;0.012475206;-0.45481408;0.40784362;-0.21425444;0.014600638;0.007939155;0.21292931;0.009680588;0.22920963;-0.16585125;0.019442575;0.011406725;-0.32499766;-0.058214784;-0.003066028;0.0069152093;0.018692082;0.046128124;0.0013726962;0.0075615323;-0.0010352061;0.04148509;0.0063468413;0.14631125;-0.097192526;-0.055807162;-0.20749095;0.092143424;-0.004718087;0.18317716;0.005502228;-0.009804214;-0.030013863;-0.043020215;-0.011515909;0.0006581978;0.010165828;0.09248065;-0.026978176;0.21324684;-0.116335645;0.18449804;0.016944079;0.07644441;-0.002299157;0.13666005;0.018461505;-0.18117829;0.28041652;0.096747756;0.032358963;-0.05486188;0.05316322;0.06944923;-0.006459008;0.0010965372;0.1003261;-0.027333872;-0.008127094;0.009406442;-0.17612965;0.23668374;-0.26308706;0.032748092;-0.0017211504;0.0044856328;-0.4011529;-0.007664244;0.20949493;-0.0044749375;0.06580969;-0.12957825;-0.19882338;0.3194391;0.12509088;0.012377934;-0.011773341;0.23333503;-0.13159235;0.014743256;0.0019107728;0.0118133295;0.23384003;-0.009344895;-0.05812215;-0.002938624;-0.020625247;-4.8801852e-05;-0.0043467865;0.009562809;-0.030334786;0.004142431;-0.08132165;-0.003057844;0.16326128;0.028039234;-0.017315786;-0.009908228;-0.0060181366;0.07247379;0.25155115;-0.025063274;-0.50273216;-0.028358998;-0.048360176;0.0040283375;-0.008759298;-0.11788695;-0.27783564;0.07121565;0.0013479562;0.4517627;-0.02315906;0.0559669;0.115102254;0.28920162;-0.0009876426;0.023004662;0.42016786;0.18352331;-0.05086137;-0.011369924;-0.021049345;-0.2661692;-0.23361;0.017828366;0.0033778343;0.010447576;0.010923026;0.42623416;-0.15773538;-0.0035540597;-0.13522373;-0.27127504;-0.28154814;0.14632207;0.15874004;-0.013905806;-0.0067958054;0.20774391;0.27341205;-0.21940053;-0.22327842;-0.06827471;0.1128942;0.37795034;-0.44831917;-0.0032274313;-0.013583152;0.05021018;0.223518;-0.36520696;0.012235264;-0.009328355;0.0052005206;0.0135069;0.14995882;-0.08148768;0.04678511;-0.019485306;0.16717777;0.0063889483;0.080438696;-0.28149986;-0.12829445;0.00796744;-0.0042608227;-0.3658665;0.09939378;-0.006616962;0.3221963;0.050170645;0.18634006;-0.029280763;-0.06994872;0.117877506;-0.122273214;-0.033599988;0.006214175;-0.21758455;-0.18654247;0.16750148;-0.06343675;-0.26113978;0.026067907;-0.030950123;0.070510045;0.16870436;0.1804445;-0.12134832;0.4130836;-0.15203366;0.029116957;0.005308555;0.04163622;-0.0048391437;-0.023444317;0.091985375;0.4996043;-0.24566835;0.018789023;-0.014419674;0.025800506;0.0015822448;0.009107273;-0.004579537;-0.19022892;-0.03278021;0.010172783;0.31228274;-0.004713446;-0.003520365;0.25218824;-0.3414388;-0.150471;0.16835776;-0.079266645;0.02101398;-0.24693914;0.019236447;0.010202348;-0.2217661;0.153587;0.019904204;0.12277027;-0.18523638;-0.35269687;-0.20592827;4.70845e-05;0.13125184;0.09262243;0.23760389;-0.10414254;0.15454057;0.005573265;-0.0029240414;-0.008742226;-0.038227614;-0.029023206;0.0012607963;0.20241451;0.24836831;-0.2611306;-0.1646124;0.06853448;-0.50514066;0.0069126743;0.04428834;-0.008163473;-0.17242986;-0.020844314;-0.02028007;0.26920497;0.1252806;0.0055530975;0.13043077;-0.01273035;-0.062174443;-0.22416607;0.14276454;0.0075638886;0.10222432;-0.006826961;0.0018073779;-0.010120439;0.31367722;-0.177508;0.46712813;-0.02142894;0.04220858;-0.21463841;-0.0018268735;-0.26689056;-0.16467877;0.19371296;-0.012420271;0.12212283;-0.0072520673;0.2922337;-0.47929978;0.017794805;-0.0029258055;-0.21028368;-0.50489676;-0.20729744;0.02462887;-0.03633157;0.08122089;0.10688578;-0.11804844;-0.009444235;-0.006978851;0.023031311;0.057258964;-0.004130313;0.2621924;0.14302939;0.028644567;0.20887299;0.24042821;-0.19622533;-0.102410056;-0.11988059;-0.032635126;-0.0031618073;0.16950734;-0.0028692477;0.008272885;0.07278002;0.14388566;0.00049807335;-0.16622718;0.109167166;-0.19269727;-0.18467037;-0.010419891;-0.14352491;0.37051648;0.016373575;-0.009646334;-0.17357549;0.16330543;0.18786386;0.0032708687;0.013583198;0.053372145;0.30114678;-0.17481917;-0.09892925;0.00012285847;0.001781731;-0.22046642
0.13697253;-0.1946048;0.020603236;-0.31967992;0.02083513;-0.23365904;0.015368484;0.008163955;0.2975563;0.008944343;0.09102864;0.19743566;0.0031737252;-0.017970763;0.034392286;0.00737684;-0.002407263;-0.015126961;-0.2849361;-0.43364272;-0.10433259;-0.22963046;-0.048236553;0.11372069;0.012466723;0.6154376;-0.014294059;-0.25260037;0.015891831;0.0065413103;0.11467201;-0.029663047;0.087410405;0.006877402;0.0057362616;0.005647004;-0.032783475;-0.079895265;0.20053609;-0.043882497;0.14725532;0.00958663;0.022807213;0.3703501;-0.042761207;0.024704123;0.0010234833;-0.07119899;-0.007694866;-0.19286612;-0.002258308;-0.1139605;-0.015294597;-0.13334307;-0.08287374;-0.023469687;-0.21792841;-0.16740547;-0.0018967681;0.014018306;0.012896225;-0.04802144;0.01319821;-0.017706081;0.000931237;-0.20175864;-0.011552547;0.017200137;-0.17825994;-0.010629366;-0.3990138;0.011649287;0.07399043;-0.46424738;0.054271728;0.019707084;0.032322552;-0.076137684;0.010861958;0.1092816;0.0243315;0.043870877;-0.00025209656;-0.061764188;0.07422119;-0.62719816;0.0238952;-0.114953555;-0.02213406;-0.011697712;-0.12785849;-0.0027067228;0.38278615;0.046598822;-0.09580612;-0.43932018;-0.22595353;-0.1918398;-0.038052157;0.07824612;-0.040728014;0.16092898;-0.054936495;0.089553274;-0.43889037;-0.45756957;-0.122502394;-0.20930406;-0.34119597;-0.21964864;-0.03447078;0.2535696;-0.02580251;-0.16723716;0.12984471;0.010312248;0.017330507;-0.006122165;-0.07130289;-0.0022072794;0.06663349;0.1831153;-0.012126088;-0.023473943;-0.09130993;-0.067035824;0.021975687;0.29307616;0.31442726;0.100582086;0.034594204;0.33379212;-0.008429149;-0.0062170113;-0.026514227;-0.021275066;-0.052975506;-0.0023147755;0.10438604;-0.15922138;0.009209465;-0.12067043;-0.05089941;0.084227085;-0.06790326;0.01175914;-0.060049165;-0.005431364;0.28164795;-0.068886295;-0.022889098;0.22158892;-0.035593726;0.095828384;-0.03132495;0.23184079;0.28597197;-0.066164024;0.02274677;0.18176554;-0.25868478;-0.014976912;0.29673564;0.0015489168;0.009249795;-0.090910904;-0.00036241312;-0.017379079;-0.169941;0.047394704;-0.18416211;0.017569255;0.16647612;0.2060315;-0.04637921;0.181706;0.0031518647;-0.09100785;0.26810527;-0.011211729;0.014372998;-0.012503973;0.14265934;0.25557247;0.020597704;-0.12064827;0.0053337715;-0.05397218;-0.035476238;-0.003617341;0.04802262;-0.10640079;0.1337989;-0.016245892;0.20907839;0.050221737;0.055530656;0.15258451;-0.112491794;0.21805188;0.041987266;-0.17626955;0.15011342;-0.20655747;-0.18833789;-0.16027808;0.054471612;0.2897207;0.10368019;0.4214521;-0.2500811;0.0537855;0.11456357;0.018706758;-0.027848607;-0.004370761;-0.06506319;0.023930227;0.104418;-0.011479291;-0.09494492;-0.004376725;0.26463667;-0.014695678;0.22015142;-0.23009297;0.2182131;-0.11064875;-0.048794944;-0.0020356253;-0.019666363;0.20321596;0.22089387;-0.19185178;0.08345564;0.26182216;0.12761918;0.012367196;0.046439808;0.08806481;0.063292414;-0.11236992;-0.06953742;0.012262639;0.18603358;-0.4467162;0.27355754;-0.026113128;-0.017476909;-0.026179353;0.12187967;-0.014564318;0.25904033;-0.20259875;-0.03170484;0.11501222;0.024662273;-0.16841711;-0.034722894;-0.008730796;0.007461974;0.13577467;-0.010309081;-0.0067763166;0.004061846;0.026390675;-0.103316225;-0.010207255;-0.21695325;-0.02036549;-0.18576597;0.11072622;-0.031275425;-0.008804556;-0.0027992777;0.009142989;0.18309917;0.109871365;-0.00045778367;-0.014928262;-0.026618402;0.14431927;0.11297387;0.19557588;-0.15754692;0.13401316;-0.008883419;0.2250464;-0.0011942203;0.14754601;0.05906861;-0.21626665;0.29549992;0.024985833;0.36386096;-0.21783212;0.23146479;0.0910639;0.0006930134;-0.0016373389;0.28984588;-0.005867282;0.0072032474;-0.001857392;-0.23308222;0.26591435;-0.06226654;0.006581388;0.23362306;0.11512647;-0.3360359;0.013182198;0.22934695;0.0065482524;0.05795541;-0.08880773;-0.049359675;0.31895536;0.08343184;-0.00042289763;-0.19989114;0.33176014;-0.17372066;0.0027378935;0.001100294;0.01380408;0.38523647;-0.004399995;-0.019703638;0.008965233;0.01723811;-0.007075387;0.019566216;-0.0034488046;0.059062406;0.0061535765;-0.2367215;-0.008956675;0.17000265;0.13628238;0.0006170145;0.08010315;0.006235127;0.28908265;0.19527927;-0.28055525;-0.20736572;-0.06474921;-0.20810002;-0.0016489236;0.01706446;-0.11558902;-0.09638841;-0.105559535;-0.011898811;0.33522487;-0.06260593;0.03528931;-0.014180289;0.27297825;-0.015832374;-0.018665474;0.121684395;0.03735488;-0.095035814;0.08361829;-0.18165876;-0.35327458;-0.3007773;0.019684082;0.012182748;-0.0007188402;-0.0008112429;0.45395702;-0.046576045;0.0049098562;-0.05473998;0.008853307;-0.46210212;-0.05861514;-0.21423955;0.13515085;0.07338017;0.38331822;0.14966315;-0.28092518;-0.3468026;-0.07982315;0.24681075;0.16559783;-0.55584455;-0.008209399;-0.00928935;-0.07326946;0.43185493;-0.14860892;-0.0026180241;-0.012681545;-0.01644916;-0.0068730144;0.19502212;-0.053424984;-0.26724324;0.0071223243;-0.14861734;-0.012094088;-0.03214971;-0.44230503;0.010759927;-0.0006593245;0.077139065;-0.45893937;0.047299948;0.014550276;-0.112672105;0.0998995;-0.015723374;-0.10590783;0.007866953;0.14689866;0.10840443;-0.1198796;0.00078574993;-0.09343228;-0.3393887;0.22641088;0.09678239;-0.37227404;-0.23089093;0.030342365;-0.22121967;0.1477321;0.22034298;0.15104827;0.21636741;-0.31469804;-0.010916108;-0.04974576;-0.008164378;0.011336092;0.0044807605;-0.30989888;0.42138392;-0.32235762;0.27088022;0.025663966;0.0007069497;0.028499894;0.0017975211;-0.004381056;-0.17370678;0.054193273;-0.008220823;0.20418417;-0.0110468725;0.002112729;-0.059673745;-0.2778908;-0.13585202;0.16350172;-0.090558;-0.0064123264;-0.13780029;-0.022232434;-0.009729126;-0.1562725;-0.034589;-0.02472532;0.17667821;-0.04917621;-0.18698259;-0.29374978;0.007700784;0.15294926;0.07786192;0.13623893;0.052262988;0.048956074;-0.01402523;0.36249912;-0.009039834;0.042167347;-0.050460454;0.009111022;0.3285643;0.22000054;-0.21058191;-0.14684902;0.12629528;-0.37365368;0.09868884;-0.060284287;0.010449106;-0.034095082;0.0018933513;0.018670734;0.31798372;-0.0028296434;-0.10183005;0.07108739;0.007608214;0.10628708;-0.35746872;0.21905294;-0.009374719;-0.07598556;-0.014744425;-0.0044240877;0.044466253;0.0840356;-0.18394925;0.27944383;0.011109775;-0.06419125;0.21731481;0.018665677;-0.20091194;-0.38344815;-0.05171432;0.00013743775;0.14484133;0.024156252;0.18550648;-0.180108;-0.012347453;0.0014885591;-0.20546502;-0.050496433;-0.1293561;0.0067235525;0.096327566;-0.10214901;0.06265242;-0.29401132;0.028047362;-0.0030889043;-0.018369358;0.10351744;-0.05069624;0.32335716;0.15192966;-0.025081147;0.1993696;0.2801234;-0.17138347;-0.115928255;0.06415744;0.06355378;0.0056315837;0.19005165;0.013126085;-0.045080952;0.09246886;-0.03817628;-0.015667561;-0.34880704;-0.13645427;-0.30531153;-0.21119083;-0.034033883;-0.22500466;0.38067636;0.049488258;0.011335038;-0.25625592;-0.065112576;-0.20996204;0.0016851068;0.009247891;0.195998;0.038570903;-0.39708146;-0.23277025;-0.1415892;0.0019503792;0.047151353
0.069764964;-0.1414462;-0.0015977647;-0.3617039;-0.010787661;-0.02864269;-0.25474662;-0.016618183;0.31144673;0.013079549;0.1824175;0.15077427;-0.0006569989;0.0037382748;-0.39369026;-0.0012705124;0.0036322447;0.16077566;-0.24944149;-0.057280444;-0.0083745755;-0.14807189;-0.038944777;0.24568146;-0.012882171;0.6304221;0.008460479;-0.37774822;0.10420232;-0.091581956;0.061926756;-0.27546555;0.106010474;-0.007820516;-0.014621046;-0.013605706;0.034677405;0.013428001;0.14356823;-0.24437775;-0.061621964;0.04883147;-0.04090328;0.27565268;-0.029171556;0.07845139;0.006997558;0.07989659;0.002626788;-0.04676972;-0.009095028;-0.044906247;-0.15688139;0.040201116;-0.035163045;0.0141775515;-0.13534866;0.03566768;-0.004193965;-0.008606629;-0.01811062;-0.093518086;-0.006483629;0.011641642;0.024663374;-0.07333193;0.009369447;-0.025615709;-0.18566456;-0.008728778;-0.22174013;-0.0070418166;0.052369986;-0.3928947;0.16086331;-0.014706577;-0.05957242;-0.1440196;-0.014815014;-0.082382046;-0.012105871;0.113089636;0.00055839465;0.06243448;0.17174323;-0.3124598;-0.023452003;-0.03604904;0.020696634;-0.018916773;-0.021857772;0.0039835013;0.21374027;-0.057649557;-0.18205701;-0.10909845;-0.22991706;0.11216128;0.031955596;0.01857525;-0.13703413;-0.42130253;-0.17685372;-0.064912975;-0.25005347;-0.15663199;0.009880005;-0.055743914;-0.20867974;-0.24234995;0.17348163;0.4463067;0.01154321;0.042851258;-0.02810222;-0.004222199;0.0014293902;-0.41083768;0.2505416;-0.1165942;0.021722535;0.18644361;-0.014435761;-0.004862056;-0.08491084;-0.02587325;0.12228806;0.30895537;0.10411965;0.2102662;-0.010988721;0.16921464;0.18730399;0.015993254;0.10113959;0.028577121;0.12829944;0.0027829874;0.21591693;-0.10772562;0.0060066287;-0.14175044;-0.209488;0.06895801;0.045746796;-0.009278177;0.036501467;0.0027129862;0.11249794;-0.033629283;0.011219726;0.12684104;-0.28298506;0.17246385;-0.044878736;0.25054696;0.049494687;-0.08992559;-0.0055120215;0.05967683;-0.3624023;0.4758318;0.15221433;-0.0015984456;-0.024495408;0.04993081;-0.013374323;0.13044842;0.054613058;-0.006272264;-0.14387272;-0.008716705;0.301215;0.2752925;0.13590512;0.088317335;0.026680114;-9.132031e-05;0.0895784;0.003743307;-0.004398352;0.0017729442;0.30073866;0.36605138;-0.02712709;-0.1810636;-0.0057752947;0.038365237;-0.06322573;-0.0018620394;0.15311664;-0.07032738;0.22876568;0.030129576;0.26675388;0.0919579;0.016044384;0.173338;0.02540644;0.20533219;-0.13185172;-0.27784535;0.084500216;-0.06407646;-0.31963456;-0.38678908;0.05951917;0.44512472;0.08331784;0.66631126;-0.19892043;0.04253232;0.20911899;-0.011834022;-0.020556573;0.0074450914;-0.031243134;-0.31517893;0.14510384;-0.054023147;0.018619612;-0.06778719;0.14835265;0.000845853;0.023450617;-0.0144186355;0.2733304;-0.16555569;0.12348584;-0.0099845445;0.014947401;0.15849628;0.054153573;-0.004067271;0.30788583;-0.04389029;0.09608734;0.0009108022;-0.06324643;0.10961031;-0.12731847;-0.2714849;-0.00024460157;-0.012709683;0.19419722;-0.60455537;0.30208144;0.22508936;0.0021848083;-0.040665586;0.15994161;0.015035291;0.10190426;-0.018906524;0.027310804;0.14700276;-0.35206854;-0.17775907;-0.00059596915;0.0046207607;0.16843772;0.28619725;0.0053113187;-0.0015215749;0.0106321685;0.020233741;0.11134256;0.10935586;-0.106220655;-0.1423848;-0.030661147;-0.16585319;-0.08032789;-0.06452543;-0.014407637;-0.0013818461;-0.10098599;0.16469264;0.0029502935;0.009796106;0.019531708;0.12533236;0.20038122;-0.07434257;-0.06397551;0.03219072;0.0064625214;-0.11368456;0.0010432435;0.2164437;0.051051185;0.044601593;0.23403348;-0.1804941;0.008592317;-0.20729166;-0.04815429;0.005817841;0.009817657;-0.005157677;0.038682684;-0.027285384;-0.0011572178;0.09763978;-0.13361463;-0.040837914;0.039981384;0.00044621187;0.13339303;0.037359394;-0.15070361;-0.023183137;-0.11173855;-0.022043707;0.1002155;-0.00625934;-0.12641636;0.23756999;0.016280292;0.003535361;-0.1284159;0.2613835;-0.31660149;-0.0038145178;-0.004738409;0.15367503;0.08915606;0.021627469;0.26332134;-0.0038916008;-0.010806876;-0.0061486657;-0.007979216;0.02169335;-0.10409518;-0.006354241;-0.37145168;-0.022526352;0.12976219;0.2246508;-0.008453427;0.026216408;-0.0010716452;0.08229149;-0.015825694;-0.108301185;-0.085609205;-0.04458526;-0.25424334;0.002301918;-0.006766433;-0.13569964;0.008813791;-0.04395245;0.009742088;0.31886977;-0.15526289;-0.18287942;-0.31435162;0.32697257;0.045865573;0.010642434;0.07791248;-0.08031402;-0.04214544;-0.16299362;-0.095690444;-0.12858114;-0.14333637;0.11172431;-0.011164543;-0.017910846;-0.019685019;0.23495053;-0.14985788;0.015833985;-0.2564458;-0.0073868693;-0.42565304;0.19054233;-0.14723797;0.09429885;-0.14637348;0.12194832;0.29832464;-0.14232403;0.01829919;-0.054430593;0.42550138;0.21734436;-0.1277695;0.024042662;-0.0005623824;-0.17652601;0.09167064;-0.31138507;0.009099665;0.019475901;0.01094008;-0.018728588;0.19757962;0.035151333;-0.1932281;0.011858291;-0.109676205;0.0017440128;0.130606;-0.15062267;0.060227644;-0.014050631;0.0955407;-0.43263924;-0.22705801;-0.022019558;-0.08787233;-0.015459696;-0.05829433;-0.31565988;0.022747343;0.06955314;0.12761658;0.012233869;0.0053464123;-0.27668548;-0.447135;-0.030300323;0.036255587;-0.26377988;-0.23840317;0.0007739056;-0.105118;0.04352915;0.3964924;0.16971934;0.14143269;-0.28295663;-0.008121027;-0.023554863;-0.11228787;-0.0066869715;0.0012870939;-0.30019364;0.25936761;-0.3516778;0.25054747;-0.024534663;-0.012845982;0.02668209;0.0007034118;-0.007223451;-0.07873804;0.14159456;0.0066440743;0.14369215;0.0160676;-0.0047642766;0.06528872;0.0038462006;-0.087078325;0.20094287;-0.09523974;-0.015180487;-0.19776654;0.0073821084;-0.0018316304;0.03936229;0.21374185;0.0042846417;0.005073626;-0.15029578;0.01996527;0.06613273;0.0035645657;0.24934229;0.42498526;-0.21499553;0.1004954;0.10989997;0.015721502;0.3802664;0.02550265;-0.05363692;0.030812046;-0.022821955;0.263961;0.18599243;-0.35181955;-0.12126541;0.19501913;-0.3370085;-0.2211275;-0.19111115;-0.015683215;-0.061616424;-0.0120955985;0.005586939;-0.07459288;0.15408364;0.009830314;-0.06243138;-0.013410151;0.1456679;-0.16393352;0.2024085;0.019734895;-0.16090487;0.013394089;-0.0029926405;-0.060972515;0.0014597132;-0.14459981;0.09927955;-0.00603303;0.038138006;0.27691895;-0.010212467;-0.04241879;-0.03494174;-0.104213886;0.0025294342;0.20400476;-0.015306648;0.18732092;-0.12064848;0.010423209;0.0066190516;-0.15034415;-0.06745056;0.2403167;-0.028600566;0.08002951;-0.26033273;-0.016208712;-0.32807502;0.0032342423;-0.006433066;-0.009337385;0.08518529;-0.044752534;0.0026379589;0.090313636;0.010198845;0.20323774;0.23204088;-0.13972424;-0.39598384;-0.03194793;-0.029344015;-0.03045404;0.037951745;-0.008786586;-0.07079997;-0.128411;0.06264642;0.01708778;-0.22356361;-0.3827837;-0.25435606;-0.31242716;-0.007475644;0.023990393;0.05657907;0.22074263;-0.0023235753;-0.27868265;0.19480391;-0.080928616;0.0015336359;-0.019212998;0.22642821;0.13032047;-0.16545856;0.14124434;-0.40412998;-0.010919571;0.12255276
-0.08683897;0.13090076;-0.01902141;-0.20526414;0.00381206;-0.14729534;-0.14947753;-0.011096428;0.109834954;-0.02925846;0.17873116;0.38681427;0.0021409292;0.011909187;-0.16270545;-0.0078072976;-0.0011650183;-0.039126325;-0.14270413;-0.16303033;-0.24894221;0.068943545;0.09829457;0.31990486;0.011660008;0.4612373;-0.0028025354;0.037277054;0.03578877;-0.060083374;-0.11129895;-0.40648043;0.01096824;0.0064435033;0.009305061;0.011774947;-0.024928374;-0.15516324;0.27468148;-0.28129283;-0.12982951;-0.007803059;-0.12642333;0.2274177;0.076848365;-0.06636378;0.022463433;0.06967056;0.0013711469;-0.1445867;0.0052303104;0.05546276;-0.08515484;-0.16672303;-0.038671717;-0.010637517;-0.053196922;-0.006469938;0.0018868241;-0.0138029065;0.015686104;-0.21410617;-0.00043404894;-0.0039476836;0.15710936;0.056740697;0.00178419;-0.045384075;-0.08747087;-0.014050698;-0.027828893;-0.00078734575;-0.1808087;-0.32119203;-0.07801596;0.0062464024;0.033927143;-0.17323051;0.0048099062;-0.09450201;0.008373314;0.051391006;-0.008795432;0.03171063;0.34745568;-0.3801269;0.007281883;-0.3590053;-0.020982414;0.0118170185;-0.08321012;0.019472804;-0.45248282;-0.32600674;-0.08507926;-0.02987947;-0.012690293;0.052473247;-0.023857342;-0.1932523;-0.075611025;-0.53307503;-0.115730934;-0.0015088929;-0.12095937;-0.15373173;-0.16695066;-0.065694354;-0.1836528;-0.37910518;-0.06732543;0.52657306;-0.009306801;-0.036783524;0.01562515;0.0036986507;8.792844e-05;-0.28914383;0.071270026;0.0381908;0.0267966;0.2029209;0.090901315;-0.17360851;0.05929948;-0.12559275;0.15478669;0.114830755;0.29314628;-0.0154627245;0.11090989;0.1381118;0.22762157;-0.022139998;-0.12308611;-0.013572708;0.2693904;0.005205631;0.13910216;-0.0073456457;-0.024746455;-0.08116307;0.022664003;0.23487194;-0.13683836;0.009208698;-0.026419185;0.00033550442;-0.13071421;0.07106868;0.004880717;-0.12129922;-0.21778233;0.20622055;-0.2155157;0.145358;0.19942036;0.08776227;0.008471067;-0.06293814;-0.4804251;0.5282144;0.07187748;-0.0065756827;0.017058393;0.17755844;0.011281254;-0.03660602;-0.1502583;-0.08954603;-0.24992399;-0.007100553;-0.0775159;0.2699572;0.20180793;0.044986352;0.0020822014;-0.0660412;0.12717833;0.009304637;0.0007643018;-0.0066219233;0.42502543;0.2237266;0.02899251;-0.17951776;-0.0055060536;0.112969324;0.0976437;0.008188352;-0.0357773;-0.024155993;0.39917126;-0.01726373;0.042140935;0.30383366;0.091159336;0.21710345;-0.08764742;0.15000434;-0.02705007;-0.29762945;-0.01592001;0.15547594;-0.120138176;-0.2922204;-0.14574355;0.17470181;0.35828045;0.21040621;-0.14466366;0.042755824;0.041259963;-0.008135491;0.055214502;-0.013390781;-0.15056792;-0.12303507;0.12027736;-0.029134028;0.025490977;0.19455832;0.24128069;0.008404036;-0.27656898;0.26255712;0.2322233;-0.11278824;0.17067395;0.00015635494;0.02615825;0.25758573;0.12414882;0.037037473;0.3398091;0.04397181;0.25408882;-0.018877663;-0.13992758;-0.34122607;-0.1509357;0.10838196;-0.15693545;0.005939528;0.3210745;-0.48415884;0.10889664;0.17982824;-0.00220793;-0.013245528;0.16269231;0.0150136575;0.12738872;0.096730806;-0.016592788;0.1681262;-0.2491238;-0.18395041;0.05653152;0.0034332068;-0.061584618;0.2957273;0.0223453;-0.00037558266;-0.021595405;-0.030925425;0.25023293;0.15604429;0.11632873;-0.14819467;-0.13242058;-0.018034896;0.21627069;-0.05479956;1.184531e-05;0.01562995;-0.08778739;0.09382539;0.009170965;-0.012834112;-0.019984545;-0.08621855;0.023705343;-0.21109523;-0.32034132;-0.03040689;-0.011635724;-0.040460467;-0.010321236;0.14207438;-0.07957409;-0.16829519;0.16797869;0.091052674;-0.22888893;0.16011138;-0.108729966;-0.058635633;-0.014150368;2.3181605e-05;-0.23721427;0.022340886;0.009675979;0.098016955;-0.22808912;0.28898913;-0.20018844;-0.051553387;-0.23869777;-0.032595485;0.13928793;0.0045844973;-0.08182368;0.023450237;0.26375392;-0.05995542;-0.07563792;0.16299656;-0.0707345;0.016817536;0.13346049;-0.18363547;-0.3677119;0.0034005744;0.0008476475;-0.069749825;0.46391284;-0.035799306;-0.05580946;-0.0034407738;0.026991438;0.0095914295;-0.015965033;-0.015234133;0.0020595675;-0.023228768;-0.3467139;0.08351091;0.08102865;-0.01947;-0.006556547;0.071294814;-0.009182397;-0.0056512067;-0.089042366;-0.14453214;0.1723662;0.14116648;-0.11308481;-0.009903517;-0.014081321;-0.09153235;-0.08508191;-0.011900357;-0.009654008;0.42461088;-0.08943231;-0.018104332;-0.14000908;0.31067333;-0.016592076;0.005812477;-0.1767405;-0.016453808;-0.017711481;-0.23174983;0.14314826;0.038709003;-0.33123857;0.38235202;0.0012572056;0.019581111;0.013270256;0.08421134;-0.16684458;-0.016618503;-0.084653124;0.114223436;-0.3570254;0.19199976;-0.12224949;0.20734145;-0.11340224;-0.14286086;0.14600427;-0.22210912;-0.03271957;-0.10206472;0.38296145;0.27316982;-0.2654268;-0.010492271;0.0092799375;-0.14691295;-0.13948132;-0.29746056;-0.013356163;-0.013377903;-0.0034886592;0.024035811;0.1403222;-0.05572174;-0.39550987;0.0076491227;-0.066726655;-0.002092529;-0.043474875;0.09121109;0.015350714;0.0032898025;-0.20224711;-0.43868813;-0.2792255;0.0070883837;0.06556251;0.041279312;-0.033097297;-0.077831514;-0.074886836;0.23745392;-0.0047436743;0.07105862;-0.014342104;-0.14454116;-0.21763198;0.018702785;0.1900778;-0.08074172;-0.1402548;0.00089252874;-0.089996554;-0.035516486;0.01956587;0.2937593;-0.13768029;-0.21466753;0.013677811;0.015088004;-0.31066245;0.0058603105;-0.0014878083;-0.030901065;-0.20653838;-0.3140327;0.22900958;0.0061901365;0.014432325;0.05987144;-0.0077733397;-0.0005947891;-0.1696343;0.22493817;-0.008054717;0.2458956;-0.012146333;0.009684309;-0.15855499;0.0035824482;-0.42334804;-0.010463375;-0.19165531;0.02470495;-0.1977616;-0.011149206;0.009182357;-0.18750593;0.19387895;-0.014561244;0.085578725;0.09890057;0.1537387;0.0737999;0.0031415918;0.19995275;0.17509672;-0.29740342;-0.029717395;0.28633264;-0.0010351504;0.3009705;-0.010113525;0.025325384;0.009223903;0.016068755;0.24204049;0.20432882;-0.3459596;-0.21061209;0.047476724;-0.25654933;-0.13841167;-0.23730178;0.016125582;0.09432672;0.016044894;-0.0017633357;-0.015929975;0.042707432;0.12816282;0.00095649203;-0.0018144652;0.16251846;-0.108851835;-0.06510014;-0.024377609;-0.11793114;-0.012205062;0.002023286;0.0034941854;0.16081744;-0.04861743;-0.15179007;0.0039285403;0.02111955;0.37095252;-0.00936684;-0.1578041;0.044957746;0.20655563;-0.007453785;0.10146694;-0.00974349;0.3093036;0.17367797;0.013657704;0.0027745443;0.06556756;-0.08980294;0.2786595;0.0020408407;0.1752208;-0.46606314;-0.05581509;-0.48087502;-0.0065322127;0.0032454585;-0.0068829544;0.11823445;-0.23182914;-0.13056399;0.055744253;0.0023034255;0.14499411;0.07939824;-0.054251797;-0.01568037;0.20677201;-0.110806614;0.023913018;0.079810396;-0.001067602;-0.07368058;-0.2019348;0.14019445;-0.0079911705;-0.10057893;-0.48798525;-0.006238034;-0.27950028;-0.07311868;0.05457283;-0.036247272;-0.007763134;0.009251207;-0.1641194;0.062019616;0.010863205;-0.011848956;0.0030379647;0.11092454;0.032203205;-0.18482913;-0.1325093;-0.036860734;0.010670274;-0.002565328
0.045916654;0.05989293;0.0014031682;0.034294758;-0.00414793;-0.08692852;-0.17391519;0.0066142688;-0.05687467;0.0046299505;0.13386883;0.1240562;0.015391415;-0.014103206;-0.2732369;0.016855003;-0.019520342;0.1572842;-0.1436091;-0.15350163;-0.20797881;0.28618768;0.060712855;0.3097172;-0.015266985;0.3441781;0.0056638666;-0.039978907;-0.28446043;-0.0574676;-0.124121614;-0.36118498;-0.16477002;-0.008940474;-0.0070191706;-0.008802614;0.015698938;0.015690917;0.26049757;-0.0770317;0.004628399;-0.06190614;0.1785076;-0.039613586;-0.1238031;-0.0715921;-0.021913292;-0.035731748;-0.0005944344;-0.053382553;0.0066430024;0.14214015;-0.27339813;-0.086433046;-0.011812204;0.0034801776;0.037949562;0.10848722;0.046493057;0.0039924635;0.00025866827;-0.18846452;-0.009421099;-0.011463382;0.26096216;0.28538504;-0.02406238;0.018021803;-0.15623309;-0.046695434;-0.021989385;-0.017501272;-0.09206592;-0.21960132;-0.13530974;-0.006826862;0.18586606;-0.11213056;0.00062221877;-0.23552896;0.010991507;-0.012828272;0.020787902;0.0067492174;0.29980367;0.1258153;-0.0151534425;-0.21978752;-0.01734735;0.013365749;-0.3026006;-0.010519779;-0.40923017;-0.18831667;-0.03909823;0.114824995;0.0050823623;0.02041563;-0.23236538;0.061024826;0.07332448;-0.35517287;0.1227614;0.0004654156;-0.19036724;-0.29271767;-0.037779577;-0.2513137;0.12643228;-0.23372068;0.083332166;0.44427764;-0.0040028538;0.014144083;0.09000304;0.005883918;0.013392007;-0.046535827;-0.13768351;-0.093458;-0.03689775;0.13542558;0.08518491;0.10086108;-0.15302685;-0.0023351125;0.016000353;0.12825167;0.08251794;0.028902795;-0.033777885;-0.0048799817;0.391145;0.009568386;-0.04548415;-0.004522451;0.18964186;0.0019553408;0.053032342;0.12869449;0.022601767;-0.09997884;0.03029534;0.3723992;-0.022952694;0.0054792585;0.16879353;0.0052329525;-0.09070478;0.155899;0.0048023923;-0.15713651;-0.22441766;0.10957094;-0.20918855;0.21452653;0.11720797;-0.04446332;0.0058790566;-0.020494645;-0.4710054;0.5350372;0.12815095;-0.0016001979;-0.0030290973;0.022876838;-0.009230687;0.08518254;-0.22015889;-0.094646215;-0.25530615;0.00091758784;-0.0025024374;0.28931528;0.0040745065;0.05104556;-0.075189635;-0.056502253;0.17784177;-0.0018127883;0.007517236;0.015198917;-0.018376477;0.07420633;-0.00064930884;-0.20201908;-0.000203031;0.0071463417;0.06753192;-0.0014933265;-0.11972027;0.10362654;0.21446405;-0.008225949;-0.12660733;0.37307948;0.15793338;0.077143595;-0.41948378;-0.038558044;0.032140117;-0.2224958;-0.04665189;-0.047619697;-0.0069261203;-0.16020317;-0.23799166;0.213706;0.1071674;-0.254382;-0.16286746;-0.07895291;-0.15826653;0.016408762;-0.034038406;0.010821499;0.023929251;-0.08553705;0.041732516;-0.060538903;0.0032148333;-0.3496083;0.19561917;-0.0008592913;-0.22512372;0.08365625;0.11812007;0.03775545;0.26477823;0.013735733;-0.15670927;0.36674005;0.17450607;-0.09645457;0.25624156;-0.18900137;0.16360864;0.009608658;-0.29318288;-0.31259698;-0.023546498;0.14028627;0.16562179;-0.00038266127;0.14032778;-0.2128995;0.11433749;-0.029296031;0.008628007;0.0289693;-0.11545669;-0.023460856;-0.34466365;0.16172256;0.0027855264;0.03688494;-0.26627997;-0.09237816;-0.010413343;-0.00904098;-0.10263762;0.3708067;-0.028024627;-0.019154595;0.023756562;-0.0071019325;0.2576391;0.08006033;0.02913474;0.054576486;-0.055461638;0.0603174;0.14021303;-0.015967019;0.004006938;-0.0136896875;-0.1435865;0.003542638;-0.02402745;0.001422769;0.013489591;-0.023805546;0.13978797;-0.089362025;-0.060976386;-0.001471025;0.003730346;-0.09322753;0.011641404;0.20377193;-0.06704884;-0.27710053;0.3665596;0.16837564;-0.02558269;0.30265412;-0.1344856;0.18634814;0.0057125483;0.0015176376;-0.16672757;0.05466398;-0.008455586;-0.1183369;0.11132146;0.18325575;-0.3401504;0.00572585;-0.25985947;-0.123813085;0.3092813;-0.0021400217;-0.045766678;-0.023325168;0.456626;0.09772045;-0.022259977;0.028381936;0.19329622;-0.02340273;0.12904014;-0.32029346;-0.23660354;-0.0006474446;0.014567376;-0.028984252;0.120186225;0.030891968;-0.021474995;0.010718932;-0.021738347;0.0012558041;-0.0028874082;-0.0023448844;-0.14565043;0.035955902;-0.30082422;-0.056703877;-0.025635228;0.08729265;0.009737686;0.27889788;0.006543329;-0.19307835;-0.060875222;-0.040101256;0.04352391;-0.07290368;-0.18608317;0.003743058;-0.0036550588;-0.05254665;-0.02015468;-0.033675767;0.01861864;0.3264696;-0.05308749;-0.17610365;-0.13103516;0.15410577;-0.032657806;-0.0009640156;-0.19723672;-0.13759346;-0.08018503;-0.36787507;0.2504101;0.2133574;-0.48974895;0.15785825;-0.006251554;-0.008426016;0.006558007;0.05692395;-0.17877273;0.008383542;0.03272922;0.4264389;-0.25915888;0.23720725;0.03922489;-0.024607435;-0.16354926;0.1737657;-0.008643134;-0.13456082;0.07030857;-0.054734033;7.075951e-05;0.2356924;-0.2300838;-0.021867778;0.0022434066;0.1096055;-0.2579222;-0.3575205;-0.00046086102;0.018497504;0.0024542587;-0.005333685;0.1023213;-0.092676;-0.24300879;-0.009316898;-0.015024272;0.005672302;0.2937633;-0.015870212;0.2187504;0.019397182;-0.3026608;-0.26181334;-0.21483211;0.0023029181;0.09310074;-0.08531907;0.052946124;0.105160974;0.033280816;0.123427846;0.13585962;-0.18284665;0.009536474;0.09816688;-0.026239073;0.05536775;-0.12446267;-0.053722136;0.23357086;0.022422234;-0.046621315;-0.18195294;0.18746066;0.1544847;-0.2703324;-0.07563994;-0.00095129147;-0.052855063;-0.05984026;-0.010338186;0.014691643;0.037258852;-0.32502228;-0.14335212;0.017267989;0.009797601;-0.011467362;-0.13548644;0.0076320684;-0.0004742988;0.011535103;0.24186496;-0.0037138425;0.059874047;-0.013256538;-0.0044024913;-0.044718873;-0.06418693;-0.17926486;-0.29098445;-0.15288422;-0.023375671;0.13206603;-0.010645043;-0.015139619;-0.19747534;0.16432418;0.011442666;-0.05013738;0.0079792235;0.17892124;0.022021879;-0.011016858;0.2113367;-0.054192647;0.03062749;-0.1369885;0.39148515;0.0011723881;0.21974584;0.0050385725;0.04096779;0.07523773;0.0011496191;0.12138275;0.11822719;-0.28490117;-0.21168673;0.064296685;-0.5442862;-0.074904665;-0.084584795;-0.016440632;-0.03552221;-0.0060996506;-0.016835896;-0.04722379;0.12416314;0.12961441;0.21754096;-0.0055762944;0.05017559;-0.26841927;0.014925364;0.014427815;-0.11842734;0.0149870245;-0.009406608;0.08043159;0.22294636;0.01606398;0.04088053;0.0032545282;-0.033455484;0.110997595;0.011286462;0.11258202;-0.02023657;0.3871609;-0.0050028414;0.15015368;0.022458382;0.37159595;-0.057685375;-0.010662771;0.0059706797;0.25310868;-0.12409558;0.20459014;0.019232994;0.032505006;-0.20037273;-0.1593161;-0.23527849;0.011781782;0.0008667417;0.016229136;-0.12311514;-0.09239303;0.052773643;-0.15090019;-0.027768929;0.089393616;-0.10811985;-0.093291774;0.04963197;0.3307983;0.010874201;-0.0022372797;0.036088664;0.001823004;0.14988783;-0.1715282;0.26753777;0.006714584;-0.039848715;-0.45183453;-0.0070081633;-0.22448713;-0.022648342;0.31120425;-0.01001512;0.15378356;-0.016145248;0.3905983;-0.22978355;-0.03921584;0.0037113354;0.01379506;-0.16856338;-0.14324343;-0.16267928;-0.19241749;0.2591511;-0.006069108;-0.15857829
-0.041092835;0.21287559;0.029037464;0.22784552;-0.009728928;-0.31766635;-0.31525525;-0.006420173;0.06510625;0.009835528;0.07241736;-0.06606073;-0.012223539;0.01637216;-0.33378106;-0.005001813;0.018655205;0.07189927;0.01570553;-0.099556714;-0.18482466;0.19909933;0.0082468735;0.46423733;0.00858556;0.322536;-0.0135335075;-0.021113846;-0.20362973;-0.009262376;0.16888885;-0.40732023;-0.12658218;-0.011145436;0.012032813;0.011306714;-0.01099516;-0.00860709;0.28502697;0.023718733;-0.19274123;0.008892873;0.23361692;-0.0077970847;0.024601484;0.20945796;-0.0035858382;-0.14740096;0.013146358;0.17228979;0.0075918464;0.063348144;-0.3313729;-0.11436105;0.11372574;-0.018813172;-0.0048838314;0.4471916;-0.01285119;0.0053794356;-0.009368662;-0.18799795;0.007971005;0.011577107;0.087388396;-0.15406525;0.013545337;0.1182084;-0.32268193;0.025148666;0.3000565;0.013085868;-0.21327947;-0.232726;-0.06111077;0.0013725817;0.22876967;-0.09594916;0.013408148;-0.21619712;-0.0121515365;-0.13226518;-0.016968032;-0.024934033;0.084037185;0.33890924;0.015300389;-0.07541918;0.019912127;-0.012411071;-0.30352944;-0.013286523;-0.27524295;-0.068602756;-0.05969709;0.05262594;-0.10136759;0.20252408;-0.25884038;0.091344744;0.23376083;-0.33783552;-0.009869411;-0.16895214;-0.2795208;-0.075842574;-0.13812774;-0.16918492;0.14256743;-0.27380264;0.009333651;0.21602605;0.020911315;0.061564997;0.13707505;-0.004915252;-0.017705215;0.016795682;0.13743706;-0.2452948;0.088155;-0.0388446;0.008174569;0.04064983;-0.017561533;-0.08122813;0.29302338;0.16709153;0.1638943;-0.10032943;0.1558166;0.02598791;0.34688026;-0.009445563;0.0038614494;-0.0046594897;0.12041983;0.029666813;0.031685606;0.08446175;-0.0084336875;-0.019016342;0.07392041;0.26244953;-0.03197537;-0.0036029157;0.34702617;-0.0009717316;-0.22163904;0.19396037;-0.03277454;-0.013988419;-0.1373476;-0.10276716;-0.12418178;0.40114635;-0.17825948;0.06559403;-0.021025112;-0.012659394;-0.3958561;0.46127564;0.20253071;0.013599467;0.0050804038;0.104415014;-0.010480255;0.17330995;-0.20599313;0.012472914;-0.16231962;-0.001676568;0.10814699;0.047626212;0.057363167;0.059192546;0.028543746;-0.13857779;-0.0084711;0.0024993762;-0.0114649655;0.010548038;-0.21298973;0.11529866;-0.015203369;-0.18984799;0.011009625;0.195633;0.19087227;-0.0271225;-0.2849642;0.01997381;0.034929696;-0.004814044;-0.20631492;0.32497904;0.01419312;-0.1335981;-0.38179004;-0.3267396;-0.087726496;0.11259691;0.04510295;-0.1496998;-0.025589457;0.092529744;-0.100130804;0.14387414;-0.055897832;-0.0131388595;-0.21743533;0.03198598;0.059538655;0.0115437005;0.030077808;-0.0074191494;0.16447636;-0.13967703;-0.15762477;0.037528988;0.01617045;-0.10035394;0.15339558;-0.015416813;-0.11438444;0.1729605;0.12513925;-0.118588775;0.21328552;-0.007892053;-0.39088243;0.07279318;0.22886746;-0.14437476;0.28043005;0.07132984;0.1805357;-0.0054830653;-0.12707095;-0.13806738;-0.08439683;0.1734919;0.029805128;-0.0028861663;0.42275167;-0.15138875;0.09084973;0.043433663;-0.006828446;-0.028553747;-0.0014000275;0.022483477;-0.33309165;0.14986822;0.01099529;0.18953238;-0.4044172;-0.1698458;0.018024059;-0.0057871314;0.24708116;0.3780492;0.017710596;-0.009560692;-0.023545973;0.1507736;0.15578566;0.05965157;0.08914216;0.036064744;-0.056553733;-0.0562937;0.015656589;-0.05243542;0.0011121724;0.00043716593;-0.05627413;-0.14035411;0.011627152;0.011603091;-0.008567856;-0.019316569;0.16283545;-0.29762304;-0.055447124;0.027011612;0.0028013769;-0.34115422;-0.019883083;0.107245006;0.093852974;-0.16642961;0.4697786;0.0079836445;0.01860519;0.088240474;0.01185923;0.074218825;0.009874726;-0.008760185;0.051834896;0.012221106;0.0035537558;-0.10834053;0.28861037;0.16998352;-0.32914162;0.051037986;0.050123245;-0.31164894;0.22933689;-0.018492054;-0.009642601;0.01707946;0.42613378;0.0795718;-0.20743369;0.17253757;0.10953124;0.003270938;0.22910523;-0.43381527;-0.11997142;-0.0014996873;-0.02579759;-0.2945269;0.06009066;-0.018108385;-0.063355476;0.0011855502;-0.00015528411;-0.0032984102;0.008070268;-0.009137184;0.025774369;-0.030622099;-0.2285787;-0.03964045;-0.0780478;-0.06197871;0.0007000391;0.28464448;0.023698272;-0.18505;0.10049444;0.26217073;-0.00077074976;-0.11560977;0.1328973;0.0010518326;-0.006752317;0.04382769;0.1874464;-0.15651742;-0.013102521;0.15086566;0.15670171;-0.03366908;-0.07077162;0.21914439;0.020313274;0.0034061347;-0.013650242;-0.12994869;-0.053746857;-0.33627605;0.43194225;0.17533521;-0.40662867;0.104277626;-0.0014549325;-0.007195683;-0.00096220186;0.23842111;-0.3549915;-0.0011936686;-0.002586861;0.16551186;-0.091706075;0.14316894;0.18203282;-0.18474786;-0.25832826;-0.08681165;0.017992439;-0.09151423;-0.1691311;-0.099134795;0.08042763;0.0996107;-0.25515854;0.010635126;-0.0028372977;-0.0715377;-0.1914591;-0.45008394;0.0088239685;-0.007384894;-0.010273227;0.002992078;0.27699676;-0.020127555;-0.17636639;-0.011086909;-0.14819525;0.006654173;0.060008086;-0.041742697;0.16838357;-0.013926896;-0.1857165;0.04584237;-0.29182225;-0.003494744;-0.077904165;-0.06690853;0.04930808;0.134684;-0.2923965;0.05395693;0.1842697;-0.29395255;-0.008625048;0.22503039;-0.028815297;0.10346448;-0.07990419;-0.15999107;0.2790998;0.007223824;0.062370617;-0.09733777;-0.17767033;0.13225505;-0.15677458;0.07122149;-0.009056496;0.009064788;-0.1075936;-0.0041728234;-0.00018754596;-0.071916945;-0.13748959;-0.20959483;-0.3470335;0.0011446815;0.0036402254;0.033628657;-0.010851523;0.0075596552;0.056537777;-0.11382694;0.0019816998;0.20889959;0.013527782;0.008678682;-0.12835088;-0.022184813;-0.20378043;-0.21387455;-0.22548394;-0.0007018038;-0.08818773;0.0152936885;-0.0032053236;-0.086539954;0.15377486;-0.0015016929;0.062272273;-0.029919833;0.08478678;0.015696794;-0.011141832;0.11195865;-0.366736;-0.12823747;-0.08164332;0.34862006;-0.0065753437;-0.070891246;-0.0024474843;-0.033774998;-0.034760244;-0.013769904;-0.020676063;0.08026969;-0.49111187;-0.14291659;-0.014917044;-0.22612143;-0.11011407;0.18783122;0.012694357;0.029135186;0.004468991;0.00968141;0.024937125;0.22598222;0.5248783;0.043492153;0.022832422;0.14959972;-0.24443391;0.048169356;-0.01698485;-0.10793604;-0.005797855;-0.003469263;-0.02452379;0.22479293;-0.022701703;-0.08232927;-0.0014209531;-0.0030434916;0.024106596;-0.0038872892;0.0065715485;0.07002468;0.37701792;0.0028539982;0.30536717;-0.0037027183;0.10479782;-0.05221266;0.0054105744;-0.02003888;0.32930255;-0.10513871;0.1596365;-0.0060408125;0.14410688;-0.15870935;-0.013294544;0.15679468;0.010427211;0.005460253;0.011828996;-0.17114277;-0.22861482;-0.028325656;0.12262713;0.024785794;0.15809157;-0.14139387;-0.09649625;-0.025375107;0.3063831;-0.012392108;0.0011448113;0.052086603;-0.00053598854;0.078130886;-0.010485181;0.10914013;-0.0016662106;-0.24250978;-0.36751354;0.065492794;0.041158825;-0.038405698;0.17742167;0.06605484;-0.030765422;0.018155085;0.3571534;-0.46123603;-0.19446972;0.016297324;0.0043054773;-0.07988299;-0.17292623;0.022028828;-0.28694695;-0.14056537;-0.010830446;0.21697652
-0.29875427;0.28943822;-0.008771868;0.2373464;0.011516709;-0.20642035;-0.12846248;-0.0064856526;-0.04707418;-0.0102772955;-0.11619172;-0.055325598;-0.0020529616;-0.012249902;-0.105179;-0.014953473;-0.0140137905;-0.19101286;0.18202098;-0.103206865;0.08274805;0.24539025;0.072433084;0.6574251;-0.020219535;0.22128479;0.0020991212;0.028523512;-0.4296362;-0.21776816;0.10952315;-0.16997577;-0.0172066;0.020117426;-0.006965589;-0.01185345;0.007765585;0.094151266;0.15982406;-0.013712639;-0.0041493746;0.046289127;0.09608892;-0.025873048;0.13432992;-0.019728579;-0.012777201;0.1115597;-0.0111405235;0.20357893;-0.0075649084;0.1424626;-0.22741465;-0.21627064;-0.09674568;0.026154432;-0.13136025;0.13345005;-0.042091373;-0.002682567;0.011577045;-0.37429887;0.010431061;-0.0025244777;0.04064957;-0.14513792;-0.0026316151;-0.0734845;0.084148474;-0.034325916;0.15431911;0.0100217415;-0.17128605;-0.19662514;-0.11680206;-0.003028103;0.01896857;-0.15723759;-0.014751659;-0.07575512;-0.010040574;-0.22205174;0.008639341;-0.20393214;0.1189194;0.2343336;0.012113082;0.041712057;-0.00048833794;0.0038789853;0.05499264;-0.0024608208;0.06653542;0.15208136;0.07745693;-0.04759762;0.09432454;0.25417;-0.2779415;0.08800748;-0.09720206;0.05173457;0.14841084;-0.14548181;0.14091717;0.076585196;-0.09978138;0.15400851;0.12847455;-0.1943303;-0.050611243;0.33804923;-0.014601933;-0.0037704327;0.040358227;-0.0017622873;0.008160964;0.061804652;-0.073538974;-0.26381162;-0.068981454;-0.1806053;0.031638537;-0.038442615;-0.039619956;0.034699168;-0.2118021;0.21296175;0.028063502;-0.07185231;0.09212074;0.030240547;0.3035193;0.0032482473;-0.041251723;0.015970882;0.23032095;-0.021334521;-0.115062416;-0.13927588;0.0027792368;0.14056599;-0.07423721;0.24811286;-0.009907871;0.006361936;0.15205525;0.0011230698;-0.18532553;0.025415894;0.020370146;-0.0306101;-0.087502986;-0.38020256;-0.10461955;0.37738326;-0.22771055;-0.07195817;0.0059685665;0.103106074;-0.2575179;0.24305137;0.060760412;-0.01010856;-0.003451006;0.27942258;0.006477768;0.21265908;-0.09599831;-0.09177518;-0.1577776;0.0072596506;-0.07101092;0.1890829;0.14336422;0.1678053;0.009182651;-0.36151445;0.085496604;0.0032433004;0.0051362063;-0.012828951;-0.3431483;0.22179268;0.010518913;-0.17621188;0.004656685;0.051850665;0.1865935;0.027518269;-0.09685372;0.08794137;-0.13198344;-0.0026215727;-0.31720543;0.16851667;0.0060917325;-0.13027163;-0.16984303;-0.17270228;-0.013263186;0.23368062;0.017546358;-0.18818721;0.055160485;-0.09489083;-0.3681629;0.25542212;-0.2842211;-0.3009795;-0.24384302;0.0032038505;0.045754794;-0.00896702;-0.023615817;0.0022854009;0.20341237;-0.09969899;-0.33012003;0.0019875206;-0.17125294;-0.19765003;-0.1494429;0.011157447;-0.02718512;0.1856191;-0.11716923;-0.1397024;0.050764985;0.007843783;-0.33182266;-0.006245603;-0.24602918;0.025404964;0.19209902;-0.11973671;0.24782947;-0.0019296602;-0.06749268;0.023954;-0.1669611;0.0006687999;-0.040793765;0.012213737;0.29681775;-0.0648079;0.17836271;0.016928768;0.0074171824;-7.495627e-05;-0.039605122;-0.0066088918;-0.043498695;-0.1141387;-0.0021696417;0.17488967;-0.4447714;-0.06723183;-0.015823131;0.0010757678;0.35014936;0.37639415;-0.012273024;0.015807183;0.0032555466;0.05774891;-0.2305225;0.174867;0.27537286;0.19942729;0.060106706;0.28298253;0.13969181;0.14152445;-0.0019346043;0.00012469156;-0.037881088;-0.050694797;-0.002841862;0.009454268;0.01827533;0.14753407;-0.06032561;-0.12460838;-0.08576134;0.013810949;-0.0040773703;-0.110205196;0.0046017272;0.0071436223;-0.0064258124;-0.046563;0.3482666;0.062437076;0.02755872;0.18921214;-0.03793273;0.38796765;0.006697901;0.014157669;0.18540905;0.014030856;-0.0020449155;-0.0029618726;-0.019783553;-0.023161775;-0.051460363;-0.012120343;-0.013588848;-0.08915142;0.1630768;0.025441384;0.027883058;-0.0025348503;0.45897678;0.11474233;-0.26331082;0.014137104;0.15850939;-0.014223318;0.50251013;-0.26806778;-0.14295763;0.008868998;0.014914501;0.07868661;-0.22026551;0.01583798;0.005246656;-0.023731207;0.000491553;0.011665797;0.013530978;-0.0076841116;-0.070336506;0.0145502705;-0.3923815;0.1234105;-0.10160566;-0.22851907;0.014594003;0.016249014;-0.03204919;-0.06489636;0.04027786;0.29726264;0.11084783;-0.010064679;0.02132929;0.0054292353;0.01028413;0.19340464;0.07796547;-0.020033393;0.008166712;0.1931497;0.31731087;-0.17170082;-0.22082818;0.2915587;-0.023116123;0.005954333;-0.09815381;-0.051582344;-0.089829326;-0.14223933;0.15072751;0.118675895;-0.29580614;-0.112106904;-0.00452273;-0.0033246325;0.007729493;0.17011148;-0.22751153;-0.005325195;-0.114904776;-0.04072409;0.021581935;0.14534381;-0.027694633;-0.25989714;-0.13320026;-0.04904139;-0.11693139;0.027053444;-0.19520886;0.023253033;0.09335724;0.052236687;-0.1468939;0.024809752;-0.0041570277;-0.07271995;-0.25350264;-0.39303;-0.008969008;0.0067797825;0.018298438;-0.023670148;-0.018880922;0.17717807;-0.23941351;0.0037192476;-0.031620882;-0.009415037;0.31479567;-0.16539633;-0.01789616;0.0031619384;-0.3042112;0.046918653;-0.3071167;-0.012701178;-0.07813304;-0.2266195;-0.08053834;0.34167895;-0.09215933;-0.01726796;0.4488535;-0.14397168;0.006410441;0.2383433;0.08473187;-0.070617236;-0.13008367;-0.1448046;-0.14587471;-0.010706987;-0.11349322;-0.19422336;-0.29119036;-0.1423595;-0.37949702;0.24891338;0.011232916;-0.0060230996;-0.13856229;-0.02202195;-0.014155836;-0.085823596;-0.11745863;-0.058300134;-0.073718354;-0.016745599;-0.008717322;-0.060886525;-0.010594655;-0.0074961977;0.08250928;-0.38871422;0.0057473704;0.034878567;-0.0050136363;-0.007665003;-0.0117499605;-0.0011280592;0.06311722;-0.21903224;-0.08171079;0.0066664894;0.20474608;-0.0019508884;0.017494144;0.080326244;0.067851186;0.017494185;0.115453325;0.1046363;0.009696717;-0.029472584;0.016264033;0.1746362;-0.25845656;-0.07344391;-0.1890397;-0.05436533;0.0026878507;-0.21455461;0.005857267;-0.038034722;0.02550594;0.020716645;-0.0724687;0.24612972;-0.42628503;-0.01980823;0.009734328;0.018022347;-0.1675746;0.23252794;-0.004938717;-0.029226184;0.005789932;-0.0016602894;0.0046275645;0.3454597;0.5042253;-0.020585852;-0.015623536;0.15884507;-0.050889257;0.39847904;0.00976297;-0.11216556;-0.013282177;0.015299572;0.0014574821;-0.07462001;0.23826148;0.16944948;-0.021307793;0.0072111804;0.024611628;0.01022119;0.09939686;-0.010084593;0.28368184;0.0051968857;0.21438964;-0.011497957;0.1430106;-0.09148199;-0.012512273;0.009298916;0.40690443;-0.09852531;0.1785299;-0.023729045;-0.055244062;0.013337652;0.17947091;0.06650024;0.05576251;-0.009635497;-0.014317851;-0.16965759;-0.24876806;0.3308553;0.073636346;-0.020499587;-0.03407592;-0.21118447;0.009890645;-0.047323745;0.20635322;-0.13513857;-0.012477241;-0.018593663;0.0018116616;-0.11482173;0.03822476;0.13244691;-0.0059118294;-0.4571277;-0.017512156;-0.0052531636;-0.025929937;-0.20274597;0.010105318;0.050738707;-0.08182559;-0.012353744;0.14455484;-0.39677715;-0.17713886;-0.0068070074;-0.014951573;-0.09557893;0.03318563;0.19856481;-0.23950574;-0.046424493;0.023360908;0.22186208
-0.24275786;0.21605527;-0.014627441;0.32811663;0.010144576;-0.12541924;0.19043894;0.008825907;-0.18481052;0.019223737;-0.3521955;0.1949448;0.0044998648;0.007266823;0.15454696;-0.012078758;0.007910013;-0.1250655;0.12405201;0.038851235;0.06435123;0.16488259;0.09450758;0.55410373;-0.00035416163;0.13154894;-0.0017738293;0.003967531;-0.44466266;-0.5044896;0.26035354;-0.09454948;0.058728654;-0.020565739;-0.011085629;0.010341963;-0.0131713655;0.07019276;0.029100776;-0.08832533;0.15819159;0.025190149;0.254988;-0.44514054;-0.053594586;-0.047679916;0.022689892;0.036895365;-0.0051943166;-0.031010045;0.008150051;0.21676083;-0.3346015;-0.28278935;-0.07341808;-0.010843801;0.15246283;0.061073326;0.0069601303;-0.0037880742;0.00015125936;-0.32673958;0.0024779993;-0.00051950954;0.12307428;-0.0696052;0.016301148;-0.041861963;0.38507485;0.033866566;0.22554862;-0.01928088;-0.21138006;-0.1930271;0.030691354;-0.00029960088;-0.13722643;-0.24699898;0.0045848233;-0.09025781;0.006604236;-0.27493182;-0.02018296;-0.06959536;0.29038158;-0.06547299;-0.0007013127;0.06691297;-0.004612312;-0.011727791;-0.37888914;3.4018658e-06;0.111982405;0.19304377;0.06418395;0.21739541;-0.07652922;0.30426347;-0.044861663;0.18021658;-0.17616917;0.13383463;0.1331508;-0.26701787;0.17595707;0.09514666;-0.043291837;0.12645857;0.36637604;0.06412468;0.018381702;-0.012314629;0.006779344;-0.25980914;-0.24385363;-0.012426847;-0.012868331;-0.08808901;-0.17569809;-0.050845765;0.02285104;-0.022529708;0.019703308;-0.25123852;-0.01959701;-0.049823746;0.119032204;0.1330597;0.29419094;0.047526512;0.012519404;-0.019135663;0.314109;-0.012382728;0.09746089;-0.0060440544;0.16910316;0.015190048;-0.21766083;-0.27242187;0.0021352684;0.16527249;-0.0704186;-0.08771812;0.10074571;-0.01818899;-0.20818232;-0.00042813137;-0.016883831;0.10560384;-0.0065329024;-0.0721029;0.08079008;-0.09607392;-0.3538309;0.15844172;-0.22152397;0.0029857561;0.0022339388;0.12508021;-0.11601459;0.031023497;0.0020509618;-0.0075692097;0.030422255;0.058616474;0.015334144;0.14579655;-0.037387967;0.2268963;-0.31715474;0.0021717863;-0.3527264;-0.08363758;0.081859626;0.30432522;0.0048390822;-0.06933598;-0.13285446;-0.019118262;-0.011603744;0.0060626464;-0.3281849;0.08685845;-0.0023650886;-0.19560756;-0.006562364;0.26667377;0.28549328;-0.012591271;0.042756125;0.12522173;-0.3700758;0.012132629;-0.2853534;0.20222661;0.1854753;-0.19331595;-0.31048033;-0.14421001;-0.050184626;0.27143517;-0.103823304;-0.30150363;0.17996055;-0.1492251;-0.22012539;0.13033277;-0.17524137;-0.2814291;-0.01966132;-0.2588845;-0.13049844;0.014219986;-0.011804841;0.0042070816;0.12815242;-0.20215;-0.3955449;0.053739548;-0.15031716;-0.08075376;-0.02910353;-0.0013666358;0.15473023;0.34663817;0.049105138;-0.09476887;-0.21074533;-0.018824603;-0.24302512;0.1333036;-0.4824358;0.04196536;0.16238391;-0.1030339;0.40751904;0.004723894;0.19457242;0.09427643;-0.03688256;0.1263745;0.008932926;-0.003425855;0.59655225;0.3391748;-0.14721115;0.21322384;-0.009672224;0.0017223958;-0.032372806;-0.013102593;0.18088731;-0.25078937;0.009519529;0.39636767;-0.087963216;-0.05362786;-0.014171023;0.013699973;0.25834793;0.42313898;-0.0068351957;-0.00038000027;0.0019039344;0.013031754;-0.056927595;0.15937135;0.31437346;0.2876952;-0.0749358;0.304468;0.04349397;0.21905115;0.013656955;-0.00037518056;-0.056678902;-0.0624147;-0.017225998;-0.0027507606;-0.024815647;0.16186666;-0.13125338;-0.25166282;-0.025277803;0.10973249;-0.0059201764;0.163658;-0.003990709;-0.0886813;0.09261402;0.30794796;0.0143391825;0.2674566;-0.0077379365;0.121133566;0.05403494;0.31133616;-0.006614344;-0.008094208;-0.1005755;-0.008072143;-0.01897677;-0.038678356;-0.1994235;-0.060565382;0.32373264;-0.037414305;0.077674195;0.24709053;-0.06911078;0.00031512443;0.19761495;0.009328071;-0.07633385;-0.2175514;-0.20488523;-0.056648366;0.034774188;0.014554226;0.14271687;-0.13418266;-0.22122504;-0.0063642203;0.012807788;0.053006724;-0.3331759;0.001747315;0.18235095;0.02197292;0.013272161;-0.012243674;-0.017384771;0.025464255;0.08924806;-0.0030652941;-0.17063703;-0.005858859;-0.11501363;-0.42607486;-0.014152213;0.055265505;0.020318752;-0.2893463;-0.022983236;0.09031442;0.1378904;-0.04337905;-0.036712643;-0.008378024;0.024799038;0.16900466;0.1499384;-0.050949313;-0.012324145;0.19535795;0.27604023;-0.11714107;-0.32650384;0.27726626;-0.03141724;-0.0061651105;0.14313959;0.030022096;0.05732544;-0.037936877;-0.16114523;-0.12924103;-0.42340875;-0.1385187;0.0008644641;0.016639901;-0.014970962;-0.00067525764;-0.08856407;0.0018430321;-0.11271304;-0.21473092;-0.13649908;0.17265722;0.029803477;-0.0021498108;0.22588015;-0.30648023;0.14237306;0.05625843;-0.10169943;-0.012858159;0.3589302;0.2622353;-0.15708023;-0.0025458233;-0.0008025117;-0.013474644;-0.13213146;0.04855011;0.005574463;-0.0117600225;-0.006946239;0.01723185;0.045777302;-0.097077355;-0.24441977;-0.03164837;-0.23036501;-0.0011393108;0.33344436;-0.20651583;-0.17977412;0.0026095142;-0.43088973;-0.13319038;-0.0041993856;0.016736167;0.088837095;-0.21309385;-0.12655939;0.08704613;-0.10854836;0.16747457;0.120603055;0.17724396;-0.0054726796;0.18880644;-0.17036793;0.039815295;-0.29437944;-0.353702;-0.048189163;0.029237345;0.018382419;-0.0054778536;-0.045698;-0.15582296;-0.321485;0.13183333;0.0038132279;-0.025831264;0.031991895;0.019262306;-0.009587732;-0.26920515;-0.25954044;-0.08325034;0.031848323;0.008625192;0.0049793352;-0.11866385;0.011398414;-0.0031511397;-0.16152905;-0.46330795;-0.0064655947;-0.11465041;0.0053767944;0.013115814;-0.08372617;-0.030819498;-0.094358675;-0.23919131;-0.085113265;0.007155606;0.0729227;-0.004696329;-0.02187161;0.3401349;0.07406911;-0.016951013;-0.052580245;-0.026429126;0.023153568;0.012224742;-0.015469265;0.24516128;-0.20793189;-0.036296096;0.06949115;-0.30480194;0.002678571;-0.16298237;-0.017115254;0.024774203;-0.063984;-0.01908095;0.06041765;0.3120083;-0.21547273;-0.08009126;0.08706046;0.095283926;-0.070334055;0.23546451;0.002974416;-0.14751467;-0.018774766;-0.0035326662;-0.06930411;0.08293519;0.27867755;-0.17971937;0.023278346;0.03809406;-0.038513735;-0.018533718;-0.01060861;-0.15328212;0.012028355;-0.012598453;0.03552517;0.04715029;0.12601596;-0.38070112;0.00532274;0.013693082;0.35418916;-0.004571563;0.09207938;0.17353378;0.13512407;0.008046403;0.05192284;0.0050811316;0.070283525;-0.23924285;-0.0076816785;-0.012516326;0.041022785;-0.25229824;-0.018759655;0.03995154;-0.08952012;-0.12556726;0.16621837;0.05471796;-0.029937008;0.005360672;0.00025669066;-0.22772181;-0.2305722;0.16721511;0.1477095;0.008919617;-0.21167502;-0.2532059;0.049968768;0.15230496;0.2619718;0.14051943;0.01238547;-0.047085945;-0.0031531807;-0.12343849;-0.222872;0.2295031;-0.0014780074;-0.2705376;0.044623565;-0.27489454;0.20073655;-0.17403992;-0.14531396;-0.060858972;0.03594164;-0.0035023924;0.009920319;-0.5390144;-0.1351146;0.0036286816;0.015679307;-0.27012655;0.0057467646;0.005898953;-0.008935806;0.06157926;0.0010921533;0.0028495463
-0.22833322;-0.052783802;0.022822317;0.1830014;-0.0073711583;-0.14619073;0.061899945;-0.016643155;-0.28869048;0.0046576774;-0.4697115;0.4348404;-0.00042811118;0.004261773;0.15865058;0.012967608;-0.00731726;-0.12149742;-0.10254089;0.054553054;-0.03888889;0.19814302;0.030653877;0.71733034;0.020366441;0.32121286;-0.00047278567;-0.10773997;-0.12231474;-0.16436443;0.2616931;-0.24195714;0.0688632;0.032549374;0.0058852294;0.013256636;-0.0062042573;0.12426112;-0.04980366;0.03129257;0.20041972;-0.018259425;-0.01119083;-0.6104629;-0.10089989;-0.08289087;-0.0055643977;-0.063011035;0.001293333;0.089053765;-0.013302681;0.19227982;-0.30981594;-0.2512303;0.09629195;0.015656339;-0.0024563202;-0.033375718;0.011216927;0.013105152;-0.0030700678;-0.29316375;-0.00014912177;0.0068150028;0.12904763;0.0110956505;-0.017928401;0.014711979;0.08595839;0.006458056;0.1377265;0.02399743;-0.08185771;-0.056833547;0.16938263;0.011187882;-0.21551162;-0.27395663;0.0055219913;-0.15005004;0.0036028605;-0.27633852;0.009658213;0.044019092;0.33207783;-0.26407933;-0.0058883233;0.15160552;0.028157044;0.00456866;-0.37271535;0.0138191525;0.4620593;0.12729476;0.39458373;0.07216679;0.20261252;0.107187085;-0.056967277;0.13375393;-0.009549318;-0.06879074;0.43768132;-0.29661205;0.2057779;0.1205796;0.00029738434;0.118905246;0.3555531;0.23241694;-0.1029771;-0.14148553;-0.0014238434;-0.12717469;0.10543863;-5.290677e-05;-0.0019829278;-0.30038536;-0.25152078;0.0013649345;0.0032188164;0.103154264;0.026337445;-0.12462348;-0.18457536;-0.15059283;0.05148863;-0.15315016;0.34051612;0.047023274;-0.001355783;0.036391642;0.19087876;0.013863353;0.10346782;0.010114459;0.13915715;0.01939238;-0.35929275;-0.45983222;-0.023009857;0.15649813;-0.101693586;0.036756534;-0.1257259;0.0050685033;-0.23071003;0.0024907019;0.1362848;0.23160389;0.020509649;-0.28291237;0.033303548;-0.31555903;-0.17645106;0.112644255;-0.16923943;-0.05485826;0.007247458;0.18632984;0.21876648;0.0078055575;-0.042377926;0.007953911;0.00928034;-0.26023743;-0.01377975;0.224527;0.08926892;0.21342885;-0.007063703;-0.008272023;-0.31812674;0.19542286;-0.0079959985;0.12064174;0.021570707;-0.16427493;-0.02986537;0.012123691;0.0024667527;0.00075069687;-0.14680396;0.14708604;-0.003061538;-0.18241192;-0.0021772787;0.15769951;0.12579904;0.0138865905;-0.11029129;0.0036072475;-0.075908;0.0043507298;-0.040378872;0.19055195;0.18311018;-0.1103206;0.049858723;0.022381697;0.06815756;0.2669854;-0.005932223;-0.2638091;0.5114935;-0.069035865;-0.029851003;0.123378284;-0.15077586;-0.28908503;-0.088201106;-0.18808408;-0.32178518;-0.023294969;0.026676705;0.0039605345;0.30228958;-0.14777441;-0.30004737;0.121353425;-0.03901439;-0.003458007;-0.079503484;-0.009115495;0.22329427;0.39160576;0.051994577;-0.06730809;-0.12176536;0.005176793;-0.16174781;0.045317587;-0.3983724;-0.1114827;0.090129785;0.07329563;0.26525038;-0.01230993;0.27817512;0.14298537;-0.0045684865;-0.10693567;0.06961982;-0.00023182746;0.34010032;0.084287494;-0.12886126;0.037822533;-0.00018936404;-0.017764827;0.058628153;0.014051827;0.2803617;-0.16252047;-0.01796095;0.24214812;-0.2681664;-0.061635867;-0.011185956;0.001983344;0.26727322;0.48742273;0.0232899;-0.007568857;-0.0038593272;-0.10276044;-0.10808642;0.30369043;0.11392878;0.30843422;-0.07748106;0.27923045;0.34148934;0.22476515;-0.009404495;-0.0040113865;0.04283938;-0.0014656712;0.029401766;0.01151894;0.017782591;0.40201053;-0.028980497;-0.21964374;-0.10206936;-0.050147183;0.0006646299;0.4107227;0.018459635;-0.1278998;0.10233346;0.1841134;0.24766988;0.2857818;0.055946674;0.39745754;0.28965965;0.06687735;0.00059489865;0.006032059;-0.18038665;0.001097239;0.02704886;-0.14567958;-0.17779326;-0.06629979;0.20109656;0.044108856;-0.28992978;0.15539153;-0.16205774;0.0003822269;0.22236657;-0.016206432;-0.33269072;0.07971846;0.14952712;-0.0014545027;-0.09211655;-0.012468623;0.009268646;-0.13607852;-0.056333862;0.00574947;-0.009523405;-0.012377059;-0.22504999;-0.01718287;0.20944151;-0.02341517;-0.02497394;0.014086254;0.00944674;-0.019062063;-0.11927325;0.021197636;-0.24847618;-0.21566118;0.015748443;-0.3605871;0.014842983;0.030616403;-0.007956527;-0.025968285;0.055803224;0.072410576;0.060722057;-0.050018683;-0.23359472;0.0063518793;-0.014139967;-0.08843076;-0.008967121;0.13404152;0.0002491725;-0.06281271;0.2734619;-0.0978408;-0.34378302;0.25988364;0.027583424;-0.012920431;0.069452226;-0.00056859397;0.0051576723;-0.107804194;-0.24465248;-0.061742686;-0.5173478;-0.006455357;0.0048136315;-0.0032086316;-0.0027687852;0.19005802;-0.077400886;-0.01842185;0.028813556;-0.08170527;-0.29937312;0.16561182;0.06034859;0.2072769;0.24504124;-0.09715488;0.09880653;-0.09483715;-0.15814732;0.047800086;0.29811096;0.103755996;-0.016113052;-0.010293962;0.0048937155;0.13354799;-0.063907124;0.12547338;-0.0048913932;-0.0026826854;-0.0006143624;-0.008558886;0.053206433;-0.19037779;-0.28807998;0.03901615;-0.30451563;-0.010627694;0.13719775;-0.29253757;-0.031125786;-0.009638396;-0.32214555;-0.13259381;0.03707504;-0.0074239536;-0.102204375;-0.042553056;-0.17128429;0.08111703;-0.19539721;0.18074265;0.0509408;0.23080929;-0.004476967;0.029835198;-0.41025037;0.045378063;-0.22107476;-0.08369539;0.054785218;0.0133368205;-0.044395063;0.22187977;0.28740636;0.1771337;-0.24217732;-0.028771244;-0.005245174;0.0007595647;0.11401644;0.0043923217;0.017962014;-0.4724179;-0.28746152;-0.27321574;-0.008331705;-0.0053773485;-0.0028171863;-0.11988607;0.029801961;0.015823463;-0.25764734;-0.3515201;-0.00061042106;-0.023233064;0.00084933586;-0.017997688;-0.2539935;-0.148992;-0.22116435;-0.0064693866;-0.25577545;-0.008581331;0.19387591;0.009525838;0.04032695;0.20059955;0.15454619;0.006762087;-0.046783727;-0.05116619;-0.15158418;0.046033144;0.022099901;0.114303134;-0.2610436;-0.37911433;0.082026795;-0.10463847;0.007441189;-0.5994042;0.014691308;0.061093424;0.04139388;0.01694072;0.04745039;0.23650758;-0.17704894;-0.25411305;0.13299872;0.19883032;0.0036710354;0.3079629;0.0063237087;-0.18525116;0.031316817;0.0073474785;0.06670778;-0.000791675;0.055877596;-0.0951654;-0.008245932;0.3172703;-0.2354018;-0.076593146;0.0065901508;-0.152602;-0.012225949;0.027517837;-0.039445676;0.0697865;0.11328932;-0.17682038;0.010779118;-0.024513321;0.1133994;-0.0024434747;0.18270299;-0.036639336;0.06439375;-0.017580858;-0.081394225;0.00707439;-0.10553801;-0.09670518;0.0042918194;0.01211338;-0.16113734;-0.19606988;-0.018572329;-0.026673518;-0.0010451394;-0.08449479;0.038622778;0.33213615;0.027844409;0.006166752;0.009903707;-0.34595206;-0.18139242;0.112471275;0.18847014;0.00093157205;-0.18188494;-0.29403508;-0.0010833817;0.14372826;0.31679896;0.10897231;-0.030315023;-0.06272173;0.013929682;-0.10919184;-0.03016122;0.23836896;-0.008832575;-0.20551631;0.2575419;-0.36816722;0.33718246;-0.01189644;-0.2021183;0.08185137;0.006119654;-0.0071625174;0.056348667;-0.56663275;0.19041088;0.0007057554;-0.030098433;-0.09549604;-0.11374352;-0.100397885;0.04763498;-0.14829558;-0.001795668;-0.008244723
-0.35897365;0.11189996;-0.0021858143;0.3306725;-0.01208009;0.07695563;0.40403584;0.030422108;-0.3748798;-0.0022838577;-0.5091131;0.10016359;-0.010957244;-0.022142213;-0.07156069;-0.017655825;0.005083028;-0.19299361;-0.15783346;-0.16389614;0.03437606;0.14668384;0.077899255;0.4148501;-0.00089607696;0.25687566;0.0012109261;-0.16901451;-0.39261812;-0.21004674;-0.14230579;-0.4293257;0.11251945;-0.011656013;-0.002204269;-0.025719037;0.00936494;0.11307122;-0.20398465;-0.009570453;0.37792608;0.02796452;-0.1276568;-0.6664626;-0.00093890505;0.091725096;0.004517564;0.00047651178;0.010131547;0.101453915;-0.004348032;0.1261032;-0.037361823;-0.19689314;0.16714264;-0.010040829;-0.15269625;0.0012272486;-0.028799612;0.0021356854;-0.012140083;-0.25872642;-0.00781264;0.0005658777;0.15609378;0.20555945;0.021978594;0.032556288;0.08687948;0.0045099915;-0.047761247;-0.0049203285;-0.088139385;-0.28836042;-0.07564228;-0.007784768;-0.1984127;-0.2215722;-0.014603555;-0.2609374;-0.0018615976;-0.48586354;0.008215788;-0.042923145;0.19946419;-0.19702898;-0.0050916504;0.19912806;-0.018638266;-0.004527966;-0.17934395;-0.019106712;-0.06589195;0.12617089;0.20366745;-0.040434312;0.19671741;-0.11841793;-0.29893628;0.14069256;0.034406208;-0.15737705;0.24804425;0.059422247;0.3081825;0.14578085;0.044291236;-0.09810583;0.11020867;-0.018969463;-0.1492146;-0.29573932;-0.0074482663;-0.06369379;0.06871606;0.0034676518;0.0063818824;-0.17692226;-0.031857908;-0.08082808;-0.13035421;0.14923662;-0.11243151;-0.10221586;-0.19553022;-0.23907255;-0.043182038;-0.07017795;0.17635584;0.16803281;-0.08621697;-0.035992153;0.11800127;0.0012118061;0.079139546;-0.005829259;0.07473081;-0.0288008;-0.51076055;-0.11653971;0.0053968127;0.16125126;0.07968248;0.119926654;-0.21284087;0.0056402553;-0.14396939;-0.015255072;0.18362008;0.36030853;0.009592509;-0.2140097;-0.055176094;-0.38777995;-0.38449797;-0.032948602;-0.19012706;-0.065198;-0.012071152;0.2061327;0.0098288255;0.124013804;0.16336732;0.0032614146;-0.019478513;-0.20998026;0.00061651797;-0.030052802;-0.015339509;-0.06028001;0.06242224;0.021270959;0.060467165;0.17349784;0.13460211;-0.08074284;0.0025069925;-0.2590611;0.24205446;-0.014352818;0.00078119;-0.0009291085;0.3477635;-0.038211852;-0.0050730594;-0.005145916;0.0025407302;-0.05362738;-0.058327265;-0.018132517;-0.14340466;0.012715498;-0.13199271;0.00453037;0.09790073;0.15344179;0.2963525;-0.14824809;-0.1464176;-0.009693378;0.10423989;0.09801424;-0.098747924;-0.30777723;0.05892752;0.034350287;0.24768345;-0.1248599;-0.28835624;0.016955866;-0.29101536;-0.30206448;-0.2638826;0.012475103;-0.015004283;-0.0042229625;0.3761198;-0.16837591;-0.58794796;0.041838694;-0.071941525;0.15263875;0.0015354175;0.010226279;-0.103421874;0.2258957;-0.14476046;-0.036302887;0.052989375;0.015628079;-0.17205687;-0.035856415;-0.28989917;-0.23053813;0.08009254;0.08012347;0.20477143;-0.005065723;0.18590634;0.13397662;-0.013270035;-0.06518626;0.15020414;-0.004543277;0.3199215;0.13324657;-0.28232244;-0.13795939;-0.002978064;-0.024894675;0.06825488;-0.017017074;0.32200232;0.10899953;0.0115354005;0.07553717;-0.4057737;-0.027930114;0.025837775;0.009855113;0.14447886;0.28725305;-0.01963212;0.0043130773;0.0016729326;-0.075771414;-0.038381193;0.3294778;0.110719286;0.20772411;-0.14325126;0.10765573;0.3773804;0.386512;-0.00689646;0.0076413103;-0.17082438;-0.039192483;-0.021740632;-0.03434599;0.0149549255;-0.008935895;0.013511399;-0.3854579;-0.17467962;0.2776866;0.0002728784;-0.015776433;-0.01060136;-0.18713677;-0.05962877;0.13684198;0.26591286;0.16051148;-0.26816568;0.20093553;0.13462964;0.2932935;-0.018343853;-0.0035279486;-0.324009;0.0033718904;-0.0019851055;-0.049702223;-0.2684041;-0.10592874;0.0801197;-0.03304754;-0.23934096;0.18123339;-0.18507414;-0.0026395796;0.10531605;0.014312111;-0.18338595;0.25531447;0.17520896;-0.17847742;-0.17964984;0.015989201;-0.34919143;-0.16432236;0.29495612;-0.00903692;0.0037288459;0.10176995;-0.3451265;0.009611203;0.08385868;0.035238385;0.01153103;-0.005747809;-0.0073128743;0.0035764582;-0.07100322;-0.028589416;-0.1024881;-0.41052467;-0.089892425;-0.06276017;-0.026351629;0.1735215;-0.013101758;-0.019446474;-0.14879346;0.14321579;-0.059103973;0.032241564;-0.0318893;-0.006238088;0.0035922355;0.25807482;-0.029882213;0.00757547;0.007176483;-0.05990514;0.23647322;-0.126257;-0.43052733;0.31907347;-0.038389314;0.011409061;0.047013026;0.007158995;-0.057683032;-0.028309343;-0.116296075;-0.18990886;-0.5471112;-0.023917628;0.00866608;-0.0072721834;-0.0016330861;0.203313;0.090624794;0.019507099;0.015330247;0.0994717;-0.26055518;0.1531458;-0.10284744;0.20211919;0.42770913;-0.042353403;-0.083721384;-0.04479098;-0.3592749;0.06185986;0.21841623;0.07907788;-0.012388423;0.004325919;-0.013770024;0.26623625;-0.001310386;0.055300146;-0.00080267346;0.0009960388;-0.00072581216;0.0018524653;-0.082323;-0.068273306;0.013221051;-0.019700076;0.004520776;0.002622026;-0.03194268;-0.19448318;-0.13523833;0.012122595;-0.026109274;-0.061239753;0.053328108;0.009736018;-0.26045647;-0.2074328;-0.059328604;0.038304806;-0.29624078;-0.066834345;0.18321659;0.21100613;0.01590967;-0.094476014;-0.17093468;-0.016698446;0.006451535;0.19407494;-0.086692095;0.029958332;0.104964696;0.20717119;0.037945945;0.21968731;-0.1852162;-0.35036644;-0.010913004;-0.037171345;0.02705243;-0.0013234979;0.0020644893;-0.08282999;-0.20692419;-0.276658;-0.09276948;0.0053494982;-0.011097369;-0.023625053;-0.016247535;-0.0145342555;-0.07336139;-0.4433543;-0.012406464;-0.11309198;0.00039295378;-0.0064029987;-0.15170468;0.09653217;-0.50286055;0.05750886;-0.012736005;-0.0021220325;0.46532834;0.008045518;-0.033274923;0.1420689;0.09269297;-0.016893057;-0.057254612;-0.037915133;-0.2823774;0.10793385;-0.004888354;0.036426663;-0.08574863;-0.19367477;-0.083868675;0.12772122;0.008186764;-0.45895368;0.0060043116;-0.04221966;-0.025088072;-0.021049758;-0.041033447;0.2775607;-0.21311139;-0.14018157;-0.07092232;0.13347858;0.3224105;0.2651741;-0.006401871;-0.15234604;-0.03656699;0.008588246;0.16775642;0.0057158647;0.00303676;-0.08564414;0.004724691;0.23427835;-0.15324612;-0.017650018;0.0060297595;-0.42366245;-0.0046496335;-0.024582008;-0.014398336;0.2048923;0.008147866;-0.1865771;-0.00017682045;0.01855964;-0.12208353;-0.0045225755;0.19455352;-0.09020756;-0.33666036;0.016822051;0.20273875;0.0033469142;0.0052328263;-0.14280227;-0.0032337303;0.0023894713;0.064671814;-0.29345408;-0.070773914;-0.011166906;0.048757575;0.2682613;0.07713308;0.10316071;-0.022939326;-0.0135963755;-0.016131965;-0.05882796;-0.041640032;-0.0738673;0.25119856;-0.012161935;-0.106747285;-0.3128291;0.028118389;0.28268927;0.08273105;0.09192564;0.019550275;-0.11568311;-0.00745286;-0.087819666;-0.10706055;0.141266;0.0071410188;0.07740484;0.2766926;-0.3318869;0.27415904;0.06698684;0.017669598;-0.105940156;-0.013127343;-0.0019384291;0.055119704;-0.32882568;0.3484346;-0.017573036;0.019468604;-0.18421489;-0.019519093;-0.10001429;-0.16604546;0.1678578;-0.0066433907;-0.14472264
-0.4825265;0.16423064;-0.018841239;0.114991024;0.009569927;-0.13230832;0.15991485;-0.019164514;-0.32451895;-0.016165918;-0.19352573;-0.10867822;-0.0023535602;0.0103981225;-0.31825534;0.012241347;0.002489865;0.04760599;0.04372478;-0.13542297;0.081826225;0.113559335;0.0438186;0.13186085;-0.020183265;0.011634799;0.0060908734;-0.12563051;-0.28781483;-0.0033856134;-0.058751855;0.009950312;-0.08853358;-0.0066508637;-0.0041405633;0.017037332;0.0018087064;0.21469584;-0.034920968;0.19374438;0.20014426;-0.018796084;-0.038898036;-0.44010192;0.040634263;0.2127902;-0.023104994;0.04173185;-0.00062656956;-0.14195815;0.011993914;0.12481959;0.15674691;-0.14803088;0.008994979;-0.0118088005;-0.036426645;0.06485737;-0.00073632086;-0.0015084655;0.0024802699;-0.14171776;0.01683474;-0.01567166;0.14822757;0.108801425;-0.027126515;-0.002847411;-0.32858145;0.00054019265;-0.021642996;0.0030521317;0.1793277;-0.45412892;-0.29099083;-0.004287392;-0.0016178066;-0.4315134;0.012463958;-0.01126793;0.0063782823;-0.40617743;-0.004932318;0.11648515;0.16253048;-0.14517996;-0.0050899186;0.39713776;-0.017638909;0.008301838;-0.001701464;0.021868685;-0.2552567;-0.059787855;0.103012554;-0.23908733;0.26892883;-0.058427196;-0.34920326;0.17093983;-0.09860143;0.08869145;0.25748894;0.015862703;0.21063899;-0.014092991;0.116335;-0.11886683;0.21821298;0.059458364;-0.124682985;-0.11772468;0.01080684;0.015602789;0.19190983;0.0012828003;0.009999858;-0.24227314;0.053004697;-0.16455983;-0.20054993;-0.04843495;-0.04192298;-0.21799026;-0.3702994;-0.08851089;-0.036131557;0.18885851;0.26862714;0.2383406;-0.22666842;-0.06996667;-0.17349724;0.002303613;0.13882533;0.017420415;-0.16587754;0.015164855;-0.273012;0.07456474;0.019764824;0.04285634;0.34091878;0.27931908;-0.34989494;-0.006350509;0.107735775;0.001988987;0.10780031;0.41094935;-0.014827486;-0.12720387;-0.029372524;-0.14889552;-0.5203106;-0.0029167177;-0.06364324;-0.12942679;0.015734792;0.07267564;-0.031082634;-0.024451187;0.1611526;-0.006312017;0.016638294;-0.255545;0.011554089;-0.013513092;0.14964643;-0.20777866;0.029998874;-0.009518134;0.25509933;-0.23069498;0.0397868;-0.046884116;-0.001871741;-0.43310788;0.15599264;0.011089022;0.0040552546;-0.02202712;0.18293591;0.03875988;-0.01680072;0.06182922;-0.009122398;0.13346066;-0.23227191;0.017093694;0.015264469;0.053039394;0.04190774;-0.0010784196;0.016672112;0.19038911;0.30240571;-0.08950093;-0.12937663;-0.15920131;0.07864205;0.1415305;-0.21611461;-0.5290683;-0.06731211;-0.045856494;-0.112661235;-0.08321087;-0.1794584;-0.3045269;-0.18582976;-0.08529025;0.08173096;-0.017298229;-0.032950442;0.008693141;0.2966067;0.02933294;-0.3747827;-0.04327355;0.111300044;-0.03223969;0.07699661;0.0071235932;-0.057208147;0.037523538;-0.09119907;-0.09278694;0.009203299;0.0009151864;-0.084747374;-0.2770957;-0.22574161;-0.27467075;0.040924992;-0.34333116;0.03934803;0.013921017;0.23614469;0.13123968;0.05921821;-0.028278751;0.20425615;0.0020972781;0.236809;-0.0339356;-0.21511824;-0.09416562;0.0049165287;0.019202435;-0.10845078;-0.01139304;-0.09299525;-0.1357065;-0.00957049;-0.063205205;-0.5031837;-0.10809181;-0.030361874;0.0005525818;-0.0610701;0.24741837;0.022542138;0.006356304;-0.0044850884;-0.11587241;0.012425523;-0.13567345;0.042390674;-0.10853295;-0.08211326;0.3900409;0.2656693;0.46324798;0.026729262;-0.008668524;-0.0019244549;-0.13075042;0.015468567;0.0002741237;0.0020378532;-0.09601569;0.11287375;-0.2170707;-0.0883388;0.13275065;-0.0019666275;0.1583044;0.014494268;-0.19006616;0.10871464;0.17754994;-0.11479476;0.07634698;-0.05171226;0.07801291;0.12977023;0.33327645;0.010264275;0.009563251;-0.15556952;-0.011733959;-0.0065871635;-0.003965571;-0.081172355;-0.1727059;0.19878133;-0.003065892;0.0347506;0.08770233;-0.08367563;0.0062655876;0.17682688;-0.010971627;-0.020028995;0.2500477;0.13334419;-0.31216472;-0.36441195;-0.011549379;-0.5269409;-0.1383283;0.3233481;0.0040157163;0.00090152497;0.0064777834;-0.571859;-0.0020681142;-0.28163713;-0.0016582633;-0.00900342;-0.0086698;0.011637894;0.0043377555;0.11928859;0.039578624;-0.07249131;-0.25444856;-0.09561803;0.023734873;-0.007662774;0.17271544;0.0021300411;0.17306145;-0.10634792;0.07103253;0.03741896;0.06086845;0.014758915;-0.0019746446;-0.022297455;-0.01073306;0.035556894;0.11413118;-0.017529886;-0.28169376;0.13061696;-0.056543794;-0.21141279;0.21393853;0.014479103;-0.0010192452;-0.06967853;-0.17894849;-0.07235365;-0.026947742;-0.17343459;-0.030499697;-0.60273635;-0.20412792;-0.01871785;0.0011389753;-0.0034491909;0.3274982;0.34734023;-0.004600168;-0.1532562;-0.24636753;0.036209572;0.2977262;-0.044877097;-0.11412688;0.22453932;-0.068960056;-0.18062937;-0.30234152;-0.08024703;0.008962824;0.05976883;0.08304244;-0.09238482;-0.004127372;0.015722053;0.2901109;-0.09883937;0.05405643;0.012195953;-0.00080962665;-0.0050353054;0.0082624955;-0.0771722;0.047941003;0.015781896;0.021911351;-0.012683244;0.0050117658;-0.10847669;-0.04676318;0.081747904;2.652693e-05;0.17197755;-0.09842419;-0.114949346;-0.0011388253;-0.079048306;0.1320834;-0.05244869;0.12232303;-0.19224435;-0.14379802;0.20535411;0.10096292;-0.015709443;-0.069371104;-0.030981218;0.1367518;-0.13575475;0.18792939;-0.1678812;0.029206088;0.14159425;0.2469991;0.045767397;0.09679903;-0.14505371;-0.24787791;0.019893667;0.0044111237;0.05467127;-0.0018978103;-0.010907704;0.025383178;-0.042944886;0.03425881;-0.3248268;0.001894449;0.013817347;-0.07234279;-0.0029724839;0.0030822179;-0.17382093;-0.30222246;0.016161658;0.07301679;-0.0044458485;0.00051545684;-0.08148983;0.15060847;-0.29080868;-0.2292585;-0.097182795;-0.0017651446;0.26228246;-0.016225528;0.023833267;0.18955255;-0.0063715293;0.019972114;0.04447643;0.10017425;-0.091288075;-0.054400418;0.0035706554;0.2022619;-0.35993546;-0.12923858;-0.14938316;0.027392203;-0.020702397;-0.55477375;-0.03532868;-0.038028125;0.023583662;0.0020569502;0.02705501;0.14552535;-0.3606027;-0.000690876;-0.26312637;0.21591501;0.25307974;0.07117379;0.0076494957;0.05412687;-0.0015649317;-0.018338094;0.17765583;0.12331578;-0.20347242;0.0137638245;-0.008174256;0.24605179;0.06320637;-0.17583531;-0.014420289;-0.4720164;0.016504386;0.0071794647;-0.080549926;0.17865747;0.12926288;-0.24937946;-0.010706698;0.0007956507;0.118393496;0.003769814;0.17991468;-0.0462202;-0.12003131;0.0077259797;0.26461127;-0.004047594;0.037847016;0.009863566;0.0036227175;0.009478454;0.19570436;0.039028037;0.13936873;0.03719345;0.17877951;0.36176664;-0.06558589;0.0045065405;-0.0114054745;0.0017126005;-0.00446682;0.0067755445;0.10221793;-0.11308858;0.1633345;0.009402042;0.014695181;-0.2790408;0.09094428;0.34688494;0.09648265;0.23394842;0.014577282;0.009052246;-0.0047749123;-0.21548434;-0.1017972;0.098277755;4.96476e-06;0.11206127;0.06845572;-0.15975842;0.38510057;0.19157867;-0.17766728;-0.007737533;-4.2589356e-05;0.00872826;-0.12377042;-0.31075138;0.12543127;0.01060747;-0.014643365;-0.06780237;-0.40949288;-0.3149236;-0.2893908;0.1999695;-0.009546256;-0.09349285
-0.40535855;0.08592402;-0.0013829119;0.14274399;-0.013150881;-0.1401194;-0.06758589;-0.0037008247;-0.27864945;0.0038171366;-0.26439416;-0.09808201;0.01975777;0.004270725;-0.25670788;0.0035033883;0.005940993;0.00052769633;-0.12798798;-0.22089025;0.054255724;-0.08034187;0.18651679;0.02430733;0.025780717;0.049730007;-0.0098954495;-0.12695031;-0.14460438;-0.07059136;-0.20882384;-0.15279172;0.035873137;0.0046223765;-0.0022236984;-0.010239364;0.006973007;-0.045093697;0.014107834;0.03912737;0.117790796;-0.028614176;0.10340244;-0.44806296;-0.15790173;0.07759301;0.022496259;0.029020445;0.0037400338;-0.02620252;-0.0142861605;0.11346906;-0.05598159;-0.072516814;-0.0032484268;0.021828922;0.06256355;0.16027318;-0.011332534;-0.009780539;0.016941553;-0.10379335;-0.01159821;0.0021033469;0.06343444;-0.22343606;0.016692784;-0.034372836;-0.15105408;-0.0022142325;0.15784416;-0.012243329;0.13822167;-0.24863446;-0.17783917;-0.00041729867;0.1236354;-0.34504253;-0.013230139;-0.003391722;-0.017655756;-0.29648715;0.0122410795;0.15125743;0.17942342;-0.030290674;-0.0050942693;0.40029517;0.022174057;-0.0038052858;0.15925032;-0.0072018206;-0.04853831;-0.111700326;0.011813605;-0.09060233;0.06388138;-0.029626625;-0.27732977;0.11120318;-0.0056250505;-0.11232667;0.4305483;0.17083745;0.1267503;0.0051926826;-0.04805071;-0.13309689;0.28166237;0.064446874;0.031056928;0.087891206;0.014944133;0.15615968;-0.18347792;-0.00054736185;-0.017440874;-0.006182521;-0.18673371;-0.32140204;-0.21737967;-0.26685965;0.23158573;-0.38472742;-0.2276747;-0.15785308;-0.20328735;0.18445645;-0.009878491;0.30667922;-0.15705906;0.05121427;-0.1473467;-0.004124518;0.049180984;-0.03107927;-0.044118367;0.0010699488;-0.35517555;0.08923346;-0.0018949561;0.12356041;0.2273079;0.28443655;-0.22397365;0.009046452;0.19818558;0.0022168842;-0.32717592;0.21583992;-0.0039461646;-0.07991741;-0.107564814;0.09711443;-0.52268046;-0.019443538;-0.12608464;0.055012513;-0.009742157;-0.088475056;0.115066655;-0.059071362;-0.020374887;0.019478945;-0.006467141;-0.30649447;-0.0026833587;-0.15789531;0.2914405;-0.12487103;0.028145403;-1.7892795e-05;0.25799754;-0.39700958;-0.16484979;-0.01315251;-0.00870553;-0.044866018;0.029925099;-0.0043557547;-0.0014110531;0.0018986216;-0.007403554;0.07841869;0.020962235;-0.00904602;0.009934265;0.15889864;0.0399981;-0.005728414;-0.12077462;0.2060558;-0.021435041;-0.010986103;-0.004955344;0.25033915;0.40048292;-0.08362781;0.058425084;-0.36042938;0.361151;-0.030412005;-0.23888089;-0.32342777;-0.07376294;-0.15456176;0.060512464;0.024546266;-0.37100872;-0.11797555;-0.16757807;0.20395768;0.050490975;0.0063401763;0.034483135;-0.0057411003;0.29320017;-0.013018032;-0.33571362;0.0806706;0.2094008;0.15064311;-0.046864115;0.0009926632;-0.0035815486;-0.06420814;-0.31271964;0.05841036;0.1192406;-0.0051708487;-0.0070334384;0.039179135;0.06352462;-0.20193927;0.15914999;-0.20203228;0.095476404;-0.0067906193;0.14381485;-0.103030406;0.07728018;-0.20224331;0.18568347;0.0068417354;0.18881388;-0.2735893;-0.15346736;0.09290426;3.5789046e-05;-0.014760489;-0.24409488;0.012465217;-0.44316745;-0.051849842;0.0009901426;-0.067690566;-0.09792897;-0.03368871;0.004567184;-0.0019788828;0.08809335;0.16503873;-0.010717906;-0.0033462304;-0.0073618274;0.0933152;-0.027972523;-0.35622132;0.086377755;-0.014623169;0.060925834;0.13771255;0.02998223;0.2508645;-0.013693167;-0.006982699;0.30683836;0.083248846;-0.0072263163;0.010004524;0.010769281;0.09277763;0.04664837;-0.26082224;0.09129079;0.11239129;0.016567066;-0.040778678;-0.011062589;0.043547086;0.05988895;0.07076433;0.037780326;-0.07540786;0.29369327;-0.10137115;0.03954824;0.27018264;-0.0025443905;-0.010050627;0.24075575;-0.0073743053;0.0069350135;0.044698138;-0.19770266;-0.2659331;0.22790945;0.0631525;0.13217379;0.059173938;0.020429896;-0.019959351;0.33990833;-0.0071889404;0.09642856;0.40081453;0.05625664;-0.18357967;-0.1501203;0.008565538;-0.45745006;-0.37034932;-0.08251121;0.011181988;0.008490563;0.05205416;0.12247685;0.001968557;-0.22570884;-0.0024908658;0.016083218;0.0051301625;0.008233629;0.00044216018;0.012156778;-0.013611879;-0.12619402;-0.032370552;-0.075990655;0.004458585;0.026621504;0.15659457;0.02127645;-0.07124759;-0.1777913;-0.114733554;-0.027597852;-0.14155132;0.15896998;0.013877273;0.016870562;0.13329229;-0.08932721;0.012277709;0.011621741;-0.22570308;-0.09197193;-0.09020796;-0.38717782;0.19455181;-0.0022326466;0.005779099;-0.30098855;-0.13407695;-0.00068538426;-0.07113553;-0.14421023;0.12639815;-0.72545403;0.030485185;0.013538447;-0.011470309;-0.016370555;0.21542948;0.14909218;0.008779697;-0.014996991;-0.39439335;0.05227209;0.14153054;-0.021232842;-0.31037632;0.10308367;-0.39250475;-0.13231307;0.21922347;-0.08111183;-0.0798121;-0.111629635;0.23510809;-0.09309522;-0.011174935;0.0116322115;0.26360098;0.13325648;0.13153337;-0.00031705023;0.013993204;0.014470078;-9.219345e-05;-0.15475452;0.14207733;0.027836561;-0.020691454;-0.104016334;0.00083699735;0.16224805;0.08548205;-0.01614522;-0.012589969;0.0652127;-0.17186499;-0.03401407;0.019263128;0.13548686;0.10480606;0.22744818;0.11985835;0.094664976;-0.2404074;0.09275982;0.07365241;0.00830667;-0.10569421;0.1164066;-0.048097845;-0.105429485;0.040986944;-0.11474249;0.006339458;0.24420616;0.13517646;-0.007313092;0.163332;0.019276895;0.18934926;0.0008011402;0.0014171508;0.12645015;0.012551666;0.020794436;0.076669134;-0.15317956;-0.095350526;-0.17676224;0.004580417;0.020759637;0.024597052;-0.005507838;0.014847715;0.12875308;0.11416762;0.009647765;-0.12371943;0.0047486085;0.02098854;-0.1904988;0.04705848;-0.5637815;0.07680256;-0.1870454;0.01870648;0.25922278;0.0014463436;-0.020592928;0.17336045;0.0073575517;0.0064331326;0.13274883;0.17228189;-0.07342397;-0.17930885;-0.008055382;0.12970763;-0.39815965;-0.19453406;-0.21886069;0.23087548;0.012822466;-0.33900958;0.02603009;0.037359286;0.0056908648;0.013030229;0.32835704;0.19272359;-0.17845355;-0.3023005;-0.15320855;-0.05591885;0.23912126;0.05954774;0.0017693947;0.21517305;0.005540616;0.023138912;0.22048989;0.050526585;-0.17737901;-0.21327102;-0.011224083;0.18874852;0.035799574;-0.30595165;0.021501232;-0.30012622;-0.009513142;-0.00080908195;0.020549485;0.35331637;0.054942172;-0.38919875;0.012293852;0.014778854;-0.0062518506;0.010660005;0.31422925;-0.27203983;-0.21096697;-0.026671436;0.15294328;0.004414889;-0.18362503;-0.16391666;0.011569259;-0.0031296932;0.053496793;-0.07137308;-0.2874583;-0.025792038;0.16932556;0.31317067;-0.41510582;-0.17947465;0.03522611;0.009430102;-0.0070263296;0.034960672;0.18710306;-0.22541444;0.20594725;-0.0038615072;0.024033466;-0.41547596;-0.0049404004;0.31270716;-0.047826834;0.033743203;-0.018612128;0.034564853;-0.0015872654;-0.16256544;-0.13768125;0.20015515;-0.0014517998;0.060617223;0.021988394;0.16736867;0.15272343;0.22724383;-0.10394452;0.49750486;0.4706979;0.0075173466;0.046702746;-0.61272496;-0.105034545;-0.006928868;0.00828796;0.032406826;-0.3309225;-0.2343598;-0.39196032;0.045090836;0.0023438265;0.09140276
-0.54146254;0.14615004;0.018474089;0.051307417;0.004864131;-0.20474024;-0.101023465;0.02105333;-0.22205262;0.005069709;-0.16413912;-0.0914135;-0.00031347622;-0.010025856;-0.22215018;0.009081657;-0.0016337736;-0.09370963;-0.2262523;-0.27899608;0.008774699;-0.04111145;0.17769735;-0.10499788;-0.023931505;-0.0055664657;0.012571418;-0.047094602;-0.06485467;-0.3198573;-0.20501247;-0.43900225;-0.015747989;-0.017798575;0.0063001015;0.0062215566;0.0069668647;0.11105701;0.042450514;0.14960037;-0.045273934;0.011243887;0.12804355;-0.5349889;-0.21008584;0.1208385;-0.0075209625;-0.028631482;-0.0012811457;-0.15854853;0.0042463597;0.20106563;-0.098206475;-0.034843404;-0.01831679;-0.011684089;0.110101916;0.024871992;0.017853508;0.0104057435;-0.0058905;0.09666181;-0.0065494697;0.01774282;-0.106377535;-0.43846282;-0.02964355;-0.025016677;-0.169351;0.0061918814;0.124001026;-0.026362712;-0.037412267;-0.15132749;0.2422525;0.017111273;-0.13693838;-0.3708028;0.0054027974;-0.09939346;0.018086828;-0.3957439;0.003084277;-0.09805332;0.24266535;0.06079513;0.02566759;0.25286925;8.890442e-06;2.8306116e-05;0.11261167;0.0070339506;0.05099706;0.08515725;-0.05598768;-0.04364476;0.103444494;-0.08986474;-0.13945936;0.092595086;0.031434767;-0.36551797;0.26710886;0.21496798;-0.03217392;0.048491098;-0.16385321;0.038412966;0.23867148;-0.14937292;0.025763484;0.28896597;-0.023134574;0.008205181;0.037649672;0.0036108068;0.025062386;-0.13776608;-0.06469413;-0.04768444;-0.115174495;-0.16174011;0.28907967;-0.12422726;-0.101113826;-0.24705224;-0.015671749;-0.014391374;-0.13390289;0.093761824;-0.14333767;0.00029859674;-0.3914544;0.003753992;0.07280624;0.009464889;-0.12600626;-0.018188464;-0.35649928;-0.010932177;-0.0057085007;0.24083516;0.037439577;0.12517764;-0.159713;-0.02172623;0.15678547;0.00042849744;-0.09914906;-0.026963912;-0.0140739335;-0.16695212;-0.035424966;0.15473346;-0.24325109;-0.15359391;-0.33207163;0.13270806;0.0015562194;0.14546677;0.23857486;-0.1350952;-0.05659892;-0.019887848;0.013102523;-0.15976034;-0.010442543;-0.007284574;0.19847107;0.0063133966;-0.20021042;-0.0019929365;0.28826156;-0.38784286;-0.21595654;-0.15125299;-0.000114050265;-0.17509688;-0.038829245;-3.69964e-05;-0.016402513;0.020192249;0.17655693;-0.24328132;0.018861089;0.076818116;-0.0017288479;-0.04958385;-0.11305281;0.006168325;-0.33182198;0.13339497;-0.23322423;0.0040516416;-0.14418909;0.13779853;0.39900813;-0.11214395;-0.046527684;-0.27730098;0.20258641;0.17067645;-0.18352601;-0.34156224;-0.2969099;0.007088612;0.04221376;0.24477756;-0.44532433;-0.16787036;-0.38880455;0.048470177;-0.0025262686;0.013619448;0.030339457;-0.014560125;0.2612841;0.04555184;-0.24374957;0.046124306;0.3157386;0.09220033;0.12141507;0.005003058;-0.0538195;-0.1157283;-0.07133635;0.10579461;0.038616266;0.016841128;-0.16074114;-0.13883694;-0.01355278;-0.071167774;0.053885125;-0.26633722;-0.062271424;0.008790169;0.22284107;-0.03856533;0.24290325;-0.36494488;0.27559555;-0.010233395;0.2224225;-0.16878794;-0.47534558;-0.13726404;0.011624108;0.037818566;0.05934934;0.0030307802;-0.10357318;-0.010432174;0.009283777;-0.100947134;-0.12648764;-0.10570302;0.009170549;-0.014331899;-0.01771406;0.102815844;0.0048504667;-0.0032770257;0.010200667;0.12485728;0.21672381;-0.11485654;0.06401023;-0.052574694;0.14456904;-0.059081916;0.1680354;0.36936915;0.009851464;0.004918628;0.5175352;-0.030069137;-0.001430942;0.00964568;-0.032025643;0.10705401;-0.009012739;-0.32566303;0.23597358;0.24155521;-0.014458601;-0.2033389;-0.0014335582;-0.04095596;-0.03456728;-0.0357069;-0.19906923;-0.016802698;0.32496184;-0.12848687;0.16074061;0.27995357;-0.0017491223;0.007930905;0.17226057;-0.015139849;-0.022868704;-0.017735168;-0.09121226;-0.16397855;-0.019536411;-0.08428421;0.05146469;0.049790993;-0.08133021;-1.5210804e-05;0.36078742;0.022074856;-0.117762916;-0.098145634;-0.085139535;-0.28920797;-0.24394615;0.0038583903;-0.44832382;-0.38301355;-0.14185604;-0.010292163;-0.0048336606;-0.1060467;0.1537067;-0.004814424;0.12703592;-0.01450295;0.0032974826;-0.0070014973;-0.005421763;0.0023158444;0.16125046;-0.00020390932;-0.06328016;-0.13785201;0.1485196;0.055109087;-0.002469344;0.10121083;-0.022629581;0.04246591;0.06346396;-0.24490872;0.20303155;-0.0173338;-0.010061388;-0.013778421;-0.0024512655;0.2702433;0.050820813;-0.2776822;-0.0025989113;-0.2223103;-0.12787238;0.2487638;-0.46501297;0.14261822;0.0019639062;0.0044669043;0.025285028;-0.24083027;0.009433293;0.1775623;-0.136017;-0.035589274;-0.64370877;0.09849613;0.010623978;0.018767158;0.012038333;-0.027489195;0.16873358;-0.007406479;-0.016705012;-0.12885968;0.033004493;0.14259544;0.10931604;-0.21482247;0.24136159;-0.23770437;-0.24596187;0.26978892;-0.033539906;-0.035662428;0.084410764;0.21170844;0.01572932;0.002893791;-0.013648817;0.22934215;0.18158232;0.045043495;-0.020868069;0.004236541;-0.012197994;-0.0014988106;-0.021755468;0.02805841;-0.034747627;0.0133398995;0.03395924;-0.0035940784;0.060267042;0.019633694;0.18919075;-0.01614638;0.41660222;-0.2201499;0.12161057;-0.017303143;-0.101057544;-0.28921455;0.25940257;-0.07010382;0.093017586;-0.18092276;-0.010860579;0.15313461;-0.0027975407;-0.10755524;-0.06640683;0.020630438;0.03744205;0.036698;0.16912268;-0.003082856;0.018931424;0.09958694;-0.16528444;-0.043325167;-0.32181415;0.04552981;-0.00022566879;-0.003502789;0.43559378;-0.023370016;0.000681344;-0.03067301;-0.2728963;-0.23803179;0.08551123;-0.0045979433;-0.011254974;-0.1582563;0.008249831;-0.005084865;0.21631166;0.019483611;0.004805027;0.009763376;-0.0052933795;-0.009617951;-0.0011811474;-0.118267275;-0.58196235;0.10572056;0.10676945;-0.02279106;0.23706555;-0.0026608673;-0.0038042453;-0.1123375;0.08787659;-0.014013062;0.15969902;-0.049970526;0.27866578;-0.2278439;-0.008972316;0.110349946;-0.44225597;-0.17546487;-0.21883255;0.30424574;-0.010814628;-0.23852806;0.025968246;0.013609566;0.035620347;-0.0035654227;0.3794861;0.068783075;-0.01466751;-0.3763658;-0.0047812467;0.0832835;0.34538507;0.14255269;-0.008744552;0.2084582;0.004833376;-0.017530562;0.15696728;-0.0067193843;-0.019949842;-0.21173415;0.005722163;0.0006201455;-0.010606514;-0.19004616;0.003247565;-0.5460796;-0.0069882283;-0.0059302673;-0.039572064;0.3732234;0.086882;-0.10836869;-0.0005093885;-0.031023342;-0.15350579;-0.012897669;-0.06334834;-0.07782537;-0.089910194;0.0062789926;-0.001991437;-0.00619531;-0.13758393;-0.33277366;-0.021798043;-0.0090174135;0.16081555;0.025192317;-0.67911637;-0.0180137;0.09205522;-0.025788464;-0.3535841;-0.10057317;-0.03570716;-0.009636369;0.01815228;-0.011422931;-0.04230757;-0.12273382;0.21915314;0.0015444971;0.14673911;-0.26510227;0.080608405;0.104877025;-0.024372406;0.08096398;0.027172035;-0.047674034;0.00993847;0.04209917;-0.17259398;0.251732;-0.0029908349;-0.032924272;-0.093987174;0.00012555027;0.14973605;0.14686483;0.07092806;0.5281569;0.20843211;0.01563432;0.5196823;-0.31095138;-0.26278037;0.018818703;0.017204892;0.17779191;-0.2551887;0.0079395715;-0.5284628;-0.43860102;-0.008101501;0.038748942
-0.46455517;0.01360145;-0.025258139;0.1588726;0.007904996;-0.2418495;-0.0012085474;-0.012452128;-0.021541687;-0.016733808;-0.28766286;0.04658179;-0.0005705228;-0.002368089;-0.22954307;-0.021492464;-0.0047636963;-0.08250232;-0.3298788;-0.24611422;-0.042390842;-0.19988935;0.15752192;-0.431548;9.786273e-05;-0.09016862;-0.0010625285;-0.15755926;0.015034671;-0.36112303;-0.13441384;-0.5176585;-0.058561046;0.004311;0.0025885198;0.0114428885;-0.0062061436;0.019096574;0.06467663;0.16450514;0.12268106;0.009523334;-0.07767091;-0.2033637;-0.007573422;0.02861281;-0.009168927;-0.034134895;-0.0032941217;-0.16889438;-0.003105708;0.21423079;-0.055663664;0.13256212;-0.04608135;-0.0013396305;0.19336481;-0.4152281;0.0043597342;0.00659299;-4.513983e-05;0.12506068;0.0021473863;-0.005002839;-0.2661782;-0.19107337;0.020601816;0.034624506;-0.15983903;-0.0060699857;-0.2744099;0.032298587;-0.15296885;-0.19738977;0.31462705;0.0006339167;-0.036277983;-0.21226105;0.010470073;-0.089023426;-0.009121222;-0.41615036;-0.009866573;-0.14604996;0.11083081;-0.0679734;-0.005172812;0.3278644;0.005993685;-0.005700082;0.40009183;-0.009566359;0.11109786;-0.23592481;0.19389798;0.21554606;-0.19712284;-0.04070297;-0.15140033;-0.085064426;-0.14814349;-0.67259073;0.22102585;0.1532209;-0.056775272;0.09830414;-0.18477729;0.079880685;0.055935975;-0.17861523;-0.12457502;0.17837358;0.0032744966;-0.027226012;0.1983964;-0.004282374;-0.009072492;-0.043192964;0.07718672;0.05007613;-0.057819985;-0.056226503;0.28035128;-0.093947046;0.017201936;-0.18577471;0.08586018;-0.08666182;-0.11620166;-0.035487697;-0.24691711;0.117908046;-0.49195668;-0.00450051;-0.006126103;0.015355832;-0.22674924;-0.049427588;-0.38407037;0.4178188;0.004894004;0.1940205;0.025681015;-0.12722026;-0.092998676;0.010114744;0.13470258;0.014327647;0.02377969;0.08130817;0.01576539;0.13040112;-0.027873164;-0.15010084;-0.30120814;-0.18494129;-0.283942;0.060192477;-4.703799e-05;0.30013037;0.0752275;-0.45016488;0.09375534;0.0067364937;-0.006537024;-0.118651524;-0.0066664983;-0.088972345;0.11255933;-0.08408349;-0.3915747;-0.0142271;0.21946654;0.0670796;-0.03868956;0.064580545;-0.009449054;-0.06805329;0.025792086;-0.0010974767;0.0121172;-0.008337958;0.010802016;-0.21787506;-0.016840903;0.026291061;-0.006094925;-0.024256628;-0.19502655;-0.0037455366;-0.20635535;0.2629832;-0.4488532;0.021841718;-0.047161516;-0.029325357;0.4265278;-0.22649162;0.0037852754;-0.094419956;0.0626369;0.31847787;-0.22937909;-0.14154567;-0.47490096;-0.16996843;-0.04621521;0.10135857;-0.3345667;-0.12288959;-0.28335992;0.280811;0.09203058;-0.01334085;-0.026345437;0.021251298;0.21311286;-0.14830954;-0.1537569;0.21610282;-0.064391956;0.033477925;0.2564546;0.0050362786;-0.26671505;0.047124058;-0.28766993;0.13431183;0.03902207;-0.013580426;-0.044226028;0.1464981;-0.3205134;-0.116765834;0.107438706;-0.04892443;-0.38428524;-0.009331285;0.087959714;-0.12762243;0.08306059;0.13963659;0.23784828;-0.00048538536;0.28347406;-0.012795043;-0.12744932;-0.49262008;-0.0048503736;-0.043325815;-0.18228799;0.0019479349;0.17305358;0.052584402;-0.0030501198;-0.3010701;0.020937886;-0.06475507;0.013046055;0.007398155;0.41968623;0.08448021;-0.013474632;0.0051031057;-0.0022235683;0.057938065;0.057288326;-0.5203989;0.110091075;-0.3024224;0.1822606;-0.1692604;0.15346017;0.14739634;-0.018262852;0.018425584;0.24539964;-0.16302842;0.01832667;-0.00734812;-0.0005041124;0.29298338;-0.015867673;-0.09069458;0.083548896;0.17459734;0.011877746;-0.0055367784;-0.0041085663;-0.15296161;-0.06695723;-0.051958814;-0.025052512;-0.15134743;0.06278497;-0.13259141;-0.044851605;0.23262826;0.0063824775;0.0027465292;0.20228375;0.009602072;0.012753238;-0.06029771;-0.13502656;-0.06042949;-0.089487486;0.026427133;0.24537188;0.0027559632;-0.112009995;0.025984777;0.08852627;-0.000974415;0.15448761;-0.35020542;-0.06770597;-0.46925718;-0.20776172;-0.0062875943;-0.117362;-0.29568103;-0.0917383;0.002761304;0.002215749;0.11207072;0.022635961;0.0081925625;-0.027369736;0.0029215687;0.015110472;-0.002383576;-0.009184531;0.005893427;0.14825894;0.0024351424;-0.16097833;-0.104355045;0.09882415;-0.13853149;-0.0013438185;-0.14686307;0.0100608645;0.1795218;0.019188235;0.16204232;0.34998813;0.0272526;-0.30125362;0.011040778;-0.0039709294;0.2768838;0.22096345;-0.31639922;-0.00069670775;-0.11344597;-0.16808476;0.12984604;-0.26953253;0.27099937;-0.00035703843;-0.008822851;0.1938467;-0.1724548;0.021453576;0.18088949;-0.05340035;-0.03525774;-0.49565694;-0.030501533;-0.022722632;-0.0072309184;0.0034154195;-0.38763598;-0.07609175;0.008320782;0.14853589;0.19564156;-0.07910728;0.054792374;-0.09458912;0.119163394;0.2857254;-0.043844596;-0.063078105;0.35464907;0.10027706;-0.002267285;0.18111917;-0.019839397;0.039419085;0.0151688885;-0.0062577543;0.1709219;-0.061992675;-0.10757109;0.023271462;-0.00041289962;0.009674804;0.010595897;0.058988467;0.16589302;-0.047755763;0.0027420663;0.007564541;0.0063540703;0.070007816;0.14037803;0.37767145;0.020800594;0.24832135;-0.3022474;0.24437906;-0.008344826;-0.31526116;-0.081444226;0.44309306;0.13955843;-0.02115899;-0.17527533;-0.25295553;0.079788946;-0.0044542733;-0.038036942;0.01097697;0.10325653;0.5243323;0.14488675;0.34720623;0.021065267;-0.12098035;-0.084663026;-0.038505066;-0.3677553;-0.40545806;0.09814236;-0.015873378;-0.0035602448;0.21868859;0.009427309;-0.011867965;0.20219131;-0.3188942;-0.61985505;-0.010632793;-0.0038267625;-0.01588339;-0.055218924;-0.022575151;-0.013078779;0.11390746;0.15872961;-0.0052492265;0.1673712;0.01744574;0.014666403;0.11123579;-0.06510767;-0.33960807;0.11682968;-0.12107881;0.015983958;0.15760551;-0.006699475;0.0015563244;-0.06423799;0.0015900738;0.012662336;-0.008083412;-0.02533077;0.20093746;-0.27821016;0.014532005;0.18717498;-0.2691374;0.006737605;-0.077733606;0.056445055;0.015034725;-0.23644625;-0.029629953;-0.01860804;-0.034888763;-0.0021349697;0.042807207;0.06767482;-0.1583141;-0.08720041;-0.05262996;0.13141227;0.07434008;-0.12438981;0.007750042;0.12793307;0.005023172;0.005274209;0.19566438;-0.23102877;0.026662193;-0.1129165;0.0016981226;0.105702214;-0.10879034;0.065058134;-0.006776911;-0.39661008;0.017514488;0.006519043;-0.049937837;0.045420695;0.11409569;-0.048775528;-0.0032244122;-0.010781981;0.025937682;0.010646589;0.24946374;0.05666584;0.037048317;0.00465822;0.056723725;-0.008089567;0.017354807;-0.1222056;0.00666183;-0.0073636244;0.33351976;-0.25668505;-0.6705198;0.027953453;0.022267066;0.07839503;-0.28518534;-0.20007387;-0.010491665;0.010675965;-0.0046709357;0.19028282;-0.15336232;-0.30026612;-0.11572758;-0.013929912;0.14001095;-0.23232448;-0.019263305;-0.062204767;-0.08176191;0.07404299;-0.032799646;0.10352245;0.008945258;-0.1012806;-0.19841425;0.023401238;-0.004088794;-0.11544569;0.32060778;0.09233757;-0.014280344;0.19837005;0.13647732;0.5440374;0.16759276;-0.032769956;0.12108903;-0.24744648;-0.06470845;0.00045906528;-0.018991012;0.21574235;-0.24586661;-0.021236014;-0.3751738;0.0069671418;0.018879002;-0.087124884
-0.21747428;0.13453734;0.0043648453;-0.032226726;-0.0014339521;-0.044909973;-0.09244288;0.012883803;-0.046884492;0.00025509595;-0.06546887;0.2575973;-0.0007891693;0.0081254095;-0.29026923;0.01538809;0.0038395498;-0.0002940323;-0.37220624;-0.24598601;-0.10434449;-0.011228744;0.0880386;-0.34218502;0.0018864436;-0.087106355;-0.019424217;-0.20467193;-0.020272126;-0.2746283;0.027383015;-0.53737277;0.091464974;0.013589543;0.009540757;-0.008634107;-0.011298014;0.10362291;0.15107106;0.04847272;0.015680395;1.4765283e-06;-0.16542065;-0.15602544;-0.09050454;0.18805197;-0.0003732086;0.0624365;0.0077823196;-0.20161366;0.024310907;0.3907148;-0.12050676;0.09851033;-0.10890016;-0.0012814775;-0.14116207;-0.38613078;-0.008678745;-0.008730997;0.006471261;0.29319158;0.0028335922;-0.015188764;-0.25622156;-0.4886662;-0.0013339446;-0.0052745896;-0.07725195;0.009482527;-0.17387706;-0.033633586;0.035647646;0.09463236;0.020389585;-0.0033502723;-0.05510068;0.082527965;-0.013013266;-0.025919788;0.0102108;-0.4363266;0.00250446;0.06793444;0.27901047;0.00023201668;0.0050621727;0.30363438;-0.008368021;0.01912108;0.17626429;0.011375075;0.015156958;-0.39781693;0.0037122634;0.17600414;-0.018450668;-0.2136201;-0.25380054;-0.16169025;-0.17750819;-0.5039908;0.32768387;0.06579299;-0.014664451;0.27554116;-0.002048405;0.23178935;-0.030375248;-0.1805236;0.048570953;0.22707424;0.00043407056;-0.024709357;0.21034104;0.015320652;0.0081065;-0.26672333;0.06682261;0.30816272;-0.03407434;0.10148517;0.1268495;-0.15548046;-0.13183744;-0.0757824;0.0058310432;-0.16525944;0.10715237;-0.17145862;0.028392993;0.36758897;-0.45120144;-0.005873162;-0.16903558;-0.00090987835;-0.21496846;-0.03596514;-0.25012088;0.20418064;-0.019521559;-0.0532372;-0.117140174;0.30913842;-0.056701567;-0.0007568313;0.2551967;-3.1519567e-06;0.23544776;0.048389666;-0.018414086;0.26480192;-0.09714219;-0.10996626;-0.0635775;-0.24289128;-0.17873417;-0.034972537;-0.012362157;0.29486576;-0.06317542;-0.4457888;0.051500905;-0.0076126866;0.002688331;0.1466315;0.0076507363;0.017372724;0.058273565;-0.13446607;-0.27679434;0.009182956;0.26374763;0.14793622;-0.07704669;0.14037867;0.017636383;0.024453718;-0.1057591;-0.0107033085;-0.0020425108;0.010890979;-0.10869002;-0.09890313;0.010276015;0.06987991;-0.007935917;-0.20431897;-0.19887769;-0.00486328;-0.113573186;0.2459977;-0.28629485;-0.027813584;0.18895754;-0.05485417;0.4001758;-0.134433;-0.006405456;-0.38844255;-0.11829216;0.25703573;-0.23730731;-0.03822574;-0.37618196;-0.13555706;-0.0642022;0.13409178;-0.077713385;0.09256197;0.16224049;0.16446164;0.13673727;-0.004751095;-0.018267035;-0.0005347114;0.071549214;0.073683;0.14730218;0.107488126;-0.012756975;0.056972194;0.20426051;-0.016249184;-0.23265806;0.036038913;-0.20429718;0.020199345;0.077774785;-0.0145995235;-0.029906485;0.11496571;-0.4783265;-0.26209256;0.15922002;0.13690649;-0.5033452;-0.00061288784;-0.12371993;0.31104067;0.28849152;0.18769988;0.16024368;0.0075250906;0.13995317;0.20388533;-0.14949654;-0.40098995;0.0033550467;0.030381378;-0.11514825;-0.014245665;0.25016388;0.11863743;0.006076206;-0.2886132;-0.12383962;0.00013721683;-0.034699015;-0.0076153385;0.42310864;-0.1364097;0.010919217;-0.0059175617;0.006505254;0.044062663;0.13203353;-0.35399014;0.10528188;-0.4090081;0.12429693;-0.27267933;-0.0013849037;-0.09628118;-0.0020957831;-0.002432376;0.03889551;-0.15215738;-0.007592906;0.0053475504;0.0030838617;-0.058183398;0.097872145;-0.027909929;0.11233986;0.13043289;-0.0010870073;0.26748925;0.0031187718;0.15777262;-0.19385785;-0.05102029;-0.082175694;-0.3014409;-0.026047593;0.214766;-0.17026578;0.10602989;0.0029621876;-0.0011454676;0.08334203;0.055443987;0.0033352238;0.0038253337;0.016053783;-0.07684543;-0.072076716;-0.057679087;0.3003006;0.133162;-0.24538341;-0.018750189;0.12488626;-0.027673053;-0.041808583;-0.30540052;-0.078969695;-0.44089872;-0.28776753;-0.012603971;-0.1162292;-0.24759716;0.11165178;0.0019198523;-0.0035929983;-0.04901174;-0.20617212;-0.0037357928;0.119379275;0.007712865;-0.030433618;-0.0038065147;-0.01889331;-0.0032029164;0.19769135;-0.031783637;-0.063471764;-0.24978;0.23077661;-0.092552565;0.003164278;0.046829022;0.017550955;0.029121434;0.0042683836;-0.029623954;0.39562014;0.036248963;-0.27714372;0.0067142197;0.00797582;0.3763485;0.08600647;-0.41812086;-0.0030097358;0.07414386;-0.1748942;0.19314289;-0.25589064;0.16726351;0.0563693;0.0063450197;-0.15974793;-0.0137357;-0.0056801704;-0.08414836;-0.09499512;-0.1133215;-0.2954021;0.04130001;0.0018959746;-0.0024174184;0.00525246;-0.23036104;-0.084534764;-0.007819254;0.09716347;-0.11052129;-0.3198857;0.033882212;-0.008190437;0.05181027;0.11599101;-0.25619474;-0.043617498;0.23830475;0.17025213;-0.057447936;0.13350134;-0.19634262;-0.21481502;-0.019082988;0.0055438178;0.058201052;-0.10365287;-0.35447246;-0.010565605;0.010231306;0.0092328135;0.0026873415;-0.015938621;-0.044014018;-0.03757954;0.008210104;-0.008697752;-0.012213621;0.065446936;-0.15459165;0.2857763;-0.010856317;-0.14077578;-0.15136188;0.053031053;0.008384789;-0.339553;-0.11299819;0.39148474;0.043827828;-0.05638698;0.0034798407;-0.17472416;0.24300979;-0.0020267004;-0.027911806;-0.16291806;-0.18917233;0.33232072;0.12264304;0.22424063;-0.010352147;-0.12210059;-0.06658364;-0.042491548;-0.37857974;-0.113754906;-0.09388829;-0.00056833116;0.028154809;0.10936387;-0.000432831;-0.0010521114;0.08367112;-0.0864402;-0.52009696;0.014908681;-0.001013369;0.023556411;-0.14788455;0.024061676;0.007009397;-0.05473305;0.3743611;-0.005507854;-0.122046664;0.005630194;-0.023024073;0.06709052;-0.1065206;-0.16783372;-0.23733918;-0.18928778;-0.0060178647;0.008144658;0.02457951;0.012203675;-0.038211875;0.113740265;0.001825625;0.050036836;0.19239433;-0.23026283;-0.32006222;-0.011106573;0.0712679;-0.18590285;-0.13535996;-0.16558902;0.047481198;-0.008852182;-0.31776437;-0.0129665965;0.021040495;-0.05331288;0.0055383365;0.06624577;0.07466045;-0.20485145;0.08071015;-0.12068239;0.10171658;0.25032413;0.06448177;-0.0077190553;0.25210208;-0.0023460274;-0.0135332635;0.055536643;-0.26192695;0.11180739;0.051525116;-0.009235769;0.141377;-0.0584573;0.15508348;0.002615838;-0.55782706;-0.009540602;-0.0020394493;0.03426522;-0.022720883;-0.06178575;-0.3805003;0.0051036393;0.017146919;-0.032976724;-0.008467737;0.3815347;0.09445472;0.082071625;-0.0052228896;-0.14834736;0.011745599;0.11167501;-0.072461665;0.010445495;0.019519443;0.17885488;-0.06340581;-0.4482444;0.003854013;0.13955326;0.02942369;-0.21321046;-0.036515348;0.010082167;0.0060690884;0.015475742;0.1651653;-0.31949982;-0.21787934;-0.37952918;0.01909418;-0.07789298;-0.42244744;-0.046779163;-0.15611161;-0.01173384;0.076455705;0.01921554;0.22667079;-0.01811357;-0.17911269;-0.17553088;0.16449362;0.019769514;-0.014065411;0.3427781;0.23348106;-0.08981429;0.29358187;0.17605172;0.12916508;-0.14836897;0.028089603;-0.075079195;-0.6619712;-0.14694555;-0.008881085;-0.005354939;0.36279202;0.069564156;-0.09294155;-0.20014563;0.13340095;-0.009094212;-0.056726087
-0.14654179;0.15583324;-0.0028257242;-0.2599944;0.0012566786;-0.07420564;-0.030980563;0.011028096;-0.19812632;0.003724277;0.10118302;0.22234486;-0.009053904;-0.004309299;-0.24864838;0.016582888;-0.004268313;0.11697381;-0.115746826;-0.59104437;-0.17796813;-0.28550738;0.065845564;-0.43667713;0.01007127;-0.16819218;0.015875435;-0.210873;0.04189251;-0.21808319;0.25379688;-0.30856767;-0.038333364;-0.017141758;-0.011088574;-0.008261364;0.020556131;0.080846235;0.22115545;-0.118655615;-0.10182899;0.011681672;-0.13988647;-0.27874252;-0.027200183;0.32762223;0.010330416;-0.056775022;-0.0050239046;-0.09793232;0.0020706803;0.048306085;-0.36535782;0.08390062;-0.18088558;0.016398698;-0.14836055;-0.016611772;-0.026249578;-0.006730216;-0.01284216;0.27578098;0.0011296103;0.012918755;-0.30018342;-0.3597626;-0.013804238;-0.041849807;-0.057607766;-0.010190597;-0.45042124;0.023595238;0.09804228;0.2673457;-0.3848692;0.0013875073;0.15751462;0.06951759;0.0011205022;0.10828795;-0.0029706724;-0.4261684;-0.013728252;0.111712515;0.054293357;0.06316004;-0.0038423312;0.111171715;0.00819765;-0.013579939;0.16117354;-0.0063662627;0.068765916;-0.57826096;0.13949628;0.5091044;0.12734883;-0.40734902;-0.21379286;-0.0057995245;-0.1283443;-0.27382246;0.14134148;0.0071474575;-0.115091614;0.15133905;0.04042651;0.40094355;0.02935668;0.17930059;-0.038278002;0.33242574;0.013952613;-0.11697788;0.2961846;-0.021587104;-0.013008962;-0.28442773;0.07722965;0.20739554;-0.011249885;0.12783836;0.19584331;-0.047012575;-0.034091484;0.09050513;-0.26629618;-0.18263787;0.117571175;-0.22665943;0.031418983;0.33943334;-0.36826187;0.0067841457;-0.2926231;-0.009238463;0.0045124036;0.007789428;-0.21297432;0.2709487;0.021862851;0.019927204;0.16726625;0.37703267;0.02835989;0.0044155368;0.06564375;0.0006116637;0.119034626;-0.04430252;0.018667744;0.4181467;0.060525633;0.054945156;-0.2703906;-0.005695259;-0.11382245;0.12784487;0.0009845013;0.3158224;-0.034434814;-0.065764725;0.1315379;0.019374996;0.0013637845;0.14558364;0.0037901397;0.04452629;0.020975817;-0.2740774;-0.0639229;-0.0067686643;0.31619543;0.23463088;-0.1610002;0.06945309;-0.028216202;0.243645;-0.21424852;0.0076277624;-0.0015850955;-0.0067382213;0.08085183;4.2156767e-05;-0.0005598742;0.19963804;0.021516612;0.1296036;-0.0028165046;0.007992565;-0.069900125;0.30862817;0.020616349;0.012985344;0.2635526;-0.121116236;0.19874565;0.065527715;0.28309295;-0.7085296;-0.0048739444;0.14569995;-0.18701173;-0.18165456;-0.26785493;0.114404775;-0.015462132;-0.16729747;-0.087963164;0.17640567;0.030021058;0.16975304;0.24558784;0.0173197;0.041207347;-0.0045761033;0.2514324;-0.00013143197;0.024002701;-0.013707595;0.22788727;0.046111513;0.17061408;-0.0129885385;0.031699933;-0.039925683;-0.41112617;0.002823801;0.1759116;0.0050194855;-0.034338336;0.09025404;-0.08622279;-0.28981972;0.19847736;0.11429552;-0.5625286;0.005987473;0.16128083;0.42495647;0.24320771;0.09574483;-0.018842356;-0.0028150938;0.15781465;0.27826837;-0.023952227;-0.14993192;-0.0025757349;0.010680694;0.020212468;0.010602347;0.32683846;0.10190593;0.008825398;-0.37439176;0.057859346;-0.098829426;0.0067109126;0.016228434;0.33963335;0.16630875;-0.007831387;0.0013869787;-0.0061036455;-0.2230369;0.15699095;-0.035150614;0.19988759;-0.3919178;-0.004213813;-0.28865144;0.06055467;-0.31907246;0.020389298;-0.009813486;-0.009172767;-0.11919294;-0.003534761;-0.009022902;0.012211301;-0.112675026;0.18259075;0.035722997;0.1703119;0.115731105;-0.004551515;0.2026678;-0.0055901557;0.16356657;-0.2272499;-0.17786467;-0.35955507;-0.15497701;-0.16442825;0.23362915;-0.14304371;0.110114954;0.0019210656;0.0038858047;-0.1881656;-0.02067412;-0.0016232447;0.09995998;0.025394635;-0.22110575;-0.21480256;0.038057275;0.26650837;0.2379747;0.10916321;0.006356584;0.15915065;0.017351553;-0.34570792;-0.086264946;-0.038452763;-0.3446229;-0.120994106;0.0006777353;-0.24940294;-0.30154967;0.33000296;-0.0024640292;-0.00042894064;0.08526754;-0.06877696;-0.0054127946;-0.37734237;-0.0060576852;0.0239053;0.012727279;0.019387936;-0.01370954;0.15935266;0.027299037;0.16551997;-0.09893216;0.31631485;-0.36979833;-0.009276494;-0.16371918;-0.01359866;-0.0834168;-0.17370948;-0.20411721;0.41295028;-0.06252231;-0.14089578;-0.015454307;-0.010069129;0.37972212;-0.054561175;-0.17308924;0.0064038755;-0.15240958;-0.26652128;0.04501847;-0.3281442;0.19762044;-0.014162915;0.00024065589;-0.14026827;0.03133525;0.082237154;-0.08594144;-0.075398505;-0.050181627;-0.2978824;-0.038314447;0.024914464;-0.0024920502;0.011566977;-0.500087;-0.04856476;-0.009234553;-0.038478706;-0.11640504;-0.47110894;0.090170085;0.005281367;-0.17890804;0.18947585;-0.38287482;0.08032449;0.1032608;-0.11352937;0.05101843;0.0040645585;-0.17388694;-0.36365488;0.013752442;-0.0025512972;-0.11106877;-0.11551921;-0.4951327;0.013762812;-0.023938453;-0.0035873472;-0.0050220494;-0.06793202;-0.06421851;-0.054387677;-0.0068057333;0.17640762;0.0011813862;0.008234073;-0.37420672;0.34146902;0.024345383;-0.031102309;-0.008679259;0.12813278;-0.0006845519;-0.19206807;-0.43242145;0.33489946;0.004416017;0.016981391;-0.080175646;-0.22562902;0.08509115;0.01644298;-0.09819885;0.032990318;-0.13401337;0.20734738;0.13928786;0.24915585;0.003373449;-0.026778106;-0.21997307;-0.16409491;-0.37431434;0.15229502;-0.11520706;0.017549783;0.058421932;-0.04090512;0.002934183;0.0082152225;-0.14564845;-0.107381836;-0.34180114;-0.2803578;0.01644031;-0.03591627;-0.05765942;0.013117186;-0.0017426126;-0.2169176;0.30792508;-0.0064256773;-0.18311058;-0.014719184;0.007561837;0.18412785;-0.21672034;-0.07852396;-0.19154155;-0.29928604;0.0013765303;0.14090617;-0.01230114;-0.003570535;-0.17383406;-0.116646364;-7.26851e-05;-0.12969849;0.1607378;-0.28448194;-0.17515412;0.0152108995;-0.018776001;-0.18511821;0.027585734;-0.044002876;0.08632992;-0.00013661188;-0.30517066;-0.0011252264;-0.02064158;0.09029058;-0.007147176;-0.029187908;0.004795025;-0.28920135;0.05083985;-0.026650485;0.29220018;0.48265412;0.01152131;0.0014519109;0.20241877;0.009489046;0.016340833;0.1337719;-0.33674252;0.18178008;-0.13777766;0.0042214;0.043425962;-0.25460348;0.07461088;-0.012560622;-0.23330617;0.008740862;-0.011667655;-0.003454542;0.034510717;-0.03761302;-0.48680666;-0.00020912643;-0.015703522;-0.39945984;0.006549281;0.41279522;0.070386894;0.020006822;0.005384912;-0.08817673;0.0010508187;-0.11344354;-0.13935843;-0.009670907;-0.022218026;0.2100057;-0.012413741;-0.32210407;0.023630245;0.13783789;-0.13812234;-0.3755098;-0.06349196;-0.038639404;-0.018545639;-0.0018178574;0.07092593;0.09252266;-0.036437664;-0.29129964;-0.0017967968;-0.18889338;-0.38264775;-0.32176235;0.0012460042;0.36284894;0.22824264;-0.010133014;0.33154878;0.009739138;-0.08672616;-0.06966144;-0.04211041;-0.017446501;0.033697776;0.23421957;0.19374736;0.016527764;0.081075266;0.25846952;-0.1067979;-0.0146122705;-0.033156525;-0.19113995;-0.54011613;0.017559418;0.007018749;0.00831045;0.30296627;0.12448632;-0.32976267;-0.089451455;0.14126027;0.010052822;0.14879309
-0.07383772;0.15710744;0.018058756;-0.1606263;0.006343604;-0.04892129;0.05894821;-0.030267425;-0.23160586;0.014881635;0.119575426;0.47687322;-0.004367832;0.018696908;-0.40235767;-0.016232014;-0.008386087;0.04943377;-0.11387162;-0.5650063;-0.20726413;-0.28157008;0.001350716;-0.19683999;0.013550237;-0.18835181;-0.0037086762;-0.15413174;-0.28191948;-0.14954546;0.09309248;-0.029765584;-0.041378465;0.00955447;0.011062783;0.013966232;-0.0072552282;-0.049537033;0.11624355;-0.5073297;0.068676375;-0.04175854;0.020615775;-0.19701898;0.040612765;0.47743022;0.012877392;0.05217061;0.006093268;0.10204458;-0.019602234;0.0388259;-0.49043286;0.07854116;-0.10408461;-0.03044614;-0.121590495;0.0145053305;0.01380453;0.0015401209;0.010428781;0.32934403;-0.0035771944;0.013771878;-0.4155599;0.14446367;0.021414885;0.048684914;0.009091993;0.003167521;-0.34329733;-0.008874795;-0.060043965;0.48861814;-0.28017098;-0.001769721;-0.06305622;-0.31863293;0.008859885;-0.05997614;-0.0139308125;-0.24951862;0.0041158283;0.16034293;0.071412496;-0.1518447;-0.00651611;-0.023895757;0.0024073105;0.010281384;0.08314613;0.000772052;-0.005085066;-0.55947375;0.25487494;0.4818252;0.2548954;-0.506658;-0.54535866;-0.18295369;-0.16464145;-0.26568717;0.049523253;0.094074294;-0.088649206;-0.056519005;0.11455738;0.40528163;-0.027950216;0.42670977;0.008624843;0.21268585;-0.019586235;0.029301222;0.12345464;0.010877544;-0.002955887;-0.21145786;0.087441154;0.2409476;0.020191606;-0.24038272;-0.007884945;0.16320412;-0.084407695;0.263941;0.06612066;-0.39104334;0.09391999;-0.33341575;0.20389017;0.42927027;-0.32576004;0.0061692777;-0.46875453;0.008764973;-0.13234177;0.014694403;0.026831886;0.24631727;0.0065705865;-0.009345982;0.16370188;0.3393242;-0.20287274;0.00050733023;-0.31326196;-0.018131202;0.11868386;-0.071983054;0.0021225382;-0.11799156;0.28941363;0.18915938;-0.3155876;0.034362398;-0.15749538;0.31112;0.007317605;0.41237906;-0.08643855;-0.0027820535;-0.16386743;-0.010040888;-0.019705862;0.16669425;0.0048682494;-0.020723399;0.17093845;-0.25060394;0.10437614;0.01385681;0.3293976;0.05886585;-0.14152774;-0.1522015;0.018281884;0.11710854;-0.2378141;0.0026490379;0.00068483053;0.0027053978;-0.094799064;-0.25132507;-0.014523786;0.20831707;-0.016901635;0.0090396665;0.09702642;-0.0028012113;0.026461776;0.23742405;-0.006177038;-0.010059076;0.4407161;-0.081366725;0.051936373;0.12643437;0.29051775;-0.099755205;0.10502688;0.07599222;0.021855237;-0.25593597;-0.17760405;0.104653485;-0.045889404;-0.090321735;0.0034902615;0.07563466;-0.07872626;-0.03492903;-0.09898898;-0.0074462565;-0.010480472;0.008485476;0.14485663;-0.15406936;0.30785653;0.0130972015;0.25971162;-0.053222876;0.16513628;0.011730775;-0.00051743997;0.023402775;0.07859238;0.07721528;-0.10079248;0.0044775;0.11920725;0.12481462;0.17818098;-0.3406749;0.12187044;-0.12854128;-0.48669642;-0.0046605747;0.35498422;0.267766;0.24281329;-0.11630028;-0.3843565;0.0043045827;0.28510538;0.34169254;-0.25763196;-0.063673705;0.003431765;0.009645765;0.09230928;-0.004920673;0.018738173;0.1431318;-0.015143076;-0.17949633;0.27238894;-0.21635269;-0.012535514;-0.0064173825;0.4683117;-0.049173053;-0.0025606526;0.011416065;0.013570444;-0.05040634;0.329418;0.095506236;0.043107495;-0.3523879;0.09431385;-0.05298267;-0.16769274;-0.36469692;0.0034859783;0.007786588;-0.069552675;-0.16295582;-0.0015462529;0.0019341666;-0.0064746994;-0.2567366;0.06044126;-0.22930585;0.15122247;-0.051891137;-0.008026533;0.10755102;0.0065882034;0.3357066;-0.18395168;-0.13789622;-0.18030538;-0.13294359;-0.28198904;0.053478174;-0.14134626;0.4534215;-0.0035875107;-0.009461682;-0.12604545;-0.059170038;0.006512018;-0.022623358;0.17706667;-0.26978478;-0.10504978;0.017145813;0.0019835767;0.32389635;-0.08015062;0.004814804;0.13375261;0.008013396;-0.30998614;0.06520782;-0.2061767;-0.19816208;0.018195463;0.000772186;-0.3137044;0.04747666;0.1264295;-0.009283997;0.005801878;-0.018970571;-0.25494194;0.016597025;-0.24968405;0.008612077;-0.010497385;-0.011491691;-0.010483047;0.017808419;0.00014741697;-0.015873209;0.17126977;-0.37166032;0.08523749;-0.2820981;0.013019241;-0.06079747;0.00267805;0.02155829;-0.17749748;-0.23559013;0.41178626;-0.04620942;0.011752856;0.011823188;0.012581425;0.2575635;-0.007607815;0.015019988;0.0011159604;0.07409637;-0.32987097;0.04807383;-0.062036928;0.23428632;-0.020675223;-0.0050279573;-0.21308462;0.08587473;0.06449461;0.0002786524;-0.19421819;-0.05530218;-0.5832028;-0.13430093;-0.018380092;0.011931754;-0.011552508;-0.25267416;-0.04325815;0.0017817796;0.019340511;0.16060564;-0.24775526;0.37710074;-0.23626813;-0.21404788;0.12773205;-0.51661325;-0.08996929;0.2469001;-0.018684916;-0.013137824;0.36373574;0.036184467;-0.15446328;0.009924298;0.004747069;-0.044872794;-0.19156605;-0.62870073;-0.017332116;0.0043073557;-0.015939696;0.0066058645;0.02929542;-0.04989985;0.07931889;0.0011678418;0.31237936;0.0049506403;-0.08387779;-0.70350677;0.21509589;-0.0015201375;0.012102886;0.1328771;0.06609111;-0.01075489;0.047231972;-0.5304246;0.040272184;0.033799373;-0.030640183;0.031752635;-0.14779685;0.12379558;-0.017514931;-0.1999571;0.094303206;-0.17125952;0.11621638;0.03906076;0.0014362639;-0.00593498;-0.017365994;-0.20938307;-0.1657204;-0.2836336;0.17554651;-0.142578;-0.008030544;0.03706844;-0.071359806;-0.0009790964;-0.0072276453;-0.1942256;-0.20743825;-0.11376065;-0.1700136;-0.010464336;0.028404921;0.1631861;-0.020237282;-0.0020948632;-0.15753308;0.13717999;0.019430352;-0.08758979;-0.0059496597;0.009560404;-0.22500831;-0.24433231;0.14167437;-0.41574472;-0.36261883;0.005071191;0.26378173;0.0029633772;0.01455348;-0.12676775;0.06286763;-0.0005267523;-0.14564295;0.2694486;-0.16618286;-0.16799179;-0.0055003553;0.132089;0.17429243;-0.27847522;-0.26084825;0.23355034;0.009878275;-0.2556643;0.007700896;0.005686877;-0.0033388995;0.013743723;0.20182669;-0.2516039;-0.08876372;-0.028906591;-0.03609974;0.123806834;0.38826624;0.18787126;-0.007661181;0.2816435;-0.011361052;-0.0018854417;0.17191076;-0.1640064;0.03806817;-0.0068544126;0.004856884;0.032519657;-0.29877096;0.31196898;0.011754618;-0.2406449;-0.012978537;0.009549625;-0.05270761;-0.0054263;0.07409274;-0.29605353;0.007026281;0.024020383;-0.06427589;-0.0034455776;0.43329614;-0.43146506;-0.024762658;-0.009061065;-0.14581801;0.012597705;-0.057419047;-0.058794722;0.00483047;0.01669617;0.28984272;0.041688047;0.008792089;-0.034409083;0.21745314;-0.19388165;-0.19097613;0.039418776;0.054400325;0.0018395417;-0.0046117934;-0.03075295;-0.060441863;-0.14930129;-0.52944267;0.003019087;-0.06424358;-0.42390996;-0.39374727;-0.017478365;0.097384885;-0.06057007;-0.0061273654;0.3289418;-0.01086463;-0.17012931;-0.04869321;-0.030220248;0.0055360026;-0.05173438;0.22003303;0.24649556;0.13327573;0.38944507;0.046745148;-0.08684284;-0.086689495;0.008381548;-0.40431288;-0.12090939;0.005396794;-0.0077458997;-0.0066504367;0.2610812;0.57622653;-0.5425513;-0.41542587;-0.050614804;-0.023115713;0.30302176
0.19137758;-0.15828504;-0.007878724;0.025262643;-0.0005432067;0.115064405;0.12524162;0.017946385;-0.15759383;-0.0038996798;0.058176935;0.33296543;0.008765025;-0.010529585;-0.35561213;0.0012732903;0.0048763;0.16596313;-0.24194986;-0.6170232;-0.40918127;-0.29804045;-0.246258;-0.45127276;-0.01842477;-0.13162935;0.0016887039;-0.20360711;-0.45925507;-0.21317601;-0.2817627;0.35302475;0.07595237;-0.0025352512;-0.0021962274;-0.0020714048;0.0045680464;-0.14093357;0.18168053;-0.6335422;0.11653099;0.005718239;0.2236342;-0.4257469;0.146365;0.113959305;-0.013843967;-0.03620601;-0.0016591131;0.39743897;0.00928854;-0.1156867;-0.6349585;0.12858431;-0.017626101;0.0139395995;-0.2943417;-0.07734423;0.060017634;0.0045175646;0.0063987575;0.1783903;-0.0026363246;-0.009977801;-0.20874524;0.41957027;-0.010206185;-0.017437555;-0.091217406;0.022101425;-0.15211348;0.01084304;-0.08776819;0.42286727;-0.4656843;-0.0011219254;-0.24884968;-0.33371666;-0.0030636785;-0.14905326;0.013259084;-0.40259758;0.007764101;0.14440152;-0.03299563;0.085417554;0.0047327275;-0.2941331;-0.009682804;-0.0033197277;0.0561076;0.0021649788;-0.25084332;-0.53344;0.40383843;0.30804732;0.49617603;-0.65707165;-0.38845345;-0.36991298;0.15014079;-0.40253747;0.20252994;0.080167234;-0.2242866;0.03620402;0.11546854;0.3901042;0.14637876;0.4966091;0.3442302;0.41397342;0.0055141505;0.086044274;0.018722957;-0.0060593477;0.0008009177;-0.3363054;0.041799795;0.10589319;-0.015419037;-0.36372983;0.037766736;-0.100306794;-0.002359516;0.37181804;-0.22807527;-1.0384572;0.115629904;-0.3278374;0.18947135;0.49475923;-0.6887396;-0.004534893;-0.38292822;-0.004584313;0.028834298;0.0030337535;-0.052810512;0.07764284;-0.0069881235;-0.13454622;0.32943785;0.20199263;-0.476337;-0.0033781086;-0.5250346;0.011294682;-0.07498301;-0.076884724;0.0002345211;0.09202463;0.20597583;0.3314593;-0.5864577;0.01762618;0.0009076394;0.08471238;0.0039081257;0.47699445;-0.16963834;0.282353;-0.08947751;0.0007897757;0.026414104;0.015673228;-0.0025473125;0.16974553;0.029991547;-0.04828734;0.280962;-0.0065505607;0.4099435;-0.23336127;-0.049320906;-0.18628049;-0.004155823;0.16494496;-0.35156065;0.004148427;0.0011145129;0.0011815375;0.0070919846;-0.09520784;0.007454277;0.34589493;0.00062040566;-0.06597329;0.10603255;-0.0009671167;-0.08895062;0.083523214;0.09707177;0.008266897;0.33153847;-0.24186331;-0.041495714;0.08575059;0.025062453;-0.045355737;0.16561657;0.08667502;0.10227967;-0.3078177;0.058692798;0.45328215;-0.04714836;-0.22757162;0.22577548;0.08245925;-0.07836448;0.10484904;-0.37368312;0.003084304;0.00012384255;-0.0011476289;-0.009297949;-0.33038104;0.09622251;0.046999406;0.3234459;0.09133523;0.39968553;0.009684071;-0.05862665;-0.34149885;0.035343915;0.25782835;-0.39922574;0.0034947812;0.32678568;-0.24882588;-0.009500011;-0.06164335;0.1632171;-0.24978282;-0.3014833;0.0012824693;0.6146462;0.15456884;0.14043678;0.046313092;-0.24107282;-0.006262335;0.379871;0.23218742;-0.5781759;0.044002205;-0.0056641577;0.0074120504;-0.08000486;0.004878683;-0.36054897;0.036747362;0.0023951475;-0.3010624;0.35386983;-0.34604725;0.02413804;0.001069066;0.19635485;-0.0528999;0.0053303363;-0.0059040175;-0.004219451;0.09696555;0.056255177;0.060276087;-0.2414836;-0.16053928;-0.008335366;-0.10115772;0.17641042;-0.32728902;-0.0058695413;-0.0031033014;-0.20694411;-0.23296687;-0.0011989044;-0.00068944757;0.0035381727;-0.47773197;0.3373377;-0.18010929;0.08073204;0.012802865;0.005155046;-0.22009574;-0.00025808564;0.13339883;-0.069290444;0.044865564;-0.1090508;-0.03102275;-0.4594232;-0.39600304;-0.052350372;0.47652957;0.0018872494;0.0077922284;-0.16179821;0.0072763157;-0.004104733;-0.055354126;0.012749953;-0.16890632;0.17298555;0.0017453142;-0.1515194;0.49283794;-0.4705173;-0.011169922;-0.17713661;-0.00028373965;-0.60943466;0.2746053;-0.14170082;-0.12958328;0.13257097;0.007913017;-0.28211188;-0.13854958;-0.22256882;0.009496771;-0.0053078784;0.25981203;-0.124731034;-0.012790114;-0.2605684;-0.0011640566;0.0026164774;0.01021177;0.013413474;-0.0096667195;-0.27668872;0.016365651;0.34180462;-0.28533047;0.14328916;-0.14566909;-0.0027666388;0.06483975;-0.0036774212;0.20006223;-0.11483543;0.1494905;0.58974326;0.11522324;-0.03674093;-0.004041246;-0.0018829954;0.2710965;-0.1526341;0.17718692;0.0005754198;0.044006635;-0.29240036;0.09424106;-0.50089264;0.10773221;0.008284483;0.005024605;-0.457817;0.06879064;0.10453568;-0.2298037;-0.32795367;0.13991836;-0.71559316;-0.102942295;0.0046355696;-0.00022400547;-0.0058925166;0.25566074;0.05793086;0.01077527;0.21780872;-0.13815293;-0.31506422;0.63673437;-0.28324488;-0.08887343;-0.052689362;-0.49959272;-0.05079119;0.19109055;-0.007099978;0.09001243;0.41449445;-0.14993513;0.30291653;-0.013633566;0.0046360856;-0.112847604;-0.5350198;-0.7513354;0.0051540346;0.0039729895;0.007418847;-0.005549182;-0.16499828;-0.03372692;-0.000443688;0.0009161863;0.2746695;-0.0053259083;0.15414365;-0.5739135;0.042019207;-0.008706474;-0.16045693;0.12440958;0.053055964;0.016213445;0.12505992;-0.6286997;-0.18082316;-0.15487686;0.0012474719;0.080347374;-0.04648504;0.14569458;0.00928928;-0.13132326;-0.18617988;-0.4075139;0.30088308;0.16758347;0.06177559;-0.028776722;0.06772988;0.02531783;-0.27989018;-0.37597048;0.10963091;-0.26496544;0.004516266;-0.013910921;0.13893859;-0.0002970292;0.0053634187;-0.1723128;-0.13700503;0.01826839;-0.1052226;-0.0017595713;-0.004444322;0.22977388;0.006970161;0.0048755445;-0.05005567;0.1991852;-0.0063047563;-0.4773249;0.003711925;0.0013649339;-0.06602037;0.08382508;0.3423853;-0.6881233;-0.40914908;-0.0037061118;0.017974699;0.003104465;-0.013223071;-0.0017114517;0.19810012;-0.00081562257;0.08995414;0.11453371;-0.27832067;-0.062004343;-0.0007441658;0.14848702;0.25025606;-0.23865154;-0.011759791;0.16306129;-0.008950245;-0.46997637;0.011553759;0.005957846;-0.038118497;-0.004947364;-0.15471956;-0.2056422;-0.14493346;-0.20804088;0.02405555;0.14907232;0.20051432;0.20512667;0.010950483;0.45001224;0.0031917982;-0.005641004;0.33127525;-0.25241575;0.07682401;0.39341187;-0.009855259;0.114829056;-0.3868506;0.41928998;0.0003242042;0.003944568;0.010853088;0.0028023054;0.040449698;-0.09255335;0.16170934;-0.1696468;-0.0047689956;0.002178241;-0.00068003824;0.007105281;0.43990922;-0.35501158;-0.0973077;0.008879775;-0.33063272;-0.012847268;-0.23548661;-0.24736956;0.0014582265;0.0060185674;0.5548363;-0.25451848;0.12595189;0.0033487973;0.2409982;-0.009626119;-0.3048709;-0.039525595;-0.014954595;-0.0031190137;0.0031144195;-0.0543387;0.11018247;-0.047009304;-0.6501289;-0.0017992307;-0.09156887;-0.41177502;-0.17833503;-0.22180565;0.08187485;-0.1293303;0.014422306;0.28087464;0.0001728313;-0.21596701;-0.29471302;7.5796735e-05;-0.0012731982;-0.14283842;0.30283853;0.108843595;0.3532307;0.3531057;0.32440367;-0.32388717;0.0023805322;0.01044072;-0.59430003;0.12405877;0.17708503;0.0047515635;0.01122939;0.32140374;0.4802387;-0.57292986;-0.17467314;-0.089510724;0.018341467;0.31979793
-0.8622674;3.1658525;0.09926015;0.7741372;0.03994578;-0.21492068;2.2097692;-0.055793934;2.5955844;-0.011132278;-2.2877095;-0.46132654;-0.006080826;0.0033570176;-0.4126578;-0.06433443;-0.013220929;-4.6433167;0.17463876;1.7706302;-0.38617098;2.945843;-0.3334077;-4.085417;0.015119393;-1.13766;0.0031246347;-0.9565704;2.0705776;1.0578353;-2.1573398;-2.1149487;-0.7386132;0.019615592;0.018649317;-0.011975439;-0.03865249;0.7441712;0.023070792;0.5782969;-2.7683668;0.5773015;-3.2213411;-2.6252933;-1.9639462;2.0891275;-0.033356614;-0.8023542;-0.023477282;1.132596;-0.026653176;-0.46605462;0.0040449556;-1.8939068;0.060939945;0.024059793;-0.8811821;2.010912;-15.708113;-0.012298805;0.030125918;-0.53563833;-0.01590162;0.0048432625;-2.4586499;2.5023665;-0.014327762;0.11943254;-2.3454769;-6.7896614;-0.34164414;0.024401667;0.55607426;0.2911697;0.03757568;0.014516513;-3.1171055;1.9280127;0.047561847;-2.8378327;-0.010552211;3.600349;0.014570375;0.71513134;-1.0341839;2.0187225;0.037288908;1.6986266;0.07297111;-0.017522752;1.1875521;0.032613564;-0.6347154;-1.978075;-0.34767246;-0.4531671;0.35962933;1.7708372;0.56433624;-4.0898294;3.5764816;0.22069706;-1.178726;0.9588453;-1.793221;0.2483875;1.5035224;0.07519701;-11.890761;1.2261609;1.1506368;-4.2431126;0.024728924;-2.7010515;-1.748697;0.05624134;-0.005128523;-1.2025129;1.3365477;0.55441636;-3.4827437;3.3630633;-1.4484076;-0.024676515;3.7251167;-1.1219153;-2.5401857;-1.4442905;1.1195356;2.674911;-2.4922829;-0.566116;-1.8027413;-0.014458896;-6.0763197;-0.022151735;-2.5636435;0.08247045;-0.2255581;0.21204728;0.013721092;2.0020003;0.7851118;-0.14059654;2.8815358;-0.024224147;-0.5720214;0.008121428;2.2644536;3.9113467;0.010987881;0.42978638;0.70963037;-0.46071708;4.537071;-2.890398;3.8784504;-6.181064;0.039524615;0.274829;1.5817075;-2.7226303;-10.314209;-0.017403485;0.35738316;-6.5779476;0.03368183;0.13949732;-1.833695;-1.0681821;-0.79891384;-0.0033871215;0.7357021;2.834433;0.040455323;-0.73350096;-7.0381956;-0.8850128;2.303372;0.013639286;0.015439616;0.327309;1.3620169;1.2380904;0.0020126284;0.22192273;0.0034835658;-3.2453165;2.8009806;0.014703054;0.9432754;-4.5758443;-4.3295956;-0.017469086;-1.9535259;1.9107025;2.1594138;1.4328998;-1.7428571;2.2334266;-4.148453;1.519599;2.083599;1.6570879;-2.2094452;3.4627619;2.8958828;-0.18219353;1.4639893;3.5407195;-4.2781205;-1.2484756;-0.8387991;0.5601753;0.0110150715;0.016465649;-1.2640774;1.5902863;-3.738118;-0.26262164;0.9731704;-12.621443;-1.3188587;-0.017495025;2.2035334;-1.1586301;-0.7678446;-0.4999117;1.5611644;0.018437222;2.1149201;-0.48385078;-1.8512759;1.0712564;-3.013435;0.55406916;0.9577198;0.0624755;3.6899836;-0.17058921;-0.733607;-0.82701576;0.24616992;0.02427487;2.4613395;2.7529454;-1.9763854;2.4882476;0.00071136333;0.38547364;-2.2018316;0.01014738;-0.5032096;1.8801206;-0.047587562;1.3542327;0.5648154;0.14011735;-9.966056;0.020220846;0.21029595;2.8955061;0.018158814;-0.021423992;-0.018444011;-0.09428943;-3.4954717;2.56825;-3.585279;0.9120815;1.9192145;0.76605445;-4.927587;1.1467246;0.10022848;-0.02128267;-0.80468786;2.2411146;-0.029590214;0.00643948;0.003579197;-1.7245717;0.020352436;-2.7170053;-2.7099707;1.5345844;0.0040032463;-1.1609;0.05922488;-1.0859797;3.0993814;1.294185;1.5000361;-2.040188;-2.4365528;-1.8167895;2.6021855;-1.054257;-0.011060915;-0.0034558284;-2.9969335;-0.15913014;-0.034014907;2.3902252;0.6891785;1.644747;2.1222794;0.11349293;3.0702314;1.6291131;-0.7220254;-0.0013934746;1.111111;0.0014317244;0.5691958;0.32936415;0.020912362;-1.1981449;0.30397993;0.04999833;-1.6179912;-0.5005731;-1.3241869;0.01807354;-0.0037842707;2.2323444;1.7655946;-0.049732998;1.7000785;-0.01747958;-0.012854311;-0.013598818;-0.0019927134;0.0143000055;2.5667465;-0.023970097;0.7800763;-3.3117983;-0.5110995;0.83092004;0.01026394;2.0189042;-0.009701493;4.435043;-1.5279119;-1.1224914;5.3493977;-0.14291179;-0.058044832;-0.024335539;0.019883571;-0.84633946;-0.59309214;1.0763173;-0.0108642755;1.8333942;-0.8867495;-2.1393218;-5.7704186;3.1242034;0.18444936;-0.0011229981;-1.93021;-4.268314;-3.2392514;0.3632029;0.25054768;-0.33593073;-1.9274036;1.1995668;-0.019962013;-0.04116864;-0.021489738;-2.63066;0.5887122;0.05537178;0.16511276;3.2055283;-0.37687486;-3.5407293;-0.36486447;-5.503911;0.19534332;1.386357;0.39103392;-3.1438148;3.1056738;-1.4584033;0.053251777;-6.000306;1.1936096;0.030734329;0.033308025;0.03409159;-4.896465;-0.024847144;0.0056529916;-0.014559823;-0.018371198;-0.015025572;1.9175664;-2.0546737;3.2582908;0.005565919;0.41919014;0.49621424;1.2075673;2.3066804;-1.3450818;0.040335886;1.6143548;-1.8658949;1.6604345;-0.0088517135;-2.1842656;0.39981776;0.2612554;-1.9854724;2.240423;3.33713;0.58586806;-2.1337662;0.038014185;-0.5230582;-1.9619038;2.2592669;-2.052746;-1.7314711;0.5290204;0.08120552;-2.8703787;-0.1697846;1.9987508;1.4461719;1.041695;-2.6787367;-0.0031112286;0.14619386;2.7859433;-0.010607361;0.025275655;-7.908802;-0.51032835;1.4714051;-0.02010013;-0.02178004;-0.039879337;-0.2209059;0.020093618;0.017687714;1.215149;-1.0354773;0.02186121;2.9708455;-0.0037589234;-0.0032241016;-2.3469613;-0.45260087;-2.522478;1.7649832;-0.7391187;-0.12610577;0.7786206;-0.031505875;-0.045654163;3.2175062;3.051975;-0.019913368;-1.0059063;-3.6669009;1.5214666;0.51707405;0.0017611892;1.8223317;1.5562967;0.7592743;1.1653877;2.0272448;0.007529566;-0.5391396;0.13308062;-0.039470855;-0.12409434;0.05911908;0.46909228;0.40934715;2.4297137;-0.32975522;1.0404848;0.90830946;1.2187039;1.2242898;-0.008072155;0.1698992;-0.05258824;-0.024251059;-0.5287985;0.21693149;0.25295734;-1.3052893;0.023132904;1.1227233;0.93141395;-4.019669;0.038774807;-2.5452297;0.04008618;0.0064024534;-0.22428267;2.056222;3.1517775;2.7926376;0.0020858785;-0.038159426;2.0456629;0.010793902;-1.0768571;0.5350274;-1.1544726;-0.017821824;3.0722873;-0.014741442;3.89348;-0.37625217;-0.0027780978;0.060169652;-0.17599759;0.80562323;-0.31507507;-0.05067151;-4.4759717;4.792496;-1.8709213;4.381671;-6.7817626;0.0545334;0.40321168;-0.96577203;-0.6735931;0.7241059;-2.2044618;-0.06428176;1.8419554;1.2138007;1.5193638;-2.3895843;0.6356062;2.0520992;0.0741939;-0.76145697;-0.03624101;3.100846;5.9352036;3.5263162;-0.025599476;-4.695102;-0.40420702;1.7171082;-1.6558244;2.2739942;-0.28526956;2.142468;1.8774432;-0.00534182;-3.6168654;-1.7383342;0.8027922;-0.0023726383;0.00410109;-4.6506224;0.84181994;3.5115328;1.7790601;-0.20581375;-0.005792916;-4.0108166
-0.7205365;1.2276789;-0.028617991;-0.51739246;0.0058318214;1.2431222;1.9580146;0.05117219;0.72986126;0.04320803;-1.600212;-1.8354003;-0.007606439;0.015817594;0.930406;-0.01798594;0.016121637;-1.5345503;1.5704918;-3.9773142;1.3312439;0.3322729;-0.020443417;-4.1100774;0.013570419;-0.44208735;0.0319697;-5.4564233;2.758682;0.5353629;0.67222154;-1.6239823;-1.5326542;-0.011083377;-0.019674985;0.03772365;0.052623745;-0.6607593;0.45433736;-1.9105539;0.25684926;-1.2428362;-4.193001;-4.1857595;-1.642472;2.1289668;0.06981111;0.121468164;0.007100283;1.4689218;0.04661599;0.2153398;2.386692;-1.6975582;0.17008398;0.027921373;-2.3702075;0.48590297;-15.309505;0.30153555;-0.03742045;-1.3892046;0.01314645;0.0330066;-2.53587;1.2612294;-0.017575935;-0.117013834;-0.11879212;-7.8974915;0.69224447;-0.04606241;-1.8802297;-0.5046747;-0.96108615;-0.00782498;-2.4745066;-1.1041775;0.02673133;0.6362498;-0.021227803;4.531009;-0.008642805;1.059801;0.60465926;2.0660365;0.015577443;1.9135184;-0.06492705;0.032377988;0.083987705;-0.034223534;-0.5801034;-2.3539865;1.9829029;-0.49517867;0.73713046;-0.5830669;-0.33734876;-2.2245839;0.9141967;-0.49208665;0.22251648;1.2239834;-3.0162237;0.8657352;2.4062116;2.5954206;-12.159638;-1.2208955;1.7381182;-4.036859;-0.022556484;-0.73206395;-1.0247779;-0.027960286;-0.013024132;0.720408;0.92023116;-0.18204474;-2.0530283;4.769332;1.6111293;-3.0918567;2.775518;-0.7958076;0.37419787;1.9873153;2.8015447;2.228765;-4.9818683;-0.68209875;-3.2366679;0.045653425;-6.2351074;0.07034842;-1.4465314;-0.07040949;1.3686258;1.3160219;0.03438188;2.1339562;-1.351814;0.6078582;0.88673365;0.027185066;-3.6251523;0.017604372;0.6117483;0.55318373;-0.01273873;2.2243755;-1.140171;-0.8093837;4.1959176;-4.279729;4.1341224;-4.7419043;-0.000540982;-4.801451;2.752209;-1.5271679;-5.7603483;-0.0030662278;-0.39596316;-1.6367129;-0.017012756;2.371017;-1.780364;-0.64069116;0.9406551;0.03858859;1.7219479;1.2381507;-1.3523839;-0.48201746;-8.235694;-0.61815625;2.6854472;-0.010042061;0.047197837;-0.09726981;1.7904588;-1.8024995;0.032870255;2.2345297;0.004024205;-1.2423099;3.3485744;0.021571262;2.382494;-2.7005515;-2.3930695;0.008480123;-0.39989933;0.6687372;0.050990097;2.3157785;-0.6404079;0.48688483;3.4283187;0.40321034;1.5847988;-0.6434357;-1.0297583;5.1584244;1.6596371;0.58310145;-0.88650596;1.4835558;-4.4128175;-2.2632952;-1.3926557;-0.102109164;0.014746211;-0.004181974;1.0499077;2.5822055;0.34476584;-2.0964615;0.42797804;-10.59151;0.5110935;0.045013502;1.2674457;-0.8781877;-3.5824351;1.2844151;-1.8369333;-0.030278783;1.9665102;0.047920983;-1.819245;-0.65959364;-2.501464;1.4127554;-2.384729;-0.009943617;0.24129985;0.3657297;-2.1084623;-0.16891307;-1.1852201;0.0114661325;1.3863975;-2.7213705;-2.2680485;0.4586425;-0.002459879;0.49613875;-1.8428398;0.026149185;-0.10396978;-1.9740448;0.3900155;1.7371662;0.10416455;2.0486073;-11.03222;-0.022140391;-0.31922406;3.4668303;0.004967066;0.013446388;-0.0068766177;0.11778306;-0.5751259;-0.6736807;-1.6433845;-1.909092;2.0882034;1.3562608;-4.991709;-0.07998294;-0.022753507;0.0019693843;-2.7579994;2.0079248;0.048949447;0.035835195;0.005892689;-1.401532;-3.6947675;-0.4192018;-2.151034;0.35676745;0.011413802;-2.432216;0.048374027;0.48793197;-1.6966773;0.17141004;1.2653582;0.2583868;-1.8692302;-4.0412383;0.11119167;-0.26051396;0.04223764;0.014204509;-4.36993;0.40484822;-0.046979122;3.6102061;0.8357583;-0.7315417;1.000695;-0.10925561;1.4039885;1.9278269;-0.33145767;0.031789552;0.8379483;0.017966477;-1.2747267;-0.29035214;0.88594675;-1.3288162;1.6006333;-0.008492304;0.25141463;0.36433336;-1.1163933;0.014477807;-0.00086251146;0.87598455;1.2335559;0.076826744;-0.021898039;-0.011807451;0.011712252;0.030050486;0.010270061;0.081434704;0.5847596;0.122722566;-0.19511098;0.39621967;-0.37424457;1.0315048;0.0026514274;-1.2967094;-0.037571874;1.4051268;-2.5193021;0.43459162;2.5633924;0.17365886;1.2904055;0.033154942;0.009470638;-2.015643;-1.8556857;0.95314515;0.07485089;-0.39663845;-2.266571;-3.7946625;-4.031216;2.9848118;-0.11840475;0.0015872392;-5.368098;-7.8966646;-4.737616;1.2693678;-0.90238446;0.78922224;-3.0412264;0.48253235;0.06201336;0.011543847;-0.042142652;-2.7642386;0.85831285;0.0073810904;0.89540905;2.7613876;-0.12006321;-4.1046696;-1.1064683;-5.5532823;-0.9523024;-0.9590357;-3.0542514;-2.8338134;2.5273418;0.0446189;1.2299899;-2.4019525;2.6207378;-0.012681566;0.02018306;0.73435485;-2.4328566;0.46027017;0.0057252515;0.0019725026;0.039682347;0.027469797;-0.33533546;-4.444078;2.0228546;0.06434259;0.40871143;-0.16414988;-0.48915192;0.31563976;1.6969991;-0.018650822;-0.97117877;-5.3173194;3.0711496;0.012143558;-0.38737825;1.5131878;-1.8586577;0.1977787;1.9102197;1.7347656;-3.9867463;0.8397565;-0.0065176403;-0.20208167;0.017260397;0.07490548;-3.2364666;1.3869747;0.10935276;-0.0345068;-1.312509;-1.290623;1.1089959;0.7686535;-0.66951257;-4.2174573;0.037525576;0.07315148;0.7475008;-0.0031861756;-0.03654857;-5.229204;-0.9907275;-0.32123196;-0.0930806;0.053647287;-0.01741663;-2.7537405;-0.012825538;0.011806705;0.42730877;-1.3033937;0.021159558;3.611436;-0.020021738;0.017408872;-2.1849434;-0.09865471;-2.3347592;0.8682073;-2.1487944;0.5495885;1.3937305;-0.0054384824;-0.009367782;2.3079352;1.4735142;-0.0037409037;-0.629329;-2.8208766;3.271777;1.5780597;0.02003433;2.1617913;1.0401179;-1.2764863;-1.0383244;-0.35446006;-0.048060622;0.039744556;0.030344084;-0.048318893;-0.25450334;0.0022839266;1.4626617;1.9397063;2.731038;0.59574485;0.4721599;-0.20269483;-0.8433937;1.4891064;-0.014371774;-0.27348423;-0.0067058126;0.058371723;-0.4551981;-1.7820181;1.7610017;-0.94945896;0.061212875;2.130126;-3.6753402;-1.7017413;0.0071552233;-1.3168552;-0.002166851;0.08108057;0.46078548;1.3562342;3.0612628;0.102761045;0.008385961;0.018962849;0.8684396;-0.007936206;1.4611464;2.5352926;1.8299567;0.038910758;3.1951058;0.0035884713;2.7603762;0.573933;-0.02252416;-0.029701414;0.43082023;2.5365968;-3.9490068;0.050851423;-2.7146502;3.4463112;-1.7964007;3.223633;-7.4686756;-0.013528757;-0.13476929;1.5083989;-2.8467846;-1.6676402;-2.216191;-0.0042761546;-1.0520282;0.5236203;1.240762;1.0550225;-0.71366626;-0.935174;-0.02250902;0.7716745;-0.0028906206;0.31645718;2.6143548;5.0833063;0.15772143;-3.1961575;0.1695964;2.853837;-1.1402467;2.2738774;-0.09429617;2.7965086;1.0836191;0.017936833;-0.5018971;-1.8383067;2.5624297;-0.00888722;0.005518882;-2.8578908;1.6954439;2.6734061;-0.27679518;-0.44775328;-0.015974877;-1.7016232
-1.7810144;-0.6450755;-0.027561944;0.044050414;0.061022572;1.2509682;2.1223392;0.016534422;2.934851;-0.028417;-3.3828528;0.45462078;-0.0060340595;-0.004460562;1.1326995;0.09618645;-0.009860033;-3.344627;-1.3876634;-3.0254989;0.82307345;-0.12285951;-0.7560912;-3.7553737;-0.015145203;-0.98458725;-0.025127806;-5.912585;1.7467066;0.70253015;4.8764706;-0.054397758;-0.4966789;0.04020354;0.00070376106;-0.025175093;0.021771636;-1.7801158;0.4279364;-1.2623725;1.0592557;-6.8748875;-6.80873;1.6488309;-1.9139128;2.5225997;0.023911726;-0.33329952;-0.05539067;0.6489768;-0.020958126;2.4287016;0.19779995;-2.7006779;0.09118553;-0.05095622;0.35556617;-1.126722;-16.407192;-0.0737296;0.021524936;-0.7555174;0.027382458;0.021830607;-4.218916;0.35248634;0.004271722;0.061095793;0.5898173;-8.62828;1.7933893;0.0363009;-2.2502882;0.92780966;-0.1420277;0.010168447;1.2048206;-1.4644653;-0.008821036;3.0046015;0.04112096;1.8621976;0.0006117486;2.3183455;-0.0103668235;3.198985;-0.011798906;2.1885035;0.016817132;0.037666347;0.2579628;0.019596627;-1.0427692;-2.094361;0.08340697;-1.6284121;1.2131844;-1.3197482;-1.384111;-2.6940513;-2.878458;-1.400815;-0.7634237;1.2114567;-1.6956719;-0.30118582;1.7630281;2.2914312;-3.723543;1.9395127;1.6015227;-2.7240233;0.0072439564;-1.3305632;-3.2241464;0.020459017;-0.09754841;-2.8083222;-0.5461654;1.1080457;-3.1888275;1.433386;-0.18115844;-0.69223857;1.9443178;1.1115385;-1.2203261;2.707486;1.9203072;-0.049358323;-4.952289;-1.3912196;-2.6059473;-0.020313444;-5.780276;-0.0074193827;-0.40220267;0.08490742;2.9275827;1.105432;0.004953233;2.4513552;1.0836262;2.5405142;1.2828393;0.0056891697;-2.1636713;0.029051282;-2.3912888;3.8260243;0.03667231;0.6411308;0.13502948;0.12177345;3.873673;-2.6896968;-1.4419773;-3.208336;-0.0033909145;-6.8633366;0.99835074;1.0660156;-4.5986257;0.0023792605;-5.667623;-2.9591155;0.044306803;-0.23744385;1.1036948;-3.375956;-1.4253336;0.018344155;1.2469568;-1.6898149;-2.890959;1.2861961;-9.091983;-1.7697005;2.064275;0.03214213;0.0025293117;-0.04963109;0.36220336;-1.148538;-0.005527213;-0.008326565;-0.08164117;-2.1528194;1.5187522;-0.019784193;-0.001420277;-1.6120764;-0.40297562;0.003343586;0.11509809;2.385231;2.8231063;2.7134836;-2.7454398;0.8253291;-2.0619435;1.9910254;-0.97261834;-3.0680604;-2.0749972;4.7189894;3.9379559;-0.09944866;-0.49895865;2.4780746;-0.41339475;2.7996027;0.08691377;-0.081400506;0.037170418;-0.0009291659;-0.17654787;-0.19117829;-0.3917705;-2.8085146;0.99132365;-11.342617;-0.0070858076;-0.06144583;-0.040006693;1.0365521;-1.6523216;1.8637403;-1.3192241;-0.0010703003;1.7231216;-0.81414026;-2.1642153;-0.813053;-3.5884;0.23631594;2.333254;0.004573568;1.3684733;1.4162027;-1.9884763;0.80893266;0.4094441;-0.011394902;-0.60243165;-2.8378603;-3.1665342;1.0094248;0.00047964614;0.3801596;1.0538546;-0.0070301457;-1.2995615;0.79737496;-0.15986305;1.577227;-1.6693301;1.7161466;-12.114827;-0.025686253;-1.7058791;3.0626912;-0.022183252;0.02558735;0.008949711;-0.42634958;-4.650258;0.7303629;-1.3499403;2.3378656;1.392276;2.2162976;-3.4006155;3.1064985;-0.06666413;-0.01108828;-5.169367;3.20613;-0.016550008;-0.015945245;-0.0139428945;-1.2299997;0.65667015;-4.5482087;0.6663774;0.41212478;0.023777703;0.5041939;0.0030569013;-0.6922922;0.3213881;2.5664706;0.9524969;-2.1486356;-0.88278717;-1.4985498;-1.5906869;0.8716835;0.023780871;-0.03611037;-3.6938508;-0.13393247;0.024372721;3.5731866;1.092516;0.5700058;2.7161174;0.26825976;-1.5867484;-2.8086405;1.3611463;0.013480569;-1.8590208;0.061887912;-0.04589828;2.2261195;-1.4204627;-1.7389264;-3.4778483;0.048011873;0.9260228;0.6889864;-1.4005306;-0.0044115772;-0.029192613;0.76862645;0.70093;-0.045721903;-0.7660982;-0.0015896123;-0.022793373;-0.0053357063;-0.0018542304;-0.052898373;-2.2381697;-5.9618036e-05;1.752097;-0.050167717;-1.0454142;0.34052473;-0.029155256;3.1570518;0.04348681;1.4888294;-3.56828;0.81193256;-1.1286081;-0.25594565;1.2819998;0.055101823;0.018620973;1.0052965;-0.24611416;0.6518813;-0.03764038;0.9331472;-2.546623;-0.20875163;0.91187173;3.1097925;-0.11450304;0.005092131;-5.9188924;-7.8879576;-6.0117717;0.14534084;-1.2905116;-4.475107;-2.3910012;1.7990803;0.017622374;0.06076736;-0.15918161;-1.5920856;2.2062037;-0.01616692;0.09967129;2.4219675;-0.65766644;-5.0617733;0.76679164;-8.0271225;0.9392021;0.2742491;-0.053698726;1.251663;2.135591;1.430703;-0.24888489;-2.865634;1.7420723;0.02468144;-0.03490525;1.3221004;-2.3757749;0.50489163;0.026704092;0.011889011;-0.007847756;0.004047865;-0.77654195;-5.276747;1.1443121;0.0039308346;2.857134;-0.05030491;0.17624736;0.98207015;3.469163;-0.0128561715;1.5196077;-1.9485424;2.4313774;0.08250184;-0.3133587;-0.37660784;0.22763415;1.107808;3.5814843;3.587426;0.1578478;0.4417158;0.048174743;2.5295599;0.9601731;1.2823354;-3.0544531;0.7252385;0.71568024;0.02746872;-0.5211018;-2.628271;0.76155263;4.2506623;2.0787632;-5.24772;0.060018055;0.0974546;3.1028059;-0.0021280663;-0.01783214;-5.3396654;1.022998;1.5827862;0.6281893;-0.014010642;-0.030361751;-0.2134914;-0.002645651;-0.026555143;-0.43498835;0.7194514;-0.024378296;3.487631;0.02398546;0.028016493;-4.7019315;-1.0371604;2.392105;0.60907423;0.15719022;-0.1496757;2.0271475;-0.004443569;0.07348819;2.046259;1.626749;-0.017508518;-3.32865;-3.4266222;1.9118297;2.3097122;0.027014751;0.62476474;2.0490878;-0.8497831;0.2404645;1.550038;-0.047580767;0.46620753;0.005160988;0.23782799;-0.16391183;0.054248713;4.3934703;1.2190638;2.6525128;0.4468864;0.64132285;2.8488731;-1.472051;1.5581057;0.03209602;-0.39511526;0.060762953;0.039398745;-1.1136254;-2.5118976;1.4383041;-2.567849;-0.06170319;2.2703173;-3.004197;0.6450806;-0.017644707;-1.1258503;0.0172185;-0.020159457;-0.3519032;1.2942675;2.5602849;-1.6078293;-0.024835011;0.09088766;2.7014182;0.0064964797;3.3574347;0.791964;0.98542327;0.0012797765;0.39645696;0.003969437;2.4060915;-0.07814316;0.091941215;-0.028517395;-0.6305055;3.3612535;-1.5459957;0.009239401;-3.2533026;3.5573258;-0.08392499;3.0012822;-10.651135;0.038664468;-0.010587713;1.3900089;-5.75625;-0.26303947;-2.3581536;0.0015334814;-3.7342153;-0.8215628;0.36930785;1.3011155;-1.3711447;-0.5424925;-0.026664224;-3.982316;-0.012499341;-3.3487532;3.5558052;4.3171973;-0.09245587;-4.480909;1.3763297;1.7080513;-2.2085779;2.9617012;-1.5950099;-0.4188282;1.0105308;-0.030914068;0.8335907;-2.322538;2.5789046;-0.0010669379;0.033312935;-2.3883398;0.78295434;1.2256298;1.9872464;0.78468645;0.01138599;0.3868602
-1.7256585;0.6539886;0.029806992;-0.6222579;0.012736173;1.1727709;0.7521141;-0.012333698;3.2702234;-0.011559736;-3.552819;0.67557853;-0.010062872;0.0029502215;-0.35722584;-0.028582476;0.0066823945;-0.3425651;0.7419143;-0.33887786;1.6919272;-0.26010635;0.17128079;-2.4186237;0.058588393;0.2404639;-0.007991934;-2.2989817;1.2361467;-0.5772387;3.1475961;-0.2610235;1.8398445;0.0563154;0.03787585;0.002974635;0.019265613;-0.22464538;-0.15613557;0.8294494;-2.424001;-7.417876;-1.29206;3.0735242;0.76101565;2.991828;-0.00482651;0.2284037;0.0028897384;-4.311793;0.015494944;1.6012491;-0.5462225;-3.1510215;-0.09836732;-0.003136403;-3.2099335;-0.63076526;-15.75253;-0.017698372;-0.029862022;-1.0252057;0.014963776;0.01549144;-4.214831;0.55919915;0.045903817;-0.1488908;2.6650307;-7.6287513;-1.061199;0.012531352;-3.3292859;1.5957896;2.5615933;-0.013585958;0.04342741;0.99107665;-0.007620839;5.15736;-0.009814241;2.5671287;-0.0025657783;2.3676257;1.1711962;0.9951814;-0.046977226;2.138207;-0.016036846;0.016209012;0.5308293;-0.05137732;-0.20402674;0.41962856;3.114777;-1.0302308;1.4524766;-2.0084372;-0.21499251;-1.8591933;-1.566576;-1.9632764;-0.188609;0.29994893;-1.4227549;1.3454452;2.8183494;4.9681783;0.96753806;0.004921397;2.3169286;2.7903244;0.010284147;-0.634461;-1.2487472;-0.027968494;0.4814258;-5.2087703;-0.8455326;-1.1554524;-2.729243;0.5516859;-3.4477997;-1.1446042;2.1083052;1.967995;-1.8413682;0.5982125;2.50133;1.1920258;-0.012215567;-1.919522;-2.777462;0.036337644;-5.017886;0.010590171;0.0608907;0.07919157;3.0763474;0.8990242;0.010357694;2.8652432;-0.9646584;0.8913734;0.5614016;-0.069016345;-3.6175776;-0.02621163;-3.986254;5.012574;-0.007605907;0.882895;-2.1537104;0.6239405;2.431611;2.3420656;-0.21491957;0.35620752;-0.012397643;-2.3844163;1.965819;0.5266674;-3.2075639;-0.025157683;-6.7544994;-2.4732242;0.0014790791;-1.6054252;0.9350219;-0.7909128;6.542652;0.0030263406;-2.4174209;-2.4574554;-3.6000223;0.046484645;-8.641937;1.6108915;0.99750507;0.07453753;0.10178899;-0.0014252814;0.94874734;1.0457528;0.017267425;-0.391093;-0.022918116;-0.02910513;2.6947463;0.002284771;0.7616567;-0.81527746;-4.148763;0.0873541;1.9958576;1.629296;0.25523365;1.7609802;-0.009363869;3.053667;-1.6169311;-1.349536;-1.7095019;0.8507781;-1.6260399;5.288912;3.6501572;2.0301769;0.9356285;-1.1831199;-3.4207182;2.8757133;1.209243;-0.020344779;-0.098633185;0.04135907;-6.032454;-0.96310794;1.7868401;-5.755971;-1.3718894;-8.294561;2.8014617;-0.0017106828;-0.91543055;1.6494148;-0.71192425;2.3894231;-0.7000689;-0.0037463997;1.595385;-1.6504554;-4.4226356;-1.9530827;-2.0674212;1.9911323;2.6755173;0.03860179;-1.4618177;-1.2155313;-1.0673071;-3.4079657;0.9958241;0.0064442866;0.93939394;-2.6629598;-0.5124186;1.9637089;0.004449494;0.053807743;-0.6119732;0.03483089;0.98181933;0.08494923;-0.05130668;3.8971481;-2.1657007;1.773054;-11.300085;0.041229967;-0.90893173;4.8442817;0.02261782;0.028006181;-0.012223941;-0.27676436;-4.737457;-1.1180134;1.491151;4.224792;3.4527087;3.8169103;-0.61669916;1.5011823;0.03526433;0.022404965;-3.8206446;2.142257;-0.0016987041;-0.05489558;0.055290617;-1.2867137;1.998689;-4.1376543;1.4242741;1.1690589;-0.016915744;-0.19239777;0.02637345;1.7835684;1.0426089;0.22548491;-1.4483132;-0.849614;1.7800488;-1.6388339;-0.791228;0.4092891;0.025585664;-0.020958966;-0.07968176;-0.054143712;-7.152341e-05;4.2322464;1.1393102;0.6587994;2.9752808;-0.13845442;-2.4214478;-4.138598;0.73407257;0.010305234;-1.2394092;-0.03517378;0.11338588;0.18808115;0.91669464;0.40492883;-5.613227;-0.048682697;-0.074260205;0.5740744;-0.60100263;-0.03104521;0.010150648;-0.06965553;1.9495715;0.039638992;1.5953768;0.058059055;0.054498803;-0.010965805;0.02046322;-0.021005295;-0.6822885;0.010253781;0.72239137;-0.67166823;0.3710823;2.7681172;0.014598392;2.5581539;0.22672904;-0.023304045;0.33517504;1.44344;-1.6998737;-0.061637167;0.30534616;0.012225711;0.0013333358;-1.2030134;-0.48885942;1.0343207;0.06563707;-0.47508287;-2.3730311;1.2284331;0.5326888;3.2608724;0.15751769;0.023006853;-11.685114;-5.421276;-4.8533645;-1.4738114;-3.9620066;-5.374339;1.7618194;-0.6075319;0.016607461;0.044627562;0.8612669;-0.76609427;1.2848555;-0.0002456041;0.48344502;1.0487305;-1.3523129;-2.5035572;2.0095453;-9.951606;-2.775057;-4.7894926;0.91386503;1.1635743;-1.7333509;2.5688953;-0.6586798;-3.4058204;-0.67027503;-0.0017512545;-0.00569195;0.9455188;-5.9334908;0.8072241;0.15263212;0.020814799;0.009487564;0.022920026;2.2343922;-0.27586716;-1.8409106;0.017737152;4.0624595;0.031911295;0.509148;2.5432496;2.0770988;-0.024193572;0.9732693;-0.07978602;2.6809442;0.04319918;0.29124773;-2.810754;-0.80216444;1.4648409;-2.2510703;4.322366;0.87001973;-2.575748;-0.042712484;-0.0733451;-0.04075629;-0.95481825;-5.8378863;5.9292626;0.34781706;-0.019943109;0.8777812;-2.1454139;1.5191622;3.6127279;1.7369034;-2.0563135;-0.011094141;0.0691721;-1.8641326;-0.0035133047;-0.023797052;-5.070537;1.4637382;-0.39051387;-0.864004;0.0293677;-0.01869187;-0.7521576;-0.010428266;-0.011553916;1.2757272;-1.7589675;0.0037557837;1.7604973;-0.022151822;-0.004075172;-5.618007;0.30389443;2.1890397;0.6438701;0.9357477;-0.067006946;1.4317704;0.0043069515;-0.044479508;3.6005664;-0.013268127;0.030811364;-2.3387918;-0.15039656;-2.099756;0.77659553;0.023497788;1.1695628;1.7589517;-3.7190974;1.0771998;1.7233218;-0.02586883;1.1161284;0.024527708;0.010734007;-0.14764829;0.013010624;-0.01576627;1.148947;0.36426854;0.11563094;0.8822985;-0.22031854;0.17821941;-0.5764761;-0.026025474;1.045768;0.013834138;-0.0560109;0.3121617;-3.7470157;2.7109487;-0.4218975;-0.05834184;1.9666641;-4.147785;0.28136134;-0.016029103;-0.21514997;0.020431744;0.011428853;1.6838082;1.4029746;5.104222;1.350329;0.022931991;-0.029228386;0.7283253;-0.036217485;2.5562475;0.025392808;0.8273464;0.021062491;1.3078542;-0.035848316;2.4241242;-1.4727538;0.026428439;0.020779502;-0.32311738;4.104711;0.080392726;0.027850121;-2.7400737;4.3521767;-2.0798569;-0.326486;-10.167856;-0.01786091;-0.017937895;0.78068185;-4.5013733;-0.053435404;-2.495773;0.009487985;-4.032506;0.9043977;0.693497;3.8474433;-3.713898;3.0605268;0.0026149792;-1.8209977;0.038387116;-1.508671;4.153417;3.7980638;0.035110407;-4.9765754;-1.1729032;2.6240141;-0.72962797;1.6255585;-1.6531394;-0.7918154;2.680099;0.022327365;1.3775008;-1.5777892;2.7095547;-0.018683854;0.027183892;-2.7061994;-3.3333743;1.5759971;0.29706988;-1.7352192;-0.020984115;1.0628806
2.6558027;-1.2794987;-0.072023444;0.55379856;0.018589275;1.9392651;-0.38727358;-0.00418569;3.1993756;0.014001229;-1.0727402;-0.73226947;-0.029818412;0.030493058;0.58897525;-0.015782032;-0.025527844;2.217432;0.002778436;2.4737923;2.2735069;0.80086416;0.23446006;-1.0631901;0.0048223785;-0.5837065;0.030759474;0.3793475;3.516744;0.08998562;1.8060817;-0.30869746;-1.8590443;-0.03436734;-0.029248863;-0.03739537;0.04747574;-0.95340705;-0.2992447;1.186608;-1.7586443;-9.240235;-1.0224875;2.0848124;1.5568209;0.9669091;0.074615955;-0.19243783;0.0013269525;-2.1170673;-0.022826841;-1.9210413;-2.1732297;-2.8308682;-1.1564356;-0.035662193;-1.7254927;-1.2010978;-17.020126;0.053369187;-0.0074824835;-1.3450502;0.017752616;0.0027651272;-4.8076773;-0.46163982;-0.042677823;-0.0047952347;-2.5908325;-9.6605015;-0.22059372;-0.027813299;-2.86929;-3.4462698;2.2229092;-0.0047158343;-2.634903;-2.8902397;0.0039109904;2.6554854;-0.028655203;4.3048472;-0.014404629;2.521818;1.7590691;-0.12692422;-0.008774349;0.6147065;-0.01895696;0.005685668;-0.6094642;0.054669194;0.257582;-1.0268922;2.6602006;-0.7687398;1.9107871;-4.61226;-1.9884763;-3.1393335;-1.5371436;2.4927619;-1.427704;0.16203336;1.6592697;1.8337903;3.8373747;5.517687;2.9906402;2.861581;2.282993;2.258156;0.053429093;-0.36415657;-0.3978644;-0.014658548;-0.13714889;-3.492788;-2.0082357;-2.856222;-0.92596835;-0.84334177;-1.821609;-0.87277025;1.9826434;0.35783124;-0.19180983;0.9276173;0.8846849;0.2630597;-2.421304;0.26795676;0.0613375;-0.009861802;1.4536667;-0.045965876;0.8148713;0.26362154;-0.4472946;-0.612779;-0.012170201;-0.0080040675;-0.15449357;0.41633192;3.0039012;-0.016159844;-6.066537;-0.0071370387;0.9607283;3.4576771;-0.0014662327;-0.25753397;-1.2656144;-0.88643134;0.83938396;-2.2527485;1.291899;-0.99067706;-0.0011006445;-2.88669;1.5759224;0.6858887;-3.0941951;0.028952923;-9.19949;-6.992471;-0.018185193;-0.430582;2.296605;-0.86142313;1.6246078;-0.014999692;-0.31832606;0.3896316;-4.3067775;-0.18938841;-10.678639;0.39150432;1.6973821;-0.033321273;-0.028199183;0.038239524;1.0512191;0.33047327;-0.0019472203;-1.3387531;0.023244066;1.1673406;0.43844053;0.0011047161;-1.2212365;0.017247748;-3.1099064;-0.02967778;1.5998155;3.0938087;1.4034233;2.7804282;-0.07993549;-0.94979376;-0.07411152;2.2289584;0.9814663;-2.015439;-0.339223;3.9305859;4.14349;0.52659124;-1.41606;-1.1142148;0.69506246;2.4888847;0.8848634;0.0052113812;-0.04392974;-0.005187152;-3.3428907;0.9164525;-1.6311682;-2.3495867;-0.65792507;-5.7081733;1.3502002;0.020186232;1.3334558;-2.219521;-0.84009975;2.3821774;-0.2905687;-0.0010997334;2.1107552;-0.05257134;0.18250401;-1.9029707;-7.8636684;1.765347;0.63798463;-0.0329644;-0.16193344;-0.03308071;-1.5189142;-3.323688;1.2250949;0.017995093;-0.40461424;-0.026001293;0.25981227;2.6065898;-0.00076265173;0.16690558;-2.2490323;-0.038292095;0.9685952;0.51265526;-0.0063991724;-0.44009858;-0.37095678;2.594544;-12.369253;-0.043932583;-0.2605791;3.1511002;0.0072901538;-0.0091841305;-0.009150601;0.6340042;-4.5674324;-1.842186;-1.0950255;0.50795525;0.7133773;3.7746902;0.8431243;-3.0799515;-0.050851535;-0.008913369;1.2904428;1.701749;0.006780149;0.0008846493;-0.026395148;-0.9623114;-1.424684;-3.726509;2.2011387;-0.7747781;-0.013865518;-2.9015095;0.039750107;0.23592445;1.3845495;2.8336947;-1.6756705;-2.1224074;-0.3753977;-6.2907286;3.5123048;1.5368161;-0.04579362;0.0117028;-1.4310534;0.043080814;0.0055191335;5.4664135;1.827291;0.5345727;2.6145656;0.0068028513;-2.5405865;1.3496515;-0.5842813;-0.03564676;0.693243;0.020989861;-1.7951196;-2.0886161;-0.7532854;1.202916;-3.903613;0.05222936;-0.5754643;2.9779143;-0.6643352;-0.022729259;-0.020565165;-0.6921771;0.58633107;0.003952876;0.83396345;0.050637405;0.027029384;0.03798821;0.0031414537;0.08419638;-2.152566;-0.019948298;1.808;0.6580448;-0.11187062;-1.0613927;-0.02842376;-0.79484653;-0.09168156;1.4196213;-0.09167393;-2.5600028;-2.3639145;1.7340146;-1.8518543;-0.020246858;0.01783504;-2.5752351;-0.7506174;0.31279916;-0.0112860445;1.3554025;-1.0732603;0.58616674;-1.3869771;3.3799682;-0.069805644;0.024717888;-8.698261;-2.9731038;-6.946561;0.74633;-3.737012;-5.497801;0.07981943;0.65465355;-0.06317932;0.003175886;-0.2322865;-1.8762157;0.9748425;-0.053693883;-0.6646222;0.20092945;1.6372601;-3.9651566;2.0737288;-8.048984;-3.3861408;2.4993377;1.8047493;1.8440301;-0.061059725;2.7960162;-0.8080485;-3.5577254;0.34236982;0.0056222626;-0.1435457;0.6952286;-5.739965;0.7709275;-0.003932135;-0.013008641;-0.0045646382;-0.02323846;-1.197977;-0.865446;-0.9539993;-0.045555837;0.58538383;0.020025;0.2946601;0.4287516;0.61214274;-0.002132543;-0.019734474;-0.08365256;0.54344153;0.045409508;1.772825;0.9138735;-1.5161151;0.52841014;-0.94183344;2.989495;-2.4328117;-2.9276628;0.03663332;1.4262023;-1.8005832;-3.231283;-7.299119;1.4326109;2.4180286;0.15190667;-5.262393;-4.477811;3.0787473;1.0375681;2.0152197;-5.3359528;0.007597954;0.02928374;-1.9510489;-0.04297614;-0.01103156;-4.6529818;2.6315837;1.7801858;0.41165543;0.019575419;-0.27365682;-1.5087105;-0.008989226;0.012333082;-0.08231153;0.8528664;0.028792558;3.2349849;-0.052908774;-0.03957113;-6.224213;-1.416657;0.45262545;1.4893883;-0.1759968;0.05164512;-0.06690813;-0.027547013;-0.011883006;0.1747416;-0.2692156;0.052258592;-3.9934387;0.30915466;-0.33797476;1.3304565;-0.011980226;1.7235687;-0.30375376;-0.78949493;0.5222517;0.5046874;0.018830394;1.3619075;-0.00728874;-0.20994212;-0.3659033;0.02001659;-0.25899518;3.0853455;-3.3487217;0.5095784;-0.87687016;-0.3996118;1.2533416;0.06752922;-0.0030587602;1.2347813;0.0040105195;0.009859266;1.2810603;0.7184095;2.0924428;0.9766994;0.062130608;-0.48590523;-4.607255;0.07223388;0.05039302;-1.7111802;-0.02053392;0.021920571;1.1091251;0.5369641;6.7961707;1.1991917;0.018054152;-0.014894452;2.6057806;-0.034525312;2.523283;-2.1447136;-2.8285465;0.0027862682;1.3441497;-0.06928417;-4.518796;1.6716889;-0.0010427505;0.007495759;3.5861468;0.79895097;-4.0048175;-0.0028935221;0.55673796;-0.43004498;0.9233423;1.9038562;-11.418959;-0.030934665;0.007296028;-1.9072008;-1.1233013;-2.2729626;-2.5523856;0.011109517;-3.2273638;4.2148585;3.7399364;-0.071630426;-1.9136264;-0.9256656;0.10030553;-2.062313;-0.005330899;-3.4178576;3.1521804;5.183551;-0.029157335;-3.8864913;-3.191407;0.96267045;-1.2071873;2.64308;-0.99886173;0.051770132;1.027125;0.009253788;0.5929134;-0.8235228;0.43746942;-0.015404152;0.0044898666;-1.3077518;-2.01424;2.0743046;1.15346;-1.4727106;0.026740823;0.7680356
-1.1091449;-1.1104598;-0.0014127259;-2.8916538;-0.011832913;0.45656583;0.6343323;0.032737117;2.5242178;0.02135146;-1.0056095;-0.049445804;0.0062185256;-0.012285853;-0.72692907;0.03670209;0.062799715;0.99494445;-0.19021063;2.2951925;1.1746869;-0.7152601;-3.5792503;-0.9599662;-0.047489133;-1.7423241;-0.038815197;0.6727111;2.9998956;-0.57565236;0.010057838;-1.2242464;-0.21712612;-0.022446306;0.01954531;-0.017373003;0.025504146;1.4479035;-0.7333671;-0.021578208;-2.0126634;-9.588405;-0.7649769;6.082925;0.7015104;1.0827634;0.006375406;0.923313;0.029845752;-0.10196873;0.005766258;-1.1462431;-4.292321;-2.59213;1.7011157;-0.0051568747;-1.0631505;0.64340156;-16.556326;-0.0054843677;0.031704184;-1.22078;-0.0045995917;-0.014410994;-0.01965518;1.2711025;0.042290006;-0.3305283;-0.28753096;-9.693861;-1.3006341;0.03800912;1.0203032;-2.2775943;1.5196173;0.005646883;-5.2367625;-0.81953216;-0.003129311;0.29538384;0.017612968;3.25632;-0.008645147;4.6959195;-2.5295165;2.1796074;0.06082994;0.22717175;0.033956714;0.012714487;0.9495833;-0.079361476;-0.40094107;1.0747118;4.1346254;0.27838686;3.9782693;-3.6969495;0.6856166;-4.8970084;1.0319942;0.97575694;-4.7486863;1.7056491;1.3834864;0.26887354;4.2368283;2.8102734;2.960476;-0.10411074;2.7378702;1.4173641;0.00036789896;-2.5384576;0.093534954;-0.028300613;-0.0054490506;-4.1291275;-1.3730241;-0.77247536;-3.0983393;0.12400672;-1.6110797;1.4208813;1.9536687;0.82927406;0.24734154;-1.1654806;-0.40554506;1.2534065;-5.5501866;1.5000703;3.659478;0.008180618;-3.338556;0.11199692;2.0122602;0.07126701;0.8718748;-2.3309612;-0.040642496;1.1702461;-0.91883886;1.5196486;3.0136855;-0.008618678;-2.229674;-0.012559215;-1.1858118;3.27664;0.013332432;1.0102346;-1.76727;0.47881898;0.9218179;-4.0042734;2.426325;-0.4178206;0.07737456;-0.12245794;0.19574323;1.5486737;-3.892591;-0.0012897608;-9.515364;-9.537374;0.028641833;1.9532646;2.8392837;1.5385765;0.9589756;0.030458534;-0.25169918;-0.71193147;-4.8730526;-0.7077408;-10.236092;-0.3002325;-0.105106436;-0.02866397;-0.026715254;-0.072049886;-0.37264204;1.262697;0.010279432;0.67599165;-0.017611274;2.4755447;3.1065047;0.10583189;-1.3018398;0.44565716;-2.8883069;0.009726529;0.3864047;0.4193488;3.1503186;2.0017767;-0.7184123;-0.04046036;-0.97307295;0.45208728;-1.9937719;0.72644955;-3.750159;5.5857434;3.8218439;-1.1616863;-0.99434614;-1.0873168;-3.505171;2.6154535;0.9087727;-0.038668808;-0.069168314;-0.01340014;-3.1547575;2.1209645;1.3876675;-1.0146322;0.4548419;-9.034974;0.4810027;-0.0045985132;-0.65896606;0.36549565;-3.5406516;2.4761562;0.6316054;0.008306561;1.7529899;-2.5173955;-3.2058833;-0.22890404;-4.754793;0.94915795;-2.2446482;0.0025331697;-2.7208958;-0.82852125;-2.725764;-5.180772;1.3769356;0.008795874;-0.74221617;-3.7686086;-1.2139133;0.80469024;0.008159628;-0.01904869;0.8854545;0.03202661;3.2664587;-0.7531305;0.0642185;2.249462;0.2538825;3.1195302;-11.793495;0.032905553;2.4884799;1.226406;0.0059619434;-0.006112245;0.0141357165;-0.75697106;-3.5040467;-0.16720942;0.27816904;1.5446216;3.5213583;1.1893011;-2.956492;1.2396222;-0.027849196;0.0038023433;2.4571927;1.5115486;-0.029891863;-0.0070451032;-0.013959219;-1.6678119;0.41160166;-0.093215086;2.1686087;1.9748927;0.0072927927;-4.1714973;0.024695955;2.4349694;4.907237;2.093499;-0.45721155;-2.51737;1.6276426;0.68295914;4.380817;-0.30939817;0.19783862;0.008611684;1.7879604;0.25527358;0.024266154;6.793761;-0.06794164;-0.08525435;0.5560164;-0.18707871;0.24774884;-3.6543243;-0.121271595;0.025566444;0.57322276;0.0199209;0.2542249;-8.906913;1.3803694;1.4085373;-3.8770628;-0.0046200915;0.25759676;0.1237529;-1.0920019;-0.02039864;0.00033120223;-1.9985034;1.1774011;0.014073963;2.0106661;-0.076778665;-0.030473055;0.02250495;-0.010805175;0.012526434;-2.5657597;0.055463213;3.0084372;0.21367243;-1.3331516;-0.48231512;3.0369109e-05;-1.2861488;0.0072312998;1.531605;2.677363;-1.2155163;-0.6784096;-0.18212941;-1.4399976;0.025747644;0.038785487;-0.1375867;-0.9392824;-0.4186502;-0.022594634;2.282661;-3.0062957;1.9191401;-2.8261268;3.1090236;0.17153493;-0.009147828;-5.894104;-3.507321;-6.740416;-2.2669148;-2.4672813;-2.181016;-1.0689299;-1.7887177;-0.036296748;-0.04410995;0.013556518;-2.7880034;-1.7335395;0.007937092;-1.6296605;-0.38943937;3.2346325;-2.7358773;-1.4373721;-8.330651;-2.4634418;1.1187752;-0.15930359;1.3463565;0.69654655;3.0628426;1.3140359;-2.483552;0.43884712;-0.010662789;0.62350374;2.4587095;-3.2025867;-0.09878535;0.036807638;0.016025078;0.014430086;0.038444214;-0.77844477;0.43489835;-0.073467374;-0.027846651;-0.3923335;-0.03567339;3.0418525;0.28338057;0.17801666;-0.055674236;0.8919219;0.38822666;2.063293;-0.014043503;0.025036108;1.502599;1.7861395;0.6355606;-2.351288;4.665337;1.0022466;-3.2305982;-0.053114958;1.1409076;-1.4939277;-1.8307074;-5.889511;0.43042165;-3.4688206;-0.025332617;-4.8098617;-4.557763;-0.9104359;0.6958254;0.82275057;-4.417431;0.028336657;0.046907876;-0.34319872;-0.02585711;-0.07693604;-5.2438493;1.5205953;0.18997335;0.028556932;-0.035942283;0.9410252;1.3879056;-0.010179247;-0.00011310796;-0.11126917;-1.1410589;0.016168462;3.5436351;0.0022730262;-0.012480767;-4.269622;-1.3687295;0.4267373;2.2311616;0.5198451;-0.0154760005;0.15290959;0.045469023;-0.0510301;1.2789626;0.5907952;-0.03160281;1.3564972;-0.02342855;-0.7308726;-0.7657361;0.037770752;0.79297477;2.294838;1.6270912;0.2616961;1.9297534;0.011723824;1.3715302;0.024202235;0.013271273;-0.02744517;0.01050376;-1.7075484;1.8870615;-0.40164214;-0.26154917;-1.8089892;-1.0793201;2.1812272;1.6337135;0.021439446;-2.354398;-0.05067332;0.022510294;-0.71177644;-0.013095142;-0.848845;-1.2760253;0.024817213;-2.1617432;-5.6616054;0.10841375;0.02395387;-5.2206755;-0.01021984;-0.029328741;0.05189137;2.2684383;4.847508;1.5491374;0.010811372;-0.10489663;3.3913455;0.26925397;0.3880877;2.3800557;-1.5309232;0.032358028;-0.2982492;0.07273658;-3.6297328;3.9582965;-0.024187887;-0.022347583;0.70610005;-1.6568497;-2.9139204;-0.12230782;-0.8945348;-1.4922563;0.25951922;1.3368691;-11.698222;0.03496514;0.019468999;0.51906824;-0.44562927;-4.5378585;-2.6941106;0.052471414;-1.1035752;1.5512071;2.7588964;-0.24019176;-0.18654358;-0.21763843;-0.075482376;-0.12030303;0.0024736833;0.6516915;1.986249;2.1234157;0.032864586;-2.0940554;-2.8526056;0.59271634;-4.822517;3.0476844;0.96583736;0.037998483;1.1101208;-0.0126583865;-0.9147772;0.8652278;0.3463716;0.0037725628;-0.018664462;1.0213046;-3.5610297;1.7758356;-0.76890737;-3.555699;0.055063635;2.3033822
0.2956846;1.967759;0.033626724;-2.1717067;-0.02636756;0.7024629;0.24767293;-0.032610394;-0.364132;0.003847832;0.6223964;0.07589347;-0.024853308;-0.0063408767;0.3132577;-0.07366765;-0.021919223;-1.7910247;-1.1545343;4.9066877;1.0335553;1.2477168;-0.124727346;0.46998346;-0.011378873;-5.482835;-0.013175174;0.8177265;1.9747413;-3.9093764;-3.0948598;-0.51367134;0.7588137;-0.01771306;-0.0328563;0.03780119;0.066869006;-0.06268291;0.9458449;1.2035178;-3.2389414;-9.142905;2.6136515;1.736281;0.71531296;3.5626712;-0.026437452;1.0081015;0.06259627;-0.2800098;-0.005741276;-0.021954106;-2.1839046;-3.3542197;1.9748079;0.021567786;-1.9559143;-1.7266381;-16.990627;-0.009402937;-0.02658376;-2.5704746;-0.016788917;0.022714235;3.0780091;-3.3723946;-0.04611665;0.1487475;-3.491238;-9.858581;-2.7382107;-0.004580045;1.4674997;-1.066329;0.91478604;0.06458189;-6.569003;-1.0143448;-0.041086543;1.027096;0.017787062;0.16699693;8.601223e-05;5.0255284;-3.5056164;2.0275369;0.036200177;0.79090756;-0.021393824;0.066918544;-0.05623562;0.0064127385;0.038182016;1.6402017;2.2842264;-1.9818277;4.0097785;-1.6134081;-0.41948888;-4.4959426;2.1013024;0.8260782;-1.6294591;0.5444264;1.0807288;1.0262486;3.1797044;2.2727385;-1.6226572;1.2970161;2.213914;0.69962597;-0.040135995;-3.0769937;-2.7063785;-0.0009574211;-0.015804684;-2.6285892;-0.7713589;-5.12056;-3.286903;1.9973735;-2.5811512;-1.6818771;2.1992793;1.053029;0.17486705;-1.1014799;0.77152705;2.0258353;-3.8528674;0.7031273;2.713536;0.016098553;-2.5383303;-0.071183145;0.83746296;-0.013226425;-0.6714529;1.2927678;-0.00908173;-0.49914047;-1.2658024;1.7191079;3.0488694;-0.020889226;-1.9886271;0.037246134;1.1103451;3.822455;-0.032143828;0.9420429;0.42630565;-1.8036013;0.5727397;-2.7247524;2.0851383;-0.6014175;-0.014523846;-0.49995297;0.7953897;0.8581633;-0.9016396;0.02754065;-9.6178055;-9.473174;-0.04844242;1.810702;4.0943985;-1.0626196;2.9533904;0.00463352;5.467078;-0.57688606;-4.505287;-0.08331203;-11.101478;1.2508794;3.627597;-0.008934218;0.0058324803;0.003168277;-1.8601158;-2.479539;-0.03262236;0.98389083;-0.017597847;2.9577236;3.2866309;-0.011912746;-1.5169932;-0.4768793;-6.0451303;0.030917576;0.28245935;-2.737947;3.372493;2.0414739;-1.7423705;0.02288233;-0.2739468;0.7027755;0.59571195;0.10691968;-4.437361;2.69652;3.2435648;-3.2125592;-2.1575315;1.391328;-2.9773467;2.7143323;-1.3833557;-0.085363485;1.0040282;-0.011511757;-4.149859;0.38276342;1.0203135;-1.8740486;1.8428614;-12.524761;-0.22806345;0.0003101721;-0.9059225;-1.8583493;-5.4610767;2.2869835;0.759803;0.015684128;1.4059507;-3.460122;-2.8961613;0.59854776;-4.028596;0.6342572;3.0640764;-0.016360665;1.9837372;-0.20589933;-0.81062037;-3.8739393;0.7918922;0.0029721102;-2.6757329;-0.5485112;-1.5313708;1.0379487;0.010412842;-0.010324481;-0.6480067;-0.03269306;-1.6443137;0.539713;-0.019693842;4.1082683;-0.16224843;4.19911;-12.3054;-0.011096262;1.5194377;3.9066746;0.029710898;-0.019980047;0.015541233;0.005329364;-2.8919182;0.35099062;-0.843814;3.44399;2.5548697;1.3986899;-1.687188;2.360273;-0.02582737;0.009172647;5.7741957;2.7371633;-0.022716463;0.009871056;0.03735745;-0.24066411;1.60727;-1.8051374;-2.203156;2.1850333;0.024911646;-0.44238478;-0.032646567;-1.1063378;3.199766;2.2960148;-2.3550353;-2.6172216;-1.4822847;0.20438331;1.392584;-0.30540332;-0.051227536;-0.016774924;2.1573784;-0.048388097;-0.00018094976;5.847103;0.5215457;0.3368923;1.0659819;0.03519336;3.9352484;-0.12862936;-1.7397795;-0.02490377;-1.1389633;-0.043202;0.6702336;0.270455;3.4118862;1.6284201;-4.744439;0.01630126;1.1421423;-1.2062522;-2.8000467;0.030273125;0.032103635;-2.035373;1.1527666;0.00553141;1.5931412;0.073626585;0.036807638;0.030915886;0.02647341;-0.02213294;-1.9297677;0.009965069;3.2895026;-2.2931507;-2.5156953;0.88689005;0.024517998;-3.483215;-0.008654549;3.152973;3.79146;-1.029868;-0.9021236;0.018518565;0.4644733;-0.0026528074;-0.036513053;0.24884595;-2.040485;3.0274837;-0.011488316;0.30470893;-3.4774163;1.6681916;-1.8563118;2.7568753;0.13284418;0.005972166;-3.0707052;-2.9506402;-7.401214;-2.78978;-0.17092423;-3.087039;-1.5066203;-3.493025;0.09500775;0.04794033;0.00023541428;-0.3770194;0.11235215;-0.0023166097;-2.8203478;-0.6388579;2.6680033;-5.6588902;-4.2328496;-9.532505;-3.2812147;0.5218143;0.65583247;0.47321078;1.4275818;3.1907458;2.3410501;-4.2647896;1.0646412;-0.008875028;-0.2507935;-2.3093648;-0.8485992;0.7908027;0.033122454;-0.024753725;0.022358924;0.029782312;1.3738718;-0.32584244;-2.1808922;0.072502606;0.6335968;-0.0656919;0.70610833;2.128865;-1.0187763;0.036242966;1.3511714;1.783203;3.2604272;0.031631723;0.8786828;-1.0511937;-0.41359267;0.34113768;2.5535438;5.134399;0.81569344;-4.464608;0.013867549;0.946873;-0.92259955;-4.217594;-5.6218038;4.105111;-0.5868135;-0.0007164296;-5.024779;-1.0978838;-0.4427343;0.6120729;-2.1691768;-5.078265;-0.02882331;0.026084391;-0.62698567;0.03346484;0.08562356;-2.3419461;2.200662;-1.367054;0.020586317;0.007327917;-0.25965986;1.1745706;0.000810925;0.032498464;-0.9611068;0.11493394;0.02521607;1.9198421;-0.000478416;0.035277683;1.9299701;0.90353984;2.721799;1.1019374;-1.1628488;0.03018058;2.7100763;-0.03079144;0.06974777;1.6003766;2.505798;0.006554334;1.0827783;1.0242383;2.6434128;0.59245735;-0.021064386;0.4985541;0.99648064;0.75595635;-1.6815144;1.0724633;-0.0014611796;1.5466132;0.0045049125;-0.033769257;1.2772862;0.011028487;0.015053723;3.4974153;-1.848504;-0.21900867;-1.6254541;-2.2351034;1.5798151;1.0941103;-0.003669293;-2.4301212;0.056284886;-0.014340867;-1.8806173;-0.2925321;-1.6279218;-0.4993038;-0.012039968;0.15052998;-5.3950014;-1.761852;0.007864204;-3.8208668;0.03346903;-0.015498408;0.20360862;-1.4917797;4.003098;-3.7111123;-0.0036723935;0.35529217;1.9092804;-0.103796154;0.52290905;-0.15724045;-1.8886228;0.007798474;1.1509129;0.015072963;-2.0037844;-1.3773961;0.0066605858;-0.016462678;1.790489;-4.493882;-2.2970943;0.54854155;-2.0832443;0.6279554;3.642868;1.2485437;-11.802593;-0.0460341;-0.009436062;2.493405;-1.4732554;-1.5244441;-0.58542496;-0.035250306;-1.9991853;0.5352777;2.2491307;1.477597;-0.06469339;0.4090573;0.007819101;-1.0168618;0.013675732;1.1037949;3.0960388;2.898467;0.002078713;0.25855395;-1.1908964;0.26799002;-2.219851;4.0074883;-0.33172774;-0.99176353;3.0454755;0.014330032;-0.20207158;-0.28854963;-0.46745893;0.021675892;0.008238483;2.997859;-1.5575576;2.7448568;-0.6993885;2.8112602;0.0059366617;-0.112217255
-2.1098063;2.890247;-0.014519821;-7.095476;-0.007897339;1.6327446;-3.6860716;0.05810667;0.44843727;0.03641497;1.7582278;0.47646478;-0.033070836;-0.019372182;1.2585636;0.05310711;0.034125477;-0.8987548;-0.33283213;4.9828124;0.9146126;-0.8436346;-1.2987888;3.3518672;0.021194702;-3.3574588;-0.042787746;0.02564858;0.6124323;-5.416419;-0.64714444;-4.439358;1.0468718;0.023382943;-0.03611815;0.053185098;-0.040647373;-2.3779726;0.12585641;-1.0530958;3.0408924;-9.8093815;2.0372965;1.3676479;2.23721;-0.7828129;-0.006401477;-1.0500871;0.035674464;0.113803335;-0.059968535;-0.5421437;-1.9207156;-2.9926574;1.4916216;0.0010840767;-3.2025726;-3.5003536;-16.647934;0.016799614;0.0022018377;-1.2412003;-0.0041428916;-0.00018498095;2.5387619;-1.9948032;0.0021681995;-0.28920203;1.0076206;-9.694105;-2.9882784;0.002748597;0.098609515;-1.7057115;1.4116641;0.021068567;-3.8176088;-2.771508;0.01472506;4.831941;0.05526911;0.5817632;-0.0027928206;4.2269707;-1.5964453;-0.4460402;-0.051763434;-0.08235031;0.0947013;-0.024616517;-1.2450613;-0.024566727;2.2080233;-0.6690661;1.37477;1.3000692;1.3931049;-1.9330238;0.3459725;0.24725212;-0.99237317;2.2679253;-0.03728102;2.0667267;2.8548498;0.99792045;4.557822;1.8992949;1.6638181;-0.63914007;-1.8269877;3.1883519;0.0067246663;-1.7672755;-1.0423704;-0.00784535;0.017273542;2.13343;3.1583304;-1.5374961;-5.2181892;0.5510764;-2.440828;-0.41262478;1.6698867;-1.3935157;-1.2389501;1.3752807;2.4140158;2.21875;-3.448322;2.031414;1.5408206;0.062242158;-1.1765895;0.15791145;1.1459854;0.012796906;0.8001344;0.73128533;-0.045679085;0.13741332;-1.7239791;1.2158383;1.0331454;0.0342697;-0.9491177;-0.026155332;0.23255706;1.6654415;-0.020823728;-0.5340669;-2.454613;-0.73281586;2.5888672;-6.325566;1.1435642;-1.0723068;-0.011319618;-1.4439112;2.245599;-3.4055083;-0.4320121;0.06200245;-8.9663105;-7.9712267;0.035065636;2.306784;0.264515;-3.3613887;-3.6567676;0.0182005;0.8965594;-1.6405507;-5.5878086;-0.82729405;-11.010959;1.4423302;0.76848346;-0.007829479;0.006448377;0.06988367;-0.9576382;-4.316823;-0.009867354;1.4190487;0.0018841488;1.8440784;1.9876074;-0.013217579;-2.3761425;-0.9544575;0.3291093;0.03565448;-1.2176272;-1.4790864;0.5448854;3.6716797;-1.0669242;-1.325726;2.4652786;-0.9227714;-1.1517102;2.074471;-0.84905;3.5936015;3.463184;-3.5023813;-2.814727;0.6989418;1.3986405;-4.31388;-1.9251829;0.06453835;-0.44000664;0.0342358;-1.3821903;-0.17914313;-1.1210283;-1.9968308;-0.4215095;-9.647953;0.7822183;0.0046813195;-4.111911;-1.6689149;-5.262748;1.7359489;-1.4830967;-0.06308416;0.9263042;-2.8122532;-3.2807271;0.4396031;-1.2370989;0.91472346;-0.6863466;-0.0065726205;0.8909365;1.3608446;-0.40184656;-6.058684;-0.38878927;0.00082344626;-3.0303972;0.50430256;-2.27634;-1.0248916;0.0029559222;0.34302396;-1.3375514;0.042613085;-1.2073613;-1.2555203;0.015967505;-2.070475;-1.6164079;3.0214407;-12.261501;-0.0016818335;1.7929251;1.1764444;0.03498925;-0.010936946;0.038064186;0.5071097;-5.0357594;-2.5293365;1.3382295;1.6363105;2.6188736;1.8700708;-4.105606;0.5899485;-0.021715958;-0.05323834;1.9955211;3.9431708;0.033974353;0.00817106;0.015871685;0.89648664;-1.926605;3.0188663;-1.6503007;0.9555925;-0.049370926;-0.31168494;0.021395067;-1.9115368;2.3619986;-1.4021778;-3.1894822;0.75529397;0.5865795;-0.27077106;-0.4058322;1.4416032;-0.05442752;-0.035272308;-1.1383361;0.22805937;0.006093026;5.262106;0.98667574;-0.3630339;-1.8423378;0.72661614;0.90522456;0.9679142;-3.4191725;0.02410029;0.031949583;0.050558623;0.9613539;3.0986261;1.3379402;2.466041;-3.747487;-0.0013595162;-0.11367824;-2.344859;-0.29587507;-0.022882871;-0.07740591;1.7281808;1.1430999;-0.009560061;-0.68241286;-0.0047365474;-0.04283077;0.042679183;0.008096139;0.012847069;-2.2426596;0.040418845;0.7111016;0.2943433;-0.8136327;-4.459426;-0.026293477;-0.86667883;0.023954837;1.5403324;3.5335934;-3.4357545;0.17503904;0.041570745;1.7177953;0.012150286;0.021423107;-0.73267317;-0.65923876;0.81973535;0.019820578;1.5381142;-4.5300155;1.4461552;3.2241187;2.6977518;0.19668154;0.053519446;0.08523466;-4.052256;-6.817734;0.99002564;-2.9940085;-1.9088937;-1.3684179;-3.2810073;-0.037249394;-0.06106782;-0.057578668;0.19837584;-1.187246;-0.018261388;-2.6304321;1.1268067;-0.26267484;-1.2758085;-5.3312845;0.59242165;-2.3325505;1.6096089;-2.3273451;-1.9408681;3.5660307;3.4500012;1.6371485;-4.6078815;-1.078517;-0.03140308;-0.0257978;-3.0201862;-1.977612;-1.577245;0.021541476;-0.048278544;-0.0056980103;0.013802613;-0.30441633;-1.2371078;-0.56530243;0.009879627;1.1435691;0.07704196;1.4844794;2.5374517;0.847222;0.009277278;-2.737007;-2.3782394;-0.018653909;0.004631117;0.3288287;3.87894;-0.34085494;0.4205272;-2.6672137;2.3518069;1.7998466;-3.441823;-0.0153525835;-1.3215923;-1.4857427;-1.0714025;-1.4456792;-1.5864018;1.9846237;0.24786907;-6.0186296;-2.7389553;0.28014472;2.533465;-2.3864472;-3.1318498;-0.036415543;-0.13894996;-1.5089462;0.011585561;-0.05430813;-2.2989361;-1.8309315;-0.7752567;0.7951519;-0.069737054;-0.14784515;-0.17915487;-0.012927478;-0.0064220587;2.4202125;-2.2160575;-0.018409662;-1.6682128;-0.00631171;-0.0013100149;-1.2449782;0.28052142;3.1266525;-0.20222272;-2.2142332;-0.061507244;2.2058852;0.024304572;-0.049790565;-1.2932304;1.2434248;0.005920797;-1.9108318;-0.25510934;0.26236266;1.3785088;0.014498288;1.9685742;0.3968975;0.33075875;-1.4345436;2.9675298;-0.041743077;1.1274655;0.033732105;-0.03971276;-0.6227636;-0.02362216;0.657001;-0.9539858;-0.060895637;-1.8243563;-1.819494;-1.01265;1.0018681;0.8691359;-0.020770747;-3.146357;-0.029231954;0.009487387;-1.0967239;-0.3765512;-1.5297008;1.474079;-0.027176164;0.8390768;-1.2770226;-2.2039669;0.063229054;-3.536815;-0.046187077;0.0027334357;0.17142521;-1.0217961;0.78962046;-2.2456272;0.002208763;-0.08066959;0.3940537;-0.02562084;-1.4723063;-3.2297192;0.41158405;0.03433917;1.0901124;0.0230026;-3.4890697;2.5775697;0.029740965;0.02002406;0.774939;2.947214;-0.23237704;-0.16647738;-1.4847729;-1.0908147;3.678294;1.3155302;-10.565441;0.020117436;-0.041303728;1.1123557;-2.7204752;-2.554411;-3.3964496;-0.005126544;0.95005023;1.0514832;0.16570254;0.66330665;0.9396607;-1.9349105;0.0044437204;-1.8555272;-0.010967105;-1.9162459;1.0979189;3.0073526;-0.022760347;-0.09638681;-4.3192015;-2.5127804;-1.084751;1.2549089;0.017467668;0.42458248;-1.5825114;0.0899216;4.1907396;-0.77247536;-1.3764133;0.027185595;-0.0505109;-0.7316598;2.3307893;0.76958954;-3.0716436;1.1738124;0.021348124;-3.239012
-2.5782256;2.4707856;0.00692661;-3.299355;-0.005615225;-0.5841418;-3.6155186;0.016104173;0.57082784;0.023383232;0.56625193;1.3312278;0.016707953;-0.0052446146;-1.1460295;0.008193286;-0.015415942;-3.4264514;1.621228;1.3450869;1.2528601;-4.6054125;-2.5434313;6.2204146;-0.0024175942;0.8125736;-0.0056232587;-1.0172265;-1.2650768;-1.8691359;-1.1214715;-1.8581314;1.9784322;0.026234264;-0.05499477;-0.008707208;-0.03984988;-2.3419397;0.35181448;0.5420081;3.7161994;-10.342891;-0.5894639;0.5635582;0.91450274;0.4535099;-0.0032977948;-0.36779898;0.043327883;0.8073559;-0.010591749;0.8331474;-0.9389243;-3.2888985;2.7735584;0.04649279;-1.9872341;-1.5612582;-15.326401;-0.009905589;0.051389724;-1.5522313;0.06479577;0.027782768;-0.90224296;-1.751603;-5.255922e-05;0.2119028;-2.0159738;-9.615901;-1.7566885;0.031153698;2.0498717;-1.0179693;1.1857588;-0.02994388;-4.5166483;-2.345397;0.03652669;0.14549173;-0.01957266;-3.4856875;0.0075548473;4.113117;-2.1668508;-0.7476003;0.012164668;-1.4208078;-0.014157419;0.018098086;0.9800477;0.014626033;0.03869667;2.967608;-1.757036;-1.7405645;-3.012275;-1.2570153;-1.6596607;-0.49526373;0.13701066;0.96995306;-1.298017;2.1493871;0.7200263;1.5467966;3.6121905;4.4719195;2.6452398;-0.20135574;0.17367628;-0.8010106;0.019160923;-0.7297714;0.15675476;0.070943385;0.006853939;0.7204429;0.9828304;-1.0375354;-4.1406903;-1.2999877;-1.8281653;-3.2647226;1.2595423;0.19656695;-1.6398054;-1.7092253;3.014803;-0.81013876;-1.5946147;-0.21905744;2.6995168;-0.019122848;-1.7628862;-0.05258176;0.46951967;-0.015850969;2.9973435;2.2036963;-0.0029027672;-1.3266337;0.9856028;0.014897853;3.2995694;0.05099016;-0.069593765;-0.02354514;-0.26106188;3.2748487;0.01992532;0.8453983;-2.9612901;0.15099004;0.7576816;-6.8274913;-2.0277722;-1.9090906;0.010055589;-1.8275638;1.5574952;-1.802117;-2.8828435;-0.036625087;-8.874817;-9.694782;0.026328364;0.5141601;0.6847242;-1.4492576;-4.003628;0.014677287;-0.08480868;0.4455897;-3.9795628;-0.8189536;-11.303119;-1.6755672;0.5094321;0.0067559215;-0.021768883;0.033799354;2.2725997;-1.1414447;0.043670166;0.6307962;0.023310972;2.7377942;2.272046;0.016403453;0.9458914;-0.71922076;-1.0008034;-0.022592505;2.260364;-2.4835012;2.8921425;3.417623;-0.14015806;0.3472134;0.41280684;0.87313217;-1.2859433;0.8567857;-1.4159373;2.3929257;2.5639794;-1.8481356;-2.4145455;1.970173;-0.6939249;-2.0184267;-2.2128165;0.015365916;-0.04590166;-0.0019829026;-1.3828955;1.0166036;-0.8826765;-2.2798378;-0.4996256;-3.03169;0.9220408;0.012248489;-1.0568371;-0.6517448;-4.291745;1.2579931;-2.241527;0.01482793;0.40353644;-4.966565;-1.870029;-1.0323927;-5.0384736;1.196973;-1.9052798;-0.029091612;3.2917037;0.66970426;-0.49280992;-4.5390987;-1.2851479;0.027163332;0.6349586;-1.4292079;1.9302593;-3.5587397;-0.044657294;-1.4951893;-1.1440101;0.06224968;1.342279;0.7369914;0.07267668;-1.7323673;-1.8237581;1.4371712;-12.424164;-0.029598946;-2.345184;1.1689719;0.0033370717;-0.0061568664;0.0061302516;-0.23356491;-6.5017276;0.63866943;0.8576118;1.5337723;0.299333;-0.04248709;2.9088266;-0.33009493;-0.014274409;0.043292925;1.0693445;1.8464541;-0.0020615833;-0.007084314;-0.003681449;0.98774606;-1.8630279;-2.2348506;-2.4879143;-2.5389094;0.053126138;-0.37673736;0.019830039;-2.253765;-1.3515062;-1.4299384;-1.3656206;1.9443506;-0.71789676;-4.433607;2.3988707;0.14333872;-0.00073926954;0.013786328;0.90114254;-0.27599412;-0.018776689;4.186667;1.512104;0.9980611;-2.1927164;-0.28016895;0.072632544;-0.026821546;-1.5187747;-0.022826409;2.0900667;0.021339398;1.1128017;2.8166976;0.803633;1.3787714;-3.607377;0.018828716;-1.6296059;2.083301;0.050201572;-0.022339286;0.003055306;0.9759428;2.6802907;0.0399106;1.0739005;0.012826677;-0.0476287;-0.022139423;0.0034359838;0.07559938;-3.2111444;-0.013808144;2.0820072;-1.6692977;0.99557406;-2.1810217;0.03351975;-0.53081363;-0.024707595;0.49349886;3.1656566;-5.3168573;-0.3989379;1.1203632;0.19731721;-0.006468255;0.028730081;-1.6208429;-0.73469514;1.0522454;0.04359169;1.9643523;-2.4282389;-0.18996616;-0.804653;2.2892926;0.14862609;0.09676165;6.173996;-2.2612574;-6.752217;-3.5123549;-0.47093135;-5.1659493;0.23923627;-0.54674274;0.0061540636;0.004515801;0.047012005;1.7514061;1.8924133;0.004588402;-1.1862209;1.2308704;0.2550672;-2.7803903;-3.4248781;-4.1438384;-1.305157;2.2677188;-0.9113128;-0.9929766;0.6967011;3.7640154;-0.1743338;-1.7524961;0.445113;0.022349164;0.02798027;-0.5646826;-1.2862072;-1.3416483;-0.0046556047;0.009227852;-0.010020084;-0.0036204446;2.6177664;-1.5931782;-1.0948372;0.004449092;2.933298;0.01963359;2.2577834;0.34383;-1.2165353;0.023657812;0.5454694;2.3766668;0.635377;-0.009741192;-0.19351481;-0.40127233;-2.7942877;-0.60453016;-3.3694282;2.535864;2.2181125;-1.7879679;0.030770939;-0.80512017;-0.045876093;0.25043404;0.9768421;0.6205833;2.7741141;-0.0047730394;-4.3482966;-3.7185194;-0.77247125;2.535299;-1.9556081;-5.551424;0.03423847;0.044965103;0.58643836;-0.011368502;0.002684604;-2.6158729;0.36435777;-0.5911696;-1.0176687;-0.024871128;-0.00038594453;1.441221;-0.008746692;0.041231997;1.4040979;0.62542605;-0.014851083;-2.6866388;-0.0012490359;-0.0025816448;1.7948234;-1.336351;2.381259;-1.90296;0.29599312;0.02185193;-0.7538448;0.009660997;0.006405419;-0.5860052;1.2774246;0.0073947133;-0.04431322;-1.8315642;1.0155083;-0.09416386;0.004071945;4.046261;-0.107292995;-0.09531763;-1.6986828;0.99539936;0.004901681;0.2693585;-0.030758187;-0.010591997;0.1643507;0.008555978;0.031366054;-0.20963317;-3.1778529;2.229118;0.10154912;-0.7301881;2.9367168;1.5582243;-0.018297736;-1.5173764;0.014316021;0.0022681109;-2.8613932;-0.7345961;1.1402092;-1.1147507;0.0059691;2.9650092;0.3585892;-4.555539;0.016565157;-1.2547139;-0.043668184;0.035733104;0.74794763;1.9390949;1.2098056;-2.529645;0.0015082351;-0.028972339;0.52264345;-0.0011027597;-0.66822803;-2.2221158;-0.47409484;-0.0047652046;-0.22526391;-0.038149185;-1.7459434;0.66071254;0.029284162;0.047426723;-2.3705535;1.2412146;-2.8527188;0.04218573;-1.076727;-3.9568102;0.5150576;-0.12683427;-12.019922;0.012049022;0.012862765;-0.38976675;-2.9435132;-2.6846983;0.007573957;-0.018553205;-0.7666869;0.60299283;1.1673722;-3.2784503;0.1140884;0.6363061;0.006770028;1.1906583;0.058672477;0.3497764;0.58947736;3.019652;0.055671327;-0.21312071;-2.3385084;-1.5724663;1.7928642;2.5660322;-0.30860412;-1.0695328;1.2934;-0.032996174;1.4474899;-0.8828022;-0.40942016;0.010072231;-0.020073516;2.8562708;0.8505887;1.0530202;-1.7844512;0.12074604;0.040206637;-2.142508
-2.5469272;2.140006;0.026888762;-1.9044381;0.05090513;-1.8047831;-1.683295;-0.02338878;1.9792706;-0.00340635;1.0931756;-0.45818254;-0.02670547;0.0053648422;0.26362163;-0.09128223;-0.0017251875;-2.3406587;0.61988527;1.5997186;2.8363745;-7.595737;-2.1052442;6.1886873;0.015255728;2.3454802;0.06965744;-0.40519708;1.1215106;1.354043;-0.97245413;-4.1875606;-0.42130646;0.031745095;-0.13037771;0.035922587;0.05957278;0.28089145;1.4108412;-2.1891906;1.6663778;-9.982154;-0.037688907;-1.06551;0.7538866;-0.7830835;0.08522494;-0.48074394;-0.0064203907;0.9766286;0.03528382;-0.10271308;-1.0312829;-3.847612;2.8544865;0.0018242594;-0.1779023;-4.8401012;-16.51895;0.035728063;-0.0061949217;-0.66706795;-0.034684382;-0.03200426;-2.4281137;-1.2315471;0.028940402;0.8232586;-0.7270061;-10.264323;-3.4248803;-0.00032401833;0.012078116;-0.39905295;-0.35073486;0.010136288;-3.300562;-1.4021739;0.022461254;1.0455363;0.04791996;1.1523244;-0.0086815255;3.8801835;-4.4078608;0.6520882;-0.04637308;-0.38313746;0.028817434;0.0056459876;1.7764955;-0.012813561;-0.15653734;0.82951736;-3.3780472;-0.90508366;-2.9212685;-2.2810764;-1.8474445;-2.1981528;-0.9942572;0.9574795;-1.7793694;1.6663997;-1.2683167;2.3787055;3.5971017;5.479498;3.5253801;-3.3926938;0.09441789;-2.172158;0.010484106;-1.9004011;1.7785246;-0.040215213;-0.03366251;1.3327985;0.90955836;-2.975474;-5.0231547;-0.9998772;-5.059984;-1.2667273;1.489537;1.1593648;-2.6019335;0.89968807;1.1938311;2.1730177;-1.4190824;3.8792243;-0.7313789;-0.011097116;-3.161017;0.037774302;2.906664;-0.084477305;-1.9674611;0.5018535;0.027622197;1.2816955;0.62013847;1.1253139;1.5128216;0.022832925;-2.929772;0.01731439;-0.9914554;2.2369628;0.10772967;0.963292;-1.7800839;-0.6794788;-2.011041;-4.103971;-0.647657;-2.220522;0.033084057;-0.989959;0.6928804;-0.48954788;-3.9953783;0.003046957;-9.518803;-9.12695;0.016425692;1.7960558;-1.0675136;-1.6303594;-4.024568;0.0038699873;2.424837;-0.9845324;-5.6311903;0.2799515;-11.546543;-1.5021359;-1.1021794;0.03670913;0.01974201;-0.0061888974;1.2822232;1.427215;0.017176056;0.5309515;-0.06914976;0.8860372;1.0169456;0.050332297;-2.3250651;2.8411982;-1.5626259;0.0042471793;-0.23191196;-1.2091763;0.9170501;3.111625;-1.1658995;0.65280646;2.3312256;1.9811194;-1.8762022;0.6973706;1.6766826;4.939138;-0.7878584;-2.2001424;-1.4500604;1.921956;1.8480599;-3.7370555;-0.15682584;0.0031417778;-0.0046194945;0.013839659;0.05579461;2.858275;-0.13304026;-0.7556961;3.866488;-0.69338894;0.10196702;-0.02007221;-0.79060507;-0.9045461;-6.326722;-0.2634683;-2.5650263;-0.033232447;1.4100109;-2.7184408;-1.4451782;-1.023614;-6.729144;0.07145703;-3.3774433;-0.016362544;0.0756192;0.3309548;-1.8781903;-5.0185223;-0.48210225;-0.026372958;-0.8057451;0.43900707;0.01467377;-1.6057736;-0.0098898215;-1.3182608;-1.9076704;-0.0109803965;-1.4800519;1.4751222;0.0030652387;-2.617247;-0.80462;1.3741218;-12.582021;0.047436744;-2.2078977;-0.9761274;0.04815929;0.007841814;0.00410267;-0.3143509;-5.823147;-0.44490418;0.009979126;1.7715564;3.25122;0.72798425;5.701026;-1.0344763;-0.03063903;0.039764084;-0.27288237;1.8629615;0.061827563;-0.018022496;0.028481808;-0.19664925;-0.5353598;2.8731258;-2.4446511;-2.514105;-0.013578361;3.0766144;0.02332536;-0.81660336;0.51736814;-3.618733;-0.62750256;3.31067;-2.1712265;-5.558093;0.30100533;1.6727828;0.0215159;0.00889857;0.166748;0.023373438;0.027951563;4.731402;3.2718215;0.3997271;-4.4269657;0.020366354;-1.6475583;0.5109179;-1.0569721;-0.0007332123;2.618403;-0.014029062;-0.45557135;2.4203234;1.2083983;2.4574757;-2.024769;-0.019274859;-1.6943737;-0.3938302;1.1214586;-0.030340698;0.010675325;-0.13271122;-0.19043492;-0.008249215;0.7822341;-0.0603357;0.006175253;0.06406198;0.011021925;-0.024571218;-2.222816;0.034221705;1.3311394;3.0015016;-0.9954386;0.08366759;0.0053972886;0.2282502;-0.04764112;0.6296884;4.4123244;2.5345855;1.3697878;-0.402923;2.3410072;0.0095859;0.0054256497;2.1799414;-0.27517036;0.53765124;-0.008832256;-2.444709;-2.523238;2.5713565;0.27559438;2.630876;-0.08612629;0.007385207;3.2533593;-5.505183;-7.0016823;0.8317966;-1.330298;-6.9084578;1.6737335;1.4812;-0.0032532448;-0.011752072;-0.005164063;-1.1381403;0.25621715;0.053696968;-1.4679804;1.4316329;-0.96775997;-2.8227212;0.24722424;-6.2584133;2.0306208;-0.21685964;-4.737238;-0.8131247;-0.7565218;4.0697703;-0.2941497;0.21931764;-0.25928664;-0.061732683;0.047111545;-2.1700099;-0.7309032;-0.72227985;-0.020656792;-0.003504534;0.018131075;0.024974976;2.0343688;-2.302203;-0.12212822;0.00045771827;3.9684877;0.021877544;0.12690368;-2.3376918;0.32450035;-0.065389656;0.5473198;0.98163784;2.4849834;-0.07249451;-1.5882162;0.31464097;-1.1891912;-0.08004363;-5.015055;1.4531293;2.2229154;-1.7306088;-0.016056513;-0.98056084;-3.1641912;2.6056452;-0.14932136;-2.014685;-1.9733963;-0.007722389;-5.5430193;0.92266285;-0.3167051;0.91481286;-3.4771967;-4.1841755;0.0019694571;-0.1088352;-0.0055856616;0.011526942;0.13844042;-1.4225186;-0.10849467;0.22774914;-1.0863285;0.030727034;-0.032578483;2.101022;-0.00689115;-0.01809802;0.6647804;-0.49886397;0.016292794;-4.8697762;0.00012095756;-0.022062246;0.7499888;2.842323;1.4323322;0.36286086;-2.0212355;-0.019731518;-0.52635497;0.026343577;0.023131398;-3.8731608;5.425152;0.009377712;-3.9604568;-1.091407;4.167309;-0.9124672;0.024690365;1.557996;-0.0061482373;1.5874187;1.4832472;0.7452837;-0.008643827;0.8874702;-0.012626701;-0.11774036;-0.537512;0.01500775;0.8052485;-0.45401862;-1.6306946;0.26900107;-0.66110784;1.3290472;1.8920597;2.6620557;-0.015473478;-1.3453572;-0.016667208;0.010853661;0.27659714;-0.031154651;1.4937238;-1.3200464;0.047344215;4.071338;-0.6631498;-2.3177009;0.099118255;-2.2734725;-0.05060554;0.01200208;-0.63950515;3.3948965;1.1044625;-2.6044936;0.024229327;0.019282853;0.5680945;-0.027848992;-0.018415472;-0.022556314;-0.8423998;0.029387174;1.8851445;-0.016912093;-5.362937;0.112982646;-0.008071586;-0.008608935;-1.7541577;0.9306932;-0.60940015;-0.11378184;-2.963294;-4.409016;0.7303924;-0.86164534;-12.80867;-0.067940384;-0.0022684839;0.2857024;-0.8322156;-1.7994734;-1.1435288;0.014496078;0.48193884;-1.6292931;3.012001;-0.72157615;0.32476172;1.073674;0.041801795;-1.0232193;-0.048031192;1.0500463;-0.61507565;2.5814874;-0.04350463;-2.3097718;-2.5934136;-0.44416103;0.79110444;0.0005102662;2.2786348;-3.540864;0.5181881;0.056628015;0.051048152;2.142094;-3.600542;0.03179392;-0.08958534;0.6168149;0.61894596;1.5604997;0.7362664;2.7763095;-0.056769952;-1.4959995
-1.5218422;2.8098218;-0.03552334;-11.957912;0.008373028;-1.0288689;-1.1700276;0.048825413;0.4345203;0.019474434;0.77389497;-2.9390283;0.06734199;0.047419757;-1.6043895;0.44987196;0.009734232;-2.5784056;-0.828655;0.58167845;2.6970098;-4.613257;-0.3438483;3.8664165;0.003524435;0.60661834;-0.03341636;1.287492;1.11661;-1.9970927;-0.6920538;1.0100434;-2.0738225;0.022008104;0.7284389;-0.06269168;0.0496596;0.40960172;-0.06945858;-0.025815058;1.7436031;-10.735846;-1.765049;-1.374135;1.0053409;-0.7142997;-0.033304427;0.5220698;0.009695984;1.3446308;-0.028189788;0.56682825;1.2611403;-1.9549183;4.294982;0.06278526;-1.4001269;-0.47239298;-15.666205;0.070130326;-0.0030817473;-0.7795911;0.040000685;-0.016993413;2.113423;1.0071828;-0.03088213;-0.2896167;1.0461521;-10.384897;-2.4330227;0.007071876;1.6708045;-1.6604927;-0.22113857;-0.0017691435;-0.26371637;-0.3497331;-0.012896465;3.2120798;-0.0023207543;1.570359;0.00569901;2.94723;0.17158645;-0.4293946;0.006783747;-1.5086977;-0.011702005;0.043738626;2.8892772;0.0033369581;0.9847945;2.077026;-3.4268935;-0.6786492;-3.2131417;-0.22619376;-4.49442;1.2011325;0.059883337;0.27492642;-0.029174965;1.8458452;-1.7121097;0.8693313;3.9629402;1.1268636;2.2485907;-1.2459971;2.4387646;1.0198399;0.043929514;-1.2589163;1.7889875;0.0042558284;-0.042476606;-0.86908615;-1.1282235;-0.20055233;-3.4702842;-0.8261593;-5.2313433;-2.6992598;1.5104303;0.02613139;-0.6930064;-0.97176987;-0.69875324;3.125386;-1.3898549;2.2390468;-4.146701;-0.025157256;-0.12669837;-0.017398765;-0.5631574;0.025871862;0.987201;0.13018385;0.040260103;-0.5901382;-0.5053216;1.7202874;1.0895733;-0.033195727;0.7588847;-0.029218787;-3.3463392;-1.5067059;-0.010306146;0.18240449;-3.2352126;-0.7807219;-1.0141876;-1.2689375;-0.82896286;-0.92244303;-0.02007435;-0.8890444;0.5284067;-1.1633531;-4.0470657;0.081327625;-9.6411;-5.074968;0.006318448;3.643087;-0.6465183;-0.40883803;-1.3808743;0.008237327;3.7426093;-0.8770087;-5.962481;2.4156716;-11.609942;-3.4678237;-0.51118886;-0.0792986;0.004890727;0.041904613;0.7977293;2.754565;0.018691042;-0.14133607;0.018237006;1.9435631;0.8895345;-0.039395288;-1.1490765;1.9917055;-2.695948;-0.038362067;0.45624447;2.4739094;2.2884743;1.5564561;-0.41486174;0.6107006;0.92656446;1.2829832;-2.0226467;-0.009808992;0.12105522;-0.8627118;-2.770413;-0.7232385;-3.5001066;3.2055206;2.464229;-2.7105021;-3.4970734;0.03839171;0.07797694;0.025182426;-4.1883364;1.1797185;-0.2587489;-0.80488956;2.4228842;0.56137556;0.49753553;0.02449949;5.5635457;-1.89457;-3.4631195;2.1071854;-1.777877;0.0010746298;0.71154636;-0.57372904;-1.91476;-1.0491751;-2.52907;-0.7426664;-3.0829418;0.025526768;-1.2842517;0.30200288;-0.5551833;-3.6100986;-0.26603842;0.014056214;-0.7161203;-2.0862134;0.18913004;0.4490773;0.021915974;-2.472792;-2.7830367;0.050590143;-0.006219125;1.1099614;0.012748823;-2.029027;-2.7252297;1.0184338;-12.8850975;0.005141026;-1.5076901;-4.1637588;0.037865866;-0.02155897;0.019109657;-0.32117698;-4.0327306;-2.4920404;-0.8549377;-0.6495411;3.480553;-0.1675023;0.30247524;-4.49748;-0.009213582;0.04921376;3.6103826;0.13151354;0.019022427;-0.041606605;-0.019541271;-0.67322105;-1.0934321;1.4800944;-2.5632722;0.3615738;0.09755506;-0.43358168;0.01910024;1.1958996;-0.14751408;-2.7033963;-0.2511196;1.6688008;-4.895568;-4.409768;-1.3177651;1.9244767;0.023303442;0.011861203;-0.36248112;0.06273455;-0.00048536758;4.563369;1.2622334;0.106670536;-2.5521574;0.0031854834;-0.16280647;-2.9748344;-0.75203747;0.045913234;0.12634328;-0.0064252596;0.6554375;0.4229488;5.6347632;-0.24808533;-3.9182503;-0.034801405;-0.53313977;-1.2094084;0.87623894;-0.0055788234;0.016897727;1.0372273;-2.8458946;0.00075462135;1.1771879;-0.16088012;-0.097042724;-0.026789377;-0.02469967;-0.031795334;-2.7730615;0.0036936034;-0.787556;1.8403424;-0.21960858;-3.1099348;0.02669389;-0.7326422;0.038873527;1.3894956;3.5029492;-2.4965112;-0.7669867;-2.00481;0.09918832;-0.022727298;0.010361471;1.3294969;0.29292238;0.8479854;0.018350607;-0.76342344;-1.6612831;1.4683288;1.9939809;2.2639549;-0.1058492;-0.0057529774;-2.352818;-6.5258403;-7.26792;-2.2473917;-0.26335788;-6.119765;1.4417571;1.9338342;0.020897938;0.06606263;0.04665616;0.011035782;0.3807774;0.0014024733;1.208934;1.923068;-3.554129;0.5886413;-2.3768854;-0.4418649;1.2089803;-0.044254184;-2.7472923;-3.0863147;0.083575666;3.5922842;-0.91064715;-0.3414719;1.3397143;0.0098297205;-0.021738725;-1.1864974;0.05821686;-3.8793123;0.02573341;0.0055741346;0.0021163903;0.0035416663;1.2142742;-1.0161092;-0.21925405;0.047576394;4.3099833;-0.01477801;-1.4867746;-2.2654924;-1.6628971;-0.004929742;0.7180787;-3.1136432;3.358053;-0.008978396;2.2331471;0.015780559;-0.105626285;1.4903619;-3.2341664;-0.80530137;-1.7739061;-1.6966139;0.016469156;-0.48649576;-0.08978641;2.7189517;-0.4450777;0.39239293;-2.0457144;-0.046590317;-2.1574564;-0.32288536;-0.73107463;3.4105713;-1.4957061;-4.2794385;0.030677134;0.05165348;-0.7902086;0.0468226;0.047011096;-1.0792767;-2.129859;0.55134064;-0.8354711;0.010371566;-0.031129984;1.8271273;0.024699314;-0.033106986;-0.7466886;-0.3776141;0.06336663;-3.8368866;0.0047956374;0.043666836;-1.6522131;1.0774797;0.38232872;-0.537693;-0.6007872;0.013327411;-0.62709135;0.02413208;0.06342235;-2.5331454;1.2339445;0.030979114;-4.0617995;-0.23408858;3.2221014;0.2554194;0.001464438;1.896327;1.0347278;-1.7822666;2.299228;1.1629497;0.04147901;0.22917251;0.03247704;-0.13225874;0.36708927;0.048736345;-0.5365427;-0.8427626;2.9854877;-1.1981261;-1.4231923;1.8611904;4.2576504;1.3723074;0.01898435;-0.9827273;-0.048934028;-0.008331567;0.2180018;0.019891424;0.21768424;0.4325251;-0.06759711;3.0435169;-2.4711666;-1.4510359;-0.07961003;-2.1359677;0.27412573;0.006608404;-4.782414;-0.66067606;-4.777306;0.21941029;-0.013253462;0.056779563;2.4521391;0.05410513;-1.480689;1.47458;1.4550282;0.0051495666;1.6609646;0.014804268;-4.7498965;-0.25612694;0.007683188;-0.0148817105;-0.46493256;1.795892;-0.33244917;-0.0019770912;-2.2058156;-2.0312858;-2.2923434;-2.1128998;-13.908336;0.063592635;0.04009956;-3.1313505;-1.9160501;-2.8656023;-4.3921976;0.020251697;1.2720255;2.3797832;3.7731142;-2.6998618;0.586617;0.90789807;-0.012294573;-1.2544587;-0.02691699;2.5218635;3.8647692;3.3681407;0.010602762;0.6167357;0.03177244;0.14304478;-1.7809111;1.0655164;2.2912807;0.08457533;1.2105404;0.0019073277;0.51970845;-1.0873628;-1.9545758;-0.022199184;0.5522971;0.22812982;1.9991059;2.0402482;4.4043336;0.6816817;0.062726066;-2.5286093
-2.5472794;1.8714597;0.113739006;-7.3890514;0.012540251;0.25934994;-0.046206366;-0.021752037;-1.0561551;-0.027355958;-0.5013223;1.2325606;-0.0049099578;0.0038526368;0.23795582;-0.17337526;-0.03509299;-0.40540662;-1.0592235;-0.49342692;3.0209775;-3.0334935;-1.0460062;3.4792364;0.0031024192;4.5819087;0.023223061;3.930962;0.2199117;-3.1204584;1.2658939;-3.210063;-3.167605;-0.0043831626;-0.1993111;-0.015299724;-0.007960013;-0.5433958;-0.8677434;-4.090503;-2.6045215;-10.052725;1.0311555;-1.4402994;-4.1209874;-0.7078056;-0.041873366;-0.18953666;-0.012237327;-0.8873896;-0.043594122;-2.8190439;3.602729;-2.7668684;0.16007666;-0.0061601843;-0.7548815;-2.0234003;-12.933676;0.017575994;-0.020579305;-1.0203682;-0.04696444;-0.011332951;-0.9580819;1.1356413;0.002513546;-0.24076219;-0.11654763;-10.052731;-0.94990325;-0.052137613;0.8495346;1.5293993;1.5625613;0.029897757;2.7006917;-3.0533605;0.044928372;2.7992728;0.039240394;2.8308957;-0.0028806287;1.447139;1.324738;0.39569485;-0.020649472;-1.0518385;-0.009545439;0.01662621;2.1044872;0.0023771336;3.2970376;-1.8959743;-2.269083;-3.403894;0.4455887;0.36483827;0.78604054;-1.9395716;3.1167405;0.16368534;1.0178931;2.5452878;-2.2758322;2.2991977;3.7732227;1.389409;2.3730311;-1.2567623;1.7385372;0.32151374;-0.011829408;-0.42691714;2.0242794;0.017315825;-0.010738568;-0.4531932;-1.6854802;-0.93120265;-4.081903;2.11652;-1.9032383;-4.1596427;3.4582694;0.3103562;1.9246196;-1.1686139;-1.6661689;-1.0671824;-0.8582475;2.1223106;-2.2142131;-0.034813665;-2.0972116;-0.0016846558;2.635022;0.044887032;1.1015146;-3.2729347;-0.004818107;1.3699403;-0.3217671;0.64003116;0.7628741;0.036929242;-1.288419;-0.02942136;-3.1020768;1.1054074;0.0030918354;1.2218484;-4.9963965;-1.9606926;0.48760107;-2.49017;1.4591358;0.35284245;-0.008652161;-1.2253739;1.4910814;-3.0163634;-1.2223995;-0.019335274;-9.73274;-1.0179836;0.007526635;-0.037838794;-2.4470322;-0.727093;0.07380012;0.007359552;2.250304;-2.7618115;-5.188279;0.055819612;-10.870647;0.39712343;-2.173414;0.1972943;0.01787699;0.01762709;-0.16776328;1.2463514;-0.002783037;0.65202856;0.06323193;2.8560703;1.6143475;-0.014080907;1.1443124;0.69684696;-1.1506512;0.004825345;1.1668668;-0.08855785;1.631055;1.3955842;0.65772015;2.200622;-3.8784685;1.8534153;0.58612245;2.7129123;-0.09027903;-0.11512329;-2.092033;-3.3177636;2.1178172;2.7097888;0.5202021;-1.1913129;-3.4682255;-0.029384745;0.11290792;-0.005812614;-2.792011;0.7701282;1.2022631;-1.003008;1.0253648;1.0450815;0.45571294;-0.018347235;0.9899979;1.4689913;-1.2466234;2.2178907;-0.5328796;0.032709334;1.3140287;0.6206841;-1.9053296;-1.4260019;-6.195149;-0.6043256;-1.979173;-0.023763347;2.3751109;2.0169826;-2.363425;-1.4265522;-1.6552093;0.02629767;-1.0141089;-1.6273298;-0.0046605594;-0.6576398;-0.031079242;-3.526571;-1.1365528;0.009949486;0.30677003;0.5553537;-0.024956178;-1.5659084;-2.2491891;0.9653749;-11.657848;0.04557879;-0.55104804;1.9368396;-0.0009778473;-0.04163768;0.02950142;0.586199;-3.5407512;-1.1024703;-2.0772116;-1.3177651;1.6725285;-3.5440023;-1.6501452;0.15845363;0.032377608;0.009116264;1.8990746;0.11753708;0.009297217;0.05239033;-0.0041902913;0.14002667;-0.96377134;0.7537932;3.2920353;-1.7798011;-0.011942251;-2.1738057;-0.03076648;0.21091011;0.53886575;-0.6917668;-0.7525814;0.48870128;-4.927881;-3.771084;-2.0668354;3.0124118;-0.025881592;0.0072144605;1.4563845;0.018124288;0.02797274;4.1173816;2.3517208;0.9412559;-0.47850668;-0.025514843;-2.462274;-0.21092388;0.6061341;-0.018656915;-1.5234995;-0.010297603;-1.1551839;0.9176699;3.283;0.06933964;0.6070391;0.015882954;1.284993;-0.81331545;2.8729136;0.040627033;0.007042393;1.2704357;-3.8255706;0.02451298;0.8014275;0.46530223;0.6141391;-0.04499412;0.048818026;-0.021932926;-2.979132;0.033188775;-0.21680632;0.4502967;0.6671693;-0.047800366;0.007076339;-0.55183524;-0.050569132;-0.015510149;3.2174819;0.06669669;-1.6569949;0.1398431;0.31694064;-0.060626294;0.005895648;-1.0892428;1.0432678;-1.8218576;0.022914367;-0.19089156;-3.78845;-1.7999195;-1.5695069;1.9365933;0.055659752;0.033376183;3.1401043;-5.814548;-6.9139247;-2.1080542;2.7038667;-8.586264;3.4597828;1.7513498;-0.047177378;-0.013784468;0.011282813;2.0379126;3.292904;0.011764414;-2.9998224;1.6314306;-1.0921538;-1.1042734;-2.140367;-1.349814;2.012748;-0.4406409;0.09043379;-0.53367174;0.22076608;3.1035428;-1.0592167;2.325165;2.8459973;-0.08310511;-0.010225396;-1.0386099;3.5878193;0.32968238;-0.03294441;0.039216712;-0.035801213;-0.0484413;1.1030335;1.4739879;1.7638777;0.06736399;1.8170362;-0.00173366;1.0472788;-1.1109384;1.2191534;-0.020789793;0.97293097;3.493368;1.0904524;-0.052890964;-0.19720179;1.2019567;-0.8500844;1.043458;-5.9023066;1.5771562;-1.4617972;5.554669;-0.0032479279;0.28207284;-3.2045832;3.4428535;1.2645328;2.295463;0.7982777;0.13558473;-5.4101725;0.476359;0.91206867;0.54604995;-1.2662932;-5.458434;-0.04710623;0.085242376;-0.964888;-0.010896742;-0.00826051;-0.5394078;-1.5726738;0.5232387;1.0958711;-0.020747844;-0.068339065;0.89646804;0.0036210644;0.17149888;-0.45563245;-3.5707366;-0.037105035;-0.79283017;-0.016631909;-0.009065352;-1.1704692;-0.820699;-1.0342628;1.2018129;-2.4495416;-0.027770048;-4.2454915;-0.027837763;0.027828751;-1.1410817;1.3145764;-0.012948537;-1.6385976;-0.9740497;2.9514878;2.3302715;-0.029464055;1.2018722;1.2984586;-0.49154374;0.6318189;-1.8507996;-0.014662308;-0.29714718;-0.013628851;0.063699566;0.5973684;0.008955959;-1.577602;-2.8329246;3.9773793;-1.0897605;0.08971445;0.52755916;2.064981;-1.9812275;0.028579295;0.57056004;0.07217388;0.006627294;0.4875046;0.73902994;-0.20430787;0.99453104;0.07098189;-0.02945233;-3.6985404;-1.9187557;0.0077639096;-1.5666687;-0.091312;-0.01240096;-5.76662;1.5262841;-2.84756;-0.24955352;-0.071079575;-0.020332992;2.5037713;0.017945696;-1.5155215;-0.73999107;1.825142;-0.03678512;0.5108306;0.03611269;-4.2256684;-1.2925186;0.045809284;-0.005079085;-0.83930695;1.1585141;0.75897616;0.042068284;-0.7358181;0.8049072;-0.020203656;0.1088632;-12.755599;0.037623636;0.0057994276;-3.0124412;-2.7073567;-1.4217573;-4.5570683;0.017131442;1.968345;0.5694651;1.0640044;0.6295672;-0.62881327;-0.5436769;-0.0076507623;0.67934114;0.027938982;4.3229256;1.185795;2.976887;-0.036455847;0.9245925;0.010016978;-1.1302967;-1.9331057;1.1810625;0.66620696;0.70837855;-1.5202352;0.0020969724;1.8666279;-1.4719536;1.0761794;0.032946885;-0.08315474;1.2140355;3.3821218;0.44332573;2.2419927;-0.28132918;0.027587531;1.5238385
-2.8671918;2.1646214;-0.1292374;-4.90099;-0.002010648;1.6171397;-2.1325734;0.0064027538;-2.3342817;0.009069191;2.0684304;-1.3610775;-0.007851068;-0.03590682;0.7645668;-0.032439183;0.0147957485;-0.78880775;0.6714854;1.0926304;1.8423717;-0.5679434;-1.3389199;1.7004243;-0.01764702;0.54076535;-0.0081413705;0.6391978;2.9339197;-0.18655185;2.5231073;-4.6253586;-2.084054;0.060046352;-0.038698126;0.02550311;-0.042525806;1.1768833;1.2402208;-3.171845;-1.9119781;-9.629222;-0.06505569;-3.9696186;-0.035776585;0.90448445;-0.006424342;-0.23334898;0.015444351;-1.1973904;0.0067002825;-0.15890144;5.591052;-1.8345176;-0.52757525;0.039354805;-0.32232985;0.2965918;-14.090603;-0.035622306;0.052496474;-2.3194401;0.002797184;-0.03461262;0.9294664;0.28201097;0.016007084;-0.22100012;-2.7423038;-9.670099;-1.4043107;0.020655429;0.51773363;0.09770295;1.0643293;-0.0105906455;0.29942745;-3.9043748;-0.003918932;2.2644985;0.0110719325;1.8636248;0.003000192;2.0235138;-2.129546;0.7718046;-0.0094748605;-0.004900938;0.022741055;0.020675626;4.564681;-0.0050490233;3.6469018;-3.9342754;-3.0265613;-0.95712113;0.7614644;-0.9457937;-0.4936601;-2.8637874;-0.02881621;0.5016071;0.3012124;1.0459349;-4.0015326;-0.27342704;3.3246806;2.3653574;0.18822227;-2.1066723;3.0634925;0.8786443;0.017582744;-0.058761533;2.6818054;-0.0011237809;0.008209384;1.0668092;1.0081728;2.5601132;-4.862342;1.0893792;-1.029569;-2.9732292;3.4878628;-0.34231594;0.560508;0.7096041;-3.3566573;2.2092984;2.6910262;0.92507756;0.82606566;-0.014178254;0.85085773;0.008421635;1.002516;-0.062289637;-0.6395414;-1.2760065;-0.019015823;3.036217;-1.518952;1.2213362;-1.5420443;-0.03443537;-0.087051995;0.05268379;0.398951;4.3308625;0.008461953;1.0576419;-0.7171881;-0.64043283;-1.0197657;1.4031243;1.1145542;-2.407398;0.023488479;-1.1857073;-1.0999444;-0.25364015;-0.48281506;0.0114613855;-9.575418;0.9591331;-0.011328621;1.6174622;1.7486143;-2.7702522;1.163235;0.009755977;2.394612;-3.8077893;-6.1136017;1.7046354;-10.940543;-2.9515727;-0.40746617;-0.064867094;-0.04936144;-0.0022253497;-0.94911665;1.6887;-0.013647914;-0.537781;0.0065839253;2.61507;2.0092325;-0.024433885;-0.6262318;1.218764;-5.444377;0.0024897638;0.14206022;1.1265917;4.1529903;0.36717004;0.35810846;1.4420583;-3.4327216;1.3213791;0.1178187;2.0721369;0.8086164;0.6313222;-2.378709;-1.8784037;-2.2968857;0.55179745;1.3728384;-1.2062031;-4.0278454;-0.040640328;-0.3906004;0.061707627;0.9961882;3.3639817;0.16040333;-2.6726084;0.76122797;3.264101;0.13685666;-0.017728241;-0.6097889;0.85512286;1.6799643;1.1282196;-1.5963892;0.033773884;0.94517875;0.4068487;-3.3990912;-0.15074979;-6.22409;0.5192719;-2.645769;-0.008000433;2.8360038;-0.16039433;-0.60672635;0.2854306;-3.267657;0.00783766;-1.5861862;-1.4560853;2.0409899;0.65618616;-0.02489032;-3.646529;-4.4696555;0.003717312;-0.1530594;-1.5443093;0.12579672;-2.0082324;1.0481367;1.8972808;-11.774657;-0.04259324;-1.1213176;1.1843626;0.018214263;-0.007882397;-0.016183639;0.24409027;-3.8350518;-2.5602524;-1.3181099;-2.4117143;3.9779716;1.6195142;-0.8353119;-0.8073474;0.00514252;-0.03427536;0.1024003;1.7210075;-0.0076095997;-0.017853305;0.0034814395;1.435284;-0.53976387;0.941781;-0.5509172;-2.726381;-0.0008439564;-2.4073753;-0.035630338;-0.24100532;0.17311475;-0.58558136;2.7085886;0.22444321;-4.3725476;-2.3072598;-2.103571;-1.2883769;0.038701516;0.0174428;0.4697113;0.030019542;0.03316999;4.4477334;0.9247226;1.3295107;-0.51528805;0.012765341;-1.7621073;1.5103418;2.2256925;-0.0053903935;-3.9532285;-0.020306414;-1.039798;-3.1384718;3.4861422;-1.739855;2.5685112;0.01218517;-0.26763663;0.045895044;0.55274135;0.023526562;0.004161638;-1.192918;-5.001344;0.03250933;1.8839246;0.24617964;-0.09153336;0.02901235;-0.018025745;-0.021177081;-4.2097397;0.01892555;-1.0985587;1.2228664;1.1297702;-0.53509814;-0.025565814;-1.3159399;-0.0095055;-0.6378323;3.374;-2.5285664;-3.2971845;-0.10160396;-0.27927282;-0.0101656085;-0.009374703;1.0837678;-0.2357565;-0.30067652;0.022166604;-0.18145381;-2.5272365;-2.3955512;-0.13293609;2.2850125;0.05854525;-0.060070153;4.358985;-4.070887;-7.4531283;0.4847234;0.98793656;-8.040572;2.691285;1.1746578;0.011716486;0.07653072;-0.056930892;-0.01160207;1.5460924;0.023773562;-2.2437177;1.7903819;-2.5413628;0.41395968;0.912361;-2.1114824;2.5014827;-0.7972972;-0.96829206;1.9914821;-1.546924;3.0355153;-0.43758893;2.3451953;1.3238648;0.5098246;0.065356605;-1.86639;-0.13269566;-2.258621;-0.010272168;-0.00925135;0.01205863;0.03737605;1.0293516;-0.13008814;1.5717043;-0.11702714;2.4559276;0.0019496636;2.2938328;-0.8071687;1.2816846;-0.0609049;-0.20810618;-1.342114;1.7428553;0.040043995;-1.7895622;0.72879606;1.1377621;2.4213734;-4.2606125;2.1503613;-0.99526715;1.4148175;0.028991295;1.0921135;-0.6757789;-1.8244025;-0.73208964;2.561307;2.9071014;0.12966728;-4.230318;-0.09883117;0.5066986;-2.6010437;0.3345872;-5.217931;0.0147422105;-0.035670158;-2.735125;-0.033711333;-0.009374382;-1.2658085;-1.6762354;0.322505;2.079283;0.035081293;0.025103627;-0.27859977;0.065905504;-0.021573566;-0.2613577;-1.3697523;-0.036157157;-3.1428156;0.03729781;0.083249226;3.1430671;-4.5041294;1.6872127;0.708962;-1.9616945;0.024505794;0.9659845;-0.013031671;-0.051865134;-0.95788115;-0.7694951;0.007857467;-4.3712387;-0.70942885;2.8135448;4.2154026;0.026661547;0.22661318;1.3134636;2.4556386;1.7529681;-1.2310858;-0.025243284;-1.2254221;-0.06419926;0.3753383;-0.113222726;-0.03075969;-0.83292705;-4.6046576;1.5831774;-2.117233;0.39954406;0.31365702;0.6012947;-0.71660453;0.01009333;2.7771401;-0.011326096;0.05083776;-1.1370094;-0.46965528;0.26245353;2.706798;0.019338029;0.36311862;-2.3671477;0.8939975;0.02078564;-1.9276514;-0.009541798;0.060656015;-6.0853696;-1.7749324;-0.4040109;-1.259155;0.022929639;-0.022827575;0.6440324;-0.02997841;-0.61978704;0.4434894;2.5540717;-0.017366609;-0.4639651;0.017134745;-2.2351108;-0.285066;-0.008956741;0.030154742;-1.7621617;1.4737821;0.8784836;-0.054717727;-0.5414614;0.84218234;-1.2003368;-1.9440765;-12.621476;-0.00887449;0.03373787;-4.139309;-2.1103153;-3.6345468;-1.6103566;-0.022367362;1.4862714;-3.9151745;4.07933;0.8019225;0.7237551;0.23792137;0.0192083;-1.6789073;-0.005225921;1.0808879;-1.8275517;1.681655;0.0019240889;1.0661149;-0.503231;-2.104213;-3.3822124;0.6775134;1.4285982;0.45017546;-0.40577877;-0.023862543;0.48806998;0.21750908;1.1033169;0.010098525;-0.01836037;0.50551665;2.3445184;1.4724349;2.2740424;1.2472488;0.02560815;-0.53294915
-3.576508;3.8725874;0.0918028;-0.6596685;0.022540025;0.5387214;-1.4261883;0.0017021245;-2.9488814;-0.008066691;3.1836782;-0.46157318;-0.0037634284;0.016045492;-1.0257196;-0.04414479;-0.009173661;-2.9994185;-0.5769333;-0.08434653;0.4057466;1.1859484;-2.8270056;1.0791309;0.045205373;-2.2473178;-0.0050126943;1.715883;2.8487089;-2.0765738;3.2033787;-2.6324406;-1.190188;-0.02700872;-0.0017205346;-0.034354407;-0.04105008;4.5017886;2.7483854;-1.251342;-4.3161006;-10.151735;-1.6960051;-1.2363327;1.1117861;-0.034980442;0.010038494;0.12639269;0.05022865;0.6983409;0.024217265;3.4326887;3.3792577;-2.851015;3.6351151;-0.04814708;0.30108437;2.3091128;-13.855905;-0.01453394;-0.010571894;-2.3580449;-0.045744877;0.052121833;-0.9838131;0.7446146;-0.009141178;0.3132838;-1.8452342;-9.924378;1.5619577;0.033355087;0.7729078;-1.183922;1.9085522;-0.005741217;1.3078425;-6.1639237;-0.009290222;1.6476264;-0.016456934;-0.20253761;0.017343558;1.9108524;1.9466357;1.2746881;0.046697367;-0.1659786;-0.01217227;0.060522724;4.472896;-0.038908493;0.081293784;-1.3546536;-1.3064933;-2.0054648;3.4988053;-1.7574497;-1.4607888;0.6110746;-0.22460517;-1.5349195;-0.114825524;1.3066132;-2.2257166;-0.71840626;2.0050979;1.7204319;2.11216;-5.1279273;1.8716912;1.7219621;-0.0058162035;-0.7017525;0.76702344;0.017749393;0.013861203;-2.2667367;0.2978379;-0.5114783;-6.1138372;0.5944974;-1.8606634;-1.6897041;4.798935;-0.041250974;0.7692577;-0.35608372;1.3844798;-0.36918738;3.350032;-0.4618316;-1.9476597;-0.026918564;0.7033848;-0.013847761;2.9823472;-0.035084832;0.7437007;0.9075758;0.041215897;1.8026425;-2.3593106;-1.9489577;-0.22004212;-0.007674255;0.90470237;-0.031616315;0.84321743;4.0586476;-0.023275768;0.79703933;-0.32863584;1.3792768;-0.38744852;-3.2872107;2.2938125;-2.115411;-0.015994536;-2.2039516;0.20597275;-0.079574406;-0.0070866817;0.031540703;-9.135377;1.9592086;-0.00061478716;1.163405;1.0909014;1.6461047;1.4950411;0.012216076;1.7600486;-4.276711;-4.851242;1.7066365;-10.555875;-3.3756027;-0.31129146;-0.01609982;-0.027506439;-0.02409167;-0.72042006;4.4903393;-0.03132327;-4.0664597;-0.02029452;1.9657998;1.4833784;-0.027217144;0.19700806;3.4795222;1.5016601;-0.01193201;0.3421417;0.7920546;4.678022;0.88593364;2.6704345;3.3844147;-2.8534083;0.6048606;-0.40627337;0.737341;1.8404483;2.3329656;-0.4911505;-1.5605088;-2.8625035;1.8586473;-0.59691554;-0.9955168;3.018478;-0.0065617664;0.2801897;0.024836238;-0.8470933;2.3996375;-2.5654519;-2.3772535;1.0983748;1.9400727;0.59557587;-0.016904522;1.2624696;-1.1597804;0.76386875;1.2541611;0.17118935;-0.018524883;0.90706843;-0.111783534;-1.6512668;0.6558962;-4.6575985;0.24123481;-2.1581154;0.016558833;2.7258852;-1.4119755;-0.2606836;-2.0060387;-1.2944661;-0.00022854535;-2.5060444;-4.2868114;2.0054967;0.21856968;-0.004265563;-3.6393259;1.7676214;0.00029301184;1.4435675;1.7197905;0.0106151495;-1.8919227;2.2071135;1.019367;-11.120986;-0.03316193;0.8656766;0.21975967;0.017878138;-0.04618618;-0.032994404;0.30585814;-3.6337452;0.10021594;0.72755784;-2.2464077;4.969459;0.9075309;-0.23181695;-2.5843549;0.1276585;0.045914195;-2.9055014;2.4389367;0.0033154225;-0.008292413;0.03503664;1.3964578;-1.7294158;-0.9773655;-2.2979655;-0.40603325;0.031024989;-3.0794337;-0.030637437;0.2471909;-0.15090553;-1.7938321;-1.0785617;0.098115236;-1.606065;-1.255745;-2.8390656;-0.02503296;-0.029920738;-0.0017231324;1.6267745;0.047277126;-0.029421907;3.0884585;-1.2628136;0.3776093;-1.4747672;-0.062047172;0.059616383;4.0119324;-1.1824938;-0.0076038684;-4.9850397;-0.038644444;0.4986004;-2.9177568;1.888763;0.28724447;0.08043506;0.07516087;1.4661448;0.6569562;1.682465;-0.0060694697;0.005179421;-0.12679426;-3.8562424;0.050866485;1.3867133;-0.12005303;-0.022254482;0.054603778;0.023763426;-0.009808087;-1.3927747;-0.015125723;-0.71287775;1.3266224;1.6898317;-2.635388;0.001927052;-0.17383063;0.05366474;-1.4642467;2.029558;0.9265687;-0.3349063;1.2860659;-0.6773196;-0.035931047;0.013129959;-0.8984971;-0.6402362;0.40544078;0.017138258;-0.26052457;-3.6424885;-0.48418874;-0.28489202;2.2521605;0.091458544;-0.0015955732;2.8504727;-0.9817504;-7.579825;0.5990233;-1.186271;-3.8036315;0.7899775;1.2459637;0.12100818;-0.025705662;-0.010709399;-1.5127826;0.3859514;-8.385999e-06;-0.6197386;1.7787881;1.0583211;2.715695;-0.87605864;-2.3192139;-1.0108165;-0.90147394;-1.055603;-0.68185395;-0.93217045;3.2699285;1.3604563;1.585047;-3.067907;-0.18024418;-0.013574139;-1.6790053;0.72713155;-3.1836557;-0.030330269;-0.007118258;-0.017662536;-0.03010124;2.166924;1.2060536;1.4400456;-0.052597497;1.8030393;-0.04840733;0.31941137;-0.45364812;2.9435673;-0.09819813;-0.25836703;2.0779674;0.97408074;0.00963111;1.1692998;0.3744618;0.79131335;1.2738322;-3.7883718;-0.3512822;-1.6424575;-0.4742258;0.0052651796;1.4351695;-0.8581582;-1.9563369;-0.35945368;3.610586;0.9548135;-0.18612537;-4.335104;-0.7933014;0.30733633;-1.5028182;0.91913885;-2.5549214;-0.023230169;-0.095817864;-2.0966506;-0.014130362;0.04589048;-1.3038393;-2.0704277;0.39134154;1.4440783;-0.010783161;-0.0198595;-1.4015892;-0.024619047;0.013933874;-0.39760503;-4.47921;-0.020627521;3.1458364;0.006373171;-0.028805496;1.6834437;-4.7114425;0.1677911;1.2980909;-0.759119;-0.025794702;2.2296689;-0.012827409;0.3431769;-1.2178802;-0.99047375;-0.037468746;-0.5793952;-2.2312124;-1.3587178;-0.78721195;0.021514816;0.7561962;-1.1292443;0.5466736;2.9725542;-0.22145046;-0.013101888;-1.8417059;0.033101346;0.83441436;-0.465613;0.02955128;-1.4324687;-6.41962;2.551495;-1.3594606;0.6163996;-2.4778144;-0.57004726;-1.3997185;-0.0011896592;4.430141;-0.07156215;-0.0072591435;-4.812032;0.3233044;0.90109485;1.1645364;-0.06002278;1.1218344;-0.9659608;0.653295;-0.031982895;-0.10246352;-0.016872292;0.0036574535;-5.9375243;0.081571035;-1.5399913;0.21184523;-0.032799542;-0.033175092;3.8787763;0.02590319;0.62917745;0.31740203;2.313474;-0.023376144;0.8988204;0.02768438;0.37703526;-2.1327715;0.0040588775;0.028327672;0.6271641;1.3464575;2.1830652;0.018117018;-1.2896678;-0.28826654;-2.4268174;-2.510506;-12.437318;-0.029442687;0.020922499;-3.181203;-3.1671734;-3.7317123;-0.5784027;-0.0052944194;0.48260978;-2.093824;2.0582802;-0.580176;-2.1526232;1.0761744;0.036858223;-4.029575;0.0038781755;2.3532927;-3.553327;-0.8206142;0.047033273;-0.9411668;-1.9577919;-5.7780523;-3.75872;0.9571045;1.1864828;-3.4723141;-1.687492;0.0016796531;0.2655487;-0.15591368;2.2448707;-0.0035701918;-0.013170615;-3.081848;0.82968575;1.3466318;-0.21487875;-0.47353703;0.030689122;-1.9944081
0.61600804;1.3293475;-0.017964114;-2.335194;0.049521063;1.7357743;-0.64068884;0.006050499;-3.351557;0.03210175;1.3991873;1.4692531;-0.0015032378;-0.015300066;0.034572624;0.05421389;-0.00998526;0.9207703;0.6431741;-2.4469879;1.8236921;0.80530775;-3.5530972;-0.63998705;0.016266579;-3.5688734;0.035128094;3.1561854;1.120034;-4.0304413;-0.023384703;0.6938565;-1.840369;0.03882644;-0.032396857;0.05311401;-0.004681824;5.5742216;0.8701881;-2.202298;-0.80717796;-10.424955;-1.6113641;-0.91019726;-1.2570066;-0.4165753;-0.0448025;-0.22241178;0.02213411;0.49966562;0.017121404;2.3735502;1.0691019;-1.6946546;3.9127114;0.023118645;-1.0397117;0.14855438;-11.636564;0.03846047;0.010495243;-2.3214433;0.01897611;-0.0060141403;1.5285972;2.8745093;-0.015898831;-0.067140676;0.23509225;-9.181499;0.7637286;0.13955668;-0.5459914;1.2830842;-0.57902294;-0.027786553;0.21604204;-3.368435;-0.0017716225;1.2075164;-0.00095635874;-0.56309664;-0.023956593;1.3107139;-0.9362108;0.73090637;-0.02201115;1.4738663;-0.01058823;0.059077732;-0.2667997;0.38345814;0.43375066;-1.8571101;-8.037619;-0.90008885;2.561287;-2.8286984;-0.86447513;0.37890804;0.69215566;-0.2492325;0.11011602;1.4435071;-2.0317328;-0.106208056;2.636519;0.1556797;2.8899968;-3.4182215;1.5735344;1.1445227;-0.0075172894;-0.4297294;0.9954413;0.0025455581;-0.03838025;-0.97547716;0.40581238;2.5048366;-5.9040394;2.3017135;-1.5253482;-0.66608;3.1407871;-0.30142838;-0.57983494;-0.40729055;-2.6653228;1.1908838;1.0158303;0.20270735;-1.3747095;0.023530817;-0.54634994;-0.0013406507;0.1023408;-0.051427573;2.193817;2.1340775;-0.0058324425;0.45117304;0.47314587;0.25670165;-0.93947226;0.00034182778;0.4210921;0.0065135504;0.8800719;2.2815197;0.022511566;0.6987674;-3.1087723;5.5383644;-0.5258444;-4.1540275;0.96090734;-0.6059781;-0.049052723;-1.0065587;-0.83312804;-1.9296778;1.7248269;-0.004450259;-9.596243;1.2881272;0.0018197437;3.1771042;0.1850311;1.5222114;-1.7936118;-0.060254097;1.5724431;0.8352789;-4.131286;2.1894603;-9.573196;1.2059433;2.6434295;0.12239169;0.10904436;0.045012236;-0.2840035;1.1249366;0.058217723;-1.613733;0.0073045734;2.238807;2.0137727;0.01303519;0.39395404;0.9150642;2.3166516;-0.00014273847;-0.3119857;0.052359827;0.19569434;0.65947413;2.1139448;1.92094;-0.80504894;-0.5758159;1.882247;0.21339469;-2.8460615;1.9782541;-0.57485235;-2.3100657;-3.3256476;-3.913616;1.164456;-2.6554642;-2.9039772;0.04278336;-0.042449303;0.0117396265;3.5336711;2.2418342;-0.6570514;-6.9016304;2.3014681;1.218659;2.341162;-0.01904964;0.87551486;0.0371827;-0.76286155;1.8040779;-0.2976342;0.0704094;0.4031303;-0.5190882;-0.3242568;1.1266953;-4.006114;0.26144674;-1.4769486;0.0064678583;-1.3712965;1.4231287;2.471909;0.2719517;-0.44187534;-0.026453862;-2.4880695;-3.4806056;-0.39305064;-3.2442296;-0.025599394;-5.713703;0.39290804;-0.0057592457;-0.10795337;0.40052786;0.043954615;-1.5374917;1.6433108;2.0748558;-9.391998;-0.020090565;-0.04950848;0.25831515;-0.0004758998;-0.027174594;0.10713497;-0.2214842;-2.6835856;1.0966642;0.27565238;-1.5024791;3.7460907;0.6650202;0.7546838;1.4633541;-0.036117952;0.007114385;-1.5703362;0.5756895;0.04281563;-0.027836915;0.010824581;2.3293831;-2.8480408;0.17967084;-0.7348484;-3.828221;0.024681188;-1.6870227;0.06930051;2.034392;0.5362678;-2.4563715;-1.8113471;-2.2776635;-1.1772234;2.2322533;1.0687294;1.3150282;0.03302153;0.008694249;2.416832;-0.015570538;-0.0379135;1.2954642;0.4268623;-0.19593382;-2.2009618;-0.1820416;-0.1308282;2.4563792;-1.7319621;0.040415253;-4.0787663;-0.0022498912;0.49807563;-8.1767645;4.4675465;-1.0850586;0.49672517;-0.008721868;2.146221;0.94063926;1.8968015;-0.037795022;-0.03321335;1.9577893;-3.9376237;0.007292171;0.3362349;-0.07255416;-0.06561584;0.04442448;0.108088054;-0.027116198;-1.4980779;-0.00869597;-1.4545255;0.82610196;-1.2869418;-2.264898;0.036631156;-0.7747829;-0.025893414;0.6912715;3.2962382;1.5800488;-2.1896696;1.6567783;-0.8912761;0.010190977;-0.0221889;0.8841533;0.11242379;0.18793076;-0.0300313;1.9535868;-4.5483675;-1.3678002;-0.52569276;1.8565285;0.38411722;0.011640366;1.4290539;-1.4825265;-7.209549;0.041960854;-0.4691301;-1.2810967;-3.6675906;-2.9910789;-0.028602205;0.007626556;0.006790137;-1.7798855;1.1849174;0.004195598;-0.8443139;1.0038542;0.30907485;3.1774142;-3.5551684;1.0361978;1.0344763;0.58537334;-1.7540112;0.5091961;1.9963506;2.6804626;-0.80003315;1.526018;-1.3930429;-0.069756545;-0.023365192;-2.0520883;1.4328176;-1.7768606;-0.0045680483;0.004477195;0.0022826924;0.017011585;2.4956007;3.0607402;2.1379015;0.19790985;1.1792607;0.039405618;1.1278939;2.552858;1.9657143;0.7014265;-0.81987625;0.83964926;1.3045382;-0.02462447;-2.5905232;-0.044944063;-3.9114282;-0.17351957;-4.0905623;2.6153657;-0.5602463;-2.0701606;-0.024567934;-1.9118572;-2.466809;-0.37765872;-2.7045698;2.8995366;-1.0658972;0.0030228982;-2.8091247;-3.3135023;1.6104525;0.64877164;-2.7851973;-0.97113216;-0.031663917;-0.005697303;-2.4711583;0.019484269;0.00888659;1.125727;-1.3119748;0.48634842;0.20464872;-0.010394195;0.0127842715;-2.1983025;0.09627322;-0.01714626;0.16597866;-0.43458453;-0.0007274728;2.2118502;0.012959479;0.010743426;1.2984463;-7.08456;1.1171302;-1.3482605;-0.87885606;-0.035679214;2.8450713;-8.453002e-05;-0.008222071;-1.74015;-0.57512265;0.053901568;-0.9353028;0.8497763;1.4206675;1.1123044;-0.084151246;0.64290595;-1.3165035;-0.2719786;1.0967624;-0.5346641;-0.02788392;3.0475137;-0.014273954;-0.32566357;0.59725714;0.016091328;-2.20189;-3.0277488;2.236969;-2.1632113;-0.25905067;1.2627647;2.9495173;-0.18281186;-0.018266829;2.8537166;0.020418135;0.05421669;-2.0539608;1.0757424;-1.0022662;-0.88779217;0.057693996;0.5568485;-0.7811018;-1.272382;-0.027324377;0.117980726;0.0053733424;-0.013044015;-6.645422;1.4211543;0.7781458;-2.4885817;0.019385671;0.07163163;0.70572954;0.0031015559;-1.66308;-0.8124632;1.819419;0.02019987;1.7953368;-0.0338569;-1.1649871;-0.4649224;0.030658575;0.014940416;-3.0135815;0.16146661;1.832497;0.026020005;1.895918;-2.8226063;-0.439611;-1.4212534;-12.0947485;0.020011673;-0.014787708;-1.0547076;-2.1971965;-0.87831146;-2.3876686;0.019156812;-1.6435175;-2.6174982;2.5091753;1.7519362;-3.207151;-1.624649;0.03197912;-2.698581;0.03375385;0.9582306;-1.037861;0.26818725;0.02635437;-4.0945334;-0.62660694;-0.2562117;-1.9349084;0.86149555;-1.4218123;-3.2280715;1.7195567;-0.016197896;0.053981736;-0.85403734;0.16927926;-0.027104892;0.0281241;0.5143926;-1.4125714;0.3994477;0.35673317;-0.573178;0.0140472;0.43205702
0.022451103;2.5922253;0.045665707;-1.3640963;-0.0431405;1.4678527;-1.3946561;0.0040504606;-2.782675;-0.005227003;0.5132895;-4.19247;-0.015944967;-0.0014172418;0.2466165;-0.03159976;0.02772346;0.034936022;0.9838302;0.06505899;2.5006056;-2.7919428;-4.325999;1.2390044;-0.056093913;-2.2237296;-0.023480205;2.6799836;1.5831406;-0.072394215;0.38613114;1.9957174;-1.127176;-0.027444893;-0.018713558;0.024382714;-0.016195374;1.4029119;1.2772869;-3.0296407;-3.082162;-10.0485935;-0.8680214;-1.3289872;1.5465746;-2.7049782;-0.07031799;0.25488642;-0.0048116203;0.854923;-0.04845618;-0.71640915;-0.5976269;-2.4143853;2.921757;0.022393199;2.260427;-0.40772066;-11.209982;-0.004433314;-0.0139885945;-3.2125728;0.016339628;-0.0019430409;0.760363;2.2095304;0.028556272;-0.020242626;-1.3300829;-9.670344;0.78514856;-0.023742232;-1.2781491;0.40457484;1.5100645;-0.023803974;1.3908083;0.09713154;0.04191402;1.420661;-0.04037422;-0.5231822;0.026345205;2.3870187;-2.7272296;-1.5983944;-0.10938099;1.0377874;-0.047564168;0.029287543;-1.002071;-0.11175219;0.6340003;-3.6537266;-4.4338894;-2.4707606;2.8415565;-1.7996302;-1.0597378;-3.3709912;1.5987611;0.37376416;-0.3669618;1.6704835;2.6105325;0.54860127;2.4395828;-0.5787123;1.476295;0.42684066;1.0549792;5.021382;-0.005233009;-1.6594684;1.0035337;0.006741033;0.012110365;-1.8992783;-0.028706297;0.37897518;-4.385421;-0.58358634;0.26425588;-1.4657915;3.799195;-0.049051158;2.187843;-1.1529089;-1.6656778;-1.4674557;0.27774295;1.1827692;1.001409;0.013062374;1.800816;-0.0017515811;0.4681308;0.106468834;3.0995011;0.42399737;-0.04212086;2.0201845;1.032505;-0.69050664;0.21626665;-0.045338213;1.0976676;0.05839147;-1.2948804;3.6274366;0.040251803;1.4558388;-4.528002;5.3625274;-0.5686215;-4.425913;2.2566292;-2.5270917;0.0012758549;-1.1079133;-3.8339405;0.5889346;0.06736801;-0.00972254;-10.236545;2.8843172;0.03206195;2.8642876;0.88644224;-1.3574989;1.4177003;0.0077615245;-4.4324336;-0.0059323166;-2.3243134;1.4774845;-10.084025;-0.109330006;-0.3806751;-0.035442173;-0.0078072054;-0.014120446;0.6921284;1.5028973;0.02020261;-1.2351258;0.0010920264;4.2827024;1.621719;-0.034542274;-1.0756292;-0.507618;1.8785825;0.026978116;-0.5615771;0.98120344;1.4334519;0.8764135;1.3714792;1.0602899;-5.296969;0.18227299;0.61317235;1.9463621;1.2585385;2.1176128;1.9265958;-2.4474247;-2.8045092;-2.318693;0.8624434;-0.8203899;1.9563625;-0.06321233;-0.09078393;-0.0036041623;1.4581704;2.2334979;-0.24975938;-3.2159657;-0.9816841;1.2688215;3.246557;-0.029183492;1.0410231;1.4126518;-0.13033047;1.9049551;-2.543356;0.04444085;0.6651869;-4.311716;-0.51930845;2.1268232;-4.5222597;-2.5082846;-1.5681286;0.033651832;-1.6531258;-0.7598926;1.08976;-1.7906872;2.4623706;-0.029978134;0.8837102;-4.380457;1.2746352;-4.996888;0.0578345;-7.158726;2.6700313;0.011227909;-0.14709356;0.59919226;-0.024184963;-1.7136823;0.7947701;2.204589;-11.440768;0.0038202715;1.8898085;0.634696;0.011790903;-0.011471777;-0.021170476;-0.7059483;-1.2334006;-1.3295668;0.69158834;-1.6661243;1.8497527;0.8310895;1.8152632;2.0194044;0.034417704;-0.012742361;0.4197522;-0.3069382;-0.0055989064;-0.013277481;-0.015110998;-0.6663638;-0.6428116;3.5095615;0.87903136;-5.6900907;-0.0035377648;1.5801529;0.0022861345;1.801349;4.0060754;-1.0045174;-1.405697;-1.0301075;-0.59597856;1.5378528;0.26973876;0.20748186;0.005210598;-0.0066581327;0.20828068;0.24277368;-0.0058083897;-0.5956959;0.267218;1.6239398;-1.6914543;0.54562664;1.6269659;3.1232805;-0.18271647;0.007697082;-1.4116292;-0.0062160115;-0.00599321;-7.4896436;4.0031304;-1.0513885;1.4953511;-0.040454604;3.0080996;1.1196682;-0.010589124;-0.020819562;0.02203428;-1.2191434;-3.5548255;0.025930028;-0.7982792;-0.029762188;0.030022658;-0.029426105;0.024672896;-0.015174001;-2.035034;-0.0155663;-1.8168335;0.05076722;-4.361867;-1.8050115;-0.04117798;-1.821239;0.021770522;1.4720858;3.0753891;-0.19145493;-3.6231365;0.60586154;1.3645217;-0.0058893072;0.06221567;0.40344572;-1.7386177;2.4303164;-0.0038608362;-0.65721583;-2.332756;0.7503843;-0.5427196;2.2710507;-0.052202817;-0.0037665404;0.40979397;-2.5067105;-7.431579;1.1932721;2.3372478;-2.7008743;-4.5679827;-1.8575637;0.017120935;0.018582039;-0.017425012;-2.6776898;0.5676108;0.020103615;-0.6238374;2.6946046;-1.5125744;0.21738634;-3.4205048;2.9785383;-0.9737818;-0.5416811;-2.8859208;-1.8691775;3.9876754;3.1127658;0.22553428;0.9496793;-3.9799738;-0.09018451;0.019615415;-3.1466944;2.042243;-2.6108937;0.059472244;-0.023006488;0.014890219;-0.00943432;2.0539825;3.5570693;4.3643756;-0.0866732;0.61468303;-0.060784433;1.6145594;3.3374062;3.0402849;-0.20647916;-0.43236533;2.5489032;2.9355037;-0.04456049;-0.36675465;0.7949275;1.0700793;-2.617954;-5.285277;2.1660235;-1.6637609;-0.36081362;-0.060670312;1.2457343;-0.7529334;1.5020888;0.26938117;1.3200291;0.84701514;-0.0067621963;0.4810014;-3.5180688;-1.5833994;1.2204057;-1.8076849;-2.6390417;-0.08376109;0.093729354;1.5371283;0.0067980257;0.009263541;-0.2642209;0.4499516;2.3649988;-0.6130724;-0.011001509;0.021784002;-3.6724503;0.019186916;-0.03676137;-0.8931489;1.7050276;-0.041325253;3.0856273;0.019583624;0.03209771;-1.7823946;-2.1140578;2.9198124;-2.5452776;1.7565556;0.0017743653;1.6449442;-0.0036573256;-0.0069687185;-1.5153377;-0.83423954;0.012068821;-2.9136367;2.2523828;0.7070657;-0.1335569;-0.08228514;1.0585631;-0.12988092;0.44254267;5.015862;0.76362467;0.0036613499;-0.19168599;-0.034624692;-0.050017223;-0.119760595;-0.035210967;-0.48566854;-5.112522;-0.044238254;-0.87885094;0.10848752;0.9286874;2.0246873;-1.4598002;-0.0076455083;1.8577307;0.011989144;-0.04159411;-0.5265524;1.8573022;0.55365396;-1.1682389;-0.0023377147;0.3402549;-0.282592;-0.25238514;-0.0067534056;0.44039422;0.02290073;0.018475534;-5.936111;-1.5502403;-0.24865024;-0.012158002;-0.07105617;0.0084304465;2.9351132;-0.02289643;-1.2886314;1.4368607;1.8735831;-0.0052912896;1.1370574;-0.020257434;-2.0402634;-0.054590438;-0.01397749;-0.023442661;-0.71829516;1.0293345;2.5311885;-0.008128355;1.973176;-1.6463037;0.51914954;-0.40824467;-11.022477;0.013731023;-0.005963989;-0.8277533;-2.3457713;-0.24537946;-2.5320244;-0.016728278;1.3772744;0.8123658;1.3423145;-0.5234507;-3.1539235;0.38873163;-0.019981613;-1.526071;0.0231871;0.978508;-3.3260612;0.39906543;0.022350239;-0.12510191;1.0835508;-3.085218;-1.3714375;1.2625223;-1.4451898;-2.8147237;1.8227878;0.116043;2.456909;-0.13268502;0.74554336;0.00419288;-0.04374687;3.3799152;-0.90801156;2.0511112;-1.5854092;1.719762;0.006656669;-0.42640346
0.16873363;0.7343142;-0.025385948;0.29896605;0.005031028;0.570562;0.6830034;0.051800024;-0.25179473;-0.008539767;-1.6472625;-6.545987;-0.03682891;0.021534067;-1.5254707;-0.0674992;0.014496959;0.4900535;3.793239;-3.0130658;2.7328613;-2.7194893;-3.9331934;0.13721935;0.027316973;-4.592544;0.0121418815;2.3922336;0.19304459;0.007831453;-0.2049155;2.0684595;-3.068022;-0.004957457;-0.0021803456;0.036521457;-0.017978193;2.479047;3.7966232;-2.132789;-2.5739715;-11.47071;-0.6907879;-0.30227092;-1.2202421;-0.18066448;-0.04466953;-0.10058934;-0.010205627;-2.8072975;-0.006408715;0.98188776;0.69213974;-2.7416327;2.13561;0.0024157243;-2.1464396;-2.1541057;-4.4596;0.03338117;0.02930856;-2.4940648;-0.027458562;0.007400145;0.078136966;1.0945065;0.0051435013;-0.11157052;-2.4571273;-10.4204035;0.9282675;0.014064062;-1.279015;-0.122458324;0.24369176;-0.00045790928;-1.2303165;-2.4973452;-0.022288198;1.8023282;0.049397565;0.20516446;-0.0053335032;3.919984;-0.88319296;-4.30655;-0.07858782;0.51468366;0.031242058;-0.021264791;-0.75312144;-0.00926736;-0.38494653;-2.9024696;-1.9404978;-3.2881174;1.4327078;-2.9846177;-1.8224586;-6.614595;-1.0779164;0.6595141;-2.211237;2.0898988;3.3166363;0.2553457;2.1706302;0.6641616;-1.2242869;-3.1145182;0.68314016;1.8305976;-0.060448613;-2.7499819;0.40003744;-0.03174981;-0.014345603;1.0016491;-2.6886632;0.66675293;-1.833584;3.2245867;0.6660624;1.0633138;3.2171006;-0.74575907;-1.9915093;-1.2291142;-2.9925673;0.26818618;-1.1133685;-0.4378245;1.1001642;0.015515499;2.0922039;-0.023897983;0.9558063;0.043468762;2.9158003;0.3632641;0.010336427;3.1189306;-0.26996115;1.1010513;-0.61241573;0.01984631;-2.450398;0.03345837;-0.38212937;2.5379617;-0.015504324;0.9682537;-3.9858441;5.655185;1.1987892;-5.467137;2.9833128;-2.4807174;0.035752073;-2.8310792;-0.43159133;-2.5056021;-2.8426092;0.026691483;-11.181997;3.2572362;0.06591038;1.1620293;1.6141812;0.59636414;2.0067933;-0.10887185;-3.4444838;0.68514735;-2.1665614;-0.4640356;-10.610511;-0.34478348;0.57822955;-0.006798602;-0.016378315;-0.025130058;0.06350959;2.1035233;-0.052435268;-4.603809;-0.05687977;3.5877135;0.8995701;0.013082021;-7.1914625;1.1680684;3.4138048;0.0069298646;-1.5234357;2.2099714;3.623531;1.0378375;0.993938;1.0431317;-6.1060495;0.4671756;2.062813;0.9552249;-1.2927278;-2.213722;1.7301909;-3.0725477;-2.2232265;-2.9067929;-0.90614545;-2.2451735;1.7538877;0.039131586;-0.047412135;0.008797396;3.4883516;-1.4439007;-0.63234484;-1.4418799;-1.5135573;-0.05820991;3.337908;-0.00045293433;0.13448638;1.1914785;-2.50148;1.0082978;-0.4532276;0.039127886;0.5277373;-0.68958086;-1.5519352;1.4504789;-7.655286;-2.0760188;-1.5256885;0.037221134;0.81503505;-1.8937407;-0.6548153;-0.2663342;2.0550385;0.034876853;2.8493962;-2.684077;0.074642785;-4.618365;-0.02863139;-8.469263;1.7747285;-0.018584453;-3.2289855;0.7457121;0.046155807;-1.9733444;0.05381522;1.2137687;-12.735677;-0.053296316;2.4734101;0.65879536;-0.0020229893;0.03126717;0.019861292;-0.6569577;-1.2276419;2.2267196;-0.87661666;-1.5406903;1.1854981;-1.0109254;-2.7513814;1.7748339;-0.051739335;-0.01626404;-0.61873484;-0.3160559;-0.0004815333;-0.00068638194;-0.0357827;1.1042752;-0.93560815;-0.47720027;-1.2957654;-4.5404863;-0.020673618;0.11722915;0.042472057;0.803;1.8761809;-2.503233;-2.2235956;-1.6128291;-1.0419332;-5.1418476;-1.5766689;0.4179575;0.09596584;-0.0059936624;-0.8052429;-0.14095268;-0.023571776;0.07487003;2.0036051;0.47783038;-2.559024;-0.3254651;2.8370879;2.0199008;3.8561914;0.04231941;0.024663514;-0.040793773;-0.19320028;-5.757563;3.3283195;-2.580662;-1.0217346;0.012491123;2.0476708;0.0063876607;-0.39070618;-0.26475632;0.0069675357;0.4845175;-2.8946447;0.04032409;0.046843655;0.00094475475;-0.038663514;0.0578682;0.014669551;0.056099877;-0.018043447;-0.014036431;-2.4186852;-0.0786197;-2.7002387;-1.7727869;0.0030732653;-1.8822;-0.031068282;-2.818312;4.0848904;0.506474;-1.2313448;-1.7983494;-0.80890703;-0.007933405;-0.02720544;-0.4151387;-0.83552647;2.8970191;0.02255162;-0.13756439;-1.4851557;0.21341012;1.0649085;2.2151225;0.10543464;0.002776211;-2.9494014;-2.3776882;-7.483991;-0.7568262;1.1658636;-4.346543;-3.4667823;-6.12185;-0.04370214;0.0116584;-0.05523244;-1.2101859;0.9556442;0.015326044;-0.9013063;1.2710222;-1.4435889;2.40561;-6.501376;2.7006755;-1.056814;0.83340013;-2.2950716;-2.643926;6.223993;2.9136724;3.6648197;4.0223155;-3.0778098;0.038121883;-0.023164084;-0.17735098;-0.39930177;-0.74049944;-0.022273818;-0.061482172;-0.012729609;-0.07948619;1.0006032;1.113869;1.4614873;-0.002149829;3.1999345;0.018196965;2.4629717;2.7999957;2.1716318;-0.053660117;-5.1407123;-0.049714386;3.188308;-0.07378361;0.7782031;0.013904845;1.0421643;-0.5530198;-1.3776078;1.0796175;-1.9461467;0.90743726;-0.013579675;-0.16093522;0.69430876;2.2519493;3.0605545;0.63344073;-0.71687204;0.1720869;1.1160321;-1.8361952;-1.4759883;0.74439824;-0.8255616;-1.0561552;-0.05213665;-0.2888544;1.4699541;-0.05155462;-0.009026101;0.69879484;-1.2776057;1.3030362;0.22054422;0.0009957644;-0.014366862;-1.1210886;-0.006729231;-0.008605763;-0.81281865;1.7868466;0.018087061;1.6932131;0.034468576;-0.0030752548;-0.27920812;-3.3736854;1.6841604;1.1330023;0.81315744;-0.0030474733;2.3464308;-0.000874454;0.018898843;-2.854964;-1.6713603;-0.04977006;-3.3659103;0.9847283;2.5238442;1.8490291;-0.15866423;0.36702025;1.146563;2.0821085;1.0523748;0.35084546;-0.022707859;1.4508327;0.049906503;-0.038219787;-0.47209984;-0.049680173;-0.76181626;-2.7345037;-1.4075195;-2.371438;1.5757245;4.030916;2.3381996;-3.2611797;-0.009872392;1.2674439;-0.03008272;0.0017611915;-2.5078912;2.02169;-0.06754059;-0.9456884;-0.043960117;0.20133846;-0.75448215;0.08992209;0.0036966212;-1.4756521;0.02717951;-0.015456508;-5.4975486;3.2799203;-2.039954;-1.5547369;0.0032156296;0.045761056;2.1528394;0.037313316;-0.15904723;1.790884;3.2993171;-0.109149374;1.0205168;-0.021469515;-0.58121026;0.9835388;0.010600856;-0.015787873;0.7612523;1.1985631;2.3212984;-0.042429153;3.5304842;-1.0196285;-0.8282656;-0.76420563;-11.822481;-0.031536166;-0.03281483;-5.1280217;-2.0755231;-2.6256037;0.13747735;-0.0055578006;-1.0120401;0.08093552;2.249618;1.2259943;-3.3780699;1.171783;0.05187308;-3.0979846;0.01093971;-1.9432898;-2.451922;1.1796376;-0.0078077675;-2.5392292;1.7430675;-1.4639518;-2.4058993;4.6209836;-2.573537;-3.000694;-0.1371278;-0.229149;-1.5894578;1.7047348;2.554548;0.052222967;0.038023636;3.8444333;0.50331354;0.9186654;-0.7069314;0.017332671;0.038665727;-1.5646298
-0.09932542;1.563853;0.025241995;0.56822073;-0.0067614233;-0.49127004;-0.8735873;0.01990265;-0.5067521;0.027141174;-2.0305104;-1.7661321;-0.020645529;0.03959652;-0.7451912;0.047019117;-0.010757895;1.015253;-0.27836937;-0.7503188;3.3365326;-3.8743021;-5.160226;0.87305063;0.014558835;-1.1586801;-0.030566787;1.1366775;0.78880703;0.62858146;1.7988089;-0.5877175;-3.8864672;-0.0075907744;-0.015481056;-0.02631377;-0.023568371;1.8913378;0.587064;-1.0032884;-3.3717144;-11.83518;0.55325097;-0.029256172;3.6922314;1.1975363;0.8426776;-0.039520625;0.011868166;-2.2527804;0.01980235;3.0208263;1.0449375;-2.0122252;1.0027443;0.013341888;-2.8009768;-2.772831;0.11839383;0.015862077;-0.012145966;-2.2691803;0.019397277;0.0021555256;-2.1924038;-1.5369034;-0.03466539;-0.06525774;-0.07466696;-10.782771;2.3269546;0.0010692576;0.4612584;-0.20429127;2.6397219;0.021907615;-6.359178;-0.6013221;-0.009616664;0.44189525;0.025682066;0.9212086;-0.0061487653;3.7919018;-2.2714102;-0.19346735;-0.08597706;-3.9014518;0.013492051;0.010640763;0.14445943;-0.019014778;-1.7140399;-2.068424;-2.8966835;-2.5751014;3.2291014;-1.8656869;0.2759242;-2.374255;-1.1574011;-0.032130923;-0.1618542;0.48826396;0.8384163;2.0476696;0.68167526;1.565348;0.6730059;1.0153754;2.1821985;-0.5775561;-0.019757153;-1.0496258;-2.1056085;-0.0458522;-0.006971686;-0.65570587;-1.4337573;-0.76684153;-2.8164265;0.32456762;3.63975;-0.10517447;1.3434393;1.1806045;1.3332586;-1.9766873;-2.5743906;-1.2028959;-0.6732906;0.25761655;-0.1631631;-0.030813282;0.5084138;0.04195393;-0.9919244;-0.07907915;-0.8898114;-1.3124064;-0.009224615;5.26824;0.29881763;-0.88165903;-0.51799464;-0.012615512;-0.53986275;0.009384637;2.330714;3.0438535;0.0037778476;1.5386178;-5.534459;2.5661254;3.4868472;-1.9341899;0.21277712;0.16026083;-0.054091863;-4.91439;-2.4344776;1.4894866;-1.3426099;-0.03268514;-11.370388;-3.2194686;-0.034339245;1.8668323;1.1733623;2.4253669;0.9670297;0.61916816;-1.5425596;1.7356895;1.3589911;0.68126434;-10.51399;0.8804277;1.2619263;0.0069663823;-0.0016288143;-0.013107257;3.502839;-2.3687716;0.039218325;-3.5060217;-0.0027423303;3.3126895;0.37956458;0.028944977;-2.7096388;1.2759088;3.3168225;-0.019120768;-3.2981403;0.52247906;3.5786803;1.7242002;1.5198102;-2.086776;-0.8717905;1.1476749;2.3118522;2.882748;-1.4228028;-2.7185235;2.070393;-0.71966213;-1.5603341;-1.6916308;-0.21439843;0.20815952;0.75571924;-0.036930595;0.0017868015;-0.008927326;2.6766028;0.8955425;0.14425796;0.48377645;-0.39265692;0.4029283;0.97585446;0.012786271;-0.9806411;0.7283546;-2.3010745;1.6247717;-0.4952266;-0.025311584;0.979899;-0.3819281;-2.9144344;2.4128406;-3.609355;0.3522597;-1.7856333;0.005905735;3.279904;0.26746848;0.4871232;-0.12833513;3.2197423;-0.04297691;5.5391455;-2.6084185;-2.950089;-4.0847597;0.050688095;-9.679915;1.0551964;-0.030004038;-1.7378335;0.9214157;0.019931002;-1.3728038;0.45456016;0.67190635;-12.508271;-0.021651797;2.5727942;1.6408249;-0.03451565;-0.030475548;0.0019894144;-0.054767665;-3.170394;2.3348668;-0.003104854;-1.0862696;1.7847496;0.36182013;0.08798326;1.1910404;0.03871464;0.0033602507;0.40354162;-0.07212091;0.007002142;-0.02421421;-0.007024711;-0.23189121;-0.10135894;-1.6665007;-1.3383971;-4.3276396;-0.017770559;-1.0151379;-0.011793065;-0.616888;1.819126;-1.6477612;0.39916062;-0.1503559;-1.6257956;-3.7170658;1.196257;0.049073167;-0.013194271;0.027857691;0.50037223;0.1362575;0.013364625;0.67836195;1.8857778;2.604464;-1.8955318;-0.07925405;-0.95273226;0.5139883;1.3499953;-0.024753999;-0.04243045;-0.046194725;-3.5513601;0.81651187;3.746006;1.2821586;2.726198;0.026385132;-3.461629;0.60132664;0.9148298;0.290541;0.024033148;1.6212814;-1.5206337;0.0019035789;2.0987701;-0.06078722;-0.026322274;-0.032927264;0.009861534;-0.019131245;-0.36058456;-0.0038978162;-0.7673579;0.28746518;-1.30583;-1.1082635;-0.022873634;0.36192527;0.013920922;-3.735125;3.0757725;-0.017754672;-3.4114068;-3.3883586;1.1264439;-0.026253708;-0.0031073361;1.0371699;-0.12651806;1.9415991;-0.048049297;1.9977015;-2.6225214;-0.1583974;-0.6905712;1.8122745;0.019552426;0.075086705;1.2529719;-4.249244;-7.7289515;-1.1099201;1.6521772;-3.5904198;-1.967096;-1.2692894;0.2425707;-0.014393816;0.0077396953;-1.2489178;1.4043798;0.059093535;-2.5745795;1.9226143;-2.1969101;2.4792712;-1.7187936;1.1633269;-1.2982179;-0.45605266;-0.23292479;-0.82998776;2.377278;3.1692717;2.0095637;-0.12944181;-3.5671628;-4.522127e-05;0.02807469;-0.6874486;0.06291481;-2.2421746;-0.009594765;-0.008675974;0.01421845;0.3537052;1.0271672;-1.0771092;0.9534484;-0.0136185;3.3119774;0.019997936;1.104844;1.1350133;2.4503953;-0.060129683;-3.8377116;2.8757558;2.583042;0.015146078;1.8504874;0.96136355;-3.2578993;-0.35084906;-0.55889076;1.0825294;-3.186594;2.9337204;-0.016948514;1.591391;0.64329314;-3.012833;-0.72846663;-0.5964876;0.39008144;-0.04309627;-3.6111817;-1.5362922;1.4018266;2.3855367;-3.1614594;-1.3258321;0.6634841;-0.13565019;0.62270516;0.008592158;0.011907231;1.3234212;-1.3145946;1.5938907;1.6818526;-0.02579383;-0.006920624;-2.6173992;0.038844667;0.0028819572;2.706868;0.6560859;0.0005828993;-0.3009153;0.03193478;-0.0027059673;-2.0725708;-4.7571692;1.5401855;2.6338015;-0.686823;0.04345732;1.824628;-0.013986001;-0.007791216;-1.8661104;-0.6065794;0.028791234;-2.276817;1.2279309;2.7999141;-0.535116;0.9617843;1.687211;-1.0222199;0.2362933;-0.6274147;-0.15315346;0.032932486;-0.89708954;0.036502663;-0.114302315;-0.03746505;0.01946434;0.41573966;-6.679295;1.0932597;-0.724236;0.2911186;2.4887614;2.8162012;-2.1684053;-0.011117012;1.0343628;0.0043536234;0.0200399;1.381317;0.8351589;0.8159896;0.5626645;0.028959086;0.5176566;0.60385317;-0.7093524;0.05133953;1.1856421;-0.0048595406;0.0533062;-5.7944903;1.9115232;-6.5637236;-0.518122;-0.027141063;-0.022978775;-1.9399877;0.031639006;-1.0981786;-2.8179634;2.542482;0.9268484;1.049266;0.05265389;-3.2360442;0.29811114;-0.030179484;0.05429613;1.0707487;0.17520499;2.1726756;-0.005254172;0.17395653;1.2508013;-3.2312648;1.0504111;-11.887225;-0.0037943828;-0.018996658;-3.5190408;3.4292774;-1.5128402;-2.1672716;-0.009450347;-0.44551975;1.9053047;2.477494;-1.3897119;-2.5289736;0.79379165;0.02026307;-1.4050786;0.022952119;-2.6383326;-2.2004015;0.7800189;-9.2278926e-05;0.89539033;1.2718866;-1.3627771;-3.2815952;4.4199505;-0.31530204;-1.486053;-1.0150309;0.19887874;-0.36508313;0.7390586;0.936687;0.024176694;-0.029287633;0.12885535;-0.5282856;3.5190375;-0.27271336;-6.316399;-0.048951674;-1.6772653
0.01555906;4.774828;-0.039596546;-1.4079596;0.0015914496;-0.103806324;-0.8605379;-0.07380061;-0.17845818;0.027894739;-0.4601821;-2.8297436;-0.011600487;-0.005585549;-0.4026284;-0.072292246;-0.011489298;2.3727183;3.5955381;-0.811708;2.8088982;-2.5345278;-5.67214;-0.18091124;-0.0022085041;-0.82927775;-0.012106797;2.8754134;0.7063589;-1.0543619;2.9963648;-0.66129214;0.011446098;0.018878048;-0.008975302;-0.03891933;0.020249698;0.06361061;1.3167204;-3.202345;0.7390097;-12.273082;1.3785914;-1.6178564;0.5486032;-1.5750101;-0.35526627;0.2093346;-0.0070675598;-0.6371013;-0.021466773;1.7389033;2.763295;-2.5128777;0.5565917;0.04042795;-2.0591815;-4.0046678;-0.01989456;0.0317854;0.011968576;-3.060106;-0.009103896;-0.038235467;-2.0348222;-2.906611;-0.012836931;0.11387538;-0.6119683;-11.702719;-1.521926;0.045082577;-1.0045999;-0.6409774;2.6733892;-0.069592595;-0.37843427;-2.6570332;0.00030374984;2.8900378;0.028721364;-0.52994484;-0.021937659;4.0972886;-0.36951867;-6.9277606;0.93317646;-3.4264686;-0.045278534;0.043956343;-1.8890564;-0.006509026;-2.3067496;-1.4423;1.1544857;-1.3114016;2.2046616;-0.7509795;0.8134886;-4.332398;-0.31773221;0.31355518;0.5617484;-0.028806012;0.69214827;1.6976758;0.39272803;3.174555;2.7583933;0.49913886;2.7406957;1.3578565;-0.0020990823;0.71027523;-1.6925955;-0.035682537;-0.03714008;2.1752632;0.5183424;2.2937543;-2.5766306;4.642206;0.021630615;-0.9500461;2.8233838;2.4846296;0.6427798;0.42971033;-0.82145876;1.5851164;-1.5029261;-0.9744713;0.9314196;0.0041384962;1.6246637;-0.04498764;0.0013558886;0.10136307;0.89669496;0.83393687;0.05099046;1.835719;0.4946639;1.3234353;-0.76165694;-0.042534836;-1.5748589;7.739427e-05;-2.3307498;2.8461514;0.032419883;1.9236948;-3.109224;1.2516614;3.6065488;0.7027025;-0.014233797;-0.7458484;0.024874687;-5.114244;-7.899554;0.57372475;1.113183;0.011324191;-12.00918;-1.6508335;0.014964583;1.1766496;0.77460533;0.96825457;0.7868675;-0.087727346;4.0123987;-0.85111207;-0.7650763;1.9675007;-11.858102;1.3375059;-0.5314032;0.03988449;-0.040457692;-0.013754278;1.8777292;-7.2365923;0.014588849;-0.8638863;-0.02110898;4.3986506;-2.256546;-0.04154282;-2.108306;0.068343945;2.3244033;-0.02337424;1.3356103;1.4056575;2.5720303;1.8643857;-0.0059826775;3.7314742;-2.5630238;0.988531;1.5095694;0.10192076;-1.6351336;-1.3508403;1.2530648;0.108354405;0.7510634;-2.3766067;0.5072796;-0.929077;3.4666135;-0.03047184;-0.11589007;0.030319454;3.9858508;-0.08953447;-0.84396094;-2.8830614;-0.88484484;0.5623698;1.4693018;-0.0020372428;3.5080276;0.30163044;-3.1882434;1.62759;-0.11299698;-0.06467079;0.17584254;-1.564419;0.5119775;0.3938896;-2.0430853;0.31282145;-1.2903333;-0.0063566007;-0.4738369;-2.2016191;-1.0679798;-0.69213927;1.3194315;-0.040230438;4.908842;-4.3942122;-4.1830783;-5.7222705;-0.07438682;-10.159318;3.3740945;-0.019795675;0.16666584;2.3992763;0.019109627;-0.41963795;0.3219415;-0.43984833;-12.9977455;0.044865515;1.4999096;3.2511365;-0.013234818;-0.014853584;-0.029090388;1.2090019;-5.266912;-0.30692485;1.1320179;-0.96449625;2.470574;2.1554592;-0.92287767;3.2975056;0.017649297;0.018723866;-2.976254;0.59964454;-0.06478728;-0.024711229;0.026737986;-2.2986639;-0.89483523;-1.4040246;3.2286098;-5.5038996;0.36771736;1.2461612;0.0005886406;-0.53099406;-4.6703224;-1.4161584;-0.82471925;-0.98131543;0.257562;-2.450599;0.68096393;1.6376776;-0.0009082655;-0.013847588;1.0486172;-0.07821354;-0.04322044;2.5199804;1.5576898;2.9348567;-1.8387811;0.06277743;0.9738615;-0.41832933;-0.26751006;0.04114067;0.5957681;-0.0696879;-5.399093;0.9319102;3.1774464;-0.1556133;3.7393866;-0.0052294005;1.0557628;0.56300277;-0.3375892;0.7881518;-0.04760555;2.8675048;-3.9819837;0.027938968;-0.6851616;0.016917508;-0.0060699782;0.0005299694;-0.0065107467;0.021796351;-2.6405578;0.053460214;2.2709982;-1.5121722;-1.8951788;-0.7411417;0.0022134464;2.484459;8.991814e-05;-3.0544434;2.9232273;0.6073553;-1.7986289;-5.1961875;0.86460346;-0.020697862;0.012574919;0.80723166;-0.56734324;3.7535691;0.005744253;1.0647337;-1.94888;1.4654772;-0.95574147;1.8698014;-0.01264688;0.0022805608;2.811458;-6.1006284;-8.804405;0.36732742;1.0742322;-0.104899764;-2.5073707;-3.6587691;-0.041416127;-0.024412781;0.0050146813;-0.36970976;0.37875158;-0.004585704;1.6616963;3.3885627;-1.9197272;3.830456;-4.0905457;-0.5034935;0.15944609;-0.87275255;-1.1110443;3.89331;5.5829782;3.3763044;3.9254034;1.9261203;-0.5183108;-0.033839844;-0.043336384;-0.8723591;0.29398936;3.407586;-0.046544172;-0.0031659654;-0.05528122;-0.096334904;0.56863755;0.59361;0.5662544;0.017879024;0.45742148;-0.03235979;2.6717954;0.7418018;1.5948397;0.0080845915;-0.6848478;-0.18841225;2.221717;-0.0022043919;2.5161834;-0.3714572;-1.2771295;-0.09551304;4.0944066;1.9888608;-0.8617164;1.1851943;-0.0930565;-0.7819518;1.4947863;-4.0264406;-1.1081284;3.074939;-0.27764422;-0.041187983;-6.6406837;0.28539142;-1.5931721;4.108851;-3.3849754;-4.0366545;-0.17188136;-0.03918048;1.6294898;0.020544274;-0.0575374;-0.028194329;-0.5850296;2.759315;-0.7627377;0.020924056;-0.010737895;0.20037688;0.016299233;-0.014761215;1.2596475;0.5313178;-0.023392528;-2.4175277;-0.041936036;0.08218811;0.6809526;-2.5960517;0.28510237;2.2645788;1.1908464;-0.013823451;0.34610537;-0.011375235;0.005114296;-1.6377449;-3.203673;-0.027164888;-2.9001265;2.3288279;-1.7542483;0.49915457;-0.23513293;1.0699484;-0.96266484;-0.8539993;0.9509527;-0.059125166;-0.008835168;1.036504;-0.025183555;-0.054618362;0.14462116;0.026830934;-0.33867833;-6.9317417;-0.6927877;0.39196756;-0.44085422;1.2114278;0.55758554;-2.766292;0.014037778;0.28824422;0.029789597;-0.07823613;-0.670602;0.67188025;1.2999476;-1.3133892;-0.03867945;0.9055024;-1.8765533;-2.0807025;0.0039183497;0.15722539;-0.0067310296;-0.044702746;-6.694833;1.201851;-2.7614057;-0.9128515;-0.06070735;0.0034778067;0.01886339;0.0028578413;1.4031612;2.8531442;-1.0155493;-0.26426798;0.15642422;-0.055597905;-3.725221;0.71696067;-0.07662021;-0.036310036;-1.2888424;2.6929803;1.2435981;0.035326537;3.6414845;-1.141107;1.725134;0.81015646;-12.870134;-0.00024736486;0.031943757;-2.5506573;1.6350483;-3.890438;0.19458783;0.01765545;-0.27274817;1.0429423;2.4611716;0.60803336;-2.4907951;0.7465536;0.0013617479;-1.7471611;-0.009975346;-1.1782942;-0.2674527;0.022170328;0.005529122;-1.3821837;0.54051113;-1.9413718;-1.8914208;2.7930267;-3.3272724;1.0053364;1.4785678;-0.055232078;1.2781005;0.6903214;2.8793406;-0.00051014445;-0.11140214;-3.640487;-3.4291472;2.3413494;0.9262818;-3.5574152;-0.019421512;-2.201459
0.44432244;1.2021384;0.018925954;-0.8699889;0.01006283;1.1245345;-0.50769633;-0.011535837;1.278773;0.013487139;1.2646924;0.7115555;0.077218734;0.033971775;-0.17725502;-0.032727666;0.095593184;2.4129329;-0.57475364;2.294127;2.150552;-0.5379729;-6.1659904;-1.6694285;0.02632364;-0.5700301;0.050933145;1.2333196;1.442871;0.44220027;0.008112862;2.324102;-1.0888411;0.03672195;-0.025981832;0.02240989;0.08410574;0.2912682;2.7782998;-0.488136;-0.3171306;-11.21151;-0.36991933;-2.3417773;2.3125122;0.35095274;0.018071128;-0.4076221;0.0138114765;1.2881119;0.017829774;0.07450992;2.5278285;-0.7545055;-0.08202844;-0.017480914;-1.840344;-2.9521952;0.43500763;-0.010648964;-0.025521994;-3.2145882;0.012896609;0.019288804;-0.31113145;-0.86601907;-0.03318962;-0.20163916;-0.5646923;-9.585059;-4.410782;0.061390005;-2.8589864;0.12889789;0.36181253;0.015951851;-1.6763052;-1.790713;-0.0020879724;-0.2285744;-0.010887113;-0.13514593;0.012579515;3.1782484;-4.232077;-0.6672982;-0.13293396;-0.062233347;0.0038109375;-0.011178632;-1.7916027;0.06283251;-1.9404724;-1.9591289;0.027988516;-3.419128;2.4431374;0.18185537;1.3119988;-4.878403;0.79872614;0.8441064;-0.9515275;-0.31988728;-1.5232942;1.3182899;-0.07649439;1.61062;0.7911682;3.6249352;0.20499405;1.8142891;-0.0066015297;1.2086779;-1.6013618;0.032080986;-0.0019868987;2.9873643;-2.005639;-0.049332682;-2.0947554;2.175577;2.9678752;-1.6257704;2.4645436;3.3967664;0.43378583;-2.1764214;3.0982273;-0.34624577;-0.27269948;-1.7145393;-0.74405164;-0.015287767;0.7939165;0.15788105;-0.68788016;0.047478385;0.4977604;1.1153803;0.0007163811;0.60471404;-1.3184443;1.2618437;0.46680513;-0.030444043;0.49367136;-0.0011146627;-2.2202687;1.3190161;0.033820584;1.8155465;-0.50988543;2.7492318;0.570402;0.50912726;0.6443618;-1.7349329;0.06933804;-0.4587937;-6.3994484;0.88663083;1.194201;0.013391964;-10.648323;-1.5739611;0.04893704;3.0185819;-0.6627481;2.3769479;1.3779709;-0.042446636;4.7399006;-0.43526444;0.51066554;2.9452503;-10.1043005;0.3938031;1.4363904;0.029990364;0.007384114;-0.041699305;1.9351313;-3.9276729;0.033100817;-0.76244336;-0.029681161;2.7555006;0.114737906;0.14166634;-2.2821372;2.7192338;-1.7104274;0.07951434;0.3315178;0.46058476;0.070283;1.982289;2.8054495;2.5377502;1.6931554;-0.1786964;1.3778629;-0.67173654;2.1702259;1.268804;0.23972823;-0.5429892;0.31609753;-0.34342968;0.27942377;0.054387365;3.4381871;0.117883846;0.40754005;0.012623652;0.10403239;0.67673284;-0.896933;-0.4381218;0.16699849;1.9016445;3.469762;0.027511481;-0.5629236;0.10039934;-2.2998977;1.8951304;-1.5811752;-0.100694105;1.2353128;-2.7711828;0.2825625;-0.8642085;-4.1307077;-1.0775341;-0.9540061;-0.009130316;-0.14869592;0.72468066;-0.9378495;-0.41385585;2.021855;-0.027222551;3.319703;-6.3079505;-2.522099;-3.9033785;0.0005106952;-9.961159;0.6917785;0.3293651;1.3847004;-2.2985163;0.15168065;-0.5019347;0.773869;1.5956336;-10.505264;0.0117294155;-1.4808604;1.54053;0.023512287;0.035738315;0.05099042;-0.76021516;-3.7200668;-1.1294245;-0.018342594;-1.1304648;1.4712435;-0.22628993;-0.6331653;0.7967083;0.0066461945;0.031818904;0.13680619;0.7793769;0.1602396;0.042961113;-0.022302896;-2.2356038;0.37998208;1.8315593;1.0461287;-2.9526544;-0.09295876;-0.6302402;0.004394927;0.15044846;-2.42614;-1.1672783;-0.023895608;-0.3872029;-0.4042789;0.74502593;0.5910567;-1.3559015;0.026271697;0.070542485;1.5553539;0.45942813;0.03718494;2.4417121;1.0305088;2.17498;-1.269607;0.018423157;0.17159908;-1.0922792;0.00572944;-0.014283364;-3.3166423;0.4781564;-9.183175;-1.8550593;2.5572248;-0.23386991;4.3812823;0.022038238;-0.3059829;-0.5931959;-0.63574576;-0.19572249;0.10172646;1.6615182;-0.8569985;-0.046081334;0.8025462;0.0054572467;0.05984875;0.049941875;0.016029684;0.11232852;-1.8892864;-0.014387853;1.4174556;0.7705479;0.3693852;-1.352932;0.09017539;0.805636;0.035077985;-2.2032208;2.5169618;-0.11659513;2.2425506;-5.26231;1.7072321;0.03365695;0.012562119;-0.20773283;-0.19381832;1.1156946;0.0049048453;1.208811;-2.8796637;0.72017133;-0.05142964;1.3886689;0.033823367;0.053755455;2.6139817;-3.5761137;-8.308233;0.6701911;0.77736974;2.2317731;-1.9349617;-2.236344;0.04012252;0.012470809;-0.0112548685;0.76243424;2.314403;0.0028821987;1.8780156;1.7085451;-0.9169645;4.3448925;-2.9049885;1.2208228;0.71202743;1.9242628;-2.9558728;4.251887;1.0232067;2.5355153;0.21080165;-0.9333462;0.44921643;0.021822864;-0.038824067;-1.4119977;1.6939344;1.5993471;0.05704601;0.069764085;0.039600708;-0.057971783;2.100443;0.7828141;2.328022;-0.004218208;0.91569686;0.07324085;1.8884169;0.09699783;0.88586867;-0.06430398;1.0674596;-2.0752392;0.90492576;0.034606084;1.6691557;0.18438807;1.0022947;0.1148332;-1.0284826;1.6313127;0.5746451;-3.5872185;-0.015417751;-1.4800823;-0.65347373;-1.979421;-1.0496478;0.665359;1.7915603;-0.013417105;-4.1053624;0.60280854;-0.19334106;0.12558575;-4.422252;-3.1738794;-0.015571005;-0.15525866;1.9801352;0.03066478;-0.022789005;2.085866;-1.6472472;0.4187771;-0.6655022;0.039042268;-0.074041165;-1.2735181;0.003564038;0.06566068;-3.1138742;-2.648672;-0.0066911285;-1.3554469;0.038408283;0.058422275;-1.8141325;-2.2157426;-0.4069784;2.2969825;1.1964417;0.070224285;-0.653889;-0.014885707;0.026728623;-1.329662;-1.446688;0.019219363;-1.5267937;3.1285994;-0.03243072;0.42976335;-0.06747778;2.1904383;0.41285032;0.4023395;-0.45782322;-0.6639217;0.009695001;1.2496557;-0.0064437366;0.067453966;0.36938006;0.049653213;-2.3576539;-4.653406;-2.2815278;-0.46340397;1.8516953;1.013321;1.2202048;-3.1496828;-0.02889295;-0.37332982;-0.024469154;0.012125374;0.62472034;1.7505826;0.2854053;-0.7320059;-0.012889869;1.4404664;-1.3073102;-1.0598879;0.3336965;-1.6621641;0.014117721;0.017619738;-5.9853296;-0.1235567;-2.8457224;-1.6898078;0.024690054;0.06355907;0.6032287;-0.06230957;-0.37198454;-1.3263854;-0.50948167;-0.08929303;0.9554822;0.035588127;-3.3882751;1.4139768;0.07473762;0.017135473;0.32212365;1.4710325;0.3795004;-0.07320519;3.997257;1.258148;2.5126004;0.29082832;-9.082439;-0.04626463;0.016610172;-4.4043736;0.36572215;-1.7458044;0.7977903;-0.027379109;-0.8642547;0.97143203;2.8371868;1.3904771;-1.9861411;2.7990782;-0.031828035;-0.4807641;0.015442167;2.3346639;-0.82296205;-0.61511654;-0.008894014;-0.49090138;0.16209655;-1.6732525;-3.0400705;1.6240227;2.2557771;2.366932;-0.2576419;0.15348828;-0.0748165;1.9097081;0.37927094;-0.013896933;0.15738726;-2.1794274;-0.26982608;2.3387232;3.131204;-2.2605662;0.044638626;-3.5012236
0.828584;1.3403413;0.05220832;-0.63485014;-0.06726394;2.1457663;-3.425188;0.00237228;-0.36684552;0.034995228;0.025649197;-5.0859194;0.0027390677;0.07071739;-0.8039155;0.018399058;-0.038701814;0.693665;-0.29805735;-2.4449255;2.8546784;0.47713244;-6.420162;-3.125105;-0.013305896;-0.91039985;0.01572452;2.3381681;1.0254711;2.9301374;-1.8163558;2.7442672;-3.3119013;0.005162265;-0.039370388;0.011937502;0.026488703;1.166303;3.2415166;-0.5875987;1.6454393;-11.490973;1.8155704;-0.5023508;2.2677343;-0.15747572;-0.012014305;0.23510829;0.011390556;-1.1413999;-0.022215327;0.5572119;0.15773681;-1.0092205;0.9399012;0.025936328;-1.3808529;-3.1847167;0.20735718;-0.01598057;-0.026337596;-3.7535365;0.018725337;-0.13197601;-0.98062396;0.2539663;0.11803027;0.0072186613;-2.2013564;-11.372753;0.08445686;0.023123004;0.2936469;-0.23005475;0.35083237;-0.012092879;-0.80029595;-2.0575478;0.012981178;0.89488703;-0.016422428;2.2727334;0.012310853;2.955821;-4.2240696;-0.91100174;-0.027871571;2.3014858;-0.04421775;0.014081055;-0.018658211;-0.025889201;-1.2275789;-0.09093153;0.102560945;-4.4718647;-1.7294976;-1.6362907;-0.4723543;-6.167807;-4.319043;1.1063659;0.49409416;-0.6010623;1.6707728;1.4783694;-0.23207986;-0.23563391;0.07670718;1.2191021;1.8698686;2.1529956;-0.006465152;-2.6065075;-0.9261147;-0.016249765;-0.029331196;3.9854345;-1.5372012;1.8600178;-4.3030233;2.8295486;0.44277227;-0.32446152;-0.27521423;2.9426894;0.9905791;-0.29403535;0.5944468;-5.0262465;1.913008;0.80277866;-2.5586672;0.010857091;0.5507067;0.0038956301;1.2370434;0.0029146846;0.11745034;0.13726598;-0.011029785;1.8285581;-1.688249;-0.7599788;0.0436328;0.11093177;0.9627092;0.043636363;-0.53074527;-1.4289771;0.019505933;0.81483954;-0.6048826;-4.1317205;0.3392911;-0.97131336;-2.9953184;-1.4390389;-0.033943847;-4.1432037;0.2963748;2.2432175;2.150168;0.024062036;-11.37454;1.4366133;0.04900683;1.3755127;-0.85393935;3.2173712;-0.37381554;-0.028128723;1.0401306;1.6286284;-0.4162793;2.2677279;-11.624895;0.04470031;-0.46223098;0.02856521;0.0032866555;-0.0035388635;0.15661833;3.0881855;0.00451509;-3.4905562;0.032636106;3.098049;-0.37368327;-0.054176588;-0.9629555;-0.5560023;-1.1188409;-0.0020482966;2.7659194;0.87376046;-0.6784192;2.380899;3.411328;-2.611126;1.958849;0.64945084;1.2847453;3.355948;3.2095819;-1.6379269;1.3640958;-2.476205;4.308079;4.3051114;-1.3193105;-1.1992584;2.227499;-0.05646048;-0.2945009;0.0063708955;0.039362747;0.44559664;1.2359496;0.80024654;0.17232463;-0.36162236;2.7610896;0.013494554;0.7462969;1.9890248;-0.8925382;2.7592676;-1.313868;-0.024610717;1.7064716;-2.5115843;0.9442215;-0.66732496;-2.528198;1.9980316;-2.3018076;0.028865915;0.6968179;1.5823227;-0.6194401;-0.080703825;3.1715868;-0.027925279;2.5318165;-6.3721876;-3.6902966;2.4094036;0.032610793;-11.040067;0.5817396;-0.059298262;-0.7186287;-0.66231483;-0.108445235;-1.3948064;-0.35264146;1.626323;-9.698579;0.032071374;0.27832013;1.2835408;0.025261678;-0.017549746;0.0027049608;0.53845954;-4.215225;-0.85356;0.84641105;-1.3851316;1.2699584;3.368281;-0.5738118;0.46387678;0.02211956;-0.0048579797;1.609798;1.8714985;-0.053566467;0.012490386;-0.009466487;-0.061715677;-2.223978;2.0146868;0.19217129;-0.8969449;0.0041849553;-0.08101176;0.020418122;2.08251;-3.6308544;-0.98992705;0.5082727;0.6965206;2.378122;1.8954628;0.21348703;-2.5261443;0.06399648;0.008730027;-1.6289438;-0.17843126;-0.012505269;2.1020756;-0.077241376;2.5123293;-0.95897293;-0.06643379;0.46751842;1.5895236;-1.0388778;0.0035473416;-0.021159308;-0.038039643;-4.319644;-0.16618143;3.1770635;2.3396292;3.6224308;-0.002869681;-0.008434403;-0.046932288;-2.0231593;-0.03396428;-0.022028081;3.21574;-3.356143;0.0099160215;-0.18671565;-0.047005415;0.03667718;-0.002715201;-0.057716;-0.027785186;-3.5049083;0.20230377;0.24385391;1.3968697;-4.759714;-0.1681133;0.001984021;1.090102;-0.012627824;-2.461827;2.2358649;0.31970027;3.399444;-6.6761856;1.0294979;0.047222357;-0.011941026;0.1142088;-1.5836358;2.3026166;-0.016359232;-2.929998;-2.7104938;-0.53331083;-2.4535482;1.3389077;0.28851005;0.012321513;0.12235834;-3.2838824;-8.248858;0.21956252;-2.053116;2.1613467;-1.4909146;2.1340756;-0.034156997;0.008816742;0.019390808;-1.9653063;-0.26573086;-0.0066716364;0.40762475;2.701097;-1.028541;3.7811196;-2.104437;1.0971324;-0.073658966;-2.686002;-3.1371548;1.0266931;2.1195822;2.022897;0.59804595;-6.215565;2.822796;0.015343466;0.0067651235;-0.013320439;1.0492796;1.3231672;0.0075010303;-0.0073067616;0.01681332;0.03139242;1.4656223;-2.1539686;2.3112538;-0.01947156;3.958428;-0.031567156;1.0924762;-1.0073888;-0.60722333;0.07716372;1.0269105;2.9202566;1.8592463;0.00852143;3.704426;0.32032037;0.3058521;-0.17386436;-2.605189;2.7402258;0.25543326;-2.1724598;-0.11148079;-1.0233762;0.39377356;1.4328345;-2.6066763;0.29000127;1.9920661;-0.09169505;-2.3643136;1.2352929;1.142711;-3.024897;-1.9834545;-1.2254968;-0.0003894028;-0.1008109;-2.389943;0.0023123657;0.06461182;2.663842;0.6354547;0.91909736;-0.027451705;-0.055411827;0.009432003;0.10618742;-0.038472548;0.004452414;-0.8431454;-1.8768227;0.073341854;-0.27461037;-0.038300335;0.055019055;1.5643061;-0.83707255;3.6317117;2.6705658;2.1139162;0.000992397;1.6267159;-0.0008403966;-0.06937028;-1.0691818;-1.3297778;0.0498862;-1.1449394;3.54435;0.31861028;1.4403086;0.031500693;2.2579887;-4.13206;0.8515852;-1.5478569;-0.71438646;-0.0026924207;-1.6472787;0.073404215;-0.06718361;-0.36558384;-0.08560289;-2.1564915;-1.1463634;2.8039346;-1.4260342;0.7580392;2.2909875;-0.39230397;-4.655263;-0.010203033;2.7245166;0.02121339;-0.030494062;-4.3487706;-0.4725048;2.4320586;-1.5432621;0.011450929;2.0984404;-0.7777496;-1.6508046;-0.010819626;0.41887286;0.04608393;0.01922379;-7.1845045;0.10506797;-1.9600127;4.5659485;0.056780174;0.026087938;0.34830883;0.0038695962;-0.40809968;-3.3416488;0.23435068;-0.018751452;0.18844064;0.04446725;3.1860905;1.278973;0.007951437;0.002947359;2.6651852;-1.3301111;-1.253628;0.053778343;0.95998406;-1.8623451;1.8208402;-0.46376866;-8.112688;0.0027707065;-0.0532806;-2.1041527;-0.77574587;-3.4462948;-2.6526406;-0.028076988;3.500736;-0.23328207;3.3520677;3.0625887;-1.6496685;3.147737;0.02135028;-1.7508744;0.025598522;-1.7295195;-4.0156755;-1.141509;0.025856813;-0.26803258;2.165764;-2.0637648;-2.700325;0.62468076;0.09935875;-1.6629384;1.3787433;-0.008974934;-2.3250866;-0.5354118;-1.5634261;-0.014072517;-0.1200361;-2.8023407;-0.48683146;4.2783155;1.8393486;-2.1098342;-0.014056686;-2.5968475
2.8706958;2.4630892;-0.014677852;-0.87050116;0.01668426;2.8743167;-2.6647198;-0.057946526;-1.7735088;-0.049994655;1.1465127;-2.5318244;-0.026412126;-0.021484748;0.49232826;-0.051448103;-0.016290715;0.74151504;-0.75858355;-0.78959405;2.9851382;3.548222;-6.4311824;-3.5991726;0.00013127428;0.41904846;0.021603849;0.9035132;1.1631743;0.13037387;-3.9008403;3.3154898;-1.3517334;0.0043956507;0.006178493;0.0134037305;-0.058765315;0.7367902;4.6014075;-2.5113072;-2.055233;-12.733393;0.50842977;0.4468098;1.9593924;-1.6234115;-0.02819742;-0.13881713;0.022101808;-0.89875674;0.0028027869;2.3604844;0.48425865;-1.348329;-3.8623743;0.0089793;1.7994511;1.0539926;0.39973456;0.004943303;0.0026028852;-1.0520312;-0.0066063353;0.8164014;1.2614858;-0.9080689;-0.018211927;0.47527748;-5.193514;-12.066855;0.613134;-0.0018432292;2.1257765;1.3460569;-0.93061286;0.0017046056;0.054477997;-1.4499637;-0.0074068094;2.5644243;0.023859397;2.1859708;-0.0354441;4.045282;-3.420785;2.717299;-0.05357623;-0.40641266;0.023230858;0.0036215952;-2.131367;-0.021490002;-2.159751;-0.52162266;-1.9253353;0.5728637;0.8869423;1.4477043;-1.1960189;-0.719716;-3.052377;0.24225838;1.1642159;0.32740384;4.0017214;-0.53217304;1.4191213;1.6315304;0.30340195;0.9459013;4.0763836;-0.283576;0.0009516347;-0.20194158;-1.6849421;-0.014537793;0.06208337;2.2497165;-2.4993172;4.3536115;-2.2815843;-1.4549725;-0.033198033;0.35627517;0.53694195;3.611233;-1.3964419;0.5008201;1.0632714;-1.9117768;0.90644366;0.2538164;-3.9306087;-0.035934515;1.9710877;-0.021996602;0.39038906;0.027415374;-2.5239773;0.5222063;-0.02594433;-1.6661274;-0.22904491;2.3774872;0.8856389;-0.034849327;2.0953794;-0.0047077187;0.8571005;-0.10620294;-0.010368278;0.71104914;-0.89354163;-1.0875654;2.0187402;-2.4241552;-1.9410349;2.9474852;-0.012963981;1.845067;-3.9474607;-0.8679701;-1.7548282;0.01129271;-11.703407;0.98485965;-0.015209429;4.0489388;0.12337288;4.4996405;-1.0707797;0.005817874;1.8639687;0.102390446;-1.8492752;1.7630965;-12.649015;1.7061803;-3.2847683;0.010746455;0.0036638293;0.0068543204;0.5424482;-0.62932545;0.04075316;-5.3491173;0.0035866417;4.8028917;-3.5797906;-0.004979021;2.5119429;-2.0102613;-0.29781002;0.011147711;1.320137;2.9881854;-0.023551768;1.4773977;3.359165;-3.7857687;0.55949014;0.7593464;2.4331832;1.6911664;1.3114929;-4.462198;0.40624207;-3.042657;1.7822576;4.6599946;-0.016955962;-2.700296;-0.66058815;-0.019995887;-0.12630428;-0.03263516;-1.5532634;-0.16126578;0.5107814;-0.609965;0.12259988;-0.1653868;3.457799;-0.038295615;-0.84555244;2.3579226;-0.32567593;0.7263591;-0.70142174;-0.053110987;5.159507;-2.0250149;-0.48320806;0.5406054;-2.3736901;0.3243472;-1.6632191;-0.021446932;3.4279232;-3.2706027;-0.79942095;-1.9459383;2.9905262;0.059493463;-0.27567068;-4.0774384;-2.3156145;-3.2065163;-0.057690892;-11.754905;-0.5139088;0.01947367;0.45460677;1.0199261;0.026943957;-1.3236862;0.2894697;3.996078;-8.793802;0.010323758;1.4012007;-2.9949534;-0.024294883;-0.010271405;0.013986936;-0.17614725;-6.8744836;-0.33569428;0.38166848;-1.4994534;1.2621485;2.1900067;-2.9395924;1.1416978;-0.034502476;0.06253118;-0.11139423;0.7919872;-0.029721903;-0.009040703;0.045384962;-0.98161036;-0.979254;0.47248924;-1.5900962;3.376355;0.04556464;0.26087245;-0.03138405;-0.7125815;-0.81721365;-0.544867;-0.83142453;-2.7184482;2.2037141;-7.0979314;-0.13876766;-1.7403915;0.015233709;-0.034609348;-2.2915626;-0.07615266;-0.032052327;-0.40092868;1.1815454;1.0299228;0.01436465;0.026045993;0.9445049;1.5776137;-0.13626951;-0.007951242;-1.7717714;0.02706853;-3.7991827;-0.19934188;3.185763;-1.8848954;1.6049144;-0.017124103;-3.5221353;1.0334482;-1.5716137;-0.048720833;-0.009883308;-0.073206104;-3.0498056;-0.024101745;0.097760625;0.10225246;0.008888846;0.0027926066;0.024599617;0.04945956;-6.0258737;0.017757447;0.8251845;1.5836626;-2.7796814;-1.0966161;-0.032135855;-0.89294946;-0.035363335;-2.3276427;3.3832772;0.9275412;2.352771;-9.577434;0.0525069;0.014101666;0.025354467;1.0130174;0.14439721;1.2511088;-0.027520463;-1.0416191;-1.9527735;-0.5799475;0.4581566;1.6896243;-0.16291541;0.018191306;-1.7944952;-2.759429;-8.475698;-0.04101947;0.084685355;0.9452957;-1.6672246;0.81894433;0.00916596;-0.004856625;0.034635436;-3.9991262;-2.046348;0.02020387;-0.1732482;3.123389;-1.4190642;1.9234619;-2.9904814;-0.124796025;2.934558;-2.5955524;-2.52497;-0.59900063;2.1567006;2.656682;0.013604545;-5.014415;1.0659765;-0.009665823;-0.0007347762;-0.97269404;0.9115927;2.194595;0.0035998637;-0.008251888;0.0033217687;-0.016664363;2.9079704;-2.7295063;-2.5098476;0.038965236;1.3355062;-0.006204456;1.4199914;0.8043518;-2.6746664;-0.054301918;0.8594688;-1.4673642;1.9112087;-0.066434264;0.910619;0.97470087;0.9875495;-0.7858764;-1.2937791;3.6598177;0.98541987;-3.4510732;0.72051185;2.6213398;-0.4290202;0.9896675;-1.7519858;-0.54094154;-0.095732756;-0.20612714;-3.819827;-0.36589804;3.6356397;-1.8240135;0.89525783;-5.0166173;0.05784573;0.091522396;0.25608158;0.027763166;-0.08057519;0.70267415;4.029637;0.9416159;1.3091542;0.016523892;0.031542215;-2.650601;0.023870938;-0.07054513;-0.28320798;-6.0791593;0.0283535;3.1661086;0.016802933;-0.007012548;0.94113207;1.4091746;3.195446;-0.7824933;2.5591884;0.006378315;-0.20791903;-0.031867083;0.12510444;-0.16161917;1.3612;-0.015765963;-2.424477;5.877262;-0.18486558;0.25345436;-0.027274178;2.2229486;-2.8249617;2.232891;-0.49870792;-1.363733;-0.03417098;-0.15874863;-0.025749572;0.04824778;-0.061857164;0.128426;1.2371875;-0.7369488;3.924793;-0.8146881;-0.22000474;-1.7559007;0.963058;-2.9804406;-0.014073739;1.463363;-0.010633707;-0.07466506;-1.3249292;-2.4798167;2.6763558;-2.3565414;-0.019034669;-2.0811863;-2.2682426;-2.9782128;0.015225272;0.9077126;-0.043034345;0.0035035664;-7.728415;-0.25885153;-0.36492416;0.544917;-0.044927765;-0.06588182;1.1549499;-0.012552466;-1.4839699;-4.022712;-1.9788654;-0.034957834;1.2178262;-0.010447578;-1.5167979;0.62567323;-0.043251872;0.02832479;1.771598;0.17790009;-0.57433;-0.0021294146;0.29866022;-6.481387;2.2017195;1.9680802;-8.383477;-0.037189905;-0.030072028;-2.1330118;-0.3648484;-8.765591;-2.5867171;0.015685039;2.3791194;-0.35621262;1.7192663;0.78609264;-0.43602124;1.2098778;0.005434063;-2.5724177;-0.03260547;-1.3182876;-2.9175224;0.38880515;0.009559283;0.8646994;0.5767627;-0.65309125;-1.8017966;2.8612156;0.774099;-2.4295733;-2.7631152;-0.0051568802;-1.0980506;-3.439303;-0.66504335;0.017395077;-0.041209668;-3.697486;-3.8303459;3.8009312;0.60669136;-0.09045515;-0.01850781;-2.5551472
0.11433214;0.3352575;-0.02805461;0.3196773;-0.02468495;2.4058042;0.16441925;0.046566565;0.4780173;0.015208831;-0.26923987;-1.0062013;-0.04489451;0.020228023;0.5639781;0.010014936;0.00073305384;-4.064733;0.05654666;-1.4424474;2.1647217;2.0828211;-6.3770714;-5.9162364;-0.014822163;1.3394885;-0.007225187;0.11903616;5.326636;3.507774;-0.71668136;0.7613796;-2.4584143;0.014153408;0.030438995;0.005613371;0.015313644;1.9792802;3.1376088;3.5651817;-2.9510024;-12.201228;2.9882493;-0.29847932;2.7474234;-1.1913451;-0.07181697;0.3788583;-0.039467715;0.31694075;-0.016766075;1.6362754;0.59310174;-1.6630949;1.6055989;-0.10142835;0.46703833;-0.59764177;0.076236814;-0.016307443;-0.009317964;-1.4571854;-0.037566334;-0.10345737;3.2858722;0.65754664;-0.02712628;-0.6358985;0.50600594;-11.423701;2.5484407;0.0031346588;1.884742;-0.6317859;-0.07562159;0.007228093;-0.56818944;-2.2093284;-0.023560762;-1.0479817;-0.008259427;2.7930138;-0.010754321;3.6287768;-3.1670558;1.15415;-0.08240366;-0.9012182;0.033940595;0.01830082;-0.9686076;-0.065781735;1.8428495;4.0933585;-0.13611354;-2.9281619;0.9535029;1.5090958;-0.08427269;-2.1316326;1.7811905;0.8387181;2.1516771;-1.1640962;1.7839;-0.77504873;1.506581;-2.9934337;1.4436018;0.57717776;2.1598675;0.5630954;0.019376513;1.2563512;-0.5443599;-0.014675522;-0.024935326;-0.53088015;-0.68330085;4.1454964;-0.055680964;1.7709329;-1.1191629;-1.1552366;-1.6585643;2.8865066;-1.78511;-1.1692463;-0.2777684;-0.37459192;2.336212;2.027513;-1.1541212;-0.035174582;0.8462;-0.023040282;-0.13679959;-0.1611083;-0.6446793;0.29625174;0.019716306;-6.859082;1.4679899;-0.34331015;1.3813856;-0.0140684005;0.79806554;-0.00071050756;-0.6702213;-1.6043239;-0.039209384;1.3469126;-2.1337442;-2.3030608;-0.26571232;-1.5422941;1.0925303;1.8997875;-0.00712796;3.4224048;-2.187168;-2.1263754;0.36010772;0.013469027;-12.391611;-4.36483;-0.013217486;3.5991433;0.78799623;4.3099117;-2.6104403;-0.023501769;-2.5564377;-1.8247341;-0.037569813;1.3936583;-12.148391;2.8102226;-2.2047515;-0.037284054;0.0050558983;-0.02157309;-1.4341589;-3.2653959;-0.016118292;-2.9330368;0.0021936593;2.4449198;-3.2753341;-0.0049705193;-0.1292017;-1.768195;1.7883809;-0.007418222;-0.8883708;1.3129829;-2.4889686;1.0956256;1.2811135;-2.058057;0.9987984;1.3385154;1.228266;1.0290412;0.786753;-1.9748424;0.014992676;-1.0447851;-1.1712164;0.9217187;0.42833248;-0.20720062;-1.5958403;0.01075485;0.13015467;-0.038218055;0.44662613;-1.4607496;-1.6292816;-2.0699084;-1.8005013;-3.4011667;-0.16299796;0.028317308;0.49495435;0.44817486;0.186646;0.7710957;-0.55677944;0.72567034;3.485639;-1.1302198;1.4874685;1.3739563;-2.1756647;-1.6572075;-0.63285613;0.017999675;3.2789066;0.90558016;-1.0411484;0.58225715;3.4284384;0.013836423;-0.39057857;-3.899273;-3.2062106;2.1288927;-0.00644372;-12.632434;-1.9111886;-0.026705395;-0.9618012;-0.35251853;-0.019157367;-1.0480478;-0.26214945;3.2509441;-2.7293186;0.008574112;1.5100858;-2.8327334;0.029868344;-0.045796387;-0.03741335;0.19074102;-6.7575517;1.1856031;-1.8983003;-0.79649717;1.007497;2.7927353;-3.0749714;-0.2090425;0.03970168;-0.031799216;-1.4423754;0.5531366;-0.045543216;0.04218611;0.008140675;-2.6043055;-1.2745409;-2.9867103;1.9758639;-1.2576886;0.022277627;0.8647534;-0.021912383;-0.43235737;1.1153873;-0.2603162;0.22975005;-1.1265604;1.8009384;-3.021533;0.9331204;-1.8168224;-0.0492514;-0.022384698;-0.13041385;0.25384718;-0.04222862;0.07648565;0.02058113;0.14190756;-0.2847374;0.006907259;0.2556931;1.937066;-1.4194922;-0.013150075;-1.13486;-0.030070968;-4.2067327;1.0568271;1.7065802;1.6465359;-2.2225919;-0.024601003;-5.2229567;1.6890793;-0.68796986;-0.010988685;0.051450588;-4.688033;-3.964667;0.027280685;1.1191374;-0.049728747;-0.08732843;-0.004074331;0.0036004302;-0.07901391;-4.7890086;-0.037005223;0.55326635;3.0015905;-1.4451299;-2.1640196;0.028628826;-0.5651429;-0.009412749;-2.047733;2.375479;-0.49341804;1.4439539;-10.015267;1.6627758;-0.016840843;-0.029899515;-0.5916325;1.4915775;0.23205024;0.018053183;-2.7036626;-0.5919134;-0.04058549;1.5069271;1.5498163;0.19413288;-0.018899074;-0.33539528;-2.9826343;-8.660598;-0.50357395;0.55158633;2.14275;2.1547685;1.0048151;0.002196772;0.00062581437;-0.017481275;-1.8612509;0.66680044;0.008048944;2.0124595;1.9849944;-0.53845364;-0.92920494;-0.87235045;-2.8476534;2.0035758;-3.8481467;0.037935097;2.1879866;1.9362494;1.4523443;4.7486634;-5.7756696;3.0361307;-0.025664978;-0.032984603;-2.6850255;-0.5732102;-1.9018675;0.0006264563;-0.1526581;0.0072071603;-0.04342345;1.2612576;-3.7118368;-0.42663264;-0.04103676;1.0143732;-0.012037998;1.5906346;-0.13711172;-1.9871396;-0.068225496;-2.3409123;1.5934926;1.8303622;-0.0041657886;0.63749695;0.90296817;-0.35702938;-4.351369;0.917173;1.9137961;-1.1586783;-3.1635525;-0.019760333;1.1562138;-0.075155646;-1.3857889;-2.6615183;-0.34389582;-2.52826;-0.04631508;-4.7051888;-1.9747523;4.015901;-3.1833558;0.5367994;-3.8413236;-0.03921482;-0.12177356;-3.2895133;0.0057191565;0.029525157;1.6304444;4.9644957;0.60851574;2.5465436;-0.022703845;-0.03581742;-1.2159705;-0.02257248;0.008582161;-2.4677563;-2.9952521;-0.007562361;3.9244967;-0.02941218;-0.019353531;0.17122665;-1.0394497;0.6055084;0.6341405;0.10603395;-0.0380545;0.67498666;-0.024892546;-0.020325515;-0.5380136;-0.0009833123;-0.016061625;-2.3789804;5.7535357;-1.9133885;-0.96502244;-0.029389257;2.1552362;-0.18397938;-2.3734713;-0.22195573;0.29541093;-0.01551768;-1.4288932;0.043111272;-0.0052296445;-0.10924853;-0.037610546;1.1432661;1.3838854;-1.6202244;-0.79488224;0.50433457;-1.3412187;3.5218902;-2.4860325;-0.0070305225;2.1708481;-0.041870482;0.003597323;1.815605;-0.93639725;-1.1286523;-2.0853477;0.027437119;-1.5579066;-4.6260395;-1.5665698;-0.067161225;2.9468737;0.022740757;-0.014771364;-7.7206593;-1.9356374;1.8423058;2.7935069;-0.03937539;0.0054235887;1.9147761;-0.08826652;-4.0691237;0.55966085;-2.959296;-0.061545063;2.8593779;0.025107728;-2.2387915;-0.11520525;-0.007386439;0.014693943;3.193715;-0.77477336;0.53857195;-0.006191916;-1.0648917;-2.8508625;2.5968359;1.5166134;-8.251667;0.024085553;-0.019894918;-1.7562535;2.512794;-5.081298;-4.7396336;-0.0398993;1.2900478;-0.69440395;2.5156033;-0.23587357;-1.3389064;1.6442527;0.0295407;0.20230211;0.023401948;1.4880003;-2.6118832;3.0738132;-0.031647384;-0.8651567;0.88327014;1.702899;-3.621878;3.2273083;0.85943;-2.2346015;0.47088724;0.023685152;2.6143546;0.2752599;0.70563984;-0.00026031458;0.03409389;-2.7967107;-2.2756526;0.77698094;1.8652511;-0.7039585;0.0384062;-2.7150624
-1.5641143;-0.6695957;-0.032745607;-1.4198467;0.015413806;1.9358596;1.8386142;-0.058965687;1.2750157;-0.032955416;-1.0230315;1.1504004;-0.037540447;-0.0054387064;2.4062846;-0.033136573;-0.056436624;-2.7680678;2.2059789;-2.9884079;1.3895892;4.6961856;-6.429256;-0.6786418;-0.04524078;-1.7264367;0.01625607;2.9138556;3.255797;5.9044867;-0.8596212;1.201768;-0.7210696;-0.055795092;-0.05992416;-0.046619687;-0.02467202;0.6082109;1.3150265;1.5820068;3.9173255;-11.646257;1.3451173;-0.6194199;3.262584;0.2769121;-0.08723812;-0.2724241;0.0059777065;-1.285777;2.1587945e-05;6.170031;1.6408108;-0.9587133;0.6711759;0.012586189;-0.45666382;-3.7669928;-0.24599922;-0.0009787469;0.00048050276;-2.2712383;-0.023440572;-0.03209354;2.091616;1.184529;-0.048976548;-0.14697446;-1.3601077;-11.934116;-4.010495;0.014562268;0.47286472;1.0213943;-5.903276;-0.009477425;2.176139;-2.87791;-0.02813814;2.1848156;-0.008966061;1.5111698;-0.03391846;4.197824;1.4542241;-0.6941631;-0.0042139366;-0.15709883;0.00030863858;-0.011110019;-1.6312883;0.010779282;1.2965021;0.814122;1.158152;0.59738326;-3.7175322;2.1848617;0.04533305;-2.50672;-0.23751926;1.1274115;1.6591733;-3.5657406;2.260156;-0.2738018;0.42117688;-1.7625855;2.4015574;0.44050595;-0.6680412;1.5730115;-0.01781442;2.7452533;-1.6968988;-0.06884286;0.03754185;-3.8719368;-0.5998252;1.4334688;-3.017664;-1.8596002;0.3638325;-1.3804879;-0.11743857;2.568803;1.2952799;-1.3971045;0.6744309;-5.963432;1.6211119;0.7194349;-1.0277852;0.025955368;1.0397762;-0.01131168;-1.3668513;0.30691174;0.6742792;-0.7077244;-0.010149788;-5.4678173;2.5818064;3.217426;-0.08742724;0.04015454;0.7650979;-0.024233297;0.88803583;1.1844672;-0.018925745;1.7075596;-3.9429836;-3.5278602;-2.2684162;-1.2420344;3.208117;1.2335548;0.03163502;0.5711532;-1.5840119;3.0865335;2.4878926;0.038800415;-12.564912;-2.6054976;-0.048103955;1.6454526;-2.1826582;1.1901455;-2.011931;-0.0013254522;-3.559492;-1.4782007;-2.5277731;1.1342392;-11.9335985;1.1552871;-0.07027843;0.015642455;0.017419748;-0.029421922;1.3010781;-4.207229;-0.01808161;-4.699838;-0.026158309;4.2732053;-1.0717901;-0.018777577;-1.4237865;-0.3276013;2.8430102;-0.026280463;0.047771815;0.3836778;-5.8499665;0.601811;-0.18480238;-0.32408512;1.0160016;1.0729862;3.4930704;0.51534605;1.8496236;-2.2316806;0.29128644;-0.20010957;-4.296;3.4400957;-1.455992;1.141598;-2.7140832;-0.045552112;0.030969411;0.011298691;-0.26662916;0.35761216;-2.936116;-5.963769;2.0999095;1.8824053;1.5331094;-0.046660505;1.8289719;1.6270558;-0.44433913;0.40389758;0.9215039;-0.14955018;-0.74651384;-1.3389236;-0.23683392;0.70314026;-3.4234667;0.55392903;-1.5765716;-0.0248292;2.577135;1.2698138;-1.4926648;0.35055515;2.8543527;-0.001632276;-0.24050726;-3.1685596;-2.954533;0.07837133;-0.0019751892;-12.434382;-0.032787472;-0.013041172;2.3502707;-0.98351204;-0.02420017;-1.8453923;1.6866037;3.3769815;0.7596739;-0.0140091395;2.9658308;-4.6155796;0.018064868;0.015576982;-0.022559935;-0.63658935;-4.9104548;0.22707255;2.2109869;-1.5060259;3.4358823;3.7495935;-1.439892;0.734639;-0.08146632;0.0006250969;-3.8757179;-0.10094677;-0.039034247;0.046719503;-0.05147848;0.9015323;-1.8891824;0.4853703;0.8176767;-0.65957177;-0.02727897;0.28390756;-0.022369485;0.49122638;1.6338928;-0.74901783;1.1951504;0.9928933;2.4783635;-1.6728646;0.072329834;-2.0362391;0.03577385;-0.043904297;-1.1788412;-1.5630198;-0.00294931;1.4478593;-1.563077;-5.489715;-0.80298024;-0.17460795;-0.2644233;-3.1041958;1.0669433;-0.025283147;-1.8932999;-0.101962306;-2.6409602;2.7881653;0.9841757;3.327921;-5.770724;0.015705138;0.029628286;0.39143604;-0.032018717;0.045702707;-0.045878395;-2.70049;-4.0673337;-0.009889604;2.1526248;-0.0507765;0.024498163;-0.024102831;0.0014468667;-0.0024943359;-2.387113;-0.023743283;-1.4238465;3.088245;-3.0027535;-0.040160395;-0.043353543;0.9499083;-0.0010809721;-0.86555165;2.972939;-2.1030977;2.944014;-11.226825;2.1194272;-0.009397759;-0.0059308005;0.77530503;0.8043516;1.8010204;0.0027939419;-1.8692045;-0.04455688;0.96784425;2.5163748;1.7865714;0.0935463;-0.01632766;1.3995141;-2.1165376;-8.2364025;-0.44995648;1.638588;0.41427964;2.5818481;-1.1511828;-0.04333887;-0.022699857;0.013536506;-1.461452;1.5469867;-0.007478786;1.4454653;-2.1421506;-1.6260655;0.86833364;-0.5315114;-2.5902534;-0.027225954;0.36670834;-1.3755038;0.3505746;1.7071582;1.8792092;1.5076101;-3.5062351;1.2982218;-0.021117251;-0.008448344;-0.45404893;0.29324457;0.125107;-0.02089684;-0.05405056;-0.020685012;-0.014532399;2.2403147;-1.3555003;-0.57747054;-0.03559007;-2.0256224;0.0038401363;-0.13221508;-0.028225029;-3.391277;0.003047291;-0.37584898;2.7621553;-0.44200927;-0.07132361;3.3922856;0.05405227;-0.9975428;-4.0465198;-0.23114839;1.376646;-1.1074498;-3.043679;-0.11801008;0.5889397;0.72952884;1.2117372;2.717608;-1.5698503;0.4786598;0.017210724;0.11151088;-1.2223679;2.7139654;1.3491968;1.2023908;-3.9508057;-0.046881355;0.11203514;-1.6739275;-0.0069876527;-0.02580185;1.8210573;3.7923126;-0.117762275;1.4318833;-0.042228818;0.04229077;-1.3741982;-0.009514641;-0.047709264;-5.745022;0.6276837;0.016105048;2.222731;-0.011559288;-0.05138896;-0.77020055;1.1768941;-4.453019;-2.512417;2.852133;0.023749439;-0.23233266;-0.0018388887;-0.036045525;-0.9259724;-1.0227541;-0.0057014036;-3.2856824;5.6478577;0.523398;-3.7167146;-0.055003315;1.8394965;-0.48773065;-1.5775495;-1.6559366;-3.2389224;-0.048270486;-3.6569097;-0.028510498;-0.13827525;0.14579509;-0.036845278;0.7499272;0.48922747;-2.293177;1.7838067;-0.99633616;-3.875591;4.270261;-0.53431934;-0.029268095;2.6300318;0.0011129213;-0.09288871;2.3213048;-0.3320341;-2.6777189;-2.7341251;-0.03286366;1.2241296;-3.305611;0.25375438;-0.023164315;1.5153565;-0.06358408;0.025366047;-7.434853;0.7024387;1.4956869;4.082759;0.020303534;-0.05988815;-0.0693542;0.27779657;1.5937375;1.2978921;-3.7336411;-0.04674563;0.797808;0.0020245272;-4.4748816;-0.7999199;0.0066773198;0.034623835;3.2719646;-1.7101389;1.121118;0.004766992;-1.8020693;-0.7016248;1.4713764;-1.2604592;-2.9620385;-0.0063185683;0.019151779;1.0827978;2.220522;-1.308727;-5.74465;-0.005740595;0.29716474;0.102582105;2.844284;1.8444875;-1.1909693;1.6546421;0.0026374036;-1.0510528;-0.027248481;-2.5696483;-2.7397058;2.1601167;-0.0062783314;-2.0088897;4.816778;1.9390513;-4.079477;2.319615;2.1828718;-1.2364134;-3.089485;-0.064709246;-1.73571;-0.36132696;-1.9623023;-0.019938055;-0.100106165;-3.5833673;-2.1668167;1.5505413;1.6730797;-0.28042558;-0.047678605;-2.5385346
-2.7979372;-4.0173974;0.033169217;0.034215897;0.02094217;2.38816;2.0918043;0.07624076;1.287946;0.07138299;-1.5712796;-0.85860986;-0.029773977;0.0061525926;2.9181447;0.02511822;0.05665522;-2.499826;0.9824958;-3.1377904;2.0044332;-3.350791;-6.429076;-1.3820474;0.020821074;-0.832609;0.025380047;1.7024381;2.9154654;2.7127163;-4.721174;1.2897097;-0.44542152;0.008914076;-0.011484517;-0.0034100497;0.024298875;0.26995686;2.5352979;1.0798115;2.3760257;-10.976109;1.0842596;-2.4259377;2.6118655;-1.6144717;0.0003213932;0.06814065;0.017310191;-0.043802593;-0.015735053;5.1942105;-2.7758927;-2.322328;-0.3275502;0.031535212;1.0375758;1.3640842;-0.19927223;0.02209069;0.012134662;0.010760799;0.03772704;-0.074289046;2.8247712;1.5865577;0.019891866;0.35925043;1.7945526;-10.805634;0.40730864;0.0076090465;0.4043718;-1.0618353;-5.78071;0.004395724;-1.1973369;-2.7205532;-0.008557061;1.6775122;0.0016132636;0.4285751;0.07003867;3.6232;-0.67250854;3.8335683;-0.045371164;0.25037768;0.005737033;0.002236812;-1.7133796;0.0061252075;0.45405495;0.9457656;0.74760866;2.645568;0.5361243;1.4356824;-0.60024565;0.3468145;-2.0444505;-0.6635425;0.8883969;-1.0278621;1.7037194;0.95051455;0.16748619;-1.7432296;1.2937499;-2.0129786;-2.1358335;1.3483151;0.01723266;3.573053;-0.70397484;0.0019053479;0.07070651;-0.8760859;-0.5983053;3.2878242;-1.8794254;-0.3789855;-0.15786913;-0.9775236;0.48287427;3.9465046;1.7415898;0.268605;2.5360143;-4.8150835;-0.69144094;0.8944493;-1.6807822;0.013216377;3.2105305;0.015233556;0.3007471;-0.07194869;1.9101837;-4.2420354;-0.012717011;-0.42507595;2.8515306;0.31895334;-1.1004379;0.033172492;1.188492;0.03362728;2.5548742;3.8280296;0.008979247;0.8333236;-2.7619762;-2.6433709;-2.365846;-0.6092628;0.22201566;0.43157396;-0.016493134;-2.4192712;-0.9145572;0.35055524;3.1445508;-0.053811274;-11.467043;-3.792885;0.01714529;0.7957105;-1.9721148;-0.936992;-2.0486643;0.026946586;-2.8132381;0.058459412;-1.3374174;0.32792485;-10.8014555;-1.3871472;0.59481406;-0.024675539;-0.041947503;0.05970001;0.912775;-0.34153807;0.015153018;-6.3332067;0.006856988;1.4854165;-5.2214894;0.03528862;1.6256099;-2.3357196;0.9380212;0.025933443;-1.8071429;-0.19863701;-2.522018;1.3351457;0.53146577;-2.684907;1.4727212;2.5174685;3.3214273;1.0903733;-0.7149022;-2.1141384;0.37562555;-3.9835367;-1.9379982;-2.2056096;1.2586981;0.81349003;0.48043925;-0.029833175;0.027273117;0.07167127;2.6752467;0.77896035;-1.0031968;-5.3591266;0.36194807;-0.059597574;0.9003372;0.0012579007;0.48565108;-2.5545528;-3.061369;-0.49635145;-1.2761977;-0.073255025;-0.8581441;-5.376461;-0.88498694;0.870567;-3.0954003;-2.508283;-1.2958472;0.0321507;2.3655038;3.3744001;-1.9649734;0.23451835;0.5905832;-0.003588411;-1.4417535;-1.5386395;-1.3923831;0.020677295;-0.0100729;-12.061747;-0.53515387;0.040616825;2.3272822;1.7433916;0.039146308;-1.1972178;2.3134847;3.56623;0.19408359;0.0101997815;3.0486338;-0.011631899;0.008885165;0.0042968867;0.026507227;0.15393037;-5.15743;0.059253946;0.33905625;-1.5444233;1.1903288;3.9785917;3.3337138;0.43403566;0.012488401;-0.033174004;-2.1830995;-0.1966089;0.024269614;0.030543912;-0.029176677;-0.05346101;-0.8304436;-0.8196514;0.15858397;-2.1299534;0.02916484;1.1568826;0.02511151;-0.57241535;2.1098258;-0.40463114;1.4853549;0.0459382;-0.23134542;-3.0621579;1.999258;-2.3356411;-0.026291132;0.010999468;-2.7135904;-9.070993;0.74848217;-1.1957346;-0.30094764;-6.5341144;-0.4204569;-0.04898875;2.1367216;-2.3348265;-0.35168582;0.035995547;-1.7532413;0.05732877;-1.9128256;2.0609343;0.8664212;3.4018834;-3.2708383;-0.022649681;-0.42687246;0.69550544;3.092583;0.009302309;0.006747894;-1.5688651;-2.967102;-0.04759753;2.8662596;0.026511205;0.026377713;-0.0029084506;-0.018322615;0.01996442;-2.3361456;-0.02780014;-0.45607728;0.60226864;0.47339025;-1.342286;-0.047640033;0.9711008;-0.025803754;1.8365123;3.0327804;0.09771061;-0.5633435;-10.3612795;2.5593164;0.013691288;-0.014253812;1.4089803;0.0544703;1.1787729;0.0066657322;2.583007;-1.5317746;1.838154;1.4504883;1.7199965;0.026601737;0.017425515;0.16244477;-4.0576854;-8.746651;2.647804;0.2576164;2.4658575;-0.4017685;0.9228853;-0.027463151;0.037633345;0.014311694;-3.600594;1.3882527;0.0025225598;-1.7187207;1.8179498;-2.704694;3.007118;-4.546667;0.2184095;1.2948346;0.18558614;-2.48553;-5.0994544;1.3534069;2.6580057;-1.3035964;-1.8474452;-1.7963002;0.06247463;0.041730642;0.062310636;-0.5861684;0.14045954;-0.02370163;0.7167667;-0.0076534334;0.0035655063;1.6788666;-0.8352821;-0.21650891;0.0045107915;1.3878363;0.013063446;0.8732286;-0.7624277;-4.1967387;-0.014964228;-1.3723637;4.5997124;-2.2922852;0.028186595;0.09922055;0.7252621;-1.0284404;-2.2018158;-0.6601012;3.27086;-1.250298;-1.6619626;-0.095706984;0.034385584;-1.850478;2.6731613;-0.91967833;0.66315466;0.8120422;0.19844958;-0.13987511;-2.5347688;1.1779014;0.45050704;0.27537188;-2.760692;-0.0030471715;-0.11482204;1.1366767;0.010217104;-0.09713317;-0.5541058;1.3055853;2.8095925;2.4362247;-0.011670671;0.04695057;-2.300693;0.02060557;0.0120278;-9.463146;-0.9861329;0.037182607;3.1616945;-0.014263273;-0.0059262766;-1.8105187;0.7593323;-5.043136;-4.4758897;2.012606;0.038697414;3.9715524;0.05789903;0.0019597884;-0.7719529;-2.311485;-0.0033296407;-2.1802974;5.9950085;-2.169485;-1.4814438;0.039604492;2.3112416;-1.2011149;-0.08441092;-0.4018246;-3.3056583;0.8447067;-2.8067112;0.002939916;0.08330736;-0.31683946;-0.012441748;1.9259133;-0.89560026;1.5564789;2.746022;-2.455861;-3.0309792;0.19351895;1.468079;-0.0050480887;-0.12126432;-0.013852624;0.5551066;-1.2728745;-6.5162983;-0.60744905;-0.51911193;0.012477802;0.8506166;-2.2904189;0.33126947;0.013214986;0.22886884;0.020719977;-0.022293938;-6.2975345;1.4761395;0.4254359;0.2187405;0.016674746;-0.037652336;0.76838315;-0.082652934;2.9889367;-1.5426482;-3.2203033;0.07390904;-0.1650245;-0.0049253264;-2.4805858;-2.3973804;-0.02217578;0.029215252;0.11766435;-2.5080519;1.6076005;-0.033220835;-1.3924546;-0.2053736;1.898467;1.7574806;0.3149966;-0.038070284;0.023249278;1.3149582;0.5590862;-3.5531254;-7.4809012;0.043326948;1.8835076;-1.3098334;3.1281886;-2.689823;0.034572262;1.8247784;0.0029810488;-0.16499001;0.016065901;-3.3008847;-2.8458195;2.4934976;0.0020747827;-0.38535458;0.50751066;4.238476;-4.3689494;1.8775768;2.3166661;-5.8838058;-5.4624014;0.03886876;-0.28031445;0.47688618;-3.210605;-0.0005375772;-0.0049923016;-2.4951713;-2.436829;-1.6133314;-0.6437145;1.0448906;0.022581639;2.3797448
-2.1973963;-0.07108603;-0.024812408;-0.5037308;-0.043798946;3.7436862;3.3886218;-0.024558298;0.25799647;0.059975628;0.5968364;-0.12621263;-0.0020941533;0.003116259;2.654577;0.020803511;-0.030403333;1.362278;-2.9923437;-3.417756;1.4711759;-2.7730362;-6.687736;-1.5188521;-0.048439573;0.7632263;-0.047250938;1.3425096;-1.3603;-0.8025194;-3.5429368;2.0448678;0.45710528;-0.04483608;0.022033857;-0.01631475;-0.0010518034;0.858476;1.8913443;2.0881827;-0.12684818;-10.2293415;-2.4002964;-2.4253886;2.4185166;-2.0534554;0.031398248;-0.16551922;-0.0064528906;0.22981448;-0.062010203;3.6450634;-2.3117645;-2.1841471;-1.3054687;-0.02376081;0.8388679;-2.8718765;-0.1462603;0.025512595;0.010917775;-1.5474522;0.024397386;-0.030163642;3.463637;-1.7307211;0.018401202;0.14464854;0.48993364;-10.483529;-1.9139011;0.033198714;1.7049044;-1.5492071;-3.50363;-0.04178654;0.8742483;-3.5983276;0.046776284;1.2315804;-0.0042103175;0.81971395;-0.0058076745;4.2802243;-3.444855;-1.8483068;-0.006150927;-1.9362948;0.02697465;0.019022426;-4.0158772;0.03007126;-0.29744315;0.3778729;-2.0741377;5.011092;1.2498971;-0.99796134;1.9673532;-0.8491324;-0.5215942;-1.173669;-0.31552172;-0.0056996215;0.2796086;-0.3033701;1.0219444;-3.3746908;4.541597;1.5099587;-3.2288303;-6.290116;0.017629102;3.0900736;-2.340226;-0.048639122;-0.033009786;-0.30877584;1.8331813;1.8274173;-5.609548;-2.9720368;-3.2855172;0.07321184;1.1127161;2.4145448;-0.062953316;-0.9733604;3.2599084;0.06182252;-2.4990344;1.1080115;0.09609755;0.002753967;3.7169952;-0.034445196;-1.4256747;-0.057128374;-0.0634496;-1.3841217;-0.004982482;0.0009319562;1.0228745;-0.6552132;1.7386614;-0.03309621;-1.7298225;-0.004286561;1.1676006;4.408238;-0.009977716;0.18456833;-1.2370411;-0.17995957;-3.5104635;-2.038027;1.25662;-3.9812095;-0.0094028255;-1.7727938;-1.0454321;2.3557215;1.0601003;-0.023029739;-11.723759;-4.560288;0.034713697;1.5179412;-0.35466364;0.35449356;-3.7257156;0.032381136;-6.2535734;-0.08107674;-0.38222757;0.4439053;-6.8580275;3.5541005;1.046042;-0.015034417;0.06374708;0.03781969;-0.94856507;1.6259842;-0.016081382;-5.019342;0.041399326;1.0935775;-3.0384116;-0.007887504;-1.2411792;0.2359362;3.3628032;0.005586198;-1.707032;-0.6617537;0.95604306;0.00274261;2.6155825;-1.8449483;-0.80462706;-5.9286265;-0.4757744;3.2459831;-3.6884718;-3.0861442;-1.190722;-1.4109709;-0.6081711;1.4790499;2.003783;0.3748812;-1.3620337;0.008434264;-0.041986886;-0.04282804;0.4197781;-3.0902236;-3.168008;-8.123735;1.6718819;1.8425896;-2.0643668;-0.012197986;-0.007924058;1.238116;-1.2612759;1.4761708;1.0166166;-0.019883772;0.34924018;-0.2950542;0.98566645;-1.7048001;-1.9755192;-0.58989936;-1.2745041;0.03219129;2.243797;1.6068597;1.4502964;0.012142476;1.2196012;0.013001755;0.05533728;-0.3708593;-1.095025;-4.8670025;-0.013008252;-12.359695;-0.49714103;-0.03059462;2.6465843;0.53355557;0.0031685114;-1.4028709;2.3150902;3.0405207;-0.2632482;-0.097559154;2.3490353;0.2326559;-0.045560118;0.0072457287;-0.011026548;0.021762535;-3.8233342;2.222758;1.3513879;-1.7095852;2.996193;-1.0019708;1.1254776;-0.024301259;-0.060286358;0.04594051;-1.3256344;1.8212302;-0.007669324;0.01602153;-0.22687037;0.7287445;-0.26645422;-1.4912937;1.253317;0.47355813;-0.026238032;-2.1853983;-0.03211244;-7.90521;4.010261;-1.0292947;0.697188;-0.18889397;-0.8866665;-0.16444966;1.8602062;-0.835263;-0.0072408267;-0.03207423;1.1863496;-12.395507;-0.14980942;0.9341997;-1.5033063;-0.8042279;-0.8576639;0.07781356;0.2491718;-2.5337093;2.2551029;-0.030034523;-0.7381866;0.0077610337;-0.6772141;1.754235;4.145763;2.7571964;-0.58994323;-0.01776621;1.5406209;0.45962906;-2.3164494;0.021958435;-0.017045667;0.995137;-5.275079;-0.05296896;0.20657535;-0.0042556277;-0.014036845;0.036283087;-0.07073496;-0.023312831;-4.6508665;-0.050258048;0.009933623;3.2590768;-1.0045595;-1.9882097;0.032880943;-0.93247026;0.03342942;-1.0493817;2.530861;-1.2972896;-0.91333807;-10.809495;1.4387879;0.017919468;-0.009681459;0.5634755;-2.139564;2.777242;0.024027904;0.08810359;-1.8412199;1.8596408;2.88023;2.2458282;-0.023994768;-0.011725395;0.55715096;-3.2964833;-8.405011;-0.5153745;3.0374653;0.38783774;-1.8455795;2.8333857;-0.016494172;0.03953081;-0.05835666;-2.133048;-2.1695592;3.0179292e-06;1.246411;-0.62897825;-1.4875844;1.0563443;0.084864825;1.7779654;-0.3318341;-0.089593984;1.3846388;-2.840037;0.6593845;2.863;-0.2100937;-0.8650124;-4.035325;-0.0010536443;-0.019241111;-1.466988;2.1617525;0.06521178;-0.015725387;-0.16103347;-0.0018840296;0.033078052;2.6831737;0.592258;-0.36713976;0.0071043316;1.859049;-0.033215057;0.21726792;-2.505614;-6.87466;0.0022273192;0.37568724;3.0525916;0.15719873;-0.09456436;-1.110682;1.4469575;1.1520017;-1.6399814;-0.84368634;2.075788;3.3462832;-1.4280303;-0.07479806;-2.4163256;-2.206947;4.458837;2.626003;0.37006545;1.5544664;-0.00038260626;-1.6231189;-6.2653155;1.3378135;1.7925109;1.3535144;-1.5134077;0.082994044;-0.019684294;-0.9598162;-0.0019241208;-0.12912478;2.6325028;-0.37787563;-1.2585787;5.5360966;-0.0120476065;0.016209736;-0.57365704;0.05183264;0.02720929;-12.517031;-0.8887034;-0.0063143885;0.9583093;0.0007994458;-0.026992427;-2.2598705;1.6011118;-2.4692278;-5.457278;1.8342141;-0.054489363;-2.2508616;-0.0208325;0.020921053;-1.3488438;-0.79300255;0.039743114;-2.6255503;6.091359;-4.0272446;1.3055376;0.02389388;2.1680138;-1.7095083;2.630776;-1.7752098;-2.0719757;-0.14584042;0.5634803;0.045172904;-0.08501756;0.003975363;-0.05604962;1.7756611;0.38264263;0.9492974;-1.9650352;3.4283588;-2.4234066;2.3402715;1.2182461;-0.047200505;0.4785188;-0.0308959;-0.07365342;-3.0376358;-4.9316597;-0.12325695;3.17721;0.01904732;1.1270771;-2.6574283;0.6247657;-0.051566005;-3.1393988;0.026090711;-0.012555565;-8.756065;1.5321344;2.4838936;-1.2994739;0.013725916;-0.08016532;1.9226488;-0.010343706;-0.7504263;-0.43315396;-4.70055;0.042316526;-0.6584712;-0.059182566;-2.0909007;-0.73129;-0.03855443;-0.032078918;2.3408222;-2.0154634;-0.46172965;-0.06690311;-4.6521297;-1.4024159;1.2449341;0.6534155;-0.72057545;0.024591358;-0.0027902233;-1.3555415;1.0318913;0.21311617;-1.7381831;-0.059970174;-2.6923819;-2.031924;2.5841982;-2.076486;-0.99296296;0.9251268;0.05610445;-1.7315713;0.0193469;-1.0089434;-2.7604966;4.003937;-0.029197734;-0.35996628;0.8987381;0.3237202;-3.542561;4.3602343;1.09449;-0.112763174;-6.5719953;-0.0050123013;2.955931;1.3281457;-4.4590774;0.000949598;0.019181836;-0.95116675;-0.0266136;1.9231346;-0.24806911;-1.0671324;-0.00052266626;2.0190125
0.5877836;-0.5443536;-0.027658947;-0.03397171;-0.018353472;1.6749808;1.4690368;0.0102399215;-2.4068685;-0.03332031;-1.3397628;-0.44072375;0.017798029;0.0062226537;0.8226323;0.015219626;0.02904707;0.85936624;-1.8419659;-1.8269987;3.5864108;-0.49157965;-6.1130652;-0.6035059;0.049712636;0.55541164;0.053083412;2.2981029;2.5619695;4.1043215;-2.3513696;-1.7482085;2.1602623;0.0460228;0.0057255016;0.013782534;-0.009135185;2.7464063;-0.8206566;2.8945348;2.9056187;-5.4288263;-3.3581548;0.0595482;5.5385485;-2.0003135;0.0073231724;-0.32573408;0.05235652;-0.1185289;0.0009849335;2.8726914;0.17637207;-1.7753279;-0.94905907;0.042559907;-0.6656279;0.1024107;-0.00025012685;0.04969992;0.03127289;-3.8135283;-0.01842169;-0.020093078;1.5065274;-2.886508;0.01915832;-0.21351004;-3.0415108;-9.255924;2.146118;-0.042424932;2.4911935;0.037923697;-2.5419555;-0.014254476;2.9710636;0.55572027;-0.013547784;0.28102535;0.012803242;4.7321515;0.014193985;4.536001;-2.1585422;1.3232045;0.03151747;1.417777;0.0122196935;0.035017423;-1.3752573;0.022605484;1.7790017;2.2328627;-0.3484323;4.3055797;2.068002;0.1356728;2.4173315;0.45375353;2.6164267;-0.57740617;1.7878042;0.2436595;2.3243437;1.2462912;-0.99053925;-1.813958;3.9831831;-2.8320644;-1.372668;-3.0077915;0.03546675;-1.7212832;-1.5313787;-0.034981586;-0.02401633;1.1230294;1.5209628;1.1044098;-3.3267477;-1.2644247;0.110063516;1.2735655;0.29203892;2.361393;-2.7089672;-0.7334675;1.4462236;-2.2584767;-2.7988102;-1.496468;-2.1398923;0.0063740457;3.1378798;0.041821003;0.5134175;0.059965324;1.3783308;0.6823766;0.018729586;2.4084616;-0.70075893;0.7298537;0.23576736;0.012452575;-2.426823;0.01649974;1.2875357;3.4169421;0.03295411;0.4660294;0.48711807;0.40945086;-2.59877;-5.312671;1.615363;2.0631561;0.03195344;-4.2104387;-1.3542538;2.8291028;-0.52543384;0.042178307;-10.742689;-2.2731671;-0.0005819479;1.0002156;-0.26379263;1.5477196;-0.657102;-0.008207977;-5.9073215;-1.0570972;2.783856;2.603946;0.33042493;1.4421873;1.7816144;-0.034982774;-0.036578618;-0.02814977;1.299641;1.3495609;0.016365442;-2.3851347;0.0054600304;1.6723002;0.42122245;-0.04194818;2.6650758;0.36194274;0.9005783;0.003819439;2.441362;-1.0163006;0.48322773;0.39077443;2.3378851;0.7483986;0.9164036;1.5114713;-9.704863;1.2882714;0.260766;0.03423871;-0.1109993;0.56547946;-2.3619616;0.40771106;-0.49614254;0.36867946;-3.2011063;-0.048943378;0.06594002;-0.027713934;1.4088424;-0.77179885;-3.1272047;-3.0409918;2.9535747;1.2813485;0.16568337;-0.020969173;1.4520692;3.1905024;-1.0597029;1.7491009;-1.8953847;0.0652856;0.6846544;-0.9701272;-0.38611686;-2.9886284;-4.9021897;-0.73466;-0.88770485;-0.06420511;0.9005146;-1.6186098;-0.13860081;3.8141131;2.2159996;-0.012355457;3.2866256;-1.4807416;-0.3340337;-5.6673465;0.028417382;-11.458837;1.4876422;0.0022961635;-0.50994134;1.7848332;0.01638783;-1.421443;-1.2731287;2.1210096;-0.066639565;0.031262938;1.1446326;-2.5393023;0.040650763;-0.003634367;0.0154513065;-0.2364682;-5.3810115;0.9560398;1.9120796;-1.1211884;2.4619377;-3.933532;1.588361;2.658934;0.06177954;-0.017864298;0.9416121;0.9616059;0.008326327;0.0243154;0.8389819;-0.038190126;1.2560986;2.806879;2.9018242;3.7044508;0.10716758;0.113103986;0.08535006;-8.198844;0.89886475;-0.57711434;0.7889367;-1.7605624;-2.6312153;-1.8277018;-1.228866;1.2226267;0.040031664;-0.006592514;2.8028393;-11.084291;-0.0011869959;0.05470965;-0.480322;0.78742856;-0.7192277;-0.098606534;0.8942358;-2.370407;-3.1374702;-0.0020205276;0.17772883;0.039825287;-0.7094441;2.0810013;5.4786243;-0.72734857;2.0620651;0.054901704;0.96586794;1.7661195;1.9744594;0.039430574;0.0045747636;0.7045878;-7.8971167;-0.013010307;0.30159822;0.010179352;-0.0012199444;0.05327436;-0.031806767;-0.0068211746;-1.3956718;0.065856814;-0.72028714;2.3941247;0.3931394;-1.4513437;0.0018582528;-4.668703;0.00991036;-0.97227275;0.6595139;0.18024871;-0.62218064;-9.104322;3.2698123;-0.0058782706;0.035568908;1.7483078;-3.490816;3.2511213;-0.0030481394;-0.6946362;-1.2114671;-0.5581996;-3.8824413;2.0596335;0.121348135;0.012053781;0.09693829;-1.2767882;-6.9472656;-1.8128725;3.7401168;1.4200867;-2.1823695;2.243986;0.036726493;0.032509804;0.03038006;-0.033025194;0.31734553;0.027964264;-0.71657586;1.704322;-1.9092089;0.9940996;-0.08154823;1.0189193;-3.6413722;-0.23370074;1.6074417;1.5684603;0.6756173;2.9710612;-4.100644;1.0438629;-5.11308;0.024966773;0.005168353;0.17215858;1.2655393;-1.1530291;-0.0059146443;-0.060157;-0.018249847;-0.006138902;1.0374345;0.44192767;-0.59728694;0.033019975;-0.45716888;0.02709963;-0.61898565;-0.926537;-1.2840818;0.015340162;-1.1616045;1.8843412;2.169949;0.07211058;0.4110292;1.4394397;0.6185994;-1.0704622;2.395426;3.3654485;0.41915265;-0.31131512;0.051299;-4.84583;-0.71531147;2.2142556;0.08693703;0.2526687;1.4254758;0.49211666;-4.9336014;-7.2299957;0.86449105;-1.0665653;0.7924823;0.9173517;-0.041659445;0.1821542;-2.5504882;0.0032734904;0.8741287;1.8516715;1.7870679;-3.14456;0.25622657;0.019511402;0.0255422;3.2911143;-0.0016089735;0.052545078;-8.586612;-1.9194487;0.0055264253;-0.9476633;-0.0079320315;0.007924242;2.095082;-3.591144;1.1967511;-3.4010088;1.1116273;0.028325638;-4.470248;0.0037546612;0.051651776;-0.88642275;0.57845575;0.0140324095;-1.1912377;3.400111;-8.640567;0.73806983;0.009755005;2.46395;0.817632;3.2778542;-1.7900017;-1.7647365;-0.028433837;-1.3267043;-0.009385575;0.1272842;-0.041807048;0.021426437;2.5100732;1.9616587;-1.5691955;-1.7901856;1.6768544;-1.5328213;2.103146;-0.56125283;0.0019149093;-1.0427763;0.082327604;-0.0155419335;-1.6000911;-4.6199956;-1.5585274;2.8346708;-0.018679535;0.67074966;-3.5038645;2.1033196;-0.005703968;-1.0016026;0.01610239;0.14327681;-8.146736;1.2853166;1.6786648;-0.4690568;0.026102714;0.4417093;-0.580507;-0.03310138;2.1590428;0.96687853;-0.87224317;-0.014313069;0.34935573;0.06256991;-0.53784215;-0.094111964;-0.036225144;-0.023668602;1.5204414;-3.389115;-1.0394888;0.14478774;4.5905995;-0.5821921;4.2080626;2.6272283;0.114055395;0.013495182;-0.020490425;-0.5226681;-0.51527715;0.835336;-1.6930752;0.02898982;-0.23895589;0.25262076;1.0456363;-1.5965407;0.631236;2.4794044;-0.018836731;-2.2533362;-0.02862354;1.5532591;-0.87658376;3.8455915;-0.009887101;3.1308737;1.3508251;1.1606535;-1.4620663;3.3017285;-3.157634;-0.3822286;-2.7379978;0.02272244;2.1691668;-0.38328153;-3.6457515;-0.015903605;0.00032574136;0.12536162;1.8743155;2.1012244;-1.3510901;-0.15212713;0.039178945;-0.36303586
-3.3587594;-1.6798782;0.26328918;-0.7898108;-0.015881995;-0.034231864;-1.3682917;0.038009834;-2.4867468;-0.04846277;-0.36122665;0.6260512;0.014787911;-0.020396117;2.2810953;-0.017980224;0.0048129843;-0.77049243;-0.0790067;0.27160564;2.5006642;0.53288555;-6.2299247;-1.9886432;-1.06386215e-05;0.30537748;0.013748869;1.5727247;-0.09281259;0.38015836;0.9780806;0.29903173;-1.9332856;-0.031130968;-0.02864829;-0.04027537;0.034840185;1.6543607;-0.40182155;3.7787519;4.2382607;-0.13058697;2.2866082;-0.6774023;4.205971;1.4325186;-0.012340511;0.58401823;-0.02996773;3.3233662;-0.09175223;0.6789092;-1.5473435;-1.8345187;-0.9622201;0.008716572;0.71779823;0.7100344;-0.08534419;-0.034137886;-0.0065894676;-1.5592552;0.017720187;-0.016906923;1.2191488;0.6017016;0.004350159;-0.16727702;-0.7684078;-8.904504;-0.079999305;0.034161273;0.7639527;0.8650328;-4.9502482;-0.0010517796;1.6157234;0.13838606;-0.05202139;3.131334;0.011025939;3.853569;0.0024783467;3.660377;-2.504104;1.0434662;0.014313578;-0.3602526;-0.09203253;-0.014838613;-1.663641;-0.051944822;-0.25148878;0.19680588;2.0010328;0.7244776;-0.1853546;-2.0773976;-0.043989226;0.012124881;-1.0494282;-3.2942197;1.184425;-2.9077926;-1.145306;-1.3072875;2.7651463;-1.5511781;2.7347457;-1.3672727;3.0996642;-3.0321825;-0.025056161;2.3354516;1.0401477;-0.03128557;0.019208547;0.99153876;0.6991358;-1.6100596;0.4479988;-2.0079598;-0.50205237;1.5852381;-0.08781375;2.995193;1.6406766;0.7022807;2.1661072;-2.8024597;-1.1801045;2.049434;0.6716841;-0.023516381;-0.30148482;-0.008884493;2.12304;-0.00088882906;5.0635414;1.3365861;-0.003031719;2.4734898;0.6964981;1.5210354;-0.847386;0.009966421;1.2173898;0.013652133;-1.2372599;3.2689323;-0.03684564;2.5497344;0.052162144;0.72337073;-0.6410882;-2.4724977;2.1180253;1.8275825;0.006383531;0.8379706;0.44300774;0.44842523;-1.9582846;-0.03391637;-11.076863;-1.7909235;-0.025672983;2.3446438;1.4865986;-1.976873;3.619789;0.016830215;-2.7342193;-0.9214933;1.1200835;1.2651752;0.27626368;1.0456284;-0.86989486;-0.037023723;-0.0010200859;0.065944426;2.1978424;0.81088537;-0.039663456;-2.9722168;-0.012230174;1.5860196;0.5223849;0.029978357;2.1269958;-2.390146;-2.3799584;-0.0029349888;3.0212643;-0.0736112;-1.6783966;0.88673466;1.318176;-0.5282236;1.2088491;-0.30598506;-8.885281;-1.7286214;1.7469176;-2.4828272;0.3387211;-1.531195;-5.49955;1.5737498;-1.4765537;0.85339004;-0.8445399;0.040544692;-0.041060597;-0.01680944;2.4501088;0.05856694;-3.3384395;0.82163674;-0.99510026;1.8970919;-3.445946;0.0040095304;-0.28225815;1.3445245;-1.794567;1.9737701;-2.228792;-0.016126316;0.43008026;2.323766;3.6651728;-1.0404581;-2.9157283;1.00663;-1.5976548;0.050870392;2.6983776;1.6762972;-2.0116608;-3.3196926;2.3292656;-0.01376742;1.2993205;-1.9856591;-0.87177277;-5.7620153;0.00977928;-11.214233;1.8314735;0.03413418;0.23320077;2.213923;0.045854747;-1.179517;3.2140212;1.4945325;0.48763874;0.03130128;1.4397091;1.9910402;-0.060839962;0.026959118;-0.071037896;-0.59314305;-4.223912;-0.8804207;-3.3692079;-1.8519964;-0.038202226;-2.5698977;0.9206426;-0.93853265;-0.002926939;0.021969622;-0.708907;0.5440417;0.015629014;-0.008484733;-0.1869833;1.3562285;2.0046997;0.89814585;3.000937;-2.9085667;0.008012481;-1.0162753;-0.0332174;-10.136454;2.8159308;-0.6106209;0.6653873;3.5560343;-0.66405725;-2.6696014;1.1845788;-1.2216911;-0.020653583;-0.020923404;1.7185999;-12.044462;-0.017747184;0.19163463;-3.8228204;-0.05198146;-0.652401;-0.031323444;-1.2139574;-0.9533565;3.6623495;-0.0018803197;2.0525749;0.013367244;1.032174;2.250649;2.4708438;0.5959189;-0.64119613;-0.028728332;1.5435803;1.9511024;2.547434;0.016982406;-0.022776155;1.3658608;-2.2254179;-0.029139392;-2.9696782;-0.0040896893;0.029701555;-0.06528696;-0.020450654;-0.007999818;-4.799279;-0.030779343;-0.054173075;0.15366198;0.9035134;-0.5115999;0.010474488;-1.8326622;0.0042270226;0.489215;1.262692;0.23851475;-0.28691983;-9.282579;1.1909419;0.007645572;-0.004277101;2.1257412;-2.351113;0.35281426;-0.03387885;1.8465645;0.42387137;-0.041032318;-0.9731521;2.077223;-0.017497385;-0.0026926259;-0.57548314;-1.4541383;-7.7632256;-1.3954822;1.8254563;4.608152;-3.269065;1.8201483;-0.0030998995;0.007923861;-0.004446766;-2.7858002;0.95534855;0.028568814;-4.074226;-2.377986;0.40067273;0.31043866;-0.009607664;0.8604974;-3.8069792;0.32889655;1.2046504;4.477163;-0.38986212;3.1465483;-1.2369735;5.616257;0.3055273;0.010358935;-0.031729568;-0.9235683;1.2570364;-1.0310776;-0.01055226;-0.057743456;-0.034689534;-0.007979179;0.048881162;0.18120465;0.51958424;-0.02280268;1.90671;-0.0016497079;-2.0354493;0.03135216;0.9925088;-0.01222893;2.825533;1.2630811;-0.0039334907;-0.08247638;-1.434024;0.7769553;-0.41238934;-0.898909;2.90275;3.7988486;-2.323711;-3.9517977;-0.043252114;0.05145131;1.7740272;2.8026276;1.8705789;-1.0017153;0.38715836;-0.038981605;-6.1767316;-8.534656;0.43769875;2.498155;0.51762974;-0.18170853;0.004813636;0.1199899;-0.82039523;0.03442527;-0.20981385;2.420087;1.1711227;-4.660043;3.4933143;-0.008228787;-0.022306226;1.7630603;0.0031256748;-0.017169788;-8.602371;-0.18034197;-0.01982056;-0.8438398;-0.009880893;0.0799827;1.621249;-1.7577456;2.2384746;-1.6080872;-1.0156422;0.044791114;-1.4075702;0.0013030092;0.019593108;-0.68606067;2.0058932;0.041145362;-0.9388378;3.410454;-7.1600623;-0.65644884;-0.014406425;1.8568287;-0.84385794;1.4059392;0.79536;-1.2311763;-0.01595654;-1.5801163;0.01883752;-0.10841526;-0.1326069;-0.04501094;3.872861;-0.72534883;-0.07591043;-1.1023785;1.8503078;1.4346942;-2.193224;1.8548945;-0.0121447025;2.4881692;-0.024238337;-0.084438734;0.0038149473;-6.2528367;1.6402797;-1.4987302;-0.032841746;3.6781425;-3.4355378;-0.7229903;-0.00021398661;0.66496867;-0.039407305;-0.06161414;-7.462397;-2.4804578;0.26189086;1.4835488;-0.028806835;-0.103352584;-1.3738717;0.0018281627;1.7865276;-0.12079427;-2.6231885;-0.032547645;-0.3526824;-0.015149585;0.4152482;2.4641087;-0.08369713;0.028670188;0.3893171;0.6430886;-0.55000836;-0.059371002;3.4740775;-3.2894497;2.446765;0.8359476;0.2697193;-0.009263801;-0.033439476;-2.7439368;5.273829;-3.3510497;-2.038757;0.022356434;-3.428668;0.81511086;1.2494584;0.06917886;-0.93188053;1.1006761;0.057168607;0.06449284;-0.0023882417;-1.5545585;-2.7630677;-0.9186517;-0.029639615;0.61113924;-1.7671093;-0.40304872;0.52665305;1.4254637;1.8893607;1.2253968;-4.724944;-0.034875583;2.40593;-2.4071112;2.1162126;-0.003450468;-0.006353583;2.61193;-0.16378586;1.4637313;0.46203238;-0.6857224;-0.012827459;-2.0272646
-2.9874334;0.97047174;-0.12796418;-0.5405322;0.03898861;-0.6192031;-1.7511408;0.053143993;-4.0865107;0.02936359;-0.64861625;2.4630682;-0.0017458322;-0.014386622;2.3737292;0.00085098005;-0.023219025;0.008851334;-0.80027044;-1.2629508;1.2240981;-0.7793402;-5.7081065;-4.499071;0.018530311;-0.35729042;0.0029347902;0.579031;3.426044;-0.29162467;-0.5832288;0.6944957;1.2452521;0.006885165;0.036254805;0.074946605;-0.020692237;1.40275;0.21281669;3.63538;2.853465;-0.24351092;-1.7425983;-2.4707327;3.7006075;-0.4833216;0.025274929;-0.4193222;0.029658796;2.6113384;0.9352591;-0.5652449;-5.351178;-2.3722153;-1.4413738;0.0015108048;-3.2985997;0.08548155;0.4045301;-0.03460431;0.017207468;-1.7297032;-0.014027298;-0.07201035;3.2168558;-1.1696668;-0.027285948;0.34850922;2.8137264;-6.6776032;-0.17426199;0.033536453;0.6930854;-1.4794239;-1.1590568;-0.0014454137;-2.2285085;0.46133947;-0.024169706;-0.61991423;-0.019566009;-0.51590216;0.011014852;2.7290819;-2.7847872;0.60917354;-0.023438336;-1.7331098;0.0094598085;-0.040531855;-3.0722098;0.016460404;-2.1426156;0.23530614;0.7032209;1.1649008;2.177421;0.1654364;2.6727693;-0.39900097;1.0371978;-5.2606897;-0.5934567;-0.89603597;-1.4197922;-0.044920012;2.0336828;1.3383298;1.5700195;-1.1557978;-4.511302;-3.6223314;-0.09875025;3.267441;-1.2679147;-0.09491531;0.011550031;0.21781816;-0.29888263;-1.1032921;-1.4781234;-0.10242358;0.3910375;1.4608716;-1.4003373;4.2031393;1.195367;-1.6118878;3.25396;-1.7128774;-2.011277;1.5124878;1.22359;-0.010654221;-0.24794327;-0.06548759;1.024488;0.04467253;5.3667583;1.1634319;-0.0011647335;1.7146237;0.0629298;-0.5888634;0.26555708;0.072216086;-1.5497367;0.019495424;-0.93418705;1.8130019;0.0021510588;2.2883146;1.5471407;-1.4860951;-0.87880546;-0.1653568;1.4469774;1.5519199;0.055764012;0.6264514;1.3423953;1.0604411;2.4618402;-0.00026551558;-9.629023;-0.66727203;-0.01460893;2.03207;0.6158447;1.4365846;4.840312;-0.018698301;-2.9498534;0.61186415;2.315874;0.72558475;-0.096357025;1.8053493;-0.17636931;-0.04294389;0.043757554;-0.13398275;2.4997442;1.548836;-0.027407771;-2.5085878;0.023269419;0.82738096;2.669821;-0.07803839;1.8628119;-3.4242127;2.1033735;-0.025305608;3.3840418;0.1326307;-1.6699191;2.5984583;1.478145;0.756058;0.63449866;-0.29580253;-10.757513;-0.48928618;2.8950953;0.04414378;0.21830904;-3.5666566;-3.8796842;1.8114836;-0.115569375;-0.014489311;-0.38628134;-0.066424035;0.060972244;-0.07544179;2.4875586;-1.0445038;-0.49354836;2.074241;0.3267595;-2.295429;0.007371939;-0.050103385;1.3398668;0.08211937;-1.0665777;2.061995;-1.3595288;-0.039595354;0.9691671;-1.5888941;1.3119881;-1.0968848;-3.0296392;1.7171443;-0.10964629;-0.046687987;2.6038945;1.2536513;-3.877237;-2.4490242;0.69334215;0.045337874;1.178006;-0.19186287;-0.2631532;2.0471072;-0.023950705;-11.486443;-0.25138;-0.08818455;2.4126406;3.7624598;-0.016122803;-1.0678966;2.3890972;1.7639021;1.5280993;-0.03798377;2.3350012;0.6470445;-0.048543625;-0.018545583;0.088501036;0.928793;-2.6321235;-0.67147434;-1.9976628;-0.14915901;1.1665188;-0.33737016;1.1245673;-0.4836635;-0.0046298383;-0.009139268;0.66095203;0.90921897;-0.04474086;0.006416936;-0.04770295;-0.4876099;2.7005138;-3.3098917;1.2595581;0.08795041;0.03901882;0.27123022;-0.026023803;-11.781887;1.6272992;-0.889042;0.29635835;5.346615;0.105959326;-0.64473486;-0.7957983;-1.0957276;-0.005138344;-0.017204182;-0.5020968;-13.190239;-0.020167436;0.5845413;-5.9617577;-0.926808;-0.8254368;0.19820315;-1.8029265;0.15255103;3.0805876;-0.025114076;-1.9911488;-0.056489393;0.10511131;0.14613302;4.496885;0.7931261;-1.2627337;-0.023868527;0.8117044;0.7082824;2.1384137;-0.032317787;-0.01405135;0.3981623;-3.6229293;0.0065391804;2.6244893;0.0046265563;0.013865287;-0.013250376;-0.1312181;-0.023417618;-4.858297;0.039993387;-1.0779963;1.6399854;2.0463278;-3.2684605;-0.01207962;1.5231367;-0.015309949;3.761724;4.101326;1.8659971;-0.30607733;-8.513901;-0.3675399;-0.042669933;-0.05315546;-1.2665985;-2.0931711;1.7733438;-0.023849312;1.2932749;-0.11596064;-2.35869;2.2280753;2.202292;-0.22566295;-0.07295085;1.8899537;-2.6332538;-6.431446;-0.0095208315;-1.899763;2.2463255;-4.386615;1.9269027;0.010378548;-0.009046048;-0.0012418004;-0.15196428;0.8863006;0.038621806;-4.242566;2.0155602;-0.19385417;2.3002956;-2.3399978;-2.5502572;0.8773857;-0.581855;-0.0792365;2.6724367;-0.7621522;3.3456802;-1.7423762;0.28726447;0.046447795;0.024054606;-0.0053472915;1.6990353;-0.7354189;-0.13919605;0.037940722;-0.028745942;0.019992068;0.027548684;0.117065564;0.59268636;-3.53038;0.00742518;-1.0970775;-0.037758388;-2.4401739;-2.036596;-0.20169775;-0.014679714;4.6843457;3.1359215;-3.921018;-0.01394101;-4.127157;-1.3182766;2.7711725;2.0524976;-0.84040254;3.5265043;1.514593;-1.4442291;-0.02775442;-1.792456;-0.58492935;-2.3677642;-3.815005;-0.8818647;2.5259292;-0.004515416;-3.5207956;-10.016439;-0.89534163;3.7511146;-0.7391938;-2.1156878;-0.032465138;-0.11229477;-0.18765688;-0.03673637;-0.0219589;-0.11511038;0.9926079;-4.132647;3.1393595;-0.021005174;-0.051256318;-0.11698286;-0.004984081;0.029010907;-7.1003227;2.187709;-0.04182483;-0.950757;0.007931582;0.034884166;-0.8515387;-1.9935408;-3.9239502;-3.5407882;0.15340687;-0.06743492;-1.5179608;0.003169709;-0.016287012;-0.97644174;0.16885263;0.023148704;-1.7761028;2.343269;-9.523868;-0.9551237;-0.0075068716;3.0886464;2.74697;0.7486433;0.25947168;-0.6398774;-0.037553612;-0.9942676;0.041788507;-0.02777977;-0.065144636;-0.0010164891;-0.57182914;1.0486666;0.90388113;-1.6962085;-0.9691045;0.0049181106;0.48473084;2.0621927;-0.0036875878;1.5451624;0.028409518;0.013348171;1.65876;-5.324793;1.7824401;-1.72261;0.004249585;1.3389275;-0.3600865;-2.7517824;-0.09905918;1.2259351;0.027313149;-0.012472298;-8.184987;-1.5423025;-1.7970376;-0.52747273;-0.007617818;0.002725221;-1.0468316;0.0065356665;-0.60230756;-2.3425596;-0.5536155;0.022801813;-0.6699062;-0.017713478;-1.9658967;2.275953;0.024677787;0.016187334;3.3769467;-3.5566947;-4.178953;0.012242835;1.0469792;-1.7775048;4.900088;1.9586011;0.23140046;-0.008030518;0.014851808;-1.6843965;2.8396423;-0.1157065;-1.826638;0.01018841;0.8482516;1.7525663;1.5851372;-0.8715423;-0.89616764;3.324121;-0.073523715;1.1946226;0.040006284;0.24696511;-0.17038283;2.868896;-0.053791355;-0.52159286;-1.2433926;0.032245193;1.4764699;2.656191;0.4351723;1.4589447;-6.833876;-0.0126012135;3.3352733;-5.3757596;3.3914325;-0.0012812872;-0.023960553;1.5297797;-2.509497;-0.12640113;0.16243015;0.06127986;-0.07674176;-1.3750739
0.2099538;2.0788016;0.014076987;-2.3052902;0.0132617485;3.526149;1.067198;0.00037435768;0.59143144;-0.057322998;0.071579024;1.9337482;0.014124613;0.012877904;-0.5504322;0.055343237;0.031229008;1.6166373;0.27320483;-2.953651;2.9963431;0.40675637;-5.165036;-4.7492785;-0.0032280579;-1.012625;-0.02851884;-0.19278966;2.7664208;1.8716463;-0.18908028;0.37140957;-0.820061;-0.025677143;0.055616766;0.36680955;-0.00842134;-0.78241503;-0.15125035;2.296296;0.7917255;-0.27172866;-1.9226592;-3.557154;0.9820528;0.90852636;0.0034788218;-0.22463726;0.023634251;0.34350836;-0.14427766;0.53205216;-0.7507127;-3.099732;-0.7788427;-0.004288838;-5.2803726;-0.045755222;0.33356738;0.041658387;0.019859668;-0.9469729;0.0030820682;-0.007032132;-0.89576876;-1.1578531;-0.013568735;-0.5727156;1.8140723;-0.55688536;-2.4422581;-0.008177867;1.4158636;0.19031972;1.760715;-0.014970857;-0.38906673;1.561188;-0.0056317183;-2.9385467;0.03604756;0.34856704;0.0020176778;1.8688965;-0.49578103;0.47535303;-0.00086231105;-2.015297;-0.017347435;0.020566816;-1.6714541;-0.025211465;2.7340174;-2.0123327;0.91778636;-0.95714116;-0.3058814;-0.70023596;0.27744976;1.4139346;0.5292377;-2.5797873;0.8370575;-2.9535751;-1.7410742;-4.195548;2.1607983;-1.0600418;1.5003353;0.42511395;-2.8835688;-2.4090238;-0.0028268343;-0.6685392;2.9719288;0.3821433;0.0017520337;2.391956;2.6721387;1.5208809;-0.95735157;-1.3727016;0.75114703;-0.023368342;-0.21294278;3.491324;0.3919785;0.03932347;-0.54466313;1.5098634;3.4126396;2.2258723;2.4141703;0.033488072;3.5557938;0.07370964;-0.85228777;0.16555771;2.9567277;1.5148729;0.023538195;3.3814692;-1.9342475;1.3374469;1.4632692;-0.021953417;0.90391064;0.015651166;0.553633;4.333313;0.02391173;1.0112648;1.4123384;-0.23904696;-1.1093708;4.1323094;3.768088;1.2451482;-0.05054522;-1.6921855;1.4656578;0.2395941;1.5301908;0.03707683;-6.2144227;0.5526761;-0.016415404;2.672044;2.0365314;1.30209;-1.3391005;0.021828774;-4.1890993;0.62007356;3.0556283;1.1081624;0.09791621;2.3141127;1.2807386;0.008860979;0.055737346;0.28062907;-4.4752774;0.31549558;0.035113815;-2.060655;-0.025646504;1.7892367;1.972179;-0.0048376336;-0.029899672;0.29737267;0.2744473;-0.009337737;0.61255;-0.627034;4.1076784;2.9406059;0.43534964;-0.10317815;-1.6824955;0.05415626;-7.2533236;1.7145386;0.19041815;-0.08074894;-1.4954877;-3.4957404;-1.2159603;-1.2416869;1.0572978;0.1671658;0.14379765;-0.041516297;-0.052937735;0.0054154405;-0.31680822;-0.8430638;-2.6150157;3.3319814;0.21805021;-2.1840158;2.3587103;-0.0052008065;-0.97079116;1.0568072;0.09796342;3.529621;0.0591921;0.05095764;0.26222932;-2.2286704;0.7927421;1.6070272;-0.71346784;2.4023316;-1.5532175;0.056248058;1.4263055;1.8468436;-5.9615493;-1.5772523;-0.3474448;-0.029825138;-0.2731603;-1.2211931;-1.9230984;0.76606035;0.006286504;-9.710257;-1.8846132;0.01889113;-0.7776937;-0.30842063;-0.04951559;-1.9026095;-0.572951;4.2603498;0.5647647;0.0017633602;-0.77870065;2.4216897;0.025278429;0.0055846535;0.31464702;-0.3852545;0.8413976;-1.9318786;-0.9953961;-1.871237;1.4809119;-0.9170708;0.46267033;2.1970181;0.0036630128;-0.039387703;0.66633457;2.6847928;-0.02738412;0.00037501895;-0.004263398;-1.7096637;0.6475356;-1.4734999;2.1301465;1.964649;-0.030326614;-2.8825645;0.13737561;-12.262693;-2.8497784;-1.2292924;-0.9202071;1.9822255;0.49247319;0.9043922;-2.108211;-0.51119816;0.0574699;-0.026001956;-1.9749451;-13.113077;0.026677437;1.1347979;-6.881866;-0.43556625;-1.3425899;-0.13958228;0.28447774;1.2210058;1.2898604;0.048805546;-1.1915344;-0.0016300739;-1.6805553;-2.218698;4.0495024;2.4947581;0.068581104;0.005693228;-0.12923;-1.6660799;-2.4879565;0.013096788;-0.009830356;1.3942928;-7.9729857;0.033473387;-1.0085553;-0.015599107;-0.02167884;0.29540533;0.715653;0.00016358308;-0.50841016;-0.1308413;0.11376074;0.58827966;-2.4844337;-3.7481823;0.03920125;0.4897423;0.0033588219;0.28574246;4.640695;1.6752146;0.21184674;-7.8459997;-0.4668167;0.020592442;-0.07783681;0.3945544;-1.1467253;1.9725771;-0.04974833;-2.2449374;-0.43956923;-4.073602;2.9827332;2.6093073;0.12079135;-0.020312391;2.3548825;-2.9772644;-4.4976554;-0.40974474;-2.6686106;1.5879083;0.64703137;1.1284289;-0.033818718;0.012958608;-0.014869813;-0.9518241;2.0170865;0.022532979;-1.1457678;-0.866205;-0.9044887;0.7843781;-2.3169034;0.76834464;0.91807204;0.009147024;2.5042245;2.7934906;0.9861916;3.5237777;-0.6919099;0.7869429;-1.660083;0.00072167657;-0.024190301;0.27920738;-0.38055477;0.32498658;0.037240736;0.00055766973;0.059683684;-0.0148632815;0.82569486;-0.94098455;-0.8305756;-0.04838975;2.1924849;0.012656337;-2.567031;-2.1696937;2.6288195;0.017663967;-0.6944013;2.4383917;-1.6694026;-0.016088456;-1.5698;-0.20531401;-1.3484235;4.052459;3.3117;4.629111;2.4170272;-0.3514669;0.0073924824;-0.28922123;0.8212851;-1.0303917;1.2084875;-0.61297286;1.3468096;-0.15493074;-7.4015064;-5.171294;3.1038435;4.5369644;-1.6513082;-2.3362222;-0.03320018;-0.072382025;1.2329987;0.052341044;-0.06095048;1.8536948;1.4136214;-5.475614;-0.3164558;-0.005599428;-0.013226203;-1.1035001;0.06676996;-0.006933377;-4.398086;2.9846973;-0.017958036;-3.2824912;0.058039594;-0.013426654;2.122416;-1.1786927;-0.094565414;-3.041735;-1.5835346;-0.00015265352;-3.182974;-0.019329157;-0.07912169;-1.337176;0.048020832;0.025207117;-0.7932623;2.3035386;-5.5120664;0.9054758;-0.0107447645;2.1715329;-0.4531612;-0.43353996;-0.46568245;-0.781798;-0.019565621;-1.6473475;-0.03422468;0.058708843;0.16923106;-0.028151391;-2.813253;2.2120373;-0.67032975;-2.0835567;-1.3493382;-0.209243;3.2148476;1.3913329;0.05744317;-1.0399958;-0.0028552422;-0.02662717;1.3616334;-1.0808014;0.6395146;-2.878717;-0.050333776;-1.5092806;2.50435;-4.448046;-0.013625509;-0.0066021215;0.0008996237;0.00674256;-6.9399;1.8160347;-0.9459584;3.2384574;-0.003990585;-0.05900412;1.5895886;-0.0075022806;-2.339295;-1.6523393;0.3137903;0.0044519724;1.4115984;0.045206476;-3.1001039;0.3173724;0.47701502;0.0027129059;0.61777526;-2.1179986;-1.4775482;-0.050532587;-0.66266197;-1.3272452;2.1520755;0.08683967;1.8404431;0.024387386;0.11590312;-0.49983168;1.8853368;-3.4878373;0.15734205;-0.034347635;4.1727495;-0.24521801;-0.11799134;2.493913;-0.5513999;1.9354831;0.046958182;2.9543927;0.018910678;0.16738248;-1.8557912;1.6130493;0.015878577;1.206125;2.5555305;0.6751324;0.34233978;4.4459915;-1.237258;2.0725794;-7.1299777;-0.042450085;0.5065996;-2.078118;-0.8026285;0.025440957;0.070263684;1.5796798;-2.0394301;0.023880478;1.4281021;0.68897855;0.036355834;-1.2743835
-1.2236452;1.0871955;-0.070928805;0.09558124;-0.014055309;2.5869553;2.224285;0.020630583;-1.1537532;0.152353;0.7579349;-0.75417703;-0.04119851;-0.011488255;1.3781751;-0.016737968;0.0280427;1.1683749;0.16629262;-1.5200557;1.0275204;-0.8204864;-6.139557;-4.388693;-0.017404204;-0.3626609;-0.02502;0.44730642;3.001085;1.005232;2.080053;1.1291785;0.10797131;0.026754273;-0.018986449;-0.12926556;-0.119956836;2.6914577;2.890623;-1.1769171;-1.7571068;0.2569107;-3.8402772;-4.542418;-0.03924296;2.692729;-0.008666924;-0.36758915;0.025915837;1.6959515;-0.08719606;2.349737;-1.04518;-2.5738318;-1.0149163;-0.06481591;2.8015544;0.283215;0.03559226;-0.028819108;-0.03238844;-0.21993579;-0.041903827;0.0013304588;1.2989513;-1.7227798;0.012172989;0.08034489;1.1341447;0.3811586;-2.4853895;-0.05434736;0.7245417;0.72723866;0.0605368;0.0028233945;-4.2368226;0.37963128;0.013151561;3.2310603;-0.002202235;-1.1140902;-0.030939978;0.8744066;-2.9972236;2.7943954;0.027615571;-2.3773253;0.050001375;-0.00044160243;-1.2106065;-0.025578776;1.5780065;-1.6159141;2.3449206;1.0125903;2.2284067;0.1670388;0.4591059;2.0344439;1.5147963;-1.1186414;0.16674143;-2.5331266;-3.0159352;-2.70562;1.7111245;-0.34775394;0.33510593;0.9863117;-0.5023606;-2.3369322;-0.011314583;2.1321423;1.750523;0.5179378;0.03584408;-0.64764947;2.9038117;-2.0007956;-0.38242018;-0.8157078;-2.6023042;0.95363563;0.34459248;5.1341925;-2.358939;1.8471992;0.23670231;0.9460621;-0.3771763;0.34737432;-0.48820636;0.017766397;-0.6357949;-0.05470299;-0.31610316;0.16436258;1.2660161;0.9815277;-0.022533432;5.7224207;-3.5913472;2.3392165;-0.47803771;-0.00991256;-0.35739395;-0.017081214;-0.7677229;2.1433563;-0.022862975;1.89545;-0.51808673;-1.4209443;-0.49365494;3.2980082;-0.12035943;0.6249894;-0.051918086;1.5612074;0.2271187;1.4184359;2.6214943;-0.051828735;-2.7646935;1.3236315;0.014186068;1.4290847;-1.4052202;6.013853;-2.5234146;-0.005952929;-2.702208;0.93914443;3.9432843;0.15056367;0.24515383;1.633902;-0.35267487;0.006015398;0.00034360497;-0.033897586;-4.4045944;2.6659608;-0.034236997;-2.3978174;-0.008927959;0.08956151;2.8416245;-0.10863811;-1.6507227;3.4289153;-0.41732696;0.018844964;-1.6405535;-1.4955902;1.6888922;2.581014;2.4084682;-2.5686457;1.415757;0.4781215;-7.311628;-0.07493071;0.9238952;0.14350936;-2.658427;-2.663403;1.8275079;1.7744994;2.2688015;1.1394378;-0.845864;0.0132939555;0.083905414;-0.013011285;2.3710632;-1.7905833;-0.2854051;-0.68380636;-0.9755372;-0.77893555;4.053173;0.022456948;-2.0661778;-0.46775;-3.775826;3.041656;0.114895314;0.017233865;-1.4520438;-0.1612545;0.93124056;0.6268856;-4.12786;0.84875995;-2.2818558;0.023943655;-0.21005455;0.4264606;-3.102626;3.1064003;-1.3224853;-0.021292552;-2.5093803;-2.5106075;-0.14912522;2.5414252;0.020491475;-10.924694;-1.0164987;-0.010136887;-0.0007574423;0.86200774;0.077163555;-1.7648575;-1.2402548;3.4314451;0.0049177026;-0.0022144078;-1.0585151;1.3856049;-0.030085096;0.017252704;-0.18055257;-0.49707258;-1.578341;0.4376146;-0.5477065;-1.7997661;-1.0172216;0.86061513;1.4953661;-0.15330942;-0.01954698;-0.0069321045;0.9077373;2.2632217;0.025928205;0.006881634;0.023749994;-2.4948325;-1.095704;2.8493948;1.860937;-0.8875765;0.0019399105;2.6715763;-0.055565678;-9.331949;-3.867321;0.20095788;-1.850036;2.954182;3.2712324;-2.1102545;-1.6986171;-1.1184908;-0.077565685;-0.00064768724;-0.93842417;-13.385237;-0.0019866303;0.70219374;0.77817184;0.02016768;0.17701918;0.101693176;2.1917634;1.1916234;4.0122323;0.0085377395;-0.114864044;-0.03691227;-3.4455862;-4.899797;3.980567;3.2236493;0.7438927;0.019772766;1.9853321;-0.6383372;-0.8362857;0.010723725;-0.012678728;0.8650945;-3.7210891;-0.0017197188;-0.045656633;0.0052412907;0.03124614;-0.12443039;-0.28476137;0.037130307;1.0150391;0.31195536;1.8177629;0.4468795;1.5623949;-1.1451991;-0.06970828;0.7355173;0.009499903;-0.70854187;3.9995239;-2.7466102;1.624323;-9.319805;3.7912688;0.019785758;0.5086128;1.9354044;-3.0969927;3.006521;0.77428013;-0.5741215;-0.24372995;-0.098171264;3.0663228;2.2728405;0.07731164;-0.0052527706;0.96772385;-4.556508;-5.519398;1.1604445;-1.6352118;-0.62579006;-0.9569887;-2.9542997;0.008204691;0.0015586894;-0.0024374337;-0.5350968;0.64026994;-0.0046434873;-1.1524205;0.14974277;-0.45955038;0.57737565;0.7311418;-1.718051;2.0736105;-0.43066153;-1.8278246;-2.7556424;4.107364;3.1782691;0.7761899;-0.53593314;1.8869485;-0.03231214;-0.05511905;-1.910731;3.5378175;1.1970968;0.0010981326;-0.003021081;-0.04428229;0.0037111982;1.575896;1.8765236;-4.4584985;0.0023833048;1.7732316;0.033543866;-1.3030202;-2.0948358;3.0784836;0.0036629739;-0.13049898;2.9802768;1.519109;0.051665056;-2.8633802;0.7450042;1.3993397;0.28284642;-1.2773843;4.3958173;1.9936517;-0.55384755;0.011183026;3.704393;0.7518553;0.11307326;3.0949035;-0.1728133;-0.6326062;-6.7932053;-0.35265347;-6.1524615;1.2177743;3.8612237;0.6176958;-5.00352;0.039043915;0.2364301;2.7080114;0.012087687;-0.00868957;0.83614886;1.6439492;1.3270983;2.5232527;0.010043792;-0.028625047;0.39329967;-0.07116004;-0.040484853;-1.1243664;5.5623555;-0.08272814;-1.9806713;-0.039296955;-0.0008551349;0.22119959;2.1131454;-1.3222677;0.99361145;-1.7044067;0.066891216;-1.6942106;0.0005631585;0.025429143;0.23870601;0.677497;-0.042007387;-1.4408481;0.90748703;-2.5375082;2.227136;0.02687451;2.9069173;-0.31281844;-3.19369;-1.9406371;0.35454953;0.014671622;-0.17240672;-0.03410396;-0.03861827;0.015365562;-0.02827948;-2.4875424;1.6406727;2.8922555;0.4788253;-1.757167;2.0532396;4.6243763;2.9205325;0.0260583;-1.3547854;0.012117542;0.016886424;-1.5596899;-3.2112298;0.9572046;-5.1358037;0.0912867;0.8299911;1.407326;-3.0281613;-0.016908957;0.4340464;-0.006372914;-0.06495695;-6.874794;0.18096484;-0.5107441;-0.38367218;0.034656443;-0.00013309563;2.1290765;-0.0568916;-2.515003;0.5421387;2.2829673;0.022473963;0.4118923;0.019158468;0.5421046;-2.6146379;0.28460085;-0.010782799;-1.3508129;-2.9612124;1.484209;0.059978653;-1.3459815;-3.870908;-0.79216933;0.8010203;0.50229007;-0.0066002845;-0.02508222;-2.3812535;-0.21041878;-8.433042;2.9394045;-0.003950701;3.2912006;1.1625187;0.2999687;1.4718113;-2.1067944;-0.2406085;0.011806747;1.6327925;-0.05099124;0.8546551;1.8810498;1.0142211;-0.035409264;-0.81445545;0.5882769;-1.0489501;-0.10256671;1.3513757;0.60209256;2.071772;-5.0231943;0.12032768;-0.7241678;-3.3375127;1.1843487;0.025902566;0.010684671;2.0375712;-2.6742697;2.5244565;-0.773711;1.4739844;-0.015137443;2.6690779
1.4721221;-1.5890604;-0.012003393;0.7657072;0.00705042;1.2227247;0.98443985;-0.036666173;-0.150376;-0.06064872;0.0632396;-0.6765359;-0.009669547;-0.011112889;0.9851224;-8.428695e-05;0.014614256;1.6981009;0.13128796;-1.7451705;0.31831548;-0.49003834;-6.217624;-1.9671792;-0.022557028;-1.4051985;-0.040117335;1.262497;-1.2773219;-1.4501595;-0.9582426;0.63314724;1.8684714;0.03525052;-0.019681498;-0.041514058;-0.032991435;0.22545204;2.7994297;-1.4453561;-3.7893965;0.5584688;-0.7040411;-2.1451948;-0.015609642;2.4716895;-0.03272155;0.76903063;-0.0035055059;1.5791185;0.040416617;-2.5123506;1.2335503;-2.4808798;-2.3221881;0.071638376;2.0291283;0.34777114;-0.09405908;0.0014599599;-0.006811591;-0.20699617;0.037210114;-0.012247501;0.27469817;0.73392254;-6.951536e-05;-0.763684;-1.2093582;0.6585819;-1.2278324;0.022664994;3.3956766;0.23480049;0.15469733;-0.045495037;-1.2563254;0.2235791;-0.012644613;-1.9893692;-0.0056176265;-5.716934;-0.0054573645;0.9649412;0.07245724;-1.0014141;-0.016161056;-3.9592755;-0.009826827;-0.05847265;-2.0099852;-0.013226644;-2.5826402;-0.05253312;1.1400164;0.66017216;1.4251251;0.17424074;3.6641378;2.483237;-0.0804052;-0.30606228;-0.9122208;-0.6104937;-5.2851477;0.53515536;0.9687779;0.8419646;0.6655627;-0.16258095;-4.163801;-5.674533;-0.058188993;2.5032144;1.7529153;-0.22728236;0.013238625;2.5440154;2.9934964;0.5780002;-1.085895;3.529267;-3.6103227;0.15561186;0.2206897;3.794722;-1.4321558;2.2370818;2.050801;1.5005684;-1.3288965;-0.31058535;0.63774925;-0.0016164578;-3.5305347;0.019417755;-0.577253;0.11920618;2.5052414;0.047503978;-0.018781947;2.3372896;2.8302205;-0.6795523;-0.39409763;-0.007529631;-2.964008;-0.013551532;-3.734188;-0.019518092;0.019807722;-0.66590214;-0.9176613;0.45111173;-0.11431371;1.5346408;0.14476484;1.7845948;-0.027835445;1.5996207;-0.3676018;1.2553738;4.3137636;-0.00014635047;-0.8874284;2.429412;-0.013515893;1.6468961;-1.8318821;3.0763345;-1.5264829;0.035658315;-1.3154073;-0.79801136;2.7643616;0.63256085;0.06209898;0.03002458;-0.39359972;-0.0072232457;-0.03345059;-0.07274554;-4.325706;-0.8282576;0.042786576;2.0133457;-0.023852184;1.8887905;-0.7720592;0.5027907;0.5134493;1.7959057;-1.882312;-0.0027372867;-1.9578828;1.721987;0.80585474;3.816106;-0.36750448;1.5462757;2.9954991;-4.9686294;-0.08734063;1.04298;2.3982282;1.6649737;1.2549232;-2.1897566;0.6142269;-1.3693641;0.67446184;0.42763406;-0.117129065;-0.0144835645;-0.16463864;-0.056929734;0.5372819;-1.493731;0.9202543;-1.3857204;2.0462582;-1.0482808;2.8004203;-0.02637369;-0.35305792;1.1195345;-5.0687923;3.1159642;0.048378892;0.05823548;-1.46954;-1.7040151;-0.012745601;1.7149178;-2.7696588;1.3770314;-2.053965;-0.025288941;0.5180453;-2.0471828;-2.9639237;-0.28221864;0.97354186;0.017190706;-3.1684294;-0.8710003;0.6801941;1.8463358;0.038705427;-10.628545;-1.666171;-0.052006267;-0.84168714;0.5761954;0.016247163;-1.7545422;1.400704;3.6200376;-0.0929614;-0.012999378;-0.34504792;-2.3919547;0.02047853;-0.030575128;-0.0016694146;-0.5974806;-3.3843029;0.019014135;0.027766261;-1.9204482;1.1884999;-1.2449847;-0.5974393;-0.01630634;-0.033156604;0.0068049547;-3.3203154;3.2719643;0.032895774;0.032993983;-0.0021864325;-0.17476165;-1.5434968;-4.130341;-3.8303971;-1.2784771;-0.015129342;-1.3172641;0.036415365;-6.5997744;-3.1861994;0.1732305;-3.243208;0.018822532;0.27503622;-0.52044433;-1.6714435;-1.9436613;0.031666357;0.025981063;-1.9988159;-13.192266;-0.010107809;0.9196485;-3.203526;2.8893423;0.27510208;-0.16281812;1.3148481;-1.6299078;0.895529;0.008967803;-0.63943386;-0.030118637;-0.75330085;-4.1205707;-0.3361281;2.169349;-0.024183812;-0.04914639;1.0834761;-0.42587212;1.7164402;-0.031446338;-0.02470174;0.11710667;-0.16995262;-0.005513824;-0.5073709;0.034835268;-0.0012330086;0.053012267;-0.10105379;0.030670369;-2.9390771;-0.08545935;1.8470907;0.6552868;-1.4063307;-2.2228765;0.0066308323;-0.045280274;-0.030561134;0.781523;3.7979262;0.40070733;0.3100585;-7.6222725;-1.8747771;-0.00660734;-0.12383014;-0.46683085;-1.7721653;4.531664;-0.19217728;-0.39114746;0.4810802;-2.9000387;2.5955434;2.0501127;0.17127052;0.013225414;0.34167752;-2.044113;-6.3297834;-2.49462;0.752747;0.82186824;-2.0985694;-4.4277525;-0.029875914;0.019802578;-0.046147253;0.1407908;3.1094975;-0.024773637;-2.4153233;1.0820845;0.1874202;-1.3180834;-0.583646;-1.6425226;-1.303476;-0.60153323;-2.1913733;-1.1413962;-2.4296062;3.0878825;-0.5883778;2.1038942;0.008914511;-0.00780596;0.20202649;-2.0176911;4.319845;1.2870437;-0.013722264;0.029168013;0.019752348;-0.03264053;2.4294336;1.5405635;0.5993226;-0.009248399;1.3389784;-0.0285685;-1.8413517;-2.240365;0.7802714;0.008570211;0.4280772;5.202042;-1.1377735;0.03603326;0.21832591;-0.59437877;-0.89131486;1.3586202;-1.4751334;3.447058;0.50041735;4.2256064;-0.032938685;0.5165998;0.4314002;-0.12187507;1.998265;3.6079807;-2.8971758;-10.697115;1.2029817;-5.061057;-0.986541;2.4367452;-0.57295495;-4.993868;-0.039839644;-0.047886506;0.7326972;0.008360793;0.020688072;-1.8335545;-0.5050576;-0.31185108;1.338924;-0.041619685;0.036310177;1.0281025;-0.016668981;0.011845383;-1.7844292;1.5461617;-0.07063549;-0.50833386;0.021246905;-0.028490799;2.230847;1.5431156;-0.5857263;-0.91014147;0.6323065;0.00050634565;-0.6336191;-0.032105934;0.020136382;0.25085977;-0.034476817;-0.049288232;-0.8091246;2.0433755;1.7254936;1.156113;-0.019934883;3.6553986;-0.92016286;0.4954658;-0.54458034;0.77579087;0.011856461;-1.6569526;0.03643302;-0.14515428;0.13234632;9.57493e-05;-0.68413156;-0.8319989;1.4549084;-1.4107523;-0.27311012;0.37668985;2.9877439;1.1013306;-0.01100535;-1.6862203;0.006824281;-0.041600358;-0.9367156;-2.6651084;-0.28532124;-0.6403226;-0.13922483;-0.6925873;-2.7987702;-3.354987;0.40639395;-1.3490473;-0.02546465;0.13900429;-6.767084;1.274532;-2.5109806;1.1746846;-0.04466252;-0.036166944;0.56538093;0.027571913;-1.2516322;0.31992385;3.1785955;-0.009622862;1.3831328;0.003876802;-1.6921024;-0.82325673;-0.13405192;-0.0054285843;3.0500374;-2.9700155;2.5345345;-0.050221;1.5419955;-1.7567978;0.5812694;2.0945156;-0.11601843;0.0010050276;-0.0732839;-2.4928143;0.33047733;-4.5207872;1.5204338;-0.023219805;0.12717636;-0.21637382;-0.36279696;-1.2969246;1.7624773;-0.778194;-0.029197324;0.64776397;0.02512238;-0.61474293;-0.728145;3.6481855;-0.04253278;-0.7430383;-2.2758977;0.42501312;1.1062082;2.4726038;-0.6883491;-1.1226909;-6.122932;-0.00486665;1.8533732;-0.24335854;-0.56808347;0.008593993;-0.011403589;-2.7965152;-0.87851816;-1.8804959;-2.9913676;-0.45123473;-0.06250664;1.118074
-1.1525481;2.392823;-0.0025796494;2.9363554;-0.06321789;-1.1411198;1.7114501;0.051055294;0.5069843;0.01457422;0.19714236;-1.1676762;-0.012063931;0.014651895;1.0262253;0.046903647;0.010656184;0.8063099;-2.7378042;-3.6710193;0.9585544;-1.4506819;-4.837587;0.30420098;0.0009225391;-0.831624;0.011634342;0.5874635;-3.4899883;-0.38732448;-0.5811122;0.78115433;4.62279;0.011932405;0.07335877;-0.049050782;0.81873775;-4.478495;1.1044402;-1.100865;-4.7529135;0.37430882;-0.20816027;2.5216637;-0.3139199;1.282405;-0.020973373;-0.39137957;0.002984358;2.2388287;-0.10469926;-4.0846453;-0.28949788;-2.8942077;-2.2280235;-0.082856365;0.19873926;0.6882359;0.16146971;-0.065171696;-0.025418086;1.4408712;0.006134514;0.012605416;-1.3023705;2.3821368;0.00048187215;1.5722573;2.273956;0.08542381;-1.2074347;0.046590008;0.8623568;0.87643546;-0.8610976;0.006339243;-1.6935456;-1.5343312;-0.047875438;2.6708863;-0.00022841008;1.0744433;-0.004313799;-0.065070525;0.8448961;3.385364;0.04521876;-5.482145;-0.016967135;0.0012593581;0.07268485;-0.008870141;-1.0124333;1.9756747;1.8807156;-0.13167661;-1.7507886;-1.6672218;-0.43565413;1.8875176;0.207895;-0.034638356;-1.136536;-0.8009951;-2.2538822;-1.755198;2.8519945;-1.077043;0.047908954;-3.3070645;-7.890107;-2.9250855;0.033621874;3.233775;1.9788046;0.020027408;-0.049026236;0.76704377;4.0442123;0.83317;-0.39890078;1.9244752;-3.445473;1.5329193;-0.7062085;2.9495895;0.93528986;2.5426195;1.4550525;1.1055943;-0.5718473;2.4305768;0.6292527;-0.0075803944;0.45143542;-0.009867885;2.1963208;0.050400853;3.2735825;1.5592331;0.024520133;-1.5719268;1.0128635;0.66404986;0.14714554;-0.0165308;-0.9298599;0.050867278;1.9645554;2.4202547;0.0010018045;-1.7203274;-1.5709577;-2.278824;-2.29562;3.0169094;-1.7919772;1.4126348;-0.11401464;2.8129697;-0.20688288;5.085641;2.8600187;0.044631504;-0.14787029;1.7060939;0.021330485;-0.12601507;-1.2335012;3.7454815;-1.4307551;-0.0013226627;2.2728796;-2.076376;3.0967174;1.9758377;0.27376866;0.73289764;-0.55371547;-0.021997456;-0.026686633;0.00375695;-6.580205;0.7767406;-0.01048425;-2.2632017;0.023431221;-0.31060362;1.1971464;-0.095817775;-0.9831211;-0.21083331;-1.646515;-0.060843594;0.39985755;2.890527;2.6210847;3.301656;1.1521379;0.14481309;2.3497143;-1.8056089;0.0995817;2.1132295;2.7551382;-1.123397;-0.7552277;-1.8452733;0.2128354;-3.6142366;0.7010406;2.490025;0.98921937;-0.023095509;0.059875254;0.0057095764;1.4639308;-1.1705877;2.260557;-0.098300256;-2.611845;0.29998663;1.492446;-0.03016711;-1.1481975;1.0795258;-5.78804;5.876438;1.6372919;0.03786926;0.48057896;-0.5400643;0.2652565;0.67045265;1.1012521;-0.0057050106;-1.7898237;-0.046054844;1.201409;0.19680005;-5.405833;1.7696284;-1.7857664;-0.052347656;-0.9480696;1.480271;-2.8072581;0.3074291;-0.045737766;-9.484139;-3.2061515;0.07428289;0.57978505;2.6550586;0.0090025645;-1.4776999;0.3674328;2.6191676;-0.2356492;-0.032508034;-0.37707853;-3.7014947;0.025103826;-0.002819732;-0.04314563;0.33822376;-2.080071;2.074587;-0.62083316;-1.5587288;-0.838752;1.5804886;3.056527;-0.8280618;-0.065206975;0.05363366;-3.0931425;2.471477;-0.027348997;-0.036651526;0.0032358582;0.68550944;-0.80292225;-1.4816835;-1.5759302;1.4251157;-0.06196951;1.1596006;-0.044058282;-1.7228037;0.18167105;-1.1487905;-2.6655788;1.1907382;-1.2167772;-2.7891817;-0.04557537;-1.1329484;0.016216477;-0.08263578;-3.0805378;-13.482926;0.024199605;-2.2884793;-0.6265422;2.912259;-1.2788727;0.01892525;0.59886026;-1.058931;1.3904878;-0.037992265;-2.2600706;0.04350738;-2.2967694;-1.4220932;-2.341474;2.9637156;-3.4668086;-0.011065974;0.51045215;1.5909743;-4.2423387;-0.011093427;-0.0039796242;0.7275829;-0.19194968;0.015552963;2.7631645;-0.04251201;-0.019135792;-0.018545708;0.04804543;-0.077493;-0.89070266;-0.03382306;0.27355766;-0.76012063;-1.3058894;-4.009202;-0.0070709987;0.15984492;-0.012840204;0.08437195;4.485957;0.29380786;0.0014074076;-5.9902277;-2.9709427;-0.037543934;0.010844241;0.26382476;-0.59807754;3.7900708;-0.077067114;0.60606664;0.47838914;-0.17961249;3.9286516;2.4811695;0.16411443;-0.022082562;1.8613011;-2.7078624;-6.3317156;1.1310833;-0.32495826;-0.66710174;0.5405812;-3.1758826;-0.02860914;0.0022574954;-0.024206793;2.4002306;-3.0601711;0.013174424;-1.8576311;1.6806349;-2.4081857;-0.9946706;0.2460736;1.3686103;0.99940383;-0.020971697;-3.84235;1.8949761;-4.3125625;3.16583;-0.60947406;-1.6349105;0.16461574;-0.031175239;-0.05249048;0.7505748;3.4319596;-0.28524452;-0.058514826;-0.013154326;-0.039518766;-0.053142935;1.8731575;3.292645;-0.38004467;-0.012712871;2.2324395;0.004464141;-0.2880401;-2.3801248;-0.26913968;-0.047472876;-1.460203;2.8660452;-1.1955701;-0.034270298;-0.3299215;-2.1996858;0.9635036;2.5321887;-2.040599;6.142215;-0.33336484;0.7765634;0.008952217;-1.0669843;-1.375245;1.2988845;0.63549566;2.4831274;-2.9031582;-12.616739;-0.5995827;-3.474595;-0.91790956;0.56086206;-4.126121;-6.855316;-0.0040645762;-0.025636662;4.101676;0.0054768976;0.016140597;1.7115297;0.7285098;-0.573898;1.2691796;0.008736475;-0.049284425;0.6403573;0.011271615;-0.0151187945;-1.3744243;-2.3545506;0.6938253;1.8140256;0.0302124;0.007164089;1.35076;3.4949348;1.149432;-0.98116326;0.87291336;0.00903111;0.35249427;0.054131098;-0.05368706;-1.2940665;-1.5081598;0.021065678;0.543713;0.27303213;-1.1769367;1.9590391;0.03948939;4.059068;-0.85540116;-0.009010873;-0.6487153;-0.4273308;-0.007969141;-2.871011;-0.045488726;-0.050584454;-0.37007928;-0.0050034286;0.49562585;1.0273918;2.1365635;-0.16522416;1.9374193;0.27332005;3.710409;0.29753813;-0.049189087;0.3862529;0.055701137;0.02705271;-2.1557188;-0.5250737;2.6369812;0.3694294;-0.023084791;-4.1492515;-1.7703817;-4.2130694;-0.115490995;0.6344716;0.046196863;0.0053865355;-7.0395327;2.1158588;-2.6612723;3.1435506;0.017917344;-0.006063423;0.9584968;0.003759494;-1.9673432;-1.0179838;-0.91788596;0.015977751;2.066897;0.030207586;-1.9094609;-0.5694621;-0.0591134;0.050302774;2.980427;-0.37321168;1.5777131;0.088105336;0.6801508;0.36687467;0.20432727;2.3110511;-0.071379215;-0.0044339057;0.024927847;-0.7862516;2.0322056;1.3498927;2.817628;0.05351632;1.4600875;0.7013096;-0.32308337;-0.92660046;2.2683778;1.0968823;0.008564208;0.9585132;-0.020003408;-4.05988;0.28486785;1.0609573;-0.064558946;-1.1974305;-4.5318146;-2.7580214;2.1466525;4.9623876;0.76608056;2.3875449;-7.570299;-0.026353747;3.165024;-4.31465;0.6189028;-0.0007088676;0.026413556;0.33575284;0.32865167;0.30569968;-0.077445954;-0.15927449;0.044219542;0.09679295
0.83391553;1.4199817;0.0068690646;1.4448576;0.09215764;-0.108168714;3.2483983;0.0019791871;-2.4226594;-0.0016931464;-0.38066888;-0.61262935;-0.014060788;0.04589884;-0.5703967;0.030009361;-0.015479932;3.4876804;-2.126379;-4.750764;2.6419158;0.6786045;-4.814296;-0.50364786;0.0082574105;-0.28292063;0.652615;0.4976985;-2.0016146;2.1753511;-0.56558615;2.6320257;1.2915716;-0.008238173;-0.019852065;-0.042720273;-0.10529833;-0.5778216;1.9024975;2.703394;-4.1776247;1.0556949;-2.7822797;3.866815;0.093330614;1.0820725;0.065875925;0.55888486;0.013598421;-2.5552034;0.0034808507;-0.23620507;1.8100389;-2.593709;-0.7956988;0.06333458;-0.2630874;3.6475766;0.22065076;-0.021452721;0.041172482;0.86829007;0.0023093908;0.0113784885;0.32045308;2.8916316;-0.037316803;0.15983176;0.5200837;-0.110791475;-0.026905563;0.06359306;2.2928145;1.0874617;1.9443092;-0.014664168;-0.5896302;0.12639612;0.02952053;2.8448668;-0.009722477;1.7820481;0.05242527;0.23697306;1.9199584;-0.14584345;0.01202158;-3.5240345;-0.071122706;-0.07480719;-1.328657;-0.083377235;1.6341031;1.7451197;3.9761078;0.31481662;-0.32248265;-2.9174018;2.1855016;1.5603031;1.2424738;-1.7987508;-0.5253957;-0.88351524;5.8097215;1.237651;3.3125894;-2.2089434;-1.5422019;0.5811472;-1.1470256;2.0253713;-0.15581302;3.4557157;-1.074593;-0.090487294;-0.023412859;2.5770297;2.020972;-1.7727084;-0.5515312;1.0106393;-0.95317376;0.5030815;1.4728942;3.9612865;0.41015336;1.6150336;-1.4591256;3.3302033;2.3332083;1.5998082;-2.3359149;0.008982633;-0.63517547;-0.04045268;2.6877677;0.05593643;2.2816348;-2.5974917;-0.04715291;0.22928928;-0.01771387;-0.9885859;3.1225936;0.02218266;-3.9187827;0.0008802931;-0.8809786;3.038101;0.030955954;0.390917;-1.4556617;-2.7723384;-3.6099567;0.8374746;1.7537653;1.0073334;0.9607954;0.75806314;3.7313528;2.0130835;1.481339;-0.023445634;0.1640694;-0.5564023;0.0029789854;-2.0863054;-0.74544615;-2.232933;0.33395457;0.04593727;0.17540257;0.949746;-0.2010518;-0.44454485;0.19202612;1.6734666;-0.22579958;-0.05340559;0.028740752;-0.028925491;-0.30622673;-3.6523209;-0.03370672;-0.65900695;-0.02134865;-1.8086535;2.0797355;-0.12714873;-0.80863833;1.6232255;-1.6766429;0.01785148;-0.19560525;-0.11388025;1.6699643;3.5624208;-0.13109565;0.6298891;-2.0457063;-1.0067666;0.8818961;1.8233048;0.34270158;-1.3977742;0.5993084;-1.7834431;1.2219127;-0.4051702;-0.386825;0.27639374;0.055048328;0.058701605;-0.13423069;-0.044278495;-0.1947983;0.63177544;3.0845773;-0.3739828;0.08669604;0.9996684;1.7539691;-0.044039205;-1.1832341;2.856393;-2.0277216;4.919356;0.9002461;0.11767489;1.2641771;0.50411344;-0.028098851;0.9893092;0.61634743;1.1623212;-1.3093762;0.036277447;-1.9660854;-0.31242546;-3.1287239;1.3971261;-3.0595803;0.046524927;0.52495384;1.3694068;-3.2831626;0.72718316;0.031867146;-9.357024;0.27706462;0.0027237185;1.2956395;-0.66359234;-0.0019016616;-1.2400099;0.9838457;2.5829763;0.12720361;-0.0031251328;-1.770154;-2.3835185;-0.011855348;0.017450863;-0.055989783;-0.2084593;-3.0725014;-0.34868592;-2.5023515;-1.116992;0.90926456;1.5766283;-2.0617301;-1.0729753;-0.031686842;-0.016255716;-2.646368;2.3894725;0.060759272;0.02105925;-0.048979536;-2.6762192;0.89647096;-1.1960162;-2.634446;0.0080452375;0.38948065;1.0818714;0.003858497;1.035691;-3.2725267;-0.80850714;-1.5322661;1.5661769;-2.3942113;-2.5425673;-0.7100511;-1.1114239;0.010230287;-0.04001235;0.18146801;-15.186478;-0.018228402;-1.6329424;-4.10256;2.619246;-0.699172;0.09511291;-1.680913;-0.21699509;1.6333145;0.060703475;-3.1093655;-0.029798914;-4.4416533;-0.6763515;-2.891036;1.7080652;-1.7367363;-0.014526017;0.5321297;-1.6917228;-5.419071;0.03635066;-0.10631404;0.114117086;0.61139923;-0.035583213;0.77667993;0.020308496;-0.02251804;0.04891962;0.009575874;0.0461185;0.019549463;0.029303286;2.3138113;-2.8194935;-0.08195897;-3.2397206;0.018803623;-0.24822752;0.062200025;-0.8753296;3.350057;-0.014495012;-1.6817546;0.23267107;-1.8815422;0.053488497;0.012456954;0.47910383;-0.7936346;2.3410769;-0.06912029;0.32895792;-0.24424845;-0.25954777;0.89838284;2.2280753;0.006969917;-0.03630996;2.3485656;-3.0942495;-6.3348947;-0.6942581;1.1724545;0.5194906;-2.3884344;-0.2486565;0.06354226;0.0005691142;-0.011236681;1.4487524;0.07825067;0.05147747;-0.54178655;-1.2023216;-0.7799614;1.1335262;1.1460958;3.2598422;-3.177697;-0.15417911;-2.6112807;1.6555183;-2.1190045;3.3924112;-0.9777183;1.3642178;-0.2916136;0.054587297;-0.06513497;1.6013706;1.3480518;-0.83476055;0.04520785;-0.028328365;-0.0006172381;0.034495857;3.8548646;1.358916;0.9166942;0.019121535;0.65228844;-0.014946867;0.37344742;-3.6723893;-0.5266967;0.058278956;0.23712209;0.03210676;0.0052453154;0.025056213;1.1326606;0.36622927;1.550161;1.8693466;-0.9617523;3.1075501;2.8315117;-0.21842101;-0.0040767645;1.0439122;-0.2052253;0.9812938;3.2438018;6.068736;-2.56844;-14.433021;-1.0870819;0.05604388;1.4336257;0.6906871;1.1168069;-5.417415;0.04103335;-0.06860514;-0.7241959;0.014594699;-6.989836e-05;-2.7526305;2.1947043;-0.8209129;0.58131003;0.022949014;0.047738634;1.9886497;0.036088;0.03421092;-3.8100262;1.3557594;-0.06581487;2.9895632;0.023766706;0.012383784;-0.13116871;-1.3740181;-0.7877405;-1.2863662;-0.024960048;0.06682831;-0.15457869;0.03161222;0.16841206;-0.81825936;-0.23502643;-0.04503853;-1.7660542;-0.44807914;2.7374122;2.14003;-0.009851455;2.6940618;0.39481086;-1.1552379;-0.7852761;2.1819873;-0.015129167;0.5067195;0.05184367;0.0836059;-0.2515896;-0.026307277;0.65212005;-0.14566496;-0.18213715;-5.3025975;1.1107305;-3.959617;4.5265517;-1.2193974;0.024783524;-2.6578355;-0.037704237;5.4691092e-05;-2.7650883;2.3637564;1.4779289;0.811412;-0.07662723;-0.636384;-4.331849;-2.2891586;-0.06327515;1.70151;-0.012713525;-0.008419162;-8.132053;1.4056665;-2.0336275;1.5305164;0.017989114;-0.004582605;0.46807697;0.0055991756;-1.2298384;-0.8367604;-2.1535478;0.04935505;1.4506134;-0.02716228;-2.9330785;0.08208868;-0.024066586;0.06221427;1.4359081;-1.3417183;4.316559;-0.049392655;0.25381008;0.3535687;-2.7099967;1.9322542;-0.16143999;-0.059964363;-0.030674094;-0.7037531;1.7513136;-1.7792962;1.6841623;0.020568483;3.58971;-1.6178726;-1.7330704;-2.5950632;0.62973225;1.9371877;0.026905663;0.9005529;0.028094782;-0.721325;-0.5153197;1.89106;-0.00093712093;-2.4478626;-3.386461;-0.35673812;-0.61226404;2.1936328;0.76801026;1.6295325;-7.4416156;0.0005185591;1.8880732;-2.1857886;0.8506537;0.004339404;0.036979586;-3.1106505;-0.8922592;-0.8281087;-2.6097646;-0.33447355;-0.056090415;-0.86184907
0.7300107;-0.57767683;-0.01562643;-1.0904993;-0.018282503;0.3283696;-1.7137475;-0.031355288;-1.391939;-0.045365766;0.76135004;-0.63274324;-0.02956071;-0.0021210439;-0.14154713;-0.047435906;1.9324543e-06;2.0235882;0.020053618;-4.213722;-0.5260723;-0.5610765;-5.5219355;-1.6466972;-0.098938026;-1.8713564;-0.09100159;2.3306894;-3.823822;-3.9365468;1.3001676;-0.3178864;1.04476;-0.018509833;0.063834436;0.058075104;-0.0657366;-1.414043;1.2407507;1.3836643;-3.2611551;0.15732095;-0.44983584;3.0375054;0.26020515;1.4857882;-0.02171412;-0.34254465;-0.03282961;-0.28210497;-0.035597075;-2.3771594;0.3256933;-2.355783;-1.3993694;0.12272319;-0.11384805;1.5960567;0.11504466;-0.021167595;-0.02864075;0.15294626;0.00969661;0.021974998;-1.7669561;-0.6284947;-0.007249407;-0.029818073;-0.46823993;0.07029267;1.3597844;0.0016306482;1.9600586;-0.33905685;1.1752535;-0.021045242;2.2697678;-1.0521504;-0.029035674;3.0686588;-0.050267212;3.3289297;-0.025038859;1.8671471;3.216137;0.07940743;0.008889789;-3.5596216;0.037035447;-0.036842868;1.2585757;0.13384688;1.0239654;1.1197959;2.5376053;-0.5465596;1.5759896;-2.932547;1.78943;1.0537293;2.0016382;-3.2204628;0.14991634;-3.194577;1.1489135;2.0185575;2.795456;-2.6234689;2.1476557;0.6253308;0.72666067;3.591431;-0.09102272;3.2273629;-4.4335704;0.0031003146;0.0031547486;-0.2276638;0.69921416;-1.6252229;-1.4392495;0.3864543;-3.5283477;1.3770381;-1.23168;3.2658165;0.30179578;1.92199;2.1898437;2.5749187;1.3995007;2.7874172;-0.27312165;0.0073839384;0.7413291;0.011291998;1.7879059;-0.08578348;0.7824801;-4.72036;-0.028594527;-0.2641235;-1.9892217;-2.1265225;1.8952012;-0.017320465;-3.1574626;0.036319863;-0.8007609;3.3277063;-0.024307553;1.5863159;0.499659;-2.5801017;-0.9789899;-2.939589;-1.1024303;-0.7253182;-0.09302958;-0.39726257;0.9018971;-1.7049501;0.9707175;-0.009288485;0.20369615;0.7641009;0.014513835;-1.6819606;-0.75835174;1.4107254;0.11700708;-0.041205678;-1.6522315;0.47378168;2.1490095;-0.66328824;-0.046679154;0.49317697;-0.56904227;0.01122467;0.052576166;-0.0061115855;2.0583837;-1.444518;0.03973585;1.2303257;0.08528153;-0.8644327;0.1635701;0.27877784;-1.2155901;1.8286209;-0.11515884;0.052349336;1.3156159;0.29425177;1.5826287;2.0239384;-3.1819;-0.5169998;-1.7020898;-2.5244904;1.4529766;1.9516926;3.0591087;0.3554146;-0.9690842;-1.986388;0.0860215;1.4021446;0.828583;-0.31883913;-2.7422588;-0.010084554;0.15580417;-0.060947817;2.1186419;-1.4017986;-0.22587809;0.8366041;2.2871308;0.33726048;0.82764685;0.72322744;1.8141512;2.163475;-5.4310193;4.836489;2.0417955;-0.007405775;-0.08030427;0.68295825;0.15226953;1.8649881;0.5506532;1.4894619;-1.2069836;-0.0033025683;-3.0855987;0.3596724;-4.7618065;1.0676785;-0.40849963;-0.039751086;2.4402995;-0.29507437;2.0031981;-0.22800502;-0.0625824;-9.763668;-0.8231187;0.21232201;0.94882977;0.27748498;-0.04761653;-1.0372003;-0.5772313;1.1596117;0.15155992;0.41502184;-1.4033759;-0.4619458;0.03062081;-0.040838502;-0.07323103;0.2667239;-1.3223875;-0.3277277;-3.987103;-0.8329449;0.7354457;0.1198563;-1.1413248;1.9412494;0.52017117;-0.017326964;-2.4299047;0.7177944;0.008477314;-0.058427732;-0.015480914;1.5922402;-0.305983;3.385846;-2.7763472;3.0446231;-0.14132245;-1.8061919;-0.023203785;0.16476431;1.1136315;-0.3977665;-0.22447519;1.41649;-5.6513195;0.66630536;0.38172925;-1.1650845;0.025956564;0.6497912;3.257195;-14.735977;-0.0018176584;0.92971593;-1.964543;1.3676873;-0.40516487;-0.04644581;-4.4919076;-1.5252688;2.1703284;-0.013190845;-3.2594833;0.07325391;1.2113893;0.18979335;-1.5606297;1.8227762;-0.117545165;-0.03681981;0.3980491;1.972327;-5.133927;-0.0052105435;0.6663717;0.6033074;0.064662926;-0.0026410318;0.48589805;-0.0342697;-0.00548488;-0.0065499507;-0.017149942;-0.03767701;1.0490599;-0.015254342;2.1274002;-3.2296047;0.7751805;-1.4051095;-0.025282398;-1.7063721;-0.027656931;0.886413;2.7301638;-0.51329225;-2.3560808;-0.3456676;-4.093965;0.0027347305;-0.011952732;-1.3714476;-0.43205935;2.5759053;0.027300464;2.5682232;-1.2148365;-1.4168434;1.5015312;1.8485425;-0.0506548;-0.031316057;1.705008;-0.065882295;-4.652962;-0.24474798;1.1960657;-0.6822697;-1.2610096;0.4802406;-0.022908818;-0.08190233;0.008312065;1.2827688;-5.9348383;0.007840137;-1.3726228;-1.1496642;-0.9509841;2.963166;-0.2000011;0.3710974;-2.7241106;-0.22193734;-2.7995625;2.1470795;-1.7114068;2.3625233;1.047773;0.57055736;1.2669233;0.020363344;-0.028985515;-0.21436925;-2.2233272;0.6209322;0.004479543;-0.014215709;-0.013290044;-0.053658992;3.914451;0.659336;0.65521425;-0.015902922;1.1664081;-0.029681753;-1.1044763;0.7259407;-2.7887106;-0.0033362478;1.4074517;1.7228518;-1.6185852;0.0152908405;0.65274835;1.6761918;0.45452592;1.6242453;-2.9959095;2.919525;1.3835415;-1.8773365;-0.0757402;-1.8598207;-0.83015966;-1.4690049;-5.9269476;3.519683;-0.84792995;-15.145222;2.9316049;-2.39421;0.7888627;-0.030210398;-0.01080764;-2.2519505;-0.01712602;-0.112576105;-2.6584926;-0.020644715;-0.05202073;0.053351395;0.85993236;-5.078433;0.99178576;0.014429084;-0.0027374995;3.7387602;0.030187344;0.024483647;-4.9111695;4.192927;-0.09401585;4.179963;-0.02211791;0.062022988;1.0665116;-1.8236078;-2.6286123;-0.2684602;1.3623397;-0.033953246;-1.0142136;0.027027652;0.0036715958;-0.5223287;1.5564622;-0.021932807;-6.3177557;2.5695627;1.9947845;-0.8615316;-0.017100293;2.8695755;0.99957764;0.67437106;1.1718942;0.49745342;0.026281858;-1.1327355;0.0066487007;0.1422071;-0.041461337;-0.046191305;1.146841;2.4810507;1.6241907;-2.4958057;0.6198725;-1.5868707;2.4585607;0.13071527;-0.0058651986;-0.6117409;0.02826743;-0.013832479;-1.0972353;1.457244;1.487816;-3.4664042;0.04591227;1.7375965;-3.210468;-4.077213;-0.026728729;2.2591302;-0.014808932;-0.024499107;-8.509387;1.0883919;-1.7297008;0.3952788;0.008045249;-0.02323502;-1.738441;-0.013916815;-2.9745917;-1.017622;-2.4025223;-0.026107775;0.95993125;-0.018643634;-3.3737636;-0.7337966;-0.09473087;0.010509689;3.5314758;-0.65452677;1.7033843;0.0120649375;0.40149498;-1.3183795;-1.4064623;0.17194761;0.1223495;0.035981297;-0.00837559;2.97393;0.4339746;-0.49375477;0.44459185;-0.0028344344;2.0692792;-2.019086;-2.3733861;1.4595523;-0.122954555;0.48888907;0.030366385;0.444516;0.0126508195;0.03825457;0.71561474;1.2844787;-0.0767732;-0.047287505;-3.7760773;-2.4548485;0.09082872;1.4395337;0.9042707;0.7720601;-5.3395004;-0.027370919;0.40422627;-1.1552131;1.2951058;0.0047101807;0.009671978;0.6752769;0.5496557;-1.0315579;-3.501083;0.26563716;0.0051783207;0.75271225
-1.1212555;1.0840427;-0.036581106;-0.125883;-0.0062742205;2.030051;-2.5411658;0.023198191;-3.4838128;0.024305386;1.0689303;0.35655245;0.0423665;0.021374002;-0.48567522;0.008038536;-0.018199135;4.032896;-2.4665709;-3.571379;-0.4282967;-0.95969844;-5.784021;-0.5567059;0.6026136;3.1348093;-0.024119517;1.780624;0.04795738;-4.3952894;0.98177415;-3.435528;2.6506112;-0.039620023;0.02434641;-0.04761681;-0.09074847;-0.5119101;1.0499316;0.46307942;-5.2752233;0.47092625;2.0636947;-2.347029;0.8974796;0.8024933;-0.06841151;-0.17589308;-0.017498057;0.48344567;-0.07379961;-3.2009099;-1.8301309;-2.7378345;0.92046666;-0.09379414;-1.0413282;-1.749987;0.36270565;-0.016194604;-0.014930958;0.9567616;-0.0592129;0.01846593;-3.1283708;0.112843916;-0.022870183;-0.0032388514;-0.6121011;-0.017426493;-1.9907011;0.008803579;1.8827916;-0.89019126;-0.23617615;-0.027382234;-0.71606445;-1.3003243;0.0029446504;2.8275137;-0.04723467;-1.4351087;0.0016545968;0.15196231;2.0621235;0.87502456;-0.04324975;-0.15756056;-0.031061623;-0.13084161;1.7862166;-0.020323718;1.9379525;2.6835272;0.45638135;-1.9195745;-2.162394;-1.0879772;3.1238089;-1.110921;-0.13688472;-1.5806634;0.8442187;-1.3524541;1.6989523;1.4790486;2.7965698;0.36088017;1.992519;-0.31630263;2.3841953;1.5454351;0.5653005;4.513704;-1.4119676;-0.054386877;-0.039567005;1.0394169;1.1556286;-0.55508643;-1.96582;2.044623;-2.4121704;-0.7801947;-0.48613784;4.3745413;-0.72627187;2.3961961;2.19077;1.6918387;1.3462304;2.1603086;-1.4036064;-0.009280733;1.2273278;-0.028625896;1.7058208;-0.13810115;-0.46811846;0.05409573;0.7720148;0.33725715;-0.23075189;-1.1630694;1.7494032;-0.049227312;0.21640377;-0.026188703;1.2481148;2.876171;0.031877458;0.064506315;0.24350935;-2.1536617;1.9118873;-2.8154204;-0.6239251;-1.1016359;-0.16841543;1.1897595;2.2213082;-3.6588314;1.9530228;-0.0046173735;-0.275278;2.5025687;-0.027701002;-0.43547392;1.3018641;-1.0356574;-1.0445495;-0.023053508;-1.805466;-0.27201307;0.7241324;0.23917434;-0.08317384;1.3025968;1.7962195;-0.028972246;0.057962555;-0.018647086;2.368093;2.656336;-0.023920104;-2.8979857;-0.07820189;-0.65878314;1.0427969;-0.23339336;-1.7673043;1.74773;1.2361457;-0.018995259;-3.84985;0.5871116;1.2772478;3.216601;-0.11776558;0.050582353;-2.0264502;0.35896385;0.37745163;0.23764955;5.13358;-0.7155238;-1.2259061;-0.9869031;-0.5090053;0.18401079;0.008380689;-1.3553224;0.63177115;0.016966376;0.0063740746;0.6093697;2.3400376;-1.5510824;0.7483099;0.45323834;2.9499924;0.05407324;2.7572834;-0.22410356;2.1381829;2.0827272;-0.8474905;4.479898;2.825573;-0.042217243;-0.5646282;2.0318363;0.257347;-0.7920771;2.0391018;1.2336866;-1.3128575;-0.021075532;0.49093693;-1.8957448;-2.3865767;2.207904;4.9611254;-0.04879833;-1.4896624;1.3275933;-0.02992088;-0.47294238;-0.030693624;-9.492349;-1.2323403;-0.03543565;0.56137455;3.3335235;-0.042951744;-1.2675855;-2.7586606;2.5882206;0.31250563;-0.10634538;-1.7734083;0.3982276;-0.055576332;-0.02575808;0.20139937;-0.057033014;-2.8603296;0.998394;-6.02817;-1.2430636;-1.0369759;-0.23684765;-1.6402264;-0.7971833;-0.11024011;-0.03243526;-2.961502;0.7922798;-0.06026106;-0.051705558;0.006340447;0.70528185;-2.7943401;5.210563;-3.4688377;3.1030521;-0.05521894;0.7606724;-0.011997234;3.1289403;1.4614136;-0.6653196;-2.4501903;-2.3469234;-3.5474737;1.1882218;-0.26033458;-0.9309536;-0.031684123;-0.19531955;0.6363876;-14.533833;-0.0038079913;-0.968276;-3.0678537;1.764668;-0.6305239;-0.04128559;-4.0633674;2.382323;2.0840344;-0.0006545407;-3.284725;-0.020202406;-0.14922492;0.043722842;-0.97691613;-1.7031951;-1.1664013;-0.07529246;0.37696078;3.5020998;-7.3977256;-0.084203355;-0.28848752;0.44793668;-1.5532333;-0.004913401;-0.027828798;-0.038464695;-0.02392148;-0.030812357;-0.0035093504;-0.012727236;-1.4573389;-0.0012724285;1.8004544;0.5759809;-1.1786112;2.712935;0.033199277;-0.8601319;-0.012658373;2.3457203;1.538731;-1.9250318;-1.8408624;-0.54953015;-2.4957995;0.0076169684;-0.026821593;-0.13423905;0.654865;2.5775807;-0.018739376;0.098073535;-1.3609788;-4.6066484;0.66987664;2.1624715;-0.037751243;-0.07435983;-2.1064205;0.51033115;-3.9281797;0.31873503;1.5246278;-1.9393876;0.7939853;-0.6138436;0.17049117;0.024871819;-0.015740678;-0.8567031;-7.6946797;-0.015247608;-2.5405943;1.5979483;-0.22055829;4.129151;3.521668;1.1029365;-2.3428392;-0.51998204;-1.3288913;3.3269358;0.88865036;2.6214023;0.3171992;-2.2656214;-2.11739;-0.010715206;-0.057215743;-0.09200493;0.15827245;-0.9185987;-0.010313808;0.0023396136;-0.038260907;-0.019517275;3.1738226;1.359035;-4.1892004;0.007347663;2.9078662;0.020309595;-1.0103394;1.5169606;-0.87966627;-0.02099295;-0.50046223;0.7706503;1.450716;0.04571181;-1.9083697;2.0290308;-1.5258635;2.0706522;-3.8005426;1.8814551;-0.8738414;1.0715481;0.048356794;0.07514401;-0.34845635;-0.13828652;-6.0353208;2.901789;0.14489356;-16.240898;0.6670323;-3.6763575;0.8153137;-0.24550223;0.15378022;0.1964121;-0.07182086;0.19231588;-0.82764316;0.024327109;0.011718054;-2.201018;1.146624;-4.9058156;-0.71130615;0.029912807;-0.035513766;3.6811109;-0.0589514;0.014487666;-5.0840373;0.9401815;-0.062056947;0.11810245;0.017085817;0.011220545;-2.767091;-0.60418737;-1.2167938;-0.72953594;0.33285695;0.003729979;-1.6621141;-0.0019866198;0.016389852;-0.84075296;3.3749232;0.01754316;-6.885573;1.7584993;0.0998839;-0.18626577;-0.0489203;3.6383004;-1.2730261;1.8560439;-0.81814194;2.1932588;-0.0075620385;0.21540554;-0.009398314;-0.11634353;0.14558673;0.70337284;-0.7220439;-0.993336;0.35886496;-4.68884;-0.17741686;-3.823983;0.39374623;-0.26432124;-0.016027682;1.414446;-0.0069578714;0.12160347;-0.39094013;1.2701055;1.9327106;-2.203655;-0.03621076;-0.7770171;-1.0008758;-3.1548474;-0.010039211;1.5915118;0.02079337;-0.13143937;-8.2958975;3.6202037;0.10870672;2.517299;0.043400865;-0.023576818;0.8185429;-0.07225588;-3.4425633;-2.6884956;-2.4653873;-0.029775077;3.5084398;-0.0643708;-4.2586823;-1.4410994;-0.015440245;-0.034529;1.367358;3.1045508;1.4422617;-0.052956633;-0.45595896;-0.006605739;-0.16805618;-0.105521195;0.28410116;-0.05756158;0.024553047;1.3526765;1.9869965;0.33057293;1.9113679;0.0023132248;-3.9636853;0.7683037;1.5712188;-0.27659047;-0.025132593;1.9673351;0.010510392;0.30179432;0.020958208;-1.9289712;1.3220341;0.4580933;-0.09479776;-0.5639253;-0.20047572;0.77647084;-0.6453603;1.597071;-0.077292174;-0.08369357;-5.353341;0.0150514515;-0.046631787;-0.35636005;-1.0802706;-0.008881313;-0.010900924;-0.38643554;0.07379264;0.1381422;1.2160722;1.3377956;-0.12530816;0.4911064
0.39673832;0.9353649;0.015583726;2.0957456;-0.051568456;2.1606767;-0.4774239;0.04908678;-0.7694093;0.008850902;1.985923;0.38714007;-0.010703816;0.025137197;0.7162069;-0.015198594;0.0028453858;3.2376823;0.1647527;-0.92656136;0.8989877;-0.57163644;-5.346546;2.579481;-0.11974687;1.4858276;-0.005407073;1.1631696;2.0980098;-3.8623817;0.8664348;-2.362221;1.239241;0.044182695;-0.0034259178;0.020914935;0.022441465;1.0574176;2.8662395;1.6661674;-0.64651203;-0.06573336;3.1857808;-0.13063596;-1.3795637;-0.29053238;-0.01164909;0.01814975;0.09569466;0.7739596;0.002567745;-3.328411;-0.5051181;-2.6030376;-1.5124348;0.02970476;-5.2340345;2.086598;0.32090458;-0.052964453;0.08087939;-1.5142821;-0.07252709;0.0012859779;-1.9161261;-0.19210222;0.024915565;-0.07617908;-0.55202615;0.6970787;2.6251502;0.014912714;4.0070477;0.008276892;0.34497678;0.035362624;0.21838626;-0.5666699;-0.030137489;3.2727325;0.0078018606;-2.7916074;0.005359999;1.0036973;3.8852813;1.2124892;-0.042623207;-2.624935;0.03695687;0.98408943;0.8174705;0.009563506;0.03401446;1.501375;-0.3581152;0.29054222;0.7011764;0.06721398;3.1899154;-0.55845594;-1.4486431;0.9196244;1.4379989;-1.6601094;0.3057316;1.4890639;3.2624493;1.3844832;-0.21453182;0.5414538;3.7444253;0.37422702;0.5459012;4.0084925;-1.869135;-0.0029410424;-0.029679557;1.847246;0.4439674;-2.3196433;-1.2795997;2.0512044;-0.65014637;-1.7284436;-0.39843276;4.079675;-1.3230386;2.612635;1.8474298;2.0044942;2.1314564;3.6994328;-0.47341913;0.02533934;0.7667874;-0.014668191;1.6147479;-0.06452026;1.8390929;-1.0779684;-0.16926928;-4.430645;0.29188132;-1.1776041;-0.2146296;0.034538656;0.49019107;-0.015594924;0.63686895;0.6385725;-0.0021870597;0.29609993;0.48489267;-2.6056936;2.499837;-4.335182;0.91538054;-1.938938;0.019203518;2.120091;0.6457061;-2.4898345;1.7312788;-0.027037561;-0.168576;-3.4997613;-0.010111065;0.09643524;-3.6389244;-1.934065;0.017875565;0.028455105;-0.7690996;0.93809134;-0.49382478;0.17487718;-0.17385197;0.8355515;0.10210651;0.45017236;-0.020273052;0.014180752;-0.4249746;0.8046559;-0.0024419115;-0.7585498;-0.028643828;1.1899432;1.9579291;-0.026032092;0.6772044;1.3722769;-1.6278262;0.031668663;-0.8702926;0.43857893;2.7652931;2.6655414;-1.6577921;1.7516465;0.7705025;-1.654582;-0.82168525;-0.1986384;0.9287164;-0.35871345;0.15567175;0.12565263;2.9661388;1.6860503;2.1440988;1.8439846;-1.4752336;-0.032419104;-0.0848644;-0.15248866;0.9329267;1.0657172;-2.39066;1.2678875;2.8976643;-0.051022083;3.4135456;-0.04871761;1.1053708;0.7727545;-0.63119215;4.305844;4.571819;0.027918218;-0.8866932;1.9001999;-2.4899344;1.4099953;0.3439289;-0.90912634;-1.1748275;0.014266623;-4.9482856;-0.82095164;-5.218289;0.029510463;2.4919515;-0.0008496816;-2.8593886;-0.3071723;-0.5230875;-0.47299582;0.0066917366;-9.348666;-0.37147236;0.0074825617;-0.75733995;0.86829275;-0.01410685;-1.1500419;0.2618773;3.458193;-0.095996976;0.012697754;-1.2442709;-0.86151135;0.037075963;0.042413548;-0.15697816;-0.15094818;-4.7796755;1.3264767;-2.9424498;-1.2327614;-1.2138944;0.18210553;-4.864925;-1.1518261;0.017418213;0.03625544;0.3646169;1.3139716;0.059042092;-0.0009288069;0.009785648;2.350792;-0.62192196;0.0067878696;0.22541304;2.7549663;-0.011079763;-2.3284936;0.021480272;1.8006229;1.6347768;-0.56213593;-1.2004257;-4.0087523;2.1007285;-1.9902062;0.7192279;-1.4508852;-0.035672512;-0.07569098;1.7022163;-15.552824;-0.013436946;0.44733715;-8.756982;-0.12876625;-0.78255475;0.15896894;-6.3428183;1.9524101;0.41639158;-0.009184999;0.27471197;-0.006350079;0.36839023;-1.8760425;-1.8677393;-4.4183397;-0.10837735;0.8524707;-1.6857996;0.11772381;-3.2398298;-0.030867375;-0.013805322;-0.55370873;-1.4694456;0.017239194;-2.465721;-0.030018536;0.012502914;-0.0062946817;-0.015786825;0.04665622;-0.60247505;-0.032476116;1.2587978;0.77815294;1.9850415;0.9492678;-0.012197263;-0.26427862;0.043276872;0.2172232;0.5073932;2.1301944;-3.697525;2.215145;-2.8017676;0.018420136;-0.020381201;0.046249982;0.09496389;3.0977933;-0.0347899;-2.2096372;-1.2509509;-1.1394253;-0.3941758;1.9765253;-0.054423608;-0.0076349713;-0.29784542;-1.8180373;-4.2317877;-0.70629406;-1.7753054;-1.3077799;-2.1760063;-1.4423435;-0.033844244;-0.017787341;-0.0044232393;3.415784;-6.327982;-0.013188008;-1.5782299;0.041234512;2.2277193;1.1283971;-1.7220606;0.37317014;-0.04100623;1.6116824;0.4904939;2.9045236;1.7763968;2.1852934;-2.7819438;-0.91564244;-0.44813934;0.016031168;0.02213391;0.074365065;-1.649585;1.2034099;-0.0035655925;-0.0060435226;0.023584783;-0.022024006;1.2344697;-2.620477;-0.22164638;-0.02151373;0.31250036;-0.032385502;0.66684765;3.8173082;-1.1014622;0.02760005;0.13977876;-2.121158;-0.3880088;-0.016075721;-0.8931917;1.787611;-4.824153;2.995481;-3.5621855;3.2734256;0.20770572;0.065405525;0.1176542;2.1292484;-0.5906366;1.5575869;-4.8407373;3.8157716;-0.2787263;-16.515688;-0.09606444;-5.907332;0.60799795;0.7126653;2.2815633;-1.5982027;0.062573746;0.13959183;-2.2443178;0.009683555;-0.06614218;0.43929815;0.35713452;-0.34016466;-1.164522;-0.018599914;0.055681553;3.4138777;0.018164055;0.0037218474;-2.969048;3.4944656;0.039069027;0.486377;-0.0050685694;-0.07605988;-3.2767437;-2.259252;-0.91007364;-3.5438914;0.4777481;-0.01409359;0.39804062;-0.026143309;0.00016043353;-0.74965876;1.2027541;-0.030652132;-4.3720098;2.7968228;0.07921726;-0.9676476;0.025818216;2.339128;1.8199507;-0.9858493;-0.07437045;2.7133987;0.016631043;-1.0566941;0.01458731;-0.1231957;-0.17801447;-0.059025917;2.1889954;0.20326087;2.237578;-1.0525419;-0.18034534;-2.5281026;3.035928;2.2515452;-0.0015181552;2.9088893;-0.021058163;-0.006417715;-1.7830224;1.1631985;2.0229316;-0.23988305;0.1430538;-0.26132455;1.594444;-3.5126064;0.015893105;3.544458;-0.021274319;0.18102035;-8.852905;0.8967114;-1.0856568;0.90185356;-0.016578436;-0.10753621;0.8574854;0.015886547;-5.0236;-0.4301516;-1.2357563;0.0013791138;-0.22277105;0.06097584;-3.6498003;1.4689244;-0.0044313804;0.026077714;0.6975041;0.83267444;0.6274799;0.031073306;-1.8485126;1.7602524;0.122579694;-0.64550155;-0.16823414;-0.011947173;-0.05403172;1.1866019;1.4438865;1.8088895;3.0491803;-0.0017380732;-2.7685955;2.2584143;1.4003009;0.3119426;0.6885988;-0.28813103;0.062288873;0.015889423;0.0075126025;-3.1892097;1.1480191;1.2671583;0.6387889;-1.4164454;-1.661955;-1.7223008;1.3794514;2.0232897;0.9672179;-1.0148877;-2.9806204;0.023866719;0.08238408;-2.0355034;0.7773958;0.006054844;-0.048098512;1.6291027;3.573258;0.23482707;3.396217;-0.0975104;0.7901146;-2.7147768
-1.9374065;2.5062354;-0.039218247;0.9671626;0.00975959;0.8888817;-2.1908283;-0.017390903;-0.99217135;-0.009674397;0.010607686;1.5374848;-0.0037263648;0.03350966;0.2413823;0.0048258035;0.017859342;-0.25441077;3.3814268;-0.562382;2.3585472;-2.6405277;-5.191897;-3.127338;-0.015965302;0.97494197;0.010096565;3.383398;-0.20118253;-2.8564215;0.12117043;-0.7084121;1.8265098;-0.012640257;0.024369286;0.00037975196;0.01754641;-0.4785394;1.5836258;-0.5207729;-0.96712524;-0.1634348;1.3047998;-3.039628;0.19746995;-0.2229794;0.008045977;0.15593922;0.04187549;-0.14734457;-0.0022702008;-0.8247164;1.6768062;-2.3396134;1.7498379;0.001771668;-2.6349027;0.20601298;0.13106118;0.5703809;0.019158028;-0.9427674;0.80644876;0.031298555;-2.4815671;0.15178367;-0.0058346945;-0.20364778;1.3942217;-0.14825606;1.5336595;0.010347654;2.445688;-0.088451244;0.3379688;0.023095418;1.3309714;-0.5905282;-0.024517128;1.0738282;0.050440725;-1.1973467;0.029795656;1.6164739;-0.74931395;2.4557488;0.0054340153;-1.040484;0.029875694;-0.13731402;-2.9664588;-0.047794253;-0.2845952;-0.90913457;-0.22597808;0.1679198;0.6649035;1.4881016;-0.5512568;-2.7170582;-3.2949595;1.0903095;-0.90612286;-4.035132;1.4034851;-0.35428894;3.5769863;1.7970449;0.77628225;-0.98052424;1.2157177;-2.291446;-0.24311051;2.5854268;1.0725632;-0.038559403;0.01047108;-2.6351135;2.5737164;-0.7163607;-2.821881;0.13310575;-1.4969096;0.7710413;2.3673675;3.0609324;0.7530107;0.91361266;1.7413336;3.993223;-0.4978164;0.20780207;1.5084755;0.023175;-1.2515692;0.008127105;1.9647255;-0.00494509;-0.3580645;0.019151457;0.10105851;-1.4873022;0.5593076;-1.0632485;-3.2257028;-0.07990289;-2.8237765;-0.03314224;-0.24711818;0.7190539;0.013094541;2.5411537;-0.9821887;-2.2995164;3.2718234;-2.272761;-0.6137318;-4.374798;-0.08396186;2.3709512;-0.29935455;-1.1667439;3.0290158;-0.008253416;0.31212753;0.14461957;0.007652429;-0.33895105;-2.855875;1.9955468;-0.97450536;-0.0021451951;-1.489219;-0.050827812;-2.071427;2.529932;-0.050484255;2.5938468;-0.27384627;-0.041408215;0.008655187;0.21332133;-0.51462066;0.109598875;0.05872835;-1.8161646;0.009645176;2.5467548;-3.2608478;-0.043531045;0.6100359;0.1603246;-0.79158264;-0.023198636;-1.839065;1.5472857;5.7217655;1.512813;-0.30735907;1.0796824;1.2704152;0.3000018;3.3310814;0.3357064;1.8878506;-0.97363657;-2.6732793;-0.9831882;-2.468417;2.1198008;0.35861844;1.808384;0.6138103;0.07292546;-0.055060677;-0.021514958;2.0407908;-2.6954968;1.5852406;0.34955308;0.5591552;1.8594881;2.0493746;-0.016717855;0.4687901;2.892505;0.39586732;3.0978727;0.16533072;-0.014204783;-2.6025653;1.6056035;1.3856827;0.71228755;-2.549384;2.391216;-0.8862199;0.0026407756;-3.3138914;-0.0844662;-3.2399378;-0.18683334;-0.5611262;0.017139515;-3.022271;0.78392786;1.2593263;-0.8427018;-0.04326996;-8.821103;-1.2419202;-0.0035046255;1.268145;1.665516;0.03093355;-0.94969165;0.5775395;2.9983046;-0.08103368;0.01301959;2.9010122;3.5964105;-0.044369508;-0.026023472;0.23902261;-0.8257377;-0.9597028;0.17549266;-3.6887746;-1.0512749;-2.4670174;0.2892998;-0.003755237;0.48826307;-0.05426139;0.025389753;1.7129565;-0.70404965;-0.023419185;-0.116315305;0.062443845;-0.9225048;-0.27953133;-0.78914356;0.30225548;-1.2650524;-0.023089169;0.16979425;-0.019913854;0.57492006;3.4931455;-0.077277124;-2.1302927;-1.4139838;1.2376945;-1.6221792;0.10834742;-0.74187905;0.0067163813;-0.010157664;1.6274672;-14.003908;-0.01104585;1.1737784;-6.6752877;-0.6126071;-0.21105082;-0.11173927;-4.776755;0.8720507;0.85510135;0.024325302;-0.025022587;0.017855085;1.5310434;-0.21564798;-1.3806239;-2.2974005;-0.10222587;-0.14639151;-4.3939624;-0.72583;-4.6923976;-0.01906294;-0.038000647;-2.1598399;2.8246822;0.011827459;-3.4707158;0.079138435;0.0012124352;0.022989726;-0.005316262;-0.047779277;-0.7913891;-0.010349787;-0.13317785;-0.3400833;0.93999845;-2.7611613;0.050143495;-2.5026104;-0.01847824;-1.8764875;0.24188976;4.6819124;-2.1613526;1.2998998;-4.091284;0.0134131955;-0.009331908;0.65301013;-0.91570693;0.64213806;-0.033693068;0.28378016;-0.7243541;-6.221808;0.9116956;1.7787613;0.13600442;0.7873022;0.891469;-0.5912419;-2.6058667;1.5561146;-0.25554404;-2.2309396;-3.453194;3.6141498;-0.029526105;0.019985704;-0.039631426;1.0508764;-6.8457074;0.09785867;0.17103097;-0.12876914;2.0607636;4.9150534;-4.330262;0.514464;1.2265211;1.3111092;-1.0818951;1.0046633;-0.34225228;1.8531922;2.5559332;-3.2123227;1.034865;0.022990877;-0.0024234797;-3.3226724;0.3058793;2.589556;0.022973208;0.060921647;0.009155467;-0.004947441;-0.7135985;-0.08692408;-6.4448986;-0.021385796;-0.23304582;0.037253786;-0.4216513;4.0838537;0.8352935;0.008049005;1.6691903;-3.3930633;3.1682162;-0.031605948;-2.1137915;0.69582325;-4.154643;1.5391287;-3.6818821;3.420299;-0.42325625;2.5408533;-0.14397068;1.572789;0.44237757;1.6312739;-3.4412167;0.4811627;-0.5538502;-17.240536;-1.2991836;-3.527179;-0.285377;-0.32717124;0.6056745;2.4819186;0.04712543;-0.12296;-1.5204606;0.051498353;0.014828986;-1.6960722;-0.30907533;1.0396187;-1.6801726;-0.074513964;0.026056038;2.5083473;-0.027216595;0.010526116;-3.6039498;1.6010857;0.017514022;0.9194606;0.017351829;-0.014667238;-1.3375119;-0.31095713;1.9135866;-2.2620358;-0.029062754;-0.011899242;1.6088667;0.02575875;0.04822044;-0.7295642;-0.41477987;0.0059839417;-3.1538234;1.1026062;2.8106873;-1.102071;0.015950296;2.319596;2.089665;1.1760387;-0.77574027;1.1339849;-0.021628575;0.16858827;0.014471326;0.06599185;0.4108878;-0.034944676;2.5484865;-3.137126;1.8856016;-0.7171728;0.08973345;-0.5618499;0.51767284;-4.493551;-0.049994387;1.4011753;-0.018403538;0.00066069874;-4.749844;1.4964412;1.8432883;0.3635238;-0.057471775;-0.46550965;1.7624463;-4.3522134;0.002784223;-0.79943705;-0.0014550257;0.25322956;-8.801394;-0.15026279;0.28982806;-1.3404701;0.01913506;0.16306888;0.7767808;-0.05620079;-4.586942;-0.50908655;0.6864052;-0.030256076;-0.48398677;-0.015073461;-0.1980515;3.491126;0.07080611;0.007007127;-0.9246393;1.0847058;1.6250241;0.06882538;-0.053497255;-0.6286582;-1.7923422;-2.4552052;-0.24456726;0.0446745;0.018886;1.4802731;2.7224746;0.2529695;1.7448206;-0.023111597;-4.0884194;-0.19318046;1.6906407;1.6756101;-2.4575403;0.81766766;0.01758916;-3.3191597;-0.019347036;-5.4070334;0.14342605;0.08770679;-0.013919386;-2.4616153;-0.41256958;-1.4130127;-1.7452378;-0.83638614;4.406244;-0.62129515;-1.0481857;0.010884662;0.2478331;-0.7399015;0.8046821;0.019652804;0.046495598;0.94990253;0.4023217;-2.022362;1.6991497;-0.7403355;-0.15267217;-2.508996
-1.092276;-1.8668467;0.04656817;1.0474398;0.52514774;1.8294432;-2.4214177;-0.008288717;-1.6368347;0.038093776;0.5009649;0.6105851;-0.037402585;0.019090906;-2.2961073;-0.051579382;-0.017005272;1.0295653;-2.5506542;-0.89262176;0.18943374;0.89944065;-5.723456;-5.05822;-0.073437266;2.4435337;-0.03549955;1.1627979;-3.615972;-0.8077284;2.7686234;-2.4551437;3.2693374;-0.029714067;-0.014239561;-0.022725672;-0.023532344;2.6439679;-1.6717739;0.93999255;-4.2221923;-0.20174854;-0.6278918;-1.7194709;-0.31901208;1.3363757;-0.03825496;-0.25615266;-0.078844644;1.4609098;0.018867152;-1.7262493;0.9359215;-2.7397833;-0.40313616;-0.0045454125;-2.5874903;1.327102;0.37142155;-0.091915146;0.014430525;-0.7607812;-0.20482396;-0.0014737466;-0.275075;-0.05331172;0.0573577;-0.019693308;-0.96158206;-0.13407354;-0.25438783;0.0064569465;-1.1839495;1.0544279;0.24233365;-0.021884345;2.014904;-0.5867892;-0.054638278;1.4591687;-0.08357066;-0.245438;0.023669982;0.96669275;0.24983007;0.26519427;-0.007110528;0.32842276;-0.040426377;-0.14243627;-0.02775645;0.036439847;0.6983667;0.5882254;1.0072426;2.190833;-1.6051489;-1.7394422;3.3364162;-2.4018939;-1.7107551;1.8816473;-0.5398536;-3.6067705;0.6807339;1.0020415;3.722748;-2.0982413;0.7610225;2.2730193;1.316006;-1.3397561;-0.028902592;0.20806831;2.5180552;0.09732277;0.04719754;0.8588726;-1.7408236;0.6419272;-1.221281;0.87508255;-1.4314928;-1.4382132;0.7839219;3.6252444;0.8614418;-1.7889872;3.3227394;3.5617113;-2.9244897;-0.25815126;0.22022833;0.005240373;-1.7070795;0.009574689;1.1119779;-0.029874707;-0.018853612;1.552466;-0.07997601;-1.5447116;2.6264045;-3.7123766;-2.8527834;-0.05950623;-2.729501;0.017062688;-0.38011637;1.549152;-0.053321958;2.5970075;-0.7676632;-3.208387;2.708711;2.112286;1.3031647;-4.2784495;-0.023322811;2.3820753;3.496468;0.5680145;0.6832786;0.041496646;0.0989322;2.2824903;-0.13480373;0.21462475;-2.157913;-0.39081;-0.36912936;-0.010718159;2.074871;-0.1310998;-3.7900372;2.3922226;-0.23132935;2.9543571;-0.41762555;0.008547937;0.037279014;-0.060397547;-2.7372859;-0.52421546;0.061744153;-1.405694;-0.0049879854;-0.6287866;-2.448351;0.050783724;-2.4387136;-0.6444012;-1.7064539;0.0065997317;2.7503858;-1.75503;-2.827876;2.273196;-0.35882753;1.0638834;1.6006651;-0.5133231;2.313334;-0.27619833;0.9850286;-1.9985858;-0.17781138;-1.9978013;2.7882755;-2.3261025;0.765226;-1.4635193;-2.4352193;0.053138185;0.0055652093;-0.016253542;-0.31991842;-0.89629626;1.4770725;-0.35068384;-0.2872047;2.939649;1.9296895;-0.002450723;-2.0583472;0.76514876;-2.009971;2.033989;1.7083516;-0.019478338;-0.13194071;1.4347204;-0.70306915;0.20539144;-3.2708545;-0.7433864;-1.3404458;-0.0004588799;0.2568169;-2.3366442;-4.3456182;0.5212944;0.17322125;0.00044841264;-1.0418648;1.892566;1.828108;-1.1069208;0.026961703;-9.01453;0.739213;-0.032056972;-1.8987681;1.427692;0.008530019;-1.33348;-1.5268303;2.8443537;0.15455183;0.0048028226;1.704757;2.9251127;-0.010011408;-0.029180098;-0.07739948;0.19465236;-2.646345;0.012004022;-5.9119563;-1.1992066;-6.262578;0.9223526;2.154354;-0.7871032;0.079342306;-0.011154726;-0.5940287;-0.39222434;0.05878969;-0.092269026;-0.005205354;-3.6924956;2.065017;-0.15278259;0.25815687;-0.16530403;-0.014171206;-1.2404796;-0.034639258;1.3730236;4.8893085;-0.59738517;0.60495555;-2.1933804;0.45475692;-2.9819727;1.3464411;-0.6143032;0.065137595;0.021698542;-0.9059653;-14.657947;-0.017407719;-2.8855975;-6.5053577;1.7070239;-0.7118358;-0.06031085;1.0069743;1.1006888;-3.199535;-0.018055351;0.014317091;0.002531137;0.3458531;-1.6677817;0.26355052;0.81909984;1.0120834;-0.04306816;-2.190953;0.47639903;-5.5488477;-0.069138035;0.02357691;0.416866;0.12240295;0.008855026;0.55321276;-0.008455846;0.012491161;-0.024087233;-0.017686078;-0.0041293106;-0.7864938;0.025154375;1.1104295;1.9206824;0.7501837;-3.5366523;0.008261506;-0.7596201;0.042234857;-2.527667;0.009560265;0.9401664;-3.5721045;0.8698138;-6.165279;0.026577055;-0.042403884;0.821035;1.9470444;1.483923;0.034207124;-4.045471;-0.83143866;-3.3365245;-1.9903811;2.143773;0.11480177;-0.1287065;-1.4361188;-0.61332136;-2.8341727;2.5340655;0.43116158;-1.7927959;0.45337656;2.104942;0.0069546653;0.00984859;0.03811158;0.24729311;-6.1832623;-0.037463486;-1.5889362;0.9421338;0.6838026;3.2891972;-0.3411413;1.9662864;3.8050468;4.295038;-2.0730991;2.960497;-1.2275904;2.343175;1.337657;-2.4467993;-2.8583736;0.02264506;0.020414913;-6.0404654;-0.24510626;1.2760763;0.007274036;-0.01554294;-0.012962887;-0.031291142;0.091334246;1.1837711;-4.5855207;-0.005533171;0.51591563;0.03343554;1.2807795;5.7194867;1.6835258;-0.008489827;1.2166848;-0.31159398;4.043385;0.008553689;0.90099025;0.9984519;-1.4420638;2.3486178;-1.7946601;2.553881;-0.13191259;1.6490093;0.4749075;-1.6723317;-0.5339991;1.7487859;-1.0312967;0.60124815;2.4597852;-17.845985;0.22023544;0.08784701;2.1890297;1.5186633;-0.9575591;-2.7538037;-0.032068595;0.39493436;-1.7794231;-0.0041441675;0.075922996;0.675567;-0.49504867;-1.7109812;-2.03814;0.6730562;-0.0064726137;0.38964555;-0.0068131443;0.045091625;-4.518742;2.1473067;-0.008869938;1.4616287;-0.03295749;0.4354073;-0.34830135;-1.6345283;0.93727803;-2.7615483;0.82253665;0.037469074;2.3231845;-0.018290874;0.014437796;-1.3830923;-1.0463225;-0.06831156;-7.612453;1.086805;1.832421;2.4219797;-0.008386691;3.3297405;-1.7921106;2.0042462;-3.1280675;0.7461252;0.02325012;-2.3416393;0.017385684;-0.12215952;-0.34019053;0.014624914;-1.4491999;-2.7136095;-1.5781227;-1.9398263;0.15402728;-3.9927714;0.092584826;-2.5853393;0.64086646;0.87097716;-0.032861456;0.016246248;-1.7907971;0.9089491;0.35523248;-3.338865;-0.06801053;0.7810762;0.9222736;-4.6997232;0.06893738;0.18243955;0.009163846;-0.0431527;-7.925612;-1.4397029;0.106300384;1.1614485;-0.006718871;-0.039207436;1.3437393;0.68660235;-2.1596074;-3.3417907;1.2165347;0.0021027804;-0.27174792;-0.015402555;-3.107571;0.41937217;0.0268382;0.051373262;4.0574064;2.0115607;1.6080873;0.05125279;0.39190477;0.7224077;-1.4636805;-1.984357;0.3435735;-0.0047837086;0.014309234;0.90097255;3.146817;0.83353007;-0.19093536;-0.0078164125;-1.8027253;2.322882;-0.038218472;2.1618676;-1.6635891;2.3967726;-0.0016813739;-3.6777782;-0.013782958;-2.1902125;-0.7514001;2.387441;0.008179869;-1.6019497;1.0384933;0.5569772;-1.2045245;-0.30251527;1.2674367;2.4153516;-3.8847697;0.021975704;2.9805167;-0.17692381;1.7614632;-0.057852086;-0.00831037;0.91067874;1.044301;-0.74546933;2.216797;0.41585177;-0.021578036;-2.3019812
0.41165826;-2.509824;-0.03396337;2.4803157;-0.076000445;1.4261765;-1.989759;0.027587606;-3.6613977;0.0119412765;0.6106059;-0.11196706;0.046462987;-0.0051174755;-2.5189698;-0.018283483;-0.0044442755;-2.9809935;-2.364233;-0.8765429;1.4206617;-1.033293;-6.3056483;-2.3948295;0.03735661;-2.0788202;-0.031558104;1.8922924;-2.317471;0.7785359;4.674044;-1.3226217;1.4387263;0.024391465;-0.012801793;-0.074849896;0.05973177;0.73473734;-0.9746003;1.0823431;-5.701432;0.17242077;-1.9755133;-0.58454853;-1.0171238;0.012865361;0.034947813;-0.122225344;0.04357829;1.1707371;0.0033918705;-3.5784283;-2.8338337;-0.15110254;1.2159362;-0.0117483325;0.7137451;0.7018984;-0.061497476;-0.040926766;-0.027875049;-0.8114918;0.018154405;0.016148852;-1.4969516;-0.5226413;-0.024358397;0.1069795;-1.183048;-0.23762241;-0.6253219;-0.014007108;-0.9909035;0.42644152;-0.46953642;0.009936769;1.5390536;1.238323;-0.055143487;-3.9986076;-0.0074829548;0.82126546;-0.022832429;1.3470095;-0.15929875;3.0923226;-0.019595787;0.6300162;-0.03138879;-0.010359348;-2.7988105;0.043787673;0.79182523;-0.051054433;-0.358607;3.0059326;-0.52762765;-0.77546066;1.2957145;-1.9177763;-0.4073075;2.5371654;-1.6886758;-2.0172284;1.7809013;1.5548506;4.2623396;-0.73030317;1.7060268;-1.190221;0.6972814;0.1765996;-0.075404435;-0.096188955;1.4938426;0.03242628;-0.0031906138;-1.8507596;-1.0650008;1.6252621;-1.8995274;0.044982348;-1.0630672;-3.178578;3.6862626;1.7283928;3.0741405;-2.6725686;1.1230254;1.0840898;-3.4233906;-0.85433215;-1.0466259;-0.06380422;0.6661823;0.0055763274;1.5243841;-0.061704893;0.90427953;-3.4957452;0.011172468;-1.9439673;2.5029583;-2.2291765;0.67773944;1.0768033;-6.5143657;-0.029623618;-0.09285589;1.3428516;0.009301694;2.3658235;-0.1551813;-3.9732103;-1.1408893;-1.5186327;-0.27374873;-4.463584;-0.021529289;1.2646601;0.38126397;0.006144172;1.3037107;0.01200285;0.044365108;0.5627277;-0.07965875;0.91279674;0.9641978;-2.7804313;-0.31174108;0.041527815;0.94073176;-1.0074923;-1.0534337;2.5323348;0.19727294;1.8527216;-0.6618179;-0.01348172;0.0007671697;-0.026471946;-2.0655198;-1.9660556;0.015056576;0.9713777;0.04657071;-0.47328305;-4.408412;-0.016228268;1.4329439;-2.0309763;-1.6814902;-0.021211492;2.4605289;2.3084242;-4.57351;3.444358;0.32260966;2.5502217;-4.6083436;-2.6685088;1.7256124;2.285328;2.5070004;-0.5503836;-2.2238512;-0.32000002;-1.4861695;-0.11494899;2.4012783;1.4004523;2.745438;-0.013235045;-0.029377077;-0.032087073;-0.10911816;-3.2782884;1.5586424;-0.035398472;-1.7934376;-0.10152384;-1.281063;-0.005911336;-2.4033816;-1.8808762;-1.5191792;2.2474475;0.7757028;0.017854562;2.5357368;2.285506;-0.77724063;-1.6922759;-4.6568317;2.9093854;-1.0341071;-0.0036383222;-1.995797;-4.3733807;-1.0401915;0.40004057;-0.54169405;0.040428884;-0.6493832;1.1867217;2.092403;-0.8005809;0.04140363;-9.861364;-0.24470851;0.046528;0.8495592;1.8114243;0.047909647;-0.99643266;0.40097973;3.1549962;0.33490816;-0.08187557;0.15940513;2.3536205;0.0631591;-0.030667514;0.020003516;0.47947285;-4.043595;1.934218;0.06938881;-1.0356405;-1.8201495;-1.510269;2.3083036;-2.9328303;-0.07001629;0.0342026;-0.6058088;-0.4382527;-0.029982114;1.1706475;-0.014382271;-1.8760304;0.117954336;-1.3634223;0.33374858;-0.45890945;-0.0018033166;0.058102645;0.07087914;2.4086308;1.7502108;-0.31196868;1.9856114;-5.899815;-0.8874529;-2.3747022;1.7451174;-0.7902853;-0.06409044;0.03443505;-4.1424456;-15.641223;0.005899106;0.7377338;-7.0775924;-0.7198222;-0.17400305;0.049891107;0.624918;-1.6644915;-2.0748947;-0.033186097;-5.885981;-0.043260593;-0.25584793;0.4512739;-0.44921598;1.1325082;-4.65477;-0.04360518;1.2505711;1.2835742;-1.5296258;0.019641912;-0.0143530285;-0.8813688;1.5637171;0.03887556;0.7842689;0.03404001;0.009726767;0.007947058;-0.03830344;-0.044292547;-0.083556436;0.047839567;0.8937642;1.430145;0.9041921;-0.74030834;0.019114923;3.6526048;0.04739464;0.59457767;0.79378694;0.65521604;-4.6765633;-0.57702196;-12.26645;-0.050824117;0.044244606;2.387269;0.9956055;1.767215;-0.015612932;-5.4151716;0.42004263;-6.394616;-0.6016313;1.9497545;-0.1033249;-0.03274921;-4.598925;-4.0339437;-2.2420363;3.0770538;2.3738894;-1.6189468;0.5293006;1.7626224;-0.019545926;0.03968998;-0.0012989816;-0.62767416;0.20470099;-0.0013978356;-2.8282073;-0.9520762;1.6469066;2.6798227;-0.5830808;3.2750976;1.5633758;2.3201306;2.9799123;2.8062778;0.2538474;2.2761955;0.63382006;-3.5764756;-2.698966;0.028416008;-0.042396944;-3.1669807;0.84065866;-0.30458334;0.009146367;0.044897642;-0.022131981;0.0393799;-1.8772688;-1.7848473;-2.6742995;0.003078234;1.4828243;0.04002133;0.34027493;5.343424;1.9408071;0.009243388;-0.8594297;2.9806845;2.844949;0.009206347;-1.3076262;2.2047927;0.34668237;2.6625931;-1.2605324;2.3435485;0.05744693;0.50694245;-0.10121347;-6.857561;-2.617861;1.457251;1.2340251;0.77099544;-0.4853122;-19.286867;-0.45394802;-2.5655234;1.648599;1.1823515;-0.34973246;-2.035317;-0.006211382;0.025058791;-4.950773;0.033685982;-0.03652895;-0.9751314;0.20181066;-3.100919;-1.5628521;-0.039805237;0.05931735;2.8151863;-0.018248573;0.012554798;-8.261905;2.147526;0.02736067;-0.6539972;-0.0076818867;-0.06953409;2.629799;-0.7115902;2.371125;-0.80520904;-0.06056194;-0.0055311257;1.5130492;-0.0036552039;-0.10095766;-0.7133378;-3.5290372;-0.06308802;-7.5393515;1.4678725;3.6032991;1.8452054;0.011844429;4.7156596;-0.3685419;-0.45512354;2.5851197;-3.374475;0.019514374;2.196901;0.043017205;0.020730581;-0.094387814;-0.0075370744;-0.77485293;-3.8146074;-5.17085;-0.8396223;-0.0045810514;-4.991377;0.9829518;-0.40798298;-0.072925836;0.2249671;0.00723244;-0.075352;-3.3142376;2.543093;-5.903971;-5.4897904;-0.035039168;-0.7536035;1.4067504;-5.091471;-0.028599521;-0.6447437;-0.057874896;-0.022114865;-9.009277;-1.6528113;-0.48422816;-0.46182963;-0.00039482617;-0.004383468;-0.810518;-0.07180675;1.3132138;-0.21913897;2.132329;0.0017718325;1.881162;0.0014566623;-3.5299551;-4.788394;-0.058157593;0.006874441;1.443025;0.88408345;0.04365462;-0.08905251;1.463436;1.6261271;-0.5327273;-1.8602054;0.38765636;0.04236545;-0.010040034;1.3951985;-1.7605807;0.42370835;1.407803;-0.0655178;-3.7737842;3.9743922;2.035649;-1.053324;-1.8559484;2.114715;0.0044734743;1.1920148;0.04299996;0.7842496;-0.6892782;0.057515386;-0.032590512;-2.398294;3.0949593;1.5343606;-4.2442327;0.42461252;1.5231013;1.5115281;-0.7403885;0.010686439;1.8427477;2.173252;1.5443423;-0.028968312;-0.011160138;2.7475443;0.5329764;0.49974495;2.8439286;0.10137527;-0.06640616;-1.6348478
0.34535208;-1.784585;0.016648259;1.3960167;-0.016617764;2.4338639;-1.715847;-0.093172655;-4.4806;0.07004906;-2.4215546;0.43610838;0.012879739;-0.0188972;-1.3702933;0.13010833;0.024591945;-0.6017984;1.1535141;-3.3798957;0.53477347;-1.3840039;-5.136378;-3.912471;-0.011382898;-2.1673872;-0.0115412455;2.0417612;-1.6408644;-0.11063921;1.4866508;0.3944858;2.627659;0.005917545;-0.021779824;0.034531064;0.000814816;-0.3706348;2.423636;-0.20547484;-3.139975;0.37257206;-2.5404527;-2.78377;-0.6427579;0.9070214;-0.009755146;-0.19423258;0.058986235;-0.46145096;0.0078018694;-3.3633814;-1.320762;0.09165139;0.35520467;0.0016000943;0.13078588;-1.6128955;-0.053389184;-0.028582908;0.016849725;-0.2408029;-0.0540265;-0.063128665;-1.5175188;0.6353086;0.0050002527;0.12890288;-4.528739;-0.06865179;0.8158672;0.038235713;-0.13945839;-0.71224123;1.0419579;-0.051780537;1.1629868;2.0456967;0.84832716;0.52979535;-0.055842046;0.62636334;0.14891623;2.3101513;2.0528796;0.67428905;-0.037746236;-2.2611;0.02002001;-0.078148276;-2.9850502;-0.061010495;0.38435173;-1.5764681;-0.4030822;0.985186;-1.9454033;-1.6397941;0.019998355;-2.874426;-0.27153772;4.485098;-0.026108276;-2.2286637;1.8626242;1.5884326;3.9537497;-0.3177491;1.4935461;0.96538603;1.2420144;-1.4846356;-0.049881246;0.29229718;1.7646123;-0.022654127;0.02150398;-3.3925898;-0.51598114;0.8475344;-1.0180091;1.6617829;-1.0627607;-1.1215372;2.1549628;1.5361265;1.620979;-3.5015519;-0.8888492;-1.996355;-1.5681648;1.6032315;-2.3474822;0.021873828;-1.3164003;0.0051936633;4.373901;-0.14951687;0.019134851;-1.14631;-0.041221336;-0.8524138;1.992832;-0.9599511;-0.23095722;-0.093168676;-4.007811;0.040829457;0.07602786;1.2219831;0.66415846;1.5329887;-0.5102736;-3.6222131;-1.442155;-1.0234203;1.8287349;-7.2312016;0.019171724;-0.61288613;-0.62044245;0.46756393;0.8422572;0.018238254;0.04229022;0.91488034;1.017715;-1.51867;-0.6446538;1.1748117;-0.33524263;-0.0045651956;2.333292;-0.59018415;-4.316482;2.635595;-0.08018277;8.001982;-0.4345564;0.019228142;0.036140673;-0.041835807;-2.2487981;0.9965319;-0.023111919;-3.114875;-0.0122188;-0.87081265;-2.9518642;0.030024156;1.9156165;-0.6523973;-3.8318963;0.047370292;-2.486401;1.8603075;0.7998944;2.8224075;1.1439521;5.0999722;-4.6259446;-3.316798;0.14190885;-0.63270503;-3.2049153;-1.974777;-2.936545;1.1650174;-3.265538;1.2040367;-0.5899683;-2.0825686;3.2291696;-0.024279531;0.07541137;-0.016230395;-0.11892259;0.3323415;1.822876;0.07146371;-0.19788694;2.0568435;-0.5343645;-0.013177361;0.07378997;-2.5523856;-2.84823;2.6087887;3.1691217;-0.01592092;1.0295709;1.4475815;-0.8384091;0.6015221;-1.6936665;1.012578;-1.0977653;-0.006856203;0.13689315;-3.5772943;-2.6176658;2.8165843;0.60961527;-0.024001412;1.5408239;-2.5695457;1.0708605;1.2949709;-0.024128867;-7.244479;0.80809456;0.03221323;-2.8706107;1.6967372;-0.051146466;-1.1398379;2.5922143;2.4466004;0.044714294;0.3802267;0.103558816;3.6652203;-0.0418626;-0.028527996;-0.028639887;0.12835255;-3.0923636;-0.29101655;-0.009236228;-1.1333756;-3.0889006;0.5906674;1.4947351;-2.930794;0.020829748;0.04728663;0.3121271;1.0102582;0.007554516;-0.12656629;0.025396297;-1.773762;-2.4897327;-2.816264;-0.18517551;-2.802941;-0.014513695;0.72683233;-0.010265599;2.5047178;2.0348313;-0.7296947;5.3051066;-5.166149;1.9597248;-2.0756407;-4.2901917;-0.042541075;0.0030380678;-0.0010329396;-1.5302311;-14.4232025;0.012745114;1.5393362;-4.4946837;-1.4957571;-1.0292569;0.048897587;2.7414298;2.724393;-3.6967762;0.0045697656;-0.7326032;0.01854684;-1.2196944;0.6144385;2.3689775;2.228216;-5.3843045;-0.03053556;-1.7142693;0.9986757;1.0014815;-0.03924422;0.04684467;0.70551765;-2.0128675;-0.03113283;1.1809497;-0.032400373;0.009799946;-0.034552053;0.0032606716;-0.0025808322;-0.38945755;-0.05881093;0.34583336;-0.21469207;-0.6826435;3.4554908;0.040947292;1.7224487;0.009808815;-3.1284359;1.0379885;-0.19918473;-4.165985;-0.80949026;-6.6049204;0.028628211;-0.07524168;0.74876636;-1.0543157;2.9568257;-0.017755916;-6.468933;0.82250863;-7.6114316;0.3651816;2.026587;-0.22090839;-0.023217257;-2.6896129;-3.24808;0.8345618;1.1069963;1.819515;-5.6767755;-4.928578;-1.604209;0.05038504;0.016185317;0.01907691;-0.511629;-1.3766322;-0.0011752767;-2.0881586;2.16178;0.7814127;2.7721772;-0.08350041;3.6284482;1.551749;-0.58541906;1.8507026;0.40369603;-2.0699215;1.4082111;1.7678976;-3.066978;-1.8715916;-0.01695614;0.02645967;-5.6808486;0.99867857;-0.63019043;0.01641869;-0.01218452;0.013561329;-0.023838965;-0.42065138;-2.3142009;-0.6293464;-0.051827323;-0.5202111;-0.0019273022;1.2508388;1.5596135;-3.3084726;-0.0013785897;-2.1698837;5.303505;2.1994517;0.055127673;-0.46272913;-0.40139037;-0.045175795;3.4452765;2.3369577;3.408501;-0.34767565;3.425638;-0.11184887;-7.320693;-2.4831123;-0.09345996;-2.489066;0.24797109;-2.1657507;-18.832664;-1.3698575;-2.91782;0.3622173;-2.136905;-1.0131596;-4.102373;-0.009463991;0.40472052;-2.65674;0.0027140758;0.03808325;-2.1131225;-0.2909106;-3.8532448;-1.6261203;0.011453465;-0.024387196;-0.13398334;-0.05583388;0.014553005;-2.7198582;0.111695595;-0.0033290975;1.0098734;-0.020813273;-0.05151211;3.1300855;-5.4065423;2.3650918;0.07313483;0.515234;-0.06944224;1.6083351;-0.03972632;-0.019174416;-1.2251995;-2.2843804;-0.16668922;-3.1414337;-1.410171;2.105175;-2.1273952;-0.02060454;3.1897929;0.6466834;-3.5228724;-0.06349206;1.069712;-0.017813833;3.8464983;-0.038687386;0.13967861;0.08471082;-0.005719334;-2.0240438;-2.647361;-3.5012293;-2.1335552;-0.6120375;0.15335597;0.27242437;-3.35735;-0.0042717727;-1.1901436;-0.04656443;-0.009659657;-3.2745495;1.840964;-4.6137214;-2.9774077;0.9469396;-0.5710035;3.5018423;-3.6952336;-0.012048666;0.4639236;-0.026935399;-0.05862229;-7.9185176;-2.1058846;1.9173489;-0.26894248;0.019915748;-0.036459446;-1.2779664;-0.0900654;-0.8356105;-0.158989;1.4182359;-0.02194703;0.90168047;-0.05952088;-1.789207;-0.86630434;-0.005362229;-0.008706251;0.85770303;-1.0665066;2.833807;0.06343642;0.32545823;-1.0256642;-0.17379741;-0.77544194;-0.38083547;-0.022509394;0.012355748;0.15164408;2.7533753;-0.6973989;2.0165703;-0.014976843;-1.8318993;3.112835;1.242468;1.2291772;-0.9672766;-0.9917609;-0.008771659;0.9776265;-0.016458064;0.9862287;1.0376208;-0.27394903;-0.083870254;-1.2675678;1.8954916;1.0327672;-5.237547;-0.41661575;1.0007257;-0.67699707;1.6209189;-0.034978997;1.7852036;3.6732297;1.4751632;0.009123772;-0.031722076;0.26659516;1.7062134;-0.45841753;0.35922006;0.6162347;-0.02560047;-3.180509
-0.6979879;-3.3547544;0.017810533;-0.4689961;-0.026770186;1.6957487;-1.0309998;0.0018532529;-2.74163;0.002964163;-2.839065;2.2977219;0.038620424;0.015950305;-1.7016364;-0.06676733;0.010932125;-2.5974715;-0.5323175;0.037555117;0.84882736;-0.1753908;-6.085634;-2.4275734;0.01596072;-1.4144131;-0.014119744;0.65352964;-3.0295768;1.1132016;0.92128253;-1.5984657;3.701042;-0.032410957;-0.01241375;0.0050816126;-0.020479208;1.4749075;-0.56449234;-0.18690796;-2.8578587;0.30476168;1.0152491;-3.4155078;1.5402377;0.085964076;-0.038704943;0.2747897;-0.027961222;-0.0029644622;0.021243596;-4.633624;-2.8209636;-0.69864386;-0.06786391;0.01847857;0.2526246;0.0806477;-0.082159184;0.047314633;0.0016709202;1.3505026;0.03481224;0.02508775;-1.1841387;1.6252494;0.022785578;-0.102527015;-0.89055353;0.20413248;1.2583314;-0.03314496;0.9316682;-2.199097;0.6983626;-0.013356644;2.3685749;0.13343666;-0.10813347;0.12652563;-0.012345203;-0.3147144;-0.06592008;1.9696529;0.5315883;1.5390087;-0.010095872;-6.14535;-0.082274556;0.023906317;-3.4606025;-0.023760624;0.7827816;0.35263214;-0.07755167;-0.6325255;-0.8603962;-1.9646178;1.4741052;-1.8678377;-0.6076618;4.5548034;0.6477151;-2.8503265;-0.52939796;2.1821163;4.1174455;2.0001225;1.8431611;-1.1207865;4.392141;0.74784404;-0.00026705916;-2.182993;1.1105412;-0.028239591;0.055389617;-2.4587967;-2.2454364;-1.331996;0.22891429;2.6423032;1.1315634;-1.1207215;0.32956365;0.8447783;-1.2648678;-2.4156244;-1.5184929;-0.5649351;3.5047884;-5.1520014;1.9405757;-0.017953353;-0.06302531;-0.055156358;3.5488677;0.09180974;5.002616;0.82750356;0.03754271;-2.6774132;1.7555496;1.8855819;2.2894864;-0.05858562;-4.0379663;-0.020150615;-0.26066178;2.4891984;-0.12624884;3.0644372;-1.5404261;-3.5844483;-2.6925154;3.3618605;1.0015429;-6.560234;-0.04731481;1.9460765;1.9299084;-4.702063;2.1940396;-0.021571105;-0.45564082;1.3743513;-0.22896793;1.0324244;-0.979089;-1.4299941;-1.213601;0.0038234536;0.77820563;-3.9632099;1.7121968;2.8376417;-0.16675407;2.3717406;0.87734216;-0.0045803636;-0.011447964;-0.039279297;-0.76256245;2.9730277;-0.09014354;-3.3802516;0.029418616;-2.1657362;0.35384408;0.02548327;0.21998379;-0.48984724;-0.66039073;-0.0558083;0.29249278;2.8731475;-2.352513;2.6277597;-1.2883023;1.7031547;-2.5209248;-5.4693046;0.7423089;-0.02957143;1.3530768;-1.4060225;-0.68218327;1.5704089;1.8609866;0.6323114;0.22381051;0.49546957;-2.2590625;0.049153496;0.073309705;0.025943894;-0.8678322;1.5762491;1.2722998;-1.4659371;0.4225743;0.7416322;-0.4663525;0.014628551;-0.06855325;-0.052772045;-4.23016;1.7378721;1.6926711;0.017201334;0.047570307;0.4256802;-0.65167755;-0.15986647;1.9920374;-1.2600197;-0.7655673;-0.013557413;-1.1548774;0.8145901;-4.031903;2.6116807;1.624443;0.021064714;2.1699944;0.20142566;0.5831566;1.321544;-0.0071224407;-5.592819;1.2657015;-0.031576235;-3.1509907;0.5955647;-0.04892977;-1.128154;-1.1375443;2.2154515;0.16759953;-0.09716096;2.0401862;2.36377;-0.027857479;0.0053828685;-0.019917026;-0.6102942;-2.9865816;4.245544;1.214824;-1.1937162;3.0666313;-1.5293449;-0.9353317;-0.93975663;0.014046141;-0.018732559;-1.9530678;2.1900845;-0.029184531;-0.0905771;-0.007835373;3.699472;-3.7889051;-4.2248855;3.176995;-4.1247883;0.0024759218;-0.6788083;0.0065634702;4.1458383;3.0147297;0.51882523;3.2396216;-1.1930192;1.3109534;1.7901615;1.617606;-0.47973633;0.041571707;-0.021152465;-0.45547724;-14.489136;0.02269889;-1.2281911;-1.9077181;-4.307064;-1.5771577;-0.09659425;-0.8718034;3.0640743;0.61212647;0.027221259;-1.4878775;0.009044537;0.52315223;-2.319346;-2.5186927;0.89663684;-4.2336564;0.026330063;-2.3283377;1.500049;1.8556944;-0.066921316;-0.012288382;-0.12381279;-2.997668;-0.0033704585;2.049583;0.0044211335;-0.011360562;0.051960222;-0.0010573904;-0.002611623;2.5227776;-0.035358593;-0.52406055;-0.37644714;0.59214026;-0.2884434;-0.001998164;4.3670826;-0.0070064296;-3.9824235;1.2441386;-0.5188152;-1.5696408;-1.9204221;-3.5472372;0.009617971;-0.034180686;0.977372;-1.7092007;1.6003727;0.0022745267;-7.865472;0.50835174;-9.815334;-0.4689342;1.9991028;-0.0040804096;0.0028588518;-2.0087004;-5.3981924;-0.21515104;1.7589706;1.9252517;-4.833837;2.4470146;-0.4859062;0.002455534;-0.000791691;0.024880035;4.75613;4.1413;0.0005101363;-3.3392873;1.4123927;-1.5254878;4.225128;-0.41901028;3.112561;0.5638477;-1.0457369;0.99609417;1.4158281;-0.7282075;1.9961506;-0.93933773;-1.1713359;0.051762275;0.001317302;-0.0065012504;-3.680865;0.6101919;-1.0572441;0.021949606;0.020253986;-0.018478738;-0.030299567;0.05120104;0.32558578;2.6613173;-0.10112806;1.2520858;-0.0014111801;0.4599003;1.6087242;-2.8130436;-0.08213108;-1.3716369;2.7037227;3.5205758;0.01784994;0.364058;1.3499026;-0.20511739;1.3379729;-1.3139312;2.7394853;0.5173789;3.3984833;-0.014604673;-2.3804533;-3.3571649;1.1210872;0.19669957;-0.73553264;-3.362043;-17.534037;-2.7547572;-4.9750934;0.6341458;-1.0136905;-4.8930387;-1.5897423;0.013331206;-0.12609407;-4.594734;0.05534236;0.03991962;0.69443184;-0.7956133;-2.533727;-3.7433982;-0.017501615;-0.0345477;-0.6545178;-0.027093686;-0.02259617;-2.0170007;-1.9516156;0.03469424;-0.5339406;-0.009224266;0.017820239;3.2322235;-4.834395;1.6315006;0.5711391;-2.8808336;0.022739308;-0.061053015;-0.019239897;-0.04812759;-1.7432595;2.280447;0.59896237;-7.2034163;-0.35629618;2.1615975;-2.5487404;0.01017489;4.746142;3.5630367;-3.7921407;-1.2619137;0.75540423;-0.022511376;1.6874962;0.09589768;0.0022507203;0.12567464;0.017905999;-3.1255767;-2.6676438;-2.3291235;1.2092267;0.92375296;0.015549544;0.292479;-2.3173413;-0.038277477;0.49507335;0.00080594205;-0.026252644;-1.5981003;3.4634674;-5.2062182;-4.6602955;-0.32334504;-1.202795;2.3702888;-2.7461722;0.0416759;3.5561745;0.006955822;-0.008086584;-7.742443;-1.0142224;3.2911243;-2.8940198;-0.040294506;0.08264655;-0.28157398;-0.026116498;-3.6610286;0.7749508;0.10946281;-0.0062958505;-2.06503;0.00964963;-4.4585776;-0.6188951;0.057602562;0.050143827;-0.75842386;-1.1612422;0.3973831;0.07597605;-3.9059424;1.0778022;1.1700505;0.12869996;0.3025782;0.03622719;0.020832863;1.6181171;2.284629;2.7920604;0.7364485;0.014482202;-3.360751;2.5495863;1.906925;-0.2940974;-0.7608175;-0.095649086;-0.036480308;0.7739001;0.003702948;-2.064849;1.2814893;-1.8722581;0.017595252;-1.1132346;1.0620763;-1.7928026;-3.241156;0.9597335;1.8387523;0.090355;0.03901924;-0.06370087;0.030244095;3.8989563;1.2510188;-0.033859145;-0.014824835;1.6031098;2.6556451;1.9230728;2.7106369;0.61597425;0.028497627;-3.4163232
-0.2698674;0.5461644;-0.015871292;2.5910528;-0.018583145;2.1816022;-0.899762;0.74332035;-1.699921;-0.0037415042;-0.6461925;-1.3325789;-0.02303245;-0.030530665;-3.0588078;0.056504864;-0.0012803434;-3.2935464;-0.010943774;1.7695718;2.6287153;-1.63503;-4.769693;-1.121597;-0.044912767;0.017909259;0.02834476;0.21585995;-2.8049374;-3.7005732;1.587603;0.044906706;-0.7269075;0.014503975;0.009330502;-0.0451545;-0.024979772;-3.2128308;-0.26733983;1.4588819;-1.7479905;0.2567416;2.2305381;-1.6854775;-0.6634683;-4.835854;0.03301065;0.5398408;0.02531351;-0.86995924;0.0055387355;-2.378861;-1.9072376;-1.6405662;-0.28250736;0.0023155033;-0.6597183;0.3683148;0.31159732;-0.0015129241;-0.036492128;-0.58879113;0.020493792;-0.010428051;1.3265034;2.477519;-0.0057545025;-0.2869259;-1.1282619;-0.12096631;3.2255602;-0.029956996;0.6316777;-3.1018863;1.6586933;0.04221298;1.2291015;-0.31154826;-0.0017442226;-2.2962925;-0.002074547;1.8555746;0.009383698;1.6416197;-2.443896;-2.2487154;-0.010395701;-4.476735;0.01227793;-0.017744754;-2.990887;0.005119685;2.189923;-2.239562;0.80168366;2.0025108;1.8069932;-2.423583;3.1321669;-2.067596;0.28010657;1.5482922;1.7343597;-1.3550783;0.20134701;1.4247472;4.582508;3.727278;2.5698843;1.5258552;0.44447014;4.017871;0.037092827;-2.101905;1.7226446;0.01575792;0.007926482;1.4379635;-2.3458278;3.2289414;-1.8125811;-2.7257977;-0.2415721;-0.42606845;1.3994039;1.0278273;-1.1144043;-4.7055564;0.80785435;0.76286536;1.3942639;-1.7049131;1.9482354;-0.031776547;-2.878489;0.041053344;0.74786764;0.46216738;2.2641861;1.9667475;-0.05103312;-2.035911;0.77231604;1.6755341;-2.2234588;-0.0359005;-3.795772;-0.03711178;0.26568276;2.542741;-0.054315392;1.8267102;-2.6535895;-2.9051151;-1.2990488;1.4673052;2.6935477;-5.553715;-0.027165636;2.9331326;3.2820115;-3.1336925;0.7527801;-0.006303843;0.35105783;-1.3950124;-0.010671001;-2.1231577;-1.674205;-0.97870237;-2.3736165;-0.00022318818;0.3213848;-0.29969025;-0.28600326;0.95064723;0.47004995;0.6308733;0.74670285;0.0023093435;-0.07087959;0.052119143;0.41184542;-1.7700756;-0.06736096;-3.4907048;-0.0045967367;1.4345963;2.0642993;0.0129299015;1.0703145;-0.83865064;-1.4033734;-0.022635337;2.8748896;2.987787;-3.031867;2.5907922;-0.84888977;2.6878788;-2.122478;-4.626324;1.4192581;-1.6263385;-0.54213846;1.1116797;-0.15565166;1.7469054;1.2988523;1.2428399;0.79722595;-1.586536;-2.0133297;-0.008451757;0.05211313;-0.05415767;-0.042192977;2.2385972;1.3915428;-1.5980008;-0.82503533;-0.4886005;-0.3639587;-0.038695935;-1.432897;-1.2446352;-2.3697772;2.5482433;1.7080164;-0.024846638;1.9144841;-1.097568;2.4547377;-1.6648235;-1.5199178;-0.17060617;-1.3721629;-0.016121143;-1.4945076;-1.2382809;-2.2700307;1.8726975;2.095239;-0.017951563;1.5863997;1.5611622;0.7663302;1.4710859;-0.02739086;-2.7414014;1.4465016;0.034100056;0.51135033;1.0706129;0.020042637;-1.5119485;-1.8994268;1.9006028;-0.2496099;0.042856667;1.6034175;3.795439;-0.019333381;-0.020087535;-0.01245304;0.4540924;-5.3942947;4.523222;4.061755;-1.3739691;-2.2136636;2.2203596;1.3576865;-1.7052244;-0.016391102;-0.0071721594;-3.051959;2.301651;-0.014813191;-0.12173796;0.035981923;2.592528;2.8234138;-0.7469155;-1.1119069;-4.539162;0.031116752;1.8721908;0.016232628;2.8435571;4.5158305;-1.023667;1.6107395;-1.8189702;-1.8542368;1.7805854;4.367092;-1.8837347;-0.0014549664;0.01685658;-0.729135;-14.514476;-0.039477494;-1.8968393;0.7389688;-1.7229124;-1.9133182;-0.036920503;-2.0012326;1.573189;0.92151845;-0.04694894;-0.11256683;0.011969648;-0.14786527;1.6933597;-0.49792913;0.789714;-2.7237628;-0.020306962;-2.196424;-3.2284303;-1.9768834;0.022219425;0.03471784;0.0893113;0.859478;-0.057412256;0.9589975;0.05315136;-0.0009822211;0.014440475;-0.004573352;0.056838393;2.5005152;0.06324728;0.7101443;-1.9559201;0.7380332;-1.7160586;-0.01100443;1.1771784;0.14097458;-1.0890248;0.055354085;3.110359;-4.4705024;-0.74638695;-0.19790989;-0.021218693;0.013308094;1.0691668;0.23060691;-2.096229;-0.027514752;-6.3051944;-2.0943446;-8.139584;3.1462586;2.0146313;0.24945992;-0.031488016;1.0924418;-5.8436174;1.7967833;1.6979667;-0.5787377;-2.4818704;-2.4101105;1.5975486;-0.060217697;-0.04699617;0.025002534;2.8289726;2.5515468;-0.056078177;-2.2284997;0.715919;2.1000996;2.64046;-0.44908208;2.9362395;1.2387832;-3.044032;1.1316063;-4.4462476;0.7405589;2.6961014;-1.1485946;0.78967965;2.0759735;0.041308932;0.0024803146;-5.373852;3.4318113;-0.5821608;-0.014628602;-0.042824954;-0.04461866;0.075149365;-1.1794628;-2.4196672;2.1263897;0.556332;0.4404754;-0.002678541;0.5479282;3.938704;1.2455058;-0.002202278;-1.7762382;1.4971136;1.7238759;-0.029420124;1.3330147;0.48206916;-3.092718;0.09782181;-2.1887496;1.6120656;0.81414205;1.5364918;-0.0041172914;2.2157786;0.22109038;1.0901407;0.42327088;-0.38095695;-1.4435135;-17.211826;2.2966173;-3.8475404;1.7934185;-3.0146224;-2.3704495;-0.788625;0.019036986;-6.829491;-4.717943;-0.035308395;-0.018498868;-1.1662568;-0.19040349;0.9444607;0.87357473;0.027862214;0.06235534;0.83139014;-0.044783402;-0.0046045673;0.5062661;-3.289124;-0.036293726;0.2671198;-0.013132348;-0.0012719685;2.2604294;0.1968302;0.30516046;4.290942;-0.8076697;0.023629325;0.77446026;0.0050781313;0.4201616;-2.2067246;0.19549769;-0.10075491;-7.888761;0.62062186;1.9730917;-1.7512236;-0.010988647;2.4236;1.7841191;-3.2848997;-1.3859215;3.2299697;-0.027779298;-0.9914331;-0.012312918;-0.002016423;0.06808028;-0.014325634;0.40167025;-0.8098229;-3.7461996;-0.13740148;-0.6882107;-0.17965586;2.6249425;-0.73445046;-0.028193744;1.8868757;-0.0036806397;0.03650102;-0.47393507;-0.5306493;-5.4612303;-5.4378104;0.021563562;-0.7006641;3.4630446;0.56212634;-0.045645554;0.29709595;-0.0017982767;-0.023631355;-7.275108;-0.22972606;4.4120173;0.2834718;0.044670016;-0.01165734;0.38066977;0.036734655;-3.6028173;-0.60619694;-0.21832329;0.04241129;-1.508651;0.0332064;-6.4924326;-0.33993292;-0.03183885;0.029416699;-0.3133662;-1.7698606;-0.63370365;0.025709813;1.6993977;3.7162206;-0.2226933;0.11211132;0.70771134;0.0064966036;-0.003050417;-0.76241213;2.406759;2.4606335;1.3515971;-0.0066266702;2.6071007;1.2176473;2.278547;-2.0487635;1.5556606;0.5175277;-0.0066975923;-0.5480539;-0.018446965;-2.8713467;1.7349675;-0.5457273;-0.06505534;-0.22070171;0.54036415;-1.5846692;0.16472077;1.903668;-2.3574796;-5.371369;-1.265042;0.056985673;0.552375;2.5011442;-0.6729658;-0.032399043;0.07707903;0.3608682;3.7253873;0.22334276;1.3787512;-0.9388371;0.004315256;-1.7100233
2.5850828;2.3753335;-0.020799909;-2.0912104;-0.0080234;1.6979451;0.30194837;-0.35822654;0.9634503;-0.050941233;1.1444722;-0.33119303;-0.006000334;-0.009908678;0.36207765;-0.053323954;-0.009982846;-2.6726704;-2.8226945;0.5527859;3.078273;-4.833172;-4.9941044;-3.8982782;0.020475902;-1.1828449;-0.03508609;3.2322161;-0.2589711;0.62710667;-0.19063129;-0.58467245;0.35172164;-0.01316499;0.0062655737;-0.008242174;-0.0063109477;-4.5876603;1.4040992;0.12224021;2.1988754;-0.037457008;0.44471145;-3.2017567;0.72768956;-7.3256626;0.01713369;-0.08627277;0.0017932061;-0.3137552;0.009862593;-3.4715536;-1.0049185;-1.0748427;0.6587281;-0.059480023;1.4375418;0.62075835;0.099819206;0.012964758;0.05383022;-0.19587384;-0.06692996;-0.029064987;0.42807883;1.9015832;-0.0149477525;-0.3932851;-2.3417757;0.0936307;6.2530956;0.021232642;-0.73210794;-4.3797417;0.48745537;-0.032051403;1.4668007;1.7165234;-0.03436527;-0.24534252;0.0015071548;2.3463001;0.0062135695;-0.3779529;-4.6882215;1.2588481;0.0270651;-3.5193021;0.04816265;0.01056762;-4.9598403;0.0014810303;0.54141927;0.36703095;4.0218015;-3.0744858;2.6083486;-2.0109155;-1.1047862;-0.036063127;1.3317696;0.23288059;1.39569;-0.4327475;1.4989375;1.5485438;4.7081094;3.1604443;1.8175501;-6.0349216;3.8095753;1.0638778;-0.018138211;-0.27333125;-0.7688077;-0.03904119;-0.048049588;1.5914773;-1.2241641;2.0538042;-0.12811464;2.081157;-0.9319649;0.5350026;0.25463006;3.598035;1.104353;-4.055758;4.5993533;-3.6600008;-2.4930034;-1.3287504;1.4682246;0.061282925;-0.9960651;-0.010019098;1.5697194;-0.03288263;3.8916364;1.2238932;0.026502261;-0.9054074;1.4456902;-0.4826295;-1.5597084;-0.0054672156;-0.6953907;0.055939898;-3.2091722;0.7290852;0.03182753;1.0107248;0.3515627;-2.5941777;-0.07872647;0.7108537;3.5416949;-5.8961687;-0.008132;2.4727468;1.6289605;-5.291137;0.9519276;0.032787677;-0.0669224;-2.592795;0.00022552694;-0.42824784;1.2326971;1.2562655;-1.079987;0.010558335;1.185158;1.0869572;3.1250777;-0.078517705;0.2681862;-1.0508462;-0.8320333;-0.012800798;-0.005772655;-0.060698897;3.3638318;-2.2564116;0.9279044;-2.5358055;-0.02766345;1.9270579;3.298277;-0.023877293;3.317733;3.1717238;-2.5490072;-0.008116364;0.95042527;-0.6437774;-1.9704463;3.4924052;-0.2420923;2.9694326;0.6441602;-2.2871287;1.6866211;-1.8335924;-0.04849615;1.2560745;-1.0106544;1.4934456;2.3362672;-1.1282321;0.70244324;2.549186;-1.1844385;-0.0153127415;-0.088755876;0.02947428;1.8106893;-0.52587867;2.129258;-0.41398072;1.0059388;0.22599444;-2.661222;-0.017785115;-3.3895772;-0.42675656;-2.7975445;0.87619746;-0.4526062;0.040260233;4.0575905;2.2835937;2.6365113;3.1110399;-2.0582263;1.2459656;-1.6064881;-0.052504472;-1.2398338;-4.3738136;0.46582714;0.88381344;-3.6258671;-0.0018721636;4.6061263;-0.23788644;2.988557;-0.41973662;-0.0062026894;-2.0936227;2.8789084;0.019129196;1.8121716;0.7337736;0.0091910055;-1.575897;2.4748077;2.515672;0.27456668;-0.05761949;0.7956146;0.8049718;-0.013824446;-0.0013275886;-0.016592441;0.34839445;-1.4338012;-0.20049864;0.19359054;-1.6893709;-0.9358229;0.73020333;1.5580049;-0.7082713;-0.03932284;-0.013973738;-2.6482599;1.5748869;-0.046572804;0.021980982;0.027144505;-0.7582611;0.723939;-4.678932;-1.6301363;-0.88309604;-0.06498689;-0.74250513;-0.03844724;2.2222102;3.129429;-0.633105;-1.7128137;-2.2609537;-1.003905;2.2633998;-0.45231748;-3.0356581;0.013482522;-0.035765897;-1.4116163;-13.655834;0.04331911;-0.40874243;1.7166126;-0.020889748;-0.45419544;0.07302219;-3.2867393;2.8594496;-1.6935538;-0.0010506187;2.22895;0.022934783;0.25828555;-0.1664613;-0.17140079;-3.0316331;-0.9520192;-0.016605204;-4.858898;0.012117599;-0.8934657;0.06837726;0.016678171;-0.27558973;-0.7067494;0.02237524;1.3407063;-0.013907821;0.039432768;-0.0030094164;0.016741125;-0.0363264;0.46983314;0.017155617;1.372209;-1.3108219;2.8236923;-1.442698;0.03882878;0.5658653;-0.022497332;0.48090377;1.5910819;-0.2177538;-3.2937684;-0.17633988;3.4731956;0.020540236;-0.026318485;1.0263739;-2.854085;0.06466719;-0.0013540675;-5.8905735;-1.0772547;-6.3222857;2.6293714;2.3630052;-0.020019358;-0.015813628;1.1389337;-2.0480704;0.49268574;-0.5071313;0.021930465;0.35490236;-4.074411;1.9921962;0.014219825;0.03796387;-0.037209697;3.6297538;3.4127054;0.00079574535;-1.0173076;2.4780536;-2.6599612;3.1291783;-1.352949;3.9824214;-0.6450501;-2.5312085;2.3465164;-1.9566705;0.71928096;2.010913;-0.31590125;-0.48008418;-0.60321915;0.023257261;0.038201336;-3.9434614;2.5793607;1.265201;0.01455819;0.06673394;0.04706464;-0.03441303;-0.3823053;-5.172008;2.4520786;-0.03931149;0.0076124044;0.074782595;0.06915263;1.9326245;1.3107845;0.024919061;-0.7055175;0.08446583;2.0222304;0.056562655;0.25603765;-1.597381;-1.6405449;1.9704634;-1.1321075;1.3199025;0.13976912;1.9850407;-0.029188229;3.7152097;1.2311865;-3.552521;-0.063021116;-0.094489045;1.1923593;-16.996569;-1.8693515;-4.2556334;-0.7342568;-1.3858144;-3.3428097;-1.0862539;-0.033346754;-10.645569;-5.728667;-0.010936057;0.03401471;-1.8483511;0.99564123;-0.92944217;0.5663956;0.027965462;0.042167883;2.568728;-0.09682854;-0.03881379;2.1794844;-3.8609493;-0.02072927;1.0010446;-0.03390011;-0.00741469;2.978527;-0.6815859;-4.9139767;0.3716036;-0.36214608;-0.027517138;2.1388052;-0.012198332;-0.05669906;-0.9387754;0.50695056;-0.12193058;-2.2492123;2.6977646;-1.9283484;-3.192047;0.025556263;1.0687739;1.665471;-0.77496046;0.8144915;0.5821918;0.001955747;-0.72406965;-0.009795863;-0.028767003;-0.06553479;0.03285798;-0.12238595;0.63051265;2.055743;0.38782832;1.3060888;-0.25036454;1.7174797;0.12092079;-0.059546612;-0.7676707;-0.0043059927;-0.016850363;-0.72954154;-0.8233221;-0.8438101;-0.47780424;-0.061260663;-0.61933327;3.029912;0.25783536;0.025856536;-0.8640411;-0.007921589;-0.032471336;-7.854999;-1.2042335;3.4675403;2.0910776;0.006664743;0.002075946;0.93141687;-0.0054529174;-3.1844878;-0.47633606;1.6551629;0.02149801;-0.69100654;-0.05205238;-4.60239;-0.022968646;0.0038785855;0.018816905;-2.3495326;-2.077573;-0.7109109;-0.060959656;0.96262676;1.3124176;1.8300217;-3.162119;0.005227968;-0.01942651;-0.020156177;-1.1286268;2.8911474;4.718864;2.6876962;0.012707397;1.5133897;3.0326416;2.496706;0.96448123;-1.0487462;1.222986;-0.05450599;-5.0918136;-0.03690148;0.4996765;2.69418;-0.71446717;-0.028546829;-1.2689638;-1.5043557;-1.8201283;0.6199561;2.7040184;0.28977692;-10.26269;0.1511081;-0.031932104;0.6901731;0.20835297;0.27625626;-0.042788796;-0.018589394;0.8152003;1.4906595;1.3944455;4.5746355;-0.57819664;-8.934376e-05;-0.58853275
-1.6822041;2.6737654;0.0019016427;-0.83440393;-0.040954694;2.4727578;-1.5301436;-0.034257334;0.95355314;0.003538904;1.8734742;-2.6401436;0.017679285;0.0141138;2.0494404;0.09191992;0.04204974;-1.4487144;-1.4476155;-1.4612318;2.354132;-6.5466743;-4.12249;-4.0052805;-0.030712247;-2.063913;0.047143105;2.204431;0.7130204;0.8799726;-1.6122935;0.017168215;0.17235267;-0.059776306;0.0137196;0.0028970002;-0.020423112;-3.5404322;1.5865003;0.5879553;3.68799;0.14057486;-0.69128567;-0.54622716;-2.6944122;-7.5198565;-0.035227533;-0.17863357;0.00372603;1.835043;-0.0051219817;-0.6818124;1.7326862;-1.7391596;1.7523196;-0.031389296;-3.699678;0.3683685;0.4184725;-0.015170228;-0.058826536;1.552195;0.03986809;0.016804408;-3.7501051;1.6578678;0.006950826;-0.2283903;1.3487388;-0.021896783;0.94435906;0.009918961;0.50957215;-3.0130672;-1.2904624;0.0013083974;1.7079744;3.4098432;-0.015308287;-0.033617403;-0.033383932;2.3672135;-0.008261852;-0.3159445;-2.7509134;2.1279333;-0.041072063;-4.0844083;-0.08497142;0.070437185;-4.6259837;-0.007545729;-1.9860814;-1.0763875;2.8516603;-0.6648329;2.3601947;-2.8177795;-0.6813876;1.6489912;-1.7666857;3.2486265;0.66131026;0.9383701;2.060883;2.5625112;4.936069;-0.7871677;0.7905734;-6.18215;1.3380976;0.5515013;0.0372857;1.0390494;-1.5298907;0.006089677;-0.014192405;1.7588366;0.10993355;0.62160605;-0.68909734;-2.2253401;-2.145989;-0.28621048;-1.1555781;2.7688637;1.2883775;-5.0431833;1.169363;-1.881631;0.69530594;-2.4300964;-0.17142612;-0.007587379;-3.356256;1.8942372e-05;3.763532;-0.090811454;1.5276943;0.69236934;-0.005319576;-0.41065115;-0.72973716;1.8564225;-0.3033372;0.0077481978;0.45329207;-0.026319498;1.1139901;1.5788478;-0.004073156;-0.47255185;-1.9199187;-0.8764467;-1.1100961;1.2207286;3.8033588;-5.3893003;-0.01296003;2.5034108;-2.5282347;-3.3019586;-0.95375246;-0.020965928;0.2050609;0.23731741;-0.040315617;1.173059;1.0660628;-3.645019;-0.6633753;0.015179845;0.12097796;2.0340278;2.5141342;0.771254;0.23279937;0.6901532;-0.62846154;0.013318091;0.011922218;-0.013479549;0.6212455;0.19078325;-0.18818748;-5.2681746;0.015766181;1.8309157;-0.9105029;0.070171066;2.241087;-0.39036396;2.7268853;0.0057047848;0.657186;1.5524561;-2.1882753;3.860594;-0.14556584;-2.0074356;1.9956435;-3.3057;0.2756465;0.78389186;0.89664525;-4.8020754;-0.8563964;-1.5134505;1.3837842;-1.2204312;0.13793783;-2.5573003;2.023725;0.025734965;-0.05054404;-0.008738296;2.0215788;0.22520977;3.0874524;-1.2355154;0.3438344;0.012759998;-0.83020294;0.0127998525;-2.7642598;-3.0685625;-1.1112196;2.2105646;0.4151575;-0.038967278;3.093157;-0.054757852;3.9444737;1.0961237;-2.4411242;0.38990736;-1.8488463;0.06374754;-2.640749;2.1861634;-5.5703235;1.633682;0.9118778;-0.024087861;5.9398503;-0.7885895;2.5371466;-1.4800811;0.057783894;0.67690593;2.7130415;-0.013041869;-2.8039942;1.6426547;-0.028180134;-2.0498765;-0.63108885;2.7283895;0.10495661;-0.055782553;1.2983309;3.3907056;-0.039076954;0.040765453;0.016700536;-0.21063405;3.349199;1.3126544;0.79601836;-1.9811257;-0.98182255;1.2168863;-1.5750612;-1.4171219;-0.04305658;0.0011838203;-2.0964763;0.89967865;0.039039522;-0.07073061;-0.015211583;-0.71675116;-1.371704;-4.6580114;0.5557675;3.3688796;-0.0026536682;-0.8883137;-0.01729927;2.2662292;2.615611;-3.0831769;-0.99988455;1.7218454;-3.059934;-1.566489;-5.5829697;0.08223341;-0.082896695;-0.0023424346;-0.9670239;-11.348119;-0.00041872947;1.4333553;2.4430435;-0.47384062;-2.8542552;0.0670899;2.800319;0.969334;-2.7441728;-0.014772363;0.29276058;0.017323673;0.16093642;1.3168703;0.5924181;-2.287756;-5.460297;0.04619098;-1.5278772;-2.0746872;-1.6256034;-0.019601941;-0.04396794;0.27162707;-0.08891591;-0.042509012;2.6909928;-0.028580222;0.009166199;0.032729756;-0.024516832;-0.015796144;-3.093188;0.0027297244;1.6241715;-2.5288253;1.7562536;0.38474014;0.0026936375;1.3608775;-0.07470778;0.188658;0.6500226;0.26382753;-3.182963;0.95312536;0.0065521975;-0.018769482;-0.0027595204;2.1827714;-4.076921;-2.24667;-0.0074108243;-2.441148;-2.1717956;-5.828752;3.9357767;2.7478805;0.21755677;0.014306083;0.62487686;-1.500006;0.33488467;0.52034587;3.4213328;-1.2835141;1.0358092;1.5078295;-0.023233572;-0.00079217146;-0.042998835;1.318127;4.735137;0.000590713;-3.909824;1.4641244;1.4559573;2.989201;-2.1119657;2.5337353;0.6474774;-0.95051754;2.0076182;2.702279;-2.848029;3.0847123;-1.9240924;-0.921241;0.94473034;0.010518133;0.10268576;-6.029906;1.6274482;2.5263896;-0.025868682;0.030178059;0.030981576;-0.060474046;-0.4670476;0.3060209;2.5929956;-0.020633163;-1.5540289;0.02075523;0.16108394;2.2842472;-1.5861741;0.027094714;-2.102568;-2.4075568;0.34721887;-0.05167512;-0.98274857;-0.056536704;-2.6049552;0.49327517;-1.4011565;2.285076;1.2479979;-0.13616745;0.000115771916;1.968958;0.8446877;0.8623084;4.578202;1.426495;0.5735696;-16.108582;2.4775853;-2.515178;2.1133764;-3.7839878;-1.8587933;-4.5481243;-0.04109824;-10.918931;-3.416624;0.039961312;-0.025446136;-1.6551151;-0.62022656;0.5973933;0.4535024;-0.054815106;0.0018380332;0.1707531;1.0466052;-0.020729024;1.0691774;-3.817027;-0.047706943;-2.3348653;0.045071673;-0.05525021;2.4549932;1.2387906;-4.000941;2.0709732;-1.486663;0.016760293;1.0246222;-0.028711025;0.014608977;-2.9141774;-1.7889704;0.24061494;-4.1558266;1.5115211;0.2354741;0.09253216;0.018017225;2.856806;1.8420413;-4.506526;-3.0098002;2.865467;-0.014401557;-1.4855235;-0.017353248;-0.13543798;-0.35889506;-0.04651907;-0.8880371;-1.556766;-2.9034345;-0.47165635;0.10087587;3.2332811;1.5070286;1.7955316;-0.013837658;1.2288554;0.002782839;0.01004292;-1.4173522;2.6564684;0.5500368;2.614049;-0.05785315;-1.1634942;0.2433983;3.9361656;0.038013846;-0.18539017;0.051149663;0.04761912;-7.9532175;0.4377161;0.33111575;-0.96160656;-0.03845022;-0.07798697;0.4406038;0.0026781869;-4.0703406;0.27598518;1.5206943;0.0066243135;0.19218153;-0.018362967;-5.056982;-0.9903076;0.021763545;0.024014704;-1.0296173;-1.2517711;-1.5173081;0.026675586;0.32523295;0.7985027;-2.622354;-2.074729;-1.2315363;0.05799663;-0.0092438515;-0.28693056;2.0973861;2.5105436;0.8999975;0.06361771;0.5165534;1.5185577;5.35137;0.4009342;0.45067954;0.7515846;0.051672213;0.3538558;0.033425488;-4.3510475;1.4687552;-1.0755626;-0.0050695958;2.6175776;-0.36475453;-2.16048;0.8813186;1.9716665;3.490803;-4.2128115;2.3689802;-0.07430783;-5.0274854;0.5155587;0.9464243;-0.016327392;0.029552348;-0.5379503;1.3387436;0.2623187;0.16872616;-0.002579067;0.038176145;-1.9775978
-2.2365222;1.5467439;0.083239704;-1.0563241;0.006255091;3.4498823;-2.2568188;-0.05427938;-3.5722163;0.011589996;0.5757589;-6.1132917;-0.014805752;0.018597448;3.9407127;-0.039007008;0.02563998;-2.612632;-1.0754008;-1.9122565;1.0104436;-3.609015;-3.9078326;-3.9598475;0.06958234;-0.93841416;0.014652627;1.8910708;-0.5804907;1.0640068;-0.37573302;2.7187536;2.3564837;-0.046247512;0.011573388;0.019164553;-0.046452668;-2.4324036;0.2006935;-1.9132317;2.4950335;-0.2164362;-0.4991139;1.4208424;-2.965627;-6.7201014;0.038128495;-0.28745678;-0.038767744;3.7671077;0.02224371;0.5548061;-0.24534182;-2.082882;-1.2549285;0.03140727;-3.1180854;5.7769084;-0.12072646;0.03756398;0.054171447;-0.5557795;-0.017985411;-0.030996049;-5.8364034;2.0979655;0.0023244724;0.33492485;-0.45981807;0.2743218;-0.40734226;-0.018742269;0.72370225;-1.5269376;-2.2577553;-0.019398635;0.18689482;0.7487303;-0.053607006;-2.745116;-0.027986484;2.7184803;0.008331194;1.7145743;-1.1124744;0.38259545;0.023297576;-4.5353394;-0.034543365;-0.029012207;-0.90662575;-0.044379693;1.3739054;-3.2267494;1.7479078;-1.2012832;2.5127656;-1.7009779;-0.100504056;0.6569817;-2.7935145;2.1997747;0.8512174;-0.95561516;0.09056579;-0.1646345;4.345628;-0.97219163;-0.10629333;2.0738564;2.448583;4.0157256;-0.0033034903;-0.86609614;-6.8517995;-0.002320347;-0.023066435;4.5240526;-4.065128;-0.11977515;-1.0200001;-6.429822;-1.8651111;0.45930374;-1.3298256;3.5205534;1.9743689;-1.773819;0.04399337;-1.4921798;0.5172849;-5.3396378;1.1740928;-0.026001906;-0.7564593;0.003792973;0.38069415;-0.07442484;2.3647764;2.285849;0.022210803;-0.86723334;0.2956959;1.4582299;-0.44168812;-0.042940516;0.19917335;0.028661435;-0.9281316;1.9538915;0.0013350414;-1.339706;0.021666963;-1.069939;-3.884728;0.5468766;1.6455721;-3.8591938;0.010071026;0.15082395;0.089717336;0.41771954;1.5414772;0.015271224;0.11590548;1.2465352;-0.025348034;2.523757;3.9457667;-1.9707487;-0.88697153;-0.012172362;-1.7128829;-5.611105;-1.1945946;1.1011417;-0.19258721;3.5911014;0.18322954;0.0029176995;0.0061376845;-0.024722453;1.1567868;3.2124538;-0.05161901;-4.4380255;0.0025789929;3.958377;-1.8063724;-0.008742308;-2.6962056;-1.3773131;-0.3512701;0.007356509;-0.0774364;0.9212249;-0.9618954;3.790417;-0.39713112;-4.3159814;-1.4329344;-2.4396858;-0.26551276;0.31024528;2.8648198;-4.903017;-1.1657625;-2.8609045;-0.82727724;-1.3618038;-1.6971135;-0.82739055;-1.1027367;0.015198503;0.17271993;0.022815028;1.8752122;1.2103385;1.9971583;0.85262704;0.70929754;-1.9175624;-0.20260975;0.026769709;-0.38530478;-1.0791429;-0.5694359;0.025576552;1.2735198;0.01091171;1.8114848;2.5497453;0.67788565;1.5297228;1.1483631;-2.0117004;-1.9688146;0.012256675;-3.740911;1.2537531;-3.6700923;1.0498793;0.5730793;0.0481302;3.8942308;0.09407856;2.035156;-1.3344206;-0.025018409;0.9416979;3.4166675;-0.018607209;-2.989766;1.0939614;-0.021107981;-2.241826;1.530868;3.9774117;0.049506385;-0.031148965;3.0023947;1.6787221;0.012660344;-0.010036906;-0.014321756;-0.25682715;3.3261876;0.642902;2.0685878;-2.2637682;0.46126974;3.9276526;-1.2361208;0.41873384;0.03866565;-0.027452528;-2.0630486;0.81337446;-0.08817001;-0.08466644;0.014753836;0.8279832;-2.3669896;-4.727429;-1.8202077;-0.038836412;0.060308635;-0.5443443;0.029762816;-1.0299225;1.2583271;-3.2626204;-2.9773889;1.8674589;0.42594603;-0.62817997;-5.827969;0.873432;0.34967875;0.019282147;-0.64558226;-10.16719;-0.0037405058;0.4513948;1.54316;1.7268176;-2.3940992;0.06375604;2.1342833;-0.4605392;-0.6061181;-0.01586938;2.2504632;0.011602862;1.8438714;-0.13836022;-0.037306055;0.94110274;-0.7310648;-0.020455737;-2.6133003;-1.4944662;-0.63012826;0.018620111;0.024354966;-0.3157053;1.5914366;-0.021010093;-0.5874444;0.043890167;0.018322647;-0.062919684;-0.01434431;-0.060651597;1.3342136;-0.05060385;3.371419;-0.85028;1.6567054;-0.96728337;-0.05692607;1.345375;0.051764328;-0.361608;0.8825293;-0.88897747;-2.7385845;0.03576027;-3.4855275;0.022303801;0.07280182;3.237405;-4.123473;-2.8623984;0.034815233;-0.7662413;-1.8901883;-2.8956547;2.210052;2.7927437;-0.063221686;-0.01631255;-3.1726909;-5.7896986;-0.17174755;-2.3916855;0.82226795;-4.064116;-1.2936833;-0.70035714;0.056724567;-0.04491592;-0.016017716;0.47248885;2.3087573;-0.03334939;-3.019608;0.69143903;-2.570132;1.8951406;1.8051357;-0.15503244;-0.42297503;-0.042365108;-1.122347;-1.066972;-1.7602594;2.3800764;-0.56369394;0.21992032;0.2812891;0.018193493;-0.025755994;-0.23329255;1.9458066;2.7684054;0.004033971;-0.052138075;0.03462211;0.6362919;0.5202143;-1.6007426;3.2173586;-0.08771018;-0.68905604;-0.0052479114;0.31256685;-2.9492323;-0.8765025;-0.011302602;-0.53844494;1.8528743;0.14031549;-0.05233774;1.3508474;0.82992256;-2.3056347;1.7854724;-0.9384002;3.0681837;-0.6749142;0.31567273;0.005372624;-1.1029948;0.76796955;-0.22073784;2.3367667;1.5173701;1.0701569;-16.223167;1.3149788;-5.2404895;2.1223931;-1.1443965;-2.3516028;-2.1031759;-0.00501032;-11.538674;-1.623075;-0.023673909;-0.0443121;-1.2886505;-1.5972043;2.371787;2.6056683;0.00095035776;-0.053847156;0.32835233;-0.11727289;0.0066246847;-3.5149415;-0.580975;0.0021235652;1.6452823;-0.020678073;0.031198328;2.801538;3.073459;-2.4247115;1.6420153;-2.8747845;-0.03188385;1.9224888;0.012729001;-0.033222307;-2.243626;-0.070868224;-0.10260553;-4.5291405;3.1618035;-0.44495913;-0.959672;-0.0055745877;2.8675525;1.2844806;-3.1829154;-2.858821;3.3454866;-0.02770117;-3.3769658;-0.0059351237;0.04625496;0.15794711;-0.0063604307;0.74215907;0.47235024;-1.9045354;-3.0065625;0.8065915;-0.23512857;4.6538024;2.922621;-0.018283492;1.418384;0.053771775;-0.0013378211;-1.3078237;-0.7070215;1.6127843;2.8864067;-0.0749271;-2.3499477;-0.814336;1.6151569;-0.04599592;-0.6926959;0.070109494;0.02405797;-7.507469;1.3978142;1.034139;-0.21175301;0.014708836;0.08790642;0.9417865;-0.00866277;-4.201292;3.8079798;-3.251566;-0.0040721376;0.6412266;0.0011608807;-4.811223;-0.31839418;0.018375145;-0.028645677;-0.8184859;-2.736626;1.6619791;0.07481846;-0.9001764;0.20680642;0.65682554;-0.10713252;0.44718203;0.021244977;0.0070869694;-1.8202851;0.86284673;1.5541533;1.765014;-0.025265725;1.4896399;2.9174066;5.064736;0.12594026;-3.0321755;-3.3385417;0.030639999;1.2118696;-0.05660796;-6.4179096;-0.23835829;2.1257114;0.015707474;0.44811934;-0.114371724;1.4280233;0.20005284;2.7091603;-2.1051846;-4.4094386;1.7161255;-0.046077866;-1.3037535;-3.2972236;1.0703559;-0.0268476;-0.0044472045;-2.2391396;0.6919604;-1.5271692;0.8593408;1.5595572;-0.019901339;-3.6032648
-3.9189138;2.607189;0.036136556;-1.943116;-0.021841787;3.3733459;-0.99051815;-0.071328364;2.3643193;0.03720084;-1.1277682;-3.7507536;-0.009044224;-0.05040229;-1.4978244;0.033262007;-0.0054827523;0.36674267;-1.4344298;-1.575222;-0.8890414;-3.0835733;-4.3253603;-1.625858;-0.025388356;2.046785;-0.033588443;1.6603286;-2.1662617;0.5806047;0.92196625;1.8715822;3.4858315;-0.026279826;0.011823057;-0.0284327;0.048736136;-2.5528448;0.7465548;-1.8456372;3.8392947;0.094026335;-0.12840447;0.71751255;-3.4822083;-6.4955525;0.02418178;-0.04139474;-0.06008951;-2.1291049;0.02281491;0.6223953;3.8480089;-1.9244467;-0.016725846;0.00013932337;1.2169449;-1.655506;0.7985117;0.013468501;0.025995731;-4.0005627;0.0049897153;-0.01676282;-8.533888;1.7134;-0.026380347;0.33418992;-0.8368981;-0.3392607;5.17022;-0.0075705103;0.9917297;0.5061014;-1.9391824;-0.033362865;-2.201489;0.7892493;0.009749979;1.3654518;-0.045491274;1.0837005;0.03947351;1.9683964;-1.3919123;1.4459064;-0.015556671;-1.789617;-0.10501902;0.011751001;-0.79885954;0.025471421;1.1685566;-3.214007;2.168608;-1.4970285;1.1885439;-1.7712595;0.829895;-1.378431;-2.6624308;0.12993589;-0.20918359;-2.019762;1.364179;-0.3634134;4.502977;3.6488776;-1.4897051;1.8875604;2.5082572;3.8501825;0.021937814;-1.3717659;-9.272461;0.01739044;-0.033375584;3.4020038;1.372822;0.8286518;-1.136952;-2.2653954;-0.1683308;0.15493794;-1.6036563;3.292858;2.4022064;-0.5791774;0.36241022;-1.1639541;-0.43189707;1.7636461;-1.70231;-0.04379484;-1.2467029;-0.014174686;-0.32396996;-0.8506127;0.1826831;2.1316085;0.009922655;-0.9886159;2.428622;2.2199738;0.94895905;-0.02267773;-0.56172085;0.0027605665;-2.8275526;3.252153;0.017187705;1.2388675;-2.9236917;-0.26327866;-2.4292586;-4.661746;0.01505061;-5.053395;0.011007847;0.6624998;1.3615674;-2.0554068;1.8638201;-0.019804861;0.15072422;0.56871796;0.012508032;1.2256802;2.676533;2.84976;-1.9278599;0.018938908;-1.9726385;-5.6116333;-4.5390615;2.408496;-0.08091609;2.259673;-3.8015273;-0.0036389455;0.011353866;-0.05052271;1.925314;-3.0183196;-0.057235893;-4.3509026;-0.04188424;2.4065704;4.083727;0.057076603;-0.7472223;-0.7747205;-0.00547309;-0.0008419242;-1.8689411;1.5622321;0.34343484;3.3155086;-1.9486586;2.4049757;-1.9372842;-4.16303;1.9214981;-1.2784103;3.3752477;-2.411501;-1.8297284;0.39899734;1.9697217;0.15909767;1.5217379;0.25102594;-1.5638114;0.038306233;-0.16203983;0.004405256;0.09061538;0.5067583;0.9201456;-0.82924604;0.09981684;-1.4394102;1.3216627;0.021698624;1.0421494;-1.6849046;-1.0362167;0.1997618;1.1410758;0.005659738;3.8520231;1.0625378;-0.6405248;-0.022239562;-2.1828396;-1.255495;-1.7135099;0.030504318;-2.647282;-0.8135306;-3.220705;2.2912114;-1.4495482;0.02847958;3.1615455;-0.29289755;-0.0943181;1.2434394;-0.011246298;0.82376796;-3.0065262;-0.011226359;-4.976316;0.6058579;0.0034960497;-1.5208777;-0.36220995;4.253046;0.043297272;-0.014624093;2.0924206;0.8159713;-0.08168672;0.04395891;0.00574019;-0.3349036;-1.4586703;0.055392463;0.041927084;-1.9013177;-3.3841937;2.8336709;-0.90981984;-3.6720724;-0.046577107;0.017079132;-0.8545869;-2.212495;-0.03256995;0.010684459;-0.04714208;2.3872392;-4.457511;-3.060274;-1.3455931;0.93549424;-0.018920211;1.1410718;0.011491557;-0.1542719;-1.9675751;-2.195552;-4.5424466;0.80423594;-0.18533745;0.29631093;-3.2418764;-2.0034177;-0.15646704;-0.007641049;2.2575707;-9.47991;0.024673149;-0.90521896;0.79098;-1.9248526;-1.6616713;-0.097208425;-2.6859365;3.932202;0.9922178;-0.015719067;1.9728131;0.060339916;2.1483662;-0.27823412;1.1083755;-1.6509742;-1.8418053;0.027559122;2.3364763;0.4785192;1.2234585;-0.018298002;-0.0077085434;-2.4705925;-0.10197833;0.046191815;-2.6253102;-0.016951418;0.017009823;0.025178269;-0.0086148055;0.021279339;-4.6648455;-0.0057832496;1.0959768;2.575823;2.735339;0.747864;0.034977444;1.0197823;0.0084174145;2.174487;-0.9217228;-2.8213003;-2.56939;0.32557896;-7.1951094;0.019762838;-0.0005567288;2.3173938;-4.3550863;0.36223248;0.01089509;-1.368893;-1.131686;-4.5723586;1.5616134;2.65788;1.0958227;-0.027650675;2.2658257;-2.8303268;0.9806125;-3.4882355;1.7671684;-5.6227126;-2.6277192;0.08257149;0.000670273;-0.010223876;0.028587263;-1.469446;-2.8359594;0.021158038;-4.859104;1.5006319;-2.4686174;1.4894903;1.1072595;-1.6483196;-0.47647536;-2.6197069;-0.7350375;-0.27403066;-2.4965441;2.4547954;0.7737508;-2.0103664;0.65085316;-0.00952085;0.015523447;-1.9192387;3.7989187;1.8758978;-0.0023826135;-0.008440533;-0.0055243243;-0.14422694;0.63202804;-1.6739545;4.038395;-0.045900397;2.8994558;0.024998715;-0.9581037;-0.8703339;-0.54123235;0.01088937;-0.16762465;3.158734;0.21704696;-0.0002373866;2.4745088;1.526705;-0.4610987;0.9298379;0.30874947;2.2934375;-1.8155223;1.0056989;-0.01243423;-0.70597124;-1.4841565;-2.720387;-0.64018434;-0.63447744;0.6324927;-16.351803;2.4320142;-1.5884482;1.6632785;-2.462766;-1.1360604;1.0322875;0.014779766;-12.598737;-0.42205238;0.000896798;0.005145773;-0.9026937;0.55314225;-1.0936995;0.78816944;-0.038170654;-0.048041906;-0.6193906;-0.07196669;-0.014963905;1.0185297;1.9428449;0.0050102803;-1.1560892;-0.0050705434;0.0044554546;2.042457;3.9399078;0.2933774;-1.8745643;-3.7392383;-0.0047065257;0.2226207;-0.06964843;-0.09660881;-1.6766435;2.1207302;-0.010073618;-2.5782454;2.1191113;-0.41069144;-0.5253322;0.015404347;3.7440953;3.8459413;2.7384865;-3.4846509;3.0495346;-0.010465323;1.9302106;0.038740207;-0.040068917;-0.13615702;0.00491607;1.5898054;0.7789428;-2.6581235;-3.039654;2.698628;-1.0906062;2.8616056;1.4277567;0.0007758066;0.34472716;0.024231788;0.016594628;-3.57559;0.26387104;-0.4879718;-1.0240337;0.54913974;-3.0670307;-0.42303595;1.9672164;-0.013993455;-3.1815174;-0.0022589786;0.0061395993;-7.913371;-3.825191;1.3725322;0.39535984;-0.034908507;0.019667419;4.056338;-0.028167717;-0.4335505;0.24553129;-1.7540542;0.0024721916;1.9599081;-0.021540057;-0.21564113;2.2623303;-0.028718708;-0.041383654;-1.0112276;-4.245867;1.2519946;-0.0032767472;-2.2073004;-0.58797616;1.0674398;0.27562362;0.54135185;0.044813927;0.014309108;0.15980345;0.43507063;1.1031411;0.87467045;0.007014922;-1.343781;1.3158573;3.3913486;-0.49477288;-2.5834007;-4.6351476;-0.027755488;-3.5430799;0.017346475;-5.865448;0.34474045;-1.289719;0.03667937;0.81122845;0.042169645;-0.09779144;1.6897022;1.8752795;-3.623763;1.2335827;0.0008190614;0.011013291;1.5343572;0.36323828;0.4983454;-0.04701061;0.008973026;-2.5168679;2.214895;0.42677638;0.24666753;0.6310298;0.012832377;-1.4522128
2.3024461;1.0289081;-0.035495877;1.2681848;1.4358834e-05;3.020748;-2.3042233;-0.0730387;-0.27587843;-0.041495956;0.4534759;2.0184343;-0.031445265;0.027294708;-2.4311218;-0.0018701077;0.027420836;-3.135815;-3.8512845;-2.6969426;1.667153;-0.44270217;-4.543514;-2.3187976;-0.0123521;-0.35061643;0.033590756;3.5916;-2.7911308;0.3750341;1.7683415;1.2433474;3.8602378;-0.045623913;0.01692206;0.020005632;0.019377246;-3.2782829;0.536642;0.22262126;4.0444965;0.071054086;-3.2508585;-1.7130405;-1.3302438;-5.1067142;-0.011979157;-0.17739959;0.26163658;-3.1801605;-0.007600246;0.49281865;3.2535625;-2.404521;-0.9798749;-0.019163582;-0.9104983;-1.7155964;-0.2974597;0.040632553;-0.09734409;-1.4500204;-0.0115079945;-0.021007169;-7.0119514;0.08804535;0.043961708;-0.023555098;-4.4531713;-0.099081196;4.635804;-0.015430817;-1.1178392;2.274058;-0.8514585;-0.14514938;2.1015704;-0.06259894;-0.009377457;-1.5508758;-0.18652713;0.9140712;-0.017525619;-0.35785067;0.93571573;-0.35062432;-0.0068638087;-3.0882654;-0.09207929;0.029520288;-0.84323734;0.029206593;2.0197964;-1.7288257;1.1999484;0.4298553;2.6285503;-1.494788;0.61792237;-2.2182438;-2.02738;0.78265584;0.71774894;-5.199176;0.6925581;-1.3869437;5.000401;-0.023962462;-2.323325;-2.4485464;2.6317725;6.553023;-0.018366642;-1.5246255;-10.156257;0.00015985263;0.0045509054;0.4256518;-0.58977795;2.5604794;-2.8112411;-1.2398196;0.5417959;1.7071054;2.394533;1.9945353;1.3847406;-6.158083;1.5091751;-0.46829584;2.8664892;-3.886491;-4.2000785;0.003282622;-1.7318113;0.0571592;-2.4658284;-5.958457;-3.0565703;2.6092207;0.018562423;-2.0884354;0.77772355;1.1994619;-1.7289145;0.028972562;-0.8033929;-0.0336723;1.0895652;1.5334618;-0.06704527;1.1425674;-0.40461585;0.92425495;-3.0229292;-2.2564566;0.6031353;-2.274631;0.011004235;-1.9229404;-1.4061518;-2.77686;1.9199985;0.003526789;0.49335507;0.58712155;-0.06318295;0.0122534735;0.5662379;0.31916407;-3.8913167;0.0033410736;-0.097078815;-0.5474784;-0.93548036;2.5263846;0.022738855;0.6119299;-3.022521;0.025369298;0.067775436;0.114304766;0.041621603;1.6534606;-0.012752299;-2.7509727;-0.06270577;3.1733198;0.95040745;-0.03545646;-0.12978972;1.0205674;0.32164708;0.009671093;1.7348342;-0.9374004;2.906871;3.8173404;-5.915942;0.4366028;1.4983745;-2.923527;-1.0507408;1.1780554;3.43443;-1.4215473;0.36750212;-1.455189;1.12367;-1.1332756;2.6780453;0.3404864;-1.0118929;0.02538836;-0.09828599;0.06376146;1.7786286;0.006374689;2.298105;-5.739093;2.3631468;2.464197;0.41317526;0.0145807685;2.5928936;-4.368358;-3.2502625;-0.12982415;2.63938;-0.05316154;3.9091172;0.8823673;-0.92241174;1.3792559;0.59627783;-0.27471414;-2.0597198;-0.05157849;-6.023554;-1.4044751;-4.4526362;2.1508045;-2.1219296;-0.001813725;4.681463;0.5837888;1.2102307;1.2136256;-0.008880491;0.2519321;-3.393438;0.009725986;-0.9078071;-0.14665218;-0.014833585;-1.6515546;-0.9684212;4.671804;0.29659396;0.02309986;-0.8756894;-3.1127174;-0.029233463;-0.0036015736;0.07703844;0.72574985;-1.9094237;2.1389556;-0.33330053;-2.178079;1.4783084;2.5025508;-0.21365426;-2.8300505;-0.024078578;0.001401507;-1.2733752;0.2832015;0.004488617;-0.004930221;-0.0041922284;-0.23333031;-3.5172043;-4.586487;-1.4628265;1.7580618;-0.0028033657;-1.3667365;0.034550793;-1.5487428;0.40100324;2.1173785;-2.4226966;3.1454103;-0.491619;0.41745356;2.0216773;1.3736823;-0.032777246;0.0062425304;3.9093406;-8.4271755;-0.02573731;-0.32280383;0.24496551;2.746148;2.2259243;0.026550237;-1.8407885;1.5726271;2.1223416;0.056307163;-3.5536914;-0.064274095;0.037541285;-1.0849259;3.2032285;0.1199237;-4.871298;-0.005267864;0.8054613;0.53765374;-0.61340296;0.010835592;0.03934782;1.3079232;1.1801714;-0.02357206;1.9746355;-0.038247943;0.030143213;-0.014659024;0.010273232;-0.062166158;-3.1382694;0.019224675;0.7238573;3.6417992;2.2958806;1.698487;0.008716195;1.7124866;-0.011881379;0.642349;0.7241218;-0.15752582;-3.341762;0.8560304;-3.8753488;-0.03518501;-0.0067493822;-0.6097401;-3.096708;-2.0820951;0.004636743;-2.0358837;-0.5315302;-5.1274104;0.9274302;2.8797898;0.27736935;0.015875611;-1.3162112;-4.5544415;0.05645354;-1.4599308;2.2135048;-3.790742;1.3749214;-2.3569279;0.037654333;0.016480645;0.022427777;-1.679658;1.0174491;-0.019377805;-6.092188;1.7688966;0.5265422;-0.8001137;0.96318114;-1.232064;1.2088292;-2.3894093;-1.9982901;4.947751;2.9854193;2.9328325;3.095287;-0.80103517;2.9939823;0.03528702;0.013383578;-0.7814809;2.2667372;-0.9251565;0.028710183;0.04388457;-0.008681178;-0.064267784;1.7945067;-2.1188626;-0.037496634;-0.05094536;2.036976;0.017619139;0.20170687;-2.6723728;3.4042885;-0.020072436;-1.5155493;0.8393684;-3.1344504;-0.0028497207;-1.2925725;1.2530571;0.40610984;0.039595056;-0.44806173;0.49250206;-1.1882973;0.5660102;-0.045568407;-1.5045432;0.10798461;-0.85350347;0.25399292;-3.278691;0.083536364;-16.396782;1.0676366;-4.4234095;0.53282046;-3.8730948;-1.3816236;-4.8000755;-0.0028417937;-12.754192;0.54404825;0.082664356;0.002918004;0.32915252;1.203395;-1.1359007;0.6659655;-0.0109032225;0.0132295685;-1.3826861;-0.033014424;0.059309028;0.8889717;0.8974824;-0.005308338;0.24411173;0.022783997;-0.020335605;2.3623352;1.6043383;0.26140985;1.605245;-0.79095954;0.00072551466;-0.74362695;0.015597499;-0.0064167716;1.6375389;0.23469493;-0.019922907;-3.3518794;1.5592213;-3.174297;-1.7196245;0.026228035;4.0279193;2.710536;0.29162118;-1.7145123;2.3005028;-0.0090127885;-1.360589;0.014683426;-0.08727104;-0.5980507;-0.0004048732;-0.496329;0.47969437;-1.647964;0.3861238;4.303899;0.07501539;2.4763324;1.9854065;0.017463244;3.3789153;-0.011174937;0.03744425;0.33052433;1.6752306;-4.31625;-1.7841394;-0.20050164;-2.2545378;3.596853;0.0015548746;-0.01791783;-0.60409087;0.026952472;0.014341995;-5.7742405;-1.8479561;-0.19436832;0.8780503;-0.07663889;-0.01898101;3.0720818;-0.0033346794;-0.20400587;3.5939312;0.008741088;0.030511158;0.35088843;-0.11305018;-2.1742733;1.9455599;0.032180924;-0.03653934;0.13065721;-4.6767225;2.139408;-0.06565861;-1.5016265;-0.2261153;1.10395;-1.5563617;0.3489515;-0.047064275;-0.02991055;1.3875686;2.779069;4.426137;-0.15810163;0.029616326;1.3346049;1.9743878;4.48499;0.24436885;2.2207875;-2.88395;-0.033229455;-0.4255262;0.038897045;-4.5037785;1.1311972;0.5659918;0.0373509;1.6048723;-0.10737941;0.9436318;0.3726349;2.291987;-2.539682;-1.4707642;0.074627824;-0.006572329;2.0878396;-0.95068836;-1.9731294;-0.17225736;0.007221289;-2.29576;-0.9752055;-1.1625077;-1.6845912;-0.18561958;0.011333102;-0.8082638
2.7099795;3.052328;-0.054347962;0.87725645;0.004160349;1.9058065;2.3665261;0.12738164;2.855988;-0.108929135;1.6676257;3.4093125;0.038043793;-0.0106843645;2.3390825;0.065984584;0.010822898;1.1868911;0.6438188;-1.6813049;1.8426343;-2.575208;-2.2398155;-1.2285814;0.040002476;2.2359853;-0.027372908;3.6406121;-0.0140481675;-0.27695107;2.1426563;1.4689406;2.97409;-0.036222864;-0.038847014;0.002741828;0.055081822;-3.3732972;1.3088585;1.4997897;2.7420325;0.47142687;-3.3511863;-1.3018987;-4.170918;-5.6113906;0.033790074;-0.060024016;0.54533833;-0.5654416;0.019072615;-3.4653955;-1.5886606;-2.0994701;-1.9531051;-0.029883781;-3.1518114;-1.2806287;0.11756133;-0.0060879043;0.40358102;-0.68808585;0.03422984;-0.0012800068;-2.339743;-0.880172;-0.06406698;0.09600153;-3.6973095;0.054079942;2.5416813;0.020709157;-0.9512876;1.5841775;0.5412803;1.0050057;-1.3185998;-0.1324415;0.01182037;2.1690876;1.0922457;0.8432559;0.016040787;-0.41323626;-2.0900364;0.8568701;-0.015559748;-2.7239528;0.9843743;0.046157137;-3.1879487;-0.016422892;0.78663063;-3.5925205;0.43310466;-2.8935447;0.4481628;-1.3092101;-1.3756227;-2.2019937;-1.260274;1.7231165;1.1139321;-7.659132;2.205105;1.1801298;4.450588;-2.5162523;-0.3019771;-1.5086282;3.2028437;2.3653717;0.009194566;-1.1283094;-8.7140045;-0.018574076;-0.03821781;-0.32327807;1.3356857;1.2846081;-3.7307055;-5.84138;-2.5531135;2.5082695;3.7711735;1.3692755;1.9823778;-3.5018709;2.0261621;-2.8840222;-0.23815233;-1.9564744;2.092893;0.025108144;-3.7491095;0.035066243;-1.3862416;-9.414141;0.29189733;0.82183546;-0.0030445438;-1.3530786;2.1494942;0.74616313;-1.5859817;0.051825;-1.0077865;-0.0131353615;1.6438237;1.5578213;0.025166472;1.8546828;-1.3934252;-0.09286741;1.1887505;-1.826968;1.9444507;-0.82319826;-0.058003806;-3.2953882;-0.75220066;-1.137896;2.1499276;-0.008288385;0.1664476;-0.155329;0.007546204;0.57651216;-0.20484672;-0.3095962;-2.7196891;0.05789454;-1.5721337;0.9019178;0.5070212;1.7706313;0.09035205;-2.8063366;-1.329995;0.03894884;-0.019123869;-0.025524234;0.9966863;0.18321736;-0.04273037;-5.770754;0.001729584;-0.17033793;2.7523696;0.01757477;0.54015666;0.4113393;1.3755448;-0.053395916;1.3020856;2.7276928;2.1461124;5.177306;-4.462631;0.40446487;0.9319869;-0.4950411;-0.551619;-1.4925113;-0.57600343;0.47242993;-1.7619237;-2.5545144;-2.8938856;-2.932307;3.4980829;-0.05441399;-0.8915453;-0.025388557;-0.72598773;0.037301272;2.7940025;0.56662464;2.4207752;-6.8672113;-0.39642286;0.101443484;0.7304502;-0.019616216;2.7839665;1.6011269;-0.7772869;0.8074931;-2.0680244;0.07617983;1.7624607;1.7167168;-3.1516259;-3.6260126;-1.7160857;1.950342;-1.8124577;0.031673916;0.0106589;-1.1522292;-6.8035493;1.6978351;-2.9923816;0.08119748;1.6038117;-1.2246848;-0.64349914;1.207901;0.0028751122;0.0483714;-5.288133;0.043169837;1.025672;-0.40385765;0.022163762;-2.377882;2.609984;4.6963644;0.09338217;-0.0014956256;1.8582814;-1.0708308;-0.014856994;0.0110911345;0.0021412873;-0.1729373;0.42481;0.5197459;1.1108367;-1.8822324;1.3109219;-1.487304;-0.5464671;-0.8849762;0.3947528;0.07653734;-3.376223;2.6944711;0.020195998;0.07357118;-0.030990025;1.0537856;-0.61968786;1.1409553;-1.7212615;2.1096597;-0.069683634;0.46918517;-0.007179928;0.16901594;2.5979316;-2.2813895;-1.7554972;1.634309;-2.29881;1.3926165;-1.090388;-0.7164708;-0.016005866;0.018324992;1.7901968;-3.6175616;0.013408871;-0.06922057;0.09708474;1.9519181;-2.939613;0.10640991;-1.9915512;2.085423;2.1974564;-0.04280587;2.0528438;-0.026864186;1.5679476;-1.8383633;1.3795885;-2.1610787;-1.2611815;0.05991424;-0.03595122;-1.4192524;-0.81913364;0.02889147;0.014144545;0.4054676;-0.32620317;0.021744434;2.4100406;0.035113603;-0.018637033;0.020679273;0.035349675;0.029126843;-3.9832337;0.03731009;0.96662074;-0.36241204;1.8200139;2.3187413;0.00219243;0.50757664;-0.0055790404;0.6260841;0.2433087;-0.8115074;-3.3321757;-0.30637905;1.8349445;0.027551988;0.0017163877;0.9170253;-1.7980216;-1.9393333;-0.0011151339;0.07716273;-0.22667658;-4.450577;1.0575596;2.8143952;-5.1347294;-0.030332278;1.3208821;-3.4944856;0.5556563;-2.0683622;1.3208585;-2.6049826;0.12751979;0.12844852;0.026240906;0.0067535522;-0.016339954;0.2759862;1.558142;0.03332298;-3.4193976;-0.53082335;-3.4716778;2.2733681;-0.63010526;2.3794904;-0.60481924;0.14908019;0.5901626;0.7832799;0.5322567;2.444503;0.7211926;0.013136145;0.506986;0.0031545213;0.024467692;2.3951056;1.0198101;1.5116842;0.016600633;0.0011686004;-0.016254637;0.07651963;2.855893;-1.4935114;-0.7226572;0.18481468;2.1295083;-0.0067951004;0.41771498;2.3348136;-0.11620476;0.057029158;0.6295538;-0.7280557;-1.4277922;-0.045789722;-1.688226;2.5637386;-1.3317977;1.419047;-1.3696282;1.6090424;0.8419618;1.7513893;0.011040349;-0.6184413;1.6524609;-2.055697;-1.2717564;-3.1574082;-0.309075;-14.34675;1.7311358;-1.2553936;0.7175316;0.31323004;-1.9086833;-2.6216161;-0.0038310527;-11.574523;0.26878136;-0.014742667;0.027457397;2.7402413;-2.8279412;0.55763906;-0.18812467;0.003444227;0.039461818;-1.7535516;-0.03614585;-0.0034787937;-5.7719865;6.570981;0.027855102;-0.54412574;-0.012986292;0.0067299427;1.395472;0.7378458;-0.7352116;0.34884694;-3.590672;0.013977146;-0.8265245;-0.13716358;-0.029208593;-2.9268618;-2.7246575;-0.0054009105;2.149517;-0.07412154;-1.4310628;0.60629135;0.052293517;1.3801966;0.29264957;-3.1415706;-3.0633805;0.69496894;0.015182179;-2.36131;0.0001869133;-0.32143354;-1.1736717;0.0020418866;-1.098652;-0.061945707;-3.016075;-2.1213112;3.345489;0.90436304;3.0254972;1.4285179;0.052137624;2.3672447;-0.018080333;-0.025862675;-2.4394264;0.9001539;-1.8562943;-0.07807323;-0.046832107;0.36333936;2.133444;-1.6616687;0.02081935;-3.8366137;-0.014558789;0.05348093;-3.2322044;-2.670059;1.0619894;0.055036366;-0.08050245;-0.0021524592;0.10880902;0.048065007;-2.8953571;4.2030067;0.6199339;0.05034895;1.3978928;0.87422043;0.14572078;1.8932294;-0.01484666;-0.023696257;-1.1756876;-2.8871155;1.1347656;0.008910286;-3.035655;1.4565235;3.873913;-1.3446219;0.71181875;-0.03405932;0.058367822;1.0441724;2.5472865;0.5879151;0.026225159;-0.047778323;2.5438027;-1.1230519;3.358866;-0.6455579;-1.5948023;-3.026351;-0.046723623;-0.61297196;-0.07049347;-3.2623425;0.9182509;1.6850623;0.008187504;-0.058444344;1.4314057;-2.0787547;0.36044842;3.0512328;-1.1824669;-1.5975213;0.18812555;-0.007760999;-0.84634554;-3.5826235;-1.7858894;1.127494;0.03897429;-2.3774395;-2.283108;0.17358932;-1.1745782;-0.37882861;-0.02619214;-0.42822304
1.2576275;1.6284586;-0.05314144;2.4399102;-0.010888727;5.235913;0.5864885;0.021637775;2.8037837;0.30847275;1.7115086;1.1404253;-0.019431619;0.010526559;1.2237684;-0.038933586;0.004338653;1.3981041;-1.0844134;-1.8618158;2.8918302;-3.1168306;-2.3045537;1.8331395;0.010652768;-2.581547;0.009062812;1.0968133;-2.783161;0.96478134;1.342609;1.8191023;2.2192354;-0.094931826;-0.046572473;0.033628646;-0.03824408;-1.8183308;-0.7788169;1.2249525;3.8688426;-0.4245486;2.0201123;1.8163033;-3.5449588;-1.0458713;0.011061819;0.51206696;0.033733428;-0.8498868;0.043124784;-0.9744496;-2.734586;-2.1700747;-3.5380616;-0.028178174;-4.0094132;-0.60982203;0.17630298;-0.030664599;-0.17851901;-2.855883;-0.014527942;0.043564517;-1.5885134;0.008313823;-0.0021732498;-0.110985495;-5.9556756;0.18819347;-2.0912628;0.024954317;-0.009141361;3.4882631;1.6656432;-0.09968871;-0.159294;0.80651784;-0.036688775;1.1774523;-0.08142086;2.4448707;0.012498822;0.7528847;-3.2700274;0.64507985;0.07956858;-2.0146475;-0.1286939;-0.027447183;-1.8024852;-0.016250642;-0.04448138;-1.9467016;1.4442141;-7.046073;0.9042428;-1.9401543;0.58858144;-0.3711733;-0.4950144;2.69564;2.5120618;-8.691602;5.256074;-0.9804168;4.5676584;-2.000043;0.5648639;-3.9558866;3.0660248;0.72206575;0.0039281184;-1.4546384;-9.876024;0.030983217;0.044312287;1.5839633;2.1746836;0.16685954;-2.0424786;-0.42396903;-3.462501;-0.37945363;2.609966;2.7390018;2.5965939;-2.0511782;-0.044901833;-2.0324607;-0.5925206;-0.0579494;-3.4365063;-0.051378477;-4.003321;0.010340655;-1.1085789;-10.301732;1.7614468;-1.3264623;0.14117144;-0.07261236;-0.6320748;0.853206;0.06746069;-0.007002715;-2.142951;0.017220113;2.2501075;0.6688541;-0.025635485;1.9351445;-3.674317;0.05858197;-0.038874153;-2.988449;1.6780447;1.890981;-0.010248921;-0.1064307;-0.13692597;-4.648182;-0.3134717;-0.029510723;0.012279644;-0.86959195;-0.1608613;2.6883528;-1.4580866;-1.0333096;-2.0762444;-0.016686859;-3.766677;1.5201099;1.2523972;1.3378967;0.23912823;-1.682138;-1.4102395;-0.045158654;0.0056351325;-0.0044802576;3.4262028;3.5955155;-0.0809618;-2.819316;0.002413786;2.5796397;3.9531193;0.046487704;2.3796713;0.8766104;0.28682607;-0.026471622;1.3014172;1.8189162;-0.32163587;5.241237;-1.8948529;-0.95610446;-0.08437026;-2.3475037;-0.09833012;-1.337888;-3.4223351;-0.45133367;-0.06339598;0.6379304;-4.536836;-3.109338;0.38542074;-2.3657026;2.0345328;0.0049423412;1.4475834;0.0010571772;4.7692685;0.5244104;0.46249405;-6.8141356;0.97136426;-2.3548894;4.255561;-0.01784414;1.2169616;-0.04953966;0.47429729;-0.4021257;-1.6093534;0.0076757823;3.2707083;-2.5968454;-1.1228527;-3.020761;3.6320586;0.5166696;-2.342203;-0.012260267;3.7510784;-0.72650987;-3.4230528;0.11587457;-1.8701925;-0.05236323;-2.7268274;-0.7336229;-0.5780695;-0.78304225;-0.035719186;0.47242182;-1.9023565;0.020006377;2.0845754;-1.0287248;0.018969724;-2.3657048;-1.1957664;5.553469;-0.15631382;-0.019537518;0.8363707;1.6281029;-0.058194034;-0.04268864;-0.045918617;-0.9235924;0.27877492;4.1396756;0.5051441;-2.2808979;2.1951442;-2.3680708;-2.3186123;-0.5632597;-0.1623958;-0.035568956;-0.22010088;3.540868;-0.13699706;-0.03731202;0.0039575896;1.0810063;-1.6510838;1.680959;-2.1008997;0.6890558;-0.0014847844;-1.1635324;0.033300515;-0.29344583;0.3882152;-2.064683;-2.1040325;0.44025454;-0.3176472;1.6696479;3.4036596;-4.077802;0.031459093;-0.015064885;0.3955302;-0.09370759;0.0030302869;2.7994146;1.4686779;0.6599156;-2.1371543;-0.16699673;0.4390859;-0.40390933;2.4919503;-0.040059872;-2.60458;0.053282388;1.2832047;0.55038303;1.8455621;-1.251587;-1.009037;-0.04271817;-0.04567548;1.0016578;2.8280866;-0.014691657;-0.002383076;0.67245746;0.44462153;-0.046350475;-0.32007506;-0.055595174;0.014134059;-0.017564353;-0.043826714;-0.03342262;-2.1362364;0.041431144;2.0625937;-0.67064506;3.433312;1.1297159;-0.028351234;0.21781422;-0.026295105;0.2651381;-1.1461798;-0.7275914;-2.852326;-0.31136316;-1.7262067;-0.03531409;-0.015891591;-0.19997257;-0.1212272;-0.20593287;0.0060932874;1.9569063;-0.118507996;-7.789892;1.1571405;3.1773882;-14.565355;-0.034448314;-5.0818815;-3.2261746;0.5386625;-0.8171814;1.1537857;-3.0904539;-0.14030643;1.6243464;-0.062957376;0.031843137;0.0076790517;-0.24751858;4.843623;-0.015522772;-7.053612;-5.156118;1.1355944;0.05026254;-1.4887094;-0.38571855;-2.1374083;-1.9685328;3.269306;-2.3701644;2.3167791;3.2822847;-0.17003334;1.6889915;-1.0386207;-0.053213146;-0.02072133;-0.8907862;0.112584226;1.8559072;0.014168642;-0.0036198932;-0.031115964;-0.114946894;0.11946872;-2.4797056;-0.7384348;-0.046803474;0.14852221;0.015764153;0.7944393;4.0205603;2.2665267;0.03631268;1.1428494;-0.97770226;-2.9480665;0.058383875;1.1765898;3.2587135;-5.3090076;-1.8789276;-0.7783332;1.8223975;0.78001225;1.0379629;0.09036093;-0.8348125;-0.87086344;-2.863592;-0.5604926;-1.1077372;-1.99568;-14.666958;0.63497275;-1.6134871;0.3313861;0.25269213;0.6924004;-1.4069159;-0.001070963;-12.215145;2.3863792;-0.032438062;-0.01831706;0.2761745;-0.5973641;-2.9103856;2.0378525;0.038295653;-0.046710722;-1.83431;-0.010868304;0.02762358;-3.802659;4.2354054;0.0015018797;1.7107635;-0.0065732277;-0.020765295;0.6407369;-0.52623075;1.9757583;-0.5780157;-2.7653372;0.010055547;3.1035566;0.83381194;-0.068633534;-1.605319;-0.9982018;-0.030855361;-0.119793795;-1.5149038;1.4920582;-2.4186006;-0.0033252405;1.9590058;0.30311033;-1.1185845;-4.2391987;-1.4601352;0.030908791;0.5460952;-0.004381517;0.38354027;1.6820842;0.016014494;0.25284532;1.2060806;-0.21219496;0.6038156;-0.25452608;1.9811614;1.5694599;1.9486964;0.015564845;0.93312;-0.022826478;-0.06641542;-0.27103898;-0.55983835;-1.3920865;-2.232259;-0.007832161;-6.4916987;-1.1365012;-5.7551074;0.07750267;0.669972;0.00042434817;-0.027359068;-0.8390082;-3.5996904;2.5382626;-1.9263332;1.0770197;0.020907551;-0.6974914;-0.0077656717;-2.3531826;2.5187297;-0.542;0.002887379;0.258681;-0.13910364;0.25640252;-2.9654446;0.025521897;0.0055387733;-2.1659212;-1.663727;1.925006;-0.023212934;-3.8787525;-0.6446638;1.9697615;0.6628147;-0.45388412;-0.026930412;-0.03911867;0.312727;3.1662278;0.74142474;-2.8695543;-0.03354588;3.042469;-1.0929573;2.1051526;-4.1741376;-7.123226;-0.4528055;0.0049299826;0.461456;0.015352409;-2.3902004;-0.33241674;2.551257;-0.036822278;-1.3408841;-3.3758156;-3.868454;1.011283;3.3516533;-4.3813963;0.0019919286;0.18931141;-0.05115061;0.24027836;-4.113991;-1.8969191;-0.1343726;0.0049519795;-3.1133008;3.6615427;-0.16953103;-1.3814768;-0.6939585;0.024963753;0.7019797
-0.15117043;1.4511905;-0.04006669;2.6814175;0.090923935;3.2747917;-1.36581;-0.005652677;4.0011497;-0.12859641;1.8192574;0.20363563;-0.009980277;0.019406734;-0.59451306;-0.026553178;-0.0020781192;-0.6271641;-1.4157872;-2.6124923;0.82080704;-2.7349348;-2.1787286;2.145467;0.00076540106;-2.3029666;-0.015014549;0.9117252;-1.4831197;2.3729901;-0.9669071;0.48769715;-1.3799822;1.0779043;-0.0050182887;-0.0013916785;-0.031932462;-0.49363887;-0.11534593;0.6569494;1.4765575;-0.5316337;-0.26379955;1.7607598;-5.2139983;0.2728796;-0.029245276;-0.70741737;0.021649012;-0.48038238;-0.02288152;0.8446891;-3.475197;-2.4256988;2.5430043;0.0105075855;-7.717384;-2.5944817;0.31086037;-0.009821016;0.047623597;-1.1121697;0.019897003;0.031776343;-3.7730095;-0.16513579;-0.06619709;0.12347113;-5.6130133;-0.009566885;1.540675;0.03117338;1.3385077;1.5908539;3.465773;-0.08878832;-2.3039348;0.9362825;-0.011001613;1.236825;-0.18030071;-1.3291365;-0.010292979;-0.28850397;-1.715544;-0.44037345;-0.03902739;-1.800279;-0.09353501;-0.0075848214;1.4472438;0.018456401;-0.64983046;-3.1046631;3.1828969;-2.4733682;0.7446834;-2.0364008;-0.9182412;-1.0681183;0.46714908;-2.0725708;1.8950171;-5.6021476;0.27548456;3.6635761;4.1073895;-0.7371726;0.59262985;-3.3833013;0.88539517;0.30878767;0.005794328;-2.607581;-9.619067;-0.021110801;0.0664857;2.0721564;1.1576726;2.468845;-2.0217814;-0.105566695;-2.1903896;0.70473725;2.205793;3.8627782;1.05909;-4.283314;0.5194662;-4.575574;-0.023073426;-0.21238951;-2.5988622;0.010743715;-4.0122266;-0.029240446;3.1758678;-10.609978;0.9514926;1.1054442;-0.02571052;-1.4079893;0.6558866;0.09334382;-0.82985777;0.002367124;0.38733846;-0.015052379;-1.8007164;-1.4864067;-0.005428615;0.58033717;-1.6171176;-1.1696169;3.6085248;-3.8644416;0.827712;2.5676568;0.021085149;-4.743655;2.34066;-5.1129026;-0.2821175;-0.0060662567;-0.4453226;-0.67969906;0.30172738;0.38299474;0.6800882;0.43700942;-0.30337533;-0.009813764;-3.1360517;-4.4838686;-0.31298497;0.86849034;-0.008276198;-3.1530585;-1.2945108;-0.0017126234;0.008291021;-0.034386754;1.2218425;3.8103878;-0.006266743;-1.595197;0.019986188;2.00205;1.0799503;0.02761841;0.33230114;-0.34752467;0.5417162;-0.030457992;-0.900117;1.1551131;0.35239223;5.4596844;-2.0626469;1.5032731;1.6379356;-1.4724411;1.6804694;-0.88111883;0.2219356;-2.4441767;-0.27521732;-0.024516223;-0.2533176;-3.0055964;-1.6186678;-2.5101533;1.4266528;-0.047879126;0.063909926;0.039084237;3.3043988;0.11895699;-0.77097815;-5.6504226;-0.5719054;-0.20963679;-0.28893027;0.058465865;2.2036173;0.7760637;-1.8032159;2.8637893;-2.4146745;-0.0027155657;3.5974455;-2.037516;-2.0265276;-2.9878008;0.8550675;0.5156396;-2.3695676;-0.019667456;1.6677016;-1.3759754;-5.1620774;0.32211456;-3.5338569;0.014192176;-0.80334944;1.2948166;0.9682465;-0.19416387;0.0015871861;-0.24196352;0.64281654;0.026496828;-0.6567345;0.40653062;-0.019639216;-2.3836088;-0.29420736;5.446627;0.2848122;0.01674703;2.1914718;-0.31872872;0.9869747;0.0025453155;0.012829476;0.33067408;0.618913;3.3370645;0.57151407;-2.288138;0.33131915;-1.1807969;-5.8029685;-4.1557126;0.036597982;-0.0024280434;0.9167526;2.1934528;0.8757597;-0.03947031;-0.006425622;0.09424066;-1.2747927;-2.5903893;-1.8964878;-1.5168939;0.048912283;-1.042193;0.0020528198;-1.0011116;-2.0272837;-2.3164394;1.1880851;-0.9395683;-2.1163673;0.3143737;-0.7845983;-0.1733892;0.0014094348;-0.01915348;0.02886517;0.2664571;-0.004064447;1.3242857;-1.2717998;0.43304998;-2.096082;0.102705315;-1.3067124;2.570508;0.3080809;-0.012154145;2.2853446;0.009772692;0.27709407;-0.38388354;0.61161226;-4.8396707;0.61172444;-0.00775592;-0.73127884;0.71669847;-1.4309332;0.022260362;0.01666873;1.3493352;-0.31712922;0.74503076;-1.711374;0.02561747;0.026797777;0.0429353;0.060777485;0.020367514;-1.7234958;-0.052678153;2.8319294;0.7608981;0.26925486;2.0820305;0.029586468;-1.2439597;-0.0021952216;1.9621745;1.5321591;0.2712496;-4.598898;0.12904759;1.8504932;-0.0071321633;0.07744996;0.072211206;1.3565706;-0.5358349;-0.037883773;-0.9974212;-0.64371115;-4.4840193;1.4989457;3.1889153;-15.580529;0.05242801;-1.3991839;-0.5622126;-0.031578183;-1.908893;0.08768629;-2.500109;-0.99483466;-1.8335022;0.0003137202;0.008522921;-0.016134603;-3.0106142;5.443157;0.0017638132;-6.5775046;-2.4601243;3.3572447;-1.0553316;-2.946435;-1.6386995;2.0603325;-2.2902377;-2.7267063;-2.8029032;0.44757977;3.963753;-2.8885958;0.15908787;0.8430574;0.040385224;-0.012738167;-2.0047274;-1.2233446;0.67788064;0.017405264;-0.07490027;0.0012414075;0.006902647;2.4802942;-0.027461734;-3.8034003;-0.022047576;1.8989664;-0.0067593604;0.58888763;3.8205085;0.10300164;-0.03189765;2.5642421;-2.4214265;-3.5768979;0.017820003;1.0944546;2.6820955;-3.6580238;0.17107992;-0.031921864;0.38329613;1.7987673;-0.85336936;0.026992498;-0.51377946;1.4972681;-3.0042908;0.1048925;0.7462525;-1.2084072;-13.950968;-1.0292034;-0.8631333;-0.08926855;1.5161785;1.4437847;-1.3168106;-0.044709366;-11.401448;0.28131965;-0.019748507;-0.09314888;1.2045007;1.1867412;-3.491868;1.2013685;-0.01669058;-0.038352292;-2.223174;0.04915964;0.03649075;1.3522787;-1.9813035;0.00026230526;1.4739937;-0.0035863863;0.020078981;-0.06391352;-2.1748407;2.2457652;-0.21413055;-0.09594146;-0.029426508;0.47353452;-0.086644806;0.09487549;-1.9509274;-2.099166;0.054323595;-3.367112;0.7828469;-1.0362456;2.5855367;-0.025103021;2.0779889;-1.5857444;-1.2154214;-3.0840316;-3.134412;-0.0045947116;-1.3743067;0.022225816;-0.21101895;0.9533983;-0.021882819;-0.5793942;0.8981451;-0.12373119;-4.4746847;0.59111464;2.7938128;2.4694114;1.5588679;0.012030004;2.3854191;-0.02876331;-0.0012868467;-0.15497176;0.8042044;-3.3579416;-0.672728;-0.038800865;-5.8748584;-3.6737363;-6.446621;0.011414306;-0.45665693;-0.00729874;-0.034613185;-0.9123724;2.5701296;-2.715622;1.5135547;-0.1460709;-0.025217773;-0.2675127;-0.009115585;-2.5363736;-0.96171576;-2.3990424;-0.012566256;-0.4126773;-0.09534011;-2.094095;-2.7756956;0.028499821;0.03875464;0.2699494;-4.651311;-0.053292196;-0.042533547;-3.5683925;-0.8354142;-2.1314852;3.6031003;0.630428;-0.0019377937;0.0052344;-1.3229979;3.564138;1.6057817;-2.4660735;-0.0020776028;3.7957642;-1.7147706;1.9337159;-4.0022907;-1.7555581;3.1462252;-0.034686632;-3.544977;-0.1963815;-0.7125405;-1.89238;2.3540695;0.040095687;-0.056792565;-0.6257811;-1.3935888;2.73673;4.606973;-2.2699802;0.12593721;0.6411838;0.9068866;-0.17874382;-2.2161002;-3.304526;-0.07321541;-0.01472077;-4.062569;2.1349342;2.324117;-1.283424;-2.5068016;0.011710651;-1.7114997
-2.6497602;-0.35797662;0.89670485;1.0898741;-0.040160105;3.0892618;-5.3416915;-0.016029721;3.8779764;-0.01910798;2.380184;1.9317386;-0.004659804;-0.058119535;3.4953272;-0.02823244;-0.020238632;3.8509736;2.2316072;-2.2559338;4.103383;-2.6562152;-0.657216;-0.5797531;0.044427834;-3.056875;0.038091287;0.7170962;-3.961805;1.5059053;0.6446947;-1.5874183;-3.6414902;-0.21384647;0.02291409;0.047041245;0.040031914;1.9244785;0.23075977;2.4639122;-0.037714012;0.4796399;2.0582354;-0.6304619;-4.21177;-0.55688804;0.025604574;-0.049426097;0.011728549;-2.691768;-0.0050543942;1.8051883;-7.2482705;-2.2129045;3.2076018;-0.04004332;-5.868568;-1.4923179;0.25734565;-0.0437279;0.031376034;-2.6777997;0.03928027;-0.021186022;-0.48223954;0.44043916;0.015643107;-0.055041328;-2.4287891;-0.012596409;2.5216844;0.013376123;1.2810061;1.6803074;2.4454362;-0.032718163;-0.28776205;0.73961455;0.016514942;0.5463824;0.00577426;-0.06307285;0.06296964;1.7005253;-2.1948903;-0.7783319;0.056895643;-4.0653605;-0.072979584;0.027625013;0.9361873;0.02150884;-1.2439553;-2.0298655;-0.9921242;-3.9390981;-0.48993236;-2.1774566;-1.3501446;-1.3666017;-0.9728034;0.9656272;2.8124895;-6.0993195;2.1209383;3.7738087;3.920876;-2.3546188;1.6094009;1.047714;-0.61120665;0.14658025;-0.014418657;-0.12869199;-7.017565;-0.025833305;0.022962473;3.0052507;3.2036154;-1.4096823;-2.3369792;1.3849784;0.38298005;-1.5817899;0.1387131;3.7305422;-4.2370276;0.48116744;1.1188822;-1.9731499;1.4948112;-1.0733734;-0.5914417;-0.011607699;-0.8502044;0.0007369464;-1.0247266;-11.927351;-2.055221;1.2713856;-0.011108585;-1.8687855;-0.5643777;2.4404356;-1.9072263;0.01730468;0.2380377;0.008153612;-3.6606665;0.60257727;0.025966357;0.7368031;-3.9808013;-2.1323795;2.4049635;-3.6254022;1.6604323;0.91387236;0.049256917;1.4866014;1.4958743;-5.8561726;-0.57182884;0.013982024;-0.18640332;0.9593224;-0.06149532;0.43512312;2.4131618;4.0342145;-3.5722249;0.008672795;-2.5452743;-2.5452883;-0.0033495768;1.6320698;0.6827934;0.889169;2.9017694;0.030403918;0.016379638;0.02052115;-0.13032952;2.2664266;-0.07263847;-5.5187297;0.030992232;3.1639485;1.2896175;0.0043797893;-4.6003914;0.5903126;1.7603134;0.015408435;0.71756244;1.7828971;-1.2698045;3.3983264;-1.9946395;-0.5777019;-2.3407745;2.4863732;-1.0612031;0.4241768;1.566285;-4.666471;0.8470608;-2.449252;-0.40680054;-2.587207;-0.9632264;-2.38069;0.3897873;0.030090822;-0.3028034;-0.03488423;3.5421429;3.04608;-1.6883231;-4.7752;0.23783252;-7.091751;1.7708133;-0.044699576;-0.033286713;0.7335923;-5.551839;-0.91561973;-1.9736528;-0.0074261297;2.1551292;-2.496791;0.5361432;2.340279;-4.178047;0.47937432;-2.8650594;0.01713413;1.095619;2.2879772;-3.6073186;-1.9125361;-2.8001223;0.036639895;0.34164202;0.82257605;1.934551;0.097039625;-0.0031932844;0.46107256;-2.7204807;0.02908175;-0.29364234;1.4039899;0.026284076;-2.9573371;2.6751323;4.6348867;0.32653046;-0.023608029;0.7105562;0.30925226;-0.23055829;-0.027745534;0.046843313;1.6328495;-1.2724193;-1.6203965;-0.39722827;-2.9110267;1.4874045;-2.9430063;-6.3770094;-0.7948476;-0.036205616;-0.059406456;2.0456762;0.80877244;-0.14264418;-0.011157778;-0.008849735;1.0397619;-3.2243547;-1.2788445;-1.9323533;-3.19426;0.026358204;-0.76395506;-0.049404196;-0.2577123;0.18509878;-3.0296903;0.76092327;-0.57440907;1.8238982;0.23746584;1.5458467;-0.4203331;0.0141099775;0.000108848726;2.806479;0.76315546;0.031091552;0.9150512;-1.0010855;-2.405399;-2.4844356;-0.2187999;-4.0640016;2.5813584;0.82276064;-0.0035540448;-1.0372387;0.020592628;0.8449812;0.044194307;-1.5979335;-5.2778153;-0.6381392;0.0076270727;0.698287;1.5402458;-2.2170625;0.031034963;-0.005856636;-1.3231409;0.3849381;-0.018672548;-3.0577233;0.5420335;-0.020201785;-0.03416715;-0.058596272;-0.038030405;-0.6454463;0.057244375;1.0531411;0.6948551;0.638595;3.6941903;-7.732567e-06;-2.3886635;-0.036676235;3.2981746;2.6517015;-1.3027401;-4.8370557;-0.20907629;2.6912727;0.00015203506;-0.059726793;-1.2911054;0.8047383;-1.6227518;-0.017569767;0.34789693;-1.5743568;-2.0723958;1.0473179;3.440449;-16.464853;0.0077771465;0.30931768;1.5562375;-0.057770956;0.28036943;-0.80278504;-1.440776;-1.252722;1.0790633;0.023740351;-0.009050051;0.04698354;0.9312738;1.359974;-0.0073053786;-3.8915668;1.1529645;-1.1385658;1.5226766;-5.474945;0.9411328;-1.8431172;-0.34770772;0.13448483;-0.6468694;-1.1008229;3.694083;-1.2997223;1.1323742;2.3550258;0.013745506;0.022688413;-3.3121533;-1.4918438;1.3912904;0.038654067;0.07733402;-0.052298397;-0.014848131;-2.0730033;-1.7978252;-5.207105;0.03419581;2.4108815;0.022433283;0.20905685;2.9050493;-1.3821441;0.002778374;1.5479286;1.5259296;-2.3152564;0.010757823;-2.7984817;2.3707488;0.87696785;0.94461906;-0.8824274;1.5683653;2.0665846;0.032101292;-0.014593514;-0.8577921;1.9083338;-1.5283803;2.0390925;-0.8073451;0.33112168;-13.317547;1.371065;0.90663797;1.4609568;0.92358845;2.689658;-1.8268718;-0.007687996;-11.152306;-2.7645164;-0.0065534096;0.0049599987;-3.1349893;-2.8174345;-4.2719383;-0.05726896;0.02997524;-0.12407078;-3.6718488;-0.009674341;-0.010211088;-0.9067501;-0.62004787;-0.0294623;2.203526;0.031476684;-0.043274656;-0.53163;-3.1821308;2.906853;1.2472208;-3.4012039;0.06543856;-1.1243963;-0.0636001;0.25348172;-2.3586311;1.2408106;-0.020215236;-0.93788457;2.6204596;2.6955538;3.9663427;0.043588698;2.9531162;1.3501168;1.3549432;-4.8874145;-1.8266348;0.046206485;0.3060854;-0.0045610047;0.034715477;-1.0040414;-0.012321358;-0.29067475;1.4512998;0.8802664;-3.8440897;3.6545954;0.4831365;1.858655;0.22250296;0.046163168;0.2995364;-0.011010254;0.075916305;1.1968495;-1.2917249;-1.8418695;0.91606003;0.014144067;-1.4310521;-3.3883502;-3.0494213;0.01583072;0.9499845;-0.04069907;0.021522067;-0.24524277;-0.20615767;-3.5878146;-0.9230691;-0.059668608;-0.036429584;0.66148496;0.05146319;-1.8073262;1.1929258;-2.273231;0.010406992;-1.0310959;0.043008596;1.0491426;2.6187453;-0.054018203;0.08845832;-0.0932258;-3.523168;-2.3581555;-0.028814662;1.6553683;-1.983892;-0.6979287;3.9333317;0.39422572;0.035168007;0.036957324;-2.4388385;2.0267665;1.8401096;-2.41705;0.014347067;0.43708336;-0.4319186;0.8855214;-3.8567266;-2.784229;2.882176;0.0011148419;-3.6796806;0.47716662;-2.1774487;-1.7802476;0.39717072;0.024636801;-0.5384167;-3.5927856;-0.62027985;0.17829993;4.0788364;-0.6221156;0.19053571;-2.110178;-0.17028128;0.9308355;0.7998657;-6.247641;-0.009035195;0.085206725;-6.6432023;2.9753404;-3.5033748;-1.6018082;-1.4832406;0.016315013;-3.107169
-3.131975;1.480054;-0.30851406;4.188015;0.03959829;1.8151112;-1.4689565;-0.0029851722;1.1109543;0.00045184125;1.4867362;0.15909256;-0.026037851;0.012318963;-2.622347;0.03369102;-0.037357647;0.3921577;-4.051423;0.3326513;2.8597617;-3.9054282;-0.48249835;-3.3176231;-0.043211114;-1.1367613;0.03543245;3.4403799;-4.319996;-0.42318198;2.785673;-0.9373558;-2.3071117;-0.035642322;0.00946511;0.010870811;0.0049661133;-1.2805722;1.3725406;1.1911876;0.027375963;0.11167378;2.6917806;-2.4689326;-2.8844292;-0.77342534;0.005923223;1.1829971;-0.054222833;-1.5874246;0.008188082;2.778119;-3.3586493;-1.4712011;1.4251082;0.01057077;-3.4995344;-0.8863897;0.41715652;-0.010052774;0.015651366;-4.028376;-0.030165393;-0.0025718505;0.14674415;-0.24113387;-0.07924371;-0.21765296;-4.075067;0.19617367;2.4542377;-0.0044212784;1.8917578;3.1957178;0.4128073;-0.028847124;-1.6626575;-0.46952903;0.022087572;-2.146477;-0.053042796;-3.7597518;0.04104902;0.86924326;-0.6701143;-1.8471223;-0.041323543;-1.7920014;-0.011502386;0.0023155734;-1.5493331;0.02994074;-1.3526005;-3.9568791;-2.297249;-1.1923968;-1.3207854;-2.1439579;3.0040712;-1.0345114;0.75562686;-2.3817656;2.2597747;-8.969172;1.0710083;1.1475477;3.1056945;-4.097995;4.6487737;1.088784;0.6252138;0.099534795;0.038492035;-1.3050232;-6.5476847;-0.01935291;0.01490969;-0.05368246;3.2221258;-2.9244487;-1.8830978;0.23380764;2.1171086;-3.8630795;-2.4125462;3.556583;-2.2085178;0.15898459;3.2445579;0.9808954;1.7363715;-3.1575034;2.2288928;-0.03438739;3.2661197;-0.00208535;0.871991;-12.901534;-5.187285;-0.25874537;-0.03593742;-0.35305282;3.0476193;-0.66019225;-1.0595275;-0.04535961;-2.5173435;0.0011688861;-2.5419238;-1.4174515;-0.007650839;0.5474983;-3.9043715;-1.7560561;-1.254232;-2.2350028;0.4715981;0.10749673;0.006548816;-2.9452755;2.186275;-3.1134982;-0.32837316;-0.023066778;0.020143894;-3.055944;-0.010417443;0.15680511;1.9616941;3.847812;-4.078;-0.008604856;-4.915724;-1.7149122;2.0303657;4.542924;0.16393484;-0.0017202968;0.937553;0.031077016;0.03258439;0.006990441;-0.72121483;2.7825463;0.25947517;-2.0470073;-0.038445607;2.625323;1.3344761;-0.01425531;-2.3095524;1.1816642;1.5516317;-0.038425654;0.08919966;2.815957;0.9915945;3.8159215;-3.274172;-0.4397422;-0.91444314;0.4783211;-4.1787486;1.0702137;1.30464;-1.9936217;-1.6143985;-1.5225368;0.9093955;-2.2364798;2.6835475;-0.021628374;2.0058255;0.017022816;-0.13758422;0.04149623;2.571775;3.8724933;-0.84232694;-3.2773438;0.28121233;-9.43526;4.93205;-0.009512769;-0.8889642;0.3859617;-4.4335356;0.73246217;-2.4699156;0.040432848;3.080342;0.4388014;0.66825205;1.6262376;-1.3728683;-1.4909322;-2.5888746;0.039644916;-2.6797798;0.9517835;-6.415977;-3.0599132;-5.1347303;-0.03183375;-0.9085211;1.1096377;2.4107416;1.1969581;-0.020141223;-0.29461476;0.9934849;0.016308587;-0.33417204;2.821842;0.008697511;-2.4949033;1.7070849;3.7858887;-0.019857084;-0.011270636;1.8175297;-0.71586734;-0.06829111;-0.0026650357;0.0022746723;-0.08396572;-0.039105628;-0.95594597;-0.7552989;-2.5812566;3.4568982;-0.60705614;-6.8989186;0.99380493;-0.0060555446;-0.04172637;-0.9291641;1.2996355;-0.07456854;-0.05357904;0.029042492;0.15562609;-3.0754883;0.044426017;-1.4975423;-3.5502644;-0.040376347;-1.1830093;0.06600069;-0.8362854;2.594812;-3.0253732;-4.0493183;0.3284875;1.6020082;-1.3957019;2.5499716;-1.966652;0.005047497;-0.007056722;-0.009683806;-0.0708005;-0.04065978;3.961519;-1.2200552;-2.0359714;-2.343652;-0.07702132;-0.53642935;0.5644951;-0.9367689;-0.0011291779;0.056954626;0.032765865;1.0902767;2.0106292;1.1435233;-0.84967333;3.7739315;-0.034522235;-4.745393;-4.6802382;-0.072999306;-0.007879819;0.0067073056;0.11824199;-0.72663474;0.026030933;-1.8294142;-0.14745905;0.012552497;0.023234777;-0.015466079;0.037454985;-1.3065091;0.025572065;0.7059462;-1.0625595;1.2090355;4.315805;-0.016600212;-3.0075998;-0.03768006;2.6424491;1.5248262;0.4973973;-3.894726;0.47923443;4.635864;-0.04150997;0.006330084;-2.5721452;-0.8870506;-0.27828643;0.0014748422;-1.7200233;-1.0638224;-0.13331616;-1.6505024;3.314348;-17.604687;0.0043762396;0.7760871;0.41018078;0.71848476;0.87824595;1.836445;-0.4110375;2.806853;4.615359;-0.017784256;-0.0059816;-0.023937315;-0.5533941;2.442778;0.050558373;-4.1951647;1.8753178;-1.6733273;0.7906735;-2.3117068;2.422033;-1.8937954;-1.4578336;3.3444014;-1.4046454;0.070348226;3.7252212;2.1983008;2.0586317;-0.039471023;-0.05506447;-0.013831745;2.7004375;0.34347478;1.6937711;-0.016084867;-0.06452631;0.006394358;0.0077435444;0.25509885;-2.9897676;-3.7599366;0.026141558;0.35938266;0.008730627;2.4090884;-0.094412334;1.0818052;0.0075803944;-0.47290617;2.3740442;-2.638419;-0.0016998185;0.11215648;1.1484493;0.17718172;2.6359372;-0.36729458;1.3226581;2.157245;-3.7676756;0.018115053;-1.583967;2.6434357;2.0039804;-0.0050629545;-1.0974519;-1.0970086;-11.217566;2.271362;0.30499715;2.735255;-0.74122363;1.4738075;0.19693905;0.008393949;-11.585128;0.4994978;0.026249291;-0.01269122;-2.2600737;-4.236204;-3.8906546;1.7116076;-0.020870648;0.5981173;-2.384178;0.056830425;0.032447252;1.5799303;-1.2391796;0.042260054;2.735234;-0.008884972;-0.009103511;-0.40930757;-0.20550111;-0.46021673;2.9209557;-1.1215091;-0.0006524565;1.2048048;-0.060737874;-0.15007038;-2.1066692;0.9482487;0.0047313697;0.13182522;2.1594732;-0.38019598;-0.5882534;-0.027855556;4.8102546;-0.32962322;-0.19328114;-1.2110686;0.8838065;-0.025354467;-3.5500004;0.04540831;-0.10441636;-0.31794825;-0.020159684;1.750367;0.99294174;-2.1045458;-1.8967648;1.761283;3.2441196;1.6711668;0.6677193;0.0026841112;1.3297133;-0.024180766;-0.00632087;-1.2377076;1.6659096;-3.7069464;-1.1679201;0.058204986;1.7363487;-5.2693696;-1.2871233;-0.032571018;2.1682515;-0.025446806;0.010101651;1.3386179;2.4547741;0.69093895;0.91412395;-0.033847205;-0.009605762;-0.031879313;-0.018158514;-1.4778347;0.5040405;-1.4079887;-0.009834387;0.92217565;0.026361518;1.50411;0.40279996;0.012375299;-0.0035965843;-1.3181149;-0.7026292;-0.78172344;0.059370387;0.4145892;-1.1847403;-1.9652464;-3.578233;-0.03751521;-0.023515858;0.011637947;1.2653884;0.99785423;2.4456263;-2.0757735;-0.041231543;4.495346;-0.8105927;0.16928625;0.27058104;0.023389477;1.8710246;0.009647268;-3.6292925;0.6945897;-0.3994158;-1.6512078;1.2046767;-0.005590045;2.4419763;-3.9099088;0.8992188;-0.74548167;4.183613;-2.1226237;-1.5558412;-3.8630404;-0.0213276;-0.565873;-1.1319473;-7.364462;-0.04923927;-0.019370567;-4.4992747;2.4871204;0.77123755;-1.4187846;-1.4237714;-0.027710872;-3.9930003
-1.5671254;0.22132528;-0.05879884;2.000499;-0.059246328;1.887447;-1.7678907;0.008502806;-0.9680084;0.0065021855;0.90027267;0.894506;0.0006758853;-0.02051925;2.9314673;-0.0053617787;-0.003713254;-1.6631931;-1.464018;-2.5224285;1.9812181;0.631014;-0.77770555;-0.63658965;0.094651684;-0.06356247;-0.026312951;-0.49961057;-3.5827043;-1.8890038;2.019022;-0.7098569;-0.7069576;-0.018122908;-0.0006778199;-0.026266415;0.01817269;1.8244194;-0.055091254;2.2990484;0.11303162;0.04092544;-4.0612;-4.396811;-1.7281457;-2.8356416;-0.041088723;0.017911278;0.0028521114;-0.45500395;0.0019657847;4.4870405;-0.73903024;-3.8750823;1.8180428;0.041848768;-4.5804825;0.060869087;-0.12546015;-0.03827225;0.10897965;-1.4655972;-0.024819937;0.012495293;0.057304617;-0.184689;-0.017367149;0.18227175;-2.2985847;-0.11847222;0.8087636;-0.034856558;3.646565;1.7986557;-0.16215798;-0.036946546;-1.4391646;0.42580378;-0.019325053;-1.2802591;-0.048180588;0.3404797;-0.018158268;1.9757372;-2.2586954;0.74005425;0.027211027;0.7250869;-0.016553627;0.0048348787;1.431641;0.042103857;-0.942033;-1.2934978;-5.250652;0.93793374;-1.5238397;-1.9741068;1.2007664;-2.8507357;3.0415895;-4.379297;1.8820162;-3.015476;1.8533304;-2.1162767;1.8248278;-0.77780616;3.5176775;0.63541275;0.22416404;-3.6387758;0.021910891;0.17053692;-4.292164;-0.012814589;0.01594118;0.85487264;0.5877691;-0.8643119;-3.3735213;2.3196337;0.100306965;-2.9590237;-2.477012;3.4469726;2.063607;-2.3075697;3.3187695;1.3935007;0.707657;-4.174803;0.09764872;-0.040395714;1.9097178;-0.023022363;-3.71865;-13.45639;-1.1390121;-0.67760235;-0.025925128;-3.2131674;1.1788833;-0.42603078;-2.485527;0.023404395;-3.7642124;0.030778475;0.2763436;0.26115063;0.032356076;1.3158966;-6.888788;-0.73177814;-2.8789532;-2.2065985;-0.6490129;2.4427912;0.0041350243;-1.2734022;0.07931779;-0.36079767;-2.3909795;-0.022390591;-0.0735757;-1.8582817;0.04254828;0.7069424;3.2109494;0.22763233;-4.0832224;-0.003405482;-3.923465;-7.0274024;-0.5136205;6.0191174;-0.111972116;-0.24109942;-1.9965715;0.01974724;-0.01627294;0.03126376;-5.149505;-2.1072388;-0.07896827;-1.9963965;0.0051626684;0.7569976;-1.756949;0.062685065;0.92893183;-0.31283912;0.2707501;-0.03772292;-1.9368064;3.5941179;-0.37616897;2.845436;-3.1711767;-1.3097886;-0.4779466;2.780003;-3.5921745;-0.9810126;0.026680635;-1.521142;-0.25049636;0.12558053;2.2989306;-0.19382161;-1.7643818;-2.958166;1.8652745;0.04734937;0.04609228;-0.028190633;0.4727603;3.8128145;-0.22371584;-2.6613743;1.708112;-7.906471;4.812485;-0.0065443073;-0.43322092;-1.8358172;-3.5547712;-1.1127136;-3.2594264;0.028910158;2.2649343;-1.9118395;1.3669329;0.717032;-3.6570284;-0.3303753;-2.8473132;-0.029022908;-1.2597811;-2.2014275;-7.324452;-2.0117512;-5.4049916;0.014981319;-1.2049329;0.28323293;1.4498917;0.71042186;0.024842933;-0.34109473;3.1714728;0.018368421;1.1480252;-3.060853;-0.018239181;-3.2385108;-0.014422389;3.5045645;0.061593298;0.04750399;-3.1272006;-2.081261;-0.058126688;0.016256668;-0.062958024;-0.4318854;0.8547785;-0.37066627;-5.346601;-3.0523138;0.55680966;0.17233482;-6.9611354;-1.9424287;0.010442763;-0.15318653;-0.68826896;3.61035;-0.07638545;-0.0062037045;-0.009783498;0.85456353;-1.0955681;2.8663583;-1.0599926;-4.548074;0.023279373;2.0324113;0.012310454;1.6805726;-1.829885;-2.134754;-1.6873251;-0.6447549;1.309915;-2.7920601;0.118702605;0.06936697;0.0040751784;-0.041434433;0.8419153;0.121831805;-0.037922297;2.371351;-1.6193784;-4.3629904;-2.470106;0.16463739;1.5595955;3.6660671;-1.1976746;-0.04927905;-0.5074558;-0.0017605253;-2.534482;0.30897227;0.792873;-0.77485114;2.6417303;0.021326132;-1.3513625;-4.7838035;-3.557547;0.036626227;-0.0036460895;-0.28467304;2.0975268;-0.065706156;0.017721768;-0.036769435;-0.049085278;-0.0008722499;-0.02907689;0.020762954;-2.3906837;-0.017118651;0.2655188;-2.25636;3.07899;3.9313514;-0.0048610605;-2.8922265;-0.02927404;1.3601316;3.021334;4.2038484;-3.0925567;1.0616494;0.02591198;-0.026771013;-0.024808923;-1.9398694;0.82164323;0.5115258;-0.034392804;-0.737834;-2.2817192;3.056823;-1.5127;3.4537148;-17.87447;0.03262978;1.8073177;0.556538;-0.39675462;1.0033171;-1.8493881;-0.03151613;3.400921;3.5815516;-0.019540997;0.022247229;0.01179853;-2.651247;-1.3225514;-0.014258637;-2.661713;0.68979424;-1.2125275;3.737895;-0.028186811;2.8233435;-0.75150615;-4.0152535;0.5322664;-0.55782634;0.35781333;4.2718835;-3.9469938;3.8455193;1.5822989;-0.025195146;0.04294454;3.0478957;-3.0473046;-0.70806324;-0.006643576;0.028223965;-0.009111376;0.0090490505;0.21261472;-2.4953792;-1.344678;-0.060461327;1.132116;0.069513075;1.1511256;0.63013613;0.31220946;0.026844108;-1.8408456;1.2940282;-1.7839938;-0.03478706;-1.7292699;0.058539223;-2.3851838;2.194623;1.8616766;3.0327048;3.7204943;-2.076937;-0.041334026;0.43186954;0.77607805;2.3040798;1.3860111;-1.492417;-3.1780288;-7.8031096;4.2377243;0.4053798;3.3427918;-1.9827386;1.2622995;1.2157214;-0.031468306;-10.727822;-2.829902;-0.055399213;-0.17531852;1.8389235;-3.0594215;-5.1787558;1.7614892;-0.04286591;-0.18090501;-1.9610215;0.02271644;-0.020731064;0.5349398;-1.1894815;-0.0106072435;0.6901968;0.033079203;0.028809937;-3.1984184;0.09743313;-1.8749013;1.6546088;0.0686792;-0.01329472;1.3748035;-0.025864664;0.03916014;-2.4573052;-1.9020041;-0.037548568;-0.82623225;2.0070708;2.4485698;0.13256505;0.028874546;4.047474;-1.6702083;2.0295062;-2.057154;3.7804792;-0.0049081063;-4.5319633;0.002768431;0.14399867;-0.07069491;0.010234991;0.22885962;2.114548;-1.8507289;-6.5883245;2.227425;1.7620502;1.816528;3.7780588;-0.016409615;-1.2109989;-0.01687067;-0.0030709868;0.20617422;2.039366;0.18023275;1.5581998;-0.028089063;-3.8712058;-3.471934;-3.5773575;0.05396257;2.3340359;0.033334296;-0.025937278;1.8609991;-2.5583377;0.040805176;-0.60592276;-0.05329486;0.032386776;1.7674661;0.0024768307;-0.2075548;0.7884005;-2.6680431;-0.05340595;0.9952955;-0.0064347666;-0.039254073;-0.4532534;0.033613905;0.059367903;0.7976406;2.91904;-2.412691;-0.045259193;-0.15503417;1.4799144;1.3417068;-3.3009758;0.2167171;-0.02290554;-0.023292964;1.4663085;0.4144721;2.664146;-1.8265315;0.05093586;1.8342627;-3.0597677;2.6410573;0.2845956;1.0354303;-0.22508278;-0.028384306;-1.5182326;-0.3066024;1.9766314;-0.36771175;1.1059222;0.004661963;-3.2982547;-4.023244;0.3918796;-2.4076605;2.5652487;-5.067547;1.2728387;-2.3677135;0.003212769;-1.9838321;-1.5684608;-5.6920285;-0.04077093;0.027596653;-2.9535615;2.3439314;-0.24452448;-3.8607855;1.7892195;0.027739279;-4.7972617
-4.510507;-0.1976712;0.05048542;-0.2756162;0.06283693;1.434528;-2.0531352;-0.044683527;-1.0997447;-0.06556216;1.7129916;-2.0093963;0.019512292;0.024507616;-0.23402391;-0.055234782;-0.017895453;0.33488736;-1.0933588;-1.3454893;0.41235003;-0.6811623;-1.4470178;-1.3328022;-0.03210626;-3.6539283;0.017967103;-3.0410159;-4.0492706;-3.125511;1.1579127;-1.1202441;0.51980287;-0.09971335;-0.006188723;0.019535977;-0.059395753;4.422452;1.3374398;1.445953;1.4271768;0.1048865;-2.050923;-4.2554216;-2.9857173;-2.7413096;-0.024233183;0.08504308;0.033255227;-0.9956874;0.0059461957;2.704166;-1.691015;-3.6130798;3.44648;-0.01848689;-6.1162763;1.7774094;-0.05959871;0.012048487;-0.015244846;-0.26655188;-0.018482614;0.028248973;-0.31145024;0.42920825;-0.05906835;-0.105666265;-0.3324409;0.022023242;1.6163497;-0.02577589;-1.3260098;-0.8054491;1.1652493;-0.003073662;0.86193025;3.1896658;0.0034815902;-1.9031209;0.03996636;-0.90905654;0.0016858043;1.0662856;-2.4309258;-0.6572672;0.0045823865;-0.35985115;0.008272947;-0.028923362;1.1648835;0.036767438;2.4914331;2.1435103;-3.4721498;0.43207365;-4.9654937;-1.2855229;-0.4439299;-2.5456347;4.2662473;3.1802094;1.1811787;-0.2560875;1.0018013;-3.2641017;0.33466905;0.51627344;2.6740432;2.127877;3.0951302;-5.318517;-0.010663074;-1.0424058;-2.3699603;0.030479671;0.007334516;1.9575366;-1.593331;0.37151018;-1.0891426;5.121564;-1.0540112;-0.86583066;-3.499562;2.0008001;1.3587854;0.57928294;2.7859437;1.3660873;0.945618;-4.5834527;1.3853027;0.031807527;1.7957721;-0.004637573;-2.4996245;-13.799007;-1.6911595;1.6999499;0.045425173;-4.052806;-0.2288353;-0.55079967;0.49536067;0.045884334;0.7641007;0.01310922;2.087715;1.0726295;0.008370397;0.06859075;-4.8421693;-2.2863066;0.9790131;-2.4258404;-0.48828372;3.5941987;0.025627034;-0.3151938;-1.0031909;0.10465929;-0.41002917;-0.016681787;0.13473836;-1.4143606;0.008766542;2.5099757;3.5633311;-2.0610275;-3.890071;0.018746201;1.2673211;1.8733386;-3.2156959;5.667548;0.07894924;1.6651968;0.29842424;-0.041595124;-0.020577757;0.015991258;0.38310644;1.1554594;-0.020338736;-2.2893126;0.012781167;-0.2107414;-1.8522414;0.024243796;-0.5556427;-0.13809195;-0.78801125;-0.00316975;-2.0966346;2.7876828;-0.54417586;2.2921863;-1.8021218;1.8809742;-1.5757631;0.08466554;-1.8233222;-1.06039;-2.475084;0.82414454;-0.27616474;2.227209;1.3474495;-1.0155208;1.3409436;2.6073236;2.420901;0.013184482;-0.1183476;0.034344614;-2.5387933;2.7191691;2.1673791;-1.8141882;-2.2398868;-2.4807873;3.5889833;0.051216125;0.14017059;-1.3196129;-5.698359;0.18581173;-4.15407;0.0042388304;1.4442947;-1.0246556;-1.0703413;1.2145759;-0.5571529;-3.4959545;-2.5413508;0.0089311525;-1.6705722;-4.2192082;-4.1626263;-2.1232758;-4.296676;-0.0050816955;0.78615516;2.0447054;2.94706;0.4289496;0.015010912;0.72758585;2.2682219;-0.018190302;-2.4979432;-0.24526991;-0.036464266;-3.3289187;-0.22140007;2.4852543;0.062843084;0.025386322;-3.527586;-2.8939006;-0.02405406;0.0045392853;-0.06716301;-0.37709492;2.884535;0.92438656;-5.006769;-2.5169315;0.74548966;4.3269005;-4.1951613;2.262307;0.013513359;0.91244656;-0.6576792;1.5471746;-0.012976254;0.006164826;-0.034450997;2.5294445;-0.05708724;2.1648974;-0.3701804;0.55359423;0.017870998;0.2978829;-0.022961428;-1.226303;0.87037545;-2.6144435;2.1526852;2.3120198;-0.03580929;-1.6143819;-1.5196637;-3.3329597;-0.04073069;0.032456454;-1.3586975;0.098297246;-0.014987129;3.7067075;-2.8464987;-2.6375306;-2.0332048;-0.29495004;1.419333;-0.09457546;-0.60239;0.017000824;-0.034992322;0.035082046;0.2500185;0.65307426;-0.18176933;-3.56705;-1.8318229;-0.021496598;-3.4870906;-1.4354252;-2.7991805;-0.021131983;0.030321693;2.0165458;1.2093816;-0.06158201;-5.2283382;-0.04598668;0.08492303;0.04878891;0.027083097;-0.05152141;-1.0870461;-0.026346385;0.70668215;1.8502886;3.1921644;3.4796393;0.03584627;-0.87158847;-0.041310616;3.3545492;2.277764;-1.4791669;-3.2047422;1.8238435;1.9761164;0.0076701497;-0.008283222;-1.3108809;1.4660403;-0.7829849;-0.0050378228;-4.1584296;-1.103321;0.65754795;-2.4345891;3.2003124;-18.00739;-0.02834425;2.2805712;0.0139105385;0.464846;3.3063557;-0.3155413;0.80284005;1.7679465;0.08346338;-0.0051175756;-0.022727575;-0.030731166;-1.7865229;-1.8246723;-0.021141494;-2.756944;1.1401166;0.75214326;2.9535065;-1.042484;1.7808437;-0.22848186;-4.5365505;0.7862856;0.6701117;-1.7977604;2.7762644;-5.209561;2.601571;0.056056548;-0.0034068092;0.0087159835;2.307398;-2.6085374;-1.5743636;-0.03758628;0.022681894;0.014958695;-0.0068555092;-0.21343032;-3.9901137;-3.2367847;0.04057384;-1.1805655;-0.04656007;-0.4445258;1.6994721;0.038198315;-0.008040962;2.3207135;-1.9637315;-6.1208687;-0.011929036;0.4233599;1.3657932;-2.149762;2.3717968;-0.9723472;2.2172534;-1.0408738;-2.7235565;0.04482676;-1.0599282;0.21219236;0.41023308;2.0295806;-2.7330933;-2.7623718;-3.6757495;0.65563136;-0.6631168;-1.5439626;-0.43105316;3.0396101;1.952127;-0.010655882;-10.78804;1.4460677;0.008862539;0.49856028;3.1470745;-1.7786252;-4.5416307;3.7894187;0.004618999;-0.0582401;-2.0487401;0.015114692;-0.009735801;0.31531367;1.620598;0.01256863;2.2338953;0.01848011;0.027704082;-3.0344255;0.47093767;-0.56242216;0.9327961;3.3128612;-0.036311045;3.274579;0.0041362825;-0.035343904;-2.242425;-0.23499003;-0.05414987;0.5221201;2.2499044;-2.3521383;-0.37018445;-0.016637865;3.1025717;-1.5923209;-0.3391671;-2.4826791;3.2149892;0.0053359265;-3.272805;0.014982063;-0.25628462;0.5054105;0.02586915;1.8025153;1.3053008;-1.6235162;-2.665385;-1.0345821;-0.36858225;2.7098787;0.4864869;-0.026373543;0.012595343;-0.04554113;0.019793052;0.47162917;0.5668202;-0.9896143;1.3133463;-0.023147186;-2.7580469;-1.6898133;-4.947641;0.0021243186;3.5071378;0.026764251;0.0049410528;0.87095314;-1.4254285;-0.47374496;3.3006868;0.039693497;-0.12451778;-1.1341236;-0.016002752;-2.463047;2.2936265;-2.0405924;0.02962566;0.8403598;0.009882388;-1.1196321;3.526118;-0.012928301;-0.0021120415;-0.18974091;-0.5895385;-1.6433823;-0.00096624414;-1.0635061;-0.68414533;1.009111;-4.7580967;0.21141145;0.038706917;-0.012407378;3.2754495;-1.2574679;0.31221843;-0.22880824;-0.08544872;-2.2391083;0.44159845;1.0516479;3.1120684;2.670739;-2.2915497;0.03817324;-3.1361423;-0.099402934;3.9645317;0.5049973;1.3650353;-0.014032389;-1.1470916;-1.9154708;-1.148744;-1.7770022;1.2555419;-4.6992087;2.3777645;1.1611505;-0.029669318;-1.6336673;-0.5267444;-2.09163;0.031135486;-0.03125991;-3.6117113;0.8739292;-0.8084878;-2.372282;0.43007898;-0.02487115;-5.3196726
-4.411816;0.5789535;-0.02901866;2.4294617;-0.058648136;1.4313288;1.798675;0.00795147;0.5445388;0.017761907;1.2034204;-3.0685575;-0.022038827;-0.03391218;-0.99290454;0.023499455;-0.026526066;0.27147782;-2.9622765;-1.5893592;0.17788567;-1.9289422;-3.9159997;-0.44680816;-0.0064638657;-3.2330434;0.00597863;-2.3472974;-0.7615589;-3.007029;1.7924644;0.45139837;1.7993429;0.026131235;0.033399228;0.017815104;0.0247347;-1.2805874;1.4836287;-0.7578572;4.798492;-0.0688381;-2.4945195;1.220273;0.73049897;1.4222366;0.03544383;-0.43824428;-0.03198894;-0.25297448;-0.055876225;4.2188115;-0.8292468;-2.6261816;3.2158732;0.034706134;-0.13404322;-0.0964739;-0.120969996;-0.008308026;0.02236017;-1.9975317;-0.05547622;0.05557506;-0.099225074;-4.1845846;0.58996254;0.03934654;-0.53415006;0.31553817;-0.8628405;0.0287138;-2.7873454;-0.79193383;1.7432934;-0.012520404;0.67269546;3.0151193;0.0012933798;-1.3772615;-0.0089620305;1.2850735;-0.065749586;0.40755874;-2.06802;-2.6927872;-0.0043070354;-0.65801305;-0.092163004;0.025670398;1.5381155;-0.04705945;-0.6556262;1.5941406;-6.199037;1.3572866;-3.0916557;-1.5940288;4.398647;-3.4378936;3.9601436;2.599369;1.8979459;2.1085482;4.612617;-2.2707934;1.516133;2.4289227;-0.99430573;-0.010624383;-1.4433224;-6.679888;0.018748417;1.6955558;2.432254;0.02181711;-0.03906478;0.42723078;-2.5935135;0.89558387;-1.1462568;2.3767886;-1.0398968;-1.1546513;-3.629367;0.736476;0.43269908;2.2813406;-1.8176695;0.34749758;3.440731;-4.795554;-0.15350728;-0.08496772;0.8674144;-0.029595861;1.0521617;-14.486464;0.87126285;1.8765767;-0.028318802;-2.5712435;0.1814832;0.19019112;-0.12907179;-0.017171286;0.9128676;0.015038208;1.5294758;1.6258702;0.047517747;1.2655671;-3.1070783;-1.7697933;-2.1069515;-0.5547719;0.12432395;3.3644817;-0.03530356;-0.3232442;-0.59795755;-4.753324;-3.2868078;-0.015106447;0.2670723;1.3553439;0.03549288;1.0180109;1.203092;-1.8043244;-2.2797432;0.001838035;2.2476149;-1.311166;-2.9102454;6.4255385;-0.014016067;0.85195976;3.4307926;0.004487686;0.009266168;0.017447446;1.2418879;-0.82130635;-0.040581256;0.72862405;0.0137859285;2.5274475;-3.734527;0.019468945;2.0025885;2.5741346;-1.4064438;-0.02714258;-1.5711842;0.37355584;3.2374218;1.5563588;-2.9208796;1.7067182;-3.0650213;-2.416754;-3.9897141;-0.72443944;-4.1576524;2.3894343;-1.5112667;-0.56090385;0.40687725;-2.13757;1.890612;-0.26009953;0.25673255;-0.050157435;-0.0060382546;-0.01052787;-0.29276046;2.2316904;-2.9365902;0.63380015;-2.5932324;0.71858466;-0.7047611;0.015928974;-0.14762425;0.37580872;-2.7997727;0.47391793;-1.4602295;0.021228814;2.186526;1.0749617;-1.8174795;2.0900166;-1.7922944;-1.6815565;-2.0538526;0.018094303;-2.7983263;-5.0469055;-4.855686;-0.6286346;-2.0410478;-0.01074931;0.74615103;4.051859;-1.122057;0.4163554;-0.038832225;0.039972626;-1.4834464;0.029076932;2.342542;-5.634784;-0.031269785;-2.582039;1.0594355;2.7206874;0.08146221;0.0015388002;-2.282645;-2.909311;0.0078057484;0.013169418;-0.04420734;0.42636627;1.7338663;-1.4318368;-3.4669197;-2.0386567;0.3387389;-0.5661077;-5.2337747;4.4205484;-0.009714483;-0.18053457;-1.9982979;2.112286;-0.02075064;0.018140431;0.01438281;1.0125866;-1.3260863;-0.72562796;-0.021252891;0.18910597;0.021196214;0.34857222;-0.0013596497;-1.3270521;2.4358025;-2.3516798;0.076557264;3.6731656;4.5259767;-0.3963996;0.26583603;0.74976987;-0.01057636;-0.002208497;3.1215098;0.49793428;0.004583599;1.1061102;-0.27852052;1.4068531;-2.1306157;0.14071397;1.2085353;2.5884576;-2.7819579;-0.044668045;1.2765161;0.047365997;0.5955078;2.3649764;-0.823575;-7.255819;-1.5879772;-0.037624363;-2.2379842;-1.215261;1.6002953;0.005219129;-0.03991733;0.26363993;2.6961126;0.07264813;-4.146167;-0.032100964;-0.041199774;0.019950645;0.021713734;-0.013231249;0.8004;-0.011541207;-1.1398628;3.3468812;1.5340598;4.296236;-0.02765275;-4.542344;0.1338801;0.09354488;2.4944065;-0.1175855;-2.502456;0.6326753;0.28359523;-0.021205412;0.015064749;-0.7017432;0.87636167;0.27901807;-0.00812039;1.1126742;-1.3385628;2.970468;-4.541901;2.894951;-18.857561;-0.014108912;2.061007;-0.6436671;0.34227273;1.5150442;-1.8791751;-1.1211476;0.19183011;3.0488176;-0.05630243;0.048209902;-0.02514832;-0.5572062;-0.7868624;0.040776424;-0.9739703;-1.2477692;1.1436614;0.31247368;-3.4323418;0.34506235;-0.31546503;-0.42134735;3.142904;2.2497933;0.82984656;3.6933455;2.8332887;1.2523681;2.3650346;-0.011337293;-0.015122353;0.6038161;-2.9320402;0.46963328;0.004394161;-0.019328674;-0.018786717;0.004310328;1.3741766;-1.7057167;-1.3169198;-0.0020965056;-1.3875282;0.07207444;1.057684;-0.08053728;1.5198163;-0.023353724;3.4180794;2.0374997;-1.9456668;-0.04568273;-4.4807625;3.6060712;-2.7492228;4.468718;0.04184828;2.1547658;3.146129;-1.1005266;-0.010707451;-1.4737865;-5.0873275;-3.18517;3.1244192;-2.00626;0.6638138;-0.06406516;1.3400142;-2.8954084;-1.4444653;2.2549021;3.1176572;2.199338;-0.041441984;-13.086292;0.8833073;-0.024533564;-0.17568953;-1.5364556;-1.156909;-0.87775576;-1.5320781;-0.046954453;0.034159403;0.24359763;-0.02292354;-0.0022752078;0.044286642;2.3016772;-0.019710952;0.8418598;-0.06091345;-0.028410194;2.2499456;-3.0805326;0.45653325;1.5823851;2.078168;0.031843465;1.792404;0.015421273;0.03746714;-2.1916592;-2.8591194;0.1157102;-0.5765797;0.9930367;-3.951594;-2.8907454;0.044149254;3.3691404;2.2367616;1.1261572;1.8959349;1.0074117;0.005001062;2.4312384;0.010230515;0.48237115;-0.8687948;-0.00951569;0.26269308;0.3571411;-1.2951287;-1.8435206;0.9837629;1.998198;0.5495158;2.389261;0.02444016;0.28207162;0.030016962;-0.011176316;0.041472115;-0.992933;-3.5944042;0.9841355;0.070691526;-2.5622077;-2.3064625;-4.4123254;-0.0037093523;1.376215;-0.005307556;-0.03741754;-0.34996095;2.2438571;-3.2604098;0.99202365;-0.038730823;0.041386034;-2.7361674;0.0043923254;0.4084172;2.6640627;-2.3580036;0.018764637;-0.4451556;-0.036468;0.55887425;1.3073578;-0.010805533;-0.014009022;-0.8745196;0.21052347;-0.9649838;0.024921196;1.0005763;-1.9783067;1.4344051;-4.3845363;0.15117848;0.039293997;0.007258261;4.6649637;-1.9761966;2.391467;1.3514781;0.023767242;-2.7443464;2.4458177;1.07324;2.6489584;2.3075883;0.5351849;-0.026637033;-5.084233;0.041289914;4.627321;-0.10524162;2.7171435;0.0017823064;-3.3673985;-1.0687294;-0.27244502;-2.4632027;0.8538986;-4.929946;-0.70655566;1.0221257;-0.006973194;-0.33498627;-0.18772228;-4.34278;-0.0030325865;0.058486853;1.4486033;-0.44377282;-1.5807399;-2.0337145;0.11011385;0.024327694;-6.8770895
-2.0606625;1.3548193;-0.021376155;-1.7903599;0.020220825;1.417086;-1.1371644;-0.02180876;0.6569929;-0.018399883;0.9085386;0.2512818;0.007870186;-0.01614489;0.8274806;0.004199886;-0.044719525;3.322474;-0.96005076;-0.653528;-0.79013914;-0.3645635;-3.3540611;2.041369;-0.033288233;-1.8344485;-0.014564271;1.542386;0.12459814;-4.6769447;-3.3814914;-0.3130666;-3.0997777;-0.0051533054;-0.001193978;0.044303842;-0.04016066;-1.6909422;-0.75679046;1.2305688;0.84325105;0.3067327;-2.1900544;2.8924856;2.8639154;0.062202193;-0.051693276;0.46131468;0.002581866;0.72725797;0.000559583;4.522594;-1.9170748;-0.2319194;1.6599517;-0.070132755;-3.580884;-0.19203696;0.15414019;-0.0019906852;0.011570307;-1.8756615;0.04465812;0.0010674627;-1.9854047;-3.69009;-0.09418374;-0.01391439;-0.9047204;0.36835617;2.1314852;0.00020473999;3.2514925;-1.9504625;-0.26995465;0.0037487503;1.1190223;1.9538076;-0.021422084;-2.3610678;-0.024689367;-1.1239364;-0.079756886;0.37726662;-1.5688769;-1.8090901;-0.012420508;-2.0478842;-0.09546769;0.02300731;2.6748462;0.041201156;0.112920314;1.1163952;0.13117021;3.273223;-6.3237033;-2.8985896;2.5478938;-3.0940893;3.5391455;-0.21985696;0.6093411;-1.6072805;3.5009186;-2.4782572;0.83534646;-0.07084928;-4.4590354;-2.2725363;1.5884832;-4.4426985;-0.0405016;2.0906618;2.3254952;0.015541456;0.025545774;-2.0033944;0.32267618;2.9665003;-1.5674082;-1.3656869;0.54604876;1.4863529;-1.7751794;0.9117232;-3.9974952;1.615654;-3.2661226;-0.15630627;3.5446281;-4.3486805;1.3139285;-0.08231055;-1.9513118;0.01155193;-1.0425406;-15.106212;0.9448566;-0.1553158;-0.013297966;-2.5685654;-1.7938875;2.140069;2.3070235;0.037547357;0.65325385;-0.0009062219;1.9402618;2.3846686;-0.0147540225;-0.28717586;-2.5643716;-2.4988372;-3.0872493;-1.1393826;0.7788984;2.7587628;0.051312186;0.24108095;-0.32264882;-4.340527;-2.4807897;-0.06977948;0.37194294;1.2540089;0.006673229;0.29093823;1.2098684;-1.5697614;-2.4663875;0.028697362;0.4406011;-0.81678134;-0.4799983;5.5948057;0.30004203;-3.5653098;-0.05651749;0.02822804;-0.011217285;0.01640028;1.0000043;-1.8217179;0.04101805;4.7750163;-0.022964515;2.3979492;-2.6815333;0.042099293;-3.074112;-0.43614286;0.7596001;-0.054490436;-3.6669264;-0.48964798;2.9896073;1.9987031;-2.8496869;0.797621;-1.2586122;-0.6569944;-1.5238663;0.8024941;0.67371243;3.766008;-1.7002608;0.37790015;1.7136704;-0.28824726;3.2857149;-1.9296016;4.4790187;0.010330474;-0.21790451;-0.016563028;0.5115821;2.1726406;-3.0819087;0.9451349;-0.38465866;0.25986743;1.7997491;-0.057597656;0.17068559;2.2173424;-5.139512;-0.6586042;1.4498733;0.02030369;1.685152;2.7684927;-1.9360707;2.3967705;-3.6737196;-2.313574;-2.348014;0.0033623215;-0.82969195;-4.114113;-6.438159;-2.737257;0.2948222;0.009787806;-2.3665812;1.1769813;-1.6274115;0.81014395;-0.07763743;0.59438324;-3.5053043;0.01766946;-1.1808548;-4.136844;-0.009135808;-3.0221944;1.0924398;1.2358837;-0.0050325654;-5.433106e-05;-0.89384717;-0.5021556;-0.010780577;-0.10408976;0.3801618;-0.5060477;1.2303951;-0.835446;-1.2616727;-1.9769907;1.7126434;1.0096706;-9.113828;-0.1568136;0.032344908;-0.039059788;-3.0356727;2.2615588;-0.02510605;-0.0145572005;-0.12911345;-0.50072926;0.8909902;0.5356635;-0.46160942;0.21976063;-0.03388448;1.4109044;-0.06533775;-0.85418606;-0.44484237;-1.8157912;1.6376698;2.7598794;2.5617428;-1.8363734;-4.375502;-1.8408788;0.004585421;-0.0115057295;-0.35464156;0.10420862;0.10357479;2.0467649;1.4179662;0.072502784;-1.6994094;-0.10807524;1.2755654;4.1089845;-2.284305;0.020368092;-0.23055233;0.018118983;1.0745829;1.0755988;0.7857493;-3.404587;-1.6808603;0.029090108;-1.8834826;-1.3546567;-1.3838663;-0.0108619565;0.0015597596;0.66422015;-0.8800351;-0.019348823;-0.08060228;0.016391912;0.06070626;0.028915083;0.02893727;-0.01148766;-2.0762677;-0.06338552;-4.037521;2.2149189;1.9007454;4.5180287;-0.00043257885;-4.890031;-0.0077744634;-1.4005264;3.851427;0.5399538;-4.313395;0.29963192;-3.0942922;-0.00042093804;0.011713637;1.204275;0.20244816;-2.6632712;-0.020083966;0.0819744;-1.1411057;1.227561;-3.0526996;2.736734;-18.224934;-0.010373606;2.1236293;1.5950348;0.80591273;2.1226332;0.6192315;0.5507286;-0.03554829;2.914528;-0.0021033958;0.03769132;0.048729718;0.3340917;-1.3556279;-0.03480948;-2.2830238;0.68121517;0.4660525;0.05676466;-5.4250894;1.6237304;0.2316962;2.9939706;0.81976974;0.08647788;-0.059240166;4.05785;3.9509034;0.41283423;2.2011313;-0.030152256;0.027434845;0.2915313;-2.4407487;4.5844493;-0.08874878;-0.027732829;-0.052272316;-0.02146111;2.0680387;-1.1622256;0.71620005;-0.053866904;-2.3932674;-0.019639965;0.2982391;-0.53028476;0.21232802;0.03433646;0.81891966;1.1266973;-3.7318337;0.029578067;1.7103137;1.051521;-3.3765054;1.9197478;2.0605514;2.5610464;2.100158;3.1552734;-0.0165877;3.1932702;0.6894745;-4.947802;1.0883865;-1.172455;0.9971173;0.31298307;1.3359199;-3.5069108;4.2773333;-0.5004477;2.2422276;1.2390269;-0.061000053;-13.52746;1.9923278;0.016977414;0.06322256;1.4837985;0.13329498;-0.56512994;-4.769428;0.039880857;0.051349465;-2.6942616;0.010012454;-0.03890794;0.8049055;1.8221469;0.0026839129;0.079041354;-0.06936406;0.003447569;0.7186817;-0.48650765;-2.0932546;1.3286327;-1.8304074;-0.0073700454;1.3820593;-0.026569597;0.036369752;-1.7687377;-1.05834;0.27301416;-1.5913734;1.1305463;-1.8351587;-4.834223;-0.030312717;2.7869172;-0.13874906;2.85547;-0.15768144;-0.81466675;-0.02771911;-0.31617895;-0.04813009;-0.23251757;0.19172944;0.044400312;-3.3563817;1.4149216;-0.25865632;-3.8409705;-0.44779238;1.4845586;0.8133404;0.20283683;0.04214925;-1.8733968;-0.039567903;-0.019006798;1.5901866;2.0662344;4.878927;-0.6680599;0.02175281;-1.3386672;0.49390772;-4.203421;-0.023199238;-0.4588468;-0.07870139;0.017530741;-0.27195117;-1.6578223;-5.154802;-0.220072;-0.04417163;-0.04290262;2.390207;0.07997143;0.085525654;0.7183272;-0.8278648;-0.03449516;0.22674897;0.016367726;1.6558257;1.943022;0.016393764;-0.02758989;-0.6041801;1.2536603;0.035713926;0.03284136;0.53538084;1.2018224;-0.34253186;-3.9967213;-0.099341005;0.00521127;0.012627166;1.7024444;-2.8915787;0.89892966;-1.4639639;-0.10095698;-0.57234627;2.9800882;0.8938226;-0.8195001;1.3448831;-2.7833152;-0.0055111432;0.7584392;0.019228296;4.1932964;-2.494452;3.0894396;-0.015813032;-1.8432693;0.5234009;1.3098679;-2.6684482;3.048053;0.041700177;-1.7665871;0.106513605;0.030183397;-1.0078763;2.4692693;-2.5814738;-0.043842584;0.013282768;-2.903639;1.2288576;-0.20619759;-0.41286922;0.39274874;0.053560022;-0.46289706
-3.609425;-1.2457294;-0.018628547;-0.080852285;0.030495849;1.8556371;-0.39733472;0.0015020391;0.7679108;0.044449873;0.654041;-0.16625567;0.009004512;-0.040772542;0.8623937;0.02557504;-0.0668207;0.6240612;-3.191351;-0.81604517;2.4040344;1.3857112;-0.6867976;3.8393762;0.03864245;1.5943125;0.034378055;1.5507679;-2.3269465;-2.8191495;0.34859225;-0.42789033;-1.7329782;0.004322224;-0.002804784;0.09677513;0.019806528;-1.7225833;1.3826009;-1.3769544;-1.7816511;0.028436419;-1.2608027;-2.661602;-0.22970988;1.260961;-0.025210915;-0.25748777;0.009388293;-0.14324394;0.06890773;2.0633163;-0.2362525;-2.3043752;1.5957289;0.054630265;-1.0746642;-2.634741;0.70607084;-0.028444517;0.010135757;-2.6609457;-0.021161443;0.01652382;1.4764098;-0.86861235;0.017985307;-0.18255614;1.4920777;-0.029746765;-0.0015771654;0.006347425;-0.2742394;2.267467;-0.23001067;-0.03559792;-0.6077517;0.5437112;0.017319128;-3.8552039;-0.031133326;-0.2716849;0.7319819;1.1241517;1.4347571;-1.2653221;-0.005160096;-2.6251655;-0.13237494;0.019800633;3.710364;-0.016556306;-0.50153744;-0.6499394;1.1495646;2.3778863;-1.888912;-2.1058779;0.88105464;-3.4706752;2.9918373;-0.39270732;1.0570041;-3.8601708;3.33877;0.95392925;2.0634596;-1.7775091;1.3177465;3.4689605;1.6846668;0.72989345;-0.020395378;2.7812402;1.732207;0.069775514;0.043226533;-0.1542862;1.6939617;1.5058824;-0.48531136;0.7532901;3.5545077;0.19240221;-0.23755594;0.7868165;-3.1134715;0.67596436;-3.5021868;1.8749734;3.341828;-0.59802216;-0.59003705;-0.19234383;-0.6982849;0.17774534;0.32689434;-14.11558;-2.121593;0.61947256;0.039780535;-3.3989787;-1.6300931;3.0658188;0.003147642;0.05314069;-1.450668;0.03951872;1.2032626;2.8779798;0.05616702;2.0732627;-1.3295015;-3.485645;-5.1442356;0.1108084;-0.21325876;2.6613708;0.03140642;-0.13169643;-3.1231291;-4.738939;-3.250291;0.0076584257;0.2219464;-1.5799384;-0.0015190042;2.581266;-0.13662128;-1.331091;1.5239593;0.029034184;-1.5281876;1.0522391;-0.36773774;5.6951175;-0.14640756;-3.878422;2.8529694;-0.002282398;-0.032091968;0.021091914;-0.09219222;-0.19909716;-0.03740621;2.457004;0.009069613;-0.17964457;-0.974999;0.005457187;-4.751989;1.8127418;3.0014358;-0.10080556;-1.045573;-0.16575494;0.61368763;0.93496656;-2.3588703;-2.063789;-1.6675459;-1.8156328;-0.36067858;1.5926524;1.6983875;2.9258668;-7.376834;-0.74016845;2.5562525;1.3358777;2.1822777;-0.967602;0.11814727;0.0064531635;0.52431947;0.005529252;-0.90727526;2.1791525;-0.89187646;0.43361342;-1.9413551;2.0143359;-1.1739073;-0.014693058;-1.5993187;0.42888638;-5.1000934;0.39786583;-0.13593577;0.021362789;1.5254368;2.0097833;-0.29728863;1.4798361;-0.1982366;-0.54081273;-2.1574779;0.019178608;0.5611922;-2.726908;-4.4460373;2.5986366;1.9806513;0.008176939;-3.4174325;0.6492023;0.35581523;-1.0608852;-0.15673466;0.37572494;2.3854995;-0.011132994;-0.20871627;-1.4864252;0.0688284;-2.9242027;0.7957781;1.9373894;-0.04932191;-0.0049098833;0.21201968;-0.93125194;0.046408474;-0.12516642;-0.01925438;-2.3564923;0.67576236;0.15784322;-0.968144;-2.0112157;0.31473002;-0.9772608;-3.222961;0.048827365;-0.033926416;-0.0849448;-1.1772966;2.821774;-0.119446106;0.047114186;0.3861485;-0.24057831;1.7835686;2.5568964;-0.4256212;-0.21458067;0.102452256;2.020089;0.00394032;-0.37829033;0.57958794;-0.91953105;1.8210181;2.5631154;2.175669;0.45995575;-2.171221;-2.7394607;-0.0012461895;-0.01450937;-2.3811007;0.0026591478;-0.053415917;2.8479922;3.5310993;0.9850498;-0.86832577;0.02724365;3.1403322;0.7367317;-1.0730859;-0.20470057;0.5780086;0.039212435;1.4824198;1.0527973;-1.4200641;0.12569587;-0.8009215;0.001411433;-3.5135946;-0.22575654;-1.6005468;0.026530262;0.009379334;2.668219;2.9228683;0.08466953;1.6778164;0.08047814;0.012842902;0.015132301;0.04912104;0.42365623;-2.9306767;0.08727095;-1.2411666;0.9232388;-0.090030566;3.3853786;-0.015682423;0.40526524;0.09287688;-0.5345248;3.2423732;-1.7956095;-2.5060527;0.33136222;-1.9932032;-0.14074396;0.032764416;1.0286108;-0.7932044;-1.0190663;0.01372167;2.063128;-0.8390954;-0.30796322;-1.8665061;2.8222585;-18.180208;0.017499201;1.9707948;2.4259846;0.2602194;-0.6090117;1.4485496;-0.6991305;-0.521556;1.3704023;-0.09780961;0.0086896205;-0.014435689;-0.8022957;-3.1319852;0.004350631;-1.7391897;-0.522664;0.32230836;0.27709627;-5.4497824;-0.34815198;1.213104;-0.85305035;0.732372;-1.2293322;-0.3686864;3.8400338;0.80718726;-0.2993148;-0.061348826;0.013653612;-0.06777944;-0.6092416;-0.94129395;1.5719438;0.008090994;-0.0017975076;-0.16811185;-0.007435774;2.5147576;1.5856177;5.474656;0.018776987;-3.6804075;0.023324126;1.6615791;2.0422773;1.0300995;-0.0006541273;1.1221468;0.09685543;-2.8044777;0.5017597;-1.7648921;1.4458684;-5.133773;-1.0050935;1.0396754;2.9647799;1.5027752;-1.7362808;0.006789848;0.776047;-6.718492;-3.0141878;0.7347424;3.8572974;1.6650914;0.07156127;1.3843246;-3.0734355;1.119233;2.0702267;1.2074431;0.17492343;0.43066943;-13.345273;-1.2921774;-0.08840355;-0.01724917;-2.5946746;-0.4652999;-0.16481301;-1.5937239;0.007906737;-0.0634175;-2.9055285;-0.019004848;0.6305991;2.0128055;-0.48755673;0.0036153293;1.3985574;0.004100495;0.0021247508;1.0275127;-1.1614572;-1.4032575;1.9368439;-3.925119;0.025909163;1.8037622;0.062087487;0.051215857;-1.3392224;-0.8242779;-0.1107599;-1.9404818;-2.3843658;1.0036799;-6.904694;0.042843428;2.5467234;-1.4090201;-0.96458864;2.383218;0.724344;0.0020301018;-0.27303317;0.023151638;-0.0731091;0.986421;0.022354135;1.5492882;0.18880878;0.90574926;-2.786791;-0.73406726;1.9485419;0.24847762;2.115797;0.0002536634;0.804973;0.0072805174;-0.024822226;2.1921704;2.726249;2.7690887;0.6433016;0.015401361;0.64158344;3.525248;-5.6157155;0.05580288;-0.99527735;0.03992105;-0.008029689;0.5272016;1.4240078;-2.5028791;-1.9594492;0.030138059;0.024642369;2.0517936;-0.006225181;0.25439727;1.639242;2.6402516;0.084056176;2.6807752;-0.017285239;-1.8167788;1.2220423;-0.014380032;0.008318374;-5.2323713;-1.4045876;1.5197873;-0.006378623;0.10356849;-4.6561584;0.890013;-4.6654696;-0.071720794;-0.025845025;0.510433;-0.48057774;-1.5289197;3.0882204;1.4341908;0.031618666;-2.1853988;2.3247159;2.4571674;2.2784152;-1.0108042;-0.35830352;-0.0121548325;0.23524831;0.015875373;1.1151968;1.0817151;3.2971566;0.029901464;-4.750001;-2.4361284;1.582269;-3.6084325;2.0849752;0.6245772;-0.881014;0.8630729;0.028148992;-0.39755797;2.0079913;-2.2794912;0.005375623;0.012948433;-1.4180433;-0.86552995;-0.86966133;-0.71875185;1.5908868;-0.022140117;-1.7525884
-4.7253547;-1.2185097;0.013523637;-0.28512838;0.026446078;0.4722325;-0.5857884;-0.048422627;0.5977647;0.022922218;2.2198672;1.0275265;-0.03278019;0.01660284;1.0176066;-0.08118987;0.80655915;-3.1791322;-3.6109977;-2.2682748;1.6034814;0.7185099;0.9958042;1.0543362;0.03705008;1.7875311;0.0414372;0.8261639;-3.4499032;-0.99471223;1.1089988;-0.5994454;-4.0619106;0.0017876748;0.015268294;0.045647133;0.0066953357;0.77549356;1.1550461;-0.96127564;-4.1697726;-0.018611198;3.1353254;0.3250457;0.21821654;1.1283013;-0.03714846;-0.12455826;0.032550413;1.7766494;0.008054949;1.3020097;-0.23428467;-2.4827435;-0.07245532;0.008026605;-0.3593869;-0.36281636;-0.06763496;0.03325441;-0.014916578;-0.44630092;0.022947205;0.020851782;-0.95921314;1.4138465;0.001322598;-0.33856845;-0.08968797;0.010223604;2.770499;-0.00010840292;-3.4968848;2.5660703;-0.052371215;-0.0074989223;-3.4506907;-0.17132506;0.022819463;-4.3848457;0.020792801;-0.18332717;-0.15444738;-0.018745724;3.524989;0.8112824;0.045528665;-3.6262789;0.74818707;0.021868777;0.9229031;-0.04393376;0.6139985;-1.4307953;2.1043227;3.6239066;-4.0267015;-2.9663217;-1.0338222;-4.017864;3.925087;2.2429461;0.25354093;-2.2747343;1.8126705;-2.99559;1.226522;-1.299136;1.9308001;-1.5033451;-0.033939715;-3.68019;0.016108451;0.6463779;1.1748523;0.04526195;0.0110224625;3.3750722;0.7803315;0.117159024;-1.4450682;1.0183055;-4.7220445;-0.7827174;0.13804488;1.1766275;-0.7803986;2.2903419;-2.0469716;3.6994684;4.653757;1.3744874;1.1948949;0.95110023;-3.8212197;-0.06348128;-2.9828968;-13.109435;-4.9047346;2.2799304;-0.07652174;1.0359802;0.015514852;1.6260709;-1.3094559;-0.011105562;-0.19835962;-0.01622989;-1.1524622;1.228743;-0.026274296;0.5091914;-2.5478315;-2.1157691;-4.382021;0.55700606;0.35979936;2.7858386;0.021376882;0.74596834;-3.9316542;-1.7202687;-2.656884;-0.004729413;-0.13609146;0.13048282;-0.0031503174;0.2858416;-0.41849878;0.18428305;-0.63613623;0.007985255;-1.4437746;-1.7339041;-3.7581964;5.2580333;0.058763552;-4.7714944;0.06783631;-0.05726989;0.05054259;0.010946923;1.7938852;0.61198294;0.052392915;-0.2808464;-0.0006120562;0.15171953;1.2499042;-0.032940883;-1.5870484;1.490397;2.0820787;0.93340015;2.1105397;-0.8206226;1.4746332;1.1196018;-2.5355637;1.7233021;0.18996106;-1.4228431;-0.7577209;1.0028955;-2.154871;1.6847919;-7.492144;3.3525636;2.7879376;-2.3841133;2.4390886;-1.6773708;-0.59293324;0.001174287;-0.27157477;-0.012796281;-0.60047734;0.91606694;-1.9404962;-0.20361541;-3.8483858;-0.0013021854;2.5266166;-0.007883983;-1.6574408;0.21704245;-2.723928;-2.1794477;1.7576756;-0.0063160937;1.7778004;0.40853912;-0.9343651;-0.16644043;-0.7844068;-4.1482897;-2.1100667;0.020673912;0.95472336;-0.66401386;-5.315761;1.7283275;1.1513332;-0.025322285;-0.9438877;-0.07444514;-2.7136774;-2.3499663;0.8656849;0.38158152;0.6946317;0.019033052;-1.0533471;2.1008034;-0.016107745;-2.5344374;1.7238238;0.23837239;-0.017550021;-0.040091842;-1.4094802;-0.5245977;0.042910684;0.33955413;-0.006559792;0.051863816;0.7153623;-0.6022629;3.55916;-1.8940159;1.5240891;-0.17294127;-3.3658676;2.5897639;-0.018765096;-0.038289346;-0.1269784;2.8953848;0.47303158;-0.006689136;-0.101835415;0.32151157;-0.5609146;-1.108418;-0.18114582;-1.2508422;0.0622208;0.21636665;-0.0025107702;-0.14324337;0.44079053;-1.2766094;0.51740134;-0.999058;2.9774678;-1.7435672;-3.2780893;-2.3804255;-0.005912645;-0.009398225;0.7214967;-0.055595767;-0.0061571966;0.07371068;2.6302233;3.3604894;-1.3670781;-0.1495526;-0.4881927;-1.2867405;-2.2651165;1.0313195;0.58537936;-0.037469655;1.2503844;-0.48240894;1.0166163;-1.2805195;1.7361962;0.033843536;-0.3669151;0.13407002;-1.2251958;0.021552471;-0.04047099;0.76486987;-1.1261826;0.02308343;-5.184997;-0.058119975;-0.014517129;0.03276684;0.017752975;-0.036863927;-3.3242369;-0.020812444;-0.2552563;1.9752614;1.0384232;-0.9525974;0.001909868;-1.5565631;0.046859235;1.0988092;2.7905731;-0.7378386;-3.8354547;-0.93348527;-0.6767381;0.90270233;0.061441753;0.4256713;-1.940047;-0.050220042;0.05029407;-0.1415269;-1.1251873;0.5479559;-2.1179473;2.700425;-16.926771;0.05038027;0.4070343;-2.0426707;-0.011617334;-3.4187975;1.4693002;-0.20576824;-1.3161424;0.21479326;0.511006;-0.05423432;0.036422912;0.09794987;-2.8015916;-0.025578257;0.0037347986;1.7003698;4.8278537;-1.8394595;-4.832597;-0.8235489;-4.4587774;0.026001165;-2.054811;0.12519033;-0.11137924;3.618032;0.9268558;0.7583826;1.6181895;0.12815529;-0.0012118095;-1.7906687;-1.5899575;0.6232821;0.5518085;-0.0060270764;0.85521924;-0.020821605;0.14474267;1.6728454;4.27765;-0.004246817;-0.019098593;-0.000544732;0.74382126;1.4264232;0.34352076;-0.012672378;0.88126826;1.5180541;-1.8552356;0.09574767;0.99189466;1.9080434;1.6546719;1.4500765;-1.0201182;1.7207049;0.4008743;-1.4561201;-0.012011032;2.8912072;-0.92246115;-1.592524;-2.3084202;3.0370688;1.0682636;0.11371369;0.9493932;-0.5234923;2.0124428;4.9746;0.42503932;0.05808429;-0.13152377;-12.8030615;1.0258228;0.6374297;0.00053998973;-3.9584591;-0.638684;2.105923;1.2404735;-0.003187026;0.018500663;-4.165472;0.018666344;-0.12715828;-1.1695588;-2.690852;0.1947163;1.1529702;0.5361339;-0.040287122;2.2185853;-2.0273001;0.93797696;0.46468315;-0.7287525;0.031388417;0.9132261;-0.0076194783;-0.0058923448;-1.6060371;-3.0411713;-0.01722428;-0.63939005;2.9950483;-1.5187765;-5.191711;0.0006214807;2.9739835;-0.96001875;3.0078242;1.6643406;1.0842321;-0.030326255;-1.723012;0.03727935;0.061600856;-0.2243919;-0.011760001;0.6098605;-1.703391;-0.36758372;0.8200458;-3.9909437;0.77376974;-1.5542732;3.227811;0.028106803;1.0480398;-0.12972273;0.033530455;0.6539709;-0.048812304;2.346864;0.6386068;-0.023322506;-1.5331526;2.807591;-2.3422406;-0.042414628;-2.291683;-0.0034372385;-0.02087246;0.37558746;2.0158927;-0.56328624;-1.4139386;-0.001653267;0.0050263847;0.85930306;-0.023860123;-1.1538037;0.81316423;2.793979;-0.01690328;3.7783308;-0.016077694;-1.172237;1.1045467;0.10286594;-0.054757923;-3.0323987;0.1447614;-0.7979817;-0.102211595;-0.12786955;-2.4934897;0.73628616;-5.587908;0.15233448;-0.00095440075;-0.061138034;-0.61192596;0.6442944;1.1154518;-0.9721079;-0.18393654;-1.0297009;0.3204917;0.34182578;0.7062063;0.4014468;-3.178533;-0.029990228;-1.5832864;0.025436062;2.5409281;-0.025623176;3.785048;0.031213215;-3.2497535;-2.3168848;2.070206;-2.4450834;1.8441498;2.9213235;0.5906451;0.7873625;0.056280214;1.6295112;0.9213275;-2.6906219;0.033343323;-0.029687194;0.371235;1.8455131;-0.40473816;-0.8732298;1.2246803;-0.028408835;1.2195303
-2.4062257;0.7878114;-0.037065808;-0.25112823;-0.0037704336;-0.31768918;-0.9376094;-0.2281008;-1.3388329;0.039426774;1.5724416;-3.0969663;0.03222915;-0.090289146;0.113544464;-0.065823;-0.20391494;-3.209374;1.2754935;-2.9064565;1.930821;-1.5174367;-2.5921285;2.5465105;-0.004308011;-0.18267128;-0.0063825864;1.7564937;-1.6921089;-0.85640967;0.31600192;-0.13348906;-3.2763262;-0.0016412454;0.034668848;-0.019926084;0.0032106692;2.7652333;0.4338558;0.288532;0.8303215;-0.035370585;0.8484124;-1.1567991;-1.2322572;0.19114302;0.3717564;-0.5091507;0.017923558;1.0196441;-0.007884473;3.1421833;1.5221872;-3.145386;0.11149495;0.05469448;-1.9639009;1.4475976;0.0014941358;-0.04374508;0.008776351;-2.633136;0.02468095;-0.010490953;-2.2495942;-3.3450668;0.0017747564;1.6550225;-0.052705184;0.07936858;1.2994777;0.015062376;-0.43340826;-2.1138213;1.8660692;0.029845934;-0.04388464;3.4524908;-0.0001825135;-1.2283864;0.0021443171;0.17831405;-0.053856;1.4316888;-0.8624992;1.279013;0.026401095;-2.6299162;-0.21967992;-0.024457388;-1.1681292;0.40552697;0.93210953;-0.79720926;0.67565715;-2.6721287;-1.0369694;-2.086587;0.32153827;-4.49221;2.7453184;0.13426937;-0.054035146;-1.2771993;3.2808151;-1.2840998;1.9116684;-1.6747781;-0.47533983;1.0406893;0.20266731;-4.73505;-0.032365926;-0.1298703;2.1098573;-0.019723158;0.018226966;1.846745;1.3968903;0.6560122;-1.4134413;0.5299453;-1.4356968;0.7453066;0.2816362;1.4846057;2.4272387;0.8686918;-1.328222;0.8919364;3.5594761;0.093716994;2.159314;-0.1314384;0.11109908;0.01601928;-3.0040274;-12.660079;-3.0334496;-0.41957384;0.05998883;0.65420705;1.9880294;0.7636569;-0.26136836;0.058935493;0.8375296;-0.029383123;-2.4394789;1.1410173;0.07265508;2.011657;-0.08143948;-1.8778013;-4.148974;0.05417224;0.58018583;-0.2890936;0.005555014;-0.94755;-4.8179154;-6.023737;-3.0765765;-0.033723354;0.1424004;1.0168858;-0.025712414;-0.13878627;-4.844886;-1.2807643;-1.6931336;0.009947101;-1.7168016;-0.34034458;-0.5998073;5.175132;-0.054278355;-2.4200704;-2.0098927;0.006185045;0.02913925;0.05570636;0.095976755;-0.46654642;0.017350052;2.5949736;-0.004626875;1.8260821;-4.6371384;0.094973266;-1.8819981;-0.8598652;2.9463542;-0.065350465;1.3504832;0.25998026;0.9156878;3.2041821;-0.5362848;0.027576;2.2256787;-1.0222313;0.7935775;1.4823796;-1.0457811;1.5600806;-1.2116129;2.9703817;0.30261168;-1.6690061;2.595338;-1.295132;2.6374662;0.044228688;-0.01776884;0.0039870935;0.2669122;0.5698712;0.97987545;2.2431705;-0.9540663;0.5976213;-1.726233;0.014883869;-1.6109784;-0.342985;-0.7070955;0.32487938;0.27978465;0.03151249;2.1091301;0.9544554;1.525204;2.0384357;-0.29333815;-2.9828098;-2.1787703;0.03037696;-0.9295712;0.14344646;-3.7603033;0.8627103;0.32527336;-0.037400924;2.039051;0.6631058;0.3283825;0.26503032;-0.08543043;0.099742174;-2.8281634;0.0037737545;-1.0728862;0.5702074;0.056441218;-2.8498414;0.4221914;0.34894642;-0.0068591014;0.023514528;2.4871712;-2.4991105;-0.033680607;0.75546443;-0.005388676;1.8575981;1.2419372;-1.039175;2.9318419;-2.3031137;1.1078266;1.2120543;1.917471;-1.9465302;0.016199322;-0.019026838;-2.0224116;3.482276;-0.1564173;0.050605405;-0.04149021;-0.14461292;-0.5507066;2.4973042;1.0005015;-0.46642628;-0.030367522;0.20435566;-0.015255831;0.052057862;2.4270627;-1.6639986;-1.6212751;-1.2126745;0.638781;1.3912098;1.5262449;-2.7510762;0.0078120693;0.014324996;0.28132352;-0.010129681;0.0069736214;-0.7531929;2.7052622;4.776713;-1.1013073;1.1233085;-1.3400464;-2.1839795;-0.79389;-0.20980002;-2.6170416;0.0067567606;3.3872087;-0.021584027;-0.6961033;-0.45713934;-0.12110461;0.023448272;0.38320857;-2.1733356;-1.8071508;0.027689137;0.07383385;-1.2648333;0.676764;0.036727205;0.13779761;-0.013494743;0.016609319;-0.04594791;0.041196566;0.22990613;-0.9890149;0.059835598;-3.3018963;2.584069;2.5507636;-1.8941988;-0.0008838567;-0.23878784;0.082927145;1.6475091;4.7388377;2.1337223;-2.1972225;-6.4322286;2.2056916;-0.18126157;0.086752445;-0.9077748;0.05861533;0.53770685;0.02356809;0.02589412;-1.1861672;0.014939776;1.6367666;3.0284002;-15.93589;0.021102065;1.8121752;-1.1263509;0.39476067;-2.2485406;3.3616052;-1.2226601;0.11677205;-1.23203;-0.038394023;0.0233381;-0.0025592067;-5.390156;-2.8671832;-0.12798914;0.7925997;1.4161103;2.1068072;0.59637177;-6.7905393;-2.8641438;-1.6129597;-1.3741444;-1.6852198;-1.5614996;1.0978024;3.3417032;1.9144409;-0.56832075;1.9892896;-0.09290696;-0.004421395;0.18711011;0.41135213;0.5125872;-0.097973034;0.053809512;-0.15998185;0.01912063;1.1899545;2.0863645;-1.5860282;0.037069965;-0.06369996;0.0096366145;0.058157917;0.8191158;0.2031957;0.027156923;0.40698442;1.2384121;-1.1268619;-0.09671425;0.66556835;2.245261;-0.20604686;5.1647835;-4.7183933;3.8003833;-0.40179935;0.5255099;-0.008559011;1.3700564;3.9748023;1.6127874;-1.3879194;1.9634602;2.1933665;0.06685504;2.5868196;0.8848362;0.26328537;5.5277243;0.53365374;-0.34452698;0.03643873;-11.923456;1.9333215;-0.043577716;-0.07762004;-3.0959883;-1.0436867;-0.41344556;-0.1627953;0.05526922;0.02938821;-0.9832225;0.03835561;-0.054967564;-0.7347636;-3.1819003;-0.023365142;2.2271483;0.038725972;0.028884245;1.7825434;-0.716736;0.84054494;-1.1839868;-2.5871143;0.06405124;-2.50851;0.0016713003;-0.008375379;-1.4656535;-3.220455;-0.0318311;-1.3995128;2.152402;-3.274189;-5.03074;0.018428674;3.9995134;-0.62002456;2.8943346;4.6156015;-0.67174494;0.016826086;0.18063001;0.014409122;0.07324278;-0.72038865;-0.0020118926;-2.985741;-2.0954692;-1.1825297;-0.99426204;-2.7984085;0.26708582;-2.6869378;-1.8950984;-0.0004942276;-0.47472072;0.8777129;-0.047479656;1.9025973;0.62219805;4.4000754;-2.4598699;-0.027194276;-1.6832534;2.1411693;0.5731979;-0.025975099;-1.2969145;0.06803866;0.12676948;-0.08843592;2.5057023;-2.3252313;-1.0759977;0.002972712;-0.060516685;-0.03324494;0.014003464;-0.8200871;1.1741788;3.0020792;-0.044372264;5.430599;0.017996043;1.3462929;-0.5098687;-0.063653775;0.045793034;1.7281291;-2.956875;1.6166084;-0.037024714;1.9573685;-2.6111531;1.1498797;-1.9740261;0.01847645;0.019155554;-0.051291093;-1.6126983;0.36829004;-0.8633588;0.34106883;1.0204031;-0.7453834;-1.7647225;-1.608634;-0.55016565;-0.64331347;-2.3988764;0.0017236574;-0.04884367;0.00588055;1.8077819;-0.8050071;2.2288237;0.007941023;-4.7053366;-3.4951403;2.7427292;1.4171581;0.9426083;1.1009579;-0.88053507;-1.7228123;-0.02445082;2.5624847;0.6839759;-1.6568984;0.040584978;0.004800071;1.6640508;0.036929578;-0.6174441;1.5044849;-3.268358;-0.034827173;0.06444051
-1.7861558;-0.023181934;-0.008457422;-2.1417866;-0.022917459;0.8806122;2.2476735;0.8372316;0.094359204;-0.009460697;1.7900826;-3.6883852;-0.046319574;-0.059723884;-1.3934513;0.6236457;-0.008961615;-3.3629472;2.7964528;-2.5536072;2.6158822;-1.4903212;0.40006366;1.7683461;-0.06128504;-2.0494452;-0.041837923;-0.7803132;-1.186271;-2.4008813;-0.80286944;0.6681291;-3.351336;-0.004585605;0.024404828;-0.0069942707;0.021835338;2.1252742;0.38864768;1.754664;0.9531217;0.06165569;0.88931197;-2.5548046;-1.6698267;0.37710837;-0.09117573;0.82919157;-0.008349279;-2.0379975;0.009801825;2.716672;4.8636923;-3.033368;0.45518485;-0.06543914;-0.1629065;0.99983543;0.027480673;0.010749131;-0.02603804;-2.13146;0.018061956;-0.0152004715;-3.8439567;2.3587222;0.008251782;-0.62307423;0.120418765;0.03762278;-3.4911146;0.008002446;-1.3021246;-3.5102758;1.5633096;-0.006578239;1.0186424;2.3939717;-0.026580736;-1.2789044;-0.030233495;0.25721717;-0.12366893;0.5135739;-1.0364288;-0.8941985;0.0013790937;-3.8816316;0.027722584;0.012428321;0.6535406;-0.13923249;1.0126599;-0.8582562;0.41731837;-0.8413308;-0.75705856;-3.279633;-1.4173169;-0.98268706;4.1049466;1.8170971;-0.43277505;-1.919177;2.5918367;-1.640508;0.556202;-1.3608603;-2.7825491;2.6157165;0.21365587;-0.2163367;-0.007739051;-1.5803136;0.93284947;-0.012896723;0.025406858;1.4667975;-0.074889645;-3.460447;-2.056213;1.0510871;-1.7233942;1.2431;2.0391219;1.9188131;-2.0486972;0.16095431;-2.8388016;-0.41062254;2.6845093;0.58286595;2.0473893;-0.06049911;0.89110494;0.027803076;-2.1813252;-13.090126;-0.4875268;0.8005902;-0.023262398;-0.62845546;-0.0039644744;0.4406995;2.410122;-0.029659996;-1.8983797;-0.06873157;1.3204392;-1.2507721;-0.053845868;2.4057784;1.6001726;-2.5673096;-3.039163;-3.7334664;1.7310646;-1.5317434;0.0007194922;-1.4023085;-2.739095;-0.47624394;-0.31050292;-0.12895203;0.24828862;2.8985403;-0.0067802747;1.5563488;-3.2289157;-0.05429491;-1.2567694;0.023355808;-2.931616;2.6245322;-0.1366473;5.743723;-0.02640512;-0.97278124;-0.7381143;0.011140331;-0.012871884;-0.030867407;1.648372;-0.2253125;-0.056111556;-1.6355449;-0.009274306;2.1709151;-5.0007663;-0.04822316;-0.13401489;1.453532;-0.70898503;-0.14086926;2.51205;-1.759163;-0.27376065;1.0649616;0.41211918;-0.9903612;0.86856866;-1.1624521;0.3107142;0.4172028;-1.9090445;1.3838793;-5.557482;3.8724637;-1.720464;1.0473672;0.5458115;-0.018595403;0.58484787;0.013171997;-0.051417105;-0.011440952;-2.2902896;1.9479276;3.62668;0.4256449;-2.1469767;1.0910137;-3.6694827;0.011570223;-0.6761429;0.51497185;-0.5083082;-1.9410701;3.1065648;-0.018136617;3.0599966;-3.1799843;-3.3776436;1.5052766;-0.79053223;-1.2125489;-1.8710017;0.0046154168;-2.021086;0.7640255;-5.0418444;1.5819062;2.1926384;-0.011515592;3.9972074;-1.3155377;0.9530686;0.30560628;-0.11287043;0.23866874;-1.2530844;-0.02265493;0.5987294;-0.05934982;-0.028001636;-2.3638296;-1.342757;0.22021616;-0.10522713;0.0006435651;2.3279793;-1.1178823;0.067211606;-0.1802923;-0.036878403;0.5735922;0.13371894;-0.47504324;1.8639485;-1.9400594;2.626183;0.8415008;-3.8065696;-0.40654424;0.06499746;0.0044840383;-4.4760256;1.8988932;0.00868956;0.0006356192;-0.055657543;-3.2843895;-2.39471;3.7811441;1.4445918;1.5588857;-0.022343261;0.6496731;-0.024807002;0.40510312;1.3656282;-2.1121526;1.6338063;-3.0752492;1.4419842;1.8311567;0.5512814;-1.7798635;0.025115676;0.02041669;-0.010963389;-0.02914522;-0.009548905;0.39249077;-2.4971142;2.0374625;-1.7463009;-0.6178494;-2.6530347;-1.0512449;-1.1057647;-0.06277369;-7.221717;-0.04829538;4.3100863;-1.2534906;-0.5149059;-5.3716345;-1.6754422;0.024291985;0.71159166;-3.254994;-1.1314781;-0.035574634;0.0018866926;-0.36145926;-3.38357;-0.0042770472;0.11574657;0.026687909;0.040635046;-0.053195838;-0.009604833;-0.08472366;-3.2917788;-0.06028988;-2.573739;1.8432773;0.32098097;-1.329212;-0.107089326;3.8554022;0.01072515;2.0278757;1.7667472;-2.5499072;-2.6093242;-8.189484;0.29251814;-0.06548621;-0.006414072;1.8688399;-0.20584145;-0.18587865;-0.03167673;1.9236016;-1.3935285;-3.511252;-0.8200182;2.9662416;-16.995192;0.0046267556;0.3960835;-3.7221005;0.50179416;-1.1844612;2.9443455;1.201305;0.42305294;2.0046265;-0.048969805;-0.046165377;0.083612755;-1.4447273;0.8544536;0.82516056;-1.4070778;-0.61096394;2.3609776;-1.6105987;-4.4809704;0.6009063;-3.471277;0.124414586;-3.7490501;-1.6493917;-2.0252056;2.6704974;-1.5592309;-1.4432042;2.489581;-0.062446315;-0.029396411;0.90497583;0.18137941;1.481243;0.016787468;0.0053315125;-0.056934517;0.03213315;0.64747083;4.9793973;0.46872348;-0.043244183;-0.47985476;-0.0034253234;2.324149;-1.1337717;0.9708252;0.04238414;-0.30404475;1.6656591;2.669212;0.10446582;1.6544305;2.9502966;0.061370693;3.6469212;2.260494;4.80021;-2.599904;1.0332485;0.026648639;3.4717965;1.7010689;-3.9314587;0.49122053;1.9784209;1.2275224;0.48247048;-0.51460403;1.1012923;-0.34774855;2.8929813;-0.84612894;0.3384252;-0.08806636;-12.846798;2.3549185;-0.052158598;-0.0130224405;-3.237952;1.0853206;3.2561157;0.6900637;0.03616098;-0.022259425;-1.8431808;-0.005870414;-0.024478534;-0.10623323;0.19485445;0.006464719;-0.7436027;0.28047976;-0.070258245;2.0010753;-3.3334808;0.96102554;-0.16531311;2.9396849;-0.012970493;1.4886442;-0.037729815;-0.096137814;-1.8258566;-2.1713052;-0.022830581;-2.2176762;3.393262;-0.5349089;-1.9925035;-0.026986431;3.1818123;-1.0718076;2.6200635;-1.3387705;0.981903;0.0015497537;-0.018390782;0.009438764;-0.18027951;-0.21425855;-0.034325533;-3.606355;-0.5369066;-0.77210534;0.9491687;-5.3662033;3.0909712;-1.3622665;-0.9592695;-0.024846299;4.2825756;-0.12268436;0.046454284;1.8140604;2.3149738;2.1055102;0.83704525;0.060048006;-0.68970734;-3.8113992;-3.8824248;0.0050986353;-4.12996;-0.053366434;-0.010597895;0.16654998;2.2970738;0.71184176;-0.49753448;-0.023336064;-0.0051852395;-1.4818959;-0.022350173;-2.0317671;2.0822022;1.1592462;0.024884788;3.291692;0.018027868;-2.9614313;-0.037715107;-0.0023647193;0.28118846;1.3897554;2.0758142;-0.2689786;0.007784891;1.1382324;-3.3342264;2.6548007;-1.4764264;-0.2777536;-0.01914042;-0.019523168;-1.8949655;0.78490454;-0.42943808;-1.015226;-0.30650362;0.2647169;-2.7766504;-3.3690786;-0.50866365;-3.4504194;-1.3585571;-0.044209484;0.32057378;-0.017734325;2.5763636;0.75194806;2.4766397;0.010867727;-2.824909;1.7551028;1.7718364;-0.0022706054;2.0485928;1.04184;-1.7969813;-1.7132009;0.09369497;0.12936182;1.8647509;-0.32555422;0.0019741312;0.027019769;1.4020363;-0.082956724;0.5722854;1.6477665;0.99153036;0.019289535;-1.0220518
3.0230098;-0.029158644;0.041348454;-1.5665747;0.027809912;0.32039064;2.166974;-0.23110338;-0.3071784;-0.069498666;0.20934811;-0.083398625;-0.032699566;-0.03490029;0.40226015;-0.1241229;-0.011316109;-0.60581434;1.6171541;-1.3608748;2.4967492;1.3655394;-0.9312582;0.86705846;0.09154553;0.25835264;0.012253773;1.4872601;1.0366544;-1.2338421;1.8087496;-0.27711394;-2.4136055;0.037040707;0.008359836;-0.0034712541;-0.043068487;0.5398148;0.14421788;0.3376003;3.804421;-0.03342711;1.6819899;-2.5709112;-2.0531628;0.022583866;-0.00077030953;-0.19512849;-0.05102764;0.9703577;0.0014573565;0.54599017;2.0349872;-3.386336;0.7242131;0.05400049;-0.3191425;-1.5760714;-0.012061257;0.042306803;0.013465009;-2.5578547;0.066196986;0.010801126;-3.9316134;-2.8937628;0.010204187;0.030123353;-0.2920461;0.14417422;-1.8116409;0.0004237154;0.4281375;-3.1156547;-1.1818775;-0.058850903;0.88118756;2.4877598;0.050556116;2.6538548;-0.026219934;0.9385621;0.0048204632;0.9939235;-3.805256;1.6129324;-0.017182348;-3.471772;-0.096234895;0.019569771;-1.1037525;-0.053038776;0.59350395;-0.45724836;0.8539208;0.48227093;-0.36342415;-2.6047826;-0.15521389;-5.2947774;3.3557515;-1.096044;-0.24325691;-2.5672128;2.0595891;-0.45182258;1.4428523;-1.1086311;0.7526695;-0.21823588;-0.27501366;1.1922026;-0.01627202;-1.7875173;-2.8589635;0.004810691;0.039377403;0.2191925;1.0771837;-1.6402385;-0.9117719;2.4546762;0.09313202;1.9471226;3.042201;1.9578164;1.6986843;1.2227541;0.7034419;0.5329626;0.48054653;2.4766173;0.27622506;0.007829661;2.3686054;0.039206214;-3.2423782;-12.148034;0.383562;-1.4060005;0.035315793;-1.0853411;1.6967895;1.6248134;1.1987641;0.03665856;0.8041222;-0.008555188;0.31911632;-0.30990478;0.043578338;2.0567613;-0.24012467;-2.9934096;-0.07021815;-2.3812368;2.2952962;-0.24919836;-0.03246157;-0.15611647;1.0720031;-1.2813917;-1.5297798;0.80381316;0.030793231;0.49195293;-0.005727454;2.8859587;-2.17377;0.64864624;-2.5835912;0.001582636;-4.3830814;2.6329257;-0.3141228;6.015552;-0.05092309;-1.8932463;-0.19232997;0.008428503;0.02184721;0.0051518846;0.5229782;-0.53362244;0.07630691;2.4091604;-0.007764672;1.6005383;-5.8809443;0.07389235;-0.2939345;0.6817705;-3.942071;-0.03460785;1.5126518;-1.3377233;-0.8814465;0.7229575;1.1417422;-2.3290575;0.4495708;-0.32277888;0.89813274;-1.489834;2.4324346;1.607766;-2.926416;0.84981644;0.74863994;2.6331596;2.8361838;0.7231101;-0.63612276;0.013628219;0.021909447;0.0141550815;-2.4794364;0.72436315;3.646436;-1.2796011;-1.4617699;-0.32036787;-2.5324428;0.017625194;-0.16951992;1.664701;-2.0298443;-3.7357373;1.710995;0.022306243;2.8952596;-1.3240005;-6.9913144;4.0877647;-0.9498097;0.08542468;-1.8279254;-0.016845657;-2.8893516;1.6577262;-1.2021272;1.585852;2.7121515;0.013912393;0.87958467;-0.12572674;0.83551544;2.3577404;0.0034843641;0.06234904;-1.704951;-0.05444855;1.0959377;-2.3221955;-0.0041316194;-2.591534;1.0012693;1.720121;-0.030306531;-0.001214268;1.5328887;-2.5735786;0.01784484;-0.10878322;-0.00441696;-0.20835274;-0.09761599;-1.9089608;-3.3371506;-1.8652557;-0.13271414;1.1473771;0.7523125;1.9915876;-0.009375518;0.04221746;-2.8674924;1.1274781;-0.019153146;0.05196137;0.06453183;-0.02558252;-1.2322417;3.2608783;-1.2708645;1.9290428;0.036614954;0.27976388;0.0005451318;-0.1599511;-0.82923484;-2.0080473;-3.7923448;-1.7341654;-1.1586686;0.045272723;-0.6091472;-4.4781585;0.024168916;-0.025410218;0.710567;-0.048305582;0.016026637;0.5542177;-2.6685822;0.7732147;-1.6302308;0.00042707284;1.0822119;-2.0255823;2.0698538;0.020045154;-6.7669263;-0.038915902;1.9558517;-0.9363825;0.15626606;-2.9867396;-2.7037954;-0.0014132087;2.259081;1.993672;-0.4730637;-0.015731705;-0.012368439;0.5638015;-0.37432984;0.028858066;0.39353824;-0.029520128;-0.034423433;-0.039446853;0.035675973;-0.022223456;-2.5542297;0.059158232;-2.394752;2.5320249;0.5704809;-3.1533604;-0.06644396;3.2283275;-0.011570054;1.1216575;0.8808097;0.3793108;-3.5977242;-9.210147;-0.3702667;-0.059961855;-0.003577107;1.4049985;0.011788941;-0.26082003;0.04385401;1.8983393;-0.60441095;-3.088674;-0.7735681;3.1014662;-16.711102;0.028993336;0.5864143;-1.5798692;0.7540483;-1.677118;0.9499569;-0.4488128;-1.7236582;2.602643;-0.009684311;-0.0058481013;0.021640701;-2.4362333;-2.6739209;-0.07854278;-0.6927255;-2.8787787;0.4853771;-2.1745818;-3.7591891;0.20087945;-2.3667037;1.0863353;-2.8062682;1.3739874;-1.368545;3.5881648;-0.76375943;-0.7969007;1.726123;0.18043461;-0.025682034;-1.0313735;-0.22009772;1.4312557;-0.0081105;0.04883744;0.024255754;0.030513892;-1.2062054;2.469838;-2.8026693;0.06961366;-0.9953509;0.033893317;4.065276;-3.255164;1.5999331;0.014530613;-0.97279346;-1.4413998;-0.26216745;-0.0462681;1.3209041;1.3832949;2.052078;2.8382673;1.217647;3.6810334;0.2770039;-1.8379188;-0.03139652;2.4912162;0.2117474;-0.5470688;0.4561234;2.6886623;0.16077738;0.11292824;0.04375433;-1.3206449;1.210842;3.5167658;-0.24161468;-0.30345508;0.025689034;-12.157132;0.098642275;0.0029908316;-0.03747675;-3.8940794;1.0932077;0.67395896;-1.1859208;-0.07443899;-0.019256122;-1.5730948;-0.010310205;0.014928139;-0.7167505;-0.17089981;-0.028325383;0.6703277;-0.13341634;0.0022178676;2.506664;-0.12268095;0.97498417;-2.2344077;1.5661757;0.008525905;1.9120876;0.016261665;0.043488014;-2.529635;1.1068374;0.028656809;-0.7066408;-0.96098185;0.2923107;-0.43618634;0.0016617522;3.0494893;0.5462229;0.93680656;0.26173896;-0.7025667;0.024166455;0.67818904;0.02904692;0.009108939;0.074544966;0.029579518;-2.436052;-1.5622127;-1.6309915;-0.026965136;-3.9511669;-0.79019696;0.5821119;-0.076892726;0.007909362;1.9025968;-0.019037915;0.026727905;1.8967775;-0.5362682;2.0948453;1.741946;-0.018376451;-0.059312094;-3.0556378;-3.8032258;0.0632969;-2.2401638;-0.014389312;0.049056813;-0.8753815;-0.33981925;0.014000857;-1.7011935;0.015897384;-0.003773611;-0.11989051;0.04582598;-0.8013417;1.8939167;-0.8483816;-0.0077308114;0.15217827;-0.042597372;-3.8750155;-0.0031314609;-0.009463775;-0.073412396;1.7844601;-2.5225902;-1.463111;-0.09739578;1.9986277;-3.7614532;0.70113647;0.3932281;-0.026042152;0.0223791;0.014700712;1.058626;2.8497846;-0.0044695516;-2.8292518;-0.07065936;2.585017;0.27717888;-2.7455595;-0.6179764;-1.9330968;-2.5800157;0.613203;1.9490553;0.050403003;1.5397329;0.7509236;3.2387452;0.009732194;-0.38039544;2.3141947;3.7530267;-3.5908492;2.6782064;2.326218;-2.1271899;-1.3197409;-0.044753026;1.6413113;-0.18468478;0.9837841;-0.024088258;-0.028479792;1.042957;1.2429607;-0.79301906;2.642848;1.2133056;0.013608743;-3.136632
2.991387;-1.8269892;-0.012187427;-3.1721406;-0.05757551;1.4526786;-2.0157926;-0.0324873;-0.17640372;-0.08986456;0.8426163;1.4377705;0.95111763;-0.28340706;1.5509195;-0.096861124;-0.014711102;-3.246773;0.7002295;-0.59247816;2.7164145;0.300108;0.7878111;1.2246201;-0.02034227;-2.4971218;-0.10065785;0.026586799;0.53266954;-5.0577755;3.6196573;-0.3979321;1.8580289;-0.03131278;-0.02984293;0.017611835;0.0039931973;-1.4496492;1.3836606;0.057760846;1.2999092;-0.14704485;2.23139;-2.1862392;1.2770212;0.15921144;-0.07504025;-0.27725673;-0.009120266;0.047289617;0.013517726;0.021735467;0.70639396;-1.8185464;-0.9800181;0.0022931625;0.58635265;2.4154773;0.24222162;-0.005809946;-0.023728333;-4.100598;-0.029686265;0.009870978;-3.8023317;-1.2361966;-0.03459743;-0.056268234;2.6014392;0.19296765;-2.502916;-0.098247595;-2.2539542;-2.8581488;0.24583584;0.014385899;-2.2492664;4.6851454;0.005280236;-2.0113804;-0.019947356;-2.419178;-0.01600097;2.4320595;-0.6968568;-0.3123662;0.041523345;-5.2463474;-0.077876024;-0.022770977;3.8418279;-0.0057902746;2.1377506;-1.1306232;2.9221077;-5.0422316;0.5586235;-2.9252305;4.251375;-5.5757976;-0.67369145;0.24852231;0.7683706;-0.6018365;-1.1728342;-0.42006153;1.9658082;-1.2606236;-0.55684316;-2.09355;-0.8121326;2.4018204;0.0051940717;-0.554846;0.24705166;0.032251816;0.0025573017;-1.3014956;0.6654877;-0.41919008;-1.5907063;0.8579126;2.6026568;1.2418045;1.2486943;1.2018194;0.8057913;0.38212037;0.38148278;-0.7770514;-0.22614644;6.0421453;-3.0183074;-0.03867545;1.4487789;-0.025152475;3.5283377;-13.835853;-0.7622608;-2.6798995;-0.023705887;0.044883844;-0.84414274;3.8439152;1.8268992;0.008314858;-3.4151704;-0.20615473;0.18232806;2.5945668;-0.01432598;2.1047893;-2.685035;-1.5396875;0.4785813;-1.5528427;1.5329783;-1.4911797;-0.008153614;0.7499085;-0.4066177;-1.6737154;-1.8754624;0.07344117;0.004823007;0.7867745;0.052746475;1.7191209;-0.2232823;2.837304;-3.8415778;-0.03246838;-3.5939114;2.6038272;0.040734213;5.5234632;-0.08348125;1.9856644;1.8048903;-0.038651593;-0.0028843095;0.013909122;-4.26591;0.33554727;0.037996028;2.9042807;-0.073091954;3.1085927;-3.6521242;-0.052442227;-1.5368003;3.8306172;1.4897784;-0.03955905;0.0688353;0.20190144;2.816911;1.5639;0.38799933;-3.962143;2.8797102;3.9874146;3.2878318;1.1856035;3.374788;-4.478445;1.2405995;0.7504408;1.6906322;2.5496686;3.7187932;1.1716567;4.017686;0.005192902;-0.073517576;0.010165273;-2.615242;0.39233792;5.5923114;-2.8168514;2.2235177;1.9783752;-0.29829213;-0.036809456;-0.8889386;2.0725229;-0.91142917;-6.128461;-1.1997424;0.018587878;5.281389;-1.7135991;-5.282459;-0.6198366;-4.6370673;-1.0546702;-2.023961;-0.00021363935;0.69956285;3.7402608;-5.5764723;-0.2779317;0.5218845;-0.036522675;-1.2889738;1.7025294;-4.181967;0.68909895;-0.006575832;-0.10620883;-0.19134872;-0.045577668;2.727756;-3.843191;0.035742156;-3.1609526;-0.14214912;3.3387241;-0.04149241;-0.02050244;0.8326302;-1.2285682;-0.044208184;-0.07064578;0.01856317;-0.39793482;-1.2064438;-2.4013252;-0.5366179;-2.5764391;1.5065955;0.606188;1.7836821;-0.42073077;-0.005976732;-0.035813916;-2.8309088;-0.015832962;0.0074480097;0.030875381;-0.031551108;2.8033643;0.3555643;-1.9701188;-1.790361;2.2342546;-0.033397503;1.0411696;-0.031786893;-1.2340947;-0.074824;-1.1429741;-1.8816268;-2.2919245;1.9815849;1.6369885;0.9208694;0.09396842;-0.08610567;-0.0133120725;0.26180407;-0.055285294;-0.028872296;0.0769667;-3.9486492;-0.7730554;-1.1236072;-0.021949487;-1.4199082;-2.653706;-0.86963826;-0.050095648;-2.9209373;0.07363312;-0.25813568;-2.0160716;-2.6047273;2.8544168;-0.20064253;-0.012028811;1.886071;0.012963315;1.2164043;-0.007321336;0.039377723;1.0120226;2.1274092;-0.0031896043;-2.1548882;-0.05340731;0.013335093;-0.053799704;-0.011193894;-0.01768634;-5.0671167;-0.04560324;-2.851168;2.171252;1.4001627;-2.4938927;0.91306466;0.7304401;0.061474696;1.612051;1.486051;-0.30210817;-5.688853;-10.715414;0.59564984;-0.048221104;0.015742216;0.8541454;-3.783832;2.7668707;0.009478601;0.08344695;-0.724838;0.37830862;-0.37469965;3.3474844;-18.527544;-0.015227009;0.21715042;-4.930171;-0.03820254;-0.34005025;0.41018727;-0.81568706;-1.9668105;-2.460506;-0.032495264;-0.06303354;-0.005052049;-3.2384946;-2.2625275;-0.13158832;1.8876567;-1.6768521;-0.53373414;-1.7106366;-2.5720441;1.4760838;-0.21379331;0.13587818;1.7541009;-0.85175705;-0.07901189;3.788719;0.86325514;0.0054056593;2.4111836;-0.078863904;-0.036549773;-0.099856205;-1.1789387;0.3004592;-0.027346594;-0.004422124;-0.021843653;-0.087682694;-0.34104174;1.182451;-2.5445633;-0.053793382;0.33536085;0.023445992;3.8916879;-0.2938426;1.0968022;-0.010157142;3.7431307;-0.5317496;2.1068304;-0.024728209;4.030791;2.4028134;-0.27208588;3.486358;-1.7057443;2.9546397;0.2566571;-0.7603683;-0.060489096;1.923908;2.121069;-1.3468857;5.463004;0.3937145;1.5740275;0.69648415;2.7819896;-5.336242;2.4809124;3.2965343;1.7848725;0.24242064;0.02598086;-13.731795;-0.6880888;0.027104966;-0.06985488;-2.2718308;2.5930774;0.51524585;-2.6077158;0.043339472;0.0061246;-2.7310157;-0.0346182;0.05177265;1.6235806;-2.605434;-0.04416717;-3.4227495;-0.028940825;-0.08537754;4.188069;-2.5316916;2.9322114;-1.2081803;0.11775203;0.028403424;0.8091783;-0.05128275;-0.015072932;-1.6183155;2.8148894;-0.004824795;-0.3247806;1.0484347;0.26717472;0.48413903;-0.061529573;4.115571;-2.5890481;2.4665053;1.2477226;0.11440955;-0.009617237;-0.6648471;-0.04450067;0.47782084;0.37311944;0.013573112;-3.0758774;-2.6836479;2.1040041;0.19483621;-2.5574794;2.8652792;-3.9042728;-1.1229486;-0.025344921;-2.249907;-0.00573753;-0.07555552;2.0747838;-1.9861423;2.0237894;4.4214654;0.029833276;0.64977866;3.0619073;1.4597924;-0.03205564;1.9685606;-0.094677076;-0.03726305;1.7379273;-1.5340147;1.2789421;-1.618112;-0.018005885;0.005436773;-0.25542298;-0.0117202895;-0.58204716;0.9878283;1.0072142;-0.03140227;0.11293187;0.008169528;0.16555469;0.039555114;-0.041631784;0.028009158;1.0452304;-0.39502245;2.0987346;-0.055302024;0.062132247;-3.1286259;2.2198858;2.474001;-0.17845221;-0.037595645;-0.004357818;0.4732709;2.0829713;-0.9476143;0.8331042;-0.05299294;1.0879536;-2.9106956;0.35890886;-0.8699109;-0.42073855;-1.3269498;-0.18173894;-0.40778822;-0.047894936;-2.484474;-3.2545757;0.4403545;0.03451846;2.7215114;1.0588657;3.7049456;0.37244666;-0.11989066;4.5996637;-2.4309635;1.7437786;-0.01019127;-1.9298848;-2.3610137;-0.8069705;-0.0009221067;-0.025224026;2.1610773;-1.0887516;0.027346794;2.102227;0.89171886;0.00089333276;-0.9913894
-0.54940194;-2.429401;0.035485294;-1.7509443;-0.03940621;2.0795746;1.6830263;-0.101415455;-2.0328405;-0.032468364;1.2118503;-2.1441839;-0.18561809;0.53339237;2.0047836;-0.022590606;0.0009103673;-4.111442;-1.4973521;0.1646218;2.358923;-0.22557086;-2.2774959;-1.2533325;0.060920056;0.28875992;0.10017453;0.60032433;-0.081365794;-3.883397;-0.101993084;0.7153396;3.8128376;0.012293946;0.038159665;0.07593432;-0.0015379969;-4.4067836;2.2209451;-1.1492229;1.9190466;-0.043801334;-0.57958484;-2.0326471;1.4355158;1.6263125;0.06229415;-0.3011145;0.00021638806;2.3166604;0.01744264;1.0193176;-3.4439929;-0.8178151;-0.72524077;0.088927604;4.217911;3.835684;0.42521167;0.019146077;0.027123472;-3.2233465;0.029093271;0.043372266;-1.4952883;-0.25602785;0.013180671;-0.31312826;4.1857924;0.15713786;-1.5687509;0.04664607;1.962015;-1.270096;1.2891309;-0.0009270522;1.5267254;3.5686238;0.016779667;-0.48556823;-0.024176845;-0.6326885;-0.015503759;2.7717803;-4.103261;-2.3342807;0.030833686;-2.5742583;-0.018195843;0.0074995887;1.3786805;0.023034118;0.8202296;-0.7257721;0.28641117;-6.038915;2.7879944;-1.9558713;1.7812272;-5.5278234;0.4006322;0.5406819;-1.255352;-0.68723935;-1.7792006;-0.9123621;1.6097188;0.7251869;1.3386471;-1.0845674;-0.27135578;0.52292573;0.036917105;-1.1846651;1.1450176;0.00691664;-0.021906184;-0.17834777;-0.4336541;-0.06677527;-3.4936342;1.2350826;0.57760394;-0.60069376;0.122009486;0.76007026;0.018522695;0.6424218;1.419232;-0.6216526;-0.46931532;4.254591;-1.8017806;0.027786247;3.082654;-0.0038599523;1.7112018;-12.805935;-3.0136623;1.8046591;-0.023444168;-1.0800108;-0.12093564;3.108427;-0.79318357;-0.051583137;-1.0128877;1.0633625;1.7816442;1.4900953;-0.018098215;2.2593837;-0.9044379;0.65626687;1.8773401;-1.7317092;1.8406856;0.8221398;0.047987025;1.5532979;2.0690224;-3.3910482;-1.0931803;-0.12692654;0.07499595;0.9320234;-0.05392599;1.9331934;2.6832755;-0.5965251;-2.1352825;0.01645677;-1.72545;1.150238;-2.6729848;2.7860904;0.013151823;-0.8854115;1.6517559;0.007869318;-0.016427074;0.0051436876;-5.1637406;-0.38105106;0.0030278538;3.0654287;-0.019486077;1.2693253;-2.305226;0.067788474;-3.5337682;2.7471027;0.30329767;-0.014826166;1.4809871;-2.3450847;0.3257073;3.3066022;0.78155017;-0.3427692;1.245356;0.4034837;1.5684508;-0.18259618;-1.0210172;-3.0214589;3.4137385;-0.39937088;1.2219181;3.516525;2.791505;2.8977673;0.9064007;-0.016918896;0.22580785;-0.03303683;1.0826763;4.299118;2.0360348;-2.2908494;0.8215858;2.4174986;-1.3299431;-0.0026444134;-2.0194333;1.0145272;0.6946849;-1.130379;2.243861;-0.036360055;2.9420135;-2.7465677;-4.9443846;-1.324516;-1.9684016;-1.8028085;-1.8338454;0.026005404;0.26656672;1.9652686;-4.951105;-1.6403667;-0.8920999;-0.0049221744;-1.2456285;1.158917;-4.238812;1.4022194;-0.020665998;0.6193827;-0.8604003;0.034618136;-0.18780315;-0.34324914;0.0050969245;-1.9241207;0.27671134;2.7543755;-0.012431869;-0.014631967;0.65562135;2.322199;0.05121684;0.03872575;0.026835212;0.18495217;-0.06658511;-3.2773104;0.034815673;-2.9622498;2.4524574;-0.5388858;0.3926817;0.79078656;0.030112818;-0.0008233369;-2.635244;2.1192987;0.014939364;0.004557846;0.022639904;-2.0006752;-0.93277156;-1.2374233;-2.7783234;1.245276;0.018142657;-0.45231235;-0.022863561;-3.3563557;-0.56873184;-2.5777977;-3.9636235;0.06065039;1.4572171;1.3434335;0.587717;2.7075639;0.43191978;0.0060484363;1.79361;-0.026665129;-0.04563233;0.5113449;-4.4725633;-0.27054974;-1.7720538;-0.07765533;1.0717732;-1.109426;-1.8311915;0.020905122;-1.4316198;-0.058330666;-2.6494043;1.9890678;3.9889343;3.0346627;-1.6739221;-0.0065825493;-0.14842911;0.29742092;1.7580248;0.06398912;-0.010466362;1.2347909;-1.6472716;-0.028371619;-2.766383;0.013924127;-0.057918653;0.0037393135;0.037470162;0.026718326;-1.7158781;0.0119687095;-2.0252664;2.6858609;1.4034766;0.2011243;-0.20022987;0.24392404;0.027718058;-0.75034285;-0.2715273;0.22878107;-6.4046974;-9.594055;2.9963844;0.0084699085;-0.04083055;-0.9070823;-3.105795;4.3373923;-0.02708017;2.6195877;-0.9295562;2.6613646;-2.659355;3.103814;-16.430159;-0.02216718;-1.4796431;-6.945204;0.2824208;-2.2417245;1.0233471;0.48659286;-1.5705571;-2.6336074;0.04669597;0.009749869;0.036373563;-4.1098332;-1.720395;-0.027538659;-1.8402647;0.04618586;-1.5752875;0.31997564;-3.179979;-0.7142241;3.571526;-0.4348388;-1.6874797;-2.0788367;-0.6157782;3.4859946;0.8164132;1.3794575;0.525914;-0.03291467;0.04649232;-0.14566606;-4.3484955;-0.43470025;-0.023209127;-0.005343093;-0.01584406;0.034560427;1.3153067;0.52604663;-0.23678209;0.05331013;1.3979259;0.022829404;1.2724335;-2.0401642;1.6572205;-0.0074384036;2.4538097;-0.27288517;0.49082765;0.034170173;1.9833723;0.7370872;-0.6502409;1.7240347;-0.7223435;2.308295;2.5104606;0.7850234;0.017361877;0.00052020786;0.74105614;0.76674634;5.6323977;0.8366803;1.0717181;0.1661298;1.5961936;-1.7556924;1.8712801;2.58232;1.4900122;-0.82326686;-0.024996592;-11.478648;-0.7167311;0.000974862;-0.034632318;-2.413351;3.4989085;0.64525443;0.14423603;-0.012855908;-2.638965e-05;-3.251843;0.014360166;-0.037366346;0.888323;-0.70862406;0.099730514;-0.14153741;-0.009781639;0.6543733;2.367294;-1.5147398;2.8550239;0.53017837;2.3208656;0.0008275058;3.347225;0.02409206;0.038905434;-2.840407;1.6984446;0.04644802;0.9012454;-0.53347015;0.009885535;-0.7422383;0.024123363;3.770078;0.7585341;1.1364478;2.2420607;1.8552212;-0.033461183;0.67330724;0.04098978;-0.11671093;0.0532772;0.02738829;-9.263109;0.07404862;3.397932;1.272661;-3.2980132;3.1574082;-0.9918771;-2.7690015;-0.0076517137;-0.95893097;0.052199364;-0.0012702275;2.7064118;-1.3181622;-0.035003297;1.6864091;-0.06764469;-0.17628315;5.5596495;-0.7004087;-0.020114984;1.7226226;0.73167694;0.031249378;0.229791;-2.2085412;-0.050456513;-4.5672083;0.044557117;0.05248246;0.7566844;0.006984608;0.2234298;-0.3869254;-0.05515071;-0.05854137;2.2289193;0.0026765738;0.021593114;2.5524957;0.07418033;-0.037445985;2.245753;-3.52719;4.0231895;-0.073739864;-2.8317742;-3.2908077;1.9282217;1.5700469;-0.2395655;-0.032417335;0.011771186;-0.6435902;0.7172756;1.3162767;1.173577;0.049619433;-1.9649824;-1.7032152;-0.91224027;-1.1656461;-0.63411283;-2.102367;-0.07377344;1.4026257;-0.0037663798;-1.8203034;-1.7015204;1.6647207;0.013816813;3.3214278;0.4673125;4.5254116;-2.0713997;0.9425243;3.2673194;-0.4202647;1.1486118;0.0004143578;0.40906262;-0.292349;-1.7837105;0.031702816;-0.043517526;3.9382572;0.52213514;-1.3000574;0.110320024;0.22959219;-0.009482385;-1.9918556
-2.0632713;0.8243573;-0.009190294;-1.8200017;-0.05297095;1.3898907;0.62477225;0.0017763921;2.1515262;0.04081264;-0.6528956;-1.1517172;-0.11834376;0.83062696;-1.1167054;-0.029447436;0.004487051;-4.8919964;-2.4002707;-3.275772;2.1463706;1.4750429;-2.584181;-4.3266506;-0.011322589;-0.37869757;0.0049122507;-3.476852;-0.74650264;-3.166178;3.4947135;0.32048556;2.4941103;0.05919817;0.006679478;-0.018468989;-0.013557672;-5.414747;1.5250357;1.0667617;0.09103092;-0.036698926;0.11925959;-1.6366341;0.79241556;0.80545104;-0.005517774;0.20022887;0.00136957;2.6239932;-0.00076043495;0.8587515;-5.970827;-0.122001015;-0.95485926;0.012682261;-0.84703386;3.3277555;0.051102743;-0.021177888;-0.027812134;-2.1921601;-0.023150727;0.0143116405;-1.0476413;0.36998895;0.018311406;-0.04744846;2.4042914;-0.090004854;-0.18460049;-0.116971746;-0.675084;4.630203;-1.0488659;-0.0085335355;-2.0112207;0.26028734;-0.002675025;-2.33555;-0.04071485;-1.0918282;0.014233018;3.0264292;-3.471567;0.9504006;-0.008158268;0.006355584;0.000103860584;0.00849335;1.5232185;0.0058219037;-0.13495104;-4.141367;-0.039271664;-4.520568;2.4675336;-0.9075272;1.7482849;-2.8793833;-0.3387468;-1.2729608;1.067981;-0.553218;-1.8594807;0.5257286;3.783016;3.0506144;0.44543654;-1.8512927;0.14120556;-0.48125488;-0.05588233;-1.3947397;0.42026687;-0.017981937;-0.007601817;0.6034175;-0.2674347;-4.6610546;-2.3622158;-0.34543514;1.8905399;2.4843962;0.665279;0.36190218;-0.9265165;1.1447719;2.53219;-0.39918494;1.4854051;0.062092356;0.49478227;0.011516151;2.16318;-0.017742842;4.140016;-13.552329;0.6139208;-0.08772252;-0.017356083;0.07322086;2.6813478;2.321562;0.03392448;0.009790394;0.17855808;-0.23755707;1.4314356;2.550351;0.035640545;1.2370051;-2.8044183;1.2841539;-0.5222834;-2.1721125;0.47146836;-2.395332;0.05666579;1.3579594;-0.2626762;1.9814552;0.030149473;-0.06552587;0.0088975;0.40437973;-0.024545254;1.7163261;3.0156548;0.8140035;-0.60967886;0.034618083;0.62935364;-1.9195987;-0.32259968;0.746392;-0.10509107;-1.7307549;-0.081287086;-0.013196465;-0.03114652;0.007035228;-0.3106645;-0.7236862;0.031757455;5.419858;0.007958957;2.0831058;-0.43635306;-0.043769952;-1.3214221;1.4359295;-0.28558683;-0.015278991;3.0572853;-0.8616531;-0.99448556;2.4820635;2.1942282;1.8546115;0.44893113;0.059406556;2.890051;-0.76276636;-0.12755024;-2.8222864;-0.44249606;-1.4531896;0.28047752;2.4617033;1.7029346;2.6228883;1.8178983;-0.0130948415;-0.18108924;-0.020344201;1.2668844;0.64344937;1.5962002;-5.586963;-2.4833796;2.2662742;1.9115692;-0.010191295;2.0969794;0.43878967;1.1025378;-0.041149102;1.9754965;0.072642475;2.4175546;0.7991378;-3.8360672;-0.04716429;-3.2255554;-4.4714546;-3.7007525;0.015756981;-0.25884616;1.5620315;-3.0605295;1.2437153;-0.79863524;0.01870011;-0.05106739;0.6653233;-0.26822665;-1.7825857;0.026887806;0.2473648;2.500426;-0.009278175;-0.14059326;1.6294259;-0.012695544;-3.0495374;-1.7132849;2.5732284;-0.054135814;0.019108767;-0.077217095;0.16961458;-0.05366768;-0.008964546;-0.017562235;-0.27904832;0.7993623;-2.7085984;-0.27556518;-2.2333946;2.590874;1.1915696;0.55948335;-0.92829084;-0.025380077;0.009556247;-2.0428495;1.5265027;-0.044295263;-0.027348636;-0.050450936;-2.1918507;-0.74341464;0.12233838;-3.2154217;3.2446282;0.090995595;1.0987846;0.0061238073;-0.59029114;2.1560023;-2.803792;-2.2911296;-2.8249207;1.5134656;2.5790646;3.7738411;1.7411265;-0.06691924;0.022851497;3.4464948;-0.08685284;-0.013876008;0.77427256;-4.767567;-0.11164327;-2.2050047;-0.26052243;-2.3651285;3.278656;0.40719593;-0.051197637;-0.81153876;-0.0063464493;-1.323133;1.6315881;3.6697643;3.550089;-0.27870202;-0.021018544;4.8293047;-1.1433858;-0.6937172;-0.021844262;0.016704608;1.0213984;-1.0398259;-0.017977571;-4.26989;-0.016146258;0.051723782;0.5887065;0.027152209;-0.0062044044;-2.5357246;-0.038426545;-0.49269015;2.0828407;0.7043311;-1.1941358;-0.047105264;-0.6423611;0.048482917;-2.8235288;-2.0736377;-2.6609607;-6.594078;-9.675245;1.4930983;-0.025872493;-0.0076177428;0.4995075;-0.65879285;3.002857;-0.0516279;-0.8977513;-2.8463593;2.0068946;-2.0877616;3.1377854;-16.485853;-0.0035577337;-1.6603324;-4.1610312;0.11287985;-7.4052134;2.054271;0.74089664;-1.6327175;-1.6502541;0.010461437;-0.046507303;0.012086703;-0.50442266;1.9342494;-0.054501824;-2.3112078;-0.68370456;-0.0634008;-0.6771802;-4.1579437;-0.46822652;-0.987572;-3.2464743;-0.22150037;-4.476028;-0.3356857;2.7306151;-0.77498245;-0.40374324;4.6935406;-0.006995977;-0.04032319;-1.8461276;-5.081048;-0.57820326;-0.036602106;-0.028891778;-0.028299546;-0.033062834;-0.5502885;2.0886803;-0.6282363;-0.023730554;1.2702091;-0.009321519;1.0423751;-2.3284795;1.6482978;-0.026515245;1.3975555;-2.3781745;3.0566046;0.035986964;0.12912413;1.4084972;0.6951864;2.2406003;1.5893513;-0.22571427;0.42014354;-0.71286386;0.003887321;0.028821781;1.5490327;1.6408739;0.91294265;1.626044;-1.8520086;-0.115382865;0.19825299;-3.867355;2.3403432;3.8972116;2.4313624;-2.472249;-0.036545776;-12.794286;-0.9119188;-0.0008622314;0.28407624;-5.460115;1.5478522;-0.050582595;-3.1333492;-0.008937751;-0.06777282;-2.7831252;-0.035393942;0.045424584;0.5025181;2.17613;-0.06191531;-1.4836258;-0.03519989;-0.16140658;-0.09083481;-1.9850549;2.086516;1.7103515;3.0513048;-0.036094356;3.770858;0.035714827;0.031314805;-2.3113663;-1.8925189;0.0023368045;2.03485;-0.52408487;1.5690831;-1.0077677;-0.0476936;4.9043293;0.12248221;3.6851366;4.0404963;3.1468523;-0.0013950559;1.0055537;-0.057069596;-0.090066224;-0.40745035;-0.014741396;-3.6171021;1.3677402;-0.030223334;0.23383227;-2.2204456;-1.4586275;-1.1059805;-5.2955565;-0.0062740906;0.3604995;-0.029510155;0.009658499;1.9423091;-0.8821397;-0.41914827;2.5476506;-0.0068251463;-0.57068557;3.607235;-3.454588;0.084902234;0.6452719;-0.15935023;-0.046903294;0.054564483;-1.7252102;0.2712947;-0.19836637;0.029305132;-0.07572987;1.9401884;0.016109884;-1.2148991;0.82200134;-0.08646233;0.15929505;2.1619592;0.011496982;-1.4996523;3.0786283;-0.026604779;-0.02315446;0.010038076;1.1182879;2.1990554;0.5787032;-0.3929619;-1.2531624;0.68754315;0.3338964;-0.063409135;-0.041884568;0.014293633;-0.044067528;-1.043954;2.1455345;1.1322802;-0.07053625;3.3849077;-4.1945596;1.1190656;-1.4578105;-0.8599778;1.106059;-0.028843543;1.7186584;-0.0022651816;-1.0465976;-3.3454993;5.0866604;-0.022252647;4.771387;2.9335322;3.558073;-1.651702;1.0386313;2.194703;1.294721;1.8135048;-0.022460993;0.35355052;-2.4520748;-2.1845024;-0.014808819;0.00090324186;2.6719956;-1.9769491;-1.3046172;0.85455173;2.5254812;-0.050771885;-0.9849893
-1.2134959;2.1928709;-0.050654046;-0.5665041;-0.0053818813;3.7236063;1.2179476;-0.02259334;0.9295782;1.036081;-2.2755022;-3.728064;-0.07459494;-0.32778236;-0.88752794;0.023929829;0.00173681;-1.4154727;-0.69143105;-1.8916335;2.938365;-1.7664309;0.2355852;-2.1690536;-0.0063619795;-0.121021174;0.022927962;3.2286353;-0.071978845;-2.591847;1.6232448;-1.2778318;3.2986372;-0.10950355;-0.046392135;0.015486399;0.03828987;-6.7620254;1.5141001;-0.3893405;-0.7282832;0.16673075;0.38734752;-1.1209205;2.1736457;0.93011504;-0.01881183;0.015643813;0.07345483;4.36362;-0.045483325;1.6554867;-6.4592147;-1.0003375;-3.3225546;-0.04812106;-2.707912;3.2943792;0.029988425;-0.031563062;0.059178464;-4.5823226;-0.027022202;-0.010788051;-1.5311716;-2.7490792;-0.021905461;0.10826002;2.876111;-0.11085244;2.797842;0.94303805;2.7339232;1.9919088;-0.59833646;0.0031316897;-2.0166755;1.5436636;-0.016442647;-1.2372031;0.011197109;-0.12669943;-0.022344075;3.5820506;-0.39286178;1.0059859;0.060671717;-2.9905941;-0.043982606;-1.722673e-05;-1.1311184;-0.025197027;1.8312763;-2.3377588;2.1156611;-1.7532891;0.08016585;1.1809362;4.018169;-4.968043;-2.0386245;-0.5901132;-0.18531205;-1.0548817;-1.5522687;-0.77459395;3.1898725;2.3336992;0.58351475;-1.8034409;0.44846016;0.75346684;-0.018010717;-0.45863232;-0.56276375;0.01584393;0.06256733;1.0311773;2.019533;-6.1113195;-2.3162544;-0.24312545;-3.7595186;2.455842;0.76931846;-0.07372192;-2.608385;1.2551455;4.688871;1.2647357;1.4639348;0.69969875;-1.1265019;-0.005646151;1.5660559;0.049508803;0.43693918;-13.368717;2.0694835;0.7126649;0.016960897;-1.5040802;1.4414508;0.83828515;-3.2528465;-0.045917273;2.5214787;-0.11453769;-6.7607336;2.7643602;-0.053308867;-1.7588648;-3.6056507;1.4636842;-2.0146065;-2.7740824;1.0421174;2.0789921;0.004641576;1.2584133;-0.5156308;3.6359515;-0.8474751;-0.029014025;0.032224424;0.45310748;-0.027401786;-1.9692146;3.302062;2.2744858;0.109362416;0.02770591;0.47135866;-4.0273743;-0.7310971;-0.27883664;-0.036710765;-1.1492014;0.33843645;-0.011319887;-0.06132322;-0.014757663;1.0635955;-0.6656636;-0.023188781;1.5228764;-0.051023494;1.4017287;-0.46543995;-0.024259925;-1.5559529;-0.5184603;-1.3442975;-0.0048613055;0.5779938;2.1974106;0.6458788;1.642266;2.5023825;0.36646727;1.5331267;-1.690982;0.49729517;-2.0921142;-1.1273478;-3.096627;-1.0693431;-3.1078963;-0.7559104;2.6842592;0.13721566;1.7310024;-0.8410775;-0.009870803;-0.039085247;-0.02176841;0.58106893;0.33747464;2.691611;-1.099632;-0.77624846;3.3310103;-0.8382471;0.009867977;-0.042036217;-0.57281214;1.2490665;0.48357114;3.3314567;0.09243548;4.654412;-0.58947635;-4.567967;-4.334681;-2.9482272;-7.2664223;-3.1400487;0.0014347924;-0.35859662;3.5025537;-3.3373423;0.2506425;-1.421779;-0.027833896;-2.4560623;1.052663;-1.3067688;0.59756994;0.012455904;0.6698775;0.9648349;-0.034588408;-4.173829;1.4977483;-0.091140196;-3.4703414;-0.05573415;4.442835;0.009806306;-0.045849506;-3.4449487;1.910549;0.0023345766;0.018805403;-0.035552323;-0.3720967;-0.6335799;-2.6653342;1.2529954;-3.0294282;2.1172438;-0.2763788;0.8317871;-1.5817004;0.07311631;0.0146447485;2.946311;1.4592415;0.00080356543;0.020616703;-0.06755874;2.5723794;-0.722263;-1.8666859;-3.6807284;3.2597942;-0.08284728;-0.182515;-0.0083855195;-1.12767;2.2751;0.22594269;-3.2109008;-5.6349754;3.6074443;0.6651082;0.101961516;-0.15941988;0.040677063;0.017411089;2.2884924;0.6815994;0.010304643;3.0944045;-3.3885653;-0.87289315;0.6176271;1.0683528;1.0019014;-0.54195887;0.9434585;0.09123508;-1.1938251;-0.037067857;-1.1359601;0.27022806;0.81234664;-0.12911017;1.7010903;0.009397159;1.6328802;1.115736;-4.3408375;0.005091782;-0.024697386;-3.6665695;1.8824381;0.015620924;0.23620781;-0.01203489;-0.080854334;-0.06702388;0.038101263;-0.0033942496;-4.2733088;-0.017094834;0.62602454;0.45154512;-0.2296538;-0.14012992;-0.016297372;-2.9848304;-0.0044867294;-4.1641607;-0.27619162;-1.5003701;-5.5957193;-10.918827;1.7771267;0.0048205703;-0.013143946;-0.30736154;-2.5123677;2.9303865;-0.0015975762;-0.91831106;-1.5402709;0.70544827;-2.082821;3.110425;-14.939582;-0.039004903;-2.90649;0.69761026;0.19337702;-6.1450267;2.7705467;-0.63850206;-1.9998854;-2.8882332;0.0011696242;0.022894654;0.047624227;-2.3505545;0.62122643;-0.00560253;-2.3022842;0.91974735;-0.49311605;-1.6221431;-4.6757183;0.7940195;-3.828124;-2.8305829;-1.9709122;-3.8414748;-1.198814;2.7474773;-0.29842803;1.481133;3.4971318;0.07966616;-0.0054598683;-5.375425;-0.777657;-2.8681123;0.024150245;0.055711213;0.022206416;-0.02406634;2.8246217;2.000814;-0.6756873;-0.015677672;0.9865648;-0.0039786813;0.6670906;-1.6437387;0.71644497;0.012786458;1.4113833;-2.6443663;2.3031385;-0.061474424;1.8961818;-1.7328572;0.21012878;1.5425247;-0.92753166;-0.1937054;2.7564518;-0.11429798;0.020834235;0.6424035;2.4409223;2.867141;2.2741687;-0.48818275;-1.3543928;-0.34304884;2.8478825;-4.1383142;0.048274763;2.6699936;3.2272315;-3.8973343;0.004761967;-12.981415;-0.110825606;0.025284082;-0.16996454;-4.523478;1.0908563;0.551031;-1.2135308;0.004701332;0.023901524;2.5095973;0.010845922;-0.016841205;2.4586039;0.4583103;0.037701637;0.86330503;-0.023627803;-0.027855856;0.89363605;-3.0539556;0.13104312;3.0874155;2.1631234;-0.019834867;2.5767505;-0.022853542;-0.024856227;0.99550563;-1.861822;-0.006487678;-1.2673364;2.2865427;1.105026;-0.89435434;-0.056580503;4.080373;0.85682124;-0.31237018;-0.6975806;1.3082962;0.0302445;2.6721656;-0.17294563;-0.007531883;0.501044;-0.027652698;-2.9856517;1.8568708;-0.27363107;0.39026076;-0.94396955;0.90334946;-0.7685539;-2.0688474;-0.005945651;0.103063785;-0.003907375;-0.029755307;1.5591831;-0.46471748;0.41626316;-0.45666772;0.003607717;-0.7856524;2.14785;1.878857;-0.076082386;3.077403;-0.004723242;-0.028618624;0.5736594;0.44212142;-0.3637682;-4.6179833;-0.012403975;-0.04077505;-1.5083033;-0.042722248;-0.76617724;0.2509873;-0.42031965;-0.07867569;0.6651087;0.0090475;1.1574878;0.064446405;-0.040016487;-0.018429197;1.0062121;0.44022596;2.6412795;-0.31141293;-0.55740225;0.64968973;0.8401762;-0.26057076;-0.064609535;-0.0714591;0.024860343;-1.84244;-2.3697958;0.48872128;-0.029484298;0.029487438;1.7329879;-0.49840376;2.3173685;-5.9498525;0.5346363;-0.40236112;0.0071178647;-0.52238977;0.025238868;-2.6727443;-3.3546717;3.9958837;0.02370524;3.4935505;3.158127;1.9369944;-2.0405111;0.06751427;3.4459524;0.34148848;0.9570752;-0.003644819;0.4627683;-3.7262213;-2.2863462;0.008268497;-0.010345206;1.4170052;-1.4184088;0.17008574;4.4025617;1.1708357;0.101293996;0.5442435
-1.4539164;2.0827255;0.025840733;0.10309763;-0.0005568487;2.5969634;-0.39081925;-0.027559197;0.4486385;-0.25793618;-1.7167283;-6.07647;0.02649692;-0.085029304;0.8796111;-0.042057954;0.0038449594;-2.6378214;2.4526281;-1.362104;4.211605;0.20715366;0.62239224;0.32914305;0.08382201;-0.7710811;-0.02686299;2.7131584;-2.2218559;-1.1917118;-1.5181636;0.18197407;1.3674206;0.0076674577;0.015702948;-0.004902962;-0.006395513;-6.710483;3.8545012;1.4346386;1.0270216;0.026933447;-0.48432678;-1.1200975;2.0640616;-0.7080221;0.0013507898;0.14776361;-0.017374815;4.305233;0.0062230644;1.1710675;-2.2363386;-1.1313322;-3.2259727;-0.04049218;-5.4140406;0.09266723;-0.06692592;-0.020095415;-0.07627829;-3.7226312;-0.04618368;-0.019876627;-2.2075675;-1.9388283;0.0478312;-0.10684726;1.634209;-0.03839142;3.2926595;-0.22874753;-0.40717083;2.2211952;-0.8607706;-0.008298099;0.2557219;-0.10160646;0.005933018;-4.3261867;-0.012201917;1.0846561;0.028435417;3.0170646;1.1892984;1.1629479;-0.02556539;-3.3904731;0.104531094;-0.04133313;-1.6058173;0.04393986;1.3582046;0.052610092;1.3464478;-3.7645977;-3.0440311;4.2961793;1.3931755;-3.7949638;-2.2731016;0.6218129;1.0314991;-0.875292;-3.5830622;-0.80013543;1.4007355;1.0842055;-0.9884324;-1.0242262;0.40020168;0.63565254;0.035548132;-1.8760213;0.00624883;-0.05037584;-0.00509346;0.5476314;1.236767;-2.2327573;-0.8368505;-0.46234146;-1.4892735;0.07148984;0.41254222;-0.2820947;-0.55942726;-0.7200331;2.892877;3.7889307;-0.28123954;1.9355567;-0.13123822;-0.018251285;2.498252;0.026299186;0.7456574;-13.70624;2.2424493;-2.83938;0.016536977;-0.7013075;1.539142;1.5005295;-2.9429772;0.02795698;1.6261418;-0.060384233;0.6814655;1.0163617;0.036572482;0.42268008;-3.8824885;-0.9271377;-1.7496023;-2.2733352;2.378683;1.419254;-0.03813319;0.68891215;3.272248;4.6510596;-0.8888308;0.0439876;-0.21604984;0.80999595;-0.020739162;1.189828;2.882914;4.378266;-3.9132988;-0.02326992;1.9245539;-5.453812;-0.43976668;-1.6985285;-0.013519143;-4.3012447;2.8475912;0.04864816;0.73867196;-0.04279309;0.6598221;-1.7911581;-0.062018152;1.6674412;-0.02393929;0.4246504;-4.0351114;0.042157385;-2.3654509;0.5392526;-1.4523457;-0.029969068;-0.8236158;1.3273292;0.5748841;0.8202575;-3.6812756;-0.59077644;0.83528066;-2.3492389;1.9354489;-0.5347358;-3.9561305;-2.6255121;-2.0820038;1.3380427;0.005419812;3.2147012;1.7192342;0.4250268;-1.2086498;0.046053443;0.18572032;-0.027504567;-1.7593312;1.8828549;1.9389846;-1.8028231;3.3959136;2.8510125;1.4340477;0.007919063;1.5730246;-1.7237775;3.1542153;1.4650052;-0.25166434;-0.036114085;2.551618;-0.29498234;-7.02392;-11.417705;-1.5220329;-8.606342;-3.1285994;0.756939;0.27323925;1.7790656;-1.1223955;-2.315854;-2.793913;-0.016690845;0.48773772;-1.6824449;0.89137155;-0.53987855;0.008472963;-0.14262156;2.5237818;0.14252204;-2.9098108;0.7449813;0.042797185;-4.0763535;1.9249908;3.9645088;-0.075949736;0.024423614;-2.2779655;-1.0037894;-0.0061921347;-0.010385497;-0.017284421;-0.005260761;-0.044497002;2.2580369;0.49310797;-3.3762639;0.50432354;-0.66466415;-0.24966544;0.8186474;-0.04441166;-0.019018995;2.118054;1.4132781;0.038049895;0.031078719;0.03429962;1.3485965;2.36293;-0.10764937;-4.59389;0.6524775;0.096488364;0.46452802;-0.11482998;-1.1593256;-0.86846936;1.0791897;-1.077308;-5.363414;4.8869686;-0.79381585;3.2582924;-1.5568093;0.027606789;-0.0033142527;1.6585275;0.7802786;0.03808732;1.7132365;-2.4012902;0.45258155;2.2261252;-0.21276289;0.10765133;1.5062016;2.8305082;-0.03503556;-3.622523;-0.0031013978;-2.5476217;2.2244353;3.0823662;-1.05913;-0.70009834;-0.018235713;-0.3599972;-0.25386864;-4.7525754;0.010602035;0.025470145;-3.5905325;-0.19268027;0.002740667;-2.930398;0.010236345;0.03295485;-0.091111556;-0.014053618;0.024083478;1.4565967;-0.00047439084;0.49970573;0.7553507;2.4571805;4.1414356;0.0222282;-2.9557297;0.05241373;-2.3450904;1.3177047;-0.3796238;-5.9042573;-8.816215;-0.61198723;-0.0045999265;0.03554644;-0.7848265;0.9405843;-1.0449897;-0.006495264;-3.728806;0.2836271;0.36704287;-0.33924556;3.3877919;-13.386623;-0.014874373;1.5269805;1.0097069;0.8690616;-5.5667925;2.6252885;-2.310689;-3.0476103;-1.4940448;-0.023893636;-0.07501137;0.0069313305;-0.7697841;-0.7303631;-0.05738414;-2.3833315;-1.2100751;2.3845787;0.17330897;-2.0356972;-0.33869457;-2.3727927;-0.759074;-4.27417;-4.4470553;0.36432162;2.7636;2.0182643;2.8877199;3.9078195;0.001965358;0.12110288;-3.7220085;-2.2876697;0.20364495;0.06825002;-0.033088338;0.011007232;0.0002070127;0.90588063;4.852326;-2.8493752;-0.08461282;4.084109;0.03343345;-0.69562393;1.9259493;-0.93127024;0.016580999;1.4069898;-3.3312016;3.2410524;0.028457189;-0.07491947;-0.2938933;-1.4262196;0.8050572;1.502153;-0.99740016;3.6157765;1.5774682;0.013186825;-0.83948874;2.0339818;-1.005358;1.9904064;2.3816562;0.91373736;0.20838605;1.480346;-5.942724;-4.2315674;5.1303334;1.7543876;-1.3346571;-0.013614325;-12.432511;2.1189528;-0.024092399;-0.014749303;-5.623732;1.9063678;0.6365627;-1.3884974;-0.013536262;0.015434983;0.6335279;-0.04354688;0.06806182;2.2340736;2.4927866;0.0062930193;0.6144608;0.019089896;-0.04719393;3.58067;-1.1963378;-0.17795047;1.548639;1.9500687;0.039786175;2.5664568;0.02011923;0.06118807;2.6754096;-1.5308824;0.005036488;-4.3367167;0.6103897;3.0221815;-1.765136;0.037067115;3.7096257;-2.169334;-1.0563133;-1.5982933;1.4108905;-0.01680673;1.0161178;1.0915132;0.12361279;0.12355944;0.014045725;-1.1354893;-1.181795;0.43620825;3.0722802;0.6514259;-0.19294769;0.19805674;-1.0289749;-0.028755397;1.7726445;0.031979505;-0.016802121;2.7881951;-0.863604;-0.2323783;-0.26037055;-0.09551822;-0.71353954;0.99604005;1.1104298;-0.0010779145;-1.2892209;-0.019023145;-0.050742436;0.81829417;1.4794177;-0.68096644;-1.4243529;0.015159999;-0.050346456;1.4260085;0.03968905;-3.0536823;-0.43925545;-1.4681408;-0.02674789;3.5939028;0.03585705;0.8983304;-0.15402143;0.06314769;-0.019010168;-3.0098364;-0.96682024;0.3540105;-0.2643099;1.7096666;-0.25350434;2.593193;-0.47807404;-0.14367442;-0.050109908;0.022175733;-2.145666;0.2933825;0.15744305;-0.89281607;-0.025196558;3.3504562;1.4151833;3.6799874;-1.1339003;-2.0380056;0.21188632;-0.019518752;-2.9894507;-0.0261626;-1.3260845;-1.328287;3.598419;-0.011869775;3.0528483;4.0186825;-1.2313771;-2.987922;0.13091613;3.70519;1.0303446;3.8784568;-0.01965275;2.6684017;-3.4119658;-0.43695915;-0.030265853;-0.020351248;-2.112336;-0.97513115;-0.8477678;2.5672731;-1.8695018;-0.11483637;1.2152313
0.43558973;2.9954019;0.039588716;0.06657121;-0.006447633;2.5714238;0.7102494;-0.02405579;2.00562;0.029126003;-0.3058331;-4.782067;-0.0035785642;-0.07674977;-2.9205573;0.008916405;0.011948785;-4.93415;-0.7245928;-0.33564538;1.6248499;-2.0727005;0.0066156667;-0.31382102;-0.03025365;-2.624375;-0.019737814;0.44786853;-2.1729305;0.60043406;-3.1132283;0.69311345;3.3465643;0.021412648;0.02942642;-0.023176244;0.047523294;-3.194753;3.1773632;1.7390057;1.5437897;0.10275284;1.491412;-1.2914065;1.2525334;-5.319052;0.020489352;-0.15145072;-0.021770773;0.75784206;0.019527769;-0.053131543;-3.0099335;-0.7337758;-2.6582096;0.11810158;-6.2226925;-0.47116998;0.15032198;0.010713738;-0.0834124;-1.4850906;0.012752312;0.024431517;-1.2579588;0.40820476;-0.040133215;0.18843654;2.435492;0.045193937;0.20115298;0.114416234;-0.21587938;1.3804368;-0.9216007;0.027277581;0.47370586;-0.60821176;-0.001993044;-3.4583442;-0.0063681956;3.5673864;0.024850462;2.1622252;-1.6861565;1.4333199;0.0641674;-1.3940779;-0.055634525;0.043038197;0.010256033;-0.03461336;-0.035629485;0.026503017;1.8037735;-1.4072238;0.3969527;4.2180867;2.73615;-1.6828985;-4.281027;-1.2932186;-2.8407648;0.11081358;-1.3115294;-0.016837902;1.0982352;2.1928756;-1.3414869;-0.5080359;2.0032594;0.9303685;0.011640822;-2.777893;-0.14163102;0.0040185084;-0.00046117528;1.0777642;0.60315365;-1.1134882;-1.6542039;1.164903;-0.84847146;-0.47700348;1.3982784;1.1015457;-0.18037719;-0.8927102;1.4747554;1.2328527;-0.676446;0.8277052;1.7189559;0.051751874;3.1720088;0.027645638;-4.569513;-14.127685;2.4285703;0.05044558;-0.02696256;-0.8950897;4.219603;-0.3972161;-0.59789664;-0.012198258;1.9090987;0.006141851;0.48777208;1.0947025;-0.04791942;1.3331891;1.0127971;0.94115144;-1.0637496;1.936633;0.07905458;-1.0593628;-0.0012118685;-0.041160256;-1.4178076;2.6656244;-1.8865476;-0.011768904;0.11247471;-1.6731943;0.021307206;-2.0470345;0.5874353;-0.05030931;-3.6799295;0.040605266;1.1698611;-0.82892686;1.6359558;0.4816003;0.0873057;-2.5320697;2.5993855;0.04548392;-0.110118724;0.12024664;0.60558075;-0.07538358;0.04308002;1.367017;-0.0063553546;2.4094367;-4.128635;0.011543186;-6.325001;0.45442468;0.6361224;0.0112670455;-0.19823879;-1.9813126;0.36723602;1.793604;1.8545375;-3.0897536;0.41175094;-2.3078768;1.5396144;-2.1568139;-3.1078167;-3.031387;-3.0426397;0.51381487;1.2848092;1.9895514;-1.5589486;-1.5694093;-0.38736248;-0.011212152;-0.041638087;-0.03552452;-0.301024;2.514567;-2.8122113;-1.8244693;0.34091467;1.6713262;-3.0575206;-0.0043924954;3.2740648;-1.2043263;1.4399999;1.9250927;-1.3092889;0.0011051778;3.1065745;-0.85440946;-8.0889;-12.914995;-0.41348776;-9.490183;-2.9846358;-0.12373349;-0.3264606;0.4825539;-2.4495404;1.6430843;-1.9215801;0.04589474;-1.4663564;-3.2563307;2.067669;-1.3523698;0.017533297;0.23791899;0.94071215;-0.066310056;1.2236289;0.875763;-0.029423455;-2.8413823;1.4222848;3.2798793;0.19420391;-0.04616004;1.1259743;-1.7065663;-0.022937188;-5.9972892e-05;-0.035597056;0.05896848;1.0419573;-0.121163465;-0.15494199;-3.313149;2.12883;0.9340012;0.1996745;1.3758252;0.024682844;-9.470025e-05;2.6357057;3.001981;0.0051866346;0.045654014;0.0053711636;-1.5394801;-3.0648284;0.52422047;-1.8512746;-0.07072106;-0.06485838;1.6677847;0.6689099;-0.935196;-1.2909306;1.266376;-0.31775612;-4.0944057;2.822754;-4.0634637;0.1642027;-1.6967748;0.032353457;-0.031336997;1.3966498;0.0029226835;0.05893083;0.79322153;-2.16562;-0.56675637;1.2154291;0.17317331;0.0830553;0.31383616;1.6854726;-0.006820171;-2.0752716;-0.00972013;-1.0626587;-3.8243191;1.6632072;2.554355;-4.7132754;0.026640581;-0.33569983;-0.9565279;-0.1765639;0.0288095;-0.013553875;-3.3747272;0.20794638;-0.015698476;-3.8299887;0.041780096;0.02064878;-0.03150655;0.019642608;0.014023104;0.13686535;0.031602215;-0.96257055;0.92260844;3.3121662;3.4659119;0.028903103;-0.9069406;-0.04181092;-3.8876896;0.89271075;-0.91322315;-2.4293244;-10.86223;-1.1832155;0.033216123;0.036361963;-1.401558;0.028568089;-0.27447245;0.006615407;-4.0008497;0.8717905;-2.7515974;-0.76672554;3.121205;-2.5901196;0.026951423;1.3292906;-0.95892847;0.41399205;-2.7886894;-1.4621505;0.7632777;-2.0744166;1.0450082;0.030150134;0.012239588;0.016357614;-2.8584166;1.1321312;0.01921805;-2.7500134;-1.5684235;-0.69980514;0.57571876;-0.18650934;-0.0638619;-0.31213278;2.211484;-2.8704956;-3.2519677;-1.1998376;2.1629474;1.5409862;1.445942;3.1470604;0.03337931;-0.036331333;-0.75846505;-1.2157109;-4.9480014;-0.01754719;0.0128497;0.017819991;-0.023641774;2.612096;2.5321276;-0.35463202;-0.016956301;1.6188034;0.023859229;-1.2506814;5.4075866;0.20293489;-0.004047271;1.0854701;-1.4374819;1.6625437;0.004946755;0.015457327;-0.20792061;0.05517384;1.6887228;-3.106521;-1.4559617;1.3757544;-1.168785;0.065573886;-1.2209252;0.37323323;-1.204739;0.25206128;2.9072213;2.0051677;-0.20975953;0.6541934;-4.2247877;-1.407368;0.18975884;1.6396763;-0.6555451;0.005294186;-12.279675;1.3401903;0.004598191;-0.022872463;-1.4494992;1.315154;0.5087881;0.21308012;0.022819936;0.035153095;-0.45997193;0.0309153;0.0067234705;1.7471877;2.1761236;0.08098674;-0.031870466;-0.015028325;-0.028911026;1.3539066;-1.0672745;-1.4384477;0.7189737;2.7405038;-0.0053877956;-0.9434793;0.0043241223;0.009399718;0.9843075;-1.8968316;0.05351769;-2.711526;1.3836713;0.7908984;-2.3532028;-0.020270985;3.3717222;-0.17999679;1.2965302;-5.13704;1.2563115;0.020316431;-2.155522;-0.19792566;-0.1384348;-0.29311553;-0.038758032;1.2338384;-1.6168668;1.1139988;-0.014703788;-1.4802368;-0.19322385;-1.7617202;0.60542;0.0072242813;0.47227398;0.029031618;0.09612433;0.84866405;0.34111914;1.1647886;0.87734973;-0.073575385;1.7525069;3.54713;-0.9271221;-0.032820124;0.6330287;-0.038126886;0.00062713004;0.053015985;1.3105962;-0.082196325;-1.6484929;0.015951099;0.77963644;0.71977204;0.014720483;-3.0494716;-0.5451457;-2.2329576;-0.017514614;3.1825895;0.0007180288;0.43683514;1.4177665;-0.0055466704;-0.02680899;-3.6704628;-3.216715;-2.5476854;0.36631554;-0.9201314;0.22948258;1.602053;1.1876867;0.24292196;-0.031540126;0.032313567;0.2125834;1.2193172;-0.69176525;0.57888854;0.041634936;3.6307173;-0.022740288;3.1505632;-2.8854043;-2.3456829;0.30320126;0.027243096;-2.8505964;-0.017555865;-2.930721;-1.6855427;1.4592271;0.0441795;4.050011;0.39226317;-0.48226085;-2.4461546;0.72398;3.058321;1.4632617;2.8440979;0.030822359;-0.91573715;-5.7156;-2.4464011;0.0012845298;0.013063729;-0.25577644;-2.2071981;-0.15740232;-0.82704854;1.225654;0.15292251;2.83341
-0.9439963;-0.9937973;-0.051667523;-2.2402484;-0.027848309;2.0347185;-0.9610554;-0.01120113;-0.26845726;-0.1310346;-1.1001408;-0.8275744;-0.021267792;0.017942572;-1.5869757;-0.07842474;-0.044662397;-3.192292;1.1446598;1.0381172;2.307336;0.8278393;-0.034664262;1.3664378;-0.04312203;-0.40111056;0.009753269;2.6610065;-0.8512981;-0.57145995;-2.6941476;-0.65369177;2.812342;-0.046876464;-0.025334544;-0.009510755;-0.059741598;-1.6059337;1.7392285;1.120123;-3.5164902;-0.005355682;-0.081196174;-1.319921;3.2455504;-5.921675;-0.016472623;-0.5363653;0.02770017;3.4232876;0.04185448;-0.058266122;1.2830074;-2.5680242;-2.108179;0.020902652;0.11289853;-1.9677265;-0.10208512;-0.03701851;0.5117214;-2.442131;-0.0028032865;-0.004929975;-2.3063943;-3.9908307;0.020394541;-0.045438558;-0.33823702;-0.039402314;3.009103;-0.035571422;1.156434;-5.098399;-0.5849723;0.011221355;-1.0324423;-0.8483357;0.015767036;-4.637189;-0.019526465;0.5525192;-0.036477756;0.61909175;-1.5900244;2.818268;-0.046842907;-1.269806;0.01030735;0.01038348;-1.448963;-0.027428158;0.46924;0.7952198;0.8347005;-3.015188;-2.2087998;-0.89948916;1.1957934;-1.4614815;-6.859829;-1.6671886;1.4581803;0.48183754;-1.4913386;3.1072898;1.05453;0.92312765;-0.7813674;-1.8050377;0.6866859;-0.5099807;-0.065054946;-1.9720701;-1.1436818;-0.031196555;-0.0036571193;0.7497478;-1.2509209;-0.13569863;-1.119457;-2.5326698;1.5273955;-1.2428949;2.7455878;-1.3857206;1.4975201;1.6707902;4.122306;0.7355616;-2.6249037;-0.92674214;2.249344;-0.04438004;4.3483295;0.028690433;-2.3169737;-13.943598;2.4386187;-1.415822;0.008730309;0.6354897;1.4682962;1.3582506;0.17118755;0.020484215;2.0662234;0.05758516;1.1854994;-0.81917614;-0.007355133;2.0618079;-1.9942087;3.0882382;-0.89259666;-0.89133203;2.9523687;-1.9542764;-0.0011821088;-0.18649662;-0.93578064;1.4150481;-2.2832656;-0.017333271;0.5366762;0.10399822;0.030155579;-1.0506232;-0.56756824;-0.15389958;-4.014536;-0.057596393;1.4990511;1.2890683;1.3451377;-0.3377176;-0.13816902;-3.3739982;0.81523216;-0.06413927;-0.025932202;-0.044772968;1.3900094;-3.4172878;-0.022230284;2.9258149;-0.06876478;-0.6755854;-1.6881992;-0.042544015;-7.442859;-0.46505043;1.635356;-0.0020734372;1.6472461;-2.6957774;2.5026639;1.5282377;0.8404114;-4.0716906;-5.5488186;1.7791333;1.1345601;1.3201003;-3.2799296;-5.3809958;-0.026312632;-1.1123928;4.550368;3.4109294;2.8000388;-1.9834822;2.0971816;-0.038548544;-0.108636856;-0.047649566;-1.4474819;-0.37718028;-1.5162833;-0.57644004;2.005701;0.15007235;1.7207589;-0.015095001;-0.7138674;-1.0078765;1.2543285;1.470112;1.8549155;0.024522148;2.4897115;1.781713;-6.1154637;-7.3727083;-0.65032536;-5.8661284;-2.3190734;-0.029715262;-0.2960852;-0.40201816;-5.5285873;2.0048776;-1.298826;-0.040957253;0.8473114;-2.443493;1.7797034;1.1400131;0.0010701837;0.06597862;0.13494389;0.041808322;1.9525378;0.31700748;-0.030099513;-1.5222067;-2.1536462;2.1776414;0.058723208;-0.025305416;0.94716537;0.3764267;-0.06735593;0.010943989;0.111943774;0.47275406;0.28731868;-0.8983948;-0.81947154;-2.3165677;0.10239093;-0.2642465;0.41149428;1.6808972;-0.008637973;0.05407972;-0.21526681;1.18444;-0.028636917;-0.053159624;0.025568025;-0.28684574;-0.7107574;0.94046193;-0.9247884;3.288207;0.0008373207;0.19517694;-0.16448943;-3.1892185;-3.8375216;-0.72612846;-0.2566081;0.2610321;2.358175;-0.0998658;0.30577418;-2.621197;0.038413193;-0.028495325;2.9314756;-0.20414075;-0.0011846845;0.8942964;-4.3889594;1.430771;-0.75702494;0.091668144;2.0484455;-2.1840403;-0.19406143;-0.007864311;-2.1779544;0.027847769;-0.55859584;-4.046522;0.20384002;3.3385568;-3.9418979;-0.06294425;-0.99111545;0.83062345;0.47744197;0.005853304;-0.006139738;-0.57966137;-0.6037111;-0.034149576;1.265971;-0.0072959187;0.0063652787;0.005830788;-0.0010748745;-0.008500177;-2.0494537;0.061482698;-0.15636884;1.4982903;4.148277;3.609386;-0.04091048;-0.21910101;-0.0010819765;-2.21324;0.12510192;1.7376436;-2.8810909;-11.094131;0.9625525;-0.06353601;-0.0071670306;0.7056795;-0.12840508;-1.5318327;0.0032890243;-2.9523594;0.2850151;0.14599289;0.75775576;2.8493762;0.69303954;0.03385694;3.1765857;-2.0420194;0.36467;-0.68802524;-2.8724911;-0.17744206;-0.9119413;1.9890553;-0.037638202;-0.13263562;-0.010135725;-0.5335516;1.7268218;0.0065390277;-4.098486;0.70533127;-0.86464024;0.057545;1.1132424;1.6975263;0.49139896;-3.437876;-1.3114768;-0.32928005;-2.3447516;0.5563074;2.6442776;-0.66120446;2.0711064;-0.012322776;-0.0441607;-1.2550287;4.0588627;-4.5443816;0.005066505;-0.023183826;-0.000569639;0.007825543;0.7680285;1.48846;0.25838625;-0.009136018;1.8312453;-0.04144329;0.082616575;-0.3902885;-1.5339487;-0.015558532;2.2434287;-2.6154373;2.0318155;-0.012622031;-5.523329;0.024363138;1.233123;1.9339749;0.99599254;0.21928474;2.3175828;0.1760284;0.044136636;3.6279814;1.5595324;0.21604922;-0.8775832;0.62531525;2.3484766;0.03175984;0.7663677;-2.9721076;2.4901109;1.7517551;2.5518937;-1.4252926;-0.024347983;-11.823266;5.7977166;-0.07179452;0.018797072;-2.1741636;2.006078;-0.1453885;2.451238;0.055741467;-0.042073634;-0.8240004;0.016610464;-0.015658425;1.475787;3.0299757;0.0032390011;-0.8343759;-0.05373311;0.0072456994;3.2720516;-2.638015;-0.5797475;-0.25665438;2.83312;0.026927184;0.35029963;-0.024149619;-0.017127845;-0.06069463;1.3287363;-0.055997413;-0.08068946;0.6423678;-0.83551615;0.45484832;-0.012176195;2.9918978;0.6168743;-1.9275824;-4.3956256;0.3005079;0.015028161;-3.6037447;-0.032428678;0.06787007;-0.11916969;-0.024238912;1.6291999;1.3174278;0.5440622;0.7353835;0.7522041;0.53535074;-4.165577;-1.5158241;0.025572307;1.0736489;-0.05176353;0.02910708;-1.332037;-2.1156154;2.548501;0.6382276;-0.0021009778;2.3779964;2.696743;-4.3665824;0.03253216;1.8476409;-0.024231192;-0.00064245187;-0.13909797;-0.743917;-2.6765969;0.06666139;-0.023756681;-0.2077209;1.4988327;-0.000758042;-1.6286702;-2.6933076;-1.6465248;-0.031408243;2.7521412;0.026311455;-4.2529683;1.1775235;-0.019105429;-0.054477368;-3.0378737;-1.4067982;-1.6079651;-0.27678347;-0.85847497;1.4571426;2.3137398;2.2435648;0.037329856;-0.09445842;-0.056749772;0.63583434;2.9027061;-1.6699088;0.15747072;-0.016202386;2.1173718;-0.25027302;1.5320144;-2.4626079;-1.3467146;-0.5214745;0.0071337903;-3.2489095;0.0020881437;-4.2957377;-2.920164;2.070428;-0.0739771;3.6761715;0.68508923;-0.25717297;-0.9115062;-1.499301;1.2520875;-1.978976;1.8214722;-0.031441115;1.2670095;-6.5125237;-3.2100987;0.026048495;-0.017043043;-0.4423507;0.2089332;0.23215933;2.5775645;-0.36844203;-0.024960602;1.0859617
-4.8538585;0.3995279;-0.013407016;-0.62237275;-0.0060905498;1.9139414;-1.105195;0.0011706684;1.3332957;-0.08146909;1.2749559;-1.7044184;-0.015723655;0.028113583;-3.452122;0.027624553;0.023920793;-2.8170989;-0.64001507;2.063015;2.0148613;1.2032274;-0.23961876;0.7822325;-0.00091486034;-3.3860548;0.010535886;1.6758215;0.12011709;-0.6927673;0.11889108;-1.046275;1.0504577;-0.020128662;-0.006880991;-0.004404267;-0.017607396;-3.7490103;1.649655;0.8423948;-0.5218934;0.1160725;1.6049968;-1.8045422;2.6252503;-1.3682708;0.0080702985;0.5224498;-0.0045122667;3.1028132;0.0048738387;0.40735582;4.080267;-1.1885226;-0.67464054;0.08667279;-3.400623;1.336073;-0.065081865;0.028936673;-0.06240463;-2.1273427;0.008727403;-0.02807895;-2.2300215;-1.2875715;-0.010117737;-0.4876973;-1.7312223;-0.010522676;1.366563;-0.058233872;3.1943903;-6.551424;-4.712433;0.033244208;-0.357516;4.164075;0.012604326;-7.448303;0.026325092;1.0384606;0.018352512;1.3268456;-2.4387689;-0.15153845;-0.0082698045;-1.5162631;0.020391308;0.022491427;0.80304223;-0.040013965;2.8035135;0.94104385;4.400046;-2.1762064;0.46297303;0.33117864;2.6337974;-0.3962805;-5.425;-3.3668416;-2.0253158;-0.08547998;0.3568433;2.5154936;1.7918429;-3.7353053;0.23897588;-1.6960722;0.2680797;0.90056694;0.029674305;-5.2961445;0.07733842;0.043488916;-0.013889075;-0.550997;-2.7277424;1.0147473;0.09549722;-1.8817897;-1.272003;-0.31811497;1.4745184;2.3521585;1.9543955;0.18312693;4.627219;-1.1607926;-0.61804587;-1.8422985;2.3817601;-0.035399802;4.585053;0.006107662;-2.9394178;-14.68681;3.6118758;-2.8413346;0.034210823;0.8219195;0.481105;-0.35648575;-0.15815002;0.011008359;1.1095978;-0.10915173;0.091171145;1.1547799;-0.018247556;1.0735697;-1.741464;3.357948;-0.52499276;-0.8630093;1.1291127;-0.27351058;-0.035496145;-0.34801683;-1.2402782;2.5154529;-3.0883784;-0.029258016;-0.12238716;0.33015922;0.017467853;0.091484874;0.9391968;2.1069999;-1.463112;0.011315264;2.890126;-0.44613805;-1.8094735;0.15915029;0.11032915;-5.1978555;-2.2928383;0.09058893;-0.0013168937;0.014199619;0.92124516;0.3325991;0.0015487017;1.8976767;-0.07092548;1.6024508;1.4170923;0.015874404;-6.170082;2.624555;2.729314;-0.032768678;0.16618398;1.9642812;3.8437834;0.7099468;2.2927876;-3.1638005;-6.8039856;1.9784517;2.368455;2.2455084;-1.0315179;-3.605712;-0.7148847;-3.8922977;2.4930096;1.626167;-1.7050645;-0.5492363;2.5296266;0.009273296;0.025024066;0.009757737;0.00023369624;0.3316367;0.08969186;-1.9863036;0.66384274;1.218923;1.987762;-0.044501666;1.976721;-1.4012139;0.42998007;-0.03563677;-0.09996451;-0.035633836;0.29151556;0.42315435;-3.7784822;-4.1630874;0.1526454;-4.222003;-1.612351;-0.01902962;-0.34702748;-3.0030305;-3.3401272;-0.41523784;0.046039548;-0.017027708;1.70706;0.11148899;1.2434571;1.6080278;-0.03540991;0.12700371;-1.5107923;-0.016375203;-0.039135646;1.6991299;0.02400812;-1.1620048;-2.7529604;0.5121955;0.116722144;-0.043715376;1.4793968;0.64465016;-0.045170855;0.044648457;0.024827873;-1.1272296;0.09018524;-0.12541991;-0.388503;-1.3273511;1.2771333;1.0022717;1.1818569;0.38960093;0.008299189;0.045797274;-3.1820836;0.8256142;-0.034339875;0.024250114;-0.0065285293;-1.4206438;-1.0333471;0.54623765;-3.298613;0.511803;-0.023536833;0.51579213;-0.07373997;-2.4718323;-1.6407137;-0.9904745;-0.100455016;3.211227;-0.2931057;1.5415217;1.3819503;-4.135823;-0.03997536;-0.03178985;0.5139615;-0.15081498;0.0128091965;1.8564261;-1.5536431;0.88577676;-1.7402898;-0.12080196;1.0743457;1.6093624;-1.9562947;0.00090347056;-1.4976168;-0.010680633;-0.977269;-2.1870735;-0.06277496;2.269254;-3.6339707;0.012444546;-0.4446726;-1.0448787;1.0169263;-0.03791559;0.0104443105;0.90623456;1.1071092;-0.04209755;-2.5214057;0.03604828;-0.015063404;-0.06729485;-0.01439402;0.011137078;-1.8850766;-0.033287603;-0.042987574;0.684433;0.7383141;-0.044553746;-0.0076030153;-0.7500002;0.0029112645;-0.42092848;0.35153705;-1.6780987;-3.3710802;-10.953007;1.7471486;0.027056413;-0.025287187;0.5004691;0.89411235;2.3147514;-0.0190198;-3.8911767;0.5460599;-0.7481251;3.128069;2.1572626;0.5942997;-0.0019552042;1.1553878;0.06770065;0.3804113;-0.6857331;0.9560857;-3.562618;0.28364798;0.96516347;0.03416652;0.6614188;0.023299031;-5.5908484;-2.2539394;0.052071456;-0.33739027;2.2398703;1.0890032;1.1701651;1.3480107;2.0943058;0.12786767;-0.19282773;-0.18971162;-1.7744317;-3.3347101;0.43042532;0.4413324;0.07109082;-2.0026035;-0.0016744524;0.049062;-4.0503306;-0.2719785;-3.5556953;-0.060300987;0.021541828;-0.0009809721;-0.0050255735;2.0863202;-3.3085628;0.32176864;0.09839571;2.615884;0.043539964;0.009663068;2.6273642;-1.0144736;-0.015665988;2.4977233;-3.5314462;2.6228154;-0.027738977;1.3741314;-3.490344;0.34977758;0.61371404;-0.34865597;2.1756454;-0.063219704;-0.42711866;-0.018591274;5.1682754;2.1368124;-0.50971854;-3.259754;1.4270924;-2.063663;-0.038441587;-0.15183482;-3.510599;0.60296935;4.9514627;0.020072095;-0.99958223;-0.035407778;-10.663101;1.2001024;0.021839226;-0.03757155;-2.2591894;-0.058882125;-1.301277;0.7559765;-0.01298355;0.05069917;2.601083;0.022245642;-0.0014757094;1.0781244;3.4692852;-0.025780067;0.40547097;-0.026741551;-0.09268009;3.5978968;-2.5475962;-3.194858;-0.53734046;0.33010706;-0.041139483;3.1371577;-0.005927436;-0.014079822;-1.2022815;1.485747;0.01955607;-1.2101578;-2.4236667;-0.1443476;2.602919;-0.0016347439;2.389625;-1.7874751;-1.9262023;1.8581151;-0.7481536;-0.006628876;-3.0795012;-0.064507544;0.052715242;-0.09402732;0.016458718;-1.8213849;-0.011324142;-1.7304099;2.8924987;0.10970073;0.22349367;-0.34683034;1.7393687;-0.02168052;0.24240582;0.016587162;-0.016710335;-1.6287638;-1.7630371;1.9749644;-0.5407263;-0.16997133;0.513297;0.41090164;-3.9433773;0.010144932;3.2077553;-0.03192653;0.07090994;0.15405071;2.3757253;-0.9375473;-5.37172;0.013389974;0.01434418;3.2697644;-0.017491173;-1.5888703;-0.089830354;-0.4725543;0.012274941;2.2961597;0.038313497;-1.2816831;0.20860197;0.008806542;0.12332522;-1.4404833;-0.83322144;1.8685099;-0.20028028;-1.8306226;1.0272899;0.93370193;1.8872207;0.1238584;-0.099530146;0.012335909;1.2455822;2.5283763;-1.4801973;-0.44801593;0.0108202575;-2.3207116;2.4919844;-1.45613;-0.54381114;-2.7189236;1.7412095;0.024555957;-1.805186;-0.019392801;-4.417127;-3.0681589;0.8791338;0.037357047;2.0940235;-2.5465934;-3.1932633;-1.1552085;1.4629369;0.9065966;-4.888908;0.8773867;-0.010390543;-0.49934405;-5.6808248;-1.6460342;0.0366005;-0.027019218;0.013098891;-3.0769532;-0.060277455;0.14820082;0.82483315;0.007130805;1.1908513
-6.2945657;0.4470386;-0.060570437;3.076813;-0.020704279;0.700585;1.5297596;0.05228823;3.0292134;0.04213075;2.6091914;-0.78734386;0.005813078;-0.019533081;1.9250729;0.06149517;-0.033406746;-1.3611149;-0.067981616;4.9576106;0.11603673;1.5223236;-0.6068844;-1.9895436;0.020765986;1.2398459;0.035877906;-0.32384372;-1.0157444;-0.9218267;-1.317931;-2.948047;3.028904;0.0073484275;-0.008559365;0.023593042;0.016606461;-0.26124832;0.17445748;-0.6318226;4.774533;0.19979233;0.44190782;-2.6895514;2.2687197;1.2574296;0.028761959;-0.20730788;0.010561106;2.3359334;0.016022634;0.38519597;2.847544;-2.8861487;-0.16263987;0.16844498;-1.1655788;0.058578026;-0.008701949;0.04750126;-0.029069733;-2.819557;0.010548215;-0.024128053;-0.60530823;1.8934917;-0.06708933;0.37984264;-1.5239773;-0.17512427;-0.031492803;0.062738866;1.2078614;-1.3509086;-2.5785644;0.0660521;0.37920654;1.4879961;-0.020750673;-4.9023232;0.04399262;0.46634933;0.016933715;0.8882763;-2.8778033;-1.4095961;0.034953345;2.365542;0.07032292;-0.0037948624;0.3085541;0.055358965;0.9088309;0.6079363;2.9635324;-2.1016614;-1.9008887;2.9537668;-1.6195863;-4.30258;-1.1791486;-3.0289922;0.74612224;-0.9421604;1.6969209;-1.8629401;1.3696047;-2.3657303;-1.324757;0.6604661;-1.4045734;-0.7723912;0.04329593;-3.8199081;0.47035632;-0.0051925667;-0.017827507;2.2077181;-0.78929234;0.7357052;-0.58505905;0.22465591;0.6819427;1.8548661;0.95202017;0.97304547;-0.36978772;1.5346329;-0.82851434;2.8051877;-1.8724617;-1.2835976;0.08015941;0.0071370434;3.8526378;-0.012630437;-2.8537374;-14.178623;0.8468548;-1.994111;0.009036704;-0.6732324;3.396592;0.88513464;-0.37612966;-0.0064536245;-1.0903566;0.0006630357;0.5551141;1.8535765;-0.0057897884;0.0954185;0.84671575;-0.4347956;-0.9129914;0.10633569;-0.39381465;-1.5740716;0.06345823;-1.5080355;2.2414947;-0.33232272;-2.789513;-0.041485574;-0.047877327;0.60505795;-0.039868973;-0.41596425;-0.79513085;-1.6020751;-2.1498528;0.016106607;1.2631662;0.24716887;-2.0501945;-0.3732103;0.016422316;-8.278669;2.2969258;-0.021115271;0.014211674;0.10134486;1.0509984;0.98395896;0.016024267;1.3138089;0.0021474168;-3.6257343;0.8235729;-0.028335635;-4.8326106;3.1892915;1.152127;0.013566598;0.7070084;2.6180053;3.2951791;0.25710806;-0.28281808;-3.4581678;-6.7654557;-0.051378775;-1.551026;2.6251175;-0.30536267;-2.9298773;-0.14512208;-4.264076;2.2525995;3.8477383;-1.7214246;-1.1757753;3.0483437;0.041097943;0.037096847;0.020266458;-1.3881646;0.09669753;1.9610963;0.37459674;2.2140565;0.28314826;0.004843659;-0.0035055077;-2.537038;-0.6707433;2.5177457;-0.83998436;0.79881895;0.032720096;0.257271;-0.38274634;-2.929438;-5.2104735;2.019564;-2.8062053;-1.5242226;-0.017136063;1.9746559;-2.4053533;-1.382702;0.56715155;-2.0340974;0.8147946;-1.9148161;-1.630202;1.7603302;2.5918512;0.010302442;-0.045926876;0.011319142;-0.020972764;0.8113091;-1.2813491;-0.00031553;-1.8572575;2.616756;0.21352279;-0.3576864;0.055566467;-0.96620524;0.8508456;-0.00065879757;0.0232718;-0.03290868;-0.36140627;-1.7738042;-0.46663457;0.43238708;-0.94648343;0.14464372;0.57158405;-0.9945437;-0.31737223;0.08066572;-0.04121541;-3.6412132;0.64293224;-0.040260073;0.016511653;0.016417315;0.988877;-0.32768402;-1.22081;-2.7474105;1.9331772;0.020570299;0.62434536;0.017209126;-0.39053288;-2.62178;-0.47715017;-1.822337;3.2999322;1.1482745;-0.61432105;-2.4589825;-2.1130397;0.016670587;0.003562254;-1.0409199;-0.117659196;0.021757392;1.4840939;1.9720956;-0.4708142;-1.0815923;0.06980002;0.70633084;1.2495159;3.235007;-0.0232176;-1.259252;0.14543815;0.3686314;-1.8871918;0.07109782;1.6011335;1.9706548;0.019327182;-0.46386012;-0.50406194;3.6905806;0.021592908;0.02264966;0.14057907;1.6873614;0.031648733;0.2905204;-0.011649312;-0.03658652;-0.005836946;0.017732508;-0.026414901;0.71248865;0.025703225;2.012374;1.2735811;1.4876201;2.277251;-0.021603972;1.7419325;0.052976355;-1.7783575;-0.88231677;-0.36881712;-3.884085;-9.348501;1.5476319;-0.012867826;-0.050332967;-1.4684393;-0.56982034;-0.9673165;-0.00015872886;-0.4920284;1.6754435;-1.0082471;-0.052888963;2.0741928;0.6543711;0.014292397;-0.57335967;-1.2529624;0.04758274;0.64587426;0.065084375;-2.540743;-0.13837586;0.013690601;-0.04346377;-0.14038853;-0.02222367;-4.057076;3.6614158;0.055818707;-2.2635946;3.1149564;1.2559147;-0.21609955;-0.7431343;3.4242232;0.5963507;2.7983072;-0.11663551;-0.89451844;-1.8777728;1.7654313;1.1481955;0.30019507;-1.19812;0.04100659;-0.014219716;-1.5778985;-1.7407784;-0.23911265;0.0039751343;-0.006479886;-0.014965218;0.014823499;4.1882157;-2.686181;3.037033;-0.006411359;4.3931437;0.018542416;0.6844558;1.2633637;-1.8391289;0.010345131;1.6372883;-5.186935;2.0441568;0.00062305434;1.5173967;-2.012364;1.807459;1.1003814;0.064356476;1.2663157;1.0884937;0.035525225;0.039794695;1.5861466;0.54454666;2.477326;-0.51509356;1.5916432;-1.259438;0.08907926;0.17499258;-1.9077265;-0.77009565;3.3375819;1.8189732;-0.42204645;0.024151435;-2.907693;1.7248185;0.03289715;0.013724442;-4.5747232;-0.42630574;-1.4611982;1.8462834;0.048137903;-0.063406974;3.3022807;0.035809696;-0.009472651;1.2397082;0.6134387;-0.028178794;4.148371;0.014623277;0.054840647;4.0616794;-2.0101695;-2.0467072;-2.008313;-0.68365115;-0.0017020673;1.175249;0.026696568;-0.007857467;0.409398;3.767578;-0.0067664594;1.3429699;-1.5423023;-2.8018787;-0.4688662;0.03168703;1.7286555;1.377876;-1.0873315;-1.6707009;-0.56749886;0.012624615;-2.423633;-0.06126656;-0.004395134;-0.04227243;0.015148568;0.46641284;1.0780733;-0.18560912;-0.40620464;0.18616296;1.9680912;2.3101795;2.149071;0.031194758;1.1583368;0.00973744;0.70367444;1.6345086;1.4540222;1.441319;-3.5647802;-0.15170361;-2.1575544;-1.866049;-4.8834085;0.0014173333;3.6730175;0.024292145;-0.05529599;0.110605754;1.3013933;-1.6370512;-1.7845801;0.01996319;-0.003098504;3.5447161;0.072613545;-0.8645752;-1.6066405;-0.9310063;0.016219614;1.1904155;-0.011621391;0.24298754;1.1850508;-0.03849803;0.015348765;-2.2943397;-2.3762066;-0.94190425;-0.08078682;-5.2311673;0.98095894;0.83590245;1.9276714;-0.084972285;-0.09431985;0.018771531;0.010513514;-0.37335777;-0.11516956;1.1136659;0.05934453;-3.56306;0.490733;-0.8477006;-3.031655;-3.4477644;1.523423;0.022002572;-2.4308991;-0.005938495;-1.6027116;-1.8186859;-0.44277668;0.028751312;3.050443;-1.217447;-1.5268536;-0.93188965;3.161895;0.06226418;-5.241094;0.72560185;-0.0039709564;-2.4197938;-5.6451573;1.820597;0.055733435;0.008208785;-2.675035;2.863627;-1.1853427;-0.3181374;0.66401803;0.024849668;0.12699549
-4.0130186;-0.73885816;0.04117631;1.8339009;0.025386041;1.2321031;-0.9449875;-0.015818609;1.4187319;-0.028406192;1.179007;-0.7792612;-0.03629298;0.035754424;2.818795;-0.0024239873;0.012275901;-2.96271;-0.5863461;0.4791881;0.05988327;-0.4731533;-0.65419686;0.9204384;-0.029823357;-1.8181015;0.02108142;3.1933541;-1.0488218;-0.30320597;-3.0674021;-2.2449288;3.7872138;0.036287952;0.008253272;-0.012426295;-0.010267204;-2.0003242;1.5979664;-2.9304872;3.7690122;0.21931775;1.6744089;-1.9961898;0.6436958;-0.06788157;0.06138623;0.04712087;-0.0053232634;-0.37252754;0.01318294;0.31952387;0.42895684;-3.1652725;0.83197796;0.05193511;-3.0018613;0.07317969;0.09391625;0.05301353;0.015713517;-0.8326853;-0.044926;0.016959038;-1.8681353;3.0736523;0.025057515;-0.21629393;-6.2106194;0.37079412;-2.6385765;-0.011334434;0.53169084;-3.8401806;-7.8128185;0.017552001;0.13972907;-0.007519206;0.021063695;-6.1950965;-0.03578925;2.0843804;-0.0011081038;1.7876773;-2.8930066;-3.1517208;-0.05162429;2.4787405;0.0027950513;0.034132402;-0.9859715;-0.0074024745;-1.324739;-2.1785212;0.45232403;-0.014044155;0.5121805;0.018170377;-1.1340278;-4.492272;1.1834377;-4.2356267;-0.5580966;-2.248003;0.7358307;0.42153698;-0.23714063;-2.4124916;-0.18656899;1.8972446;-2.450431;-0.20157261;-0.033634953;-1.0555965;-0.4676667;-0.01656733;0.044171687;-0.7384004;1.4451433;-1.0101607;0.70679295;0.13061999;4.538685;3.2547424;1.3915733;1.2910978;1.1948352;-0.2687235;-2.7356393;1.7371131;-2.5922813;1.4453802;3.013766;-0.01476828;3.275797;0.0033882023;-1.4135188;-12.022452;0.93057364;4.012995;0.0068483213;-2.6471543;-0.37966424;1.6981995;-3.295206;0.04158496;-2.4419057;-0.012824368;0.6487771;2.622917;-0.023574293;-0.5741099;-1.0128645;-0.79075456;0.047455367;-0.9125579;-0.83532256;-1.114377;0.018235141;-0.5591372;1.4858097;1.8460566;-2.674573;-0.035600394;0.30685753;-0.52748466;0.054643754;0.2975716;0.23265234;0.6222087;2.4861877;0.0031162347;2.0450046;-3.559466;-0.5599575;-4.4412975;0.14456141;-6.5001273;2.0400708;0.045446057;0.0057982304;0.013805181;0.40374342;0.023947902;-0.009423791;2.8513458;0.73611104;2.4607668;2.9001868;-0.02410909;-2.2693465;3.2971385;1.8711188;-0.02249669;1.1200016;-0.93785584;2.5003965;0.30166376;1.4240842;-2.5922804;-5.1827283;2.02606;0.50534433;-1.6924331;3.5469844;-0.39156258;2.3265376;-4.4064426;-0.5222782;2.2273288;-0.8832701;-0.35654658;0.2482729;0.02457111;-0.09575171;0.00039523034;0.83014715;-1.1938658;0.00850461;2.3671863;1.6464955;1.3528627;-2.1304736;0.045480225;2.3328574;1.865693;2.5456264;-0.9645117;0.66309446;0.051439095;-0.24854618;1.3839641;0.78741354;2.1171305;0.879816;-4.072542;-0.85895014;0.012702709;4.176354;0.12584545;-2.8755445;-1.1865618;-2.029045;-0.07990337;-4.702754;-3.068193;0.35225835;-0.424448;-0.0077301124;0.22263235;-1.2102836;0.0166709;0.60115284;4.4453187;-0.023586724;-0.8783267;0.47127447;0.85378146;-0.04386558;0.01299584;-3.0605922;-1.1992766;-0.011261643;-0.020449972;0.00759418;-0.051053207;-0.20368661;2.3981783;-1.0164348;-1.1649573;3.3489673;-0.43630713;-1.9943467;2.4994724;0.014271877;0.030785942;-2.6660209;0.41391104;0.00792741;-0.006555955;-0.003315574;1.3274647;-1.4781868;0.55914366;-0.03537647;1.6620206;-0.0055196485;0.014439208;0.02729913;-0.4129796;-1.4199;0.7146263;-0.18677722;1.3736659;-0.05158673;-3.4436479;2.2585528;-3.5671933;0.018309612;0.008785343;-0.8050051;-0.10763649;-0.014020121;1.624363;1.9546232;-3.7198977;1.4527783;-0.2592082;0.51087296;0.34592456;-2.329628;0.008834375;-1.2820729;-0.042543534;-0.67479277;-0.66949016;-1.7727889;-0.90199494;1.8442906;0.015970973;1.586724;1.1456089;1.802801;-0.0018040059;0.022934243;1.9455127;0.42146346;0.023002593;-0.7613147;0.07492417;0.015763925;-0.044931028;-0.023679849;0.049999062;-1.4403275;-0.03476295;2.2902162;0.8429699;0.83660257;3.1936235;-0.035198003;3.895108;0.06003442;-0.40058294;-1.0940167;1.9163328;-1.6426114;-5.5622125;2.6113384;0.0017689938;0.032656997;-0.42225137;3.1964645;-5.74019;-0.02344452;-0.8816951;1.29154;3.037881;2.8857462;1.58191;0.020523466;-0.003467568;0.73214215;1.6929717;0.41364846;-1.6054649;-0.87610805;-3.8363936;0.42369658;-0.105217926;-0.018792856;-0.097321644;-0.005497301;-2.0634253;0.03367344;0.019579053;-6.210895;2.4518745;1.3880441;-1.91076;0.50887007;1.2291553;-1.706697;-1.8825238;-0.43575755;-2.0045538;-1.6194303;1.3764604;-2.719862;-1.8490051;-2.5777807;0.04351328;-0.0018580212;-1.0196937;-0.85198385;1.779079;-0.0016513227;0.064058;-0.033736803;0.06494598;3.4169722;-3.978619;1.0227501;-0.04022539;2.1827383;0.001861718;-0.08083421;5.098303;-1.0009689;-0.012192331;3.583854;-6.2609606;-0.35211018;-0.045668192;2.8193405;-4.3743978;0.6095533;2.8614528;0.7060818;0.83027524;0.8593213;0.645191;0.025796024;3.5943835;3.5337167;2.3227205;-2.3097024;2.4374025;-2.535254;0.13288225;-0.38074332;-2.1156023;-0.41041642;2.0012696;3.6809082;0.32203704;-0.005250885;0.6958901;2.816603;-0.027199173;0.029225804;-3.5861156;-0.86137265;-1.8443291;1.16714;-0.02136824;0.027513893;2.482011;0.002057678;0.031942274;3.0890546;-0.90496475;-0.0065818313;2.1029856;-0.014327834;0.00031488886;6.003726;0.43717873;-0.90279186;-2.5774534;0.29810852;0.012681594;-0.9045444;-0.044053525;0.10515421;1.923392;2.1899247;0.052925993;-0.50685155;-1.2743027;-1.6900138;-0.8162295;-0.00081103;1.2405995;-1.6673825;-6.270985;0.35418358;1.4190376;0.05238706;-1.5475146;0.012399697;-0.01224547;0.29620543;-0.051359154;1.1741134;-0.02043611;-0.6389651;-0.21756648;-0.5379801;0.5695226;2.1903813;0.87692684;-0.0035496461;2.0006042;-0.07418348;-0.16605784;-1.5551009;0.85596716;1.0493406;-2.3921628;0.94013757;0.5902083;-0.98870623;-5.7609615;0.0027361084;6.9212117;-0.023220632;0.007034564;0.7638229;-0.5891595;-1.3068069;-2.1993988;-0.03165603;0.005759303;0.9785438;0.026312243;-0.36754912;-3.128935;-2.611411;0.030018471;-0.25178632;0.0029840716;0.88414407;-3.1188984;-0.005297358;0.00186672;-0.37734812;-3.042757;2.6202362;0.93228894;-4.92654;-0.5878899;1.803048;0.44044557;-0.44781947;0.8673308;-0.024114667;-1.5835309;1.527802;1.2658098;-2.5960298;-0.060491078;-2.5680332;1.964012;-1.5539343;-3.5594535;-2.9064803;-0.9272326;-0.011840682;-1.718714;0.0053295866;-0.8233359;-2.910911;0.51832503;0.00045976994;0.3634361;-0.42261142;0.0023053475;-4.2678156;4.380326;-1.9844748;-2.9605525;0.12093417;-0.00794004;-0.12087544;-3.420566;4.821842;-0.019071853;-0.023349963;-2.1995738;-1.4621761;-0.40000877;-0.24001192;1.7905476;0.014302243;1.6443715
Bias from input to hidden layer.
-0.089391194;0.18586235;-0.012140298;0.019469086;-0.0065975282;0.08223093;0.27277762;-0.0077090105;-0.03493167;-0.006843385;-0.025394447;0.4515363;-0.005536152;-0.008066085;-0.01418972;-0.0068484484;-0.0038129506;0.036132928;-0.32691726;0.30003244;-0.03829596;-0.08437479;-0.01495578;-0.59068215;-0.007365846;-0.15525119;-0.0064313575;-0.029755376;0.25531214;0.0877788;-0.38699073;-0.2526817;0.21813618;-0.0070221564;-0.004073315;-0.006400638;-0.007935533;-0.1945665;-0.026188228;-0.20608202;-0.23617195;0.069408484;0.41907492;0.00056031195;0.08057105;-0.5329645;-0.0067181503;-0.024950795;-0.0056460663;0.37765735;-0.007380608;0.3740415;0.049498484;0.37796465;-0.10607574;-0.004244267;0.38607553;-0.12179444;0.060408723;-0.007685825;-0.008715205;-0.1203944;-0.0037575413;-0.0065661487;0.41989854;0.38398412;-0.006170951;-0.0041870163;0.22652669;0.074087925;-0.206106;-0.0081279725;-0.7809569;-0.3726213;0.2735963;-0.008331233;0.29881862;-0.37992442;-0.00636821;0.36882496;-0.007594375;0.23063421;-0.0062957723;-0.008963071;0.20742723;0.35629022;-0.009142232;-0.056375995;-0.009946901;-0.0067628524;-0.5025702;-0.0063868803;-0.26262322;0.11139577;0.031651884;-0.09401053;0.0038619486;0.11330116;-0.21694146;0.06469461;0.1968561;-0.11093102;0.115969144;-0.099169984;-0.06289998;-0.26322874;-0.3112918;-0.3693267;-0.02444743;-0.1957081;-0.30889145;0.21349987;-0.008507507;-0.40327048;-0.42229962;-0.0061625694;-0.007251342;-0.29079112;0.055078205;-0.12606828;-0.19625844;-0.22121754;-3.134166e-05;-0.12491096;-0.12592767;-0.38066766;0.47625685;-0.27476275;0.2803394;-0.262165;-0.1342709;0.06330271;0.0030921842;-0.0055944733;0.18439801;-0.007197802;-0.27867165;0.09030098;-0.044088326;-0.012181183;-0.0070733465;-0.16392083;0.29952228;-0.16247217;-0.36508855;-0.008344882;-0.10202797;-0.008342856;-0.19582655;0.2998229;-0.007237553;-0.83417034;-0.04423567;0.20343603;-0.06788187;-0.09853239;-0.025974287;0.44724488;-0.0048831296;-0.027671924;0.42429486;-0.04177429;0.33731103;-0.0064429883;0.06610089;-0.42467862;-0.004656445;-0.0011515035;0.5117524;0.13370605;0.07276459;-0.0052547143;0.1203922;0.23472707;-0.3681449;-0.34003806;0.05987918;0.14138746;-0.5690135;-0.006367225;-0.008409129;-0.0087496275;-0.01660254;0.35471317;-0.008860635;-0.35476628;-0.006668384;-0.46337628;0.33443943;-0.0049841404;0.40309376;-0.13779902;-0.40777862;-0.0056318217;0.5888678;0.23902492;-0.034886017;0.10596643;0.14985883;-0.07566198;0.096020274;0.5571469;-0.15345275;0.15596358;0.093699805;-0.049877133;0.45922405;0.10820311;0.10856766;0.32035297;-0.74787647;-0.534894;0.23874529;-0.009686937;-0.011835405;-0.007350069;-0.052845895;-0.22409925;0.24110389;-0.3014798;-0.38445112;-0.64289063;-0.3160098;-0.0063806255;0.59582853;0.65803343;0.041073106;-0.526626;-0.041993715;-0.002418254;0.19710349;-0.37919208;1.0234591;-0.54695606;0.2343595;0.8966351;-0.06844461;-0.008180733;0.09523232;0.018067645;-0.03512684;0.45473;-0.3185732;-0.008978592;0.17959248;0.28469402;0.006131882;-0.40743527;-0.0058947057;0.10529936;0.15410286;0.0009763229;-0.057589404;-0.20473064;-0.009477829;-0.040611267;0.20446102;0.052058384;0.049109895;-0.0061252452;0.015828922;0.34890005;-0.005400935;-0.008344411;-0.007755349;-0.04060067;-0.3623011;0.21672125;0.023476275;0.034087557;-0.005662244;0.060101505;0.10827132;-0.29654965;-0.005852289;-0.006069371;-0.03698343;0.04144851;-0.00816897;-0.0074575962;-0.008557722;-0.06166175;-0.28939852;0.09275365;-0.3280045;0.6016695;-0.006559202;0.11165985;-0.005174132;0.36276138;0.17845905;0.038293846;0.2357153;0.24262549;0.09213569;-0.021606488;-0.010654642;-0.0072220713;-0.005254231;-0.004644233;-0.3378919;0.084808215;-0.0069788685;-0.5838959;0.01157725;0.5743487;0.14487435;-0.015247491;-0.114782475;-0.6680614;0.21739528;-0.0077075535;0.26833546;-0.0073870663;-0.11133433;0.06926158;0.57307494;0.38043442;0.23014992;-0.008105881;-0.2039525;0.28405026;-0.1929419;-0.007764453;-0.008493481;-0.13233383;-0.024497;-0.006207157;0.50146616;-0.009855292;-0.0048678154;-0.008566003;-0.0044217585;-0.005920525;-0.041406136;-0.007596541;0.513991;-1.0053805;-0.17760678;-0.5069302;-0.006532172;-0.12570871;-0.005375644;0.5205023;-0.47034645;-0.080451176;0.038933538;0.108336;-0.17278908;-0.0073924526;-0.006150179;-0.1068915;-0.45664066;-0.2246045;-0.0030790742;0.026607547;-0.5154821;0.4505179;-0.74621105;0.23919293;0.08946377;-0.006492267;-0.08767069;-0.28340736;0.030413229;-0.03590102;0.13731916;-0.12861656;-0.0023675177;0.22481841;-0.008658436;-0.004712893;-0.00748899;0.5860236;0.13200992;-0.0054061003;-0.14696752;0.0835858;7.36564e-05;0.38685596;-0.03191446;0.0095626395;-0.41219753;0.24802811;0.5455951;-0.4336539;0.21950288;-0.22571357;-0.014292742;0.2167114;-0.06489421;-0.008326445;-0.006416801;0.21737592;-0.17190132;0.015148039;-0.0056439815;-0.0070848237;-0.0038877046;-0.005189589;0.0709437;-0.44252592;-0.23963363;-0.00868542;0.2531506;-0.007624961;-0.3910433;0.5501008;-0.014306666;-0.009514603;-0.22953834;0.2504127;0.31401205;-0.0054005464;0.17349274;-0.38492587;0.42793778;-0.50114864;-0.12469744;-0.15501052;0.102080606;-0.3458293;-0.004662135;0.3904798;-0.42482257;0.3098427;0.08454586;0.3449396;0.4745108;0.07212499;0.021863284;-0.24831027;-0.07967688;-0.32300824;-0.2984643;-0.26775688;-0.008392677;0.037773076;-0.24770905;-0.0029125859;-0.012652139;-0.029551309;-0.058960367;0.23668264;0.21180081;-0.0031113175;-0.010448226;-0.010832746;-0.0077096843;-0.0040273345;-0.34189618;0.10460124;-0.007565526;0.2350302;-0.0069418736;-0.0070891962;0.3720847;0.20545518;-0.36043003;0.4300052;-0.10725807;-0.0073690233;0.20828319;-0.004574393;-0.0034180947;0.080112234;-0.26891488;-0.005656624;0.14757432;-0.44765368;-0.17596836;-0.1872796;-0.005566523;-0.421319;-0.22691475;1.0432374;0.5463331;-0.51037705;-0.008006631;-0.3167614;-0.009169789;-0.011141368;-0.023014039;-0.006698591;0.22177665;0.19242318;-0.1423413;0.61698985;0.33295083;0.031968765;0.112766735;0.1494507;-0.007200158;0.16334023;-0.012502162;-0.007264349;0.10029154;0.22905909;-0.2224839;-0.29072577;-0.012164761;-0.16151737;-0.48679817;0.01232041;-0.0027161622;-0.022695398;-0.0058184406;-0.002575728;0.19353007;0.15208873;-0.28063935;0.37702972;-0.0077231415;-0.0104344;-0.8214572;-0.0052831583;0.3684719;0.3663008;-0.25717542;-0.006436818;-0.5577044;-0.00897234;-0.015807772;-0.081528395;-0.008342791;-0.004632883;-0.09246441;-0.21867947;0.11417987;-0.016804924;0.02176894;-0.09222709;-0.5768007;0.40872192;0.044432215;-0.007042613;-0.0059454725;0.5237528;0.66987044;0.62519735;0.11005721;-0.00847799;0.37198544;-0.19027038;-0.16663137;0.088180065;-0.2510082;-0.2535851;-0.008502593;-0.18372789;-0.0066605117;0.0343162;0.42977062;-0.15070894;-0.007395548;-0.2088295;0.09266875;-0.08342686;-0.17841049;-0.23833491;0.14443903;-0.18302613;0.54247254;-0.0073743556;-0.62574995;0.09099267;0.44390276;-0.005629242;-0.005888229;0.60821027;0.1806787;-0.68018514;0.08840707;-0.15812355;-0.0057290937;0.18459837
Weights from hidden to output layer.
-1.068692;1.1505255
-2.642472;2.5362854
0.0145494295;0.014763835
1.0048803;-1.0947714
-0.0132588325;-0.013051741
0.56958085;-0.4829557
1.1552191;-1.1205056
-0.021538489;-0.021438804
-1.1830308;1.2450042
-0.0029636212;-0.0030176518
1.0456884;-1.0593708
1.8093554;-1.7794448
0.0446635;0.04414792
0.029478937;0.02928882
0.933269;-0.94561917
0.0615794;0.061308682
0.011368738;0.011016116
-1.3656163;1.1893957
0.42872885;-0.47518277
-0.6977193;0.7277134
1.1933217;-1.2673237
-2.3005981;2.1809616
1.2832816;-1.4148085
-1.6219774;1.5670877
-0.03166707;-0.031697307
-1.542839;1.5140324
0.025499003;0.02566716
1.7985058;-1.8281925
-1.3774605;1.3578278
1.7198234;-1.680624
0.67178106;-0.5712923
1.2901591;-1.1496737
-1.2050762;1.2161843
0.010605574;0.011025118
-0.06489706;-0.06517042
-0.027240528;-0.02735541
0.07329166;0.07326026
-1.6802167;1.7086402
0.88478225;-0.87743884
1.3882977;-1.4004668
-2.1840641;2.2085886
3.5141177;-3.4409485
1.860817;-1.7067252
-1.975153;1.9070778
-3.031293;3.064764
1.1881963;-1.3023397
9.46929e-05;9.477674e-05
0.02167878;0.021482283
0.0091939075;0.009159952
-1.100188;1.0873122
0.05332374;0.05320163
-2.3758993;2.4068046
-1.2865809;1.320454
-0.76576465;0.8995502
-2.3194911;2.2487113
-0.00702877;-0.007034196
-1.3070637;1.304153
1.2891566;-1.3000538
9.276157;-9.285912
0.04384232;0.043945666
0.050118793;0.050138954
-0.37023237;0.31396797
0.02972347;0.02972827
-0.0026322985;-0.0025854409
1.2819574;-1.3405731
1.7463348;-1.677178
0.00926902;0.008870159
0.038179856;0.03775005
-1.255269;1.3196746
5.689822;-5.5738707
1.2283446;-1.2532935
-0.078825064;-0.07863555
1.9994864;-2.1075726
1.2227108;-1.377662
1.4606348;-1.5882821
-0.016988693;-0.016774261
-0.8191074;0.91245985
1.9573909;-1.8283392
-0.013681398;-0.01353681
1.5966697;-1.4725147
-0.036322355;-0.036302593
-1.9780117;2.006994
-0.06889926;-0.06906754
1.2090932;-1.1803232
1.3715087;-1.2063801
1.0779607;-1.0798838
0.07430277;0.0741075
-1.586923;1.5351307
-0.00696064;-0.0069047734
-0.079049885;-0.07878965
0.75396377;-0.56922084
0.04865849;0.048573025
1.7916927;-1.7673961
0.8114318;-0.8094741
1.6266596;-1.6416988
-2.4262946;2.3855155
1.8027484;-1.7359316
-1.1542468;1.1047237
0.88656515;-0.9699605
-1.1625332;0.98804224
0.8254464;-0.8749741
1.3024017;-1.3603258
2.1225662;-1.9645109
-2.6361449;2.5051417
-1.8975203;1.9779481
0.69612795;-0.674259
2.222144;-2.3331013
-1.9626564;2.0412016
1.272536;-1.1491828
-1.9703075;1.9519576
1.3782004;-1.2269158
-1.9847006;1.9643055
0.041667767;0.041798934
-1.7325141;1.6716813
1.4313072;-1.4787582
0.015977005;0.015788332
-0.0629737;-0.06285359
1.2882444;-1.2354776
-1.0356656;1.1482961
0.6819154;-0.7321274
-0.47347733;0.51582235
-1.1196548;1.02956
-2.0650604;2.0375102
0.77762264;-0.7788556
0.96850127;-1.0891566
1.262385;-1.2892338
1.3802313;-1.4242618
2.411619;-2.5821955
0.95603687;-1.0003015
-1.6714114;1.5322567
-3.0823135;3.039579
-1.5464576;1.6746123
-1.6953095;1.7290275
0.0066061416;0.006306608
-2.4556813;2.4653237
-0.0031914052;-0.0033417658
-1.4421071;1.4642217
8.790808;-8.707962
-1.8248885;1.9484837
1.7647941;-1.7848296
-0.07976876;-0.079830475
-1.7453734;1.7016535
1.6451095;-1.6815729
1.7934788;-1.7309892
1.4321684;-1.4874557
-0.011114024;-0.009933077
1.9973434;-1.9694512
-0.05118089;-0.05137246
1.3910033;-1.3443608
1.9501878;-1.8028456
0.023081016;0.023111243
2.5203867;-2.626331
-0.6461541;0.7276653
-1.5523888;1.5791873
-1.559682;1.4874495
-1.1565242;1.2593193
1.2058498;-1.1873056
1.4507267;-1.5266038
0.037026323;0.03698398
-1.6225743;1.5931603
1.5442557;-1.4597025
-1.606208;1.6993736
-1.5607964;1.4611539
0.044506114;0.043736856
5.506332;-5.47758
1.422478;-1.377477
0.052102946;0.052407462
1.5491729;-1.4316673
-1.8108717;1.7462019
-1.5809984;1.6944174
-0.9641433;1.02195
0.0447321;0.044383056
-0.7533071;0.81551534
1.747703;-1.6999954
1.4398433;-1.343299
1.8484076;-1.7841133
5.208343;-5.29025
-0.93174946;0.90603495
1.2254379;-1.1541674
0.074778445;0.07460131
-0.070409134;-0.07056915
0.035387814;0.035160713
2.2636178;-2.346214
1.3446125;-1.4940269
-0.0015467773;-0.0016081105
1.3999926;-1.387994
0.08549643;0.0855272
1.0271719;-1.13256
-2.8894956;2.8940911
0.02655285;0.026638169
1.763095;-1.7406734
1.0651829;-0.9426053
1.7643216;-1.7063724
0.045735374;0.045592498
-2.6276696;2.7286563
1.6777964;-1.6464382
-2.2950025;2.1707764
0.8177342;-0.70567346
1.4732744;-1.4680654
0.75370955;-0.6882205
-2.0001938;2.0838342
2.0201015;-1.9548008
0.8295539;-0.92687434
-2.4897158;2.52007
-0.389055;0.53975344
0.680685;-0.5691443
1.4113786;-1.319457
-1.1884989;1.0820266
-2.1633782;2.095442
1.5370919;-1.4997249
1.4810107;-1.4745362
1.4923576;-1.3523537
0.87642825;-1.0684028
-0.024266785;-0.024370607
0.002186849;0.0018573857
0.022398403;0.022341432
-2.1227078;1.9789366
0.92705226;-1.0761266
-2.2141287;2.2677162
-1.6657307;1.7976062
1.0731639;-1.0549769
2.585931;-2.6846611
-2.2093396;2.225547
0.0451819;0.045015033
1.6132292;-1.7518296
1.654693;-1.6135337
-2.3776999;2.365282
1.5391423;-1.7253019
1.3724266;-1.4955369
-0.006468516;-0.0063406467
0.71710306;-0.7580284
-2.5233438;2.4866214
2.5413718;-2.538064
1.2032546;-1.1043147
1.0020773;-0.91615534
1.9276319;-1.8782854
-0.5550416;0.68140495
-0.057650633;-0.057902995
-1.6182358;1.5191288
-1.1709046;1.1365185
-1.3014226;1.2470845
1.3901154;-1.4053023
-3.4171166;3.3766937
-0.073982775;-0.07396403
1.1074326;-1.1489897
-1.7635309;1.7502598
-0.93874043;0.82101303
2.3700805;-2.4941893
0.01517038;0.015025495
4.720815;-4.8062286
1.5248169;-1.4870462
-0.012332351;-0.01230901
1.600754;-1.6032122
1.9995053;-1.9634256
0.037649076;0.03749508
-0.49481055;0.37409273
0.6653095;-0.7773187
0.7654593;-0.7436819
5.4637737;-5.4402404
-0.088865295;-0.088827245
1.2635754;-1.2517542
-1.8463254;1.8793871
-0.009455911;-0.009370948
-0.0028082118;-0.0029217836
0.037462946;0.03733182
0.0035809174;0.001124146
1.0469527;-1.1502895
1.5789139;-1.5887768
-1.8085719;1.7595738
-0.59219736;0.58391386
1.166789;-1.0196488
1.3447868;-1.3926343
1.6386788;-1.5311838
1.1630256;-1.1834279
0.05324805;0.05309425
0.053146757;0.053289115
1.7104528;-1.7562141
0.4608088;-0.41142458
0.041932255;0.04203249
-0.003426765;-0.0021702086
0.004852415;0.004784613
1.8039926;-1.8029883
0.68082803;-0.68283904
-1.6012714;1.6086388
-1.0895362;1.1354678
-1.3651432;1.3795203
0.030744223;0.030229213
1.2115964;-1.3928419
0.041397642;0.04164102
1.7874587;-1.7216436
-1.5741668;1.5162024
-0.5720719;0.620017
-1.9598631;2.021377
-2.819694;2.7774804
1.9886725;-1.8359058
1.3066167;-1.2989908
2.0670938;-2.2114627
1.3876901;-1.3926117
0.03615531;0.035769463
-0.0693694;-0.06957517
1.0556378;-1.0769712
8.097368;-8.132461
-0.028558206;-0.028598491
1.607768;-1.7341619
2.0217109;-1.9684817
1.4133767;-1.3853616
-0.72826344;0.58006036
0.0034918229;0.00303525
2.1223264;-2.0402608
1.5730101;-1.6163448
1.0371233;-1.1182044
-0.05064132;-0.05083395
-2.3757179;2.307251
0.0087565975;0.0085884305
1.4912889;-1.5553364
2.049227;-2.0479755
0.96144223;-0.9746364
-0.7818376;0.7469448
-0.8646904;0.79505193
-0.05126928;-0.051459733
0.9117217;-0.99377495
0.8105479;-0.7812258
-0.6192013;0.512502
0.06665281;0.06646032
0.06449545;0.06453798
1.8473827;-1.7627087
1.0135711;-1.0695771
-0.03492955;-0.035079308
1.8019776;-1.8920552
-0.015915137;-0.015908672
-0.06375034;-0.06387686
0.07602923;0.07596404
-0.09622946;-0.096382946
0.03319088;0.032872707
-1.8159167;1.8027213
-0.06870338;-0.06901893
1.044484;-1.0897466
1.7782171;-1.7375501
1.7886082;-1.6852509
-3.033288;2.9777472
-0.039456394;-0.040174827
-1.4282238;1.5256546
-0.0060424656;-0.006296585
-2.3710115;2.4502354
1.1288098;-1.1613771
0.9642803;-0.8621499
-1.4128635;1.447041
3.264181;-3.2247312
1.8028959;-1.7951247
0.045926843;0.04560217
0.0034522936;0.0034901465
1.3537261;-1.3968682
-0.79150796;0.7858037
0.86864924;-0.8492328
-0.028033867;-0.028163368
1.4923191;-1.4075812
-0.44913855;0.5876937
1.5973465;-1.6890265
-1.9810619;1.9515876
0.3239493;-0.40680465
11.728787;-11.665539
0.009223805;0.009364992
1.7638526;-1.679875
-2.0431063;1.9520141
2.8644567;-2.815258
0.5949093;-0.5553296
-2.430515;2.2665272
1.4973834;-1.4593908
-1.0078958;1.083473
1.453108;-1.5600904
0.0042873234;0.0043181935
0.012268021;0.012209196
0.014062903;0.014398758
2.1510823;-2.07267
-0.7871075;0.75341934
-0.022825416;-0.022813715
-2.077466;2.0719776
2.1214054;-2.2326612
-1.9095136;2.012317
-1.8573091;2.027166
-2.1474054;2.0672657
1.9769372;-1.8137417
0.52966803;-0.5529714
1.3648452;-1.3368541
1.0628109;-1.1449001
-1.7020011;1.5893286
-1.9012938;1.8024381
2.2084064;-2.3418713
1.2301134;-1.3298523
1.5622761;-1.5257523
1.1661665;-1.1848198
0.054030612;0.054051828
-0.026519772;-0.026686944
-1.1369305;1.1376692
-2.5774117;2.519567
0.76812303;-0.88191205
-0.008125734;-0.008084003
-0.031536635;-0.0314616
-0.02523174;-0.025392285
-0.016295657;-0.01684862
2.135391;-2.2477238
0.7138622;-0.7311042
-1.1738695;1.2351879
0.0037630808;0.003723849
1.5907114;-1.5522112
-0.005734143;-0.0050612288
2.5289378;-2.5552752
-1.380322;1.360789
0.75323385;-0.7031781
0.015726022;0.015552613
1.7819252;-1.5869733
-1.0021794;1.0012964
1.6867903;-1.840284
-0.040102378;-0.04014542
0.84987473;-0.7016238
1.0957073;-1.0773085
1.4476649;-1.3732253
1.0373691;-1.0004078
-0.887847;0.96656036
1.3230469;-1.2641432
1.5697639;-1.5705308
1.621144;-1.7011722
0.04092724;0.041147206
-1.4305866;1.312067
1.036808;-0.95120955
-1.9905112;1.9956744
-2.4389179;2.3823845
-0.9954369;0.88920426
2.1472967;-2.1841717
14.165101;-14.067903
1.0611347;-0.9429293
-2.334091;2.3207746
0.70144516;-0.5417127
-2.081053;1.8933046
1.8086991;-1.6291294
-1.6681373;1.5672833
0.039332885;0.039037734
8.550224;-8.630954
-1.4068072;1.3579087
-0.011594631;-0.011560521
0.040950123;0.04054826
1.784061;-1.8048675
0.76618296;-0.668557
0.82068443;-0.7455177
1.8690239;-1.7660902
0.01464997;0.014901967
-0.03087922;-0.030616825
1.5418631;-1.4302164
-0.009455011;-0.00949048
0.056759197;0.056549836
1.8947146;-1.7549689
-1.0440434;1.0664307
0.025809802;0.025832057
-2.2191622;2.3454082
0.027657416;0.026831532
0.06161611;0.06155021
-2.3918924;2.3061004
0.923473;-0.9083921
0.96500146;-0.92192537
1.286815;-1.2839208
0.9179337;-1.0870546
-0.06180246;-0.062018916
1.7422311;-1.708111
-0.017609801;-0.017556027
0.011780453;0.011913214
-0.34753186;0.5402502
0.7241488;-0.69616604
0.037305888;0.03673828
-1.3787202;1.3247359
1.3639574;-1.3447838
0.6956158;-0.65597993
-2.0880716;2.1581604
0.02948029;0.029177137
1.9230283;-1.8857858
1.1409103;-1.1649059
1.6505532;-1.5567268
-1.0215964;1.0622163
2.0582826;-1.9410024
-0.0019199351;-0.001968486
0.6043004;-0.54338986
-0.056554895;-0.056579206
0.071494676;0.071539275
-0.04230974;-0.041895162
-0.0013196605;-0.0010660242
1.2435052;-1.2247305
-0.8588963;0.78406805
-1.7651798;1.765603
-1.8433338;1.9167329
1.5059507;-1.4311007
-0.9711942;0.8433852
1.0389962;-1.0582467
1.215671;-1.3374352
-0.08784555;-0.087593384
1.5307013;-1.5268236
0.0014837055;0.0014394615
0.040620174;0.040707078
-2.2731664;2.2527537
1.3996645;-1.3936057
1.3416362;-1.3274035
-1.5183455;1.5617185
-0.067639925;-0.067369714
1.2104176;-1.3574046
-2.6993423;2.655507
-1.5076842;1.522569
-0.032497622;-0.032637395
-1.3230667;1.3663057
0.022379464;0.022283446
-0.0040976377;-0.004138178
2.5544558;-2.5548723
1.2110918;-1.0942745
-2.3999627;2.4739606
1.9406376;-2.0452092
-0.036188304;-0.036150023
-0.013246608;-0.013079177
2.1401622;-2.136069
-0.0014066087;-0.0014672193
-1.5184697;1.5487348
1.3383416;-1.281379
0.68433225;-0.8245781
-0.025182698;-0.025389723
1.5371683;-1.6738063
-0.00014153404;-0.00018708213
-2.5567026;2.6808515
0.93791246;-1.0003314
0.056357924;0.055975277
-0.04221896;-0.042184502
1.4561429;-1.5598854
1.6484916;-1.6918871
0.7962209;-0.97875345
0.0056745186;0.0058772936
-1.4526684;1.5509943
0.92278206;-1.0615525
-1.5718375;1.5479759
1.5268719;-1.4763844
5.2161975;-5.2804103
0.024119727;0.02402913
-0.059757125;-0.059938848
-2.1912959;2.0468867
-2.6714184;2.8102114
-1.6452081;1.6567547
-1.1112186;1.0146667
-0.09655597;-0.097029306
-2.9913595;2.8866692
0.9026378;-0.87814194
1.1929018;-1.2323678
1.445109;-1.3410416
-1.0402045;0.98091894
1.5016016;-1.5432291
-0.053808156;-0.054405805
-1.1362255;1.2100922
0.02456958;0.024293676
0.9579055;-1.0106304
1.372767;-1.2637277
1.1594477;-1.1534059
-0.063461;-0.06343272
-1.8330095;1.8980286
2.1665816;-2.1154013
-2.2008698;2.154613
-1.0910568;1.1771047
1.7570565;-1.7445338
1.8312277;-1.9258512
1.1797155;-1.1441964
1.7862612;-1.8262842
-0.04171697;-0.0414977
2.2166345;-2.1818292
0.9529445;-1.0379881
-0.91424716;0.92498195
0.02977841;0.029779013
0.04619688;0.04614214
-1.1054958;1.252714
2.1180208;-2.2214665
1.4843043;-1.4156177
-1.9882797;1.9638886
1.1716613;-1.1677809
-0.0062698987;-0.005931585
-1.0751947;1.1372291
Bias from hidden to output layer.
0.124436796;-0.124419466
