Weights from input to hidden layer.
0.50573885;1.0641234;0.43099475;0.39373887;0.45883086;-0.02464703;-0.40254578;0.0005831252;0.033435136;0.12047044;-0.40015098;-0.026874892;0.016160874;0.20431356;0.22771157;0.36393946;0.009864545;0.480904;0.009968053;-0.3337834;-0.6558542;1.0064975;-0.33883622;0.20107715;-0.003139281;-0.0071941013;0.30124843;-0.6246375;0.02103526;-0.019718057;-0.07441524;0.6061318;0.08012449;-0.051240817;-0.01242022;0.783892;-0.58063555;0.4052091;0.8032095;0.108981736;1.321255;0.039614793;-0.46909645;-0.41252708;0.28827274;0.50729054;-0.06008716;-0.23747657;0.03964056;0.035554763;0.06533834;0.017890202;0.89883924;-0.0947509;-0.06943821;0.018665794;-0.20700091;0.08021436;0.13580023;-0.991303;0.10543365;-0.2613797;-0.07393918;-0.6831158;0.9933833;0.4676315;0.3894441;-0.3201111;-0.027620412;0.65444803;-0.2130257;-0.82519954;-0.86393774;-0.39939782;0.9715657;0.06396894;-0.3117853;0.09623959;0.53965014;0.074291356;0.1017377;0.0077033476;0.54159254;0.5877453;0.048843455;-0.7494283;-0.23413174;0.04964361;-0.07357202;0.40897036;0.784563;0.41247645;0.009487027;0.0474673;0.0740209;0.34915033;0.030288028;0.003962127;0.7076317;0.07286666;-0.61578214;-0.050699346;0.024897449;0.3256218;0.30056623;-0.054415215;0.029454349;-0.003470843;0.023698537;-0.011479564;0.22103822;0.18367471;0.24818286;-0.04668129;-0.01087263;0.56772417;-0.5353906;-0.3654899;0.23708832;-0.31437352;0.881776;-0.018104019;-0.52050966;-0.24526267;-0.35579175;0.06873869;-0.27723;-0.7611401;0.7919475;0.07681472;-0.69587183;0.68335897;0.080383256;0.14117135;-0.053821865;0.20600143;0.28231126;-0.76591516;-0.75799286;-0.025300154;0.1691272;0.024260435;-0.61989707;0.4476497;-0.39312887;-0.032498807;-0.05143862;0.22958381;-0.06503601;-0.64305025;0.21155466;0.4156353;-0.15807728;0.141682;-0.08569866;-0.79066277;-0.038191266;-0.042678248;0.7196159;0.8528623;0.31119573;-0.43133554;-0.2143153;0.10180239;-0.25587952;0.112946585;0.12330331;0.2012816;-0.021621687;0.015006521;-0.038520202;-0.2336732;-0.06279461;0.055646416;-0.064118065;-0.12693547;0.34985945;0.617429;0.64993095;0.13082275;-0.24448767;0.54800963;0.008066216;0.28136495;0.10735099;-0.40542373;-0.023625825;0.8480726;-0.4798704;-0.66344434;0.006372817;-0.2355587;0.96318436;-0.73937434;-0.44550383;-0.16370983;0.063795276;-0.20073947;0.10315737;0.41024765;-0.045765463;-0.0026743738;-0.020033346;-0.03032919;0.0036859552;0.48404908;0.4321982;0.0019221304;0.7694576;0.021634066;0.51356024;0.6004662;-0.06045905;0.0031641636;-0.1776303;-0.14398067;0.46477616;0.7806055;0.32383248;0.5611189;0.008339101;-0.71590096;-0.31573164;0.6246138;-0.019429406;-0.22960742;-0.09360532;-0.04068891;0.048026327;-0.58514506;-0.002045713;-0.38166532;-0.023438497;-0.010788493;0.6125946;0.3482489;0.34425458;0.6236089;0.0035913459;-0.019180184;0.054847788;-0.013044052;0.04272651;-0.47139397;-0.046412926;-0.35462332;0.026280468;0.043035015;0.76909083;0.025454873;-0.40059614;0.036109522;0.68572253;0.5929812;-0.07028087;0.19426277;0.32751295;-0.02124152;0.3816882;-0.10282922;-1.0202986;-0.18020932;-0.6614383;0.48756456;0.08322613;0.12479095;-0.010972419;0.06561142;-0.514499;-0.06611955;-0.07595368;-0.00067372667;-0.57352906;-0.44302136;0.046080288;-0.038028874;0.24794903;0.0050753253;-0.37749848;-0.066231385;-0.0094782915;1.077349;0.28234386;-0.6438216;-0.07593453;0.66614705;-0.06898148;-0.62583375;0.67687476;0.05235271;-0.5273129;0.31088766;0.29558885;-0.33301398;0.045305762;0.3872974;-0.024205511;0.5261585;-0.2574804;-0.36914977;0.536085;-0.09092025;0.0452194;-0.071497284;-0.25858325;0.37188545;-0.29955855;0.02531169;0.90592456;0.1912588;-0.2968299;-0.47809842;-0.0965649;-0.49841183;0.65658426;-0.11174989;0.7178166;-0.042162124;-0.04233103;-0.2847373;0.11802381;-0.05418648;0.09042374;-0.35140672;-0.08904175;0.53783894;-0.10841944;0.8698711;-0.12443032;0.26350528;0.65268975;0.062399868;-0.066657394;0.24546029;-0.10726552;0.042424746;-0.86854565;-0.70700496;0.7296408;0.12170626;0.016757566;-0.33419263;-0.14718333;0.5754344;0.5171056;0.12711765;-0.084201664;-0.041234575;-0.21608609;-0.085603215;0.7372121;-0.37244081;0.068311475;0.62847096;-0.23936687;0.1795134;-0.4556253;-0.034148566;0.72499436;-0.39328766;0.086350925;-0.93057626;-0.0025303962;0.14482373;0.08364974;-0.22193614;-0.07299359;0.733331;-0.71372825;-0.29222912;0.044916518;-0.20728284;-0.07007993;-0.038472608;-0.05815085;-0.0047796234;0.03885151;0.010994527;0.053618725;-0.15351078;-0.094025664;-0.3709026;0.014308997;0.7818546;0.06864487;-0.1267692;0.2811298;0.3203902;0.31495896;0.5868752;-0.26729634;-0.84119564;0.62414783;-0.016146448;0.33865818;0.14167637;0.09821093;-0.62642056;-0.2928405;0.56265414;0.08038571;-0.035193242;0.42970866;0.02541697;-0.2556794;0.08253254;-0.1969067;0.105866484;-1.315009;-0.07824764;-0.06973034;-0.02472107;-0.1539964;0.08849874;0.7295594;-0.019210797;0.7636262;0.10217946;-0.600225;-0.012076819;-0.34598055;0.6595941;-0.4838719;-0.5663961;-0.059657224;0.014867984;0.073693134;-0.015272644;0.26846635;-0.60848784;-0.2532742;-0.077585764;-0.09526535;-0.06286727;-0.036827404;0.0058975755;0.28923386;-0.6491681;-0.3694565;0.11093112;0.020746531;0.98093307;-0.04134864;-0.26133323;-0.8061462;-0.26468083;0.006279672;-0.7387478;-0.02698668;-0.017019842;-0.03586971;-0.09115116;0.32937634;-0.3044844;0.087493576;-0.5034445;0.019431269;0.5732145;-0.21766724;-0.015261114;-0.010724879;0.030844547;-0.54930794;-0.3063832;-0.31343105;-0.3632087;-0.017215457;-0.6437102;-0.14308096;0.08927463;-0.5514382;0.6885263;0.0257562;0.15160084;0.12534063;0.018548388;-0.025218269;0.30131423;-0.5645329;-0.078497976;-0.51669276;0.9113905;0.053546704;-0.47061232;-0.56956154;0.055235665;0.21579145;-0.14302063;-0.052250344;-0.49069357;0.09382503;-0.36752728;-0.63688236;-0.21967521;-0.012352592;0.0487142;0.054291107;0.022505809;0.45710924;0.72525305;0.67564183;0.011901838;-0.0040168553;-0.054089032;0.15975769;-0.035538435;-0.47597122;-0.09191881;-0.14398976;-0.40437034;0.73397964;-0.2358034;0.25437653;0.9844931;0.5333156;-0.114518926;0.015748078;-0.339016;0.06785276;0.018779878;0.1425;-0.018071102;-0.06753994;-0.2969941;0.079159684;-0.2590629;-0.08383802;0.018256875;0.02402798;0.026142646;0.6804889;-0.47649583;0.2674855;0.15294504;-0.2783207;0.050181534;0.58410203;0.5518244;0.05279841;-0.5061783;0.8242048;0.87334263;0.07843271;0.6495511;0.017471462;-0.023501221;-0.8155769;-0.043650642;1.0605494;-0.090254694;0.50275886;-0.02791439;0.017966563;0.48216555;0.0017355675;-0.91858983;0.15918571;0.49635947;-0.052529506;0.019215016;0.010008427;-0.108999446;0.12763768;-0.5306408;-0.057983104;-0.19601034;0.013903494;0.19948159;-0.029999344;0.33596072;-0.35916242;-0.04360052;-0.06442881;0.19052146;0.24530569;-0.6471066
0.2062698;0.7574519;0.2524379;0.26619792;0.38489476;-0.010544345;-0.49077833;0.04465062;-0.27253532;0.00412526;-0.3335638;-0.0798087;0.03315936;0.36802086;0.09478874;0.077395566;0.079057254;0.32969815;0.038808387;-0.23829165;-0.6105326;0.72818935;-0.33683518;-0.033083327;0.17993201;0.16002189;0.122783884;-0.6483587;0.012674645;0.05499431;-0.09684491;0.6239899;0.22046226;-0.05466136;0.015738405;0.5694891;-0.4575236;0.18629286;0.7048053;0.108403996;1.0245134;-0.029273063;-0.14000505;-0.16474275;-0.009064798;0.36537704;0.039982762;-0.09059601;0.023336463;-0.14251184;-0.041077353;0.0028533477;0.6517475;0.05752456;-0.028549112;0.07311604;0.099428624;-0.041989505;0.026010767;-0.8372189;-0.026270328;0.015612497;0.057995643;-0.6107917;0.77720606;0.17940891;0.21137917;-0.44059238;0.028524792;0.36026505;-0.37376103;-0.92107207;-0.81378424;-0.13722777;0.74642277;0.20915693;-0.07211834;0.06634258;0.38519585;0.023185847;0.067381956;-0.012006925;0.33973482;0.48435825;-0.012944153;-0.53634655;-0.11850257;-0.034345202;-0.014909972;0.0936126;0.53526443;0.5310037;0.03999819;-0.10781101;-0.043242294;0.36811283;-0.059830673;0.02411749;0.6903671;-0.10507234;-0.6545986;0.035862263;-0.024622053;0.48003143;0.15975234;0.027257377;0.037728168;0.031570308;-0.09248032;0.015919043;0.4731016;0.43068835;0.10488319;-0.059155714;0.015739331;0.33211082;-0.467051;-0.20901735;0.16083917;-0.38842103;0.7150188;-0.0177429;-0.31085238;-0.034127574;-0.11478943;-0.0576293;-0.40318212;-0.79097784;0.5673293;-0.021875478;-0.72884274;0.34878302;0.08170517;0.4405492;-0.0001833708;0.14577754;0.37036312;-0.58280563;-0.8089618;0.13393396;0.027333131;-0.011735323;-0.6024392;0.25455493;-0.47102094;-0.0032016116;-0.0053707957;-0.05463465;0.084772065;-0.529458;-0.05070604;0.1594557;-0.13166413;-0.0017936289;0.13577902;-0.616466;0.026564632;-0.28185937;0.3190444;0.6402835;0.08498809;-0.43302798;0.14865354;0.10856263;-0.111101635;0.05080223;0.004264267;0.017259967;-0.074650474;0.0276492;-0.05699342;-0.030895673;0.046032023;-0.010856527;0.035846386;0.025681335;0.1732378;0.37804338;0.3318551;0.26625964;0.062806584;0.3564615;0.19517292;0.08275335;-0.03985273;-0.38365883;-0.061938245;0.68700343;-0.21923327;-0.5606008;0.12356253;-0.19963461;0.5847115;-0.66108924;-0.2493289;-0.08460467;0.01232482;-0.14454068;-0.014050997;0.10483594;0.15964231;-0.052204598;0.053054336;0.059001256;0.3830996;0.6202752;0.5539978;-0.018297423;0.55964535;0.03623524;0.30985433;0.4273786;-0.05895625;-0.03243731;-0.041540977;-0.14367436;0.25882226;0.64614964;0.4871025;0.21443741;-0.10886176;-0.64956224;-0.14771591;0.58717877;-0.020971678;-0.21504334;-0.00048370054;-0.0050023687;0.04643038;-0.56528014;-0.13130862;-0.2014087;-0.018827574;0.0015905628;0.58403295;0.26820362;0.089678906;0.3103211;-0.090886325;-0.107226126;-0.037208907;-0.10380777;0.20043616;-0.40757066;-0.057141688;-0.3194076;-0.14458197;0.16964102;0.46171877;-0.027361158;-0.21132791;0.033450294;0.45962104;0.5023067;-0.0127555095;0.19418009;0.21090281;-0.030181544;0.06680425;-0.004536353;-0.7828503;-0.16773432;-0.324975;0.25693166;-0.06701587;0.053173922;-0.009537089;0.040580206;-0.31225064;0.040262185;0.06440695;-0.044789083;-0.593682;-0.40468562;0.0151164355;0.2177472;-0.0005908625;-0.03845485;-0.36055458;-0.02540528;-0.099462785;0.77090526;0.48711932;-0.64951515;0.036090467;0.46336073;0.04733986;-0.5889836;0.35604414;0.08222191;-0.32640678;0.12266145;0.46163958;-0.120627;0.061018355;0.16068935;0.073646165;0.4163451;-0.05879714;-0.1654317;0.3481073;-0.06489214;0.0050752913;0.036467902;-0.38454747;0.16903299;-0.12490511;0.045027714;0.7429653;0.12414078;0.014969826;-0.309893;0.048960924;-0.2255473;0.4339058;-0.094931476;0.5845512;-0.07282592;0.07751623;-0.20412046;-0.067820355;0.026013684;0.27932033;-0.41383392;-0.013958033;0.32707104;-0.019097632;0.61523354;-0.16525939;0.07055873;0.38323957;-0.043839414;-0.09617111;0.2115656;0.019703152;0.02558651;-0.74750596;-0.57819706;0.46436107;0.21199636;-0.038369894;-0.17211206;0.10572404;0.33611467;0.30055702;-0.062283188;-0.06878917;-0.04605815;-0.36354944;-0.2770105;0.52413255;-0.26587594;-0.1760622;0.35994655;-0.4453532;0.06487652;-0.21416187;0.008012241;0.55812144;-0.2805199;0.12617895;-0.79863083;0.05845253;0.14784981;0.25261462;-0.31722805;0.013352301;0.5245615;-0.68859947;-0.13055481;0.10878282;0.03326505;-0.012846504;0.05278484;0.031159036;-0.060689367;0.028123602;-0.056833792;0.0035457115;-0.1641042;-0.017842095;-0.32905805;-0.029465867;0.6321216;-0.011809844;-0.059247304;0.14419572;0.18651915;0.32525572;0.292031;-0.07590079;-0.5536617;0.3488736;0.08908942;0.120127216;0.06130686;-0.031757824;-0.5550442;-0.100120634;0.41067156;0.3506347;0.091197416;0.30310607;-0.016587045;-0.25280416;0.10328143;-0.121972196;0.034508348;-1.2411366;0.06026693;-0.013243076;0.016358841;0.09555694;-0.039066844;0.4535321;-0.14038321;0.48513985;-0.059386663;-0.60399354;-0.056962855;-0.4411;0.5220444;-0.50444114;-0.3037685;0.03522788;-0.09417377;0.06176187;-0.07264818;0.18002176;-0.42159176;-0.386205;0.0999825;0.19953729;0.018283444;-0.038577344;0.018839482;0.45878366;-0.5591476;-0.22650535;-0.017245982;-0.11358474;0.6108402;0.029718239;-0.44737637;-0.6460321;-0.30335298;-0.007838854;-0.6649866;-0.07389336;-0.028978374;0.13563444;0.03669137;0.25129715;-0.07172018;-0.022734573;-0.2812539;-0.055307955;0.4990863;0.050886597;-0.10603816;0.036478236;-0.023481438;-0.34452;-0.11991116;-0.14726228;-0.20319004;-0.020152984;-0.5588349;-0.044806015;0.028604714;-0.4675614;0.4942587;0.04374005;0.09122438;0.31693423;0.050135486;-0.06900216;0.3421642;-0.6154721;-0.023319852;-0.2720156;0.50437385;0.021321313;-0.27634823;-0.51997256;-0.006005821;0.4032981;-0.041850902;-0.04983703;-0.51538587;0.01019367;-0.25737572;-0.53937334;-0.1394642;-0.16522308;0.0438009;-0.21765925;-0.09766283;0.3817869;0.5376457;0.46243778;-0.06377127;-0.04147208;-0.074003406;0.0559217;-0.02392368;-0.49042842;0.056340043;-0.06647522;-0.37242973;0.7203744;0.019604718;0.35155597;0.64630824;0.53575116;0.16128229;-0.023916593;-0.14058241;-0.014762257;0.2891034;0.37957114;-0.02013957;-0.011251253;-0.36840004;-0.046118103;-0.11258189;0.035282202;0.028970504;0.031705897;-0.05799039;0.46370217;-0.4841382;0.4010831;-0.019016892;-0.34847274;-0.124196984;0.41879115;0.43959582;-0.04558255;-0.4714955;0.52222;0.6431608;-0.027296968;0.32440516;0.0010902248;0.006807273;-0.71508056;0.032734856;0.74988306;0.038998656;0.3284408;0.02511512;-0.086812824;0.21878822;-0.003361001;-0.918754;0.40628117;0.26609704;-0.0062604873;-0.025223613;0.27763405;-0.0020222615;0.27977234;-0.43887454;0.043090943;0.1100416;0.04715759;0.15717965;-0.09616883;0.1432427;-0.13973708;0.05597562;-0.098325975;0.11355421;0.113909066;-0.49820608
0.21815355;0.6777318;0.1052885;0.2671345;0.34563074;0.08454081;-0.34743154;0.051517367;-0.28467318;0.015760176;-0.21966492;-0.038974352;0.008442203;0.3046343;-0.03576053;0.15965669;-0.056495193;0.14442661;-0.09352776;-0.13995901;-0.50897586;0.7045521;-0.22138955;-0.022101264;0.21038751;0.12675662;0.12471165;-0.53449833;-0.021229198;0.03409907;-0.029738799;0.32681176;0.32880494;-0.0059764343;0.019599188;0.34681934;-0.43811387;0.15439035;0.6233487;-0.007972326;0.7836321;-0.04537009;-0.115499794;-0.13094912;-0.08876542;0.24891151;-0.03594861;-0.119989894;0.0032364242;-0.12847096;0.0020703138;-0.0085852;0.6042573;0.14541626;-0.004721462;-0.050343532;0.24631542;-0.018312007;0.11157424;-0.7391047;-0.018067958;-0.024741856;-0.013774165;-0.47239757;0.6780337;0.040039495;0.1901209;-0.3642927;0.0033557625;0.28566855;-0.24657643;-0.6439324;-0.77216536;-0.13183899;0.60914546;0.3109762;-0.09396146;0.030668067;0.24422131;-0.024494598;-0.049211364;-0.009279145;0.31680155;0.3887672;-0.11334508;-0.49205455;-0.16970502;0.034236807;-0.021638531;0.10208672;0.50884247;0.37875265;0.0075130914;0.056768738;-0.023201186;0.28307796;-0.017689401;0.04848656;0.6197476;-0.06634287;-0.42033336;-0.07757324;-0.023775034;0.34735066;0.021409987;0.026026394;0.11045247;-0.0030037654;0.01791352;0.068465404;0.51197857;0.4898693;0.040493872;-0.13932644;0.06617164;0.23089914;-0.33721447;0.023516864;0.09072071;-0.26227003;0.6765778;-0.031003196;-0.2681003;0.031193903;0.07434405;0.041700285;-0.42227557;-0.63366777;0.43352738;0.06119474;-0.56469923;0.36169383;0.030975122;0.35253704;0.027133618;0.05016862;0.25988024;-0.43519786;-0.64753294;0.34035814;-0.052718215;-0.05229183;-0.5224225;0.1677227;-0.45618224;-0.050550606;-0.05689148;-0.01893569;-0.056459215;-0.37752435;-0.14825149;0.090323344;-0.021154163;-0.05044163;0.0747945;-0.49584097;0.014233167;-0.21678324;0.25593072;0.2962111;0.13560984;-0.22176622;0.21403992;0.11175171;0.06756351;-0.05146542;-0.019065864;-0.13780016;-0.11758303;-0.043094892;-0.054509897;-0.08309442;-0.004829872;0.0059885886;0.016041655;0.090295225;0.09874663;0.2275959;0.34797215;0.38120237;-0.019829104;0.31840178;0.14207208;0.11396503;0.05094509;-0.29539058;-0.01957178;0.6968139;-0.24503109;-0.38102406;0.08503049;-0.3128016;0.6167254;-0.5354807;-0.037821107;-0.08979901;0.05712305;0.004629152;0.083979115;0.1364532;0.21070527;0.03622626;-0.021244816;-0.05821405;0.38039345;0.68666434;0.5260396;-0.17641804;0.5246979;-0.036601003;0.29298532;0.19359279;0.05078888;-0.023410007;0.18215679;-0.20083717;0.16190378;0.6082269;0.55691534;0.19029742;0.050625324;-0.5563436;-0.13606538;0.40579566;0.027867528;-0.20001532;0.21969216;-0.017035255;-0.054796685;-0.36894646;-0.025316851;0.01705243;0.013188823;-0.02449172;0.5459443;0.21026951;0.06596131;0.18912229;0.0453121;-0.08975095;-0.1298319;-0.056136373;0.17434616;-0.37404963;0.016417943;-0.23200952;-0.34460998;0.20960265;0.35718858;-0.023255624;-0.23943014;-0.012971816;0.42392436;0.33489174;0.06776639;-0.05359172;0.08473623;-0.04545765;0.11056789;0.08081647;-0.62377965;-0.053690452;-0.29522425;0.14084359;0.032640982;-0.15128653;0.014626257;-0.009831076;-0.36762956;-0.05439181;-0.0028182024;-0.02315313;-0.59548455;-0.2832662;0.04316687;0.18527757;0.06390793;0.035997193;-0.29832232;0.014513451;-0.03008182;0.6131591;0.50131005;-0.57004446;-0.006188209;0.28388995;0.025812035;-0.59545964;0.2851126;0.019829772;-0.32480174;0.044048507;0.5538455;-0.12108468;-0.046595883;0.2031117;0.12961946;0.339156;0.0018807853;-0.27484062;0.36056507;0.06776651;-0.025765818;0.026313063;-0.23018008;0.23456849;0.011234804;-0.04732772;0.63173765;0.099825755;-0.07055371;-0.1003855;0.055289563;-0.122357406;0.38327238;-0.18321015;0.40762952;0.038658388;-0.03969536;-0.22840771;-0.08144434;-0.02110252;0.3367184;-0.35339266;-0.0079543125;0.22382851;0.07206984;0.4917751;-0.14166445;-0.09888482;0.29059312;-0.013026411;0.020078506;-0.0010788398;-0.072447464;0.070022985;-0.7509514;-0.558279;0.49404204;0.119404875;0.060538795;-0.0043767164;0.14497653;0.2721405;0.2732256;-0.0069443975;-0.012384222;-0.05068811;-0.29218745;-0.18911156;0.3306383;-0.29439175;-0.10485371;0.33641326;-0.35474676;0.16457018;0.0244795;0.05546411;0.33850166;-0.18286629;0.23793502;-0.66648984;-0.04474751;0.23239064;0.18528612;-0.31821755;0.028244885;0.29098323;-0.47911978;-0.035821833;0.01757003;0.11870444;-0.004047918;0.054510154;0.01521745;-0.0020498927;-0.01601155;0.069460966;0.031469755;-0.034166995;-0.024009535;-0.36984143;0.00481574;0.5086751;0.014198714;-0.00894783;0.19471367;0.04423873;0.24078514;0.34063482;0.025583068;-0.521102;0.258029;-0.041567333;0.002062633;-0.00038604447;-0.01464859;-0.46076316;-0.09151312;0.23268276;0.43574554;0.006637575;0.18491614;0.004634322;-0.148038;0.13092442;-0.04369809;-0.054347496;-0.94143015;0.010913414;0.041733306;0.0684053;0.13810672;-0.03621023;0.28272858;-0.18982823;0.3970362;0.029997228;-0.40754604;-0.018895552;-0.4354761;0.37237063;-0.2524642;-0.3203866;0.19391845;-0.005159227;0.029127065;-0.12792999;0.036067553;-0.47278348;-0.34780136;0.11630408;0.24653281;-0.06713472;0.02052314;-0.013487021;0.5606938;-0.47743648;-0.06944512;0.00046913957;0.01070617;0.66970396;0.056357868;-0.40823567;-0.538104;-0.20911656;0.021146556;-0.51246965;0.021415552;0.030997327;0.1081043;-0.051407244;0.049668673;-0.02091978;-0.011734415;-0.2795137;0.040383995;0.44187889;0.14115323;0.052140713;-0.02994504;0.0017651829;-0.22894412;-0.07906388;-0.16550702;-0.08650502;0.029699448;-0.532891;-0.031195557;-0.07282544;-0.5145;0.24016806;-0.039414376;0.19175778;0.34476632;-0.060029794;-0.05818517;0.3263127;-0.42159477;0.06704323;-0.11192373;0.44186032;0.08965971;-0.25977013;-0.3618807;-0.020434251;0.25088066;0.04683857;0.04279589;-0.41739744;-0.014074753;-0.28902498;-0.45218173;0.0625201;-0.16210848;0.03154156;-0.16867156;-0.006526083;0.23942123;0.5922298;0.39595184;0.044350997;0.003245236;0.045021906;0.041663356;-0.033734825;-0.32969207;-0.010652965;-0.16842592;-0.40271392;0.64400125;0.02658971;0.24390785;0.4383826;0.38920665;0.02239937;-0.008719743;-0.108900346;0.01401303;0.17525995;0.38317895;-0.06387824;0.03292507;-0.32174838;0.0502823;0.012507067;-0.047351126;-0.020007567;-0.12947169;-0.05996143;0.46386427;-0.43953648;0.47711065;-0.015971363;-0.4061767;0.047059968;0.16938475;0.47781524;-0.07765069;-0.42945373;0.381978;0.58720136;0.023495894;0.27636588;0.030344317;-0.06513737;-0.48442802;-0.031869672;0.6655765;-0.012280008;0.33415693;-0.014468163;0.055293407;0.1942359;-0.03859037;-0.8163669;0.42130813;0.2284503;0.041358344;-0.05629485;0.279732;-0.028498743;0.28728753;-0.3284779;-0.009201832;0.30751383;-0.06800496;0.07533096;-0.21865755;0.18944103;-0.32905936;0.04059586;-0.10426333;0.040034086;0.14175463;-0.17354551
0.1883889;0.66182566;0.07285291;0.16817085;0.14208458;0.0030772684;-0.18954802;-0.03761526;-0.27958414;-0.034097962;-0.24399096;-0.11526577;-0.052306116;0.27570227;0.026210316;0.14060722;-0.023105767;0.06770613;-0.078867696;-0.1564942;-0.4157104;0.59404546;-0.020612478;-0.02091082;0.32137167;0.25406083;-0.05775089;-0.4227774;0.0017314511;-0.006864693;-0.043134075;0.2729691;0.22197281;0.07256174;-0.029024554;0.29324013;-0.19479516;0.16124342;0.5674904;-0.02512452;0.51278746;-0.035691198;-0.004170382;-0.10662005;-0.07918858;0.217467;0.0065884497;-0.03517694;-0.02657964;-0.1255739;0.10540098;-0.046536263;0.35894442;0.06637832;0.04602906;-0.009922431;0.37145743;-0.045998573;0.13107036;-0.35811844;-0.11295437;-0.0033175154;0.0672827;-0.27359578;0.67249507;0.047838606;0.16099748;-0.20514452;0.033306193;0.36656386;-0.20394905;-0.55640906;-0.5984272;-0.03419096;0.5305546;0.28121856;0.05056288;-0.05727625;0.1772362;-0.0028558713;-0.041099805;-0.0018759652;0.20148765;0.45616683;-0.0014589971;-0.51256776;-0.13886045;-0.029007314;0.09271404;-0.033671133;0.5025196;0.3115614;-0.042155318;-0.09962142;-0.02923553;0.19944175;0.06959752;0.061005846;0.46953046;-0.10573524;-0.44796076;-0.06310146;-0.00076633773;0.38902897;0.093641706;-0.004770587;-0.015561952;-0.027691726;0.053395994;-0.045958757;0.6353598;0.58803463;0.038732175;-0.008229297;-0.04413395;0.11345294;-0.29842123;-0.06887244;0.061684392;-0.12749738;0.40544164;-0.0016898423;-0.16252087;-0.038399544;0.10041;-0.03798939;-0.36194012;-0.511489;0.34872597;0.014309515;-0.33809775;0.24299176;-0.039088424;0.29601726;0.012630749;0.01707676;0.26083523;-0.3004368;-0.5177438;0.3352396;-0.1633813;-0.024589315;-0.3435665;0.22092173;-0.3605702;0.061519515;0.0599432;-0.08421078;0.044387866;-0.34338927;-0.0728696;0.09815702;-0.018550714;0.06320715;0.1974906;-0.2559904;0.016368028;-0.09244853;0.19778138;0.2076079;0.17303972;-0.29094198;0.3271837;0.032907307;0.15881172;-0.031906635;0.026781093;-0.19480854;-0.14835271;-0.0018861352;0.054807633;-0.03781136;-0.07016215;0.011726886;0.010629819;0.13402042;0.10638088;0.1928499;0.27022755;0.31915113;0.0016711168;0.23036593;0.14866577;0.022096599;-0.024388859;-0.27195516;0.045760274;0.61891896;-0.20786917;-0.218897;0.022723867;-0.19294849;0.44654673;-0.27794182;-0.11966698;-0.007848131;-0.024377577;-0.034287393;0.12075717;0.15832974;0.16842331;-0.021078223;-0.001608901;0.045808475;0.5419856;0.66496944;0.39456433;-0.08244171;0.46960717;0.013120522;0.1794016;0.23702577;0.06154169;0.04995396;0.245678;-0.258434;0.14517666;0.5563532;0.6227953;0.09101287;-0.020120041;-0.3639415;-0.17661099;0.27014938;-0.07328883;-0.10875185;0.2830288;0.09354564;0.022786101;-0.13380036;-0.10039941;0.020145118;-0.017055312;-0.008096221;0.5012452;0.31694832;0.14466615;0.21862067;0.020838538;0.027822718;-0.16350146;0.030982878;0.23354849;-0.5606884;0.02595588;-0.0016828277;-0.639089;0.15266939;0.16374709;-0.0001983634;-0.12567654;-0.017077165;0.29856643;0.42818582;-0.02670409;-0.15394752;-0.031919878;0.04568527;0.08719456;-0.07396761;-0.47032583;0.08146094;-0.2289603;0.13784757;0.016560521;-0.09267793;0.053092312;-0.03811363;-0.42549026;0.035413507;-0.015993347;0.034882307;-0.70346665;-0.36891374;-0.0628725;0.17325637;-0.011949625;-0.013133492;-0.3188075;0.027268065;0.0310931;0.42827663;0.4419461;-0.53147346;0.04355757;0.20023449;0.025551574;-0.45670697;0.23209755;-0.05401753;-0.23638663;-0.031419452;0.5964152;-0.0052723093;-0.0065964195;0.073463015;0.08393303;0.2778134;-0.1141605;-0.1426306;0.27228436;0.08418753;0.0028194846;0.005646102;-0.14886908;0.14440756;0.16101941;-0.043113302;0.48264232;0.095624015;0.010760556;-0.018397454;-0.005752595;-0.17158999;0.34127071;-0.01962223;0.49119803;0.065769024;-0.049387187;-0.15134746;-0.10810002;0.04699631;0.35004002;-0.2775474;0.06555648;0.054574404;-0.06743933;0.54901433;-0.14614412;-0.13929498;0.24692433;-0.042237446;0.067896254;-0.081356406;-0.1202746;-0.08888749;-0.48874855;-0.3929472;0.25318837;0.13355175;0.015347373;0.05439249;0.06051358;0.25854406;0.17881808;-0.03463602;0.037436876;0.0563754;-0.26914272;-0.14135815;0.22489326;-0.30738148;-0.17319313;0.12974477;-0.221518;0.13249433;-0.04033691;-0.018960718;0.16817781;-0.20337048;0.093306765;-0.50448537;0.037327252;0.21416979;0.24614604;-0.17207892;-0.049395714;0.2233067;-0.39480224;-0.09142299;0.095734395;0.16594842;0.050996136;0.029287085;0.0011797865;0.03694463;0.05390656;0.06185585;0.023755237;-0.050342165;-0.021429004;-0.3026265;-0.060761947;0.49858207;0.0035625554;-0.03432416;0.2944437;0.030789437;0.07017636;0.3270226;-0.02396197;-0.50209844;0.17452018;-0.010722575;-0.042755276;-0.049642865;-0.06413329;-0.28212357;0.06160919;0.21817069;0.33636528;0.022352219;0.0243534;0.049323298;-0.27492562;-0.014744255;0.016011352;-0.07747599;-0.68686473;0.0017818004;0.044225723;-0.03602843;0.10301066;0.026973438;0.2013091;-0.16818249;0.28981015;0.015876;-0.4119766;0.053564906;-0.3244478;0.344691;-0.2533474;-0.23863934;0.13799176;-0.00064177916;-0.09111874;-0.17184022;0.08486431;-0.4286534;-0.12863389;-0.00969514;0.46644107;0.04296743;-0.020081952;-0.06806561;0.49199894;-0.2439996;-0.16558808;-0.03616451;0.00842127;0.578699;-0.005680401;-0.41877633;-0.310336;-0.10664087;-0.004225462;-0.42594385;-0.010131834;0.12057966;0.15346566;0.02867443;0.013019206;-0.13714299;-0.05621486;-0.30980256;-0.017945364;0.2766035;0.22238967;-0.029931461;-0.024659896;0.031305622;-0.13075253;-0.0103660785;-0.1301149;0.093863554;0.028478669;-0.31514952;-0.31127104;-0.13314113;-0.3681409;0.22981893;0.033528227;0.15172754;0.21729386;0.079892516;0.0103448015;0.431265;-0.32094452;0.045030147;0.01352151;0.35009876;0.06602184;-0.2760065;-0.30619466;-0.02152709;0.3406855;0.09352988;0.05306279;-0.07337664;-0.012004415;-0.22055383;-0.5071483;0.18429294;-0.044542946;-0.0828622;-0.21477993;0.016464317;0.28844324;0.44115752;0.30466953;-0.006364842;0.061958004;0.017939892;0.052459672;0.04856295;-0.4112923;0.0144952545;-0.14433011;-0.085271865;0.49749178;0.20580272;-0.013249621;0.36016637;0.33317685;0.021965858;-0.017636012;0.022076039;0.009110493;0.17456684;0.40045065;0.037494123;-0.023001704;-0.26178473;-0.032832;0.01579948;0.04285648;-0.0043254932;0.020039922;0.041646253;0.30844632;-0.2870633;0.45069355;-0.070319146;-0.5505249;0.0009104751;0.122025095;0.40811324;-0.03671773;-0.30810124;0.2854223;0.24003556;0.04673771;0.24477053;-0.03923763;0.037054066;-0.42035186;-0.0008047722;0.48631474;0.01688778;0.30391365;0.010768873;0.0006792689;0.13770859;0.07133333;-0.7115322;0.33647954;0.14969167;-0.03949979;0.01424456;0.2470343;-0.092871934;0.42599225;-0.25502884;0.05299284;0.3826759;-0.03370176;0.26950336;-0.12086993;0.16812058;-0.35119787;-0.030820722;-0.07921809;0.06787267;0.16668169;-0.22555411
0.22622375;0.5128723;-0.06578661;0.18783851;0.13948771;0.004142306;-0.061325584;0.013898554;-0.30254206;-0.087389864;-0.1809949;-0.04779732;-0.017298486;0.23372553;0.12457822;0.023001915;0.0031379336;0.13357364;0.066319376;-0.06111244;-0.36980483;0.4454322;-0.06043183;-0.13025954;0.34514233;0.13607624;0.08024657;-0.323848;0.024039367;-0.043144923;0.011096076;0.14317933;0.16750686;0.023748416;-0.02717415;0.23668082;-0.124486275;0.15173337;0.42162058;0.041903425;0.44278407;0.078896716;0.08786917;-0.17933065;-0.10423034;0.21420242;-0.02236463;0.054898877;0.07060783;-0.12988994;0.119574286;-0.006775768;0.31972402;0.17613538;0.06748406;-0.05264284;0.41727602;0.032950215;0.21495485;-0.29805696;-0.03352276;0.050159965;-0.043460745;-0.08882384;0.61610556;-0.102602616;0.040275864;-0.12536028;-0.051953737;0.20607965;-0.10597632;-0.46058452;-0.53614146;0.11126266;0.38012022;0.3083418;0.1638473;0.11551895;0.115136445;-0.08153684;-0.06917617;0.04728306;0.18570487;0.46810532;0.04797354;-0.4217794;-0.20849308;-0.0057647196;0.004318157;0.033720404;0.38509345;0.26295906;-0.03759864;-0.007825234;-0.031061748;0.30907357;0.02637317;0.034476656;0.3855204;-0.015811358;-0.44980636;0.034539163;0.017278707;0.42139736;0.18013388;-0.030094149;0.07222327;-0.044419553;1.3704104e-05;-0.059957933;0.5820571;0.6230444;0.02243191;-0.07768501;0.027261214;-0.0008457197;-0.14839475;0.03841462;0.023687737;-0.1463128;0.19944459;0.023973987;-0.025002161;0.047839113;0.052206833;0.033911154;-0.2610771;-0.42366096;0.33053774;-0.10381555;-0.18420383;0.22998749;-0.109903224;0.3396796;0.05361138;-0.07470003;0.15344915;-0.038997732;-0.44559935;0.43114063;-0.14441705;0.078333415;-0.24546655;0.097379535;-0.3581502;-0.014605152;0.03356076;-0.023605999;0.010147407;-0.20778945;-0.18613504;0.013457475;0.13686265;-0.08784684;0.24635202;-0.15779418;-0.05218145;-0.118712105;0.096566536;0.07161807;0.044498418;-0.4664639;0.34743252;0.027122239;0.07719701;-0.020126171;0.09031322;-0.11136108;-0.09489329;-0.046389412;0.0488853;-0.043714788;0.05522316;-0.009081287;-0.0064329104;0.13377348;-0.02596326;0.24804153;0.16162132;0.3149481;0.053117078;0.13823077;0.21386631;0.008203857;-0.08490969;-0.24505588;0.061173093;0.7012814;-0.1496013;-0.18247528;-0.01828656;-0.07638079;0.34593087;-0.2799048;0.12966229;-0.018011525;-0.08476436;-0.006761596;0.020737229;0.040349994;0.27295706;0.016717307;-0.017374704;-0.03486925;0.48317748;0.7385389;0.26339403;-0.16497508;0.4745749;-0.00045322298;0.12986363;0.030364644;0.03917574;-0.018137282;0.209871;-0.23251799;0.21278617;0.36788544;0.49896556;0.048487913;-0.015648536;-0.18360241;-0.025934469;0.25652644;0.04123687;-0.20826918;0.1877496;-0.044192553;0.00080037036;-0.1107183;-0.00581512;0.004000333;0.043574817;0.048919637;0.41128543;0.21071285;0.0819119;0.15673278;-0.059106573;-0.08362477;-0.18758708;0.13370214;0.28622636;-0.54360646;0.07332243;-0.007936069;-0.5941039;0.25971547;0.17332146;0.03816538;-0.06372846;-0.04764722;0.29144305;0.40431598;0.047941726;-0.31292742;-0.023401435;0.058388323;0.10897577;-0.026223332;-0.39468744;0.12601557;-0.2591865;-0.018011216;0.02073478;-0.11585083;-0.06839709;-0.10444464;-0.31998286;0.032249354;6.9743976e-07;0.027439138;-0.6943281;-0.3322613;-0.07583363;0.097160205;0.09964971;0.057415076;-0.27795383;-0.033302795;-0.05107026;0.32749277;0.5192776;-0.37607476;0.016124653;0.25147477;-0.072619654;-0.40393808;0.07143725;-0.02056049;-0.23497641;-0.046136294;0.41392767;0.0052812216;-0.050187983;0.0032716535;0.20731328;0.20800677;-0.05948523;-0.05267156;0.32813308;-0.054162696;0.0006039272;-0.0026189012;-0.115698576;0.08824452;0.10390969;-0.01908684;0.34409216;0.06814447;0.12461683;-0.04628127;0.0038763562;-0.23629284;0.20108011;0.033737086;0.3109184;0.030398058;-0.057984482;-0.28802487;0.006635274;0.010488175;0.3743548;-0.26460066;-0.046764556;-0.06252083;0.08274956;0.4277943;-0.08614496;-0.2409202;0.11101424;0.06888965;-0.056340065;-0.10574264;-0.29541966;-0.003658324;-0.3666976;-0.34027585;0.2703584;0.09332045;-0.0453692;-0.0021576395;0.24551505;0.19432732;0.27450764;-0.06622738;0.068991885;0.0507412;-0.22687165;-0.04377948;0.2670709;-0.2912619;-0.02959997;0.086124666;-0.22724217;-0.026369901;0.032638315;-0.0058857626;0.11250299;-0.18952377;0.049520303;-0.38632804;-0.043144196;0.2496771;0.26694414;-0.14944544;-0.028713182;0.2055678;-0.32894915;-0.0783863;-0.018235661;0.199829;-0.015640637;0.046022344;0.05966878;0.0447535;-0.069060564;-0.0773162;-0.018802648;0.075696096;0.05808227;-0.31666863;0.060650576;0.37793645;-0.02501287;0.077474125;0.19780065;-0.00541826;0.0596164;0.26315096;0.16569927;-0.37436655;0.06374273;-0.038888026;-0.039851975;-0.11701466;-0.038274493;-0.34382161;0.07163947;0.2424901;0.4636255;-0.038261678;0.010309961;-0.083138905;-0.24574193;-0.11270367;0.04068875;0.015744746;-0.6483615;-0.053934444;0.049843337;0.022616643;0.119652;-0.0481063;0.20723373;-0.17972904;0.20767602;-0.04304755;-0.2676712;-0.030477345;-0.26886675;0.30958506;-0.15430358;-0.27237505;0.1596425;0.011508789;-0.059370685;-0.02144934;0.029665409;-0.5151147;-0.12930435;0.1284797;0.5095785;0.032300264;0.06266639;-0.10943992;0.5209931;-0.2137899;-0.023240969;-0.07178414;-0.07974093;0.63698524;0.0064812796;-0.24645388;-0.3447247;-0.18751901;0.049576752;-0.27916294;0.04200113;0.15712713;0.2741541;0.07598812;-0.013496059;-0.13129258;-0.018700402;-0.28561693;0.07431106;0.31187764;0.41923854;0.062451288;-0.03703955;-0.076044954;-0.061723974;-0.06378124;0.019672606;0.058309425;0.04097422;-0.3462149;-0.17197274;-0.11378682;-0.26274136;0.24147458;-0.023875881;0.15502226;0.22528262;-0.031548668;0.102174476;0.35141948;-0.15616044;-0.03071591;0.09742753;0.21882802;0.1754222;-0.30349684;-0.27155113;0.016504576;0.32625222;0.17703931;0.063873135;-0.21310578;-0.103717566;-0.14919183;-0.4991972;0.12232448;-0.20000999;-0.062237665;-0.25261772;-0.028076347;0.3244842;0.49337372;0.25934708;0.019639833;0.009931712;0.04630208;0.1507527;0.025579596;-0.3647742;-0.021972938;-0.1471376;-0.22921914;0.52754307;0.28949317;-0.022651594;0.32509083;0.31200397;0.015368286;0.028865216;-0.04325046;-0.09299857;0.19587098;0.42105523;0.06275461;0.05642718;-0.16930977;-0.01203588;0.03272389;0.018423103;0.0018878677;0.055385523;0.06305496;0.2845598;-0.28202674;0.52279305;-0.06921033;-0.48301327;0.012300461;0.041923895;0.37337124;0.04095289;-0.27431712;0.12117516;0.20984359;-0.03297947;0.26836267;-0.046643738;0.0315534;-0.29117858;-0.031639934;0.33012262;0.07868573;0.21159881;-0.017593013;-0.034871;0.07964059;-0.049770076;-0.56436753;0.4173569;0.17923501;0.064469524;0.08015194;0.30721182;-0.14533633;0.373803;-0.11055786;-0.06288948;0.5672743;0.046409577;0.038075697;-0.17456886;0.12678918;-0.3418558;0.041092128;0.04926852;0.10522306;0.18328856;-0.19815084
0.22480991;0.4183126;0.04151596;0.26580334;0.3208636;-0.012259219;0.06553917;-0.061873328;-0.18348053;-0.01009729;-0.14394161;0.041406438;0.03628836;0.143532;0.16106051;0.02564419;-0.07201029;0.17800526;0.052877944;-0.12574196;-0.19478564;0.36930984;0.03414318;-0.10943276;0.25649956;0.09980861;0.042625647;-0.14405443;-0.027043194;0.02574996;-0.10130078;0.04329644;0.18350798;-0.008573015;0.022146827;0.18070686;-0.21735235;0.21717544;0.37476116;0.17465393;0.28064886;-0.015094509;0.11479182;-0.10039706;-0.11948573;0.24320106;0.049313605;0.099685095;-0.08669783;-0.09904741;0.047689285;-0.05797994;0.15315357;0.20509882;0.033844028;-0.00040746617;0.2724134;0.023751125;0.19814382;-0.2772713;0.03757498;-0.013783438;0.052023347;0.005368128;0.6374128;-0.0715958;0.03030631;-0.025373505;-0.03637296;0.2961956;0.008891613;-0.38300616;-0.36959016;0.016548403;0.47648734;0.22103575;0.2444681;-0.05741888;0.04942585;0.021544587;-0.006505094;0.02678054;0.2737661;0.4504448;-0.054544907;-0.26767975;-0.12417282;-0.018610679;-0.00921595;-0.042159595;0.30605242;0.23913518;0.026984591;0.00750252;0.0046939785;0.2037768;-0.06721604;0.06976711;0.36962837;-0.10491207;-0.28400818;-0.062066644;0.021211876;0.2369794;0.13680404;0.043100595;-0.047774173;-0.027998028;0.02357653;0.042351034;0.5284925;0.47340634;0.026319018;-0.02939231;-0.06631545;0.029217206;-0.090213016;0.084498376;0.10159521;-0.1952464;0.17337139;-0.009134411;-0.094984524;-0.05858308;0.11326593;-0.059208106;-0.31327683;-0.30512553;0.2048317;0.002247079;-0.14033638;0.20648992;0.0049732514;0.21300629;0.03790218;-0.01020188;0.16569391;-0.051651265;-0.2924031;0.4406631;-0.21335262;-0.045372993;-0.180984;-0.010100197;-0.29314178;-0.0014259403;0.05423893;-0.124832764;-0.006605315;-0.06375676;-0.26549128;0.08358288;0.018479768;0.00043088244;0.35961676;0.057207927;0.025678067;-0.0644327;0.19440517;-0.14618623;0.06923025;-0.47148132;0.38287368;0.04214983;0.20281646;-0.0460128;0.024337871;-0.24639034;-0.11341218;0.02116485;0.024807712;0.038451355;-0.03454683;0.0038019964;0.01779489;0.09686737;0.078047924;0.22296579;0.24269584;0.38541886;0.097925276;0.22029725;0.1735055;0.14495173;0.03125242;-0.1703591;0.03352753;0.69090974;-0.21165144;-0.1988954;0.019436726;0.017770335;0.29978913;-0.15995859;0.1931889;-0.17128822;-0.0738728;0.18684669;0.17271759;0.099558435;0.13740976;-0.019983022;-0.06391693;0.04214514;0.4455879;0.6493878;0.27900484;-0.22319496;0.5750935;-0.044214647;0.17585893;0.08220044;-0.0040701213;0.019823013;0.35230106;-0.41632727;0.21252055;0.3944037;0.516844;0.14740112;0.09730186;-0.13282965;-0.046601973;0.15936248;-0.015705852;-0.1810974;0.20027892;0.030592162;-0.061169893;-0.096068986;0.029925043;0.028967073;0.009535972;0.037294652;0.44391114;0.34356272;0.043786082;0.05690689;-0.03266956;-0.2137279;-0.16078204;0.08630889;0.18084988;-0.45900896;0.07730301;0.07749312;-0.6290816;0.09624805;0.19661666;-0.06375294;0.0717385;-0.064794384;0.26389465;0.3202997;0.025528116;-0.33424848;-0.003947862;-0.009542002;0.0380845;0.02690894;-0.3467679;0.23600368;-0.11853067;-0.04794347;-0.069812685;-0.23112573;0.05636217;-0.036617503;-0.45728433;0.037294723;-0.016846804;0.024577234;-0.6154508;-0.3307341;0.034229577;0.19676669;0.05567699;-0.013082853;-0.29883647;0.018762447;-0.031578388;0.1450426;0.43466553;-0.3448789;0.0041400334;0.20617653;0.07827284;-0.21314049;0.1075782;-0.009792375;-0.29675022;-0.030932246;0.3912083;0.12427883;-0.017154763;0.06656086;0.063462004;0.220108;-0.1653126;0.021918682;0.20298958;-0.03503434;0.0016373591;0.030541351;0.05308889;0.14395954;0.21694562;0.06102072;0.1217087;-0.014015346;0.1408239;-0.1797116;-0.007355816;-0.21588932;0.16752961;-0.020293375;0.5329881;0.0141393505;0.08729542;-0.27668828;0.022056665;0.009872621;0.34818783;-0.19235703;0.051738054;0.07226257;0.007088999;0.36198545;-0.007023988;-0.13581459;0.029161707;-0.061745595;0.01963668;-0.07225433;-0.16602428;-0.08397146;-0.3181636;-0.15273081;0.28096032;-0.023310984;-0.011473074;0.16168301;0.21475878;0.0976392;0.2895753;0.022015663;0.0017425473;0.05179237;-0.14008895;0.016109038;0.26977256;-0.19700295;-0.096622735;0.09563034;-0.05540172;-0.0054351953;-0.07599456;-0.07753931;0.17041364;-0.1469746;-0.11891657;-0.3910935;-0.021288984;0.16044486;0.22898038;-0.1182866;0.055182874;0.1657065;-0.3626174;0.028175032;0.046696816;0.18763782;-0.034957204;-0.08205035;0.011939786;0.040203672;0.041088372;-0.041109778;0.01565831;0.03383104;0.032520138;-0.27774844;0.027570114;0.31096584;-0.06601356;0.112510316;0.178907;0.07311473;-0.020302134;0.36527565;0.19777268;-0.3465773;0.060647268;-0.067785196;-0.2181547;-0.012981967;-0.035515152;-0.30331436;0.17656568;0.030232748;0.36515307;-0.029688537;0.018170282;-0.0073200576;-0.16035068;-0.13855316;0.16181841;-0.011071126;-0.436678;0.051241107;-0.06329079;-0.026674276;0.1153762;0.037291415;0.23165496;-0.028069744;0.23281749;-0.054022275;-0.216138;0.017238105;-0.17802659;0.41431928;-0.106764965;-0.16793196;0.1306492;0.057439618;-0.038450804;-0.1427336;0.09945171;-0.4222835;-0.016028214;0.0052729957;0.56218195;-0.0045633246;0.03828995;0.0026600792;0.532802;-0.07663077;-0.07614062;-0.02467116;0.06820489;0.5769718;-0.025076203;-0.2743777;-0.287971;-0.025376681;-0.04585722;-0.0073976377;0.036182534;0.20207022;0.09859636;0.021113662;-0.04206038;-0.09547491;0.017489957;-0.2088151;-0.027341444;0.42728126;0.30584556;0.042106252;0.0893076;0.011156865;-0.060326256;-0.049618967;0.053136647;0.047921438;-0.08077851;-0.24969763;-0.26499775;-0.15581055;-0.27563968;0.20985624;-0.06516437;0.20167688;0.16341124;-0.072623804;0.07186461;0.3805888;-0.036537576;-0.068323754;0.09653971;-0.007829652;0.017906828;-0.2916211;-0.19219604;-0.074222535;0.21205895;0.23168443;0.03500194;-0.12228417;0.033362113;-0.088694505;-0.63354975;0.17103353;-0.2506907;-0.024007868;-0.07580123;-0.011008307;0.30545467;0.5598909;0.32339823;-0.0064947545;-0.038573124;0.013682312;0.1643676;0.019016284;-0.37559465;0.053360213;-0.28687504;-0.19421014;0.44507015;0.28142607;-0.09661076;0.23778962;0.41509917;-0.029994931;0.007575149;0.025995722;0.029612673;0.24693395;0.41688913;0.04665577;0.0123157585;-0.01968862;-0.059133995;0.017783023;0.041281678;-0.08961588;-0.018350795;-0.018059546;0.350577;-0.26463756;0.46666697;-0.061661217;-0.68941516;0.047286347;0.057827536;0.35845485;0.05695452;-0.22049317;0.18576506;0.18944764;-0.062839285;0.30984667;0.04121892;0.030270908;-0.15810378;-0.015317052;0.2701986;-0.040960137;0.19901437;0.04977827;0.038568463;0.15342699;0.005735841;-0.40666965;0.23168233;0.15577671;0.07152592;-0.0476691;0.45852813;-0.10977592;0.42393324;-0.20903225;0.0046672747;0.53670317;0.023847431;0.082402766;-0.19588758;0.04164351;-0.28131646;-0.07806823;0.16406842;-0.026815645;0.17338653;-0.094796985
0.06927722;0.37083036;-0.05874579;0.2364388;0.30938646;-0.05184819;0.1218062;-0.025122156;-0.18916194;-0.064253695;-0.17748526;-0.043474093;-0.0648783;0.08769336;0.1360917;-0.008200293;0.037719768;0.11290915;0.05257036;0.061092727;-0.15478975;0.31217352;0.09771776;-0.12905642;0.26959312;0.18545549;0.0019669454;0.043103993;-0.043165393;0.012242373;-0.080513075;-0.11160358;0.047620576;0.07474898;0.041045483;0.28859207;-0.0645193;0.22255273;0.47098276;0.17773283;0.24068724;0.05351921;0.1719011;-0.14612578;-0.22276972;0.17539576;-0.040287346;0.09193585;-0.080597416;-0.1231554;0.17594798;0.03691976;0.08251046;0.22343364;-0.008222193;0.06943303;0.2236516;0.031052643;0.25861764;-0.061949115;0.00038451367;0.09241163;-0.022023236;-0.06743227;0.5237032;0.021696767;0.14027849;0.031263392;0.061761137;0.19561157;0.13901035;-0.22796373;-0.3397101;-0.011495082;0.4686569;0.31854802;0.22135906;0.06152502;-0.12567258;-0.062495366;-0.0480387;-0.067513905;0.16988686;0.4966412;-0.01935858;-0.32920688;-0.09278503;-0.041907206;-0.015152785;-0.0050846324;0.3012976;0.14572631;-0.050512962;0.0731433;-0.039697953;0.22569938;0.055942737;0.1049035;0.3050149;-0.027623782;-0.29083025;0.106219806;-0.054226592;0.13300349;0.045814913;0.0033239224;0.029277083;0.06071064;-0.0080462275;0.062394686;0.55342966;0.44685614;0.031120524;-0.052203577;-0.05391662;-0.11873725;-0.0467896;0.025240911;-0.009554855;-0.21219787;0.12557556;0.06843506;-0.0040215864;-0.07267736;0.16208062;0.036849823;-0.2915331;-0.1058475;0.27404103;-0.08792774;-0.045513406;0.29950914;-0.06510953;0.29529014;0.06559723;0.036557335;0.13132311;0.15691915;-0.2003055;0.3971685;-0.15045337;0.023401164;-0.097726434;-0.06964224;-0.34276414;0.007027746;-0.010050676;-0.0940665;-0.048856474;-0.107801385;-0.27393627;0.09522182;0.13318066;-0.07368381;0.24428044;0.10804324;0.057503145;-0.042842325;0.21207005;-0.11130474;0.1488525;-0.317727;0.40180722;0.040159404;0.20211518;-0.00012520618;-0.042809363;-0.3119314;-0.14138967;0.072285764;-0.016899783;0.096824646;0.013912784;-0.08578984;-0.04639856;0.1951498;0.00010450311;0.26863557;0.10806604;0.29817918;0.08288395;0.18878663;0.10946413;0.08597731;-0.065530576;-0.025149647;-0.0588628;0.6612545;-0.11532847;-0.052915026;0.019979538;0.11675923;0.342325;-0.0016264098;0.07638602;-0.16673984;0.057938125;0.25539598;0.22881716;0.08987039;0.14403445;0.08887808;-0.027005082;-0.023753844;0.3921486;0.43090555;0.21861249;-0.17057966;0.5182617;0.02068522;0.28224814;0.036000937;0.037937973;-0.012245093;0.2523024;-0.36152092;0.13006099;0.44319338;0.5717256;0.05144244;0.15101357;-0.03224374;-0.058522534;-0.0456133;0.042257346;-0.15443023;0.060644962;-0.036926888;0.047808617;0.18468611;0.013154332;0.118571326;-0.07150848;0.029511284;0.4979035;0.40865088;0.010224027;0.09926695;0.07962189;-0.19260217;-0.1472338;0.093406595;0.23754472;-0.42293447;-0.027103895;0.13226086;-0.635197;0.18518579;0.19314395;0.04640144;0.020175902;0.04691887;0.17667454;0.31378847;-0.051643036;-0.39372727;0.02784841;0.051725328;-0.01798029;-0.09100008;-0.3401814;0.17991352;-0.1777072;-0.103173025;-0.061864283;-0.14791048;-0.010982896;0.030987386;-0.43080723;-0.0067178733;-0.043810446;-0.011385577;-0.56193495;-0.24612758;-0.020716641;0.05092805;-0.031026604;-0.021362107;-0.2726015;0.060275316;0.124245495;0.24587512;0.28427127;-0.31839716;0.019936536;0.20591272;0.014406087;-0.046525314;0.0034688073;-0.059245583;-0.26042968;0.041446734;0.42749947;0.121697485;-0.028779875;-0.050993238;0.1085286;0.08350066;-0.16729984;0.06418993;0.20619226;0.037377603;-0.045570783;-0.036162235;0.054250464;0.07753527;0.23265181;-0.004577407;0.038892996;-0.0644694;0.16572951;-0.14581141;0.025278721;-0.10165496;0.29606414;0.054719385;0.447753;-0.021192973;0.019916972;-0.23587888;-0.006014453;-0.00936822;0.36253306;-0.17905161;0.07994716;0.008545793;-0.03473954;0.44538224;-0.067380205;-0.008130683;0.015253003;-0.056312107;-0.103952356;-0.18542866;-0.29699853;-0.006559251;-0.19431794;-0.08628729;0.16868122;0.014062572;-0.013193106;0.15634078;0.23417911;0.10597736;0.30035806;-0.04582659;0.07445319;0.0025100743;-0.21062283;0.10540643;0.11827103;-0.16784902;-0.123982444;0.014170291;-0.03924408;0.09025993;0.09963795;0.06775553;0.055891123;-0.23170224;-0.07014265;-0.31426102;0.02852904;0.3134006;0.17251077;0.029747145;0.05513966;0.084427096;-0.21262734;-0.02744822;0.014427577;0.19219016;0.07615377;-0.060527436;0.0045101373;0.0046733012;-0.06746323;0.020179048;-0.04437783;0.08475377;0.041990828;-0.23081674;0.03702679;0.28049025;-0.012283556;0.08442812;0.26486683;0.08592936;-0.13363393;0.35205793;0.08980524;-0.14362265;0.09304276;0.03330857;-0.16426139;-0.07314796;-0.0043747043;-0.40249074;0.1845111;-0.011686524;0.44656488;-0.041518986;-0.09137728;-0.026081953;-0.23603503;-0.18446413;0.0018089573;0.03349251;-0.2921397;0.019703189;0.053254064;-0.083704524;0.19497325;-0.08993505;0.21045429;-0.08222191;0.2150368;0.032055825;-0.13211818;-0.029877067;-0.14559826;0.38526067;0.1371852;-0.20937008;0.1035753;-0.03161266;0.024421718;-0.024337871;0.15342072;-0.42881984;-0.0511446;-0.013503829;0.592437;0.08999356;0.012618576;-0.13694306;0.43101376;0.079453945;-0.049002074;0.068185456;0.039836656;0.5347312;-0.02611643;-0.20444548;-0.077311076;-0.061375484;-0.08634722;-0.0652019;-0.037791952;0.20452137;0.08737761;0.019159714;0.052990656;-0.00712937;-0.07338908;-0.1234258;-0.0046457476;0.294311;0.35700855;-0.014862849;0.05557098;0.046802793;0.036924604;-0.17785595;0.027278021;0.15876849;0.032643158;-0.25032982;-0.19754486;-0.122416414;-0.18887603;0.20668314;-0.04369657;0.09070717;0.12822345;-0.040821835;-0.02958588;0.27391776;-0.09556489;0.03138963;0.17161284;-0.11094933;0.110643916;-0.22921193;-0.017163165;0.078978635;0.29634976;0.062364828;-0.06148411;-0.015663452;-0.09316172;0.07932868;-0.50960356;0.21623473;-0.30875748;-0.0034802163;-0.087287836;0.052115064;0.20742992;0.47711286;0.21802959;-0.01928947;-0.0052934187;0.039290562;0.1563278;0.009810112;-0.2860059;-0.007908396;-0.30118018;-0.21319033;0.4178056;0.31298557;-0.2057709;0.19339943;0.3930886;-0.08829568;-0.008366173;0.033685073;-0.038914096;0.10174493;0.3323373;-0.005681942;0.040367324;-0.018317815;-0.0075846165;-0.054905225;0.0242275;0.04610627;-0.059155516;0.024717443;0.1965849;-0.18222557;0.3958701;-0.0037699793;-0.60542494;-0.028414857;0.1105742;0.3192101;-0.035007186;-0.15539843;0.14727928;0.00027612044;-0.0837704;0.22095649;-0.04050286;0.042670235;-0.19240811;0.0010855749;0.08221973;-0.027234403;0.27986252;-0.068648554;0.0009600383;0.16788225;-0.028462293;-0.35355502;0.1913275;0.08121785;0.024633255;0.055883277;0.35903174;-0.25085267;0.50661254;-0.11550011;-0.0034969926;0.5685945;0.03545286;0.08253956;-0.29169622;0.023606064;-0.43971723;-0.075614646;0.15429321;0.05882982;0.2200219;-0.044325884
-0.009147339;0.30787012;-0.10808623;0.20304097;0.27959603;-0.08370965;0.19705346;0.015279417;-0.032516386;0.01990674;-0.19461508;-0.00011581709;0.01456747;0.01969456;0.13469203;-0.011377879;0.040559597;0.063153096;-0.051680017;-0.017078519;0.07151099;0.25474694;0.009082464;-0.07645744;0.32847106;0.11333969;0.034956347;-0.031063434;-0.06592924;-0.064711384;-0.0818308;-0.083912805;-0.07280694;-0.0015014869;-0.03255925;0.2277754;-0.0010151749;0.20693305;0.4357168;0.17944008;0.21418923;-0.0022611402;0.07060176;0.06033585;-0.22431774;0.15220727;0.05688137;0.009890748;-0.018159505;-0.1391221;0.16413613;0.080151744;0.08751403;0.21919739;-0.03777947;-0.044419352;0.30577365;-0.067657664;0.27696356;0.039935183;0.0017185265;0.07405643;-0.022348968;0.14668497;0.3394823;0.09231485;0.012985043;0.19113456;-0.03988406;0.16131651;0.07247806;-0.24175937;-0.3440776;0.08322702;0.370018;0.22015332;0.32147086;-0.00034214425;-0.11906792;-0.02080592;0.029456856;0.0089458395;0.22991025;0.5371534;-0.051944397;-0.25128135;-0.12585796;-0.0020538052;-0.02258158;0.06980945;0.16485764;0.17649724;0.02290104;0.033959236;0.032772575;0.21513544;-0.035860512;0.030387148;0.33453745;-0.010905503;-0.3522792;-0.018514656;-0.051559284;0.13473502;0.017323188;0.06342809;-0.0324676;0.07538251;-0.058937516;-0.04846659;0.55393255;0.46618563;-0.02259785;-0.014835597;-0.005180105;-0.13556856;-0.024981502;-0.02841564;0.020802297;-0.24656162;0.04174279;-0.013458638;-0.031387705;-0.06567235;0.06558908;-0.0094108;-0.33386603;0.034085616;0.034120016;-0.036755543;0.036551446;0.11189895;-0.023739234;0.30446243;-0.07904925;-0.032007236;0.17753056;0.10592409;-0.13975693;0.48815995;-0.11530948;0.031667612;0.018724034;-0.18232863;-0.29262128;0.0688033;-0.047057167;-0.060796477;0.051070906;-0.18049681;-0.3600454;0.059485182;0.0042921295;-0.029035602;0.2902433;0.19755675;-0.048594505;-0.29580745;0.048419923;-0.14381532;0.08548796;-0.30217868;0.5273922;-0.096489556;0.23833942;-0.09630493;-0.03288654;-0.1777668;-0.102530815;-0.054053377;0.060886424;0.06905563;0.0037167692;-0.0573346;0.08365794;0.18665305;-0.11964501;0.1996901;0.14645888;0.38071936;0.08371827;0.063723505;0.030745925;0.06390775;-0.062359102;-0.050565038;0.03461387;0.56798285;-0.15780346;-0.008135078;-0.08632208;0.21027139;0.17716932;-0.076389655;0.15221527;-0.26510364;-0.0015809627;0.19894773;0.095501006;-0.037849896;0.22817883;-0.05288944;0.055637807;-0.06535427;0.43425193;0.5476035;0.27062392;-0.23794036;0.4576052;-0.008056329;0.23255585;-0.14621927;-0.04233911;0.072300084;0.31403807;-0.2998958;-0.035970204;0.463297;0.5342335;0.06409257;0.1335758;0.14095841;-0.026771773;-0.082034156;0.033907354;-0.105953574;0.08136811;0.04374254;-0.05516601;0.2038455;-0.04959767;0.079275906;0.05116105;-0.003196563;0.5292483;0.26073352;-0.014364833;0.035002198;0.004728933;-0.30450028;-0.097173646;-0.033906024;0.23371196;-0.37332729;-0.015479859;0.1920607;-0.6785168;0.18388842;0.15117015;-0.02204321;0.002942481;-0.042157616;0.2773547;0.2707092;0.05630197;-0.5569986;-0.03803402;-0.051761694;-0.14619276;0.01485541;-0.16456716;0.31660044;0.03854065;-0.20646335;0.010697235;-0.3000049;0.013414661;-0.023942027;-0.31976432;0.07633703;0.06979218;0.1707073;-0.52156985;-0.27606916;-0.013956958;0.09518193;0.052694663;-0.067161605;-0.3763434;0.0050858893;0.09454268;0.16112356;0.24211314;-0.19927184;0.0031477616;0.08659428;0.025033982;-0.034134775;-0.01452686;-0.032275766;-0.15947898;0.00905172;0.41450608;0.0995261;-0.015304707;-0.08596595;0.059482474;0.04937157;-0.1258467;0.23484688;0.2936597;0.11065654;-0.060286514;0.01796126;0.0130443815;0.07823117;0.33115306;0.044212215;0.015206225;-0.16480033;0.18349704;-0.19446416;0.020802703;-0.1459565;0.06302613;-0.014112714;0.40824777;-0.02756591;-0.015378862;-0.28226224;-0.0038801504;0.013656611;0.2997458;-0.13770838;0.019636689;-0.118312344;0.007927548;0.30267903;-0.0551186;0.012063528;-0.15574305;0.06126402;-0.024405373;-0.24391082;-0.34405905;0.0002727079;-0.09254111;0.012770037;0.20771548;0.0373675;0.0036687325;0.16776821;0.22575872;0.09117965;0.23154142;0.07013981;0.01745245;0.0068599675;-0.10084732;0.20522799;0.0124718435;-0.11554766;-0.04568731;0.031012608;0.033081062;-0.004712449;-0.093667425;0.06064711;0.013072836;-0.23076524;-0.044429608;-0.28020847;-0.052457266;0.3014424;0.24602126;0.07813028;-0.034950405;0.13001944;-0.10502401;0.07382324;0.00820302;0.28288493;0.008755887;-0.028720649;-0.038930513;-0.07497825;-0.074783966;0.06258819;-0.060744848;0.10574836;0.022884347;-0.2376869;-0.033060115;0.14649951;0.01443826;0.053619362;0.12680541;-0.030968823;-0.045171294;0.2246027;0.17903066;-0.12697743;-0.04936275;0.0719715;-0.19988357;-0.088106975;-0.00334867;-0.33987492;0.25861266;-0.08802717;0.28275627;-0.043158453;-0.012884373;0.02765926;-0.17410576;-0.23078957;0.037044294;-0.024362413;-0.2811076;-0.048928294;-0.024914522;0.030168569;0.13230525;-0.036424633;0.17217201;-0.14448239;0.1332253;-0.08695384;-0.109593116;0.023829982;-0.023841942;0.35106695;0.19127062;-0.23299265;0.12956193;0.043323945;0.039636787;-0.13051192;0.15967675;-0.33319196;0.09257888;0.021786055;0.61219674;-0.03685199;0.054842256;-0.035467014;0.4402299;0.17777422;0.06768139;-0.06640482;0.029408658;0.4765665;-0.03118571;-0.09902843;-0.14760146;0.061144568;-0.005536644;-0.0014971595;0.046516553;0.15254857;0.1265261;0.053186934;-0.08658001;0.06851854;0.004903325;-0.10915297;-0.028426394;0.28374675;0.45889676;0.044880237;-0.058884904;-0.024008526;0.21782069;-0.019674227;0.14036417;0.10562936;-0.06770807;-0.2527542;-0.116532005;-0.17337067;-0.13609493;0.11958048;0.042380754;0.12934302;0.036831837;0.0015303877;0.08296766;0.25970757;-0.016279422;0.032112144;0.16097718;-0.090753786;0.15203613;-0.2477004;-0.019360494;0.0058508497;0.31372666;0.14261872;0.0031086933;-0.034206517;0.04141552;0.05888214;-0.5662031;0.24907437;-0.43338004;0.022722628;-0.23961253;0.0020420677;0.1488008;0.32100922;0.028448377;0.08484815;-0.05872492;-0.008451637;0.05422362;0.025697585;-0.23511161;-0.031912245;-0.28077185;-0.20242226;0.41729796;0.35380217;-0.111905895;0.15455584;0.43233126;-0.11379612;0.010462792;0.14161974;-0.05084527;0.14036752;0.31425628;-0.018017462;-0.0011218375;-0.054525804;0.034689363;0.023989366;-0.029819041;0.031867556;-0.020920543;-0.032824077;0.3008662;-0.19979037;0.3872933;0.032076158;-0.5456631;0.0727928;0.019328402;0.21862337;0.05633102;-0.08700275;0.09978359;0.055461496;0.01838655;0.12197134;0.025223197;0.034762785;-0.24845272;0.018981539;0.032614328;-0.0014553947;0.12062;-0.004900758;0.08372357;0.085400924;-0.023679046;-0.20646401;0.3439626;0.03477717;-0.037559927;0.024161177;0.45187506;-0.23557007;0.5257812;-0.057459373;0.048434943;0.53651756;-0.058391996;-0.100168176;-0.2824327;0.07513809;-0.37656724;0.034662258;0.2052805;0.060927283;0.12131358;-0.1324454
0.03488263;0.24263413;-0.0002605685;0.21581423;0.21012722;0.042253852;0.3685763;-0.02519783;-0.035556868;0.036647055;-0.10264798;-0.0054190164;0.024753429;-0.018948078;0.20246848;0.04865818;0.024499582;0.06602368;0.016293533;0.15476288;0.091835074;0.30424073;0.20358941;-0.07246211;0.32110977;0.120279536;0.01901995;0.026462115;0.07018963;0.018095523;0.01763724;-0.076364435;-0.060846742;-0.045431465;0.015934188;0.14410715;-0.018521521;0.1784235;0.38168904;0.22078381;0.27610314;0.03826238;0.21017379;0.06526268;-0.17287274;0.18846193;0.07840524;0.13194494;0.048197046;-0.04643489;0.12920249;0.005717911;0.083877854;0.23607594;0.07787339;-0.04866889;0.33249792;0.033530235;0.40502375;0.14418583;0.06406994;0.16100116;0.022955246;0.10158489;0.3515615;0.036291845;0.06823225;0.14046593;-0.05191961;0.12505513;0.26407674;-0.20701557;-0.2269877;0.08447202;0.2900697;0.25544104;0.30804843;-0.043842725;-0.24480413;-0.0332638;-0.031782288;-0.061247505;0.26054144;0.36401072;0.03017145;-0.17205179;0.047687944;0.028028727;0.10642356;0.12528712;0.16673112;0.1339536;-0.013296937;0.027558453;0.036775105;0.20852396;-0.038815197;-0.10867;0.35236734;-0.09204773;-0.19548848;0.044235542;0.07088833;0.036616616;-0.109773666;-0.04823418;0.12562092;0.010244206;0.07081183;-0.06779743;0.43158278;0.41069427;0.08958063;-0.03811414;0.045276094;-0.1114406;-0.12434473;0.07911494;0.050686434;-0.2561045;0.07069943;-0.031988695;0.07143142;0.038069952;0.19364612;0.07205462;-0.284199;0.12275638;0.14514826;0.06339361;0.15933119;0.24326721;-0.057604104;0.16621661;-0.03308838;0.016333845;0.21730547;0.24377838;-0.098232016;0.39162904;-0.18537879;-0.0012962539;0.023997387;-0.1937781;-0.26134014;0.06466264;0.03997949;-0.06317129;-0.041710168;0.039148677;-0.2828802;0.12785363;0.057712182;0.0042563733;0.24173918;0.05581051;-0.018923387;-0.21707131;0.12464219;-0.17961559;0.08328878;-0.35020378;0.3469196;-0.11988727;0.3148772;-0.06623823;0.050503;-0.28202724;-0.08849531;0.03757919;0.025055526;0.12288992;0.08241654;-0.011706595;0.035095386;0.20709646;0.014398622;0.08966578;0.058527883;0.17926028;0.094034106;0.20456262;0.091501;0.036053903;0.004452991;-0.046031162;-0.009388939;0.58739376;-0.08599391;0.124869145;-0.027657084;0.13415195;0.21074092;-0.09355821;0.14583465;-0.17085442;-0.061579708;0.22730541;0.23510197;0.14098836;0.071332976;-0.03723256;0.061991137;0.016377002;0.35253686;0.4129637;0.13037321;-0.26294053;0.6378649;0.03835267;0.19748493;-0.0902014;-0.018443473;-0.01618984;0.33912772;-0.20594442;0.020960819;0.27765203;0.4667165;0.1278406;0.28405973;0.18542033;0.030194359;-0.14799261;0.0451479;-0.07546965;0.16854645;0.046659425;-0.0029531086;0.19493064;-0.081310205;0.26348367;-0.0010268921;-0.044016663;0.44079188;0.41585878;-0.051130347;0.08488536;0.022548322;-0.17730543;-0.24448341;-0.08324388;0.20063378;-0.08066251;-0.040398043;0.11346011;-0.5100093;0.008196723;0.10418691;0.04745389;-0.008173819;0.015059469;0.2599656;0.28086567;-0.04753687;-0.573485;-0.07596466;0.031945523;-0.1463299;0.0042309407;-0.10236012;0.21350263;-0.042010847;-0.23805179;-0.039680388;-0.27185762;-0.045393076;-0.0035017745;-0.25787616;-0.04498221;0.046935864;0.010744543;-0.56613684;-0.089309946;0.037491918;0.030685008;-0.024814436;0.04670824;-0.26054978;0.034986764;0.06376117;0.07685641;0.20337848;-0.2565652;0.028128648;-0.037993826;-0.06377315;0.019912802;-0.07778785;-0.041332446;-0.26189694;-0.09153571;0.3904991;0.032721765;0.050094813;0.07668684;0.019719804;-0.08927201;-0.07623855;0.2141083;0.27095684;0.0075785723;0.03222615;0.032879353;0.05064909;0.12252086;0.24591546;-0.061284922;-0.14481513;-0.29252332;0.21244079;-0.0497232;-0.022019383;-0.08739343;0.1424227;-0.07208874;0.34218967;0.040658254;0.07120211;-0.12964876;0.0065150205;-0.040279567;0.1760485;0.0295579;-0.008464627;-0.10467553;0.022471238;0.3190086;0.049687;-0.04633927;-0.055322796;-0.01676817;-0.026454166;-0.18020691;-0.1839724;0.04366891;0.017399441;0.089101575;0.17195733;-0.0026220514;-0.041677598;0.10022868;0.3016044;0.22220486;0.2206716;0.0010079654;0.022003729;0.0060280417;-0.19464354;0.19546829;0.08918719;-0.099830315;-0.10919584;0.11705963;0.07657796;0.03483313;-0.062248264;0.01134288;-0.015808826;-0.11734984;-0.07822679;-0.27907312;0.06863938;0.23318832;0.27441645;0.101054996;0.01567705;0.26503405;-0.0012334534;-0.020588169;0.1156163;0.25807798;0.08506539;-0.02615616;-0.06915061;0.0082582785;-0.021839576;-0.097280964;-0.020953972;-0.032980476;0.069994494;-0.27372855;-0.03864163;0.22383586;0.033073317;-0.022060819;0.11639393;0.013963079;-0.089798324;0.1319251;0.16524023;0.054517742;0.0054362724;0.0666498;-0.2285599;0.008319347;0.05718799;-0.37424907;0.34073624;-0.17830594;0.21138479;0.04113368;-0.036715318;0.03222801;-0.116209075;-0.23961887;0.098425515;-0.051407333;-0.22411361;-0.009118839;0.005497324;0.02573156;0.16190247;0.0485001;0.11466619;-0.086913414;0.19792047;-0.019982629;-0.019250365;-0.017608926;-0.07351646;0.41329533;0.24684295;-0.09270721;0.21864545;0.03941281;-0.0962096;-0.075214036;0.12472847;-0.39390752;0.12467097;-0.12034542;0.5207686;0.062199716;-0.045011267;-0.1505482;0.3755255;0.236492;0.040153705;-0.033926647;0.053686775;0.5080451;-0.04477479;-0.012656782;-0.084244154;0.17507914;0.015234117;0.17966673;0.03431081;0.24749207;0.14258371;-0.036122024;0.039204072;-0.0054307138;0.039363932;-0.062254854;-0.024356961;0.19968906;0.33628088;0.006043471;-0.06128347;0.051328022;0.15183753;-0.11571229;0.13904282;0.19401191;0.063997366;-0.35418558;-0.110092886;-0.16291535;0.024488125;-0.0028377005;0.06349687;-0.021285476;0.016578319;0.021770261;-0.03232834;0.25121292;0.06424543;0.08051602;-0.0043487884;-0.06641514;0.11855567;-0.20743427;0.13276932;-0.066919655;0.3229238;0.16217083;-0.013679133;0.16249536;-0.051035482;0.000118171825;-0.6050528;0.16238345;-0.33447075;0.07550581;-0.16675869;0.057017997;0.08919409;0.34687814;0.052835096;-0.052625053;0.04742815;0.0149081545;0.0999153;0.0099821575;-0.12716253;0.06902515;-0.3372667;-0.04026764;0.5102531;0.4347285;-0.07980744;0.112416275;0.33734262;-0.07623787;-0.046659425;0.23016955;0.009857307;0.12175124;0.27065405;-0.032863025;0.050067417;0.06894201;-0.008476599;-0.004905046;0.021393884;-0.033958863;-0.1268975;0.0762475;0.13211463;-0.1277903;0.3001259;0.043942325;-0.53385895;0.054260027;-0.04406087;0.13445827;-0.049698845;-0.14572191;0.22234319;0.064524874;0.002709412;0.12699015;-0.018467117;-0.011221904;-0.32589898;0.06619824;-0.014932824;0.07458469;0.24785587;0.010284921;-0.028099926;0.22914407;-0.0189591;-0.21063839;0.1008323;5.2222123e-05;-0.07122023;-0.051183995;0.5107098;-0.027806686;0.49657515;0.03585526;0.0427025;0.63018453;-0.018688591;-0.14396803;-0.2760357;0.10757268;-0.28530443;0.013282701;0.25016728;0.04175747;0.09302028;0.004352143
-0.19420817;0.07539485;-0.12400495;0.16253075;0.22177224;0.043214988;0.41066125;0.007166529;-0.07898373;-0.012766378;-0.057325847;0.014063976;0.022701764;0.038227864;0.23191616;0.028512094;0.004779988;0.046363983;-0.007932056;-0.03256337;0.14988978;0.20025505;0.1803296;-0.050187092;0.17934485;0.14366896;0.02424687;0.017958041;0.017142668;-0.031020073;-0.057203844;-0.06670267;-0.029630717;-0.0015717037;-0.040988572;0.09114516;0.05993036;0.05980827;0.30416247;0.13477562;0.18496287;-0.10650772;0.33143407;0.07083663;-0.16992803;0.09682601;-0.018915618;0.05661329;-0.06720032;-0.060679898;-0.019982373;-0.045781866;0.01544002;0.09539903;-0.038895965;0.027920123;0.385731;-0.04667311;0.2893286;0.04010786;-0.12312758;0.1282195;-0.037574604;0.13971451;0.4142962;0.21397553;0.009068494;0.24818799;-0.029066725;0.13397902;0.3437214;-0.21999814;-0.34402815;-0.0032127984;0.29033124;0.3089909;0.33226857;-0.040503547;-0.23261923;0.0015214183;0.06948582;-0.0046258997;0.26149175;0.3615502;0.0036888423;-0.18484782;0.02969782;0.016339753;0.053679578;0.024397822;0.12110332;-0.026178025;0.03258056;0.027398035;0.06055797;0.12763615;-0.037904344;-0.100665435;0.25150734;-0.076455936;-0.11689219;0.03732915;0.03321523;0.088911146;-0.07596977;-0.011025339;0.18042429;-0.052222222;-0.03981891;0.0020554562;0.51961046;0.4287619;0.07522748;-0.042487185;-0.048462156;-0.19266564;-0.07347826;0.01917374;0.014287183;-0.37311992;0.11977974;0.048235334;0.13677709;0.13089636;0.18977892;-0.068384215;-0.23555276;0.10354932;0.14618108;0.047175534;0.03808828;0.20618637;-0.0059310785;0.24678873;-0.05241139;0.064818025;0.02349845;0.39841792;-0.062991224;0.48972195;-0.19887741;-0.029221494;0.030016089;-0.18005526;-0.1886922;-0.026814438;-0.0423515;-0.071670815;0.07622692;0.044162784;-0.36157197;0.16719331;0.036969762;-0.04876425;0.21173055;0.0032648572;-0.018819705;-0.31632724;0.051117927;-0.10818851;-0.11099741;-0.33532664;0.4420373;-0.0025306714;0.19449864;0.054896373;-0.11050704;-0.39540356;-0.08022888;-0.05434222;-0.06502125;0.108296864;0.0037924242;0.015219422;-0.04899303;0.081880614;-0.050851773;0.10718137;0.060958102;0.16314909;0.05699852;0.20190585;0.10558396;0.11361137;0.038525376;-0.004031974;0.033588413;0.5148151;-0.19154221;0.23094207;0.07430345;0.17280819;0.15217492;-0.062168375;0.14573184;-0.13001332;0.0002488975;0.23859788;0.14405267;0.12099153;0.031743806;0.08399721;0.071027584;0.05026657;0.30360934;0.29876962;0.08469349;-0.31098217;0.6324113;-0.053126715;0.13848762;-0.238698;-0.036731888;0.017348355;0.46044707;-0.18481238;0.0183651;0.35572;0.4938987;0.061677113;0.41258678;0.24059142;0.014796918;-0.0359033;-0.0077603576;-0.10642237;0.2279608;-0.06793207;0.039580595;0.19699557;0.053884752;0.2816468;0.030282749;-0.027675595;0.45562193;0.33418283;-0.04940538;0.026257534;-0.049230333;-0.11292657;-0.15654634;-0.029707378;0.18166704;-0.094553314;-0.006033306;0.24826682;-0.53166056;0.008123685;0.1806786;-0.0760841;-0.07718517;0.080900945;0.09152002;0.20312704;-0.038775958;-0.61162686;-0.2743285;-0.05461706;-0.16895773;-0.07780704;0.03001718;0.016651807;-0.0026211988;-0.29361737;0.0061512785;-0.25010514;-0.064764775;0.045996014;-0.28930643;-0.045800425;0.059317924;0.040618252;-0.5414596;-0.085796796;-0.021633944;0.13729142;-0.10428171;-0.010325162;-0.10146167;0.060146686;-0.032960597;-0.058197755;0.08113922;-0.26306686;-0.0573104;-0.015033045;-0.061067887;-0.0026803724;0.034181677;0.035081834;-0.2267995;-0.07565448;0.45184004;0.10995486;0.015523998;0.0049036806;-0.080538444;-0.16213906;-0.19823162;0.21263279;0.31690824;-0.037905376;0.028604254;0.0074132085;0.17351896;0.052340966;0.23025165;-0.081091635;-0.123416096;-0.27402034;0.08045135;-0.059100896;-0.01885875;-0.12635043;0.17955446;-0.064603016;0.33957464;-0.0023593393;0.056295354;-0.04820912;-0.049831267;-0.05232456;0.2814137;0.03618717;-0.0064465627;-0.12457345;0.0854983;0.19920911;0.049689155;-0.03538132;0.042621337;0.029914096;-0.09643021;-0.21608813;-0.17425212;-0.058999885;-0.032979462;0.2708437;0.3082942;-0.024022786;-0.0228466;0.10123056;0.32662755;0.097752824;0.27764368;-0.004297535;-0.0030560554;-0.053366486;-0.14723668;0.36219415;0.017364733;-0.051423248;-0.12727085;0.1430601;0.15626247;0.042217888;-0.14576328;0.0112005705;0.006327658;-0.06605419;-0.05880962;-0.2618743;-0.040136866;0.22413296;0.28855255;0.24242267;0.043180555;0.08019848;0.0024757374;0.121236704;0.08057194;0.12144424;-0.04942416;-0.05021273;0.0635887;0.011339774;0.05475909;-0.049473997;-0.113199554;0.11601902;-0.042412393;-0.15673046;-0.04062883;0.022609755;-0.045094088;-0.03172827;0.05379461;0.001473328;-0.07918133;0.21749987;0.22037877;0.08179421;0.04879821;-0.053122863;-0.2840161;-0.027201675;0.069725536;-0.26752168;0.3329018;-0.22204123;0.264233;-0.012706976;0.040463857;-0.052261665;-0.080916055;-0.28106326;0.22038345;-0.008500417;-0.17194632;0.023666061;-0.058298375;-0.0123228775;0.25272053;-0.008921906;0.103962086;-0.18589872;0.19461554;0.0633844;-0.054605097;-0.012418275;0.03861126;0.34706143;0.25186792;-0.17373951;0.11842966;0.0038451485;-0.052308004;0.011988172;-0.024228506;-0.31845948;0.16367082;-0.09482993;0.3670677;-0.036429744;-0.039411943;-0.056994885;0.44120803;0.31108558;0.027072458;0.04269785;-0.025343576;0.3377438;0.06663998;0.09213398;-0.13390423;0.043556802;0.048647113;0.17212103;0.009026249;0.26266497;0.07276542;-0.028817099;-0.15827653;0.015472612;0.049663022;-0.039530117;-0.06835069;0.269012;0.27825904;0.022468984;0.06666313;-0.045779366;0.26445502;-0.19347611;0.18452322;0.10461008;-0.034846466;-0.31643313;-0.15323257;-0.20374829;0.011945987;0.027408537;0.0017068584;-0.058650337;0.06669846;-0.06079005;-0.034417123;0.19481729;-0.1008892;0.079591334;0.062175322;-0.0579063;0.09513967;-0.29202837;0.037150137;-0.04740792;0.32551476;0.16014871;-0.038829457;0.14314435;0.08733326;0.063917376;-0.5745516;0.15253758;-0.4613473;-0.08693161;-0.26955107;0.028062778;0.17927533;0.35967204;-0.04282714;-0.048461437;0.03571585;0.0142016895;0.19824108;-0.039996777;-0.18922983;0.07528975;-0.29889843;0.01234401;0.4991153;0.4338338;-0.0883979;0.20237045;0.40127668;-0.12476796;0.043400645;0.20330879;0.05218577;0.08517243;0.32253075;0.051427327;-0.063581236;-0.009557595;-0.06736096;0.059600808;0.05779203;-0.0037947923;-0.10529876;-0.07630705;0.090342924;-0.12036697;0.21997836;-0.045021214;-0.35171768;-0.09139004;-0.03873577;0.14534174;0.0037565778;-0.13302384;0.104028046;0.10324755;-0.041772276;0.22917783;-0.05546969;-0.07185682;-0.35552427;0.057606295;-0.07941702;-0.014859797;0.10497307;0.0021090661;-0.051285073;0.15073964;0.024851058;-0.0046050055;0.11237209;-0.07016228;-0.06313729;0.023464756;0.42087138;-0.058607273;0.40308142;0.047796518;-0.035693374;0.44399723;-0.04028939;-0.19871138;-0.19274688;0.1722446;-0.23993252;0.008488671;0.2879439;0.085335344;0.122405946;-0.045751184
-0.18558457;0.037860047;-0.055233315;0.23790312;0.2557361;-0.046039563;0.39650488;-0.04796787;0.0014394084;0.008078625;-0.04973369;0.047087;-0.059791606;0.0459895;0.34943977;0.016788997;-0.05830474;0.047697067;0.07205192;0.03580872;0.08654501;0.24033438;0.22653297;-0.0019174432;0.175968;0.041869577;-0.025223745;-0.08357565;0.014263797;-0.0758809;0.03480283;-0.06680762;-0.1912584;0.06640851;-0.07168769;0.17612769;0.047153886;-0.097534135;0.38963076;0.13499771;0.16723286;-0.018216107;0.20836383;0.21448971;-0.059375037;0.25899825;0.049151033;0.10304872;0.06020345;-0.12384099;0.073380336;0.061646912;-0.12669699;0.09726666;-0.04767464;0.045444936;0.39476225;-0.05748959;0.30522588;0.15004148;0.008422337;0.22158673;0.027452974;0.2975174;0.42212;0.20042291;0.02213884;0.21311682;0.062332824;0.078645125;0.36239263;-0.19251667;-0.36572853;0.038944524;0.39973718;0.20758341;0.27082306;-0.16324034;-0.34389892;0.068562;-0.053498253;0.056515127;0.17045191;0.36549783;0.08705603;-0.22366682;-0.054604977;0.028676968;-0.06293119;0.20575479;0.08557785;-0.021603959;-0.060444534;-0.0026067658;-0.018626101;0.13935913;0.0059077237;-0.038082156;0.28260785;-0.09661957;-0.0842722;0.02099368;-0.032836635;0.054340545;-0.071132995;-0.0642074;0.14879888;-0.002837295;0.012593432;0.022516098;0.36635882;0.48454937;0.027255412;0.09187099;0.04353191;-0.16648816;0.036263105;0.0037211983;0.06460659;-0.2589491;0.130306;0.053610045;0.1612433;2.0300797e-05;0.23227547;0.19481856;-0.13378456;0.12511207;-0.008433237;-0.0027746765;0.1252214;0.24717139;0.017117716;0.23301585;-0.03485518;-0.007717367;0.028105455;0.29673037;0.018463006;0.46431583;-0.0347244;0.020057367;-0.069189206;-0.2172851;-0.13009383;-0.082422554;0.065619886;-0.083788574;0.020710442;0.051938005;-0.38331005;0.08814887;0.055522062;0.0016934975;0.3318993;0.08450712;-0.009403291;-0.2792953;0.029443426;-0.0055514537;0.06179874;-0.29956132;0.40212262;-0.02931278;0.23225288;0.070543736;0.0013939398;-0.29362762;0.08517286;0.07162411;-0.0095073525;0.08854202;-0.06607513;0.017040258;-0.03925081;0.111300476;0.02342527;0.10397504;0.118635245;0.15065661;0.14087193;0.18648262;-0.06913968;0.031802442;0.039492995;0.029393146;-0.0027583037;0.47975522;-0.06637525;0.15660536;0.011524612;0.06132805;0.14042713;-0.061308593;0.21438897;-0.27323535;-0.058367714;0.2434775;0.19410218;0.017481096;-0.015970577;0.05031307;-0.036433183;-0.03530243;0.30920848;0.3202187;0.003602124;-0.34096068;0.6309168;-0.05070528;0.081398405;-0.04483744;0.006144355;-0.056100022;0.4063111;-0.20859733;-0.08061343;0.39938995;0.4842297;0.045135584;0.46023732;0.19117044;0.0014201269;-0.097280726;-0.032792207;-0.113289855;0.09735931;0.023884414;-0.07847661;0.39183632;0.06440015;0.21101756;0.052365534;-0.010673836;0.3738914;0.39228705;-0.12712823;0.12245245;0.050104253;-0.21529609;-0.16983522;-0.0515437;0.3091596;-0.12864196;-0.013652157;0.30501723;-0.5768596;-0.00929142;0.092213705;0.07726601;-0.018931821;-0.038314756;0.15067104;0.23497428;0.014100097;-0.7232164;-0.21822271;-0.04398281;-0.23083098;-0.08122466;0.09574123;0.10629784;0.16676721;-0.22833252;0.03297771;-0.20176376;0.05311143;-0.036298126;-0.33820993;-0.0037566377;-0.04425062;0.14929561;-0.5528273;-0.13822298;-0.032740403;0.19489259;-0.10345585;-0.0358422;-0.12799071;-0.07139018;-0.014357232;0.058227126;-0.07251136;-0.18967777;-0.0653904;-0.041887093;0.026919443;0.048292566;0.026978899;-0.06171908;-0.27619648;0.047420215;0.38272563;0.065377146;-0.022266014;0.02258246;-0.04854373;-0.1131323;-0.28943846;0.10555604;0.26387146;-0.032472085;0.039690986;-0.0082977675;0.15492319;0.09179256;0.28013477;0.058893677;-0.12880468;-0.23196065;0.17178749;-0.008874341;0.01973035;-0.039554164;0.055995014;0.006810547;0.2021764;0.017486481;-0.01268136;-0.18170935;-0.15351428;-0.02016754;0.34259865;0.063185416;0.019604215;-0.15519619;0.019463845;0.16842808;0.08280561;-0.06544846;-0.0055778683;0.05597592;-0.15786277;-0.21938366;-0.23575647;0.07815035;-0.020292183;0.19525562;0.33923474;0.04353045;0.09561443;0.23542748;0.16258548;0.020722225;0.24998173;-0.080547325;-0.0077131432;0.058985397;-0.22448224;0.37739265;-0.025864957;-0.0062467926;-0.10879197;0.039556533;0.18754168;-0.013049967;-0.06891677;-0.050626595;-0.10424073;-0.023473583;-0.0050707883;-0.08213304;-0.041203752;0.18959284;0.14621566;0.28876942;-0.017338527;0.085404105;0.18826713;0.0010075044;0.007086055;0.031764004;0.014856259;0.08372303;-0.07404726;0.06645949;-0.06837802;0.055876844;-0.015236669;0.05192868;-0.042017434;-0.11359319;0.10018041;0.0021831696;-0.04718983;-0.021342201;0.22379774;-0.100075476;-0.23515728;0.17418256;0.19928578;0.04332483;-0.039023552;0.029839486;-0.20219518;0.035372354;-0.0021408035;-0.3261752;0.123846784;-0.074839376;0.26151648;0.010362791;0.19906518;-0.034518376;0.02854979;-0.22142324;0.22445808;-0.023825286;-0.075278275;0.012426125;0.0034400176;0.01213432;0.16550156;0.013928376;-0.07917179;-0.18319325;0.3231023;0.020050678;0.06611477;0.0366708;-0.026938263;0.28303573;0.21810517;-0.142761;-0.00042005375;-0.0018475808;0.03178171;-0.1177862;0.06875012;-0.40136066;0.35586256;-0.16266769;0.3969466;-0.020444013;-0.06312439;-0.074969806;0.3106692;0.38395768;0.041487146;0.0286936;-0.011154027;0.27817193;0.06357724;0.06348521;-0.04367905;0.11931864;-0.04056928;0.23409776;-0.04846377;0.2945541;0.20506495;-0.032468196;-0.103915006;0.11332017;-0.0028306993;0.043894473;0.03352484;0.2856726;0.26337567;-0.0134762935;-0.03650908;0.023366047;0.35470983;-0.28905448;0.2005624;0.17763571;0.061182514;-0.28305396;-0.20674682;-0.102813765;0.09150278;-0.08290498;-0.09561015;-0.04818868;0.06509548;0.05088907;-0.034060325;0.13041621;-0.06860358;-0.0635907;-0.034625225;-0.06700998;0.11344737;-0.24154887;0.0643581;0.031010859;0.37408763;0.08744606;0.02048323;0.1925886;-0.015132414;0.18743394;-0.5697227;0.18181339;-0.37589523;-0.065933615;-0.28453994;0.002219184;0.26955482;0.3207264;0.06732309;0.04380739;0.026465654;-0.062205844;0.23426291;0.01073897;-0.15598334;-0.036849838;-0.38598222;0.039304703;0.46437082;0.30924717;-0.009078862;0.22002548;0.4393442;-0.14855604;0.024378432;0.2829899;0.043952234;0.0715545;0.2865351;-0.053026978;-0.06173012;-0.09226333;0.059139267;0.106810614;-0.0666595;0.019881716;0.00839892;-0.056373633;0.1219314;-0.032636892;0.31869125;-0.045678977;-0.27149838;0.031048436;0.042743944;0.23224255;-0.062934704;-0.028971022;0.12348843;0.06250668;0.03337476;0.18571305;0.034709077;-0.08430002;-0.2813409;0.012117712;0.006776722;0.062607765;0.15104854;0.028941873;-0.033854887;0.23151085;0.04746622;0.11337902;0.0739951;-0.019068683;0.020332918;-0.053040918;0.55215067;-0.055565145;0.3163003;0.032501195;-0.019495642;0.4582636;-0.028613202;-0.05917759;-0.23953344;0.092782445;-0.19625224;0.019984774;0.248627;0.030709665;0.018736316;0.120000966
-0.15357783;0.09345349;-0.07348206;0.10285234;0.079448655;-0.0018860936;0.4251429;0.052043404;0.0041555264;-0.057700135;0.009955238;0.017990386;0.03156036;-0.08034566;0.31843472;-0.09248701;0.053488176;0.17049578;-0.022018185;0.15986189;0.08599488;0.19310623;0.23915999;-0.13359685;0.2684675;0.071150996;-0.08373718;0.0216757;-0.05316534;-0.003956705;0.05675945;-0.08749417;-0.094249986;0.028043022;0.04320466;-0.01771237;0.1256949;-0.20845145;0.293176;0.03156547;0.019433474;0.051998496;0.301028;0.19416532;0.040300038;0.18443216;-0.045922242;0.02756075;0.056589086;-0.16046928;0.05052958;-0.044596553;-0.051055852;0.18820378;-0.046459503;-0.022676328;0.41936913;0.052447557;0.3934133;0.07445752;0.0757904;0.22066633;-0.029196696;0.2601259;0.36791295;0.17501584;0.01649095;0.3048597;0.003223279;-0.0371561;0.27329102;-0.28320152;-0.45268574;-0.010073345;0.3026627;0.100699335;0.38221964;-0.14518382;-0.35812378;-0.08131902;0.010205056;-0.014646975;0.2357902;0.31071332;0.07981121;-0.19062528;-0.14299661;-0.01627861;-0.0044770166;0.24664818;0.03335712;-0.052393377;0.036832888;-0.020350344;-0.026115527;0.2596585;0.050048422;0.01763078;0.13328077;-0.04087962;-0.089585885;0.024617152;0.03621907;0.079275444;-0.19402257;-0.022045765;0.2716739;-0.025450895;-0.064030975;0.030155562;0.37616694;0.539247;0.04371925;-0.07670481;0.045084905;-0.20452894;-0.013679386;-0.048896935;0.04084486;-0.28955448;0.03193862;-0.078577206;0.19431853;-0.025106447;0.141638;0.14606597;-0.06423129;0.20253989;-0.13712507;-0.06419909;0.17113434;0.2662823;0.008350576;0.2761448;0.09361407;0.040916666;-0.15386684;0.39441735;0.03532857;0.37736273;-0.11724037;0.011113205;0.013220124;-0.22109553;-0.115581416;0.013822426;0.0011497694;-0.15857163;-0.07050612;0.08734095;-0.2842519;0.062024225;0.08195765;0.0482706;0.32215324;-0.029000847;0.0898302;-0.42195487;0.08089571;0.0013311338;-0.010220271;-0.31748095;0.4694792;-0.10599162;0.2201266;-0.048476186;0.026070453;-0.30641648;-0.008323619;-0.0690753;0.07926267;0.1069764;0.046644256;0.011035344;0.016175423;0.04301621;0.017289001;0.22648756;-0.030230267;0.15876624;0.09660474;0.24156703;-0.027263995;0.121618465;0.0052058245;0.08834032;0.010727877;0.3664255;-0.08549933;0.22706592;-0.03591579;0.1978784;0.07368188;-0.16921091;0.16162379;-0.21555899;0.049983468;0.14108936;0.25066382;0.083416864;0.05380843;-0.037336092;-0.045085438;0.082361214;0.33628553;0.29800332;0.11471051;-0.23229977;0.5315909;-0.053807072;0.07478295;-0.17444018;0.056005225;0.04547742;0.3472832;-0.15627709;-0.08615321;0.28321466;0.34629616;-0.035871524;0.35478944;0.21865922;0.03221239;-0.25398242;0.059337426;0.08510659;0.24422707;-0.059182953;-0.005195251;0.42737287;0.07145485;0.23048943;-0.016470723;-0.01824009;0.3426006;0.30275163;-0.26771444;-0.030913739;0.041465756;-0.16029735;-0.16914023;-0.03868453;0.29847243;-0.09611008;0.019469481;0.19774765;-0.62149316;-0.07417095;0.14177981;-0.042912282;-0.1018045;-0.05488332;0.06488509;0.2299256;0.026800955;-0.5958117;-0.21651334;0.08421167;-0.18256311;-0.016411971;0.085909024;0.037135165;0.2481283;-0.26916364;0.06607754;-0.33105436;-0.006827948;0.09076581;-0.21239093;-0.05457642;0.018869579;0.08746732;-0.4496398;-0.029552817;0.058215074;0.2199687;-0.052054364;-0.030712755;-0.08622589;0.062104877;-0.05236109;-0.09390652;-0.24070063;-0.08380891;0.011000691;0.0005487204;0.029737595;0.09812194;0.06590118;0.054162078;-0.31215885;0.04306182;0.37960216;0.16379985;-0.0020251272;0.045643434;-0.09773512;-0.16374949;-0.23489833;0.08437841;0.3719307;-0.017470658;0.013999254;-0.073451445;0.15694994;0.11338902;0.21844359;0.021007394;-0.1995361;-0.21020827;0.074356765;-0.085765235;-0.050284225;-0.0668373;-0.029159077;-0.049411617;0.053740107;-0.011347338;-0.0711207;-0.0068698074;-0.07891212;0.07374794;0.28982422;0.09075511;0.011861376;-0.013019022;0.022074914;0.1535671;0.2327588;-0.058881212;-0.01292471;-0.0321391;-0.27975973;-0.16537476;-0.16703217;-0.042126372;0.059550136;0.2600477;0.31316873;-0.036402784;-0.033588197;0.2803059;0.162985;0.09608054;0.2137115;0.06574285;-0.064976394;-0.037552666;-0.21573262;0.22345532;-0.13663326;0.019497206;-0.109706186;0.2303961;0.117790945;-0.06697653;-0.05834595;0.0053390376;-0.08724431;0.00033814166;-0.12493199;-0.17173046;-0.04896191;0.23589732;0.19783019;0.26808617;0.06626758;0.17883298;0.23003882;0.03526999;0.132282;0.10269621;-0.050425205;-0.017807538;0.030947065;-0.06567199;0.07711511;0.047351163;0.11537617;-0.0456152;0.07205867;-0.010683183;0.012053692;0.02146378;0.022680417;0.0688243;0.1484578;-0.037458774;-0.14576715;0.11689361;0.17973408;0.10087799;-0.07769553;-0.048830256;-0.10916848;0.08596117;0.006259441;-0.36501223;0.029058099;-0.26650324;0.15362221;0.04137436;0.1281875;0.052751597;-0.03255615;-0.2875776;0.3038562;0.041760456;0.02026649;0.023522012;0.055267464;-0.045254815;0.16824692;0.06797517;-0.06522077;-0.08798519;0.25796992;-0.03190498;-0.061724525;0.11179609;0.029578814;0.16362669;0.23602414;-0.05476498;0.050581712;-0.049669653;0.07279006;-0.03148172;0.0024702975;-0.27386189;0.382175;-0.041885372;0.4469429;-0.02762419;-0.054245755;-0.03926551;0.30771533;0.3282057;0.17866914;0.0026598107;-0.024062335;0.23612358;-0.0627532;0.1308014;-0.08822119;0.1914166;0.056011386;0.31914473;-0.044807315;0.28118372;0.14424914;0.030797964;-0.11006584;0.13866974;0.012469102;0.098265044;0.035677508;0.258844;0.2768759;-0.024189519;-0.02449902;-0.05072053;0.3301804;-0.21293783;0.20723705;0.2530059;-0.028351469;-0.27410182;-0.18921843;-0.1035886;0.05494843;-0.07933648;0.029845944;-0.070605926;0.1756229;-0.035403565;0.026746782;0.11265157;-0.078029916;-0.017798625;-0.044241033;-0.04083486;0.07688454;-0.30195248;0.069901176;0.07061789;0.3345394;0.25306955;-0.040608943;0.14460646;-0.07613864;0.22477607;-0.55359745;0.20872194;-0.3007035;0.060910042;-0.25959608;0.02727916;0.25091848;0.45292354;0.048593648;-0.023526745;0.00033635058;-0.009125714;0.20626982;-0.04128911;-0.18456347;0.013518611;-0.26196203;0.12908822;0.42346293;0.3285026;-0.03555866;0.12663934;0.44837517;0.0074255774;-0.008779255;0.20102301;0.03191826;0.05571952;0.30019894;0.08480794;0.029322317;-0.16102512;-0.007030072;0.2508021;-0.020483315;0.032102846;-0.16229914;0.059200164;0.2500955;-0.02750941;0.22379655;0.044094533;-0.22030035;0.13909282;0.06862403;0.12970094;0.06388035;0.09026653;0.12674037;0.12920785;-0.012571513;0.16024902;0.044039134;0.0764991;-0.3686571;-0.030393332;-0.059946496;-0.044254985;0.14385334;0.011016261;0.10216151;0.25507084;0.02045704;0.16877288;0.09013037;0.06115974;0.034959566;0.06332008;0.4703611;0.073302634;0.2542758;0.019428194;0.03787738;0.40646005;0.036008056;-0.12817563;-0.22201462;0.18741252;-0.14050795;0.03557328;0.2795706;0.11319736;-0.19249068;0.112931706
-0.1236956;0.122083224;-0.03044741;0.10581361;0.058896948;0.011375717;0.5535199;0.050225314;-0.06776916;0.03048551;0.116428256;0.13309263;-0.035951123;-0.08599048;0.1392887;-0.013263251;0.00217051;0.08056819;-0.058785588;0.12889096;0.17659687;0.075881;0.21105832;-0.08636342;0.20621203;0.033477332;-0.015225515;0.01628983;0.039886586;-0.036057923;0.048441906;-0.105061874;-0.21313882;-0.06480475;0.043280024;0.08036656;0.15197119;-0.22454764;0.34558237;0.04985264;-0.0191667;0.056992564;0.2664111;0.42633554;0.011763179;0.20969169;-0.045932334;0.105154246;0.035371516;-0.17253672;0.03649138;0.025836151;0.0134696355;0.1201915;0.032135025;-0.060837325;0.34582913;0.014446977;0.3947313;0.013743478;-0.09048727;0.2618683;0.030974403;0.2504156;0.32422185;0.26541469;-0.0056825695;0.32639238;0.023755115;0.002592466;0.17758954;-0.3173824;-0.4454716;-0.0070147812;0.29486617;0.15467887;0.3719557;-0.25355038;-0.24504246;0.07063369;-0.039336678;0.009791005;0.12129506;0.33744282;0.022822393;-0.24691947;-0.066815;-0.047941905;0.056392137;0.26908404;0.058509484;-0.110617466;0.052501753;0.093101166;0.036889587;0.26422125;0.038147967;-0.051857658;0.19019422;0.018833887;-0.02241576;0.006454528;0.07361213;0.1451163;-0.18889879;0.037194032;0.17172971;-0.061501294;0.071364455;-0.011679694;0.39016286;0.49673602;-0.13657577;0.020569501;0.029960852;-0.13803063;0.05244144;0.033876818;-0.04752222;-0.2746303;0.03750173;0.015049707;0.20111795;0.08170582;0.22040717;0.060811095;-0.10469879;0.032672398;-0.123381175;0.021644203;0.25688383;0.31404358;0.030443864;0.34124875;-0.06444441;-0.032710016;-0.16904621;0.43876153;0.12350763;0.35450473;-0.124883875;-0.036431618;0.08026375;-0.24248835;-0.09383152;0.029147564;-0.051335223;-0.10358492;0.061083797;0.10281389;-0.21791731;-0.030787695;0.0029159389;-0.031661965;0.31980854;0.09209728;-0.037526723;-0.52822065;0.1002458;-0.0114679085;-0.09323302;-0.24324305;0.49522617;-0.091087885;0.28185388;0.023948511;-0.050378934;-0.1998212;-0.055220835;-0.026751827;-0.023396768;-0.023858095;0.034566473;-0.006194511;-0.014623236;0.094268516;-0.085629225;0.26586172;0.08963806;0.23041242;0.12658219;0.16837977;-0.032967832;0.049626373;-0.001212232;-0.017114483;-0.016654428;0.4745247;-0.13467257;0.20374748;0.028634071;0.16312526;0.1920575;-0.10087773;0.18293484;-0.29674324;-0.05353305;0.15805408;0.21569808;0.009659884;0.055056162;-0.010154359;-0.059234492;-0.07794383;0.27949032;0.25771952;0.07100373;-0.3652211;0.5307779;0.070533805;0.11756416;-0.11187144;-0.05374449;-0.0409421;0.31996134;-0.002627054;-0.16455527;0.3905484;0.35949957;0.06057321;0.40238926;0.22524168;0.035007652;-0.17982845;-0.08066164;-0.031091494;0.3125695;0.06221103;-0.010251064;0.34221223;-0.014831326;0.27740747;-0.045893233;-0.02503858;0.4311741;0.24622688;-0.3688916;0.049342766;-0.037539773;-0.2328356;-0.23170175;-0.22506772;0.22787292;-0.089012444;0.05092827;0.30330896;-0.49632648;0.08276412;0.23766097;0.032002863;0.0007355937;0.048922524;0.10339192;0.24422315;-0.019999271;-0.51891744;-0.14980823;-0.04400458;-0.27650312;0.08047797;0.14152686;-0.031056669;0.32600495;-0.3022561;-0.030520279;-0.31774944;0.039762326;0.0058876486;-0.26694736;-0.053726792;-0.044656772;0.2134818;-0.4467749;-0.008920638;-0.04196397;0.11890371;-0.026944494;0.059734445;0.031922143;-0.061050538;-0.04122557;-0.09164309;-0.17124799;-0.01673399;0.0326151;-0.038417123;0.02364604;0.15131216;0.063780926;-0.05557177;-0.3286092;-0.055774182;0.41750497;0.13384283;-0.031273667;0.071541;0.026861392;-0.28007305;-0.16661084;-0.0067991973;0.3083892;-0.039216723;-0.05895421;0.06482036;0.08765791;0.023579529;0.21871667;-0.0587096;-0.10633991;-0.12569578;0.07808209;-0.017905086;-0.037738796;0.0042713163;-0.050308157;0.05080599;0.048591845;-0.05469886;0.003881124;-0.09499459;-0.07149572;0.03302322;0.24118428;0.17074232;-0.040730305;0.06472588;-0.0095475735;0.1789941;0.13156345;0.069595896;0.010222577;-0.029182104;-0.21794441;-0.2513277;-0.1473173;-0.010921773;0.041958574;0.2809074;0.20605792;0.004030935;0.04320456;0.1833592;0.1444348;0.071046874;0.26231173;-0.020219512;0.048455797;-0.028010227;-0.1359119;0.2818768;-0.05980855;0.03808578;-0.09283388;0.2215333;0.19060974;0.03846096;0.11463462;-0.054818142;-0.11628008;-0.044433825;-0.17900424;-0.118328184;0.051172853;0.094269685;0.20838386;0.30509496;-0.02626725;0.014566384;0.27108398;0.074482895;0.009089491;0.048402663;0.00011572974;0.011560872;-0.036370978;-0.04587005;0.021800896;-0.00851559;0.08717407;0.00029534078;0.0129066855;-0.08541396;-0.012869976;-0.027028132;-0.0056468886;0.03853858;0.1479845;-0.014561549;-0.29557005;0.101467766;0.20319772;0.035532095;-0.09289375;-0.062777996;-0.05361533;0.13675207;-0.014006894;-0.38785562;0.0050506643;-0.106685124;0.2299039;-0.025548467;0.26398018;-0.031356268;0.032213103;-0.24985982;0.16965608;0.03873171;0.040640973;0.048280187;-0.009380798;0.06421294;0.12991701;0.018261492;-0.22631443;-0.06944735;0.26695734;-0.023127351;-0.019350948;-0.041208856;-0.02329184;0.23780508;0.1402106;-0.08959596;-0.078813374;0.045020282;-0.05259994;-0.061426643;-0.108948395;-0.23088115;0.33291396;0.02676074;0.44258213;0.07463735;0.0842359;0.009784252;0.29511973;0.43508652;0.18439636;-0.039005022;0.06188944;0.100964874;0.03308493;0.19455047;0.022094663;0.178074;0.035545915;0.36444768;0.08075303;0.29521778;0.22396627;-0.0019063057;-0.08863114;0.06429562;0.001236797;-0.006363032;-0.066413574;0.23835808;0.3925851;-0.05230887;0.017824112;-0.039500095;0.44897017;-0.333955;0.1923657;0.105081126;-0.058622412;-0.30546546;-0.044843487;-0.12122433;0.06961412;0.017117398;0.06744355;0.07841994;0.027575046;0.055920087;0.06892069;0.08961736;-0.09197555;0.02235314;-0.019650346;0.0048231333;0.21480417;-0.15870856;0.03567662;-0.03679225;0.29984385;0.12622018;0.028169269;0.08162266;0.011447686;0.25133008;-0.42382857;0.17815611;-0.40602106;0.076387964;-0.35197866;-0.033469442;0.18794571;0.3910029;0.0441969;0.009785534;0.029760348;-0.018588847;0.22987075;-0.020151364;-0.1265979;-0.0076273307;-0.23148203;0.013402834;0.40708444;0.25199187;0.012249647;0.1829166;0.42884246;-0.0187737;-0.014324902;0.4102711;-0.07421422;0.006227521;0.20782839;-0.017280113;0.004406018;-0.10510808;-0.034502435;0.24265149;-0.055529695;-0.017139215;-0.06614789;-0.03521832;0.2483103;0.00028763825;0.16382903;0.028596593;-0.16573419;0.023781637;-0.08182897;0.13114992;0.0014909095;0.0003221803;0.16854219;0.031287186;0.02740758;0.24472818;-0.0062902104;-0.0069498257;-0.39865154;-0.009141043;0.048739552;0.013685164;0.13606729;-0.00847363;-0.03959656;0.18249023;0.018338574;0.20263483;0.23196307;-0.038213972;0.07824693;-0.04123545;0.51303434;0.06599707;0.32661045;0.07912846;-0.056378838;0.38568115;0.019128798;-0.14280882;-0.28037062;0.27597642;-0.1282969;-0.025325935;0.17678265;0.008002983;-0.16354868;-0.024319207
-0.11031797;0.005671741;0.09034319;-0.011208847;0.048110217;0.0011685257;0.56204724;-0.025054377;0.037813403;-0.023710007;0.10801755;0.16039065;-0.056385573;-0.05475535;0.21420984;0.00041840711;-0.078170724;0.04849129;0.059222512;0.084147945;0.25932607;0.08475712;0.08495741;-0.11866536;0.04731176;-0.023206824;-0.07439951;0.09491648;-0.031756237;0.0566087;0.103603885;-0.1073433;-0.20846115;-0.04840561;0.045594875;0.118782505;0.20736381;-0.41936797;0.3540031;0.108157426;-0.025951285;-0.05303219;0.32959923;0.39576736;0.045705356;0.29334;-0.0017214684;0.021048132;-0.07691888;-0.18104617;-0.008348055;0.0031020907;0.08294886;0.13146377;0.05646854;-0.017912395;0.3795808;-0.03295994;0.323622;0.16219391;0.03781819;0.20308094;0.0032057576;0.2810201;0.39371008;0.18048039;-0.10776914;0.20596375;0.046671476;-0.03436753;0.15299919;-0.24537148;-0.3750314;0.016938547;0.3329487;0.19585128;0.3024472;-0.22104903;-0.239663;-0.011119643;0.05360189;0.06547725;0.2354962;0.37266445;-0.05772285;-0.24884076;-0.1193315;0.015840147;-0.080867626;0.20401724;0.21176787;0.04776417;0.01625307;-0.015802784;-0.013040693;0.19487786;0.0050779153;-0.07163923;0.1561762;-0.0065387846;0.019984385;0.08323354;-0.06379929;0.05059271;-0.28063434;-0.010524503;0.32807714;0.037459146;-0.030841777;-0.05921433;0.3000601;0.4951542;-0.13464789;-0.02934755;-0.021031387;-0.05515428;-0.020389657;0.01902056;0.0031589542;-0.26418248;0.019941872;-0.005156791;0.12864189;-0.0379886;0.027434649;0.09454365;-0.17644145;0.049294967;-0.09214205;0.06179812;0.23797081;0.27688858;0.056219015;0.2838584;-0.0053706444;-0.08556324;-0.18389897;0.40762305;0.115696214;0.25721842;-0.12675038;-0.024666488;0.001977606;-0.21194531;-0.21898183;-0.0482851;0.051355146;-0.21827187;-0.07745752;0.10800565;-0.18689196;0.030722225;0.047096394;0.026517134;0.20434782;0.047499716;-0.07158822;-0.5015153;0.15809184;-0.12687217;-0.13292955;-0.24623269;0.46141472;-0.10230022;0.2509611;-0.031848628;-0.02438875;-0.09899083;0.06600181;0.060133353;0.058092315;0.057722308;0.048035808;-0.036851227;-0.013919095;0.09349488;0.035872765;0.24522534;0.017401606;0.14300366;0.1821652;0.23916627;-0.073151805;0.095920265;-0.06153805;-0.057409238;0.030087633;0.4736814;-0.13340396;0.14660595;0.012782178;0.19665584;0.23316655;-0.1670639;0.04219373;-0.30590588;0.056400154;0.2141013;0.31643254;0.01946945;0.01858766;0.0044242637;0.043832038;0.010322613;0.30787027;0.08254387;0.040111747;-0.41492024;0.4939764;0.010098069;0.085958235;-0.19975357;0.0051133335;-0.04377818;0.14316429;-0.0513696;-0.13830233;0.29136947;0.3041304;0.17459941;0.43547872;0.226342;-0.009464546;-0.102682725;-0.002729285;-0.06336523;0.23520887;0.0117280055;0.05462767;0.36243096;-0.065141685;0.23069824;-0.019101935;0.016194783;0.36756954;0.30633718;-0.49361882;-0.047161028;0.068804316;-0.14683792;-0.20891057;-0.23068956;0.2478839;-0.06837035;-0.07025787;0.21302526;-0.5776602;0.15019959;0.23513612;0.06957733;-0.029029313;0.046380643;-0.15212813;0.27361923;0.055732775;-0.44980198;-0.22756805;0.015664171;-0.26808545;0.057892416;0.09086798;-0.062413048;0.34610686;-0.3770197;0.008712725;-0.2263862;0.00047813012;-0.07128388;-0.17176642;0.04755115;-0.061979968;0.16004787;-0.27870893;-0.046428695;0.008123328;0.060833182;-0.101016864;0.06665316;-0.06724591;0.009961577;0.052007053;-0.017100696;-0.15326421;-0.05863195;-0.027755948;-0.12112473;-0.03572882;0.18818249;0.09212066;0.02289127;-0.33873376;0.016023865;0.33602232;0.14791821;-0.0038751224;0.025615409;-0.011352778;-0.21878205;-0.23796098;0.044717327;0.24261299;-0.0010262319;-0.048182715;0.024052637;0.12644416;0.101079844;0.20767935;0.03366034;-0.062485192;-0.0347472;0.11655669;-0.055610497;0.0076830797;0.045039747;-0.07566324;0.16935325;0.051500056;-0.022870941;-0.039381735;0.05539209;0.0312576;0.032361604;0.2980999;0.16649842;-0.074482985;0.17667598;-0.038634945;0.115674645;0.25919515;0.07273901;0.013854836;0.007536689;-0.21666075;-0.23733884;-0.1499739;-0.03971909;0.056961868;0.31523582;0.25769112;-0.01721051;0.07312581;0.13408904;0.1656769;0.14435892;0.36176774;0.07749304;0.04764064;0.0016232409;-0.12021673;0.27280062;-0.09284386;0.13319303;-0.106960185;0.21194902;0.25815842;-0.08031021;-0.004172851;0.022447694;-0.25285378;-0.031728223;-0.18290396;-0.028109238;0.062542595;0.19966364;0.18463908;0.2555276;-0.02870711;0.12813085;0.3142074;0.07909664;-0.015439988;-0.12559853;0.03492545;-0.05247437;0.034734204;-0.041486155;-0.08875148;-0.026645502;0.056210376;-0.0497156;-0.042790048;-0.006421612;-0.028544951;-0.019589059;-0.0039877645;-0.030159047;0.2645092;-0.0043777036;-0.3189323;0.12761885;0.1270876;0.13846333;-0.027924456;-0.020353997;0.050901577;0.045950916;-0.05040139;-0.26682732;-0.21728814;-0.11241537;0.1388842;0.011660367;0.30571193;0.0659774;-0.04608261;-0.29476702;0.16089667;-0.034650378;-0.088387474;-0.004710015;0.01692133;-0.053669304;0.12863252;-0.043005113;-0.2209331;-0.05257849;0.31804547;0.05118833;-0.036264647;0.048034146;-0.0978214;0.086966574;0.16233335;-0.035253666;-0.07939582;-0.008651044;0.017374424;-0.040458128;-0.19932728;-0.28497428;0.31875068;-0.01595807;0.50601715;-0.06941115;0.012300064;-0.008413439;0.2571664;0.42611033;0.09888803;0.003915505;0.03413396;0.060200665;-0.017289057;0.23043652;0.024619842;0.17112286;-0.0046680765;0.37296575;0.050870992;0.19016804;0.28576145;-0.04115216;-0.06881314;-0.041831795;-0.038847905;0.045618996;0.030833887;0.21008673;0.21366513;-0.009176014;0.055176407;0.06712452;0.4800311;-0.27740067;0.03016982;0.17614084;0.06771611;-0.30939534;-0.14200558;-0.0008738655;0.16004366;-0.13583384;-0.018015075;0.10972811;0.15771773;-0.0022479114;-0.09064465;0.05877869;-0.1556693;-0.042946078;-0.06107672;-0.009809632;0.18498555;-0.04191607;0.016396137;-0.052985948;0.25618425;0.22502762;-0.024199348;0.018940525;0.054682553;0.177247;-0.43675333;0.25285524;-0.31606546;-0.059188224;-0.35077262;-0.018722378;0.19873379;0.3499996;-0.073441945;-0.015880013;-0.039851755;-0.016462633;0.2868648;-0.013934199;-0.0812411;-0.019601913;-0.14528495;-0.027213663;0.3540287;0.12978943;0.054039933;0.28137884;0.42819092;0.04633878;0.050808277;0.31236595;0.0090676565;-0.046532616;0.22436547;-0.055180565;0.009614327;-0.22205056;0.0016679134;0.3550292;0.04968124;0.005890471;-0.11116896;0.06909038;0.18986817;0.025863575;0.26213434;0.042674858;-0.01485904;0.08011104;-0.06188286;0.23411557;0.064508945;0.084285855;0.060548;0.115106046;0.019187238;0.20060235;0.032322142;-0.02911636;-0.3038184;-0.08348619;0.112231374;-0.04240423;0.06699738;-0.03789191;-0.034917235;0.14689228;-0.012647401;0.27854872;0.076234184;-0.085598215;-0.029101133;-0.0040294304;0.48625004;0.15303344;0.28148204;0.040357407;0.034943007;0.33479318;0.05145913;-0.170622;-0.2122791;0.34660152;-0.17916764;-0.03400644;0.10691482;0.17840017;-0.22836065;-0.023446763
-0.07112525;0.10449206;0.027644854;0.07318194;0.026575636;0.06455114;0.45647764;-0.06328022;-0.058399975;0.03341207;0.16740572;0.18997747;0.033540536;-0.07308135;0.02824829;0.060337372;0.022568012;0.058925822;-0.021241814;0.23180066;0.25933447;0.06693743;0.15491627;0.021773206;0.05252675;0.08390854;-0.10550245;-0.009622245;-0.064823344;0.016289042;0.10297327;0.079948716;-0.120681;-0.0035151057;-0.012329559;0.09807527;0.24171299;-0.3471134;0.32789382;0.06640733;0.046318896;-0.053864148;0.31021217;0.37057453;-0.11844928;0.31559578;-0.0593898;-0.019667221;0.026169427;-0.09871842;-0.036370665;0.007499658;-0.0052687232;0.07406884;-0.041413818;0.02716547;0.43090406;-0.027803687;0.2116644;0.28317988;-0.08259742;0.23251905;0.012468243;0.23633827;0.3758825;0.09332732;-0.11415087;0.236118;0.022324685;0.032442134;0.12585683;-0.19864646;-0.39279336;-0.0063838107;0.3783046;0.14849256;0.12943152;-0.1967664;-0.15121388;0.054557957;-0.059665125;-0.02897315;0.103552826;0.35101458;-0.0047206697;-0.19665422;-0.104013294;0.03404998;0.058060475;0.23480923;0.11874179;-0.014812637;-0.05446798;0.042283893;-0.03370469;0.34151947;0.023572858;-0.11807062;0.013987621;0.11660244;-0.032213673;-0.06368013;0.0061580883;-0.034491718;-0.2360816;0.054697692;0.2887168;-0.01271567;-0.0096031055;0.02608311;0.38928956;0.32936054;-0.17305472;0.05193756;-0.029014202;-0.13254508;-0.04993761;-0.15635175;-0.047358003;-0.2606167;0.071263604;0.029287828;0.2718435;-0.09614566;0.013588878;0.11325826;-0.053083964;-0.021849455;-0.21778257;-0.04836216;0.28431013;0.25128388;-0.03473445;0.30873248;-0.05987495;-0.041001868;-0.23176204;0.3039718;0.11380726;0.397869;-0.064471215;0.04984106;0.13234836;-0.21461184;-0.22413693;-0.018129861;-0.02083456;-0.0755412;-0.0671185;0.07737651;-0.08923942;-0.008229203;-0.009475855;-0.0504116;0.1784835;0.0013047071;0.02027364;-0.5797567;0.19236267;-0.022570016;-0.1094997;-0.32886842;0.40543273;-0.037311327;0.19892511;0.05438455;-0.10828049;0.006374957;0.07794982;-0.0564166;-0.05015065;0.00053608604;-0.02856455;0.0178361;-0.044654094;-0.091366775;-0.070302516;0.30277136;0.09826296;0.16115446;0.14553179;0.13387758;-0.07643952;0.12751594;0.055603143;-0.035982367;-0.07542862;0.4790085;-0.19054265;0.21619953;-0.03633404;0.08372766;0.1427718;-0.13850321;-0.017835667;-0.2608266;0.065724514;0.38157138;0.20090722;0.103355005;0.022541333;0.015427442;-0.04045952;0.06931645;0.29197958;-0.05953108;-0.043458983;-0.37145713;0.46572587;0.021779165;0.15179735;-0.1150889;-0.041106615;-0.014454296;0.059265774;-0.0029027592;-0.09525078;0.3325106;0.16895238;0.1358658;0.35114577;0.11450742;-0.21072833;-0.24993029;0.030012956;-0.05872823;0.3057011;-0.06224638;-0.06472002;0.30971137;0.038052242;0.19863194;0.0028776028;0.022933483;0.37537128;0.19451852;-0.49407902;-0.11552466;-0.006745527;-0.11218452;-0.18568653;-0.12075904;0.3557184;-0.025008097;0.0092949895;0.16334514;-0.63332266;0.12724763;0.18351194;-0.0378151;0.0016211353;0.047593202;-0.18567657;0.16545083;0.018060628;-0.5342324;-0.089569375;-0.0424103;-0.19907875;0.08747515;0.10593259;-0.15274394;0.44147715;-0.28193814;-0.050110262;-0.34171614;-0.031877734;-0.04778575;-0.14285798;0.027756115;-0.0302219;0.16460876;-0.30473515;-0.12968287;-0.04472892;0.05069551;-0.11052991;-0.0047160615;0.0051141405;-0.011351336;0.095750086;0.051101096;-0.25538212;0.18058741;-0.016483825;-0.058185834;0.03409078;0.1456259;0.23657222;0.056378756;-0.33499107;-0.05934938;0.20100419;0.15132391;0.02729913;0.1429287;0.02525734;-0.18136904;-0.2933443;0.011683858;0.3278673;0.08396636;-0.00925763;-0.06833888;0.20911889;0.11108398;0.1972252;-0.031503223;-0.09584577;-0.050592244;0.19558892;-0.09441064;-0.015925383;-0.10006992;-0.19340238;0.18833302;0.07256603;-0.01419042;0.061951198;-0.030548537;-0.03521296;-0.0405398;0.18746036;0.20805514;0.0015091648;0.15235996;0.0049699666;0.11559102;0.20944624;0.12878259;0.072651796;0.06466661;-0.13501175;-0.23416816;-0.12041678;-0.044787392;0.06895574;0.21177305;0.19463986;-0.17488195;-0.07159391;0.050745305;0.07467737;0.10980846;0.3647702;0.02543231;0.034533963;0.045729216;-0.07812536;0.22627978;-0.101487234;0.0670436;-0.062372662;0.39932832;0.34329277;-0.1089381;-0.06305412;-0.035197616;-0.10653949;0.026647305;-0.13680042;-0.0528737;-0.034176894;0.0762532;0.2578984;0.24233913;0.005258996;0.028037563;0.38998646;0.17865548;0.02029622;-0.1536044;0.05249145;0.059986252;-0.033155162;0.06017125;0.027716752;-0.00838029;0.06337356;0.081163764;0.048539437;-0.0056767957;-0.0076021235;0.0091235265;0.025080899;0.011169796;0.20408356;-0.014102364;-0.4144302;0.16796279;0.07436144;0.18497345;-0.043238513;-0.024524763;0.12817708;0.08030181;0.030344622;-0.15502396;-0.30197385;-0.021336852;0.25321022;-0.011079491;0.26918116;0.051048387;-0.04827686;-0.25991666;0.1798508;0.062176235;0.09568252;-0.035461634;-0.06690253;0.048251525;0.18652436;0.023445692;-0.12222557;-0.11666383;0.30844367;-0.049483098;-0.025885789;-0.04104793;-0.06439926;0.1499876;0.2615351;-0.08191449;-0.07758613;0.04336334;-0.078312635;-0.16104007;-0.11216581;-0.32481357;0.20054232;0.017041156;0.49463525;-0.0056366897;0.0155417025;0.101240955;0.2977205;0.359518;0.067649856;-0.050948087;-0.0020172694;0.14497155;0.04974287;0.1867076;0.06946802;0.23618887;-0.048895624;0.44296202;-0.0692817;0.18591847;0.24735327;-0.041367866;0.09433461;0.08636671;-0.09371177;0.10554976;0.045352217;0.10356878;0.27232048;0.0740299;0.0032655892;-0.061280936;0.39989164;-0.49992457;-0.017450217;0.1352747;-0.03221006;-0.21950367;-0.087858655;-0.049282975;0.19550288;-0.049226116;0.015511496;0.021484531;0.14040883;0.062361404;0.053745817;0.11106039;-0.19733167;-0.008298016;-0.064230956;-0.047416255;0.07422667;-0.05988862;0.12436657;0.02320049;0.23794755;0.14790854;0.01633792;-0.036300406;0.0063303066;0.24058518;-0.45595595;0.22958724;-0.21022773;0.016459538;-0.2887207;0.018007811;0.2514193;0.32519007;-0.114153564;-0.03615384;-0.026828783;-0.025051884;0.23925453;0.081798084;-0.17916372;-0.042705957;-0.091840945;0.17187071;0.32642972;0.1577642;0.06308824;0.20775712;0.3638808;0.11489513;0.0366237;0.25445893;0.014063545;0.091629475;0.21740596;0.07292582;0.03470012;-0.19827391;-0.05028347;0.21865475;0.021546135;-0.023974434;0.02648958;0.023922386;0.16800883;-0.022939514;0.28932348;0.010669523;0.08218561;0.007606982;-0.031714644;0.20617038;0.046613418;0.21004362;0.10722903;0.11702325;-0.020182926;0.20687848;0.0006093482;0.036239367;-0.29963213;0.06023999;0.020673977;0.04815927;-0.008918689;0.07571308;-0.017541379;0.12113811;-0.03873939;0.31615326;0.17189966;0.012896158;-0.028002603;-0.0036743337;0.3529319;0.0070011616;0.25304183;0.018261308;-0.07355822;0.31447107;0.008234006;-0.07092718;-0.13384676;0.18321368;-0.19798666;-0.039247453;0.16220579;0.12540595;-0.2126554;-0.10743807
-0.15570554;0.124929205;0.11289606;0.07308507;0.041481897;0.020943906;0.5321362;-0.055198375;-0.10426388;0.039167214;0.1380156;0.095077716;0.04405294;-0.085835755;0.049960844;0.05313113;0.010676834;0.06789164;0.042088777;0.14545208;0.2451728;0.17626335;0.07080623;0.033089686;0.047818013;-0.005554773;-0.26013672;-0.017684683;0.0711829;0.055030964;-0.0870282;0.0021229512;-0.07739961;0.029711762;-0.0096809715;0.039470907;0.30014607;-0.4683695;0.22179769;-0.007078561;-0.107929595;-0.041521214;0.2374605;0.36310476;-0.16440445;0.29060635;0.007894949;0.07296212;-0.04210066;-0.13600884;-0.007862906;-0.060726285;-0.016210314;0.09501609;0.036832556;0.027973013;0.41898495;-0.047244627;0.15279537;0.2983521;0.0014527868;0.10579657;-0.033509023;0.2136513;0.2683768;0.12348405;-0.17269312;0.15717632;0.020748064;0.08259591;0.074980006;-0.113308795;-0.39106426;0.14466247;0.35887718;0.19122492;0.14316428;-0.28275546;-0.21306466;0.015381199;-0.056081943;0.017875839;0.018646859;0.2274774;-0.081745744;-0.051372103;-0.22512715;-0.03422111;0.0031842466;0.279821;0.19330831;0.008172926;0.02361218;-0.07917474;0.0037616764;0.30228165;-0.028139766;-0.113979265;-0.031105025;0.1603843;0.11403696;0.053510815;-0.038517334;-0.13455205;-0.25721952;0.045569584;0.2774674;0.0684621;-0.0036688193;0.0047669704;0.2699451;0.2652165;-0.19074644;0.06801684;-0.08437799;-0.16654618;0.013111771;-0.08508154;-0.13486767;-0.21568257;-0.013381008;-0.023611605;0.25876817;-0.009288461;0.096533686;0.10501962;-0.012926239;0.020010829;-0.20713292;0.044447243;0.2954096;0.26816252;-0.06414544;0.19339474;0.03290453;0.010631574;-0.28536963;0.25327477;0.10919282;0.41879708;0.015592587;0.052648492;0.18555856;-0.22519818;-0.23370907;0.0470552;-0.07823654;-0.063340686;0.010440709;-0.015066878;-0.03893727;0.0212722;-0.072664335;0.0019456627;0.21903121;-0.008371762;0.07715557;-0.4766491;0.24815038;-0.08987217;-0.20507778;-0.26999232;0.47238028;-0.034725964;0.18910743;0.036591277;-0.01833893;-0.05280322;0.06356329;-0.053500973;-0.009026341;0.037400834;-0.073917866;-0.058645945;0.04392283;-0.061552618;-0.1009453;0.20813997;0.0038491148;0.17309363;0.20586924;0.037123725;0.054272063;-0.0017657526;0.009133507;-0.04009727;-0.02009536;0.32773992;-0.07316459;0.16901891;-0.062569104;0.12217686;0.25636828;-0.20896153;0.08968857;-0.39089432;-0.025191745;0.22989683;0.29856268;0.111955225;-0.006620444;-0.039665084;-0.0292407;0.06016981;0.3519104;-0.08355447;-0.08932995;-0.39200944;0.3626152;0.057120375;0.06351719;-0.059623737;-0.031963725;0.034051433;0.143683;0.22270562;-0.20800164;0.25803488;0.25831294;0.15326227;0.23593241;0.1006633;-0.13032244;-0.16402015;-0.06501968;0.0761294;0.3332329;-0.0027802903;0.0523671;0.13701643;-0.028257929;0.17499878;-0.006505688;0.01030004;0.40522188;0.15580311;-0.3675752;0.042994928;-0.05250071;-0.018408192;-0.14330614;-0.089900725;0.34315532;-0.092999436;0.025784558;0.073113635;-0.5333979;0.1951288;0.2678168;-0.03654898;0.034390654;-0.061796974;-0.17833127;0.2218149;-0.03125115;-0.4462775;-0.07078092;0.006448329;-0.17405988;-0.07918191;0.14023307;-0.11168248;0.41699725;-0.110804185;-0.042546958;-0.34827742;-0.04333615;0.01708582;-0.1175092;0.028945493;0.049679954;0.17204604;-0.16635524;-0.09082181;-0.003870651;-0.013131933;-0.22100292;-0.013629097;-0.12673965;-0.0020609312;0.0990699;0.09702381;-0.19891334;0.08180935;0.08473047;-0.1045833;0.0042420854;0.12260264;0.25864926;0.0557777;-0.3239018;0.0013078945;0.11089761;0.19632289;-0.06851517;0.14215726;0.06634874;-0.24790359;-0.27154937;-0.059608024;0.3028812;0.0029325334;0.098658025;0.034447234;0.17099714;-0.02343567;0.10374781;-0.012007393;-0.09013554;-0.09108436;0.09928376;-0.098546855;0.0746248;-0.051906202;-0.18456371;0.13511045;0.00096838694;0.05376608;-0.03243947;-0.0009382474;-0.076679915;-0.05963225;0.2758568;0.25589013;-0.0022867247;0.102972455;-0.052498184;0.135397;0.06157149;0.012589067;0.10378804;-0.015828729;-0.17370234;-0.17739622;-0.12550446;0.0440647;0.13501482;0.19442151;0.11159889;-0.18931586;-0.037957136;-0.0043365834;0.32579687;0.051219054;0.38926688;-0.04114342;-0.041080654;0.051077496;-0.14449124;0.25800508;-0.011390536;0.17236377;0.05760743;0.3020383;0.36368436;-0.13215691;0.045725074;0.013793704;-0.040288523;0.10741596;-0.17296652;0.011354518;-0.0012634657;0.07630594;0.21316959;0.267429;-0.0064998213;0.06769349;0.3036077;0.23378165;-0.018264772;-0.021758044;-0.041167483;0.07518343;0.06380271;0.0044612866;0.04141822;-0.0023136484;0.02554598;0.07445671;0.011083113;-0.06629889;0.002518176;0.028412733;0.0129944105;-0.03458393;0.19664392;-0.09851556;-0.41420323;0.12989327;0.1476284;0.07826584;-0.039590888;0.01829686;0.07214263;0.037008923;-0.04248769;-0.26304224;-0.3200957;-0.13218965;0.28170142;0.029108502;0.24446917;-0.06132068;0.064297825;-0.24794437;0.094468206;0.04506974;0.11658035;-0.02868617;0.057651356;-0.02362534;0.059586827;0.016330598;-0.12256108;-0.1069212;0.22511074;-0.034267858;-0.069570445;0.0089413095;-0.032342292;0.12885378;0.20141946;-0.097743705;-0.23639588;-0.08843175;0.035233166;0.04072559;-0.21082462;-0.30505782;0.12953359;0.03852698;0.56660235;0.035578176;0.017083755;-0.046082992;0.28012794;0.30474302;-0.00441822;0.03361929;-0.031316277;0.060765352;0.008626636;0.15104657;0.02555664;0.1120725;0.038085606;0.3618411;0.07493439;0.22296335;0.08668705;-0.06541716;0.036017306;0.08222548;0.07034027;0.10185279;0.0019838298;0.1566158;0.1737155;0.06382767;0.012473369;-0.009382467;0.45982715;-0.41092297;0.030408787;0.26307;-0.03627316;-0.13840151;-0.07778102;-0.025136504;0.11493438;-0.05054028;-0.047522165;-0.07231559;0.0017281541;-0.022769826;-0.03784732;0.18631902;-0.32333845;-0.04937524;-0.04457429;-0.0115056345;0.004468236;-0.0055574356;0.1574647;0.03876337;0.25518292;0.2267362;0.090625204;-0.11643809;0.02844644;0.2558513;-0.42905638;0.22426061;-0.24987692;0.02668222;-0.3906865;0.031115113;0.18746245;0.3069189;-0.07487618;0.07123935;-0.05321164;0.05143477;0.26316077;0.012988809;-0.23098095;-0.020166047;-0.07185853;0.043102626;0.2619038;0.15346171;0.013977259;0.26767197;0.5679147;0.254118;-0.008539486;0.26946557;-0.03936857;0.06313353;0.1815727;-0.049348984;-0.005259093;-0.17479213;0.048255187;0.22275512;0.030983077;-0.010892459;-0.033624683;0.0071961414;0.23029011;-0.018156897;0.32151303;0.033961374;0.034746896;-0.06319998;0.016999401;0.18705733;0.0028085497;0.237414;0.18216085;0.063196555;0.0018535078;0.33087134;0.018065702;-0.057663187;-0.29369667;0.032114677;0.080821656;-0.055907365;0.023392336;-0.02456839;0.033582926;0.071647815;0.062553875;0.45500645;0.16916773;-0.06594938;-0.06932217;0.008321717;0.32237157;0.1216381;0.15737242;-0.02135074;0.0031225183;0.14595577;0.016046954;-0.2834545;-0.097835936;0.21206908;-0.12448809;-0.049468104;0.09204976;0.09786134;-0.22203687;-0.0805501
-0.20903106;-0.0032636523;-0.00671854;-0.08964076;-0.10267062;-0.04743145;0.54994625;-0.026987096;0.012342436;0.029448645;-0.024349334;0.101715535;0.029211964;-0.08072987;-0.026344966;0.060857728;-0.056203913;0.13213511;-0.021570865;0.06880231;0.2510101;0.06401943;0.00613798;-0.017572146;0.031418897;-0.045257814;-0.28460553;0.025424752;0.061082408;0.015002754;-0.043585815;0.0927394;-0.019270202;-0.030702405;0.01697202;0.02792328;0.23955007;-0.5492828;0.2114584;0.06532857;-0.10585719;-0.00938013;0.21964931;0.25341243;-0.20788582;0.2857882;0.05431771;-0.08165321;0.061035305;-0.15848115;-0.021430792;0.07912691;0.05522127;0.13114716;-0.07383445;0.020221679;0.32644373;0.06487063;0.21296304;0.23554607;0.065307565;0.13753667;0.007997593;0.1043478;0.30493647;0.024580572;-0.21666732;0.06319766;-0.0013464749;0.026112283;0.016294505;-0.15389764;-0.2575342;0.04516414;0.2756269;0.13963749;0.041385487;-0.24834867;-0.20503211;-0.031055285;-0.025304874;-0.08019635;-0.030014427;0.26226655;-0.066110015;-0.08983494;-0.2754058;-0.0109004425;-0.02651798;0.237975;0.11419105;-0.09251384;-0.026313148;-0.10245555;-0.018729191;0.21513842;-0.060645204;-0.13204591;-0.10649724;0.017457215;0.02551202;-0.07902361;-0.028250143;-0.054595765;-0.20044631;-0.049444173;0.16440669;-0.010198404;0.07358172;0.06156264;0.25970104;0.34438103;-0.28483254;-0.041478522;0.039085947;-0.20301783;-0.032078072;-0.12171327;-0.07858334;-0.3340549;-0.022605475;-0.06114872;0.20933771;-0.12132609;0.05936797;0.0057348167;-0.105441056;0.023481345;-0.31630722;-0.042513;0.22233738;0.23017152;0.041541487;0.102263145;0.022166938;-0.011478722;-0.2843495;0.23415595;0.17854205;0.3627729;-0.025716046;-0.06207347;0.12166876;-0.3100242;-0.20388205;0.005706087;0.038531266;-0.16045296;0.021038892;0.16078654;0.015248591;0.055870906;-0.057244107;0.018153585;0.20431921;-0.10627517;-0.00613008;-0.63305473;0.19043033;-0.13156784;-0.15863766;-0.10883156;0.39100286;-0.030173313;0.25236017;0.0067024324;-0.071575075;0.06680859;0.0881545;0.08911373;-0.05896358;0.11467615;0.00015569346;0.02193816;0.010721253;-0.04134231;0.017278953;0.29268196;0.06121699;0.17207511;0.033740737;0.156437;0.09903569;0.015064672;-0.060044;0.05927883;0.023552079;0.2921603;-0.12803555;0.10616735;-0.043863777;0.19999017;0.20844339;-0.40054256;0.18962784;-0.43034288;0.05005991;0.26846105;0.28667015;0.08741616;-0.010248618;-0.07725788;-0.04877825;-0.0374638;0.30426997;-0.1643901;-0.1240528;-0.55537385;0.33269328;-0.06783431;-0.060057167;-0.1898737;0.029700978;0.04682871;-0.0068569095;0.09835783;-0.076392554;0.23285075;0.25961104;0.12983544;0.27975392;0.04746893;-0.0467766;-0.2914481;0.0037226873;0.026887136;0.22031361;-0.016667355;-0.036959387;0.19038072;0.0019993084;0.1487037;-0.073105745;-0.04756764;0.36236495;0.2101236;-0.41062424;-0.022037122;-0.045066867;-0.078278475;-0.23077144;-0.23669136;0.33808795;0.017847953;0.03272869;0.12358699;-0.2757289;0.1587262;0.23116067;-0.03474385;-0.025896665;-0.0430795;-0.1444092;0.13719438;-0.017977193;-0.28084746;-0.051438212;0.09001238;-0.12468156;0.019369682;0.11123831;-0.110747516;0.46790585;-0.19350126;0.024208011;-0.35902324;0.05458565;0.022638053;-0.13550416;-0.013306904;-0.0006088172;0.072453365;-0.07046115;-0.03233744;0.05549258;-0.035256103;-0.19071297;-0.055081576;-0.12771752;-0.06917416;0.08583093;0.06713498;-0.26093894;0.20852771;-0.016860366;-0.035288297;-0.01157307;0.14241762;0.2192369;-0.046519898;-0.36197153;0.05130693;0.1534687;0.12426349;0.045999058;0.12227508;0.11966042;-0.28843567;-0.113329545;0.0817837;0.22304711;0.018371254;0.07136023;-0.06894334;0.110868216;0.022271471;0.13715996;0.040280998;-0.10071609;-0.1512121;0.20791696;-0.07504345;0.07917129;-0.15067494;-0.18646057;0.18881412;-0.04586031;-0.005228077;-0.068663955;-0.039400764;-0.049204975;0.037339885;0.2860502;0.15452258;0.07062767;0.18589878;0.057462044;0.010958956;0.16530134;-0.009626633;0.07744932;0.06142944;-0.178028;-0.15474628;-0.17266823;0.07106059;0.057876766;0.1648878;0.20286854;-0.0661425;-0.04670421;-0.021866271;0.26259556;0.11222035;0.31194332;-0.053885482;-0.080595694;-0.014627185;-0.39712408;0.1956101;-0.06689412;0.23761566;0.018014062;0.3700837;0.4632091;-0.024779456;0.059450008;-0.04949369;0.0011622944;0.12003718;-0.25395146;-0.13977285;0.03939325;0.014295288;0.17041059;0.19550896;-0.008969316;0.08683337;0.17047173;0.18461235;-0.19229251;-0.036753412;-0.012501659;-0.013235738;0.03519573;0.028724905;-0.05051818;0.019797603;0.02736755;0.05742418;-0.0585855;-0.0078038066;-0.016948014;-0.017134262;0.056017112;4.9318078e-05;0.2885029;-0.05079682;-0.18813038;0.10959544;0.11685151;0.1435454;-0.06802851;0.09858082;0.14345367;0.06086867;0.039777733;-0.28719658;-0.2518378;-0.106369264;0.15882073;-0.066451885;0.24772246;0.022602849;-0.031948667;-0.24899954;0.019732216;-0.05460215;0.077556044;0.012871265;0.060847037;-0.027986001;0.05217219;-0.055878818;-0.07030251;-0.16098128;0.3314451;0.09349231;0.018720223;-0.049060762;-0.050516415;0.15066113;0.17415957;-0.08866576;-0.089702144;-0.022887794;0.054121513;0.039485574;-0.20344123;-0.12942989;0.14766751;0.05271288;0.33961356;-0.037449006;0.009124524;0.10980844;0.21910045;0.27173242;0.06736818;0.021371316;0.0055128112;0.1355816;-0.039659098;0.22043131;-0.13022085;0.029279592;-0.034726717;0.27868187;-0.06086878;0.14076059;-0.025841773;0.06916604;-0.019068353;0.024503628;0.073288135;0.14825118;-0.022030067;0.004087975;0.0313721;-0.04695819;-0.04471163;-0.025101794;0.4138914;-0.380661;-0.034137007;0.2101735;0.081777446;-0.15716384;0.04134006;0.17339629;0.21337737;0.029892499;0.06483263;-0.013095455;-0.015267893;0.06113146;0.026873128;0.1932538;-0.42567244;0.03308459;-0.04666302;-0.12061075;0.08276714;0.08708958;0.1791307;-0.04724339;0.27003372;0.08446362;-0.020316245;-0.049113836;0.042731404;0.18293875;-0.31477845;0.10870115;-0.4282567;0.005956617;-0.2524893;-0.03731821;0.16047658;0.1786758;-0.045978162;-0.055753555;-0.008281698;0.030870136;0.29956093;-0.012508917;-0.2770648;-0.082657374;0.005124438;0.058482092;0.32227927;0.11279535;0.12622142;0.2825765;0.46641386;0.11669872;-0.04318325;0.3833303;-0.0032593799;-0.0053174538;0.17440909;-0.024076788;0.005005305;-0.11041725;0.003764409;0.23209824;-0.001958001;-0.01958739;-0.014020889;-0.07924099;0.17170043;-0.024435354;0.41084665;-0.045678046;0.063767254;0.016098002;-0.09849298;0.24620542;0.004523306;0.22538301;0.17899957;0.10468834;0.029059233;0.23899975;-0.023346206;-0.02868041;-0.16684145;0.014552128;0.21317773;0.037427317;-0.06994429;0.0143722;0.012286318;0.03402774;-0.05124239;0.48016712;0.20842673;-0.036615975;0.028088666;0.045132846;0.20613843;0.0077549596;0.16045976;-0.0021854283;0.04750339;0.19056952;-0.04859646;-0.35870144;-0.14166483;0.22024092;0.10136072;0.066743836;0.13144542;0.02258337;-0.17868137;-0.06286826
-0.11038309;0.024562823;0.005771403;0.057790935;-0.055939738;-0.037348703;0.58839524;0.06045779;0.06435804;-0.03379823;-0.0669396;0.16355711;0.051315986;-0.14707875;0.03707434;0.053162657;0.075677164;-0.0010211702;-0.072184056;0.060090218;0.20300324;0.07861031;0.008050086;-0.04566645;-0.019144662;-0.12238485;-0.1802575;0.09860353;-0.030934598;-0.05602212;0.09796667;-0.012039793;-0.079200506;-0.024986574;-0.06254955;0.050769284;0.27972046;-0.582285;0.22508572;0.06247119;-0.026437696;0.08082877;0.07323675;0.17625485;-0.105784975;0.33700252;-0.053613607;-0.00014812133;0.010950552;-0.027122464;-0.002136605;-0.037438404;0.016703185;0.051290385;-0.014026089;0.07093617;0.33090416;-0.023149852;0.0968791;0.22743635;0.035077564;0.12752134;-0.027653994;0.14378309;0.2176138;0.0076820417;-0.09353067;0.061399736;-0.016461266;0.13466795;0.059468545;0.007005015;-0.24596556;0.07321853;0.36264932;0.14929666;-0.024528302;-0.12269417;-0.14977162;0.061940163;0.086733945;-0.029420054;-0.056198426;0.1286637;-0.035582595;-0.059994362;-0.23318635;0.0723183;-0.029369451;0.24944074;0.18921508;-0.15789507;0.06897568;-0.057038996;-0.025475128;0.24811262;0.017611394;-0.078476876;-0.13030265;0.040347986;0.04421811;-0.07079903;-0.02413887;-0.031231014;-0.21385126;0.009609316;0.10043696;-0.09518248;-0.022589704;-0.03147239;0.21398462;0.18900073;-0.114255495;-0.02101457;0.017008826;-0.12606043;0.12046702;-0.1598691;-0.012077777;-0.30355534;0.012660977;-0.02052091;0.10666566;-0.04425373;-0.04133096;-0.019536719;-0.06772064;0.05055919;-0.32618392;-0.07317611;0.32776955;0.19401455;0.021056138;0.15902017;0.050162833;-0.086636044;-0.24553476;0.12997803;0.21415575;0.39036486;-0.03215457;-0.017647378;0.14562549;-0.20084362;-0.27691957;0.056072585;-0.031982064;-0.030918699;0.06667939;0.106556825;-0.0060017025;0.040483773;-0.022082964;0.057958934;0.059553728;0.011142914;-0.038681284;-0.60047543;0.19300954;-0.09187492;-0.13215618;-0.12282934;0.36588985;-0.020905774;0.1393076;-0.053683046;-0.027864706;0.028313987;0.11183705;-0.05393839;-0.048132915;0.003580881;-0.033018958;-0.0066775065;0.016014999;-0.07556625;0.030843312;0.35321245;-0.040399246;0.22519566;0.17918138;0.13695662;-0.020087887;0.07790263;0.04031173;-0.01011802;0.007870849;0.22161807;-0.25082168;0.081695236;-0.14251451;0.21971409;0.24769098;-0.35041252;0.3431918;-0.39699203;-0.049730986;0.1771302;0.22992529;0.01652563;0.03161468;-0.005857982;-0.00747719;-0.0486255;0.20024022;-0.26016372;-0.15568477;-0.46261272;0.29771924;-0.035801053;-0.017041037;-0.17339587;0.050849687;-0.012760193;-0.07906079;0.2255166;-0.15417498;0.35727623;0.19537327;0.26832306;0.23680128;0.0370991;-0.046191886;-0.35739276;0.036475267;0.1059175;0.05256577;0.060121246;0.04135348;0.1548915;-0.03865141;-0.008740263;-0.004914033;0.07928912;0.3577757;0.229249;-0.37507367;0.11307401;0.023214256;-0.15088254;-0.16033104;-0.12865634;0.34302512;-0.019413896;-0.07739988;0.0709577;-0.26841226;0.17674553;0.18086329;0.014090652;-0.043408036;0.014302351;-0.14673086;0.12233372;0.042135675;-0.2853168;-0.089377835;-0.04272807;-0.11285944;0.017314866;0.065912694;-0.073978245;0.41369718;-0.053935207;-0.026960135;-0.28854638;0.008519118;-0.0018984469;-0.17926754;-0.030119164;-0.039817747;0.15951742;-0.069077685;0.045568857;0.01883592;0.05488172;-0.27326828;0.032985196;-0.0463863;0.043633144;0.23083407;0.07308201;-0.31447574;0.24771458;-0.0155716045;-0.13866402;0.0035371045;0.27993703;0.24324444;0.03988982;-0.37345037;0.08094805;0.07615794;0.15339449;0.038778074;0.14579868;0.14009218;-0.122287385;-0.055079598;0.08039395;0.22774689;-0.026379848;-0.06661102;0.040692918;0.1005426;-0.0016575169;-0.07640609;0.05619917;-0.12912565;-0.019319903;0.115608744;-0.07573742;-0.049107276;-0.1074477;-0.22600825;0.21629496;-0.096521035;0.05397712;0.03581635;-0.078542456;0.11521773;0.011750082;0.16234653;0.13990575;-0.07990567;0.14660849;-0.0033941464;0.036903087;0.05101514;0.036439702;0.018680787;-0.031308178;-0.25393555;-0.14764817;-0.14423314;0.047106065;0.21640393;0.1811933;0.14435795;-0.24192753;0.026296161;-0.115273304;0.33577356;0.16145802;0.26758906;-0.006635778;-0.054259926;-0.060420025;-0.3489545;0.14278455;0.09032239;0.2101946;-0.030683456;0.3114108;0.41687122;-0.007958606;-0.06197316;0.016621087;-0.03041455;0.057818763;-0.26166221;-0.1685399;0.01918128;0.05413282;0.30794892;0.15425064;0.054193843;0.06817102;0.09050991;0.23900938;-0.1126637;-0.017883943;0.012319926;-0.080223165;0.028613204;0.016038885;0.025626639;-0.0444921;0.06649588;-0.056402385;0.004987052;0.01916252;0.014173533;0.081651956;-0.017802062;-0.06822607;0.21628329;-0.038640104;-0.102547094;0.12272143;-0.0013002292;0.14148922;-0.014319849;-0.06650835;0.04165571;0.027674459;0.026484672;-0.27534854;-0.31581047;-0.09292665;0.08582817;0.030339314;0.3648631;0.007999439;0.07676526;-0.29189995;-0.08143664;-0.0013703931;0.10141524;-0.07016233;-0.035867296;0.05114532;0.012564264;-0.052546907;-0.17884052;-0.061058644;0.27884552;0.03770032;0.014331001;0.06401992;-0.07594523;0.117788576;0.2449809;-0.11993451;-0.16256726;-0.045662675;8.925332e-05;-0.016176444;-0.08795284;-0.16315868;0.049447995;-0.0114150345;0.4877596;0.011203211;0.0075699124;0.08041425;0.243373;0.30651468;0.066115506;0.021525167;-0.0029242306;0.19511423;0.041659288;0.14039962;-0.1260444;0.0020099427;0.019844599;0.33293113;0.05057307;0.05355631;0.04907241;0.009126987;-0.060450856;0.051184047;0.011024697;0.12773013;0.018851392;0.03561331;0.144386;-0.07108676;-0.03808509;0.09033211;0.3887281;-0.5152257;-0.0010068984;0.21930476;0.00046591752;-0.11981213;-0.0031816803;0.23297092;0.04401332;0.09779182;0.012505552;-0.04584363;-0.14251211;-0.034954958;0.015395283;0.20248656;-0.3604136;-0.046116106;-0.044923563;-0.08179529;-0.012427124;0.10154056;0.14340286;0.04179873;0.20575655;0.14289768;-0.05646627;-0.20881996;0.07715131;0.18869074;-0.2604779;0.14666338;-0.37727576;-0.05597868;-0.34720317;0.017356073;0.17297462;0.16204463;-0.16354631;0.06622663;0.061614625;0.01762853;0.29307365;-0.07747904;-0.12610058;0.037976325;-0.018520914;0.021649934;0.26407924;0.056257755;0.15867917;0.33349043;0.6264203;0.25942248;-0.03542129;0.3430586;0.052496787;-0.00043969194;0.12743223;0.033945955;-0.083533585;-0.009135331;0.07815207;0.2331069;0.010865123;0.05471184;0.060063362;0.06720112;0.038340766;0.04186185;0.3381066;-0.052116387;0.21874215;-0.027511692;-0.117436655;0.26215544;-0.029564027;0.23247392;0.2653608;0.19975893;0.018482123;0.1110358;0.0061995867;0.09994078;0.033854704;-0.075900204;0.19164169;-0.008332959;-0.07587283;-0.07054546;-0.008679376;0.14675649;0.0014712592;0.5278614;0.17392553;-0.07472226;0.008861007;-0.07041307;0.28938207;0.041914526;0.1783745;0.028998654;-0.037500504;0.22780575;0.035211865;-0.32607174;0.029202407;0.29302117;-0.0051368447;0.053152073;0.17723522;0.014589441;-0.114499904;-0.14181107
-0.13912292;-0.067651264;-0.090718985;-0.023600966;-0.026970848;0.044319775;0.48282167;0.033230577;0.1049;-0.0009589427;-0.028816815;0.0016900841;-0.040562667;-0.14390157;0.016984953;0.08981049;-0.019374844;0.10588497;-0.05782958;0.13779308;0.23084885;-0.0041762628;0.026824966;0.0062124613;0.007867566;-0.091785654;-0.22510512;-0.04448715;0.03173641;0.07586508;-0.0087864855;-0.041791633;-0.057129305;0.0097745;0.058706027;0.06257742;0.28982398;-0.4708176;0.122203045;0.13874365;-0.043401193;0.04816931;0.18874179;0.24654262;-0.21243359;0.23272535;0.046357673;-0.027535299;-0.043313187;-0.14830364;0.047267623;-0.009622467;0.15088949;0.086882725;0.037493303;-0.014460593;0.30297536;-0.019131875;0.07990688;0.2712416;0.011970026;0.18885519;0.08109882;0.19896798;0.08015665;0.011021393;-0.23332879;0.016248511;-0.018284671;0.14530993;-0.10129489;-0.0010408945;-0.19200005;0.010385548;0.35214743;0.15671358;0.16105442;-0.2483968;-0.21860345;-0.017621238;0.01638294;-0.035147857;-0.10309625;0.06020908;0.060863283;-0.012236963;-0.20132245;-0.059586223;0.030424837;0.2860226;0.10926406;-0.12367395;-0.0038943388;-0.004818096;-0.029353498;0.22910911;0.015267199;0.0016486695;-0.13242297;0.0009969333;-0.014734309;0.029063525;0.031895023;-0.017699953;-0.30053505;-0.003002247;0.12680297;0.05014284;-0.04792277;0.020599961;0.12069679;0.23639983;-0.12946351;-0.06379989;0.04944239;-0.07655244;0.06895288;-0.059157338;-0.10963708;-0.30157426;-0.061613522;-0.017800225;0.20188023;-0.12924588;0.024505375;-0.066488884;0.032156415;-0.08723279;-0.31932932;0.044635534;0.32480976;0.24578372;0.06687547;0.100190096;-0.01891291;-0.10384453;-0.28180256;0.080207296;0.050150808;0.3489456;0.04274019;-0.02893573;0.20133536;-0.26062533;-0.3060398;-0.06076976;0.024777941;-0.12564853;0.07789575;0.0032214748;0.027724128;0.04688266;-0.011577893;0.014416688;0.042427316;-0.056750007;0.053288173;-0.53260785;0.20944689;-0.249046;-0.061098255;0.023941163;0.35892096;0.015589524;0.16993085;-0.036169644;0.03817153;0.0939204;0.13461722;-0.01758651;-0.020961644;-0.05375481;0.016303819;-0.018964441;-0.04141005;-0.1984404;0.15130451;0.29427204;0.016847137;0.13378108;0.05175378;0.04032058;0.010088916;0.03973216;0.06297029;0.06165629;-0.0048575364;0.0728907;-0.15084194;0.18959305;-0.14960118;0.23084722;0.19031951;-0.49563342;0.446918;-0.31815645;0.07126157;0.24557172;0.16657574;0.06343276;0.036371924;0.057750747;0.056757335;-0.028838491;0.1559742;-0.2750849;-0.1382973;-0.5573884;0.31140864;0.055290516;-0.042829566;-0.181606;0.041428346;-0.05206804;0.08207883;0.17363536;-0.17972909;0.39453363;0.20506102;0.13840331;0.23816906;0.047417957;-0.04387163;-0.40841454;-0.043209422;-0.022450397;0.1663571;0.016189609;0.004907325;0.030608824;0.0041892114;0.015039606;0.080717094;-0.06405004;0.2113963;0.08759585;-0.31401047;0.018752608;0.04980862;-0.005921169;-0.059312373;-0.16230208;0.29123777;-0.05042546;0.025632039;0.054680593;-0.23437463;0.19973278;0.14540073;-0.03502823;-0.016723946;-0.0138384765;-0.15283659;0.014181829;0.0050159683;-0.25244376;-0.10929499;-0.032619715;-0.19454163;-0.13963602;0.20069964;-0.056227963;0.31504443;-0.19772653;-0.0007224852;-0.33008105;-0.016690629;0.056852628;-0.12928031;-0.0033593392;0.02157393;0.016298389;-0.021414323;-0.056534883;0.015703734;-0.011971224;-0.28483358;-0.030564083;-0.09890101;-0.048600197;0.15156625;0.14803788;-0.26495403;0.3244693;0.066028364;-0.06712813;0.052783716;0.31275544;0.30951086;0.07133417;-0.3362695;0.11444854;-0.034470197;0.16477284;0.024154559;0.12136912;0.14031668;-0.091694206;-0.15270013;0.089653164;0.15859714;0.020764088;-0.03831776;0.022157962;0.100822255;-0.12374749;-0.0032620893;0.0322174;-0.19431123;-0.10657421;0.05029348;-0.048015364;0.034925416;-0.13434128;-0.17515613;0.10093909;-0.17569001;0.03007165;0.017893355;-0.113652416;0.057458278;-0.0031366504;0.16873066;0.043002967;-0.024002122;0.15889584;-0.035405986;-0.06617462;-0.081894584;-0.02205878;0.029213242;-0.05807263;-0.2340605;-0.13804817;-0.18938029;-0.0021005685;0.09751438;0.18977192;0.09547263;-0.09787859;0.006349034;0.009723666;0.3817973;0.10328172;0.1945368;0.03569439;-0.05460788;0.036774717;-0.43396163;0.08598921;0.055863712;0.25201425;-0.00039262598;0.28885067;0.4410054;-0.10076109;0.09910873;0.06709119;0.017319312;0.026536277;-0.25584558;-0.14429426;-0.04776964;0.07083351;0.23735562;0.14851323;-0.0061895503;0.032793675;-0.08873166;0.17400417;-0.12481921;-0.14908859;-0.035110284;0.022771727;-0.0050909305;-0.026382653;0.07617198;0.046455946;-0.019332377;0.033300005;0.032820273;0.017983606;0.07216964;0.09139653;-0.019780884;-0.08811703;0.26379743;-0.040537965;-0.12343512;-0.018874457;0.041918777;0.16102006;-0.07945493;0.04552563;0.104372054;0.017933274;-0.071216635;-0.14878257;-0.16540608;-0.20865498;0.17926358;0.02215735;0.33205593;-0.062360525;0.09859899;-0.30520186;-0.09748644;-0.0087815;0.14763086;0.039700385;0.014266392;-0.0324832;0.07679235;0.008389719;-0.19871187;-0.113215804;0.33119142;-0.06122449;0.1467011;0.011661816;0.033227745;0.16536257;0.18241882;-0.06799238;-0.09524314;0.019957377;0.05611568;-0.057605106;-0.13374272;-0.27141318;-0.022012737;0.03777056;0.36808392;0.029885545;-0.019541824;0.10892281;0.36526555;0.23453525;-0.06404167;0.06792121;-0.05233756;0.097076505;-0.005203514;0.084975444;-0.26487374;0.13597637;-0.021341229;0.22855538;-0.013359276;0.01856181;-0.020439656;0.043495655;-0.025614249;0.026218902;-0.052787937;0.08503504;-0.061676413;0.01090847;0.20071512;-0.03305219;0.026741924;0.020204928;0.42641324;-0.52649784;0.05769821;0.19715752;0.03221197;-0.017873429;0.0009922654;0.09594245;0.04596121;-0.021470541;-0.07775605;0.012226672;-0.052297194;-0.07518663;-0.08310288;0.10445333;-0.45549232;0.036569916;-0.062730685;-0.110314704;-0.09457052;0.07969596;0.30511472;-0.034514863;0.12609252;0.17875853;-0.04470516;-0.21969455;-0.018399293;0.1636459;-0.12059998;0.23932458;-0.42060462;-0.058171757;-0.39016291;-0.050409008;0.19281492;0.049360406;-0.19121905;0.05816956;0.029438479;-0.0058990875;0.32456446;0.041121513;-0.17609261;0.01773777;-0.077061795;0.042789623;0.22505844;0.08031483;0.12491639;0.2409038;0.62916976;0.23432744;-0.043020666;0.37585595;-0.053742968;0.076787636;0.22414751;0.00908334;0.030719168;-0.02131282;0.074509725;0.11011351;-0.029020796;0.015146869;-0.044909343;0.0023699265;0.07090317;0.07190245;0.4541788;0.007816336;0.11393882;0.015392185;-0.10192447;0.31495973;-0.034850035;0.13460575;0.2480101;0.13592522;-0.054066412;0.11546495;-0.036337275;-0.0020422607;-0.0021140156;-0.0032564201;0.23419023;-0.045982104;-0.08105714;0.08947608;-0.021225521;0.14282884;-0.06927906;0.40485612;0.14278924;-0.027264573;0.07886755;0.054569315;0.26932433;-0.11247075;0.046801347;0.04797652;0.022604125;0.19185643;0.013512516;-0.5024411;0.046703115;0.13955829;0.12906541;0.04555527;0.1576351;0.077255666;-0.13289799;-0.07721276
-0.050197486;-0.18066007;-0.10664572;0.030570261;-0.029389298;-0.04029808;0.41823098;0.07145131;0.11684339;0.010390556;-0.0020573707;-0.024195796;-0.04074795;-0.15562056;-0.057381153;0.08271017;0.002709266;0.19648026;0.057281744;0.05020552;0.26016352;-0.017626282;-0.11733186;0.009203824;-0.045034334;-0.25678617;-0.23682296;-0.013846934;-0.0044843247;0.016884262;0.074342884;-0.17098328;0.053197615;0.009391452;-0.009401628;0.037327033;0.23764187;-0.3902751;0.07662216;0.113145605;-0.078425385;-0.033414967;0.06428472;0.13832484;-0.3244808;0.14167158;-0.061979298;-0.09240512;-0.0049725627;-0.03948857;0.080185734;0.016649932;0.055009663;0.08596227;0.06519847;-0.0009696961;0.2602791;0.051597033;0.07608652;0.18117063;0.048876528;0.1361377;-0.013429722;0.1504035;-0.049577888;-0.05995584;-0.17499231;-0.08481116;-0.061722472;0.17706873;-0.06132669;-0.060443006;-0.1583239;0.014673133;0.4740948;0.26593548;0.10674744;-0.22076412;-0.16831252;-0.024791656;0.052395567;0.07408322;-0.22076306;-0.063381754;-0.032729343;0.02840774;-0.18807793;-0.006974342;-0.043292787;0.2657525;0.21976465;0.07532111;-0.069244675;-0.0138380565;0.10629215;0.1935073;0.04513159;0.004708752;-0.21707764;0.10528825;0.048016675;-0.043668702;-0.010524876;-0.12296186;-0.28577667;0.004017619;0.01904098;-0.012375843;0.091428846;-0.0074297087;0.026481979;0.11121307;0.1000993;0.009567101;-0.043835998;0.06134391;-0.03908047;0.03888515;-0.1337601;-0.26025173;-0.042003285;0.0850991;0.13561046;-0.029740952;-0.13052414;-0.04494518;0.03194683;0.013049944;-0.30462676;0.039930057;0.30176157;0.14298913;0.023805724;-0.04873712;0.02363458;-0.16560419;-0.3640115;0.16156387;0.04923561;0.29890645;0.0114149945;-0.034909606;0.19010843;-0.23744512;-0.2054349;-0.07618224;-0.026461396;-0.17222035;-0.09267365;0.048022866;0.016134229;0.04840942;-0.020097837;0.08245824;0.06963469;-0.11496131;-0.018133003;-0.518505;0.13000016;-0.17120913;-0.08371126;-0.036278624;0.46864945;0.019189568;0.2236654;0.08405845;0.005524276;0.07762348;0.13842747;0.053199265;0.01709551;0.060469978;-0.020865653;-0.037064318;0.09809252;-0.15494455;0.06401097;0.17830698;-0.021131912;0.16019748;0.12119238;-0.026716672;0.05530722;0.04088863;-0.032995198;-0.004907159;0.015304304;-0.013203848;-0.22691339;0.28888142;-0.15019637;0.15035877;0.22100268;-0.46531343;0.39256525;-0.28480533;-0.08292746;0.1992514;0.15568037;0.20595296;0.07035089;-0.025612857;0.020038035;0.007457904;0.14688483;-0.27949706;-0.19840944;-0.5774593;0.22636338;0.04139894;0.05483266;-0.104100116;-0.05319222;0.06663347;0.0062758336;0.15776467;-0.17382157;0.2655431;0.15772802;0.26869407;0.22413677;0.06415588;-0.10118206;-0.49213138;0.041878056;0.09923295;0.025236547;-0.022640804;0.0071295435;0.07664263;-0.034952067;0.11620556;0.07936869;0.01942375;0.3314634;0.007012851;-0.29971817;0.13487127;-0.08122294;-0.0042493064;-0.058077965;-0.1350758;0.39199117;0.04834465;-0.008456678;-0.027427362;-0.20036237;0.1335334;0.22655609;0.087136835;-0.009222317;-0.044485755;-0.18580955;-0.034566946;-0.05552028;-0.2789303;0.0021234485;0.030035049;-0.12159731;-0.12635519;0.13255094;-0.04822656;0.25762886;-0.1608874;0.038582254;-0.40513512;-0.017151192;0.08278587;-0.12642612;-0.0054203784;0.0051133945;0.07647205;0.028730044;0.011891219;-0.0036236292;-0.021447288;-0.23266165;-0.013066564;0.010015055;0.05185086;0.22610739;0.036541414;-0.21165936;0.2258808;-0.07160556;-0.18526877;-0.060108356;0.19349107;0.20566355;-0.07124118;-0.40723047;0.19740726;0.018925354;0.15267052;0.031439193;0.14738384;0.09581697;-0.045467515;-0.16003557;-0.0050167856;0.18235599;-0.0453216;0.09394495;-0.038013775;0.07056349;0.0021051783;-0.08289185;-0.038324777;-0.109522745;-0.118439965;0.02085115;0.02611506;-0.0015440143;-0.07879904;-0.19892931;0.13744134;-0.1609271;-0.030649308;0.0876953;0.06999465;0.070336044;0.0445748;0.23153289;0.10707878;-0.06883309;0.08897258;-0.0010100654;-0.16459498;-0.13910612;-0.09257908;0.006488472;-0.018105537;-0.25367165;-0.10129522;-0.168535;0.019946005;0.089798175;0.24379984;0.123909265;-0.049811628;0.090012915;-0.12343121;0.46687543;0.097754456;0.20925173;-0.018395152;-0.016694738;-0.006024414;-0.50200063;0.13476413;0.04942479;0.31572983;0.04940331;0.35734648;0.4566873;-0.03655958;0.065641336;0.0635935;0.094198465;-0.0016328535;-0.42237672;-0.19113837;0.024107298;0.031009981;0.38785198;0.11036205;-0.064706564;0.049544178;0.017944828;0.2450197;-0.18196346;-0.01079796;-0.017168578;0.05649485;-0.06108659;-0.011057624;0.021103807;0.01808037;-0.01557289;-4.1694326e-05;-0.09056008;0.1771299;-0.04689689;0.0015827124;0.015944239;0.008107348;0.2392244;-0.09951581;-0.24765866;-0.059092257;0.1329783;0.19292818;0.07785094;-0.038759165;0.082093604;0.052099098;0.0038566303;-0.17897569;-0.19921267;-0.06478465;0.16869201;-0.024277966;0.38098165;-0.0457976;0.10270146;-0.3473986;-0.12412003;-0.05711538;0.21492228;0.026333358;-0.038331993;-0.021175098;-0.01681914;0.03403282;-0.06432957;-0.04756473;0.31077018;0.068079785;0.16073045;-0.05504968;0.03557726;0.068477;0.09634609;-0.041419916;-0.24890304;-0.0071620587;-0.036592066;-0.045316428;-0.28153014;-0.1600598;-0.098336086;0.16342548;0.3939522;-0.05419187;-0.021881087;0.15070099;0.35649726;0.16361883;0.056517243;-0.01470607;0.035668455;0.12170525;-0.016338851;0.050107773;-0.23858728;0.08227654;-0.00017898828;0.18494383;-0.04376902;-0.054786526;-0.14488706;-0.028336383;-0.038276758;-0.024332399;-0.08020036;0.20548917;0.04984167;-0.09557111;0.18708523;-0.0035520184;-0.039904557;-0.053761587;0.29831666;-0.5454113;0.19337577;0.09738177;-0.025646223;0.003326807;0.058960717;0.0774565;0.0138157895;-0.055109687;-0.025164539;-0.12233269;-0.15186855;-0.013844218;0.04623526;0.13995145;-0.43583673;-0.08265008;-0.044920806;-0.021494346;-0.066377655;0.10694081;0.29249874;0.02778622;0.1062807;0.14365156;0.061600726;-0.1935572;0.006158764;0.056990616;-0.1677458;0.28822264;-0.3310295;0.01571215;-0.33116496;-0.051345788;0.1222747;-0.00803149;-0.059146076;-0.078721024;-0.025417812;0.011128141;0.2517043;-0.00534072;-0.14739542;0.052290667;-0.030327028;0.13339344;0.15832165;0.06507084;0.15158573;0.22978286;0.61026436;0.27192187;-0.033304352;0.44888648;0.033047806;-0.035811253;0.20312795;-0.038810194;-0.053217426;0.070817925;-0.06750214;0.14788264;-0.03683499;0.043292146;-0.09219426;0.015871694;-0.09914351;0.11918467;0.50551057;-0.037765164;0.24318682;-0.035420608;-0.17408091;0.27921054;-0.012685128;0.13869753;0.21013968;0.150425;0.061712995;0.15221;-0.02797713;0.02021534;0.086818814;0.034752477;0.28098872;-0.034431506;-0.24588774;-0.024568517;0.0119143985;0.14659742;-0.036588226;0.53206223;0.08524771;-0.0893638;-0.035561018;-0.055715602;0.25590613;-0.025259433;0.16242209;0.120366335;-0.0011359392;0.21441324;-0.00784765;-0.47213247;0.04230388;0.09542323;0.11306478;-0.06500271;0.17812186;0.083891064;-0.15271674;-0.06931202
-0.061346557;-0.09557005;-0.029803384;0.026872378;0.054326132;0.11220952;0.5180725;0.0088657895;0.18288712;-0.010592477;0.040432945;-0.03900468;0.08351766;-0.15988865;-0.089082375;0.041776735;0.030743768;0.1770719;0.047257718;0.0457735;0.29212815;0.0705431;-0.009706639;-0.037497733;0.041835163;-0.21820612;-0.2519742;0.035706323;0.004644483;-0.069337755;-0.01569414;-0.13102373;-0.059873592;-0.029290384;-0.08712004;0.01767991;0.26112682;-0.37099308;0.017705418;0.22210298;-0.124499515;0.026642326;0.1892045;0.29879785;-0.27584332;0.21409602;0.04463204;-0.06052025;-0.010502293;-0.069536336;0.033781137;-0.025656799;0.13794468;0.13178363;-0.0038135184;-0.031715795;0.35830465;0.057600792;0.22679052;0.15553562;-0.023593862;0.055006072;-0.03703837;0.16209467;-0.1206946;-0.096950874;-0.21252257;-0.08733508;-0.038238645;0.06449227;-0.054577243;-0.015562241;-0.053780407;0.067756556;0.4249987;0.33866933;0.23542929;-0.22066319;-0.2457348;-0.053944737;0.005657366;0.0020718942;-0.24189135;-0.058848254;0.063214965;-0.0691223;-0.07612567;0.06520263;-0.022770355;0.3087818;0.20831874;0.08714294;-0.03902271;0.024606084;-0.02404461;0.16898148;-0.023112854;0.067968205;-0.22337857;0.1243266;0.024467595;0.011642868;0.07310296;-0.045837127;-0.16832723;0.0281413;0.0038824915;0.043679323;-0.016243257;0.017950382;-0.060897317;0.06605553;0.1284281;-0.026237702;0.036998235;0.13851288;-0.045201045;-0.07713068;-0.017402748;-0.36283717;-0.0075460137;-0.046810422;0.09528479;-0.15814564;-0.01750111;-0.009901225;0.029944353;-0.088019565;-0.23135836;0.053948663;0.2251091;0.07851854;0.050353665;-0.106089994;-0.029570468;-0.18870679;-0.33229172;0.054776676;0.14844614;0.25934878;0.04118158;0.040981274;0.081408836;-0.23235531;-0.24736595;0.017552342;0.05484096;-0.19205849;-0.009182888;0.12519188;-0.059595913;0.070546724;-0.011419207;-0.07701783;0.054599725;-0.13271563;0.034898773;-0.32311437;0.16408847;-0.1269903;-0.100818336;0.039159592;0.33085346;0.051336944;0.05301635;0.032799453;0.012844182;0.13281907;0.18089616;0.062773265;0.024215827;-0.032700036;-0.02392335;0.073730536;-0.017852647;-0.22170927;0.1124311;0.21284387;-0.037385125;0.23384595;0.12300321;-0.005231559;0.21374387;0.14137535;0.068871275;-0.12951846;-0.06867444;-0.0393338;-0.09767544;0.25672534;-0.20695557;0.12115806;0.21832488;-0.39137352;0.26834238;-0.39465973;0.0236245;0.25334853;0.16881572;0.23747124;0.12601756;0.030754823;0.07722772;-0.05611319;0.14040725;-0.46618846;-0.31379628;-0.58349496;0.17776936;-0.07076527;0.053219613;-0.103978716;0.08370347;-0.042600255;0.026849095;0.2658393;-0.11720566;0.36566627;0.07753388;0.27406925;0.27867246;-0.0011911984;-0.0856229;-0.4654746;0.004816333;-0.10858678;-0.0031636236;-0.023805553;-0.05001943;0.061043907;0.027052674;0.11379868;-0.04680565;0.057859715;0.19346182;-0.024137735;-0.30317357;0.08647504;0.049662486;0.0126516;-0.09184087;-0.18500926;0.4317081;0.019395078;0.008285255;-0.1260615;-0.2373164;0.23643251;0.088727005;-0.062306598;0.13012752;0.032656543;-0.2900513;0.003781664;-0.0041690436;-0.3331024;-0.104561046;0.004860826;-0.094316475;-0.1439224;0.10355768;-0.11787529;0.25726604;-0.26658362;0.040345315;-0.40453112;0.06694915;0.02773676;-0.23360789;0.059873514;0.01686798;0.12474909;-0.10033758;0.1258219;-0.061486278;0.044012062;-0.13760068;-0.06964932;-0.097531386;-0.04185807;0.19828959;0.05534119;-0.24728848;0.1625471;-0.07191379;-0.09398221;-0.029837927;0.32420564;0.21849652;0.013688696;-0.41637662;0.16484419;0.048780907;0.24687953;-0.07870452;0.17257002;0.09905094;-0.07553375;-0.20896912;0.12965569;0.19089295;-0.019678138;-0.04940238;-0.009126204;-0.007982149;0.002042028;-0.11814931;0.008797646;-0.22953016;-0.21429029;0.00665168;0.14156672;-0.040567014;-0.15011674;-0.10517635;0.10028308;-0.20890932;0.035596147;-0.009242824;0.0283366;0.0799755;-0.07577663;0.21987462;0.11986419;0.060284134;0.10898199;-0.02527228;-0.13574365;-0.024071632;-0.080104336;0.025388919;-0.011510115;-0.27816322;-0.063380204;-0.0904463;0.027793894;0.23621337;0.19025695;0.03380514;-0.17768027;-0.072124094;-0.050742462;0.40658057;0.09697877;0.20900829;0.028162189;0.0268377;-0.029886534;-0.50486815;0.15754093;0.013982073;0.37073314;0.11336238;0.29309142;0.37301767;-0.06284729;0.060192503;-0.027254028;0.1903157;0.06305218;-0.40397975;-0.12105946;-0.014634462;0.040111993;0.28077787;-0.039711494;0.010135858;0.06711675;-0.057997078;0.19699982;-0.052769076;-0.13589963;-0.056884985;0.0007635635;-0.032039557;-0.0030685228;-0.04022856;0.031735074;-0.007819493;-0.08336735;-0.06293114;0.021573888;-0.03909235;0.001657833;-0.066948;0.050574396;0.16194874;-0.053517822;-0.25172463;0.06952729;0.103379324;0.30322298;0.085269764;0.078416795;0.062235024;0.05458067;-0.041354343;-0.03908755;-0.21564786;-0.03688758;0.18813638;0.039930526;0.27978918;0.094933085;0.16430975;-0.40265825;-0.15220617;0.0316733;0.23440783;0.012151358;-0.023108592;0.023545364;0.07681897;-0.068308495;-0.039203264;0.05827655;0.3169987;-0.03131753;0.16775823;-0.029189909;0.056623593;0.115533695;0.031229354;-0.076740146;-0.28065124;0.022433704;0.069976084;0.026497807;-0.20286581;-0.23876578;-0.12994486;0.0438388;0.34525755;0.05447565;0.018898984;0.22148353;0.33195192;0.10132261;0.015862772;0.016999673;0.00040774047;0.093966775;-0.045441028;0.012609818;-0.24320672;0.040353786;-0.017514477;0.17793281;-0.00015222593;-0.07387483;-0.20960861;0.001011591;-0.0077171023;0.10550651;0.07516327;0.26923493;0.06064445;-0.21830203;0.15701973;0.05743374;0.038241215;0.013351688;0.44643208;-0.39476487;0.20595677;0.21498936;-0.014716089;0.019373704;0.023763834;0.06625169;-0.0037480656;-0.102362305;-0.03534572;-0.096604526;-0.21348053;-0.032917645;-0.07423022;0.1701209;-0.41332605;0.030766325;-0.011316713;0.0042912127;0.0036140129;0.12231391;0.28101677;0.036061637;0.033605713;0.05739916;0.042230565;-0.14278802;-0.051864747;-0.08201064;-0.11316382;0.24433316;-0.32958308;0.060211405;-0.2842101;-0.0106941955;0.11420304;-0.05653326;-0.12866414;-0.04100742;-0.050143734;-0.0068337815;0.30532607;0.04833039;-0.10128668;-0.013027182;-0.1240999;0.17203954;-0.007121344;-0.03243744;-0.02446807;0.25074026;0.5776801;0.17720667;-0.034589663;0.35555148;0.08135057;-0.0066554323;0.38634148;0.030864373;0.056859855;0.02593048;-0.06512849;0.017514566;-0.067801915;-0.0061124936;0.015098166;-0.04264901;-0.009961576;0.17528698;0.52434456;0.08242361;0.14331774;-0.04778158;-0.1246577;0.24890739;-0.027711181;0.13897124;0.099404596;0.04837919;-0.024432803;-0.025256036;0.019904986;-0.077499576;0.20501249;-0.044331655;0.3630079;-0.032207415;-0.27157342;-0.036058865;-0.037656132;0.18583032;0.028327847;0.47059017;0.09743267;-0.18864143;0.029838493;-0.04171753;0.11064941;-0.13328475;0.22080055;0.10304105;-0.037621737;0.14897439;-0.06157668;-0.51784956;-0.072314814;0.23770899;0.12534516;-0.017086303;0.22982883;0.056806315;-0.16833247;0.08782862
-0.025752561;-0.070566975;-0.039163932;-0.07256017;0.07300727;-0.03263526;0.3567321;0.064773425;0.21379504;0.007867552;-0.112752035;-0.22677813;-0.011240901;-0.11335499;-0.089602426;0.040237777;0.037673626;0.18787839;-0.05298764;-0.00056256313;0.34946546;0.07225053;-0.047498606;0.035551675;0.11868193;-0.2883785;-0.2948446;-0.002455868;-0.025872571;-0.01142377;0.059342463;-0.19283655;-0.110700645;0.07900073;0.036232065;0.071560405;0.22157688;-0.35397774;0.037771277;0.14162399;-0.113975786;-0.017594958;0.061534103;0.24020219;-0.2301201;0.11899555;0.042176124;-0.17246118;-0.040431995;-0.019039761;0.12918012;-0.047420196;0.055910528;0.093838364;-0.038369022;-0.070727944;0.2640746;-0.0043462785;0.21003866;0.10540588;-0.019709868;0.04282831;-0.0071778824;0.080691956;-0.15201323;-0.03405016;-0.15524495;-0.11695334;-0.054448258;0.21308473;-0.083816126;-0.054042608;-0.07819764;0.11411373;0.45561585;0.36629462;0.05829007;-0.23786306;-0.2729703;0.016251985;0.08053985;0.05569849;-0.22474697;-0.10394678;0.08217694;-0.050345436;-0.0004987644;-0.040845767;-0.06811541;0.24680507;0.25547603;0.00929619;0.06912127;0.011755918;-0.008444791;0.13668315;-0.048270565;-0.030465333;-0.33053297;-0.003375963;0.07789185;0.009440862;-0.07598856;-0.11876469;-0.15088177;-0.02841042;-0.0016143315;0.055345837;-0.025770802;-0.009930061;-0.09182328;-0.034243677;0.12539198;0.06777367;0.029307894;0.14434293;-0.07156365;-0.022683915;0.05627155;-0.39605;0.04400168;-0.008546155;0.14715008;-0.15078083;-0.119313374;-0.08219204;-0.12926124;0.0058847456;-0.2945674;0.045543637;0.25431135;0.18654282;0.008178012;-0.08849091;-0.013731595;-0.045215257;-0.29677418;0.09614333;0.055073544;0.26485562;0.20005186;0.01637378;0.1621933;-0.34667256;-0.27578223;-0.0488949;0.059889507;-0.019429784;0.017012896;0.090254225;-0.14759928;0.08514632;-0.01619677;0.039573148;-0.033291683;-0.040895797;-0.024067005;-0.24826226;0.100507036;-0.07505737;-0.03260302;-0.0643328;0.2696422;-0.017303182;0.077319466;0.05738339;-0.0558135;0.10416069;0.16108882;0.024161944;0.0024494915;-0.0014533619;-0.050214715;0.042940207;-0.026405333;-0.29207173;0.20287465;0.27253366;-0.1156505;0.18146946;0.11308228;0.06403517;0.14989103;0.1522733;0.017386498;-0.1935333;0.01286562;-0.08880642;-0.20337911;0.2188115;-0.1861338;0.08848139;0.20832413;-0.55381733;0.136049;-0.44641882;0.053556465;0.20457973;0.14618792;0.17207436;0.08007077;0.004268728;0.0020512403;0.03001922;0.09772656;-0.39331877;-0.15826488;-0.48028785;0.19152331;0.0166556;0.16462192;-0.17774355;-0.032853357;0.07824944;0.060839728;0.21676862;-0.11065738;0.21161826;0.11140998;0.31212947;0.19917007;-0.082815655;-0.06109605;-0.3236753;-0.063686304;-0.014563874;0.10645495;-0.018181914;0.06553669;-0.10871166;-0.02981345;0.12015725;-0.020764226;-0.03928423;0.19697452;0.07383312;-0.24967477;0.032912835;-0.015957795;0.08698262;-0.073519856;-0.21377406;0.284356;-0.00215054;-0.020723617;-0.071699485;-0.06268404;0.18944114;0.12420282;0.026704475;0.1327741;0.0562431;-0.10082927;-0.1564974;-0.059434757;-0.24628223;-0.08453705;0.05876346;-0.03355214;-0.21606967;0.09641649;-0.13982661;0.13682386;-0.2249639;0.05668951;-0.33025816;-0.006109702;0.0028631755;-0.09540239;-0.06800175;0.027146088;0.07692787;0.10805228;0.13659477;0.061374344;0.10470727;-0.21974674;0.08027753;-0.038553745;0.06951017;0.09548553;0.09264948;-0.30987176;0.1289568;-0.017315531;-0.06757418;-0.015435345;0.28344676;0.18048683;0.029771844;-0.43510118;0.21092099;-0.11312433;0.18403433;-0.020305933;0.13689943;0.050941627;0.018558448;-0.0922706;0.025997855;0.1763479;0.0014917728;0.02573317;0.04844791;0.01737058;0.055306617;-0.07124023;-0.06400627;-0.15160482;-0.24744093;0.16715515;0.07456481;-0.07147867;-0.05692117;-0.16217826;0.10589517;-0.21609043;-0.069389835;-0.034150682;0.025085596;0.07012492;-0.021505961;0.16914357;0.10366569;0.031053232;0.056506615;-0.038202096;-0.10002556;-0.109899156;-0.03039342;-0.011685616;0.006485952;-0.3461576;0.019391257;-0.036739167;0.014825736;0.20504414;0.09995093;0.16187783;-0.078086756;0.015307435;-0.14194621;0.33757967;0.14072481;0.21285926;-0.009339842;0.018779367;-0.05772379;-0.46151096;0.11268829;0.049687628;0.347678;0.054701984;0.28715888;0.30586267;-0.09782253;0.075088456;-0.008230309;0.22067435;0.012032777;-0.2945057;-0.09984936;0.015269878;0.025101235;0.42336828;0.035486422;-0.036394425;0.1602028;-0.11504535;0.1934916;-0.23803006;-0.041232478;0.0714126;-0.009157184;-0.039023884;-0.029836677;0.047220282;-0.08289749;0.0034983577;-0.010033795;0.006865201;0.03777243;0.013284078;-0.025034668;-0.014927;-0.0749832;0.27031896;-0.068559416;-0.31777355;0.020315532;0.02497968;0.17010403;0.063488804;-0.034484085;0.1012258;-0.07107482;0.028880939;-0.12421239;-0.29070792;-0.10244059;0.20144081;0.0027086549;0.3748529;-0.03000752;0.072473355;-0.26019388;-0.08989019;-0.010255652;0.0974226;0.020356944;0.025843963;0.01020129;0.070821255;0.07776963;-0.011346364;0.0853436;0.2884353;0.022674428;0.16384849;-0.034033254;0.020201137;0.020939145;-0.076993085;-0.15792318;-0.19863205;0.0049142744;-0.014838642;0.021851808;-0.12341064;-0.23308377;-0.15728725;0.20515002;0.29074988;0.011479105;-0.06433941;0.12576649;0.2596043;0.07781956;-0.08957087;-0.040900912;-0.03840043;-0.019305274;-0.033257544;0.0733968;-0.13332523;0.08996991;0.002278409;-0.055545878;-0.053934935;0.02824819;-0.11321385;0.04764215;-0.098034665;0.097569995;0.022724275;0.25639117;-0.010305279;-0.13092971;0.14648493;0.0013344876;-0.06754567;0.09940927;0.34181628;-0.4596586;0.08034935;0.1808692;-0.04415217;0.040231153;0.06554637;0.04309402;-0.07164432;-0.057014212;0.06137946;-0.10891877;-0.1896143;0.071047254;-0.0041709;0.159669;-0.45839104;0.054094486;0.03206405;-0.016681585;-0.12124736;0.14792727;0.3390201;-0.03480313;0.015682949;0.07684652;-0.058337644;-0.21827364;0.06303288;-0.11724912;-0.07577891;0.2647611;-0.3425234;0.026641278;-0.21334593;0.027844908;0.23040959;-0.04125736;0.020270409;0.03439952;0.0423144;-0.043613262;0.26891237;0.022600478;0.020318791;-0.02788468;-0.16707869;0.10120944;-0.07258106;0.07742845;-0.00718383;0.15466177;0.5803999;0.28944236;0.06503032;0.40924624;-0.07476133;-0.035397355;0.338724;-0.06200137;0.023723554;0.103254154;0.0464796;0.08100206;-0.038543858;-0.05197815;-0.11703077;-0.044889603;-0.10158419;0.13502404;0.5834048;-0.04153541;0.14099957;-0.07452971;-0.17715211;0.23234355;-0.012975065;0.17907529;0.2035733;0.021797325;0.044743977;-0.030613674;0.02093552;0.05007981;0.19930117;0.047019225;0.29492566;0.07003132;-0.2224199;-0.042337213;-0.0016067735;0.16754358;0.0657923;0.51314986;0.04778641;-0.22584078;-0.048420064;0.03757648;0.19658707;-0.26658612;0.1614715;0.03784417;-0.01788659;0.17549248;0.087035425;-0.58341616;-0.06293951;0.14836892;0.06435605;0.040288966;0.20566575;0.08237868;-0.19176927;0.021225728
-0.07562157;-0.21586722;0.045029905;-0.10414809;0.039897528;-0.07163003;0.47429058;-0.03201992;0.14294562;-0.010047679;-0.13830963;-0.31403476;-0.06357828;-0.05517089;0.0075423624;0.11467191;-0.059841022;0.20489416;-0.021317786;0.077067904;0.1836915;0.169183;-0.09134882;-0.011170592;0.10935215;-0.21841401;-0.29295957;0.04160245;0.039116114;0.08440767;0.004875385;-0.27634537;-0.08311667;-0.07314517;0.07476597;0.074933946;0.18859495;-0.33855632;0.07478566;0.2777924;-0.03372969;-0.023802921;0.0057707885;0.25336117;-0.35590205;0.10142359;-0.03683636;-0.10016604;0.056322504;-0.003651951;0.15833287;0.055374887;0.07903929;0.15366487;0.04184259;0.043586142;0.25507572;0.039896544;0.25285557;0.10628583;0.078282125;0.11533321;0.05316704;0.08819233;-0.24963638;-0.105321124;-0.13788798;-0.0695351;0.049216572;0.13075227;-0.12989183;0.008215126;0.035676237;0.1746281;0.4249697;0.27071604;-0.098729804;-0.22796103;-0.20391005;0.038141664;-0.044016145;-0.006993134;-0.34500468;-0.2420893;0.004898916;-0.050316673;0.021430232;0.023478115;0.04038192;0.2547025;0.17202729;0.05157955;-0.06236399;-0.08176062;0.008145284;-0.005534596;0.014264195;0.0056438353;-0.3609708;0.017013263;0.056121565;0.023072904;-0.02894253;-0.20062138;-0.16250028;-0.06336519;-0.008163762;0.016299048;-0.03182923;-0.02314204;-0.220956;-0.08186433;0.10956425;0.029820766;-0.077741;0.14940509;-0.112224534;0.014815024;0.06691039;-0.4182674;0.07531571;0.014900444;0.2123385;-0.11791708;0.039505765;-0.067107566;-0.08889054;-0.013989854;-0.19242859;-0.025961122;0.17163327;0.038082194;-0.066065274;-0.08250855;0.056737922;-0.024861816;-0.27143076;0.06197642;0.00016852695;0.10046203;0.2468122;0.013074301;-0.049893685;-0.21220794;-0.1991278;0.05341769;-0.0022167393;-0.054907992;0.0073614297;-0.051276747;-0.15249164;0.20119807;-0.089510724;0.0061343624;0.08149257;-0.11039063;-0.044488326;-0.18413997;0.098541826;0.050955813;-0.014937439;-0.019808967;0.21799934;0.032359846;0.07067926;-0.059196036;-0.022491038;0.12532029;0.1185371;-0.00672357;0.012497305;0.011445937;0.05885556;0.012033409;0.014235114;-0.23600955;0.25168535;0.22655264;-0.05279846;0.13210322;0.10735175;0.014670221;0.09652712;0.27535206;-0.02060697;-0.18429725;0.03020705;-0.13847287;-0.23776528;0.14382358;-0.14641894;0.11058852;0.20955645;-0.36876;0.23728836;-0.38116297;-0.06450712;0.1959828;0.28023237;0.2756525;0.16809332;-0.005553483;0.045291826;-0.060386065;0.092198215;-0.4008889;-0.23038638;-0.40845314;0.15540087;0.05079884;0.13948506;-0.17534192;-0.05945594;-0.018578678;0.116197504;0.2834706;-0.09360154;0.1842774;0.09977078;0.37743762;0.25499326;-0.1222069;-0.14303769;-0.27779782;0.047782615;-0.19006771;0.005379047;-0.06368761;0.06837845;-0.02772946;0.04842458;0.116933025;-0.04615506;0.013292847;0.08523891;0.0023216165;-0.33406308;0.08024137;-0.043185912;0.162086;-0.07432653;-0.21228376;0.36392632;0.1665;0.036360215;-0.18337005;0.03682481;0.19006258;0.167532;0.0039006246;0.1281768;-0.068653494;-0.12940384;-0.03093922;-0.0027115126;-0.19764486;-0.19195569;-0.03199389;-0.066238716;-0.18552019;0.15442382;-0.22743486;0.019709567;-0.15611775;-0.010172515;-0.27085042;-0.04769956;-0.051950943;-0.1287928;0.03727166;-0.008309986;0.045559518;0.0019397949;0.16969472;0.03622933;0.10514591;-0.19593579;-0.00089068577;-0.15493888;-0.06447775;0.057840623;0.0479213;-0.22357821;0.15775044;0.07842669;-0.019838797;0.051125072;0.36580494;0.12663528;-0.014938845;-0.3237711;0.12051017;-0.029148597;0.18894818;0.0702519;0.2832791;0.07151027;-0.032320805;-0.11729699;0.14762327;0.10965325;-0.04954851;-0.06227893;0.0055696378;0.041190226;-0.015759075;-0.14059189;0.06734742;-0.13897373;-0.3513811;-0.03417265;0.13798161;-0.041744355;-0.057185173;-0.14563534;0.06515435;-0.1723521;-0.042343266;-0.027803704;0.11635556;0.14437002;-0.008748565;0.124900036;0.009589444;0.04544257;0.068781845;-0.0418877;-0.03737186;-0.049978074;0.064722344;-0.036144312;-0.04291005;-0.2698441;0.14034942;-0.098830566;-0.05116398;0.2862256;0.21362746;0.16254644;-0.02596548;-0.037471786;-0.31674367;0.39799595;0.15584253;0.19165279;-0.03398121;0.031033121;-0.020019177;-0.4513344;0.19630551;0.051916074;0.37744612;0.06095289;0.21203882;0.26379257;-0.13038363;0.047399126;-0.0061500394;0.19438627;0.11349342;-0.31656957;-0.10278389;-0.075420156;0.0915384;0.35945943;-0.04776762;0.04202261;0.06208458;-0.15828171;0.24363548;-0.1888841;-0.121418655;0.0107358005;0.0010176998;0.028368944;0.030150896;0.04043432;0.009669722;0.019797277;-0.00026700046;0.065290764;0.08491652;0.03286862;-0.06482737;0.06183377;0.065327644;0.19250745;-0.009433398;-0.29987258;0.060710195;0.039462198;0.049984783;0.15602142;-0.021588909;0.048838776;0.0042476063;-0.010575792;-0.10673947;-0.18492584;-0.023970252;0.10602851;0.058808204;0.2874793;-0.020771328;0.086932585;-0.21712522;-0.07788894;0.08536076;0.11065168;-0.0025626298;-0.033228282;0.076824024;0.063579425;0.06777401;0.15255864;0.13406515;0.33644775;-0.035174094;0.013823649;-0.05678635;0.030514685;0.023039516;-0.10240705;-0.12753743;-0.31373602;0.003003006;-0.07813747;-0.1195195;0.0105591295;-0.2216155;-0.11422891;0.17613727;0.1441179;-0.030142732;-0.01509322;0.28685334;0.23828854;-0.0004456592;-0.047056284;-0.011677634;0.009344304;0.13017108;0.052329425;0.037922654;-0.14435354;0.057789985;0.0042896443;-0.0549833;-0.037023127;-0.021489205;-0.22731309;0.033555407;-0.06408968;0.045184817;0.015730476;0.2964793;0.03215602;-0.21735054;0.112504445;-0.041888025;-0.0072930236;-0.05074691;0.2181523;-0.41631213;0.15430629;0.20610188;0.05508093;0.029272275;0.016520591;0.08408904;-0.025216673;-0.041091014;-0.06510667;0.01886904;-0.2832936;0.009037431;0.019456195;0.08017682;-0.35544086;0.011480502;-0.0076155853;-0.106750324;-0.009738028;0.08343009;0.2586592;-0.024467494;-0.12832163;0.12660326;0.016530568;-0.16129665;0.03601452;-0.21897776;-0.03975497;0.46747074;-0.2795726;0.034675147;-0.12885268;-0.06212937;0.19914165;-0.036100414;0.11506204;-0.03013922;-0.027433237;-0.05649593;0.30615175;-0.03785044;-0.018004084;0.071209446;-0.25191787;0.030207645;-0.13538952;0.089661814;0.061342202;0.24519272;0.39836547;0.22449212;0.09244756;0.34577006;-0.061063346;0.12903018;0.41867778;0.012850837;-0.0020940735;0.12034583;-0.017821707;0.1479849;0.0787135;0.0088480385;-0.10198537;0.054302827;-0.16367573;0.15277313;0.43463376;0.028813418;0.14530721;-0.014868942;-0.18665385;0.2623823;-0.014984192;0.04994473;0.15050933;0.12407206;0.059430487;0.034524523;0.022183709;0.04550594;0.15876351;0.03450534;0.31325528;0.023625093;-0.09571567;-0.048568662;-0.007987347;0.15003178;0.026326485;0.537728;0.12824403;-0.0980874;-0.0091979075;0.049078543;0.07355814;-0.2515561;0.06718749;0.14486311;0.082625926;0.14194065;-0.05309369;-0.5412513;-0.13239467;0.26320696;0.105162695;0.016318923;0.25581223;0.069837205;-0.09379546;0.18082754
-0.12771688;-0.17488173;0.08578673;-0.16627517;0.07203677;0.03267975;0.28239545;-0.06999693;0.14582367;-0.035202183;-0.14531718;-0.16411881;0.013014104;0.021846294;0.086158425;0.13365786;0.02306422;0.23900375;0.05756978;0.09659876;0.2633242;0.12027221;-0.16695045;-0.04948843;0.14476332;-0.21602224;-0.32608032;0.011495926;0.005978399;0.013518336;0.042492326;-0.23642327;-0.026518079;0.038854945;-0.04484743;-0.0015565887;0.10190087;-0.23394834;0.027813064;0.16558553;-0.068677224;-0.07301125;-0.002447742;0.08565969;-0.3132449;0.16459961;-0.0073928633;-0.1252403;0.033373162;-0.025769787;0.20935872;-0.0053357254;0.15921678;0.02542946;-0.07322904;-0.027398832;0.14319624;0.0047311625;0.19638114;0.047741372;-0.04393982;0.2255972;-0.03548076;0.06204484;-0.19769184;-0.15423833;-0.13674001;-0.10410921;-0.039435264;0.04145608;-0.18644494;0.008883227;-0.062317528;0.32495004;0.3485202;0.25447455;0.005100218;-0.10764125;-0.16901615;-0.029251289;-0.017187672;0.071124;-0.30608582;-0.124377705;-0.0061942004;0.036826793;0.06528783;-0.016324678;-0.02430697;0.37709445;0.15731372;0.10094604;0.04476808;0.00024873947;-0.015330289;-0.02326228;0.04090385;0.029755319;-0.35795072;-0.12234595;0.12281229;-0.01951603;0.07440336;-0.20468995;-0.09537937;0.017704682;0.098299384;-0.07453724;-0.00050308957;0.0025748305;-0.2975014;-0.03293768;0.18951008;0.07044335;-0.03236794;0.24431053;-0.15596749;-0.060979065;-0.0160298;-0.36673927;0.09726034;0.06995035;0.25624573;-0.151089;0.034456473;-0.05643133;0.007599983;0.03556099;-0.14867333;-0.04085989;0.225972;0.033788394;-0.07295308;-0.022049556;0.0347338;-0.13134319;-0.18955585;0.039584137;0.054994535;0.22045106;0.16662055;-0.03943152;-0.10039887;-0.16336836;-0.17823102;0.0033471393;-0.039163347;-0.07403615;0.02745677;-0.07039177;-0.15199618;0.30001545;-0.09444817;-0.001918764;0.14869969;-0.023242224;-0.009328838;-0.12928031;0.027823994;0.0051600616;-0.0046495697;-0.22098906;0.23806098;0.06762778;0.121966176;-0.078275286;0.00011990618;0.16029808;0.109412216;-0.050571386;0.04542209;-0.07346949;-0.008485939;0.106740795;-0.014779487;-0.3555843;0.18393101;0.081303686;-0.15615219;0.12962215;0.1863194;0.007201255;0.11658468;0.2190986;-0.022888415;-0.15678313;0.04559697;-0.23153903;-0.21004416;0.2307169;-0.14875409;-0.01780768;0.15377909;-0.4421935;0.15931168;-0.22868739;0.045244355;0.13904865;0.25235635;0.29101318;0.22423263;-0.0065893675;-0.08348991;0.07972091;0.0146607105;-0.3477266;-0.19845131;-0.34964976;0.096643075;0.00049995456;0.086826734;-0.04463946;0.021948094;0.019332012;0.07178973;0.40481582;-0.06262951;0.05049102;0.16364472;0.2452715;0.18486604;-0.19731693;-0.07471607;-0.17227063;-0.022921164;-0.016175251;0.026316492;0.03614832;0.030863924;-0.12630934;-0.028449265;0.07307393;-0.016328815;0.022990955;0.1486933;0.08681135;-0.31379852;0.040569644;-0.08761718;0.15086676;-0.039230943;-0.14614801;0.40572518;0.1083697;0.0500454;-0.16623485;0.0422461;0.07378778;0.0832352;0.025704285;0.11751809;0.0046242015;-0.3149036;-0.17415145;0.019081827;-0.16395338;-0.057573557;-0.030778954;-0.14884384;-0.25047764;0.09933135;-0.35731366;0.025860958;-0.09526679;-0.03360009;-0.3481182;0.07182809;-0.005502885;-0.2150688;0.07685106;-0.0046081753;0.09384005;0.059087347;0.17282243;-0.006426299;0.19054803;-0.16569991;0.06773761;-0.09358226;0.011167076;0.056875136;-0.052882433;-0.2631832;0.22583596;0.053683832;-0.07630132;-0.05817838;0.3449299;-0.00948489;-0.014027972;-0.4130042;0.1323645;-0.047313605;0.20464522;-0.0482197;0.36781824;0.24556871;-0.05028814;0.010817906;0.20094095;0.14950088;-0.03119076;-0.0055910093;0.007074704;-0.14863221;0.035187263;-0.1077912;0.018218173;-0.0786456;-0.29437694;0.010375858;0.10281529;0.08118551;-0.10048442;-0.15328391;-0.07540884;-0.31064683;-0.061201293;0.006776501;0.1774861;0.20469321;0.004012434;0.1859094;0.07371957;0.009495746;0.001794971;-0.04181393;-0.0933343;-0.05312817;0.07945627;0.06442326;-0.028358446;-0.13095906;0.23120825;-0.053478505;-0.029247707;0.19803134;0.23646143;0.07656678;0.026769603;-0.066783234;-0.32240838;0.3278501;0.24027479;0.16008283;0.0012598346;0.009379534;0.044761524;-0.49251097;0.10283409;0.015058149;0.22677608;0.13143723;0.14106792;0.20398806;-0.068501286;-0.09785263;0.030522702;0.24778365;0.19434756;-0.28733283;-0.06154738;0.09206303;0.032649003;0.3194616;-0.09643134;-0.007362791;-0.061203018;-0.15159158;0.23537815;-0.099774286;-0.15508747;-0.07162659;0.05790127;-0.04334458;0.031491112;-0.07757398;0.024962233;-0.04015579;-0.07048355;-0.068681054;0.0129150115;0.013988749;-0.11201644;-0.09806175;0.06487646;0.20951508;-0.085825324;-0.40183556;-0.09743711;0.0058872886;0.0942275;0.05739913;0.023026096;0.13635409;-0.0977831;0.03371222;-0.09021804;-0.17326686;-0.024552708;0.18561186;-0.07845088;0.19623178;0.012389197;0.038805716;-0.25485042;-0.00580907;0.09532033;0.04838435;-0.025429852;-0.042995486;-0.073318586;-0.0083254725;-0.037394922;0.102666885;0.0991871;0.24269235;0.06693493;-0.047990493;0.020943848;0.14332676;-0.018298939;-0.15168905;-0.016747368;-0.26580992;-0.018495275;0.047941618;-0.25390097;0.049018674;-0.12533611;-0.11203646;0.29379633;0.16635638;-0.053625125;0.043248866;0.21924539;0.27201027;-0.08809525;-0.0047285645;-0.048418634;-0.041431095;0.04659995;-0.031275272;0.07866483;-0.098716;0.004285645;-0.06812704;-0.088795245;-0.04537854;-0.15413104;-0.12807135;-0.015085129;-0.14817363;0.1826117;-0.024472015;0.28941572;-0.07127409;-0.085549206;-0.017930772;0.035215173;0.029312747;-0.006122415;0.27077553;-0.35099748;0.16178219;0.28836188;-0.042635903;0.0838703;0.03658986;0.14686899;-0.0446524;-0.020040967;0.039879978;-0.03416983;-0.20106529;0.01052351;0.060144167;0.09107458;-0.3588986;0.015339532;-0.04224578;-0.14908879;-0.05310931;0.207108;0.1668863;0.005291574;-0.0011579904;0.23072274;-0.024818154;-0.28393903;-0.029911233;-0.23446235;0.010352461;0.53254044;-0.14286983;0.023846738;-0.2150239;0.038694486;0.17444654;-0.11354618;0.013134914;-0.05941388;0.04232284;-0.023806287;0.3718942;-0.003542971;-0.03204117;0.011311229;-0.17293322;0.042965077;-0.05290256;0.027122637;0.089221284;0.09738145;0.45091522;0.24628645;-0.033135924;0.43128622;0.068397194;0.10703059;0.41859332;0.016470311;0.019794883;0.205679;0.043868836;-0.025870074;0.039434;-0.040190842;-0.108868934;-0.03702452;-0.1855644;0.15089022;0.4621705;-0.024880623;0.13654853;-0.09652079;-0.21094026;0.24991447;-0.041924827;0.1469069;0.041172218;0.09928914;-0.08435905;-0.029740611;0.033812996;-0.037856366;0.15438855;-0.036402207;0.16141048;-0.015597326;-0.15797755;0.08557725;0.027404223;0.1356015;-0.036389332;0.48288006;0.21940136;-0.1783112;-0.037269022;0.05917813;0.19663383;-0.16243953;0.15997274;0.18463652;-0.043536842;0.0071514696;-0.014643891;-0.4837402;-0.16210215;0.24667078;0.12325452;-0.029394006;0.21815987;0.15966912;-0.15671442;0.12950787
0.005333425;-0.18148296;0.18850386;-0.24678168;0.09327152;-0.006980014;0.2814909;0.018781625;0.14881778;0.08481114;-0.030592829;-0.22201689;-0.026569208;-0.056080874;0.062047876;0.12127997;-0.08594537;0.20621131;-0.002508206;0.068862654;0.13289225;0.22238196;-0.0961726;-0.035515208;0.1311381;-0.27455652;-0.32141203;0.017047621;-0.04372633;0.007933051;0.008304656;-0.21784218;0.06458133;0.07045842;-0.036763202;-0.07997441;0.124973685;-0.2601381;0.022488667;0.21552171;-0.17956018;0.0032797018;0.069471605;0.15526044;-0.28456917;0.20478944;-0.0068307947;-0.11714699;0.030808972;0.03153001;0.16814236;-0.061544884;0.24381621;0.09005916;-0.039982412;-0.0211971;0.17800213;-0.058407754;0.23867774;0.11350674;-0.040822685;0.1827809;-0.013941873;-0.04287431;-0.17029671;-0.11748977;-0.21224496;-0.18510175;0.03910127;0.09183019;-0.26276672;-0.042784113;-0.0046315696;0.38088775;0.3247163;0.2546692;-0.0015874465;-0.16648115;-0.21848123;0.04278649;-0.0148904;-0.0717172;-0.19263567;-0.2312113;-0.032013834;0.15459476;0.06143648;-0.0690216;0.04350098;0.3218332;0.24299449;0.14419988;0.024749417;0.02930166;-0.014321051;-0.02148953;-0.045690276;0.109847695;-0.41481248;-0.10512123;0.099050365;-0.052137405;-0.04383162;-0.37344876;-0.17377196;0.008494358;0.10313649;-0.04732928;-0.015561796;0.014308837;-0.30404282;-0.0214572;0.14268656;0.015790215;0.026940303;0.1918365;-0.18298136;-0.074469134;-0.017832382;-0.26765996;0.0541918;-0.031968735;0.1080924;-0.14480846;0.09332135;0.009444818;0.01963013;-0.01372104;-0.14389642;0.008289977;0.09123963;0.051205654;0.07580059;0.005823299;-0.056610946;-0.08149101;-0.16159794;-0.012229374;-0.091645144;0.059013203;0.24623679;0.023425866;-0.1521281;-0.21786709;-0.1572141;0.030996067;-0.075403064;-0.07435925;-0.009893613;-0.20492813;-0.15101911;0.30919608;0.041096926;-0.046825826;0.15933846;-0.14047264;-0.025476126;-0.055504695;-0.014311427;0.014245791;0.024389911;-0.16731985;0.06808529;0.039553955;0.19141659;0.009798683;0.014235883;0.17392477;0.064707376;-0.0378492;-0.031607024;-0.036306825;0.019394124;0.09417679;-0.048749764;-0.3593887;0.16874927;0.16379169;-0.058627762;0.089217514;0.22934784;-0.0569277;-0.04570675;0.29853454;0.040905353;-0.2244751;-0.042480893;-0.2493132;-0.124837294;0.21757615;-0.18648377;-0.08199862;0.041818485;-0.38626608;0.192082;-0.33083126;-0.045997255;0.19732004;0.16366005;0.28830785;0.20182866;-0.035767052;-0.06424016;-0.06909574;-0.02674727;-0.44657683;-0.19279777;-0.34299183;0.0817391;-0.040332064;0.08213574;-0.09830826;-0.035405993;-0.064724036;0.16341837;0.41736844;-0.03272326;0.12500626;0.19464327;0.27864042;0.158483;-0.14515483;-0.07869031;-0.075275406;0.047394373;-0.1036652;-0.05186456;0.053270455;-0.057160296;-0.13905346;-0.012863798;0.107630275;0.054867644;0.055291187;0.13673659;0.060936693;-0.29351392;0.1460883;0.042241298;0.23595381;0.03984391;-0.012927174;0.33436927;0.002485465;0.016056359;-0.30502594;-0.12627825;0.074964575;0.17660855;-0.059016686;0.1309463;0.050960306;-0.21236643;-0.028431581;0.0069502858;-0.21849951;-0.08811773;-0.06136437;-0.18932205;-0.21036085;0.060140833;-0.2551903;-0.030376323;-0.11834622;-0.051236168;-0.31855026;0.00010975039;0.043632388;-0.095259815;-0.024991717;-0.05246397;0.047074113;-0.035009883;0.18207328;0.0011039872;0.059446406;-0.11446446;0.02594228;-0.20865455;0.00872874;0.037476633;0.008258617;-0.4129979;0.24142453;0.024745585;-0.035760753;0.06466892;0.2348981;-0.01200282;-0.0047301636;-0.32003954;0.17505091;-0.20081376;0.12380429;0.045879748;0.33000785;0.22096722;0.020544657;-0.04793543;0.006287635;0.0989417;0.03296702;-0.0149105545;-0.08193828;-0.061503597;-0.01498692;-0.15451539;-0.013962066;-0.16881183;-0.26594573;-0.07115508;0.0823712;-0.027766475;-0.078987345;-0.15505539;0.06163759;-0.38484758;0.028617969;-0.028044011;0.1504994;0.32911658;0.031924352;0.079600185;0.11541284;0.0054743015;-0.046869867;0.09628159;-0.0066573094;-0.07400177;0.11066616;0.06898225;0.07047988;0.021613542;0.26414278;-0.04513316;-0.027686859;0.28423628;0.20111585;0.17440224;0.023808971;0.04675425;-0.383718;0.36491495;0.24863572;0.06088464;0.003216665;0.05018722;-0.038537253;-0.57983994;0.06351727;0.05375759;0.28298694;0.11206644;0.058334704;0.16115072;-0.02674481;-0.056213584;0.008124717;0.12397775;0.08714317;-0.26602122;-0.09864515;0.002157045;0.016081182;0.41644552;-0.113281816;-0.05029336;-0.051065445;-0.055976406;0.090189;-0.06399977;-0.14422107;-0.016108453;-0.02599965;0.05395842;-0.0562469;-0.0423211;0.040031374;-0.06434294;-0.049159907;0.04326169;0.098060854;-0.06760705;-0.10910606;0.03919331;-0.020610148;0.26731327;-0.055209413;-0.28803498;-0.10711957;0.035925996;0.014032257;0.11147346;-0.006872992;0.10094592;-0.08224505;0.065013446;-0.08607545;-0.19191174;-0.059261374;0.056716334;0.023356989;0.28072393;-0.002722947;0.04396771;-0.27799663;-0.06569342;0.07521917;0.077534154;-0.011378429;-0.039469007;-0.053074136;0.0822325;0.046965282;0.084602945;0.0026697682;0.19638273;-0.06546869;0.009118119;-0.01697973;0.11772728;-0.0045757084;-0.06397513;-0.07814184;-0.29680955;0.026631013;0.020664431;-0.19240285;0.08629184;-0.18383564;-0.06421383;0.2892284;0.18183558;0.065039165;0.06556289;0.28683722;0.09695943;-0.061112177;-0.02224696;0.061342113;-0.07540491;0.011854172;0.0067974906;0.15095738;0.072804786;-0.07597538;0.025047528;-0.16481398;0.04850787;-0.09436264;-0.12920474;0.014750285;-0.0641131;0.18594244;-0.05526663;0.22524735;-0.007946684;-0.18945228;0.05177161;-0.0055045155;0.010170855;-0.03487847;0.13674854;-0.41834915;0.10894598;0.37074366;0.0019852028;-0.03278798;-0.057926923;0.16007982;-0.11265449;-0.067676485;0.02574887;-0.05211358;-0.015047445;0.060496077;-0.05531071;0.21471098;-0.30520844;-0.013977628;-0.12551248;-0.14563783;0.04378297;0.17677367;0.13767157;0.06389381;-0.10722868;0.23190789;0.026648939;-0.28517765;-0.014609442;-0.2501721;0.003779144;0.45557;-0.1439943;0.033041544;-0.11197257;0.065480985;0.21943265;-0.15549317;0.02815626;0.023666292;0.006539675;0.09934529;0.34036803;-0.044202466;-0.0096834935;-0.036294613;-0.28975394;-0.03825074;-0.06721072;0.070799224;0.047763184;0.17050771;0.46563303;0.1604582;-0.0077892477;0.436365;0.029052753;0.14851978;0.39821848;-0.05277758;-0.046885304;0.15301082;-0.087295234;-0.03572511;-0.022693424;-0.029413754;-0.14020026;-0.059977744;-0.024350647;0.15119094;0.5174954;-0.035262357;0.303448;0.014019389;-0.24775654;0.3317299;-0.020491974;0.0631829;0.012026219;0.102209635;-0.0010316987;-0.10721119;-0.06668586;0.054758158;0.035112508;-0.0809104;0.19539286;0.056776542;-0.14910789;0.060291003;0.068943754;0.18668686;-0.059994377;0.3978605;0.20266713;-0.10205928;0.00048648947;0.01103733;0.14710149;-0.2394699;0.14876297;0.166772;-0.056976262;0.124465905;0.0028363327;-0.5125098;-0.2261783;0.23406622;0.11181864;-0.057883903;0.32507092;0.10592294;-0.07452333;0.12411848
0.015904743;-0.08665499;-0.015969543;-0.22611514;0.035714153;-0.063123666;0.27115643;-0.06324269;0.1669017;-0.050483964;-0.103677735;-0.16001533;0.0016387404;-0.109239526;-0.023580568;0.08383764;-0.0038812389;0.22467941;-0.09036986;0.04459031;0.067763545;0.21289815;-0.065837264;0.05759137;0.12347712;-0.22076224;-0.30773732;0.12921989;-0.02294345;-0.06554007;0.023865102;-0.2938988;-0.078107305;-0.054517515;0.026573075;0.04609629;0.049772628;-0.18028726;-0.09177478;0.29208592;-0.026341172;0.054808088;0.08403504;0.1141065;-0.26620996;0.25231665;0.018278481;0.021325279;0.011276413;0.064883776;0.059177168;0.041963913;0.17562334;0.02398536;0.038792316;0.071578145;0.07279054;-0.09340672;0.21739833;-0.06840541;0.035383686;0.24700736;0.02391281;-0.0074806274;-0.24666683;-0.14944363;-0.15038852;-0.1036759;0.052513085;0.04683375;-0.13121636;-0.0729094;0.020358687;0.31094852;0.33145598;0.37907675;-0.033043712;-0.08667993;-0.16131984;-0.028143993;-0.019370124;-0.06980716;-0.29811883;-0.15739302;0.04164128;0.0334812;0.02340941;-0.0002815102;0.0150503125;0.26694918;0.11108314;0.13207744;-0.05858951;-0.029480113;-0.039049465;0.018441135;-0.012754915;-0.028763646;-0.35458407;0.0120791895;0.22033359;0.05644488;0.06711075;-0.3626283;-0.044261247;-0.01994163;0.045285873;0.04672122;-0.03672162;0.01083988;-0.33727422;-0.10331673;0.060787674;-0.079679035;-0.03253;0.13047688;0.0049866354;-0.01876911;-0.046583254;-0.2535075;0.08697547;-0.030760195;0.13044757;-0.20308349;0.01700031;-0.04946815;-0.114907265;-0.072988205;0.011660513;-0.038859654;0.10502393;-0.0591542;-0.032797117;0.04347592;0.002037263;-0.03555468;-0.00974874;-0.062432293;-0.027509388;0.07367868;0.19610693;0.011292924;-0.121788785;-0.1621562;-0.023212891;0.007185739;0.03066043;-0.052814227;-0.04589328;-0.091531835;-0.23743196;0.20476218;-0.050324157;-0.0184416;0.27367103;-0.1694916;-0.028890574;-0.044594;0.044025704;-0.06779249;0.13522345;-0.20281743;0.09428934;0.0072927345;0.06695519;-0.023279304;-0.00566592;0.2868784;0.027055785;-0.071973614;-0.032699857;-0.020774616;0.086639985;0.028360613;-0.03646679;-0.4931668;0.26098657;0.19771989;-0.12959164;0.1524636;0.2317124;-0.04084382;0.043091424;0.37952265;-0.058806546;-0.2623859;0.023437338;-0.23217344;-0.11210787;0.192552;-0.043216903;-0.09491674;0.051451128;-0.33262885;-0.06855541;-0.18968531;0.040531382;0.048468918;0.2510555;0.26568338;0.23406874;0.045714945;0.061764367;0.038560797;-0.112611204;-0.48110345;-0.08358918;-0.39477837;0.043443143;-0.05423109;0.07448607;-0.24310966;0.008230646;-0.04526827;0.038959112;0.40700328;-0.20956556;0.16869849;0.20785606;0.2391031;0.1055219;-0.13980682;-0.13098238;-0.03900219;-0.031439677;-0.0048902435;0.045926858;0.065250225;-0.013323168;-0.1434849;-0.019542355;0.024646858;0.03468175;-0.06837999;0.00942089;0.021174125;-0.17122538;0.20020483;0.03063531;0.22072287;0.05653294;0.011953693;0.2583752;-0.0788086;-0.0033833187;-0.19688308;-0.188287;0.16267987;0.12973014;-0.03670075;0.16188928;-0.07445639;-0.29636258;-0.07719535;0.057460543;-0.28177208;-0.08465363;0.039547224;-0.05974663;-0.26348484;0.0021418456;-0.29296654;-0.15011476;-0.16864125;0.065115705;-0.21527325;-0.057682768;0.0008798213;-0.18446566;-0.049975257;0.0839389;-0.025306616;0.015574032;0.091275774;-0.08095997;0.097435586;-0.031453516;-0.08663647;-0.20820293;-0.028691128;0.0046286187;0.07927401;-0.48441824;0.1612173;0.044153757;0.065683775;-0.07061747;0.25127596;0.021820312;-0.07212186;-0.35371038;0.056960046;-0.058647487;0.20821881;0.024902923;0.3078286;0.2105668;0.048784684;-0.0026899313;0.08683779;0.26552004;-0.048053533;-0.03970228;0.07280631;-0.05469228;0.03262418;-0.12890342;-0.07935788;-0.2566757;-0.1882;0.027133036;0.104675956;0.06499845;-0.08876161;-0.049933273;-0.10229928;-0.40200582;0.054645024;0.01296457;0.04313119;0.20064951;0.013094378;0.22873369;-0.020028548;-0.00091633666;-0.05919807;-0.013928244;-0.10795404;-0.06660177;0.20844275;-0.082574144;0.016228845;-0.037061162;0.2874084;0.03733175;0.0065317564;0.30844104;0.1800502;0.21352941;-0.018577838;0.034189384;-0.39409885;0.30328345;0.079523124;0.12954177;0.07903216;0.0063749203;0.07936654;-0.5614732;0.026054487;0.018992286;0.37253192;0.08955463;0.10524505;0.11491044;-0.09024227;-0.16507027;-0.07204458;0.06575924;0.09042954;-0.16777742;-0.04618981;-0.0121633485;0.07868895;0.4133193;-0.11302311;-0.037038486;-0.21818006;-0.116500914;0.13991427;-0.012613598;-0.2519465;0.04229164;-0.08407247;-0.031136665;0.057708587;0.033713114;-0.012055044;0.028448142;-0.05142644;-0.0056149988;0.17454682;0.018391734;-0.12061778;0.04713483;-0.049848568;0.2846171;-0.049054172;-0.20463103;-0.085078895;-0.10610829;-0.04683793;0.08049023;-0.08420245;-0.03826302;-0.16020086;-0.017346915;-0.010801678;-0.26385888;-0.0151654985;0.108586974;-0.016036732;0.16605563;-0.050775744;-0.10431802;-0.32192802;-0.036398366;-0.0021410733;0.08436377;-0.037134632;0.067217484;0.08029036;0.014944478;-0.0121586565;0.026162189;0.09051768;0.2363219;0.0066694575;0.045929383;0.012687565;0.1345618;-0.080159836;-0.20417383;-0.013938943;-0.24545485;-0.008501931;-0.08082237;-0.2580221;0.084837146;-0.10084759;-0.12612464;0.33274162;0.21417335;-0.05346721;-0.031516854;0.20728546;0.11221372;-0.1256906;0.012411539;-0.072146;0.050758623;0.052804433;-0.011389781;0.0950662;-0.028715068;-0.06032341;0.020972926;-0.07684137;-0.036190476;-0.10452655;-0.13322905;-0.07490779;-0.12870671;0.05855758;0.005565676;0.24922146;0.0009699585;-0.14075741;0.12570077;0.019117575;0.031315535;-0.011156315;0.1092109;-0.3130657;0.16620128;0.34280998;0.055914685;-0.019180983;-0.13928181;0.21143043;-0.016421534;-0.034970324;0.0021092484;-0.0056989375;-0.08868585;-0.07670813;-0.036111325;0.16201375;-0.08523888;0.014941696;-0.12128336;-0.10903084;0.05456353;0.24478924;0.111433595;-0.043165468;-0.13794686;0.17249832;0.043616172;-0.16045915;0.010779657;-0.1905959;0.10712983;0.46999028;-0.096673995;-0.05021753;-0.058217615;-0.027577318;0.14461455;-0.13457501;-0.05125073;0.021086622;0.04774902;-0.03450673;0.3436265;-0.085738294;-0.034982212;-0.04786563;-0.24826598;-0.095904745;-0.100123525;0.019305209;0.048463427;0.16718678;0.46877342;0.2859187;0.054987956;0.4574696;-0.00250529;0.09753183;0.39157397;0.06684729;0.026243724;0.2085602;0.0026839497;0.124349974;-0.032166917;0.06422176;-0.16656421;-0.06321111;-0.14531823;0.15483272;0.477752;0.06580677;0.2500069;0.021633487;-0.28120995;0.29892483;-0.03333403;-0.046380825;0.02505895;0.1144245;0.020878306;-0.13626917;-0.06459916;-0.019728148;0.007599937;-0.009789448;0.06388983;-0.05672623;-0.11702889;-0.040301807;-0.062889524;0.05605971;0.074741654;0.46185192;0.17774299;-0.10430041;0.014075142;-0.052714817;0.12781307;-0.2238442;0.19296819;0.1811466;0.07921645;0.01338075;-0.042789236;-0.39387617;-0.21762867;0.16174755;0.14973642;0.03129269;0.27083427;0.052127223;-0.107812926;0.21351513
-0.080838546;-0.11194303;0.10570986;-0.17231674;-0.02621158;-0.015569362;0.27983662;0.027351256;0.18858072;-0.024710642;-0.1445149;-0.22755241;-0.033353303;-0.20939027;-0.020828694;0.10014125;0.061005525;0.20957989;0.053538285;0.13080448;0.14150663;0.04968871;-0.06973651;0.057918698;0.12150803;-0.085056946;-0.24776964;0.2174136;-0.034843765;0.03981406;0.16440305;-0.19717936;-0.0057999864;0.019480804;0.0149956485;-0.06226326;0.02753722;-0.22632284;-0.11682458;0.24151164;-0.03408529;0.04464706;0.00491944;-0.103464514;-0.3248856;0.33872643;0.07627352;-0.045416795;-0.03519389;-0.08732593;0.09651742;0.06441208;0.09843373;0.14190741;-0.032645352;-0.051618956;0.029787358;0.045728967;0.29683712;-0.021898078;-0.030273447;0.1777214;-0.033979397;-0.009760614;-0.15926956;-0.010416741;-0.051469564;-0.08200051;0.024081128;0.14897045;-0.07454104;0.018777452;0.06543059;0.3177693;0.4001151;0.25956464;-0.06776594;-0.04825048;-0.06454525;-0.09191622;0.026169892;0.028652977;-0.41086477;-0.18132819;-0.011465984;-0.024262719;0.19023792;0.042031005;-0.005862258;0.37704355;0.17433205;0.10497177;0.0029834765;0.016960133;0.041522745;0.053481754;-0.044078566;0.03861133;-0.39859426;-0.08020683;0.22349285;-0.07209907;-0.047901765;-0.47976324;-0.013784588;0.04085753;-0.013114793;-0.018326115;0.08816134;-0.020239066;-0.29337;-0.13912015;0.040796675;-0.05452308;0.052542884;0.24601245;0.01677561;-0.08357965;-0.002525375;-0.22527;0.082505845;-0.023392297;0.2020163;-0.06690706;0.067625225;-0.048213784;-0.04899887;0.031831026;0.046720114;0.031121477;0.1015867;-0.00338513;-0.026448896;-0.06685719;0.015733732;-0.06625543;-0.08194358;-0.04064511;-0.0051473877;-0.051310096;0.23549451;0.0441879;-0.12670685;-0.012427737;0.026136786;0.041304618;-0.059984144;0.00034175813;0.052769613;-0.16018637;-0.0988776;0.25286824;0.02379596;0.04484809;0.15751036;-0.08636131;0.022309056;-0.002817692;0.08748776;-0.10897927;0.13286774;-0.021592442;-0.014319405;0.008140918;-0.01875882;0.052862488;-0.07650338;0.20247781;0.0964052;0.067470804;-0.023908092;-0.005137093;-0.038150266;-0.014682989;0.01122039;-0.48374632;0.22579372;0.06990094;-0.021586848;0.18091759;0.21803603;0.007361605;-0.057407364;0.37495548;-0.06906826;-0.17689227;0.033184376;-0.04134794;-0.13888966;0.20715165;0.068839006;-0.044874333;0.09107431;-0.2937602;-0.032144196;-0.17215551;0.017172975;0.15529802;0.13504842;0.28909335;0.19859761;-0.01294122;-0.028031915;0.06579231;-0.0873072;-0.46176308;-0.03966648;-0.37958083;0.047858067;-0.037782054;0.095879465;-0.1505063;-0.044683408;0.060642656;0.11616922;0.27528167;-0.20222886;0.14814815;0.08519179;0.399187;0.051658843;-0.05860917;-0.22291592;0.04552319;0.02436621;-0.11668303;-0.023884904;-0.06652042;0.019505827;-0.005861341;-0.04461751;-0.025583494;-0.069482096;-0.02724379;0.18713689;-0.018472578;-0.20163871;0.12394287;0.007918003;0.2060918;0.12827587;0.13231577;0.28995994;-0.018539792;-0.04000536;-0.2058095;-0.2504143;0.29612187;0.10447965;0.036346525;0.099022605;0.078049414;-0.26597503;-0.019669851;-0.029470993;-0.19470647;0.019352164;-0.03799152;-0.1111698;-0.20873201;-0.045270957;-0.2805419;-0.14730538;-0.17763685;-0.02799648;-0.18567027;0.0028650458;0.077804364;-0.19598795;0.028242145;-0.03612753;0.017686015;0.022455335;0.19074208;-0.029959159;0.16812973;-0.023286048;-0.0062428;-0.24929541;0.0011163685;-0.007397521;0.056876305;-0.40940875;0.20556334;-0.0330828;-0.0012834768;-0.012710482;0.3493395;0.1208202;0.029312164;-0.37835264;0.12484318;-0.1505391;0.21920528;-0.04138889;0.38125068;0.09120501;0.03270682;-0.10282272;0.18266065;0.30970386;0.0069205775;0.019759275;-0.0063260673;-0.010066985;0.048022278;-0.10437113;0.02674456;-0.16243203;-0.20449156;-0.07379797;0.26437023;-0.012839635;-0.09259415;-0.015853563;0.014155662;-0.47989208;-0.06593666;-0.05873471;0.12682009;0.26816377;0.004024214;0.23974109;0.07104559;-0.0119792735;-0.022659577;0.015400641;-0.011908474;-0.015516546;0.33091962;-0.06650137;-0.018763468;0.0009923151;0.24136011;0.009088255;-0.056716032;0.2416361;0.2725176;0.1935488;-0.008915663;-0.042758737;-0.35560793;0.33459905;-0.015208858;0.12953731;-0.051998995;-0.08583862;-0.009919585;-0.61385685;-0.04472641;0.16323178;0.23226659;0.040304843;-0.006050899;0.11983599;-0.027232032;-0.1629704;0.04476421;0.13387103;0.21800244;-0.18684866;0.0602112;-0.009652592;-0.045775622;0.4274415;-0.20240673;0.08008367;-0.19774167;-0.085901596;0.050853007;-0.019210255;-0.19386576;0.017800704;-0.041833643;0.03942718;-0.015854511;-0.025049834;-0.03844771;-0.04153924;0.015858883;0.023170218;0.25130835;0.050511558;-0.186727;0.036425356;0.052717447;0.10857843;-0.010623088;-0.13600673;-0.09969307;-0.045684356;0.0043672086;0.19441569;0.082535796;0.15744673;-0.0698992;0.00051915797;0.012265655;-0.20425223;-0.061748873;0.0042445855;0.0023743438;0.12519468;0.056739192;-0.13309763;-0.32653266;-0.13339736;-0.060892493;0.083854444;-0.039485253;0.07642815;0.039116744;0.15925439;-0.0027270154;0.103542045;0.08615349;0.19619606;-0.012026238;0.102997646;-0.006626225;0.14393921;0.04586993;-0.19890687;-0.028151937;-0.31018442;0.005814212;0.054540016;-0.21421966;0.22768043;-0.06741726;0.0069535053;0.3300518;0.13843767;-0.016691856;-0.061021592;0.3354566;0.15222734;-0.09401142;0.058659248;-0.0725284;0.0037417535;-0.007797535;0.024424916;0.18038283;0.069238216;-0.037167583;0.06334794;-0.046066966;0.0401761;-0.074414805;-0.22056612;0.01125573;-0.1704265;0.14075236;0.024121782;0.25048816;-0.038728364;-0.01543579;0.13244686;-0.013375036;-0.029539673;0.025178963;0.08902482;-0.42997205;-0.024464471;0.38609028;-0.06879541;0.21651033;-0.12551881;0.051032208;-0.009615972;-0.05901872;0.009955792;-0.028866889;-0.09413742;-0.029127745;0.040182162;0.07275025;0.010612188;0.046584703;-0.04137588;-0.06766085;0.09529266;0.21617913;0.09698429;0.01448193;-0.07388659;0.19554333;-0.015328276;-0.17800272;-0.026262213;-0.20935437;-0.00046789125;0.36355522;-0.095359996;-0.079267204;-0.022078363;0.032347962;0.27995735;-0.14229356;0.08631102;0.06711679;-0.07992465;0.0031898401;0.3317232;0.067231596;-0.07522073;0.030227253;-0.14256974;-0.097857825;-0.022127911;0.030591372;0.08087663;0.12031834;0.4599572;0.24584839;-0.045570504;0.45294204;0.04429651;0.11489561;0.366957;0.008842969;0.09508855;0.23268507;0.00024985638;-0.033538252;-0.017834328;-0.06224428;-0.10185522;0.069383584;-0.09987292;0.20214866;0.37153265;0.06978345;0.25128657;-0.02204583;-0.2448059;0.2909702;0.08508056;-0.0014898966;0.012841703;0.13135022;-0.08297943;-0.14996785;0.04423738;-0.0574205;0.14968829;0.04464439;0.10453319;-0.0033601588;-0.09096614;-0.055258557;0.07935568;0.21761484;-0.081598096;0.41654488;0.14375755;-0.18821329;-0.044289313;-0.019176913;0.15039027;-0.2459158;0.14147861;0.09136236;0.038265888;-0.056469675;0.061864495;-0.39525214;-0.081751764;0.2570177;0.07612034;0.0081940675;0.17613567;0.0087279;0.06648054;0.1846723
-0.04367026;-0.13615239;0.11051594;-0.24316575;-0.005826333;0.06566836;0.28989172;-0.05068408;0.16033137;-0.040774334;-0.00045754536;-0.1838833;0.029032014;-0.13089961;-0.13519956;0.02115982;0.071832;0.1249375;0.018228706;0.13022883;0.055485357;0.1469454;-0.06972161;-0.013970123;0.20404391;-0.034113917;-0.09049543;0.120480984;-0.025084672;-0.012523567;0.07858639;-0.2494207;-0.06217515;-0.010499493;-0.029125584;-0.1557267;-0.04424365;0.0053434097;-0.14250425;0.21650456;-0.01473591;-0.042995077;0.015476617;-0.004889924;-0.26275826;0.22212917;0.0296132;-0.032794144;0.01769136;-0.109058075;0.13087551;-0.01190564;0.0834574;0.14333597;0.055635612;-0.007259487;0.030726612;0.04378176;0.24971657;-0.091260724;-0.039909173;0.124234974;0.015654951;-0.1367268;-0.19795902;-0.15356022;-0.122813776;-0.18066198;-0.07283662;0.06791781;-0.098976;0.04098743;0.14961347;0.29707205;0.27772352;0.24105921;0.010060402;-0.10241628;-0.04139213;0.002025704;-0.01579849;-0.034783613;-0.44475403;-0.17709595;0.04792656;0.031966526;0.21179834;0.00880682;0.038621027;0.2966119;0.12409993;0.091371;-0.042580612;0.0052067535;-0.009513334;0.14510755;0.048910968;0.0109632965;-0.42281458;-0.0739347;0.35712394;0.0025143556;-0.016135802;-0.42219815;0.09844835;0.071314506;0.12972221;0.021062173;-0.0013019548;-0.039335486;-0.3310932;-0.042392377;0.061402604;-0.18399675;-0.07754428;0.18378565;0.07584231;-0.0027765445;-0.018080924;-0.21249574;0.029182231;0.06544067;0.19724096;-0.09793616;0.18530442;-0.10052269;-0.06449817;0.03761762;0.012915328;-0.0068369205;0.048993025;0.0038725226;0.041540295;-0.035228055;0.016890882;-0.03685003;-0.048864417;0.04167931;-0.06357264;0.005453087;0.1776995;-0.010062818;-0.00089518836;0.048307966;0.029593004;0.023246482;0.0053293332;-0.1524107;-0.08804045;-0.20667456;-0.13892755;0.28737038;0.050088696;-0.07806101;0.28783274;-0.09629787;0.003933822;0.1987639;-0.02832663;-0.16686372;0.16711824;0.06536918;0.037803624;0.086407796;0.014763669;0.03341886;-0.08341905;0.34785518;0.05453158;0.07911613;0.070516564;-0.115923464;-0.05470487;-0.051033407;0.0054012462;-0.47117913;0.266659;0.19449256;0.015925555;0.1270841;0.10841561;0.025489122;-0.022182174;0.3028204;-0.02704406;-0.23555365;-0.039402183;-0.09607952;-0.15547404;0.1561516;0.053385705;-0.04645206;0.03879131;-0.3324953;-0.0791676;-0.123834014;-0.07698249;0.09437201;0.07566491;0.2504594;0.30871418;0.062016413;0.04124079;-0.07333822;-0.101514325;-0.39306042;-0.055466477;-0.29013026;-0.11656723;-0.031527337;-0.05682246;-0.13176788;0.061522257;0.020234881;0.0050586923;0.35590774;-0.1286947;0.17903568;0.06879037;0.304396;0.15896772;-0.10044552;-0.1890521;0.08118871;-0.021650568;-0.044409655;-0.02141643;-0.03350269;-0.057479497;-0.07434668;0.039085064;-0.00036698862;0.047644556;0.023323365;0.118715875;0.09531716;-0.12639353;0.15644401;0.017024342;0.15807222;0.02562656;0.0862018;0.24148218;-0.119820245;-0.05040392;-0.20757546;-0.18611103;0.14064954;0.03247849;0.03508711;0.2896314;0.05047208;-0.29013476;-0.09881039;0.006924488;-0.18824892;-0.028103279;0.05451362;-0.005976467;-0.18523405;0.022675995;-0.12754418;-0.2489126;-0.21953656;-0.060154974;-0.41487896;-0.022947095;-0.017941082;-0.09787027;-0.018604886;0.033411965;-0.087505326;-0.073652394;0.2542503;-0.017136576;0.22439153;-0.039107304;0.041442107;-0.11169458;0.035436712;-0.019377064;0.010187787;-0.5250259;0.19245552;-0.023155592;-0.0073499866;0.03889716;0.3007888;0.09349178;-0.035441183;-0.24076673;-0.018999295;-0.117590204;0.1773123;-0.023857603;0.21451183;0.19004318;-0.10355579;-0.09413082;-0.0069062836;0.29812738;-0.04553165;0.06725314;-0.035329934;-0.037496157;0.15643702;0.041715696;-0.04417159;-0.19029064;-0.16365919;-0.018517451;0.3148444;0.009317988;-0.022176296;-0.05574841;-0.19547215;-0.4984592;-0.006430361;-0.018788671;0.20908715;0.3683904;-0.006460059;0.10600118;0.04914798;-0.010199189;-0.09268439;-0.0055497927;0.013286995;0.18544675;0.18904348;0.011995372;-0.017999992;0.052842844;0.2967086;0.06958859;-0.05112139;0.17119499;0.3063481;0.1004042;0.045248795;0.033604767;-0.36210495;0.3567021;0.015866643;-0.025877338;-0.011424701;0.03149451;-0.004313876;-0.57656467;-0.25701442;-0.020725153;0.23550357;0.016321417;-0.044358183;0.14746693;-0.050458018;-0.23127499;-0.055973876;0.0017766001;0.22150153;-0.14888118;0.14140192;-0.037756074;0.081097;0.38024354;-0.14617927;0.0235749;-0.07878373;-0.15365458;0.084901914;-0.027336512;-0.24402332;-0.0038783415;0.031421915;-0.011506367;0.013426181;-0.06260262;0.0040021953;0.0023442337;-0.008161135;-0.0334826;0.14687952;-0.03052179;-0.18189871;0.0031715368;-0.04077624;0.10490264;-0.04077232;-0.15453407;-0.16828483;-0.022009628;-0.004750665;0.13911788;-0.013745039;0.12632184;-0.08036616;-0.049085926;0.14788851;-0.27231336;-0.0149038695;-0.0033739521;-0.03261797;0.11225978;-0.010392485;-0.14246018;-0.26585615;-0.033460245;-0.076768644;-0.052266665;0.050882623;-0.030001575;-0.072288334;0.21596473;-0.06412767;0.22746791;0.13251829;0.1843466;0.017888803;0.11076555;0.053436186;0.13700205;-0.032692928;-0.26793927;-0.011566005;-0.26716453;-0.004864928;0.035809305;-0.20782349;0.25118753;-0.048796438;-0.0074105617;0.29668984;0.051605348;-0.04714612;0.04554523;0.2884607;0.11333905;-0.19527796;0.01475478;0.03378911;0.07397886;-0.11120238;0.024067834;0.24602199;0.077216476;-0.075013004;0.017095694;0.029284947;0.030755822;-0.136862;-0.1863662;0.0050329887;-0.113368206;0.19817314;-0.0031035473;0.2650227;-0.052919682;-0.104184896;0.121898815;-0.028974349;0.052373495;-0.049903143;0.1555148;-0.3036807;-0.07957882;0.48007765;0.0027252324;0.17503466;-0.2577983;0.093892306;0.1028477;-0.24542241;0.0065643536;-0.03658732;-0.11117792;-0.037656244;-0.027074156;0.21021949;-0.02762929;-0.03601132;-0.017032517;-0.16177875;0.15295695;0.092591345;0.046615887;0.021444181;-0.20326415;0.18068503;-0.043929413;-0.13021202;0.01825806;-0.16156116;0.06072321;0.2979549;-0.07638173;-0.081331484;-0.06199206;-0.015995776;0.18356657;-0.17821997;0.035555452;0.073183276;0.07033815;-0.025887122;0.22334814;0.020363642;0.10073543;-0.06433903;-0.12219464;-0.073595;-0.013597173;0.014917675;0.018591436;0.14331998;0.43832937;0.34704906;0.02323507;0.49444208;0.037280954;0.09829511;0.439081;0.043957856;-0.06115759;0.15583116;0.015508153;0.122694746;0.064076096;0.052396294;-0.07987902;0.016927632;-0.14747602;0.23389065;0.4658016;-0.07138077;0.30205426;-0.04864975;-0.11403343;0.33322993;0.049988568;-0.10307747;-0.0077746087;0.044557605;-0.007505337;-0.13564734;-0.057953455;0.027698288;0.054479588;0.008300252;0.118442945;-0.049666893;0.058200777;0.07740103;-0.062065277;0.1436422;0.0010604209;0.35045114;0.13706023;-0.09283852;0.030149905;0.047626965;0.09441363;-0.20231774;0.22727318;0.17961714;-0.004774137;0.14850157;-0.020515263;-0.2595238;-0.116928026;0.12256868;0.15438102;-0.08971235;0.19701952;0.027137075;0.026289556;0.15449862
-0.1405612;-0.1467139;-0.01717582;-0.13749778;-0.028257215;0.022532506;0.31327197;0.043849483;0.19161245;0.04813895;0.09911425;-0.096050434;0.06796169;-0.074149475;-0.25108862;0.14631325;-0.05927787;0.09199354;0.04569391;0.100928545;-0.06176235;0.10028199;-0.024594706;-0.06768824;0.18821323;-0.032266263;-0.1405436;0.15950288;0.0030114762;-0.014898234;0.054342534;-0.26656154;-0.19118564;-0.06222562;0.072575666;-0.1418167;-0.14608887;0.011334228;-0.101260975;0.21807237;-0.093980774;0.015831228;0.07543218;-0.13043493;-0.13891533;0.29532987;-0.025598465;0.055363454;-0.048737943;-0.116936445;0.09999492;-0.023906562;0.112376794;0.07842355;-0.004572406;0.037026823;-0.011721607;0.0050360383;0.33282673;-0.19784719;0.03035088;0.17012791;0.042772055;-0.021643076;-0.18879096;-0.08871063;-0.032408033;-0.1282275;0.07493686;0.16828182;-0.10125997;-0.014382679;0.18478204;0.33350742;0.30870387;0.29350343;0.042160966;-0.09205867;-0.074162565;0.02112418;0.002260278;0.035933666;-0.33188882;-0.22382474;0.008431815;0.034001306;0.24802038;0.032674868;-0.04046248;0.17607799;0.16173889;-0.0013061132;0.027102869;0.048350282;0.009413644;0.09048272;0.02303393;0.024825256;-0.2169421;0.07328645;0.30495492;-0.0054819654;0.023899607;-0.52187556;0.12975869;-0.04018777;0.009699003;0.016054297;-0.011716581;-0.00090314186;-0.30944943;0.02429465;0.14389968;-0.118718535;0.07907506;0.2204316;0.11863676;0.013814368;0.09388225;-0.15730855;-0.016698565;-0.0046603787;0.18019469;-0.15122099;0.14667542;-0.14204547;-0.114657894;-0.03508587;0.026276723;0.06555946;0.16494122;0.0035100696;-0.053838972;-0.19374233;-0.019598264;-0.0053712316;0.06240534;0.013309784;-0.16910449;-0.029673485;0.06907771;0.001545917;-0.041979033;-0.08699337;-0.05880864;-0.038312737;-0.0450919;-0.08107085;0.07152917;-0.19697839;-0.020271055;0.331538;0.020458765;-0.021027625;0.22928374;-0.11415026;-0.014413878;0.2763405;0.0017681067;-0.1237419;0.14260492;0.11307976;-0.098347805;0.022130106;-0.19048119;-0.09510785;0.038106963;0.27248862;0.07807797;-0.06865233;-0.054592147;-0.086019516;0.023046415;-0.0032872525;0.076098286;-0.45347992;0.30031455;0.057984058;0.04811278;0.12529859;0.1404583;0.0106664775;-0.08986809;0.28928542;-0.017751973;-0.10217948;0.030316863;-0.09464735;-0.095602475;0.07964986;0.11013719;-0.08845999;0.09518859;-0.2693826;-0.12481688;-0.17367335;-0.05195468;0.06630014;0.12868823;0.18215843;0.3309869;-0.008935792;0.020426564;0.04143049;0.0226748;-0.5255514;-0.16419707;-0.2605809;-0.04593345;0.07406945;-0.089324616;-0.16102467;0.03929597;-0.041855726;0.046272922;0.37013724;-0.07696373;0.20360753;0.027151449;0.15748642;0.1405858;-0.1657912;-0.08519397;0.13652292;-0.012971311;-0.012077741;0.006874383;-0.019869465;0.05304754;-0.122997075;-0.020823758;0.039524127;-0.07941302;-0.028381545;0.094994746;0.024288028;-0.03437118;0.21315962;0.02218233;0.09576858;0.07816291;0.054237943;0.20676601;-0.1339885;-0.07303124;-0.2756232;-0.28821144;0.24884501;-0.024726866;-0.0049937316;0.23984328;-0.019487202;-0.39150405;0.029163947;0.059232842;-0.26932716;0.01382668;0.04606839;0.03777289;-0.29275364;0.052121777;-0.1665791;-0.23314342;-0.2656392;0.010080524;-0.3903228;-0.026829781;0.0024677266;-0.17652896;-0.053083077;0.0008238066;0.011727514;0.11302848;0.114587255;0.047063325;0.30713707;-0.09069342;0.045099515;-0.1465461;0.023855964;0.08478363;-0.08910639;-0.5541415;0.24813035;-0.021411596;0.036660448;-0.00444269;0.3123588;0.11122953;0.06972874;-0.26369336;0.11979479;-0.16570076;0.068664506;-0.0030492055;0.3270377;0.1744013;-0.019504704;0.03268721;-0.00027323476;0.16341533;0.026704775;-0.051864043;0.009308486;0.0028425492;0.12100539;0.028116357;0.010599535;-0.08139946;-0.07894595;0.030007297;0.25112578;0.033009548;-0.06772102;-0.06568925;-0.1495757;-0.39961907;0.024358591;0.051015314;0.13215971;0.20006876;-0.025704354;0.06147627;0.011243059;0.075517625;-0.10032573;0.08127428;-0.12595457;0.13383833;0.114661776;-0.11792931;-0.009407136;-0.082634956;0.21968044;0.12392256;0.03981588;0.19381236;0.2576324;0.03587512;0.13612072;0.051288843;-0.30034673;0.2943939;0.10799046;0.019170152;0.0075872615;0.0534452;-0.07650616;-0.48890948;-0.2645461;-0.057005204;0.19903721;0.0041346606;-0.031209087;0.18084793;0.0072537446;-0.19344157;0.04808153;-0.014274709;0.25672108;-0.11931464;0.006430658;0.03769267;0.03070129;0.4235982;-0.12751517;-0.018261617;-0.10408484;-0.09947787;0.12730326;-0.010789559;-0.18500426;-0.035481468;0.016919583;0.07113422;-0.043617655;-0.010576126;0.014225529;0.023899164;0.011273777;-0.06268795;0.14330882;-0.07224705;-0.07355292;0.053557035;0.04713978;0.10228689;-0.06660701;-0.0732015;-0.054556955;-0.08872481;0.02687139;0.078695185;-0.05063168;0.14372744;-0.15188165;0.08997967;0.17451294;-0.2811947;-0.04055383;0.037443746;0.041475475;0.14935395;-0.033603676;-0.069630526;-0.37394324;-0.048409943;-0.031751085;0.05913482;0.016132608;-0.040541198;-0.05023955;0.128418;0.0042966995;0.25402543;0.01422331;0.26392195;0.02937776;0.05913708;-0.010828117;0.24240392;-0.01524161;-0.20495126;0.0168326;-0.18907848;0.05987151;-0.06299111;-0.21252136;0.28890345;-0.08687067;0.00071157113;0.3365872;0.025132334;0.018057445;-0.0029528735;0.12739687;0.13119416;-0.2873032;0.09338368;0.018680125;0.045748148;-0.14086291;-0.01281704;0.26032147;0.23082605;0.040021814;0.038970944;-0.033599384;0.009521576;-0.12502845;-0.26770917;-0.03413933;-0.05928386;0.20905453;0.037791666;0.1592518;0.058342073;-0.030932074;0.21442373;-0.052867778;-0.021514274;0.0071866624;0.10552716;-0.37799227;-0.08064858;0.33997115;-0.05209062;0.27737737;-0.21822622;0.20541397;0.17458951;-0.12845302;-0.011157049;-0.07313263;-0.07946234;0.047931768;0.053295303;0.23834091;0.039780848;0.018148271;0.033233523;-0.18307512;0.00551787;0.044625066;0.025034921;-0.04696607;-0.12242134;0.12448965;-0.052060876;-0.10779369;-0.06377411;-0.20368853;0.06135537;0.35295862;-0.14019237;0.06019897;-0.08629529;0.0060754674;0.21669203;-0.20397821;0.08856056;-0.086626075;-0.022779884;-0.061943654;0.30522376;0.030253835;0.008163914;0.07287937;0.036194544;-0.16723262;0.10096083;-0.10584829;-0.034266256;0.18073477;0.45270005;0.26024395;0.02627332;0.5161026;-0.0765288;0.13691916;0.37223712;-0.01582054;-0.0047205705;0.098501086;0.06395157;0.17993158;-0.008026151;-0.030605521;-0.06311475;0.010082182;-0.12739654;0.25630715;0.34943658;-0.06064048;0.19363919;-0.0035725734;-0.12579466;0.3410437;0.04456878;-0.12732531;0.013796281;-0.12880231;0.036636632;-0.3432569;0.08523991;0.010485247;0.25291312;0.0037426497;0.15328713;0.038735032;-0.016788522;-0.07378496;-0.012332536;0.051034793;0.06420602;0.3405707;0.12071806;-0.112761654;0.024820846;-0.048918433;-0.023283964;-0.28047466;0.09100874;0.07084476;0.009110548;0.13018766;-0.06591071;-0.29296175;-0.07532082;0.08478106;0.15756828;0.048917588;0.15066177;-0.029640488;0.12001965;0.013661871
-0.17031191;-0.16495697;0.16084439;-0.25657898;0.026111279;-0.060536616;0.173874;0.035899457;0.1308219;0.003419004;-0.015903443;-0.16481294;0.016977813;-0.0081156045;-0.27081776;0.15835637;-0.030577492;0.05469008;-0.06905776;0.045882314;-0.06669137;0.10093408;-0.057116736;0.045321416;0.33747068;-0.001741677;0.015752884;0.2632499;0.027088193;-0.02347419;0.029479109;-0.12555161;-0.108415835;0.04995104;0.05459015;-0.17596303;-0.009212014;-0.112298556;-0.13669886;0.320918;-0.048053116;0.03683752;-0.12043997;-0.1716844;-0.22242408;0.22393145;-0.07562202;0.05762872;-0.043086376;-0.05083617;0.17632283;-0.053945206;0.12032527;0.10169916;-0.0146463225;-0.03615394;-0.088718235;-0.028027996;0.070763424;-0.18260045;0.026454678;0.26833045;-0.056211375;-0.102678455;-0.109614305;-0.18080579;-0.06537499;-0.06775763;0.049162626;0.107047744;-0.15767696;0.14299698;0.322446;0.46133175;0.15584989;0.14804405;0.14176781;-1.4353211e-05;0.01593413;0.042463202;0.009912375;-0.019276848;-0.31617224;-0.08877193;0.046953358;0.10035292;0.21455492;0.073349446;-0.041476876;0.22766954;0.13585763;0.07134422;0.027119793;0.062787615;0.045187965;0.1265702;0.058918756;-0.04273352;-0.2483132;0.042085133;0.3275688;0.045793097;0.013937451;-0.3341882;0.047246587;-0.07974862;0.0024734323;-0.03284179;0.047198005;0.017191852;-0.22568898;0.070963435;0.17650436;-0.19808564;0.045759983;0.096012935;0.15015964;0.05136724;0.104540676;-0.13974981;-0.023332229;0.0011046799;-0.00065025483;-0.10537198;0.06405306;-0.09681675;-0.09026563;0.02492686;0.033238746;-0.013279564;0.1308749;-0.027228102;-0.015434422;-0.14797331;-0.06572342;-0.032912746;0.09546948;-0.040583715;-0.14304376;-0.045970835;0.039119564;-0.03620846;-0.07233045;-0.06974521;-0.07088312;-0.024570214;0.07502782;0.039934024;-0.04285282;-0.27666944;0.05406185;0.20506;0.07437105;0.048861466;0.31396112;-0.20048311;-0.04255727;0.1808593;0.060020376;-0.15079556;-0.010681476;0.083427325;-0.12487728;0.04453154;-0.20758337;0.04937993;-0.01629979;0.38592765;-0.013508157;0.016075298;-0.039597847;-0.03557728;0.021054039;-0.052282687;0.0646266;-0.45707765;0.23169883;0.13815942;-0.10058662;0.14219628;0.12846695;0.080422245;-0.08613002;0.35376474;0.017350934;-0.1107024;-0.026962793;-0.1353376;-0.24066606;0.07077271;0.151267;-0.084798545;0.056763276;-0.2998537;-0.18285857;-0.20085512;0.054333284;-0.01230154;0.088268384;0.14808415;0.27004388;-0.03223216;0.018874874;0.039493218;-0.09059418;-0.4999428;-0.06195394;-0.16504164;0.05101619;0.009286923;-0.044517234;-0.20314324;-0.044414036;0.062946066;-0.05842528;0.3371029;-0.00019206356;0.105873935;-0.053944286;0.24231598;0.020673165;-0.010823459;-0.17342542;0.36624542;-0.006700456;-0.021179123;-0.1906196;-0.012418719;-0.04895929;-0.117332585;-0.015530232;-0.016478129;0.080299765;-0.06704589;0.057314653;0.027925989;-0.09739479;0.22942354;-0.047997084;0.021625053;0.09539136;0.054376103;-0.023497071;-0.267833;-0.012320553;-0.2162037;-0.24970137;0.15299115;-0.090989955;0.020233093;0.35363325;0.0023206896;-0.2816751;0.007066252;0.031892106;-0.14673841;-0.061713815;-0.042383164;-0.04316989;-0.14647037;-0.062711604;-0.11528412;-0.19185397;-0.102940254;0.061362356;-0.34236583;0.014549358;-0.0110705625;-0.06439412;-0.022041136;-0.04341849;0.059334077;0.06847861;0.12572418;-0.060336355;0.2692344;-0.1617769;-0.060364548;-0.14844522;-0.060779016;-0.028256249;-0.030487321;-0.5977173;0.24552086;-0.05772605;0.052725546;-0.0027598646;0.30492005;-0.019683821;-0.036075562;-0.092766024;0.019081239;-0.19414611;0.10585692;-0.0030192041;0.383055;0.17845261;-0.09641747;0.030070988;-0.030610718;0.2701803;0.08395825;0.059644375;0.045061816;-0.024494115;0.24010518;-0.091954544;-0.039098263;0.0057246974;-0.10924683;0.025625706;0.15945038;-0.06180503;-0.09591386;-0.081695564;0.004471794;-0.4737777;0.048131548;0.056435365;0.082389;0.31303558;0.006540778;0.0126683125;-0.027516246;-0.06559235;-0.11591852;0.010818962;-0.19916245;-0.06325452;0.20761943;-0.13966005;0.05745507;0.0816461;0.18109643;0.03287174;0.039383963;0.21774901;0.24036475;0.033699464;0.05927275;0.05613717;-0.26481098;0.21882465;-0.031114854;0.0643757;-0.024734056;-0.008700734;0.074641734;-0.55137056;-0.3933069;-0.09032017;0.3031396;-0.019200716;-0.0492171;0.17043878;-0.032255433;-0.14899416;-0.04747132;-0.2048372;0.2108794;-0.18667702;0.04100811;0.042069186;-0.10181794;0.40656453;-0.085206516;-0.0073649026;-0.025254725;-0.19388072;0.02835023;-0.17070614;-0.21544811;0.01015317;-0.06598163;-0.008829174;-0.04803304;0.08230863;0.01136193;-0.035729732;0.026099278;0.07637648;0.014098041;-0.02889926;0.043491483;-0.064714454;0.05587751;0.15757181;-0.047326166;-0.0865223;-0.07565719;-0.08670116;-0.013343107;0.07263377;0.074400626;0.20288415;-0.11880981;0.008291921;0.23715626;-0.2172945;-0.079694375;0.061798703;-0.021839714;0.06990861;0.0017406401;-0.1277761;-0.1309289;0.00915693;0.029210156;0.008335578;0.015200258;-0.016961759;-0.0014588579;0.08303033;-0.05580329;0.20763853;0.07674779;0.25850967;-0.032606922;0.09340716;0.04113631;0.21325235;0.010758721;-0.21086942;0.15650988;-0.26255798;0.06811202;-0.015740467;0.019564701;0.31750363;-0.049630713;0.13159688;0.28618145;0.042109028;-0.0105985785;0.022336436;0.10743243;0.14536296;-0.30514994;0.12963617;-0.02162837;-0.059248656;-0.07339552;-0.0007148176;0.16259445;0.11720424;-0.12369773;-0.06142234;-0.114422336;0.023943333;-0.24649194;-0.19428447;0.023311947;0.03341043;0.1861254;-0.013478338;0.10832926;0.03475613;-0.08901238;0.24482486;0.09054925;-0.03820797;0.017806463;0.020651484;-0.33407944;-0.08993423;0.42755365;0.06432032;0.32229385;-0.23403029;0.1550627;0.16857459;-0.09787103;0.009220057;-0.06902035;-0.013860495;-0.04251421;0.0044875704;0.20642194;-0.059673835;-0.046340853;-0.03593954;-0.25599292;0.09970638;0.21227187;0.11675719;-0.051899157;-0.045437235;0.1689743;-0.061180945;-0.14819472;0.054517377;-0.072097115;-0.062065575;0.3760167;-0.10393599;0.032315552;-0.14089592;0.015109415;0.14826337;-0.17441;0.060633354;-0.07919236;0.007098992;0.049463168;0.16712672;0.055224713;0.052464187;0.009744772;-0.093951136;-0.19756922;0.18463503;-0.07692562;0.06290004;0.15089776;0.27772757;0.25872898;-0.046834834;0.38472822;-0.028420854;0.18214433;0.4486231;-0.04508453;-0.059792385;0.09600942;0.03904861;0.17399684;0.026755685;-0.014092067;-0.09197421;0.035602927;-0.03048986;0.30857697;0.36447114;0.07486059;0.2196414;0.02010251;-0.2686553;0.35410416;-0.055577125;-0.027173525;-0.07795728;-0.021629183;0.007580274;-0.32347086;-0.0630157;-0.009505861;0.2507311;-0.020727249;0.070530385;-0.011048414;0.084706716;0.06519504;0.043212775;0.1368088;0.023202213;0.2577238;0.27875343;-0.11617148;0.042465344;0.040757433;0.15001734;-0.16050914;0.24152733;0.11300124;0.0064967945;-0.034039535;-0.004204271;-0.2963854;-0.028120657;0.11707517;-0.027338814;0.06271809;0.18487845;0.111879885;0.17897426;-0.10113914
-0.17074428;-0.14320791;0.19107944;-0.15624247;0.012723379;0.06539093;0.19762412;0.042445447;0.25415397;0.017917478;0.009267821;-0.16686296;-0.008650411;-0.0634461;-0.22357766;0.0567836;-0.027546152;0.04120839;0.02423563;-0.06836553;0.05946414;0.0006810663;0.002883116;-0.017358514;0.31469956;0.0714591;-0.007986778;0.23639512;0.05489465;-0.03770293;0.021233661;-0.038180057;-0.17462002;-0.0077524;-0.04064845;-0.041164797;-0.046366766;-0.056122918;0.02754146;0.2625218;-0.04870049;0.00019269202;-0.16780199;-0.15902455;-0.19768532;0.15824805;-0.042032477;0.027429247;0.10225598;-0.14528443;0.1620232;0.015349257;0.003490503;0.18599936;-0.01161857;0.050612573;-0.06307516;-0.024523638;0.052185543;-0.07247026;0.0078287665;0.2834422;-0.018627685;-0.027037306;-0.0932318;-0.13233776;-0.08008839;0.0105261225;0.0049370276;0.16808371;-0.15644616;0.16165428;0.38107276;0.3510313;0.20040567;0.25109744;-0.021537436;0.019413985;-0.027996209;0.07433846;-0.030936042;0.02380311;-0.22570418;-0.045075174;0.0019290706;0.13667941;0.10687972;-0.055532753;0.027377013;0.27420792;0.12963422;0.10565683;-0.025378406;0.07204636;0.011896155;0.21178138;0.009787601;0.068092965;-0.15907457;0.05048432;0.23323649;0.055212162;-0.016437598;-0.42799902;0.14616366;0.031532224;0.022982283;-0.04079172;-0.005315421;-0.01235537;-0.37265396;-1.183029e-05;0.012841019;-0.11191263;-0.067319885;0.20467699;0.23193395;-0.05449492;-0.015411112;-0.13761358;-0.063898236;-0.04249774;0.008831273;-0.012063727;0.08193597;-0.05806141;-0.12281501;-0.05173517;-0.041124526;-0.029385097;0.056568485;-0.108462386;0.011425479;-0.19521269;-0.02941082;-0.09762613;0.079587705;-0.09843858;-0.23735537;-0.09357966;-0.0031032832;-0.0035918546;-0.011196861;-0.10965448;-0.026562873;-0.0073583173;0.03215072;-0.02064197;-0.008532801;-0.26418346;-0.018281048;0.13253652;0.022352153;-0.055586714;0.27783543;-0.115028776;0.056457367;0.290522;0.0931574;-0.16459604;0.008003566;0.17129768;-0.22001167;0.126177;-0.31096068;-0.065900475;0.019018373;0.30114073;0.047336243;0.008334641;0.012563125;-0.04460819;-0.031888396;0.03057945;-0.0641918;-0.5301196;0.22123618;0.19209637;-0.116454266;0.12894125;0.062423255;0.14037426;0.03599663;0.31873986;0.030218314;-0.23613259;0.006840876;-0.12701195;-0.15299158;0.030676335;0.18538013;-0.13085468;0.040556792;-0.124911584;-0.10510052;-0.007413241;0.08459131;-0.15788966;0.2199805;0.032795303;0.3819081;0.020866573;0.027719209;-0.03763971;-0.23261805;-0.4461416;-0.044027817;-0.20415735;-0.053153418;-0.0006571566;0.019101482;-0.053575344;-0.012690898;-0.02792457;-0.103330836;0.32152548;0.08815014;0.12911765;0.020196034;0.2702816;0.09802472;0.09477529;-0.24313836;0.33501983;0.024974559;-0.04984512;-0.13020076;-0.0098625915;-0.06324776;-0.0948687;0.033170827;-0.055948984;0.044128187;0.0030468658;0.10759054;-0.06514573;-0.14335042;0.41159922;0.011135719;-0.10670978;-0.0028609375;0.006394323;0.0073453095;-0.28274518;0.019491287;-0.1082872;-0.09988088;0.17163719;0.08437448;0.028983107;0.2975555;-0.05736017;-0.21893552;-0.010269356;-0.035536576;-0.105193555;-0.14882989;-0.047155112;0.13584846;-0.18748963;-0.14908935;-0.12312626;-0.12329967;-0.21562688;-0.004222551;-0.23957399;0.07158071;-0.038506173;-0.24240357;-0.041710988;0.018163456;0.020116208;0.15507643;0.20569557;0.05002232;0.265759;-0.12425217;0.020105353;-0.0905934;0.023145186;-0.024703879;-0.10340399;-0.67340183;0.23388037;-0.027966512;0.034663536;-0.035445757;0.26075515;-0.052093208;0.026374407;-0.0053138994;-0.0142281875;-0.3151608;0.11908125;0.0040309965;0.274025;0.20672564;0.05035014;0.14724138;0.13257274;0.23533024;0.061298918;0.004895239;0.007207212;0.05330563;0.21879019;0.033093248;0.0585472;-0.07448182;-0.054613028;0.12928121;0.16226691;-0.04581964;-0.081679575;-0.042091515;0.02946999;-0.49773818;-0.008854631;0.0044434895;0.20168635;0.19509286;0.03464948;0.10666324;0.023134425;0.02356311;-0.039244436;-0.04841758;-0.16893698;-0.040275563;0.23585413;-0.081945606;0.029170455;-0.018152181;0.07329174;-0.08473528;0.03669946;0.2127158;0.24224456;0.13996956;0.14628415;-0.045937825;-0.25942007;0.34270328;-0.03365757;0.055716395;0.010229654;0.030280309;0.06428001;-0.506163;-0.28508648;-0.029428212;0.2875703;0.025698196;-0.12952894;0.18925394;-0.021707969;-0.13665453;0.040915355;-0.18245482;0.21981657;-0.1672356;0.009769455;-0.03924398;-0.00043018325;0.30761987;-0.048909042;0.016836844;-0.059472863;-0.3050131;-0.010547238;-0.16457644;-0.14931947;0.062127914;0.057204828;-0.048243396;0.020347571;-0.019798854;-0.029900614;-0.084873356;-0.004106191;0.046077084;0.10780552;0.04827589;-0.0076396153;-0.037568167;-0.08636598;0.16163856;-0.056503434;-0.1854577;-0.036823764;-0.20756856;-0.17176509;0.080860816;-0.046375193;0.22430098;-0.17636333;0.016407197;0.33502576;-0.26556534;-0.15824156;0.048757814;-0.03830768;0.14481165;0.0689998;-0.1522617;-0.15290582;-0.100578584;-0.07049221;-0.0020320355;-0.002713659;0.03810676;0.063879535;0.038300034;0.02157653;0.17971754;0.07092978;0.17767678;0.035142936;0.06973683;-0.03203551;0.31982312;0.08317445;-0.0641897;0.15601179;-0.29525912;-0.00088659505;-0.011728651;-0.0057759206;0.28387558;0.013673413;0.040861323;0.35305822;0.009010753;0.072180666;0.012901943;0.10072932;0.1645879;-0.23559982;0.13386525;0.055386294;0.063715614;-0.04972676;0.015746715;0.1706587;0.24559157;-0.07925038;-0.06323951;-0.089044474;-0.024946645;-0.19301659;-0.24786444;-0.0053739673;0.09035642;0.13488607;-0.031935647;0.2009262;0.082069434;-0.054950856;0.12235146;-0.026968064;-0.005059759;-0.024508066;-0.0055812313;-0.22887328;0.006477893;0.3274735;0.07765165;0.2611901;-0.309533;0.17369495;0.195491;-0.098645315;-0.023479912;-0.07193886;-0.013406183;0.012346296;0.051584024;0.117736466;0.008320353;-0.025127834;-0.0063586924;-0.18880974;0.0434686;0.15395431;0.064129926;0.00310198;-0.046926375;0.15620331;-0.034014683;0.0027376176;-0.014937578;-0.1564451;-0.07820905;0.2834761;-0.016089827;-0.035885803;-0.17371272;0.075026855;0.18219289;-0.13604477;0.04541627;0.025634356;-0.016865863;0.09173971;0.09381738;-0.027470978;0.03385145;-0.0030554219;-0.10074408;-0.18197155;0.23530254;-0.21358202;-0.08150049;0.11380732;0.28512532;0.33129406;0.05303684;0.46744823;-0.056358725;0.041261;0.3821197;0.054661747;-0.00594119;0.18196943;-0.039029706;0.16289939;0.045834735;0.0015593801;-0.048168756;0.049403805;-0.07316053;0.19349644;0.37867102;-0.07324812;0.18358915;-0.010918976;-0.2618231;0.39821038;0.046865907;-0.07272816;-0.03468055;0.03756993;-0.058197886;-0.23549436;0.0822364;0.059092987;0.23954763;0.016749032;0.020977298;-0.034821067;0.03179106;-0.021808324;-0.03970408;0.1323864;0.008926081;0.2251371;0.21384807;-0.14262688;0.028959993;-0.038706016;0.1783505;-0.30048907;0.13075607;0.020141551;-0.03917737;-0.05439432;0.073168986;-0.09954511;0.06159974;0.057861563;0.0044654724;-0.0014145744;0.1370961;0.043150175;0.1155006;-0.115599304
-0.18252395;-0.03838756;0.11258532;-0.13174164;-0.09661105;-0.016689774;0.08167502;0.013753818;0.05080558;0.021809679;0.06642379;-0.22995633;-0.05356581;-0.06121055;-0.19416921;0.17484237;-0.04984966;-0.026347399;-0.03992443;-0.010907983;-0.020106683;-0.016005503;-0.068886794;-0.042769514;0.42617986;-0.029855143;0.06150675;0.2738591;-0.081585824;-0.0018540018;-0.0038168647;-0.08397266;-0.24817546;0.015188521;-0.038924426;-0.08134889;-0.160274;-0.002644906;-0.08132546;0.3391783;-0.17559065;-0.04990632;-0.13585056;-0.025257109;-0.080434464;0.23944099;-0.033491183;0.10740559;-0.056629233;-0.11953101;0.069773704;0.009998949;0.07645726;0.20776382;-0.031991556;0.009149711;-0.018549923;-0.012157817;0.0804205;-0.08958579;0.044647902;0.30192825;0.074066855;-0.16763537;-0.15609513;-0.18697654;-0.008736291;0.014712337;-0.05188257;0.098678574;-0.15411034;0.13260084;0.27905583;0.3480164;0.093480475;0.11784877;-0.017141765;-0.012963645;-0.05162085;-0.054307863;-0.038731948;0.0021456461;-0.13737677;-0.0223188;0.009288213;0.06747703;0.13596667;-0.0669771;0.03325959;0.20879379;0.13546199;0.06855751;0.04251415;-0.04843509;-0.06604906;0.21933219;-0.06897708;-0.023672504;-0.12266338;-0.04194383;0.17434295;0.00037803096;0.06476416;-0.16599113;-0.013338316;0.0023073656;0.07659709;-0.007009752;-0.025264937;0.014073261;-0.33551747;-0.050547514;0.13624096;-0.17105904;0.0773021;0.049644645;0.15622061;0.06451244;0.05274994;-0.09113621;-0.028094798;-0.020008923;0.080010414;-0.10108853;0.11163017;-0.14166123;-0.08289315;0.045754503;-0.08814087;-0.05323581;0.08685309;-0.115428366;-0.007285189;-0.09923343;0.012961937;-0.062407434;0.15548053;-0.15247509;-0.290332;-0.15961298;-0.035668984;-0.049505215;0.038129006;-0.086857855;-0.052996136;0.020214085;0.008575068;-0.024152301;0.054468367;-0.18241158;-0.04138798;0.17707935;-0.009036148;-0.027192488;0.22170265;-0.13490988;0.048505697;0.17246044;-0.1094655;-0.07152693;0.04865115;0.19173592;-0.22110085;0.06664391;-0.30741134;0.050314475;0.056845326;0.3769796;-0.027490811;0.07106544;0.0076371864;0.07113328;0.060737427;-0.030567406;0.060015123;-0.5134562;0.2263393;0.247614;-0.04708797;0.15261163;0.17359762;0.08803838;0.07735326;0.32739925;0.06256762;-0.19289635;-0.043616913;-0.104316786;-0.20448512;0.06158663;0.22081402;-0.23482579;-0.0013145411;-0.18861379;-0.13932465;-0.0046154833;-0.056840844;-0.095985524;0.13439794;0.08473524;0.44867337;-0.03438627;-0.052213572;-0.07436331;-0.24104705;-0.44993585;-0.026725678;-0.08839316;0.035069745;0.031430677;0.05636544;-0.048322134;0.051880524;-0.06641932;-0.16700645;0.22909836;0.0782522;0.14236087;-0.034600753;0.2472954;0.015143402;0.08630406;-0.10530153;0.337465;-0.028497588;0.0717499;-0.3093126;-0.021377612;0.038559463;-0.104076564;0.077427916;-0.025234155;-0.05241138;0.07538337;0.096421495;-0.04933608;-0.079250135;0.36057648;-0.012012005;-0.13622507;0.037939284;0.061881173;-0.004039571;-0.08956134;0.055271007;-0.20670499;-0.20523037;0.1176853;-0.07431511;-0.0006347751;0.22250338;0.016657108;-0.3612656;-0.010298985;0.02244572;-0.09964866;-0.13858299;-0.033299338;0.15194312;-0.30636558;-0.07035468;-0.04906153;-0.14352284;-0.2649715;-0.029765086;-0.33500543;-0.07540704;-0.061329216;-0.147376;-0.011308574;-0.06834532;0.07678389;-0.03037974;0.19012867;0.051447738;0.25528768;-0.072893694;-0.04111256;0.05934295;0.0013480732;0.08214524;-0.25876826;-0.51492125;0.12816581;-0.05462535;0.0033803163;0.051909983;0.25847384;-0.047771823;-0.009193197;0.069640376;0.07165519;-0.24625713;0.06427699;0.041710302;0.35110158;0.107771866;0.09190507;0.056252874;0.10890854;0.31471068;0.03227743;-0.050511435;-0.062462654;-0.026110569;0.32251436;0.0009341859;-0.055396862;-0.056921653;-0.043956254;0.061929762;0.17913978;0.028233554;-0.025840664;-0.07902241;-0.055521157;-0.3967958;-0.04214207;-0.06715916;0.22526215;0.1701407;-0.03193254;0.04859543;0.052261863;-0.05306583;-0.19400217;0.010659741;-0.29233238;-0.0795942;0.10593473;-0.065651104;0.07553299;0.058020383;0.17719209;0.053970117;0.041596208;0.13230711;0.30204827;0.0023148875;0.10426303;-0.008002514;-0.1811691;0.35439938;-0.07984906;0.16707364;-0.005085737;-0.03272802;-0.06226577;-0.5407198;-0.32723203;-0.20737287;0.18550342;-0.0045359316;-0.059582993;0.05335543;0.0445923;-0.15348111;0.077981204;-0.21078789;0.2591166;-0.09686521;0.037215564;-0.013752264;-0.04583476;0.19269323;-0.08050936;-0.0391816;-0.03041875;-0.3096585;0.0373192;-0.16830225;-0.21135315;-0.005328826;0.054530278;0.013541783;0.080630474;0.07187132;0.039966922;-0.10464166;-0.05264753;-0.010892072;0.1566495;0.08874912;0.07133919;0.043583304;0.063069955;0.13448174;0.023879891;-0.16092004;-0.18968856;-0.16383354;-0.12866344;-0.013411373;-0.008331686;0.1839369;-0.071943425;-0.063704796;0.24241406;-0.19004829;-0.19777912;-0.0736439;0.030280482;0.11457739;-0.009683409;-0.20781313;-0.14005181;0.019599503;0.056669954;-0.08937783;-0.053198595;0.013827491;-0.08809167;0.073362224;0.049564656;0.1904315;-0.0532637;0.22559743;-0.041934706;0.012501154;0.041409966;0.23674127;0.028182918;-0.04919796;0.1802087;-0.28774232;-0.071949296;-0.0057435487;-0.010975718;0.20918685;-0.036749177;0.11796134;0.27276328;-0.02161183;0.044476133;-0.050216213;0.16333331;0.15576586;-0.28772902;0.22651674;0.03948091;-0.051535625;-0.039877944;-0.04433872;0.13070384;0.23741642;-0.10016585;0.043142397;-0.107337266;-0.009148097;-0.18827963;-0.16609028;-0.04697769;-0.036236856;0.20334207;0.028022083;0.20360647;-0.059545685;-0.16579166;0.14577486;-0.0065484685;0.0082598645;0.05735905;-0.042352173;-0.2299772;0.021311797;0.34775952;0.035333037;0.2258177;-0.28380147;0.07329044;0.1998955;-0.15508741;0.053003494;-0.075257465;-0.07665202;0.060676187;-0.012525575;0.14865501;0.12183488;-0.05388726;-0.064135894;-0.11381885;0.017465683;0.088331155;0.054184288;0.073684156;-0.015963703;0.08617605;0.08752532;-0.09113813;0.047472555;-0.05956436;0.015330096;0.2543288;0.017904863;0.036996614;-0.05494009;-0.012800249;0.048494507;-0.19202358;-0.06882264;0.008405782;-0.014928848;0.040781666;0.1890811;-0.021993693;0.05465798;0.04798397;-0.030856315;-0.3117779;0.22325478;-0.32333001;-0.016387183;0.15868996;0.32608917;0.38525397;-0.05836991;0.5166564;0.008514992;0.08844133;0.3428097;-0.06398589;0.008904703;0.023700722;-0.07119931;0.18233214;-0.09221652;0.028706683;-0.00869753;0.03944511;-0.06718939;0.19783545;0.29032397;-0.044563327;0.09337016;-0.071510404;-0.24051847;0.31922665;-0.074373506;-0.060752597;-0.08621488;-0.07130423;0.03156344;-0.40553588;-0.020970821;-0.0665796;0.271297;0.060209114;0.04100456;0.0700519;0.022601528;0.010678002;-0.0056090644;0.07938169;-0.038786672;0.16083318;0.24289668;-0.053159606;-0.07365072;-0.02298028;0.063346095;-0.2862728;0.08549228;-0.018093701;-0.023130858;-0.0594535;-0.049604964;-0.2751767;-0.03917071;-0.06633776;-0.058008466;-0.0042749085;0.15327512;0.08680129;0.24832587;-0.041520756
-0.14430565;-0.13279733;0.24059847;-0.10244816;0.029732497;-0.050226543;0.11766432;-0.10345584;0.04881615;-0.02887531;0.17766228;-0.19374199;-0.078826;-0.07435294;-0.25270453;0.15286082;0.040936783;0.008923772;0.001651912;-0.023883326;0.022803154;0.14492603;-0.013960654;-0.0012192321;0.3264895;-0.04063106;-0.026563678;0.3047597;0.0152154295;0.0469744;-0.011786654;-0.07812924;-0.09796087;-0.05352811;-0.03487565;0.01893747;-0.1415922;0.120792925;-0.07882007;0.24746272;-0.06877277;-0.024987742;-0.0061562494;-0.23090804;0.046874907;0.09702956;-0.019133525;0.034457315;-0.06863024;-0.08458824;0.2139371;0.06538264;0.05113323;0.14458317;0.07299388;0.0033673733;-0.067339875;-0.07886707;0.11035875;-0.18632944;0.038424406;0.3177676;-0.032448266;-0.1715062;-0.15135482;-0.16553928;-0.08326515;0.0076370924;-0.020870615;0.118834704;-0.2286387;0.16652147;0.33322015;0.44026172;0.18730764;0.14756663;-0.09913314;0.06147434;-0.0015368841;0.065861076;0.051766098;-0.014084356;-0.27169517;-0.06989399;-0.016900593;0.051503547;0.18875761;-0.06047081;-0.0006945664;0.2799305;0.17601311;0.0422165;-0.0026755494;-0.040268853;0.034228235;0.21955469;0.06554253;0.08244825;-0.05789714;-0.07904136;0.1858058;0.03267551;-0.07045328;-0.092124894;0.03848429;0.023039255;-0.045747433;0.06412411;-0.042643834;0.030141167;-0.30331498;-0.12453642;0.19771276;-0.06253121;0.014456221;0.18284526;0.13617775;0.03768674;0.19044538;-0.18582144;0.080109514;0.06521699;0.06521981;-0.0048388895;0.041903064;-0.04430602;-0.08433924;-0.009693468;0.030518245;-0.055366922;0.125224;-0.04698584;-0.051839218;-0.09790591;0.053631697;0.08221091;0.17559871;-0.23388633;-0.30649525;-0.09634756;0.04369018;0.034791198;-0.01569193;-0.09956833;0.04923912;-0.048609268;-0.028766992;0.04728951;0.048383392;-0.16972017;-2.4587487e-05;0.31801537;-0.009863552;0.029703636;0.23589645;-0.2387838;0.05709836;0.19551736;-0.027118176;0.021958407;-0.06367765;0.20475073;-0.22448787;0.023082852;-0.44331667;0.01908771;0.08697422;0.3271555;-0.14731587;-0.075891696;0.0016840176;0.020096006;0.006750677;0.014208683;-0.04679768;-0.42972073;0.3983861;0.22126219;-0.13097362;0.005050269;0.13552085;0.035923533;0.002599165;0.27313283;-0.04231117;-0.21226472;0.029375806;-0.14168617;-0.18295777;0.012500443;0.14466406;-0.27054897;0.024142018;-0.061794158;-0.22395869;0.012455158;0.05777783;-0.036844086;0.20479338;0.15438217;0.42285395;-0.022032736;-0.03568458;0.04615119;-0.37706548;-0.39783475;-0.022948548;-0.05084686;-0.01798669;-0.013121788;-0.032297377;-0.04693102;-0.0530143;0.044275686;-0.20559052;0.23074701;0.1542824;0.039557554;0.033675123;0.12734838;0.06060531;0.06053743;-0.011822956;0.31437987;0.081231095;0.006518561;-0.43403396;-0.04338357;0.03758298;-0.20529056;0.16611956;-0.093672;-0.018634215;-0.0001347359;0.13251004;-0.008001467;0.03089986;0.23340632;0.004055848;-0.14019875;0.119051896;0.17061828;-0.07967699;-0.19726382;0.06113385;-0.07384076;-0.18829456;-0.043389007;0.020718327;-0.033200163;0.26910532;-0.02817015;-0.29017377;-0.036061976;-0.02424217;-0.12804739;-0.059214577;0.04349821;0.13941096;-0.24910477;0.011109485;-0.12609786;-0.28191152;-0.08069665;0.029393924;-0.13124546;0.062713556;0.043687984;-0.15642539;0.06407;0.016461762;0.050532434;-0.08858664;0.081858814;0.06271486;0.2565566;-0.13974032;-0.018739576;0.1471538;0.03464602;0.16044648;-0.24886918;-0.44226277;0.007913383;0.04407449;-0.087912075;-0.016351145;0.30841696;-0.10863445;0.013550118;0.12075526;0.032995936;-0.14461334;0.12954013;-0.011500935;0.31833965;-0.04776239;-0.004731673;0.09787611;0.035166778;0.21215792;-0.06720382;-0.033000205;0.069362044;-0.015697528;0.32061663;0.013435014;0.024264894;-0.013143803;0.06578984;0.09198464;0.12829977;-0.049727987;-0.08471859;-0.028767182;0.02911273;-0.34695297;0.05956665;-0.013980331;0.18469177;0.18699001;-0.042319573;-0.06218159;0.07757672;-0.058106482;-0.020950276;-0.009801104;-0.294666;-0.18552992;0.03849916;-0.116723426;-0.02371145;-0.0076257745;0.028173188;-0.047697593;0.017081823;0.20953922;0.3636846;-0.037860304;0.0924349;-0.046055272;-0.16716667;0.19610426;-0.114791095;0.014707449;-0.07088525;0.01592164;-0.02459472;-0.48689064;-0.4337033;-0.13362774;0.17769206;-0.04915872;0.027884776;0.21524465;0.01879089;-0.14683808;-0.07333278;-0.014028789;0.2926274;-0.023303729;-0.022539401;-0.027543409;-0.06924706;0.2350381;-0.097999625;0.04864832;0.03789117;-0.3999052;0.05882104;-0.17023215;-0.1950184;0.017636431;-0.06431811;-0.003993377;0.03678718;-0.0612813;-0.050045338;0.033048015;0.079788975;0.0055486;0.070881054;-0.05142154;0.04528406;0.03287536;0.04147755;0.2139397;0.10458051;-0.16212323;-0.06267819;-0.14637078;-0.07169549;-0.08295928;-0.0033203603;0.2520448;-0.15020493;-0.064297915;0.3615136;-0.28204742;-0.26138914;0.033885475;-0.04026927;0.14949805;0.0151351355;-0.23691794;-0.11451411;0.01871353;-0.011351961;-0.058806304;0.093973175;-0.015590434;0.058043364;-0.11400857;-0.027876506;0.18730387;-0.0923996;0.27765092;-0.028942475;0.047702696;0.047062356;0.30190337;0.12331017;0.031085351;0.13792111;-0.18943635;-0.07170777;0.04085583;0.09668555;0.3205951;-0.034056693;0.10652687;0.3551176;-0.1763978;-0.011939976;-0.0098507665;0.22144003;0.037908044;-0.24685296;0.23134087;0.052836686;-0.052130274;-0.027428111;0.07510655;0.1056048;0.1614442;-0.10191573;-0.019477936;-0.15135114;0.0011996912;-0.018746959;-0.2793431;-0.035064567;0.14194721;0.094008125;-0.03168914;0.1617341;-0.0075525045;-0.20291944;0.097078905;-0.02333804;-0.029316524;-0.092381276;-0.03429369;-0.34781215;0.006479225;0.34846884;-0.029095713;0.28820953;-0.19582583;-0.065996565;0.09645952;-0.1713488;-0.039812937;-0.0023582496;-0.050508007;-0.01177369;-0.06519332;0.31606567;0.036287498;-0.004680266;0.10341415;-0.11984144;0.050834104;0.046686422;0.14794326;-0.07557841;-0.08473903;0.04561482;0.06616023;-0.059269;-0.06785923;-0.06542309;0.076834306;0.16076101;-0.030870939;-0.022644177;-0.10606092;-0.083886854;0.096423425;-0.20423082;-0.07131681;0.064120986;0.0018993614;0.00572133;0.11232003;0.004821457;0.032877326;-0.0561322;0.09744514;-0.36712813;0.11356779;-0.3405324;-0.11127165;0.21786955;0.2742968;0.32728887;0.013202677;0.4311164;0.025575213;0.010208045;0.30917284;-0.021892425;-0.051206376;0.051814537;-0.07359029;0.21984133;0.010088573;0.029782033;0.015553581;-0.055872276;-0.12489708;0.09534834;0.24031787;0.04473152;0.14170854;0.06733037;-0.063228786;0.2901546;0.05376687;0.06367773;-0.04761532;-0.09789401;-0.021767411;-0.32076365;0.051990096;-0.0253285;0.32617775;0.01793074;-0.03732584;0.03143968;0.15078416;-0.06340883;-0.024624463;0.14325619;-0.0057953442;0.1220753;0.2625769;0.05467203;0.00321779;-0.015168567;0.1414421;-0.29703376;0.0010683968;-0.0014115658;-0.053224068;-0.018003687;0.05571623;-0.28410462;0.06092451;-0.050167434;-0.031078387;-0.09425355;0.13941064;0.13802184;0.24893507;-0.052266296
-0.27213624;-0.12034846;0.09414392;-0.23913917;-0.09709944;0.046398655;-0.05754211;0.028840844;0.09428306;-0.07768478;0.16728757;-0.30626816;0.03213153;0.12014277;-0.31694123;0.026547102;0.01614279;0.029676676;0.045894247;-0.074105695;-0.012044074;-0.013919484;0.034252085;-0.06954354;0.3193297;0.11084794;-0.06103854;0.253595;0.01968239;-0.02846737;0.012799209;-0.058727607;-0.2093329;0.0010434286;0.009786638;0.028917432;-0.13313812;0.087653294;0.0040252926;0.27918;-0.1604339;-0.053910047;0.020590656;-0.09702019;-0.10127513;-0.0003210827;0.06507838;0.07935225;-0.009257225;-0.3016636;0.14368431;0.004461368;0.023502808;0.25885403;-0.026556306;-0.0022841743;-0.10247909;0.04384736;0.012506026;-0.21487637;-0.021332256;0.32997766;-0.009974487;-0.15410598;-0.15929313;-0.14758843;-0.062883675;-0.028088005;-0.068103;0.119704716;-0.2432717;0.1754125;0.30294785;0.29691494;0.069111496;0.184652;0.061772577;0.1327254;-0.051681474;-0.056173626;-0.041839167;0.024080154;-0.1685982;-0.17392449;-0.07795254;0.031209983;0.3107144;-0.007584683;-0.03212465;0.20330271;0.104415946;-0.027225101;0.048275027;0.026893202;-0.018297529;0.15323097;-0.08222678;0.019264935;-0.120625585;0.00041830837;0.054732513;-0.00809243;-0.012564947;0.11747014;0.03977747;0.045647405;0.05118761;-0.047499992;-0.038502246;0.06393701;-0.34782735;-0.037668094;-0.00034898843;-0.26666933;-0.044111814;0.07634302;0.07149342;0.042920575;0.2734411;-0.12503561;-0.035409167;-0.019949058;0.11278506;0.030168151;0.08901526;-0.14923264;-0.19383635;0.13084473;-0.12548122;0.031639174;-0.06834607;-0.14417754;0.08641096;-0.16940342;-0.05186505;-0.01619524;0.19912645;-0.24442226;-0.21196832;-0.16979636;-0.21180162;0.02413751;-0.1707592;-0.07316836;-0.007999977;-0.014977675;0.024059007;0.022916775;-0.061286572;-0.124754824;-0.17018723;0.35995105;-0.039812397;0.06470013;0.29535797;-0.26198092;0.0037689006;0.08131638;-0.07742112;-0.15483788;0.045131817;0.27092025;-0.32841048;0.0073698503;-0.3424776;-0.04222773;-0.012869443;0.22023863;-0.23398149;-0.060593236;0.006918471;0.009911838;-0.07139053;-0.075806625;-0.032299206;-0.2987286;0.3966937;0.13385583;-0.16385847;-0.06953756;0.1966025;0.031031176;0.051712304;0.16150177;-0.08356013;-0.17865007;0.040535923;-0.117377974;-0.068807565;0.046660785;0.04724727;-0.26176244;-0.18094762;0.053882893;-0.120483525;-0.022392176;-0.039889492;-0.29398647;0.12368439;0.07965779;0.39925227;-0.041438222;-0.020240774;0.046878796;-0.30735716;-0.24557184;-0.059045907;-0.118428215;0.026934292;0.025660092;0.039986186;-0.16366613;0.0021400435;0.010237656;-0.10326557;0.27660418;0.25485608;0.011876384;-0.052298594;0.072821185;0.11843426;0.18236586;-0.041111775;0.25766224;-0.050050188;0.066548556;-0.3561719;0.11161976;0.007839576;-0.19602081;0.07356645;-0.08599005;-0.020571386;-0.006669187;0.09010872;-0.066126786;-0.090289116;0.30964515;0.04391045;-0.30425185;-0.04276817;0.039222762;-0.11399004;-0.16273846;-0.030442392;-0.05501774;-0.103812724;0.03676711;-0.10719695;-0.0023673053;0.22637118;-0.034204207;-0.3351997;-0.093722634;-0.07077556;-0.07540433;-0.045413263;0.045104075;-0.013477731;-0.2150493;0.005395726;-0.0955893;-0.074771054;-0.17366514;-0.027457055;-0.08694134;-0.012789526;-0.105627626;-0.04838801;0.01163974;-0.04641866;0.0035575808;-0.035464868;0.23845589;-0.055689424;0.17896274;-0.055602476;0.0023395487;0.08774398;-0.060142852;0.09929435;-0.38064235;-0.47966087;0.026085544;-0.033646494;-0.17055264;0.06646762;0.3526726;-0.04022378;-0.00518948;0.15965173;-0.023516811;-0.18267916;0.0731069;-0.04001937;0.19813526;-0.06668762;0.118595414;0.051757805;-0.048318032;0.2610462;-0.005120592;0.04109614;-0.028416041;-0.08833752;0.35693204;-0.020462027;0.050815705;0.03900614;0.029921139;0.03492049;0.1773177;0.043205563;0.086546145;-0.051045228;-0.057190247;-0.3887995;-0.027606806;0.055014543;0.27300268;0.079696015;0.029392611;-0.14486755;0.047074124;-0.009881529;-0.038409185;0.008072259;-0.28537363;-0.20313103;-0.015012421;-0.21685365;-0.06985571;0.06020455;0.124065556;0.1132564;-0.007414362;0.11199141;0.24989448;0.13413513;0.2701188;0.020584606;-0.07385169;0.31127974;-0.17195274;0.046599694;0.06507063;-0.076753825;-0.0034091081;-0.5548496;-0.36765575;-0.18818673;0.04776948;-0.10463391;0.010382728;0.11170291;0.0063463575;-0.18293409;-0.040846393;-0.13498878;0.2374555;-0.026610821;-0.020152418;-0.014748677;-0.12425291;0.0727533;-0.085962795;0.055526372;0.0400886;-0.5433693;0.19601466;-0.11220616;-0.13301551;0.05193136;0.0026200414;0.031775944;-0.029845681;-0.021090835;0.0522516;-0.10382691;-0.04448823;0.043265194;0.03721314;0.03524156;0.047072966;-0.06313154;-0.02894828;0.07670394;-0.05183491;-0.027556665;-0.063350886;-0.17212197;-0.053456496;-0.12748751;-0.021866573;0.16880184;-0.033850804;0.04095751;0.24540247;-0.18238951;-0.32327348;0.13105302;0.048612874;0.032244306;0.06760539;-0.13082427;-0.09798531;0.048390903;0.04622261;-0.13272482;-0.048896495;-0.028435314;0.05067069;-0.18211202;0.019053074;0.10193011;-0.15369308;0.15999085;-0.030938819;-0.096052535;-0.07322133;0.16240971;0.13708599;-0.014877376;0.30024958;-0.17538542;-0.020461744;0.0053297845;0.17611599;0.171827;0.019202234;0.19277269;0.3958939;-0.20865478;-0.03911981;0.07728849;0.061327968;0.06715838;-0.18597956;0.21313313;0.0029109188;0.019382222;-0.11019581;-0.06664688;0.0835347;0.11621973;-0.1403535;-0.012598432;-0.09404972;0.05949086;-0.098061115;-0.057675306;0.026836053;0.019046253;0.16496025;0.003376437;0.2168419;-0.013653367;-0.19389895;0.114893824;-0.01594535;0.05897555;0.06793178;-0.087917395;-0.3224093;0.023420693;0.2742363;-0.06578706;0.21498165;-0.27580655;-0.07776818;0.12069832;-0.20469037;0.055358954;0.11757258;-0.042863403;-0.047257133;0.08511887;0.331255;-0.022598524;-0.006593638;0.08786462;-0.044647835;0.02712538;0.09357849;-0.07574411;0.008797843;0.047680713;-0.032468673;0.075922124;0.02891427;0.036550615;-0.10645548;0.10294541;0.15312521;-0.13015792;0.028988255;-0.0884362;0.005597183;0.015101946;-0.18555526;-0.038419787;-0.014822596;-0.054185797;-0.065275446;0.026927864;0.053360116;0.13216962;-0.045430664;0.16512781;-0.44286948;0.23363788;-0.35806185;0.056098375;0.105160885;0.30118015;0.32478136;-0.051372204;0.44148508;-0.05313916;0.14200471;0.29770195;0.06350259;0.054782853;0.044674754;0.0009997558;0.081526995;0.04335539;-0.013319612;-0.003455299;-0.03641487;-0.25677744;0.13943014;0.17847;0.019164786;0.09610242;-0.06472158;-0.05701225;0.2331522;0.053383436;0.024957893;-0.0560814;-0.13899772;0.057645444;-0.40901756;-0.05189212;-0.042918224;0.29362282;-0.02288458;-0.014855791;0.062457815;0.10275998;-0.019088175;-0.02047889;0.16502775;0.038483873;0.04292881;0.34319568;0.08396006;-0.040805932;-0.016865944;0.17297311;-0.23291308;0.04708369;-0.070491314;-0.0032274292;-0.032603584;0.018675763;-0.4540592;-0.01269779;0.0047529386;0.05800102;0.06347581;0.19576077;0.15270486;0.17614575;-0.01837421
-0.097897746;-0.11522847;0.2542961;-0.19728956;-0.16242708;0.028100338;0.07167832;0.013898543;0.14857505;0.04584536;0.2251094;-0.17099726;0.054043867;0.04572932;-0.3158353;0.04509507;0.0578021;0.04345791;0.05354365;-0.0953115;0.076361;0.05445153;-0.030007206;-0.00033978865;0.35378182;0.02696547;-0.08576415;0.31105426;0.021506593;0.05192525;0.091942765;0.030873524;-0.056918487;0.0328248;0.0014684061;0.06924655;-0.21224833;-0.008188712;-0.018710852;0.3679115;-0.18848242;0.008156305;-0.11006882;-0.15058725;0.034020897;0.1330084;0.017703926;0.011352717;-0.0023737662;-0.22087985;0.11551091;-0.05718349;0.21666957;0.09262653;0.057712343;-0.05039281;-0.15396628;0.06456626;0.020385787;-0.14785029;0.0730368;0.3258257;-0.011948736;-0.1569969;-0.176063;-0.10654295;-0.02820149;-0.119878106;-0.02661047;0.1329999;-0.10295875;0.17291032;0.20480186;0.3427734;0.1361594;0.22969414;0.030221635;0.107863426;-0.067057036;-0.057476643;-0.021506809;-0.022188378;-0.09855999;-0.0060253427;-0.03187018;0.028286226;0.12683812;0.03757439;0.034724608;0.19317517;0.16867371;-0.06365353;-0.07482376;0.1057349;0.025047995;0.20318209;0.06261972;0.018979412;0.012094724;-0.07776888;0.07803634;-0.07754406;0.05651422;0.14176887;0.13048185;-0.08577876;-0.03258184;0.0041907127;0.02429883;-0.055003658;-0.28203428;-0.061826948;0.12151662;-0.19129653;-0.040799506;0.12672183;0.05286594;0.07829195;0.33032644;-0.19953986;-0.07067908;-0.05821737;-0.004973713;-0.11136449;0.085916966;-0.0032624956;-0.20991315;0.07211941;0.012634628;0.035531376;-0.033538684;-0.12880465;0.014508409;-0.14734018;0.017517269;0.016313555;0.2611178;-0.21366265;-0.11477184;-0.12900737;-0.17235744;0.046491105;-0.027676946;-0.06395712;0.054880064;0.009644465;0.00841119;0.036092788;-0.030454632;-0.049110897;-0.07168978;0.31648615;0.05177038;-0.040152136;0.20760663;-0.17854081;-0.006732504;0.19183692;-0.17531247;0.06990852;0.044190634;0.2390628;-0.3727717;-0.046867963;-0.3574966;0.02630155;0.08099896;0.3078011;-0.15638143;0.053822637;0.066090256;0.04341171;0.0017835508;0.015911924;-0.014952854;-0.47475073;0.3205745;0.20891607;-0.022080531;-0.035198428;0.026289545;-0.0013435222;-0.0049005914;0.28798363;0.047908314;-0.15993755;-0.07272585;-0.17908522;-0.1990516;-0.03415147;0.019643199;-0.17855567;-0.15884756;0.088870734;-0.17468135;0.044442296;-0.05966427;-0.14390582;0.13722068;0.11581727;0.31439596;0.0313965;-0.06749617;0.008294162;-0.4679008;-0.17580262;-0.031434614;-0.14304827;0.09056742;0.015442003;0.0016919206;0.016016442;0.021079369;0.05055088;-0.105594635;0.23382835;0.23573981;0.013365896;-0.11585028;0.11086423;0.15245703;0.16311572;-0.08362173;0.34098667;0.023291951;0.052750103;-0.63838685;0.01086542;-0.05170719;-0.18133044;0.14148887;-0.08590006;0.0054117627;0.08668755;0.07250238;-0.043214194;0.0055930647;0.19894429;0.031041319;-0.23369688;-0.09501496;0.12920602;-0.056446154;-0.019164473;-0.026288347;-0.024682967;-0.058095742;-0.15809338;-0.03633093;-0.021849304;0.19353828;-0.079614416;-0.1965226;-0.17760633;-0.052118003;-0.1755837;0.036263388;-0.02039794;0.017172316;-0.13026956;-0.02951133;-0.10197274;-0.20793349;-0.08743942;-0.043740332;-0.044586897;0.025751572;-0.071281545;-0.044113707;-0.01906137;0.07123142;0.06974969;-0.028229183;0.13647197;0.019432994;0.26034537;-0.124177456;0.062029988;0.07195901;0.046160053;0.15449639;-0.3357154;-0.5391028;-0.06357389;0.079071574;-0.00928693;-0.013786395;0.39070815;-0.13430192;-0.062327534;0.3072563;-0.12495116;-0.17637463;-0.01938453;0.019156666;0.3123144;-0.08360241;0.1894064;0.08427132;-0.082991965;0.19594334;0.07408775;0.028246973;0.03506778;-0.094585754;0.43016806;-0.0517443;0.0148391565;0.07796085;0.042084165;0.045057543;0.041242365;0.031979516;-0.03190257;-0.005931719;0.025896315;-0.33001763;0.0584168;0.041295473;0.1683128;0.12542221;0.032374203;-0.09388956;0.10840247;0.045757048;-0.008670208;-0.004675675;-0.33269268;-0.28607726;-0.03468039;-0.10171605;-0.064773016;-0.023028687;0.12300813;-0.013804695;-0.05999424;0.03356076;0.21939701;0.06185388;0.14216457;0.036236543;-0.010545661;0.334248;-0.03763811;0.14160495;0.067439616;0.025333714;0.084573746;-0.49224827;-0.2780354;-0.28330472;0.04918808;-0.099060796;-0.05847211;0.21731313;0.007398927;-0.1946177;-0.062514804;-0.10266707;0.33717352;0.122736745;-0.08477147;0.015421575;-0.15605193;0.17329192;-0.18920448;0.022785094;0.09558686;-0.49906942;0.1144945;-0.097405896;-0.12448244;-0.07515699;0.056290448;-0.013344967;-0.05066605;0.012716146;-0.018294096;0.059422746;0.06292389;0.02318103;0.074843876;-0.0017726651;0.030943036;-0.043892387;-0.011276409;0.20833367;0.10537593;-0.08727562;0.1482253;-0.17388105;-0.06418041;-0.027064893;-0.03524652;0.16874456;-0.08594931;-0.042284828;0.11750684;-0.18120304;-0.32519677;0.0539534;-0.02314716;0.14465311;-0.013539621;-0.11874534;-0.111157455;0.096413836;-0.05257836;-0.061994232;-0.006046667;0.008701952;-0.03445384;-0.22220884;0.013903285;0.14826797;-0.14815478;0.30786687;0.05594534;-0.1125486;-0.020461481;0.19750789;0.06803002;-0.06314551;0.27038866;-0.20330755;0.014033085;0.0017246197;0.11870765;0.15251233;0.05542238;0.16168872;0.40165827;-0.23739758;0.006098026;0.015023765;0.142068;-0.08679392;-0.16567619;0.26128408;-0.03558246;-0.05903103;-0.092206284;-0.04640402;0.12181212;-0.008953618;-0.12755807;0.05716601;-0.11265127;-0.004761952;-0.002125669;-0.15703599;0.003439655;0.12501414;0.14050122;0.06967737;0.15796053;-0.0343324;-0.10733831;0.11115065;0.04765544;-0.051353004;0.0301453;-0.12976897;-0.37165377;0.12127161;0.24547623;-0.03713037;0.26019433;-0.21372505;0.029472759;0.10399471;-0.15722573;-0.07663613;0.14787102;0.00463525;0.07511483;-0.03956143;0.1696642;0.005080369;0.060251318;-0.016184185;-0.034089036;0.07850168;0.14877781;-0.105569325;-0.036257297;-0.0045761764;0.044098932;0.064893655;-0.0038879828;-0.058031738;0.06913195;0.11130195;0.09464415;0.0016658495;0.06139003;-0.04426655;0.02702163;-0.007471306;-0.07415878;0.033380684;-0.0011552677;-0.036583856;-0.023503762;0.09121217;-0.0027909845;0.15689209;0.07601868;0.11033763;-0.39608198;0.22532097;-0.3821054;-0.06643596;0.27106643;0.21678013;0.36678785;-0.02075205;0.56932217;0.052812748;0.13138126;0.22159429;-0.010708576;0.018306384;0.15639517;0.061941218;0.09922866;-0.055942122;-0.0053691347;-0.09922605;-0.0047157975;-0.1474963;0.13892667;0.15890646;-0.010817061;0.16059886;0.017012484;0.07865743;0.22512972;-0.06220339;0.075002015;-0.07343123;-0.1048519;0.017082362;-0.4271569;0.037080366;0.022757117;0.2511972;-0.0063905;-0.04031393;-0.007002025;0.08777615;0.065840416;0.03255488;0.15018904;-0.059312202;0.056406926;0.27323133;0.17264907;0.059371695;-0.06472681;0.15707543;-0.13553451;0.079180464;0.014303377;0.015266481;-0.07686597;0.027584655;-0.38659722;0.01426024;0.0015578789;0.03771506;0.061650716;0.11370903;0.23213103;0.24339183;-0.07635331
-0.17647919;-0.012079231;0.23506694;-0.1931787;-0.07263801;-0.0017439303;-0.105246425;0.0008352481;0.034939624;0.025794992;0.24343134;-0.13539131;0.0014910763;0.034362715;-0.39737007;0.11436521;0.0119922105;-0.007394929;-0.0005398266;-0.12148002;0.06484291;0.13524197;-0.042313788;-0.1255451;0.27977028;0.04370224;0.043321975;0.27259323;-0.0062662004;0.050530896;0.05701929;0.02250417;-0.100702725;0.06567899;-0.021975894;0.05170789;-0.16499034;0.05840405;-0.024790272;0.31224245;-0.21251023;0.070001006;-0.11072437;-0.16456226;0.08810082;0.16146265;0.01787095;-0.034418285;0.03083225;-0.22709125;0.11633119;-0.07446491;0.061454218;0.093304634;-0.059633553;-0.030295968;-0.06260879;-0.044511538;-0.005055501;-0.13112703;-0.019673657;0.37416527;-0.0524899;-0.2344153;-0.04945554;-0.11488011;0.0046622325;-0.08135037;0.06619386;0.1870925;-0.18000726;0.16937757;0.18528391;0.37849802;0.12268792;0.20810595;-0.093357496;0.18735044;-0.023636347;0.054300975;0.00082523585;0.023875555;-0.1795056;-0.04264488;0.08128782;-0.027094832;0.16146727;0.05738356;0.040664762;0.1324776;0.13560782;-0.12450852;-0.032589965;0.046264023;0.036298126;0.19683507;0.0035767618;0.026583824;0.09260892;-0.010716032;-0.0019474373;-0.014663466;0.012547711;0.15698189;0.10907621;0.033145737;0.04188965;0.03612068;0.08632614;0.047772408;-0.34385136;-0.20728162;0.18569289;-0.18660532;-0.033139776;0.15506579;0.12488285;-0.041381165;0.28894898;-0.20771746;-0.023614002;0.030609997;0.031488042;-0.059519585;0.11941362;0.00035715548;-0.23075339;0.10610701;0.043956023;-0.012301973;0.024350436;-0.12426059;-0.009589;-0.06051728;0.057043016;0.06564684;0.19626214;-0.24063835;-0.20819269;-0.08759596;-0.1904061;-0.030947957;-0.18511365;0.025525875;0.0094826585;-0.037867177;0.024624847;0.03374666;0.056097347;-0.0644983;-0.061506495;0.38407835;0.0014678759;0.07173477;0.2853471;-0.34014097;0.0056557134;0.0972001;-0.17375785;0.023495397;0.0009768255;0.18514068;-0.36078063;0.07129966;-0.28083974;-0.010541207;0.01610128;0.3063698;-0.23214784;0.06468005;0.08720683;0.019060537;0.0045127664;0.052462384;-0.06179671;-0.4111054;0.42123115;0.22872262;0.059167568;-0.03893717;0.16166924;0.16689816;-0.06356236;0.15953387;0.03787443;-0.24494568;-0.03293224;-0.17384356;-0.23648173;-0.06798657;0.081773706;-0.24149314;-0.12196017;0.095573;-0.32268673;0.05818966;0.03832296;-0.08894324;0.22713934;-0.014729098;0.40205568;-0.002405663;0.027829355;-0.069765605;-0.37878606;-0.24807753;-0.06543625;-0.1305009;0.0799562;-0.041086357;0.11883494;-0.1757931;0.10098126;-0.031036476;-0.051256433;0.20091458;0.31146348;0.070806034;-0.11865601;0.13552533;0.14936213;0.049997557;-0.095147796;0.29463953;-0.04895727;0.11449591;-0.62413335;-0.03466508;-0.086972125;-0.16236626;0.058504786;-0.12995802;-0.028717212;-0.033119295;-0.037289087;-0.14491999;-0.038345255;0.19161431;0.055668924;-0.24538676;-0.004676789;0.18213333;-0.11360112;-0.040303417;0.06429032;0.032233935;-0.004109526;-0.22156835;-0.06633863;-0.06304862;0.10226175;0.04817879;-0.236226;-0.1565906;0.074071504;-0.09795625;-0.07570861;-0.0074253464;0.14869587;-0.0811924;0.09260296;-0.118378185;-0.17507802;-0.1532908;-0.03729625;-0.10569477;-0.028963113;-0.037984822;-0.13600963;0.085920885;0.074900635;0.21056765;-0.023310566;0.20744768;-0.0026722525;0.18949556;0.024648909;-0.02987751;0.13476312;0.06269637;0.08994041;-0.3909197;-0.38998643;-0.056960948;0.050395496;-0.03616374;0.020696476;0.36490688;-0.088993855;0.05632208;0.3634631;-0.043247093;0.014628149;-0.090030275;0.009626709;0.27561346;-0.11417238;0.22764173;0.04197955;-0.08190435;0.24893191;-0.036412653;0.007238488;-0.06298327;-0.15053615;0.27568367;-0.12423202;-0.00076297205;-0.010446227;0.03366342;-0.051165212;0.09154095;-0.010586791;-0.004960931;-0.08992165;0.034841325;-0.23725307;-0.04818737;-0.08149037;0.15479718;0.20426299;0.059149504;-0.10343877;0.22930372;0.057136685;-0.11192957;0.04793261;-0.28070027;-0.22446762;-0.19939148;-0.16651067;0.033723947;0.06540859;0.22383389;0.08121115;-0.009059688;0.0354311;0.27193114;0.024502926;0.18067338;-0.022039106;0.02392714;0.29515684;0.005397481;0.010670968;-0.001894723;-0.060932864;-0.005730315;-0.55775577;-0.22735018;-0.19536048;0.0033867655;-0.11696512;-0.003765105;0.28622097;0.12737529;-0.09615986;0.02661753;-0.16841635;0.21678807;0.09087106;-0.11301723;-0.03533581;-0.07666216;0.12714949;-0.102868;-0.024089158;0.17113143;-0.39918134;0.064566225;-0.17226022;-0.26255924;0.033169925;-0.01788789;-0.011242274;-0.0050936295;-0.014925015;-0.07708015;-0.033431508;-0.015131148;-0.051615182;-0.00232597;-0.038890943;-0.12489694;0.01022644;-0.07705042;0.22495447;0.0857852;-0.10216791;0.1427342;-0.06264068;-0.06637699;-0.16135223;0.06449015;0.060574766;-0.12735221;-0.02543405;0.16036497;-0.06869705;-0.31110007;0.123201475;-0.058028236;0.13117604;-0.059829712;-0.096677;-0.08226432;0.21092765;-0.06736179;-0.12121822;0.059921138;0.037924886;0.045297936;-0.24899554;0.026677461;0.12060338;-0.12929383;0.26912802;-0.0018701348;-0.22095835;-0.06273895;0.22085515;0.16695541;0.025535626;0.3664101;-0.19894965;0.052954238;-0.060427092;0.12518248;0.12676898;0.1275683;0.22176404;0.2913452;-0.29563764;0.042542987;-0.052728526;0.027945574;-0.049696136;-0.17304754;0.27228126;-0.026569018;0.007905402;0.07719061;0.034679044;0.035249643;0.011738321;-0.19931638;-0.0051574972;-0.05989697;0.037179455;-0.0697679;-0.0046231938;0.071528845;0.14223386;0.106664255;-0.04095434;0.12922773;0.0061036325;-0.07522426;0.07303231;-0.04676827;0.092604734;0.018387051;-0.05318716;-0.2133547;0.04363289;0.26207343;0.015075978;0.24005674;-0.39067885;-0.062757425;0.09735199;-0.24490505;0.039286803;0.2646972;0.056939702;-0.055398025;-0.038023304;0.15369864;0.018232007;0.06731339;-0.04736029;-0.087251715;0.16007149;0.26771745;-0.17581113;0.031903148;0.102744184;0.03916331;-0.06607353;-0.0074207294;0.015834797;-0.06575222;0.15718947;0.21186881;-0.04041943;-0.058235426;-0.003221975;-0.030911399;0.0043278825;0.0626125;0.029266234;0.0064909207;0.03804253;-0.030157698;0.17553878;-0.050652687;0.15405211;-0.05967828;0.29238373;-0.2982262;0.19414145;-0.28886372;0.008816827;0.27243942;0.18282135;0.32900017;0.050258245;0.4923044;0.034643747;0.12727593;0.35620537;-0.008178783;-0.034603164;0.14341113;0.06747293;0.26034424;0.05906262;-0.07172697;-0.072444595;-0.043133996;-0.19502923;0.07907287;0.19437876;1.6361399e-05;0.029915486;-0.023385802;0.064811096;0.09399282;0.044854634;0.015792944;-0.14876875;0.012535502;-0.014507243;-0.36730653;-0.052025452;0.014233208;0.23427525;0.00894867;-0.015998371;-0.060409285;0.21408652;0.053020474;-0.012233721;-0.010743029;0.03768104;-0.0073286816;0.20323165;0.15111694;0.06202232;0.06276007;0.15470713;-0.1812812;-0.050177805;-0.0067979908;0.025916703;-0.21537092;0.032047246;-0.42027742;0.051915925;0.03496715;-0.017787466;0.01728665;0.15560092;0.1755921;0.269844;-0.10240852
-0.14547174;-0.080440685;0.22070698;-0.115424864;-0.0882293;0.060489055;-0.17627057;-0.03139042;0.11991869;-0.007067421;0.13937359;0.02721672;-0.024587123;0.0241186;-0.34479135;0.10199076;0.010398605;0.022010293;-0.034297977;-0.115944535;0.02144985;0.08704157;0.006468676;0.058018994;0.39127764;0.12198408;-0.11238715;0.20122123;0.026471049;-0.05592953;-0.08216075;0.16909483;0.03693019;-0.073003694;-0.004050801;0.09509636;-0.10656888;0.011265974;0.06787401;0.24146004;-0.16724749;0.022185508;-0.13092707;-0.23324144;0.14439961;0.111859664;0.011403506;0.08277035;0.009273209;-0.15159485;0.106935166;0.05858155;0.10194583;0.23351553;-0.07979904;-0.05234218;-0.023151483;-0.0316374;0.02302344;-0.062576294;0.002897551;0.42310083;0.07256744;-0.022369018;-0.011054137;-0.028914565;0.081089854;-0.027495401;0.027033716;0.20626612;-0.1306153;0.20847732;0.17555538;0.33149344;0.18128702;0.028514555;-0.10647863;0.15267292;0.05301035;0.05511874;0.02470031;-0.005629634;-0.10981159;-0.05647891;0.016034484;-0.094323836;0.09724387;-0.0526756;0.024238838;0.15637124;0.06562344;-0.11326868;0.07203012;0.032920405;0.023569122;0.25480434;0.018125484;-0.027220082;0.16776259;-0.047988422;0.081849575;0.019948253;-0.017708452;0.055968277;0.058372978;-0.022407148;0.08285901;-0.06673438;0.010120375;-0.06660675;-0.1390631;-0.10057242;0.108264774;-0.101224676;0.081971854;0.13086945;0.07183955;-0.0307616;0.23896478;-0.14011045;-0.03236308;0.015893295;-0.010470326;-0.0006856947;0.11818385;-0.0052432977;-0.15528029;0.14451939;-0.011926358;-0.024346743;0.011611845;-0.050362293;0.02976673;-0.099965885;-0.02499089;0.12303407;0.2446406;-0.10402045;-0.03116821;-0.18502057;-0.088414714;0.003415022;-0.030210644;0.002595443;-0.034825545;0.044387247;-0.013924132;0.0398259;0.014699091;-0.12786958;0.040289875;0.3180038;-0.049677506;0.045723427;0.21990287;-0.1383321;-0.02490774;0.1054234;-0.16665937;0.152953;0.083318345;0.19817238;-0.40750867;-0.06909092;-0.25155056;0.01574796;0.0103418315;0.30393523;-0.19609295;-0.053946577;-0.0376289;-0.048107196;-0.05628177;0.066779494;0.037817013;-0.4402152;0.27710506;0.25836268;0.06660226;-0.21065053;0.15244183;0.14851841;-0.13255484;0.21690482;0.055566914;-0.23723923;0.036906697;-0.049731087;-0.26473463;-0.14382662;0.02428941;-0.1663999;-0.05324637;0.27735436;-0.2639135;-0.0038449955;-0.03322184;-0.09965518;0.07372491;-0.07539438;0.41979906;0.07453448;0.0060365065;-0.014092473;-0.32534447;-0.23420842;0.041953843;-0.0105532715;0.11187689;-0.046358455;0.18420355;0.026452769;-0.05539562;-0.006371988;-0.14002031;0.07663296;0.35020217;-0.031160934;-0.12033365;0.0027335226;0.03511572;0.12172876;-0.19649903;0.29090196;-0.01913708;-0.027708678;-0.56863207;0.024231879;0.0027589034;-0.044592004;0.09120531;-0.048800204;0.06169863;-0.057373103;0.10148938;-0.19915728;-0.101900734;0.16717695;-0.034671728;-0.27249065;-0.0039026327;0.17559758;-0.18204467;0.040193744;0.016044026;0.014163622;-0.05670294;-0.21125646;-0.07520374;0.025105715;0.15686923;0.059878957;-0.19926022;-0.1536435;-0.029514503;-0.17904931;0.03466896;0.06788424;0.048926536;-0.025627254;0.02210808;-0.1468416;-0.084404096;-0.008323627;0.0061558033;-0.039449442;-0.041558612;-0.035836097;-0.058615148;-0.061433617;0.02161767;0.09390317;-0.05044947;0.1395699;-0.050680686;0.28326306;0.06998087;-0.07142514;0.20084222;0.04109418;0.054225136;-0.21298383;-0.4359453;-0.11690076;-0.062785216;0.06857133;0.008338256;0.3838986;-0.10309551;0.001423616;0.37545592;-0.14563856;0.064747475;-0.06624079;-0.039549846;0.09017265;-0.11460854;0.32097;-0.1243571;-0.0764727;0.2671286;0.027362166;0.011315211;-0.07188179;-0.050561782;0.30167636;-0.10279643;-0.022658007;0.04890408;0.1699403;-0.020276079;-0.09885867;0.048021294;0.07310575;0.0035931242;0.050235923;-0.13545488;0.036724746;0.0024494007;0.17556049;0.20095304;-0.004901071;-0.1548139;0.17284441;-0.028170098;-0.10607485;-0.063443914;-0.29620543;-0.21784839;-0.16913459;-0.07074509;-0.007474497;0.108289614;0.22833838;-0.02807416;-0.01752626;0.062387686;0.17961898;0.018995047;0.17812166;-0.0284925;0.03455172;0.2832368;-0.02123371;0.12257173;-0.080168545;0.018761566;-0.04186169;-0.41494668;-0.1931469;-0.19787465;0.0711066;-0.051278014;-0.06529724;0.2699585;0.13706882;-0.21474916;0.06297979;-0.10155901;0.21544108;0.16885388;0.05174344;0.040020708;-0.12560976;0.20581785;-0.09102772;-0.071229875;0.08575506;-0.33446983;0.10413259;-0.21337183;-0.24317825;-0.06766424;0.0106088985;-0.05879596;-0.03983185;0.02268988;0.025871672;-0.035549458;0.005419288;-0.067331545;0.08180167;-0.0049821856;-0.1041625;0.07894893;0.060393676;0.16244559;0.049992148;-0.18135233;0.10634435;-0.052490663;-0.11784818;-0.1334864;-0.042111445;0.16235048;-0.23127061;0.0094668595;0.13238393;-0.12135418;-0.30041304;0.064960815;0.047587175;0.08698106;-0.029057136;-0.17066656;0.054910857;0.29732034;0.04423299;0.01945872;-0.042813666;0.026333062;0.034137413;-0.34544578;-0.054963324;0.15107088;-0.102429986;0.25249967;0.07355119;0.019945374;0.00823781;0.092515685;0.1570239;0.029615786;0.38758257;-0.2328566;-0.0447503;0.04281367;0.22822931;0.02483172;0.17225091;0.23754962;0.29876184;-0.26282656;0.03074555;-0.04372936;0.034759738;0.06309509;-0.074413024;0.24664782;-0.014870455;0.01761815;-0.042635437;-0.011968889;0.08096808;0.025569363;-0.0964494;0.070562474;-0.1100754;-0.079399556;0.08144032;0.020353938;-0.012799234;0.17348856;0.1349118;-0.028035186;-0.036185008;0.003898583;-0.12747157;0.14263189;0.042908035;-0.03948129;-0.012530331;-0.051418047;-0.3557199;0.12659572;0.2546348;0.06856268;0.09156641;-0.42525223;0.019507846;0.08535706;-0.08495908;-0.07489062;0.21594152;0.03659973;-0.0016634287;0.04702614;0.17174332;0.08541146;-0.051375676;-0.06751535;0.030412382;0.20856655;0.14569212;-0.015251975;0.05792917;0.04601644;-0.083354056;-0.05008483;-0.12392069;0.11758068;0.052399255;0.0702712;0.12258847;0.16734993;-0.06930164;-0.027115902;0.013635464;0.037464354;0.017103314;0.04967406;-0.07920224;-0.03143894;0.026834924;0.06888641;0.051472604;0.08287408;-0.011157564;0.24331428;-0.3194084;0.24944293;-0.31464413;0.007874844;0.23779856;0.2359782;0.4068259;-0.059845928;0.5395573;-0.06365194;0.087918214;0.39848632;-0.023519328;0.06942404;0.18649727;-0.009117772;0.09080963;-0.0755049;0.043153647;0.004258843;0.058359157;-0.12537764;0.081627876;0.11383976;-0.015273709;0.102701254;-0.0050448077;-0.08071827;0.20608138;0.0011104955;0.18512969;-0.11752392;-0.061462138;0.016411977;-0.2911352;-0.03488257;0.07468525;0.36510238;-0.035533287;0.069010995;-0.0339649;0.13506666;-0.013067933;0.053614333;0.00028572555;-0.055435117;-0.004137374;0.3781226;0.2320212;-0.03241736;0.08102138;0.17209926;-0.086472064;-0.03835841;-0.073381834;0.042337697;-0.29886022;-0.03126234;-0.372231;0.10404905;0.05726837;0.051991407;-0.0010934495;0.2440598;0.1945722;0.22912465;-0.1475774
-0.12822613;0.017188078;0.068752944;-0.23633178;-0.15528353;0.03220971;-0.20794639;-0.013317112;0.095075846;-0.008529084;0.22065948;-0.07814394;0.04913586;0.07316111;-0.39610785;-0.0036453372;-0.026138386;-0.1343203;0.04029388;-0.18090008;0.054440387;0.011868715;-0.024263622;0.02867121;0.37122768;0.04578923;-0.19740917;0.23409711;0.06259286;-0.04872461;0.049447976;0.112201884;0.075482026;-0.0219555;-0.033816155;0.008892312;-0.021619363;0.11808135;-0.018996961;0.19238661;-0.13603523;0.04229102;-0.06856094;-0.12913805;0.16851553;0.09936136;-0.06505461;-0.01190666;0.044364676;-0.212406;0.024434777;0.06763796;0.05914963;0.24540712;-0.006975654;0.025355574;-0.051995;-0.0016545659;-0.042245027;-0.08490812;-0.06392629;0.43921018;-0.04601743;-0.10906732;-0.028194299;-0.059754044;-0.12242561;-0.0009152754;0.06257992;0.11952095;-0.083467826;0.12563562;0.10150392;0.25365227;-0.011923149;0.019576397;-0.048142683;0.16111107;-0.1021888;-0.0017779961;0.008837258;-0.046254206;-0.073847055;-0.008773889;0.059173554;-0.08858524;-0.015718991;0.06436704;-0.06533271;0.10394339;0.12712339;-0.07615781;-0.041034147;-0.055725403;-0.025908515;0.27184704;-0.003950853;-0.011398576;0.24901886;-0.08599498;0.085973725;-0.050506253;0.0092886;0.1146247;0.04885741;0.038046986;0.068554856;-0.021661788;-0.07506659;-0.049725253;-0.1625199;-0.06670258;0.08182404;-0.06983418;-0.015577704;0.007241807;-0.02374192;0.044401266;0.23957194;-0.066371046;0.021379126;-0.015141594;-0.053007733;0.05881774;0.026109487;0.046613485;-0.092606425;0.1058786;-0.053051524;0.04833656;-0.08863052;-0.199632;-0.07824941;-0.06555625;0.0018538107;0.078980245;0.25806937;-0.1338527;-0.12578154;-0.083255224;-0.051956743;0.043118842;-0.17716706;0.14234236;-0.09588718;-0.056897145;-0.07149251;-0.05152305;0.018576443;-0.017874386;0.0035493155;0.28710353;0.065913975;-0.030198595;0.26808947;-0.17021827;0.0367784;0.12596177;-0.20095746;-0.0073252586;0.072978385;0.13233249;-0.24436764;-0.08627846;0.019239094;0.030099502;0.07489429;0.31382078;-0.10566446;-0.058347918;0.021047555;-0.0863702;0.02580873;-0.027145134;0.04160878;-0.34384856;0.31127876;0.23868522;0.043961853;-0.13721555;0.11144594;0.15916209;-0.010869036;-0.012537466;-0.0005155185;-0.31131184;-0.0013712737;-0.056494053;-0.15777022;-0.16447465;0.11727307;-0.29219535;-0.17333122;0.16604663;-0.23261939;0.12537934;0.04619114;-0.21718623;0.15805118;-0.014518698;0.551413;-0.050062485;0.06981921;0.022445735;-0.25422904;-0.16341317;0.054860007;-0.093707964;-0.05528403;0.021907013;0.07537814;-0.123440675;-0.048075005;-0.005385796;-0.034450084;0.117545806;0.3069063;-0.07172662;-0.087900266;0.059780836;0.028503502;0.03485162;-0.0752848;0.3077463;0.044037055;0.040388577;-0.53178006;0.026509447;0.056554005;-0.18405113;0.12674329;-0.1253637;0.069175094;-0.0162774;-0.09391357;-0.15566407;-0.14556243;0.15119791;-0.02510553;-0.22555509;-0.15228574;0.06730095;-0.07610589;0.053352352;-0.06781411;-0.10311681;0.07058881;-0.15909307;-0.056661665;0.079073556;0.122450374;0.059235923;-0.26780915;-0.032314982;0.009532424;-0.20910616;0.068748295;0.049821716;0.033503555;0.101280585;0.06483696;-0.05622217;0.012314439;-0.027915426;0.018015368;0.069134995;0.052089915;0.08593742;-0.07373816;0.074201204;-0.06943067;0.19931652;-0.013200452;0.09682413;0.03380686;0.3331695;0.007941601;0.047929388;0.24883842;-0.07761003;0.03509288;-0.31255075;-0.41764325;-0.14789267;0.018208621;-0.117895335;-0.066610225;0.18729262;-0.014584348;0.06745013;0.50108624;-0.20990661;0.04309669;-0.07231604;-0.013154941;0.04144558;-0.19127879;0.109239124;-0.10784618;-0.12755378;0.23940648;-0.049399994;-0.05079875;0.017901476;-0.16519645;0.24676035;-0.054902382;0.042457677;0.14356841;0.12699206;-0.018923685;-0.015000316;-0.032361258;0.17886946;0.025014054;0.042379186;-0.07726384;0.013146727;0.014882934;0.15966442;-0.0026354154;-0.030939354;-0.17784023;0.10703903;0.030712174;-0.06508379;0.047726396;-0.25572777;-0.24475074;-0.19419736;-0.017796796;0.00068893237;0.14310898;0.10336404;0.06682755;0.0756819;-0.047628786;0.15486252;0.07157013;0.21862774;0.042424522;-0.048192266;0.29151893;-0.047390264;0.030766107;0.034279294;0.06408421;-0.04998624;-0.5013743;-0.37291154;-0.0941407;0.097214505;0.029392878;0.0326776;0.22469178;0.05489463;-0.111489914;0.079174414;-0.13157676;0.23090808;0.22171143;-0.07190446;0.08331769;-0.11481217;0.22077468;-0.1713347;-0.028740522;0.21456137;-0.34123036;0.18067648;-0.117313415;-0.19597091;0.026728468;-0.018910851;0.054046813;-0.003840249;0.006782228;0.07114654;0.048056524;-0.01702559;0.017078498;0.04608687;0.02027769;-0.099224;-0.025044985;-0.046903357;0.17485607;0.106081486;-0.1311407;0.066016726;0.07462531;-0.11372331;-0.129467;0.046211325;0.13316649;-0.06732915;-0.015668608;0.005001533;-0.12906456;-0.34022248;0.04487633;-0.054713696;0.06003214;-0.0459018;-0.011791654;0.061256982;0.28014562;-0.02192116;0.060215272;0.054570522;0.014769203;-0.07849339;-0.3059393;0.039167237;0.019168077;-0.11243541;0.14792927;-0.051647175;-0.01754056;0.033610728;0.17539951;0.13617185;0.04986956;0.42066917;-0.21867676;-0.056214593;0.01854212;0.25375572;-0.029857296;0.13804302;0.09998137;0.31777284;-0.23268992;0.030453896;0.051625393;0.00529609;0.11339027;-0.09679832;0.29658547;0.047712825;0.012006059;-0.015952826;0.074010335;-0.103071325;0.11512279;-0.13315988;-0.011893423;-0.106797434;-0.02248295;0.056338537;0.08144688;0.017522577;0.20507625;0.09069218;0.018706653;0.018220536;0.021277037;-0.060054034;0.064515255;0.048087575;0.029456345;-0.015460256;0.052923594;-0.265461;0.055568803;0.32538334;0.060591917;0.16774571;-0.3716575;-0.029907225;0.08604486;-0.18703881;0.03337967;0.19242147;-0.0680363;-0.0035366444;0.061199613;0.128501;-0.019111203;0.03159687;-0.06842323;0.013191216;0.16325958;0.3219092;-0.015245805;0.04444478;0.19285247;-0.05457615;-0.034263752;-0.13139449;-0.060633637;-0.012570915;0.022670727;0.13523728;0.017481104;0.07618676;0.02088153;0.016889539;0.033235263;0.09934;-0.11690912;0.031878065;0.021878297;0.05074179;0.09637638;-0.05837295;0.1363837;0.01925758;0.32415664;-0.35855538;0.12580559;-0.36223516;0.059024062;0.12627572;0.29328433;0.49190405;-0.020605516;0.5472653;0.057094213;0.045179024;0.43392158;0.02625731;-0.006936034;0.17744805;-0.024998045;0.18629918;0.062203243;0.009541361;-0.040412262;0.0095652575;-0.16902377;0.14714758;0.16894314;0.010420522;0.112396576;0.026388507;-0.095191345;0.18588547;-0.07276002;0.16062136;-0.06910105;-0.119342744;-0.061982106;-0.3179311;-0.048151113;0.03129463;0.326725;-0.020973453;-0.0868143;-0.048071757;-0.024380447;-0.043934293;0.038913384;-0.1594788;0.01486778;-0.14501068;0.29126674;0.102978736;-0.032062694;0.0017963366;0.16598982;-0.059289448;-0.014401658;0.03469405;0.03226394;-0.20826451;-0.058844127;-0.39781493;0.052038796;-0.053005937;-0.012344529;-0.06816972;0.17705424;0.13650402;0.12973656;-0.09732112
-0.08483351;0.14982507;0.28993902;-0.05033253;0.041020565;-0.07055998;-0.20950358;-0.057858206;0.058260612;-0.03761688;0.2704243;-0.06338035;-0.024428528;-0.09424194;-0.3600389;0.014254519;-0.013457946;-0.07574183;-0.042203967;-0.1572061;0.039247774;-0.03637064;-0.03576474;-0.0066416347;0.21412267;0.0075161704;-0.21160072;0.22303258;-0.0043131136;0.008969356;-0.12467085;0.11930367;0.10972351;-0.020125864;0.064609826;0.1674285;-0.072148494;0.23649912;0.07343637;0.20503159;-0.2087567;-0.07934264;-0.07093041;-0.20078306;0.19749676;0.13345379;0.0047755414;-0.058687095;-0.085117675;-0.15608355;0.04476728;-0.05408867;0.14791657;0.05781571;0.07190278;0.08434342;0.022238877;0.08715451;-0.033338323;0.007227197;-0.017061971;0.3047239;0.042078566;-0.009140762;0.03508516;0.030308275;-0.113892876;-0.033092003;-0.062116716;0.10822334;-0.0167676;0.080176726;0.092431165;0.20195886;0.16957098;0.048611976;-0.10894237;0.072993524;0.018254021;-0.065711476;-0.044331677;0.044956602;-0.19410558;0.06844137;0.0070870994;0.044803016;0.033163175;-0.010470714;-0.015781164;-0.040941555;0.22901033;-0.15076976;0.024473768;0.04323131;-0.07186841;0.22832759;-0.08724231;-0.016347902;0.3326253;0.05478127;-0.018225327;0.03672951;-0.027060455;0.11237105;0.043788962;0.00021799002;-0.049994465;0.07445879;-0.044373654;-0.046916574;-0.0627958;-0.12292995;-0.07376203;-0.010188086;-0.032166738;0.06431978;-0.029885756;0.005543301;0.13251464;-0.13144772;-0.021081015;-0.08918703;-0.09243801;0.026076436;0.033157688;-0.06548618;-0.046255264;0.32007512;0.06336104;-0.039490033;0.06444546;-0.019661445;0.057116106;-0.11482799;-0.008330077;0.09494336;0.1978568;-0.11318126;-0.07678725;-0.23774973;-0.020785145;-0.0726462;-0.16007063;0.1813351;-0.05408165;0.07863232;-0.016289795;0.11026247;-0.060537864;-0.020255728;-0.002629359;0.31255293;0.06534841;-0.03384972;0.14626752;-0.12269002;-0.041215543;0.20284398;-0.13517666;0.029392892;0.06269866;0.072496146;-0.34396875;-0.09131871;-0.03678179;-0.028413646;-0.046594556;0.30290028;-0.11995718;0.013060216;-0.03515069;-0.07403397;0.025962356;0.047517203;-0.027575862;-0.20861037;0.17236777;0.28825524;0.0620315;-0.35203838;0.06551416;0.1871193;-0.19624433;0.022824949;-0.034445558;-0.19193232;0.069551766;0.009920862;-0.12400498;-0.13950118;0.009615732;-0.22054815;-0.0737971;0.14617734;-0.20851636;0.026114574;-0.042953983;-0.124687545;0.08747158;0.040220845;0.35590732;-0.021243595;-0.055821024;-0.051375315;-0.33146346;-0.053711556;-0.0054720673;-0.15698183;-0.025126064;-0.010750557;0.2066918;0.0031573914;-0.039739985;0.002790729;-0.0016092515;0.023126286;0.38476384;0.015393356;-0.16458862;0.034694757;0.1163477;-0.015573204;-0.11452448;0.1500987;0.03651696;-0.048749022;-0.55446404;-0.05891316;0.06244397;-0.057729468;0.0767728;-0.13203472;-0.08717082;0.023495376;0.024535442;-0.1930356;-0.08990181;0.08034773;0.0031816617;-0.21303223;-0.06308204;0.20406172;-0.14346327;0.004149738;0.017630478;-0.10967585;0.08480235;-0.2493429;-0.049369343;-0.012881404;0.076147154;-0.03227148;-0.072200164;0.006724964;-0.0133950515;-0.21903513;0.008570197;-0.0077001583;0.035118014;0.10261389;0.03943421;-0.09515361;-0.021246582;0.031126766;0.046689518;0.053277254;-0.038724232;-0.033311687;-0.031065634;-0.053522002;-0.029624239;0.19024262;0.045179345;0.16756417;0.005373937;0.2838497;-0.0092760315;0.046230398;0.14017603;0.03597071;0.23272598;-0.179891;-0.4326216;-0.13479461;0.04613408;-0.113712825;-0.064476155;0.20899148;-0.016235733;-0.011926417;0.41018194;-0.11913054;-0.08177941;-0.07954811;-0.014801843;0.17645454;-0.19569881;0.14655328;-0.05295657;-0.21075222;0.23370832;0.01814028;-0.029180879;0.033429608;-0.11102289;0.41401127;-0.065500066;0.07494141;0.0586503;0.18390608;0.055053037;-0.18048108;-0.019981228;0.14908434;0.025749268;0.18499218;0.05387544;-0.0023020487;0.063757285;0.08783261;0.1470191;-0.066857144;-0.15937848;0.069444016;0.016636522;-0.007883834;-0.03316713;-0.24843635;-0.37258938;-0.20996736;-0.054964773;-0.0045292033;0.17422134;0.2117121;-0.10373679;0.004165838;-0.0076848506;0.33409703;0.1389163;0.16786353;-0.0029991332;0.024921523;0.1457456;-0.060218334;0.021486629;-0.047377102;-0.035318315;0.010329511;-0.5895372;-0.31479424;-0.14836513;0.02956495;0.1166518;0.0026039449;0.29155177;0.19297214;-0.14409615;-0.071291134;-0.06270817;0.19129506;0.16929007;-0.015007765;-0.011452494;-0.04355477;0.21078262;-0.20920207;0.03257808;0.19969165;-0.23672718;0.0115987845;-0.058656584;-0.26352906;0.07443325;-0.016015077;-0.0017117367;0.06971989;-0.044358924;-0.0526073;0.011513851;-0.051820215;0.04286917;-0.075707026;-0.02952437;0.12259571;-0.011815607;-0.024472602;0.16414534;0.07090034;-0.19836871;-0.050364826;-0.029525414;-0.06150232;-0.081786536;-0.019894766;0.23796053;-0.13373934;0.07869888;0.09009915;-0.074089386;-0.16793355;0.015574425;0.041035887;0.05345461;-0.052706562;-0.01991119;0.028238162;0.25417474;0.0022461517;0.110831514;-0.048887435;-0.06579661;0.016456526;-0.43912864;-0.07083288;0.10498497;-0.04822007;0.11522431;0.012264663;0.011946353;0.06367521;0.12085186;0.14810611;0.08554078;0.45481172;-0.047563963;0.074328825;-0.03468943;0.20181502;0.11041818;0.116921045;0.12478273;0.28258294;-0.376567;-0.026603585;-0.03348019;0.11297047;0.071007475;-0.10388507;0.18787076;-0.036352593;0.0032551335;0.030697402;-0.0035197327;-0.10394137;0.072912015;0.0189023;-0.067375004;0.034371994;0.031264767;0.15277176;-0.05109343;-0.002927193;0.22164956;0.18065938;-0.032137647;0.006797474;0.04873259;-0.17597134;0.08651237;-0.009199167;-0.057847347;-0.07045654;-0.057097998;-0.2202715;0.036341768;0.25995123;-0.08138538;0.15380062;-0.45707375;-0.06759487;-0.0736457;-0.09130437;-0.030219369;0.21351178;-0.104640566;-0.039295822;-0.046721093;0.17040814;0.02812191;-0.05856949;-0.24148254;0.010232928;0.08043919;0.18632607;0.022954838;-0.055778738;0.042195797;-0.07396464;0.002520398;-0.045946445;-0.039416313;0.10448008;0.13937186;0.031413835;0.04499367;0.02468785;0.07023689;0.0038668127;-0.0096669085;0.032156486;-0.05930891;0.013694358;0.09077768;0.03052625;0.072553866;0.015766224;0.10539656;-3.1967647e-05;0.25486034;-0.35493848;0.21188247;-0.33985865;0.04229552;0.123271435;0.22941773;0.4372597;0.06785194;0.43121773;0.022786833;0.052402303;0.28367004;-0.05796396;-0.042667694;0.24046808;4.912135e-05;0.25728804;-0.08234749;-0.045981076;0.019105133;-0.07051302;-0.14231272;0.2624393;0.09261289;0.055410758;0.07411129;0.0044448082;0.037708685;0.2718204;-0.025347067;0.1443143;-0.02888082;-0.09053324;0.067011625;-0.3075096;0.04030816;-0.06168563;0.33597606;-0.02060813;0.116252236;-0.02559477;0.11693227;-0.009478406;0.021807123;-0.2254453;0.048816614;-0.11061087;0.40321663;0.26893538;-0.042515326;-0.029462237;0.043119524;0.06165867;-0.12081788;-0.013847757;-0.07468648;-0.19296753;-0.025096312;-0.37486106;0.10585213;-0.11887666;-0.06561203;-0.0697511;0.22579215;0.20848598;0.2309789;-0.21560764
-0.018714719;0.12771259;0.14573322;-0.15856548;0.047512997;-0.053724073;-0.089545734;0.09298799;0.19107866;0.028340619;0.28037;-0.054544292;0.022336798;-0.108120546;-0.3268743;0.10399744;0.045366686;-0.056214504;-0.025208138;-0.04505147;0.14113161;-0.1377932;0.02861722;-0.021668674;0.30604756;0.066783436;-0.31786728;0.30808866;-0.033165757;-0.010096538;-0.10773899;0.18057328;0.08639376;-0.04774006;0.009999847;0.23657824;-0.11273592;0.30018163;-0.005996154;0.15108374;-0.12600206;-0.0006095251;0.0652406;-0.31060243;0.097311236;0.14613827;0.014201182;0.06653123;0.022069111;-0.11484816;0.20016026;0.029056842;0.18208542;0.16268946;0.06859137;0.057824876;-0.016165273;-0.056915767;-0.062053867;0.062133513;0.035497595;0.45162684;0.020640384;-0.02515594;0.10122696;-0.02754956;-0.02945709;-0.013731054;0.058842845;0.14042124;0.09452731;0.104907855;0.067349456;0.21354832;0.055693217;0.14920457;-0.042661756;0.08895439;0.004049955;-0.037541762;0.06935904;-0.0790071;-0.15804134;0.06321441;-0.06909964;0.09855651;-0.10415561;-0.008506662;-0.01620971;0.020149129;0.119185604;-0.22470464;0.000118666016;-0.047329806;-0.030830387;0.25701332;-0.0072592073;-0.022539109;0.20544621;0.07833416;-0.010222763;-0.018575642;-0.057022177;0.14386067;0.028453967;-0.06954932;-0.048161224;-0.019504488;0.022210974;0.003342375;-0.13654205;-0.03557974;-0.08340806;-0.096203774;0.013619815;0.0022470802;-0.08483344;0.08063584;0.0741092;-0.2520757;0.06401569;0.05996391;0.007738749;0.104138784;0.12783697;-0.06902371;-0.09998536;0.17399606;-0.034174323;0.046179183;0.08197632;-0.21515696;0.025659693;-0.10630881;0.02840962;0.08570665;0.2003994;-0.04757968;-0.10649375;-0.16921607;-0.106537566;-0.028925132;-0.12585895;-0.022001676;-0.111587375;0.07251404;0.050077263;0.11387226;0.0021786503;0.020579062;-0.1413989;0.26097947;-0.0045015537;0.00086892943;0.2055218;0.016446032;-0.02656994;0.16051874;-0.115588784;0.05297365;0.06591178;0.05034073;-0.2604057;-0.049610306;0.103623144;-0.013367131;0.0317074;0.17707136;-0.05133345;0.008288274;-0.011428773;-0.08451967;-0.032719;0.007411201;0.069326624;-0.16624798;0.12256138;0.21272641;-0.046658903;-0.3051181;0.05399117;0.19933118;-0.07837951;0.023256248;0.022793403;-0.21726206;-0.05970448;0.05677096;-0.10379052;-0.16538544;0.058696616;-0.23062544;-0.027939448;0.12183895;-0.18730377;0.084625944;-0.031648047;-0.120945185;0.17121944;-0.009661452;0.5222635;0.037946936;0.07732692;0.044087823;-0.11872613;-0.059809104;0.110487536;-0.21313193;-0.079839624;0.07372044;0.08579242;-0.027355041;0.034083497;-0.05207505;0.06660524;0.051781785;0.28935134;0.061265368;-0.07548207;-0.0049372087;0.14327627;0.039278362;-0.16517435;0.120769665;0.04645707;0.09040696;-0.5527541;0.007316926;0.0024463923;-0.12730266;0.031479623;-0.13031179;-0.03044297;0.033947572;-0.0058915038;-0.20212938;-0.088385;0.010134882;0.0025433663;-0.30804184;-0.25070557;0.044565246;-0.11697424;0.058408905;0.020805715;0.0114921;0.21920966;-0.24811584;-0.09679735;0.003426241;0.11263694;-0.047105037;-0.044539016;0.0003324826;0.054462276;-0.06589648;0.13692728;-0.06938917;-0.014928785;0.0010650385;0.037743434;-0.059413392;0.033760965;0.07803454;0.018976683;0.09931529;0.0135103455;-0.020160114;0.017877446;0.009072496;0.03852582;0.15877457;0.060351413;0.15709054;-0.007948774;0.23757264;-0.048653055;-0.024647666;0.17001711;-0.0640592;0.16328363;-0.10828853;-0.3528617;-0.054958954;0.01401507;-0.11336504;-0.005427651;0.31514534;0.015400607;-0.038473383;0.55452883;-0.13420221;0.04050447;0.0105006825;0.036250304;0.18265057;-0.15465695;0.09485139;-0.10180087;-0.10375869;0.074454576;0.012347346;0.043349724;0.021766134;-0.14047141;0.32577455;-0.10622372;0.012976107;0.146293;0.18877272;0.0948626;-0.16064297;0.021330798;0.1751132;0.10758716;0.15248077;0.09041401;-0.07923439;0.06646786;0.11825895;0.07107417;-0.06542304;-0.19678184;0.0790102;-0.0070522404;0.0034123308;-0.069028676;-0.23682737;-0.3904733;-0.18660103;-0.0020209989;-0.062246233;0.23723029;0.15819712;0.011716805;0.044605102;0.00059358473;0.25990736;-3.332429e-05;0.1964212;-0.00073578535;-0.08530378;0.15384203;-0.14546339;-0.0024285973;0.0040866532;0.06840907;0.021260535;-0.5987158;-0.20856448;-0.062338166;0.045741715;0.068530455;-0.017323693;0.22111522;0.2001526;-0.23525237;-0.023485301;-0.048237912;0.07334134;0.10225517;-0.022890491;-0.029997263;-0.03611266;0.2817861;-0.16598725;0.050825894;0.15160759;-0.27798048;0.17133476;-0.013839911;-0.2422854;-0.050915014;-0.005022839;-0.0439528;0.027887063;0.07894952;-0.021344816;0.06679754;0.0026193603;-0.06825855;-0.15511084;0.009789321;0.10585476;0.0232704;-0.007821617;0.19893764;0.08406086;-0.16092762;-0.059520733;-0.009222665;-0.024879491;-0.1696859;0.039418217;0.0896942;-0.06311034;-0.00345336;-0.015321232;0.049035802;-0.30119735;0.053179067;0.0422235;0.0631754;0.01700465;-0.08857698;0.18074735;0.26625025;0.07883353;0.14349419;-0.034897216;0.03571974;-0.04092565;-0.37969315;0.052194484;-0.00073249225;-0.037224103;0.08567431;-0.037308022;0.015841933;0.022270933;0.094122924;0.11813616;0.09516998;0.4218391;-0.04645408;-0.040291335;0.052722197;0.29026675;-0.07596551;0.22490191;0.086210124;0.4004813;-0.30915803;-0.074643455;-0.01418473;-0.006633307;0.24550895;-0.15649419;0.13162683;-0.01990702;0.08187899;0.107981235;-0.067814596;-0.16828685;0.07040432;0.022415474;-0.052821413;-0.062109344;0.041743077;0.14090194;-0.11333959;-0.033069313;0.14725512;0.19350636;0.02402078;0.05734084;-0.040178765;-0.21857564;0.053708;-0.0599854;-0.021341233;-0.04021372;0.038870882;-0.11342095;0.036197875;0.22157733;-0.055644047;0.18914132;-0.30997685;-0.1259812;-0.14736782;-0.050956316;0.0055413204;0.13657138;-0.12746821;0.06694937;-0.052437115;0.05940236;0.01021856;0.024355453;-0.25115755;-0.07793715;0.27292293;0.2861641;0.05864819;0.01893209;0.21036266;-0.06437413;-0.05699623;-0.090360686;0.05287804;-0.013587841;0.12899825;0.13518433;0.106298156;-0.013887009;0.17574216;-0.04796292;0.032377675;-0.0335144;-0.04881227;-0.044286232;0.014030512;0.029502727;0.1849958;-0.008003557;0.20527916;0.024609536;0.3415392;-0.2728818;0.12119289;-0.17441241;0.12672855;0.10207875;0.17946301;0.5263086;-0.007458798;0.54986763;-0.009160691;-0.041209657;0.20247565;0.040140755;-0.020689523;0.30795014;-0.009880414;0.22773963;0.03495806;0.0826094;0.04840209;0.06249659;-0.27700108;0.1113311;-0.023477642;-0.034632474;-0.078130126;0.0742239;0.004889512;0.2109194;-0.00038998513;0.077824295;0.037779413;-0.10697875;-0.029386284;-0.4106282;0.02776539;-0.059028853;0.32742393;0.009289641;0.05145735;0.049852364;0.0014165938;-0.051014006;-0.012400615;-0.22502452;-0.013019176;-0.10998274;0.40995675;0.10982126;-0.010069093;0.0873673;0.13790515;0.103616655;-0.050574314;0.06704117;-0.031063033;-0.24302188;-0.03012365;-0.53931177;0.11231273;-0.022485787;-0.08244609;0.011139465;0.18031518;0.122299165;0.26012897;-0.10612419
-0.048803862;0.18642923;0.17507797;-0.21323772;-0.05011396;0.055724334;-0.05238141;0.060998596;0.16317438;0.027519826;0.15745704;-0.117488496;-0.0071770744;-0.11844932;-0.41774103;0.09973311;-0.03520905;-0.06742891;-0.03760212;-0.03660226;0.111420326;-0.19555128;-0.034981422;0.026750857;0.20656694;0.12866095;-0.2104306;0.2481022;-0.055363424;0.03707087;-0.16797607;0.20238137;0.102504976;0.068321966;0.01933485;0.14899915;0.0020490102;0.39639875;0.043145858;0.29442835;-0.1296035;0.06146845;0.068109915;-0.39141697;0.06597581;0.100663245;0.061578695;-0.055482008;0.053746983;-0.07165961;0.11907711;-0.005740036;0.25314814;0.16772036;0.06901924;-0.036378693;0.0059104674;-0.030566664;0.00831458;0.018081957;-0.031679943;0.3050563;-0.018475655;0.029556686;0.11546524;0.03808848;0.012102765;-0.08684517;-0.04702581;0.11115503;0.052057255;0.17010951;0.01651356;0.24997582;0.2428412;0.14184593;-0.17075205;-0.14517125;-0.008074715;-0.00935245;0.06017509;0.062464926;-0.28413165;0.11855118;0.0998663;0.09015877;0.014235547;-0.020266103;-0.060722325;0.038377076;0.0652931;-0.18548337;0.005705548;-0.13080212;0.021316271;0.22897445;-0.024661722;0.013737753;0.29800248;0.11877941;0.054636646;0.05240071;-0.050326757;0.1627234;-0.11192629;0.027311949;-0.052655783;0.027985053;0.04659564;0.055181332;-0.01329624;-0.05038781;-0.0043704067;0.018883454;0.05071554;-0.0065971953;-0.07685676;-0.03183468;0.11749477;-0.24254215;0.013317612;0.04261883;0.06509184;-0.035845455;0.09621405;0.010561055;-0.0034111373;0.31277016;-0.053894095;0.04911397;0.12101875;-0.14971538;0.028273439;-0.024425775;-0.037019912;0.014341146;0.18246771;-0.04581778;-0.11607323;-0.19042124;-0.048614867;0.027234608;-0.15825303;-0.044705566;0.055205658;0.021281071;0.0045183008;0.06529171;-0.0016035406;-0.011441801;-0.055991735;0.30309016;0.033862084;-0.01924839;0.07927693;0.1011464;0.019531317;0.117672846;-0.047363885;-0.01331137;0.10789507;-0.14723445;-0.21348554;-0.123359;0.2078761;-0.06667248;-0.050976872;0.21812093;0.0064221043;0.051154397;-0.027648559;-0.04655384;0.06952047;0.0072454177;-0.04481998;-0.14900461;0.16159;0.11651389;-0.053101514;-0.2722111;-0.07766935;0.28261998;-0.060547918;-0.0691199;0.071960196;-0.1391863;0.0750442;0.13483752;-0.19750854;-0.15733875;0.004668833;-0.030032692;-0.15482846;0.20847414;-0.12644897;0.117151104;0.015932962;0.019074839;0.1457795;0.014191541;0.4427491;-0.004139861;0.027981896;0.04541235;-0.19536483;-0.055684686;-0.002162506;-0.2292981;-0.06414313;-0.08225986;0.13110258;0.02516291;-0.00062863517;0.077300385;-0.04433824;0.0177903;0.20993035;-0.017574431;-0.2074758;0.027936738;0.12159463;-0.019433433;-0.04309584;0.17041886;-0.07914157;0.09855863;-0.42520553;0.04825449;-0.0054394635;-0.032280162;0.048456315;-0.086736545;0.020762607;-0.046850212;0.09757723;-0.13546407;-0.04843082;0.053865556;-0.051846117;-0.20988578;-0.31368694;0.08209616;-0.10182857;0.025774214;-0.00080023735;0.0108744055;0.30472055;-0.3852183;-0.2722413;-0.07974989;0.09055773;-0.003709276;-0.09541219;0.018615546;0.034462254;-0.05555572;0.20007727;0.0046917847;0.12543285;0.062903166;-0.023035696;-0.040693454;0.10416575;0.068525344;0.04161627;0.06827169;-0.01825792;0.046102554;-0.03781247;-0.02381956;0.00441997;0.066389434;0.030694844;0.20117389;0.00065585476;0.31967658;-0.077560514;0.058499474;0.17236365;0.021449672;0.28076398;-0.12659703;-0.22960989;-0.08988081;-0.03742574;0.115925305;-2.3999723e-05;0.2037992;0.028083665;-0.05033087;0.43818808;-0.24163306;-0.05725554;0.009230815;0.010527493;0.087837614;-0.16509989;0.09644607;-0.10358572;-0.08539999;0.14046542;-0.05762733;-0.017839827;0.008096133;-0.08899912;0.44281474;-0.1316212;-0.052617334;0.07110431;0.0795907;-0.02333482;-0.11460773;0.061377086;0.11202545;0.020395251;0.15029402;0.11707791;-0.07522858;-0.0013881252;0.1281144;0.1682846;0.04831724;-0.17519705;0.014524051;0.025568455;-0.0046465574;0.0292031;-0.36403015;-0.42302814;-0.06527024;0.02882736;0.03644652;0.26896062;0.22674309;-0.08970844;-0.026800781;-0.028141886;0.34279272;0.028620947;0.19630036;-0.036082324;-0.061478056;0.06917001;-0.005730856;-0.01045394;0.04356462;0.020322645;0.0014805172;-0.5221769;-0.17778052;-0.085935436;0.096535295;0.10270137;-0.07928412;0.36298147;0.15420699;-0.14333066;-0.00089693035;0.039468054;0.04535983;0.12090506;-0.10660278;0.016578367;0.061198976;0.27095363;-0.22868387;-0.06299187;0.19471976;-0.37239832;-7.667925e-05;-0.012666571;-0.22056065;-0.023091601;-0.029228033;-0.072199665;-0.059601523;0.07819923;0.030073207;-0.040770236;-0.003722967;0.049097046;-0.19024062;-0.048172154;0.08175788;-0.042018883;0.023014136;0.17967306;0.11179149;-0.1200268;0.11096196;0.072992675;-0.013978874;-0.29998547;0.07101759;-0.055057224;-0.10577676;0.022344504;0.042948734;0.039661594;-0.17171235;0.09561265;0.045183834;0.09531901;0.04805603;-0.05366923;0.13087532;0.1806899;-0.04180346;0.22016552;0.06810557;-0.015200967;0.0019342274;-0.37751034;0.08356024;0.031406857;0.030399017;-0.041457117;-0.054030098;0.06647124;0.061706845;0.061349962;0.107439;0.033716146;0.37826693;-0.10127906;0.08452053;-0.018121831;0.15225567;0.09266732;0.18985774;-0.06251883;0.3212462;-0.38222864;-0.026351705;0.06683763;0.08667553;0.24112934;-0.037896723;0.13959303;-0.063837074;-0.017032115;0.11456889;0.030686494;-0.20604467;0.044577282;-0.098944224;0.0012009466;0.13507703;-0.038760617;0.18904229;-0.02394478;-0.035436325;0.18925096;0.1602429;0.04339809;-0.022709241;-0.04139642;-0.15190703;0.016015707;0.010422617;0.09726038;0.058883715;-0.10505564;-0.16473004;0.15017347;0.17816457;0.064508684;0.2881066;-0.21178502;-0.14297028;-0.08791573;-0.0034098201;-0.0637161;0.20353264;0.00791817;-0.04753715;-0.04145365;0.061212976;0.099996604;0.0028438803;-0.1681854;-0.18770315;0.11286518;0.21777031;0.063046485;-0.06129931;0.02978874;0.012052016;-0.010867533;-0.047298454;0.033108898;0.0061115106;-0.0015860143;-0.061325703;-0.04042294;-0.035572805;0.17992468;0.02507541;-0.045720328;-0.02097867;-0.12579021;-0.0024731306;-0.025490269;-0.0081411125;0.19838671;-0.021192547;0.16128343;0.034329835;0.26438853;-0.18996483;0.18125096;-0.05130539;0.031245071;0.092240386;0.13551265;0.45657808;0.031897813;0.52529156;0.055942018;-0.010253637;0.16027091;0.025699329;0.015554424;0.36880177;0.054559838;0.22119628;0.043793224;0.0016562854;-0.018078588;-0.06641797;-0.32940352;0.17819335;-0.0275429;-0.0010575933;-0.032296773;-0.028645443;0.098589934;0.25408012;0.0073793274;0.2174823;-0.0072413087;-0.100864075;0.007804099;-0.41925517;-0.005870334;-0.003952158;0.456142;0.091238774;0.0250144;-0.062558316;-0.11153189;0.05047388;0.022185866;-0.25161633;0.032503795;-0.15252247;0.39615571;0.1794027;-0.024190381;-0.06249378;0.011162248;-0.019756908;-0.11020782;-0.038819373;0.02531426;-0.23881039;0.07041515;-0.40709093;0.09514586;-0.025634618;-0.10039778;0.029764226;0.30661458;0.16189002;0.36791456;-0.2660631
0.0044060843;0.13004673;0.14383997;-0.14272368;-0.06269742;-0.056424774;-0.08029469;0.038747087;0.19931996;0.013452829;0.12188508;-0.12513632;-0.016800497;-0.019565012;-0.36831897;0.06573476;-0.063150905;-0.12540838;0.0817844;-0.035292294;0.04589252;-0.12674734;0.10109755;-0.09131409;0.09630244;-0.014478015;-0.2884392;0.332051;-0.032222133;0.058929916;-0.19838496;0.23855792;0.1359132;0.013621709;0.011793906;0.16391395;0.046425458;0.2761172;-0.08308297;0.38603047;-0.14905813;-0.035769865;0.023372956;-0.27732205;0.09259103;0.22391237;-0.019514445;0.065430626;0.028472446;-0.12589295;0.22605021;-0.04643577;0.18501641;0.14922413;-0.061739724;0.024356289;0.059505798;0.06206715;-0.08171855;-0.07327585;-0.04655881;0.3867349;0.0080464175;0.103990294;0.050466787;-0.018216213;-0.032491267;-0.06140121;-0.080189474;0.13064888;0.14127322;0.15199538;0.17094657;0.17907009;0.1296179;0.13037884;-0.1464644;-0.05944364;-0.08949531;-0.0021580872;-0.07065771;0.059778195;-0.2828561;0.005911066;-0.04899966;-0.00377878;-0.024347834;0.073258504;0.06697147;-0.023998475;0.15584892;-0.21385767;-0.018401451;-0.07218249;-0.019881785;0.2449113;0.035425432;0.031981666;0.29121536;0.088875614;0.05017407;0.043046907;0.041888684;0.20329908;-0.003614192;0.054472182;0.038265105;0.022944745;-0.006091875;0.0772897;0.013208302;0.085146286;-0.08941514;0.0236322;-0.040187366;0.075136915;-0.024366943;0.041743774;0.1014641;-0.08814941;0.022802966;0.036025587;-0.04089926;0.14978175;0.14971672;-0.073128425;-0.06278683;0.37105566;-0.051277757;0.044209644;0.027587367;0.047831085;-0.09002715;-0.057505608;0.04221142;0.13083994;0.2588751;-0.08706958;-0.24854818;-0.08211735;-0.0049987147;-0.047568347;-0.029979663;0.0033780294;0.013059926;-0.014860762;-0.037619665;0.10576914;0.049244273;0.034681633;-0.2565232;0.32718134;-0.014197667;-0.013498639;0.15762314;0.19424002;-0.06524181;0.13141504;-0.119081244;-0.1253771;0.13585068;-0.12254058;-0.0890958;-0.1031125;0.25257528;0.0032239729;0.05690796;0.08549105;-0.045175932;-0.028165456;-0.014679973;-0.017064732;0.026726281;0.0027256093;-0.017645203;-0.013797281;0.20869167;0.22338083;-0.03345651;-0.4168888;0.053008858;0.26979154;-0.13283542;-0.023370635;-0.049818326;-0.04546194;0.0007126456;0.060059916;-0.19584663;-0.09185471;0.094932444;-0.045398943;-0.08742422;0.22378021;-0.10172542;0.15466726;0.07342366;-0.08325331;0.13476193;-0.04141397;0.43255794;0.01600372;-0.03542917;-0.037768055;-0.044985954;0.111965865;0.10721535;-0.2348428;-0.026977232;0.019596754;0.25644237;-0.046613168;-0.007888705;-0.06763728;0.100519165;0.037212145;0.24406165;0.09640098;-0.09657209;0.036990907;0.008069235;-0.06468542;-0.06666061;0.055413913;0.0037365467;0.15799177;-0.536035;0.029199464;0.019916411;0.018923415;0.1729444;0.020979844;0.06067536;-0.007938978;0.1105724;-0.29495063;-0.0033197424;-0.030899802;-0.040057097;-0.16849446;-0.27533945;0.091858275;-0.2215019;0.035213288;0.015688453;0.07730696;0.4025837;-0.35358396;-0.20064545;-0.039078575;0.11728529;0.0610247;-0.09054799;0.0020587917;-0.071732216;-0.20106427;0.1812823;-0.039196767;0.09236931;-0.04632335;0.11787013;-0.0028626064;0.036748424;0.16754399;-0.005748162;0.101955995;-0.008002804;-0.06321306;0.09100657;0.080042;-0.052713864;0.09020779;0.045440994;0.15841551;-0.034553856;0.30027503;0.03047329;0.050310787;0.18282615;-0.0563817;0.15814525;-0.060631514;-0.18131965;0.0011861308;-0.015058099;0.042719647;0.07067495;0.15944602;0.09805112;-0.007974575;0.5298481;-0.24743539;-0.090548225;-0.10213128;-0.03435543;0.14596115;-0.19875911;0.2194282;-0.011590657;-0.048706513;0.015570775;-0.047086585;-0.056746863;-0.021954235;-0.1251199;0.34255072;-0.040845793;-0.0611755;-0.0014740307;0.15474299;0.019522836;-0.20351745;-0.064752646;0.11202588;-0.014737851;0.05013908;0.25345725;0.06490298;-0.056041513;0.09652944;0.13700143;0.013802679;-0.15493889;-0.06324521;-0.07811467;-0.045035705;-0.010762224;-0.30820996;-0.34138742;-0.06506452;0.15238404;0.04888162;0.24983387;0.11365939;-0.1900631;-0.046847064;0.0021371571;0.27406;0.00037136892;0.18442492;-0.031297695;0.019683855;0.1958155;0.0047982447;-0.12165084;0.050091095;-0.014705651;0.0153822135;-0.4446942;-0.23725285;0.024016395;0.110988416;-0.020934492;-0.16151595;0.2563381;0.20905167;-0.23730247;-0.044561528;-0.05275652;-0.012381791;0.062834024;-0.07970648;-0.02942146;0.08570116;0.27697292;-0.09643345;-0.018155888;0.22065781;-0.40223885;0.13569386;0.1032443;-0.2213447;-0.039825797;0.003262703;0.089253515;0.02298194;-0.03306329;-0.0094154;-0.04827804;-0.002850312;-0.011400105;-0.19023292;0.013608446;0.08101835;0.00078032963;-0.016539166;0.19150476;0.11957833;-0.105681784;0.009640291;0.00024487535;-0.07852181;-0.35527194;-0.05913271;-0.0075094537;-0.19450104;-0.03616896;0.011557993;0.09148456;-0.22173001;0.14392987;0.056510776;0.11831657;0.06985814;-0.07436209;0.11819586;-0.010330627;0.012038957;0.17329487;-0.07052602;-0.053432852;0.03710076;-0.43959367;-0.06599098;-0.0279561;0.04252754;-0.079457976;0.030604983;0.13242903;0.021583429;-0.009767238;0.058125723;0.038880013;0.3904632;0.035922967;0.031789754;-0.02018245;0.14710218;0.04908294;0.16960995;-0.072362505;0.4298695;-0.38028103;-0.032924086;-0.002083496;0.16793832;0.24339698;0.0028496536;0.18425708;-0.02310552;0.04781964;0.13024597;0.027575256;-0.17790332;0.07934328;-0.028623054;-0.008679946;0.15531819;-0.00039766717;0.19964483;0.006581019;-0.03650948;0.01085154;0.14682816;0.002482365;-0.04465068;0.04898266;-0.16016142;0.16499528;0.016150378;0.011247878;0.038296122;-0.009682324;-0.2104317;0.2222439;0.054636035;-0.022766046;0.38317633;-0.104890265;-0.13428304;-0.19446424;-0.028032625;0.07323656;0.11170076;0.02274948;0.09861491;-0.051991247;-0.02589512;0.041579206;-0.01643798;-0.13248843;-0.13243674;0.25600183;0.06570441;0.04942538;0.060828134;0.18096495;-0.029888967;0.021400502;-0.07939441;-0.04406858;0.05985622;0.021889081;-0.022703955;0.14587234;-0.033180594;0.27742296;-0.018612575;0.025993679;0.038734294;-0.08283578;0.04506652;-0.044104714;-0.10517194;0.1771767;0.023242924;0.043456152;-0.054253686;0.2158382;-0.30856323;0.1509376;-0.010202179;0.08140428;0.09775278;0.19718027;0.49441442;0.010204698;0.4139014;-0.06048323;0.0062837843;0.16875976;0.026281852;0.02964506;0.36225605;-0.024246976;0.20269161;-0.08689734;-0.042508163;0.029054202;-0.007995606;-0.30385017;0.1777304;-0.10539403;0.017233154;-0.08454028;-0.018687159;0.04389075;0.21591802;0.0041264966;0.0128665995;0.07223001;-0.16374153;-0.08026497;-0.5549144;0.06648252;0.043452814;0.39253685;-0.037900712;0.056961454;0.08438009;-0.12074193;0.03518402;-0.04007994;-0.32554162;-0.060578037;-0.17956373;0.39046958;0.13066083;0.10338483;0.013981927;0.09611898;-0.11484043;-0.066757075;-0.0067192684;0.031938367;-0.17503056;-0.041370254;-0.41280714;0.21118194;-0.047084533;-0.20726687;0.053637307;0.078124344;0.007326683;0.31407753;-0.2016915
-0.02651557;-0.010666798;0.27320704;-0.20132144;-0.061381187;-0.05093974;-0.07255688;-0.060103774;0.30485255;-0.05968577;0.12831734;-0.09367458;-0.06420714;0.03471553;-0.46280122;-0.039673503;-0.025423817;-0.10793027;-0.0118069975;-0.1644605;0.07079114;-0.21368456;0.047180466;-0.1063104;0.20208842;-0.025697913;-0.14834645;0.33082312;0.009821522;0.035964645;-0.0932573;0.2490246;-0.012256606;0.06355071;0.003948351;0.11602738;-0.06253317;0.32102746;0.011798068;0.43538874;-0.10248615;0.010254207;0.05299083;-0.17667022;0.12246706;0.17760251;0.012843519;-0.042887624;0.013424677;-0.08529455;0.1806265;0.048093766;0.17667456;0.09585377;-0.033064898;-0.013531656;0.03137731;0.031936187;-0.16894042;-0.020971006;0.026213204;0.44352022;-0.0032248655;0.08967969;0.06696867;-0.05363093;0.04973333;-0.035659365;-0.016052743;0.08440555;0.10782195;0.084204406;0.040416066;0.19629772;0.22612078;0.10425309;-0.03637798;-0.07233398;-0.055214286;0.014374733;0.07972284;-0.025034698;-0.30236703;-0.05063663;0.024493909;0.0030662597;0.016244175;-0.058948923;0.07311487;0.06714996;0.09121971;-0.15938734;0.012532046;-0.07132537;0.015965806;0.05297266;-0.0044600936;0.07139901;0.42574415;0.153841;0.04590887;-0.02501231;0.059682347;0.1001234;-0.020286996;0.011528268;-0.050228477;-0.044123992;0.03914532;-0.048584312;0.06180375;0.063891664;-0.006655269;0.10068803;0.033783812;0.06957397;-0.061516788;0.07829539;0.1718873;-0.17461292;-0.04889322;0.011874339;0.05512147;0.11762176;0.08694115;-0.0012294613;-0.023135014;0.3171092;-0.23890814;-0.045441084;-0.050957806;-0.030178946;0.02475064;-0.012273418;0.0034473122;0.120463684;0.2696075;-0.011823327;-0.1503761;-0.08417025;0.017092576;-0.036293376;-0.0039004965;0.10130777;-0.04229128;-0.03472926;-0.03227632;0.124863625;-0.042327043;0.088760555;-0.18751808;0.31602958;0.004684765;-0.046578553;0.0022464397;0.17082825;-0.047773365;0.16946258;-0.12858067;-0.12908834;0.11181547;-0.098014995;-0.15102027;-0.1596489;0.179834;0.066007935;-0.008455663;0.10773923;0.10219642;0.00055414875;-0.056195747;-0.041100763;-0.025519932;0.06427391;0.06388844;0.022180716;0.20810013;0.09698031;0.012337073;-0.33781174;-0.008393076;0.22252393;0.0017264577;0.008888951;-0.03726557;0.029489066;-0.068041384;-0.0332399;-0.12430828;-0.056223992;-0.07866179;0.02178436;-0.18086836;0.16666806;-0.032847714;0.08467761;0.05437223;-0.027478112;-0.018389398;-0.16231179;0.3403454;0.010218982;-0.062703066;0.0004973407;-0.116212375;0.065386534;0.0072732265;-0.30974936;0.06508598;-0.03733394;0.23552935;-0.022333615;0.006389829;0.03222924;-0.028430244;-0.033606447;0.19263768;0.11814295;-0.14858136;0.0014714077;0.08890109;-0.004434039;-0.120642744;0.04323159;-0.07299037;0.13896346;-0.5534973;-0.06734552;0.02470492;-0.025507426;0.056287933;-0.06771142;-0.042976186;0.016411653;0.0112582855;-0.25963184;0.13503133;-0.09148236;-0.04834348;-0.11889127;-0.13658312;-0.101213485;-0.29837722;0.074236594;-0.021011971;-0.06743344;0.33064103;-0.43055382;-0.33105746;0.04375481;0.135107;-0.035875216;-0.064461425;0.042596426;0.080132015;-0.16816568;0.039764192;0.019262632;-0.026982302;0.023982862;0.11677;0.12698406;0.04652046;0.115818284;-0.027436499;0.24450806;0.030221365;0.06967113;0.06686972;-0.04622817;0.006513077;-0.012803686;0.0893072;0.15384515;0.081194736;0.2798578;-0.09235999;-0.07010187;0.071471915;-0.044200934;0.19005066;-0.011586958;-0.18702269;-0.054961152;0.037455328;0.046886135;-0.007969512;0.24518153;0.14032924;0.0075390823;0.41554338;-0.21934372;0.0389662;-0.034983512;0.008466374;0.20160958;-0.19152522;0.18117855;0.0013210714;-0.004066164;0.13275504;-0.051496018;0.038403388;0.0422371;0.008646401;0.45187744;0.02110271;-0.009966345;-0.0420894;0.09690572;0.0054277894;-0.058450278;-0.04185405;0.17135674;-0.058479875;0.07982978;0.19555122;-0.029534055;-0.059346575;0.0062619317;0.20574135;0.03662007;-0.066597834;0.0692005;-0.07136806;0.050366335;0.08635266;-0.2532417;-0.43585366;-0.21095838;0.064596124;-0.004091932;0.350797;0.18011135;-0.23184489;-0.031810325;-0.027398134;0.22464459;-0.0045468686;0.19196907;0.027449345;-0.08470253;0.19426817;-0.023512121;-0.15956885;-0.029769776;-0.057954315;0.022902433;-0.5198505;-0.09512827;0.122344844;0.13188651;0.053465083;-0.056595992;0.2980443;0.17449337;-0.27339807;0.00803914;0.024070768;0.061698496;0.12827972;-0.11228111;-0.046036787;0.03646477;0.19292295;-0.07574503;-0.04060136;0.21178222;-0.2929066;0.17856762;0.07002176;-0.05125203;-0.05190946;0.025044473;-0.021801759;-0.048205867;-0.065354094;-0.0074410234;0.053629704;-0.021372106;-0.032907974;-0.14118975;0.042866874;0.048095603;-0.04199547;0.022517996;0.10170005;-0.025711544;0.020162944;0.11527919;0.1583444;-0.003809738;-0.36873838;-0.005058447;-0.11952381;-0.12554747;0.0070336293;-0.06604675;0.08821686;-0.22891718;0.13842472;-0.040703576;0.20637304;0.069191165;0.031450137;0.11441228;0.04666057;-0.03554671;0.12719126;-0.04819501;0.04858503;-0.01398404;-0.46371037;-0.044073004;0.05013723;0.2010959;-0.12720592;0.033931445;0.13129476;-0.092217185;-0.06410347;0.22012195;-0.019435775;0.51573724;-0.002180522;-0.038743295;-0.038418535;0.09249504;-0.06221821;0.19863017;-0.10256417;0.2906743;-0.2203793;0.054426257;-0.044470828;0.19999771;0.3025611;-0.07107684;0.07700131;0.07002507;-0.07731529;0.14423068;-0.020770116;-0.15658188;0.06797185;0.0023772677;-0.0070266523;0.10981788;-0.0042542266;0.22021267;-0.10717541;0.07034722;0.1013363;0.19837683;-0.056742873;-0.034492258;0.005843834;0.017313268;0.1560503;-0.047718417;-0.028277328;0.05442339;-0.09259834;-0.21592963;0.26197347;0.13158795;-0.036051814;0.27129668;-0.24964893;-0.122904025;-0.2040837;-0.016772645;-0.014144675;0.14143023;0.022843137;-0.018406713;0.07621486;0.081017286;0.11818423;0.036600687;-0.23283328;-0.22022392;0.13240361;0.015033551;-0.087762155;0.0054197186;0.10956054;-0.05755534;-0.008291306;0.08961616;-0.0090997815;0.06544582;0.015055764;0.054712184;0.044442;-0.008128444;0.2982435;0.04119218;0.120000966;0.011562554;0.032973476;0.029903596;-0.04786242;-0.037998337;0.20536195;-0.024435338;0.17736149;0.04275991;0.19792828;-0.1071376;0.07513169;0.000990216;0.15136324;0.160085;0.16981532;0.4692399;0.058588207;0.37682107;0.051101144;-0.070215255;0.1568592;-0.010121688;0.04731583;0.33618873;-0.00028837143;0.108468294;0.029693304;-0.005587766;0.092597425;0.0136202;-0.4305327;0.12704553;-0.03746636;0.070557036;-0.15299985;0.040913668;0.033813577;0.19232383;-0.0142134335;0.050935704;0.081915304;-0.12216305;0.037861798;-0.46616188;0.010026146;-0.004634854;0.42100587;0.045864526;0.093213186;-0.05765832;-0.047472246;0.01114907;0.026917791;-0.19921683;0.03249711;-0.25901687;0.20612787;0.17182851;-0.046731398;-0.044308126;0.04364454;0.06783133;0.096827745;0.04370599;0.010576036;-0.05641263;0.080519035;-0.41539448;0.21009296;-0.13515496;-0.15881993;-0.058261976;0.10830818;0.035040792;0.21785778;-0.21571305
-0.024902346;0.057798654;0.061605923;-0.29365328;-0.07991312;-0.04010701;-0.015015208;0.0026125985;0.33037573;0.075850606;0.06755606;-0.023168871;0.050608214;0.050899256;-0.398095;0.02365371;0.077281386;0.00755282;-0.07035255;-0.01901248;0.04709804;-0.26783532;0.048183843;0.029246213;0.10016348;0.04449189;-0.08265567;0.31354117;-0.031664032;0.051666018;-0.031931434;0.24937105;0.09364507;-0.024313815;-0.07614742;0.06904282;0.04449848;0.43334666;-0.011106293;0.4240879;-0.12046955;0.04117906;0.13406834;-0.19443993;0.038678125;0.12672606;0.014867381;0.0711288;0.06804328;-0.023804633;0.12094358;-0.017363587;0.12653492;0.18055831;-0.06619672;-0.040491875;0.015594114;-0.06476381;-0.10318723;0.09117235;0.039810248;0.34250793;-0.036942616;0.007504575;0.1552843;-0.057033718;0.026931725;0.088579156;-0.029871352;-0.0503129;0.22365104;0.08331731;0.057538606;0.16917548;0.19906077;0.08959276;-0.13614993;-0.098756924;-0.095365845;0.022909608;-0.061417248;-0.005228589;-0.34732494;-0.05959529;0.053066015;0.14941685;-0.14143887;0.05770521;-0.07327385;0.032339644;0.030838948;-0.13092928;0.019526366;-0.054712094;0.050060563;0.12888874;0.025899405;0.07668045;0.3605604;0.07854912;-0.07457247;-0.015444913;-0.00018687578;0.18763052;-0.17044352;0.03343601;-0.046466958;0.014672032;-0.07502119;-0.020788848;0.15272498;0.08191697;-0.13439672;-0.01901658;-0.032073714;0.06976681;-0.07019299;-0.055646706;0.16755982;-0.1698163;-0.13273051;0.021325357;-0.020786839;0.0151822595;0.026107097;-0.0069851875;-0.13397382;0.25048324;-0.23667274;0.035727486;0.071499;-0.12562816;0.052931584;-0.03546376;-0.07200858;0.039282866;0.27096614;0.050198484;-0.28598168;-0.0615302;0.03138781;-0.0039380114;-0.09975029;0.13518116;0.010873939;-0.05234563;0.07661616;0.11215846;-0.027718108;-0.0064297877;-0.23866607;0.14916532;-0.039923128;-0.023979774;0.08598939;0.27009374;-0.03825878;0.21287915;-0.0717874;-0.0798371;0.20870356;-0.06835932;-0.078592226;-0.089863226;0.15444198;0.023448624;-0.036394384;0.0037724215;-0.02772455;0.007332905;-0.070618965;0.0470905;-0.010844115;-0.051592916;-0.0740851;0.04977584;0.1719985;0.07350052;-0.09704874;-0.47657582;-0.018292367;0.1882795;-0.06227996;0.029903855;-0.07904126;0.11030993;-0.0238557;-0.050810926;-0.26552856;-0.07713602;0.031766534;0.0018566864;-0.14927699;0.23212124;0.029574776;0.03920075;-0.08815753;-0.010750152;0.0936982;-0.2751763;0.4420521;-0.042232834;0.04503562;0.01769947;0.06264958;0.20468046;0.029556928;-0.27255172;-0.023079013;0.026900722;0.31332898;-0.10112522;-0.07684116;-0.06473289;0.07086573;-0.111318916;0.115972936;0.13697694;-0.18065871;-0.035501193;0.007497901;0.10340828;0.021228807;0.19660129;0.061609436;0.109190404;-0.5421104;-0.050800934;-0.0008016078;-0.002494158;0.12404163;-0.11962518;-0.015493743;0.052863423;0.08156722;-0.09269935;0.0037279122;0.023016743;0.054384578;-0.11658933;-0.15688366;-0.2026312;-0.24396715;0.13623042;-0.022120692;0.062821805;0.40822002;-0.28573772;-0.2606314;0.021671383;0.06519103;-0.0088904165;-0.12406249;-0.066567324;-0.050144896;-0.18303394;0.1295347;-0.034362495;-0.028998774;-0.060670003;0.0021585235;0.1314466;0.14559825;0.14715326;0.04423784;0.1651912;-0.006637752;0.010257746;0.23202783;-0.014249872;-0.06556054;-0.045906357;0.19300975;0.062026065;-0.058326945;0.19240737;-0.038965806;-0.053673513;0.1621815;0.055868257;0.2010912;0.0062041953;-0.1518878;0.093708254;-0.0012844325;0.08652959;0.053199224;0.20800653;0.028266698;0.05020111;0.5105161;-0.20377655;0.087579265;0.03334757;-0.0033527904;0.050648976;0.026107008;0.07506764;0.10775021;-0.12741648;0.012289884;0.014629066;-0.01834975;0.020021874;-0.010724132;0.42298162;0.16944525;-0.027636185;-0.027525224;0.09894642;0.04648351;-0.23632564;-0.035548095;0.14489545;0.08729729;0.054226324;0.20641093;0.02180654;-0.027418084;0.064195864;0.17953621;-0.0069191903;-0.14895838;0.05099666;0.05375669;-0.038320307;-0.01670163;-0.30675712;-0.4872448;-0.18920782;-0.06080369;-0.026193546;0.24895795;-0.022083972;-0.15637319;-0.03772244;0.057697225;0.1821151;0.21521327;0.13262382;-0.014858739;-0.08091576;0.08245996;0.1591728;-0.14640346;0.05000166;-0.015710268;-0.03869765;-0.41874388;-0.06625353;0.027530136;0.06498133;-0.058853887;-0.13506974;0.28420067;0.1661258;-0.18660516;0.042110357;0.028038172;0.032066677;0.19719884;0.025941255;0.058663692;0.054607227;0.2917085;-0.025135262;0.06432993;0.21962497;-0.30069622;0.15774281;0.07220794;-0.055370126;-0.01697487;0.025018541;-0.010957996;0.0019841257;-0.059538938;0.04885218;0.054088663;-0.05436325;0.043752924;-0.012708461;-0.03419952;0.011556436;0.021842975;0.03729452;0.07272906;-0.08955965;0.120487705;0.069258384;0.08196223;0.0043744873;-0.27137122;-0.044228446;-0.09990665;-0.02567242;0.0445931;-0.11657294;0.14325388;-0.15009663;0.13516405;-0.06911112;0.26955014;-0.064114295;-0.03647546;0.090410255;-0.023164572;0.03947849;0.16055949;0.0531852;-0.037584048;-0.074342094;-0.4483234;0.046453245;-0.08100429;0.19520278;-0.12466621;0.0035610662;0.16386104;-0.068606585;-0.030103697;0.10180799;-0.020463947;0.5627693;-0.07592343;-0.01050222;0.029001437;0.16698523;0.018852321;0.20035245;-0.16037211;0.32198036;-0.30485606;0.05799384;-0.051796485;0.16047539;0.18749116;0.02722144;0.13529916;0.05115878;0.045476697;0.1614777;-0.047475804;-0.14670774;0.06456236;-0.04463984;0.07381059;0.08391496;0.004332477;0.1388099;-0.06570691;0.0502877;0.093788125;0.1375265;0.014701467;-0.22859243;-0.044531994;-0.059138708;0.1062724;0.041958265;-0.036357895;0.03880477;-0.08460542;-0.13511015;0.2577102;0.09858917;0.05872693;0.3470843;-0.09008664;-0.2715486;-0.24988802;-0.047544107;0.04544947;0.18562724;0.034749217;-0.047707893;-0.024518935;0.014134189;0.23920037;0.06594341;-0.16809866;-0.14036328;0.27684757;0.0931621;-0.008675961;0.004202953;0.080247074;-0.0904186;0.01833225;-0.019930722;-0.039448317;0.022201236;-0.055152062;-0.062470824;0.124810494;0.054942857;0.2197578;0.027685458;0.0026061975;-0.075013526;0.123883575;0.015087595;0.04053332;0.04940524;0.23141734;-0.048053805;0.085173845;0.0029659574;0.27484643;-0.04962969;0.035276603;0.20819846;0.16694961;-0.0004607015;0.15677;0.31629956;0.011586785;0.27836293;-0.07087896;0.034019258;0.16065231;0.0270832;0.05036655;0.29247373;0.019641003;0.21931931;0.03306557;-0.048011962;0.10414648;-0.03650757;-0.37095028;0.10972168;-0.13742925;-0.03132742;-0.13612665;-0.028860396;0.074034534;0.10777469;0.06295867;-0.059467245;-0.030136636;-0.1378533;0.047767833;-0.39610413;-0.02760032;0.04084607;0.39989084;-0.06709176;0.022734309;0.026898654;-0.0508677;0.016797133;-0.055424448;-0.37032717;0.058557864;-0.27903777;0.2044721;0.22343764;-0.019770667;-0.0484392;0.08989235;-0.05730131;0.14382689;-0.023656586;-0.041650448;-0.11187177;0.0167719;-0.26117015;0.12932217;-0.10020821;-0.2604409;-0.025136346;-0.04891388;0.08814066;0.19179933;-0.28008905
0.007023793;-0.025201414;0.09431738;-0.28916115;-0.12018768;0.03873698;-0.04995374;-0.06393775;0.30953497;-0.035290983;0.12622689;-0.030439507;0.047076974;0.080421835;-0.4088153;0.12343826;-0.03247684;0.02516668;-0.024142897;-0.12404732;0.106530376;-0.29725516;-0.007327444;-0.037539613;0.04773818;0.0061667473;-0.037681747;0.30650178;0.024532743;-0.095290735;-0.035748105;0.1616923;0.14907093;0.007933172;-0.028015552;0.08895108;-0.04930704;0.38013753;-0.028615149;0.4564786;-0.063496076;-0.059605416;0.07006779;-0.09818977;0.014021281;0.1903013;-0.04848644;-0.06688925;-0.08502567;0.043803345;0.21391235;0.04441233;0.12165444;0.16633378;0.016104652;-0.032910656;-0.009840159;-0.0073878425;-0.1493183;0.17360996;-0.0049412665;0.44788986;0.059609562;-0.014078789;0.06037484;-0.044296563;0.11618451;0.07746106;0.066453904;-0.024605444;0.24101451;0.06561661;0.19414206;0.0436355;0.28279212;0.17142668;-0.15717979;-0.040160224;0.007895658;-0.0729823;0.060285144;-0.0074527627;-0.34104112;-0.001290405;0.031473793;0.09032448;-0.054361336;-0.0012509626;0.019181361;-0.013033575;0.104192205;-0.28360367;0.00834288;0.10194594;0.04345919;0.17733127;0.022000654;0.079644725;0.49076533;0.02708223;-0.07947276;0.047079116;0.025416398;0.2330217;-0.07066427;-0.06146908;-0.030734088;0.07536168;0.04527783;-0.018688424;0.17932616;0.002794247;-0.07759963;0.085961625;-0.02002641;0.066276774;0.021851506;-0.068290204;0.28920352;-0.037390906;-0.104529746;0.024986215;-0.12427554;0.14167276;0.010175312;0.013282483;0.008703084;0.23536943;-0.20448418;0.01775097;-0.017227927;-0.12232302;0.03111717;0.029830584;0.047146156;0.103221424;0.23140974;0.037828628;-0.29461044;-0.11881325;0.025660263;0.06832617;-0.108496904;0.19390646;-0.068101116;-0.046404943;-0.058627598;0.18854074;-0.0160496;0.07339348;-0.33737448;0.12198305;-0.06907766;0.077832386;0.017334038;0.29565597;0.08155885;0.16626123;-0.0754475;-0.07190484;0.22861318;-0.115762495;-0.14012162;-0.08650876;0.11415603;0.022879912;0.006123984;0.11313293;-0.028063448;0.059886616;0.051532064;-0.06922302;0.025972443;-0.04435678;0.040467903;0.054344863;0.2836512;0.2244528;-0.17165871;-0.5264819;-0.031043386;0.28006303;-0.041652106;0.030460583;0.017835448;0.016774407;0.059370954;0.05263971;-0.27600795;-0.057462875;0.009452962;0.101553254;-0.16046162;0.28125745;-0.17434478;-0.054611173;-0.06261273;-0.19453594;0.0010514014;-0.17699032;0.2412508;0.041211072;-0.013665335;-0.020141214;-0.030586712;0.13637583;-0.046951428;-0.26760298;0.03790528;0.05454312;0.29819426;-0.113295674;0.05198795;-0.011337938;0.08891837;-0.16581047;0.21027398;0.11624004;-0.25270876;0.02846831;-0.00468794;-0.023258435;-0.08307369;0.20722471;-0.02251301;0.18914327;-0.45694146;-0.010191991;-0.033119474;0.0126695335;0.12354815;-0.072917506;0.03495784;-0.044914883;0.13297632;-0.027194703;0.13095218;0.061897434;0.020589184;-0.1745568;-0.10935874;-0.09499319;-0.30441362;0.12560886;-0.014687711;0.07618597;0.34637013;-0.30817202;-0.35730407;0.029268155;-0.0050217584;0.043144982;0.05963184;0.05188192;-0.031037323;-0.23494533;0.113286644;-0.010768369;0.065495804;-0.018744845;-0.07066834;0.12571257;0.024476506;0.16467375;-0.015421337;0.11799207;0.012464472;0.015870785;0.24225031;-0.029620603;0.0634933;0.1255559;0.27148327;0.046320155;-0.03564434;0.18906236;0.04362183;-0.047440205;0.015831534;-0.033702616;0.30119112;-0.06692961;-0.19826521;-0.079312064;-0.068617724;0.08858597;-0.09240981;0.35209253;0.15401763;0.05520854;0.4448567;-0.10148943;0.032089304;-0.017538652;0.021614911;0.21796662;-0.054152492;0.2116246;0.10663777;-0.08497749;0.06348132;0.06430019;0.025423113;-0.059794158;0.010364175;0.47054186;0.13845156;-0.0056247744;-0.096510075;0.112056896;0.032422822;-0.08838535;0.015070558;0.22037588;-0.0055425637;0.018714812;0.18633759;0.03559374;-0.0340895;0.05608636;0.12711284;0.045837916;-0.16378884;-0.11215636;0.035963748;-0.02488004;-0.026462892;-0.09485431;-0.4164793;-0.13560657;0.012116959;0.050134014;0.23938057;0.08878105;-0.22482406;0.022641161;0.11302234;0.16979693;0.15416765;0.04630943;0.021310937;-0.18768658;0.10349002;0.07443932;-0.1634064;-0.02009099;0.058224875;-0.062008508;-0.41958678;0.04442885;0.18864222;0.013150072;-0.036176156;-0.12957843;0.37292764;0.20104921;-0.16205058;0.057560287;0.10436748;-0.03393823;0.22740147;0.059330545;-0.07076975;0.12106093;0.18696268;0.0028185435;0.014082593;0.17322317;-0.42915797;0.030941311;0.19653995;0.1113946;0.0834667;0.08364401;-0.009841328;0.064768314;0.012833979;0.060037147;0.060594324;-0.036456015;0.038823787;-0.09827541;-0.01230336;-0.005673432;-0.020418027;0.03909879;0.0825427;0.09227088;-0.054506645;0.06659359;0.116855;-0.016066274;-0.37211177;-0.03925913;-0.1818809;-0.19249752;-0.008827014;-0.029731441;0.085904345;-0.09732608;0.18258595;-0.0468243;0.29042706;-0.030179832;-0.015960876;0.19015801;-0.13049725;0.021396693;0.12859164;0.029985586;0.0016197755;0.05329195;-0.47179666;-0.04227576;0.0162189;0.23649926;-0.10065384;-0.021128384;0.23718134;0.06959772;0.016565062;0.15440714;-0.023170106;0.363324;-0.073688336;-0.024267523;0.016681923;0.21452592;-0.041869633;0.24574617;-0.16903359;0.43670896;-0.40482062;-0.0470265;0.025534863;0.19393708;0.24162452;0.06588962;0.050095655;0.03934799;-0.020703113;0.07710977;0.05622348;-0.12345369;0.057770967;0.15187922;0.03943417;0.0831502;-0.06601335;0.18959598;-0.09892685;0.034980375;0.04672235;0.14966361;-0.026152015;-0.067017704;0.04843711;0.16001087;0.09349695;-0.015413257;-0.036296405;-0.04797219;-0.14020158;-0.23016661;0.258856;0.16327678;-0.017083518;0.38972193;-0.16408893;-0.18549925;-0.12975504;-0.033687387;0.04777447;0.1401653;0.10313216;-0.004606557;0.036940865;0.04104576;0.24639376;-0.034963433;-0.18308182;-0.026158882;0.122549474;0.060270306;-0.101463154;-0.046864443;0.08830006;-0.09500889;0.03315114;0.09647929;0.072675675;0.09035899;-0.13534045;-0.018938353;0.15551795;-0.06495558;0.3540691;-0.066710144;0.06576259;0.047262162;0.14792654;0.019425781;0.085140005;-0.019073153;0.2586009;0.0010647153;0.049766;0.017636677;0.09811889;0.05205603;0.013247169;0.12703773;0.27511564;0.054175165;0.077219866;0.23990226;-0.048962053;0.19697836;0.0079634115;-0.08068218;0.11346734;-0.01021064;-0.043614216;0.35073587;-0.047176708;0.18621212;0.026907284;0.026578195;-0.021653557;0.05532699;-0.3289037;0.1851195;-0.2957401;-0.028191473;-0.05122485;0.025047438;0.03602809;0.22260608;-0.06947117;0.010458628;-0.023548571;-0.105736904;-0.0013277223;-0.35229802;-0.0054293023;-0.0372883;0.37923872;-0.050316337;0.012678717;-0.03332456;0.00078297575;-0.086516224;-0.059118487;-0.24008293;-0.05352081;-0.17651032;0.02973734;0.10953447;-0.0012840766;-0.016519627;0.06995229;-0.10230593;0.06914203;-0.0073768455;0.045970783;-0.09652707;-0.0392967;-0.26206854;0.0642418;-0.10480918;-0.17123914;0.020112468;-0.057467293;0.16166137;0.08824265;-0.23810455
-0.16912651;-0.048910335;0.14298491;-0.35554203;-0.0960635;0.058286525;0.043530256;0.03076054;0.32190147;0.032858357;0.16818438;-0.14240852;0.036870375;0.2044015;-0.38366294;-0.02695774;0.025365196;0.021714216;0.015997095;-0.0209748;-0.008544715;-0.22964963;-0.043655157;-0.07218112;0.038649943;-0.10253975;-0.057120666;0.25311145;0.07292186;-0.067734145;-0.087057255;0.11993148;0.11512621;-0.0039817146;0.07136117;-0.007598805;0.010171182;0.33697203;0.07490367;0.3770185;-0.008957964;-0.03021356;0.10971215;-0.02334544;0.16344947;0.29437733;-0.023524515;0.025664652;0.016320188;0.003533111;0.1627966;0.022830602;0.15639225;0.0109979035;0.022566589;0.0025643327;-0.07142944;0.030841148;-0.19265936;0.018208964;0.054832738;0.38492477;-0.03038519;0.031387728;0.0630373;-0.026737662;0.105280206;-0.07945165;0.0437174;-0.03879884;0.10535876;0.14268887;0.1090768;-0.007743196;0.23312898;0.04224527;-0.12325697;0.025627451;-0.024814557;0.026755331;-0.02909764;-0.07634862;-0.33385682;0.019026464;-0.061125554;0.15727194;-0.16573589;-0.0012473994;-0.057397887;-0.028272094;0.06356884;-0.2646631;-0.05673204;0.0059988336;-0.090348035;0.12385747;0.0003050877;0.065557264;0.44226468;0.110875376;-0.074396014;0.0052495557;-0.007871937;0.16299763;-0.11675185;-0.024154836;0.031750187;0.024105294;-0.036983818;0.0766691;0.1396356;0.0021042768;-0.09870429;0.11302202;0.06454155;-0.040185295;-0.025278945;-0.036639556;0.26802284;-0.026374653;-0.21007203;-0.066835165;-0.12490099;0.048257057;0.03651833;-0.0050156824;-0.023467433;0.092154905;-0.32202736;-0.06501639;0.050097007;0.009212532;-0.049444262;0.09756182;0.03589433;0.121809825;0.22625557;0.12526524;-0.32729554;-0.07476627;0.008106578;-0.044354945;-0.0874447;0.13199279;0.013505659;0.022554822;0.05028923;0.12426527;-0.0023155233;0.008527898;-0.21494135;-0.020498307;-0.08025024;0.07107358;0.058224607;0.13519497;0.054938104;0.13001297;-0.03684826;-0.08505177;0.2660014;-0.1843464;-0.008064256;-0.12514123;-0.0050428356;-0.005260938;-0.10070649;0.113443024;-0.051209286;0.020598715;-0.03291531;-0.04961515;-0.028615357;0.018693836;0.018061575;0.056646988;0.23659213;0.09583;-0.12095555;-0.66820395;0.020117722;0.22347756;0.05896809;0.07911188;0.026282981;0.08029729;-0.053019375;0.0821249;-0.15886472;-0.02891717;-0.054248583;0.092460565;-0.14468363;0.25504294;-0.04689979;-0.032454483;0.04723911;-0.25529695;0.079188794;-0.3603044;0.3699365;-0.024628695;0.037650585;-0.051473398;-0.0043799113;0.059798025;0.038496308;-0.35884124;-0.11978924;-0.03001523;0.271987;-0.05417911;0.06540782;0.054652207;0.024508916;-0.15670453;0.06401548;0.16119808;-0.24892777;-0.048358247;-0.016557308;-0.041693155;-0.12898488;0.22266154;-0.03135198;0.072758585;-0.4439533;-0.007299731;-0.006824946;0.1521388;0.11413751;-0.13798891;-0.0057461443;0.045299508;0.21304679;0.006312399;0.16126366;0.08949011;0.020666191;-0.10880392;-0.11103606;-0.17980227;-0.32843998;0.089177005;-0.0059471987;-0.015657982;0.46817228;-0.3958916;-0.37365407;-0.028521866;-0.0489215;0.022360215;-0.0461855;0.054225665;0.043924186;-0.21611616;0.14132078;-0.033276733;-0.10101396;0.06306046;0.038177248;-0.018202275;0.076880805;0.17266612;-0.011573545;0.13241433;0.061624672;0.123384304;0.11381284;-0.0095647685;-0.029897291;0.06991861;0.27034295;0.009107454;0.018979529;0.36283454;0.09770556;0.051713113;0.040983327;0.026918776;0.31901968;-0.05753721;-0.037345875;-0.00781049;-0.08066863;0.12877314;0.038753826;0.21869704;0.023595272;-0.01939376;0.4347536;-0.0320272;0.17074983;0.007582395;0.064846076;0.21075435;-0.0495128;0.16358961;0.11542522;-0.024473384;0.055032235;0.007551383;0.062096108;0.031385057;0.0501916;0.40864024;0.05653617;0.017855674;-0.03863539;0.22439936;0.008272406;-0.13053279;0.07995618;0.1874721;0.0940191;-0.04832218;0.28044522;-0.07263749;-0.0545201;0.060707055;0.08682904;-0.013391784;-0.07935893;-0.016194668;-0.07530791;0.08430013;-0.063766755;-0.17034642;-0.41022554;-0.10114143;0.05921264;-0.004877426;0.19678186;-0.012757978;-0.28246343;0.06002019;-0.022603504;0.15026593;0.25182584;0.09457167;0.0010963664;-0.17364876;0.092408136;0.08688955;-0.08116198;-0.065048784;-0.023011403;0.033753056;-0.39465106;0.06287961;0.010068408;0.056246057;-0.014589607;-0.14902848;0.31702238;0.25547868;-0.16948955;-0.034029424;0.09339187;0.118550256;0.19249283;0.07939842;0.041456793;0.1654793;0.14524193;-0.13683343;0.006929723;0.18613777;-0.44705918;0.16809446;0.10648306;0.16055717;0.008993775;0.003826394;0.059149593;0.050365813;0.019873075;0.056471907;0.0118959425;0.021542648;-0.068366095;-0.02594493;-0.020376042;0.012761322;0.054619193;-0.02596956;0.15519963;-0.03286704;-0.06316624;0.019451044;0.078498505;-0.008330644;-0.2683408;-0.010293059;-0.14430085;-0.14364797;-0.0221264;-0.013448765;0.15147763;-0.11136604;0.22917582;0.06957992;0.22585483;-0.013409407;-0.023144282;0.1990808;-0.15205857;0.041632928;0.0894857;-0.014809554;-0.0621659;-0.0018201201;-0.48869342;0.026939666;0.030651376;0.3780968;-0.15726817;0.073977835;0.10626497;-0.09410316;-0.0027119461;0.1553418;-0.014194806;0.46565723;-0.00074875826;-0.04279507;0.01563298;0.10948983;-0.13802849;0.1777423;-0.214116;0.3366336;-0.2946184;-0.054136306;-0.055219278;0.22635902;0.109715655;-0.08328578;0.055161215;-0.04642334;0.010757606;0.0390274;0.010111326;-0.13201952;0.13017799;0.10959458;-0.045419898;0.022970246;0.024937907;0.16171324;-0.074922256;-0.07551739;-0.0072358325;0.12139329;-0.025241237;-0.034121256;-0.011962146;0.15651129;0.18196507;0.047840104;-0.005503439;-0.07617253;-0.13713849;-0.34822664;0.28359976;0.11968533;0.052978452;0.27035752;-0.042948972;-0.18545453;-0.1822041;-0.044879466;0.007124574;0.19656312;0.06530567;-0.030304516;0.075041614;0.034875;0.24546766;0.0007257804;-0.24816506;-0.012082963;0.20318508;0.004858619;-0.20186971;-0.006263709;0.15529843;-0.057932068;0.008241339;0.21156901;-0.016048873;0.08797083;-0.10081851;-0.15307675;0.20698494;0.031342026;0.33142802;-0.017916607;0.04285267;0.14420988;0.08659109;-0.07104773;0.07638107;0.06703579;0.24224244;0.01705172;0.11670864;-0.03727115;0.20118774;-0.029666621;0.005970131;0.17838061;0.21708249;0.1742927;0.061193142;0.110936075;-0.040117614;0.18405373;0.008117547;-0.13974547;0.19436051;-0.07174648;-0.027595708;0.35826737;0.05584979;0.04548923;-0.061891004;-0.046629444;0.11330317;0.033418898;-0.39000368;0.15112782;-0.3715084;0.0018496219;-0.030156903;-0.058957845;0.016995644;0.1892395;0.06548937;-0.054017898;0.09468944;-0.09739364;0.011714241;-0.34169653;-0.0070908675;0.06336826;0.376804;0.0014299979;-0.0045708846;0.01943515;-0.07656051;0.051259134;-0.021382885;-0.36130595;-0.054993913;-0.20733546;-0.0073625217;0.107970186;0.021353208;0.080884084;0.19820626;-0.00039443062;0.13719696;0.018119205;-0.0015874358;-0.16061676;-0.04557848;-0.10096316;0.09720679;-0.13043182;-0.17297839;0.05092727;-0.19394822;0.1465985;0.031800326;-0.21665114
-0.15319598;-0.07234429;0.012864294;-0.39320567;-0.116664775;0.025455918;0.1166749;-0.051780473;0.30354467;-0.039894942;0.16388918;0.0002805055;-0.054567352;0.14079492;-0.23633052;0.07644176;0.060412634;0.18361646;0.06139706;0.024479557;0.085423686;-0.32042634;0.089820325;-0.0025694708;0.17680989;0.009974977;-0.0002153794;0.18029581;0.03948741;0.010760845;-0.12611303;0.28487542;0.058763828;-0.025439566;0.042535614;0.015699906;-0.005841938;0.42386988;-0.11897629;0.3781376;-0.008084815;-0.014207636;0.058933314;-0.053833626;0.14938636;0.20650865;0.0029799703;-0.03680868;-0.05810579;-0.020054918;0.13576876;-0.048790693;0.09013837;0.14024284;0.03345917;0.005812229;0.019501157;-0.07215844;-0.1481588;0.14552304;0.032597765;0.50414526;-0.06856333;0.068480074;0.0827895;0.074033976;0.17938836;0.0094494745;0.0412271;-0.081501305;0.18694268;0.06905485;0.19396518;0.15214552;0.20225464;0.13913031;-0.08355682;-0.044081848;-0.047797814;0.027979637;0.04823632;0.055714786;-0.39676362;-0.08269238;-0.10237484;0.22779347;-0.06074113;-0.008845686;0.058718007;-0.009379694;0.019937832;-0.10168665;0.039766278;0.01971471;0.046843022;0.028862434;-0.08526416;0.03397846;0.32148188;0.11500585;0.039629553;-0.08563679;0.016512047;0.073838316;-0.10522865;0.0057228208;0.0870697;-0.06871826;-0.051043436;0.03614258;0.087476715;-0.008937274;-0.09603081;0.14957328;-0.04796446;0.090056874;-0.11678497;-0.058262903;0.20823526;0.033946384;-0.18360849;-0.02744418;-0.07733472;0.069242544;0.079395905;0.03543226;0.05008779;0.21729563;-0.3022724;0.009515768;0.07179659;-0.04751504;-0.017250558;0.09641757;-0.04569239;0.035949837;0.19193268;0.08548494;-0.3540933;-0.12347123;0.022080772;0.06432848;-0.18524759;0.23974243;0.0841501;0.030712465;0.008733524;0.08786118;0.09025399;0.12037156;-0.29751584;0.0054903533;0.035649948;-0.022086622;0.14888835;0.20790419;0.02575069;0.08196779;-0.06320919;0.019454129;0.297392;-0.1868814;-0.11035215;-0.11323825;0.06791702;-0.031353973;-0.10273018;0.124136016;0.09613023;-0.07077375;0.06872748;0.11240247;-0.045111828;-0.08290674;0.012374564;-0.014234886;0.24496023;0.12909542;-0.1323724;-0.69896805;0.05781358;0.23165116;0.060230583;0.059320714;0.07029222;-0.008611546;-0.027491366;-0.020677654;-0.159205;-0.10941356;0.0018687847;0.06005123;-0.19152996;0.2270791;-0.109134175;0.042498406;0.022324055;-0.17858857;0.13555802;-0.30750817;0.37923282;-0.04288977;-0.019367699;0.000858445;0.01524754;0.029657874;0.043554626;-0.2076737;-0.21561424;0.060515225;0.30251163;-0.031461578;-0.04842774;0.055394463;0.0939144;-0.15465653;0.06586271;0.0540673;-0.084465474;0.047251057;0.008616082;-0.08270293;0.02548782;0.07432476;0.045852788;0.21377856;-0.28577065;0.0031688283;-0.06238524;0.07606686;-0.006572644;-0.093789525;-0.0358687;-0.01382513;0.03970354;-0.006904832;0.17790918;0.05765944;0.017260974;-0.010622014;0.017592905;-0.1613666;-0.22797945;0.12133177;-0.003985508;0.09140605;0.31283167;-0.26234472;-0.32262054;-0.010315575;0.033262804;-0.046225358;-0.13129507;0.040546082;-0.06067032;-0.16947801;0.07380499;0.07729182;-0.08677748;-0.0045436993;0.09339118;0.06793945;0.24950549;0.09738246;0.033558987;0.1133561;-0.058378864;-0.005236954;0.26572725;0.014727361;0.08470351;0.026376588;0.3371645;-0.08161388;-0.06149292;0.24045262;0.19291338;0.03214694;0.06116676;-0.0431932;0.1644084;0.0010474892;-0.08089731;0.009475414;0.044723574;0.11386274;-0.0021958167;0.30658683;-0.033919238;0.02004517;0.39724085;-0.15905489;0.1488091;0.11480113;-0.064545065;0.07944532;0.10362079;0.12135713;0.18916832;0.09025378;0.009444592;0.012634003;-0.055255197;-0.0044410774;0.12650757;0.3444608;0.13312043;-0.00023295911;-0.030427713;0.25202265;-0.045777008;-0.14491864;0.026416654;0.10154889;0.027886976;-0.08979139;0.25830647;-0.016899107;0.088241994;0.22142717;0.18228126;-0.028199106;-0.011561698;-0.1445177;0.032154676;0.17394915;-0.010016936;-0.11788377;-0.24526556;-0.16644426;0.0146955885;-0.03898248;0.2026119;0.09087482;-0.07072512;-0.0037370387;-0.13660245;0.113961525;0.20567755;0.089470185;-0.040347487;-0.20636839;0.104850836;0.011184004;-0.13691528;0.047964405;-0.062416144;0.047654927;-0.30250013;-0.021054352;0.06421106;0.11518352;0.08681518;-0.06743983;0.2969484;0.17491029;-0.09924397;0.0048639313;0.22342966;0.11167877;0.25543615;0.18495975;0.01797704;0.23117003;0.11525957;-0.06904556;-0.06229635;0.17493433;-0.32147822;0.11451881;0.27803382;0.17002627;0.04085089;-0.04809548;0.06557228;0.028846566;-0.014500836;-0.05149663;-0.10220374;0.07626122;0.041942164;0.029843647;0.027621442;-0.044637706;0.019559674;-0.073664255;0.09894198;0.08621197;-0.21262789;0.02200739;0.11990106;0.040346187;-0.27790883;-0.03413348;-0.09384163;-0.21258156;-0.04417117;0.07896047;0.10684276;-0.077275336;0.31388417;0.015915874;0.13463669;0.025670564;0.050437782;0.10981742;-0.13816242;0.039946694;0.013582443;-0.035998747;0.06930558;0.036890723;-0.43063787;0.05533859;0.09524025;0.33524728;-0.19380622;0.07914195;0.22176087;0.041857112;-0.047853008;0.16948542;0.0531544;0.53480875;-0.04689292;0.07694671;-0.019431414;0.21485956;-0.11456744;0.28374875;-0.16010875;0.46098942;-0.40715986;-0.031460688;0.05406021;0.21209352;0.1465688;0.09087755;0.02609799;-0.02723064;-0.049207877;0.012637048;-0.014659574;-0.12719224;0.0152385505;0.077085875;0.00070365786;0.12010172;0.06589653;0.056098826;0.076780796;-0.036060065;-0.033895813;0.20986483;0.0366221;-0.24113749;0.007649059;0.034290206;0.1698297;-0.05746713;0.06428123;-0.0010973094;-0.18804726;-0.36836693;0.29298723;0.18924306;0.019754201;0.27517024;-0.1228222;-0.34104905;-0.14329176;-0.12997085;0.017238298;0.21070182;0.19358432;0.011684339;-0.052430246;0.070814386;0.30767295;-0.0662077;-0.14149019;-0.063168995;0.20102027;-0.07082208;-0.33367172;0.018685535;0.19624865;-0.044830084;-0.010754431;0.19213483;-0.09450474;0.08715458;-0.12775432;-0.18928824;0.23611636;0.03440353;0.29033795;-0.014255443;-0.025731428;0.15501556;0.18183407;0.011807488;-0.062182438;-0.0054737013;0.25515503;0.06319127;0.20399831;0.07824763;0.25499246;0.12253412;-0.109491706;0.18163802;0.1766907;-0.0058173016;-0.009972558;0.16546564;-0.011705407;0.25851384;0.012269513;-0.18474725;0.07277512;0.03024991;-0.055839688;0.28905696;-0.034502055;0.026042385;0.046129737;0.07366284;0.0062130867;-0.036452897;-0.42739415;0.0072448645;-0.2890927;-0.016674953;0.076736584;0.038675018;0.1259858;0.21890676;-0.004102577;-0.013474825;0.011419925;-0.08076222;0.028517261;-0.27595678;0.015850078;0.0135960495;0.1687616;0.021752289;0.028109668;0.03626714;-0.064778;-0.040819667;0.080480784;-0.26221955;0.06767785;-0.17454256;-0.024468286;0.109219655;0.07991998;-0.00518903;0.1125802;0.036206096;0.13038823;0.0168036;-0.0013600861;-0.44339126;-0.005949092;-0.15644033;0.016717255;-0.0108831655;-0.23037021;-0.0001820313;-0.27773586;0.1388587;0.027079185;-0.13012634
-0.07845003;0.027494961;0.033303507;-0.39360172;0.03291453;0.0485152;0.09727211;-0.064320706;0.19021656;-0.008504053;0.030020542;-0.030736202;-0.056146145;0.1643033;-0.12678444;0.07990623;-0.05985022;0.09155447;0.051702794;-0.12108722;0.0021139705;-0.18361047;0.018292451;-0.06171939;0.12769482;-0.02979747;-0.07362925;0.27625948;-0.03647242;0.0043844404;-0.064327374;0.32149395;0.2428931;0.039511662;-0.060986027;-0.14009261;0.062189523;0.22731678;-0.11587701;0.21228427;-0.018420953;0.04637479;0.04850059;0.069154054;0.14527035;0.20015846;-0.02388345;0.0047481135;0.01431834;-0.006480915;0.14221364;-0.09625465;0.067128584;0.15970111;0.021626059;0.010292401;-0.010187094;0.05103044;-0.2393587;0.10074358;0.029126424;0.3485126;0.073514685;0.025561731;0.12053908;0.035605177;0.14184394;0.08305627;0.0365982;0.06508243;0.2227034;-0.07790299;0.066310376;0.20224181;0.3135957;0.10890074;-0.1251219;-0.07239028;-0.044873707;0.049079433;-0.013285663;0.07421806;-0.33009934;-0.07423343;0.057399;0.2043377;-0.16578442;-0.029980093;-0.0065996633;-0.031795204;-0.013133716;-0.12539448;-0.058194507;0.028174188;-0.08063721;0.058602896;0.033150334;0.051417787;0.3368726;-0.016124748;0.06337374;-0.06487901;0.030667204;0.08722017;-0.057858884;-0.018730676;-0.015548715;-0.058804944;0.07257585;-0.033657644;0.10634453;0.12621133;-0.11927585;0.18641011;-0.048907053;0.0834304;-0.22671843;-0.08456793;0.26830453;0.10726487;-0.19369452;0.01582912;-0.07907123;0.08492702;0.082975574;0.13057803;-0.003307692;0.1584893;-0.2920989;-0.05046314;0.07250334;-0.0398164;-0.049128756;0.029096106;0.022735287;0.054412212;0.1612987;0.006721424;-0.20331785;-0.08136466;0.06796857;0.017568644;-0.21422666;0.14631096;-0.030021764;-0.03412645;0.016738608;0.17114349;-0.037575647;0.034744617;-0.2950912;-0.1477484;-0.08818143;-0.055090487;0.13506924;0.25188497;-0.019519389;0.09848085;-0.109339744;0.07863574;0.18935144;-0.32290244;-0.16236842;-0.015556617;-0.0013293226;-0.029945306;-0.017560882;0.037065078;0.021598505;0.013329531;-0.003227726;0.13737318;-7.788151e-06;0.048886415;0.028332174;0.18221591;0.21159552;0.053855535;-0.18798535;-0.7595944;0.012119486;0.20334005;-0.120535925;0.08931691;-0.021098366;0.08927868;0.047688004;-0.09261886;-0.23046353;-0.028322991;0.12889765;0.034482066;-0.13864325;-0.011291317;-0.055955973;0.09373645;-0.033980977;-0.16219896;0.052164193;-0.28678045;0.26737666;0.011183541;-0.021082444;0.016973475;-0.014090791;0.17384711;-0.020863773;-0.3399547;-0.15443371;-0.07735025;0.21362926;-0.09292375;0.049669124;-0.013470094;0.10766669;-0.22331883;0.09501711;0.11124436;-0.12908497;0.0700731;0.033841655;0.054608498;0.001974108;-0.024923889;0.05573056;0.116720945;-0.22457351;0.028229143;0.007719989;0.1160023;-0.13590232;-0.085106514;-0.0397169;-0.07936031;0.032701727;0.081132725;0.1615306;-0.016530553;0.035445925;-0.011965616;-0.06960637;-0.17704436;-0.11995335;0.025741363;-0.02590478;0.011569496;0.34367397;-0.34877244;-0.44202918;9.777695e-05;-0.09940753;-0.020405175;-0.14465633;0.021225357;0.07288823;-0.2611924;0.12922393;0.01983408;-0.11800021;0.057764504;0.062017556;0.011153647;0.1260104;0.117162;-0.036464304;0.0818157;-0.016683768;0.08264848;0.18765263;-0.05068076;-0.028227372;0.073006704;0.32526293;0.03521368;0.06745147;0.33870107;0.20691945;0.029582586;0.13144524;0.041665245;0.12635858;0.03393257;-0.032680385;0.013869871;0.018785512;0.12943904;0.03948492;0.21873459;-0.11181686;-0.03401898;0.398913;-0.15801165;0.18831798;0.05542196;-0.054431163;0.21651196;0.10008453;-0.14536881;0.21798179;0.1679823;0.0510737;0.020650713;0.072780006;0.048069008;0.13060802;0.40608004;0.059010983;-0.087300755;0.022985129;0.14852318;-0.0998653;-0.1280789;-0.04500312;0.21102677;0.017588153;-0.057296954;0.19868274;0.052727774;0.08929035;0.3424363;0.11227868;0.0636638;-0.031656735;-0.063638665;0.047409654;0.13783938;0.0702011;-0.04751971;-0.32368544;-0.16612531;0.0044278293;-0.029493632;0.2910508;0.017188793;-0.18093272;-0.02450716;-0.19465719;0.06070745;0.0903631;0.07142838;0.056023415;-0.1581538;0.07467818;-0.014772965;-0.14729504;-0.057578534;0.040658716;0.09554273;-0.30392426;0.028314343;0.04928984;0.025179004;0.017510008;-0.06463867;0.21869679;0.06972615;-0.18071416;-0.055349912;0.29522315;0.03696934;0.28727537;0.19655511;0.009677779;0.2973543;0.1329855;-0.07803794;-0.021388808;0.1464273;-0.23408902;0.08212064;0.33519748;0.22357549;0.047312226;-0.06397093;-0.04841293;-0.063826896;-0.069431156;-0.05518112;-0.11161586;0.078220285;0.009566372;0.002317005;-0.018631224;-0.12206566;0.04878217;0.0005693237;0.043540005;0.016548593;-0.23875466;-0.030541627;0.16087672;0.063855805;-0.15653768;-0.030817907;-0.036953304;-0.07930205;0.07494874;0.014144306;0.034606937;-0.059287917;0.20353757;-0.07240581;0.29716152;-0.01984496;-0.047201287;0.21605349;-0.08543092;0.059858926;-0.07024217;0.058304057;0.026924439;-0.036189478;-0.37694257;-0.038665883;0.094830155;0.36821145;-0.22407666;-0.06607995;-0.0022078801;-0.06927818;0.065582335;0.074085526;-0.090248264;0.5358801;-0.0037525059;0.0007741104;-0.01070557;0.19021727;-0.007072737;0.14853019;-0.15344886;0.46140286;-0.4130726;0.005647561;0.044525873;0.25853044;0.0947568;0.039436787;0.035381846;-0.03192085;-0.035899125;0.09892289;-0.050641276;-0.12675528;-0.083317675;0.041372392;-0.054149218;0.12741958;-0.07419085;0.01979218;0.081785664;-0.03087019;-0.10076251;0.20303568;-0.015250319;-0.3209391;-0.009557813;0.1734491;0.16706407;0.06019255;-0.021064274;-0.05510547;-0.2580164;-0.34254584;0.31761265;0.09069903;-0.07520741;0.21088123;-0.022685016;-0.32174763;-0.06597344;-0.11250642;0.0498446;0.08139864;0.038337525;-0.051211186;-0.054702014;-0.015172563;0.32909563;0.022447767;-0.20722793;-0.09888881;0.20629951;-0.10088427;-0.22901233;-0.044420943;0.25500444;-0.028587295;0.023911592;0.082142;0.04305057;0.0045632534;-0.2051674;-0.1455143;0.24430309;-0.04434516;0.32173666;0.07578395;0.016119251;0.15860517;0.12098105;-0.0013791384;-0.07278602;-0.077556744;0.1527811;-0.03715311;0.14503762;-0.011793578;0.28470257;0.16013396;-0.10620201;0.17390895;0.26642215;-0.014185405;-0.013066113;0.18316357;-0.0093828775;0.27757114;0.027894048;-0.16193776;0.12740791;-0.058936466;-0.0390327;0.31201565;-0.06376427;0.11952435;0.074310265;0.011427904;0.08925382;0.016755937;-0.390872;0.06860344;-0.2931693;-0.031975802;0.0242469;0.021559665;0.084061675;0.2144468;0.05477979;0.07847596;0.033976704;-0.058449987;-0.05418949;-0.27608207;-0.03120731;0.00957359;0.19018972;0.036000315;-0.04175231;0.062769756;0.004140506;0.06636075;0.0561198;-0.19042884;-0.07453177;-0.11007412;-0.017444575;0.16711587;-0.022290584;-0.013382354;0.07022489;0.122460105;-0.07111809;0.12232478;-0.05976339;-0.48451605;-0.041522034;-0.10985509;0.08863241;-0.025057929;-0.070580564;0.009183031;-0.2848372;-0.013236004;0.071197815;-0.2884233
-0.14409985;0.13927814;0.12112721;-0.21382079;0.105841465;-0.019008208;0.11120218;0.033735577;0.1662934;-0.050665036;0.05058905;0.051971804;0.010377445;0.12770523;-0.0467425;0.10190557;-0.032757267;0.07526349;-0.034792796;-0.015713695;-0.15933235;-0.27221057;-0.024695855;-0.06585727;0.0456741;-0.16721675;0.005267465;0.28798237;-0.03828788;0.044746164;-0.057454437;0.31509325;0.2872345;-0.03059627;0.054140072;-0.062475163;0.07123396;0.3112653;-0.14015844;0.26961946;-0.14166826;0.039468575;0.19147484;0.13248724;0.046965837;0.1498372;0.054135833;-0.0021757805;-0.00033228175;0.13024691;0.12115975;0.06091779;0.14971761;0.07616253;-0.048370514;0.01819262;0.052034464;-0.07617004;-0.1307226;0.049839143;-0.023722231;0.4318011;0.0162522;0.032178532;0.09383779;0.060087588;0.22523843;0.04972187;0.02878224;-0.03498598;0.088114224;0.040437333;-0.016386153;0.1407267;0.21573107;0.04417875;-0.16113342;-0.14813234;0.041914392;0.02537173;-0.061782457;-0.053746954;-0.4026216;-0.11182727;0.0046634716;0.30442658;-0.1444983;-0.024434786;-0.018173268;0.035011448;0.093974724;-0.019306473;-0.011587144;-0.049992826;0.00884092;0.094247036;0.059580304;0.0023062807;0.19845274;0.0026821606;-0.10940967;0.08195351;-0.02350607;0.11083033;-0.0038159725;0.05000578;0.057355024;0.0016186878;0.0131315105;-0.07600545;0.13028145;0.088570796;-0.1762539;0.24684918;0.045228362;0.085717134;-0.2700225;-0.17111439;0.18459672;0.22685668;-0.14780925;-0.03980775;-0.059476115;0.18722789;0.062470112;0.014044038;0.07931324;0.08663552;-0.25175458;-0.022411607;-0.10122505;-0.036938984;0.02944394;-0.07711172;-0.004496289;0.09408766;0.23333709;-0.0381896;-0.32524255;0.026737256;0.024149602;-0.010924756;-0.098725356;0.19125861;0.1339154;0.031001702;0.08557117;0.09184685;-0.04664948;0.057526074;-0.2572587;-0.021235708;0.014471267;0.06238058;0.16978154;0.04034984;-0.014589466;0.058326397;-0.081918396;0.0037389158;0.16061032;-0.2648519;-0.1464262;0.01406423;0.07855262;0.044037893;0.011604297;0.08992567;0.0010994917;0.01284198;0.04347801;0.2325791;0.017327508;-0.015003678;0.0053137783;0.16479783;0.17068143;0.091570176;-0.15011534;-0.8317897;-0.015942503;0.08096464;0.003114509;0.16318491;-0.066752926;-0.06305234;0.041507047;-0.03247125;-0.24767973;-0.10674909;0.18676302;0.027032232;-0.26785177;0.118287675;-0.047136944;0.16052848;0.055914983;-0.0899221;-0.006918846;-0.21839954;0.3769581;0.07590945;-0.05400513;0.07677747;-0.016797278;0.121286154;0.021155734;-0.2669922;-0.1403738;0.0061058938;0.08953314;-0.0025079194;-0.018044993;0.051659163;0.15794154;-0.17300811;0.08367231;0.07663772;0.037300475;-0.0023139515;-0.028456174;0.00073072483;0.010020895;-0.07779541;-0.029736731;0.07055355;-0.09342007;0.012026768;0.039858785;0.15178494;-0.0766215;-0.037078775;0.08353783;-0.03267897;0.07736035;-0.10332701;0.21463288;0.014178745;-0.039510623;-0.0015575495;-0.020953476;-0.05009788;-0.108412914;0.1684121;0.016654184;0.10077902;0.32332888;-0.3433873;-0.456386;0.056540582;-0.01716012;0.011890844;-0.11077317;0.014923734;-0.04871916;-0.22643681;0.036440365;0.0013397709;-0.08763449;-0.0082242675;0.088309556;0.076930925;0.22098239;0.014918378;-0.053174604;0.24521177;-0.020345004;-0.08453379;0.23385;-0.045483723;0.06993228;-0.009648951;0.40204677;-0.11232126;0.03394097;0.3048287;0.057406887;0.012395176;-0.0104053095;-0.017601674;0.052208375;0.0138357235;-0.10186009;0.017506985;0.03256732;0.19866955;-0.080930695;0.17658898;-0.008531917;-0.034844685;0.42092568;-0.14689903;0.19854608;0.17886613;0.04031454;0.1047084;0.10254642;-0.17853875;0.24843246;0.1938226;0.123631544;-0.037429422;-0.056099053;-0.07613595;0.06070755;0.4747593;0.044473484;-0.014467033;-0.060342178;0.10137616;-0.12674268;-0.20095542;-0.013182371;0.22397205;0.08226729;-0.104505435;0.27659342;0.05025657;-0.033544682;0.37197804;0.15631147;-0.053423483;-0.0031031603;-0.15520346;0.0029735898;0.1989892;0.0663094;0.07937533;-0.26276016;-0.086954445;-0.055911984;0.017573753;0.25682297;0.060389917;-0.061865613;-0.06818091;-0.18662348;0.17582397;0.040807147;0.15875134;0.027881917;-0.32557353;0.13457838;-0.029766785;-0.1972524;0.03368935;-0.04849457;-0.05551755;-0.24730808;-0.13508412;0.054781903;0.038567048;0.06949444;-0.09345443;0.24085984;0.012792474;-0.08681527;0.026273267;0.08042309;0.05543196;0.30711448;0.3488301;0.03789904;0.2675404;0.04708651;-0.20843689;0.04851959;0.008744912;-0.2319649;0.05330593;0.3327938;0.20682569;-0.020718796;-0.07047427;-0.02916584;-0.039326195;0.0768172;-0.050896376;-0.03961012;-0.028953549;-0.05223311;0.012857157;0.0629802;-0.030662525;-0.013498511;0.075487494;0.08897851;0.07227979;-0.2138673;-0.05461148;0.2742835;0.22883281;-0.14312363;0.05185902;-0.12624145;-0.055874612;0.075589456;0.022252752;0.081096746;0.2024596;0.34038302;0.03773531;0.28173643;-0.00985422;-0.09903094;0.21446712;-0.040278524;-0.04279059;0.050298013;-0.002963424;-0.01723466;0.04824203;-0.35478973;-0.012066509;-0.005370301;0.25939798;-0.12683997;-0.028612718;0.11860841;0.05902185;-0.07493539;0.06427343;0.017285895;0.50142395;-0.01359791;-0.015757272;0.045401026;0.055312034;-0.020439485;0.16187769;-0.16988102;0.41690266;-0.45781654;0.05862717;0.0052811867;0.12873138;0.035679273;0.047387462;-0.060640056;-0.0376811;-0.06525985;0.09164662;-0.009229202;0.036368847;-0.13808846;0.07959994;0.056129746;-0.0063812295;-0.06291422;0.15308551;0.036525656;0.06749326;-0.13395445;0.34301543;0.05953976;-0.27002338;0.0021620337;0.12884766;0.18917485;-0.06243085;0.05119488;-0.043083288;-0.25592625;-0.33301497;0.34879726;0.12573734;0.044621866;0.29007855;0.039740127;-0.38105792;-0.14667003;-0.063584544;-0.056223385;0.20084484;0.06696123;0.058342297;0.017334612;0.02253638;0.22281224;-0.051435307;-0.25509727;-0.112391986;0.1876659;-0.19006447;-0.3804146;0.013762317;0.31703785;0.09661867;-0.048433866;0.10118575;0.08400552;-0.008466784;-0.1748495;-0.1034655;0.16273332;0.026044693;0.36346102;-0.07266388;-0.052304916;0.20207481;0.20518447;0.06660268;3.543361e-05;0.023725133;0.21568568;0.028642105;0.18083303;-0.043499105;0.28882077;0.20158897;-0.11371507;0.1330699;0.12261359;0.0071081896;-0.02555946;0.11170627;-0.046244375;0.1344108;0.020009374;-0.16947861;0.08926749;0.049143445;0.0600647;0.24645056;0.03579506;0.18553618;-0.06903137;-0.061171945;0.027373295;0.021318078;-0.34474206;0.016498877;-0.2795922;0.0287717;-0.00071967486;-0.08285701;-0.052325297;0.25669032;0.00086348667;0.04093605;-0.017342405;-0.06836724;-0.025234474;-0.1903283;-0.06962007;-0.0566424;0.14636523;-0.051667362;-0.03535271;-0.04800726;-0.06313426;-0.050453916;-0.0026259706;-0.28241742;0.006616808;-0.14481305;-0.042138927;0.1711143;0.0360071;-0.02541086;0.05538646;0.07710992;-0.17966105;0.15467995;-0.03233332;-0.62425303;-0.0065118056;-0.003588197;-0.012955191;0.016218478;-0.07498537;-0.07068041;-0.36179116;0.096600994;0.09180132;-0.26823667
-0.10992708;0.11482375;0.098075315;-0.17398429;0.019030694;-0.010719862;0.12804626;0.0368286;0.25396538;-0.0041502146;0.004207519;-0.057104986;0.061189346;0.16230938;-0.0440829;-0.014882736;-0.0007260857;0.117573604;0.029510874;-0.13328241;-0.18263718;-0.18475752;-0.026375124;-0.047506034;0.106023304;-0.12347285;-0.10211128;0.2785734;-0.025827812;-0.032362074;-0.06475564;0.30822667;0.27346253;0.061606124;0.0044380412;-0.22716221;0.06001762;0.22284971;-0.07050452;0.247739;-0.056416646;-0.023568619;0.23540424;-0.035729516;0.023768697;0.23246622;0.014577135;0.080299884;-0.033860113;0.035117224;0.06781072;-0.0111572845;0.15012385;0.08143889;-0.035493184;-0.032371435;0.07357863;0.024202941;-0.079959236;-0.027867626;-0.01959013;0.32222596;0.07164211;0.04363864;0.18127806;0.11642384;0.27619502;-0.11824261;-0.040683717;0.05553474;0.041463353;-0.0036719989;-0.08359785;0.14884634;0.32261258;0.00031280628;-0.041654397;-0.1992774;0.10491504;-0.052787274;-0.06022004;-0.041805018;-0.29377094;-0.12873648;0.02675391;0.30818206;-0.16573285;0.00963891;0.001208286;-0.03469906;0.047510073;0.123782605;0.044950735;-0.0138879195;0.055156093;0.054104533;0.039773628;0.013722823;0.20704046;0.17299783;-0.06115767;0.05600284;-0.025895864;0.075739704;-0.078647755;-0.033941146;0.153688;0.009510063;-0.08729142;0.004658992;0.11496049;0.0639687;-0.18031865;0.15795197;0.04685188;0.22337955;-0.2894259;-0.08055092;0.305595;0.13045645;-0.19277291;-0.03015471;-0.08345475;0.12581141;0.14448446;0.13436787;-0.030361207;0.058808994;-0.21525978;0.0057754084;-0.14511493;-0.034136664;-0.074677676;-0.048661754;-0.021238089;0.042645145;0.14435506;0.0054848846;-0.26566052;0.096981645;0.0017710783;0.048023425;-0.123764545;0.13463011;0.13041006;-0.046571944;-0.03929634;0.020360209;-0.047258142;0.13001819;-0.12297455;-0.036051508;-0.053295497;-0.031132607;0.10533429;0.024927646;0.05033612;0.0105894;-0.19067115;-0.1488542;0.15705763;-0.31167814;-0.1522909;-0.07170312;0.1404604;0.053684797;0.020298937;0.08532255;0.064650185;-0.030996224;-0.012519062;0.19578084;-0.028062211;-0.011747365;-0.028469583;0.021071605;0.3386611;0.035825033;-0.039138835;-0.80545115;-0.04798713;-0.0044198846;-0.05854446;-0.01337552;-0.042176943;-0.0031254375;-0.046316784;0.026333584;-0.24770841;-0.011201344;0.121326596;0.13784496;-0.08599433;0.032228928;-0.1187438;0.12611656;0.034060813;-0.16429979;0.09600263;-0.12990308;0.26162457;0.009064153;0.015015548;0.0049545;0.03322743;0.034430176;-0.10249736;-0.38290402;-0.2419099;-0.044843554;0.10958237;0.0039533954;0.011325354;-0.056489453;0.11454569;-0.11877308;-0.05329416;0.17079546;0.059456337;0.052003697;0.017330164;-0.004684997;0.17817193;-0.08886816;0.031199602;0.11525783;-0.050036084;-0.016199425;0.010306203;0.11307226;-0.013581987;0.12307642;-0.044713803;0.020748027;0.20614865;-0.106670454;0.30082092;-0.051159;0.041614596;0.17769833;-0.07971728;-0.09425579;-0.1672986;0.099984206;0.067885995;0.111631475;0.3125619;-0.22277041;-0.38646078;-0.048601605;-0.007090278;-0.043276656;-0.27847162;0.06686398;0.01623429;-0.097592205;0.10834538;-0.044377197;-0.095269285;-0.11741955;0.010091029;0.020073477;0.16676931;-0.014065701;0.00087735284;0.18254374;0.0004075218;0.085406594;0.26128262;0.089091174;-0.06551713;0.07578604;0.39658904;0.035703003;-0.04512135;0.32656562;0.11180995;-0.08019903;0.072171725;-0.0036474515;0.0058271904;-0.029444449;0.13737436;-0.0730038;0.03385591;0.15281141;0.045715295;0.21869028;-0.08264895;0.04847542;0.39314017;-0.21348362;0.08693661;0.16751273;-0.0055396077;0.22994581;0.036611892;-0.31129044;0.24253336;0.21555047;0.094565704;0.082557164;-0.014499914;0.041887213;0.19652553;0.3600359;0.018942958;0.05989516;0.10425493;0.12556723;-0.24354653;-0.07321499;-0.028373586;0.10882559;0.18341231;-0.034073792;0.2231193;0.030180441;-0.054513644;0.32828772;0.062162254;-0.06842706;-0.024680667;-0.0950467;0.034654524;0.26091743;-0.06995113;0.050816417;-0.11685796;-0.08607216;0.056581926;0.052310098;0.2215715;0.062109623;-0.029161692;0.020530125;-0.17084728;0.13595946;-0.027004523;0.17017376;-0.053442396;-0.2620787;-0.026175562;0.010595154;-0.1343218;-0.05243476;0.075391546;-0.042681973;-0.32340482;-0.08814896;-0.13370828;0.07917643;-0.13851334;-0.11679094;0.12557021;0.08435066;-0.12189933;0.0069216765;0.050758094;0.031148432;0.42628816;0.4327194;-0.061281916;0.34770125;0.16292848;-0.13015883;-0.026043143;-0.0012174186;-0.10777692;0.17811514;0.20877974;0.071677245;-0.004760796;0.0054184967;0.060853217;-0.019228157;0.018895028;0.032821927;-0.074347846;-0.05948229;0.09868188;-0.060044955;0.07224972;-0.12108155;0.033185538;0.051890142;0.032726515;-0.046586253;-0.26894316;0.07737866;0.24864219;0.1171787;-0.22456874;0.028910087;-0.07837254;-0.06534227;-0.0294193;-0.09441534;0.0686661;0.085122615;0.28667298;0.017190445;0.34061545;0.005788174;0.0020420917;0.11194148;-0.10891297;0.0053544245;-0.080239;0.028592749;0.0025607382;-0.07833407;-0.18707271;-0.049819466;-0.022882497;0.3203863;-0.27859074;0.00021086869;0.06627259;0.02471275;0.019959267;-0.0039591426;0.006499883;0.5321112;0.026529562;-0.001969363;0.07627753;0.08622493;-0.045626175;0.19376609;-0.122004256;0.48414755;-0.4507139;0.04248783;-0.0025192667;0.1994587;0.059049115;0.05478017;-0.06874654;0.045089;0.09756094;-0.003458279;0.056756586;-0.10452521;-0.19304092;-0.003064678;0.025465898;0.013501032;0.06053595;0.11461482;0.026199987;-0.02249479;-0.11057751;0.39427212;-0.031232597;-0.32150915;0.023427248;0.09329862;0.06818598;0.0016235731;-0.014881649;0.06758384;-0.27297714;-0.40284762;0.15913446;0.1461725;-0.065079965;0.1999464;0.13127238;-0.3575534;-0.13034458;-0.24118145;-0.049021356;0.07564511;0.0038207443;0.017084876;0.01195017;0.05462198;0.3526384;-0.05677416;-0.17425169;-0.074352995;0.22060412;-0.17047057;-0.28529122;0.037742335;0.3125988;-0.020395385;0.02046905;0.07318455;-0.057574052;0.07416297;-0.2224524;-0.26437142;0.11930009;-0.04736596;0.3080332;0.029388329;-0.09497428;0.15964776;0.18454853;-0.05195524;0.026541864;-0.0052888473;0.19838557;0.05551789;0.15101488;-0.049592465;0.24999653;0.2812932;-0.15704654;0.26520655;0.1947834;0.10406908;-0.097926006;0.079437405;0.0250408;0.17838396;-0.06449825;-0.2907905;-0.09388432;0.010957023;-0.049865942;0.25853086;0.05635011;0.047442317;-0.059416655;0.011640315;0.13198711;-0.0041178367;-0.25982416;0.17235804;-0.20830475;-0.069691986;0.089271545;-0.039176963;0.07453927;0.25221464;-0.012419735;0.097652525;0.0007470666;-0.20556445;-0.0577429;-0.1942117;0.06798313;0.03191107;0.16046238;0.019277455;0.0711718;0.017528076;-0.031115705;-0.007506563;0.04470641;-0.26708904;0.07948664;-0.19738126;-0.2353317;0.14945011;-0.059948683;0.033808902;0.077357285;0.09286635;-0.14109352;0.2285779;0.047457203;-0.57982326;-0.034224294;0.018622203;0.17278495;-0.008761935;-0.024530126;-0.0025913464;-0.44687855;0.103159115;0.09176443;-0.21392795
-0.11724873;0.10479918;0.16900112;-0.15688916;-0.0948495;0.031162038;0.08797039;0.05081821;0.16979732;0.07203556;-0.0031709988;0.07750331;-0.0035759828;0.33337995;-0.015207516;0.17397705;0.021626081;0.15228435;0.010908324;-0.111861944;-0.12115932;-0.15002915;0.01726217;0.07993135;-0.07429242;-0.05482437;0.046106264;0.25487155;0.023000464;0.070579864;-0.07462685;0.2788443;0.1758252;-0.0458357;-0.0129766185;-0.13873348;0.002327216;0.047439124;-0.061389998;0.28632814;-0.076926544;0.015768055;0.07645416;-0.036581833;-0.039439183;0.27575895;0.050340343;0.07214087;0.07455682;0.050333798;0.12607808;-0.049496323;0.14338456;0.07597089;0.02884345;-0.049762845;0.088104725;-0.005445468;-0.043589614;0.06830547;-0.043844678;0.2960576;-0.005259888;-0.0720069;0.11275253;0.12522575;0.22545378;-0.15967683;-0.08479141;0.046688274;0.0891401;0.04645885;-0.11036401;0.11894561;0.26193643;-0.02741349;-0.09678078;-0.17865898;0.13220383;-0.03697269;0.017685223;-0.004301268;-0.31392822;-0.10278948;0.017993776;0.25947073;-0.22940032;-0.055905197;0.06914701;0.01761287;0.080367744;0.013383886;0.0717224;0.036975432;0.04910288;0.09703793;-0.072053485;-0.065791555;0.33813304;0.15742348;-0.094271965;0.032929886;0.0013887722;0.08210439;-0.014166528;0.028896136;0.1424976;-0.032863438;0.06896536;0.08101439;0.029624565;0.032460064;-0.19145076;0.16725387;-0.04633127;0.17038253;-0.2453565;-0.17959137;0.21386074;0.21975552;-0.22288413;0.048053768;-0.09607833;0.01995741;0.074235134;0.0534822;-0.0059594507;0.022108788;-0.18044348;-0.035823494;-0.14061522;0.09713313;0.055084866;-0.08135035;0.0032666512;0.14872585;-0.018070135;0.006746027;-0.2214846;0.09608257;0.010042433;-0.007257395;-0.15307221;0.15962426;0.116609864;-0.032131758;-0.0011076403;0.11696076;0.052387357;0.10049231;-0.13796401;-0.06664678;-0.047156993;-0.0411598;0.13486491;0.0074333353;-0.0043112505;0.15512136;-0.011003866;-0.23568663;0.19027685;-0.31128442;-0.071194954;0.034781825;0.028455365;-0.013406017;0.050766;0.10601995;0.03382635;-0.06339236;0.024872163;0.14896773;-0.017277451;0.008214402;-0.026330756;0.16761301;0.19447832;0.108568385;-0.06348391;-0.61500424;-0.03965273;0.071396805;-0.10437878;0.052541256;0.054556392;-0.009161631;-0.014097627;-0.035248525;-0.2013533;-0.060215447;-0.015292265;0.1142394;-0.16221388;-0.08443663;-0.17361957;-0.026199853;-0.029911168;-0.13217397;0.0021396535;-0.14963652;0.16410083;-0.059474286;0.049898252;-0.030845828;-0.091384485;0.09107994;0.052703384;-0.4856958;-0.32829505;0.044609323;0.1886247;-0.0104445275;-0.076114625;-0.008395036;-0.042620417;-0.23005392;-0.033396803;0.28482243;-0.019114863;0.01699085;0.14641088;-0.15171812;0.1387464;-0.17938116;-0.09278461;0.18107507;-0.058052152;-0.053774256;-0.025502447;0.18584703;-0.11338774;0.09574546;0.09197825;0.050141625;0.30234164;-0.025831083;0.31292063;-0.029657042;-0.05284221;0.056415163;-0.097970404;-0.0435946;-0.15181229;-0.032154866;0.037483953;0.10551326;0.32110614;-0.29847863;-0.44021454;0.047510743;-0.0038298054;0.06475085;-0.1822216;0.04911332;-0.03680093;-0.16426428;0.14565353;0.047005262;-0.12309377;-0.025387198;0.080798805;0.11946493;0.2676956;-0.05591245;-0.017187439;0.20662345;0.053927228;0.07734135;0.20717311;0.06367028;-0.056095272;0.048227455;0.34192276;-0.12950923;-0.028843883;0.23957601;0.12858066;0.00943786;0.11203856;0.0033874614;0.06906084;0.13352937;0.10662767;-0.11098668;0.039070953;0.08739362;0.060996037;0.14410724;-0.04168303;-0.028028203;0.30971;-0.037315268;0.110319585;0.2171479;-0.025630204;0.21721567;0.15557216;-0.22808374;0.23485713;0.0942547;0.19081505;-0.06050206;-0.0074439226;-0.043543275;0.086383946;0.46695665;0.064200535;0.04570158;0.039601047;0.17493497;-0.23856698;-0.1530879;-0.021542637;0.18067937;0.1792776;0.09734744;0.15274534;-0.007819099;0.031163841;0.3318856;-0.0090229735;-0.011688598;-0.066579156;-0.06994483;0.00894556;0.21128212;0.023886941;0.028392565;-0.12137486;-0.16974853;0.20972452;-0.012056013;0.009994645;0.028255774;-0.08626502;0.055151723;-0.301692;0.13327119;-0.024504343;0.033138365;0.005376219;-0.3110795;-0.018568711;-0.10215257;-0.17152308;-0.071319;-0.037998606;0.041780535;-0.37694624;-0.0061952947;-0.044999927;0.12356245;-0.09746321;-0.14326124;0.23759076;0.11930704;-0.11980912;0.028075622;-0.038022313;0.0007435962;0.39093062;0.3688523;-0.0021700521;0.31629145;0.07582832;-0.21288534;0.02493826;0.11495447;-0.26129907;0.044052508;0.29868007;0.11235005;-0.07603563;0.04829775;0.02592764;0.05412509;0.0014670229;-0.050428703;-0.026756808;0.0038197641;-0.017487867;-0.107705615;0.06830741;-0.09998655;-0.074573025;-0.05407137;0.061290625;-0.027981495;-0.14907041;0.042449582;0.19521047;0.21590245;-0.24616604;0.070410274;0.12125868;-0.025790809;-0.058085;-0.1956063;-0.09848937;0.08544798;0.09520877;-0.042383946;0.19904934;0.052059554;-0.116883695;0.11667842;-0.06150258;-0.020318123;0.0013400649;0.04833043;0.07203106;0.07153294;-0.29393694;0.036222417;-0.035000052;0.34595963;-0.20493546;0.005276984;0.07956202;0.0029728464;-0.022529984;-0.014090693;-0.09086895;0.38595948;-0.0043734624;-0.07985055;-0.060465448;0.056245964;0.022243245;0.010569938;-0.0063806856;0.403534;-0.3718891;0.045275036;-0.079855666;0.15510285;0.015214504;-0.025420373;-0.15750542;0.02826519;0.01565232;0.07448358;-0.08159907;-0.018075567;-0.15332875;0.068097256;0.016962739;0.0059997234;0.049181275;0.1996154;0.03532478;0.037233558;-0.08872441;0.36219424;-0.051431086;-0.37447324;0.016416408;0.15546253;0.06260842;0.023701651;-0.0563782;0.017745692;-0.33290192;-0.30739552;0.10149284;0.13237509;0.03862489;0.2280299;0.092574306;-0.14341098;-0.14803776;-0.28866842;0.059613142;0.040078264;-0.05119701;-0.059842583;0.04088973;0.09892819;0.29729;0.07442337;-0.03904732;-0.07289738;0.09834899;-0.21318112;-0.2823387;0.04389427;0.17384346;0.09979416;0.019060181;0.07076769;-0.0765812;0.13131866;-0.16989096;-0.18685097;0.28694758;0.03581475;0.45444438;0.025445623;-0.092534915;0.21533689;0.3168141;-0.015292575;-0.059915062;0.028974148;0.14682695;0.014577313;0.040897325;-0.044822264;0.16118845;0.25401133;-0.07302684;0.1538906;0.0650742;0.12550625;-0.053764;0.22238605;0.011349714;0.20354891;-0.041333698;-0.26832327;-0.10036942;-0.036033787;0.04626636;0.23688406;-0.0005164873;0.038150106;-0.030932551;0.036505103;0.09354976;0.07371827;-0.19619167;0.12946472;-0.033149824;0.020110559;0.06883034;-0.021136828;0.1506842;0.21509239;-0.071477905;0.13734953;-0.07624264;-0.1816974;0.05197347;-0.05156634;0.06241317;-0.037667464;0.14970382;0.03130301;0.15464213;-0.022030171;0.114594236;-0.081858054;-0.04901416;-0.17463256;-0.07331146;-0.042084925;-0.19289489;0.19646342;-0.047311954;-0.022325981;0.054618165;0.25659388;-0.2453325;0.1270461;0.014611035;-0.5460393;0.06507615;-0.09206687;0.18221392;0.041370306;-0.03364708;0.06482026;-0.4164986;-0.044691015;0.06139833;-0.13856083
-0.14922854;-0.011739156;0.21332973;-0.14821588;0.011217295;-0.02234373;-0.03890364;0.025786141;0.13806875;-0.016104143;0.0030045083;0.1849717;-0.06584807;0.35319287;0.028434526;0.05901805;0.034087647;0.1458734;-0.0485505;-0.07621209;-0.07934367;-0.10483865;0.069607355;0.030762974;-0.021150555;-0.11433334;-0.05948931;0.30355382;0.020821454;-0.04142626;-0.03411677;0.3436669;0.20105845;0.028362071;0.017528182;-0.20664793;-0.031284012;-0.041034345;-0.12828575;0.2604944;-0.03534038;-0.06389559;0.091303915;0.019117348;0.05279055;0.20652728;-0.03259265;0.008405874;-0.036552094;0.07275532;0.06013979;0.060642894;0.06096696;-0.027108127;0.00095397787;0.04130394;0.084084496;0.065184474;-0.12593797;0.012838091;-0.010377976;0.1983618;-0.03766596;-0.02437001;0.15590365;0.1669836;0.24402028;-0.14189592;-0.07819686;0.026264152;0.023026574;0.08889325;-0.04230415;0.030509835;0.11533896;-0.08735396;-0.20384586;-0.35530534;0.25048795;0.042888153;-0.0059407246;0.06486391;-0.42722648;-0.030251112;0.006309228;0.39371833;-0.04811733;0.03043129;-0.0136610055;0.020340709;0.15065777;0.11884124;-0.05698473;-0.004306184;0.043594193;0.20056441;0.034144428;-0.03682297;0.28391957;0.014710593;-0.046829727;-0.067258224;-0.053130753;-0.036720898;-0.021779595;0.020353083;0.08860719;0.0127561595;0.041727934;-0.057003543;0.07401916;0.13453792;-0.24056381;0.115435414;-0.05174072;0.20533614;-0.24029317;-0.16920964;0.2551997;0.25074983;-0.1516455;-0.047798418;-0.010732019;-0.052153397;0.008501966;0.08634002;-0.056659333;-0.0917055;-0.27830186;0.04022233;-0.11139855;0.045470126;0.027409734;-0.12873694;-0.007921933;0.08682113;-0.07330189;-0.008267911;-0.4091977;0.12567626;0.014847615;0.0380606;-0.06297395;0.14678815;0.21997598;0.07206134;-0.06876045;0.00082436245;0.017717414;0.15262915;0.023633026;-0.09880485;0.08847199;0.08209285;0.118171714;-0.00973943;0.0015464325;0.14816542;-0.0011787734;-0.23624319;0.11246042;-0.5410836;-0.17428684;0.15082054;0.021958983;-0.031772517;0.095241174;0.07506406;-0.07049265;0.073132284;0.053159572;0.14149104;-0.025862642;-0.07472385;-0.04610608;0.14567313;0.24544142;0.063857354;-0.16057566;-0.6767097;-0.03569463;0.0013038622;-0.037057918;-0.09481326;-0.013137776;0.02261816;-0.028146597;0.05212442;-0.27004632;-0.083952814;0.01747345;0.0783989;-0.16112752;-0.047836684;-0.011456428;-0.11243178;0.00017173227;-0.14406262;0.09945933;-0.15445408;0.25743988;-0.022784568;-0.015416728;-0.044150252;0.010978965;0.11469412;-0.10080253;-0.49140406;-0.23710446;0.017142273;0.05848199;-0.017316334;0.03842041;0.09269558;-0.08475001;-0.13778108;-0.049693156;0.28268045;0.036930393;0.039481893;0.025026383;-0.15843599;0.13673732;-0.38449273;0.05645701;0.25235772;-0.052640434;0.07582416;-0.044867977;0.205789;-0.038289793;0.012105359;-0.052680757;-0.048595022;0.20162015;0.060550317;0.31345066;-0.043445546;-0.027143937;0.1354583;-0.0031222254;-0.062090445;-0.26771075;-0.021519056;-0.050143544;0.027988506;0.24746133;-0.27975422;-0.34652752;-0.008035651;-0.079276666;-0.004056345;-0.22408716;0.04359612;-0.05286734;-0.20674455;0.23792432;-0.029698953;-0.10880882;-0.00809592;-0.019158;0.13136934;0.40672913;-0.011117383;-0.0025997814;0.26836735;0.040882442;0.0457478;0.09746631;-0.010514487;-0.012470599;-0.01306324;0.16538674;-0.11944264;0.011501499;0.13212782;0.11288699;-0.07598216;0.24335423;0.03718632;0.013277001;0.18036011;0.23723547;0.06061631;-0.0076577584;0.16687244;-0.08075156;0.013961288;0.038851466;-0.0070425863;0.30501667;-0.14067203;0.022699766;0.15591165;0.085800745;0.1852176;0.1272635;-0.24144137;0.31888962;0.18517484;0.16957481;0.065816164;-0.0268807;0.009109106;0.21266676;0.45338714;0.09216658;0.006810223;0.115482435;0.2269884;-0.25334287;-0.07207243;0.04098577;0.17456192;0.12912497;0.09014283;0.14866503;-0.02505181;-0.025447806;0.25608715;0.0010905861;0.06605226;0.0094899945;-0.06384039;0.013326059;0.30884907;0.013975083;0.045914587;-0.20699704;-0.12737416;0.15490037;0.02262334;-0.047247335;0.025338296;-0.1650044;0.02924943;-0.18176761;-0.027395552;-0.11396128;-0.11427295;0.003969395;-0.3379609;0.070756905;-0.03906123;-0.21736962;0.06297483;0.043737333;0.017759793;-0.27993554;-0.031275883;-0.15492827;0.13186562;0.031798314;-0.20445463;0.19210632;0.04704518;-0.035899952;0.0065400335;-0.31128436;-0.03249762;0.34193712;0.53030866;-0.03328011;0.22144434;0.09700976;-0.24497211;0.044266414;0.009340737;-0.19761477;-0.01826142;0.29007348;0.02690775;0.07837683;0.053041324;-0.056692198;-0.0353113;0.071664006;0.051160526;0.061454806;-0.015088919;-0.015874473;-0.096812345;-0.06726532;0.04769524;-0.053117447;0.016276991;0.10097886;0.016574983;-0.20128886;0.056987878;0.22474425;0.17414339;-0.16468912;0.05667244;0.1351674;-0.16044968;-0.02717471;-0.19669172;-0.08603734;0.051191226;0.08951412;-0.015097266;0.33327153;-0.032819282;-0.04481808;0.0957069;0.026152661;-0.061554115;0.07382222;-0.05083455;-0.05117376;0.05834574;-0.13793737;0.092597984;-0.06428115;0.16043265;-0.19453041;-0.019871406;0.08373298;0.048539717;-0.10666283;0.050116252;-0.031796515;0.3736485;0.05397705;0.045934234;-0.033343285;0.0654727;0.030017994;0.08391173;0.07661507;0.35814813;-0.29034302;0.00792329;0.059988786;0.1490277;0.008883217;-0.03330645;-0.22711274;0.025751118;0.007658725;-0.038039137;0.01932782;0.02297876;-0.26962033;-0.025173245;-0.055039324;0.03154875;0.028750747;0.10884297;0.11507168;0.043349195;-0.029104823;0.44129413;0.04609953;-0.21658146;-0.057167917;0.091886766;0.06714508;0.06332471;0.08382591;0.055341244;-0.32228392;-0.19497018;0.2351004;0.08787423;-0.040081482;0.08867151;0.14997047;-0.20178638;0.061177224;-0.26651108;-0.022195136;0.024905266;-0.099950835;0.03604597;0.011167727;0.15820241;0.3147447;0.024712797;-0.088305764;-0.014374707;0.15798996;-0.26025254;-0.2213406;-0.055107836;0.14532438;0.10952614;-0.03376431;0.07305004;0.06435292;0.123195864;-0.30278537;-0.30737558;0.28715947;0.037686545;0.4577584;0.0077027488;-0.14284487;0.13141507;0.2696863;-0.041047882;0.06859159;0.06305572;0.16017759;-0.04762258;0.118831724;-0.031761643;0.2679542;0.24052484;-0.06996017;0.010206048;0.18446904;0.09497495;-0.15733191;0.22412464;0.025341287;0.15830189;-0.00061702525;-0.25850114;-0.054622333;0.029121174;0.014820765;0.14655857;-0.07745086;0.09841686;0.038018636;0.04621447;0.03120751;-0.03821828;-0.19216263;0.05691002;-0.025401296;0.028757878;-0.05460319;0.018092638;0.20626959;0.27380997;-0.0065736165;0.09145474;-0.012489847;-0.23540874;-0.015056561;-0.100235276;-0.066789925;0.025074434;0.24667767;0.026593799;0.015512415;-0.027426416;0.12835048;0.031285513;-0.062691264;-0.1953145;-0.026839502;-0.08566177;-0.21695639;0.24401096;0.075167544;0.008907655;-0.09530637;0.26538438;-0.298821;0.085988596;0.024482395;-0.48520467;0.021878008;-0.046442293;0.21360873;0.055039287;-0.0024843384;-0.049769804;-0.30782416;0.05670866;0.120209046;-0.14005978
-0.08003655;-0.05176054;0.10359977;-0.037604447;-0.036524378;-0.09136004;-0.11336156;-0.09268997;0.2286591;0.0077952184;-0.07856789;0.1543221;0.041715737;0.28615323;0.014941459;0.13299239;0.03949385;0.075314835;-0.041106503;-0.102696896;0.015318477;-0.092231914;-0.040704988;0.021916816;0.0014207935;-0.20497128;0.17003852;0.15576555;-0.044741012;-0.053032327;-0.13870212;0.39376622;0.23066929;0.01175987;-0.018282892;-0.23926014;-0.062205646;0.0036352728;-0.09770905;0.16236198;-0.114242226;0.05831752;0.093763374;-0.06054253;0.030176148;0.2027595;-0.012301172;0.026345044;-0.008666547;0.010731132;0.009008713;0.062293034;0.17338212;-0.093249366;-0.010163046;0.08228283;0.07959077;-0.04329808;-0.0710664;0.070476145;0.06888438;0.14363636;-0.028095122;0.050567716;0.061911847;0.082182124;0.19310291;-0.20750952;-0.0057305982;0.08143408;0.104923755;0.021488804;-0.11427762;-0.04269424;0.22802548;-0.14067088;-0.19191848;-0.26956522;0.15154056;0.014612717;0.04067211;-0.0044608633;-0.33422878;0.056688067;0.006035011;0.29075268;-0.0058355797;0.05311733;-0.023940664;-0.06699629;0.18739478;0.032684356;0.025265872;0.11636569;-0.06596241;0.1482652;-0.062498707;-0.018130256;0.17676032;-0.018634023;-0.08012173;-0.033139873;0.05291585;0.07990673;0.091778435;0.02028505;0.09289559;-0.015799915;-0.07838548;-0.010259088;-0.021982161;0.10748951;-0.2616894;0.20325631;0.045482136;0.12715212;-0.16250943;-0.022755727;0.18367393;0.19738814;-0.1780018;0.0060366904;-0.10762771;-0.039070357;0.10945436;0.113094494;-0.0888879;-0.02690652;-0.28285652;-0.0501022;-0.08445338;0.09910752;0.06315276;0.019888673;0.04409656;-0.025897853;-0.03584175;-0.037182998;-0.45056486;0.23464686;0.058881577;-0.013673753;0.0021208967;0.054676745;0.073673144;-0.0012833124;0.009879129;0.07055851;0.07260636;0.061036523;0.09733789;-0.13510458;0.020764623;0.015179743;0.20119798;0.011372667;0.008242521;0.19052102;-0.059704192;-0.479625;-0.07378783;-0.51892895;-0.037402254;0.17650428;0.031697206;-0.029894814;-0.019317517;0.061888807;-0.02700369;0.019888973;-0.029689636;0.10271634;0.014450598;0.02610577;-0.012466442;0.041439455;0.3058243;0.028420918;-0.1311963;-0.61541224;0.051495686;-0.0003466918;-0.15785019;-0.025507646;0.04881068;0.038377367;0.06257632;-0.053471137;-0.33349302;-0.15032764;0.039384708;0.14177608;-0.086778216;-0.08963205;0.03074958;-0.10408602;-0.03261166;-0.1904451;0.04122888;-0.04129198;0.16771393;0.091920555;-0.031930465;-0.014940272;0.03791412;0.1115806;-0.019304046;-0.6497508;-0.38955066;0.06491829;0.17211124;0.023912892;0.02403662;-0.026341148;-0.12985067;-0.0857283;0.037499446;0.21980225;0.07788675;-0.15407671;0.09413965;-0.22534439;0.1189348;-0.32269612;0.024690207;0.180157;0.09180431;0.035362724;0.08914961;0.20478801;0.06641715;0.09229922;-0.0480928;0.04618732;0.33549306;-0.018478392;0.3320806;-0.017731382;-0.07200285;0.18182352;-0.10091038;0.054120943;-0.17080522;-0.02761975;-0.0067828363;0.06685071;0.28093958;-0.35830227;-0.29114145;0.062899634;-0.054467633;-0.051986717;-0.22404397;-0.07387507;0.059081845;0.012612533;0.1296451;-0.011034452;0.06474089;-0.10409912;0.08231986;0.17311022;0.30835307;-0.12154153;0.06666618;0.23779772;-0.03199488;-0.050720677;0.12021218;-0.06897048;-0.032428306;0.07460094;0.16503815;-0.11467217;0.058522157;0.06394772;0.06405207;-0.004943869;0.25762737;0.022261452;0.04071593;0.187796;0.29733503;0.047558542;0.034916002;-0.03157937;-0.0020599714;0.038847204;0.07383537;-0.02659174;0.18655756;-0.09607057;-0.009537504;0.23523024;-0.041556142;0.19473445;0.12788165;-0.32341054;0.37261555;0.22444764;0.16611765;-0.059883174;0.06916568;0.02234457;0.048599277;0.3491568;0.089537285;0.043012284;0.06546268;0.23265955;-0.3087373;-0.18768267;-0.036970574;0.048362147;-0.017191665;0.0080117;0.17480245;-0.03737397;0.046379205;0.29591355;0.050832175;-0.016911374;-0.03399876;-0.13085023;-0.0025208632;0.2800698;0.017032687;0.016368812;-0.1064111;-0.024085509;0.19343606;-0.02391657;-0.038927022;-0.06862313;-0.16012704;-0.06218444;-0.26068124;-0.07912072;-0.070835814;-0.1545444;0.024910202;-0.33890495;-0.044321254;-0.12011879;-0.17787194;0.009466813;0.04749461;-0.08384178;-0.36145997;-0.015071549;-0.09058182;0.020287273;-0.0945011;-0.19085653;0.13592534;0.13328648;-0.0067676906;-0.007705868;-0.28997478;-0.019935949;0.3639255;0.42775944;-0.008795129;0.25087056;0.05375792;-0.47072133;0.016660085;0.005182071;-0.25078037;0.12633844;0.30941567;0.15496862;-0.019978553;0.028670602;0.009301197;-0.044388503;-0.057296146;0.049622018;0.011315634;0.01629589;-0.03668141;-0.13519233;-0.056337427;0.020758973;0.003846754;-0.08776516;0.019211607;-0.039200127;-0.021872388;-0.03309203;0.06882786;0.18500747;-0.20691273;-0.037122414;0.1673783;-0.10309296;-0.009640885;-0.26344794;-0.16897856;0.15560003;0.13526922;-0.03539215;0.32993075;-0.0520551;-0.09127168;0.15556479;-0.12004928;0.0152165955;0.014351057;-0.041501913;-0.024538036;-0.06684377;-0.19730325;-0.003589998;0.07835463;0.13104424;-0.19419825;-0.04004151;0.13910468;-0.10019875;-0.058770746;-0.0427702;0.029563215;0.34449184;-0.08217953;0.033810757;-0.07366496;0.064716585;-0.0064712963;0.041250806;-0.03369113;0.318856;-0.31643656;-0.06626812;-0.024700401;0.2154384;-0.061279926;0.08369073;-0.20808376;0.029081706;-0.050262205;-0.07689772;0.04060889;-0.013065268;-0.20290788;-0.010489505;0.03978852;0.1559903;-0.084530905;0.17332996;0.09600195;-0.032094765;-0.074692905;0.33312112;-0.0257819;-0.3045761;0.02345711;0.12842044;0.20884125;-0.07127343;-0.021387411;0.026138946;-0.34543037;-0.17852385;0.23168176;-0.07723601;-0.0006582789;0.11895997;0.21929897;-0.13445379;0.09050047;-0.40059036;-0.037263557;0.12781821;-0.07099723;0.0016017258;0.028955929;0.1393807;0.21716116;0.07618964;-0.11596547;0.013283991;0.119223595;-0.33911186;-0.26547858;0.019194132;0.10497421;0.026841154;0.04071845;-0.12471634;-0.026702791;0.08299329;-0.2053959;-0.33980444;0.16046715;0.02834523;0.457956;0.037125044;-0.14812925;0.059733275;0.33817363;0.013749127;-0.043410495;-0.09468476;0.14416376;0.056325864;0.09508624;0.043730028;0.16101521;0.15331407;-0.101541616;0.11183885;0.16669402;0.11171414;-0.034074932;0.19247396;0.03667324;0.22487594;-0.001124253;-0.26059914;-0.21048708;0.0156789;0.024961531;0.21989842;-0.0008307305;0.05442881;0.022516523;-0.067716934;0.092437476;0.04948731;-0.24068907;-0.02707247;0.029667245;-0.03354539;-0.08132529;0.03008885;0.25681752;0.28368652;0.04148032;0.21513513;-0.16100956;-0.16316053;0.060869183;-0.019257521;-0.062514305;-0.051077496;0.13823286;0.036458474;0.10876802;0.076219484;0.14702952;0.0426582;-0.043197602;-0.2794419;0.04756228;-0.08910483;-0.31574324;0.26348966;-0.03131441;0.010672498;-0.10899545;0.37290105;-0.38121417;0.10475104;-0.0011672812;-0.51992154;0.033778675;0.017164357;0.17905469;0.061821967;-0.049113315;0.066904016;-0.30735466;0.1463084;0.1160739;-0.1417676
-0.055769283;-0.14339119;0.16984826;-0.12542021;-0.04739807;0.035856698;-0.0057547716;0.01996044;0.11114575;-0.029517272;0.023099888;0.16571979;0.051030915;0.21827361;0.101936236;0.14575113;-0.04876502;0.083391584;0.04970006;-0.057526547;0.08619807;-0.077301726;-0.0251646;0.06013279;0.032823633;-0.11123807;0.208728;-0.024973346;0.054433607;0.08055332;-0.038990147;0.31929806;0.12567388;-0.068920046;-0.013132477;-0.16803187;-0.12124115;-0.21517162;-0.08994547;0.21881096;0.012358906;-0.045492824;0.02009299;0.040554408;-0.0062072007;0.26567435;-0.023077626;-0.022142554;0.057678334;-0.09567485;-0.10061229;0.0079576345;0.1012855;-0.051661145;0.0016749095;-0.05710815;0.011743199;0.054756135;-0.11080201;-0.05108554;-0.011078262;0.091313064;-0.08461249;-0.0072142654;0.075534426;0.19967549;0.25960252;-0.21899556;0.017157566;-0.10006882;0.011955979;-0.017726853;-0.08850114;-0.06970527;0.056431543;-0.1468797;-0.15323138;-0.20911954;0.15191458;0.07391423;-0.050711215;-0.066807084;-0.42937046;-0.0016042441;-0.06551728;0.3324058;-0.072174504;-0.087881126;0.054960072;-0.036829386;0.11884937;0.07156738;-0.012433246;-0.011045406;0.073110215;0.28055394;-0.0015320113;0.015170174;0.28837755;0.017423244;-0.15740909;0.03467693;0.006249309;0.08887162;0.11811815;-0.06447562;0.16047221;0.040228024;0.05583381;-0.0034650862;0.100090764;0.15258296;-0.15088527;0.15917121;0.057253446;0.13404544;-0.18199457;-0.1109898;0.26847577;0.24542429;-0.25598052;0.018909078;-0.12509073;0.052734368;0.009543209;0.08722712;-0.20084406;-0.099791765;-0.22450256;0.050790843;-0.13606979;0.028073195;-0.047520272;-0.13486539;0.0011422343;-0.025711263;-0.12278243;-0.019397292;-0.5233668;0.2771397;-0.053762108;-0.017538438;-0.0032051145;-0.06737578;0.12721126;0.07678793;-0.04749588;0.038141966;-0.026686901;0.11461136;0.0050553065;-0.08989925;0.053016473;-0.05099991;0.13346583;-0.10058631;-0.018663555;0.075492784;0.0013969473;-0.4442683;-0.07281556;-0.47279605;-0.06916287;0.10381295;-0.14010464;-0.016076583;0.033674955;0.20078795;-0.0788695;-0.025888596;0.035757717;0.0959668;0.07336311;0.035478882;0.03495754;0.08582275;0.37588215;-0.053861964;-0.12420611;-0.5452851;0.0021933008;-0.1105619;-0.12297277;-0.10458533;0.029760033;-0.10588164;-0.013465647;-0.15116617;-0.21380977;-0.011173479;0.16481301;-0.02639902;-0.0804294;-0.1082171;-0.098403096;0.03916585;-0.012165458;-0.09380941;0.0030292217;-0.07131573;0.006163304;-0.024700776;0.023026347;0.069632;0.01265679;0.27329627;-0.13093431;-0.5063248;-0.3186189;-0.05645748;0.078915305;0.07020913;-0.019252563;-0.04189158;-0.07833492;-0.15576637;-0.0151541345;0.32174945;0.10479278;-0.10359314;0.117694505;-0.26917583;0.22925487;-0.3832438;0.00018864598;0.29597285;0.0701925;-0.042791195;-0.0072551593;0.12591264;0.023382163;0.047282986;0.044692766;0.03132439;0.33930808;0.11372041;0.38530475;0.05062081;0.048267808;0.09985702;-0.037278436;-0.00077729096;-0.25920063;-0.08140886;-0.044203527;0.016079249;0.16390783;-0.28311604;-0.3197062;-0.059837796;-0.027864944;0.093219064;-0.30136847;-0.066100135;0.061515324;-0.10206463;0.23889692;0.006206963;0.036473397;-0.13491769;-0.032811813;0.15692806;0.41914865;-0.09789218;0.04866083;0.21423154;-0.0074140616;-0.03177521;0.21290095;0.040633716;-0.042966064;0.007999706;0.19449787;-0.053450596;0.044320665;0.046185758;0.10189527;0.01118998;0.25038242;0.03754609;0.1539112;0.072736524;0.30432737;-0.060759645;-0.07252618;0.05520131;0.07866346;0.076840445;0.007869012;-0.024221694;0.26249993;0.00651985;0.007664918;0.28689286;-0.01164819;0.1634259;0.105211936;-0.3156676;0.25249937;0.2867756;0.13401085;0.04513169;-0.038626388;0.05065162;0.044098485;0.46092486;-0.0017929921;-0.01603426;-0.005851607;0.3943517;-0.32518476;-0.15678908;0.04797022;0.09643803;-0.08606448;-0.040736683;0.117357686;-0.020646883;-0.060374342;0.30010298;0.08690703;-0.02110899;0.040504392;-0.13371022;-0.061261743;0.35992292;-0.06423987;-0.0894661;-0.13167994;-0.036417264;0.18432285;0.052676424;-0.11521378;-0.050875824;-0.14290626;0.04631402;-0.25451386;-0.013944855;-0.102730654;-0.13562594;0.03223567;-0.17620577;-0.08007658;-0.005804053;-0.21346603;0.02656813;-0.024762258;-0.017260743;-0.40966907;-0.004591289;-0.15027706;0.038081374;0.06246611;-0.28089723;0.19731717;0.008052929;-0.04080294;-0.036735613;-0.40150902;-0.05656057;0.27028325;0.44438937;0.03621985;0.2840324;0.058046393;-0.3968885;0.017527208;-0.0153662255;-0.16754694;0.03150287;0.3533562;0.18673103;-0.046795476;0.01359957;-0.0482059;-0.016636753;-0.0040338626;-0.08981374;-0.008908366;0.05154169;-0.018490855;-0.1084616;-0.0485434;0.06451569;0.021124003;0.061073255;0.11870457;-0.13462836;-0.06448699;0.07029633;0.09848869;0.30123428;-0.121057905;0.018937638;0.11456913;-0.089841865;-0.049624432;-0.29663312;-0.0353305;0.12206512;0.0860796;-0.029054495;0.36279684;0.038484298;-0.14867364;0.09005625;-0.029417759;-0.08144532;0.0065293685;-0.03297541;0.012260699;-0.027125597;-0.14792801;-0.0069538765;0.098167896;0.20940204;-0.17464066;0.006716188;0.019289663;0.04797213;-0.15202591;-0.16085565;-0.06153532;0.3681027;-0.030150538;-0.0072290897;-0.0031374597;-0.060382154;-0.066745564;0.053405967;0.039239667;0.19578561;-0.34434113;-0.041506805;-0.036207326;0.21528384;-0.0010330017;0.014589755;-0.22732246;-0.04292963;-0.03386651;-0.014610398;0.014785533;-0.08211508;-0.15716013;-0.08332721;-0.05753873;0.12647046;0.04428841;0.20902532;0.15063016;-0.054916196;0.09933792;0.3252705;-0.018544408;-0.1973904;0.0004159922;0.06580228;0.119792335;-0.063978404;-0.054208938;0.06174625;-0.39093027;-0.03642567;0.12807581;-0.013479552;0.035544325;0.23211518;0.25141087;-0.18172958;0.115665756;-0.36339906;-0.06471897;0.043724976;-0.20691219;0.05137218;-0.07999865;0.27431297;0.16407481;-0.05781695;-0.12886618;-0.015534638;5.859668e-05;-0.38228467;-0.2270622;0.009362068;0.20637538;0.16596231;-0.0033318698;-0.10858246;0.0029420208;0.16282323;-0.19559978;-0.2813138;0.09891571;0.003577298;0.25179628;-0.06744036;-0.07017972;0.03331377;0.19285005;0.06346168;-0.013325593;0.02085845;0.0048744604;-0.061086018;0.057632186;0.0045609674;0.16856343;0.1287063;-0.14715055;-0.04507099;0.06089982;0.12779129;-0.18038362;0.18194899;0.013216187;0.14531232;0.053382628;-0.25902444;-0.06508145;-0.018016983;0.016135158;0.15288411;0.03307245;0.03568416;-0.0364683;0.060527325;0.11142644;-0.062237836;-0.11093327;-0.050259035;0.00735846;-0.029772138;-0.059498914;0.02838564;0.19995245;0.19458999;0.0059215785;0.099596895;-0.14499737;-0.2739848;-0.029407186;0.046458296;0.066206865;0.01703941;0.18238024;0.0026649449;0.08469171;-0.024592083;0.121661335;-0.008072186;0.040736027;-0.16418579;-0.01705074;-0.042998496;-0.36309126;0.18663993;0.0105811665;0.0520217;-0.11801905;0.42790422;-0.344106;0.100020826;0.032410722;-0.5633757;0.033801228;0.0032963727;0.25729337;0.04403634;0.07846968;0.059706714;-0.34984136;0.088385515;0.019697407;-0.15539235
-0.051837575;-0.111798465;0.10655652;-0.15013742;-0.20055304;0.021102706;-0.11424108;0.04334228;0.12581578;-0.0028348733;-0.045209493;0.102030665;-0.041337885;0.18557936;0.009913969;0.15743087;0.0073888414;0.17551298;0.04585217;-0.09630348;0.03573656;-0.14041743;-0.037271447;0.026319282;0.02969015;-0.15618585;0.19596732;-0.08996764;-0.059760865;-0.04306052;-0.028792322;0.2641927;0.028056793;-0.030778065;-0.0067382962;-0.30738074;-0.14586589;-0.25667655;0.032752316;0.04434424;-0.030331481;0.08796832;-0.029645404;-0.047856916;-0.012139838;0.30516377;-0.052456107;0.009514167;-0.058828983;0.090681724;-0.17070034;-0.012267231;0.040931895;0.035115335;0.057908688;0.029741004;-0.1264325;-0.014194806;-0.17711312;-0.022524873;0.038406;0.16969086;0.05830478;-0.027339354;-0.09342229;0.09922041;0.20870368;-0.27041093;0.06952072;-0.083156504;0.023747917;-0.07040274;-0.038086347;-0.06712425;0.14831597;-0.08897482;-0.1199874;-0.1957434;0.103966154;-0.06855992;0.006420573;0.06700156;-0.3302329;0.03575605;-0.057823062;0.5203931;-0.09393692;0.059154842;-0.04614093;-0.031769447;-0.06564762;-0.04447687;0.00024666096;0.019442922;-0.082187586;0.19876711;0.0049188402;-0.021961497;0.24885501;-0.0029560085;-0.2275629;0.031170001;0.010131749;-0.04097759;0.003265708;-0.03507332;0.11072589;-0.052507628;0.06090395;-0.025834111;-0.02306341;-0.016042516;-0.16072656;-0.0038859802;-0.08687304;0.12567498;-0.09675011;-0.046744388;0.33604273;0.2232336;-0.25543836;0.06766408;-0.18436067;0.073440604;0.06882465;-0.009444145;-0.193139;-0.16301474;-0.043527126;-0.026951067;0.0002226329;0.045745805;-0.017214216;0.008006131;-0.0069123385;-0.013163716;0.04959398;-0.09614965;-0.40016708;0.29257601;0.010465204;0.009627386;0.11337002;-0.06875298;0.104771614;-0.057604033;0.053797983;0.01779908;-0.053430315;0.03818418;0.11382246;-0.09165583;0.05757965;0.014554091;0.13648686;-0.028737396;0.025930023;0.11487558;0.10061424;-0.40257126;-0.08248781;-0.47164506;-0.09080952;0.15701146;-0.23914124;0.0026087621;-0.0030884664;0.1067958;-0.128465;0.005050285;0.044439483;0.048867583;0.0061709536;0.0011955452;-0.023567067;0.05742101;0.34264648;0.08729713;-0.16617891;-0.34068236;-0.08968925;-0.20450477;-0.09453974;-0.10359139;0.00450934;-0.021147689;-0.03348541;-0.04999973;-0.30731788;-0.08493027;0.15066639;0.064872995;-0.14584483;0.02027812;0.03607643;0.047165893;-0.01478263;-0.11100211;-0.024266113;-0.01679101;0.057800643;-0.047262304;-0.01541529;0.057139844;0.042373557;0.19675906;-0.046799283;-0.7322636;-0.3929176;-0.03267592;0.18212062;0.16446552;0.037233;-0.071963616;-0.13074516;-0.030015659;0.08225348;0.14893301;0.12605052;-0.050652962;0.117826656;-0.20227048;0.20549786;-0.37985072;0.033185303;0.2457998;0.057241097;-0.024666464;-0.00874446;0.01085716;0.024785826;0.10625992;0.0056608957;-0.006624727;0.28095883;0.10436606;0.33074287;0.00063390064;0.036023285;0.1194782;-0.026118277;-0.07885408;-0.31425634;-0.12242224;-0.017287113;0.004784039;0.3254694;-0.2553655;-0.33641988;-0.04295953;-0.18052018;0.009020381;-0.2412469;-0.039960008;-0.023157258;0.021230448;0.19524913;-0.011439103;-0.04357352;0.029541811;-0.044056345;0.13292077;0.470354;-0.031591285;-0.07259176;0.15179996;-0.00200798;0.02182917;0.18806338;0.06074675;0.07635695;0.05719534;0.34999132;-0.091480955;-0.033231087;0.09012823;0.16865768;0.059076674;0.21946576;0.047609992;0.106163666;0.017685976;0.20788555;0.023577671;-0.0137877725;-0.0880141;-0.03530196;0.06065893;0.06459193;0.041606653;0.2850492;0.031108424;0.042274807;0.33715507;-0.057909783;0.20161927;0.12564309;-0.20777376;0.29024425;0.316823;0.065651834;-0.044001125;-0.05776717;-0.050321776;0.20165712;0.4336609;0.145036;-0.045306697;-0.06272531;0.3718049;-0.37423423;-0.26744667;-0.010091262;0.052359246;-0.034966607;-0.016235296;0.05422626;-0.007085148;-0.047235407;0.27496892;0.01663733;0.042929146;0.0060078334;-0.12686026;-0.044523157;0.31742764;0.01055221;-0.08752169;-0.13216443;0.029889094;0.15138096;0.03700181;-0.05475015;-0.008043509;-0.25545412;0.006031868;-0.2296154;-0.17569615;-1.2460245e-06;-0.071726784;0.011520071;-0.23215838;0.039061893;0.001486498;-0.15182371;0.03373631;0.043846253;0.04909876;-0.32731643;-0.07456339;-0.14043222;-0.02582582;-0.00014541711;-0.1698989;0.20545143;-0.07729537;-0.06320262;-0.042399727;-0.4649792;-0.2236599;0.14736135;0.36373186;0.029297639;0.3166977;0.037568945;-0.37351787;-0.031016612;0.09380521;-0.11019863;0.1160323;0.3333964;0.23221678;0.05342037;-0.010782879;0.050298486;0.09590041;-0.05198122;-0.05567125;-0.04896716;0.034432452;-0.049691416;-0.06999108;0.051673453;0.11569497;0.03362226;0.07068043;0.13235843;0.018359885;0.015309378;0.047863774;0.09430986;0.35608208;-0.025962438;-0.07749617;0.09030139;-0.14979517;0.054837298;-0.2733941;0.041533384;-0.007822046;0.12194023;0.040123813;0.40846184;0.004851738;-0.1771119;0.15390073;-0.105658315;-0.008418496;0.09130791;-0.012323171;0.014467194;-0.017836738;-0.06719141;-0.028237918;-0.03256543;0.22190161;-0.129683;-0.036766555;0.122142576;0.010242387;-0.17360783;-0.20648904;0.039750878;0.3604143;-0.08054111;-0.03861242;-0.01310992;-0.08434006;-0.03638948;-0.019490357;0.05538735;0.21796;-0.29915246;-0.020229245;0.06661783;0.1488785;-0.02766977;0.095446296;-0.23257071;-0.014154715;0.029620033;-0.10450559;-0.0024457127;-0.06790671;-0.18700105;0.010001982;0.07908752;0.07838577;0.039630726;0.19255339;0.024755819;-0.04108861;0.17440082;0.37816346;0.07152222;-0.17421092;-0.059313755;0.042038526;0.13386501;0.06137274;0.006637042;-0.053226274;-0.29600582;0.10057907;0.21458349;-0.028451923;0.0012576149;0.10326363;0.28216684;0.007369001;0.18400127;-0.3110426;-0.0049658827;0.08538519;-0.15086864;0.005316285;-0.0045562927;0.19885978;0.12052738;-0.029955344;0.050458282;-0.021163292;0.12431575;-0.3547558;-0.09189236;-0.0411462;0.09898951;0.17471972;-0.016745258;-0.09137656;-0.00022785472;0.13254602;-0.21547572;-0.30613253;0.21969774;0.03510997;0.2237109;0.0664555;-0.19204402;0.11873128;0.17021468;-0.03657421;0.0014494662;0.059831955;-0.057749785;-0.08959513;-0.068881586;-0.025709841;0.22465552;0.009082913;-0.06696209;-0.14677121;0.04749285;0.12550136;-0.21792273;0.19488464;-0.040853076;0.19133712;0.03312388;-0.24317709;-0.1897291;-0.020028325;-0.059809823;0.22991078;-0.016003605;0.05146007;0.04802671;0.011061526;0.1442506;-0.030212905;-0.21097751;0.025742622;0.11289808;0.08773497;-0.10893098;0.056253463;0.20517047;0.12212837;-0.004860894;-0.018446118;-0.06615324;-0.2407303;0.038552556;-0.103139;0.026365727;-0.058748696;0.1985394;-0.11784736;0.024449524;-0.035131436;0.0942968;-0.015128335;0.02459127;-0.21939138;0.051075805;0.03735222;-0.2763376;0.20041361;-0.019031508;0.011296571;-0.22226049;0.29140595;-0.2705776;0.0038726563;0.029551225;-0.45576465;-0.02787905;0.12654611;0.35642955;0.00026276874;0.13714701;-0.06537831;-0.3752226;0.062064465;0.0039138603;-0.078338265
-0.10099954;-0.11396697;0.09722948;-0.109897844;-0.20082392;-0.007209019;-0.14589939;0.06724311;0.17135875;0.017901843;-0.11285504;0.041544903;-0.05464925;0.27532294;0.13173638;0.10555505;-0.019977337;0.302694;-0.06715679;-0.051772866;-0.013459177;-0.076297976;-0.055749334;-0.016915679;0.044020895;-0.25305066;0.10124747;-0.2854865;0.02133368;-0.017367296;-0.056108538;0.2619276;0.054398585;0.002595441;-0.00067833415;-0.1809728;-0.06486752;-0.22880395;0.03414619;0.19242935;0.13644978;-0.015693162;-0.03874724;0.021164197;-0.023726799;0.26099253;0.010137557;-0.064608715;0.0026401903;0.03156693;-0.21066119;0.04029474;0.06478356;-0.052434023;-0.02065682;0.039615978;-0.097454965;0.049020365;-0.05523811;0.0062983716;0.05273071;0.0479115;-0.023935735;0.035025347;-0.18191862;0.18153994;0.24598953;-0.23436147;0.023633653;-0.11971438;0.047366153;-0.12659092;-0.081877284;-0.019350981;0.052333437;-0.12724754;-0.14691335;-0.28745922;0.100999765;0.051479157;0.028328458;0.058516964;-0.41023687;0.04965863;-0.06473993;0.60987103;-0.055864632;0.028401371;-0.04700297;0.08224674;0.0011719308;-0.06860902;-0.023631228;0.020927684;0.029415337;0.17714873;0.07314471;-0.0544989;0.18627967;0.040213186;-0.3383136;-0.050852578;-0.0342856;-0.09125462;0.13874377;-0.022256456;0.1521347;0.015173069;-0.04865286;0.01647589;0.08757622;0.007634979;-0.04925617;0.088721804;0.03228548;0.011661063;-0.070442095;-0.09692543;0.3889717;0.06556413;-0.16246621;-0.0030344184;-0.12990625;0.013378151;0.05752097;0.05336223;-0.21552554;-0.11190833;-0.103091896;0.052506227;-0.080630615;-0.015541299;0.036832042;0.0013273893;0.02068225;-0.1362296;0.07382078;-0.13359267;-0.43343526;0.25524265;0.08716138;-0.047499377;0.10361804;-0.12337168;0.18743052;0.053203203;0.052226502;0.05772116;0.013162164;0.036182806;0.028071897;-0.1985313;0.0026893467;-0.07452639;0.06888018;0.020788524;-0.07812484;0.18101008;0.09482801;-0.45880365;-0.091131456;-0.43612248;-0.022369359;0.15072772;-0.32059368;0.019027494;0.0056674266;0.024898091;-0.0068217954;0.04730229;0.059106495;0.011466402;0.07150989;-0.07658962;-0.022532515;0.12528498;0.39374602;0.06712324;-0.14279562;-0.4677698;-0.09735398;-0.18572049;0.02379486;-0.05510586;0.013687606;-0.051697675;0.018860595;-0.053455826;-0.3041367;-0.1653448;0.25178555;-0.041699115;-0.108196355;-0.026250016;0.036572304;-0.020773217;0.037818175;-0.03074769;0.08129605;-0.049682997;0.039007004;-0.018113097;0.0065334174;-0.04103448;0.0903597;0.07211472;-0.0012654471;-0.7478292;-0.22765766;-0.021039303;0.17430119;0.11447075;-0.09313453;-0.019914417;-0.21595237;-0.11586151;0.020522062;0.2715347;-0.0032030358;-0.11023968;0.12043388;-0.16538362;0.12810352;-0.47544587;-0.028027797;0.030102666;-0.11287117;0.011503236;0.017339917;0.025440276;-0.090384945;0.06855067;-0.043834373;0.04252898;0.27541417;0.07899779;0.2935905;0.05413188;0.012982919;0.0917932;0.027169172;-0.056271803;-0.35797837;-0.016208658;0.07325964;-0.031544495;0.26929402;-0.32819623;-0.19202892;-0.004764521;-0.058387402;-0.05791014;-0.13097069;-0.03391661;0.02642367;0.11245465;0.32015273;-0.057929054;-0.029472603;-0.07494172;0.046588577;-0.015108732;0.32322368;-0.09436455;0.07087674;0.31996423;-0.0531081;-0.026781052;0.12929125;-0.033425994;0.025402071;0.076189436;0.34378555;-0.1737771;0.015165764;-0.08514437;0.09678203;0.05697889;0.16229175;-0.039999716;0.068792686;0.06585556;0.22418427;-0.010595272;0.012083806;-0.13369164;0.030284652;0.06739323;0.033176146;-0.02781911;0.25590178;-0.05832173;-0.089539886;0.4222393;0.057888426;0.18482125;0.10596457;-0.2198816;0.38982716;0.2612846;0.10707956;-0.048999622;0.06130095;-0.07769198;0.20376492;0.45909098;-0.085583374;0.019900111;-0.05049886;0.30682626;-0.23675281;-0.2773662;0.059551418;0.060306445;-0.02587208;0.11283177;0.17274696;-0.017616466;0.06616397;0.27179033;0.013851445;0.051881284;0.13266306;0.032890383;0.09561756;0.39667535;0.042583175;-0.16919416;-0.17633924;-0.020704111;0.14198688;-0.084350385;-0.17404674;-0.009078039;-0.29386172;-0.059392735;-0.16878033;-0.2059709;0.057982992;-0.110873125;-0.05143121;-0.25409344;0.04769177;-0.06846896;-0.01820159;0.013018603;-0.06834797;-0.001568174;-0.29493085;-0.026002107;-0.09696089;-0.027940927;0.07227654;-0.17559426;0.27542812;-0.037988156;-0.1655387;0.05853063;-0.3659586;-0.1902475;0.03221311;0.3813653;0.015279941;0.23073602;0.065152384;-0.43350396;-0.08495558;0.12240213;-0.12616473;0.18567017;0.20955443;0.07732471;-0.081178024;-0.02461189;-0.039270844;-0.016468093;0.01805721;0.03010229;-0.086686164;-0.053568732;0.049229916;-0.06309525;-0.034743227;0.0036277764;-0.07949043;-0.070426576;0.012718338;0.055918656;0.16093983;0.05481422;-0.050729692;0.27218044;-0.004877365;0.035228033;0.16800113;-0.18830328;-0.047508314;-0.26008943;-0.0004283571;-0.03109122;0.07709408;0.07014593;0.42840302;-0.0097340485;-0.05432631;0.050561894;-0.20278732;-0.001361064;0.14597951;0.06711036;0.0024315817;0.06542627;-0.17791772;-0.016150504;0.082438804;0.090806276;-0.08517301;0.09066061;0.11825227;-0.012231758;-0.1340282;-0.15757486;-0.026144233;0.16748062;-0.11445502;-0.014290013;0.017362393;-0.044462338;-0.17751004;-0.032301433;0.037966024;0.079416215;-0.24186313;0.029124515;-0.004209103;0.101300865;-0.029441826;0.03355477;-0.14064462;0.05328874;-0.03248782;-0.03192368;0.056933124;0.06909789;-0.15565419;0.039795373;-0.034201235;0.035255946;0.047063764;0.17039104;0.07017091;0.0028064235;0.19823281;0.3847758;0.05103362;-0.33579355;0.005650055;0.09333387;0.03132701;0.034704655;-0.007956891;-0.09204586;-0.22378297;0.047528822;0.20579295;-0.09195102;-0.003372768;0.117500715;0.2416787;0.08355519;0.19366565;-0.26260626;0.06896164;0.059739985;-0.33839154;-0.045537774;0.031281907;0.2762823;0.10162619;-0.003406964;0.002503437;0.07044249;0.07214582;-0.32028264;-0.09343655;0.07172605;0.05996855;0.021737074;0.03465393;0.05915815;-0.05674689;0.10943338;-0.1549534;-0.36532843;0.181786;-0.05052016;0.1761193;-0.013731232;-0.18799935;-0.01400398;0.34602672;-0.01075752;0.027959678;-0.0532149;-0.015181836;0.046725012;-0.085590996;0.08122152;0.24088478;0.107960634;-0.0062549654;-0.17264809;0.13575868;0.15972298;-0.14177828;0.035955187;0.01682041;0.048733104;0.04683145;-0.18668148;-0.16052817;0.047576938;0.04417045;0.101858415;0.054551583;0.11155292;-0.01742066;0.005427272;0.036715284;-0.016285868;-0.168154;-0.04389441;0.03811752;0.030911675;-0.020330735;-0.066342965;0.30857486;0.1910049;-0.06476418;0.10081702;-0.025978789;-0.10822923;0.044797715;0.006678199;-0.015533198;-0.0038964008;0.11178017;-0.0071197483;-0.008531827;0.033833895;0.17999814;0.06689314;0.06809495;-0.17086616;0.055892933;0.059055448;-0.42727664;0.13011938;-0.036493443;0.0070245955;-0.13700423;0.29917523;-0.30990392;0.084023565;-0.07213626;-0.59439224;-0.022325153;0.19670066;0.3128455;-0.08605671;0.2857973;-0.0583198;-0.35246816;0.04243847;-0.020561643;-0.0932115
0.005424121;-0.12554023;0.0211254;-0.06750328;-0.16922486;-0.011900578;-0.17969187;-0.09259894;0.20150495;0.047614165;-0.06890482;0.06062196;0.015414938;0.25397345;0.2209208;0.19686718;0.028269436;0.2005828;0.02060324;-0.09661563;0.04552063;-0.105581716;0.09577174;0.08277312;0.11825628;-0.24482189;0.1802882;-0.33887368;0.046246797;0.022242641;0.04905678;0.11640096;0.049853507;0.0538416;-0.051564775;-0.17145881;-0.11082657;-0.2914366;0.19880804;0.08340157;-0.006601195;-0.04978282;-0.09174623;-0.004416674;-0.0024929135;0.22637208;0.049364243;0.029483516;-0.00076591736;0.0048836167;-0.26852536;-0.06328751;0.09390663;-0.08177646;-0.054080557;-0.025257234;-0.20481321;-0.004101632;-0.06827505;-0.043100778;-0.0076033194;-0.014176424;0.04795682;0.0046334253;-0.101590164;0.22118628;0.15753672;-0.23156643;-0.032767687;-0.11332166;-0.08348171;-0.07926641;-0.1491952;-0.10778761;0.1691928;-0.12645568;-0.16134027;-0.22701652;0.23054877;-0.0074866726;0.0017650806;-0.06328549;-0.30696532;0.089861535;0.049532875;0.5668423;0.02335211;-0.023281723;-0.04566894;0.09770702;-0.09996141;0.026019087;-0.054956708;-0.013350826;-0.051911596;0.298516;-0.064215034;-0.032418262;0.24084614;-0.0084410915;-0.24595538;0.027237412;-0.08404817;0.014212008;0.15399995;0.05937414;0.22200897;0.08230593;-0.06672641;-0.026459398;0.040238462;-0.09188888;-0.1258469;-0.00894267;0.06012847;-0.02438752;0.11214546;0.0015311425;0.3925644;0.073220745;-0.08811136;-0.04883285;-0.12259869;0.112654485;0.12063087;0.039047197;-0.20348063;-0.22177716;-0.116212234;-0.03119947;-0.13091588;-0.0030143554;-0.065001875;0.070767626;0.023086252;-0.03148514;-0.040059015;-0.11536457;-0.5489492;0.2488344;-0.04932909;-0.02010898;0.019609455;-0.1108353;0.1790466;0.0134746935;-0.01711392;0.07334784;-0.038975187;-0.039193872;0.11690652;-0.111248545;-0.033573598;0.052579373;0.09382367;-0.013220156;-0.057131834;0.17064495;0.17698562;-0.4204815;-0.08582973;-0.35074174;-0.08349942;-0.005192824;-0.3392535;0.07308281;0.013375998;0.0568511;-0.035517413;-0.0011244232;-0.07904583;0.13211025;-0.060941085;0.03792267;0.047476728;0.021260783;0.28712013;-0.04953458;-0.0002009075;-0.40493345;-0.036616784;-0.18429218;-0.04311529;-0.1293017;0.04409514;0.03840918;-0.021539181;-0.114370674;-0.22102535;-0.038173802;0.19525616;0.096808515;-0.16193593;-0.12127147;-0.038286004;-0.00016792663;-0.076906614;-0.033359393;-0.050469197;-0.04657232;0.12199011;0.031187702;0.055846065;-0.040206533;0.12750265;0.049508724;0.14396891;-0.68427795;-0.24669576;-0.022788655;0.1524914;0.22960062;0.063436925;-0.053168204;-0.11104185;-0.029362518;0.017424198;0.31089196;0.16656725;-0.11353252;0.0857592;-0.11537734;0.25061443;-0.3734155;-0.021511799;0.038097188;-0.065746166;0.039358247;0.006158196;0.03554592;-0.035710115;0.08996086;0.05269297;-0.02720834;0.21161528;0.16262269;0.3473897;-0.042521007;-0.066434406;0.20859562;0.08833638;0.047892615;-0.29980528;-0.015847541;-0.032304585;0.0708624;0.30525243;-0.3118994;-0.17361909;0.0017959861;-0.1356774;-0.03553402;-0.074442305;-0.17659992;-0.042645156;0.14899749;0.33655745;0.023951408;0.062834196;-0.032003514;-0.01660194;0.070689365;0.33213702;-0.1340584;-0.091132976;0.26881275;-0.044565216;-0.105895385;0.2064919;-0.012396753;0.06901773;0.10417918;0.19647805;-0.1522037;-0.03395514;-0.024627984;0.23166521;-0.03978403;0.030880556;-0.08032104;0.054398924;-0.011909139;0.20849656;-0.016076772;-0.053706534;-0.19689897;-0.004001306;-0.023033828;0.034665953;-0.030485013;0.082755856;-0.02932927;0.0011735765;0.369032;-0.056147046;0.21993008;0.087816596;-0.18237014;0.4601578;0.3400121;0.057570573;-0.045127228;-0.0023045246;0.075617656;0.17440967;0.35646617;-0.01101317;0.068390906;-0.14965627;0.16154243;-0.20423722;-0.14666389;0.011954439;0.14796582;-0.04060315;0.06961883;0.17729399;0.049014904;0.06719754;0.2096155;0.0011426345;0.024130411;0.15980321;-0.015958788;-0.01259637;0.44481367;0.018139487;-0.0317666;-0.18221144;0.06199469;0.13133575;-0.07400537;-0.031258453;-0.094110966;-0.27155447;0.030239468;-0.24114683;-0.10796633;0.100368;-0.063747235;-0.07957236;-0.28349352;0.103936195;-0.019660804;-0.085831724;0.027962064;-0.035294633;-0.050355144;-0.24259865;-0.07138545;-0.07243921;-0.052214082;0.1200485;-0.09492036;0.25857347;-0.2156341;-0.09823295;-0.03891996;-0.41615087;-0.11910171;0.032406945;0.32197425;-0.001961637;0.23830914;0.0016214016;-0.407445;-0.041375004;0.008710618;-0.17197323;0.08170254;0.2483943;0.11834887;0.045993924;-0.010468089;-0.052593306;0.012266183;-0.02022779;0.031346317;-0.03622738;-0.0018803065;0.057726257;-0.054268297;-0.061125435;-0.016860878;0.04576904;-0.039454393;0.02467676;0.05005478;0.24348545;0.1170286;0.014831751;0.17931573;-0.051888853;-0.0799337;0.09395296;-0.112289906;0.089632034;-0.1610085;0.06747595;0.040409245;0.094754;0.031549666;0.45393625;0.05027319;-0.02398024;0.07881773;-0.20339099;-0.050670974;0.02191058;-0.053343076;0.008242601;-0.0051781097;-0.1628959;0.027584841;0.011450825;0.08949203;0.036054358;0.0074924952;0.0070018773;0.05972941;-0.3481318;-0.28088605;-0.041928135;0.20885728;-0.051201694;0.03302038;0.025479833;-0.04224139;-0.19242904;-0.088266104;0.0692356;0.08366545;-0.18013643;-0.056903597;0.056104086;0.029309276;-0.07200837;0.16650234;-0.117633566;-0.019961696;0.03094723;-0.11011792;-0.083021484;0.02825771;-0.104029655;-0.0018702903;-0.021563511;0.004297966;-0.04313134;0.15290979;0.101244174;-0.011028122;0.08037467;0.3325515;-0.010736067;-0.18057592;-0.036360886;0.007136439;-0.05129761;0.0097346315;0.02004452;-0.076174535;-0.29602253;0.07552313;0.21581492;-0.14075574;0.028481653;0.038314223;0.3616884;0.040533967;0.28740567;-0.21684301;0.0140452245;0.0029909553;-0.37417972;0.041215446;0.0008796429;0.33352563;0.082579456;-0.019480862;-0.11171714;0.14885788;0.17563374;-0.26013654;-0.17953576;-0.053061254;0.124206826;0.20887715;-0.045614418;0.08622934;0.024062593;0.103827834;-0.1793484;-0.24612734;0.16944231;-0.07700839;0.10806996;-0.067533456;-0.33449858;0.07188391;0.2309073;0.05275471;-0.009734905;0.050429337;-0.038963135;0.037885666;-0.042262092;0.051489405;0.1669488;-0.035616584;-0.031200418;-0.30243075;0.109461285;0.16213755;-0.22722848;0.011801724;0.04864141;0.06451886;-0.036600918;-0.19566995;-0.20698884;0.0034010485;-0.041887175;0.121184774;-0.01885563;0.11743839;0.005574178;-0.058628984;0.020650882;0.052368063;-0.10253127;-0.12614624;-0.020667125;-0.03191305;-0.078381784;-0.060762208;0.3721004;0.23501748;-0.028178504;-0.038290452;0.001247933;-0.123302616;-0.03252059;-0.05815867;-0.043124616;0.024630144;0.1130519;0.033804394;-0.07101124;-0.04878217;0.1792201;-0.012016019;-0.02490569;-0.12930886;-0.051446285;0.057285573;-0.3920767;0.23136847;-0.019686546;-0.04526525;-0.24328807;0.2511343;-0.26549405;0.054691967;-0.020249609;-0.5949609;-0.040118508;0.19239426;0.18462998;0.019418968;0.20168808;-0.015677508;-0.31672665;0.14302488;0.0026669824;-0.16567428
0.12273865;-0.11796741;0.1089614;-0.10138951;-0.3492465;-0.003553905;-0.22956024;0.016254244;0.18001567;0.02715227;-0.18747345;0.024021266;0.018261936;0.09395193;0.24992007;0.21484083;-0.05089293;0.18834473;-0.027616283;-0.045263868;0.010452276;-0.16945873;0.04165761;-0.045978896;0.041491542;-0.25296155;0.06845173;-0.41051725;-0.00876685;-0.042437214;-0.045613833;0.12897845;0.11008478;-0.008179051;0.078061916;-0.24732704;-0.08246053;-0.37927178;0.13422978;0.066697136;0.05567381;-0.008939541;-0.24511631;-0.018784901;0.027192408;0.13486907;0.087540194;-0.055489816;-0.0003892309;0.17771241;-0.17130177;0.012450291;0.022908011;0.0025652219;0.006325848;0.005204659;-0.1683224;-0.038589634;-0.06944661;0.051714133;-0.11064068;0.03200746;-0.017217077;-0.0797772;-0.11712277;0.11302791;0.060172744;-0.32715538;0.0224259;-0.13650008;0.039666727;-0.115398906;-0.16152741;-0.1375094;0.10060795;-0.2069152;-0.12089448;-0.24673952;0.2110127;-0.05954608;-0.013371181;-0.068379685;-0.39197713;0.09043767;0.051615443;0.6898599;-0.037356947;-0.01106903;0.014327802;-0.039424177;-0.08687705;-0.12510419;0.06289044;0.01924376;-0.013740047;0.3533971;-0.054195452;-0.09734917;0.20659052;0.06470535;-0.32288805;0.013616869;0.0540138;-0.07544206;0.054544475;0.016000481;0.31002983;-0.049887523;0.0054465584;0.045051787;-0.005178909;-0.0006526495;-0.054959837;-0.039568964;-0.095110975;-0.081380524;0.077454805;-0.07940419;0.45169562;0.064441346;-0.01213104;0.08453453;-0.20179021;0.054969776;0.08009;-0.01657203;-0.105019376;-0.11675436;-0.008339914;0.062328465;-0.14794452;-0.09652495;0.003945531;0.022094;-0.02588169;-0.17090857;-0.0005040804;-0.06311267;-0.5256307;0.31957078;-0.017849922;-0.01964791;0.06398217;-0.13362241;0.1981951;-0.052650183;-0.0595831;0.028581351;0.04259798;-0.1303332;0.08557818;-0.24495012;0.020387461;0.046583403;0.13521932;0.10478314;-0.027709197;0.1816893;0.092499256;-0.34465674;0.02231189;-0.37210065;-0.051313005;-0.024771927;-0.35714507;-0.027084818;0.041057095;-0.016760554;0.020778347;-0.09287378;-0.06675706;0.11780485;0.014206569;0.043066904;-0.029781928;0.05937005;0.39675158;-0.04074985;0.0037641972;-0.3542488;0.018758247;-0.2796255;0.063525826;-0.2563024;-0.023685403;-0.026765961;-0.029525375;-0.114025876;-0.2860582;-0.1504951;0.2272909;0.008131646;-0.12754938;0.09163701;0.017277077;0.016115012;0.071806796;-0.098745406;0.058295064;-0.19525833;-0.013457883;-0.032010633;0.053474877;-0.01576173;0.18793535;0.07999473;0.04125997;-0.5504459;-0.24721299;0.073604725;0.15224352;0.18985243;-0.07258234;0.0333495;-0.0559696;0.04240419;-0.11939625;0.20141079;0.09616243;-0.030142125;-0.020293437;-0.12542164;0.17358798;-0.37494698;-0.06598053;-0.061352894;-0.13169524;0.016458465;-0.017408088;0.10043649;-0.06608087;0.121073425;-0.018948875;-0.05190959;0.18591322;0.18593529;0.34722373;-0.1044016;0.040893037;0.17582615;0.12752044;-0.038793854;-0.3541015;-0.040951278;-0.04142715;-0.008704974;0.29866657;-0.2987608;-0.16759758;0.03216328;-0.20662427;0.041313715;-0.046562098;-0.25737387;0.07439086;0.17558977;0.32020193;0.04898984;0.10036822;-0.11089145;-0.13304639;-0.010432996;0.22169654;-0.089862235;0.04014229;0.24742286;-0.017423153;-0.019107567;0.09032851;-0.010489052;-0.054422215;0.14483973;0.22902173;-0.15900885;-0.03550473;-0.07885869;0.33781317;0.0061491895;0.058590457;-0.029609585;0.10792848;0.048317894;-0.031546824;-0.085226506;0.04784944;-0.26307005;-0.0406701;0.021984374;0.0822898;0.055587888;0.088258274;-0.0060326066;-0.04080777;0.44276685;-0.0060642525;0.26991615;-0.069831155;-0.16312252;0.35153583;0.31853548;0.0095446985;0.03651968;-0.07826309;0.0005509835;0.08896988;0.46039504;-0.1657877;-0.007484864;-0.0649998;0.09771721;-0.1788415;-0.0926791;-0.07116893;0.19652896;0.036810853;0.014776646;0.22677384;-0.051915176;-0.054610986;0.34163934;0.07349559;-0.064415455;0.1884872;0.08851966;-0.03388581;0.42755598;-0.031915102;-0.120389014;-0.23769325;0.030771462;0.052008033;-0.02272874;-0.066947274;0.031772844;-0.255453;0.06319799;-0.059593447;-0.18518524;0.026145605;-0.10089747;0.06600636;-0.37046483;0.007643062;-0.052266773;-0.08253998;-0.11255172;0.018882249;0.027562696;-0.17254815;0.01991765;-0.1767025;-0.051247906;0.08100855;-0.11415774;0.117650546;-0.23819286;-0.25204352;-0.016822893;-0.3090514;-0.20582072;0.054916658;0.28416193;-0.04899528;0.1791813;-0.028587924;-0.40657958;0.049325377;0.07216126;-0.100537;0.10659083;0.16491939;0.18269783;0.054180223;0.032249656;-0.030084424;-0.01257546;0.036596164;0.008262914;-0.015131338;0.0790523;-0.048896477;-0.14809823;0.058326017;0.022592762;0.043274496;0.018955942;0.14269972;0.12951685;0.21541542;0.04961153;0.051566537;0.27875733;0.10662403;-0.043207284;-0.087821215;-0.10079405;-0.03768395;-0.097336285;0.07788233;0.057839673;0.08271944;-0.0040623485;0.37839642;0.0045670713;-0.1021785;0.15646349;-0.17835799;0.053106137;0.0028433262;0.07770132;-0.018742416;-0.0055257613;-0.06415637;-0.045987666;-0.0810593;0.11316692;0.05671656;0.008152069;0.037728656;-0.039323837;-0.30904755;-0.3489498;0.032285534;0.19297431;-0.028817054;0.023559414;0.03264503;-0.040638436;-0.22567612;-0.11415669;0.01761113;-0.0040822797;-0.19559184;0.06844454;-0.06915019;0.027934758;-0.023799798;0.23635837;-0.0798802;-0.0070348145;0.030828217;-0.13391769;0.0541061;-0.06994343;-0.10115381;0.14025481;0.05485732;-0.085310325;-0.040689833;0.24117956;0.042152982;0.047344975;-0.015848765;0.30024955;-0.04722534;-0.375971;0.030451596;0.080435164;-0.12634866;-0.04981228;0.0010557994;0.036676146;-0.23653993;0.0255583;0.18067916;-0.06231982;-0.042291354;0.07234665;0.24974623;0.04798504;0.30971843;-0.20534399;-0.03627577;-0.07009018;-0.17463069;0.05041075;0.04146192;0.1730284;-0.0353306;-0.03727252;-0.08551216;0.18885668;0.14484863;-0.33030093;-0.09142787;0.057005256;0.14978078;0.17254756;0.012688615;0.026617574;0.06789857;0.1160135;-0.13131936;-0.07557963;0.2607025;0.06877472;0.026759073;0.054839004;-0.2651256;0.08098861;0.21063812;-0.03149214;0.056330286;-0.071560286;-0.0042927605;-0.014706745;0.043890666;-0.037582956;0.14159766;0.20360251;-0.07280209;-0.30375472;0.028262643;0.13149323;-0.17469221;-0.0052047726;-0.03680143;0.2027505;-0.016272666;-0.13121435;-0.3317232;-0.027765768;-0.023819288;0.079475544;-0.079298355;0.09546147;0.020553943;-0.07473226;0.13377774;-0.04679247;-0.24906017;-0.12213592;0.06262214;0.01914782;-0.18589106;-0.013611746;0.33745015;0.1282036;0.0060897423;0.008455498;-0.034645222;-0.14433384;-0.057224657;-0.20774566;0.062460165;0.04180222;0.025725318;-0.01155737;0.01949669;0.03982731;0.03363123;0.07011085;0.018965568;-0.03917581;0.027526889;0.13672988;-0.36887187;0.23515846;0.054679684;-0.062770605;-0.31024894;0.26167932;-0.36227494;-0.010681341;0.003957677;-0.43432167;0.056459375;0.28924748;0.15423715;-0.049788706;0.22487608;-0.01907747;-0.43983313;0.07085397;-0.13707578;-0.044644643
0.15065971;-0.089948274;0.19558312;-0.17921798;-0.2568505;-0.032560654;-0.2490175;0.054824695;0.09834988;0.01720707;-0.18921079;-0.11264843;-0.047409583;0.09122961;0.16461335;0.15411066;0.019162478;0.25823995;0.05323275;-0.083848014;0.12911656;-0.1878521;0.02769028;-0.08245301;0.06328652;-0.23506853;0.11185668;-0.4324093;0.042095043;0.004423216;0.016655717;0.13286938;0.14636832;0.0030173361;-0.043014053;-0.29347518;-0.068008974;-0.2868911;0.15090896;0.029515432;0.0844819;0.067854166;-0.11366063;0.06474239;0.030000664;0.118168585;-0.035323672;0.023533287;0.07835098;0.19451702;-0.1533512;0.0056914655;0.021542707;0.020019852;0.00711059;-0.06316849;-0.14039077;-0.071592815;-0.07341679;-0.010789839;0.028094465;0.06442405;0.033598483;-0.019997602;-0.15513247;0.20295356;0.08858378;-0.44595906;0.057870325;-0.06786409;0.0234808;-0.102582894;-0.27102506;-0.18058808;0.10717453;-0.12697646;-0.12663937;-0.10409418;0.21500684;-0.019683998;0.03249604;0.023655776;-0.37327668;0.05638991;0.027103635;0.5057982;0.023604184;0.061794635;0.06980374;0.04953839;-0.1256547;-0.18583542;0.043678742;-0.085725166;-0.035420116;0.27299625;0.09541743;-0.06818167;0.12370764;-0.0966394;-0.19474564;-0.054337483;0.06880169;-0.04710711;0.15780778;-0.009694859;0.3288351;0.042053245;-0.0010156301;0.06550193;0.046983544;0.041368123;-0.033540994;0.041049756;0.056785222;-0.06087752;0.002461467;0.077609375;0.39826986;0.1116835;-0.013226836;-0.061010174;-0.23030695;0.118848585;0.09177596;-0.04764882;-0.08752003;-0.11218553;0.10551165;0.016159806;-0.17183153;-0.022518342;-0.04193672;0.11400996;-0.011249227;-0.15882568;0.037362292;0.0087971315;-0.40818426;0.27333605;-0.07631936;0.019707961;0.061636414;-0.21303466;0.16238926;0.01388635;-0.036508847;0.014240368;0.0443757;-0.1560528;0.10416982;-0.19647767;0.07724951;-0.048010703;0.07940252;0.045797784;0.061472367;0.2536016;0.23041467;-0.22505997;-0.061449267;-0.35984752;-0.057177283;0.053736933;-0.2653389;-0.036247727;0.059594326;-0.047120284;-0.07019613;0.05728463;-0.06482433;0.12947148;-0.03878621;-0.00803138;0.008852322;0.119899765;0.35088608;-0.049112473;0.08409078;-0.15566984;-0.06901211;-0.27188006;0.011863294;-0.34793046;-0.010079208;-0.08009033;0.05547347;-0.15212747;-0.344424;-0.17192312;0.3088628;0.028988821;-0.10782794;0.00882357;0.044551022;-0.019585706;0.040218208;-0.20123488;0.14196855;-0.07757055;0.010240239;-0.039082423;-0.061794728;0.053631153;0.20567161;0.020060837;0.12957403;-0.6065391;-0.18350828;0.01744902;0.26245645;0.1502454;0.06370126;0.046750046;-0.16466838;0.07615768;-0.02212597;0.15026996;0.026786575;-0.1471843;0.06237235;-0.18137641;0.31135568;-0.20960417;0.062579356;-0.12487607;0.009199396;-0.015601889;0.009496505;0.09272203;-0.056696873;0.06025244;0.005530329;0.0645731;0.2303094;0.20501025;0.36856112;-0.0047663455;0.040831935;0.21823105;0.015155141;0.08218198;-0.35296255;-0.14419694;0.05910834;0.0330222;0.27677158;-0.41554314;-0.14619094;0.0048203324;-0.13470933;-0.02800986;-0.108663306;-0.19612336;0.013897804;0.18903397;0.4289897;0.010735699;0.05755932;-0.000969378;-0.11066161;0.014575931;0.2960174;-0.18917161;0.040437892;0.30548367;0.060281638;-0.10095767;0.17079984;0.03133657;0.08519665;0.06631519;0.26039067;-0.124163345;-0.008095273;-0.18252093;0.29970518;-0.011105478;0.064816184;0.0076886825;0.22928482;-0.10873751;0.064184316;-0.06610616;-0.0100902375;-0.36323258;-0.025190534;0.14279707;0.027262032;0.044152915;0.19667564;0.05156452;-0.05941291;0.39965585;0.08423859;0.19833604;-0.1305749;-0.13375118;0.36506966;0.33526793;0.09157501;0.0523391;-0.023203576;0.007433869;0.11744596;0.40475094;-0.11822527;-0.08381887;-0.02573974;0.15590046;-0.17010452;-0.101591;0.06902345;0.1913484;0.012719307;0.15843104;0.041838516;0.055673495;0.0005908558;0.37502742;-0.062125623;-0.046007395;0.03401876;0.22572827;-0.056228604;0.4285117;-0.065078095;-0.07889552;-0.3021967;-0.02889515;0.03685614;0.042657178;-0.04095564;-0.009264219;-0.22961126;0.05538805;-0.17768985;-0.2148757;0.047974892;-0.056700096;-0.026355054;-0.32683653;0.017686;-0.004193239;0.08311467;0.010969805;-0.024408305;-0.034727797;-0.22051534;0.09082127;-0.25023246;-0.107776836;0.03559693;-0.23626554;0.23086773;-0.13507399;-0.15716085;0.061971214;-0.48528776;-0.22632097;-0.05894568;0.24748288;-0.022106256;0.20516537;-0.107978635;-0.46327293;0.027241612;0.10468983;-0.10702332;0.14026351;0.19243214;0.13409549;-0.070040636;-0.05290237;0.024553167;-0.03634508;0.0226792;0.012473784;0.028699718;0.063616335;0.0409645;-0.14339519;-0.007346759;-0.07163173;0.022608213;-0.056445222;0.089738645;0.11500944;0.35457057;0.15604748;-0.0059426725;0.28521225;0.183055;0.026938755;-0.047413345;-0.10431344;-0.04011949;-0.22006455;0.17054556;0.14388055;0.0018038389;-0.053929802;0.38144213;-0.076761015;-0.11232587;0.137837;-0.09766017;-0.006170156;0.02569906;-0.06418425;-0.051127404;-0.036256853;0.023032013;-0.023079442;-0.2096794;0.027920036;-0.0036939299;-0.05344854;0.01820612;0.09097813;-0.25949574;-0.42233294;0.092123546;0.26331133;-0.07744702;-0.012521747;-0.021612108;-0.19039042;-0.1690162;-0.0022464674;0.08302213;0.026543759;-0.30883405;0.006030173;0.031306386;0.03992457;-0.03946278;0.2454702;-0.10261855;-0.043999165;0.06080334;-0.30356154;-0.0152453715;-0.23845437;0.024631111;0.12630731;0.008574781;-0.11484103;-0.031899977;0.26951322;0.18047619;0.058247935;-0.019748388;0.27799463;-0.026630951;-0.36236298;0.06319045;-0.056542646;-0.14442673;0.017628342;-0.031701975;0.068746075;-0.030702483;0.026783036;0.18921581;-0.25974372;0.05394416;0.012602898;0.2079356;0.05930422;0.23242421;-0.3015681;0.01247609;-0.011012256;-0.15977931;-0.07641869;-0.056297246;0.14743681;-0.094035886;0.07882519;-0.0066638053;0.08959551;0.18872139;-0.30622044;-0.18493392;-0.057726413;0.014466395;0.12304746;-0.036792655;0.10055911;-0.016305415;-0.004880338;-0.0738745;-0.08941085;0.15112464;0.0010186182;-0.020191701;-0.002943987;-0.27323887;0.071825355;0.2875742;-0.0012829307;0.05330458;0.026776897;-0.07200137;-0.035830144;-0.13738355;0.010031412;0.25646028;0.20506099;-0.097563036;-0.22709593;0.113171;0.038040143;-0.2084423;0.04062011;-0.05926113;0.22162786;0.0061165537;-0.11341414;-0.3724113;0.009401471;0.018029712;0.1345492;0.03395399;0.13227892;-0.022397162;0.070848405;0.08237484;-0.047519833;-0.1111184;-0.057225667;0.0715302;0.0092799235;-0.111032136;-0.02534347;0.39648378;0.19664069;-0.07769071;0.1373398;-0.11484853;-0.28677505;-0.051207487;-0.13251057;0.025897156;0.034690052;-0.03175976;-0.012190822;-0.09353389;-0.044919033;0.15792285;0.010366347;-0.04042464;-0.14485317;0.03148672;-0.0128578115;-0.36045867;0.15803178;-0.012743228;0.042442467;-0.3414591;0.19723143;-0.27488613;0.055942133;-0.007952836;-0.45055255;0.018321091;0.25946042;0.2774663;-0.009325499;0.28186125;0.057115294;-0.47084567;0.15524046;-0.075122304;0.016575575
0.1255936;-0.18498644;0.15929522;-0.16544785;-0.36756766;0.023717428;-0.23622113;-0.034235675;0.13214289;0.009548345;-0.17603126;-0.03826907;-0.044649694;0.158953;0.1234166;0.18383655;-0.04617838;0.2827377;0.0054241526;0.02373126;0.22521038;-0.08167385;0.05102218;-0.0070635146;-0.010509523;-0.1620467;0.1417867;-0.43354887;-0.053999387;0.03930051;-0.01468851;0.01435128;0.052840017;0.011591951;0.035158113;-0.15055785;0.01629632;-0.26079988;0.08655239;0.03700358;0.10400255;0.0063982056;-0.23736838;0.072252244;0.06402156;0.078128085;0.0317588;0.00618729;0.006460453;0.081160486;-0.14344102;0.007929704;0.017606031;-0.016182777;0.08772277;0.055704106;-0.1988874;0.05107437;-0.013955756;0.083253056;0.017526463;-0.10859607;0.05491882;-0.061359204;-0.002804771;0.16285259;0.12041659;-0.37232375;-0.032531284;-0.25331762;0.09736949;-0.09776708;-0.285177;-0.10343959;0.14654918;-0.16063073;-0.06185852;-0.18211369;0.11222224;-0.02402917;0.047692873;0.0016332316;-0.3676805;0.15767358;0.01434702;0.5878422;0.03065045;0.04436362;-0.06694439;-0.113491;-0.08620221;-0.10647853;-0.046013977;-0.044869658;0.054062545;0.34293595;0.004149385;0.02209551;0.2533926;-0.06241732;-0.273112;0.05048107;-0.056607235;-0.21237849;0.10420181;0.05016821;0.25433037;-0.059489973;-0.022079771;-0.0050866483;0.07277228;0.004075116;0.03553456;0.056738988;0.06863839;-0.118779615;0.14908484;0.093866006;0.47059786;0.107728325;-0.05710701;-0.027501114;-0.11911294;0.16985449;0.055155337;0.06305315;-0.21428818;0.0065566134;0.089994594;0.05972181;-0.26463345;-0.050610233;0.036702197;0.04421871;-0.0534801;-0.15737192;-0.034182273;-0.039587677;-0.27784994;0.22720002;-0.056158613;0.017541664;0.04972128;-0.13014214;0.298768;0.014586313;0.027211607;0.013240294;-0.056641065;-0.20536828;0.24344788;-0.20476164;0.079153754;-0.0138388015;0.087829255;0.00256355;0.030057566;0.2772119;0.21079014;-0.225004;0.009593364;-0.31584883;0.06528638;0.11580321;-0.24111673;-0.06676037;-0.01926845;-0.053674325;-0.021513255;0.034056485;0.024727246;0.07477714;-0.018533742;-0.062161673;-0.013497769;0.13506784;0.38879827;0.032275174;-0.021597466;-0.12164847;-0.06799086;-0.3492563;0.050684832;-0.33085796;-0.017332794;0.03877516;0.060405556;-0.16401212;-0.27933124;-0.14647782;0.32414755;-0.03779272;-0.09711796;0.030504355;-0.061781555;0.01309374;0.031688463;-0.2189211;0.06609562;-0.07097158;0.029865425;0.0406634;-0.0048304456;-0.020544432;0.2515686;0.02740356;0.11151188;-0.52060837;-0.14472175;-0.052384507;0.19430453;0.2364093;0.043932736;0.044361826;-0.14942554;0.09464767;-0.13163806;0.27378878;0.050710578;-0.11204008;0.08176417;-0.18123478;0.23561098;-0.2739092;0.020212095;-0.069648184;-0.010027167;-0.020663269;0.010632485;0.12712142;-0.07321333;0.04402344;-0.03980152;-0.00010347989;0.32057038;0.16833536;0.3351475;0.017365053;-0.058492374;0.18058814;-0.06119643;-0.014617994;-0.32856032;-0.083901;-0.07396319;0.0025112354;0.28979933;-0.27678356;-0.15916878;-0.061786667;-0.24266891;0.0059883883;-0.13368466;-0.15462637;0.026898256;0.09409432;0.43583423;0.0025702214;-0.049104914;0.025261117;-0.017253539;0.01720008;0.15848558;-0.16781323;0.02983227;0.35333616;-0.025702804;-0.096267395;0.15431236;-0.0066825785;-0.061927572;0.16711599;0.24533375;-0.03241826;0.07421069;-0.14215928;0.2161969;0.03802836;-0.0015150467;0.027875198;0.08884389;-0.112403706;-0.0038318632;0.040155243;-0.02277812;-0.4616145;-0.023490874;0.034013987;0.06717527;0.0052058725;0.208366;0.112514235;-0.058982145;0.2545783;-0.0049011395;0.14366959;-0.12980634;-0.04454983;0.36383614;0.2494126;0.031217549;-0.009788466;0.07588124;-0.025921823;0.08091808;0.3648234;-0.16024575;0.054270387;-0.04233054;0.078591466;-0.2555873;-0.06783972;0.005874727;0.10060067;0.0036989683;0.20836478;0.003870688;0.038675632;0.06520817;0.32044807;-0.0038867425;0.054754894;0.049790464;0.071196385;-0.048526414;0.40087083;0.008698215;-0.016292062;-0.19891194;0.101840444;-0.048017617;0.07112508;-0.12781404;0.07448553;-0.1259869;-0.050664864;-0.15748374;-0.16745059;0.17549802;-0.033188246;0.030545972;-0.26987275;0.053717893;-0.025292927;-0.02958834;0.042656623;-0.039162163;0.06517506;-0.12268064;0.09551269;-0.2650365;-0.13608482;0.116023906;-0.13745365;0.111239515;-0.2130006;-0.24638921;-0.043164298;-0.45809743;-0.19312282;-0.12278613;0.22985649;0.049036004;0.137661;-0.06649053;-0.43579298;0.043438323;-0.002074735;-0.00043185742;0.20362641;0.13579665;0.22315004;-0.011527992;0.07736612;0.020991646;-0.027524028;-0.0063074487;0.023533667;0.011328495;0.05771933;0.013493926;-0.118463606;0.026903734;0.028404864;-0.038759768;0.049408622;0.024194315;-0.07331412;0.2803523;0.24758418;0.009657993;0.2248258;0.18521954;0.07392902;-0.07836835;0.014144882;0.057051506;-0.20001532;0.1496761;0.1974835;-0.0043531074;0.049946345;0.5122515;-0.04133202;-0.05335425;0.10787729;0.030738039;0.049450845;0.07611159;0.012243226;0.059108216;-0.035693724;-0.058995895;-0.0015930607;-0.1580072;-0.07152595;0.08402983;-0.039699465;0.10332499;-0.056072593;-0.33294603;-0.35911003;0.016754007;0.23645054;-0.15610594;-0.052614417;0.0016166305;-0.13712583;-0.18684888;0.02875507;0.08590473;-0.046958603;-0.17025287;0.013512917;-0.030232433;-0.013046914;-0.074751385;0.29604346;-0.11000774;0.034619603;-0.035339955;-0.2414315;0.019036483;-0.25270036;0.047911424;0.19383001;-0.011744402;-0.092443354;0.050671693;0.25871158;0.22253461;0.029725684;0.015147312;0.26926738;-0.013069578;-0.29972485;0.06356758;0.055713102;-0.08473336;-0.009454069;0.061335538;0.039786145;-0.11344211;0.04800622;0.028791986;-0.2556153;-0.018939836;0.00957174;0.22919454;0.122426234;0.28879958;-0.26958293;-0.002941802;0.06304473;-0.1292323;-0.002652786;-0.056257635;0.1526078;-0.14855778;0.061712056;-0.07709084;0.13741548;0.27230498;-0.1577211;-0.12428811;0.059967503;-0.06562143;0.1615248;-0.048871554;0.20736754;-0.023765521;0.00951682;-0.10455977;-0.13847096;0.30162275;-0.06454037;-0.033455662;-0.02795094;-0.2083273;0.10339997;0.3342529;-0.044377334;-0.102737464;0.07539189;-0.0760011;0.07144874;-0.021912843;-0.039907806;0.2318446;0.2615096;-0.045591686;-0.22691014;0.055101234;0.040847976;-0.27314013;-0.1021673;-0.014691993;0.1946785;-0.059052356;-0.033249136;-0.2038872;0.00022099707;0.08137155;-0.0002003386;0.06349497;0.14186898;0.017079378;-0.040370483;-0.06551984;0.013960914;-0.12605573;-0.11250666;0.17484026;-0.0007613926;-0.1800175;-0.018321987;0.48893023;0.14446408;0.040217184;0.18034154;-0.04479134;-0.22481686;0.06331665;-0.15253517;-0.0018943389;-0.05612561;-0.17010875;-0.004215376;0.0017684145;0.020218266;0.13453463;-0.019251112;0.063470505;-0.12533912;-0.029336445;0.09325055;-0.22786629;0.30385488;-0.021241976;0.09759859;-0.3134956;0.15730502;-0.42923114;0.07042912;-0.0012897124;-0.31594357;-0.027671393;0.4303252;0.25389954;0.0073526683;0.20299317;-0.024177205;-0.47094408;0.1149469;-0.16075726;-0.1012837
0.07644344;-0.08736101;0.18598832;-0.12644427;-0.2879867;-0.046095822;-0.17929277;-0.013676874;0.057833914;-0.04724931;-0.1169423;-0.14070524;0.05089574;0.013171615;0.13446619;0.19974299;-0.015213154;0.2905704;-0.033189505;-0.031528547;0.22937511;-0.14212999;0.054133445;-0.15413028;0.04461952;-0.14392474;0.17305137;-0.42009354;-0.030633364;0.07831176;0.0891958;0.05890926;0.029855179;-0.076863654;-0.033639587;-0.22435763;-0.018851735;-0.21896201;0.104398295;-0.036205716;0.1402869;0.013320617;-0.16372503;0.009184041;0.0534816;0.027975088;-0.045588654;0.07832775;-0.06418988;0.10687529;-0.22789602;-0.03449712;0.055203002;-0.06491186;-0.07239912;0.0024218527;-0.2149944;-0.004368047;0.00729416;0.014860177;0.024603337;-0.1543229;0.028058019;0.08558131;-0.047664493;0.20192266;0.17231752;-0.37444216;-0.0514264;-0.29852796;0.013783235;-0.05431044;-0.17819597;-0.10460245;0.02191608;-0.23175636;-0.07546674;-0.10270975;0.111907706;0.030223737;-0.014527549;-0.013252417;-0.27782893;0.08283357;-0.05111905;0.5197844;0.05507732;-0.09190397;0.08352815;-0.1656554;-0.027906135;-0.16472682;-0.056889076;0.056705534;-0.059787195;0.3339578;-0.029015662;0.055357553;0.22104496;-0.12388108;-0.13996248;-0.029498743;0.0024767274;-0.19281225;-0.035944108;0.05757605;0.19278516;0.07370894;0.04140647;-0.031648964;-0.06365617;0.107962266;0.14665331;0.057423726;-0.0032087807;-0.16580454;0.13498373;0.059333846;0.43732482;0.04121334;-0.014820087;0.03922016;-0.18161684;0.09905247;0.19966051;0.124250785;-0.21193947;0.05400891;0.14612432;-0.07187781;-0.18539973;-0.15941897;0.047757853;0.032940727;0.06539769;-0.17989916;-0.12197266;0.13594504;-0.3073394;0.26451924;-0.049793713;-0.016590463;0.035567876;-0.021210786;0.21509415;-0.024312196;-0.05186548;0.10482724;0.05523404;-0.2129352;0.2128232;-0.3326253;0.06505232;0.04032972;0.107353106;0.061484214;0.039406452;0.24955766;0.24225383;-0.17391723;0.0009950403;-0.2916448;0.05610097;0.09946291;-0.22924346;-0.008378865;0.05464097;-0.046361063;-0.016291577;0.000986802;-0.031788547;0.15735213;0.07546612;0.011828635;0.05615423;0.08028709;0.4581955;-0.015219808;-0.011759143;-0.1881535;0.014556694;-0.28176722;-0.01972143;-0.36908633;-0.0061539705;-0.069909744;-0.060805418;-0.012801963;-0.18574177;-0.077748135;0.23105766;-0.018206362;-0.12797931;0.04250852;0.009240805;-0.07889499;-0.086313546;-0.15110691;0.005273788;-0.121165656;0.086781435;0.044299204;-0.032947656;0.015225233;0.17105761;-0.006824539;0.18510807;-0.4850071;-0.15449443;-0.006059686;0.14968383;0.17432596;-0.06154678;0.0077285194;-0.16651754;0.0328106;-0.06202417;0.26061952;0.08084042;-0.19399865;-0.07339833;-0.15745786;0.27090883;-0.09777442;-0.042321883;-0.21045592;-0.0385454;-0.026284149;-0.059281047;0.0115971;-0.12128864;0.05273088;-0.024758171;-0.05568165;0.22754742;0.33575413;0.2623877;0.04517241;0.03462502;0.20130719;-0.04805905;0.07185986;-0.35577497;-0.11237318;-0.022766465;0.059954382;0.24662602;-0.3054668;-0.041870702;-0.009981543;-0.13165759;0.033775352;-0.07841419;-0.09012127;-0.0784118;0.21156833;0.5116456;0.036950864;-0.045671284;0.08563409;-0.029492827;0.19813392;0.22230457;-0.15090427;-0.046187934;0.29897565;0.04434672;-0.10950267;0.14639968;-0.042834107;-0.011168347;0.21894829;0.2501528;0.009430164;-0.050994594;-0.18454213;0.19950086;-0.056445647;0.027678799;0.041576363;0.16675785;-0.16331378;-0.2290476;-0.09317197;0.04680746;-0.32007182;-0.024806004;0.16580896;0.11317175;-0.032738935;0.21328127;0.05530353;-0.014200311;0.26705155;0.023659296;0.23351634;-0.09175618;-0.09353554;0.3466918;0.1671442;0.11534046;0.04447401;-0.027447874;0.03118013;0.15666057;0.32457152;-0.10499226;-0.01216797;0.08487381;-0.029056977;-0.077960216;-0.110321246;-0.059631523;0.25691172;0.019480532;0.11922073;0.10568931;-0.01883826;-0.06420983;0.31204584;0.16522393;-0.043017883;0.049367793;0.08459048;-0.0361231;0.52070403;0.060920253;-0.08379126;-0.27835137;0.07186363;-0.072178856;-0.02363984;-0.09561219;0.045789223;-0.14251363;-0.048831772;-0.046332613;-0.24492322;0.0640726;-0.0731863;-0.014356314;-0.32895073;0.055785947;0.05580237;0.032947;0.06139994;0.046014134;0.020519068;-0.09401335;0.08504366;-0.23573998;-0.06848408;0.05155695;-0.041382767;0.17756972;-0.13662578;-0.19332357;0.016837837;-0.3728893;-0.15796977;-0.124718904;0.3042547;-0.019495143;0.04034534;-0.022688126;-0.41727045;-0.03431952;0.077720955;0.10565696;0.21757713;0.16830587;0.22328405;0.04805435;-0.035355505;0.045033444;0.03171326;0.04256371;-0.006460726;0.06961619;0.020973645;-0.0067736683;-0.10282487;0.006773772;-0.05827871;0.018265009;-0.054799948;0.14217629;0.016441658;0.219106;0.2789884;0.103651814;0.20310813;0.19580378;-0.050601073;-0.045056544;0.059782628;-0.004998965;-0.1118153;0.114374734;0.17851683;-0.056719556;0.07711786;0.4423897;0.047753382;0.06806522;0.17349525;-0.007407733;0.012779451;0.010830619;0.040241167;-0.055540875;0.028719295;-0.07166924;-0.030540066;-0.20510177;-0.07671435;0.03594761;0.03907753;0.25621504;-0.0064738495;-0.2693548;-0.34599993;0.14053863;0.14610565;-0.111093506;-0.011646956;0.014795142;-0.1496919;-0.2614288;-9.272309e-05;0.112686716;0.008745991;-0.30497295;-0.03799485;0.007789869;-0.13726166;-0.080432095;0.18486913;-0.060266815;-0.08830805;0.020061415;-0.1742773;-0.058651473;-0.22819406;0.18353088;0.13283387;-0.057831973;0.026866613;-0.017131489;0.25543922;0.1219575;0.004383274;0.07625705;0.21569173;-0.0715208;-0.38557237;-0.025771221;0.07579673;-0.12532334;-0.0686513;0.017330857;-0.06707364;-0.017986417;-0.051931843;0.07817685;-0.28601474;-0.06677838;-0.027559767;0.2827334;0.19564177;0.34146017;-0.28210345;0.04435342;0.06862892;-0.0349094;-0.044664573;-0.015393911;0.22126816;-0.1589184;-0.049823783;-0.034061134;0.1332793;0.30160522;-0.17777553;-0.25892076;-0.021731947;-0.056316722;0.003581699;0.0065309135;0.08842418;-0.03805011;0.12804072;-0.11241394;-0.15713903;0.13575809;-0.048080653;0.09355979;-0.02011828;-0.20388532;0.052371424;0.2866464;0.07290177;0.010744457;-0.057912435;-0.19410232;0.0028854953;-0.11660235;0.01346154;0.17833017;0.27309594;0.031741414;-0.2071199;0.1405956;0.08066641;-0.2954289;0.0013012384;0.090808325;0.15671141;-0.003590236;-0.043763768;-0.33988264;0.0043924637;-0.058788136;-0.04249055;-0.050556056;0.11615897;0.026768465;0.07950512;-0.026204532;0.05981563;-0.18267201;-0.06873896;0.009245865;-0.053742554;-0.1539959;0.053028774;0.4931374;0.25516194;0.025891798;0.25441873;-0.054224476;-0.2284647;-0.037599027;-0.1973879;0.0064350977;0.0785657;-0.049248364;0.011542459;-0.027562594;-0.006600447;0.14290302;-0.07173931;0.005485182;-0.11117506;-0.038709342;0.11012894;-0.27644977;0.21844698;0.022997104;-0.022154067;-0.37061915;0.035050467;-0.45546427;0.12769535;0.01162875;-0.4363745;0.04309352;0.36067456;0.18511362;0.05820968;0.32599038;0.031760644;-0.4729464;0.12310358;-0.25632372;-0.10015667
0.054037042;-0.21895851;0.23543061;-0.10364893;-0.30930427;0.004544347;-0.2201719;-0.004225621;0.03801712;-0.051052023;-0.013188248;-0.15074444;0.049626287;-0.011443086;0.1813705;0.1790873;0.08270629;0.29015744;0.013593986;0.11984066;0.2729667;-0.023493143;0.079976626;-0.051705893;0.10894256;-0.09010585;0.08779762;-0.37597308;0.031202473;-0.047592994;-0.033469252;-0.06610084;0.089438155;0.04616143;0.028621765;-0.1414161;0.06932627;-0.22955115;0.108534224;-0.11038956;0.219543;-0.04918339;-0.14854684;0.10067431;0.03275438;0.15904619;-0.05784777;0.0052233855;0.014732977;0.09375533;-0.27806172;-0.034975763;-0.059156623;-0.06864663;0.082289994;-0.015263293;-0.38599393;-0.0718385;0.015438431;-0.09823599;0.0111481035;-0.20935509;-0.06565714;0.009043523;0.17575976;0.023060389;0.13545203;-0.31799316;-0.017256645;-0.31688;0.12108304;-0.07208582;-0.2061674;-0.055524815;-0.023965813;-0.22867315;-0.08091941;-0.10920936;0.0903697;0.0005049427;0.039012697;0.046490293;-0.32113877;0.052434534;0.030532442;0.49144053;-0.04513752;-0.058916677;-0.014858116;-0.16567352;-0.08460292;-0.23386884;0.011309384;0.05814173;0.052875355;0.38778913;-0.039298087;0.010487966;0.16626528;-0.082271144;-0.23781854;0.051298883;0.07135027;-0.18469834;-0.07886012;-0.033915494;0.31069663;-0.026804514;0.06898014;0.036949925;-0.079225175;-0.0041586114;0.13751441;0.08387173;-0.04598715;-0.1857011;0.054326344;0.14633732;0.36292273;0.1462371;-0.033143576;0.01573224;-0.1549834;0.1724764;0.11046213;0.114010505;-0.14588086;0.10759045;0.19780087;-0.06967944;-0.18857494;-0.22020157;-0.07990352;-0.027714727;-0.06105878;-0.099526875;-0.12507078;0.0424157;-0.1461814;0.24255723;-0.050522443;-0.0051976307;0.16762333;-0.0032307277;0.34292936;0.0031552883;0.05229941;0.112638295;-0.0519396;-0.07826302;0.09128057;-0.32091644;-0.03204832;-0.09863824;0.09790842;0.10061921;-0.028707283;0.16801222;0.13446714;-0.1451966;0.13692367;-0.23398143;-0.046022583;0.11602378;-0.26328504;0.041321438;0.00021743296;-0.045434777;-0.0016983855;0.0935573;0.019694362;0.10768189;-0.047959197;0.050141778;0.05836995;0.10154995;0.22875081;0.07184951;0.10449612;-0.110342205;-0.08875497;-0.3929758;0.0366245;-0.38028228;-0.016535653;-0.046494707;0.017137246;-0.012347787;-0.17198122;-0.047257964;0.3113532;0.1398835;-0.081648916;0.2399286;0.011941643;-0.019773591;-0.090551995;-0.19070005;0.08494355;-0.20571421;0.04190401;0.0510668;0.0182012;-0.040059403;0.1744126;-0.02209214;0.14969228;-0.43156332;-0.21483538;0.038925912;0.24242403;0.17853065;0.03668415;-0.008389734;-0.12278795;0.030291595;-0.1346658;0.22803901;0.08096647;-0.08589854;-0.15031095;-0.09619809;0.30293292;-0.12426216;0.043156415;-0.12525281;0.055319853;-0.040609438;0.057050735;0.07327383;-0.19275865;0.12313913;-0.023614446;-0.01631218;0.3407093;0.19039446;0.24290027;-0.02673834;0.049660005;0.08423489;0.011382662;0.05221651;-0.3528871;0.016270954;0.06828101;0.0011321715;0.20791134;-0.33241263;-0.08966986;-0.024688704;-0.19002971;-0.06360918;-0.061237138;-0.048664052;0.042175744;0.25963426;0.5565223;0.06812142;0.017691426;0.06201639;0.086685516;0.25392756;0.2514351;-0.1335995;-0.018755043;0.24356003;-0.028874403;-0.045372672;0.12322104;0.04666404;-0.04812854;0.21917585;0.2582201;0.12727374;0.016528882;-0.18185002;0.20121804;0.043993838;0.099637695;-0.032616373;0.2407481;-0.1387785;-0.19781342;-0.08817866;0.04051419;-0.4609459;0.052530956;0.058785003;0.0037168704;-0.06804194;0.20997596;0.15939699;-0.13604009;0.13121155;-0.006105835;0.14211653;-0.041566044;-0.0057577863;0.27376688;0.057135265;0.025823131;0.01417307;0.09303455;-0.01926554;0.0762142;0.25620705;-0.15519305;-0.05814419;-0.03182234;-0.11282923;-0.045241196;-0.08403947;-0.015166858;0.2505912;-0.014867726;0.16339521;0.08428522;-0.03464387;-0.004821665;0.32345563;0.0970696;-0.06951827;0.16839817;0.06522543;0.031840567;0.44102663;0.022881798;0.019856712;-0.34072036;0.101710126;-0.08317073;-0.059838757;0.049516346;0.12582715;-0.010639358;-0.038136642;-0.05187498;-0.21512835;0.09846306;-0.0806102;0.012104748;-0.3508739;0.02476083;0.088849075;-0.008524029;-0.055965565;0.030398997;-0.06503884;0.020542476;0.25676385;-0.31695476;-0.04745692;-0.063604064;-0.06775622;0.07126826;-0.19147192;-0.06017209;0.050386038;-0.37079817;-0.23589735;-0.21125738;0.27881038;0.018979648;0.06644125;-0.022921799;-0.26481986;-0.01685414;0.03697807;-0.037095595;0.27955958;0.1575064;0.15327722;0.015778033;-0.0071433727;0.009367387;0.039769135;-0.015645629;0.018052325;-0.019938912;-0.07306368;0.00021603743;-0.02635261;-0.05103093;-0.10260719;-0.021129303;0.019150546;0.15756112;-0.03460811;0.32279694;0.19899753;0.06575;0.28699562;0.21069214;-0.0068401764;-0.043663967;0.07551195;0.033401947;0.040236358;0.169209;0.14391151;-0.017146707;-0.0212077;0.47890618;0.008125836;-0.043814357;0.20176898;-0.010438751;-0.021170387;-0.091933765;0.030289073;0.025767606;0.06765983;0.07027309;-0.04070703;-0.030599609;-0.064787276;0.092213646;-0.036230158;0.17376408;-0.0010660483;-0.2977519;-0.34790865;0.07935583;0.17544602;-0.08746648;0.045674257;0.016750438;0.0012161112;-0.23813872;-0.033382308;0.13863586;-0.14568555;-0.24665233;0.017184492;-0.049553692;-0.015141464;-0.07418713;0.0886985;-0.09147507;0.04549725;0.006393065;-0.13747464;-0.05054195;-0.2395271;0.07074984;0.08175308;0.049003277;-0.037395913;0.037225492;0.3534408;0.19617777;-0.050308507;-0.102018386;0.11030076;0.0184524;-0.39475217;-0.023814805;0.06776751;-0.23311774;0.0011173354;-0.015355481;0.06765815;-0.07064214;-0.07911872;-0.025711006;-0.12704058;0.058430642;0.005205034;0.21209584;0.25589868;0.22171786;-0.37559602;-0.078881495;0.15565109;-0.032885496;-0.018775929;0.0059588454;0.19099998;-0.10100962;-0.018479325;-0.05301784;0.11618684;0.25006917;-0.124848336;-0.2889197;-0.024598613;-0.16193931;0.06772135;0.09379747;0.18492675;-0.021241143;0.13360836;-0.053080603;-0.21362004;0.24707484;0.064416;0.052416157;-0.022504322;-0.16712545;0.1606141;0.36210388;-0.049245752;0.021764487;-0.042426914;-0.10964303;0.014058444;-0.16647586;0.029856713;0.08935242;0.26232076;-0.007936921;-0.31853673;0.12129465;-0.05385948;-0.17100827;-0.106418476;-0.043070044;0.1566536;0.012565516;-0.014892079;-0.2618587;-0.022221113;-0.014695822;0.072246626;0.031352237;0.20735864;0.05043678;-0.020215558;-0.018629147;-0.05895553;-0.11902309;0.033308607;0.12672389;-0.07129614;-0.12104381;0.0972214;0.40067297;0.22863315;0.048017085;0.18852665;0.06988327;-0.09753528;0.00084415055;-0.08416619;-0.004306795;0.09232045;-0.15043499;0.020446897;-0.042059585;-0.047737688;0.059136406;-0.03125206;-0.07089991;-0.14295448;0.028695222;0.0485414;-0.32313955;0.15347439;-0.013554931;-0.037965503;-0.33497474;0.0977684;-0.36420298;0.13119353;0.0016001422;-0.4569197;-0.084433556;0.40277475;0.2679461;0.12223287;0.24397214;0.021208743;-0.43918896;0.09950943;-0.300699;-0.07439661
0.13035099;-0.09204074;0.14349489;0.026117895;-0.24442366;0.058885206;-0.3048317;0.06269754;0.12099332;-0.05149626;0.09251659;-0.116774276;0.028241416;0.008548311;0.10794037;0.12280177;0.06945777;0.22537845;0.029393561;0.09732061;0.25269952;-0.09503543;0.08047265;-0.04817274;0.13120499;-0.25040483;0.07956495;-0.30470642;-0.047650985;0.03033908;0.020903705;-0.10120913;0.16942213;0.04444056;-0.04784156;-0.22555465;0.085520215;-0.19352987;0.19216776;-0.016563743;0.1151635;-0.042896636;-0.22226895;0.05350519;0.026214605;0.101430066;0.0070736557;0.052453723;0.032045126;0.0569333;-0.3448151;0.026511636;-0.0579607;-0.06367381;0.055760138;-0.038931705;-0.25181112;0.022576643;0.08462935;-0.027707584;-0.07228398;-0.23432933;-0.040604196;0.065741375;0.19604246;-0.027230192;0.12826368;-0.18459858;0.017825522;-0.27916333;0.0015447899;0.00200852;-0.17726454;-0.07790991;-0.009437824;-0.28058025;-0.16388525;-0.16963968;-0.024404444;0.05158594;-0.055449117;-0.017151093;-0.44509158;0.11686572;-0.09220274;0.53554964;0.0906282;-0.0039583826;-0.014926834;-0.26208135;-0.055051796;-0.16660409;0.049184863;-0.0029040126;0.03906873;0.2871867;-0.0083346795;-0.10124605;0.16755086;-0.07904519;-0.010540906;-0.06629845;0.0064540748;-0.16097522;-0.009701713;0.058445547;0.26330096;-0.01247602;0.030946853;-0.06593877;-0.09651798;0.111608535;0.026170075;0.024813654;-0.04894168;-0.18411899;0.018402401;0.14793947;0.18549584;0.10900861;0.034926455;-0.03580918;-0.11350877;0.2008476;0.1415277;-0.024344634;-0.1757951;0.13264802;0.26097676;0.0698406;-0.09399509;-0.21364872;0.032176923;-0.05152059;-0.021763615;-0.030998794;-0.00037110056;0.22213107;-0.09736616;0.2409396;-0.07511887;0.029770788;0.18306817;0.056771956;0.21778809;-0.057731647;0.056536436;0.02924245;0.06051313;-0.16356567;0.2364874;-0.2649555;-0.062491205;0.061011117;0.15230104;0.095620565;0.061548397;0.21754783;0.23311408;-0.107282415;0.17644176;-0.22818916;-0.015308417;0.09239238;-0.22783189;0.013690629;0.03859973;-0.08627913;-0.024475105;-0.050961014;-0.059694454;0.14106484;-0.035416543;-0.07254365;0.009801776;0.021293053;0.2860309;0.050099064;0.07319165;-0.0050859237;-0.08056931;-0.292145;-0.004530426;-0.49930474;-0.08037094;0.011557869;0.015214667;0.034211207;-0.2902981;-0.09799741;0.22508956;0.098343566;-0.038283963;0.29574353;0.015762221;0.036498923;0.015697215;-0.22478;-0.039466854;-0.18366106;0.067036256;0.03467757;-0.004626486;-0.03874107;0.09387687;-0.004591249;0.115844436;-0.33991376;-0.25638598;-0.013024719;0.10583669;0.07483706;6.762856e-05;0.043390166;-0.06973148;0.13301101;-0.026469877;0.2175911;0.06760825;-0.074571796;-0.25586453;-0.12234047;0.32972622;-0.12023827;0.032865178;-0.17516509;0.10865307;0.006933554;-0.019119496;-0.02460561;-0.03390644;0.20601726;0.031100813;-0.035153847;0.3524817;0.344075;0.28516716;-0.010067607;-0.04647396;0.0057758368;0.09184119;0.0057753236;-0.23736165;-0.028271563;0.014446834;0.0454976;0.100072056;-0.36563855;-0.19102521;0.06741411;-0.07011551;0.059390634;-0.0016435059;-0.11586326;-0.020718263;0.22890083;0.6238832;-0.022478845;-0.10204793;-0.040769476;0.10752415;0.23767523;0.22625263;-0.16525772;0.026668197;0.32836267;0.060947996;-0.049833294;0.2290012;-0.08809414;0.0763726;0.13096401;0.3708613;0.14443131;-0.034132674;-0.19771804;0.0071302936;-0.014139483;0.0042800535;-0.017145414;0.25906885;-0.23044845;-0.18549971;-0.14058058;-0.0520747;-0.37508655;0.02135846;0.037150633;0.043743003;0.048512507;0.10961039;0.090759106;-0.18200469;0.17111132;-0.038661487;0.18482661;-0.09918548;-0.05714537;0.3306869;-0.03479185;-0.023843497;-0.0586275;0.023528475;0.0023038299;0.123848215;0.32739922;-0.13208516;-0.004961799;-0.0070315576;-0.10417749;-0.09409228;-0.15091215;-0.03904989;0.26804942;0.082541935;0.10187023;0.04590979;-0.016778212;-0.0023259337;0.33629578;0.20329182;0.06309115;0.0005825319;-0.07572054;0.054102387;0.4529707;-0.0042994246;-0.030029526;-0.30540943;0.124914;-0.030171448;0.009910346;0.013121231;0.06255118;0.08320813;-0.060191914;-0.014490824;-0.31381977;0.1348285;-0.008012955;0.065545455;-0.34194574;-0.072883844;-0.0073859473;0.08007558;0.03146931;0.028040377;0.06379054;-0.014867085;0.31107485;-0.37366182;0.029573899;0.0048942263;-0.001883881;0.17692648;-0.1581373;-0.15129575;-0.036214743;-0.354493;-0.1169345;-0.25462413;0.21075805;-0.012531801;0.012477522;-0.1335651;-0.22269128;0.061386265;-0.036556177;0.06176904;0.2340355;0.018360533;0.24228886;0.038312376;-0.008367802;0.0071060294;0.08611028;-0.010224115;0.014476639;0.088784404;-0.0032943783;-0.04549002;0.10809269;-0.047374498;-0.062075518;-0.017609408;0.066386595;0.02896171;-0.0840981;0.2814447;0.09071852;0.12063554;0.28400657;0.23177452;0.050553035;-0.12671345;0.1004698;-0.07718122;0.097663425;0.24126989;0.15943591;0.06774288;-0.074498996;0.4740149;0.05246646;0.11424147;0.17843318;0.024084821;-0.08243539;0.03234165;-0.032995537;0.067160405;-0.02598873;0.121968344;0.045534894;-0.116271876;-0.0017732615;-0.016729841;0.022092309;0.2828847;-0.0760218;-0.31462225;-0.24466336;0.13110487;0.1314139;-0.19390307;0.074465044;0.0024924458;-0.087519825;-0.23523912;-0.0059637483;0.10656318;-0.11029842;-0.27232116;0.057471287;0.07055514;-0.10669196;-0.084008574;0.08705393;-0.016298808;0.051640373;-0.07623561;-0.14930175;0.07349866;-0.3426373;0.21756518;0.16802454;-0.022045491;0.0039843395;-0.01281546;0.41080552;0.21102862;-0.07536388;0.077332415;0.076356925;0.012372501;-0.46085712;0.0055646957;-0.07089852;-0.1340906;0.07947778;-0.029336775;-0.024879703;0.014869883;-0.11352499;-0.020161252;-0.1898589;0.045418948;-0.11243857;0.3512792;0.12437018;0.18141219;-0.33553347;0.053253207;0.15666802;-0.06911942;-0.020932337;0.01864505;0.19463852;-0.1444589;0.054692227;-0.09487485;0.11512855;0.3738864;-0.23577295;-0.15381588;-0.09153753;-0.16841426;0.12367057;0.026672605;0.1809302;-0.005556449;0.11989597;0.024774408;-0.13155195;0.18665043;0.024476042;0.17643087;0.08340377;-0.15518308;0.15877728;0.30393267;0.01162168;-0.041182455;0.039741702;-0.088747285;-0.078602016;-0.045192763;-0.018665377;0.192603;0.10597319;-0.08523813;-0.16098477;0.14231707;-0.04130344;-0.1710082;-0.012530781;-0.035774678;0.23880787;0.036626607;-0.137252;-0.30838913;-0.073333286;0.0404836;0.059477612;0.0772611;0.10930935;-0.027003018;-0.027903596;-0.03131552;-0.002897472;-0.16570589;0.0943638;0.17799251;0.08029675;-0.22402334;0.04637207;0.39190418;0.15764153;-0.0014160326;0.2315665;-0.031159477;0.011819927;0.02261709;-0.20084758;-0.030401574;-0.05395979;-0.09588221;-0.01748157;-0.004878904;-0.018514054;0.096376;0.06170723;-0.03371311;-0.051402662;-0.009254341;0.027758537;-0.18627793;0.17165129;0.01719455;-0.042863645;-0.3524128;0.060309317;-0.34224182;0.08509926;-0.017500395;-0.34215775;0.027574157;0.3245894;0.22766607;0.02049529;0.27171978;0.044925313;-0.36514756;0.08794704;-0.14428166;0.0062541333
0.068011194;-0.10330588;0.16228531;0.078074545;-0.272843;0.025416844;-0.22166026;-0.05766545;-0.03254741;-0.018846061;0.10970533;-0.055213906;-0.021328146;0.104408614;0.11217834;0.114766195;-0.054910928;0.28752106;-0.04690237;0.114032194;0.31423286;-0.039823998;0.0259027;-0.07702093;0.14958873;-0.1385934;0.14313412;-0.31009254;0.028804658;-0.025684915;0.11733282;0.033414517;0.16967686;0.049857933;0.05918757;-0.18614966;0.021355905;-0.06317707;0.084681176;-0.12580635;0.14664528;0.052039452;-0.16282274;0.08415381;-0.14702183;0.023338128;0.0466983;-0.08101373;-0.040915992;-0.012648213;-0.3645329;-0.0108055;-0.12223446;0.041624058;-0.07288306;0.020130297;-0.3880377;0.055328246;0.13351342;-0.065829866;0.002094684;-0.12703162;-0.039654575;0.11456012;0.08353074;0.052760545;0.037275683;-0.03393692;0.026224472;-0.2090042;0.010580647;0.084411204;-0.20649888;0.0015318538;-0.013210422;-0.27637142;-0.24051522;-0.14164716;0.03228989;-0.025493126;-0.000593685;-0.036044337;-0.3241611;0.11272873;-0.038263418;0.49835116;-0.028694635;0.070984654;-0.017873092;-0.2644631;-0.046642676;-0.112382464;0.033073306;0.017870998;0.0030060906;0.27766562;0.056131735;0.0034353596;0.17726724;-0.1359112;-0.04813377;0.07108194;-0.005609681;-0.18850496;-0.04555914;0.0012631217;0.23821679;0.05441148;-0.030420395;-0.07011428;-0.080884166;0.10010487;0.22543877;0.1388411;-0.015184033;-0.32621178;0.1134072;0.05764709;0.15360516;-0.0029581236;-0.09527508;-0.0038924592;-0.07032835;0.29814905;0.21733999;-0.036446456;-0.22705598;0.057316083;0.21079357;-0.052615315;-0.13564338;-0.18985438;0.025981441;-0.07585662;-0.033532817;-0.024015658;-0.0033999954;0.05150476;-0.09740595;0.26278946;-0.007963325;-0.05205097;0.11413669;0.10345878;0.18264543;0.057616122;0.023165364;0.024166225;-0.03412687;-0.19590482;0.14585635;-0.2694806;-0.042891007;-0.035169348;0.21245515;0.22507748;-0.073260956;0.07722266;0.179679;-0.09684355;0.2077134;-0.28207746;-0.08491676;0.06413668;-0.14040954;0.04094164;-0.00499816;-0.19142234;0.12084652;-0.04562726;0.047419507;0.12912303;-0.03649409;-0.013333801;-0.056284126;0.05344149;0.21293223;0.050252616;0.23567288;0.050680682;-0.18107225;-0.34004658;-0.0441071;-0.50616956;0.01631961;0.085578874;-0.031618897;-0.090396516;-0.14699791;-0.02581849;0.2841079;0.080580175;0.037355207;0.26208967;-0.0060058576;0.003663315;0.04720434;-0.10807828;-0.014745654;-0.14758188;0.06252449;-0.057308875;-0.029829001;0.019107502;0.10217913;0.074099235;-0.005022255;-0.27319127;-0.11117718;-0.043000735;0.07237424;0.17163636;0.037298176;0.014559727;-0.1410059;-0.024234174;-0.018404175;0.20479022;0.13632016;-0.11033509;-0.3101446;-0.14930819;0.34368768;-0.046631683;0.010319512;-0.14673187;0.1975098;0.042592753;-0.005252101;-0.11216298;2.1385316e-05;0.12996815;0.077446714;0.045911305;0.20501532;0.3542431;0.38654393;0.015630607;0.056531798;0.019480955;0.03117552;0.013642556;-0.26759332;0.03213449;-0.010277737;-0.04361273;0.08436438;-0.3059447;-0.2080177;0.077998705;-0.05607715;-0.008118006;-0.052468188;-0.1660414;0.025003742;0.26244646;0.5348964;-0.05124981;0.0013964502;0.089792155;0.09334088;0.21832968;0.066418946;-0.3497438;-0.052350756;0.4083981;0.026004206;-0.03340091;0.19971023;0.070023336;0.032214213;0.044697177;0.36282143;0.111094534;-0.021328984;-0.20624514;-0.037170768;-0.042373065;0.038097624;-0.018599622;0.13361901;-0.09719835;-0.27137882;-0.16328643;-0.03439849;-0.4186634;0.041351397;-0.03755418;0.037605625;-0.020847289;0.12896733;0.17008488;-0.2326373;0.16550322;-0.03358702;0.053384166;-0.004772969;0.03353726;0.26437566;-0.0038866536;-0.10223349;-0.023966437;-0.005991602;-0.033306718;0.012697195;0.23729977;-0.16486545;0.045906916;0.067317516;-0.13833584;0.0829807;-0.052388515;0.028967084;0.23163864;0.11731061;0.08346022;0.01824092;-0.030517483;-0.023544041;0.3346792;0.159515;-0.06835344;-0.017245084;-0.12696387;0.035078477;0.28243694;-0.0028624162;0.06284969;-0.2934244;0.061645642;-0.16472858;0.01911008;0.09258586;-0.042363234;0.014020131;-0.031372342;-0.020456161;-0.27360135;0.08387815;-0.06646204;-0.07527927;-0.21382566;-0.06648725;-0.06261646;0.057479415;-0.048406705;-0.06637482;-0.04126137;-0.10102182;0.2670008;-0.3677168;0.026735498;-0.05085666;-0.0305761;0.033932257;-0.10764109;-9.21823e-05;-0.026699916;-0.18373677;-0.06783093;-0.19463587;0.07901179;0.0055464096;-0.16229396;-0.092463516;-0.20518;-0.01611683;0.070974246;-0.034312047;0.2852513;0.18579896;0.25169188;-0.07196829;-0.030039934;0.038288534;-0.051988263;0.043408066;0.012025312;0.07904538;-0.0726858;0.07598017;0.10427353;0.046986133;-0.1270862;-0.014510546;0.016340977;0.04919271;-0.046238225;0.26731303;0.18665215;0.10641051;0.23957795;0.08130617;-0.04277747;-0.09674277;0.024389975;0.059338912;0.05467615;0.21153554;0.13664047;0.12956992;-0.066220015;0.40828985;0.040014356;0.038145643;0.30867144;0.14979728;-0.010522243;-0.09647074;-0.06170052;-0.056870177;-0.07423292;0.15710126;0.01336506;-0.021197837;-0.04527104;0.09942245;-0.01528871;0.25245735;-0.03203219;-0.22861916;-0.1982405;0.08975226;0.1588386;-0.19239531;-0.08167468;-0.02244923;-0.12483273;-0.23116438;0.00549369;0.12912637;-0.18232156;-0.25137436;-0.04383752;-0.04534514;0.012302822;-0.029027551;-0.10301265;0.017706973;-0.020992227;0.031006003;-0.09004461;0.029906431;-0.31980407;0.1794792;-0.014310453;-0.032015;-0.03039816;-0.06688541;0.46932468;0.13555446;0.050275814;-0.049128573;0.14719278;0.05984025;-0.50099045;-0.063674524;0.046542928;-0.18913457;0.0066555855;-0.032810956;0.0331475;-0.10126077;-0.06956533;0.02213849;-0.106060855;-0.006954786;-0.021994937;0.25305286;0.15235601;0.24948432;-0.28241956;0.07019907;0.06819315;-0.19708931;0.084523425;0.032596394;0.20226113;-0.12023045;-0.011765149;-0.12838627;0.10435221;0.39617744;-0.18526664;-0.19790013;0.007981485;-0.1828258;0.054697804;-0.011979301;0.16143669;0.027478578;0.027257279;-0.055369753;-0.17551073;0.21821176;-0.04291282;0.19937056;0.07781941;-0.11048632;0.19085927;0.28788757;0.012707294;0.03804288;0.025903473;-0.04825363;0.0023498647;-0.14420265;-0.027843488;0.15455948;0.22445862;-0.15677594;-0.043664582;0.0892939;-0.06717042;-0.1482509;-0.15263;0.04732473;0.07899171;-0.0041163987;-0.071046345;-0.29101053;0.051495206;0.02366997;0.024629945;0.017453576;0.25442326;-0.02710631;-0.033547483;-0.029157612;-0.03187738;-0.20060559;0.063415304;0.080029935;-0.055055372;-0.11366617;-0.0034467988;0.373858;0.21917334;0.051056165;0.15894356;-0.05650031;0.028875101;0.03064732;-0.12243569;-0.025185494;-0.047216844;-0.2158953;-0.023591625;0.047107913;0.068489194;0.22507459;-0.04336268;0.053797062;-0.0010013252;-0.0640459;-0.049770623;-0.13548213;0.24043836;0.025266938;0.0050136624;-0.4626784;0.057231385;-0.43544915;0.18498881;-0.008918212;-0.4486374;0.022459053;0.22314024;0.31157202;0.020382883;0.230501;-0.09142325;-0.34331772;0.049069244;-0.25638035;-0.074044436
0.11407414;-0.13331278;0.2092397;-0.07746349;-0.35391667;-0.006573719;-0.23368435;0.036475044;0.071270354;0.06318972;0.1878283;-0.04897675;0.011456224;0.0025051709;0.18288924;0.19947211;-0.03495984;0.29360175;-0.0553601;-0.029012619;0.27943063;-0.057255838;-0.086966805;-0.17945343;0.09074458;-0.23168403;0.07757568;-0.38191396;0.081630014;-0.044630013;0.07567956;-0.09932932;0.13025907;-0.07672015;-0.044996455;-0.18293782;0.14537807;-0.09086447;0.039229587;-0.08459366;0.0065394863;-0.08501071;-0.10793997;-0.002530749;-0.1871683;-0.15441409;-0.060029708;-0.093716554;0.05687238;0.021171736;-0.40423882;0.041528396;-0.08964208;-0.047491856;-0.07269025;0.025626449;-0.42909276;-0.059089176;0.20308267;-0.06580243;-0.07308186;-0.1775903;-0.02609571;0.13596512;0.111691035;0.054744583;0.21118961;-0.060292456;-0.063479654;-0.23557338;0.08520036;0.04232408;-0.2161764;0.02728433;-0.09194044;-0.27425146;-0.21314742;-0.17650558;-0.043296047;0.0008486636;0.019004742;0.029470006;-0.39341414;-0.058535002;0.018662779;0.4474057;-0.04666908;-0.0029614992;0.03007808;-0.1854846;0.10057239;-0.1316298;0.021014985;0.03229928;-0.035017516;0.2758626;0.076208405;-0.0049424814;0.1554163;-0.20358226;0.016084008;-0.041772693;-0.02529646;-0.21379131;-0.02202806;-0.07402469;0.34930176;-0.037517685;-0.061273728;0.07756331;0.06738887;0.10355597;0.20843002;0.06405397;-0.0034286375;-0.20158207;0.11969841;0.15368064;0.08218293;0.04540087;-0.2181421;0.017547956;0.0821531;0.35454285;0.113886386;-0.03160342;-0.080497876;0.027850352;0.22100998;0.0048848432;-0.26932433;-0.03936322;-0.04207385;-0.06377985;0.036168233;-0.07571446;-0.06261554;0.13526522;-0.12239518;0.22344775;-0.015972354;0.0024675038;0.15802205;0.0057553123;0.31053966;-0.0029403493;0.04060722;0.10309937;0.08256571;-0.034443602;0.0077229673;-0.2623868;-0.06404484;0.07450097;0.04322595;0.19232361;-0.06250539;0.012080535;0.15639871;-0.11882722;0.3135378;-0.1585129;-0.06509917;0.0490694;-0.050407615;-0.061262783;-0.020969592;-0.08617913;0.0045484346;-0.041593693;-0.031377193;0.082890704;0.041313477;-0.09284426;-0.0049647307;0.07366686;0.17359397;0.13107274;0.043734323;0.0602258;-0.18753584;-0.24547648;0.036384657;-0.4463313;0.03911861;0.06240976;0.01979039;-0.028682489;-0.268716;-0.13028537;0.16339305;0.062833615;-0.101804145;0.4111017;0.021703461;0.01695456;0.009324903;-0.24508117;-0.050977368;-0.10777784;0.0880158;-0.09492654;-0.026436998;-0.05734462;0.069421485;0.090189144;0.17760135;-0.35714468;-0.22685477;-0.006010901;0.12935327;0.033831745;-0.05806067;-0.069881365;-0.037550207;-0.06840472;-0.08447206;0.046415687;0.072255805;-0.19190943;-0.28112847;-0.08490078;0.251854;-0.090923645;-0.059450228;-0.13505425;0.28724602;-0.015846662;-0.031363953;-0.020082146;-0.026147312;0.28282762;-0.047749758;-0.016720505;0.14142478;0.41197157;0.2994439;-0.0064557903;0.03556748;0.017986009;-0.050251164;0.05851763;-0.3405666;0.08417339;-0.07334231;-0.017289279;0.10749737;-0.40834436;-0.17663135;-0.026851675;-0.118933804;0.006606671;0.08605427;-0.10917158;-0.06341157;0.287371;0.5743896;-0.047929153;0.0347898;0.18623017;0.104645796;0.1329883;0.09893449;-0.40719515;-0.013382121;0.2637882;-0.039993044;0.045352336;0.21566209;-0.046816543;-0.041689593;-0.06115005;0.40912068;0.14408065;-0.035416998;-0.24903671;-0.004367038;-0.041780088;-0.03992219;-0.018705046;0.22093627;-0.14402665;-0.17523739;-0.18913202;-0.068522856;-0.49019697;-0.0125614945;0.0440944;0.046945773;0.06452933;0.25790694;0.14818636;-0.31936505;-0.025804622;-0.027052514;0.030347964;0.00076412765;-0.033452775;0.3466771;-0.02410227;-0.15025714;-0.06317138;0.03710725;0.016751168;0.09520178;0.119092315;0.024927415;-0.01575844;-0.043950755;-0.30457407;0.107657366;-0.05052667;0.013714187;0.26666296;0.14086576;0.07422853;-4.935007e-05;0.10160921;0.09507271;0.2043758;0.14003427;0.05561916;-0.063493736;-0.078274064;0.019022869;0.20133847;0.010264641;0.017866146;-0.29736257;-0.059109263;-0.06827721;0.03351577;0.14507614;-0.024141598;0.1193264;0.056201216;0.10200355;-0.39885405;0.08994223;-0.06739703;-0.065292165;-0.2023649;-0.08022778;-0.00080028013;0.04042621;-0.064854935;-0.047298852;-0.0033094885;-0.032839213;0.20048763;-0.3040125;0.029551681;-0.14485851;-0.07844297;0.0903414;-0.036839586;-0.061877828;0.030329369;-0.19513512;-0.2201539;-0.25875446;-0.07305485;-0.01776231;-0.2360525;-0.015916817;-0.20304915;0.018055202;0.08592905;-0.093434416;0.2404096;0.12977152;0.3267505;0.03377744;-0.022452509;-0.06515511;-0.016231703;-0.037499126;-0.0020844017;0.0067372266;0.003159441;-0.05077259;0.24247728;-0.019946748;0.03279797;0.04331149;-0.02116483;-0.017325016;0.03139171;0.281837;0.14249599;0.18891625;0.33203182;0.10372064;0.0399768;-0.2010729;0.09088859;-0.0020582213;0.10487698;0.3603949;0.073928714;0.10722207;-0.035787053;0.34895492;-0.0050821276;0.16250642;0.2796866;0.08782341;0.016350608;0.041071862;0.009034622;-0.023186661;0.04518402;0.11197587;0.04036474;0.049049836;-0.060627647;-0.010139813;0.030518737;0.26376307;0.07064134;-0.29300532;-0.21346952;-0.093270496;0.24214026;-0.1390049;0.07130358;0.021028621;-0.09497724;-0.23803379;-0.03836229;0.05715987;-0.1911334;-0.10164686;-0.009338969;0.030283717;-0.038199686;0.16751623;-0.110203266;-0.094660826;-0.06954107;0.009837021;-0.093400784;0.025902696;-0.30672485;0.056645792;0.036741015;0.01804645;-0.15151946;-0.03300427;0.43361005;0.15049987;0.045294125;-0.09469505;0.15933773;-0.02131584;-0.42300507;0.024595812;0.09018643;-0.23798947;0.013823078;0.012163827;-0.030834183;-0.0679107;-0.10682524;0.069995195;-0.15542738;-0.065024644;0.036538195;0.32830054;0.14040436;0.1673824;-0.23324127;0.03478037;0.11803245;-0.105021454;-0.017699402;0.025848424;0.118635446;-0.2716286;-0.068202354;0.025096728;-0.096236505;0.45629895;-0.17877425;0.0013845076;0.062152885;-0.14765444;0.077883765;-0.05634289;0.12410648;-0.025810868;-0.07471924;0.077640794;-0.051682323;0.15977605;0.046020083;0.18160994;-0.07421039;-0.017135024;0.089718916;0.30338028;-0.027274337;0.033604946;0.02752762;-0.037777767;0.007174903;-0.11661528;0.03259948;0.108591415;0.22808771;-0.23525058;-0.07137317;0.15540302;-0.00047606812;-0.115421325;-0.20472173;0.054432236;0.08938354;0.007003139;-0.048925348;-0.2148672;0.07102004;-0.022906965;-0.009589603;-0.056019478;0.20379442;-0.044437557;0.039961565;-0.090971954;0.031112026;-0.2347997;0.13537076;0.25203803;0.05937312;-0.14856508;0.036047652;0.38099352;0.15117891;0.0006635239;0.058206707;0.022110669;-0.0065550753;0.05010178;-0.18150812;0.025842657;-0.017446494;-0.19447337;0.06830813;0.023342233;0.012202671;0.09762424;-0.062327005;-0.004724874;-0.059656557;-0.03421337;0.007890547;-0.1409567;0.2413391;-0.032623757;-0.027669568;-0.4271792;0.11374431;-0.3996407;0.20184731;0.009321393;-0.36993363;-0.006706997;0.15773563;0.2834498;0.040110383;0.10921002;0.05824893;-0.22052668;0.08345945;-0.17683257;0.03761404
0.28380963;-0.014921053;0.130092;-0.038038783;-0.26402137;0.003375216;-0.29273272;-0.039478596;0.12536737;0.0066977367;0.14698446;-0.054062683;0.0265651;-0.047947064;0.19638401;0.07935953;-0.04356695;0.24181175;0.06860907;0.07775202;0.3212017;-0.16118543;-0.04449353;-0.12671527;0.14700441;-0.16903679;0.18952328;-0.38208744;-0.064032115;-0.03539228;-0.016618403;-0.13256651;0.0079889;0.048828386;-0.023209423;-0.025520194;0.05197701;-0.065625735;0.10775501;-0.115377486;0.15161015;0.057584655;-0.10363608;0.023415633;-0.16993695;-0.045812536;-0.040748615;-0.046860676;-0.076583475;0.10433409;-0.36898005;0.025094358;-0.08084708;0.027913425;0.03243687;-0.034331236;-0.44692338;-0.011957503;0.22031654;-0.016699677;0.018880583;-0.2645623;0.06391378;0.18088746;0.2268631;0.025045188;0.22683626;-0.018484147;0.057036173;-0.23053125;-0.020064972;0.24053447;-0.032851297;-0.011570342;-0.0071685677;-0.13661288;-0.21717933;-0.20956239;0.051513378;0.036825668;-0.043419387;-0.00033089033;-0.42354488;0.020821553;0.035025775;0.3461985;-0.05783192;-0.02423224;0.014852701;-0.22186641;0.072723284;-0.103884734;-0.06132299;-0.040544182;-0.03972172;0.42129177;-0.059619885;0.04177469;0.24553075;-0.11199114;-0.10637519;0.029192757;-0.0490717;-0.059258327;-0.10686603;-0.0675473;0.2156078;-0.027405905;-0.065238155;0.0123750605;0.04529502;0.256356;0.21924704;0.018556474;0.04665806;-0.13173607;0.24053006;0.15951781;0.09281781;0.11987574;-0.30915952;0.009279426;0.0067740646;0.36909232;0.1450349;-0.07555481;-0.02532231;0.07221297;0.20049585;0.07267597;-0.17974637;-0.00986217;0.026487771;0.04723271;-0.017078433;0.03975944;-0.02488601;0.17305025;0.014859794;0.30925184;-0.06430787;-0.026944865;0.20567913;0.02593351;0.2533711;-0.07806201;0.03461511;0.2276046;-0.030417493;-0.03710972;-0.059052967;-0.26062542;-0.07766177;-0.06565392;0.13794588;0.2658362;0.018010486;-0.14419453;0.16906497;-0.064939424;0.32024196;-0.09254533;-0.1812397;0.10295843;-0.100823686;0.06803465;-0.007014986;-0.101192474;-0.09020944;-0.025597097;0.08719982;0.1838204;0.008392145;0.082925946;0.017189302;-0.042956825;0.12774664;0.0926492;0.061008427;0.15212247;-0.2613144;-0.18597683;-0.029933853;-0.46682027;-0.021167908;0.13370605;-0.028140452;-0.10397364;-0.25039336;-0.033070635;0.15945706;0.13040455;-0.10780842;0.5315392;0.0457511;-0.006438754;0.032544468;-0.23423421;-0.07292713;-0.21658985;0.120239966;0.012781211;0.06934554;0.0073090936;0.09736906;0.083270386;0.16275877;-0.4110603;-0.1522944;0.02654937;0.26691294;0.1422432;-0.03371212;-0.009878064;-0.072863184;-0.0010584902;-0.07449836;0.18954736;0.13743864;-0.18275337;-0.2993331;-0.052720148;0.303941;-0.0458246;-0.040415566;-0.16113502;0.21921419;0.034194857;0.033300307;-0.16680934;-0.0064439746;0.092042;-0.02455444;0.054252457;0.17572525;0.36234975;0.35123158;0.03781621;-0.0880259;0.021754403;0.08982363;-0.089708865;-0.34097484;-0.07374028;0.0520186;0.018909018;0.13491379;-0.36931616;-0.055796824;-0.05666424;0.0041441345;-0.006307562;0.024632553;0.119353935;-0.04832496;0.18560897;0.53436387;-0.059948854;0.021724284;0.1874222;0.1318727;0.10509051;0.10848384;-0.20269863;0.033963554;0.42400542;0.052794356;0.09108857;0.22706157;0.06688437;0.0020744775;0.011321062;0.34406695;-0.05343945;0.016471403;-0.30178413;0.02614674;0.015190362;-0.17970663;0.081624374;0.2601558;-0.04959595;-0.26324376;-0.08960869;0.020754399;-0.3919125;0.023929568;-0.02632538;0.15206689;0.020844735;0.23065047;0.16703828;-0.19501121;0.06888067;0.048168503;0.03573554;0.10587168;-0.079501934;0.22971296;-0.006040374;-0.061926354;0.028556693;-0.026354035;-0.07416052;0.010257381;0.16027698;-0.04576772;0.006834023;0.08266513;-0.20677038;0.14898853;-0.19202591;-0.0720899;0.34560993;0.12116469;0.22951074;-0.082108274;-0.056090835;-0.011223052;0.2618383;0.2760063;0.022617288;0.028893234;-0.17088169;0.025241978;0.20794448;-0.026072115;0.095850475;-0.32480347;0.07778144;-0.14450973;-0.014234283;0.07648845;0.07900383;-0.0016964701;0.08346728;0.114921145;-0.35610348;-0.0040695053;0.005003343;0.074548855;-0.27913043;0.076783895;0.102989145;0.17012705;0.10675984;0.031878803;0.048264395;-0.2441537;0.28645298;-0.12237691;-0.033870485;-0.10030133;-0.017732738;-0.011190492;-0.05303153;-0.075031124;0.04354008;-0.20469783;-0.19382367;-0.098428376;-0.15946023;-0.0094415;-0.24917087;-0.14142582;-0.18965925;-0.009870333;0.14347723;-0.048810475;0.2133192;0.096798494;0.2884613;-0.07733838;0.011411387;-0.017144883;-0.048462726;-0.019510599;-0.029032452;-0.012658629;-0.04777417;-0.009419587;0.06499948;0.082253516;-0.069395654;-0.042040985;0.034043662;0.10356163;0.057564795;0.30722243;0.17589146;0.019672735;0.22955447;-0.010386821;-0.057405822;-0.06396342;0.08955397;-0.058303405;0.25665188;0.29835656;0.121805966;-0.042602893;0.04038839;0.30461776;-0.06859107;0.08349627;0.34084335;0.054840002;-0.014242279;0.030937223;0.021881463;0.054079574;0.02511333;-0.019975036;0.021727433;0.115680166;0.118972145;0.12753184;0.013554374;0.25248113;0.0053473273;-0.26350757;-0.02286511;-0.029556727;0.12304022;-0.13698117;-0.028122;0.028855966;-0.0676925;-0.05828676;1.4892668e-05;0.044839;-0.068928786;-0.046724834;0.028284889;-0.017917633;0.11744975;0.100980505;-0.14869796;0.011378459;0.040529944;0.02621422;-0.010067968;-0.053934164;-0.31456894;0.15431488;0.040484004;-0.025943382;-0.04974212;0.08015557;0.43910873;0.20555136;-0.03943432;0.091977954;0.18675028;0.035747863;-0.38079432;0.056391157;0.19756182;-0.20079997;-0.009585915;0.021382848;-0.014940967;0.0052061942;-0.10852487;0.20769787;-0.108168796;-0.010338;-0.008684164;0.46714428;0.12078037;0.09636887;-0.157587;-0.04468775;0.234086;0.07133227;-0.07649995;0.03743091;0.023225183;-0.32456163;-0.016778298;-0.0579767;0.052782536;0.43903804;-0.14679953;-0.096984595;0.017047564;-0.13224532;0.009598467;0.0044335527;0.19225655;0.052739967;-0.12471221;-0.08836544;-0.12650453;0.193171;-0.027163362;0.14409597;-0.05071107;0.19742544;0.036279757;0.1978074;0.074241154;-0.04489835;-0.07681433;-0.069921926;0.07375935;-0.22421373;-0.028679134;-0.033229474;0.177347;-0.22842474;-0.14118965;0.11554894;0.10814055;-0.09965195;-0.3071503;-0.06992111;0.16240604;0.022325106;-0.19892417;-0.15245678;-0.0005926436;-0.09275042;0.08135328;-0.06428302;0.18235393;0.07388527;0.012639396;-0.011390228;0.043016683;-0.20300911;0.059947584;0.23278952;-0.01680439;-0.0682821;0.06403269;0.25492913;0.20836881;0.01888295;0.09581057;0.09703691;-0.0081182225;-0.057847705;-0.26839346;0.05379451;0.0048464835;-0.0035460691;-0.08635143;0.0059481445;-0.034232758;0.16977303;6.5706816e-05;-0.0036846262;0.030424783;0.07718341;0.00527498;-0.077129275;0.1938272;0.030207874;-0.04967192;-0.35451105;0.018087864;-0.4579621;0.09488745;-0.059841715;-0.4191746;-0.033240456;0.3509411;0.3704786;0.021517867;-0.03799104;0.0032741656;-0.26242068;0.060223263;-0.1940043;-0.020224443
0.26581246;0.090413906;0.15209651;-0.019099394;-0.18148093;0.015236076;-0.29649273;-0.08920169;0.026218949;0.06821928;0.08894383;-0.01784123;-0.020114336;-0.20365271;0.28766936;0.18355905;0.07445968;0.2997663;-0.00021038594;-0.08906102;0.3535361;-0.10781916;-0.030523775;-0.09095784;0.18862545;-0.23678222;0.22850035;-0.38236263;0.010934292;-0.053350154;0.008358272;-0.035201497;0.0022479866;-0.050336175;0.07031976;-0.064338036;-0.10770004;-0.039502796;-0.020093234;-0.025921863;0.17563623;0.011767734;-0.17497167;0.16515443;-0.12663493;-0.1541968;0.042489853;0.016133593;-0.022737544;0.115415245;-0.3084038;0.011401389;-0.049249366;0.13094108;0.005107024;0.05693583;-0.4834536;-0.02071445;0.15663907;-0.059094694;-0.069905944;-0.2552871;-0.06734805;0.071533434;0.25802574;-0.063563615;0.14182708;-0.06413218;0.070268996;-0.1808778;0.021123098;0.33389997;-0.0895554;0.042907532;-0.13429129;-0.20322134;-0.033762485;-0.15340993;-0.054122366;0.0077100466;-0.01901698;0.030410267;-0.36684957;-0.0026726467;-0.04480629;0.38118896;0.010031594;0.08489568;-0.016244829;-0.16360913;0.08337698;-0.09531299;0.01576677;0.035954904;0.047240663;0.4040109;-0.017501365;0.01735371;0.28105378;-0.14105843;0.06587873;-0.064878255;0.056955773;-0.09792915;0.016220694;-0.015428215;0.2779902;-0.023278724;0.00034189553;-0.035112683;0.07973979;0.29128546;0.21942173;0.018599939;-0.0058378503;-0.2079998;0.32819822;0.092149526;0.00044515182;0.2079124;-0.42362064;-0.018343024;-0.042591624;0.36557427;0.07039188;-0.12137426;-0.055347715;0.08191061;0.019410089;-0.02455334;-0.2847299;-0.014948672;0.004095924;0.1037244;0.037885085;0.03624674;0.036026333;0.075566314;0.030768784;0.21535218;-0.0687836;0.06829847;0.2896558;0.035720106;0.34413746;-0.011738926;-0.089696735;0.18819897;-0.07127464;-0.080765665;0.0133259995;-0.21190551;-0.08178523;0.052226815;0.06117699;0.2043796;0.028557861;-0.24827416;0.26458493;-0.07286324;0.41789275;-0.0053205383;-0.12848215;-0.032975066;-0.1050538;0.0067338445;-0.03431582;0.0006308864;0.008097604;-0.008809019;-0.0023710572;0.19085109;-0.021746192;0.07453958;0.032393876;0.061478022;0.014865438;0.1819121;0.09429231;0.31174567;-0.15814328;-0.22657713;-0.040684506;-0.42792043;0.06603426;0.22246324;-0.02766782;0.016975055;-0.17310943;-0.14608821;0.047561016;0.14122285;0.008411833;0.5436309;0.05966475;0.023310823;0.0459028;-0.28431293;-0.12074192;-0.18133347;0.09679104;0.062667765;-0.00053000473;0.07359132;-0.016871983;0.12855715;0.15307084;-0.2879409;-0.162205;-0.03443511;0.22501975;0.09779436;0.027043458;0.048145924;0.121692196;-0.05049954;0.04060631;0.0477149;0.15691115;-0.12051147;-0.29494748;0.039372556;0.3117317;-0.105184;-0.074203156;-0.23032404;0.36117694;0.006666234;-0.054821417;-0.13162667;0.0006163858;0.13797228;0.028612029;-0.059071608;0.22208431;0.3702323;0.35368508;0.12056198;-0.010471994;0.044241693;0.055551246;-0.16162008;-0.39384142;0.051764425;0.06893068;-0.023444926;0.042308763;-0.2729963;-0.017451338;-0.01633514;0.0043856027;0.054350182;0.15946384;0.118044175;0.05345328;0.27473235;0.41073892;0.0493995;0.021953031;0.16131043;0.08813376;0.09862866;0.19098224;-0.2965945;-0.03731938;0.35667354;-0.033228762;-0.031917777;0.2689442;-0.014212634;-0.051869564;0.042853095;0.36739114;0.06939958;0.060641985;-0.16851994;-0.020062093;0.013811882;-0.32446593;-0.017975198;0.14006926;-0.13593233;-0.23146527;-0.12605846;0.04194762;-0.367387;-0.07349303;-0.16809858;0.012629532;-0.029135758;0.16153939;0.30886713;-0.17208166;-0.052639745;-0.010004061;-0.009465109;0.14057891;-0.15449369;0.27771637;-0.0725661;-0.021434337;0.074927464;-0.06481285;0.041979775;-0.12800565;0.079971984;-0.08574484;-0.048527755;-0.06418232;-0.25411454;0.25706226;-0.22226565;0.054639325;0.38760984;-0.021536328;0.23657301;-0.27492374;-0.0069845696;-0.06404083;0.16340017;0.39571613;0.068922356;-0.07358781;-0.22441258;0.038471658;0.086272925;-0.032682527;0.016696298;-0.24372762;0.027444173;-0.12852575;0.040228847;-0.037307438;0.049443264;-0.064155445;0.022586752;0.13307628;-0.4441633;-0.025538862;-0.1453571;-0.011641869;-0.33938113;-0.01682802;0.03249799;0.1933386;-0.024873212;0.055296086;-0.06707232;-0.18225828;0.23563959;-0.07517299;0.03598192;-0.10020306;-0.11721195;0.0035463138;-0.07305962;-0.12298081;0.022096897;-0.2520487;-0.27716026;-0.13741599;-0.16922511;-0.046453383;-0.25774196;-0.10194985;-0.09076309;-0.055281587;0.0723152;-0.07359067;0.3137803;0.082198404;0.29149237;0.0048445812;0.04385142;0.048689313;0.021558868;-0.016424885;-0.10198135;0.09874447;0.032684527;-0.052691225;0.20430541;0.012457879;-0.014410906;0.019049758;-0.054730885;-0.059240106;0.05296588;0.21577947;-0.008457137;-0.030097127;0.22273883;0.083141185;0.043432634;-0.100750074;0.05756096;0.0759946;0.36849004;0.2291977;0.08423639;-0.014926612;0.030199349;0.28199875;0.036342464;-0.072692916;0.31322414;-0.019664587;0.06734492;0.15528436;0.08319696;-0.04504067;-0.0067284983;0.06866624;0.07371339;0.032497216;0.0889814;0.05174547;-0.017917931;0.2876416;-0.05281752;-0.41723654;-0.07809586;-0.012294212;0.22867952;-0.2697041;0.048665855;0.06289167;-0.24413325;-0.06992805;0.043183357;-0.044899035;-0.1980861;0.0049882084;0.015881274;-0.020853514;0.10162493;0.19258244;-0.15293565;-0.13896556;0.06576268;0.049442634;0.00044269784;-0.024575548;-0.34039742;0.14860363;-0.06587976;-0.004360448;-0.07021018;0.013306282;0.46843556;0.3128402;-0.024504138;-0.08031656;0.09571268;0.015610718;-0.45732272;-0.0133535005;0.23105527;-0.087920725;0.036344856;-0.0138432225;-0.011958651;-0.019891586;-0.11562206;0.14443839;-0.051668856;-0.0054953145;0.015447507;0.42792445;0.18619032;-0.06107938;-0.017992463;-0.047499124;0.14035185;0.09900859;0.077815525;0.04241433;-0.10569211;-0.34218457;-0.007336525;-0.06466894;-0.071001;0.35732153;-0.0039786343;0.0015721016;0.035293125;-0.13607645;-0.05159416;0.02970778;0.1471774;-0.053342678;-0.20984952;-0.091222055;-0.17538607;0.21054825;0.010716232;0.24980877;-0.04889881;0.17221144;0.037888944;0.2791946;-0.02812358;-0.04236297;-0.009488548;-0.17367087;-0.0590801;-0.33116034;-0.041475553;-0.0017976376;0.12128167;-0.14293759;-0.11046244;0.06472006;-0.014171982;-0.11714657;-0.31664035;-0.0070880554;0.15264252;-0.05947535;-0.1841455;-0.20812494;0.005095745;-0.022643827;0.08301139;-0.0045672106;0.23006812;-0.049072225;-0.04878854;-0.024077812;0.05892655;-0.19217518;0.040369336;0.21952508;0.038593363;-0.19554675;0.09150747;0.2204845;0.19541235;0.0017863513;0.18313307;-0.017767038;0.07525455;0.030393556;-0.29533502;-0.024274593;-0.047331028;-0.08102177;0.009737772;-0.057147905;-0.0138651645;0.16294067;-0.0044350787;0.02533174;0.005524718;-0.00879228;-0.019504461;-0.08456562;0.11570964;-0.019809224;0.09430217;-0.25857636;0.13205804;-0.40145266;0.10353717;0.040399194;-0.3692296;0.06079953;0.31862205;0.28580776;0.13499247;-0.106199384;-0.069648534;-0.26747417;0.029078424;-0.34368357;-0.05421438
0.3524412;0.00573957;0.02350972;-0.030192109;-0.17677075;-0.023602033;-0.24986474;0.00011866211;0.010067083;-0.011536268;0.14230411;-0.03762603;-0.04421626;-0.24618725;0.2732853;0.22224218;0.005048248;0.34335172;0.06660997;-0.02094901;0.32765216;-0.16411702;-0.030486772;-0.14025305;0.2580869;-0.23423472;0.16624239;-0.5569973;-0.0680989;0.0852668;0.10788726;-0.107685395;0.06966366;-0.01454828;-0.06281159;0.04130276;-0.0220887;0.0766792;0.014466909;-0.11855437;0.13194823;0.01738487;-0.073627666;0.0927094;-0.28369752;-0.27455366;0.02333516;-0.0983092;0.03528524;0.08937125;-0.42772007;-0.08291149;-0.116755955;0.14341494;-0.08373249;-0.03289529;-0.39809304;0.033495545;0.10207479;0.10171771;0.039426353;-0.2415543;0.08630574;0.039293718;0.24838185;-0.13507783;0.14459158;0.09637519;-0.043195866;-0.19884323;-0.0248038;0.3585984;0.07545423;0.095790766;-0.0738965;-0.27110916;-0.08173627;-0.18284574;-0.09056204;-0.081175774;0.07113057;0.04695659;-0.33836865;-0.021295995;0.055699725;0.3154629;0.09089776;-0.04229587;-0.028892472;-0.23670498;0.101970784;-0.13365734;0.018513897;0.04802466;-0.0055105053;0.29134724;-0.050547723;0.099964626;0.23560795;-0.10652382;0.023841351;-0.016277798;-0.011516264;-0.10220451;0.1313305;0.0022808497;0.24628447;-0.0050941072;0.017004794;0.012571253;0.22782665;0.2894122;0.3397572;0.0048940415;-0.053735584;-0.076179214;0.21132143;0.18696411;0.021986604;0.18282479;-0.43294635;0.028721899;0.05042106;0.27190238;0.057846785;-0.09942907;0.048511118;0.070733786;0.10960415;-0.06633677;-0.2836625;-0.11954255;0.010861401;-0.063564725;0.067346156;-0.01799593;0.054766826;0.13205707;0.06918334;0.31528097;-0.050902095;-0.042311493;0.20546378;0.027108064;0.35537827;0.06332941;-0.029941587;0.3402025;-0.017388586;-0.18719096;-0.10827379;-0.22234374;0.039571173;0.040390186;0.06804454;0.30596566;0.021794017;-0.35363623;0.18953905;-0.024146307;0.34739932;-0.03231282;-0.19321923;-0.10607785;-0.14217448;0.06591831;-0.076458;0.007944789;-0.13505593;0.06428172;0.060427442;0.1813385;0.017482374;-0.006326215;-0.045746144;0.08347172;-0.024932953;0.106712;-0.009814294;0.25747162;-0.17086609;-0.15338056;-0.045096494;-0.26485232;-0.040571913;0.31961948;0.016878923;-0.037565533;-0.17818773;-0.06552246;0.22083397;0.2135211;-0.12861025;0.5971373;0.15552759;0.03152049;0.024286855;-0.21196494;-0.12900612;-0.06941092;0.16840233;0.01225203;-0.0300069;0.04747214;-0.09216836;0.14736366;0.13219276;-0.390777;-0.20587571;0.04528873;0.16900568;0.13799816;-0.009884224;-0.013063433;0.119438134;-0.055021208;-0.024188003;0.04516754;0.12282896;-0.19891258;-0.32219923;0.04087901;0.27091944;-0.1554116;0.07723833;-0.13587368;0.22617681;-0.05401734;0.06039986;-0.14060985;0.016569976;0.16204199;0.05112734;0.021622086;0.07876304;0.44519606;0.32224783;0.18644004;0.059349053;0.02304161;0.0005909776;-0.20309553;-0.2501183;0.07226801;-0.06747703;0.012064801;0.011787246;-0.265789;0.052035246;-0.0066549066;-0.010654141;-0.058756046;0.10369276;0.015888968;-0.077999935;0.18403141;0.5143635;-0.037545644;-0.07752683;0.15573472;0.16032301;0.0728676;0.09922412;-0.308185;0.008738834;0.39749593;-0.021333637;0.015842943;0.15682162;0.04220129;-0.029679604;-0.057676278;0.3270968;-0.062944844;0.01851412;-0.28211865;0.092345186;0.028579129;-0.32059088;-0.04489664;0.09055954;-0.24601331;-0.11466099;-0.07247594;0.006134587;-0.4933734;-0.015975371;-0.20931868;0.033317797;-0.0689492;0.25185892;0.39228448;-0.25533867;-0.045959245;0.02776403;0.017581139;0.12878963;-0.12158527;0.06949154;-0.06659292;-0.15282474;0.07132318;-0.03519463;0.024467744;-0.052374557;0.06271405;-0.124285504;0.02615648;0.023072422;-0.24118684;0.3587187;-0.23267253;0.057883922;0.41759923;-0.01023775;0.21655618;-0.38198996;0.06328174;-0.060798623;0.26881635;0.29456896;0.009259825;-0.032145042;-0.076013766;-0.018426;0.053086728;0.03337925;-0.06396316;-0.31837046;0.030881528;-0.10191326;0.05689024;0.060816973;-0.029926598;0.08270389;0.022788579;0.17103697;-0.348488;-0.05767544;-0.021112937;0.02079846;-0.36202386;0.15876774;-0.04295498;0.1476841;0.0013682116;0.036343534;0.044435605;-0.22609001;0.1501691;-0.1370226;0.11443958;-0.08283652;-0.06627765;-0.21483716;-0.083660424;-0.0034245355;-0.065174535;-0.14313741;-0.28045648;-0.23341344;-0.1499342;0.006069636;-0.2480917;-0.06333824;0.053230733;-0.06540636;0.10182062;-0.08453075;0.3532254;0.08760441;0.30174536;0.022333335;-0.026834572;-0.034624953;0.01398404;-0.020823913;0.060888812;0.051064935;-0.002579057;0.024210837;0.17278577;-0.039562427;0.0516773;-0.06720906;0.0058006314;-0.00776203;0.03910696;0.18176134;-0.094075754;0.0490397;0.18836896;0.0031736272;-0.030543355;-0.30198365;0.14438304;-0.032737758;0.37656048;0.25359482;0.08698947;0.14190347;0.038647063;0.29118708;-0.07134917;0.052269883;0.2522803;-0.10364374;0.045141045;0.13713826;-0.019961216;0.037621096;0.042208076;0.054290228;-0.029949041;0.16423354;0.04593818;0.123566076;0.040946282;0.14074734;0.008823807;-0.3691987;0.062115986;-0.07685778;0.11867907;-0.20223118;-0.042799123;-0.07653006;-0.20592974;0.015359254;-0.06375058;-0.09651951;-0.09673128;-0.009312248;-0.011661688;0.039619505;0.08937786;0.16670448;-0.19785249;-0.12823983;-0.03078993;0.0002610701;-0.069538;-0.04090409;-0.24525334;0.12975748;-0.09431184;0.0680125;-0.065917626;-0.011759655;0.36962652;0.29079366;0.017419744;0.012678279;0.2086299;0.01647452;-0.55039287;-0.03429434;0.11838997;-0.08459402;-0.027510162;-0.00013184034;-0.024540354;0.030254593;-0.07223202;0.31229505;-0.016439209;-0.0026478989;0.06138567;0.4708449;0.094420016;-0.07514141;-0.0776038;0.010145287;0.22377568;-0.003278495;0.059633054;-0.04338637;-0.11439206;-0.3260617;-0.012104762;0.038422093;-0.13665187;0.40365547;-0.04447987;-0.114011824;0.014548831;-0.26029852;-0.06526928;0.049640752;0.23388979;0.031016817;-0.31319165;-0.170536;-0.09764187;0.2275001;0.06815407;0.113788694;-0.009091699;0.28583288;0.0234623;0.21598937;0.007034445;0.089394175;0.06767828;-0.15893504;-0.028780162;-0.25668716;0.018429823;-0.0065949787;0.12729914;-0.25012514;-0.075726874;0.1539338;0.07383144;-0.19189459;-0.36132872;0.0241483;0.022728719;0.010421115;-0.27166468;-0.091901585;-0.0069168955;0.05064447;0.100973345;0.02417669;0.14436224;-0.02468151;0.03843159;-0.08770663;-0.011525191;-0.14061591;0.10838738;0.22721888;-0.05774828;-0.17076775;0.04884622;0.23849787;0.10617783;0.018036028;0.06303174;0.028578544;0.024301969;-0.052636497;-0.2642915;-0.035236374;-0.045719218;-0.10400385;0.072459884;0.038687292;0.08249755;0.1643537;0.061156914;-0.015980825;0.14308846;0.008545541;0.08372256;0.053772207;0.1024747;-0.0075748013;-0.0128960665;-0.35121384;0.095365226;-0.5217103;0.25982726;0.06600588;-0.46440154;-0.07992285;0.28925717;0.2410446;0.05298627;-0.20245178;0.019165277;-0.2887903;0.04303716;-0.25220022;-0.09072451
0.25826856;-0.13433069;0.12978841;-0.027419135;-0.18331707;-0.019869197;-0.34876743;0.0008313828;0.04233753;-0.062263258;0.1647176;-0.1340436;-0.06767311;-0.34925804;0.29670587;0.10399856;-0.051970873;0.45210874;-0.036836773;-0.00201296;0.3020545;-0.124259494;-0.034576677;-0.15569966;0.13592726;-0.1984181;0.12625222;-0.63426393;-0.0150926;0.0098344395;0.077424236;-0.05871493;-0.0015940475;0.050918683;0.072766475;0.02075125;-0.16305046;0.08385633;-0.10021767;-0.18537888;0.14835162;-0.0385863;-0.21564496;0.2375635;-0.29044214;-0.2806145;0.06258312;0.026225153;-0.025210317;0.09770978;-0.43016535;0.03388323;-0.1337191;0.14439306;-0.030101929;-0.06684274;-0.42334983;0.050081823;0.19491573;0.030688997;-0.0005076239;-0.15880089;-0.01840712;0.036787454;0.26284948;-0.09875036;0.16080381;0.018714862;-0.03189882;-0.19313972;0.036943827;0.36332488;-0.010926418;0.13223973;-0.10037625;-0.24759105;0.015144087;-0.15250656;0.020903926;0.054739628;0.007004336;-0.04596651;-0.32940426;-0.10060635;0.058049504;0.24143085;0.06013585;-0.032666355;0.026605222;-0.30913135;0.1670526;-0.15040664;0.0013231542;-0.019324064;0.06133664;0.40796983;0.09083649;-0.040130015;0.17371352;-0.06444309;0.09083225;0.04776806;-0.019695463;-0.14119348;0.06832671;-0.05863009;0.3346708;-0.068775;0.033600137;0.05269823;0.1946739;0.3166419;0.35682827;0.1274481;-0.005504374;-0.10450689;0.29348436;0.12051657;-0.07958676;0.24268472;-0.59245986;-0.05137256;0.17890577;0.4012925;0.06416774;-0.07807091;0.17465185;0.012892352;0.075627655;0.0066086017;-0.30104396;0.061651267;0.055658787;-0.08363777;0.089427054;0.09170959;0.059378296;0.13541372;0.14072569;0.32927486;-0.08065097;0.04344545;0.106173515;0.14461327;0.39020756;-0.027664993;-0.0068302313;0.43447226;-0.04054293;-0.10928025;-0.020633912;-0.17369238;-0.038219836;0.021839282;0.032521576;0.25097033;0.028559001;-0.39476356;0.1290742;0.06485742;0.30421907;0.030104365;-0.41168115;-0.026213111;-0.06715199;-0.032757282;0.0048786043;0.07524094;-0.13471326;-0.084263384;0.06299551;0.23534301;0.047679756;0.075164236;5.7645015e-05;0.041565135;-0.13582627;0.22796673;0.04714461;0.35005957;-0.17011099;-0.26552704;-0.06403732;-0.33942112;0.036594383;0.3829898;0.02406816;-0.06192489;-0.23867913;-0.08122705;0.11043947;0.15862393;-0.1531971;0.5185536;0.08656275;-0.0003749384;-0.019950988;-0.16782494;-0.070618115;-0.06462664;0.08729716;-0.083162606;0.04589745;0.029304402;-0.10057122;0.07249124;0.17067601;-0.32536697;-0.17612487;0.07908469;0.26544073;0.056008056;0.043005105;-0.0063920124;0.06300308;-0.12998019;-0.011096027;0.045857713;0.19219218;-0.26314703;-0.4064876;0.0029910444;0.33480954;-0.20345417;0.051925533;-0.17973273;0.3366568;0.003950467;0.025146844;-0.029658193;0.069376715;0.17694591;-0.006880182;0.07387551;0.11507992;0.2813765;0.39423358;0.050027642;-0.035411153;0.049774412;-0.05028306;-0.28077453;-0.25175023;0.06953958;0.055014703;-0.070382565;-0.13440037;-0.34701398;0.052702058;-0.03276379;0.15588616;0.05961221;0.029136004;0.042181987;0.036973607;0.07255989;0.43742716;0.056410752;0.035821076;0.19326738;0.20658611;0.1504843;0.08146753;-0.4543464;0.010951091;0.36141625;0.009843953;0.106911674;0.2584029;-0.093344636;0.073724195;0.0056451615;0.30087963;-0.059657644;-0.04787035;-0.23667091;0.054336835;-0.027418723;-0.3273678;0.041838095;0.15521231;-0.27544776;-0.20060493;0.00010685899;0.06911878;-0.37485382;-0.023498937;-0.14852451;0.037824836;0.048985556;0.17000021;0.32158878;-0.10041557;-0.062593535;-0.035886165;-0.027854245;0.075787716;-0.14023814;0.004278681;-0.037246224;-0.12243973;-0.0053509376;-0.043634765;0.05927139;-0.20105639;-0.0075039645;-0.12016844;-0.034109186;-0.029633544;-0.24643645;0.2790178;-0.32070202;0.02962812;0.29944476;-0.19774497;0.17343703;-0.36496753;-0.03661032;0.0022192774;0.2697817;0.30401376;-0.04138647;-0.010949624;-0.1535615;-0.0575376;-0.007978647;-0.018121745;0.040823814;-0.19635274;0.07387913;-0.082602255;-0.045624655;-0.061753213;0.047167096;-0.019270526;-0.047460757;0.27423078;-0.27720726;-0.04378177;-0.068081;-0.05026461;-0.30840486;0.23293775;-0.17100184;0.056806285;-0.02192663;0.022248682;-0.032421358;-0.26962137;0.11201607;-0.25887755;0.12178979;-0.037788894;-0.056781095;-0.08288217;0.015511961;-0.025667027;-0.024026198;-0.11112058;-0.2541371;-0.24646959;-0.2690944;0.029482285;-0.25449416;-0.07317809;0.05841698;0.059702445;0.0018373479;-0.047838837;0.2359228;0.17216387;0.18231757;0.034917537;0.05037299;0.063306086;-0.040850315;-0.047674112;0.047158714;-0.003998527;-0.027157681;0.06374596;0.23625542;0.03836701;0.021305948;-0.025802588;0.023157526;-0.12869051;-0.113775454;0.1965668;-0.0028891712;0.17543337;0.24785824;0.07854717;0.0643987;-0.25001666;0.09911341;0.04594479;0.45477676;0.41150555;0.1107361;0.0854825;0.034961153;0.25716457;0.044705816;0.03140572;0.333381;-0.19430439;0.028814651;0.0732894;-0.032338545;-0.009934809;0.04072037;0.12211311;0.043405253;0.09518389;0.041788895;0.05671209;0.030646725;0.14175794;0.004387494;-0.43557367;0.04950151;-0.10971207;0.18329634;-0.20425752;-0.017902235;-0.050527025;-0.30389938;-0.052831795;-0.033055916;-0.15621263;-0.17666402;0.0757643;-0.036313128;0.051156584;0.07738839;0.04934492;-0.14039037;-0.14357449;-0.0015947738;-0.017330132;-0.1001663;0.04896918;-0.30760643;0.060486104;-0.229607;-0.048800096;-0.061436754;-0.009908443;0.33373326;0.35500765;-0.055963997;0.0050346833;0.22945505;-0.05055433;-0.49080476;0.0009842707;0.20610529;-0.086544365;-0.024955964;0.056546282;-0.005348597;0.11407656;-0.14466251;0.3743564;0.06365008;0.048564706;-0.0012877289;0.38370568;0.10141863;-0.09939201;-0.07808914;-0.03641146;0.23606424;0.073569104;-0.008505047;0.033650845;-0.055850852;-0.36153284;0.06468554;0.039184235;-0.21676962;0.45913544;0.0013659237;-0.122168325;-0.07039563;-0.21569823;0.010835496;-0.039624613;0.26903954;0.04108089;-0.24749908;-0.23459542;0.06123996;0.16118777;-0.038339026;0.097535215;-0.011897899;0.27471158;0.16893747;0.34051722;-0.047475133;-0.05319219;-0.06954005;-0.16951764;0.078900725;-0.21187265;-0.032638803;-0.06969849;0.075926214;-0.38332745;0.030491931;0.033711046;0.02864419;-0.2080652;-0.45833287;-0.04818299;0.089627504;0.048841443;-0.37823072;-0.0467036;-0.02651643;0.03610811;0.113247156;-0.0071015814;0.11830089;0.005596632;0.023291767;0.04719236;-0.0068280594;-0.18957552;0.09978768;0.35914317;0.032857046;-0.32107645;0.030013256;0.16356826;-0.0033925967;-0.047312476;0.17756984;-0.057759956;-0.054351036;0.0059653223;-0.38968426;-0.066094;0.058912925;-0.03409455;-0.017390402;-0.029942907;0.01006076;0.21906641;0.06403766;-0.032168802;0.18168491;0.09373599;-0.011002703;0.089224465;0.010698323;-0.030164657;-0.021502003;-0.3041735;-0.060595892;-0.5036583;0.2050277;-0.08337297;-0.5178052;0.007479411;0.3367187;0.22122023;0.018592555;-0.18670404;-0.028879656;-0.3459149;-0.09510753;-0.39492935;-0.13155328
0.27663952;-0.0531914;0.033061918;-0.017119695;-0.17899285;0.009437815;-0.36857274;0.044345163;0.0049606403;0.055329435;0.06784409;-0.16765606;0.03844814;-0.47423762;0.38729352;0.10807127;-0.030330282;0.5233831;0.006618716;-0.13879858;0.3381305;-0.05413064;0.011982124;-0.039035596;0.26732174;-0.28037894;0.159844;-0.50786287;-0.013649923;0.020307377;0.1051579;-0.16985159;-0.0032669313;-0.02145615;0.07524785;0.0956886;-0.09481793;0.1778358;-0.086792454;-0.13499986;0.13783814;0.015877502;-0.12554555;0.15099564;-0.18536134;-0.23539177;-0.08172509;-0.09375956;-0.02404424;0.13125527;-0.4272303;-0.021647193;-0.038654;0.10378303;0.051966336;0.07952418;-0.41364053;0.02905315;0.25263277;0.012077666;0.07560068;-0.19077691;0.01830848;0.1018461;0.34523985;-0.02514088;0.17191273;0.12860832;0.05931152;-0.21287169;-0.019445524;0.24317786;0.08038489;0.23593622;-0.020713434;-0.13429293;-0.027226085;-0.3225153;0.09215439;-0.03269589;-0.0123801;0.020512108;-0.47920075;-0.16157131;-0.037626237;0.2605224;0.027428433;0.005943165;-0.06751571;-0.36733174;0.1402564;-0.017508315;-0.026856773;0.050508957;-0.010628115;0.28149962;-0.035487857;-0.015238998;0.2463822;-0.089678966;0.033990204;0.059686624;-0.024362603;-0.16284919;0.17518692;0.052474413;0.30544922;0.058298428;0.033023156;0.018831523;0.2514624;0.35871086;0.37625808;0.18221435;0.021177532;-0.07496142;0.31171486;0.16691205;-0.108259276;0.24898794;-0.571008;-0.07653645;0.15766826;0.3862481;0.13577765;-0.05222155;0.27378586;0.00038572025;0.0524235;-0.017373985;-0.28733662;0.08899309;0.040659282;-0.12142468;-0.032103736;0.13390619;-0.010216374;0.13951373;0.11907928;0.30887794;0.03303753;0.015824543;-0.026302012;0.11919874;0.4303468;0.0286548;-0.02385149;0.4281711;0.05521754;-0.039016426;-0.16531366;-0.102406904;0.042828765;0.0017513637;-0.0059867483;0.21362542;0.044101954;-0.44544014;0.21321625;0.1592533;0.28209448;0.18626128;-0.49786195;-0.16638206;-0.092292;0.008969168;-0.010297653;0.05008813;-0.13988626;0.037791617;-0.06831699;0.21149084;0.023101829;0.04601603;-0.017432172;0.07192724;-0.008031997;0.29659882;0.01980171;0.33490396;-0.17394295;-0.21329075;-0.18561679;-0.15136388;-0.050388288;0.29707092;0.030448738;-0.083975814;-0.337617;-0.09650801;0.05917344;0.06084126;-0.19042656;0.53319746;-0.049583375;0.075096495;-0.015061219;-0.22339211;-0.117125615;0.1122775;0.074450925;0.021703105;-0.0074227983;-0.04292261;-0.17178798;0.09297839;0.1285568;-0.47469342;-0.19776879;-0.06681654;0.27019203;0.0532369;-0.04498214;-0.0043675634;0.04718157;-0.27998218;-0.12172259;-0.069309704;0.13000701;-0.12207069;-0.4323796;-0.14264232;0.26137254;-0.1149978;-0.033075653;-0.27378222;0.25212628;0.004409722;0.043943293;-0.19335848;0.047354583;0.15094109;-0.030030195;-0.036368027;0.040871125;0.26886457;0.41042802;0.14190204;-0.041701153;-0.021485794;-0.16857739;-0.22367293;-0.29634222;0.09136627;0.07331221;0.04296384;-0.18299197;-0.2525326;0.017733978;0.076146744;0.1355754;-0.07276703;-0.080975376;0.18520619;0.025422413;0.17663442;0.44378987;-0.007074307;0.03495446;0.17867784;0.14577143;0.065038525;0.18152411;-0.3798529;0.07822898;0.39820844;-0.0046636444;0.07371531;0.3315761;0.03611354;-0.07247636;-0.058820516;0.26258135;-0.12957248;0.055076644;-0.2705114;0.16015886;0.03269911;-0.25623903;0.05253804;0.15406936;-0.29642656;-0.2499177;-0.020184956;0.061973277;-0.36083132;0.013719144;-0.16127053;-0.022317175;0.018768774;0.29225957;0.3710458;-0.20983003;0.060076285;0.038047;0.019835107;0.08268952;-0.055311758;-0.0042503984;-0.111443505;-0.022680357;-0.04881101;-0.022894837;0.0049228123;-0.15346211;-0.048532557;0.06679921;0.04633383;0.07242524;-0.3085859;0.38071787;-0.33437532;-0.07273727;0.42425206;-0.18608515;0.076750785;-0.5829271;-0.01734668;-0.008759661;0.24443223;0.31829864;0.0035919175;-0.020590974;-0.29899743;-0.012133968;-0.15036279;-0.026936185;-0.06453856;-0.12124883;0.04510247;-0.044097558;0.019662267;-0.019488921;0.016029231;-0.013517836;-0.048614133;0.2541677;-0.2906888;-0.057854798;-0.053879764;0.08385934;-0.3157112;0.21398774;-0.19582014;0.06922933;0.0040124077;-0.085513376;0.011155151;-0.28052127;0.11348318;-0.19816232;0.29622695;-0.048365466;0.068032265;-0.16304757;0.0037487838;-0.12682588;-0.043782175;-0.033770278;-0.25312072;-0.19391194;-0.16576819;0.06959872;-0.36479357;-0.04031204;0.18240796;0.034697447;0.008347949;-0.010632883;0.2577133;0.12832077;0.21525997;-0.003876401;-0.054805476;-0.034947842;0.030991973;-0.00038741232;-0.08410144;-0.03280483;-0.0217202;0.046559114;0.24595197;-0.00288187;-0.15045832;0.038499042;-0.0035980411;-0.10081484;-0.063718714;0.054587543;-0.06518057;0.19554044;0.34185526;0.08538811;-0.0127965035;-0.38092974;0.067479335;-0.028378068;0.52243644;0.37871397;0.088696525;0.044093013;-0.06805201;0.18400878;-0.007795297;0.011244249;0.26526582;-0.0748849;-0.0035324728;-0.0033535496;-0.04172352;0.069984466;-0.07856478;0.0631962;-0.030834837;0.33554316;0.19055896;0.026693374;-0.028264953;0.020933159;-0.039036244;-0.42326954;0.020662941;-0.12513037;0.24277306;-0.25250772;0.0061436533;0.029687742;-0.29176062;-0.0058869673;-0.07750639;-0.084554695;-0.1201149;0.19934063;-0.07079009;0.0011091974;0.13912302;0.016138753;-0.053231474;-0.16767415;0.01191328;-0.07756199;-0.057049148;-0.0033462977;-0.30452216;0.053811368;-0.115800746;-0.06907636;-0.033812787;0.055595;0.52807635;0.31016865;0.02601722;-0.037910607;0.27885205;-0.00027514747;-0.53191614;-0.048559718;0.22910583;0.010257273;-0.054297462;0.046646502;-0.0011169614;0.06379188;-0.11933511;0.2978513;-0.02634168;0.011940205;0.03894314;0.38340902;0.1751545;-0.06444371;-0.048681352;0.064130746;0.2769077;-0.05698276;-0.036751814;-0.07835351;0.011117441;-0.397648;0.01915111;0.12099459;-0.18692498;0.49678144;-0.0123736;-0.19259635;0.057544623;-0.32109505;0.13992722;0.017207544;0.16695432;0.04292016;-0.34811205;-0.2172948;0.026839456;0.18295547;-0.09338467;0.09268686;0.03331784;0.27093628;0.2883988;0.41126043;-0.042352255;-0.058080543;-0.009903356;-0.2136103;-0.0444633;-0.39460945;0.018844267;-0.16794953;0.21801749;-0.33961827;0.01053505;0.014929234;0.043963205;-0.06329294;-0.5690012;0.028331835;-0.035884894;-0.040797014;-0.4409956;-0.016152332;-0.029275222;-0.034867506;0.19483866;-0.027350254;0.17379399;-0.05153954;0.026248036;0.056568887;0.014857197;-0.1649639;0.011046119;0.20843731;-0.036679503;-0.19693016;-0.13083406;0.080952875;0.0245428;-0.013789583;0.004573015;-0.0033026077;-0.076530784;0.023327766;-0.33795217;-0.018487206;-0.0040372415;0.0127288485;-0.06514468;0.061005462;-0.015571244;0.24864301;-0.05560657;0.015452149;0.22180827;-0.019127958;-0.07357176;0.28023583;-0.059273273;0.035988767;0.03939934;-0.4163847;0.08154421;-0.5621498;0.23449917;0.029171742;-0.5639965;0.018983599;0.29321504;0.116915636;0.10103082;-0.27563027;0.00958782;-0.45188108;0.07254424;-0.45352623;-0.02203744
0.25519505;-0.09068443;0.0048944997;-0.07002659;-0.2794762;-0.026300967;-0.29411778;0.06322871;0.05960629;-0.06267874;0.012754402;-0.05823019;0.057860013;-0.55408573;0.35122448;0.10824191;-0.039632536;0.5913754;-0.04758071;-0.122739576;0.40672866;-0.25182056;-0.043440677;-0.15908451;0.19675305;-0.26308918;0.111782275;-0.65569544;0.028380163;0.020694101;0.09330627;-0.16467172;-0.010089804;-0.03804396;-0.047172844;0.089842975;-0.072937846;0.28212374;-0.035669874;-0.19226275;0.046241496;0.0040283883;-0.14121336;0.38632756;-0.1677931;-0.34608573;-0.036830828;-0.045480378;0.053550728;0.0939881;-0.37947202;0.068313226;-0.05403443;0.1220406;0.03800191;-0.075667925;-0.44298464;-0.015953265;0.3495166;-0.015982391;-0.0012107922;-0.045065336;0.014338855;0.07320762;0.24744135;-0.15088323;0.30120715;0.08210766;-0.05518164;-0.31766596;-0.1540902;0.27018836;0.08642013;0.3654016;-0.09230507;-0.1271918;-0.034882367;-0.18466614;0.042726558;0.009341899;0.0080246385;0.0014417777;-0.5002429;-0.073330075;-0.044334672;0.15551922;0.00441869;0.011505409;0.046365228;-0.3318293;0.16195475;-0.09707585;-0.008426141;0.01954731;-0.045725543;0.38485008;-0.033340856;0.07846714;0.13905086;-0.046815816;0.10349159;-0.014627288;0.026802413;-0.14629066;0.13309239;0.034618862;0.49712303;0.02864178;-0.062183082;-0.032701824;0.26488417;0.3239373;0.49997267;0.12545365;-0.042247936;0.060823195;0.28946677;0.16020454;-0.101688705;0.2996721;-0.63129747;0.049788103;0.188297;0.40167212;0.03436342;-0.045029916;0.17642629;0.029863741;-0.051672824;0.024175983;-0.24813616;0.16312744;-0.035161268;-0.108969614;-0.045112714;0.12067059;0.0008508835;0.037438527;0.16897279;0.3119363;0.010177829;0.042148553;-0.083448775;0.088608496;0.57840097;0.030949054;0.043364488;0.46632266;-0.040908866;-0.06745176;-0.10114978;-0.0379778;0.06642756;-0.054396242;-0.087309025;0.10624402;-0.05829349;-0.5489688;0.09371841;0.155377;0.20381436;0.23975073;-0.609127;-0.1120377;-0.18087873;-0.014989553;0.081670664;0.0066040955;-0.24839725;-0.030571701;-0.040916555;0.09796497;-0.028088678;-0.0032369678;0.0340517;0.23487009;-0.021649687;0.28012502;-0.009662416;0.3172147;-0.33235297;-0.07361685;-0.17099354;-0.1815698;0.041551333;0.37510172;-0.06472754;-0.053484675;-0.26354533;0.005851015;0.12864897;0.06920215;-0.053527426;0.53131765;-0.098556936;0.06796552;-0.07566244;-0.27900338;-0.13791354;0.09843869;-0.10507107;-0.035122745;-0.011418753;-0.003409036;-0.16702145;0.2020339;0.13095213;-0.43500018;-0.26267794;-0.06389324;0.33378446;-0.08268743;-0.04048673;-0.05060625;0.05848226;-0.2023202;-0.14606206;-0.043749772;0.14722137;-0.0016021284;-0.49311385;-0.13387798;0.16711254;-0.19895986;0.043506447;-0.35306343;0.34040952;0.010540164;-0.08293429;-0.18297246;0.025014158;0.2939053;-0.044169746;-0.007215901;0.0021041376;0.38056937;0.59741426;0.1239203;-0.052730214;-0.0073168366;-0.16001566;-0.2574966;-0.31367335;0.32454565;-0.05739896;-0.050369866;-0.21781662;-0.1641062;0.116168074;-0.026621366;0.22376524;-0.03869644;-0.108284146;0.2890772;-0.028830215;0.15883608;0.35963616;0.036810584;-0.065447785;0.31236488;0.24138999;-0.03309631;0.056739047;-0.3922584;0.0039714994;0.4275878;-0.013331969;0.018848838;0.2450392;0.011499871;0.01647794;-0.066961095;0.37124473;-0.05876126;-0.07364577;-0.37998363;0.045457337;0.071685664;-0.40746936;-0.033158366;0.17785463;-0.25295886;-0.11301965;-0.05444457;-0.036090218;-0.29555073;-0.008079125;-0.2798157;-0.08688532;-0.01916321;0.33667082;0.37180802;-0.17009759;0.060187012;-0.02120878;-0.035620812;0.08411932;-0.110321015;-0.09918932;-0.05785767;-0.1654657;-0.017783275;0.06608615;-0.038217053;-0.2557079;-0.06398029;0.041462988;-0.06876699;-0.0398387;-0.36415508;0.4045897;-0.27941406;0.07713985;0.3711228;-0.05359616;0.12735201;-0.5813748;0.019849112;0.034336668;0.28653646;0.34211084;0.0037238845;-0.06943002;-0.35145882;-0.057290614;-0.26423353;0.07730421;-0.011724494;0.0400418;0.1237053;-0.12429951;-0.0779021;-0.024260484;0.05405103;0.16138944;0.022386678;0.14414065;-0.43593854;-0.21301837;-0.16758323;-0.040827077;-0.41522968;0.21863101;-0.24756688;-0.0011234025;-0.012702564;-0.007042639;0.07329022;-0.23575534;0.04546464;-0.28697348;0.27654997;-0.021510327;0.03444895;-0.28800744;-0.13660252;-0.15769564;0.04082963;-0.053404566;-0.19655532;-0.3707004;-0.18381147;-0.042983666;-0.36668992;-0.012532203;0.1261087;-0.04800782;-0.1863038;-0.101599194;0.35133588;0.16061704;0.2165779;-0.052756425;-0.037444845;-0.0011260943;0.023360366;0.0150670875;-0.008588368;-0.0038671736;0.046356015;-0.07534463;0.13410176;0.010699553;-0.22443825;0.066273265;-0.013093536;-0.06876578;-0.13577336;-0.048437655;-0.10998024;0.24843325;0.35218945;0.10405924;0.031295896;-0.41284725;0.050251465;0.021188151;0.4103086;0.33703828;-0.09015566;0.14949208;0.005019132;0.18263449;-0.024546038;0.004255865;0.31927353;-0.050806955;0.00821594;-0.076797634;0.0046632625;-0.07822229;-0.03418533;-0.0040429872;-0.0297415;0.30135882;0.17146993;0.117408186;-0.025392266;-0.035536192;0.036619626;-0.2971843;-0.05510252;-0.08646888;0.26416945;-0.37057662;0.017329514;-0.064214125;-0.38274127;-0.039580174;-0.019152472;-0.095438115;-0.09338315;0.14857048;0.065948114;-0.05735579;0.061871495;-0.13245293;-0.091951184;-0.34614977;0.018664854;0.025854213;-0.26679718;-0.05574181;-0.3124424;0.07256566;-0.20004278;0.061331686;-0.1033586;-0.038094815;0.5319905;0.40203568;0.0011400157;0.06159587;0.20195042;0.030398903;-0.4150909;0.014742219;0.27266645;-0.041530244;-0.041434307;-0.03020192;0.015913887;0.13793968;-0.07488201;0.37616843;-0.008665894;-0.06950442;-0.03238493;0.3403273;0.18340304;-0.017149856;-0.004715619;-0.048277114;0.3828274;0.15238151;0.019733077;0.0105770575;-0.03935471;-0.4834405;-0.047873847;0.17388466;-0.38807157;0.37374288;-0.13469622;-0.21921225;-0.01097071;-0.45814395;0.07449318;-0.04808627;0.17421018;-0.040472414;-0.2732066;-0.20078668;0.015261665;0.23300774;0.035438124;-1.7336168e-05;0.014164809;0.37953335;0.22158532;0.2996165;0.00016771164;0.095718436;0.07022244;-0.37582126;0.03406388;-0.3473953;0.053410504;-0.07267967;0.09064919;-0.43938157;-0.019462528;0.048852116;0.011876607;-0.064616986;-0.53099984;-0.021893995;0.027966172;0.03275725;-0.4455587;-0.056832954;0.04538914;0.033114597;0.24289857;0.058009353;0.09142021;-0.005756041;-0.04014311;0.03400776;0.0054820254;-0.2359426;-0.06805518;0.22329804;0.019551449;-0.41914326;-0.03245207;0.18265682;-0.08843218;0.015060041;-0.009074572;0.0273495;-0.08697884;0.031215772;-0.33272228;0.04636247;0.033911828;-0.0022446795;0.0065963566;-0.028924529;-0.010702402;0.17660737;0.01702915;0.028076429;0.22326513;-0.038740396;-0.096167974;0.34580863;-0.12516831;-0.033912275;0.02994707;-0.37090605;-0.06672227;-0.57991487;0.26867604;0.021551365;-0.74185455;-0.006804876;0.29872382;0.15121567;0.15470727;-0.252799;0.027527664;-0.38469356;0.044974238;-0.5759169;0.07511964
0.27488923;-0.008755052;-0.086139426;-0.056987755;-0.28472275;0.005481069;-0.28755894;-0.02346497;-0.07290652;0.037081894;0.08548643;-0.15822913;-0.018607473;-0.41199088;0.2895177;0.1814713;0.094125174;0.6032399;0.016121643;-0.29898694;0.24550007;-0.29090407;-0.055880766;-0.14737248;0.20606712;-0.21770051;0.08945766;-0.71070623;0.03456014;-0.056083266;0.04359938;-0.17856486;-0.10996466;0.019495111;-0.049602374;0.07727058;-0.080388814;0.2897186;-0.14097309;-0.18280272;0.09703102;-0.001931215;-0.12285744;0.41137046;-0.25666586;-0.31968537;0.0538041;0.13114989;-0.0053804507;0.09348761;-0.38132578;-0.045465227;-0.17275159;0.1091621;0.0037358848;0.050182946;-0.4867201;-0.046918325;0.37758368;0.0001121362;-0.08246771;0.04153438;-0.030527653;0.1659078;0.2937364;-0.10486263;0.3266138;0.13285376;0.009587801;-0.33078077;0.012004338;0.42856017;0.08580426;0.34179583;-0.07893616;-0.24588211;-0.023708839;-0.24768798;0.012632134;0.01104837;-0.018166784;-0.040569007;-0.41911614;-0.12211725;-0.04556188;0.20899843;0.07382442;-0.00089759927;0.010222779;-0.4006219;0.13494295;-0.07046186;0.012998437;-0.13244574;-0.000115686635;0.4206183;0.023575423;-0.0014269783;0.18863538;-0.0049312194;0.015343212;-0.028666766;0.001591333;-0.07903135;0.15616302;0.014491167;0.47344035;-0.0028496827;0.047225222;-0.005373726;0.30114847;0.37864545;0.5043144;0.15516628;0.059836913;0.025130171;0.3050402;0.25116032;-0.124914475;0.38237262;-0.6016682;0.033778124;0.26491404;0.36705336;0.02254336;0.11684622;0.27705064;-0.03533444;-0.044156455;0.016567722;-0.29162085;0.115701854;-0.06758359;-0.09307355;-0.033723734;0.08044224;-0.06890228;0.18384261;0.24067856;0.20405069;-0.053783793;-0.07435807;0.013018781;0.07517075;0.57806486;-0.016062694;-0.011131748;0.41157022;0.06249974;-0.009371699;-0.043812927;-0.020251539;0.05414571;0.00013575687;-0.08115431;0.09507488;-0.013952258;-0.66564214;0.09854102;0.27005178;0.17266606;0.24276084;-0.5691572;-0.16641912;-0.022298856;-0.040512532;-0.099598676;0.021312369;-0.15369077;0.053411346;-0.008251045;0.11705904;-0.019528689;-0.13802683;-0.017762369;0.30964887;-0.113554806;0.39939505;-0.001461698;0.42336404;-0.18794848;-0.03027521;-0.054472737;-0.17913489;-0.021536332;0.44391194;0.028785402;0.017125174;-0.21126452;-0.10399941;0.18253049;0.082719505;-0.059426215;0.6563028;-0.15081993;0.121134065;0.036442276;-0.30939537;-0.119444326;0.09381366;-0.07573864;0.052526113;-0.0016384114;-0.018356308;-0.19864358;0.19356112;0.18911904;-0.49416512;-0.22507095;0.04459989;0.38609;-0.08957885;0.050715156;0.037073806;0.066316836;-0.25681964;-0.12618802;-0.1399435;0.108960755;-0.13159186;-0.4556211;-0.2513871;0.3053486;-0.078787155;-0.031852394;-0.3807888;0.2840464;0.004825306;-0.018076662;0.001143783;-0.053590473;0.22311322;0.024058385;-0.014254459;-0.17867659;0.2748824;0.5781638;0.009297678;0.07825093;0.12157621;-0.24261628;-0.16676159;-0.15095873;0.2337767;-0.042492695;0.02623504;-0.18522713;-0.0956295;0.21307482;0.0068930564;0.34311378;0.0573981;-0.18687524;0.26342398;0.035152722;0.10050625;0.3983928;-0.028170094;0.05560981;0.39683992;0.33417085;0.07006248;0.17102283;-0.53344333;-0.076153785;0.5330165;5.7133406e-05;0.11559018;0.2636876;-0.005623367;0.044213083;0.0011629892;0.24997966;-0.045903746;0.03903078;-0.41224548;0.0863912;-0.07549057;-0.34226304;0.0014898713;0.14244266;-0.2734713;-0.099725015;-0.16049793;-0.065978244;-0.2818463;0.032994956;-0.2982137;-0.10269687;-0.006877889;0.31889236;0.41033834;-0.20230012;0.10343442;0.0019297011;-0.14638722;0.051028714;-0.16499203;-0.06597771;-0.10089533;-0.16103263;-0.010981714;0.037791606;-0.0128172105;-0.26840135;-0.16190107;0.06390428;0.061561365;0.04187052;-0.4451427;0.35605797;-0.28482538;-0.06099589;0.41449237;-0.07514404;0.17089002;-0.6018301;-0.0049594487;0.020500079;0.29240254;0.44410086;-0.04281989;-0.12036406;-0.21488865;0.0644353;-0.18886259;-0.0103624035;-0.15356192;0.15922603;0.024210189;-0.019203505;0.015703494;-0.07141724;-0.06203481;0.15902504;0.00089316466;0.25436231;-0.45282215;-0.2823657;-0.14189544;-0.0036519621;-0.29735324;0.41546014;-0.14718963;-0.034334637;0.02899725;0.029350165;-0.07316717;-0.40457714;-0.0018687517;-0.3522745;0.31098327;-0.06098493;0.21063569;-0.17360584;-0.26213294;-0.08292108;0.016604975;0.098735295;-0.21957949;-0.35905805;-0.16815075;0.01114941;-0.24766093;0.0049908604;0.06273752;0.05191194;-0.11913092;-0.22070508;0.42056194;0.23721352;0.24205753;0.021889852;0.050730426;-0.0036177016;-0.016335236;0.060715985;0.055982538;0.09403663;-0.039215617;0.014692069;0.24779215;-0.052855533;-0.07311276;-0.025944494;8.720692e-05;-0.07806356;-0.20188253;-0.16923805;-0.036050048;0.26178885;0.36185777;0.0040010177;-0.048767775;-0.36520007;-0.00457814;-0.043947063;0.3866422;0.42099681;-0.17523953;0.075682595;0.011474678;0.13900371;0.005879586;0.10037691;0.3310615;-0.18770097;-0.10279554;-0.04044258;0.009162017;0.010985847;0.03785507;0.06487902;-0.043215007;0.29712725;0.2723053;0.1462804;-0.012975959;-0.08098566;0.0056262864;-0.26126254;0.08018872;-0.17277564;0.32303807;-0.33358604;-0.005496062;0.065738335;-0.49256003;0.0012408826;-0.100651495;-0.052236147;-0.006372143;0.19007781;0.016935263;0.0148639865;0.053561386;-0.10343432;-0.08108703;-0.34565794;-0.04496329;-0.0035189388;-0.29549566;0.065666094;-0.38143426;-0.048945405;-0.19181001;0.012385493;-0.108138114;-0.01623475;0.5910409;0.48487464;0.035169236;-0.039793074;0.2616145;-0.04242077;-0.43295664;0.036186717;0.34532726;0.049280565;0.08114891;-0.05724103;0.016038498;0.07171667;-0.16736974;0.421248;0.06297591;0.046135124;-0.015338511;0.17394762;0.19089885;0.012541982;-0.06083881;0.0006129805;0.3879204;0.19883633;-0.021216368;-0.006839589;0.10216287;-0.54974633;0.018190077;0.23809595;-0.38119537;0.5507875;-0.053844213;-0.2580132;-0.03229806;-0.42865095;0.10414071;0.013319044;0.16823865;-0.048898607;-0.33266547;-0.087832816;0.10049749;0.2689017;0.02969937;0.03752235;0.034667168;0.2839398;0.13194482;0.31339237;0.035893545;-0.03955106;-0.00987843;-0.3327831;-0.029658169;-0.4157276;-0.016870864;-0.03373861;0.1975378;-0.35922736;0.001063519;0.14846018;-0.032610264;-0.17410004;-0.44122472;0.027621116;0.07083668;-0.021652637;-0.24922471;0.061976664;-0.019431595;-0.0030907514;0.1603274;-0.020576222;0.11918017;0.0604839;-0.0024397124;0.1220615;-0.042345542;-0.20349403;-0.104264244;0.22849613;-0.0027078174;-0.31015056;-0.017124798;0.009009501;-0.16279532;-0.036084972;0.022585433;0.0007464364;-0.15029912;-0.051799607;-0.20468882;0.038761206;-0.013771744;-0.12856276;0.04834389;0.03378733;-0.027070014;0.10219713;-0.008642889;-0.020120014;0.25016564;-0.023161469;-0.0046608658;0.30262285;-0.2680161;0.023387685;-0.036356807;-0.39419368;0.030151406;-0.48129785;0.19494443;-0.009003497;-0.73784417;0.017262412;0.20659666;0.038706657;0.06518638;-0.20986044;0.0032675224;-0.5692094;-0.08311636;-0.5937147;0.04317188
-0.3750736;0.010442693;0.1603815;-0.37675616;-0.016821116;-0.022379637;-0.079660766;-0.018881727;-0.014749466;0.047350943;-0.32025644;0.28543726;-0.038535457;-0.022118941;-0.13084231;0.2288769;-0.025836848;0.14532131;0.048136275;0.06959559;0.29917306;-0.39183342;0.022410844;-0.014708338;0.1529987;-0.052707765;-0.069786295;-0.2528794;-0.017675856;-0.024911428;-0.049013395;-0.26770654;0.011763977;0.058816183;0.025295978;0.23340976;-0.07753529;-0.7309522;0.14346717;-0.1110336;-0.0096649015;-0.018673956;-0.18312243;-0.30468002;0.20889941;0.12918568;-0.011929003;-0.0019062832;-0.0023030094;0.18104135;-0.13854292;0.016745228;0.03618202;0.3022789;-0.054872066;-0.034817196;-0.24144152;-0.012115883;-0.6529352;0.12012311;0.10646812;0.19977856;-0.02839357;-0.054879263;0.16553478;-0.10409256;0.001402217;-0.018419858;-0.017551877;-0.78276837;0.030834697;0.12774907;0.35028186;-0.116451;-0.4379177;-0.16488415;0.056676496;0.38308004;0.3241135;-0.008507871;0.037415743;0.0133054005;0.04973293;0.21442942;0.057830747;-0.48543474;-0.015480423;0.006459574;0.025428131;0.03956336;-0.2888908;-0.16887592;-0.058923088;0.07451811;-0.053848807;0.26020244;-0.014231161;0.022305438;0.047470447;0.31712666;-0.12395868;-0.0014903673;0.033690605;0.09746729;-0.35239404;-0.008520487;0.2295003;0.015461417;-0.04778379;0.019159835;-0.41267952;-0.12832558;-0.8122666;0.10101344;-0.009546179;-0.26771274;0.39094937;-0.10071129;0.2419367;0.39439863;0.3010609;-0.008453949;-0.09818268;-0.04526314;0.08161951;-0.17529261;-0.046073545;0.0051402384;0.5450026;-0.009768853;0.11388772;0.11745177;0.030993938;0.36859697;-0.020803954;-0.28316092;-0.18874758;-0.045589145;0.4057359;-0.14799415;0.22351679;-0.034275424;0.5109353;-0.06429126;-0.08296727;0.020372914;0.038187742;0.09688147;0.07488872;0.20031749;0.38422608;-0.356045;0.014917903;-0.0077475854;0.26678193;0.060293943;-0.04636171;-1.1706458;0.019128375;-0.35426188;-0.075331025;0.1805844;0.010731246;0.024929672;-0.040268093;-0.027153432;-0.029309845;0.33208108;0.56518155;0.033733282;0.048485454;0.14078215;0.044496655;0.08833241;0.02206022;-0.1870513;0.23571381;-0.04797168;0.13929458;-0.11708324;0.14305642;-0.09607708;0.24946016;-0.4807723;0.007172024;0.21979961;-0.0015464423;0.2552017;-0.2791856;-0.089820296;-0.02791754;-0.25852007;0.30529717;0.35819724;0.30008113;-0.117114715;-0.0070392615;0.1576731;-0.23689093;-0.55303127;0.08876623;-0.05086321;-0.0021919708;0.0075289253;-0.2772122;0.19576825;0.16602005;0.35629207;0.11914113;0.02308357;0.071945295;-0.059587155;0.0030732504;-0.013263794;-0.25276798;-0.22447066;-0.33696663;-0.21776615;0.56122816;0.09546543;-0.14741369;-0.36828643;-0.051307287;0.17006695;0.03773403;0.11399428;-0.22695947;0.030856187;0.028851151;0.24171433;-0.05702997;-0.1005774;-0.048188567;-0.0037554428;0.4966206;0.1278831;-0.48330644;0.0027965116;-0.017275391;-0.028953195;-0.02257047;-0.19824165;-0.05970803;0.2406782;-0.04302704;0.15391684;0.36678043;0.109706655;0.4051635;0.013117689;0.23751262;0.02303313;-0.2275022;0.11657858;0.008798902;-0.39642918;0.017747486;-0.00023469265;0.11668164;0.34365204;0.017089127;-0.51590127;-0.23697796;-0.16757539;0.031411756;0.2696047;-0.023472708;-0.020039905;-0.20205006;0.0089814495;0.04051655;0.16346182;-0.40557423;-0.09936542;-0.042821117;0.25287232;-0.08738445;-0.025219606;-0.00029556293;0.047725115;-0.4499945;0.23714556;-0.22191918;-0.023903247;-0.005660808;-0.7858959;0.04181168;-0.0070651975;-0.36975765;-0.03922013;0.42381805;0.26738352;-0.20146167;0.277251;-0.002190538;0.06571888;0.5370932;-0.7498283;-0.58717513;-0.31674367;-0.031285647;0.043541294;-0.041104842;-0.023289507;-0.1699567;-1.0095121;-0.286767;-0.054133702;0.36115006;-0.0364309;-0.1164462;-0.010540242;-0.034942217;-0.12179036;-0.1475857;0.32585785;-0.042664945;0.021809144;0.021201642;0.07487346;0.029014837;0.042033862;0.029107567;0.10166421;-0.025885912;0.04164713;-0.008954531;-0.5055367;-0.029573875;0.19023214;-0.060106575;-0.00886627;-0.13788322;0.031590175;-0.06443994;0.0263397;0.47407943;0.01752577;-0.35795242;0.19591816;0.022997247;-0.05820615;0.090672374;-0.08722568;0.031407878;0.017097741;-0.035346538;-0.025417771;0.050262272;0.64365023;-0.25464678;0.5543208;-0.1021088;0.43968967;0.16532521;-0.063830465;0.12533996;0.009670657;-0.40361807;-0.3031538;-0.09129069;-0.16884378;-0.0044068284;0.3171399;0.311412;0.41478714;0.03765239;0.055695113;0.1637909;-0.18774898;0.55291563;-0.21037361;0.0048831683;-0.037033822;0.018573964;-0.030513486;-0.011291009;-0.029598445;0.016292136;0.0075127003;0.021987654;0.17130196;-0.01023915;0.11546784;-0.0025114033;0.016847478;-0.20732577;-0.03430399;-0.3270191;0.16812062;-0.34838495;0.044098333;0.22121431;-0.0037516698;0.22683522;0.10672047;0.008189963;0.054284558;-0.093487784;0.071742654;-0.05713791;-0.049439196;-0.06940568;-0.015456337;0.00094588095;0.26147902;0.13286765;-0.024492279;0.037581854;0.0033518518;-0.0022147612;0.03098847;-0.2408127;0.0030488349;-0.35672587;-0.40315172;0.25034422;-0.0331687;-0.11552986;0.012377179;-0.1912175;-0.4004607;-0.09610588;-0.03460414;0.0753415;0.03256528;-0.019985205;0.2798277;0.041780297;0.1589068;0.15533504;0.58856213;-0.08187362;0.011388755;-0.037902646;-0.061008774;-0.029908543;-0.17724381;0.072159655;0.033656664;0.041822195;-0.35669497;-0.028287044;-0.020086441;0.35368478;0.19458967;0.022733636;0.53165406;0.04398875;-0.7928746;0.086111166;-0.0027526282;0.07908505;0.5788744;0.002105135;0.20249313;-0.0008637398;0.032315947;-0.22700456;-0.035278376;0.048418477;0.035585485;-0.25261712;-0.3059108;0.041544024;0.12400038;0.018978046;0.036774766;-0.068485305;-0.07614329;0.051687077;-0.10495276;-0.030089375;0.17764848;-0.11897822;-0.035542484;0.026275974;0.12845267;-0.49518314;0.062237266;0.09074342;-0.041001793;-0.12377001;0.005969831;0.32542542;-0.029614162;-0.29519713;0.36357096;0.023656834;0.09912939;-0.016987246;-0.13688105;0.36873797;0.20148243;0.22701067;-0.046349496;-0.32280636;0.021011533;-0.10053449;-0.5686672;-0.38451627;-0.013315679;-0.017010592;-0.028014805;0.117556415;-0.02156415;0.027959703;-0.036355257;0.24352713;0.22424485;0.1426407;-0.14966284;-0.13017216;0.0923835;-0.54094213;-0.053046968;0.02708852;0.11910172;-0.012227171;-0.012814363;0.14814362;0.040892657;-0.014543164;-0.28518376;-0.0438216;0.34084103;0.04997462;-0.001154504;0.23116489;0.027892116;0.13045023;0.08145311;0.5895078;-0.0067548533;-0.36009347;0.040834967;0.21539891;-0.36551344;-0.042692717;0.35151562;-0.11747019;-0.1796701;-0.017574292;-0.1470386;0.048324503;-0.042073663;0.17956348;0.057536535;-0.3604486;0.0475484;-0.28746465;0.0113366945;-0.007927297;-0.29690835;-0.034110896;0.061697885;-0.24835283;-0.047634948;-0.017450102;0.07017251;0.8074249;-0.15905467;-0.16929725;-0.056067865;-0.038421635;-0.3152293;0.03417847;0.3842575;0.02942946;-0.46052626;0.07950718;-0.022338927;-0.24500944;-0.07837611;-0.0836795;-0.1540322
-0.07735153;-0.053795725;0.069498;-0.46693915;-0.037676144;0.05103019;-0.02361809;-0.0066282023;0.06002502;-0.03507093;-0.17391615;0.28483984;0.033753894;-0.08531847;0.0124000525;0.13062677;-0.04954585;0.2751409;0.016698956;0.058448125;0.23685315;-0.1579959;-0.064663365;0.055560093;0.074602745;-0.30201304;0.013054189;-0.15908632;-0.06031048;0.020146463;-0.06537439;-0.28997386;0.13375948;-0.016771227;-0.066847116;0.26851296;0.0004326388;-0.35104173;0.024430422;0.0010702253;-0.020889679;0.03234383;0.015870841;-0.48440456;0.21756965;0.099652976;-0.015551244;-0.060256284;0.016131463;0.056845497;-0.065032735;-0.01690572;0.029420152;0.42971513;0.0633694;0.029867984;-0.140178;0.009393423;-0.23376302;-0.020266317;-0.010300789;0.22877488;-0.029644977;-0.05803139;-0.037149932;-0.10765687;0.06735117;0.0725878;0.0101339845;-0.28879967;-0.12006072;-0.13682622;0.22850583;0.019143242;-0.4389786;-0.12014122;-0.083609916;0.08162175;0.3039669;-0.019124923;0.0015630597;-0.028615685;-0.062984444;0.0950283;-0.02313356;-0.39155787;-0.032810632;0.0050025904;-0.037976168;-0.12095939;-0.122786574;-0.13213275;0.04856444;-0.06489455;0.040176444;0.082997225;0.053056777;-0.00020179071;-0.07671139;0.13397968;0.09940625;0.046824895;-0.041775744;-0.025469944;-0.3315596;0.05353154;-0.028389929;-0.034655884;0.040882986;-0.022964457;-0.31915617;-0.2357065;-0.63141453;0.10494987;0.024271892;-0.26337245;0.23359832;0.08976184;0.3554002;0.20689432;0.29119882;0.0031829097;-0.043829016;-0.19609627;-0.0038432677;-0.20092945;-0.23646957;-0.15323372;0.4780538;0.003947618;0.099871255;0.089671195;-0.06117391;0.11454361;0.030043615;-0.20507117;-0.18115857;-0.29076505;0.2119619;-0.037793215;0.21128017;-0.0076935994;0.5235167;0.006977669;-0.057236113;-0.04060443;-0.037256833;0.034501538;-0.075398244;0.25252038;0.094429776;-0.016809274;0.011251706;0.039899867;-0.18785249;0.14895234;0.05712013;-0.7387437;0.13337164;-0.0783558;0.024034;0.06153237;-0.15231994;0.01024581;0.21042803;0.011376948;-0.01083651;0.19019978;0.68624115;-0.04335502;-0.032921027;-0.0025310926;-0.051264025;-0.027995182;-0.06813248;-0.101517975;0.12850414;0.022378748;0.29563215;-0.29807633;-0.115055606;0.13636895;0.08318763;-0.4710952;-0.031395026;0.20326391;0.028018255;0.21639283;-0.31054693;0.088915534;-0.10529877;-0.15148637;0.41203284;0.32992452;0.1808728;-0.11731293;-0.060694724;0.31331834;0.10835816;-0.20853172;-0.01839259;0.036127113;0.032768074;-0.008279006;-0.08826278;0.1112819;-0.21642955;0.17929602;0.052824933;-0.013061019;0.0026094685;-0.01622193;-0.0067479964;0.022793291;0.03834264;-0.23334505;-0.41703138;-0.2760112;0.36246637;0.100546256;-0.1665892;-0.41760018;0.011627036;0.24595684;-0.017135194;0.16490312;-0.014809721;0.0047525764;-0.0466647;0.2613557;-0.011313963;-0.0434639;0.08389372;-0.027417218;0.30371398;0.20516652;-0.29097754;0.0055103777;0.009798853;0.09406559;-0.028447285;-0.0045527285;0.07085959;0.28545272;-0.019876357;0.06459131;0.31497243;-0.041919872;0.36332506;-0.0024285556;0.06878697;-0.057059485;-0.09958163;-0.018199652;-0.04198715;-0.23384841;-0.14509048;0.013939009;0.19333138;0.18880457;-0.0010335672;-0.42886215;-0.28508067;-0.07835702;0.007443426;0.10788029;0.034027673;-0.00017268382;-0.10081566;-0.043318257;-0.03190464;0.23881434;-0.31655616;0.09562638;0.039255552;0.10082638;-0.2363493;-0.015531196;-0.044870295;-0.012781529;-0.4181725;0.31896007;-0.23373224;0.07822902;-0.026207315;-0.64074785;-0.06670536;-0.06029348;-0.16330805;0.046861414;0.38799602;0.18271151;-0.33931178;0.08656498;0.006361343;-0.10317341;0.105497114;-0.41321233;-0.516016;-0.17731857;-0.111879244;-0.023219042;0.022895975;-0.0064428938;-0.2281204;-0.5564195;-0.13112926;0.031175518;0.34911373;-0.04841631;0.08217587;0.08176979;0.024792176;-0.07972003;0.053212427;0.21574993;0.22213918;-0.0460468;0.0109631345;0.037423667;0.05990801;-0.044132806;-0.109301984;-0.061445765;0.056686755;-0.11185166;0.0091601005;-0.52926266;0.04497421;0.009088539;-0.20645455;0.0048302803;-0.20367229;0.07904302;-0.057841077;0.023906585;0.42528504;0.10934451;-0.3092465;0.027643012;-0.013068763;-0.21970262;0.15398872;-0.008789678;0.041332334;-0.00017492552;0.042837434;0.0440864;0.03082759;0.5146168;-0.17806463;0.44950628;0.0029905823;0.25987107;0.14087942;-0.08105478;0.090076216;-0.042001046;-0.29665396;-0.3356795;-0.09873084;-0.22665392;-0.07347536;0.08882257;0.2695553;0.3925151;0.0149567155;-0.04331239;0.18810451;0.030153697;0.35084414;-0.080741525;0.044736646;0.01703153;-0.025963174;0.0075556026;-0.008389445;-0.0047165416;0.027920078;0.057297237;-0.009295938;0.24892;-0.014113433;0.058454584;-0.023154467;0.040563706;-0.070710965;-0.038360894;-0.3214121;0.2434989;-0.0697813;0.10053123;0.3697587;-0.023471868;0.19185945;-0.0010630004;-0.007571102;0.14225672;0.16014224;0.07810686;0.01685486;-0.0084823575;0.2655525;0.036412954;0.07271148;0.24053356;0.080325626;-0.010313326;0.090873465;0.038070712;-0.019802742;-0.0510465;-0.2791351;-0.016743533;-0.36375636;-0.20799196;0.33503157;-0.0041757855;-0.17963624;0.024737349;-0.3684434;-0.14377712;-0.0072239176;-0.09783895;0.16775222;-0.028329713;-0.021787325;0.17763269;0.131647;0.0053348714;0.025407653;0.22180635;-0.050061047;-0.022055514;0.06512937;-0.00890812;-0.017844241;-0.27052945;-0.04519703;-0.0033243694;0.013266052;-0.08220556;0.030854292;-0.030197555;0.21011274;0.15526545;-0.048443805;0.4391754;-0.050899625;-0.4012496;-0.17128284;0.048586942;-0.017471176;0.5199477;-0.044364214;0.13789397;-0.033709895;-0.14703348;-0.45424616;0.02064006;0.009793058;-0.014344458;-0.3336559;-0.33006594;0.025804121;-0.09943608;-0.015681848;0.031477015;0.08977733;-0.014092652;0.11933713;-0.1004898;0.05386781;0.16254143;0.0021722927;0.03922222;0.013763612;-0.021929555;-0.31041366;-0.028822243;0.18117833;-0.042907275;-0.13092506;0.07172147;0.24358411;0.039399974;-0.47816423;0.3598047;-0.05874781;0.18870676;0.052717127;-0.23758258;0.3046581;0.31494284;0.22244842;0.039562605;-0.44623315;-0.06661143;-0.17292538;-0.33992618;-0.3268225;0.01952641;0.009875342;0.01984784;-0.068987474;-0.027196385;0.069217615;0.058460426;0.12780716;0.1831689;0.056269575;0.031236734;-0.112458795;0.104936205;-0.38563493;-0.06897702;0.011670356;0.040313967;0.05206058;-0.28931177;-0.009613684;-0.01168804;0.04024666;0.025033906;0.017451327;0.17247026;-0.040953543;-0.011558386;0.05648674;-0.06827628;0.1321671;0.10380454;0.35152307;0.04304072;-0.49428093;0.080997676;0.20980793;-0.18194987;0.07502462;0.16944626;0.18417935;-0.038534213;-0.024635317;-0.18209186;-0.02198567;0.07681772;0.123393625;-0.025900088;-0.084697284;-0.0056825206;-0.31263122;-0.009909507;0.04914795;-0.33051443;0.029529858;0.08401024;-0.2796742;-0.079636104;0.047179505;-0.056009807;0.32630697;0.018864304;-0.13862367;0.1414506;-0.0011027902;-0.08802497;0.023499604;0.26985958;-0.13904905;-0.3051668;0.14208108;0.026218249;-0.19810869;-0.09727016;-0.1698926;-0.0046426835
-0.059079584;-0.22406058;0.106085144;-0.35767105;0.043945216;-0.09455956;0.023620257;-0.043827724;0.03497135;-0.0020992788;-0.10173208;0.16078928;0.007235196;-0.060040116;-0.033436377;0.18718928;0.08024739;0.41598877;-0.04542979;-0.048083786;0.13515508;0.081755616;-0.07743136;0.032536812;0.0070163934;-0.30785522;0.14026797;-0.17597422;0.058336932;0.023267424;0.028330794;-0.2664764;0.06552928;-0.071825005;0.066482015;0.0020234915;-0.1282956;-0.0335736;-0.074750826;0.14740933;-0.05022004;-0.01791999;0.05177001;-0.5380938;0.1550151;0.059803452;0.0064112614;-0.0060473927;-0.004163878;-0.06371133;-0.058424376;-0.0026266542;0.09443562;0.32910287;0.014816541;0.040672213;-0.031659316;0.037069473;-0.35845837;0.17480156;0.042903665;0.26015112;0.077718146;-0.20993103;-0.101606406;-0.24565208;0.0052204886;-0.034648795;0.04333111;-0.34820786;-0.027576653;-0.10834608;0.21529223;0.18534067;-0.34810972;-0.17470598;-0.059753433;0.01728459;0.23826244;0.025898341;-0.056324076;0.03136738;0.04823819;-0.015833272;-0.051937215;-0.43261522;-0.15579201;-0.012983451;-0.031478483;-0.16889842;-0.0051205307;-0.13041551;-0.0027953202;0.045376565;0.0029463244;0.2070983;-0.06040006;-0.0007503678;-0.16779669;0.17971255;0.2556298;-0.030113848;0.022931516;-0.06764423;-0.21489227;-0.05585357;-0.1980075;0.042484175;-0.012610807;-0.0010895912;-0.32986286;-0.27543208;-0.45655158;-0.014595984;0.023502097;-0.25341606;0.11653628;-0.015378113;0.44308898;0.16819689;0.22258697;0.036776893;-0.08665516;-0.07708851;0.0141802775;-0.09710467;-0.20979208;-0.12758718;0.37821808;0.022872316;0.14080043;0.019471683;0.06852052;0.020587608;0.0069233133;-0.116238736;-0.21231669;-0.3264919;0.13634372;0.107675284;0.1498691;0.073444575;0.43645617;0.041240066;-0.09531633;-0.0068702023;-0.006264509;-0.03603088;-0.06469577;0.12750919;0.06537048;0.012206434;-0.012064376;0.024704492;-0.2179789;0.010046688;0.02436046;-0.5828611;-0.018040415;-0.11370402;0.057388738;0.03626214;-0.072500415;0.097775735;0.2843046;0.021014534;-0.00855361;0.047865666;0.5758812;-0.0048252884;-0.021977456;-0.057135403;-0.021884881;-0.0055713565;0.05618955;-0.072418846;0.25828257;0.09217325;0.3174459;-0.24547254;-0.37516037;0.061445564;-0.019772815;-0.42114347;0.0109587535;0.2056716;-0.017479531;0.09240195;-0.3159166;0.112328716;-0.084726416;-0.0956341;0.31711203;0.35353953;0.26304176;-0.052873958;0.044117622;0.18413953;0.2027336;-0.11042586;-0.10639491;0.0611952;-0.030307157;0.044470344;-0.07536769;0.17619099;-0.32094815;0.10942694;-0.07191123;0.010183791;-0.018633574;-0.06959105;0.047402296;-0.0035228746;-0.0063721943;-0.1892215;-0.2497831;-0.44726506;0.24122706;0.15366428;-0.029947886;-0.24844839;0.106135674;0.19882488;-0.0027014618;-0.014320975;-0.050216496;0.002044959;0.060780775;0.02193652;0.007788279;0.06899458;-0.009607036;0.061422877;0.2043758;0.22068629;-0.16470864;0.034065694;0.033994727;0.042396728;-0.043558717;-0.08290921;0.1755537;0.27156377;0.08725834;0.1383913;0.2195653;-0.07010189;0.34795985;-0.018182103;-0.014567312;0.06201474;-0.23539935;0.100557946;0.05277381;-0.058995463;-0.1434025;-0.049892038;0.088472374;0.11073997;-0.028168859;-0.37333375;-0.43640202;-0.11607871;-0.017185127;-0.036471743;-0.026506491;0.0047034393;-0.028714007;0.006703808;0.047536746;0.16232727;-0.35476986;0.08226734;0.041310325;0.08433888;-0.21892868;0.033948366;-0.02871912;-0.022281496;-0.24741834;0.27409995;-0.15713654;0.11573254;0.0050771623;-0.46452135;0.038170733;-0.04970092;-0.19541565;0.014743484;0.47796774;0.12518781;-0.37860718;-0.031276394;-0.0007855651;0.07488932;0.022512704;-0.24135825;-0.68227977;-0.15630077;-0.14736223;-0.047811687;-0.026659222;0.0029669392;-0.22338332;-0.4944759;-0.24471164;0.060201116;0.35773173;-0.04909006;-0.011251619;0.16831678;0.008863709;-0.14880006;-0.114641465;0.29893696;0.3786359;0.060180873;-0.002091952;0.0660893;0.11053706;-0.033888478;-0.20317422;-0.05391484;-0.054972492;-0.06619544;0.024000887;-0.4360041;0.059975885;0.06705009;-0.25747564;0.0111830775;-0.11149193;-0.085237294;-0.123371884;-0.03775787;0.36341187;0.110402994;-0.18565719;0.10096129;0.014932347;-0.20465758;0.03956406;-0.009390402;0.059235223;0.012758599;-0.025233766;-0.058623128;0.11800197;0.22664933;-0.14911647;0.22004993;0.04068412;0.21490437;0.20860371;-0.10370077;0.0703465;0.038008835;-0.31407923;-0.34294492;-0.0981145;-0.12367888;0.034356765;0.12750188;0.29372707;0.3240001;-0.0671172;-0.009355794;0.10583111;-0.011159643;0.42904243;0.0009767042;-0.029602557;0.049699962;-0.046295002;0.017346296;0.07334238;-0.0030227823;-0.0051233396;-0.060435116;0.013966174;0.31578478;0.009210547;0.0020877062;0.03568204;-0.107850395;0.16245238;-0.083290406;-0.235882;0.22539815;-0.006975803;0.05150215;0.2958223;0.0027423603;0.13322788;0.027057417;-0.03767109;0.043857332;0.2678481;-0.009353367;0.076716;0.056670923;0.36756662;0.013018992;-0.05368123;0.23754492;-0.050232172;0.00014910365;-0.045150544;-0.009294897;0.036027335;-0.00016047723;-0.08568274;0.06328417;-0.3548152;-0.14213657;0.3473651;0.029162219;-0.3455886;-0.0678574;-0.30134636;-0.19003393;0.09229289;-0.12300667;0.2876398;-0.022253452;-0.03503459;0.10762528;0.16228902;-0.073019415;-0.06015153;0.078636676;-0.0015634097;-0.0060023903;-0.064369395;-0.07287405;-0.065365136;-0.17447147;0.009055377;0.036049813;-0.05758974;-0.15417922;0.013953742;0.12631464;0.09973491;0.00068952434;0.019319998;0.42043045;-0.029867448;-0.29514164;-0.20764762;-0.08426581;-0.03960583;0.47223237;0.051435187;0.15939786;0.04983899;0.028243504;-0.50798833;0.049247507;-0.035282526;-0.027103582;-0.37190518;-0.4187697;-0.062622346;-0.26441932;-0.014422001;0.21574527;0.23312892;0.10007275;0.10902082;-0.04187129;0.008072943;0.15159841;-0.06092522;0.00034708233;0.010215553;0.10448737;-0.26887056;-0.0356016;0.18908584;-0.021072151;-0.080128476;-0.005796581;0.20365103;0.032792475;-0.361914;0.3439935;0.042645756;0.1295896;-0.09352397;-0.3114329;0.2658392;0.11276071;0.3565131;0.061363205;-0.28322306;0.084695965;-0.116206914;-0.22844319;-0.36366257;-0.017138083;0.0057727005;-0.019146627;-0.27859285;0.04958877;0.13864224;-0.048591435;0.058655724;0.07092053;-0.009583595;0.23576102;-0.009673619;0.06400311;-0.28406444;-0.03755791;-0.040866442;-0.07836724;-0.06726566;-0.28828934;-0.06871155;-0.090672165;0.006465063;0.008854728;0.005963845;-0.095136695;-0.015775006;-0.008345491;0.08635198;-0.014470723;0.13058527;0.039490208;0.054281857;-0.009836267;-0.42502397;-0.026779145;0.27565005;-0.23200363;-0.026343705;0.03675385;0.0029318826;-0.10638659;0.07534464;-0.05129081;-0.034099806;-0.04508515;0.1118542;0.01374183;0.08978998;-0.034211714;-0.1878335;-0.0035514764;-0.019776009;-0.1623667;0.03673494;0.027757015;-0.22092131;-0.0076450864;-0.0061973827;-0.056214545;0.30076033;-0.15261452;-0.05953484;0.21486235;-0.0003264932;-0.23246723;-0.07946356;0.21484986;-0.1385408;-0.26688945;0.008257926;0.022796232;-0.37941948;-0.16346419;-0.17572017;0.11252627
0.05739707;-0.19907993;0.13513239;-0.33194247;0.053847823;0.052549835;-0.028324978;0.062273666;0.05191965;-0.049292397;-0.023519592;0.26056093;0.040388703;-0.008000525;-0.10479133;0.20573938;0.034478933;0.25278068;-0.04796584;-0.068593316;-0.016739188;-0.023084734;0.03367126;0.017702002;-0.039682273;-0.2229012;0.2558136;-0.27391878;0.07725945;-0.023663534;-0.007900258;-0.22102073;0.1518399;0.04942892;-0.04407024;-0.0054534986;-0.11086157;0.016151316;-0.050126843;0.15178566;-0.053242043;0.015169933;-0.075435184;-0.48797792;0.12995645;0.01845495;0.042030737;0.0035266154;-0.0034392872;-0.079264574;0.05968654;-0.02966011;0.25020126;0.2952308;0.019666104;0.017121283;0.004753568;-0.03708845;-0.47511047;-0.06593621;0.054017037;0.10112271;-0.0418531;-0.14424358;-0.06269281;-0.23250967;0.10733881;0.0768992;-0.02692778;-0.2115439;-0.035464577;-0.14922014;0.06724433;-0.03708189;-0.4576131;-0.12629174;-0.016694538;-0.04671829;0.16843812;0.041389477;0.02892846;0.012256137;0.064003274;0.009332883;0.060364265;-0.3388741;-0.22239715;-0.02600837;0.058948863;-0.010094919;-0.10483903;-0.04000949;0.011790746;-0.024311315;0.033518128;0.16331898;0.060775176;0.00020749497;-0.22996141;0.26864126;0.1115033;-0.06766661;-0.022758232;-0.035838973;-0.14045294;-0.02623399;-0.20928718;-0.033391852;-0.0054931086;-0.023731345;-0.34242302;-0.015413526;-0.5257606;0.055906773;-0.035808228;-0.11016162;0.05862523;-0.003170056;0.4990881;0.1816122;0.026802976;-0.02671981;-0.061873127;-0.058216278;-0.07669087;-0.08697765;-0.117885165;-0.14170529;0.204983;-0.016279317;0.046944506;-0.033909205;-0.03576649;0.17778791;0.0070231245;-0.1478007;-0.18835941;-0.3720394;0.058878925;0.08497538;0.08535506;-0.061227012;0.42720807;-0.04338155;0.009713641;0.028788425;-0.0055194017;-0.038042605;0.022415537;0.16841596;0.13419452;0.0485994;-0.012505741;-0.06921211;-0.18712986;0.13808751;-0.001357833;-0.5098977;-0.0070780604;-0.09687079;0.026149627;-0.0751325;-0.03198454;-0.024953524;0.19217399;0.029660631;0.060234476;0.06965405;0.5517079;-0.003343764;0.027328376;0.013565944;0.07816825;-0.06925892;0.011224042;-0.1549587;0.19429861;-0.04160829;0.4090519;-0.19616768;-0.37654272;0.115892924;-0.17330208;-0.34252134;0.028239816;0.36629915;-0.0062119886;-0.049761467;-0.26994842;0.06376017;-0.19009767;-0.06982288;0.251178;0.29930425;0.20593314;0.09103276;0.059380453;0.28962204;0.26064917;-0.07624527;-0.028786637;-0.041805744;-0.021249525;-0.08564089;-0.063235074;0.21289292;-0.13864408;0.13816716;-0.047525853;0.020666718;-0.048044614;-0.18324679;-0.06692608;-0.006585457;-0.01059324;-0.1454753;-0.2556788;-0.5508954;0.19443852;0.096551724;-0.17772815;-0.33618164;0.060350277;0.049984127;-0.03909478;0.007976036;0.07126403;-0.06108657;-0.043633208;0.10600293;-0.0632965;-0.08173263;-0.044898007;-0.014219849;0.19403958;0.14333904;-0.14956193;0.0013085537;0.040665075;0.19957663;-0.026507882;0.08326919;0.32241997;0.4627074;-0.021463802;0.13322094;0.33625817;-0.19580092;0.4079678;0.031472802;-0.030390587;0.000106734085;-0.13416596;0.031260893;-0.013171563;0.032675736;-0.12279024;0.05830801;0.11437821;0.16054001;0.0025821025;-0.43039346;-0.35697404;-0.005081086;-0.053082287;-0.09006208;0.022239966;-0.058330137;0.0039381622;0.02839608;-0.07804032;0.26255503;-0.30278713;0.0069776857;-0.013802188;0.13164908;-0.11021228;0.016451681;0.017563762;-0.009395848;-0.22372086;0.30948746;-0.37605932;0.0061510834;0.03545521;-0.4307084;-0.020387534;-0.057671618;-0.04730323;-0.052349232;0.2776024;0.116058834;-0.3773896;0.033848897;0.009851886;0.1271021;-0.0510331;-0.2528307;-0.7288887;-0.07238342;-0.070570126;0.059377167;0.06848621;0.043256912;-0.16472544;-0.4403365;-0.16629219;0.003802937;0.4024205;0.004122081;-0.122275606;0.12565178;0.02969003;-0.12524946;-0.1184478;0.10967357;0.24017985;-0.03642446;-0.0050744084;0.07287364;0.26752803;0.02978295;-0.10739318;0.072055064;0.012527736;-0.10694673;0.022603774;-0.4381746;0.14739767;-0.02668496;-0.366987;-0.04763221;0.0039448813;0.060535543;-0.04518228;-0.037807312;0.395206;0.036167026;-0.10452824;0.2467612;-0.022951568;-0.15852815;0.13617268;0.12610224;0.11538472;-0.035475228;0.01408945;0.031415652;-0.015466789;0.06704451;0.04464666;0.30909634;-0.075389214;0.17467576;0.09452787;-0.02286364;-0.03641608;0.014008642;-0.22014135;-0.40621495;-0.2780099;-0.19656491;0.0510343;0.017019557;0.24747944;0.35778984;0.021215212;-0.022679808;0.034871742;-0.023281757;0.37857237;-0.13527173;0.02287006;-0.011065532;0.070485435;0.041288137;-0.018730594;0.07221474;-0.016334869;-0.010576065;-0.057530016;0.38114247;0.06419332;0.10027737;0.016931972;0.057912212;0.028535455;-0.027381904;-0.13064215;-0.031369615;0.021941531;0.0057857092;0.29135317;0.026386619;0.19183122;0.108195186;0.025507407;-0.086591974;0.1877067;0.029872568;-0.08816833;0.018052386;0.25769097;-0.02274421;0.03496638;0.2677336;-0.038117517;0.036695708;-0.08485018;-0.06747003;0.015246323;0.047217656;0.0075915386;-0.034972314;-0.46243438;-0.12546463;0.21952549;0.03971717;-0.3990249;0.07124068;-0.26443487;-0.122455195;0.10985268;-0.083893076;0.20595518;-0.045319922;0.08511282;0.17865351;0.039581887;-0.00813844;-0.052321933;-0.036905695;0.14475702;0.06731379;0.006403124;0.017439105;-0.051977485;-0.2322147;-0.007730228;-0.05168679;-0.041736;0.036240958;0.03896845;0.23035166;0.02360006;0.07345034;-0.0040678666;0.23035714;0.044704977;-0.36310485;-0.25546813;0.032890618;-0.061590962;0.58782506;-0.013426541;-0.084192835;-0.027003668;0.024278725;-0.561024;-0.0045379894;-0.023674425;-0.0403178;-0.31466547;-0.44685248;0.02693286;-0.29609615;-0.03732788;0.08273109;0.28154564;-0.0006633627;0.05284793;-0.06373063;-0.038698383;0.21528453;-0.123853125;0.0039024963;-0.04140296;0.14958176;-0.22373538;-0.026207648;-0.043951273;0.1768788;0.08129011;0.017295137;0.2852009;-0.028397387;-0.2782718;0.36104298;-0.003764284;0.18281971;-0.050646313;-0.29119533;0.24452749;0.071732506;0.35531634;-0.013843482;-0.2978799;-0.050467063;-0.23781024;-0.10229048;-0.41201285;0.009202377;0.022008736;0.042003028;-0.4360291;-0.0076473234;0.14112972;0.047378067;0.021902246;0.109451875;-0.05597398;0.14112717;0.10362126;0.09678949;-0.2265995;-0.07031879;-0.049847197;-0.12644266;0.0319809;-0.24296753;0.04536872;0.050794642;-0.07575324;-0.012492365;0.03353951;0.013096345;-0.041761965;0.02551416;0.01574855;0.029552571;0.10492563;0.1063894;-0.0103723975;-0.054075293;-0.5432164;-0.03506712;0.39765662;-0.21095769;-0.019583672;-0.118366204;-0.021830015;-0.15273686;0.0025751293;-0.07535107;0.008216509;-0.005737471;0.07189989;-0.03013649;0.1485051;0.0060478747;-0.14361829;0.010178492;-0.037937164;-0.15024185;-0.042463295;-0.008017734;-0.027703803;-0.109595925;-0.011151329;0.032901008;0.24985202;-0.058172468;-0.071984656;0.32716942;0.06184471;-0.17427593;0.05144455;0.24541372;-0.07009356;-0.3040935;0.08597271;0.019219741;-0.30755278;-0.07209767;-0.3183407;0.13379169
0.24231668;-0.06596474;0.051371958;-0.4035991;0.12025614;0.030007912;-0.081381306;0.027917534;-0.020363832;0.022107134;0.018716836;0.13367586;-0.043489095;-0.0038883055;-0.23832402;0.17319879;-0.03207373;0.27215993;0.052527845;-0.11558402;-0.023388008;-0.09051155;-0.06485292;0.010981824;-0.082658805;-0.3266613;0.19117057;-0.30162442;0.008755893;0.054028884;-0.07373563;-0.0662085;0.17624755;-0.057126317;0.019535456;0.08038715;-0.23386967;-0.14048396;0.038269978;0.078148715;-0.12877356;0.00050275127;-0.012730641;-0.52204734;0.21720839;0.091467716;-0.01572411;-0.058627382;-0.013644854;-0.030604394;0.06430744;0.06378718;0.20358847;0.3156067;-0.04547676;-0.042731483;-0.072459854;-0.020461727;-0.37630805;-0.11720138;0.0033194567;0.2186692;0.04401785;-0.18346609;-0.12593558;-0.32362974;0.02937562;0.032228496;0.041533466;-0.16583118;-0.04588355;-0.0069515873;0.07412347;-0.13808991;-0.5569277;-0.020443648;-0.12773094;-0.124167845;0.15060629;0.014215864;-0.034983963;-0.07685422;0.1227548;-0.029113425;-0.04253059;-0.32523465;-0.25107598;-0.0013269658;0.0070362925;0.009828376;-0.14422481;0.13906983;0.009180069;-0.070007965;-0.035367053;0.107578;-0.056007788;-0.057135325;-0.17874113;0.205297;0.04189739;0.061931796;0.018492179;-0.008686209;-0.033083495;0.025615076;-0.17049058;0.008470957;0.033804826;0.058070313;-0.21148388;0.0074577103;-0.47185257;-0.057641737;-0.0073889503;-0.15044571;-0.024144506;0.037157815;0.30840662;0.16138275;-0.1020754;-0.037081636;0.026011636;0.043404326;-0.16890194;0.028344754;-0.104620606;0.018237667;0.20401584;0.036007445;-0.021689495;0.029633319;0.02059476;-0.019795792;-0.012064406;0.017111942;-0.11119266;-0.45861733;-0.05189391;0.26567814;-0.020007383;0.045240205;0.34474453;-0.0753348;-0.051233243;0.039863292;0.01674074;-0.044506624;0.07700079;0.2065777;0.18411696;0.08943647;0.015002072;-0.01865773;-0.2034937;0.12479382;-0.082219176;-0.45703128;-0.02023723;0.0016560259;0.035638653;-0.12501353;-0.16852029;0.07446052;0.06141081;0.004654802;0.048434127;0.02055043;0.5264194;0.022173103;-0.010026051;0.08648338;-0.0637515;0.037399076;-0.0330852;-0.020917004;0.017371524;0.059681904;0.44288996;-0.1280397;-0.29317662;0.23846893;-0.13433005;-0.39378196;-0.014747401;0.25799975;-0.015424666;0.00082919426;-0.24197236;-0.04495934;-0.22436556;-0.11902827;0.21594577;0.13934845;0.25533554;0.10988924;0.0061773206;0.25633633;0.19234815;-0.1532928;-0.07311004;0.024561955;0.012382369;0.034954187;-0.2387354;0.0892367;-0.2277315;0.011340078;-0.08381638;-0.05172039;-0.009968288;-0.19857249;0.023667278;-0.019096898;-0.08869675;-0.17372327;-0.12713599;-0.46417576;0.16220315;0.101117045;-0.10504079;-0.28442731;0.06803528;-0.06260382;0.0030303127;0.04610408;0.06384259;0.01920387;-0.028343894;-0.021622581;-0.01995287;0.029125182;0.0037528186;-0.05744615;0.05141902;0.061556388;-0.22981825;-0.0078065004;-0.050897468;0.3102764;-0.028121596;0.09346495;0.20670712;0.43717164;0.02200556;0.049339652;0.2983868;-0.24046291;0.387808;-0.041922156;-0.13249889;-0.048668005;-0.21728426;0.09152819;-0.014558003;-0.13965033;-0.19241527;0.040940642;0.23571931;0.12495388;-0.071219705;-0.47400248;-0.22454828;0.010586618;0.01339725;-0.25718686;0.008779405;-0.0403554;0.11574343;0.001850147;0.012298295;0.1497725;-0.32571158;0.20206113;-0.055591654;0.18271607;-0.073880665;-0.010123475;0.11935588;-0.06319787;-0.017235478;0.16889706;-0.36984694;-0.1271618;-0.0024489684;-0.15390389;0.009720206;-0.09385641;-0.060725737;0.037652593;0.33838186;0.12589245;-0.43271923;-0.17643748;-0.011829268;0.08309513;-0.106400885;-0.26483914;-0.74148935;-0.076746106;-0.061788183;-0.016396157;-0.026694477;0.034892663;-0.113635726;-0.29852057;0.033567168;-0.023998002;0.48044354;0.05845341;0.088594146;0.092619635;-0.031734515;-0.11418668;-0.16192165;0.20644647;0.23055184;0.018491047;-0.04284309;0.11854104;0.15321155;0.022441046;-0.20334297;0.10138173;0.024014724;-0.17217015;-0.02154677;-0.31703654;0.23366222;-0.050578337;-0.24914652;0.043164615;0.07686205;0.0859388;-0.096512906;0.040084675;0.30131352;0.12537359;-0.049028713;0.30954278;-0.031803172;-0.18342964;-0.035163768;0.17643557;0.13297302;-0.026011443;-0.016957842;0.046563312;0.04960456;-0.1468657;0.10712843;0.12129611;-0.11828073;0.23753093;0.2503132;-0.09125218;-0.087829866;0.0032958346;-0.32331678;-0.36016428;-0.23026744;-0.15904476;0.026102863;0.079812564;0.2017762;0.30470577;0.019978253;0.2493703;0.14254887;0.08215489;0.27513182;-0.04396662;-0.07309668;0.011255103;0.018594485;-0.048057217;-0.047134176;-0.050400347;-0.011716299;-0.044614833;0.03363105;0.41683528;-0.036403384;0.24916442;-0.01216928;-0.05840523;0.01272115;-0.17373098;0.015644643;-0.11522471;0.07867865;-0.009854383;0.2279305;-0.04646252;0.16445802;0.06105582;0.037802402;0.05452213;0.22577485;0.03197572;0.05083267;0.0675673;0.18574026;-0.049624976;0.023587259;0.14067091;-0.10179514;-0.085111365;-0.012476845;0.042032383;-0.06176413;-0.0665542;-0.1706864;-0.03606198;-0.4244633;-0.10786621;0.23533826;-0.04357606;-0.2794586;-0.07801643;-0.25780088;0.019330936;0.01749859;0.014128316;0.23564097;0.040513873;0.06531355;0.08924593;-0.081550054;-0.110337496;0.12363517;0.0028468077;0.13175087;-0.057386234;0.028371977;-0.12853001;-0.036811963;-0.2882096;0.06807755;-0.050763916;0.057600994;-0.10834505;-0.029932123;0.046786524;-0.14473453;-0.09723733;0.05289439;0.25547308;0.009542247;-0.25165638;-0.24454981;0.0023152716;-0.048701257;0.47449785;-0.019045807;0.0015839747;0.010593124;-0.051870845;-0.49647442;-0.049939003;-0.012786157;0.010094562;-0.2610829;-0.30775642;0.027151007;-0.26241565;0.061173838;0.074803755;0.36269602;0.040132154;0.20011781;-0.060487054;-0.040142886;0.194456;-0.11131139;-0.028110405;-0.025447156;0.14284374;-0.122396015;0.012996572;-0.11896738;0.15507443;0.16268574;-0.07192418;0.35779715;-0.029670442;-0.21549685;0.3228799;0.047194447;0.10700921;-0.034316093;-0.2767213;0.24464214;-0.12920393;0.22849354;-0.06482358;-0.20464024;0.024743488;-0.17297152;-0.11993202;-0.4562988;0.010530044;0.033654187;0.008013585;-0.50595385;0.015836209;0.117478535;-0.035965208;0.09486299;-0.08068894;0.058112025;-0.117941074;-0.043619767;0.06579572;-0.10341407;-0.11582572;0.024222855;-0.09004118;-0.020151235;-0.15313077;0.05449699;0.011722021;0.05445407;0.15026055;0.005467899;-0.0791265;0.06269897;0.0474454;0.07955341;0.026478637;0.12786533;0.14409058;-0.09123348;-0.025409913;-0.4643989;-0.00076354656;0.24678549;-0.21268716;0.011038244;0.081356354;-0.07567708;-0.08760046;-0.05176691;-0.10264463;-0.02094805;0.0141718825;0.020919047;-0.009742379;0.048960295;-0.002369237;-0.13948028;-0.030731106;0.0047412277;0.05004774;0.049342122;-0.0120862415;0.11773405;-0.07401498;-0.042680696;-0.027286453;0.11166524;-0.10143652;-0.09502247;0.23013802;-0.0056837928;-0.06309455;-0.018826334;0.18670747;-0.09152106;-0.43198425;0.19130774;-0.06296147;-0.46853456;0.069941156;-0.26468754;0.24733357
0.18146046;0.011054615;0.02156983;-0.4232541;0.20752557;0.02022635;-0.07348669;-0.00871285;0.053214118;0.059873804;-0.0043028686;0.3700444;0.014739184;-0.046179615;-0.1287043;0.28580993;-0.04555478;0.16690747;-0.03707702;-0.1779075;-0.10936458;-0.14452474;-0.008804185;-0.018875076;-0.028161773;-0.16577521;0.19254687;-0.3648515;-0.05521768;-0.047085553;-0.048372816;0.08330122;-0.03135745;0.04173978;-0.02924411;0.13276231;-0.08852623;-0.17622523;0.037400585;-0.011515393;-0.22082686;-0.057462603;-0.03458319;-0.33962643;0.15433092;0.06790961;-0.025384743;-0.08174419;0.04492448;-0.06390002;0.11415585;-0.032584146;0.3160002;0.30623195;-0.046148244;-0.037959557;-0.041925877;-0.01696515;-0.43087947;-0.15038672;0.070650764;0.15807407;0.013511506;-0.12926073;-0.28026447;-0.28546107;-0.07787788;-0.10464406;-0.06462783;-0.26876223;-0.10229744;-0.12130133;0.13231336;-0.03443705;-0.43322605;0.040477872;-0.07813706;0.025375612;-0.01528498;-0.020135075;-0.0075386134;0.06477468;0.20243412;-0.027356328;-0.010025039;-0.1087993;-0.20671217;0.032822363;-0.016048577;0.036206365;-0.047070812;0.053656474;0.060074486;0.031856835;0.03940145;0.16030173;0.020290643;0.055096276;-0.08074994;0.3098935;-0.055695076;-0.036419827;-0.053878233;-0.1307064;-0.04122989;0.031743128;-0.12484763;-0.02614406;-0.0009450787;-0.013164127;-0.17022872;-0.05149376;-0.34681022;-0.11433757;-0.040861234;-0.29140472;0.031425565;-0.04759145;0.39431962;0.31652054;-0.17250934;0.01990068;0.05503278;0.023171604;-0.27602273;-0.03787693;-0.02121375;-0.084185794;0.05533687;-0.0014809461;0.069626056;0.091446854;-0.043253627;0.064715706;-0.050986946;0.12316874;-0.1719821;-0.43686086;-0.024159262;0.15703279;-0.12015688;0.017523488;0.26251274;-0.12773184;-0.0037412343;-0.034654044;0.04653118;-0.036604285;-0.022844631;0.012215952;0.1441719;-0.14358163;-0.06565009;0.007740149;-0.32790637;0.07545597;0.039210144;-0.6732719;-0.07914991;-0.060373474;-0.074905254;-0.19333154;-0.16344437;-0.018840421;0.016889518;0.017408755;0.10069996;0.15376844;0.2683391;0.007572213;-0.04442127;0.111702815;-0.044238366;-0.013011223;-0.033243783;-0.102051206;0.10560546;-0.0027246487;0.5082229;-0.23518354;-0.18325698;0.23418602;-0.17133765;-0.37219065;0.046700157;0.16518757;-0.0067485413;-0.18223926;-0.34725037;0.032570742;-0.27104452;-0.23110692;0.08666161;0.08276553;0.065323636;0.08563906;-0.037530668;0.22105631;0.18152486;-0.38661867;0.013083232;-0.04376701;0.047193855;0.03110968;-0.2607324;0.13617177;-0.1988279;-0.045908436;0.013338926;-0.020464962;0.062024534;-0.1734102;-0.040027462;-0.0003363435;-0.040774755;-0.14152841;-0.07224742;-0.39323282;0.17660505;0.124635555;-0.1780757;-0.112156756;-0.04394279;-0.04467471;0.0703096;0.059489;0.18475579;-0.01998397;-0.0048648193;-0.012249291;-0.06801483;0.02819881;0.021560049;0.0039171907;-0.024137001;0.015469906;-0.2936679;0.040926512;0.005549201;0.2837438;0.032909118;0.03896175;0.19286758;0.36520258;-0.060384214;-0.08463751;0.5324686;-0.058798514;0.49369222;0.025662133;-0.19208567;0.04055974;-0.17334573;0.08061258;0.03600655;0.07508442;-0.21361658;-0.052948263;0.15536109;0.28374356;0.0066377562;-0.44690296;-0.2041701;-0.056820147;0.02294405;-0.24788912;-0.012578106;0.07215194;0.100783184;0.029208226;-0.012927135;0.10261912;-0.20581442;0.16427608;0.038055755;0.026;-0.09628367;0.026133442;-0.011638221;0.050603848;-0.12104589;0.22008495;-0.32205427;-0.1891122;-0.004140699;-0.13594803;-0.04535679;-0.072813004;-0.020656258;-0.024318686;0.27849808;0.15676197;-0.31680205;-0.067043625;0.004889302;0.15249991;0.12356986;-0.12154457;-0.58072245;0.0077869804;-0.072638504;-0.02980263;0.017173473;-0.057742093;-0.15907429;-0.19889511;-0.04599598;-0.062626824;0.4515898;0.088978134;0.15857518;0.18304402;0.0012305888;0.013824769;-0.07486994;0.3196945;-0.07071891;0.015769655;0.008317366;0.0031566143;0.24287683;-0.021840919;-0.09444026;0.07927559;-0.01796269;-0.043080617;-0.032397185;-0.30454642;0.22895554;-0.08264691;-0.12049661;0.033959247;0.16748436;-0.041426167;-0.008175602;-0.021237345;0.2513394;0.041996494;-0.10723817;0.24034995;0.02340198;-0.17661153;0.27591377;0.075671636;0.15738261;0.039670322;0.054292202;-0.03933899;-0.100632355;-0.1400362;0.11055251;0.13547245;-0.0056634294;0.012118117;0.097772986;-0.040344663;-0.07563321;-0.058543526;-0.27347136;-0.40369967;-0.03644825;-0.2682519;-0.030524103;0.0068870103;-0.027101953;0.3169405;-0.041220505;0.17775571;-0.026810631;0.08700193;0.2537888;0.063766934;-0.025551666;-0.0083583;-0.05917691;-0.024645025;-0.0069446103;0.030642841;-0.017120374;0.05176217;-0.040048055;0.2578076;-0.020865094;0.12063737;-0.012191481;0.022541413;0.0012019451;-0.15625148;-0.00015345063;-0.11676393;0.0250155;0.036836363;0.20301913;0.054934617;0.1352546;0.008237262;-0.045515984;-0.053361118;0.17910795;-0.039866034;-0.0006932416;-0.062687136;0.107076414;0.030092629;-0.15002733;0.056008667;0.090509914;-0.018208731;0.01803687;-0.032342482;0.02276669;0.05736225;-0.14093341;0.020368706;-0.53976125;-0.10441708;0.25063792;0.028297337;-0.43292305;0.027811391;-0.29413635;-0.14623128;0.049676586;-0.013125511;0.23487109;0.048053905;-0.037540004;0.10543421;-0.0953797;-0.016537564;0.16629814;0.18796152;0.08024518;-0.004150607;-0.002523286;-0.18203108;-0.013800671;-0.19045024;0.08790205;-0.020328222;-0.03242884;-0.13643959;-0.032420553;-0.07191658;-0.3318421;-0.11398397;-0.026388472;0.049305793;-0.0023034553;-0.23607518;-0.15465756;0.031954996;-0.2384192;0.36167315;0.044358786;0.08830325;-0.0018811516;-0.039439894;-0.38736838;-0.038463384;0.030694641;0.031532742;-0.19686279;-0.2359975;-0.11549113;-0.13838889;-0.009441392;-0.0013784326;0.11446737;-0.11880821;0.1455985;-0.028437084;0.043027885;0.30600947;-0.039571773;0.021725066;-0.011737669;0.10042467;-0.000892351;0.009588361;-0.29366747;0.20181493;0.20169783;0.0100228265;0.4793612;-0.016093379;-0.21348307;0.3694048;-0.03570219;0.013552208;0.05003419;-0.11644776;0.3816531;-0.12891953;0.12540661;0.0134527525;-0.19020495;-0.015197555;-0.16435051;-0.12210102;-0.4539349;0.006145452;-0.002772023;-0.004442218;-0.47922903;0.0025692051;0.09256445;0.03962351;0.114325695;-0.012365726;0.11469228;-0.07950023;-0.1028967;0.017387278;-0.10777278;-0.04239515;0.070711;-0.16800302;0.030783815;-0.1681832;-0.1090783;0.023601562;0.007871649;0.0013657217;-0.031133544;-0.12247381;0.004309233;-0.06396297;-0.060151163;0.021010326;0.2104014;0.16008963;-0.1611319;0.029605335;-0.36078265;0.018812908;0.25825492;-0.09956858;0.022612114;-0.020606382;2.6055706e-05;-0.046805978;0.030470023;-0.27536777;0.011374549;0.0009632477;-0.15796556;-0.018998254;0.09680055;-0.029629251;0.06440293;-0.0060280436;0.038108516;0.15279251;-0.024909256;-0.013717251;0.056517318;-0.16893578;0.0123712355;0.078406975;0.07206538;-0.11261248;-0.08324832;0.15182659;0.039008312;-0.06832316;0.00066945044;0.14143434;-0.16766217;-0.37029934;0.18970475;0.008237973;-0.4075587;0.1414462;-0.23957378;0.26090556
0.15920207;-0.15234172;0.036776725;-0.4392086;0.15870959;-0.025734328;-0.16718014;-0.013546666;-0.074781165;-0.023583343;0.055435188;0.4183921;-0.058638997;0.06925527;-0.15133289;0.21853098;0.030827958;0.092987485;0.044347502;-0.07722729;-0.33087006;-0.2075606;-0.025354935;-0.016771996;0.0106577305;-0.22275719;0.2564071;-0.30093247;-0.05261341;0.009454079;0.009158748;0.103191175;-0.021987036;-0.013798705;0.0026249671;-0.043778926;-0.18554103;-0.0036985916;-0.072120704;-0.052012045;-0.13269117;0.054807696;0.10332542;-0.3177516;0.06978542;0.0668144;-0.0006932177;-0.045753803;0.0073360987;-0.09735314;0.1315555;0.029002676;0.13667491;0.31949458;0.03875651;0.020515991;-0.016706284;0.07581439;-0.44087398;-0.17759477;-0.004386679;0.23883608;-0.029804522;-0.092958845;-0.2804923;-0.15153395;-0.091316506;-0.20532812;-0.013544116;-0.091234185;-0.04910405;-0.07568182;0.10026797;-0.1787694;-0.19782592;-0.045254976;-0.15178517;-0.05431772;-0.036729533;-0.011296395;0.042405967;-0.0073921178;0.18609494;-0.07548735;-0.03511743;-0.091578685;-0.058135528;0.009925405;-0.032773122;0.17509341;-0.057066634;0.2245051;-0.062691845;0.052345462;-0.0090793865;0.16650708;-0.047186527;0.024374232;-0.1677508;0.19772601;0.043346692;-0.03534388;0.032905616;0.07003885;0.026473248;0.012631405;-0.15380794;0.06612684;-0.01127617;-0.019568346;-0.1328652;-0.04606412;-0.25310606;-0.006701261;0.072646044;-0.2413472;-0.018722598;0.060303394;0.3250166;0.22801253;0.012082099;-0.036624264;0.050448246;0.10754969;-0.14032044;0.017833734;0.21156831;-0.069172285;0.04734733;-0.061258893;0.0014284895;-0.0074198903;0.009235208;-0.11067912;0.031832077;0.13757154;-0.25541362;-0.47650158;-0.03169009;0.1315781;-0.18747957;-0.03515681;0.1579996;-0.1831341;-0.031790387;-0.04834651;-0.062205635;-0.013448154;0.012177825;0.010767182;0.13568512;-0.076349095;-0.088092506;0.051267378;-0.29613748;0.13555583;0.0024568117;-0.42628652;-0.038689405;0.02095372;0.000143494;-0.22875382;-0.19753505;-0.050633427;0.037247792;-0.05717214;0.07926673;0.0132393725;0.4017342;0.0025266754;0.013250131;-0.09750888;0.050326955;0.012556601;0.063340165;0.11256753;0.026061837;0.057323307;0.3508284;-0.25230357;-0.10974056;0.11776422;-0.19456646;-0.23774388;-0.0093133915;0.25496536;0.051121075;-0.1442253;-0.20413266;0.016522355;-0.17752571;-0.20585816;0.007227502;0.071072936;-0.02703027;0.20552261;0.006971175;0.18472879;0.1781163;-0.5113821;-0.09198665;-0.022211598;-0.06062654;0.010495098;-0.16837125;0.10411575;-0.12861179;0.08663825;0.04238906;0.024202384;-0.140206;-0.037883066;0.043778766;0.050387003;-0.06289412;-0.20998402;-0.08338969;-0.43110606;0.18576367;0.086797506;-0.16866934;-0.20470674;0.16267717;0.0665195;-0.053398907;-0.063449;0.12763798;-0.009119095;0.03896442;-0.071686365;-0.023991475;-0.09435287;-0.042187046;0.063412905;-0.1876462;0.02394397;-0.30859604;0.085218914;-0.071931854;0.23260081;0.021689154;0.009091856;0.24082117;0.36248684;-0.015120576;0.04920526;0.36516;-0.083602175;0.40717277;-0.06937632;-0.26832137;-0.048559338;-0.11620059;0.03257989;0.012336877;0.14110419;-0.11230746;-0.041491684;0.14466164;0.35301393;-0.027823167;-0.242428;-0.2975232;0.027254265;-0.00022024779;-0.22142662;-0.012807549;0.043883927;0.15890636;-0.018434005;0.0080353655;0.10999814;-0.13972595;0.15541892;-0.014805709;0.18416688;0.08299143;-0.04594704;0.12891716;0.011379097;-0.16111095;0.09317201;-0.29893577;-0.11544241;0.015349752;-0.15878958;0.049581703;-0.019810213;0.056904733;0.010568715;0.1150835;0.107561916;-0.19924803;0.008586132;0.011703276;0.21588479;0.19958597;-0.14037442;-0.54528296;0.036335215;0.17059144;0.04542739;0.0045981086;-0.02185568;-0.026536696;-0.15194665;-0.13829607;0.012857975;0.18375674;0.10743033;-0.0075676925;0.14520054;-0.037105024;-0.110165134;-0.13810962;0.117832795;-0.056097127;-0.045673687;0.006669885;0.12938438;0.15891472;0.04077298;0.040955286;-0.028726747;0.02183885;0.070443675;-0.017582187;-0.012554858;0.10331191;-0.07015326;-0.13965425;-0.01459362;0.15740965;-0.05210259;0.087717056;-0.040140837;0.17888863;0.05475064;-0.07130087;0.3440141;0.0074710115;-0.18066888;0.23742823;0.021289466;0.13119319;-0.029340751;-0.07003983;0.008858905;0.085522234;-0.41635808;0.06366042;0.095798396;-0.0832233;0.017457856;0.07225091;-0.07051074;-0.066047974;0.009797303;-0.17575331;-0.20235395;-0.060361654;-0.12424601;0.01809854;0.12233342;0.057943076;0.06688958;0.055819675;0.12755206;0.04302227;0.0072572813;0.25942567;-0.010758962;0.05458909;-0.017718406;0.05281772;0.045622103;-0.039964624;0.0048060683;0.038097557;-0.009716031;0.06183223;0.2774454;0.03159576;0.16305833;-0.007915967;0.064921446;0.026570158;-0.11213882;-0.1390875;-0.1644141;-0.045691274;-0.13644086;0.1212555;-0.009250408;0.056380466;-0.120477706;0.003781486;0.1335831;0.26932287;0.007944806;-0.03098923;-0.042764235;0.24278703;0.022464084;0.066037826;0.13700803;-0.027761968;0.05503983;-0.09856705;0.02566257;-0.0065849405;-0.008721763;-0.10242499;-0.02166504;-0.42735973;-0.044814963;0.30989942;0.00081751257;-0.29526615;0.040763244;-0.1957319;-0.0093604885;0.010708908;-0.06264661;0.07147907;-0.03785654;-0.04330637;0.03622384;0.04836758;-0.03896201;0.22345518;0.1604341;0.1501023;0.056205858;0.024395976;-0.1899241;-0.093144506;-0.184717;0.16644765;0.069025315;0.0574707;-0.13543528;-0.021152765;0.068638586;-0.27734652;-0.048943356;-0.0394427;0.052830957;-0.041806728;-0.35957673;-0.18264395;-0.018925464;-0.19662476;0.31602558;-0.06228426;0.014638916;-0.0032739583;0.017746855;-0.48359615;0.056095026;-0.057671167;0.029492358;-0.09923999;-0.21099429;-0.08499179;-0.06296308;0.0014825723;-0.104784146;0.10430442;-0.09765698;0.15896308;-0.09822183;0.043682106;0.08499351;0.030666497;-0.0011755223;-0.0156948;0.028136859;-0.055331945;0.005183106;-0.25703704;0.13984324;0.0024745448;0.072120294;0.29014057;-0.0058721667;-0.28843656;0.4544213;-0.019576877;0.24574105;0.013209084;-0.1847618;0.47710574;-0.09109851;0.08758571;0.03566447;-0.13552141;0.029066745;0.017109506;-0.027636675;-0.3394779;-0.012227046;-0.084447876;-0.029054802;-0.5586587;0.006784634;0.15832146;-0.0105783;0.16455124;0.015818803;0.06660856;-0.05936272;0.0047488506;0.049224682;-0.16085723;-0.11150343;0.0025250711;-0.18492715;-0.011123773;-0.050433166;-0.1763708;-0.036200482;-0.02129549;-0.022635864;0.05277447;-0.07127876;-0.024522297;0.004612494;-0.14227071;0.023389205;0.13644776;0.028283011;-0.20143451;0.06064786;-0.55929714;-0.09539605;0.14046139;-0.07390267;-0.026502086;-0.042105976;-0.106325015;0.053038433;-0.05268413;-0.21267277;0.018079802;0.052516207;-0.069728956;0.0017926289;0.022726474;0.0063495194;0.108934745;0.042756364;-0.061374806;0.25472656;-0.055653933;0.013818141;-0.030719936;-0.1258599;0.029559735;0.0061189705;0.11398523;-0.05725879;0.011537082;0.31010044;-0.032719087;0.030394584;-0.03203843;0.14683017;-0.12505119;-0.18642882;0.023227917;-0.005809428;-0.34235677;0.11986361;-0.20989022;0.3036691
0.08968232;-0.12553054;0.027928226;-0.42641267;0.18078126;-0.0372853;-0.014382274;-0.06312538;-0.012781406;-0.044973105;-0.050303306;0.20276229;0.08354487;0.040304527;-0.038930006;0.23082346;0.053750586;-0.028797498;0.0039115665;-0.1901615;-0.24011311;-0.23808624;0.047346078;-0.031670623;-0.002981643;-0.15066251;0.30714712;-0.19862081;0.07842875;-0.017978441;0.0032643033;0.15229069;-0.19616418;0.063790634;0.053319454;-0.08458972;-0.14652745;-0.10548739;-0.077924706;0.031203631;-0.19764136;0.008646897;0.06642299;-0.12882897;0.08455301;0.31614172;0.03329654;-0.009614627;-0.0102076745;-0.05524262;0.35257795;-0.009799285;0.13585822;0.21816649;0.062160444;0.06507609;-0.0033378224;-0.0097747315;-0.41743892;-0.23595394;0.012657839;0.15696388;0.02678696;0.0023243632;-0.14955261;-0.10019941;0.012908795;-0.18962851;0.008093511;-0.034188014;0.050718296;-0.18066235;0.1836911;-0.2591312;-0.23327059;-0.09166985;-0.11991584;-0.11440341;0.03338591;-0.03168426;0.023677249;-0.006518483;0.2630152;-0.011208576;-0.001243663;0.124343075;-0.118769005;-0.0075759697;0.063710526;0.14550886;-0.15130879;0.20181216;0.037992924;0.019714827;-0.053423367;0.13533993;0.025836965;0.04573324;-0.14877301;0.26893586;0.061819028;0.014796961;0.014762749;-0.096740216;0.035062745;-0.016564352;-0.11589206;-0.030526567;0.017928412;0.015792247;-0.125021;-0.2484602;-0.14012696;-0.12924203;-0.0056260927;-0.13448115;0.19580837;0.15028271;0.1974656;0.14578877;-0.085237734;0.031280976;0.095625274;0.029134283;-0.20775734;0.12350796;0.05265652;-0.09281595;-0.107754126;0.012686659;-0.14918703;-0.120711;0.053315785;0.022601012;-0.034202732;0.18366502;-0.37536508;-0.4322735;0.00945317;0.06689502;-0.09312772;0.0018955413;0.21254914;-0.11386505;0.06751909;0.005287117;0.009538942;0.15902442;-0.0003394921;0.052792545;-0.059595782;-0.036870614;0.03683525;0.047776062;-0.44198534;0.061940774;-0.0076808115;-0.16534795;-0.10770525;-0.04343823;0.054764237;-0.23146762;-0.12166534;-0.04274196;0.011921455;-0.041293513;-0.08536725;0.11369177;0.2066249;0.00648142;-0.017208882;-0.081225835;0.011270984;-0.052473266;-0.031204108;0.01002934;-0.035319753;0.11252342;0.15033329;-0.31814435;-0.22131711;0.16658834;-0.1027134;-0.22744484;-0.043785643;0.16044967;-0.03174436;-0.031206716;-0.19976187;0.118706286;-0.23843484;-0.326676;-0.11221905;0.032322653;0.040606067;0.11589048;-0.025742784;0.0072140256;0.09492307;-0.34193042;-0.04077967;0.055388205;-0.0118736895;-0.01938361;-0.09768036;0.14642313;-0.34617966;0.049850497;0.09525833;0.008105015;-0.002041441;0.0129914265;0.009525415;-0.03275854;-0.02418901;-0.088615194;0.019363705;-0.3475873;0.10427552;0.03748572;-0.13660085;0.05176737;0.068054505;0.16338064;-0.026730582;0.048102234;0.24864917;0.07002244;0.036305293;-0.093508154;-0.12254615;-0.0072731534;0.05452696;-0.00077566854;-0.076342516;-0.16956893;-0.17915595;0.20117545;0.0832622;0.2861246;0.12933448;0.04973059;0.07776789;0.4104612;0.07085824;0.09740334;0.3957194;-0.011111266;0.34893847;0.033640422;-0.2121986;0.00065016246;-0.08154584;0.10929148;-0.05277525;0.16847177;-0.091022514;-0.029387048;-0.0029756257;0.2723678;0.02940119;-0.17827713;-0.42032722;0.25868475;0.016098006;-0.20754775;0.01801355;-0.014824261;0.13648888;-0.057182062;0.059092607;0.2522203;-0.17369376;0.23584278;0.009196303;0.053643517;0.15277109;0.019486925;0.1911781;-0.022840904;-0.19248953;-0.05009859;-0.24235512;-0.24439356;0.009501241;-0.0353527;0.07087843;-0.06723403;-0.016241979;0.01784127;0.15659378;0.061216496;-0.23444752;-0.101125956;-0.033534378;0.19441344;0.25837043;-0.20274636;-0.32224607;0.020405035;0.024598535;-0.06042165;0.0046057645;0.0147935385;-0.14868134;0.02122027;-0.03378038;0.039306555;0.20950523;0.23947002;-0.00054055714;0.16524714;-0.0042877286;-0.10917033;-0.20676453;0.0087764915;-0.018882658;-0.025751147;0.018180888;-0.098717496;0.32433647;-0.079108395;0.03305862;0.011144924;0.032419812;-0.09435074;0.013832931;-0.06292248;0.2481167;0.10960376;-0.11841285;-0.027022822;0.0936564;0.007834439;0.09099983;0.03571689;0.07618896;0.033217672;-0.03890372;0.2548351;0.052118845;-0.27199692;0.34925953;-0.037401892;0.09094595;0.02678032;0.024149645;0.03404934;0.12223035;-0.37761778;0.10282138;0.1261505;0.066131085;-0.21979386;0.13893951;0.022142928;-0.087916434;0.04121813;-0.14512034;-0.40358812;-0.13820463;0.0102896495;-0.012715446;0.10911638;0.032866113;0.2146285;-0.040772256;0.1409989;-0.13280699;-0.12087977;0.20367001;-0.12059681;0.032669686;0.03050951;0.022622228;-0.062162746;0.030464215;-0.019990483;-0.011875446;0.019942336;0.069662884;0.13542055;-0.017626712;0.16878545;-0.045632094;-0.031763352;0.064548805;-0.10152621;-0.124680705;-0.1484181;-0.23658767;-0.16097762;0.054472484;0.058367167;0.16796234;-0.08661102;0.0014747583;0.2212731;0.16724247;0.008005555;-0.26878774;-0.017671745;0.20478545;-0.02833816;0.14233446;0.06764611;-0.07860432;-0.05631764;0.081579655;0.04468087;0.025774332;-0.022710055;-0.19090594;0.076242216;-0.41576445;0.13089696;0.18354514;-0.050645128;-0.29216826;-0.052298434;-0.26626295;-0.020774629;-0.12829156;-0.058828425;0.03872255;0.018699057;0.02342457;-0.18272115;0.19247049;0.026770353;0.01672182;0.061735135;0.1087677;-0.037894346;-0.04104274;-0.029660616;-0.17834942;-0.23387985;0.1893187;-0.0004994733;-0.0672405;0.015685687;0.07908881;0.05630353;0.0198299;-0.09158794;0.04318543;0.023495309;0.039283786;-0.14569503;-0.15364885;-0.059180323;-0.09775024;0.30170962;0.036394794;0.09562632;0.052309863;0.07718498;-0.36934292;-0.040058456;0.059598662;0.046991013;0.0557799;-0.21900223;-0.12040358;-0.08003996;0.011604492;-0.11932707;0.02024792;0.121565536;0.24264114;0.055379897;-0.064284466;0.1652795;0.082612686;-0.0437301;0.05622458;-0.23660538;-0.01468537;-0.012663155;-0.28361744;0.21252783;-0.013323428;0.16048516;0.26049426;0.078183055;-0.27679196;0.33240134;0.054593615;0.39427164;-0.06795006;-0.094763085;0.25335842;0.051063083;0.037277598;-0.024180792;0.027348397;0.0073968414;0.18359657;0.028305609;-0.2565563;0.0499069;0.0068158424;-0.014079992;-0.5284071;-0.032839604;0.083329394;0.008254007;0.03460942;-0.042374622;0.02438777;0.018125987;0.015628377;0.08404701;-0.09389694;-0.1542879;-0.053988706;-0.19209906;-0.026108373;0.09381586;-0.11704313;0.050383307;0.0019124128;0.1189777;-0.042785652;-0.22639528;-0.034447413;0.056270305;-0.117131464;-0.020454474;0.13547267;-0.0023065612;-0.29818287;-0.048185118;-0.62704176;-0.004040613;0.13536559;-0.032584183;-0.016541699;-0.062459435;0.014181495;-0.10834481;5.8034442e-05;-0.26780364;-0.0055887145;-0.020984137;-0.10949999;-0.028933752;-0.06609536;0.048581854;0.047224876;-0.055725932;0.064162605;0.2876414;0.03458139;0.16059366;-0.21641487;0.06447155;0.00010066673;-0.04592964;-0.16233668;-0.20361322;-0.061436653;0.312586;-0.04326608;-0.06957091;0.026105182;0.23967771;-0.060271267;-0.101373754;0.023393244;0.021006241;-0.44508526;0.05991821;-0.043239105;0.2631664
0.13041785;-0.13097861;0.018902825;-0.2633478;0.22613928;-0.048842993;0.17458922;0.071424074;-0.24932733;0.025083445;0.016803863;0.12995294;-0.055059142;0.007887976;-0.025942883;0.22390659;-0.0010570238;0.10879153;-0.041425195;-0.13849092;-0.4659161;-0.2170688;0.005303554;-0.041801848;0.124226265;-0.27766988;0.19354573;0.018582009;-0.06195644;-0.05855031;-0.10934367;0.068839446;-0.050630465;-0.049899895;0.055856977;-0.07166108;-0.1434571;-0.2056206;-0.011857068;-0.020581406;-0.22132678;0.043295693;0.030728595;-0.19023195;0.1663188;0.23095514;-0.05462078;0.06232284;-0.049071588;-0.0019790074;0.2853596;-0.011743028;-0.030288946;0.0979217;-0.030127583;-0.047589757;0.00025521003;0.007254204;-0.39538413;-0.12611562;-0.041426007;0.020759197;-0.030299917;-0.09971813;-0.07325657;-0.30779946;-0.030637914;-0.09188208;-0.016740698;0.118090175;-0.09047609;-0.06731522;0.102285646;-0.29236573;-0.11448149;0.03460181;-0.14402296;-0.061806463;0.042032193;0.02611747;0.03116655;0.0018605668;0.2326765;-0.04328143;-0.056816895;0.14622465;-0.023385271;-0.06508244;-0.0053382656;0.18773924;-0.16931312;0.2606527;-0.021008728;-0.057060692;0.049052667;0.19226363;0.031357344;0.016930815;-0.194188;0.15771627;0.12825668;0.041743685;-0.0068894583;-0.14328268;0.05610602;-0.027445108;-0.041631985;-0.030981522;-0.028285163;-0.032575652;-0.20305039;-0.14138108;-0.12865429;-0.097620815;0.0015274679;-0.08439835;0.16378643;0.18713656;0.19478711;0.13884655;-0.1415858;0.046988007;0.12369148;0.18245709;-0.18540111;0.0876372;0.18861333;-0.10042207;-0.28430644;-0.021827137;-0.104670696;0.012395875;-0.07064131;-0.121695854;0.053773932;0.06117555;-0.32461053;-0.4142154;-0.05301287;0.038268577;-0.17590933;0.014078521;0.14427282;0.03326344;0.04026376;0.02557686;-0.0002028717;0.06956686;-0.053313233;-0.09044896;-0.09208704;-0.049967464;0.05342201;-0.052507117;-0.41262567;-0.06863832;-0.030697202;-0.11509088;0.05834609;-0.017417112;-0.004858461;-0.22372483;-0.09817332;-0.12358288;0.13942325;0.00760828;0.0023290478;0.13615605;0.28922337;-0.030425167;0.03709252;0.046959925;0.04407235;-0.02401831;-0.0060277255;0.033711776;-0.059120722;-0.025945952;0.18637793;-0.16587745;-0.16607308;-0.00509928;0.07281195;-0.22197405;-0.030342955;0.04607847;-0.0085033355;0.1239524;-0.22530127;-0.0069398787;-0.24837284;-0.31039077;-0.11987104;-0.08054039;0.08013624;0.16034572;-0.039121076;0.022448026;0.18246141;-0.2620405;-0.058100924;-0.025897248;0.0362637;-0.009557788;-0.36375934;0.102850266;-0.22347073;0.17946441;0.05611917;-0.0024468028;-0.003241497;-0.019764176;-0.03770647;0.009239494;-0.14708513;-0.008886111;0.1326321;-0.23849754;0.06940227;0.08007338;-0.14793415;-0.061959535;0.13642344;0.06548313;0.069495045;0.013286922;0.055047754;-0.00076232967;0.026851015;-0.049358536;-0.01396037;-0.106851704;-0.048454937;0.00861178;-0.051344812;-0.34658012;-0.26054573;0.070908554;-0.043869786;0.059833888;0.103162065;-0.027699461;0.041317176;0.18311575;0.036428135;-0.01975992;0.3451256;0.055709526;0.40060046;0.039859492;-0.09671109;0.07034273;-0.2628244;0.016706793;0.005357101;0.04294378;-0.05936459;0.08283292;0.06392403;0.17422448;-0.07115166;-0.27334297;-0.41240054;0.2530814;0.008378448;-0.079936214;0.021495404;0.054012414;0.22882599;0.04006151;-0.006506642;0.20400055;-0.17213748;0.1674743;-0.0646841;0.16274162;0.1309355;-0.016767813;0.22381023;0.052896556;-0.18950725;-0.12523773;-0.11751544;-0.08441374;-0.0018899661;-0.0038666204;-0.055001236;-0.15743731;0.15558381;0.04903934;0.08275621;0.11470688;-0.30285802;-0.012411145;0.024225777;0.23827676;0.28736362;-0.2171562;-0.35708234;-0.17486033;0.042259686;0.061067924;-0.0027591002;0.004385124;0.03724693;-0.055196516;-0.10813734;0.04815726;0.20698604;0.17716236;-0.06584926;0.16471787;0.066602856;0.052583646;-0.05736126;0.08651111;-0.056596536;0.004945462;-0.0003541232;-0.16034426;0.29922757;0.053874332;0.052652035;0.10730281;-0.042164873;0.03892535;0.0055557285;-0.113819845;0.1772352;-0.04059003;-0.19378895;-0.03230404;0.13877216;-0.045556486;0.09101252;-0.027672607;0.06980735;0.058711536;-0.104966685;0.24877413;-0.027077446;-0.3320748;0.31239367;-0.12008659;0.06076605;0.065480195;0.049088545;-0.02615414;0.1828236;-0.40726635;-0.045256004;0.111562744;0.008401966;-0.23905581;-0.033248093;0.0023256529;0.08313433;-0.014201776;-0.05564398;-0.38182375;-0.026681626;-0.048650295;0.0023852014;0.2625172;0.02980679;0.13373795;0.045708083;-0.07606221;-0.08147826;0.0510929;0.230996;-0.10804829;-0.027210433;-0.061996866;-0.07879765;0.0619055;0.054058474;-0.004799598;0.039712075;0.045701478;-0.08186064;0.16510803;-0.0010590745;0.09767394;0.07865625;0.0071602366;-0.021695664;-0.086397074;-0.22432785;0.05463465;-0.046902854;-0.06784029;0.012616734;-0.051839344;0.19025028;-0.2436965;0.01967371;0.27072325;0.24383396;0.10581937;-0.19547783;-0.018178606;0.16320664;0.0054155;0.15298334;-0.010815502;0.08394502;-0.10488155;-0.10680907;-0.04974013;0.023321455;0.033676986;-0.0672124;-0.042651616;-0.44386703;-0.038155276;0.18373692;0.020107688;-0.31753528;-0.009158554;-0.0938668;-0.057353165;-0.13079216;0.07402473;0.05846773;-0.008449425;-0.031853974;-0.29189318;0.17530698;0.155475;0.083425336;0.20069483;-0.056844447;-0.02396357;0.021566391;0.025851568;-0.21286273;-0.12834945;0.058727942;0.000924767;0.030775828;0.009713915;-0.027508467;0.12860286;0.069193944;-0.012600109;-0.04996909;-0.12262534;0.033644706;-0.26546958;-0.043418117;0.07777061;-0.010035137;0.21431871;-0.02899591;0.1010356;-0.039347406;0.0052537685;-0.45561907;0.07198718;-0.0020756135;-0.061236713;0.121588916;-0.2089389;-0.05414035;-0.052644644;-0.02624873;-0.08964965;0.107873;0.022286143;0.16792327;-0.09125222;0.0031142824;0.31554744;-0.013204507;0.05099274;0.043696318;-0.06958779;-0.028031956;0.00030517793;-0.27565572;0.14811316;-0.18966573;-0.13464297;0.16591494;-0.029974315;-0.37074822;0.33618948;-0.074309304;0.20226263;0.0044960235;0.020085905;0.33160767;0.10064696;0.18718305;0.031354535;-0.18057925;-0.03593561;0.14711286;-0.008799822;-0.072716326;-0.033041496;0.017364662;0.030044356;-0.444313;0.071535185;0.10242483;-0.028722227;0.23844576;-0.07112475;0.16363934;0.0040498474;-0.07619005;0.12054848;-0.16570921;-0.19497333;0.005855883;-0.3310585;0.02156596;-0.03378096;0.041637227;-0.048911966;0.03407909;-0.16409634;0.008586703;-0.10936638;0.018334046;-0.03044879;-0.11547648;-0.015492583;0.20617346;-0.011857913;-0.33304688;0.039676048;-0.45675752;0.050914258;0.002856475;0.10109742;0.036271065;0.069862984;0.009204777;-0.057468444;0.0037511392;-0.31933525;-0.050169017;-0.03395678;0.023612967;0.019814817;-0.1355604;-0.0396554;-0.08473435;0.017966004;0.016338436;0.13847804;-0.02602576;0.13060695;-0.18151413;-0.05047178;0.01800351;-0.052712664;-0.09673118;-0.105894275;-0.10879503;0.19962576;0.025604261;-0.0044205277;-0.03314407;0.28516474;-0.15518065;-0.14245616;0.120182544;-0.057365857;-0.3192753;0.034151837;0.0815144;0.25525504
0.10688179;-0.05704305;0.010896413;-0.111132406;0.006233001;0.085404575;0.24250834;0.061144885;-0.22857603;0.014026878;0.024007443;0.26377368;0.025161207;0.0053057754;-0.08397882;0.21638419;-0.0970851;-0.036826268;0.029062549;-0.052113697;-0.59420586;-0.1923441;-0.041603934;0.030739168;0.24561042;-0.071013495;0.1484246;0.06238964;-0.005761317;0.0363022;-0.04554499;-0.052624688;0.012082665;-0.038059857;-0.056318413;-0.00030695437;-0.18080185;-0.12747963;-0.2445193;-0.1984822;-0.20071328;-0.04976287;0.10030225;-0.053337246;0.035691634;0.09459551;0.03125629;0.023837375;-0.018086407;-0.053269286;0.4626755;0.026893433;-0.08548971;0.22741346;-0.016560128;-0.0075612655;0.076085314;-0.023115208;-0.22405574;-0.07971803;-0.03938973;0.05296124;-0.031240886;-0.033337288;0.045270618;-0.31327605;0.07041593;-0.05857641;0.053141117;0.08451173;-0.2078417;-0.2032563;0.03337549;-0.30998698;-0.11140861;0.24415435;-0.22891556;-0.0028727816;-0.009112909;-0.042974178;-0.037178468;-0.049803246;0.16930267;-0.13069764;-0.0098078735;0.2026142;-0.16506644;0.059272446;-0.018635644;0.10530066;-0.21211569;0.30641925;-0.05415853;0.03520646;-0.0543131;0.15234852;0.00024257261;0.06187903;-0.22750233;0.20949566;0.105322964;0.048304927;0.050590504;-0.08636232;0.17366953;0.049699094;-0.048736677;0.013854625;0.0117047215;-0.05487444;-0.34366372;-0.2954413;-0.14550933;-0.12870793;-0.029626975;-0.12343434;0.049569644;0.050985187;0.17820238;0.30687684;-0.15645939;-0.026312826;0.041176688;0.04557752;-0.15897368;0.07141838;0.29127082;-0.18359922;-0.23510598;0.07154612;-0.22143686;0.06263452;0.06275926;-0.21608151;0.018547114;0.11630699;-0.13458616;-0.28668463;0.10767673;0.042009026;-0.25084582;-0.028612481;0.1506611;-0.004940967;-0.04594619;0.030334573;0.028704794;0.103354186;0.022039603;0.042699482;-0.17487709;0.07163607;0.0065322765;-0.04719256;-0.423881;-0.043650866;0.04947311;-0.17725858;0.047122642;-0.101780474;-0.05485034;-0.11270159;-0.12589163;-0.07689179;0.101391815;0.031244501;0.04424007;0.045082215;0.128104;-0.003442609;0.0022857923;-0.061306994;-0.01684019;-0.044735003;-0.0292125;-0.05446166;-0.0033830188;-0.0030056213;0.0002895964;-0.3023517;-0.10642492;0.1136992;-0.043511003;-0.15507689;0.03286389;0.19615707;0.013867827;0.16497813;-0.26878366;-0.15701774;-0.22525309;-0.29833624;-0.16707851;0.005427104;0.14813419;0.17040388;0.07773564;0.018957714;0.07571124;-0.2661635;0.037285;0.016327096;0.03026868;-0.018193996;-0.29207438;0.2480891;-0.26780838;-0.020576475;0.14996924;0.046683315;-0.057943873;0.036441054;0.0022702557;-0.016219676;-0.09465625;0.0658261;0.070188895;-0.25294307;-0.028957406;-0.022128271;-0.13664705;0.03576971;0.2147078;0.15766732;-0.01622124;-0.08187029;0.15526515;-0.075443394;-0.08377405;-0.095656686;0.03518015;-0.030478368;0.026762038;-0.016125241;-0.0005430275;-0.42751864;-0.093096115;-0.07641027;-0.007908349;0.034717552;0.1994406;0.14651716;0.0904144;0.060444724;-0.04738441;-0.010576524;0.20583789;-0.084659725;0.28644165;-0.011177967;-0.2550972;-0.045263063;-0.20515953;0.13774714;0.003406485;0.011338602;0.05357358;-0.04537468;0.0073994608;0.12545665;0.060302738;-0.36148298;-0.32483357;0.27603582;-0.05612304;0.088987574;-0.071273856;0.030551437;0.25312033;0.010475669;-0.047109697;0.20680287;-0.15954356;0.14484632;0.08005442;0.017067315;0.121429436;-0.029793303;0.13268752;0.0120475;-0.14116016;-0.11657105;-0.032275658;-0.07744249;-0.022872785;0.0020936197;-0.053549733;-0.12658124;0.19590616;-0.04061585;0.128076;0.15462035;-0.18251225;-0.002420118;0.045694113;0.17498046;0.17821531;-0.10463022;-0.20176405;-0.23082137;-0.015237782;0.030224033;-0.0018797105;0.02517994;0.11490803;0.07801332;0.013767666;-0.06492462;0.14250223;0.22164492;0.0897398;0.24525958;0.019392746;-0.016968023;-0.17671879;0.033406712;0.013105129;0.09843602;-0.005890501;-0.16455798;0.46653962;-0.008134796;0.08592846;0.07509267;0.016972385;0.052070506;0.00096539676;0.01799035;0.011307301;-0.10080188;-0.055933475;-0.036112797;0.24756622;-0.1256589;0.14254765;0.0691962;0.19230403;0.044852972;-0.11299207;0.15082611;-0.050748367;-0.4094602;0.41162497;0.01889355;0.06867465;-0.058643747;-0.013286199;-0.004431988;-0.016278937;-0.34111646;0.017076835;0.14484309;0.09287418;-0.37008;-0.122572795;-0.033244994;0.0970518;0.010871255;-0.12891406;-0.36415315;-0.08854466;0.046876904;-0.0282861;0.31844792;0.059512496;0.12607312;-0.06049701;-0.016261695;-0.07742721;-0.032375406;0.12144167;-0.03880255;-0.01533151;0.034723226;0.047734264;-0.003003324;-0.010338466;-0.039771292;-0.022466516;0.013119097;-0.052344892;0.13008139;-0.0133470325;0.114803895;-0.048551574;0.021306822;-0.00789044;-0.06809793;-0.25147822;-0.0376373;-0.002286235;-0.06271342;0.13331659;-0.0087488955;0.08682147;-0.19979745;0.042738743;0.16305526;0.07302631;0.16081955;0.029122794;0.055582095;0.082867496;-0.031729277;0.18823172;0.06277607;0.1098967;0.035834473;-0.19702847;-0.010246831;-0.019264374;-0.012445234;-0.15387918;-0.05753784;-0.357192;-0.14556806;0.21563771;0.004501081;-0.37135044;-0.051677402;-0.1218817;-0.1467385;-0.07540436;0.061115198;-0.026163084;0.011667828;0.0057544513;-0.23788697;0.03767284;0.024263764;0.16705787;0.23857483;-0.11697485;0.06455366;-0.006635952;-0.09295128;-0.14085542;-0.120435864;0.13637304;-0.010935256;0.018755617;-0.004077888;-0.05005482;0.117972754;0.23376507;0.0041559804;0.05353732;-0.059006486;-0.030816805;-0.29285908;-0.11938568;0.0100260945;-0.073324;0.082962155;0.0071806363;0.1174758;0.003495486;0.11086806;-0.4078724;-0.03120654;-0.033035297;-0.020483296;0.08240311;-0.07972683;-0.051849496;-0.1868591;-0.016733304;-0.028716814;0.022292478;0.07208759;0.15122709;-0.101561666;0.06603282;0.23004101;0.11033564;-0.00253422;-0.015245989;-0.023999706;-0.07733156;0.024399348;-0.23205355;0.029865433;-0.20067383;0.075689405;0.032776754;-0.04539704;-0.28442064;0.15650593;0.028930638;0.26908922;-0.031039177;0.01960152;0.29374138;0.045910433;0.16671687;-0.04302499;-0.18081307;0.012521892;0.3599067;0.010575486;-0.037676077;-0.026258249;0.019741667;0.014290659;-0.5256129;-0.08019842;0.1444505;-0.011049752;0.32680202;-0.05787478;0.14914797;-0.029543655;-0.010332802;0.002234056;-0.17337906;-0.19835277;-0.043355938;-0.2824303;0.020775808;-0.034228116;0.13309291;-0.0051734485;-0.018482814;-0.06362193;-0.049027123;-0.051978126;0.030594738;0.0057222703;0.063226216;-0.015132801;0.123413354;-0.0786294;-0.19983408;-0.06213725;-0.39166546;-0.05911848;-0.03400331;0.18611018;-0.014736348;0.050515108;-0.0027642886;-0.11824663;0.05252978;-0.19698721;0.04049736;0.010807009;-0.08927752;0.037944756;-0.19834656;0.015524236;-0.078201994;-0.028680129;-0.029767245;0.15890294;0.064086;0.065552674;-0.22808126;0.03123067;0.0022887462;0.044101562;-0.0960739;-0.33534938;-0.1815827;0.22014327;-0.0172972;-0.038274847;0.04143024;0.1495869;-0.25725222;0.0009842628;-0.07782231;0.030502189;-0.3560767;-0.060964175;0.1232278;0.11631039
0.009444673;0.020759476;0.17978598;-0.22867133;0.018134914;-0.0078339325;0.14609231;-0.028948342;-0.24508256;-0.015358045;0.044567883;0.14210136;-0.07674509;-0.097420886;-0.017292298;0.12485892;0.04374741;-0.28286272;-0.019765817;-0.018523257;-0.56064934;-0.16489772;0.09607917;-0.027087923;0.19098331;-0.192938;0.000976159;0.18226574;0.012416118;0.022590999;0.013210149;-0.2468985;0.14527293;0.058761805;-0.03914911;0.038573448;-0.051921573;-0.0100474665;-0.17782517;-0.12619814;-0.12317689;-0.032347903;0.09404493;0.022089228;-0.01847506;0.019121954;-0.023318706;0.024256637;0.051821247;-0.13289122;0.44174042;0.01123467;-0.06773635;0.18692982;-0.011442532;0.0393649;0.16880164;-0.013564381;-0.18336327;-0.0059656934;0.05427703;-0.070519894;0.011253084;-0.1392082;0.0057964246;-0.29489905;-0.012268069;-0.12597479;-0.04991971;0.038973752;-0.15339111;-0.04778406;-0.05533509;-0.4042936;-0.050548457;0.30793074;-0.21450754;-0.13591468;0.018816419;-0.022410361;-0.043253228;0.022877617;0.16784433;-0.015936816;0.019391926;0.040781602;-0.13751826;0.04701959;0.035573877;-0.06377332;-0.18285286;0.14473122;0.042215675;-0.018101398;0.047544822;0.10116096;-0.037717942;0.013469471;-0.28506586;0.11441123;0.22185507;-0.04897865;-0.05642741;-0.1140613;0.022367889;-0.05711252;0.014982753;0.064843915;0.033939283;0.08284893;-0.32806283;-0.21860617;0.046107527;-0.084942974;0.009254237;-0.08148398;-0.04842085;0.04833958;0.14077793;0.16733572;-0.24935235;-0.013793292;0.034205794;0.15089053;-0.16851711;0.002567232;0.19272766;-0.056622565;-0.38900068;-0.02347424;-0.1296727;0.11689765;-0.048147704;-0.25413007;-0.06711665;0.1661495;-0.27454188;-0.22786717;0.033188332;0.0031969883;-0.18340412;0.0036167554;0.0744779;-0.04629881;0.10602389;-0.028967157;-0.06969431;0.078197055;0.0020855926;0.15198897;-0.3133139;0.2599661;-0.014039525;0.064474806;-0.33299464;-0.22796981;0.015287473;0.06561373;-0.08437761;-0.17122832;-0.12708801;0.05368569;-0.00469239;-0.097686544;0.14028978;0.026522746;0.004239437;0.022021992;0.08672164;0.032649685;-0.0011896475;-0.060557526;-0.0618465;0.054639746;0.047506105;-0.07991371;-0.09471082;0.02048835;-0.069240585;-0.34008095;-0.24385807;0.1835924;0.114129424;-0.22004157;0.019962275;0.042238913;0.04230243;0.19732207;-0.22221625;-0.14488548;-0.11342938;-0.28756705;-0.23344867;0.073635936;0.11898713;0.16471925;-0.035810173;0.020077273;0.023592208;-0.0573996;-0.1140727;-0.051119838;-0.033461694;-0.027630689;-0.2234496;0.34296718;-0.31480938;-0.077883504;0.102036275;-0.030628245;0.08451751;-0.0319996;-0.021361478;0.002373229;-0.09363961;0.08468838;0.08437841;-0.31348395;0.17027228;0.099854246;-0.13601868;-0.11454652;0.25514618;0.14531995;-0.033704393;-0.20193549;0.13295375;0.010199159;-0.013366031;-0.10143631;0.096085794;-0.12540051;0.0017316899;-0.067618944;0.018076517;-0.26741132;-0.08577449;-0.054792147;0.043734714;0.019153798;0.15266313;0.17664622;0.071407236;0.073385686;-0.067354895;-0.040877525;0.22836103;-0.02490009;0.3207954;0.008297814;-0.09934748;0.0041121384;-0.22198963;0.16110124;0.018501936;0.16354962;0.036332212;0.008077791;-0.081593946;0.118056886;-0.06415325;-0.13314067;-0.3929628;0.16939372;0.015075037;0.061347853;0.06732134;0.032317385;0.29883313;-0.028296404;-0.004131255;0.071112774;-0.12500359;0.107384;-0.016898666;-0.056603443;0.078616016;0.010977677;0.14170268;-0.03124473;0.048071917;-0.15552993;-0.018317165;-0.016492346;-0.0061739073;-0.066396445;-0.006089256;0.013854251;0.15996492;-0.061718207;0.09977655;0.08094794;-0.0779073;-0.1402735;-0.022070939;0.09229794;0.18354307;-0.16782132;-0.18274085;-0.34040612;0.034339473;-0.06638964;-0.030185942;0.012870349;0.091120966;-0.067570776;0.00012501344;-0.02697396;0.15294787;0.10961563;-0.0062780497;0.25528297;-0.038920794;-0.056228098;-0.039554134;0.0040873713;-0.08935682;-0.037494738;-1.7067105e-05;-0.103826724;0.44543123;-0.036992796;-0.045885526;0.06592021;-0.05456757;0.0968258;0.026813652;0.025305815;-0.0033864845;0.025912212;0.0070013343;0.027293988;0.26830974;-0.07437726;0.09634898;-0.023006111;0.04829925;0.029081661;-0.11191042;0.22428186;-0.021431826;-0.28099605;0.3862412;-0.1123803;0.040697817;-0.00463148;0.056189746;-0.035961088;-0.019571327;-0.39108744;-0.052272554;0.012964597;-0.08191219;-0.30847916;-0.075090066;0.028807802;0.09496993;-0.022951493;-0.06744212;-0.3382161;-0.06766792;-0.0121271005;-0.026425853;0.32351637;-0.073144875;0.19965424;0.012346523;-0.17239703;-0.021251215;0.17891258;0.16828112;-0.048225407;-0.001280158;-0.023433222;0.015533539;-0.023062777;0.054263465;0.07356334;-0.0083559435;-0.05441323;0.031960856;0.22888307;-0.002068983;0.13487588;-0.046238914;-0.03190837;0.058896888;-0.05849516;-0.07999054;-0.043140206;-0.0042339745;-0.0002839216;0.10403453;0.04485659;0.23435798;-0.16269486;-0.072464086;0.16008139;0.05394281;-0.028431738;0.07089814;0.012415224;-0.12798408;0.020323614;0.0922525;0.079275124;-0.09883312;-0.046018813;-0.05322336;-0.002757068;-0.062013865;-0.042838484;-0.14043298;0.053193435;-0.35088328;-0.098668665;0.09406784;0.03263842;-0.28975406;0.07079677;-0.089197;0.010915588;0.020592159;0.12185791;-0.025517322;0.00020073279;-0.0060480624;-0.16863203;0.20858692;0.068898365;0.2332774;0.17833775;-0.16534413;-0.031538136;0.010439071;0.042576306;-0.107695535;-0.03699372;0.1194736;0.016484547;-0.032197677;0.03392822;0.07039585;0.03194901;0.23591372;0.106655374;-0.008031541;-0.059896987;-0.012034045;-0.23462802;-0.23367506;-0.025229072;-0.14818257;-0.02643212;0.011254299;0.17183478;-0.05106411;0.14446187;-0.20755698;-0.015585833;0.032003153;0.014489136;0.040881786;-0.12969446;-0.17313358;-0.19625288;0.02812501;-0.14354016;0.12532277;-0.04833087;0.22601788;-0.1380578;-0.043207183;0.24319436;0.020630568;-0.015076885;-0.044523764;0.004517115;-0.101145275;0.04491872;-0.1281063;0.06888252;-0.06712563;0.044640478;-0.1518807;0.022191292;-0.3168953;0.27373636;0.032175418;0.23162001;0.012732958;0.03355428;0.2144743;0.02597259;0.06495854;-0.0009866403;-0.1132614;-0.056243088;0.48704162;0.0013982339;-0.014748457;-0.02259672;0.0011840177;-0.030625947;-0.38289297;0.038822383;0.12387965;0.028629309;0.2739938;-0.115057535;0.06969422;-0.072572626;0.04824856;0.078289084;-0.24684072;-0.17419225;0.033455152;-0.38683277;-0.021745307;-0.076036416;0.14329207;0.02516657;-0.038695935;-0.05074131;0.059388287;-0.13886894;0.0014721852;0.007602616;0.004722386;0.029023772;0.088474005;-0.056922007;-0.18384026;0.034993365;-0.35379672;0.07605009;-0.10646738;0.24891452;-0.052078933;0.14509961;0.008682264;-0.12069564;0.026101047;-0.1017809;0.058822766;-0.027479826;-0.08282394;-0.00747412;-0.19251117;0.025225239;-0.1082749;0.05984275;-0.04685781;0.19387296;-0.037030958;0.05340863;-0.15552263;0.04129666;-0.026119024;0.023958163;-0.124650314;-0.3586201;-0.07229127;0.21925491;0.055326845;-0.012370436;0.033529546;0.10902228;-0.28479216;-0.047888663;0.091365695;0.02340646;-0.32834575;-0.012086793;0.1434256;0.2113343
0.10674341;0.0071680904;0.12005873;-0.17152;-0.04532386;-0.0509292;0.0880407;-0.026278218;-0.14673637;-0.028057484;0.068128824;0.25174576;0.043000344;-0.0008347143;0.001499216;0.08059497;0.018124608;-0.4310334;0.033539567;0.08990655;-0.45057145;-0.2611114;0.051251825;-0.096209906;0.11946968;-0.2587758;0.16889493;0.22222751;0.007446728;0.06825594;0.007299031;-0.16511995;0.18117808;-0.027803553;-0.055215206;-0.056183055;-0.06667549;-0.14820467;-0.17589393;-0.18944357;-0.10260801;0.02672985;0.102844425;0.08110535;-0.0394873;0.13774148;0.03249895;-0.033548422;-0.015961317;-0.11324188;0.31723574;-0.08718745;0.19147432;0.13179152;-0.015012006;0.0029570323;0.19009621;0.02037544;-0.06482951;0.03684118;-0.10720509;-0.011381205;0.03286721;-0.20636757;-0.0089585055;-0.3747406;-0.17795567;-0.18357977;0.041568317;-0.03875643;-0.018286558;0.012845861;0.013786051;-0.43820286;-0.09517844;0.31522474;-0.24298367;-0.06812564;0.003978487;0.03602974;-0.05188844;-0.007297545;0.1139644;-0.008116524;-0.041747913;0.107377045;-0.02252826;-0.021370804;-0.014843779;0.096867;-0.23092248;0.23226109;-0.03781566;0.0065402607;0.001633316;0.12219772;0.06621304;0.10424186;-0.24681906;-0.0010495766;0.03669562;0.047472775;0.023328645;-0.112498015;0.00057875924;0.010956695;-0.027247822;-0.045453347;-0.02821907;0.04205662;-0.30770367;-0.16244815;-0.015161884;-0.009672218;-0.041840885;0.09056369;-0.12903805;0.20162858;-0.099960454;0.14779794;-0.080810994;0.042509336;0.06725714;0.00831638;-0.06587938;0.035565343;0.13122854;-0.014112311;-0.2428492;-0.0055459514;-0.18868159;0.164248;0.032442298;-0.31217092;0.055056226;0.02823504;-0.38379893;-0.08676046;-0.11111777;0.14530016;-0.22808136;0.039520055;0.07849085;-0.19930586;0.115523055;0.039849497;0.05568825;0.021658165;-0.019957414;0.16724545;-0.23223339;0.3613806;0.062184926;-0.04968431;-0.27039683;-0.25236565;0.004713422;-0.099577524;-0.014729918;-0.21200822;-0.22352366;0.045225836;-0.15296699;-0.032070093;0.080433086;-0.023201939;-0.030575568;-0.124301694;0.0010334277;-0.070831954;0.010081489;-0.20900519;0.024393402;-0.012395638;0.04870454;-0.03633713;-0.21875714;-0.014577536;0.00015792596;-0.28969696;-0.27750558;0.21185033;0.08312513;-0.1487488;0.0077253412;-0.09592084;-0.046355087;0.1117662;-0.23003516;0.009190603;-0.19872904;-0.063769884;-0.14496909;0.083899416;0.13842452;0.17885591;-0.008999014;-0.020417226;-0.10624783;0.073545516;0.028561138;0.045206107;0.039383966;0.026425498;-0.27690065;0.39717606;-0.32529333;-0.014148319;0.11202286;-0.030395588;0.03715928;0.050460488;0.05633134;-0.018181115;0.045212563;0.18597862;0.0515815;-0.345467;-0.011804127;-0.11975939;-0.18030475;-0.20942646;0.24033082;0.13038076;0.022361021;-0.10115166;0.12274277;0.05475318;0.024102524;-0.16114993;0.007052238;-0.17222652;-0.010948751;0.01742674;0.0030063854;-0.26310822;-0.033114776;-0.04082624;0.02228791;-0.07894835;0.16667378;0.32798347;0.08604769;0.15796326;0.044055037;0.02175071;0.28626162;-0.14566885;0.326503;-0.010794102;-0.03775248;-0.019378176;-0.25275534;0.39959532;-0.063634194;0.2184206;-0.020764116;0.0032888532;0.0244526;0.2057211;-0.058084995;0.0025318693;-0.45157772;0.23303032;0.055114113;0.13817869;-0.026456399;0.009470321;0.24953556;0.0060222256;0.07836767;0.18408418;-0.058504354;0.20570128;0.053307794;-0.006469025;-0.07980881;-0.012268836;0.07626896;-0.055535994;0.061927862;-0.1488766;-0.1421676;-0.020047713;0.0046108374;0.17885369;0.032437906;0.02002275;0.07813737;0.05125887;0.03181328;0.15982284;-0.18579052;-0.06145162;-0.013008104;0.16007319;0.13085812;-0.011148169;-0.08955816;-0.38849702;-0.08410292;0.011054678;0.05470252;-0.025838956;-0.015887164;-0.09104228;0.15145637;0.04136802;0.06468743;0.07823304;0.042963948;0.15502618;-0.017636918;0.024492875;-0.046317976;0.021665221;-0.16876912;-0.033682756;-0.019242808;0.029551217;0.44241434;0.019644398;-0.003555418;-0.11341512;0.02635098;0.12568146;-0.026560444;-0.03485404;-0.04584682;0.04457228;0.13127866;0.0020547844;0.3540205;0.06502142;0.21576747;0.011614127;-0.047411308;0.07586464;-0.13970909;0.28268975;0.0357579;-0.47994816;0.2902495;-0.12129238;0.02113582;-0.027007718;-0.07091552;-0.0005825096;-0.13052359;-0.30499116;-0.037250776;0.116967015;0.025315218;-0.17013702;-0.07243878;0.103431076;-0.06955518;0.034315202;-0.1291224;-0.15703127;-0.07894348;-0.06958631;-0.020717604;0.15487939;0.016541123;0.11111327;-0.0036820308;-0.14862192;0.0008619273;0.2069558;0.17144977;-0.071171336;0.03559838;-0.0072510014;-0.043278854;0.042921063;-0.06277078;-0.034400955;-0.018380862;0.04314141;0.028960219;0.29080358;0.076772265;0.20009823;0.057092477;-0.010475395;0.05644281;-0.011276487;-0.109524585;-0.02113581;0.12077051;0.0048511233;0.06561456;-0.06276835;0.084919;-0.031830855;0.047266375;0.13480213;-0.007940947;-0.07030074;-0.036506936;-0.013983463;-0.11575865;0.025791002;0.27955547;0.06312895;-0.006615391;0.025113447;-0.072709434;-0.0049437173;0.06441993;0.001818062;-0.0060005127;0.03303679;-0.43332756;0.023228362;0.1174903;-0.03580166;-0.23102331;0.04773665;0.065738775;0.030225843;0.057076152;-0.004927754;-0.0041614054;0.021619616;0.051689044;-0.17346638;0.31011856;0.0026370175;0.04486355;0.067505606;-0.07061744;0.08347807;-0.010613825;-0.033418074;-0.118563324;0.008073625;0.15286498;0.03615803;0.039763387;0.059771515;-0.032586563;-0.116782695;0.32529214;0.17935197;0.0018469521;-0.21035413;-0.025982415;-0.30968282;-0.20135686;-0.038504224;-0.18364531;-0.033080947;0.019167582;0.2359506;0.0026067134;0.3210662;-0.19022815;0.012790675;0.031176697;-0.0073815836;-0.045662463;-0.005848439;-0.039042406;-0.22890788;0.00535613;-0.10002655;0.029966297;-0.019455789;0.29180786;-0.03386503;0.014787309;0.2089442;-0.08286905;-0.044028834;-0.00023580939;0.10806105;-0.060347736;-0.025435803;-0.14287451;0.072348334;-0.09261447;0.11866844;-0.18339658;0.052272648;-0.17746615;0.13154647;-0.031331442;0.04357743;0.026688641;0.09639069;0.24591912;0.021097887;0.10416011;-0.0002923859;-0.11905323;0.07131338;0.3711679;-0.0563128;-0.06948983;0.041495908;0.028394446;0.03316192;-0.17589675;-0.018187307;-0.010703785;-0.047968697;0.3076327;-0.09510078;0.09524481;-0.054894034;0.028578563;0.038746312;-0.18140124;-0.1618484;0.01226011;-0.31821457;-0.015099827;-0.09997857;0.03370019;-0.0071286745;0.015856853;-0.04488113;0.00063950516;-0.071070425;-0.040642478;-0.02650238;0.008453625;0.00037741274;0.0050397413;-0.25552088;-0.3005341;-0.0078057116;-0.2247262;-0.057970975;-0.17472494;0.21621552;0.072732374;0.11622057;-0.0057424824;-0.13714546;-0.02231854;-0.14797617;-0.022013308;0.012211656;-0.0074498234;0.028438713;-0.1453852;-0.05225307;-0.021084446;0.06136349;0.044228114;0.07214068;-0.0102411965;0.069185175;-0.23250687;0.0820113;0.018244268;0.025643157;-0.10354203;-0.39069003;-0.03748421;0.14300522;-0.022302661;-0.14519946;-0.004415128;0.03785184;-0.24624757;-0.03878177;0.034547295;0.031917445;-0.33004448;0.1055583;0.21913268;0.23372257
0.040402073;-0.03019268;0.058825407;-0.09351219;-0.07235378;0.05765331;0.12514587;-0.04938999;-0.10283101;0.0044303574;0.0254222;0.19211859;0.037000526;-0.1142047;-0.08084916;0.1557351;-0.026375776;-0.65754646;0.033930935;0.079074524;-0.39279863;-0.14278707;0.012529053;-0.11595481;0.15555373;-0.20192248;0.023583038;0.30486578;0.058126684;-0.029010836;-0.12504774;-0.23561263;0.3244416;0.0066741193;0.07171928;-0.018769586;0.014787292;-0.063321;-0.010789597;-0.12952273;-0.12312465;-0.009258186;0.06696311;0.08413168;-0.07592257;0.03378225;0.040922843;0.0063845883;0.02691472;-0.08368746;0.33560258;0.032031182;0.19743799;0.04990244;-0.017171338;-0.05330924;0.064887114;0.015685346;-0.24150872;-0.048841033;-0.08758775;-0.041137874;0.027462263;-0.14048257;0.20852546;-0.43663356;-0.19153261;-0.21136726;0.023299748;0.0425094;-0.06597182;0.18453237;-0.071758606;-0.4165172;0.039420757;0.06753227;-0.15184161;-0.0618016;-0.021623667;0.02314517;0.027058719;0.04966991;0.081757806;0.16313067;0.026092824;0.084052585;0.09136179;-0.055488497;-0.026918368;0.07325999;-0.19000106;0.23216628;0.014516312;0.01087926;-0.035074208;0.27563053;-0.0558002;0.057840586;-0.24567893;-0.0037512938;0.04863016;-0.05343409;-0.018870423;-0.10379369;0.17438324;0.027685754;-0.24344282;-0.00606553;-0.02151711;-0.04699752;-0.31682485;-0.21224052;-0.04311888;0.081425965;0.016216263;-0.013327853;0.06638234;0.06996053;-0.04528785;0.18814115;-0.06278669;-0.036689468;0.108122624;0.01784124;-0.10120939;0.052383423;0.018853972;0.119806595;-0.15992509;-0.009773961;-0.03274552;0.11517118;-0.015798965;-0.274571;-0.04561009;0.1114472;-0.19230062;-0.10650154;-0.15644033;0.13018557;-0.13390818;-0.07008969;-0.0025688948;-0.25107658;0.10257546;-0.026281137;-0.013427995;-0.050251484;0.06709132;0.22545157;-0.11108905;0.29097682;0.0459787;0.024368944;-0.18995374;-0.2370131;-0.010225977;0.037994303;-0.109763294;-0.23497061;-0.31006965;-0.0931475;-0.1272568;0.03331637;0.054971695;0.05401425;0.06856695;-0.16722216;-0.09021155;0.04209336;-0.030751457;-0.26771;0.01421657;0.043764908;-0.06653364;-0.04047878;-0.25970787;-0.10950538;-0.082373396;-0.2897823;-0.32516304;0.117141634;0.12309552;-0.045643777;-0.04367598;0.03302121;-0.013260533;0.23061804;-0.23105343;-0.056488063;-0.22869298;0.048339892;-0.07478237;0.103841044;0.16744326;0.16772102;-0.018286495;-0.06839575;-0.2718171;0.06930381;-0.03349094;0.034600385;-0.07305029;0.047489196;-0.17218274;0.25573924;-0.29616934;0.017201025;0.062330592;0.011425495;0.008421662;0.04209992;-0.008331908;-0.016508656;0.0431388;0.28881782;-0.051128857;-0.19404173;-0.13178521;0.05025618;-0.21404277;-0.088394396;0.2209764;0.14238577;0.035653524;-0.2332472;-0.0030308561;0.036330897;0.01505835;-0.08067412;0.013001714;-0.19163361;0.05275234;0.048621837;0.068766914;-0.08656852;0.027993208;0.057162795;-0.045488782;0.043363173;0.023273868;0.48440567;0.15983054;0.0472797;-0.021288766;-0.03895746;0.12394851;0.039940774;0.2135846;-0.030636765;0.24181414;0.024019081;-0.2613579;0.24830887;0.05191344;0.016674018;-0.040254224;0.04185149;0.18189824;0.06979341;-0.10656853;0.1137803;-0.3422025;0.12930891;-0.028143426;0.001795067;-0.02396734;-0.089644656;0.07877769;0.05088574;-0.045830645;0.20065677;-0.025330089;0.16854014;-0.06085668;-0.0056118527;0.08635919;0.06692298;0.06435031;0.07604171;0.20791143;-0.09597288;-0.15645516;-0.08745729;-0.032765996;0.2223056;0.07894885;0.028570697;-0.019543879;0.009240512;0.18771537;0.09502144;-0.1787059;0.05916452;-0.038560793;0.11239408;0.23388764;-0.13683076;-0.2718014;-0.31662712;-0.10471944;-0.037095424;-0.059617314;-0.012957567;0.007902692;-0.1955149;0.131163;-0.042045817;-0.011259407;0.018141774;0.0018108407;0.067360006;0.021176776;-0.16590588;-0.003687879;0.0395968;-0.23677249;-0.050007127;-0.037774045;-0.08340059;0.35016143;0.05817468;-0.05986049;-0.07967129;0.024046823;0.046466954;0.010679016;0.00026773123;0.07975386;-0.04997935;0.046474826;0.07250666;0.17970648;0.011108772;0.083552584;-0.018383792;-0.078536116;0.0073421;-0.19217528;0.2803267;0.06490757;-0.30292115;-0.011387804;-0.040408023;-0.03639131;-0.00823969;-0.034375664;0.033219382;-0.042788945;-0.18145394;-0.013620464;0.17945583;-0.06112169;-0.13207093;0.021733753;0.10593605;-0.040820427;-0.0038619912;-0.14108427;-0.23335272;-0.1423704;-0.08045829;0.032460075;0.19314231;-0.23720723;0.14441805;-0.014434308;-0.08468614;0.14431174;0.13129838;0.18556775;-0.014355187;0.00071994815;0.070834056;-0.029388007;-0.05099746;-0.022859184;-0.011990229;-0.03691861;0.07081922;0.024196878;0.2059304;-0.025914393;0.2953007;-0.03166907;0.036702152;-0.14101487;-0.045542512;-0.04340303;-0.03075018;0.1208386;-0.10330817;-0.14292705;-0.037833616;0.13426733;-0.09259451;0.0018795906;0.07157746;-0.07744454;-0.025504064;0.105133735;-0.015640685;-0.21456148;0.012742541;0.32441092;0.008393637;-0.058469538;0.026586667;-0.09622682;0.06386787;-0.016177604;0.024857137;0.06039222;-0.049915217;-0.30837595;-0.10921772;0.018680828;0.013858017;-0.03008258;0.029943787;0.09596104;-0.03556299;0.10399647;0.15042628;0.011504697;-0.072789885;-0.06222601;-0.11182778;0.2925865;-0.06453758;0.11675639;0.044570535;-0.06908023;-0.07154612;-0.014226261;-0.06973913;-0.16309181;0.11585062;0.051776405;-0.055170514;-0.015130672;0.061637387;-0.06452261;-0.033368684;0.4848416;0.13010699;-0.008800171;-0.15558629;-0.022293331;-0.2605464;-0.24842466;0.06164915;-0.05353348;-0.07145162;-0.002639504;0.21078365;0.030277964;0.25164816;-0.105141066;-0.01189178;-0.024016488;0.02252942;0.020110182;-0.09671714;-0.206985;-0.21915157;-0.029154511;-0.031892475;0.08782676;-0.0848266;0.30566624;-0.19522752;0.01282939;0.03467937;-0.11016594;0.06693563;0.05793447;0.10955697;0.025853172;-0.040150434;-0.045673892;0.20207337;-0.15442665;0.061066404;-0.22713436;-0.027949106;-0.17551993;0.13901399;0.021598592;-0.020802358;0.002047947;0.039036326;0.15404892;-0.051582873;0.008284017;0.059451032;-0.028277105;0.032698672;0.15202728;-0.036814854;-0.10333414;-0.018667392;-0.005593151;-0.047425803;0.03405669;-0.0035682474;0.102659054;0.02423236;0.18533096;-0.07165344;0.16307956;-0.06858915;-0.089925505;0.0056861076;-0.266437;-0.003537067;-0.0010830703;-0.2803823;0.049807537;-0.051883087;0.0808471;-0.029098285;0.04363934;-0.09418295;-0.037683666;0.013446623;0.037884608;-0.044388104;0.009093253;0.0014620137;-0.029252935;-0.3009184;-0.20868765;-0.012065013;-0.31625482;0.046206962;-0.13796505;0.14618382;-0.023568423;0.15635829;0.08863029;-0.1441995;-0.0056823725;-0.025694542;-0.041151483;0.031239813;0.04676667;-0.036969967;-0.090962686;0.034971662;-0.048208274;-0.03069841;-0.008778986;0.096447185;-0.015153941;-0.057485707;-0.15712845;0.010891144;0.005470166;-0.004284755;-0.13847059;-0.26739872;-0.056170505;0.030011632;-0.02238013;-0.20542732;-0.05984819;-0.1670372;-0.25205055;0.027143035;0.1459303;-0.03262342;-0.27336952;0.034678437;0.13969535;0.25475982
0.079625405;0.048091087;-0.0675754;-0.04045128;-0.09551727;0.03599736;0.03596036;-0.008177581;-0.09664581;0.010346701;0.022340823;0.15099052;0.033551674;-0.123439945;-0.0228062;0.16900155;0.013903563;-0.6043893;-0.06561411;0.14581266;-0.273848;-0.27941704;0.134027;-0.07755063;0.15905245;-0.3307719;-0.0413788;0.311994;-0.03339264;-0.044164084;-0.14428893;-0.19443057;0.18573819;0.03935752;0.045250453;-0.044026487;0.07013854;-0.1286922;-0.18510863;-0.024212476;-0.0055150604;0.028116247;0.21662724;-0.06643283;-0.055145063;0.059772234;-0.002876073;0.07825059;0.025303345;-0.034633756;0.19444174;0.01876928;0.061661746;0.2520907;0.038441084;0.045827147;-0.08026381;-0.034360595;-0.31926626;0.14029057;-0.017405203;0.06266616;0.041272666;0.007625728;0.16439913;-0.47103778;-0.30333102;-0.121640965;-0.06018601;0.04599228;-0.024810709;0.29899412;-0.07932092;-0.31125826;-0.041417193;0.22662175;-0.1501007;0.10027005;-0.22393647;0.02636877;0.024801621;-0.015842417;0.024611257;0.07585227;-0.011053643;-0.020635264;0.015612413;-0.02114279;-0.024877232;0.07975546;-0.15484692;0.15540767;0.03803112;-0.015634121;0.051070485;0.19914849;0.014403521;-0.004991172;-0.33397755;-0.18543963;-0.06508127;0.047735557;-0.037467815;-0.06859544;0.111496985;-0.027111422;-0.07401944;-0.006948926;-0.014198143;0.032438505;-0.22350901;-0.31918207;0.019828366;0.0012586889;0.03168555;-0.08831363;0.09051471;0.15791051;-0.2468943;0.028467583;-0.026645007;0.009482698;0.052062806;0.04060639;0.081841365;-0.045829203;-0.09850406;0.30707377;-0.091433875;0.035701577;-0.13551883;0.048552305;-0.008675388;-0.26329905;0.012593285;-0.041616358;-0.093832515;0.12507132;-0.033195164;0.10953437;-0.011558442;0.032174263;0.26479927;-0.16182122;-0.041519634;-0.023961402;-0.018604128;0.010807658;-0.052945696;0.2755797;-0.03219516;0.36385038;-0.031700935;-0.043052405;-0.1725702;-0.24461453;-0.026053937;-0.10895134;-0.035235014;-0.3316525;-0.26073724;-0.10468024;-0.12337815;-0.016708579;0.1394633;-0.032761436;-0.016820459;-0.12199505;-0.063785695;0.03168144;0.0019070139;-0.13300079;-0.045445226;0.0012086034;0.00026564623;-0.23879687;-0.36273563;-0.037916776;0.03176249;-0.23133217;-0.31358752;-0.07935733;-0.06957298;-0.006810777;0.04975276;-0.035801217;0.03907751;0.12609664;-0.19746107;0.025051892;-0.17638893;0.0559507;-0.079454355;0.09351178;0.024121653;0.13320497;0.029770127;-0.09178527;-0.23187678;-0.0077329776;-0.013498018;-0.036619175;-0.05304712;-0.07315833;-0.24898434;0.19612217;-0.17326212;0.0038512226;-0.09078879;0.014764311;0.02897279;-0.07823755;0.0016518715;0.077083595;0.034844883;0.17517397;-0.04238293;-0.30180603;-0.15861712;-0.09379411;-0.14537889;-0.14794049;0.35358164;0.097199604;-0.031038811;-0.15219685;-0.022243913;-0.08478626;-0.06769816;-0.020329457;0.10728912;0.000573951;-0.058628917;-0.03611943;-0.10044204;-0.0743043;0.14059538;0.08207413;0.0017803067;-0.08636181;0.032941613;0.536898;0.100248635;0.059655067;0.016987056;0.06500745;0.08524739;0.045584347;0.18071586;0.06451971;0.24463004;0.0035254068;-0.2778625;0.2567418;0.01885734;0.10817054;-0.15496005;-0.0116998805;0.082797214;0.05763584;0.019212402;0.23169655;-0.38476866;0.18615271;-0.021748576;-0.050676;0.02264102;0.0640873;0.13146019;-0.017685125;-0.043912902;0.05997268;-0.045271546;0.15256977;-0.007051395;0.033792093;0.18821162;0.011053802;0.04260411;-0.058288246;0.12968485;-0.08260135;-0.15088366;-0.07758559;-0.028117511;0.18351173;-0.029116243;0.036263105;-0.06945326;-0.033561196;0.20922089;0.05042493;-0.12587042;0.026501978;0.009515238;0.030475633;0.23770402;0.23395151;-0.20637044;-0.20964657;-0.065584615;0.04935311;0.0060890573;0.012632732;0.009679386;-0.29197705;0.267536;0.048192076;-0.12176808;-0.028670084;-0.06435612;0.13625383;-0.0062798555;-0.19082077;-0.10696676;0.11029838;-0.3588376;0.055323847;0.05173856;-0.15314354;0.329398;-0.084941246;-0.005659346;-0.036727015;0.036245417;0.112311155;-0.0065535265;-0.07859797;-0.1468839;-0.021237722;0.01813395;0.0028604288;0.28321868;-0.006491533;0.12187383;0.015020072;0.012994247;0.0065011512;-0.16820662;0.36132514;0.0049230433;-0.27709457;0.027356956;-0.097839646;0.05318711;0.031834263;-0.013551332;-0.0030530577;-0.058866054;-0.3501973;-0.07361219;0.09779424;-0.06087938;-0.12273331;0.15101351;0.10110689;-0.032151468;-0.035882913;-0.009766448;-0.1742871;0.021594381;-0.011286531;0.033039663;0.17858179;-0.16977154;0.1464572;0.038896274;-0.13782103;0.122185476;0.24953923;0.1350374;0.06187798;-0.0002459553;-0.015370869;0.021005949;-0.059935007;0.0034099245;0.014501774;0.047982085;0.009085343;0.007470018;0.23244812;-0.038706426;0.2733624;0.03967752;-0.008623183;-0.18467486;-0.12533337;-0.15268858;-0.12933484;0.13849384;0.042387452;-0.20852919;0.07278802;-0.20876777;-0.093507655;-0.049818665;0.14339755;0.05156132;0.0029963802;-0.031644113;0.023644404;-0.2686991;-0.04721268;0.2221904;0.028852798;-0.04314963;-0.054594982;-0.09749369;-0.032269232;-0.00069222046;0.017420113;0.0662864;0.02571782;-0.2666822;0.17363171;-0.05550962;0.004746004;0.008509213;-0.031116368;0.23193157;0.064179495;0.074850276;0.14258108;0.21048799;0.009543172;0.04806602;-0.025474958;0.37443656;0.0071115987;-0.01628002;-0.01742323;-0.038750492;0.013279712;-0.019114077;-0.16708922;-0.2648569;0.14117472;0.14739291;-0.017572155;-0.056483187;-0.09611584;0.036345817;0.047532875;0.360475;0.08616786;-0.0028210161;-0.14818586;0.048515894;-0.2957244;-0.27745846;-0.035534736;-0.04673395;-0.1912387;0.046921033;0.20759496;-0.0036744322;0.32165277;-0.10044645;0.052789256;0.009919393;-0.033730283;0.04836361;-0.20384169;-0.048577804;-0.16360587;0.011349776;-0.109715186;0.15881504;-0.0869059;0.4077268;-0.15943234;-0.028619671;-0.06047743;-0.15642986;-0.009324856;-0.07077813;-0.011644073;-0.03322857;-0.015557113;-0.19835843;0.104143016;-0.015620508;0.20600243;-0.3116682;-0.011242678;0.03625354;0.08213675;-0.0066995397;-0.14313231;0.024300827;0.070506;0.18638627;0.0068643377;-0.065564714;-0.0007820718;-0.020057308;-0.04268878;0.043467123;-0.10257688;-0.023786884;0.038105443;-0.003821627;0.010292528;-0.076965906;0.028773485;-0.0071725314;0.080973685;0.22064336;0.012613703;0.15840088;-0.048667468;-0.13814895;-0.06493852;-0.2679641;-0.0587828;0.010493772;-0.13452314;-0.047533024;-0.1407002;0.14670508;0.037185714;-0.04001637;0.13499056;-0.0077329427;-0.07234983;0.046784777;0.053043347;0.09506176;-0.04476313;-0.106700435;-0.23655994;-0.13203746;-0.0044011003;-0.20117453;0.03275002;-0.14543667;0.05637583;-0.029458066;0.09863083;0.017120104;-0.17227414;-0.04242339;-0.08584855;-0.035845257;-0.013912574;0.008296006;0.012027798;-0.017491931;-0.019446487;-0.17459568;-0.030237855;0.029938292;-0.0062702727;0.043572366;0.04049166;-0.122817926;0.015990283;-0.017356409;-0.05837322;-0.024239859;-0.20484193;0.116553;0.106521755;-0.0631953;-0.14906716;-0.0069951965;-0.2004797;-0.26247102;0.07213101;0.16283084;0.055029053;-0.30322778;0.11403319;0.13041747;0.18934932
0.019885344;0.12643158;0.029528327;-0.011607103;-0.079087876;-0.042081755;0.1740452;0.024036601;-0.04604536;0.0069693252;0.025018025;0.102993116;-0.060888447;-0.19273868;0.09187713;0.057724584;-0.0066892304;-0.65666175;0.029783275;0.36682314;-0.17886022;-0.25744423;-0.04774791;-0.17380355;-0.0047675176;-0.29928958;-0.053462226;0.22935732;-0.0011721256;0.0080754515;-0.023143718;-0.15917414;0.26201394;0.004951281;-0.06102188;-0.074757814;0.1917578;-0.17389587;-0.17773807;0.19846031;-0.03783991;-0.013831238;0.03553836;-0.23640785;-0.021833265;0.10981333;-0.056198895;0.08851577;-0.022468656;-0.09965996;0.24527398;-0.022279423;0.13328342;0.24674068;0.034016304;-0.029539596;-0.053470228;-0.02898505;-0.1572243;0.1920523;-0.009541198;0.24506132;-0.054062255;-0.005725729;0.04372711;-0.35699847;-0.18429554;-0.016608736;0.020983309;0.037446357;-0.0017524011;0.37499937;0.14268935;-0.18724304;-0.016464638;0.1289383;-0.12130151;0.02326819;-0.32421803;0.026264591;0.04665271;-0.0037418024;0.06007624;0.1898009;-0.03398106;-0.01221182;0.055022646;0.07286299;0.011223392;-0.033254955;-0.123291075;0.22113714;-0.031293597;0.075982526;-0.009297943;0.40455306;-0.022606578;0.09954702;-0.3463395;-0.1269812;-0.21809724;-0.06626706;0.07192038;-0.107975364;0.04446843;-0.023793839;-0.044436898;-0.037740115;0.035469178;-0.051004525;-0.22498935;-0.2714409;0.056376003;-0.07594855;0.030797811;-0.10270077;0.2498157;0.077997245;-0.22360277;0.04634068;-0.039735235;-0.026315434;0.051262878;0.071403444;0.20135073;0.03239315;-0.054967567;0.24854378;-0.024411447;-0.052528612;-0.104390085;0.112040035;-0.0398091;-0.24347591;0.03193837;-0.07475311;0.009795744;0.082899384;0.0009180444;-0.027188502;-0.039914113;-0.00993683;0.3452038;-0.29902938;-0.08017116;0.023911143;0.05101888;-0.012532018;0.038877796;0.19747989;0.1337466;0.21436723;0.025346275;0.020475026;-0.24915123;0.051297944;-0.030537583;-0.11274888;-0.085633375;-0.32671106;-0.28620616;-0.09153372;-0.063848816;0.06023362;-0.011743679;-0.042964436;-0.098081395;-0.1464975;0.15365212;0.008199652;0.039315213;-0.009209279;0.046259977;-0.08903508;0.03223338;-0.20936249;-0.3201471;-0.093686275;0.10772097;-0.15933172;-0.23236631;-0.054325648;-0.065215014;-0.07675658;-0.010640206;0.043083694;-0.047690313;0.1346617;-0.18451276;0.095156595;-0.09889388;0.11900533;0.023427365;0.11198086;0.03627829;0.16049223;0.017800864;0.05058354;-0.18821387;-0.010485345;-0.1229318;-0.022139443;0.08009443;0.048723053;-0.2218836;0.121886976;-0.08670382;0.10150216;-0.08811067;-0.002981488;-0.016647361;0.045693953;0.021525335;-0.051461466;-0.05594011;0.20390402;-0.12874895;-0.19033475;-0.10717813;-0.00735577;-0.0876633;-0.11392127;0.33461508;0.2769028;-0.0039019992;-0.07805403;-0.058093306;0.0016851262;0.06824983;0.16344833;0.024469893;-0.07384267;-0.0008393629;0.026486235;-0.05022374;-0.17352232;0.03650929;0.09969073;-0.005178506;-0.17421684;0.03157495;0.5378439;0.008706221;-0.040726647;0.012838187;-0.01148655;0.11289721;-0.04248961;0.21209888;-0.004223748;0.26530787;-0.011834982;-0.27000025;0.29351208;0.03196268;0.05096432;-0.064810336;-0.050579358;0.08145279;0.03707017;0.010736234;0.19623975;-0.38435695;0.08521914;0.0020321212;0.004422339;-0.013036704;-0.035544563;0.066095866;0.006229586;0.0063035088;0.09723586;-0.0054992456;0.12076225;-0.02194734;-0.023872565;0.16242297;-0.05798269;-0.018359598;0.015538192;0.2909713;-0.0856927;-0.13863805;-0.007046195;0.07527878;0.07028548;-0.04454586;-0.017843181;-0.005944471;-0.028060162;0.01907412;0.10537732;0.027054071;0.108266756;0.07769993;-0.007920436;0.2805908;0.14846788;-0.11441066;-0.28720024;-0.12784252;0.03143586;0.013280907;-0.0123968925;0.09206812;-0.32034466;0.17763135;-0.040714085;0.027643325;0.025088852;-0.10640636;0.08375842;-0.031430792;-0.14236514;0.134288;0.09017635;-0.24727441;0.047341146;-0.03038289;-0.07903981;0.14831263;0.051563326;-0.009190821;0.0018813106;-0.021670701;0.0108661335;0.042989384;-0.19486812;0.012197211;0.012262214;0.05916899;-0.035447102;0.14890428;0.016098015;0.10036257;-0.043881267;-0.025337612;0.09435571;-0.18978754;0.18529928;-0.0392382;-0.1979677;0.04296747;-0.13029408;0.122476734;0.04301028;0.034626197;0.04276224;-0.08844198;-0.3360949;-0.12753506;0.10382395;-0.0960515;-0.18725848;0.03337504;0.08451969;0.13857713;0.008241424;-0.017653609;-0.23909274;-0.024305765;0.07066274;0.021576783;0.049441114;-0.094815075;0.093810275;0.03788655;-0.17397387;0.045990862;0.14608967;0.09304805;0.06079796;0.0032157702;-0.008529479;0.019095635;0.058944892;-0.032310814;-0.040131778;0.02934583;-0.059688;-0.05960895;0.109478235;-0.0072043194;0.17604081;0.030133903;0.008557565;-0.0669429;-0.17494112;-0.04818902;-0.059896138;0.13338138;0.15072681;-0.11201776;-0.04069039;-0.2325404;-0.11488095;-0.0043389;-0.16402297;0.13737948;0.24729209;0.005578293;-0.03476202;-0.20507269;0.052754946;0.3072309;0.0003848704;-0.08075259;0.029787868;-0.15820527;0.036442414;-0.051701885;-0.015324833;0.09429998;-0.02077769;-0.14897998;0.2913347;0.06149804;-0.033131428;-0.05258616;-0.012450898;0.20816283;0.23971221;0.014638605;0.103174984;0.17882006;0.020533616;0.037426185;-0.12040049;0.24150605;0.14029258;0.082716845;0.112707265;-0.014687693;-0.0756205;0.04105787;-0.08347521;-0.24841776;0.36511496;0.20903917;-0.012893496;0.069210984;-0.15886936;0.023456864;0.020700162;0.123041786;0.07734126;-0.054562576;-0.047474366;0.0046213754;-0.3330018;-0.15949383;0.013967837;-0.03293727;-0.09115651;-0.07875647;0.13088948;0.015853453;0.29146934;0.114948355;-0.029551594;-0.021087551;-0.04629702;0.0034508575;-0.108039245;-0.0013579633;-0.21410605;0.032959633;-0.055126805;0.0961167;-0.030212477;0.24128042;-0.27993053;-0.022820374;-0.10996153;-0.2256323;0.0040914086;-0.011106114;0.1079848;-0.021720994;0.0024450936;-0.13530643;0.02887996;0.07779295;0.10844057;-0.34934488;-0.03407177;-0.06606792;-0.17934999;0.026900947;0.005941144;-0.0012172306;0.34795004;0.17359428;-0.038033064;0.113240495;-0.025806844;0.071912974;-0.03390541;0.056740683;-0.06806919;-0.014659992;-0.033781953;-0.067306876;0.042025067;0.07982031;-0.0009936863;0.14246877;-0.023122385;0.21949816;0.028289763;0.265508;-0.19482815;-0.11775544;0.027042912;-0.21585232;-0.14691485;-0.012445956;-0.24557151;-0.048878945;-0.046688434;0.110776775;0.019342983;0.043545637;-0.010884912;-0.04179025;0.030129977;-0.04419626;-0.0077822623;0.14589714;0.031401962;-0.12130521;-0.20697464;-0.18036823;-0.010445427;-0.24230503;-0.029119814;-0.29775783;0.07640028;0.018075159;0.0053127995;-0.08010539;-0.07296072;0.019749265;-0.26349455;0.05792968;-0.0005073253;0.023709875;-0.02319942;0.03507764;-0.00085555454;-0.31783974;-0.03002045;0.021426696;0.17008686;-0.020445883;0.010013551;-0.037964657;-0.031270783;-0.014879425;0.021357724;-0.03591381;-0.32456487;0.22560605;0.072348274;0.02460024;-0.016852975;0.0629405;-0.101151675;-0.13629167;0.026440084;0.08269276;-0.07502804;-0.3822347;0.17475225;0.090464294;-0.01582044
0.08246143;0.06676464;-9.251882e-06;0.06611129;-0.16163215;-0.005889974;0.22557652;0.042539813;-0.026906386;-0.0008468542;-0.0022718068;0.14279114;-0.053325802;-0.14585787;-0.038956575;0.133247;0.010531461;-0.67362803;-0.05717249;0.22400565;-0.14533429;-0.47538608;0.052475184;-0.16996501;-0.052218974;-0.23691306;-0.14845833;0.21216688;-0.013427606;-0.06336176;0.035182912;-0.21996339;0.25696343;-0.030291973;-0.0151962545;0.043818858;0.16425976;-0.12777705;-0.10303142;0.18666443;-0.07666076;0.021418523;0.24038172;-0.18280065;0.08155585;0.05786901;-0.0058261775;0.009055039;-0.019911908;-0.003344887;0.20021594;0.043819148;0.14912263;0.2759364;0.030555686;0.012371611;-0.018435368;0.0013998846;-0.17016228;0.18156153;-0.029782249;0.1977266;0.0025463465;-0.078876525;-0.1092272;-0.38816562;-0.27824065;0.04773767;0.023729717;-0.051281188;-0.1174975;0.36467803;0.11786994;-0.26281872;0.116650775;0.16235177;-0.14082022;0.08985973;-0.2428065;-0.01379858;-0.06253861;-0.026638644;0.090528265;0.093624815;-0.03263853;-0.06501911;0.1009567;-0.034998514;-0.01556476;0.13087936;-0.11172134;0.10260758;-0.0030075079;0.04660286;-0.021791255;0.38825426;0.04839479;0.0076437914;-0.22004427;-0.10484037;-0.107623726;-0.024496293;0.0056944434;-0.076483704;0.020572906;0.020596413;0.01584437;0.027362088;-0.054877885;0.0673957;-0.1566619;-0.21584557;-0.076487824;-0.13311791;-0.044628378;-0.05722849;0.36186215;0.20140478;-0.49360427;7.681635e-05;0.060831673;-0.042440392;0.09063137;0.031444665;0.17622857;0.049632158;-0.10277046;0.12416887;0.00971323;0.058372535;-0.09892548;0.067196466;0.03445361;-0.22909638;-0.014010048;-0.077735834;0.099756785;0.090825565;-0.11163345;-0.018941628;-0.14935079;0.0139612;0.3927056;-0.216417;-0.10947834;-0.030705353;-0.036967367;-0.020263787;-0.0503573;0.25362697;-0.0025371069;0.19944485;0.036394026;0.046040095;-0.31548527;-0.23933518;0.01770292;-0.1475055;-0.01798646;-0.27642667;-0.21316959;-0.2458912;-0.15994078;-0.013990062;0.042246304;0.028552102;-0.06974158;-0.021595648;0.18981218;-0.015843889;6.497027e-05;0.09925546;-0.016476482;0.06198654;-0.028054137;-0.13710341;-0.35215414;-0.028077133;-0.0359918;-0.23090205;-0.33741271;0.018368699;-0.17948382;-0.20090695;-0.027615616;0.066934064;0.021717971;-0.045977887;-0.19364503;0.11895892;-0.15409686;0.040431995;0.020808527;0.042070646;0.0630989;-0.015967937;-0.0027030748;0.21755952;-0.039688505;0.025902972;-0.15912817;-0.038592104;0.0387647;0.017378869;-0.35862163;0.049905375;-0.10402053;-0.009935238;-0.07463937;-0.02216066;-0.20263381;0.08858418;-0.056294568;-0.037983865;-0.22478096;0.11940572;0.11268864;-0.20245379;-0.20072842;-0.010607528;-0.17441507;-0.1576368;0.33141965;0.262606;-0.016537238;-0.120944984;-0.124531195;0.0004755904;-0.046042904;0.067560084;0.14812134;0.052077755;0.032019574;-0.0070525794;-0.19538781;-0.20862785;-0.061624918;0.07168502;-0.010263381;0.14057663;-0.077168345;0.27659965;0.093424045;-0.09069798;0.0038517641;0.026755247;0.0714812;-0.09482759;0.19235222;-0.05321221;0.26595724;-0.02382446;-0.3623858;0.21610533;-0.09125673;0.115647845;-0.1383672;0.0026353502;-0.047917083;-0.008008091;0.01197332;0.12989177;-0.36325407;0.247133;0.017319672;0.10590556;0.06426278;-0.008244463;0.13211213;-0.07213569;-0.013499093;0.17146873;0.034852095;0.052538805;0.07543126;0.020441275;0.1952919;0.035114985;0.10091272;-0.022748562;0.18463185;0.038664646;-0.10013421;0.037674204;-0.025067769;0.17208046;-0.0079797665;0.12633218;0.07214741;0.041057445;0.04544031;0.07153259;0.099458955;0.20074198;-0.05300481;-0.1761755;0.2471266;0.12365418;-0.05661843;-0.027839696;-0.2060345;-0.003247214;0.027929993;0.0030345994;0.116406195;-0.45632142;0.36954132;0.053287566;0.080826856;-0.0013634617;-0.1551855;0.019383356;-0.018158253;-0.11084655;0.13678144;0.13374624;-0.19790855;-0.054329824;0.011701867;-0.0034973007;-0.0075764493;-0.019152597;-0.22226265;0.0482406;-0.0032213798;-0.015332891;-0.020820977;-0.340782;-0.0008060856;0.11344833;0.008345982;-0.043960486;0.13535827;0.0033018568;0.0702296;-0.0007824551;0.059493586;-0.017739583;-0.31260622;0.29113063;-0.05229371;-0.21135308;0.07543754;-0.028881943;0.21190335;-0.01547233;0.05966512;-0.010662331;-0.119388334;-0.20357417;-0.14420281;-0.03562855;-0.21852711;-0.021631878;0.029275676;0.13193524;0.0278432;-0.03595795;-0.08541056;-0.24466595;-5.180334e-05;0.029479258;0.017750965;0.070321776;-0.08849795;0.050309338;-0.0009359588;-0.1438905;0.07273467;0.10035434;0.032719243;-0.07437801;0.032691948;-0.056706022;0.015183773;0.041195292;0.052786987;0.074785106;-0.0069664842;0.036415204;0.0027515627;0.017746676;0.04064885;0.054067086;-0.034809887;-0.041007094;-0.08940498;-0.022742786;-0.030786544;0.00999352;-0.020869363;0.23490556;-0.13844383;0.06494171;-0.127488;0.011384131;0.04022561;-0.17551693;0.11926583;0.069855794;-0.0844641;0.00015259834;-0.15735601;-0.03520784;0.105949104;0.11077306;-0.13846144;-0.014224744;-0.06693692;-0.03559335;0.048355993;-0.0075183553;0.04455932;-0.027235633;-0.1471623;0.31033438;-0.028175503;0.012904572;-0.019340228;-0.04642998;0.3558336;0.12310212;0.09685815;0.20434077;0.18644787;0.024028074;-0.028064385;-0.07715017;0.03568076;0.056986313;0.028011842;-0.009817577;0.09608347;0.013247399;-0.011875368;-0.11507954;-0.2654541;0.27244487;0.26273692;0.036605626;-0.03109753;-0.13498458;-0.0073464443;0.0302447;0.14219466;0.03629086;0.069043204;-0.11537055;-0.02032373;-0.3838304;-0.049532894;-0.028668744;-0.07254296;-0.13747928;-0.03174814;-0.122271344;0.017692633;0.11933587;0.10668371;-0.07346782;-0.03956323;-0.0016380694;0.071602866;-0.14201793;-0.03230741;-0.25559;-0.026918743;-0.19215481;0.14437523;-0.050858494;0.090151735;-0.3122308;-0.008588111;0.08685416;-0.29152638;-0.040677328;0.047838207;0.018636227;-0.18085118;0.017076856;-0.002140428;0.02370791;0.060958285;0.19007668;-0.19202347;0.05637602;-0.0066955513;-0.18046665;-0.06599292;0.015800975;0.015216187;0.4521549;0.15920353;0.1691661;0.17875198;-0.0063112625;0.039355967;0.07195028;-0.0404453;0.005577425;0.0051173344;0.0005828292;0.01099273;-0.062279284;0.15404123;-0.052409716;0.08644011;-0.033299882;0.21001968;0.057399567;0.24821527;-0.20981462;0.032983493;0.019044133;-0.3539704;-0.33441332;-0.010184837;-0.07882631;0.08133083;0.11990996;0.06909416;-0.052043825;-0.03989536;-0.09062288;0.07134746;-0.027386704;-0.033013478;-0.018164305;0.04665204;-0.008050642;0.012431805;-0.13343914;-0.20043299;0.0380178;-0.112940505;0.076517105;-0.32592288;-0.1204569;0.025245734;-0.036680374;0.028423624;-0.17732026;0.0132307345;-0.23612854;0.0052952543;-0.021857454;0.021596385;-0.008019224;0.081399314;0.060655132;-0.25872153;-0.04229918;-0.019079918;0.0071451813;0.022080144;-0.08596184;-0.058970924;-0.2171194;-0.057034243;-0.023154607;-0.2553629;-0.26937997;0.18571077;0.11800821;0.05549606;-0.02335198;-0.011595498;0.016951948;-0.15758555;0.004160141;0.20480146;-0.029200615;-0.37386024;0.32707244;-0.048418593;0.010041797
-0.0084447665;0.20041;0.09183643;0.20996556;-0.19855218;-0.029791184;-0.05448359;-0.028437888;-0.1969882;0.030894896;0.020537263;0.058009174;0.042911988;-0.04961529;-0.13594751;0.009498884;-0.03512225;-0.6779672;0.03935067;0.17131943;-0.017017659;-0.47242075;-0.006735303;-0.019447932;0.053732503;-0.22922407;-0.18111573;0.19100183;-0.00038662853;0.053945996;0.06859977;-0.120613396;0.16756085;-0.013269435;0.035988197;-0.046677463;0.07347796;-0.11735774;-0.10164524;0.085348554;-0.042945366;0.0024229279;0.20008439;-0.07409377;0.032443512;0.019380258;-0.04576692;0.0023762337;0.011371586;-0.037865855;0.16953473;0.009351174;0.09004452;0.18442316;-0.085134365;0.00052362145;0.022070259;0.06473161;-0.13675894;0.05820586;0.030674297;0.31012955;-0.047546748;-0.026911855;-0.07070045;-0.42640918;-0.22450435;-0.10313666;-0.012583168;-0.010002752;0.086012475;0.26513433;0.12013809;-0.26024386;-0.015471159;0.13862136;-0.1813861;0.055332378;-0.1775847;-0.022664541;0.0532967;-0.0021855123;0.02016344;0.20885478;0.057248786;0.030000823;0.008500378;-0.016102336;0.03939099;0.034564633;-0.14917527;0.08852153;0.00856124;0.025419693;-0.007386734;0.42306998;-0.055385053;-0.055437267;-0.13244249;0.011020378;-0.03999545;0.07420435;-0.050467957;0.053364873;-0.048960213;0.029561175;0.11233664;0.047681034;0.0138033135;-0.059378114;-0.07084875;-0.28595272;0.16812931;-0.22872736;0.033249397;-0.12075487;0.3711515;0.09139156;-0.44864705;0.15249301;-0.0779479;0.02638776;0.037459224;0.10794824;0.089208536;0.08572686;-0.05098344;0.16551627;0.14390391;-0.029647231;-0.16871428;0.04995271;0.038694635;-0.17270699;-0.019458756;-0.10679834;0.120159134;0.115330264;-0.1770481;-0.0032188713;0.03010922;0.04431124;0.4318036;-0.10371421;0.100877486;0.02699968;0.01870253;-0.04265802;-0.023035271;0.06936754;-0.028878098;0.1952806;-0.013313829;-0.03375594;-0.3026808;-0.04941301;-0.019673357;-0.2191022;0.03574932;-0.11166425;-0.27541003;-0.15663113;-0.12910895;0.07072453;0.13065264;0.054416426;-0.07121257;-0.00041046427;0.13149576;-0.032023806;-0.03089992;0.17597179;0.03234936;-0.0201213;0.026621057;-0.12480935;-0.3703496;0.0011779539;-0.0962637;-0.12109557;-0.26514643;-0.047343764;-0.18980238;-0.049711008;-0.012191783;0.047210306;0.047159187;0.054582216;-0.11302692;0.13669659;-0.104194805;0.14639784;-0.073254496;0.1505245;0.2180276;0.0911916;-0.03516957;-0.02583432;-0.105145946;-0.009512529;-0.17317145;0.06289878;-0.017771278;0.015251047;-0.28799278;0.017372852;-0.056464475;-0.00086536066;-0.03072155;-0.036766592;-0.15725291;0.16347691;0.0063641933;0.048954148;-0.14110097;0.08979074;-0.021695703;-0.12341826;-0.20052758;-0.018463142;-0.21962203;0.009517167;0.28827676;0.1546236;-0.011218039;-0.04965531;-0.116378345;0.03962197;0.04167098;0.15008134;0.030262485;-0.044980243;0.0048452206;0.023570774;-0.17766438;-0.06972109;-0.05421253;0.03699073;0.05827633;0.2033064;0.0016048551;0.16496533;0.11336868;-0.124999315;-0.008165055;0.012054013;0.03827596;-0.049630385;0.11509526;-0.012401562;0.259597;0.044259205;-0.44191754;0.098387405;0.023122607;0.17737322;-0.10362884;0.034922108;-0.058053743;-0.023940455;-0.08797831;0.18389864;-0.30174452;0.20443615;-0.03367613;-0.031465705;-0.051612757;-0.011094438;0.045164358;0.03409535;0.059210178;0.15021747;0.04025395;0.06531977;-0.04526015;0.030621367;0.0042788466;-0.062236298;-0.021491244;0.05879235;0.14218569;-0.07206837;0.042870965;-0.0044589564;0.012194475;0.078316756;-0.010815325;0.12393559;-0.03955445;-0.024681093;0.1412034;0.017487176;0.06840064;0.15578008;-0.06478066;-0.14614849;0.18932867;0.11300085;0.033442337;-0.060520463;-0.28215566;-0.03575796;-0.019979022;0.044414748;0.1458861;-0.50822264;0.31900457;-0.03664949;-0.05505561;-0.005055482;0.07169546;0.06803295;0.045839116;-0.03636393;0.1883008;-0.017057935;-0.14403482;-0.025673956;0.037077803;0.036983736;-0.15100835;-0.010408055;-0.30319846;0.032663822;0.008752819;0.09542435;-0.03321797;-0.33541992;0.03276287;0.056755017;0.060320582;0.03655966;0.0509111;-0.018751549;-0.06519371;0.011736499;0.022838151;0.0647988;-0.4482874;0.23705903;0.018450243;0.02608962;-0.04017788;-0.032963995;0.25113162;-0.022857932;-0.06801408;-0.0067966757;-0.1632586;-0.27347475;-0.04655073;0.124845326;-0.085806385;0.029154306;-0.004753165;0.07507483;0.13382292;0.02456407;-0.072761126;-0.25417835;-0.059749544;0.031266477;-0.08035187;0.08684873;-0.11821086;0.14339115;-0.024200384;-0.14702821;0.17071415;0.0028721155;0.09691051;0.035513386;-0.03628688;0.04744868;-0.052780543;0.04467914;0.014181463;-0.018896367;-0.05443801;0.0011904358;0.019643774;0.12190512;-0.008397558;0.03705528;-0.010223888;0.043932404;-0.10605791;0.08194573;-0.17928909;0.0049794014;0.010014954;0.28222626;-0.055738166;-0.0076268404;0.019789396;0.028321762;0.0063335346;-0.090138234;0.10752447;0.09769044;0.011605879;0.007967306;-0.16647099;-0.008283333;0.13217591;0.19568355;-0.10430619;0.031379055;-0.08761954;-0.034469996;-0.044746693;0.06374537;0.11781258;-0.0049744467;-0.20981643;0.2294116;0.049051326;0.0111332815;0.033165596;0.0050951666;0.38712043;0.08673096;0.22690152;0.1436695;0.11060271;-0.02423526;-0.05366742;-0.072084084;-0.04815436;0.029793266;0.04357592;-0.10133219;0.085637175;0.034635115;-0.019542817;-0.11952051;-0.1888473;0.23330392;0.22664747;-8.759582e-05;0.014050005;-0.3054528;0.010219552;-0.083398744;0.20147307;0.2492432;0.059084978;0.027508454;0.026405657;-0.27692822;-0.090824544;0.037552755;-0.15058976;0.055039503;0.005665656;-0.24630801;-0.00020107169;0.109559484;0.12018315;0.02593297;0.0034485692;0.06849345;0.072255015;-0.16527179;0.18373576;-0.34125227;0.07339509;-0.21148874;0.21849425;-0.19139548;0.10821428;-0.13795483;0.05014896;-0.14904094;-0.2754608;0.005333919;0.030646594;-0.024870686;0.00045423454;0.05100038;0.10072252;0.18446314;0.04081101;0.2748271;-0.0147546;-0.061648443;-0.1871089;-0.057777293;0.02383533;0.022727309;0.027090391;0.46274075;0.06796425;0.19766325;0.29876137;-0.02428756;0.07928063;-0.030337738;-0.19720332;0.039893284;-0.12148268;-0.019034112;0.03557814;0.01670017;0.089241475;0.055441402;0.17501725;0.008969982;0.3145428;0.22427309;0.19030435;-0.13428295;-0.06759944;0.004644276;-0.3384495;-0.23442726;0.022818128;-0.15223937;-0.0074920333;0.050710265;0.18032832;-0.003779092;-0.02060812;-0.1152355;-0.015564036;0.09080729;-0.030096643;0.047402702;0.09319649;0.017546892;0.014373919;-0.16610792;-0.14947835;-0.040251173;-0.14808333;-0.038279593;-0.2291737;-0.16128647;-0.00032031504;-0.054915328;-0.14390245;-0.06706584;-0.024990708;-0.25137544;-0.032567617;0.010620598;0.04235975;0.08002425;-0.039787065;-0.008795447;-0.1254738;0.050238755;-0.005593623;-0.09551014;0.012332982;-0.070398815;0.12303829;0.0004325423;0.05621645;0.022180347;-0.14827572;-0.18774816;0.18631877;0.27532345;0.037261225;-0.08663693;-0.023342539;-0.09626316;-0.13254924;-0.020607188;0.13398995;0.020459203;-0.4735241;0.16818589;-0.099567175;0.16714154
0.02234805;0.012865475;0.11820699;0.29554406;-0.21611823;0.0011981674;-0.16847037;-0.003994956;-0.08899245;-0.024948234;-0.0637385;0.014374014;0.025463054;-0.045155253;-0.099796325;-0.009507689;0.030441783;-0.57119966;0.060068406;0.113095105;-0.17061077;-0.4235264;0.032101996;-0.021957114;-0.07363489;-0.15237784;-0.2782139;0.0035993543;-0.028512517;0.004388606;-0.017467543;0.02545396;0.089961566;-0.026735323;-0.019914245;-0.077462;-0.009094627;-0.28529087;0.0075274236;-0.10996376;-0.046158645;-0.0010283838;0.2736908;0.0014373627;0.0033257632;0.008114861;0.031596657;0.05532197;-0.048577297;0.088239275;0.15948243;0.04300367;0.080916524;0.124977015;0.003445385;0.0077325297;0.0037839564;-0.04858792;0.010260495;-0.026040241;-0.04241159;0.23296313;-0.03294431;0.001362087;-0.030750474;-0.17427398;-0.18741868;-0.017143635;-0.06094084;-0.11433454;-0.05335283;0.19561543;0.20695262;-0.23293452;-0.023507334;0.15823242;0.14569056;-0.019345915;-0.2744735;0.011596703;-0.01066858;0.051236108;0.06642657;0.1786724;-0.0595807;-0.15525682;0.089364715;0.008927927;0.0067333053;0.029752826;-0.09557935;0.12406437;0.019763077;0.05687529;0.009679435;0.28325537;-0.0035031505;-0.031750508;-0.12735346;-0.0025879298;-0.11824047;-0.021478355;-0.031156568;0.14337698;-0.09042258;-0.012670503;0.1975273;-0.033300593;0.032545783;0.0048478283;-0.036054354;-0.24180867;0.13222769;-0.2489332;0.010835221;0.024050616;0.3369642;0.23001416;-0.40081325;0.16684449;0.07283229;0.03539017;0.045802988;0.15527897;0.070386015;0.10937803;-0.01145236;0.09839182;0.17103761;0.033759143;-0.12003691;-0.0006136521;0.0396027;-0.27795953;0.06024687;-0.123508915;0.16370352;0.081209615;-0.06279091;-0.2150147;-0.0919208;-0.04149473;0.3249704;-0.15566708;-0.025831006;-0.0036731916;0.036370277;0.13732739;0.06824585;0.043640476;0.105448134;0.22311065;-0.022362594;0.030316286;-0.18935162;-0.18978672;0.050090656;-0.16052747;-0.047559842;0.023502665;-0.32670972;-0.12949064;-0.062361382;0.110152416;-0.002735918;-0.06684189;-0.019158728;0.074721105;0.122340605;0.02560386;0.040483717;0.22521207;-0.02199457;-0.014603212;-0.047606725;-0.07297427;-0.27099642;-0.039330386;-0.10214845;-0.23958641;-0.226276;-0.015580396;-0.05991428;-0.033099927;0.068942256;0.10911186;-0.020017002;0.19131777;-0.092022225;0.18861279;-0.039355233;0.15696174;-0.13983351;0.18405;0.16014127;0.18804811;0.041772686;-0.110119924;-0.044673014;-0.096704446;-0.0924304;0.010704046;-0.053255;-0.034366682;-0.29046702;-0.09039897;0.035402898;0.02151709;-0.08470441;0.021956246;-0.06672926;0.093232244;0.012376767;0.0338636;-0.22168794;0.1346532;0.12329527;0.03411998;-0.32138708;-0.09876409;-0.21493435;0.23847678;0.23966573;0.0965543;0.0141323935;-0.01971207;-0.13661882;-0.028278334;-0.017612727;0.1597644;0.055160392;-0.049174726;-0.03726692;-0.0343993;-0.027177025;-0.11794192;0.03146572;-0.021619042;0.06268115;0.3012588;0.09662836;0.17446442;0.1769909;-0.08752924;0.031173285;-0.04959217;0.026627805;-0.116304785;0.17583995;0.06048265;0.24861644;-0.03834167;-0.25924152;0.1243732;0.018143062;0.1329639;-0.032997124;-0.062022943;-0.111574955;0.0721558;0.041239813;0.024781117;-0.11779779;0.16037317;0.04828301;0.030598931;-0.006226668;0.084260054;0.23245831;-0.010530943;0.0037269292;0.13842171;0.015820846;0.1762072;-0.029671082;0.14328286;0.1958103;0.032005306;0.12259469;0.0037480216;0.16725747;-0.12354419;0.13400516;-0.008035642;0.011950508;-0.039639074;0.047044344;0.10463888;-0.11952463;0.04020302;0.064996555;0.006419911;0.28057435;0.021263732;0.065582044;-0.06277202;0.1483709;0.10615897;-0.061939143;-0.17745192;-0.13321365;-0.04466633;-0.04094661;-0.020310242;0.097896025;-0.44647822;0.10585663;0.028597264;-0.06321178;0.054609213;-0.065152295;0.11118061;0.054393124;0.096466206;0.36868212;0.031703778;-0.16701023;0.03614025;-0.04662099;0.10648131;-0.09567817;-0.059049852;-0.31404775;0.16434067;-0.054853193;0.23470022;0.026165346;-0.38155282;0.053444445;0.14279196;-0.11409448;-0.04665015;-0.008948316;-0.025580548;0.062061124;0.025596071;-0.11851918;0.062828235;-0.37847903;0.3372269;0.021854162;-0.07776781;-0.11366615;-0.036099922;0.27680725;-0.0104947975;0.02904678;-0.028604368;-0.09913763;-0.22315784;-0.24884196;0.15768847;-0.14576022;-0.0051089423;-0.06110956;0.030554624;0.20553926;0.016099788;-0.06397536;-0.1917723;-0.020502942;0.10100501;0.04682166;0.006450969;-0.13949876;0.1434614;-0.015493771;-0.11377235;0.10403481;-0.07981811;0.032745693;-0.07084411;-0.019618817;-0.0054347995;0.03639953;-0.06453326;-0.018838562;-0.02417497;0.04148086;0.013040969;0.024521176;0.04755654;-0.012645067;-0.07990576;-0.034578174;0.0008843024;-0.20906392;-0.06349466;-0.14976868;-0.13343324;-0.030088864;0.25118417;-0.08535559;-0.0406476;0.110901445;-0.009814817;-0.04570672;-0.24786377;0.0044534835;0.004933142;0.028873635;0.039793365;-0.1860473;0.008802589;0.044253904;0.21794496;-0.13633513;-0.004630973;-0.03090343;0.036737215;0.05137847;-0.027027197;0.059410006;0.036520306;-0.1500395;0.14164929;0.076681204;-0.032936968;-0.03998973;-0.040134296;0.2380845;0.13620847;0.018397612;0.08324663;0.14973986;-0.013323959;0.029983014;0.030343637;0.10940414;0.02385003;0.03228505;-0.105207935;-0.028119296;0.010881936;0.010905681;-0.07992367;-0.24912824;0.025275722;0.31691232;0.0050582057;0.019826384;-0.16452444;0.02834036;-0.00071768;0.3328926;0.12906034;-0.049523793;-0.08593134;0.016188556;-0.10354022;-0.21237272;-0.0007644707;-0.0092677865;-0.0984606;0.04088696;-0.37794447;-0.04936158;0.11783258;0.119848;0.0680384;0.050615262;0.042965546;0.050204653;-0.09619016;0.04621327;-0.35872206;-0.06568672;-0.09947695;0.14844054;-0.20158616;0.22863622;-0.13999708;0.011693854;-0.14124939;-0.14187923;-0.0037811603;-0.049292374;0.013704055;-0.03957965;-0.025252854;0.25247422;0.22232574;-0.1062708;0.23574184;0.019154787;0.026425622;-0.15144278;0.09655901;0.041816268;-0.035452977;-0.03451443;0.30712897;0.054400478;0.21674646;0.27552825;0.03981653;0.08006908;-0.040386397;-0.15185528;-0.10221078;0.019304719;0.02543143;0.0025837764;0.03783125;0.2195983;-0.008673379;0.25393564;-0.023885867;0.22123024;0.22182544;0.17359568;-0.12061773;-0.033478092;-0.07146763;-0.3727221;-0.36279657;-0.024796274;-0.19155057;0.021645866;0.16114266;0.17267632;0.01565598;-0.026315197;-0.082480624;0.04472283;0.03843245;0.09820617;0.006003924;0.059912752;0.0028536594;0.053201765;-0.20538493;-0.12224809;0.06198276;-0.108645625;0.034372874;-0.30170026;-0.180751;-0.008790231;0.04567038;-0.1307527;-0.24565275;-0.050496373;-0.15075462;0.0023709496;0.00892622;-0.11939974;-0.049460605;-0.03929456;-0.037855912;-0.13179937;0.0065229433;-0.047231637;-0.052226797;-0.030538654;-0.03414239;0.23776372;-0.15978971;0.047322106;0.016746243;-0.24349448;-0.16391069;0.095434956;0.30547822;-0.059421632;-0.07829769;-0.034274127;0.004022519;-0.086718865;-0.030610494;0.1860911;0.024492797;-0.49552798;0.1413012;-0.0035805425;0.015073847
0.15650617;-0.025301615;0.084425084;0.24993025;-0.30621657;0.02637265;-0.20964664;0.023996688;0.062461156;-0.017719174;-0.12317806;-0.11279939;-0.025916588;-0.0062739113;0.0884912;0.013838762;-0.0007180261;-0.5788317;-0.02460761;0.043738816;-0.17008278;-0.24624613;0.057469834;-0.080041535;-0.15747888;-0.2478952;-0.22270544;-0.13466796;0.011689113;0.020080559;-0.0023090742;-0.013367667;0.08330944;0.07706559;0.06203601;0.017020382;0.03933949;-0.35465857;-0.0052369284;-0.11345197;0.017112646;-0.036142197;0.28697857;0.057860453;0.019640883;0.08021678;0.044689693;0.0400681;0.053492896;0.009479221;0.046125576;-0.08530983;-0.01766131;-0.06638028;0.037813697;0.009668199;-0.110520884;0.038520463;0.10058672;0.06573105;0.021316368;0.21036178;0.046625;0.10680894;0.027855115;-0.2041791;-0.16548884;-0.059695527;0.08440336;-0.07331225;-0.06061397;0.20443432;0.26453236;-0.24214225;0.106975876;0.2400412;0.20052405;-0.030755559;-0.24652949;-0.016981738;-0.029575696;-0.030354004;0.017156366;0.26694265;-0.06327218;-0.12465128;0.002660593;0.009662556;0.03576598;-0.034056798;-0.23681289;-0.12324372;-0.033368737;-0.026821828;-0.016926194;0.29550725;0.021993756;0.03683995;-0.19421381;0.013442674;-0.1447795;-0.017944893;0.026673872;0.08658409;-0.0871113;0.051945847;0.029353779;0.027718568;0.012434149;0.027872782;-0.022019094;-0.2861992;0.11002931;-0.28593948;-0.043755807;0.14763069;0.21812037;0.1109784;-0.41389117;0.12225629;0.058556166;0.0054415604;0.12683749;0.004126366;0.1665766;0.026441615;0.07653617;0.24468671;-0.04231025;-0.02793772;-0.105454855;-0.014861521;-0.054336954;-0.25930557;-0.032834318;-0.018913925;0.07895426;0.1864524;-0.18438378;-0.06404115;-0.077428356;0.028064042;0.24983074;-0.054411486;0.050070323;0.03959672;-0.06644132;0.08935779;0.008416679;0.11125781;0.09572949;0.1207814;0.06415682;-0.051631127;-0.10286903;-0.265168;-0.033640638;-0.033875987;0.04148558;0.103688516;-0.23246142;-0.075218566;-0.030577201;0.012527665;0.117701314;-0.006668522;-0.07309362;0.09366762;0.09312604;-0.05135689;-0.052523363;0.055398077;-0.045781557;-0.061407942;0.023237353;0.001348026;-0.2585156;0.028331196;-0.0926752;-0.1991838;-0.24913625;0.04333874;-0.30843216;-0.07850496;-0.048002314;0.17055705;-0.069466084;0.20757177;-0.10697898;0.088431515;0.050047316;0.03267504;-0.08725588;0.18002598;0.17624313;-0.013264395;0.015831955;-0.038159132;-0.061224513;-0.14752567;-0.09919118;-0.0008148615;-0.012204852;-0.016025957;-0.31504267;0.024553185;0.00017651363;-0.10848505;0.10140516;0.024496889;-0.13333713;0.20064315;-0.02046141;-0.027652815;-0.084031746;-0.003079269;0.09691773;0.071560055;-0.3425042;-0.027543172;-0.055615403;0.08946933;0.09456666;0.043232594;0.041585464;-0.0036641334;-0.013626734;0.011861807;0.035381023;0.0800264;0.0990178;-0.0074973437;-0.007806512;-0.03322147;0.052095708;-0.18863767;0.022651669;-0.040289696;-0.06341845;0.39401606;0.089398034;0.14639945;0.11693302;-0.054464374;-0.06362613;0.06461799;-0.18085718;-0.057058845;0.03664866;-0.041594934;0.10611854;0.019258572;-0.2884624;0.20095587;0.009229109;-0.018242227;-0.12150277;0.052279383;-0.044447884;0.17811453;0.17755607;0.032725364;-0.15330392;0.2226552;-0.039869275;0.04193662;0.04083308;0.020251242;0.11365618;-0.002007775;-0.01204005;0.15802844;-0.039495945;0.078913;0.023407184;0.073036164;0.18675862;0.013994296;-0.0040158946;-0.062931515;0.14597584;-0.08521075;0.10920122;-0.020897286;-0.059632324;-0.06746024;0.013497307;0.114589676;-0.1703792;0.02918743;0.0729698;-0.053833008;0.2072882;0.050103236;-0.016068263;0.039024916;0.117957965;0.14991617;-0.12443558;-0.25741753;-0.20261115;0.05748123;0.0202297;0.0054342984;0.17751077;-0.4709443;0.15842803;-0.057564627;-0.13877475;0.10293001;-0.0018442911;0.06287409;-0.058420945;0.021892536;0.42395654;0.0063047498;-0.2035647;0.014720773;0.025155842;0.07807338;-0.057492003;0.030593576;-0.3644097;0.104536496;0.029234737;0.08522528;0.028835043;-0.29876813;0.06311344;0.12511317;0.0017866412;0.060882572;-0.10246184;0.016012268;0.028903505;-0.016546598;-0.06762954;0.0054782727;-0.39533618;0.26470166;0.016041385;-0.09984228;0.051233828;0.01991703;0.2929798;-0.010380501;-0.03794617;-0.019644858;-0.1588742;-0.38623837;-0.13307078;0.13563174;-0.23196921;-0.2032159;-0.078910425;0.08487394;0.25176007;0.015803803;-0.1305811;-0.1814435;0.089846805;-0.0029469908;-0.031016514;0.11351119;-0.2519765;0.2152939;0.06178206;-0.005321136;0.12588832;-0.06389474;0.15827121;-0.057024024;0.030065458;-0.002381154;0.010524146;-0.038031153;0.018383646;-0.03598541;0.07077161;-0.10745174;-0.01838588;0.0043800077;-0.03258536;-0.029752417;0.022910737;0.009688781;-0.08163471;0.04439254;-0.264749;-0.122159936;0.005254969;0.23095791;-0.1946888;-0.02253267;-0.018926479;-0.09650169;0.033503566;-0.1794365;0.035238717;-0.051014327;0.18974961;-0.0074100737;-0.07277282;-0.006038817;-0.0028938884;0.06198404;0.001192093;0.08902014;-0.049168285;-0.008963413;0.051321197;-0.035370793;0.14826684;-0.016459195;-0.14298065;0.26262316;0.07585618;0.030882696;0.022045095;0.042478915;0.1377849;0.042693812;0.008615389;0.070692435;0.12474705;0.007146881;-0.045131866;-0.05817496;0.10352858;-0.054183383;-0.07376833;-0.120290115;0.08610379;0.052499257;0.020549964;0.012102142;-0.24901511;0.036083743;0.23401074;-0.020187736;-0.0017728071;-0.23920505;-0.041980762;-0.08541808;0.19071448;0.101383105;-0.04228286;-0.14979893;-0.015818754;0.058159;-0.122041985;-0.059130177;-0.25524935;-0.10359727;0.015396907;-0.25953564;-0.04391172;0.23538855;-0.0075120996;-0.019046713;-0.018880002;-0.052875485;0.050061632;-0.04234139;0.23195928;-0.4091463;-0.059934612;-0.20004089;0.019395804;-0.12063877;0.18160085;0.06905436;0.017720254;-0.046624877;-0.20665048;0.02886839;-0.0051549016;-0.0716278;0.031685244;-0.005816967;0.2986021;0.17993663;-0.1744374;0.21914226;-0.07110249;-0.013375008;-0.28852558;0.13045047;-0.03598129;0.056668643;-0.0750839;0.2014186;-0.08066004;0.19208395;0.42120573;-0.038411934;0.3165206;0.04464446;-0.13886152;-0.039910447;-0.08581254;0.015802084;0.021334825;0.019682901;0.18081133;-0.026973017;0.20206524;0.034170996;0.21028756;0.22207086;0.22320424;-0.17430596;-0.026290942;-0.06947636;-0.48335773;-0.46045047;-0.032856576;-0.29115024;-0.026432209;-0.028362095;0.09242268;-0.0026682923;0.0041553215;0.0150031345;0.013671776;-0.045634665;-0.046016507;0.0077920235;0.0987606;0.0054128035;-0.070606835;-0.20937951;-0.21325967;-0.012540966;0.06448561;0.0031918262;-0.41482982;-0.26481465;-0.012727662;-0.006246764;-0.044822276;-0.2287213;0.04949988;-0.069591604;0.07365485;0.032554172;-0.21700208;-0.040757254;-0.008428304;0.023576465;-0.16448537;-0.021131255;0.03488749;-0.04503814;-0.04093402;0.022835305;0.09784909;-0.10171552;-0.036636293;0.0054019997;-0.34503418;-0.016629955;0.2232251;0.17672005;0.057454217;-0.07535035;0.029910007;0.04812836;-0.026481021;-0.03186409;0.28299117;-0.016614342;-0.43260205;0.011557624;0.015425924;0.102151394
0.10171834;0.036895227;0.14861752;0.3678945;-0.24965745;0.052284684;-0.02176782;-0.03228967;0.06416935;0.015713701;-0.013857101;0.00730507;0.023627646;0.055478252;-0.084780864;0.06537054;0.052672643;-0.42807257;-0.017082497;0.06944538;-0.05117226;-0.21022575;0.044900674;-0.011045785;-0.2003046;-0.25654933;-0.12767057;0.16208696;0.023044819;0.012019645;0.009664102;-0.028989904;0.0056418413;-0.052993227;-0.013898081;0.15069796;-0.004831484;-0.2976036;-0.09286108;-0.093396224;-0.114447966;0.01590502;0.2511814;0.090796985;0.10965758;-0.042954184;-0.005903558;0.043621626;0.012300446;-0.047863692;-0.06815168;-0.022369958;0.036394514;0.02026144;-0.033479914;-0.023615563;-0.15412426;-0.07392133;0.13806942;0.16947666;0.061402738;0.10277621;0.043380763;-0.09148028;0.044206653;-0.089188986;0.0036185014;-0.0949268;-0.026457543;0.07009197;0.006384769;0.12648313;0.19500168;-0.19792756;0.080001585;0.23302521;0.0761055;-0.24415639;-0.2742474;-0.017860185;0.045658465;0.0050994186;0.049278583;0.08613613;0.054603644;-0.17492495;-0.10099048;0.011471215;-0.010494295;-0.03527822;-0.13726133;-0.19229054;0.07641858;-0.05422209;0.03735521;0.038370438;0.053211;0.044285987;-0.16142036;-0.033054177;-0.055734895;-0.060909133;0.027754083;0.17720033;-0.028787028;-0.03115656;0.09386249;-0.061452232;0.011344174;0.0020690255;-0.004030533;-0.26259595;0.06628471;-0.26775175;0.018164746;0.03535894;0.12845647;0.17995165;-0.35151616;0.016828746;0.014868149;-0.0022308829;0.13762212;-0.024183718;0.040401835;-0.06223224;0.13319717;0.2004567;0.039293956;-0.023391528;-0.12734738;0.05176488;0.012686244;-0.3357109;-0.030990742;-0.11883635;0.30212817;0.16236624;-0.07657994;-0.11011629;-0.03916381;0.01627875;0.24058631;-0.055484716;-0.08092779;-0.0684638;0.005379583;-0.049677063;-0.016070798;0.12916166;0.02240694;0.17323036;-0.04651928;0.078086846;-0.20817167;-0.23838088;0.010061041;-0.07943532;-0.064147554;-0.044244144;-0.2060388;-0.23526226;0.08745657;0.0071528233;0.2731329;0.01459914;0.03751393;0.17274791;-0.037585873;0.076976255;-9.000483e-05;0.039737042;0.0203136;-0.025163129;0.018893175;-0.08172328;-0.23018232;0.045090612;-0.12443246;-0.2082998;-0.37895492;0.20995443;-0.3058711;0.07808073;-0.009229701;0.05005867;0.044188146;0.050837636;-0.058284715;0.20958264;0.039834425;-0.002703218;-0.25634527;0.21595795;0.24794579;0.044504616;-0.024982534;0.2445804;-0.044253998;0.11743433;-0.18875067;-0.056045048;0.049940046;-0.008307872;-0.2065279;0.1713072;0.0078537045;0.004097551;0.042409245;-0.019470667;-0.12844314;-0.0048939087;-0.0043305126;-0.0036094221;-0.08725392;0.026264938;0.07480021;0.09591136;-0.23703367;-0.14573523;-0.03606066;0.1507797;0.06560205;-0.02471202;-0.047007333;-0.021903146;-0.009214959;-0.021126779;-0.0063240537;0.12295392;0.05454637;-0.020119121;0.026566507;0.024110062;-0.07763776;-0.24481787;-0.01867488;0.010968854;-0.047768593;0.2581935;0.059882194;0.17699146;0.07410917;0.16842887;0.014612109;-0.06856974;-0.214488;-0.11179781;0.031287603;-0.0007408107;0.05873035;0.05268932;-0.05864974;0.20143655;-0.014237377;0.19784266;-0.027942123;-0.0053350455;-0.11966684;0.18738082;0.17198339;-0.07596508;-0.05648664;0.23136719;0.01309745;0.015456319;-0.0014627522;-0.049171798;-0.045948513;-0.003977621;0.009492346;0.036238115;0.06212323;-0.05638496;0.004719745;-0.06525198;0.21314871;-0.052562766;-0.015449944;0.07271779;0.22718428;-0.11899148;0.14522085;0.0016273975;0.055324376;-0.111972444;-0.073647834;0.16219606;-0.13266674;-0.033031475;-0.1713228;0.07511933;0.17366333;0.017558297;0.031200713;-0.021228066;-0.028203249;0.15192306;0.042039994;-0.13659368;-0.22190258;-0.0115468055;0.035737365;-0.04985987;0.10780162;-0.3687209;-0.020463431;0.060195353;-0.22621173;0.25759724;-0.11854006;0.06024408;0.035148688;-0.0009491091;0.5687063;0.0143276965;-0.16693357;-0.06690857;-0.055693384;0.020728765;-0.10378254;0.075077675;-0.373532;0.19103767;-0.033251025;-0.09791042;-0.02982853;-0.27486295;0.035468966;0.09275803;-0.11038652;0.0127576785;-0.042004418;0.15630929;0.14977293;0.06170543;0.05213173;-0.0151154725;-0.4029509;0.083944984;-0.058082215;-0.06520098;-0.032618616;0.11907475;0.17800002;0.029339131;0.04636226;0.025945703;-0.11745086;-0.31794074;-0.015575045;0.038685564;-0.13650846;-0.10285647;-0.10586738;0.055967413;0.13441813;-0.031299427;-0.029062536;-0.14230596;0.13446955;0.025998993;0.018216366;0.056854505;-0.38442996;0.23033938;-0.042103104;-0.044052973;0.20660785;0.08992633;0.2864022;0.010882832;-0.057024404;-0.03347746;0.009425637;-0.042243;-0.050615143;0.05647519;-0.016791703;0.009801367;-0.006495574;0.051217046;0.06747101;-0.03988084;0.0037833692;-0.04503909;-0.1537402;0.12633815;-0.14198713;-0.080167055;0.058983754;0.16065544;-0.23988642;0.00423271;-0.06190246;-0.010082602;-0.011489846;-0.17622857;0.20770128;-0.13232917;0.23301983;-0.0058023795;-0.062938906;0.0052156583;0.1011456;0.15017298;0.057281714;0.07252034;0.03953108;-0.03484665;-0.03917115;-0.025053201;0.0018829015;0.03726798;-0.008576661;0.22037874;0.099252954;0.029755833;-0.07601743;0.02927256;0.14421165;0.106574774;0.018359022;0.02829741;-0.042012997;0.036670502;0.08374436;-0.046527404;0.04372264;-0.11234004;-0.07529201;-0.13162607;0.11110268;-0.055081885;0.028113829;0.01229186;-0.10053104;0.0052805897;0.1394635;0.020346241;-0.042438988;-0.26300254;1.4966858e-05;0.038959257;-0.0046552173;-0.086222395;-0.0034214053;-0.1014814;-0.011613937;-0.10172195;-0.12719534;0.03709484;-0.17021693;-0.18990919;0.0037484558;-0.31348008;0.0381882;0.18680064;0.026450915;0.015881345;-0.0024057229;-0.059743628;-0.06939768;-0.03999665;0.16583878;-0.40066776;0.044129927;-0.33188513;0.0020485937;-0.2232195;0.082072765;0.15428676;-0.056273688;0.08304491;-0.08633103;0.0010568281;0.032516565;-0.17557004;0.0175872;-0.021473598;0.33222565;0.009579643;-0.32273993;0.1809363;0.012309913;0.06792727;-0.4293435;0.037978433;0.049406108;-0.030692056;-0.002551737;0.2798842;-0.103936896;0.23423204;0.4724191;0.027422976;0.23358436;-0.04847622;-0.10955509;-0.08759927;-0.052500404;0.025455846;-0.04841191;-0.038591277;0.14654711;0.011357385;0.0789664;-0.036732852;0.08013486;0.14413032;0.11208339;-0.006359295;0.03163127;-0.029563298;-0.4711171;-0.40595555;0.011581481;-0.26914507;-0.029201781;-0.21214727;-0.014287617;0.04446958;0.081679165;0.009885851;-0.057664797;-0.08337504;-0.028401341;-0.05620647;0.17967655;0.06279369;0.007602815;-0.17473052;-0.039699152;-0.060868647;-0.011243088;-0.06480097;-0.30422342;-0.24805015;0.0022864782;-0.08195849;-0.018236734;0.0046479176;0.028906632;-0.10941586;-0.048824813;0.0004445774;-0.21666645;0.057905994;0.10761714;-0.0036766136;-0.033596862;0.023504468;-0.008943261;-0.054895464;0.059475627;0.0070675723;0.22456546;-0.023981875;0.024964314;0.00665207;-0.45434183;0.065320976;0.11283321;0.2330674;-0.070173554;-0.015794689;0.011992513;-0.052341014;0.07845131;0.038790464;0.22538544;0.016828641;-0.13332932;0.06326194;0.09822463;0.10699798
-0.094449334;0.117988616;0.04680338;0.14068873;-0.23731717;-0.069938764;-0.19183716;0.005120188;-0.096781716;0.021535788;-0.055508185;-0.23854934;0.064779356;0.18685113;0.023249738;0.00092387444;-0.03268687;-0.38861617;-0.065207474;0.07235717;-0.08611408;-0.25794193;0.055545837;-0.1270469;-0.053491164;-0.22231077;-0.052154053;0.06591593;0.03506596;0.0036147037;0.07492888;0.019780522;-0.09557679;-0.037780896;-0.05151557;0.13278319;-0.00815797;-0.26531368;-0.093216196;-0.14592536;0.04233978;-0.022668028;0.2936859;0.22426568;0.013237485;-0.08300158;-0.02387197;0.070383556;-0.016887981;-0.10806376;0.0670798;0.043630715;-0.052608207;-0.09812852;0.03380586;-0.007796257;-0.10468089;0.043600984;-0.014989595;-0.011432439;-0.029244417;-0.052079447;-0.010540229;0.010939966;-0.008635896;0.008474282;0.0004415849;-0.09249471;-0.0038921523;-0.03257629;-0.051589075;0.037896328;0.1520906;-0.20695888;-0.0792596;0.2031516;0.2550204;-0.27319247;-0.041374926;-0.03142876;-0.028809957;-0.032589044;0.06173394;0.10257631;-0.08135433;-0.038135193;-0.0025185777;0.026361851;-0.02152121;-0.051058464;-0.11363712;-0.024743179;-0.041717388;0.037774093;-0.017098147;-0.0112520205;-0.007879264;0.02272271;-0.21133828;-0.00072069187;-0.18143423;0.0805865;0.021546775;0.13474;-0.030067807;-0.03514331;0.027579706;0.025380524;-0.02283821;-0.05163666;0.16514587;-0.14759277;0.1929946;-0.25898334;-0.01943723;0.21927497;0.083406165;0.2749598;-0.3836705;-0.020383226;-0.0009491097;0.027351271;0.09688248;-0.19168374;-0.04195671;0.08148796;-0.028963447;0.09837372;-0.04901933;0.00083271327;-0.333667;-0.027232766;-0.05997644;-0.15479954;0.016451325;-0.13927604;0.3012503;0.036513153;-0.017988987;-0.039826673;0.04824644;-0.030435668;0.15366451;-0.07574479;-0.115082696;0.05666228;0.009316433;0.04842079;0.011123516;0.21647061;-0.04979921;0.1384846;0.00048919587;-0.055528224;-0.21667822;-0.32738185;0.025067179;-0.07632321;-0.025949584;-0.0065032784;-0.11104555;-0.16168797;-0.009872647;-0.06273208;0.17660806;0.029217329;0.028105065;0.031848125;-0.08123066;0.010713056;-0.047803406;0.11324401;0.05819776;-0.018614812;-0.0014766018;0.02548525;-0.2951095;0.11550399;0.023191296;-0.08428615;-0.22652675;0.021299858;-0.23159908;0.09837926;-0.0048761484;0.0936759;0.0087592965;0.16656858;-0.044383403;0.19135635;0.14699724;-0.10064198;-0.1887394;0.20329729;0.33915842;0.15554237;-0.03568787;0.19474202;-0.072691984;-0.031932034;-0.20059767;0.049570713;-0.01161734;-0.010317727;-0.0860301;0.2299943;0.15208173;-0.061828896;0.07454181;0.050728973;0.028455788;0.11609071;0.016111782;-0.028826242;0.047659468;-0.072803296;-0.0015029642;0.07869737;-0.032087743;-0.1271012;0.031684786;0.23194884;0.1261182;0.05169042;0.019362168;-0.10179226;-0.016588327;0.04543233;-0.033825386;0.07088257;0.13855456;-0.037462454;-0.005910366;-0.0040758373;0.11805966;-0.14169814;-0.1432203;0.117893465;-0.0012800994;0.22728908;0.06694207;0.089718066;0.09437096;0.0719393;0.05708596;0.06970954;-0.06857603;-0.16510594;-0.0045351665;0.011077614;0.029721964;-0.061617274;0.093173884;0.026166862;-0.007819048;0.31901997;-0.024788924;0.014462822;0.021673562;0.22392893;0.24726656;-0.014650298;-0.17544295;0.2756598;-0.010575154;0.053207602;-0.04145769;-0.022463445;0.044064406;0.04928599;-0.03357381;0.10488002;0.051358804;0.113436975;0.000107014406;-0.086447015;0.23694605;0.0687097;0.07280711;-0.055012677;0.10687211;-0.030613387;0.18289915;-6.138623e-05;-0.040823933;-0.18938288;0.007548115;0.16419359;-0.012437105;0.038058877;-0.11375747;-0.033611327;0.181146;-0.041855674;-0.017271994;0.0635097;-0.1331177;0.13972503;0.123470366;-0.10958344;-0.20579697;-0.004785779;0.0118399365;-0.01731582;0.094699904;-0.39797336;0.05578465;0.01855496;-0.14538592;0.07302807;-0.052279916;-0.06992434;-0.05313894;0.06846991;0.38974652;0.11586503;-0.3174071;0.07248395;0.028661108;0.055793423;-0.010196969;-0.034841318;-0.4118044;0.14386392;0.014025339;-0.04610544;-0.045371175;-0.3852996;-0.016333587;0.14920516;-0.0875036;-0.007510594;-0.08355321;0.14037047;0.1949974;-0.019268414;-0.04492331;0.014744003;-0.2918712;0.17704813;0.06568868;0.059384733;0.08087462;0.18943943;0.17273627;-0.05583067;0.052364502;0.0036947886;-0.004022547;-0.21024714;-0.009662329;-0.00592626;-0.14191467;-0.10402905;0.018712448;0.122803405;0.10006223;0.06260377;0.019353213;-0.057228535;-0.005611197;-0.037918355;-0.010941523;-0.0896452;-0.38068902;0.2548234;-0.048716404;-0.14723012;0.002587047;0.06683931;0.23848142;0.015242996;0.02350537;0.10023067;-0.029695213;0.05660716;0.05515767;-0.011943887;-0.0017753511;-0.038034096;-0.018825753;0.05230499;-0.042687383;-0.17273259;0.014632125;0.03589666;-0.10095873;0.17134532;-0.08602581;-0.088373825;0.020318577;0.15109923;-0.123859584;0.061821528;-0.18055168;-0.17341663;0.016017826;-0.19833013;0.12590906;-0.09546383;0.17238012;0.0049145194;-0.12656479;-0.0048760655;0.015671015;0.0571644;0.010836447;0.013835612;-0.13452367;0.025286663;-0.035873856;0.0014940677;0.13918206;-0.002388908;0.048758868;0.14450407;0.061928432;-0.00055499753;-0.060347125;0.033694595;0.19171475;0.116090536;0.071977384;-0.20638548;0.029603915;-0.021083612;-0.021810181;0.018596247;0.11691388;0.026957206;-0.059230417;-0.13122095;0.27338114;-0.015743872;-0.060386837;-0.011150488;-0.019108633;0.024666399;0.14992574;-0.0034440467;0.0019177197;-0.41159174;-0.001462201;-0.0056570047;-0.042376164;-0.07779458;-0.0043055257;-0.15426838;-0.023988228;-0.09334794;-0.08126961;0.04433378;-0.25429487;-0.03847019;0.004885877;-0.3540085;0.05694875;0.25893837;0.052729312;-0.037645355;-0.03407669;0.055729058;-0.088959016;-0.05666769;0.3210699;-0.40637264;-0.0027463816;-0.4102437;-0.012380917;-0.069750436;0.047942176;0.14982864;0.024760902;-0.047216162;0.12599304;0.016579783;0.0073459735;-0.16573231;0.039092414;-0.062376715;0.36362043;-0.013719008;-0.1364403;0.22694497;-0.0949563;-0.07922746;-0.35251614;0.2708273;-0.025176762;0.005994006;0.039701153;0.09991659;0.0015980124;0.16672999;0.38339633;-0.01020471;0.35875827;0.025483955;-0.19035457;0.014221235;-0.033547554;-0.0675876;0.021780347;-0.022069024;0.10247999;-0.0066465237;0.11710758;-0.009564472;0.0687738;0.19662319;0.14709282;-0.08010067;0.05720546;0.025309553;-0.44321507;-0.22293565;0.053361416;-0.13040891;0.005796881;-0.327503;-0.0957965;-0.04395572;0.023315236;0.029105144;0.0036817547;-0.057293225;0.035482485;0.026153069;0.21389379;-0.05510533;-0.06520176;-0.12674621;-0.13930295;0.003672812;0.1404651;-0.013304514;-0.4369992;-0.20640905;-0.014573283;-0.1432117;-0.1167583;0.0914781;0.029236363;-0.20474258;-0.04238907;-0.042598575;-0.43512005;-0.034662634;-0.11019785;-0.03511048;0.001563208;-0.004468444;-0.016199045;-0.07553815;-0.05082981;-0.11109774;0.21921715;-0.237639;0.00046974406;-0.047476918;-0.60630697;-0.010697458;0.1567417;0.13409708;-0.045726236;-0.05857363;0.040794715;-0.1433676;0.10056361;0.07695887;0.31900293;0.049720477;-0.18131568;-0.055006985;0.029259022;0.20768017
-0.06227707;0.0039895857;-0.0015752242;0.1468791;-0.15534802;-0.024071114;-0.15416889;0.031615425;-0.16640313;0.0039844206;0.010286326;-0.14434634;-0.055028323;0.036308683;0.014856356;0.11296901;0.012223651;-0.36402783;0.04807799;0.21336304;-0.029145729;-0.26065943;-0.012944286;-0.061911322;-0.026332393;-0.2964467;-0.1123422;0.082015656;-0.025941059;-0.040328123;-0.027385667;-0.011896004;-0.046568178;0.045365542;0.033555526;0.03280531;0.037850812;-0.32252702;-0.14344302;-0.09863002;-0.10385004;-0.012054747;0.30440784;0.15228158;0.072282925;-0.121038355;-0.026779635;0.030651586;-0.064530075;-0.086622745;0.06549308;0.058462717;-0.05714881;-0.20487179;0.046045452;-0.03132773;-0.10983703;-0.022642845;0.10549286;0.06849894;-0.057710607;0.0029220295;-0.0025955623;-0.06794577;0.118167914;-0.053360518;0.09657395;-0.10049679;-0.013584787;0.23106486;0.122137316;0.029852154;0.07860736;-0.12450106;0.04745826;0.06771251;0.25359166;-0.26578993;0.018202135;0.004893935;-0.012097536;-0.010491032;0.07138645;0.19054973;0.006205438;0.0033172185;-0.054460037;-0.023399591;-0.045961272;0.012017506;0.022216761;-0.0757866;-0.06443594;0.07298243;-0.013069103;0.072128244;-0.036688063;0.044752467;-0.3393189;0.056517165;-0.09121551;0.013267694;-0.025089592;0.05716892;0.11226383;0.027686493;-0.18376924;0.0006613987;0.0079019265;0.03809722;-0.04648482;-0.21464814;0.024420382;-0.11969809;-0.0133914165;0.25702775;0.15786375;0.23324792;-0.4667522;-0.05874251;0.05390292;-0.053256124;0.16304828;-0.049466185;-0.183304;-0.007882442;0.07902114;0.10487364;0.002446369;0.043999605;-0.22094208;0.0698388;0.07049787;-0.00042324432;-0.0069368905;-0.13028002;0.26359466;-0.03666437;0.04599396;-0.06841353;-0.0076272637;-0.0040926985;0.15700571;0.16608897;-0.10047174;-0.03453411;-0.038964923;-0.18256956;-0.058958724;0.10043745;0.0060849623;0.19452588;-0.017450908;-0.036680304;-0.20916075;-0.16232368;-0.004721687;-0.22829984;-0.040822312;0.15227444;-0.15794846;-0.38769475;-0.045507472;-0.039560232;0.1453022;-0.052977324;-0.046854705;0.082016855;-0.049299464;-0.044024907;0.044342954;0.0045966925;-0.03695825;0.070131294;0.03852204;0.06522876;-0.1632061;-0.015090433;0.019137729;-0.1099182;-0.13414401;0.028705945;-0.080181114;0.103763424;0.024385842;0.076527834;-0.022122445;0.07506275;-0.07396767;0.11189582;0.22297724;-0.030961564;-0.17972949;0.21322168;0.2259805;0.11841659;0.020335792;0.3041754;-0.09417177;-0.034775387;-0.26846236;-0.027235132;-0.00238632;-0.011843064;0.061719146;0.080849625;0.026672816;0.07614358;-0.013593839;-0.019298336;-0.06591043;-0.0104909465;0.027685361;-0.0035891195;0.09391688;-0.07732766;-0.045972385;0.18161745;-0.014809007;-0.108960286;0.0015813956;0.17424642;-0.08339775;-0.21657024;0.051733747;0.008672578;-0.068879426;-0.044289913;-0.016156659;0.11657676;0.1289578;-0.07374295;0.022319173;0.047279585;0.05666336;0.04362108;-0.21438788;-0.055610087;-0.021945031;0.17494464;0.12237206;0.28590015;0.14518836;0.09569643;-0.018090134;0.04586483;-0.25443602;-0.13345353;0.1651845;0.023542173;-0.30769658;0.07173083;-0.021383092;0.062049527;0.009142133;0.2129937;-0.14458805;-0.013187346;-0.01990939;0.25081894;0.24894969;0.0201514;-0.24607366;0.18707423;0.058897555;0.016893698;0.032362163;-0.060919013;0.17597829;-0.00026680698;-0.06316414;-0.025020558;0.0914364;0.044490587;0.03767312;-0.09904965;-0.039601702;-0.0090806745;-0.07905828;-0.020605365;0.110823214;-0.093802;0.08862674;-0.05021974;0.066264465;-0.21962562;0.05801691;0.24675485;0.027998827;-0.03353219;-0.22189014;-0.013388416;0.14772159;-0.075700335;0.008677789;0.10909074;-0.14731531;0.19229074;-0.0026441321;-0.0009588831;-0.1329819;0.022923023;-0.06406422;0.010954107;0.17401172;-0.34412336;-0.027756056;-0.054674357;-0.25657868;0.06279224;0.026454154;-0.018977327;0.055547882;-0.07481205;0.39880157;0.05873075;-0.111879855;0.014013028;0.060344674;0.13449033;-0.12500186;-0.011007569;-0.35218534;0.24340978;0.03068655;-0.09608848;0.030801905;-0.23595315;-0.22932017;0.078333355;0.089601874;-0.06100142;-0.0494876;0.22855256;0.13953333;-0.0458211;0.12509401;-0.06763783;-0.20579372;0.04962448;-0.057518657;-0.0071800114;0.012507804;0.048768654;0.16483006;0.042266365;-0.08828829;0.017449668;0.0410505;-0.22512636;-0.086531594;0.023193568;-0.082810536;-0.17454113;-0.09853366;0.032529507;0.16033125;-0.034769833;0.22746669;0.008669267;0.008184739;0.042250875;0.031011917;-0.1496655;-0.38705507;0.24653646;-0.027540771;-0.18978842;0.12222129;0.24972832;0.28139904;-0.03191514;0.017541645;-0.042611226;-0.00033414108;-0.036386374;-0.038737345;-0.0145726185;-0.10159974;0.048374344;-0.010053175;0.0021292586;-0.038940344;-0.11428795;0.0066753044;-0.047293838;-0.04051849;0.19863772;-0.059522517;-0.27915674;-0.0055239564;0.07320904;-0.043952536;0.012471863;-0.18301557;-0.09750595;-0.00017887905;-0.011221491;0.19048578;-0.1780175;0.19605407;-0.057906363;-0.14750066;0.017771134;0.08274545;0.18664278;0.12930241;0.06518252;-0.0011681846;-0.01926587;0.0102630295;0.04488076;0.23497114;-0.042610083;0.10583817;0.15349126;0.029698886;-0.06172595;-0.03387603;-0.0867836;0.1439041;0.028269075;0.018746873;-0.05791377;-0.0217171;-0.049511604;-0.003638269;0.028301159;-0.016543;-0.1309932;0.16827498;-0.16748361;0.39937785;0.049951993;0.03734289;-0.06547185;0.053112227;0.0009463802;0.21888104;0.048900906;-0.027460145;-0.2654931;0.01985629;0.0732545;0.043127395;-0.19078948;0.05819616;-0.12362267;-0.007820116;-0.21719213;-0.21548872;-0.047462896;-0.21333909;-0.087751046;-0.049482763;-0.40381524;-0.05344297;0.09573231;-0.010756242;-0.025434703;0.04590098;0.026216153;-0.14193851;-0.0036402768;0.40753925;-0.32909468;0.019639298;-0.3236503;0.022092625;0.035078283;0.08569089;0.015662966;-0.05082486;0.017320309;0.10888109;0.021901773;-0.037425835;-0.24681808;0.18728642;0.06381578;0.20172286;0.027081648;-0.18476069;0.31260592;0.1788468;0.038025577;-0.42069468;0.15078571;-0.021530246;0.112642966;0.09895976;0.23779455;-0.04631982;0.27859592;0.37671655;0.041099153;0.17308731;0.0048357397;-0.33081555;0.0018225216;-0.13495821;0.033269785;-0.0039184974;0.08210481;0.21078882;-0.014413954;0.038860124;0.04314805;0.097894326;0.18294519;0.03438765;0.117174074;0.055590626;-0.014396242;-0.30992782;-0.2305956;-0.048599936;-0.15995824;0.015654422;-0.37421986;-0.105613545;0.033528723;-0.02752933;0.12237164;-0.038186185;-0.20291887;-0.018973207;-0.046281103;0.13056542;-0.032074757;-0.014982945;-0.20536546;-0.12398906;0.02794324;0.04527313;-0.09017332;-0.44486946;-0.16105907;0.06298203;-0.08763947;-0.06917566;0.2273828;0.013249901;-0.15295622;0.013165408;0.03713937;-0.22180144;0.045734536;-0.045318563;-0.034468982;0.10553279;-0.010582295;0.049825933;-0.07238914;-0.001167006;0.04450713;0.18553375;-0.050307475;-0.0013508212;-0.016847841;-0.5427205;0.15929666;0.16417757;0.27739936;0.058377333;-0.083214246;-0.046657834;-0.06435422;0.055364065;0.16266999;0.27242875;-0.054825123;-0.024063846;0.052175645;0.13563333;0.118198484
-0.067205496;0.056869708;0.09683466;0.18399045;-0.11950253;0.03477622;-0.10363081;0.0007968671;-0.09061581;-0.07094908;0.049860988;-0.049146943;-0.03570294;0.0714744;-0.0071284515;0.11497243;-0.05812508;-0.3631764;0.03362404;0.14055717;0.12451652;-0.084667794;0.090170525;-0.114307225;-0.016332917;-0.10411397;-0.111783676;0.13333362;-0.041607272;-0.019598888;0.06413866;0.06342337;-0.06597676;0.025976669;-0.050295163;0.107237555;0.07336008;-0.2646094;0.06822963;-0.07029738;0.08615956;0.016494596;0.16209583;0.12977614;-0.05681736;-0.005190816;0.041779928;-0.10147898;0.05332702;-0.09549559;0.0031070001;-0.06287959;-0.089140594;-0.16026933;-0.038483016;0.053367198;-0.12846929;0.0049735513;0.051658425;0.10057738;-0.057620507;-0.09932809;0.021721821;-0.07654639;0.015334213;0.03583329;-0.0007298433;-0.052324157;-0.01661112;0.17073387;0.15285163;0.005647992;0.16229579;-0.08459938;-0.012302785;0.15813453;0.34030715;-0.27572846;-0.009589187;0.05329496;0.0431234;0.0553231;0.014125187;0.09828188;-0.0541575;0.04599079;-0.09276512;-0.018814322;-0.016924249;-0.005873581;0.12498177;0.040909983;0.0021026465;-0.024844933;0.038932446;-0.035453696;-0.016136842;-0.041837662;-0.22765447;-0.066571385;-0.2273575;-0.03571844;0.025937699;0.19080117;-0.031452145;-0.03879192;-0.1033274;0.026563287;-0.012239338;0.040136967;-0.060996592;-0.23540992;-0.14636922;-0.11451609;0.06466071;0.25187176;0.18562154;0.2286014;-0.5073223;0.04810811;0.12193282;0.008922717;0.120425485;-0.084457114;-0.09192905;-0.08094529;-0.013603828;0.2363938;-0.11706533;-0.051451247;-0.17025617;-0.019457974;-0.057403352;0.041645557;-0.059100635;0.02077446;0.27651736;-0.08836083;0.03513826;-0.06521306;0.057715576;-0.04937009;0.18357208;0.15496783;-0.068086475;0.028962491;0.04030856;-0.13187565;0.06674038;0.2078589;0.0017901071;-0.05794853;-0.008079848;0.061923094;-0.05423895;-0.17161152;0.04217508;-0.20305805;0.10437857;0.09354327;0.011707521;-0.30402663;0.03114995;-0.061322715;0.10344504;0.04421015;0.016295671;0.06264302;-0.043577507;-0.024877202;0.04026219;-0.15737551;-0.030260885;-0.004722252;-0.03692986;0.10387366;-0.28017628;0.08515667;-0.108662404;-0.042356014;-0.1387315;0.021533078;0.09914653;0.28714466;-0.00061138073;0.059059992;0.04539778;0.1793082;-0.088270396;0.13754849;0.24427678;-0.0025439714;-0.18125531;0.06510564;0.2611056;0.11056095;0.033359613;0.39970055;-0.12666205;-0.28572005;-0.10339567;0.044225067;0.0041671298;0.00074794446;-0.0049875514;0.07912957;0.08724263;0.008976707;0.027394453;0.04373084;-0.10816551;0.1422477;0.02109315;0.013119676;-0.0062251734;-0.031772;-0.06804551;0.18149598;-0.031556677;-0.099756606;-0.093402155;0.100205645;-0.07489098;-0.1817015;-0.026577916;-0.053560365;-0.1265751;-0.028912527;0.042628426;-0.065473035;0.11047855;-0.046738803;-0.00033655044;0.0010758565;-0.008523512;-0.06098277;-0.08951977;0.11779157;0.055379912;0.2276126;0.1376343;0.21925756;0.083631076;0.09799902;-0.04898276;-0.08124919;-0.12246641;-0.06197412;0.027634641;-0.0022364338;-0.21697924;-0.012666413;0.1010369;0.022726826;-0.0045293504;0.23546503;-0.070427835;-0.021654949;-0.05235986;0.20682299;0.09036587;0.0035732922;-0.28893155;0.077752575;-0.004406611;0.027772227;0.016596533;-0.04555682;0.10312513;0.016270809;0.041819192;0.05083814;0.20144355;0.048086923;-0.051553536;-0.12864213;-0.028410105;-0.00022712104;-0.039079424;0.051339388;0.123462915;-0.103402965;0.18822755;-0.0824411;-0.0056189788;-0.100418575;-0.020168839;0.171245;-0.057228047;-0.043829937;-0.21975562;0.15002991;0.050018527;-0.0040812623;0.01476969;-0.032505788;-0.040722232;0.2957392;0.17237143;-0.15960653;-0.101727106;-0.003143483;0.037422553;0.04069402;0.1783467;-0.3030913;-0.018184032;0.064617194;-0.1607848;0.09199555;0.023896873;0.048908707;-0.06452039;0.0010234588;0.28229013;0.0013128447;-0.16621298;-0.04948968;-0.027666507;0.10075162;-0.055197086;0.0044990093;-0.38083455;0.2548537;-0.006084164;-0.086095825;-0.016463062;-0.3792877;0.06754994;-0.013562064;0.18890987;0.029941943;-0.111178294;0.19134806;0.14849952;-0.025389317;0.10481392;-0.099953;-0.22462367;0.051079493;0.020409165;0.112450495;0.07686871;0.17866303;0.03738791;0.010652923;-0.054820366;0.0040211603;-0.16872863;-0.19466007;-0.026172832;-0.0025804034;-0.044877827;-0.0034166814;-0.14611146;0.006437024;0.03603619;0.0037919912;0.24921218;0.14499436;0.07663203;0.0278343;-0.05497612;-0.09155404;-0.37336066;0.24333534;0.06682678;-0.1471853;0.185233;0.19056845;0.3472202;-0.1548407;0.0005377709;2.5085363e-05;-0.0321118;0.05751595;0.048112378;0.054871015;0.016112061;0.022171095;0.06351148;-0.0515395;0.042218253;-0.09268034;-0.049117398;0.01945033;-0.1009856;0.081691906;-0.008756753;-0.22815482;0.008367956;0.05600541;-0.10641492;-0.07307046;0.0072689513;0.018376304;-0.012261032;-0.06528817;0.15991645;-0.14613584;0.014468048;-0.033573356;-0.24633393;0.030414598;0.17543806;0.038973022;0.0690405;0.011862557;-0.038880028;-0.00048830255;-0.048454784;0.0074972776;0.15471826;0.03287047;0.07165464;-0.05045199;0.04338287;0.052879542;0.030877337;0.021347089;0.14604034;0.019478071;0.10478183;-0.17189823;0.007047648;0.06937176;-0.04422387;0.014816725;0.01645644;-0.14900015;0.21339162;-0.091016635;0.30114576;0.001973372;-0.0248298;0.029819828;-0.051944103;0.06931382;0.14034809;-0.00697243;0.014848529;-0.25651354;-0.0095166275;0.19985536;-0.0016801903;-0.1902938;0.025411043;-0.16906317;0.011546738;-0.37862492;-0.22540109;0.048020706;-0.2706962;-0.099200435;0.064034596;-0.15832947;0.023833985;0.02559747;-0.05491209;0.07739829;-0.03109095;-0.0006033418;-0.0074065323;-0.0789402;0.42924145;-0.36084792;0.035413943;-0.3848437;-0.06777485;0.019814355;0.0032720242;-0.018448446;0.06682829;0.024142966;0.21346757;-0.044483043;0.02471072;-0.2661976;0.18646482;0.05925602;0.18950884;0.05931987;-0.16171464;0.27450466;0.25739583;0.013093977;-0.30455732;0.21494061;0.0098254355;0.18641251;-0.010094661;0.15662757;-0.08293572;0.09125894;0.15499581;-0.037328683;0.15598953;0.021960812;-0.14876685;-0.023723615;-0.09898867;-0.018632585;0.015926614;-0.029573042;0.22265357;0.03743172;0.012365337;-0.029278422;0.053043157;0.2418157;0.142998;-0.03320275;-0.02593692;0.10628538;-0.32500428;-0.20849808;0.034521874;-0.18489252;-0.008818236;-0.2985504;-0.07568694;-0.033433184;-0.014052744;0.033844355;0.05502989;-0.097615436;0.008169383;0.061482094;0.14262982;-0.05717782;0.13197216;-0.1478409;-0.07925666;0.019803813;0.1344299;0.05288112;-0.27646044;-0.2232144;-0.05009327;-0.06495213;-0.13921474;0.07081075;-0.05510822;-0.20520611;0.03635478;-0.07319553;-0.2758289;-0.08888921;-0.1580801;0.08037687;0.16589254;0.012829089;-0.0644988;-0.02348706;0.0026899541;0.026783222;0.13343038;-0.11207599;-0.026169062;0.05580541;-0.47691303;0.1138881;0.15330856;0.18988185;0.03609296;-0.09776824;-0.01544005;0.011025183;0.10453604;0.07347742;0.29560935;-0.034404192;0.0982661;-0.06252378;0.081745215;-0.0084306635
-0.052626666;0.062883705;0.10549903;0.19997728;-0.08804496;0.03027433;-0.14240162;-0.006682532;-0.2591039;0.054723084;0.048506245;-0.021770438;0.0002459299;0.0400569;-0.10390856;0.0906545;0.024690688;-0.33799735;-0.030178118;-0.032875575;0.03077606;-0.12936388;-0.021602994;-0.10609082;0.06407249;-0.16385037;-0.0062577543;0.13139026;0.050081693;0.054208215;0.0058344705;0.051058248;0.008117654;-0.010141017;0.06955471;0.12562107;0.05036514;-0.22246072;0.07560192;-0.20098929;0.08819549;0.05212101;0.12583347;0.23997496;-0.12522148;-0.02395494;0.026960483;-0.07966028;0.01886827;-0.080098554;-0.07250908;-0.07260347;-0.18929738;-0.12095544;0.0033823089;0.019165168;-0.094525106;-0.00927133;-0.06290325;-0.0049949707;-0.007788853;-0.04657546;-0.046038873;-0.014196062;0.071056806;0.17515485;0.13144356;-0.15716912;0.051160585;-0.093112126;0.24175456;0.12083982;0.043209508;-0.10643531;-0.12436011;0.103984766;0.25657886;-0.34717897;0.186662;0.0056084227;-0.033676233;0.046120808;0.10189732;0.14305486;0.018953051;-0.046408564;-0.019862317;-0.0012144645;0.07419256;0.055266067;0.06258922;0.062027346;0.03545629;-0.023192946;-0.01763509;0.09881791;-0.026450846;-0.06673723;-0.22293009;0.024644008;-0.059141625;-0.018878419;-0.042406313;0.20486364;0.08320567;0.0363929;0.10102594;-0.04985165;-0.016909666;-0.02535976;-0.010662138;-0.25710404;-0.19804047;-0.06358558;-0.071448766;0.12743337;-0.0029824194;0.06834082;-0.45757616;0.0352525;0.15043686;0.021095999;0.11100344;-0.18088146;-0.17469211;-0.019506458;0.025304832;0.23289725;0.04973484;0.042050347;-0.010060775;0.03065306;0.008137936;-0.15037587;0.07193928;-0.08150915;0.13482516;-0.07012241;-0.0054589976;-0.017135194;0.095299;0.0056782053;0.27356154;0.079821736;-0.036968563;-0.07641188;0.07254164;-0.19109453;-0.070446074;0.43900034;0.037985045;-0.20833966;0.0060633295;-0.0021374205;0.04970764;-0.16450602;-0.066975735;-0.1092021;-0.04731859;0.0766394;0.17548181;-0.34824747;0.12923542;0.0482514;0.09527553;-0.0046417797;-0.027409159;0.09909123;0.036181565;0.004019235;0.033425186;-0.14742285;-0.033750754;0.06481904;-0.03646329;0.2281813;-0.24749191;0.020006396;-0.008715751;-0.043541886;-0.11146398;-0.027953234;0.08393895;0.26042306;-0.029351618;-0.024714101;0.009481969;0.19202307;-0.12888776;0.14917076;0.17478426;0.10806611;-0.23833668;0.1361211;0.3947763;-0.04170918;0.017689534;0.3827018;-0.23229621;-0.31353718;-0.1969951;-0.013955314;-0.014551136;0.0467888;0.003957045;0.02686324;-0.09450277;0.04624992;-0.081092544;-0.067167126;-0.023209529;0.18001373;-0.041617356;-0.0040218467;-0.08876817;0.059060108;-0.11307673;0.32833508;0.09628577;-0.0046327417;-0.14027251;0.40806198;-0.11519262;-0.15344192;-0.038395245;-0.11441449;0.038299963;0.0137895495;-0.0024436912;-0.14942603;0.032333292;0.041124523;-0.018410025;-0.07711772;0.2347742;-0.011001314;-0.10030603;0.12048185;-0.0010231505;0.11052821;-0.011427043;0.18812393;0.11053757;0.03361051;-0.018543573;-0.11498268;-0.24519011;-0.17095968;0.06323067;-0.06413983;-0.19293007;-0.065243274;0.07457971;0.15794012;0.059356764;0.25113332;-0.025921907;0.04686965;-0.035829015;0.10656817;0.13246152;0.065235704;-0.15887208;-0.017212935;-0.047295023;0.09172611;0.015870292;0.034611147;0.15905353;-0.06491026;0.05916174;0.06986032;0.12646163;0.100893356;0.037789468;0.021448804;-0.0077004055;-0.012255966;-0.21393117;-0.021820696;-0.006504818;-0.10028626;0.18236509;0.009861812;-0.030015236;-0.026697215;0.00891877;-0.008838249;-0.07238083;0.03724249;-0.31873447;0.13442181;0.14842916;-0.02540634;-0.041075557;-0.17941533;-0.101980336;0.17913337;0.13931572;-0.27782208;-0.08205898;0.012750825;0.014608532;3.1441577e-06;0.09058882;-0.2967429;0.034528237;-0.036431864;-0.21515854;0.0074205324;0.11581553;0.0966714;-0.0027112127;0.110256605;0.22169492;0.19623971;-0.15878995;0.04484037;-0.0042442265;0.098372;-0.14665872;0.011201168;-0.26961166;0.08368164;-0.0038033342;-0.12095748;0.044966776;-0.18650901;-0.14393815;0.06405309;0.1143372;0.02215517;-0.16344905;0.21520649;0.08463544;0.032071296;0.10478751;-0.10412199;-0.28619772;-0.018096799;0.0165991;0.2226527;0.078897275;0.100213595;-0.02518956;-0.018152123;0.07844077;-0.027519166;-0.20942876;-0.22590502;-0.047016405;-0.15510628;0.005781736;0.029310757;-0.04444961;0.061241597;0.09914179;-0.047002006;0.22149521;0.165388;0.10822039;0.033594836;0.012369172;0.004653033;-0.21744385;0.25033793;-0.0101986425;-0.2510507;0.12194343;0.032703746;0.31519085;-0.21553941;0.056031816;-0.044423297;0.018404998;0.018799685;-0.044867724;-0.015076152;0.0064185625;0.002442695;0.0052501904;-0.08917414;0.027031187;-0.07461535;0.090069465;-0.034960385;0.05236481;-0.04950263;-0.002051332;-0.27745658;-0.18798888;0.1285753;-0.13407639;0.013806399;0.019350551;0.04612736;-0.014027024;0.03782864;0.050999343;-0.12859645;-0.052045554;0.07286585;-0.15696138;-0.03859356;0.13291566;0.03369639;0.1260567;-0.045522448;-0.26981765;0.011163513;0.062105976;0.0038114195;0.21380968;-0.03535167;0.12096588;-0.10378651;-0.08164804;-0.06335978;0.083375834;0.032251056;0.19573644;0.06976448;-0.012324184;-0.21165974;0.068079986;-0.022656074;0.026819777;-0.04742953;0.060201533;-0.16934909;0.25159106;-0.11087878;0.20964175;-0.04159151;-0.009443402;-0.007831734;0.17091139;-0.118800744;0.1557002;-0.031200897;0.07924295;-0.15702167;0.003851819;0.29685962;0.052490335;-0.124699846;-0.03879955;-0.14372665;0.05490122;-0.35351235;-0.13467814;0.04093081;-0.41229862;-0.12855732;-0.026484158;-0.18764694;0.0014334023;0.05375125;0.058947854;-0.015371891;0.053413413;-0.042512093;0.051278763;-0.14362535;0.2463338;-0.16348797;-0.025088806;-0.35395667;-0.15719818;-0.00062953256;-0.01993569;0.022217652;0.0014553036;0.08476038;0.044233706;-0.06357995;-0.03788706;-0.05966517;0.21128774;-0.050622396;0.4195984;0.022271508;-0.13138345;0.2048649;0.16560139;-0.041710388;-0.36515626;0.032019448;-0.05334224;0.19557302;0.09559193;-0.06116674;0.086314656;-0.0047392105;0.13943484;0.004911377;0.17449594;-0.023322634;-0.050268397;0.008107798;-0.09642443;-0.038254242;-0.029413594;-0.0487384;0.19246933;0.0011811508;0.01757905;-0.015647411;0.059219982;0.19099596;0.21167316;0.10435969;0.12584586;-0.0053664343;-0.2627587;-0.15743712;-0.007881113;-0.111679465;0.00057366106;-0.104740955;-0.015592251;-0.027165608;-0.032752987;0.04680255;-0.052241575;0.029165868;-0.03935813;-0.01395532;0.026579656;0.034703076;-0.055506032;-0.09473262;-0.19066533;-0.043398343;0.13659944;-0.065580204;-0.3969503;-0.1371579;0.024648778;0.048000038;-0.0031034665;0.083534025;-0.039700698;-0.13345732;-0.05429305;0.057914224;-0.25392905;-0.034426402;-0.17314427;-0.057708554;0.19483395;-0.007703039;0.013377213;-0.16859214;0.019761372;-0.08788502;0.15631081;-0.08937789;-0.026117967;0.01590651;-0.27257493;0.014620686;0.17676699;0.25953898;-0.036341883;-0.11744617;0.049670182;-0.11323408;0.17605536;0.021470279;0.31007856;0.02602495;0.010294812;0.019813161;0.040714867;-0.00994115
0.14792354;0.09598542;0.26579022;0.17910849;-0.102611504;0.0290817;-0.16807863;-0.011231005;-0.118026875;-0.07696045;0.04594011;0.10521173;-0.015213621;-0.024614984;-0.13397695;0.013507762;-0.056435786;-0.25657135;-0.004237715;0.07801181;-0.03192881;-0.0012369616;-0.06981268;-0.072904415;-0.074366465;-0.16659856;-0.01521179;0.12910987;-0.004094684;-0.0051367963;0.11912578;0.107585914;0.10968508;-0.0069868416;-0.050103504;-0.048670925;-0.09568576;-0.11143333;-0.016708363;0.026791448;0.24555801;-0.043538075;0.09740434;0.1242196;0.02155733;0.046355553;0.01894933;0.0017638706;-0.027496913;-0.13523963;0.005849704;0.021041447;-0.12223208;-0.25536796;-0.0656043;-0.054982822;-0.016731888;0.030943606;-0.052594308;-0.07698146;-0.028464593;-0.08127569;0.041450303;-0.05508963;0.121510796;-0.07950234;0.17776647;-0.13980162;-0.081875354;-0.021414857;0.21857682;0.27555984;0.07177935;0.0042577237;0.0038278436;0.12429668;0.29219973;-0.3003518;0.02527403;0.010753293;-0.019419715;-0.051374506;-0.0011437479;0.07936804;0.0038251644;0.018166678;-0.090765014;-0.009102376;-0.023105895;0.13692683;0.15805969;0.05355268;0.029494938;0.02260922;-0.00752408;0.21485725;-0.010611296;0.046305705;-0.19453569;-0.0142516345;-0.083236285;0.018945057;-0.05171649;0.32676974;-0.081793524;-0.041504662;-0.13443214;0.0559464;0.035107233;-0.07937968;-0.10087005;-0.2020118;-0.09817255;-0.041696817;0.05067833;0.19598071;-0.13419093;0.13964634;-0.41210902;-0.03900227;0.26771677;-0.024639167;0.12555711;-0.034319926;-0.076187834;-0.14459097;-0.0011315598;0.32673907;0.008913743;-0.013643912;0.033352282;0.18754843;0.06526348;-0.17863785;0.018428847;0.050330225;0.008759763;-0.039578106;-0.10055399;-0.073214956;-0.06493823;0.03370828;0.2355735;0.07443317;-0.11835272;0.035594907;-0.055111747;-0.19624278;0.04082642;0.45278147;-0.037906185;-0.20179696;-0.07191567;0.04212802;-0.06296175;-0.007597759;0.013314221;-0.10811521;0.078159906;0.14076503;0.1105754;-0.36688238;0.16087754;0.15318348;0.13849182;-0.011969352;0.090051755;0.19909859;0.018388355;0.087071165;-0.024908042;-0.28001645;0.02833486;-0.0003341291;-0.02856113;0.33448023;-0.10179934;0.041278563;-0.22918017;-0.007348124;-0.17314196;0.23578012;-0.14130664;0.21434055;0.07481507;0.024518993;-0.069036946;0.0023218393;-0.22020371;0.22743985;0.101079725;0.10710572;-0.28834295;0.036863856;0.25653136;-0.024032936;-0.013110722;0.37302548;-0.31277874;-0.17771553;-0.12990792;-0.051984154;0.018637935;0.0569567;-0.13431798;0.11828877;-0.25739318;-0.09456762;-0.06852436;-0.030392539;0.05385427;0.21660222;-0.03383803;0.0324017;0.05392361;0.16850248;-0.1577866;0.40359277;0.034144815;-0.017687405;-0.10012455;0.32329234;-0.06016701;-0.18105172;-0.027376877;0.018422121;0.008298729;0.019100904;-0.070617124;0.012365424;-0.03583707;0.057661954;0.03609479;0.07306569;0.09902504;-0.18364823;-0.13926096;0.0032270644;-0.057447627;-0.065593176;-0.035936695;0.2222095;0.20025364;0.0784173;0.046555977;-0.14864369;-0.119359754;-0.10568869;0.11431545;0.04141073;-0.074262425;0.022574922;0.0113274;0.21027616;-0.03351858;0.28776243;-0.032908846;0.0024131914;-0.04642768;-0.06834533;0.028406769;0.22913961;-0.18408068;-0.102904946;-0.0016439613;-0.14146039;-0.06931168;0.024935674;0.16664639;-0.036163155;-0.0012003493;-0.06335596;0.17057686;-0.051611464;-0.0030061337;-0.033117183;-0.19802335;-0.014791074;-0.13888976;0.012719689;0.20459795;-0.16037484;0.23804438;0.0061202273;-0.05403942;-0.07838763;-0.044960387;-0.017230928;0.010789159;-0.044069327;-0.25449196;0.07108271;0.22011146;-0.20403343;-0.012323808;-0.11077879;-0.106203064;0.11060412;0.15670766;-0.18796518;0.06421389;-0.046311926;0.0005664751;0.017663505;0.26507986;-0.1338363;0.048610214;-0.041013192;-0.07138683;0.09341459;0.01540008;0.04149572;0.06994383;0.17624573;0.29265887;0.089994445;-0.08187056;-0.040919557;-0.011505327;0.13302201;-0.18837988;-0.0066015706;-0.19823219;-0.10465461;0.019713264;-0.067246825;-0.040640745;-0.2354764;-0.10934787;-0.045075066;0.32274553;0.021363057;-0.2544912;0.26724708;0.13081048;0.05238569;0.062929034;-0.042916235;-0.19816254;-0.048580736;-0.027554715;0.30812106;0.08867953;-0.025995705;-0.0092731;0.041657638;0.019263705;0.0002978116;-0.17526746;-0.029265808;-0.079209775;-0.11900189;-0.10102443;-0.052772783;0.031854037;0.0778849;0.17089295;0.065983266;0.31436342;0.14403479;0.067304246;-0.0014583517;0.026786212;-0.02475272;-0.28684866;0.08230398;-0.043993942;-0.3355781;0.11639763;0.114240944;0.22348887;-0.07099585;-0.042297345;-0.046845198;0.055110082;-0.00087955175;0.052322716;-0.045495443;-0.008785816;-0.0014368822;-0.027129276;-0.003143322;-0.00333385;-0.052432556;-0.054593477;0.018214948;0.08046317;-0.027912294;-0.117997184;-0.10387038;-0.12326684;0.04512155;-0.2386859;0.018415453;0.0927667;0.049864408;-0.015137435;0.045965347;0.1725339;-0.3370356;0.0702384;-0.0409568;-0.15394127;-0.007038969;0.043548048;-0.07999869;0.07409811;0.035604004;-0.3635225;0.047159277;-0.027937053;-0.0047981627;0.21652114;0.023606095;0.08331614;-0.053885892;-0.09516245;0.041155856;0.15444921;-0.019621255;0.14216103;-0.09256891;-0.10106364;-0.17601106;0.27647856;-0.011569094;0.06489179;-0.063725464;0.042652674;-0.1977298;0.15297808;-0.0859923;0.13338712;-0.047472015;0.0007475948;0.080631584;-0.09693124;-0.061368942;0.043753207;-0.060341097;-0.018511312;-0.19281997;-0.021629952;0.22595398;-0.0009616075;-0.020038938;-0.0146720745;-0.11383864;0.00063126645;-0.3351042;-0.14887358;-0.057039447;-0.17373978;-0.25248337;-0.040496983;0.08402335;-0.0056731002;0.057781078;-0.025988054;-0.041746512;-0.05089674;0.029654333;-0.062766105;-0.022358762;0.08745726;-0.12403712;-0.025240593;-0.1334504;-0.29207322;0.05917387;-0.0662173;-0.01981666;-0.044712894;0.19838548;0.13424602;0.06508553;0.03274724;-0.05798142;0.1466713;-0.008971877;0.47537956;-0.05177138;-0.14461666;0.15467009;0.052843314;0.04118666;-0.2754109;-0.07236517;0.067682594;0.013836388;0.011722709;0.027872998;0.051044926;0.04199214;0.27529296;-0.0067695943;0.22154441;0.041341387;0.13466963;0.053227816;0.010738576;0.050368782;0.011877548;-0.046277486;0.3297494;0.039167516;-0.074793845;0.013258077;0.090979904;0.17670092;0.09339554;0.070591345;-0.03284758;0.04832884;-0.16693954;-0.028260676;-0.06284993;0.085275576;-0.020315835;-0.09736717;0.08875288;0.047004104;-0.009451465;-0.024850287;0.0044632326;0.06345406;0.0826235;0.025454447;0.060175017;0.029168596;-0.008036258;0.06494953;-0.20094079;-0.003120163;0.25752616;0.060513694;-0.33151653;-0.031808563;-0.070853606;0.017812815;0.057870977;0.07267181;0.08050889;-0.186545;0.040437512;0.040511668;-0.25206557;0.0297263;-0.05510234;0.0032758473;0.09844334;0.009901618;0.019221392;-0.1862811;0.013271855;-0.10075613;0.08578576;-0.16179392;-0.017854417;-0.030712545;-0.28067857;0.010275461;0.059046015;0.112143956;-0.008483211;-0.07621431;-0.06651391;0.039140254;0.29042727;0.018423114;0.09068591;0.05580729;0.06275363;0.015757931;-0.07623659;-0.08987377
0.25469947;0.06847281;0.20224375;0.041000724;-0.14722902;-0.046691418;-0.15710872;-0.082217894;-0.10110756;0.0053501427;0.124516234;0.023712447;0.040168818;-0.13467483;-0.10832657;0.024204817;0.03715864;-0.12118158;-0.011492614;-0.027135853;0.03440973;-0.05575909;-0.0023300645;0.011023279;-0.09606096;-0.14571121;0.052692432;0.1028178;0.019783437;-0.032090392;0.016455732;0.061406936;0.07193737;-0.01880627;0.044888306;0.0020868068;0.003662011;0.07098583;-0.1360424;-0.058819607;0.1386486;0.05225125;0.03375649;-0.0899077;-0.05735706;0.0024184394;-0.033168394;0.07512177;-0.017737191;-0.10150654;-0.1461938;0.03310352;-0.066043444;-0.20461114;0.009749402;-0.01067821;-0.065396495;-0.021019002;-0.1266589;0.10346913;-0.02178144;-0.07272065;-0.008897716;-0.12021933;0.11865816;-0.07341144;0.25171575;0.004668315;0.037622172;0.008550705;0.09212855;0.26167184;-0.11354063;-0.15161777;-0.06979828;0.1432413;0.3049667;-0.286222;0.10506084;-0.05072049;-0.017211547;-0.0488839;0.06920125;0.06316617;0.052352168;-0.016667802;-0.08107024;-0.007396571;-0.02589333;0.042263065;0.027242487;0.18564723;-0.042993367;0.02578687;0.021592574;0.051635433;0.0545288;-0.03961755;-0.16969398;0.059288528;-0.013126428;-0.03335654;0.04851236;0.23023607;0.032410685;0.04420894;-0.105389185;-0.04062548;-0.038977955;0.028138;-0.02235675;-0.0797631;-0.114243925;0.20065369;-0.048286136;0.31159484;-0.019660907;0.14665484;-0.19204786;-0.03622937;0.10320353;0.015233333;0.20108442;-0.048431512;-0.051612947;0.0216086;0.08232099;0.12012631;0.09283142;-0.016621156;0.012506707;0.012588169;-0.022630837;-0.083101206;-0.042318273;0.06248899;0.028620895;-0.10253691;-0.0698679;-0.024761925;0.10942543;0.052863147;0.18507874;0.15916276;-0.14059532;0.04968656;-0.036731623;-0.14819832;-0.027022555;0.3343993;0.0068242475;-0.15010835;0.013616368;-0.053077564;0.05784958;0.10680276;0.030086689;-0.07916567;0.21053773;0.09693539;-0.014080782;-0.29690468;0.09332065;0.0718712;0.22664803;0.019835055;-0.029699942;0.08875785;0.13150126;-0.031820703;0.010347994;-0.2743442;0.04960733;0.019746982;0.054157615;0.06552567;-0.03117666;0.07307258;-0.33629185;-0.015016035;-0.101355545;0.23103218;-0.15302956;0.117283665;-0.036084406;-0.0253907;0.053109005;0.054790467;-0.14105585;0.19630562;0.19598554;0.17469418;-0.25630492;-0.11381854;0.22767419;-0.086013;-0.03025362;0.27829626;-0.17189321;-0.27376065;-0.11284937;0.020789487;-0.011587736;-0.0891905;0.059202388;-0.06386791;-0.16768496;-0.10250362;0.03533345;-0.019777194;0.08422186;0.28994036;0.05796457;-0.002296134;-0.0034658336;0.08526372;-0.18759523;0.17941229;0.15435897;-0.06431883;-0.07377515;0.17643031;-0.08748098;-0.1578783;0.012589353;-0.012542972;-0.08449838;0.018380525;0.036634922;-0.008189354;-0.020861698;0.053937037;-0.01760421;-0.056250848;0.115756184;-0.2786487;0.052120432;0.0005097642;0.01205507;-0.09795157;0.07305813;0.19119728;0.17816877;0.0171739;-0.033433396;-0.13075635;-0.29835814;-0.122672185;-0.08706264;0.035075597;-0.032122847;-0.03565853;0.07222459;0.0631234;-0.052149367;0.28711373;-0.016844595;-0.040287897;-0.022251656;-0.013105464;-0.018790532;0.2379432;-0.2781862;-0.0985336;-0.036837388;-0.1515979;-0.0483868;-0.042599186;0.108997315;0.071083084;-0.0013431247;-0.13980977;0.16274929;0.006126488;-0.0020981736;0.039314307;-0.22080605;-0.006172971;-0.07312743;-0.04316585;0.10336854;0.0118546365;0.07816314;0.19495884;-0.021433543;0.058828533;0.013604391;-0.16120633;-0.084702045;0.008649094;-0.14814173;0.15920575;0.33785924;-0.089008145;0.029828008;-0.12187217;-0.18768491;0.12178017;0.27447337;-0.0984174;0.14107597;0.047585104;-0.03906851;-0.003880627;0.40741614;-0.18519148;0.15738292;0.052385952;-0.108165756;0.012239929;0.0016047762;0.03398809;-0.041504458;0.032339778;0.14136565;0.13206516;-0.12494564;-0.022816895;0.0061032786;0.11547816;-0.22477172;-0.012537547;-0.053978477;-0.21471429;-0.048631806;-0.21358979;0.0154356295;-0.11254279;0.022644792;-0.05629685;0.42603683;-0.006944116;-0.19609067;0.17564596;0.088636115;-0.056519914;0.059348296;0.0037055456;-0.17742664;-0.098919086;0.017660243;0.18065399;0.12134052;0.108033344;-0.09589894;-0.003413142;-0.05735016;-0.0070887543;-0.22598842;0.07391656;-0.056683492;-0.20785402;-0.0013551938;-0.05983668;-0.10232414;0.032182604;-0.023154384;-0.04185069;0.2304013;0.24758449;-0.12920493;0.114559166;-0.035868634;0.04368829;-0.17070644;-0.04838127;0.026491681;-0.22032766;0.26198235;0.07662109;0.24140123;0.026246525;-0.014773954;0.056574054;-0.06950653;-0.047650084;-0.0088384;0.036731955;0.004034186;-0.06287035;-0.025621846;-0.08446506;-7.193121e-05;0.028815834;-0.029261133;0.010595049;0.15762058;0.030486116;-0.05041162;-0.13539983;0.10023662;-0.106283;-0.36743176;0.041913237;0.16295782;-0.0054528113;0.021096217;0.22966978;0.2169295;-0.34062833;0.089499295;0.034654733;-0.2882017;0.019730221;0.053901035;-0.100853354;-0.1691358;-0.015537836;-0.1764696;-0.035494424;0.032161806;0.0038881022;0.13856009;-0.027712608;-0.07908788;-0.15235205;0.025668262;-0.0121431695;0.15770109;-0.019795148;0.107997656;-0.24372464;-0.11278157;-0.19288652;0.119438365;0.041768115;-0.06646999;-0.22389166;0.13119537;-0.21846607;-0.0072667715;-0.19863348;0.010486121;0.020485085;0.05594749;-0.0005758542;0.003613372;-0.124682434;-0.0021314558;0.037598513;-0.04475403;-0.19112383;0.019551802;0.16982195;0.047643304;-0.0069473623;-0.0104323495;-0.18971819;-0.027889377;-0.37809253;-0.17836587;-0.04540773;-0.213568;-0.18071957;0.004428311;0.009890554;-0.053889025;-0.11111759;0.0005746891;0.03063259;0.0059197773;-0.025485756;0.072711386;-0.059042796;-0.020122921;-0.12678078;-0.014992437;-0.15823285;-0.35612828;-0.030032925;-0.06576291;-0.018121224;-0.010648944;0.057817083;0.09040246;-0.040665157;-0.025783194;0.06316292;0.2968574;0.06286458;0.2568978;-0.002133936;-0.07695313;-0.014046748;0.043647513;0.00811235;-0.1842929;0.0716131;-0.018082676;0.097178474;-0.027075458;-0.034049228;-0.14426708;-0.04111991;0.0032859105;0.036917225;0.11788572;-0.07653725;-0.046166394;0.106499955;-0.077178836;-0.0080131125;0.031418752;0.062987946;0.27321243;-0.075393945;0.03238579;0.00032413422;0.17510337;0.08612271;0.22171634;0.23077445;0.042759348;0.0773477;-0.32064247;0.10567665;0.06467428;-0.023768572;0.038232207;-0.1394095;0.08469277;0.021930108;0.038798384;0.020882532;0.0647344;0.11532454;-0.04358166;-0.009458413;0.07682363;0.040342145;0.09109557;0.12051411;-0.08191911;0.021574521;0.28599444;0.10292711;-0.21916321;-0.031686667;0.04936035;-0.13099639;0.10174292;0.07423993;-0.06083138;-0.13406304;0.0040811095;-0.05148182;-0.15021569;0.029319683;-0.08403778;0.010749891;0.09402427;0.04191356;-0.0626503;-0.18308738;0.04577547;-0.14374563;0.07076974;-0.24655196;0.04832882;-0.051971942;-0.2942709;0.07619977;-0.05192043;0.088765696;0.017595405;0.062163983;0.0364768;0.050548594;0.1401752;-0.028899005;0.053187676;-0.049065802;0.07965221;0.06288487;-0.020552188;-0.049195845
0.02351271;0.15207008;0.19454707;-0.08602132;-0.15220818;0.005644547;-0.18613456;0.034925167;-0.038758814;0.028286895;-0.0050564087;0.019672886;0.025106542;-0.20190059;-0.27502018;0.14242816;3.0509467e-05;-0.052318994;0.008651173;0.0066146227;-0.03733694;-0.061123572;-0.07411111;-0.09434733;0.0708475;-0.03332618;0.058662195;0.03172595;-0.018395744;0.0159451;-0.008788957;0.102346756;0.16043386;-0.020471226;0.0073575526;0.15014727;0.13516235;0.018754633;-0.012358526;-0.19261956;0.26170725;-0.04422307;0.018357323;0.06049252;-0.1540702;-0.03678711;-0.0053061284;0.054222386;0.04825973;-0.0432185;-0.118950956;-0.008048638;-0.19402817;-0.13179608;0.010927928;0.034215335;-0.098218374;-0.014772086;-0.28745872;0.09871143;-0.031724483;-0.03342736;-0.026487641;0.02135696;0.06757327;0.07293242;0.08671697;-0.01980064;0.033927605;0.029910266;0.21009403;0.3020531;0.0064008804;-0.026104456;-0.079621136;0.21112731;0.3772159;-0.20075084;0.15341625;-0.044626035;0.08238772;0.07114878;0.109300286;0.09497008;-0.014206764;0.01579831;-0.014890976;0.05543749;-0.010704516;-0.030429095;0.13589896;0.06305157;0.057463042;-0.019683981;-0.023554662;0.0850446;0.033407487;-0.12707572;-0.00042619614;0.07182928;-0.12303453;0.06108666;0.041639034;0.043033235;-0.061585832;0.0026344273;-0.2084834;-0.008853714;0.018955061;0.06859769;-0.12662393;-0.11152947;-0.058332972;0.1512675;0.0077098412;0.13613768;-0.1915322;0.12193124;-0.39602697;-0.07334446;-0.05943827;0.034043923;0.1499698;-0.08120282;-0.04646806;-0.015965423;0.11700266;0.07953809;-0.024273125;-0.016683893;-0.11892815;0.03337215;-0.039108653;0.04220091;0.03989501;-0.071289435;-0.0123333875;-0.01439721;-0.103329845;0.02649321;0.13022707;-0.056439668;0.10194139;0.29129022;-0.03532139;-0.031939823;0.04072024;-0.1100364;0.04325241;0.406983;-0.011216825;-0.18649137;0.0055942875;-0.032309104;-0.06527077;0.16323556;-0.013377344;0.05628687;0.14739434;0.28219306;0.007911219;-0.3402781;0.124330595;0.12230324;0.22799067;-0.07435957;-0.053497314;0.05047009;0.18747084;-0.002205057;-0.05119479;-0.24455969;0.004455911;0.01278172;-0.0056400425;0.06356873;-0.17224352;0.03587008;-0.36757857;-0.13954078;-0.16734609;0.005031479;-0.15465796;0.17896184;0.010815395;0.08821004;-0.04352811;-0.13769281;-0.17935543;0.09402656;0.24620631;0.07669905;-0.112490945;-0.093420096;0.17598705;-0.005766926;-0.037390996;0.061400145;-0.14916529;-0.29201758;-0.059198838;0.064070486;0.015016991;-0.013657923;0.002972807;-0.0017393982;-0.052154776;-0.10813338;-0.110355996;0.036232263;0.12893668;0.32094038;-0.029971898;-0.0064536054;-0.0060321074;-0.042680617;-0.22138274;0.17767633;0.1314698;-0.031946212;-0.2297249;0.19681005;0.061264765;-0.2933897;0.08123931;-0.096492425;0.10516787;-0.026619423;0.036994386;-0.17082761;-0.07257166;0.028055303;-0.04084137;0.024279404;0.18108487;-0.25591743;0.050930265;-0.025622591;-0.0034891863;-0.14309886;0.032076716;0.10925468;0.16702871;0.0018038247;0.0589387;-0.1984774;-0.24926317;-0.19310725;0.021498336;-0.00050125894;-0.024606226;0.03655598;0.08260082;-0.032632012;-0.030541532;0.35861278;0.06996866;-0.02434984;-0.0908199;0.01894044;0.015727293;0.19742584;-0.18845375;-0.1442488;0.028396346;0.053041756;0.039736412;-0.036642347;0.032062896;-0.009934745;-0.018087026;-0.13349521;0.030147444;-0.09783084;-0.024947898;0.08389394;-0.2045636;-0.008158569;-0.09646514;0.03267535;0.13472857;-0.017398344;0.27462137;0.22411814;0.06633803;0.08264967;-0.007338349;-0.23052908;0.04811038;0.012547411;-0.13805103;0.09026726;0.24285595;-0.023036076;-0.027934276;-0.04811499;-0.06963954;0.033092912;0.3593279;-0.16968504;0.19615236;-0.042757187;-0.021083493;-0.026195064;0.18705717;-0.15084076;-0.09282973;-0.06807856;-0.06710067;0.030586349;-0.11544354;0.119754896;0.0014226318;0.130772;0.097535215;0.16401315;0.068527;0.070578925;-0.010051927;0.07955702;-0.28305468;0.0044091037;0.06356847;0.056261312;0.015872216;-0.03778837;0.0049865535;-0.060768943;-0.09243386;0.07837112;0.3664455;0.027926391;-0.1505496;0.16514261;0.00272821;0.03477882;-0.05984666;-0.038576227;-0.10974953;0.05453015;-0.022769015;0.07435965;0.07428244;0.14051014;-0.0125213545;0.024937123;0.04832752;0.02538261;-0.11981784;0.14269619;0.11062649;-0.18196462;0.076879054;-0.113552995;-0.1440152;-0.13299237;0.018406825;0.009703305;0.3646911;0.29042152;-0.11761804;0.12575543;0.012973239;0.033452265;-0.086059906;-0.0058023483;0.041825436;-0.04041221;0.13614665;0.10633848;0.0838344;0.0688688;-0.002597643;0.03176781;0.009575043;0.024931686;-0.022323633;0.00090185634;0.024077408;-0.02547524;-0.028636986;0.024189966;-0.01642955;-0.044239704;-0.046059538;0.057676718;0.13134983;-0.0043024453;-0.18317842;-0.22138283;0.05016571;-0.19007498;-0.3615985;-0.040039588;0.14579941;0.014772858;0.042101167;0.29494938;0.08210495;-0.22593573;-0.030345509;0.04226366;-0.37350902;-0.028966846;-0.035099223;-0.07655643;0.00078828493;-0.038092468;-0.10244249;-0.03718264;0.008244665;-0.002780877;0.11965378;0.037985846;-0.07862965;-0.038046245;-0.074003756;0.004799494;0.15540285;0.061117556;0.044616755;-0.26895314;-0.20547514;-0.12242252;0.21494676;-0.06225712;-0.018466277;-0.1402892;0.15199623;-0.07245561;-0.036904324;-0.011725207;-0.0697373;0.010726741;-0.032123677;-0.00096649985;0.13410014;0.06872013;0.061718974;-0.025438124;-0.029143088;-0.21801321;-0.0086708395;0.09953749;-0.09228884;-0.04692409;-0.03829212;-0.21797377;0.017819699;-0.3925604;-0.19826756;-0.049762756;-0.20570162;-0.12482591;0.03415605;0.20779856;0.073531255;-0.14375274;-0.100595854;-0.0105402805;-0.021076856;-0.0053189825;-0.104972266;-0.02311201;-0.01489281;-0.23349296;0.023032181;-0.22629058;-0.29841155;-0.16917239;-0.1246815;-0.045307387;0.021359835;0.05929427;-0.12356985;0.036011368;0.03649111;0.090592;0.22176057;-0.07211023;0.056189615;0.14437088;-0.030202597;0.013380244;0.093270704;-0.08667532;-0.21054633;-0.15101762;-0.021211125;0.0059620794;-0.036018822;0.018996976;-0.062461603;-0.2543018;0.07148432;-0.01772566;0.030267531;0.04437513;-0.13143514;0.10054781;-0.09367886;0.029362569;-0.051409107;0.018409591;0.10437471;-0.009694095;-0.00494886;0.050406422;0.16828436;0.06586268;0.16561912;0.23257576;-0.06791538;-0.015817927;-0.2795766;0.17558457;-0.009278637;-0.07440882;0.010446468;-0.081495754;0.22859117;-0.013608834;0.005119437;-0.029658455;-0.06026069;0.05922952;-0.021528965;-0.015246799;0.11342666;0.020352673;0.10841098;0.05110566;-0.124499254;0.027236557;0.15439187;0.007411894;-0.18444394;-0.039825764;-0.002577425;-0.08556191;0.18203722;0.058224335;-0.032348003;0.029445529;-0.04720211;-0.009738736;-0.17418118;0.059653778;0.055907276;0.0042448933;0.034872007;-0.07620834;0.06061111;-0.20778766;0.007740146;-0.0045043337;-0.044973884;-0.20076852;-0.0020391946;0.045713995;-0.28503296;0.04051465;0.07700771;0.021830168;0.006206855;0.018604754;-0.012689563;-0.035664894;0.16354783;-0.11054179;0.105457075;0.041197408;-0.06064461;0.041588157;-0.035766475;-0.10991958
-0.09095586;0.06599045;0.09003611;-0.067492194;-0.40529513;-0.039712727;-0.0838492;0.04312431;-0.074244864;0.046225358;0.025906974;0.060919665;-0.04538706;-0.123921104;-0.17116934;0.18952551;0.00012356332;-0.05842352;-0.004353147;-0.03450561;0.09882522;0.10007258;-0.12831739;-0.029925155;0.07421891;-0.05213085;0.1953639;-0.113103144;-0.058182094;-0.034410506;0.022550665;0.16991238;0.023966098;0.045945607;-0.06233943;0.45374057;0.059106342;0.1159063;-0.05574379;-0.21378173;0.26531923;0.00778191;0.103892736;0.08462577;0.05990842;0.10817595;-0.030309053;0.0118922;0.021734476;-0.046235934;-0.26406854;0.07541386;-0.0042076604;-0.11242504;-8.14677e-05;0.021491002;-0.008409676;0.008542935;-0.37442154;0.053002663;-0.013369089;-0.018727237;-0.003936884;0.0439592;-0.03401054;0.07614786;0.05492193;-0.05859747;-0.013828852;-0.08267101;0.23870425;0.1613606;-0.065733135;-0.14002298;0.0019025423;0.11865172;0.41625544;-0.04655052;0.19581634;0.014652217;-0.04215683;-0.0024431215;0.07731091;0.074593104;0.10448209;0.065290615;-0.017815014;-0.035196967;0.040080488;0.091982834;0.13420255;0.311813;-0.056903042;0.034303393;-0.0041066767;0.11821058;-0.04061243;-0.011465986;0.07260264;0.08219227;-0.19755842;-0.04837704;-0.0207233;0.025379468;-0.10332381;-0.006416187;-0.16488579;0.019253502;0.022102453;-0.036541916;-0.07738672;-0.15266949;0.007217592;0.058261722;0.011454404;0.091299266;-0.15267833;0.09735805;-0.3494544;-0.09319207;-0.093608454;-0.015111724;0.034860007;-0.023937605;0.0023872692;-0.0663238;0.12118868;-0.03652867;-0.05787298;0.03916543;0.026292454;0.16692357;-0.03762184;-0.02913407;0.03361217;-0.11396547;-0.013147391;-0.11243907;-0.25659698;0.03567003;0.1390417;0.0018791797;-0.04539508;0.04348979;-0.19345455;0.0062407856;-0.030889979;-0.10690858;-0.027631428;0.36768058;-0.034758776;-0.23664762;0.027820252;0.0031513053;-0.08151614;0.022549532;-0.053911723;0.090871684;0.08614831;0.3846233;0.043321;-0.28597498;0.09167861;0.008326171;-0.06797142;0.03713443;0.008307158;-0.050238114;0.083595015;-0.02419405;-0.0063686105;-0.22218059;-0.035774652;0.052353643;0.028286988;-0.07094085;0.015288652;-0.0037928314;-0.35931098;-0.22846413;-0.1469196;0.089307904;-0.28125322;0.23610607;-0.038086638;-0.13512596;0.046540502;-0.19002114;-0.17307514;0.12191739;0.054006997;0.13579364;-0.1105501;-0.17039745;0.21270864;0.011345843;0.018802475;-0.24110201;-0.16342977;-0.320635;-0.03152064;-0.0675618;-0.00908156;0.017698565;0.08897094;-0.16883537;-0.09007046;-0.15224281;-0.080270946;0.055650596;0.08074675;0.3421764;0.025259344;-0.005314189;0.0037527576;0.043803453;-0.20623833;0.20504123;0.17016274;-0.10460185;-0.2114645;0.010196818;0.014145238;-0.13720475;0.0027555497;-0.0121022975;0.2734306;0.0077663814;0.023623139;-0.109788135;-0.10218184;0.015214308;0.0037328037;0.009902911;0.1397547;-0.21268353;0.17300399;0.08569986;-0.006855931;-0.17042609;0.028332476;0.019742472;0.20890784;-0.0066563594;-0.018581914;-0.05551795;-0.037198327;-0.18002167;-0.010022029;-0.04693755;0.20819859;0.040694337;0.12631175;-0.15587057;0.097115554;0.24291962;0.1785753;0.0007491003;-0.090664215;0.099824;-0.010364676;0.08639532;-0.22790168;-0.22234626;0.025495183;0.04163441;0.040878143;-0.03264325;0.03590849;-0.05720166;-0.034976278;-0.10364647;0.03619962;-0.069655836;-0.027795343;0.027792845;-0.2723193;0.017415054;-0.048132095;0.028958548;0.07086478;-0.030327518;0.27514735;0.07367363;0.05273957;0.09054308;0.004653954;-0.16161497;0.10016775;0.0365367;-0.15475482;0.0870953;0.27428383;0.19614452;-0.00847068;0.1627232;-0.009759059;0.035930764;0.2799642;0.015486797;0.13896808;-0.007806347;0.024651425;-0.030501967;0.12463081;0.0498609;-0.15561536;0.04346793;-0.05133774;0.029616253;-0.22174111;0.08175573;0.007939314;0.08376461;0.13404278;0.16667527;-0.08353472;-0.0580528;0.054837033;0.13506743;-0.122085325;-0.012132755;0.014428647;-0.06451718;0.0016025973;0.030446539;-0.027848402;-0.14118905;-0.1600777;0.19323231;0.3032323;-0.041585572;-0.081977844;0.13200104;0.07559089;0.03425779;-0.07561668;0.11012872;0.037625235;0.1316493;0.007138024;0.21540943;0.07700818;-0.036880437;-0.08337183;-0.09962659;0.003075494;-0.016011685;-0.16777453;0.10284335;0.065648;-0.2503555;0.07504514;-0.16116261;-0.05255779;0.023363462;-0.18588494;-0.00884796;0.34858787;0.19454804;-0.11856387;-0.0065590204;-0.009516672;0.022364235;-0.1328856;-0.16947709;-0.0015390412;-0.023046633;0.020820597;0.07397275;0.11135255;0.015594707;-0.018815849;-0.09197721;0.022268541;-0.0082812095;-0.012028873;0.015346673;-0.0132743595;0.065798126;0.0025514937;0.031840317;0.033155013;-0.08092176;0.08786473;-0.028192936;0.097065456;0.06970081;-0.28960067;-0.21453865;0.108689494;-0.28445116;-0.30364195;0.028153175;0.042391982;0.054467756;0.019660851;0.11463402;-0.020959709;-0.26810536;0.091927305;-0.07384541;-0.3650636;-0.006717754;-0.02010029;-0.18171585;-0.06351138;0.016162394;-0.090033494;0.058077596;-0.02870844;-0.031304557;0.17779364;-0.06284714;-0.001531943;-0.051095117;-0.031044286;0.0011836076;0.109979734;-0.060032308;0.06810892;-0.28874475;-0.036713727;-0.041391794;0.22646011;0.034317277;0.059402123;-0.22029358;0.090638176;0.017726613;-0.13763607;-0.09885637;-0.013101854;-0.021935832;0.014197058;0.094613545;0.19101039;0.14995542;-0.06606821;0.036988676;0.0018158085;-0.08565875;0.017962947;0.13235842;-0.12547924;-0.024886368;0.020432744;-0.164136;-0.01805916;-0.39294845;-0.19939913;0.024545753;-0.07315019;-0.07593285;0.03467161;0.3045536;-0.025481988;-0.13743941;-0.069040984;-0.040247213;0.004587481;0.031885773;-0.008019741;-0.04246913;-0.12933846;-0.21926539;-0.035810273;-0.33243698;-0.23483068;-0.17537306;-0.12187459;-0.05865422;-0.019175215;0.08825503;-0.1746101;0.008236264;-0.061021514;0.09048501;0.30609939;-0.010322253;0.11681587;0.20318195;-0.11667844;0.0397425;-0.12329909;0.07425073;-0.15247919;-0.054467924;0.032486185;0.13556314;-0.0029710499;-0.005800989;0.05270898;-0.33651572;-0.10783269;-0.040681064;-0.117042385;-0.05874968;-0.0389972;-0.044426106;-0.17839539;-0.02098549;-0.007827679;-0.052209526;0.35941115;0.038856003;-0.072359845;0.010548713;-0.0059799715;-0.07814409;0.03658465;0.19008091;0.025985347;-0.045703307;-0.34846893;0.20506687;-0.019195003;-0.0826087;0.024153467;0.06913764;0.09079841;-0.045995656;-0.015996043;0.13838278;0.020661667;0.035350826;-0.024378635;-0.03959347;0.049852073;-0.055712216;0.18379574;0.16496485;0.028772596;0.005208742;0.20671016;-0.018749053;-0.1727486;-0.1456024;0.004022619;-0.15164106;0.23662578;0.06635068;0.009878969;0.045683544;0.0743759;0.0025358314;-0.16129635;0.003912636;-0.07696875;0.023936056;-0.08367943;0.00028702387;-0.015882067;-0.045178097;-0.05534995;-0.048962343;-0.20368035;-0.25271532;0.06302044;0.026405944;-0.2519549;-0.015756255;-0.03789586;-0.08418077;-0.007908465;0.09906857;0.014220526;0.00046877482;0.28886133;-0.15578952;0.14252512;-0.039014697;0.121958844;-0.03988397;-0.077261634;0.00606516
0.053707205;0.10998854;0.20494744;-0.053146098;-0.33160722;0.033562656;0.021528527;0.056323867;0.08317717;0.005888078;-0.05774414;-0.10160748;0.005707362;-0.10550436;-0.06190957;0.10468144;0.014663435;0.10188946;0.032954864;-0.036829617;0.17982998;0.121608235;-0.09225864;-0.06314045;-0.026564164;-0.03177389;0.15610856;-0.20650057;-0.0053741904;0.03521308;0.09715397;0.028503526;0.17236762;-0.021147994;-0.011360785;0.31678128;-0.07006307;0.080682434;0.14218883;-0.2085215;0.31488392;-0.036556344;0.07446081;0.18122688;0.1384547;0.21644767;0.009345589;-0.039404694;-0.029446196;0.008998662;-0.20764834;-0.057852216;-0.033175837;-0.120740764;0.023075303;-0.0770993;-0.014595175;0.0096551785;-0.4461084;0.2059382;-0.038818426;-0.10832621;0.016422408;-0.0122813815;-0.17958324;-0.02458889;0.004053128;0.018653687;0.028691439;-0.008571346;0.27038708;0.0030791261;-0.013964281;-0.06091172;-0.04930889;0.17636167;0.37184715;-0.061775558;0.14007208;0.0486;0.023435105;-0.051062904;0.058413208;0.18821391;0.032092914;0.0299914;0.020972196;0.015341798;0.010775849;-0.047727674;0.14431575;0.085728005;-0.0056784954;-0.061576582;0.0035012376;-0.054899022;0.012403665;-0.020329434;0.09458716;0.10418824;-0.10885275;-0.0063176295;0.02337999;-0.04346769;-0.009486609;0.0046702283;-0.15579563;-0.0133500155;-0.033790603;0.03283761;0.014598865;0.008223313;-0.19991046;0.033955295;0.049527615;0.019151988;-0.28951073;0.07251672;-0.3267996;-0.04913847;-0.12696385;0.026305461;0.09144037;-0.19181971;0.2031913;0.007630098;0.1505389;-0.020239716;-0.036995307;-0.018763615;-0.103226945;0.16534492;0.06447338;0.0015884592;-0.057407465;0.00296752;0.16757333;0.01396279;-0.1011612;-0.0830939;0.11580433;0.023092259;-0.061151322;0.05798531;-0.10440617;-0.0076464117;-0.016621487;0.032095335;0.02231009;0.2509459;0.04587511;-0.27706918;-0.038580537;0.010542858;-0.22207181;0.063617855;0.01956948;0.10639977;0.12938033;0.3778576;0.24921924;-0.1555314;0.16769917;0.023167882;-0.15754494;0.018721145;-0.03466264;-0.019547245;-0.08222419;-0.042604327;0.010570042;-0.1296291;-0.040607218;0.058668904;-0.027093587;-0.036530435;-0.017716715;-0.04540555;-0.23500177;-0.13571528;-0.07198878;-0.13441312;-0.23246418;0.19258593;-0.03805835;-0.23285525;0.018195672;0.004066507;-0.23002148;0.14079992;0.074552014;0.040137723;-0.2395257;0.00074486184;0.24385102;0.10220205;0.034970466;-0.24938466;-0.025110323;-0.24213716;-0.099906564;0.057968423;-0.001901412;0.004353489;0.13448024;-0.08344837;-0.10986514;-0.077484146;-0.10411767;-0.010019223;0.19759497;0.23290858;-0.0028238494;-0.00084489095;-0.034234375;0.07688015;-0.19344985;0.088841386;-0.11206487;-0.09040102;-0.1459967;0.05315321;0.00802271;-0.19265759;-0.03450452;0.11095313;0.1190682;0.00683364;-0.056535374;-0.09216181;-0.07438893;0.056573268;0.005224654;-0.053791035;0.04135202;-0.22057104;0.13970675;0.0021926796;0.026229791;-0.095480554;0.27873775;-0.00945145;0.06390127;0.07528602;-0.046993442;-0.027106361;-0.13361348;-0.37713525;0.030368358;0.03352191;0.32894397;-0.027909342;0.27860206;-0.15502605;-0.029936533;0.116181806;-0.066578485;0.05041072;-0.10486758;-0.022796065;-0.017529748;0.068188936;-0.34378883;-0.059483346;-8.393553e-05;-0.04438559;0.03843521;0.044456895;0.13203552;0.04584431;-0.0197012;-0.029571403;-0.12213832;-0.22196992;0.067204215;0.08525409;-0.092791;0.011682955;0.027497025;-0.009731505;0.02172032;-0.16954443;0.19165479;0.07439527;-0.026275307;0.1355173;0.007778762;-0.16155492;0.024555782;-0.014165832;-0.10386479;0.092005484;0.32661322;0.24270721;0.010029144;0.14073509;-0.09576882;0.05089619;0.2536602;-0.028671281;0.08462849;-0.029357834;-0.01719936;0.038595896;0.08349793;0.046919215;-0.037113376;-0.019823382;-0.030981809;0.096937165;-0.1682125;0.1283084;-0.011638975;0.15663783;0.05573527;0.26436743;-0.0900081;-0.022791198;-0.04541333;0.06385196;-0.18256265;0.034513123;-0.016189728;0.13949522;0.028032295;-0.007825615;-0.053942103;-0.08363963;-0.036801532;0.10783477;0.090788975;-0.05625717;0.114669845;0.08287377;-0.03346912;-0.062970616;-0.12251817;0.057846177;-0.009029679;0.18405256;0.012065846;0.21598743;0.07963522;0.007331639;0.020218924;0.030341748;0.0019475151;0.03984464;-0.09081785;0.10267978;0.18734738;-0.27273902;0.0046027787;-0.1994264;-0.18889637;-0.076268174;-0.1902345;0.048659872;0.24177243;0.24596491;-0.1464793;0.05869194;0.04081638;0.017559504;-0.25064135;-0.12819639;-0.04132819;0.024976352;0.037327778;0.044516016;-0.0013563186;0.17989358;-0.00020652646;0.03629211;0.011219437;-0.033702187;-0.03490012;-0.0066892887;0.0643583;0.024951167;0.035905868;0.009483429;-0.026052726;-0.095917396;-0.046620697;-0.0039193933;0.24333343;-0.05722447;-0.3907624;-0.15733798;0.13846043;-0.17217313;-0.10108564;0.004446089;-0.00056775816;0.13605906;-0.06464663;0.17619437;0.1020481;-0.2262427;0.17712884;0.04186972;-0.2632827;0.008800922;-0.16656569;-0.21727018;-0.23210846;0.012442963;0.05884255;-0.032473706;0.058161344;-0.026171131;0.13108051;0.06768612;0.19003814;-0.0012377768;-0.060790095;-0.037447937;0.20015301;-0.039686576;-0.105218254;-0.16122344;-0.14638653;0.00069342135;0.25893563;0.025209583;-0.06600503;-0.15017079;0.092042625;-0.10404777;-0.07950304;-0.26349598;-0.052486036;0.010523118;0.02181804;0.07090447;0.12155165;0.26532748;-0.13390668;0.043003466;-0.017147308;0.075737044;-0.0009443296;0.06869356;-0.2342282;0.013676592;0.018704379;-0.035557307;-0.05242509;-0.27179432;-0.16287841;0.04674575;-0.13024591;-0.06976225;0.00746338;0.3732206;-0.015847463;-0.2835876;0.093250334;0.07831195;0.013816384;0.0060912743;-0.052526757;-0.021211213;-0.14348637;-0.2585376;0.003121728;-0.25400358;-0.13815334;-0.07525221;-0.22107951;0.06566408;0.013792801;-0.03365701;-0.15114588;0.02298703;0.026714787;0.033688653;0.14435308;0.038711168;-0.10978432;0.13568205;-0.10238599;-0.09537366;-0.081594706;-0.034180596;-0.03055927;-0.02496022;-0.030981539;0.23226906;0.057548128;-0.04309462;-0.036292873;-0.1945857;-0.031408235;-0.006632406;-0.04599216;0.05934681;-0.08530297;-0.14784516;-0.18126574;-0.0055240165;0.0125821;0.011382714;0.14789034;0.02302463;0.036030572;-0.067728795;-0.013823115;-0.040720426;0.18178877;0.1588587;0.035041887;0.044325367;-0.326146;0.13664314;0.022114305;-0.107421346;-0.03006554;0.1261095;0.10259464;0.068170644;0.020420171;0.04033039;-0.0014903087;-0.13385966;0.022093764;0.008338211;0.06253331;0.032347348;0.20395362;0.07320321;-0.01281152;-0.046108242;0.11962626;0.048178952;-0.15543956;-0.09364464;0.008313134;-0.097351685;0.3432157;0.078928135;0.04654445;-0.11519517;-0.022691773;-0.0124045545;-0.12300194;-0.043774374;-0.04187245;0.005306486;-0.12526038;0.008032141;-0.025141565;-0.05908631;-0.048658952;-0.06630901;-0.022547925;-0.30685088;-0.03423109;-0.02063775;-0.30523828;-0.087896585;-0.04550631;-0.13651045;0.011001163;0.15914737;-0.02120661;-0.03900253;0.19338116;-0.0641885;0.13088192;0.01918382;0.11350606;-0.012252673;-0.21663287;-0.039783027
0.17648157;-0.03233727;0.13120402;-0.15576239;-0.33490008;-0.009622316;-0.11474679;0.017741572;0.02379845;0.04493287;0.038996693;-0.013054262;0.02614456;-0.20370816;-0.04179671;0.20031749;0.017625824;0.1020809;0.009905182;-0.02933051;-0.029627625;0.16223972;-0.051761024;-0.08617501;0.054753367;0.04748234;0.16438957;-0.28042954;0.06701512;0.025087481;-0.037582587;-0.04560704;0.1307864;0.07859077;0.06863835;0.2738376;-0.082267396;0.089810796;0.053255815;-0.021307562;0.23272175;0.067839734;0.05593292;0.29328117;0.05639439;0.09071057;-0.051794562;-0.110817045;0.01014356;0.008791973;-0.17202257;0.003507813;0.11258897;-0.0040864446;0.01258124;0.028919864;0.031597912;-0.025824804;-0.4701825;0.22683038;0.040057175;-0.09636068;-0.0031658662;0.04468064;-0.23984787;-0.08517332;0.043797813;0.02763122;-0.037429854;-0.09958034;0.16883153;0.040747676;-0.074249856;0.00018020449;-0.07743248;0.10884052;0.2513337;-0.058562078;0.1877069;0.025421863;-0.016249465;0.042937897;0.100274436;0.13919608;-0.044272598;-0.12988672;0.035538755;-0.036015414;0.009114609;0.0027489013;0.054835152;0.111526616;0.024479615;-0.0075356457;0.06159412;-0.13005252;0.021715937;-0.05506754;0.043714598;0.11318917;-0.1986605;0.07890629;-0.004023069;-0.07543883;0.04069301;0.0044463184;-0.033949602;-0.04295459;-0.017781442;-0.035800066;0.030431503;0.009749919;-0.24937783;0.03513814;-0.018870356;-0.031641066;-0.2937363;0.0053846203;-0.32802287;-0.096061565;-0.1055645;-0.050782397;0.16099612;-0.06361144;0.13227583;0.19932257;0.06230768;0.026591618;-0.13634631;0.034884963;-0.13615143;-0.0012510828;0.04389445;0.026477437;0.0002828939;0.1034464;0.11321146;-0.059899595;-0.22040708;-0.17673618;0.015175785;-0.0038049787;0.017930474;0.1288256;-0.18320346;0.037586078;-0.0034191685;0.0028435437;0.029471086;0.11500356;0.029648725;-0.25377595;-0.079583764;-0.012533891;-0.21266386;-0.06913301;0.017039692;-0.057423424;0.10917311;0.50594616;0.3379133;-0.20453647;0.15984043;0.043256685;-0.17170507;-0.0056227283;-0.071918406;-0.06999135;0.066162735;0.019410897;0.0009000492;-0.04403216;0.030539867;-0.07051804;-0.0015362143;0.20913434;0.0123173315;0.019096404;-0.16028863;-0.17535613;-0.09944901;-0.10066424;-0.4263953;-0.01063921;0.034715645;-0.19909625;-0.039377045;0.025225444;-0.29080763;0.12561347;0.061252147;0.04601158;-0.081024885;-0.024254564;0.15147395;0.245124;0.02806319;-0.281145;-0.060366545;-0.37550038;-0.23071855;-0.04043411;0.028589763;0.02048718;0.14866169;-0.15148728;-0.16715696;-0.22672887;-0.12234076;-0.06472631;0.12974603;0.19632211;-0.0055377427;-0.025831755;0.12442596;0.13683018;-0.10140285;0.18754378;-0.17076719;-0.0641431;-0.18070297;0.0009749422;0.12777656;-0.35712138;-0.04022678;0.10980808;-0.062949374;-0.05800663;0.010388162;-0.103653;-0.16361897;0.040689867;0.020857226;-0.010935323;0.06202872;-0.2535759;0.13932191;-0.18058136;0.016825981;-0.28855616;0.26303303;-0.050375465;0.19007953;-0.042644616;-0.033967607;-0.06117177;-0.14878142;-0.33949822;0.035101265;-0.06699156;0.2887986;0.004008755;0.23998536;-0.2344746;-0.0062261606;0.112755634;0.028736828;0.04685359;-0.024535038;-0.062762655;0.06820489;-0.03184955;-0.17374241;0.026317583;0.0026619209;-0.08144349;-0.045645397;-0.052301966;0.19879927;-0.007448459;0.06386916;-0.06748671;-0.0748875;-0.2359893;-0.043133926;-0.023369443;-0.19628826;0.061414283;0.18544795;-0.06728202;-0.001205268;0.062445793;0.16935003;-0.06343174;-0.035540987;0.076412335;0.010980165;-0.19514772;0.093317166;-0.06448161;-0.12092017;0.22018856;0.20005094;0.19252029;0.029679043;0.022087367;-0.28358123;0.10519175;0.27366605;0.06830471;0.17466201;0.0059511387;0.0036456818;-0.0007041042;-0.060889587;-0.072529875;0.07104078;0.068281285;0.15131965;0.032230552;-0.24351373;0.11539951;-0.002908944;0.27773052;0.09319423;0.21208028;-0.31416652;0.053623185;-0.05543911;0.08902713;-0.3061375;-0.033468377;0.059157625;0.14472304;0.009876116;0.049617976;0.03906181;0.172898;0.047266647;0.15214607;0.04561248;0.03815073;0.15088223;0.10482997;0.091911204;-0.0118942065;-0.04530651;0.13268526;-0.038677804;0.24748065;-0.0339826;0.17782626;0.03673083;0.13971873;-0.03209511;0.014473078;-0.0051160045;-0.02892883;-0.2713236;0.27873963;0.2667756;-0.3360544;-0.024616634;-0.11742275;-0.15635444;-0.069194205;-0.20811777;-0.017134173;0.38901052;0.2460654;-0.08682323;-0.07116788;-0.02750238;-0.12555382;-0.25007257;-0.17206253;0.023033747;0.17606963;0.09008114;-0.013592122;0.023812572;0.014321962;0.03550935;0.03931608;-0.039732743;0.031958204;0.06393549;-0.04192988;0.08813295;-0.085257106;-0.057699226;-0.019203866;-0.031887785;-0.009832839;0.013745755;0.00047771606;0.23810321;0.060905114;-0.35749245;-0.115596965;0.24258988;-0.26034424;-0.18339163;-0.030885413;0.11412534;0.006157485;0.008267368;-0.019027311;0.15246369;-0.124260955;0.10047508;-0.007556106;-0.23352648;0.05329964;-0.14377579;-0.48075056;-0.07139722;0.012139144;0.110002734;0.005286767;-0.07333788;0.0728725;0.25128365;0.008162326;0.07049015;0.13207819;-0.046957847;0.093226224;0.13078779;-0.017086593;-0.14638135;-0.108225666;-0.12492238;-0.110654086;0.22260074;-0.060485374;-0.0077566677;-0.15221778;0.07545544;0.0685328;0.01108859;-0.30843216;-0.0070428182;0.044302363;-0.046166386;0.13720144;0.20240656;0.17506792;-0.10805971;0.0058631245;0.039285205;0.10520973;-0.0101867085;0.016522277;-0.29743025;0.04622157;-0.0041342573;0.05247451;0.045647796;-0.31787845;-0.15159185;0.034694422;-0.057337586;-0.07432913;-0.04109687;0.4020102;-0.01296999;-0.36108363;0.0075837616;0.0036020475;0.0061919917;-0.035106216;0.107975334;0.087024696;-0.1895286;-0.12672313;0.013016185;-0.28285027;-0.15409201;-0.09092773;-0.2678512;0.025313308;0.027974902;-0.060690764;-0.23040862;-0.021544602;0.038824007;-0.14949796;0.005037343;0.0050629107;-0.019074652;0.23092705;-0.058546633;-0.22924863;-0.035147857;0.03935512;-0.14014399;-0.2054596;-0.00027177678;0.09816635;0.015152294;-0.12195176;0.06841903;-0.24015847;0.046826806;0.037109606;0.105040595;-0.029537637;-0.18125744;-0.2883454;-0.1966582;0.012045036;-0.008361732;0.022235133;0.067166515;-0.09679951;0.11002783;-0.016210984;-0.051672734;-0.016861737;0.09755987;0.057253603;0.04488837;-0.02860635;-0.31029066;0.14963739;0.006569247;-0.052894134;-0.040775087;0.11560482;-0.052976005;-0.052868;0.028719405;0.09062912;-0.017860072;-0.15567514;0.05137583;-0.0011069668;-0.030142529;-0.04679822;0.10782883;0.089275226;-0.18934914;0.017802084;0.19748114;0.07092469;-0.057390157;0.14175482;-0.070629865;-0.10315415;0.4404294;0.12222738;0.056351673;-0.114571854;-0.008829453;0.05248016;-0.13157381;-0.057204586;-0.03936568;-0.0019321505;-0.047405407;0.03363657;0.015632752;0.040939566;0.030682655;-0.10113304;-0.018401947;-0.15854347;-0.06596093;-0.027979078;-0.16663784;-0.20782962;0.117458865;0.060633246;-0.020499425;0.21564725;0.0037433053;-0.049544655;0.01351765;-0.13843235;-0.036779113;-0.0087110335;0.05667465;0.09953056;-0.32902527;0.107918784
0.009104031;-0.07844544;0.06452884;-0.21619794;-0.10124676;0.032514606;-0.2797512;-0.041124128;0.073689915;-0.06851141;0.05663917;0.058604132;-0.014211982;-0.19926229;0.032392267;0.16511206;0.047832064;0.13983363;-0.054351423;0.046853602;0.052968886;0.11959572;-0.09269454;-0.057724483;0.054898612;0.12191715;0.11662359;-0.13656497;-0.038917016;-0.06989133;0.061043415;-0.090609595;0.13476546;-0.053596776;-0.03235115;0.34514093;-0.08056691;-0.041444805;0.017836407;-0.04236633;0.23418204;-0.0511751;-0.037211217;0.444637;0.07664474;0.18118908;0.04639121;0.044202726;0.017374542;-0.08119852;-0.11290545;-0.0027795047;0.09788289;-0.01958484;-0.0025194024;0.034768023;0.057208247;0.052254412;-0.39935094;-0.043503262;0.044187166;-0.04987825;0.0075385096;-0.04931578;-0.25050175;0.03799216;0.09077371;-0.06252508;-0.041988134;0.07166776;0.037157137;0.0954386;-0.11587119;-0.13791177;-0.33517304;0.045563858;0.3070152;-0.15674816;0.14986713;0.0022048082;0.01159938;0.0031021293;0.07315831;0.05546978;-0.012098266;-0.0503489;0.06221795;-0.004966018;-0.05037138;-0.11514981;0.05579487;-0.14974782;0.010600242;0.025761424;-0.039815668;-0.02359242;-0.05905772;0.07968388;-0.014352046;0.16093302;-0.1301012;-0.051127966;-0.034552786;-0.0671856;-0.06904688;-0.03723599;-0.0849969;0.06684231;0.03195877;-0.032687716;0.26004374;0.03329665;-0.13576072;0.23424453;-0.020887531;0.1252125;-0.24752155;0.08471199;-0.3275194;0.06157651;-0.21802564;-0.020386344;0.12514171;-0.0025667222;-0.036013026;0.18438049;0.20150518;0.05050089;-0.07233563;0.038958065;-0.23015285;0.03841302;-0.030004198;-0.074837215;-0.036121987;0.11819318;0.05571324;-0.023719434;-0.059313353;-0.16301513;-0.08787228;0.021728287;-0.03736201;0.20977315;-0.1270133;-0.0282671;0.030199097;-0.13149846;-0.046564803;0.06382319;-0.064518005;-0.2677059;0.041052185;-0.012281664;-0.26887327;-0.1404673;0.02510905;0.009185585;0.023007575;0.37435466;0.21278249;0.04736028;0.20314945;0.06426703;-0.19868314;-0.028167097;-0.018856158;0.16911441;-0.16814779;-0.002156222;-0.016187094;-0.046514817;0.037577998;0.013089341;-0.041530684;0.11591784;-0.13128488;0.092612915;-0.20635696;-0.24279056;-0.08765445;-0.116583064;-0.46008494;0.048767075;0.06568006;-0.1730151;-0.0020210547;0.017811183;-0.28761014;0.0013308178;0.20089138;0.13190804;-0.061827876;-0.040778153;0.3895014;0.040355325;-0.034414936;-0.12593083;0.09590409;-0.2761718;-0.24093884;-0.014183774;-0.04572714;-0.0050587147;0.23476194;-0.010848631;-0.03226776;-0.16770954;0.033819545;0.0050703795;0.124327175;0.05521198;0.0066392375;0.040789466;0.010840103;0.13460614;-0.05376184;0.22610281;-0.30720788;-0.05060654;-0.113943726;0.06097376;0.12606448;-0.19200106;-0.019895488;0.18876417;-0.15865742;0.024673678;0.02091817;-0.06893783;-0.043908697;0.010395942;0.04612859;0.07941464;-0.09680763;-0.19893216;0.022325724;-0.17152902;-0.0535124;-0.19271095;0.15016204;-0.2737596;0.23123764;-0.016219052;0.027445327;0.00771578;-0.055977985;-0.27985764;0.075130954;0.039639737;0.19231255;0.022034068;0.2112676;-0.14085309;0.018437883;0.059506644;-0.009259275;-0.022848262;-0.06842416;0.019132985;-0.004830636;0.06385442;-0.07326807;0.06631298;-0.02779732;-0.32636118;-0.030483976;-0.019376634;0.19687557;-0.03834963;-0.005791296;-0.016257392;0.024064032;-0.30806097;-0.0063496977;0.0890905;-0.20971751;-0.062884144;0.19329783;0.02727113;-0.051221218;0.06381838;0.2877005;0.05594468;0.03756501;0.07023829;-0.038300876;-0.06337865;0.053794693;0.07750077;-0.003911276;0.20443352;0.4048898;0.17632231;0.009906049;0.018574752;-0.30679873;-0.022890124;0.23007679;0.0422012;0.22348976;0.044080745;0.06922362;-0.027723286;-0.048711363;-0.23122078;-0.055531554;-0.0069584046;0.07621119;0.05988006;-0.25317323;-0.05772408;0.016550532;0.19012116;0.046106927;0.3083089;-0.42847952;0.017620103;0.049268067;0.0667503;-0.17265894;-0.015671847;-0.06608472;0.14504682;-0.031559754;0.16486786;0.069562584;0.24796315;0.1039061;0.27503484;0.12756361;0.05073149;-0.09292803;0.019535799;0.18323475;-0.01196205;-0.112302974;0.0880797;0.04600544;0.17913091;0.020497816;0.1480075;-0.049021427;0.19764385;0.030164277;0.029970936;-0.00076970947;-0.029904531;-0.1410169;0.28726846;0.20542446;-0.21515755;-0.1094002;-0.1650146;-0.20465024;-0.07340766;-0.25427574;-0.01979695;0.20223635;0.2360286;-0.13029186;-0.16819373;0.050219107;-0.063772045;-0.19430918;-0.056501787;0.027685853;0.24539569;0.03581016;0.1207696;-0.026423223;-0.04620921;-0.045873888;-0.035274632;0.0121487975;0.0024743094;-0.01593115;0.011535692;0.013645974;0.013713391;0.040991705;-0.095539674;-0.04460667;0.04879733;-0.005193471;-0.028410438;0.18786275;0.07940239;-0.26535773;-0.039386958;0.07479802;-0.29717457;-0.008725686;-0.04697435;0.19633947;0.08908742;0.0016605448;-0.13207608;0.20456484;-0.1813169;0.08611263;-0.038749103;-0.39287174;-0.004284411;-0.19689134;-0.4114366;-0.2259542;-0.024583407;0.120126575;-0.009347488;0.031088952;-0.037743725;0.3081903;0.022668848;-0.030626578;0.19507761;-0.017667077;-0.04139924;0.15746629;0.028687742;-0.21128595;0.017913122;-0.07223748;-0.036331095;0.16420065;0.014204384;0.07180793;-0.07954841;0.2682776;-0.020690938;-0.18702811;-0.2244749;-0.124959216;-0.0005000133;-0.045545038;0.06254058;0.17418359;0.026352903;-0.21007529;-0.100838974;0.015054216;0.18996486;-0.032973684;0.14266369;-0.14382362;-0.013771906;0.009552184;-0.022042582;0.013711732;-0.37195095;-0.055470478;0.024870733;-0.061076127;-0.110948145;-0.019352838;0.28636432;0.012272432;-0.2828199;0.016495163;-0.04285549;0.01572216;0.020995665;0.20919892;0.0299745;-0.30344588;-0.116506085;0.046192866;-0.19589423;-0.07604823;-0.079584986;-0.34215268;0.04979221;-0.039533675;-0.12280955;-0.14469726;-0.047609966;-0.033629898;0.016316963;0.074930824;0.03210139;0.063052274;0.3173564;0.06730832;-0.32391012;-0.1793506;0.0019166274;-0.08857008;-0.12196155;0.014590715;0.07332845;0.058608703;-0.12085757;0.07582321;-0.14241946;0.07467889;0.003677701;0.006997635;0.0073601687;-0.1167174;-0.18195269;-0.061681986;-0.03886216;-0.012529883;-0.024938334;0.07276924;0.034686513;0.17148238;0.04073486;0.03377288;-0.045957208;0.05673533;0.064112626;-0.035320647;-0.04665896;-0.31882235;0.013171761;0.0105122635;-0.03385438;-0.02538809;0.1751652;-0.014472947;0.041174788;-0.06852924;0.06563226;-0.010115238;-0.17121875;-0.044853996;0.06138057;-0.03062648;-0.05067326;0.24336009;0.07084906;-0.2455759;0.024837986;0.17266591;0.08024718;-0.070834786;0.1445971;0.019057821;-0.002573503;0.3551812;0.18852241;-0.06405978;-0.002610109;-0.038236607;0.0048759594;-0.099982;-0.026632903;-0.053809825;-0.0018696798;0.02994827;-0.0029868716;0.021214355;0.044146296;0.044800177;-0.01390129;-0.051698815;-0.012745609;0.03384259;0.013754652;-0.14154515;-0.24378006;-0.091304116;0.07447496;0.0033402853;0.12918471;0.03529942;-0.0077499794;0.106147416;-0.111652404;-0.085401535;-0.035238113;0.10777494;-0.058043204;-0.43847412;0.06300764
0.026061121;-0.046146695;0.06772484;-0.23421709;-0.2845026;0.011018358;-0.15883623;-0.055582266;0.1673861;-0.0614888;-0.13440494;-0.16490373;-0.044676483;-0.22688334;-0.023555908;0.19525267;-0.041172884;0.21025121;0.04266452;0.27472314;0.015361393;0.04510031;0.08550814;0.024072662;0.043433554;0.15524529;0.00673852;-0.038179535;0.037297465;0.03102307;0.05780954;0.035091184;-0.03585988;-0.066497825;0.03798188;0.3082638;-0.26193917;-0.22253418;0.076334596;-0.12977201;0.2575581;-0.028141577;0.08291729;0.36274716;0.102722;0.20799091;0.023076633;0.021773113;-0.036821693;-0.016576184;-0.19694312;-0.017876124;0.08382099;0.040876377;-0.05504347;-0.0037399854;0.08596326;-0.046634424;-0.2584676;-0.03259589;0.0029298535;0.10630402;-0.015617243;0.1026126;-0.17085332;-0.046642426;0.013673822;0.055009436;-4.169329e-05;0.1295153;0.099843144;0.1283829;-0.11624332;-0.1798293;-0.29047891;-0.025778748;0.38751167;-0.09610367;0.09783405;-0.050040957;-0.06170971;0.0035867281;-0.04312049;0.04982545;0.057441153;-0.06444072;0.12921612;0.039532356;-0.0014576281;-0.1725215;-0.15147422;-0.1286777;-0.015992394;-0.03999518;-0.046852842;-0.11928262;0.03804974;-0.109461956;0.07373568;0.14698932;-0.07288555;-0.051500898;-0.03739551;-0.31784728;-0.094755486;0.0468523;-0.03859973;-0.03704266;-0.032930415;-0.024776554;0.14901158;0.035109363;-0.056380667;0.3231753;-0.035509367;0.0088756215;-0.31334415;0.120634906;-0.1218927;-0.09079126;-0.1375824;0.01749873;0.13281925;0.035443295;0.09826224;0.0782499;0.06828478;0.13083352;-0.15803291;-0.057914652;0.043375414;0.18075018;-0.03155194;-0.06154156;0.052468173;0.17001702;0.091996655;-0.005758174;0.011505356;-0.2121269;-0.19208194;-0.03584852;-0.033116575;0.24568208;-0.25199178;-0.021897778;0.02814028;-0.04074248;0.023365756;-0.17660958;-0.11287685;-0.13810645;0.0113459015;0.08402488;-0.28948617;0.040067263;-0.0044380953;-0.027481554;-0.039395172;0.3258073;-0.12579928;-0.06161544;0.15935507;-0.0024412156;0.020976413;0.024148105;-0.01772735;0.027535561;-0.12702602;0.048023056;0.037944295;-0.041458715;-0.0062431013;0.007100955;0.08259147;0.19765352;-0.06889695;0.033804376;-0.2935864;-0.20663679;-0.046365637;-0.1203258;-0.44055933;0.020813428;-0.04125367;-0.13573217;-0.010335203;-0.06473675;-0.17730714;0.043581862;0.29405513;0.12688166;-0.10603545;-0.077609606;0.3826293;-0.068224914;0.038145717;-0.086514056;-0.039394513;-0.20141098;-0.24768598;0.03883548;0.0031985028;-0.0087299915;0.39472246;-0.070553266;0.0054218117;-0.13024917;-0.1353599;0.043490406;0.08936808;-0.04408471;-0.020742547;-0.06690086;0.11998413;0.112222545;-0.02828773;0.27767044;-0.2682649;-0.14111036;-0.07038076;0.080064304;0.21555257;-0.07202656;0.027980996;0.084284194;-0.120581664;0.054899484;-0.023439437;0.054262172;-0.006063687;0.23512994;0.0025108412;-0.013839696;-0.15539056;-0.13324194;-0.22034255;-0.12752159;0.050489876;-0.07403952;0.18957634;-0.061328437;0.27284163;-0.06615379;0.034533113;0.047159225;-0.065989725;-0.31888723;-0.037165575;0.01974284;0.3493469;-0.054225117;0.19885814;-0.23643818;8.554696e-05;-0.07006395;-0.0740764;-0.036212776;0.042445175;0.029305574;0.018676925;0.06521388;-0.08277387;-0.0295988;0.005862208;-0.38217038;0.031435397;0.06536037;0.15879558;0.017617734;-0.03976104;0.030582871;0.09341985;-0.17287062;0.06263507;0.002158994;0.021894142;-0.05426035;0.13473545;0.050113477;-0.06299513;0.22428045;0.1516128;0.089039706;-0.043663062;0.016750302;0.0356455;0.01558062;0.05418089;0.00795473;-0.0083739245;0.16205332;0.49512511;0.04860511;0.008728405;-0.022558982;-0.32264563;0.09685771;0.281138;0.03568489;0.102275126;0.02222322;-0.03167119;0.0025798217;-0.14805609;-0.13212706;-0.05130821;-0.055772346;0.1617155;0.10406338;-0.27210963;0.06956912;-0.04707234;0.14333785;-0.048749678;0.23162924;-0.30334857;-0.05698236;-0.0023366178;0.14016125;-0.14096951;0.07048704;-0.04735606;0.112813465;-0.03201934;0.14490199;-0.041456167;0.27439433;0.21021809;0.35237116;-0.029418657;-0.06450628;-0.14397438;0.018299142;0.29269043;0.030101843;-0.02253662;0.12683734;0.10186316;0.40376636;0.015894203;0.02730353;-0.10259722;-0.056324422;-0.05236248;-0.061110225;-0.015930738;0.028635751;-0.07443634;0.4071509;0.22753373;-0.10653346;-0.16051625;-0.3345049;-0.121463895;-0.11138184;-0.29779997;-0.031376295;0.22884062;0.16905771;-0.23279633;-0.13859545;-0.04472447;0.08101131;-0.114858046;-0.0553863;-0.012669688;0.106561646;0.08803902;0.021438919;-0.0329827;0.07733787;0.07380393;0.046172448;-0.01012983;-0.042795714;0.012031313;0.044466816;0.0045998436;-0.00234252;0.034512933;-0.12506992;0.07587882;-0.056621186;-0.0015365955;-0.025726186;0.11012001;0.15006986;-0.11500572;-0.049328808;0.012238719;-0.16027017;-0.07734626;0.007555204;0.18460973;0.017552955;-0.012551372;-0.17280227;0.16312394;0.065316044;0.12224896;0.044542607;-0.1883105;-0.015053163;-0.023448678;-0.5050799;-0.18652289;-0.049472734;0.12836145;-0.03027859;-0.00093309826;-0.032756824;0.13048893;-0.10230361;-0.08011962;0.22082952;-0.053414304;-0.059888177;0.09269029;0.05795666;-0.18774135;-0.13768049;-0.16964519;0.055792682;0.15244398;0.042354167;0.011913225;-0.11988491;0.10547139;-0.052103143;0.13111669;-0.22060065;-0.20537436;-0.06490766;-0.016948847;0.117093034;0.25617385;0.11466665;-0.18394737;0.013031501;-0.0114321625;0.25821;0.027549276;0.022578916;-0.059496388;-0.10084296;0.019864192;-0.06759657;-0.032591674;-0.39639714;0.080844596;-0.03550228;-0.103248484;0.06563621;0.047100216;0.22079407;0.03262889;-0.22184263;-0.07816142;-0.011355404;-0.027385358;0.074870825;0.034613423;0.023571385;-0.2831697;-0.06382102;-0.020252483;-0.21603625;0.13012975;-0.07478658;-0.09077347;0.05740175;0.018974874;-0.24022298;-0.02192101;0.05466517;-0.0077665644;0.04339759;0.18395162;-0.042972997;-0.056311447;0.2355936;0.08909222;-0.3082479;-0.17626414;-0.043239627;-0.02162612;-0.001166916;-0.0072959405;0.035069767;0.001076501;-0.05720736;-0.01910166;0.015584126;0.08879312;-0.058191855;0.030996975;0.008533684;-0.07272648;-0.1466127;0.00746255;0.04612386;0.024546178;0.026180381;0.053042404;0.03659164;0.12859741;-0.036639184;0.034465693;0.018378776;-0.011006509;0.004141475;0.031924363;-0.07132847;-0.28616616;0.049024586;-0.034931008;-0.06869752;0.07175067;0.09669687;-0.03835881;-0.07257103;-0.016525498;0.084899805;0.058879916;-0.07421794;-0.0054584485;-0.053433374;-0.04285459;0.0713731;0.17477477;0.17283861;-0.23683026;-0.016403016;0.26744953;-0.003193056;-0.09799127;0.21814469;0.01452009;-0.0036413865;0.10369052;0.123190895;0.016138304;0.12752709;0.04857652;-0.009025875;-0.14692652;0.0102551775;-0.00048627018;-0.014430853;0.012341315;0.010756825;0.013817045;0.11090397;-0.03877221;-0.010522554;-0.115923464;-0.082438804;0.017301785;-0.016044782;-0.2354259;-0.32196063;-0.16852391;0.011406964;-0.02512556;0.30817056;-0.0692653;0.05727026;0.03350085;-0.22037105;0.05014654;-0.014843347;0.1815936;-0.14485416;-0.23147649;-0.033852633
0.098726176;0.012948684;-0.07345017;-0.042992696;-0.28973997;-0.018125257;-0.16649123;-0.051847134;0.20251262;0.066509984;-0.1868185;-0.1642504;0.048834633;-0.029933266;-0.15676756;0.17447853;-0.024517551;0.22113468;-0.013416566;0.08881046;0.21334468;0.041304708;0.077053964;-0.012832248;0.088744365;0.20046555;-0.07316533;-0.11667192;0.030421674;0.028073985;-0.014468393;0.034258045;-0.034768153;0.012409042;-0.031502932;0.30419695;-0.19894056;-0.10663995;0.07242507;-0.13260315;0.15750262;0.04561235;-0.0565492;0.27875394;0.08926751;0.27555972;0.006003378;0.056556974;-0.009128348;0.035240423;0.027075237;-0.03944512;0.07600315;-0.00018059401;0.044197235;-0.0006568206;0.18128668;-0.018270707;-0.3158163;0.14851032;0.0013221173;-0.024153408;-0.018862618;0.047652323;-0.20219545;0.05785552;0.103813395;-0.014756673;0.046253216;0.052433766;0.122491315;0.11748467;-0.1757145;-0.026568614;-0.24143845;-0.07269175;0.21355952;-0.1352195;0.1828916;-0.0019238957;-0.051526286;-0.049412034;0.15772234;-0.026140658;0.038499657;0.008918548;0.1781346;-0.005978534;0.012662565;-0.10435108;-0.09451174;-0.3005211;0.044434782;-0.021418652;0.026163545;-0.16773155;-0.0054601296;0.034779716;-0.026524136;-0.017601317;-0.048714265;0.08493168;0.031147858;-0.15114202;-0.00924527;-0.035739504;0.071993254;0.06788205;0.02816471;0.021391207;0.24558242;0.09652384;-0.08018178;0.18478902;0.03138361;0.04661106;-0.20133168;0.030495927;-0.042259075;-0.058540877;-0.20686159;-0.0413687;0.2127854;-0.13560972;-0.060226113;0.06076227;0.19582023;0.094835274;-0.0066372408;0.016358003;0.060852952;0.16143818;-0.01541587;-0.011487898;-0.04304194;0.0833358;-0.016691891;0.1310361;-0.020764165;-0.0114470245;-0.08803656;0.04740808;-0.07063842;0.080671534;-0.21139082;0.00057400897;0.0031271728;-0.09597614;-0.07295159;-0.25680625;0.028170587;-0.3419393;0.038145933;-0.043414023;-0.19622476;0.13399729;-0.02967602;-0.120138206;0.11228687;0.41865027;-0.075257145;0.0157217;0.22286887;0.079898044;-0.021449456;-0.00471402;-0.021133289;-0.0033855943;-0.12048526;-0.0010915056;0.025537325;0.022192635;-0.016517475;-0.0354579;-0.063879125;0.15062241;-0.09543708;0.06307632;-0.24478452;-0.2765002;0.13497525;-0.10693218;-0.1441941;0.11425163;-0.017808069;-0.21204993;-0.013849996;-0.15940978;-0.27166593;-0.066982165;0.2702856;0.20561264;-0.0028252918;0.009033846;0.2992024;-0.05274125;-0.03891658;-0.064737834;-0.03938349;-0.32197618;-0.11761408;-0.01581562;-0.012477629;-0.0184957;0.54115963;-0.29489496;0.062782146;-0.011128313;-0.11608553;0.0070221797;0.107817575;-0.17997538;-0.0053353785;0.0057702693;0.28207043;0.13467301;0.041386496;0.2867513;-0.30557495;-0.10298205;-0.0033945055;0.2108797;0.120104685;-0.047610506;-0.0039444338;0.041396525;-0.21738088;-0.090692855;0.035672903;0.20357464;-0.04460682;0.21515374;-0.05962632;-0.004439305;-0.17235126;-0.09912746;-0.24088664;-0.2207505;-0.0383708;-0.15534735;0.18215488;-0.08140281;0.15420093;-0.113683;-0.007963168;0.081233874;0.0016802745;-0.16296202;-0.0028497146;0.027493771;0.24159825;0.008131428;0.36084875;-0.2729552;-0.03520253;0.062789634;-0.14483248;-0.019013438;0.002705661;0.04214005;-0.017120836;0.07037451;-0.06389397;-0.057728738;0.015285015;-0.37377164;0.025861524;-0.044401955;0.32229865;0.037157174;0.02738497;0.09195873;0.13585572;-0.13258497;-0.047752537;-0.1146077;0.20596614;0.039260518;0.09520639;-0.047487654;-0.017223546;0.08713176;0.07051548;0.08681663;-0.0022744983;0.01662058;0.011002043;-0.06756267;0.018089008;-0.06506135;0.061730728;0.22858624;0.44221106;0.0026840386;0.0044926074;0.017262725;-0.3166502;0.280434;0.281637;-0.018386703;0.13165398;-0.0088625075;-0.0050555198;0.003679655;0.031273514;0.0066742017;-0.1417434;0.014017761;-0.0043979534;0.0801129;-0.36779642;-0.02129281;0.041358996;0.10661;0.039730307;0.14518397;-0.23468329;0.024730552;0.020095926;0.1765437;-0.104333065;-0.011031888;-0.09962039;0.026940623;0.0373785;0.14760338;0.013320674;0.26239425;0.26022732;0.32499763;0.13341168;0.079569526;-0.13880792;-0.21289115;0.2955714;-0.005224094;-0.10630395;-0.03102916;0.12576745;0.3801148;-0.004642212;0.107992984;0.0202704;0.052413832;0.113286;0.02113233;-0.024943579;-0.011534498;-0.14580804;0.43500268;0.24683096;-0.27996895;0.006668041;-0.2667841;-0.16697372;-0.12267809;-0.30755097;0.043851834;0.18639652;0.11762732;-0.2077057;-0.13755094;-0.016312854;-0.08640939;-0.11758802;-0.11865719;-0.046732277;-0.08566188;0.11377812;-0.05706439;-0.055692907;-0.073579386;-0.045504645;-0.008338726;0.039350342;0.016331185;0.024778891;-0.06962506;0.011276763;0.0049567497;0.0011369239;-0.29626447;-0.019234482;-0.16452157;0.05386052;0.016946618;0.15529512;0.095854916;-0.22458245;-0.037125364;0.025950443;-0.13676286;0.040943235;0.04683257;0.13786851;0.054399434;0.020326944;-0.3035661;0.13414259;-0.15242037;0.08771705;0.040679;-0.10671974;-0.036606748;0.014354736;-0.40386143;-0.12450774;0.07973252;0.124510184;0.036956027;-0.022202285;0.06198601;0.09228307;0.008753713;-0.11998576;0.26969233;0.036024876;0.05408758;0.20471969;0.0062243273;0.027083457;-0.110869765;-0.1105145;0.083400875;-0.11597687;0.03656664;-0.047443364;-0.12640816;0.117285684;-0.024359826;0.039546598;-0.23152082;-0.28841072;0.067586705;0.052013736;0.009260653;0.30718857;0.078566365;-0.14059699;-0.0063259397;0.05446952;0.24138077;0.06440302;0.068261;-0.067302376;0.10441508;-0.03163866;-0.1837534;0.0024021924;-0.5162988;-0.010158086;-0.04120612;0.11138371;-0.02657992;-0.080329165;0.19976465;-0.02443047;-0.14987494;-0.0469097;0.029990287;-0.00647341;-0.06970945;0.0745439;0.044737194;-0.35975254;-0.019641735;-0.015887516;-0.14914595;0.06462122;0.025322603;-0.1943885;0.09210949;1.8944687e-05;-0.19032016;0.03147151;-0.0007786825;-0.0069699376;-0.08651045;0.1593144;-0.024123337;-0.079107754;0.34008744;0.019287998;-0.30531156;-0.05135046;0.025887763;-0.10535339;-0.07801125;0.0005404544;0.04296712;-0.06376244;-0.033607166;-0.22171322;-0.12586209;0.14007166;0.06015344;0.124086544;-0.023288794;0.04440734;-0.14642812;-8.800453e-05;-0.011812299;0.029354783;-0.0037018317;-0.14507987;0.02360275;0.14213604;0.04445333;0.059753273;0.17650665;0.12419544;0.00895074;0.074767925;-0.01231385;-0.30941352;0.26366287;0.005472525;-0.0864083;-0.032458216;0.15123188;-0.1320714;0.036060046;0.030053305;0.15945174;-0.043412242;-0.0134512475;0.051670853;0.057777125;-0.108034775;-0.0019823713;0.14220941;0.23464996;-0.19546117;-0.029812058;0.18227252;0.013560749;0.024557592;0.28979862;0.02712417;-0.091474;-0.008193951;0.061068926;-0.014161305;0.13791758;-0.021264715;-0.07898714;-0.23737426;0.06163473;-0.0625652;-0.044241793;0.005153315;-0.050140314;-0.05155636;0.17881629;0.028332407;-0.024328044;-0.22643664;-0.15858734;-0.016230047;0.034477644;-0.09734176;-0.40713146;-0.15135705;0.043168418;-0.0071906685;0.2201412;0.03344944;-0.010632913;0.05486416;-0.18507689;-0.05204744;0.04879795;0.07594601;-0.094552085;-0.20328781;0.06516719
0.062464047;-0.109658234;-0.040544268;-0.058226623;-0.20054634;-0.03385709;0.0035552585;0.08655623;0.13225172;0.010913637;-0.15641692;-0.28332534;-0.051500503;-0.03651533;-0.1730174;0.12165428;-0.032886244;0.12272193;-0.05658036;0.03696783;0.12624432;0.03657758;0.014225057;0.016158193;0.15755972;0.19908857;-0.06522199;0.023608008;-0.063145764;-0.0518358;0.0042940523;-0.052486807;-0.17649812;0.055456873;-0.007803702;0.28385738;-0.19091956;-0.069849916;-0.009597413;-0.26208252;0.2221928;-0.018790262;0.11953295;0.22603825;-0.053870857;0.20497449;0.030987509;0.05658121;-0.053416952;0.014021025;0.055948738;0.07347123;0.049490463;0.038265258;-0.04772264;-0.053862542;0.24420623;-0.012584362;-0.12498584;0.118435405;0.05136796;0.0534866;-0.0005010065;-0.033822726;-0.38638327;-0.05118234;-0.08299743;0.01187085;-0.027989652;0.03722164;0.21052371;-0.022293672;-0.18914424;0.14828913;-0.14971854;0.06581626;0.3251227;-0.083571635;0.091765516;0.029814208;0.04588112;0.030744283;0.09094728;-0.17834392;-0.06768027;0.16843893;0.1881981;0.023356132;0.029092368;-0.26730788;-0.012136342;-0.4174686;-0.0666476;0.002712544;-0.0014363443;-0.18063417;-0.02206236;-0.044618793;-0.053778276;-0.017382648;0.027658066;-0.042887714;-0.00019153918;-0.2889776;-0.10155417;0.008248284;0.000104551196;-0.054868583;0.05011788;0.04886682;0.31426924;0.12223407;0.12578666;0.21617027;-0.034676768;0.08476962;-0.1010352;0.10544564;-0.08882506;-0.06264907;-0.16313528;0.022978414;0.23250027;0.08150381;0.074870504;0.008407202;0.2398429;-0.060745362;-0.049081556;-0.05719842;-0.075693086;0.21361594;-0.03489177;0.074230835;0.06428614;-0.016403677;-0.036190413;0.22894353;-0.020024242;0.046002507;-0.077003166;-0.08770807;-0.037697654;0.031315457;-0.12745456;-0.0032253927;-0.019668613;-0.13658653;0.05422598;-0.1090466;-0.08686457;-0.15245707;0.02972167;-0.0502581;-0.4385861;0.017471012;0.020242164;-0.09928089;-0.07061393;0.40890032;-0.16805974;-0.014581297;0.3994879;-0.00028337908;-0.04518934;0.04747852;0.00021375465;0.0031815278;0.069515795;-0.025344897;-0.04006195;-0.01942338;-0.043191187;0.047332484;-0.026422879;0.14075108;-0.16709949;-0.016060375;-0.23196822;-0.32395256;-0.0846272;-0.019695438;-0.065665446;0.23212875;0.034042913;-0.31460464;0.045667265;-0.22210304;-0.27107006;0.1016842;0.5562355;0.052675962;0.11837739;-0.22825655;0.22427054;-0.053657476;-0.045914944;0.1247883;-0.16989532;-0.3158098;-0.067308836;-0.03245971;-0.008727714;0.030577648;0.5959468;-0.40239373;0.028578408;-0.14278582;-0.21604615;-0.026777787;0.013512818;-0.10577172;-0.018042868;0.002019529;0.3291109;-0.05222122;-0.134786;0.18520628;-0.31196582;0.0005142489;-0.008666473;0.24074809;0.12655425;0.027855068;0.019556088;-0.04598037;-0.20494358;-0.0019775631;-0.047624268;0.058866598;-0.14150372;0.12081995;-0.01577266;-0.014571964;-0.046276152;-0.17951366;-0.102322794;-0.25119147;0.00036401584;-0.15114665;0.2907406;-0.023435974;0.11897553;-0.115379706;0.017101912;0.048954714;-0.036401875;-0.17175339;0.117763974;0.0100057665;0.0905138;0.012585829;0.23182102;-0.2654286;0.01336279;-0.05514683;-0.27342525;0.0685657;0.030228326;-0.078473955;0.12204314;0.09758542;-0.2152757;-0.049569532;0.049657963;-0.371925;-0.018445075;0.06737712;0.33145085;0.061333906;-0.025709955;0.099516794;0.15124142;-0.08299304;-0.029954895;-0.16411924;0.15286602;-0.016013075;0.07131277;-0.03532797;-0.005132383;0.0032859629;0.17151767;0.1441769;0.06561513;0.071301766;-0.05253616;0.10140681;-0.0058591175;-0.06047723;0.051955413;0.2552645;0.38475746;-0.03308239;-0.012423842;-0.14604352;-0.3147278;0.06258531;0.3012894;0.0030918866;0.12520504;-0.05393133;-0.04277643;0.01898133;0.014307566;0.14994705;-0.23139025;-0.028225774;0.04425778;0.15409094;-0.39969787;-0.020841757;0.039305925;0.20591748;0.051190633;0.19687133;-0.08699117;-0.013331324;0.04024064;0.28333044;-0.1428689;-0.0003370938;-0.033832844;-0.103202336;-0.027953524;-0.04591889;-0.0032595275;0.34253198;0.34873658;0.24221577;0.026059128;-0.075153135;-0.05332343;-0.08585639;0.2391455;0.042476404;-0.21276091;-0.15280639;0.006626379;0.3612722;0.0019791976;0.093209505;-0.007982012;0.055980153;0.0062284605;0.013759635;-0.019325715;-0.018943118;-0.17737667;0.27253982;0.13373944;-0.24120492;-0.027433135;-0.39793414;-0.22128914;-0.035068065;-0.32126123;0.006177027;0.12025478;0.11924326;-0.27012;-0.103928514;-0.04233889;-0.17118287;-0.123126045;-0.27505043;-0.014566927;-0.031853788;0.22339644;0.0132781025;0.062496725;-0.018402152;0.033565562;-0.02004974;0.01922675;0.06797647;-0.0097814305;0.00139555;0.0808409;-0.07000729;0.03813842;-0.29855826;0.03427054;-0.04055871;-0.036256213;-0.009884643;0.017987182;0.062033582;-0.2773009;0.01903153;0.101011194;-0.11959286;0.10343655;-0.025884056;0.067350864;-0.027784728;0.019205706;-0.4514549;-0.00270928;-0.02488477;0.10903447;-0.04901504;0.07782891;-0.01417976;0.060459256;-0.35645422;0.005046637;-0.024254419;0.234333;0.035119344;0.027993742;0.027379027;0.29692614;0.031665854;-0.07123263;0.16140832;-0.05690175;0.020741839;0.2663185;0.020738347;0.21318032;-0.27822325;-0.12875837;0.11392584;-0.11583583;-0.062076215;-0.00741452;-0.090173356;0.17031136;-0.1954088;0.018174876;-0.46363842;-0.33327246;-0.07601072;0.009900712;0.049587652;0.39125663;0.13996354;-0.030553484;0.041388713;-0.02125333;0.07393165;-0.045283865;-0.008428363;-0.17628731;0.0056733964;0.04151515;-0.084197134;0.03953898;-0.41548082;0.09207992;0.04114467;0.09401588;-0.08563711;0.024735456;0.29480532;-0.0080805225;-0.18355802;-0.104811214;-0.036354404;0.043140963;-0.055496477;-0.07248281;0.08692745;-0.19017799;0.024455337;-0.024347806;-0.18120143;0.07538114;0.117719196;-0.23638995;0.10938936;0.02318979;-0.18529117;-0.003365775;-0.029613456;0.01591895;0.031474747;0.06085162;-0.016100513;-0.1631048;0.30634496;0.044010382;-0.33535782;-0.005935219;0.007863117;-0.19600657;0.013409838;-0.010379458;-0.010330995;-0.05003337;0.15021324;-0.07873737;-0.17707725;0.052626;0.038322505;0.0034524342;0.00068407896;-0.023061689;-0.25301307;0.07408548;0.014802217;0.026684534;0.002532035;-0.21721613;0.004682515;0.053366087;-0.06828317;0.2766788;0.07882609;0.040258214;-0.093047135;0.037088998;0.006464646;-0.24766329;0.33162552;-0.009324282;-0.044882752;0.016573625;0.06752327;-0.17284684;0.003317406;0.021970145;0.04741575;-0.0075567313;-0.057116594;-0.056041256;-0.0639497;0.019310903;-0.03519575;0.051265243;0.08748374;-0.13173601;-0.04057788;0.20125858;-0.02793885;-0.16826396;0.23224969;0.026140215;-0.025021886;0.09780444;0.1722779;-0.031257816;0.012646166;0.006647803;0.046980374;-0.28231537;-0.021923885;-0.027315985;-0.035040613;-0.0047321464;0.05617037;-0.0062519177;0.056678284;-0.045683775;-0.28069276;-0.21322648;-0.119943425;0.00067816547;0.019115213;-0.21023776;-0.38475478;-0.1067753;0.052177835;0.032859873;0.33840182;0.054513115;-0.030703474;0.06148972;-0.17556225;0.036767207;0.03518214;0.22651954;-0.052817166;-0.20991531;0.06926808
0.055168137;-0.061520454;0.047158174;-0.11513883;-0.2736311;0.022198375;-0.09852062;-0.008180324;0.18076915;-0.048317935;-0.13242507;-0.3283015;0.054993678;-0.09013926;-0.12948142;0.09861427;0.033372264;0.08942305;0.07141195;0.069463104;0.1824266;0.040980894;-0.0019417922;0.033769034;0.092057504;0.24544755;-0.056796487;0.09097857;-0.01144796;-0.0020765155;-0.009101484;-0.16499767;-0.22203937;-0.0016027129;0.0058602155;0.07945111;-0.13523415;-0.31464803;0.009745819;-0.12807566;0.14366138;-0.019977408;0.069740824;0.2038488;-0.06334528;0.16720699;-0.079513505;-0.020355454;0.04786923;0.06839479;-0.04236839;-0.02502334;0.11587207;0.07703183;0.06293223;-0.0165711;0.32491317;-0.046511967;0.05079791;0.11002931;0.0032475526;0.06503052;0.03349696;0.061835926;-0.19163139;0.06723868;0.035682745;-0.028636662;0.03774437;0.089333214;0.016014004;0.04710683;-0.09373978;0.123007916;-0.01806482;-0.043379307;0.2718692;-0.24872023;-0.0029062734;-0.047747653;0.042259395;-0.057544235;-0.023037117;-0.17187501;-0.029143495;0.17911741;0.117512025;-0.032481845;0.002717648;-0.25935778;-0.0714811;-0.51608354;0.0064762123;-0.069835894;0.016269395;-0.21816252;0.033419434;-0.016855657;-0.13199894;-0.024511384;0.012740391;-0.030107591;-0.0020797483;-0.28967392;-0.09028926;-0.028329084;0.013126548;0.031191178;-0.053298295;0.048615497;0.19074059;0.13736652;0.118192226;0.14795333;0.040462025;-0.0064639417;-0.2121423;0.08242991;-0.10795917;-0.09327884;-0.23410489;0.025466673;0.093614854;0.003517418;0.23214331;-0.043149672;0.10076054;-0.010918213;-0.16455516;0.06523683;-0.12983526;0.25190204;0.049574718;0.10240948;-0.0007793185;-0.015427491;-0.03163457;0.22383252;-0.15665062;-0.037897706;-0.16908164;0.05028803;-0.10402852;0.15214314;-0.055822734;-0.015009881;0.033346366;-0.13224675;-0.0076643196;-0.2666254;0.11654536;-0.20342639;0.06645872;0.022270266;-0.32075217;-0.09791574;-0.055076793;-0.14351882;0.038836427;0.3358483;-0.1260723;-0.06954951;0.43668228;-0.020051895;0.046338372;-0.06599883;0.06648546;0.03573414;-0.014496189;0.04466612;-0.02347755;-0.22231944;0.04192053;-0.075722456;0.054365467;0.21507698;-0.15012258;-0.067326136;-0.14705649;-0.20399034;-0.04250691;0.078649096;0.038103763;0.0743377;-0.059614226;-0.37337267;0.012376098;0.031576104;-0.17053555;0.17928404;0.61408955;0.04493658;-0.004762145;-0.17195717;0.12437414;0.010127148;0.051639426;0.011387043;-0.2186218;-0.33679965;-0.055125248;0.015105739;0.06356956;-0.006446115;0.55712265;-0.4255389;0.16023634;-0.13660881;-0.2664416;-0.044265684;0.017175686;-0.1465782;0.031183945;0.051447712;0.45715323;0.041150834;-0.13085599;0.12872638;-0.35415158;0.02754791;0.0067048585;0.16941991;-0.0032227184;0.11585539;-0.010434812;-0.15684962;-0.088742174;0.053427912;0.03710431;0.04251941;-0.12596026;0.30420497;-0.0046722735;-0.010104933;-0.027095195;-0.09311105;-0.25644115;-0.2743765;0.049403183;-0.021880854;0.27018493;0.042134058;0.08009728;-0.19763929;-0.040402614;-0.045153443;-0.11307437;-0.19014417;0.008803114;-0.060993373;0.029701576;-0.009720598;0.2074746;-0.22201653;-0.02120591;-0.08625121;-0.16643256;-0.041982368;-0.054601707;-0.15002546;0.07422372;0.16742508;-0.17044774;-0.11754576;-0.051695537;-0.42677763;-0.030926809;0.0081274025;0.3040298;-0.046832893;0.071020074;0.04950927;-0.010857604;-0.12948658;0.022953399;-0.079343766;0.13665296;0.06400573;-0.03831076;0.075703286;-0.008476015;0.14425033;0.054144196;0.08300033;-0.047352076;0.039631255;0.055196717;0.14709477;0.1155873;0.08394864;0.009572546;0.22198702;0.4457235;0.05046085;-0.08879302;-0.15906644;-0.30583528;0.08070455;0.038647138;-0.019870766;0.14314272;0.03732428;-0.01767044;0.026232649;0.10456464;0.06707422;-0.22000878;0.013630906;-0.018464243;0.07672016;-0.2977759;0.08100007;-0.03570083;0.18891959;0.1048241;0.3068675;-0.08654416;-0.03231351;-0.053495314;0.3324236;-0.10506954;-0.048877098;-0.017338056;-0.116992;-0.00544464;-0.018191537;-0.03394626;0.24984948;0.4837519;0.15624636;0.10366554;0.04971142;-0.010640284;-0.2045977;0.2713973;-0.051784147;-0.22233361;-0.11321505;0.028860308;0.27826592;-0.0015775946;0.07218499;-0.2589344;0.038427908;0.14711362;0.0075066127;0.023932623;0.02495023;-0.16220933;0.19142646;0.22462405;-0.099930465;0.03007928;-0.5017953;-0.087582305;-0.08674037;-0.15855435;0.0007799249;0.112460345;0.12668283;-0.3051888;0.04342658;0.021820178;-0.059341818;-0.20286232;-0.31667796;0.021755474;-0.18330202;-0.0072894273;0.025476925;0.034761067;-0.11755506;-0.01345166;-0.014283833;-0.036183186;0.012252932;-0.004895747;0.02667423;-0.074077435;0.020931171;-0.060361683;-0.24004222;0.030692905;-0.10871491;-0.07736477;0.04969067;0.111622036;0.073921256;-0.045197576;-0.22127491;0.037307184;-0.05050415;0.04243202;0.03948773;-0.09186761;0.005982861;-0.0025800474;-0.30218285;0.10911429;0.17371392;0.10080104;-0.048198618;-0.06817162;0.022288872;0.08244503;-0.30000395;0.00873699;-0.059554312;0.07099655;-0.07648234;-0.03244809;-0.0420074;0.23124872;0.012677756;-0.041237958;0.08663749;-0.021289738;-0.06708517;0.24064001;-0.012578531;0.20783788;-0.16284968;0.039145704;0.103364795;0.04144892;-0.039760575;-0.043206934;-0.08855539;0.0701637;-0.25532922;-0.07950562;-0.5004326;-0.34601137;0.03958643;0.04076618;0.13664441;0.4093992;0.0030948173;-0.15462428;0.03751316;-0.03786049;0.13660544;-0.03373916;-0.050353575;-0.099523425;0.06532118;-0.029103868;-0.0852835;0.003911906;-0.22362478;0.007930162;-0.007223979;0.04729888;-0.10664448;0.039047558;0.08825221;0.021630574;-0.20949222;-0.21847276;-0.023025686;-0.05222633;0.024382908;0.09536887;0.016774228;-0.13383761;-0.037865747;0.008848852;-0.054326687;-0.15708959;0.18393904;-0.18916126;0.0504594;-0.017387778;-0.1885636;-0.0005049453;0.004535822;0.0038036427;0.060019087;0.15869856;-0.012830048;0.010284058;0.18339738;0.2013995;-0.3068712;-0.03971552;-0.0679635;-0.22769482;0.10705862;0.025098093;-0.043553155;-0.041916166;0.07255289;-0.028001549;-0.17581208;0.11227086;-0.055562213;-0.13612583;0.05215583;0.055962488;-0.14857985;-0.03941633;-0.029251173;-0.04707399;0.028913308;-0.08450677;-0.095639914;0.076147564;0.03254693;0.24974057;0.00091302005;-0.15133283;-0.1201994;0.024651047;-0.056035895;-0.25285006;0.15538925;0.023922294;-0.11853396;0.037499;-0.021518188;-0.20250368;0.05163498;-0.05436089;0.10914781;0.0015154167;-0.045123633;0.032127906;0.02984065;-0.062967636;-0.012648376;0.12480256;0.09841763;-0.2727836;0.07089057;0.19244155;-0.09205736;-0.0057100817;0.15667024;-0.037820846;0.023447212;-0.002346662;0.075664386;0.04478083;-0.010939694;-0.016762676;0.013441619;-0.014069911;0.055755217;0.111526765;0.0712137;-0.062204286;-0.039819755;-0.008352988;-0.051548567;0.04554537;-0.20627113;-0.2742158;-0.03870346;-0.0142099215;-0.018515268;-0.036657315;-0.35701603;-0.10557456;-0.095968716;-0.055573065;0.33133668;-0.024523843;-0.089328855;0.24898462;-0.113982916;0.096018836;-0.047054783;0.05652029;-0.10868157;-0.3096716;0.15968284
0.04113278;0.048573524;0.10619772;0.03272302;-0.20680366;-0.03397813;-0.22080389;-0.081290476;0.2318081;0.013293044;-0.23587415;-0.23623928;-0.020390794;0.023787985;0.030869354;0.12718059;-0.06175269;0.16823693;-0.057190448;-0.043541502;0.28342432;-0.00951909;0.09677186;0.04159105;-0.05525224;0.20390986;-0.19758287;0.051619373;-0.010342997;0.051908888;-0.05142267;-0.31561697;-0.27848694;-0.05250878;-0.023286033;-0.010606005;-0.2089898;-0.47598767;-0.071807556;-0.019594569;0.23165615;0.060600843;-0.08855491;0.32348043;-0.09972254;0.15791295;0.03196736;-0.08810034;-0.046861082;-0.039500598;-0.09501874;0.062264536;0.17673364;-0.124683134;-0.024012681;0.09503109;0.122830026;0.06223299;-0.06764465;0.03871832;0.02787377;0.027280692;0.0036761446;0.05549928;-0.19705565;0.047522176;0.09606609;0.08743398;-0.020634696;0.07516119;0.04535443;0.026086925;-0.15809776;0.085658334;-0.23365621;-0.13619079;0.22766015;-0.23932682;0.043002814;0.07223037;0.005301317;0.067116216;0.18012148;-0.016108453;0.031536046;0.17357713;0.0061434456;-0.018969284;-0.012540276;-0.16456755;-0.21481991;-0.36889526;0.048796732;-0.05806861;-0.04163348;-0.047223896;-0.042613685;-0.074974075;-0.21781541;-0.042568244;-0.19538853;0.0436987;0.032222547;-0.19355088;-0.03836843;0.026284795;-0.07107316;-0.022826929;0.008795158;-0.07225797;0.23868807;0.06164825;0.081206545;0.05721511;0.04673676;0.015895577;-0.13266514;0.14838637;-0.10926632;-0.089597955;-0.30161068;-0.020026881;0.033619463;-0.049535725;-0.0596573;0.071479306;0.05063442;-0.18371962;-0.26920658;-0.051242;-0.10644663;0.38098273;0.0048436327;0.09570108;-0.037719164;-0.0087304795;-0.03193431;0.2754982;0.032278493;-0.010134049;-0.13636017;-0.062469773;8.651773e-05;0.08327369;-0.11525205;0.046661768;-0.017663341;-0.027206475;0.00023717534;-0.351977;0.18453182;-0.34012976;-0.077057734;-0.00856899;-0.45364553;-0.02846959;0.038518656;-0.18362777;0.0748963;0.3758492;-0.024315462;0.17830493;0.28433356;0.039845876;0.14400214;-0.038311742;-0.018329423;0.07973035;-0.1054592;-0.04807735;0.04898009;-0.1041049;-0.018333057;-0.07028062;0.0120028015;-0.07278916;-0.21592286;-0.009942193;-0.07543269;-0.2785051;0.077627085;-0.06860692;0.08355536;0.10550762;0.029015291;-0.26404345;-0.051768433;-0.08261506;-0.168812;0.09415851;0.44305745;0.0830269;0.11646326;-0.111568324;0.13524461;-0.074182026;-0.026855089;-0.08460745;-0.28830123;-0.33803183;-0.07181702;0.03297493;-0.009492753;0.020773642;0.4496496;-0.5517465;0.21767595;-0.17696038;-0.22456448;0.030477544;0.10593564;-0.05344638;0.011768588;-0.032791235;0.21523704;0.111112274;0.021934787;0.19275054;-0.24398893;-0.0305374;0.03908192;0.16762067;0.016925316;0.22898139;0.004276352;-0.11498549;-0.036686953;0.022915164;-0.020493183;0.09799229;-0.066341266;0.25747645;0.025191605;-0.005244017;0.043636397;-0.15410998;-0.13634938;-0.28244784;0.045725074;-0.034675293;0.31836405;-0.050840672;0.007691196;-0.1748655;0.042473145;-0.10187413;0.092400976;-0.16548742;0.053526334;-0.047768056;-0.07911374;0.0012297574;0.29607466;-0.16494736;0.0133014135;0.1103513;-0.06851564;-0.054077093;-0.02933892;-0.13324162;0.044290885;0.080879256;-0.19139537;0.01237308;-0.028287044;-0.43176648;-0.028274352;0.03434084;0.08934871;-0.0315047;-0.011219747;0.075762175;-0.13772619;-0.08516886;0.03486364;-0.23088148;-0.070971645;-0.05605906;-0.06526762;-0.02330293;0.17173447;0.16070877;0.08968679;0.018957486;-0.0024403124;-0.051086232;0.034774255;0.09225456;0.100340664;0.018028488;-0.16286254;0.25078285;0.15945044;0.039152876;0.035279296;-0.06727532;-0.25219306;-0.042445242;0.024446908;0.008945131;0.10905034;0.015379189;-0.020551518;0.0049999906;0.17006882;0.1515912;-0.10996123;0.05888206;0.09227986;0.04240956;-0.2840949;0.03158646;-0.05184108;0.03104;0.11540371;0.32810193;-0.32890558;0.038507078;0.023184055;0.18654273;0.03611656;0.019570176;-0.10292851;-0.1627622;0.063470244;0.10199619;0.06469252;0.26830953;0.21295229;0.3233774;0.08657303;-0.02968544;-0.18032235;-0.1669949;0.2199088;0.017030662;-0.24456096;-0.21609868;0.24544756;0.3533587;0.0012214503;-0.10157543;-0.33259478;-0.012521419;0.045850344;-0.0091796955;0.010552988;-0.026268372;-0.15020782;0.28186035;0.24458402;-0.11267835;0.015160864;-0.35002127;-0.06955602;-0.19153324;-0.113414906;-0.010524759;-0.03031868;0.12291433;-0.238893;0.004534747;0.061414823;-0.10457924;-0.28042823;-0.31066146;0.036476634;-0.26861873;-0.035926864;-0.038944993;-0.056762483;-0.17107338;-0.0075384476;-0.010461635;0.050097242;-0.03742589;-0.022287242;-0.009766649;-0.024955979;0.026845865;-0.05710277;-0.36420393;-0.05194679;-0.12759659;0.044253394;0.007271727;0.051693693;0.0809672;0.10491792;-0.12715873;-0.015923556;-0.09511154;0.01545977;-0.019393891;-0.13290368;0.030122604;0.0159638;-0.15639482;-0.10873993;0.16533382;0.08021963;0.029113496;-0.052410293;0.06325474;-0.098889135;-0.19161534;0.08089512;-0.014194447;0.31128007;0.036633007;0.0039614844;-0.0030102148;0.16808626;3.263991e-05;0.019850342;0.27076966;0.034212984;0.043279435;0.3902936;-0.07000022;0.10956798;-0.08479882;0.19261503;0.041158684;0.044548415;0.014909368;0.03841703;-0.041523185;0.054679986;-0.14947425;-0.24100722;-0.23844802;-0.26167458;-0.024742188;-0.025576774;0.12890175;0.47643733;-0.0589953;-0.15125868;0.007532834;-0.04361584;0.04014818;0.0041990895;-0.096201904;-0.15384406;-0.032491118;-0.05430956;-0.18482101;-0.012671301;-0.26690423;0.029116003;-0.051819824;0.10969635;-0.056570634;-0.031760983;0.16993919;0.01280767;-0.08362594;-0.20078735;0.019549213;0.03181832;0.050103992;0.14088713;-0.11026034;-0.12625019;0.057128683;0.06365933;0.055080436;-0.00093871047;0.12469425;-0.28655756;-0.01147598;-0.002091502;-0.23505305;-0.042595018;-0.020511774;0.000154015;0.085460335;0.19661854;0.0736283;0.061225463;0.22799097;0.065912016;-0.20154357;0.05895038;0.04735082;-0.09016465;-0.060021013;-0.0056725536;-0.14691223;0.038875118;0.06320453;-0.030084869;-0.26662582;0.047812693;-0.034862835;-0.049721792;-0.01471396;0.12361779;-0.23482049;-0.069848344;-0.023024552;-0.044673514;-0.04869649;-0.19865273;0.0381424;0.08704731;0.055591825;0.15452895;-0.016741296;-0.12710266;-0.22803843;0.047848202;0.0652751;-0.20324557;0.20836905;-0.022990005;-0.0263744;-0.06552338;-0.10604116;-0.15310964;-0.06259296;0.041254546;-0.019453907;-0.017310947;0.10312305;-0.0226447;-0.030688634;-0.07697655;0.031244371;0.103935204;0.14432058;-0.4189807;-0.0273468;0.1891974;-0.022147313;-0.00803438;0.31735966;-0.010898956;0.21062477;-0.04840654;0.25460762;-0.0077036778;0.036508758;0.014167343;-0.049071636;0.035060443;-0.010431987;0.1366226;-0.022208855;0.02883926;0.0024477572;0.060334418;0.050840046;-0.0044121114;-0.06600243;-0.13407202;-0.046185266;0.04597503;-0.045856528;-0.12144522;-0.12927362;-0.07042863;-0.1615762;0.035342626;0.27442256;-0.063976176;-0.054159075;0.30583248;-0.15671435;0.079332635;0.014813879;0.056873027;-0.002921553;-0.2998506;0.035231497
0.041314974;0.005874531;0.052344408;0.067372225;-0.10287759;0.015743727;-0.07216729;0.03958312;0.12471063;0.053619906;-0.2416219;-0.17736796;-0.043790665;0.20596929;-0.106553674;0.14391698;0.026737574;0.09872881;-0.028642923;0.010959688;0.3301732;0.044144694;0.00077353645;-0.11876756;-0.07801543;0.14596105;-0.09330843;0.14265843;0.04208455;0.0061774827;0.027437417;-0.29932892;-0.22177039;0.085789554;0.007988943;0.07582012;-0.15371189;-0.35321623;0.025010826;-0.21607982;-0.052358143;0.007777706;-0.020429675;0.30926937;-0.19074251;0.18766938;0.02240559;-0.008965026;0.029625928;-0.009463905;-0.09093434;-0.051632296;0.221549;-0.17831561;-0.024061339;-0.004651263;0.11833487;0.032401312;-0.09322508;0.015948772;-0.033031255;-0.21660408;-0.011537118;0.099809095;-0.012538216;-0.0075932406;-0.0834732;0.21799085;0.038845707;0.04910765;-0.034854297;-0.022143021;-0.10864274;0.21752532;-0.24781;-0.16147749;0.16209756;-0.3099161;0.014589813;-0.072626255;0.049986567;0.00045080084;0.18390112;-0.019432483;0.04125784;0.18276313;0.056236982;-0.024622269;0.019232996;-0.043031428;-0.27478048;-0.241392;-0.056744535;-0.04394824;0.03239285;-0.034983203;-0.0019635423;0.01674206;-0.2574063;-0.05852703;-0.19866362;0.026485452;-0.010846007;-0.10392581;-0.07643486;0.04906315;0.04197285;-0.04428488;-0.04309103;0.016048893;0.13486764;0.12664782;0.1599749;0.018596904;-0.035606954;-0.009656493;-0.10664476;0.1101175;-0.23509657;0.0015297935;-0.29347932;0.0025968621;-0.0076679024;0.15993468;0.19788413;0.04410001;0.08648557;-0.21717016;-0.31406993;-0.028153349;-0.07467177;0.27874598;-0.00078719563;0.013750035;-0.0415124;0.03212076;0.034553107;-0.022272477;-0.015372606;-0.12657335;-0.22384132;0.037977125;-0.034769453;0.27057865;-0.066614725;-0.03175746;-0.03295249;-0.13226624;-0.008761091;-0.42780873;0.115438394;-0.2371572;-0.020423952;0.028516617;-0.5089496;-0.050757714;-0.012391383;-0.17119631;-0.053319618;0.35165998;0.081660606;0.26757848;0.14897059;0.09585138;0.11329673;0.044636205;0.052070536;0.049930517;-0.25565898;-0.062189583;0.018723493;-0.1126513;0.03551874;0.057762723;0.009910876;0.114035375;-0.3632032;-0.14400674;-0.044873733;-0.31264907;0.1252771;0.06412712;0.15677975;0.13773486;0.029967755;-0.23845612;0.057579126;0.12626399;-0.19360936;0.09416317;0.47041008;0.17469557;0.12238674;0.016745409;-0.10938811;0.062465098;0.057236586;0.04194487;-0.27958488;-0.19985396;-0.047784667;0.02135044;-0.04780087;-0.039274428;0.3984544;-0.51402223;0.10084504;-0.08399861;-0.3608525;0.03057108;0.062096864;-0.23114386;0.015493953;0.029574087;0.14144003;0.07488026;-0.03392969;0.13710496;-0.1402196;0.04339674;0.028295012;0.098590925;-0.15375799;0.22712648;-0.0066996887;-0.17697299;-0.19083813;0.01637828;-0.0003712074;0.1572682;-0.030986456;0.2818727;-0.0040408517;0.012124154;0.14663911;-0.089955546;-0.18184839;-0.26219657;-0.028699007;0.08907838;0.16985327;-0.19838603;-0.083575904;-0.064979225;0.013944136;0.04973603;0.03853575;-0.15345107;0.08865722;0.0578349;-0.14626196;-0.02569551;0.24676262;-0.012576563;0.027625091;-0.012895144;-0.09043835;0.06644068;-0.13899118;-0.055257518;0.0729704;0.11916593;-0.20866738;-0.11654713;0.01642081;-0.40721858;0.030766426;-0.017314551;0.070946634;-0.007967018;-0.03631653;0.08463726;-0.08950364;-0.074150145;-0.03776096;-0.23252411;-0.14681005;0.03628556;-0.16037916;-0.0038879404;0.106826335;0.035953388;0.12546097;0.115378685;-0.007902567;-0.01417658;-0.10116559;0.08478688;0.08251212;-0.016121978;-0.2608796;0.21590286;0.1479368;0.061348192;0.037094723;-0.15223727;-0.3406156;-0.072485104;0.09020598;0.14405432;0.025567643;0.045207907;0.042094044;0.003790718;-0.031831216;0.13741978;-0.18911152;0.012800167;-0.036342006;0.08250049;-0.17556623;0.103212975;0.04112494;0.024515364;-0.0077194665;0.27220362;-0.25110045;0.05536447;-0.057940185;0.26769483;-0.017974785;0.010334254;-0.104519874;-0.045939844;-0.046660703;0.08167716;-0.045178033;0.36075673;0.10146382;0.1907377;0.110706665;-0.016900882;0.049079172;-0.084875524;0.08812266;0.01945421;-0.15485601;-0.25602934;0.10814555;0.3138138;0.033943195;-0.09787425;-0.41771716;-0.19553557;0.029812152;-0.0076652;-0.012380561;0.0038854415;-0.12612534;0.30708262;0.31887427;-0.06549964;0.08245314;-0.3498616;0.070979364;-0.025616538;-0.07359127;-0.012158797;-0.13386185;0.111724734;-0.33438838;-0.008779507;-0.028907856;-0.10582097;-0.19687904;-0.19469033;-0.031339876;-0.4102006;0.104536235;0.08783422;-0.10454829;-0.15741178;-0.0030582652;0.0055937804;-0.025501475;-0.03784661;0.033478744;0.018432911;0.014325452;-0.0013669498;0.04308212;-0.33997467;-0.06806009;-0.22954883;-0.0014950557;-0.030097492;-0.041899297;0.07413628;-0.026767787;-0.11276583;-0.038065095;-0.15946464;-0.07130835;-0.013738144;-0.09720226;-0.029998366;-0.057162333;-0.24712566;0.08169189;0.15844393;0.17701875;0.010045626;0.07553105;-0.01761325;-0.039047122;-0.13471211;0.06359013;0.075400814;0.2667207;0.026741294;0.06364315;-0.047258954;0.3070436;0.03728371;-0.0745169;0.1784987;-0.019022623;0.007314213;0.14944369;-0.01769446;0.13107817;-0.012810846;0.12237232;-0.009387233;0.030472323;0.0662467;-0.010188865;-0.028035242;-0.1694444;-0.16226813;-0.06678215;-0.3960399;-0.26023695;0.05267044;0.045366414;-0.055428132;0.36061352;0.05273945;-0.15551336;-0.06476877;-0.04816789;0.042907476;0.046812598;-0.24737617;-0.020566493;-0.2716496;0.040018346;-0.15194105;-0.049535938;-0.1756908;0.009872815;0.020461265;0.018522574;-0.08761051;-0.0443214;-0.11189378;0.011101937;-0.07879693;-0.17490093;0.042087756;0.000121828736;-0.027858341;0.24365114;-0.009998389;-0.1382051;-0.026113302;-0.07318078;-0.01022502;0.097199224;-0.061068863;-0.24756771;-0.06547852;-0.026556361;-0.15352482;0.027067365;0.021571651;-0.029316217;0.11628109;0.07311834;-0.048333943;0.0024079017;0.010095174;0.2765083;-0.1459108;-0.1303278;-0.036722083;-0.049220845;0.030368004;0.008102019;-0.23873457;-0.025077201;0.008698025;-0.073557466;-0.10652141;0.04033707;0.0698952;-0.12170847;-0.03578327;0.10577928;-0.2138496;0.032247696;0.062038675;-0.012152426;-0.009491439;-0.4200199;0.020120276;0.04816345;0.025194868;0.18121418;0.07022699;-0.09322957;-0.22634588;0.0055806017;0.019698577;-0.1603677;0.06312259;0.05578128;-0.06822696;0.016118439;0.02242008;-0.2617838;0.020482458;0.03428728;-0.14362538;0.031523228;0.15790811;-0.029863983;-0.00976293;-0.05338596;0.015452502;0.11276749;-0.083788864;-0.39818352;0.024395855;0.18533213;-0.011712858;-0.07732747;0.36255392;0.0048628245;0.11961909;-0.17680933;0.07254301;-0.039140236;0.1034079;0.04709551;0.036772925;-0.07769514;-0.02260806;0.022797998;0.033127204;0.12879315;0.059475135;-0.015008507;-0.17933986;0.01428518;-0.09321541;-0.10278272;-0.1664999;0.0186835;-0.010450786;-0.13983752;-0.1909476;-0.05579986;0.010035859;0.0105118845;0.12079606;0.0524099;0.046313923;0.19163638;-0.26286548;0.1353966;-0.0593443;0.21521138;0.06521262;-0.33257362;-0.14050561
-0.046369363;-0.12931189;0.14284787;0.18194622;-0.18287191;0.033718992;-0.011747431;0.04003966;0.26851055;-0.03388049;-0.106183715;-0.19584258;0.0665057;0.18386893;-0.07519052;0.13416386;0.024609106;0.11877177;0.027750725;-0.03598912;0.25149208;0.043513633;0.01664996;-0.08492736;-0.21095031;0.063056625;-0.05518977;0.0003222203;-0.0015814276;-0.05458593;-0.04462169;-0.11487907;-0.28772882;-0.025138985;0.03911449;0.036905307;-0.15138957;-0.507594;-0.043404184;-0.06685464;-0.010603863;-0.038288202;0.052289702;0.14518946;0.05682082;0.1992341;-0.04424175;-0.026786387;0.027493397;-0.050557934;-0.00027874112;-0.054728027;0.262011;-0.16199328;0.012241828;-0.06400148;0.26752174;-0.038561624;-0.07844772;0.17749856;0.12867828;-0.13037285;0.040372085;0.13915274;0.0046209474;0.054496508;0.18425688;0.22196494;-0.062839694;0.20654936;-0.1255939;-0.0511986;-0.038968913;0.17841364;-0.114247024;-0.1827475;-0.019375479;-0.35465753;0.033086427;0.03383507;-0.024576712;-0.025947545;0.10241898;-0.19545476;0.048938327;0.03407281;0.1040876;0.041853648;0.00208337;0.18605074;-0.009858905;-0.34383902;0.028453745;-0.02922845;-0.014656458;-0.046726186;0.034434877;-0.034590844;-0.25151765;0.04505;-0.16980962;-0.046088874;0.045518093;-0.19161701;-0.065290995;-0.06961905;0.050333124;0.042389162;0.060058303;-0.04269475;0.09524688;0.04153273;0.18474913;0.11697704;-0.02679365;-0.0057414756;-0.107834965;0.13612965;-0.13182019;0.07547679;-0.15514956;0.045197416;6.683398e-05;0.27098125;0.13035965;-0.050220907;0.21173853;-0.32604027;-0.3996668;0.045077883;-0.057199113;0.29038656;0.008233109;-0.029015383;0.027961215;0.07896898;0.18040925;-0.00068224675;0.011830112;-0.17844346;-0.22804391;0.025881242;0.15994678;0.3030904;-0.020216163;0.0025580004;-0.014361626;-0.20721638;0.018302534;-0.46498376;0.2350987;-0.33198985;0.006622357;-0.039367724;-0.3628176;0.022392513;0.05673812;-0.17984928;-0.18220112;0.35643092;0.058177155;0.32426128;0.3383316;0.09390815;0.04952498;0.02404034;0.027186066;0.17912292;-0.1181635;0.075006366;-0.06894988;-0.1134664;0.007910466;0.06558046;-0.064677;-0.024468493;-0.21624026;-0.024455087;-0.04535621;-0.17295682;0.20236424;0.17404968;0.2793742;0.316246;-0.051726297;-0.16454047;-0.050325394;-0.014827888;-0.27907318;0.16726303;0.41653866;0.090906814;0.06934343;-0.09987754;-0.22426783;0.17823294;-0.016914245;-0.1568398;-0.17368509;-0.09317835;-0.0017128106;-0.033767637;0.01824741;-0.03584125;0.44315252;-0.42626035;0.17689843;0.08059799;-0.38983715;0.016965268;0.050478145;-0.22193922;-0.0092696175;-0.023944795;0.10884916;-0.050473716;-0.098432116;0.110984124;-0.073123835;-0.0052054944;0.014426861;0.12412243;-0.025336696;0.3423515;-0.0017636388;0.049190328;-0.25498632;-0.06938107;0.05977087;0.0960775;0.041422024;0.21976098;0.049251813;0.030020569;0.24432768;-0.05356985;-0.11041455;-0.3537388;-0.044271965;0.1054315;0.049695596;-0.3252977;0.0625871;-0.091180295;-0.0024134493;0.052789867;-0.020783205;-0.09269188;0.11099458;-0.0059835147;-0.073137365;-0.02189347;0.054185487;0.031603675;-0.028483419;-0.046024617;0.08704823;-0.0007238139;-0.14671105;-0.20909642;0.1415772;0.19136395;-0.107175104;0.048887074;-0.04452975;-0.37190443;0.0424646;0.08687247;0.0045936573;0.0036129027;-0.04997779;-0.08548502;-0.28644088;-0.09680987;-0.027322372;-0.17788139;-0.08757522;0.014967844;-0.13605534;-0.038671307;0.055099964;0.046039734;-0.10720244;0.19238345;0.030718766;0.12212608;0.012987574;0.014713982;0.1744723;-0.018707247;-0.1148581;0.20054027;0.14700224;0.07694647;-0.012112538;-0.11280499;-0.29522625;0.07513152;-0.1292904;0.09752998;0.11197043;-0.08468624;0.03950124;-0.0717512;-0.1902473;0.122217864;0.06796827;-0.04513914;-0.1579677;0.04047111;-0.2099817;0.09066094;-0.0033875464;0.009639298;-0.2453529;0.16684848;-0.52575666;-0.03854956;0.06239383;0.16979773;-0.06184219;-0.008470303;-0.11709723;0.10632166;0.009635003;0.020738628;-0.021968348;0.30329466;-0.020974582;0.1959635;-0.020933874;0.021387722;0.028995417;-0.13109219;0.03707569;-0.024301693;-0.17500067;-0.23772064;0.12245912;0.13841233;-0.027687745;-0.038197935;-0.47699824;-0.27891558;0.009161972;-0.0071797776;0.04009977;0.059745494;0.104465716;0.24057668;0.28782213;0.07357072;0.03870871;-0.28075898;0.13624056;-0.01835856;0.0673724;-0.01155045;-0.25277907;0.23946358;-0.24717295;-0.018141951;0.04891684;-0.13363361;-0.25182658;-0.112379186;0.0057252264;-0.54110706;0.039565228;0.029586682;-0.033816073;-0.0698032;-0.011175645;-0.020203274;0.027169604;0.006347704;-0.0033931204;0.030593915;-0.039757565;0.025782472;-0.005205464;-0.29859126;0.044421006;-0.21870925;0.02648047;-0.035685644;-0.0033324314;0.15223718;-0.009498259;0.07361673;-0.05917526;-0.07583704;-0.051482566;0.016157279;-0.057184804;-0.020894175;-0.054542147;-0.17549883;0.0758159;0.1716628;0.11420615;-0.02823074;0.20587647;-0.0035267798;-0.052663714;-0.12190749;0.14957349;-0.018095937;0.10729409;-0.040112365;-0.042991158;0.028944083;0.25759035;-0.007064292;-0.09241535;0.3570601;-0.064975075;-0.009201928;0.10785322;0.04935528;0.14642027;-0.040543612;0.20336659;-0.029981779;-0.13630861;-0.069928475;0.0009814268;-0.0056075025;-0.04354078;-0.2020466;-0.12111272;-0.3609125;-0.30677262;-0.03400008;-0.036398765;-0.050310038;0.22565271;-0.017609121;-0.14027701;-0.022644782;0.044197712;-0.014841116;-0.023628592;-0.15458938;-0.17885093;-0.06400727;0.01888518;-0.043591414;0.009899877;-0.201337;-0.0032863675;-0.008281156;-0.039822552;-0.13675754;0.07852773;-0.13759303;0.003120933;0.07854244;-0.03737235;0.0029309948;-0.03393616;0.0377367;0.18487875;-0.19554062;-0.23002538;0.011933919;0.061196443;0.020005621;0.066258125;-0.030169828;-0.2899972;0.006755689;-0.011434766;-0.15772499;0.16100602;0.0032508573;0.03944424;0.17372006;0.12805898;0.063172445;0.24361576;0.034032166;0.22866416;-0.1939947;0.042665437;0.041536123;0.098781034;0.004692118;-0.046586644;-0.3527985;0.028276375;0.12974498;0.024771549;-0.070273325;0.0988127;0.0023002787;0.020662531;-0.029436653;0.15849571;-0.19000398;0.07133567;-0.043033294;0.07024805;0.03229671;-0.30224335;0.0016843023;-0.10039832;-0.0690985;0.08102346;-0.06392693;-0.03057152;-0.09982812;-0.058952674;-0.08486585;-0.14188513;-0.0028954977;-0.051635455;-0.06106196;-0.015726823;-0.109871864;-0.31876466;-0.04519994;-0.0320605;0.089086175;0.04002683;0.12214571;0.016504303;0.06827496;-0.06487804;0.015024347;-0.04116912;-0.109709345;-0.44468707;0.00911597;0.10666823;-0.031472743;0.07743051;0.39198685;0.001971526;0.0004886675;-0.0722785;0.19459502;0.024676954;0.14062579;-0.0451779;0.013248602;-0.05985137;-0.013873547;0.06357177;0.016282013;-0.06272127;-0.05372398;-0.031393837;-0.24326926;-0.024539042;-0.11572513;0.014672282;-0.19662271;-0.012366825;0.028162623;-0.17195639;0.08961688;-0.09292312;-0.051816735;0.0015663826;0.07290141;-0.021021096;-0.0068049673;0.202909;-0.18440348;0.14203061;0.039657444;0.2518708;0.2234665;-0.44336948;-0.004307026
0.04179011;-0.14814803;0.1518804;0.0043065213;-0.08560454;-0.024446817;0.07464636;0.036146466;0.068099886;0.019062297;-0.10217034;-0.087572016;-0.01774881;-0.061782822;-0.04343302;0.064946406;0.02322353;0.1367692;0.05284582;-0.0769026;-0.02834396;-0.08127156;0.04135924;-0.039476555;-0.0636044;-0.0355521;-0.020771721;-0.032171283;-0.034374446;0.0043215184;0.03521123;-0.0051873866;-0.32046536;-0.034736782;-0.02022406;-0.04084802;-0.113329016;-0.42338157;0.04830243;-0.081225574;-0.010948709;-0.022925155;-0.071273886;0.027633864;0.046924286;-0.06396615;0.014348578;-0.062020764;0.043795858;0.10318092;0.14675902;0.079415746;0.15277605;-0.13613899;-0.024514554;-0.025229767;0.10230273;0.049028996;0.07939707;0.1682338;0.0070260717;-0.08975289;-0.08203774;0.12728217;0.015650252;0.083197095;0.014713062;0.20718637;-0.018684842;0.08953342;-0.060532972;0.0024114982;0.019132847;0.17845331;-0.122155674;-0.13454577;-0.04411044;-0.4147965;-0.0072166254;-0.0012935179;0.014864891;0.03232937;0.028271409;-0.20797065;0.05933039;0.14126022;0.12108954;-0.006297119;-0.05592436;0.29826427;-0.037156317;-0.2651168;0.055317517;0.08579366;0.032154977;-0.13029657;0.007910511;0.014754861;-0.040318653;0.03256452;-0.20291398;-0.00799165;-0.032021016;-0.2887188;-0.0016410165;0.00527762;0.04205006;-0.0397224;-0.023750061;0.06800198;0.09779254;0.1283183;0.13578944;0.10042947;-0.006690271;-0.036150943;-0.04737368;0.1799309;-0.21415436;0.04971688;-0.0794388;0.020055573;0.060468294;0.19403894;-0.014097766;-0.103731886;0.20150918;-0.31821325;-0.36982065;0.022558017;-0.117292196;0.2825355;-0.034156974;-0.11717292;-0.007421035;0.062086444;0.2155932;0.006241479;0.039007068;-0.21976815;0.0050144987;0.014626941;0.18663056;0.15876578;-0.22349884;0.016212225;0.024038127;-0.13279726;-0.025349773;-0.6163053;0.23662136;-0.29688442;-0.06351048;0.014894044;-0.2108221;-0.01968007;0.058772724;-0.011786163;-0.19166088;0.22152065;0.00385498;0.31804892;0.35664314;-0.018858565;0.043431737;-0.044793986;-0.0672302;0.24236816;-0.07672665;-0.01437334;0.02784706;-0.15406452;-0.0626863;0.061147712;0.0232345;-0.074366026;-0.31474683;-0.1438498;-0.05309097;-0.26138756;0.2357464;0.18768021;0.21902479;0.19769472;0.05602523;-0.25374758;0.056010686;0.012594882;-0.1595652;0.20776825;0.16167994;0.13859756;0.1658846;0.014415592;-0.31611338;0.29437464;0.0045564296;-0.025060896;-0.20144516;-0.045008734;0.13901603;-0.06250456;-0.0061465707;0.06962702;0.3561688;-0.49506918;0.11934755;0.13857502;-0.23206015;-0.021705378;-0.05094708;-0.09107679;-0.048272207;-0.008866258;-0.0012701338;-0.026848823;0.0052805627;0.062486265;-0.025927506;0.07341827;0.118788026;0.021354193;-0.12906782;0.32224104;-0.018987954;-0.016585901;-0.2209113;-0.0072970428;-0.027708951;-0.030540645;-0.052893262;0.24162982;-0.03232163;-0.056515515;0.17708287;-0.019648587;-0.03032773;-0.33501017;-0.07537437;0.05932104;-0.05016762;-0.34768903;0.060435437;-0.24485733;-0.034224622;0.005403785;-0.03249537;-0.1291831;0.077481985;-0.00081598276;0.07206183;0.06570659;-0.10400631;-0.09655441;0.041084312;-0.038127195;0.07618472;0.032312363;-0.14716253;-0.2275876;0.12175508;0.2502536;0.06204501;0.013205875;0.018525535;-0.36740196;0.00450094;-0.03978485;0.039825752;0.03901726;0.06820049;-0.18228763;-0.21558578;-0.07374658;0.033819206;-0.05531781;0.05057766;-0.051305994;-0.22441852;0.025415353;-0.006948899;0.27715674;0.007955309;0.12660657;-0.011051905;0.11293919;0.019033385;0.12724183;0.1274498;0.039300017;-0.11849091;0.12974095;0.12406818;0.119557984;0.03657614;-0.082612865;-0.18503727;0.09667022;-0.09228039;0.0945114;0.0030852568;-0.020730782;-0.052564904;-0.027412135;-0.18537822;-0.057494577;-0.031832233;-0.044293642;-0.024109825;0.12978265;-0.38934702;0.16300422;0.01110011;0.0074623805;-0.34625408;0.19349895;-0.44533226;-0.029333312;-0.050676014;0.2928101;-0.07771429;-0.001480745;0.093112476;0.14901315;0.02307921;0.10720971;-0.022544118;0.15744898;0.041416034;0.069515504;0.08106661;0.027775412;0.13684754;-0.17478617;-0.13665885;-0.002317569;-0.14555746;-0.3431892;0.17837012;0.21624786;-0.01282315;0.059805583;-0.45840403;-0.2501613;0.03335906;0.054950226;0.027003104;-0.018996406;0.017647687;0.35552746;0.1905957;0.051365573;0.1890815;-0.2647855;-0.028704729;-0.09071677;0.18034743;0.052082874;-0.21454673;0.24134244;-0.17907587;-0.020921929;-0.057256304;0.04025778;-0.23389827;-0.1118289;-0.03945282;-0.3993237;0.08547613;0.06450585;-0.12370117;0.016910002;-0.0096116625;0.059498917;-0.040050518;0.03098378;-0.07353369;-0.04432478;0.018223803;0.057603568;-0.019464426;-0.31317535;0.042405307;-0.019390028;-0.0075281574;-0.012989043;-0.012556293;0.03652679;0.09023983;0.15371527;-0.14416239;-0.09596857;-0.0350209;0.028104344;-0.08299725;0.00510835;0.028378686;-0.23756632;0.1572895;0.08951933;0.20467854;0.045034833;0.094095975;-0.03489436;-0.19124223;0.035888497;0.013423628;0.05230283;0.11500583;-0.016855227;0.03226775;0.044527505;0.2110538;-0.026788851;-0.11385882;0.16204304;0.061280496;0.0155508565;0.069714196;-0.06366723;0.10050172;0.0893594;0.012069299;-0.006079247;-0.10944373;0.043858636;0.043171216;-0.03822631;-0.086884305;-0.1638617;0.04452595;-0.4254963;-0.27911037;0.06616888;-0.010104959;-0.09599799;0.2384658;0.0076665124;-0.09713907;0.030520748;0.056662735;-0.027547142;-0.016646933;-0.06142224;-0.14766842;-0.05682895;0.054453973;-0.05123022;0.036169574;-0.18237978;0.042146403;0.037899;0.05425061;-0.20494778;0.007676461;-0.20933934;-0.035120226;0.08388735;-0.104007244;-0.0054180967;0.03949701;-0.02638242;0.3193916;-0.20270523;-0.081669174;0.08152829;-0.06693554;0.121354915;0.060524303;-0.00985783;-0.37311754;0.11817226;0.025600323;-0.2574553;0.16619022;-0.039528385;0.0045688543;0.13999687;0.017618945;0.012009065;0.21698251;0.15856518;0.18499893;-0.11630064;0.1552819;0.047535304;0.1669277;-0.031986855;0.031934544;-0.129842;0.0572063;0.0806479;0.15578079;-0.01202506;0.059406526;-0.053587247;0.028679568;0.028615652;0.15631318;-0.112706214;-0.023037862;0.04628089;-0.022676487;-0.026015889;-0.10395617;-0.024640566;-0.05845408;0.05880045;0.08848187;-0.04069504;-0.13369034;-0.14334935;-0.0128665;-0.002054931;-0.22810762;0.07040406;-0.008423141;0.0021158475;0.04956902;0.18480583;-0.3022327;0.040070534;0.0034511252;-0.0025961665;0.0067749596;0.16458575;0.025107404;-0.039130177;-0.07053115;-0.0541587;-0.020217363;-0.07389674;-0.45741093;-0.031034533;0.07812697;-0.030949665;0.034516595;0.34609187;-0.0067565325;0.094450176;0.038351648;0.30779392;-0.017745527;0.16515628;0.041919794;0.009571803;-0.04754682;-0.011507705;0.03290183;-0.013095999;-0.05944242;0.007901639;-0.00089032477;-0.2274044;-0.02366327;-9.709848e-05;0.23071328;-0.16744702;0.005087671;0.040669896;-0.27004996;-0.07604833;-0.08334387;-0.00045102867;0.039204545;0.024374813;0.038092386;0.097564824;0.18363021;-0.054897808;-0.016534457;0.041066747;0.31554013;0.1649675;-0.3400388;0.037768494
0.016981741;-0.21770298;0.18087217;0.10001732;-0.03683395;0.008011113;-0.06465894;-0.0033386685;0.07469223;-0.042958874;0.06432787;0.020148119;0.005192415;0.13568601;-0.098052524;0.14164414;0.046345674;0.14548367;-0.020190533;0.04406236;0.06852946;0.01861197;-0.018706707;-0.0914085;-0.04954427;0.041225266;0.038206726;-0.04006037;0.0046172487;0.016376197;-0.04508942;-0.16100544;-0.28962803;0.028319502;0.014709703;-0.056036614;0.0006012803;-0.4803233;-0.18792938;-0.12747103;-0.13122;0.007975858;-0.10012875;0.026176067;-0.006730409;-0.021879336;0.04230019;-0.065675296;-0.04934481;0.118699685;0.067422524;-0.016664196;-0.013670171;-0.18179893;0.024048036;0.028834453;0.19018939;-0.07066473;0.087388374;0.13841672;0.077215835;-0.067961305;0.007967595;0.021237245;0.15098612;0.005133723;0.1338667;0.14310127;0.030258782;0.15462628;-0.20242691;-0.052488476;0.059002586;0.101623654;-0.10966543;-0.19559379;-0.17818153;-0.40314955;0.13266066;-0.05617078;-0.0013229907;0.011371617;-0.032782283;-0.08959361;0.03221883;0.11550947;0.032492094;-0.035801597;0.03012661;0.1965632;-0.19676788;-0.1995314;-0.059091114;-0.005229167;-0.029972805;-0.10780095;-0.0027118786;-0.038282685;0.0012790515;-0.029072385;-0.17970574;0.038339976;-0.02341843;-0.16252522;0.03965018;0.0375546;0.11078466;0.043613434;0.001234143;-0.0523593;0.14981706;0.0052062054;0.09217291;-0.09330788;-0.024448516;-0.14247568;-0.1310042;0.22454262;-0.2063721;0.2343695;-0.08803186;-0.04865651;0.034360006;0.30578446;0.017441552;-0.042214256;0.051360507;-0.2534199;-0.066265725;-0.009809367;-0.13716608;0.29658443;-0.0025885927;-0.09454938;0.029416611;0.12138082;0.2296314;-0.012973839;0.051496834;-0.0886431;-0.036994208;-0.015809909;0.10738107;0.25005972;-0.12401615;-0.026164643;0.015915575;-0.0980807;8.356814e-05;-0.4978891;0.26997387;-0.35857177;0.072397746;-0.031831067;-0.24496062;-0.024313815;-0.05002573;0.0065262425;-0.1537457;0.22604902;-0.021748766;0.43107447;0.3813254;-0.10912559;-0.09100309;0.043841943;0.036988296;0.2051584;-0.14516903;0.002232362;-0.002500357;-0.051524628;0.06250544;-0.03259328;-0.036511827;-0.06754123;-0.21149343;0.012089745;-0.018604482;-0.3020548;0.19252455;0.073351674;0.14172114;0.16813342;0.005580472;-0.14414214;-0.07522763;-0.09236397;-0.1756401;0.17946254;0.1535549;-0.017092215;0.06749968;-0.15938592;-0.2262771;0.31146908;-0.056173537;-0.07623101;-0.18492554;0.028112408;-0.013543;0.010461747;0.0154345995;-0.037977267;0.36656114;-0.2854491;-0.16946702;0.012336144;-0.29749388;-0.012457327;0.014190312;-0.17402491;-0.0052737994;0.023883527;-0.0314903;0.084855564;0.05152972;0.11055043;-0.10120817;0.12657268;0.12511739;0.066819154;-0.14862292;0.16602468;0.053873613;-0.1420218;-0.30139306;-0.011462569;-0.036635518;-0.11022486;0.024302693;0.20727712;-0.016275445;0.042274605;0.02709982;-0.15849675;-0.10951083;-0.2850591;0.039550845;0.07535311;-0.048209693;-0.21078344;0.123641774;-0.1118961;-0.030251697;-0.21463583;0.19406258;-0.052960243;-0.067622714;0.04652004;-0.06175747;0.006082201;-0.07666519;-0.033439435;-0.025414255;0.023670493;0.21325612;-0.0313578;-0.13328935;-0.22482592;0.27631304;0.026459929;-0.046274092;0.09663789;0.031284537;-0.21595049;-0.056847364;0.03726771;-0.06959528;-0.009901546;-0.011249788;-0.17438996;-0.15001214;-0.02285398;0.033063676;-0.0260031;-0.046302907;-0.0031531646;-0.25870833;0.086294904;-0.21409652;0.14146057;-0.08863288;-0.036242068;0.0044299215;0.21825582;0.033290595;0.111144006;0.1061363;0.01078585;-0.092282355;0.17024784;0.13198414;-0.053095344;-0.0050491784;-0.028981013;-0.13922109;0.04839206;-0.19954535;-0.088527225;0.13059881;0.029877903;0.055083472;0.044925597;-0.30847353;-0.10679857;0.09392969;0.04877709;-0.1904213;0.08566577;-0.23471516;0.10875273;0.032914497;-0.12532339;-0.33478025;0.32329747;-0.33909118;0.026199581;0.026641605;0.17801718;-0.058668826;0.0056608845;0.093732335;0.035312902;-0.0051733935;-0.031419724;0.042741377;0.14038445;-0.07698643;0.032133956;-0.04887606;-0.006953248;0.20126936;-0.003600453;-0.18843497;-0.045989294;-0.072865844;-0.46327555;0.16383483;0.06642824;-0.029814506;0.09974864;-0.24814913;-0.103393465;0.11834579;-0.014459736;0.0129208565;-0.059958674;0.03835812;0.17292872;0.18964484;0.04227612;0.17310974;-0.06954047;-0.06903409;-0.10090033;0.25771272;0.01705944;-0.08964984;0.11170596;-0.28462103;-0.029819371;-0.008528081;-0.025744135;-0.12361139;-0.11493845;0.061368983;-0.19211376;-0.09362563;-0.072021626;-0.08180516;0.017416475;0.037813228;-0.0405746;0.011411303;0.016055442;0.050986804;0.011204521;0.03260683;-0.044185396;0.06553447;-0.2527216;-0.01819667;-0.053826403;-0.013834091;0.05552927;-0.23230083;0.020000814;0.17010246;0.2495343;-0.13144389;0.06456362;-0.058208507;-0.06985013;-0.060659666;-0.038414907;0.04999992;-0.18281423;0.1033144;0.06562304;0.13899757;-0.007899693;0.17332223;-0.047443952;-0.32654405;0.00964934;0.04010118;-0.028022405;0.15764688;0.033458006;-0.042514615;-0.025519336;0.1600989;-0.03763275;0.0060147443;0.20144343;0.046848398;-0.027052857;0.07333729;0.016552718;0.07189714;0.014695269;0.025162764;-0.1286619;-0.13174665;-0.02084169;-0.023769122;0.01523056;-0.037491616;-0.10281414;-0.08503099;-0.36824524;-0.16578916;-0.058036093;-0.054684415;-0.12963076;0.16140303;0.053701364;-0.032258347;-0.008677057;0.001093354;-0.047881894;0.008317972;-0.060586087;-0.20950136;-0.10873913;-0.05473069;-0.12266718;-0.013889606;-0.095143884;0.13262963;-0.01092897;0.16117756;-0.16517386;-0.017921813;-0.25571147;-0.056167874;0.16241603;-0.0003434525;-0.021480173;-0.011269548;-0.03689573;0.2256415;-0.15025342;0.03557876;0.32720184;0.025891688;0.18362226;0.2429433;-0.07027107;-0.13344532;0.15138707;-0.010103488;-0.16662373;0.080253765;0.049912762;0.0028246478;0.0970355;-0.045848;-0.06114728;0.23070069;0.014858569;0.23898117;0.034733076;0.1780849;-0.035917707;0.02684165;-0.06290955;0.010566227;-0.25761604;-0.049500585;0.04499082;0.07705982;0.14830697;0.051222395;0.041423596;-0.003024232;0.03588659;0.19660765;-0.0370994;0.09596267;0.008071491;-0.017696504;-0.009048642;-0.18435046;0.020004995;-0.05442375;-0.07221368;0.20621176;-0.11717896;-0.06299768;-0.11986666;-0.07762011;-0.12253808;-0.17073667;-0.15278518;0.028755538;-0.036629148;-0.042692903;0.06930645;-0.30196178;-0.01541135;0.0018196444;0.090525925;-0.050376523;-0.034516413;0.060665663;0.012140093;-0.016377041;0.027447;-0.03489869;0.009919801;-0.39564845;0.07113239;0.11845992;0.029324133;-0.19068691;0.21714601;-0.01871199;0.031348422;-0.12364217;0.18162423;0.040620226;0.0843377;-0.038143992;-0.030952377;0.024522051;-0.05764447;0.024289947;0.0042458195;-0.028688693;-0.013194504;0.008694351;-0.13103037;-0.017764231;0.08032706;0.27068657;-0.11464212;-0.05094436;-0.028188704;-0.20813966;-0.06578859;-0.0588836;0.0384523;-0.090050265;-0.12614481;-0.022351136;0.15325575;0.1672004;-0.021672236;-0.065267764;0.001427878;0.3822442;0.08217575;-0.25242102;0.075159185
0.05862278;-0.13274865;-0.0063026096;0.16793257;0.06231648;0.0046071606;-0.15456839;-0.014396348;0.07206646;-0.015464561;0.08483541;0.10657633;-0.062133506;0.21758893;0.04429229;0.13854511;-0.056616142;0.08299326;-0.0041160164;-0.037301734;0.13328902;0.08415935;-0.01940067;-0.041221358;-0.07402155;0.0033271867;0.12934814;-0.001179746;0.06960257;0.016824806;-0.021737343;0.00038783546;-0.2745205;-0.048450984;-0.045013636;-0.13211271;-0.13781302;-0.43140602;-0.14445077;-0.043128137;-0.053769074;0.008346589;-0.08296923;0.08846875;0.15014333;-0.18535;-0.0002586072;-0.08211586;0.031306576;0.15479164;0.007750621;-0.027981712;0.005222919;-0.257131;0.03889273;-0.03887609;0.16004066;-0.000419104;0.08807016;0.30050007;-0.006832345;0.083358325;0.04887193;0.11648236;0.12520762;0.038365226;0.0903808;0.15570307;0.044108924;0.095118724;-0.057734594;-0.056299802;0.037714947;0.16102695;-0.09778832;-0.18332379;-0.26079;-0.28526366;0.1239248;0.032824047;-0.032738846;-0.031631228;-0.0065274355;0.024167566;-0.031191798;-0.041897893;0.04827431;0.059065238;-0.04685051;0.20222504;-0.01818769;-0.22432852;0.0060810028;0.00025129627;0.007733108;-0.20793489;-0.015173552;0.004099003;0.0063702995;0.019903857;-0.11037205;-0.0116862785;-0.004304601;-0.16763788;0.2169208;-0.029506808;-0.0142692;0.031579908;0.041512165;-0.021233456;0.092734076;0.1527656;0.08220295;0.03539962;0.06432582;0.052518666;-0.23819083;0.17477289;-0.092554726;0.32212037;0.08409077;-0.01612815;0.029551528;0.3545769;0.13189602;-0.09690696;0.16573419;-0.28571406;0.041498642;-0.009925126;0.07172846;0.14672993;0.007201942;-0.15409154;0.013506197;0.023188483;0.22559252;0.05011657;-0.03762159;0.057657782;-0.061549217;-0.011141508;0.0016005685;0.33527175;-0.00886686;0.029384075;0.0035437907;-0.12793595;0.008372229;-0.5938165;0.13040975;-0.40906823;0.014813379;0.060961768;-0.14606264;0.007749294;-0.021039328;-0.068520255;-0.0067448453;0.1493365;0.10736966;0.3219651;0.4239674;-0.015565522;0.004807084;-0.025046851;0.084261045;0.10715603;-0.1010232;0.049222156;0.03359352;-0.13831046;0.02212816;-0.011258046;0.028553419;-0.24926454;-0.2556014;0.018677872;0.117191054;-0.2457775;0.036103006;0.027183522;-0.17792144;0.12883867;-0.015459051;-0.10627341;0.047701035;-0.033257097;-0.20929068;0.297254;0.031068299;0.04257243;-0.054989528;-0.073475026;-0.22956502;0.36111417;0.035882477;-0.039339703;-0.15535772;0.13870789;-0.14668114;0.067977004;0.015161541;0.03026314;0.24284863;-0.22981247;-0.11577336;-0.0161048;-0.21500716;-0.016453877;-0.03358413;-0.022159897;0.05874663;-0.011286688;0.047485374;0.022368256;0.01172287;0.032417167;-0.06888744;-0.06618397;-0.009680752;-0.14283821;-0.25553212;0.23684432;-0.014586031;-0.13473259;-0.17471826;0.008906878;-0.058698792;-0.113600545;0.09684258;0.29444325;0.008226581;-0.022748737;-0.044669736;-0.17722946;-0.014939422;-0.18028922;0.049055833;0.052388668;0.045059312;-0.35807475;0.10474362;-0.12360286;-0.010212446;-0.05834501;-0.019908946;-0.17637214;0.02269028;-0.0084380815;-0.18458961;-0.014367443;-0.24558823;-0.04251379;0.056587417;-0.028709225;0.05756179;-0.029229082;-0.0779327;-0.37499923;0.3483064;0.038639113;-0.13501838;0.069589905;0.022941334;-0.052633554;0.0052807378;-0.033490807;-0.120231636;-0.03988693;-0.0050293086;-0.29913482;-0.024586106;-0.06928923;0.0018107676;-0.0067845187;0.06743724;-0.0018180558;-0.24457854;-0.035320483;-0.08475257;0.09450376;0.056898866;-0.020559428;0.0041531855;0.05563815;-0.014746635;-0.0059736697;-0.034631357;-0.029154342;-0.13596503;0.17950226;0.12595539;-0.11453458;-0.0056553227;0.02355523;-0.16685136;-0.0077317953;-0.1579939;-0.02158891;0.11746629;0.043408483;-0.046759773;0.050993357;-0.22174516;-0.3010834;0.27030534;-0.031182816;-0.04031928;0.056739908;-0.28887817;0.0920276;-0.007153638;-0.012471059;-0.08860705;0.24937008;-0.123985924;0.04099889;0.04685697;0.24388753;-0.13311051;0.011747703;0.19381809;0.08925035;-0.032011587;-0.17018063;0.02374696;0.15958782;-0.06607692;-0.025323406;-0.030418769;-0.06351224;0.10833601;-0.11261642;-0.11099419;0.067310296;0.088380404;-0.53582305;0.3170292;-0.0038843583;-0.02583998;0.080261886;-0.03592492;-0.18991658;-0.09297696;-0.024302712;-0.054803934;-0.0240662;0.082641356;0.13649161;0.1253737;0.049517874;0.024360541;0.05565553;-0.18223955;-0.02966604;0.2251522;-0.057264645;0.14264184;0.07445436;-0.17759937;0.028775305;0.005797198;0.070447646;-0.16411757;-0.17549446;0.0028386978;-0.26666248;-0.059374806;0.009614271;-0.20784946;0.20505996;-0.023395615;0.031422943;-0.0155815855;-0.033559337;-0.025931204;0.008680175;-0.021279816;-0.04044294;0.050378047;-0.106920175;-0.011541131;0.05412316;0.018778723;-0.01847151;-0.32486042;-0.060933657;0.16632968;0.12500426;-0.16235898;0.08225262;0.16311382;0.06371373;-0.1394964;0.04624639;0.0034233355;-0.08710822;0.11401145;0.032046735;0.32615787;0.0076183025;0.17266218;0.0379822;-0.318317;-0.1474852;0.20637342;-0.040855933;0.21252514;-0.037989065;-0.016245898;-0.00692352;0.09372676;-0.044703882;0.057294484;0.05256449;-0.055833343;0.034883466;-0.07134735;0.07195652;0.098886654;0.16428533;0.046434417;0.0013288328;-0.10874222;-0.013019771;0.010800574;0.015191946;-0.045491297;-0.30315125;-0.098137334;-0.32177135;-0.2636959;-0.0034919532;-0.0021072817;-0.05208108;0.10103866;-0.0160915;-0.08208981;-0.012923729;-0.01739125;0.16127089;-0.03455716;0.0075401696;0.080580145;-0.10828467;0.028067883;-0.15240157;-0.0056197024;-0.08676029;0.16214958;0.062364507;0.17711052;-0.13236828;0.0454087;-0.22333969;0.0405557;0.12734123;0.026277248;0.0058224644;0.028596686;0.047422927;0.09050082;-0.17145567;0.12233093;0.35313463;0.068465866;0.18015184;0.060066115;0.04905148;0.107953385;0.13964544;-0.033721153;-0.18261325;0.11362681;-0.00036515322;-0.024013707;0.11498292;-0.12433536;0.015914874;0.24261703;-0.02117934;0.04308789;0.07789694;0.25585556;-0.03353218;-0.10643828;-0.04561029;0.001384372;-0.207057;-0.05177498;-0.013721861;0.09118055;0.26425266;0.006665881;-0.008637763;-0.06865635;-0.05264704;0.071370795;0.06842024;0.102804266;-0.060659267;0.053385857;0.050267737;-0.058073737;-0.0109372;0.025587384;0.024614679;0.098333135;-0.12847875;-0.13267073;-0.014956464;-0.069075845;-0.0741008;-0.21931371;-0.093932465;-0.020229062;-0.09794373;0.01039975;0.17610769;-0.12608576;0.0606242;-0.012240834;0.032903366;-0.025648372;0.028104233;-0.05849667;-0.005410633;0.0094161155;-0.013474927;0.031621672;-0.029754402;-0.25835642;-0.03096878;0.18424022;-0.0071920175;-0.16146258;0.086748146;-0.008566958;0.1341025;0.04793859;0.14386801;-0.015415207;0.18256447;-0.062194508;0.033388995;-0.11415275;0.04781969;-0.09740244;-0.017444566;-0.01379771;0.04999931;0.010146852;-0.09940957;0.023833118;0.0370135;0.16012491;-0.11022068;-0.045442164;-0.006274382;-0.237185;-0.006158151;-0.03179794;-0.04096073;0.041648746;0.021277202;-0.008736178;0.24591401;0.12824467;0.11154519;-0.17904536;-0.0313877;0.34805933;0.10853414;-0.07076192;0.020480826
0.041093264;-0.106598444;0.04251694;0.11494055;0.058145955;0.004221677;-0.09301466;-0.05293236;-0.009265392;0.04201373;0.22897862;0.14666842;0.0784923;0.12729847;0.21554022;0.028335508;0.055667844;0.06654692;-0.0248781;0.028956909;0.11491513;0.028940775;-0.10467368;-0.02396959;-0.07412882;0.1251468;0.1272967;0.09805397;-0.05275426;-0.036203526;0.02858081;0.10800272;-0.49016708;0.02844051;-0.017866509;-0.09274853;-0.054344367;-0.27898857;0.014279221;0.040688165;0.0054612765;-0.027006727;-0.021379184;0.0065976228;0.1938522;-0.12957226;-0.04188809;0.0007332996;-0.03708792;0.24890025;0.0049240123;0.033957515;0.03543366;-0.23719625;-0.031478837;0.047890875;-0.029325204;-0.014136776;-0.12876295;0.22952884;-0.0182121;-0.082574785;-0.0022164378;0.10827537;0.16572131;0.2034117;0.065472245;0.054503936;-0.059187017;0.08499938;-0.12204227;-0.24331357;0.10999067;0.14560685;0.057292707;-0.032158986;-0.34728593;-0.16137971;0.22138327;0.0011556516;-0.04047532;-0.05287058;0.07840491;0.1370824;-0.00920986;0.039727688;-0.0396579;0.005835999;0.044181686;0.14229701;-0.18899362;-0.21079428;0.009912635;-0.03289778;0.046550337;-0.19365714;-0.009934168;-0.009876103;0.11761606;-0.070469536;-0.29632163;0.011890886;-0.012321128;-0.12244296;0.22269207;-0.034498923;-0.16174427;-0.020400785;-0.026214527;0.03437528;-0.013099992;0.109820426;-0.08620368;0.018104328;-0.059995186;0.09088512;-0.20332628;0.17626593;-0.09520195;0.23925903;0.26939636;-0.016862081;0.14350007;0.25442263;0.08454705;-0.13324307;-0.040367015;-0.24886505;0.051649384;0.019811157;0.12486947;0.06605081;0.040589944;-0.20696852;0.021829873;0.096371755;0.27740955;0.11668578;0.036012333;-0.009136233;-0.13555004;0.017849715;0.07047656;0.28162378;-0.014843051;-0.02652972;0.015527039;0.030288612;0.045732755;-0.61287093;0.20362481;-0.4696427;0.047673736;-0.008862308;-0.122855216;0.018122936;-0.04648544;-0.102531835;0.083118275;0.24555025;0.018065866;0.19927815;0.30886945;-0.059996486;-0.15669343;0.02273281;-0.06777685;0.11677685;-0.14718832;-0.049893558;-0.017865777;0.0008262831;-0.034206435;-0.056818098;0.020073324;-0.3641752;-0.35170075;0.029785328;0.006219895;-0.17067909;0.115007855;-0.0017960882;-0.10315608;-0.06767138;0.027441693;0.04625219;0.00209966;0.17044763;-0.229135;0.20644909;0.07565245;-0.14799517;-0.035236515;0.020659849;-0.25731033;0.28717095;-0.046733443;0.00087997835;-0.27587673;0.08778161;-0.03483256;0.008823157;-0.034621496;-0.02731928;0.17062308;-0.16777241;-0.1258484;-0.102503754;-0.086463004;0.03482072;-0.08942979;-0.10976023;-0.015977;0.004366236;-0.031144058;0.10730531;0.036568034;0.0005012972;-0.19719838;-0.07011901;0.010442357;-0.1467796;-0.3336506;0.18126282;-0.017615328;-0.20177652;-0.24397425;0.0473106;0.06413097;-0.15997644;-0.03536511;0.25317845;-0.014220619;0.036962904;0.10474701;-0.08773581;-0.104805164;-0.2054151;-0.06643926;-0.17114645;0.18458122;-0.23470752;0.120488495;-0.2503249;0.048516043;-0.14051534;-0.007078165;-0.056551516;-0.0036158115;-0.037110563;-0.18687792;0.02694168;-0.21157627;0.04569298;-0.053301476;-0.13010737;0.17653908;0.008812319;-0.21161406;-0.18421155;0.26692328;-0.0057592597;0.025436504;0.16108182;0.0036066046;-0.100911394;0.018651322;0.03587221;-0.13026868;-0.00740555;0.0073342267;-0.17889586;0.010031366;-0.17038518;-0.00062831223;-0.15776613;-0.06030608;0.025439164;-0.18162891;-0.07254629;-0.15781099;0.09807743;0.08084813;-0.064891644;0.01743533;-0.15190169;-0.03399634;-0.1725386;0.05867458;-0.03589435;-0.06904444;0.18734096;0.010261922;-0.028447;-0.025648087;0.04671597;-0.25400633;0.02641774;-0.1589326;0.022572214;0.14134891;-0.006663251;-0.018894954;-0.08052173;-0.15493666;-0.33348864;0.22413576;-0.011173945;-0.07765145;0.0875865;-0.016324801;0.06908895;-0.05365513;0.06391309;-0.2089107;0.13444646;-0.1500681;-0.028530799;-0.02628151;0.22375011;-0.056653906;0.009450434;0.20986626;0.08282541;-0.010809376;-0.22697696;-0.048569538;0.21556982;-0.07712035;0.001095495;-0.042513166;0.03501792;0.23366056;-0.0076432726;-0.08144533;0.004569627;0.1350977;-0.35213125;0.311548;-0.09315982;0.058268476;0.14025459;-0.008189817;-0.112766124;0.0017572657;-0.026827576;-0.005349766;0.07366995;-0.117257096;0.2190924;0.19398004;0.069582336;0.09947879;0.15264371;-0.20848787;-0.06024468;0.28026548;-0.0038837548;0.108270265;0.16500224;-0.18952738;-0.09336783;0.038239088;0.18811424;-0.059207484;-0.1942116;-0.060466398;-0.1432674;-0.20183647;-0.013401255;-0.2666856;0.282197;0.022325484;0.019662345;-0.02716981;0.039745003;0.06572709;0.02646173;0.028510801;-0.018957283;-0.028093794;-0.102743775;0.013902942;0.07393506;0.007601219;0.00757213;-0.31232443;0.052109357;0.17422917;0.19311558;-0.16181958;0.12836458;0.30536348;-0.027724644;0.02435646;0.07709332;0.032120995;0.016448742;0.15536104;-0.16363169;0.3038658;-0.0050641103;0.0399279;0.015631884;-0.36725992;0.023314254;0.25310817;0.008945154;0.31259698;0.03279011;0.00046340667;-0.041756004;-0.06170139;0.07610085;-0.008568997;-0.02184014;0.02771487;-0.012989998;-0.0013837783;0.02440616;0.17654812;0.19089101;-0.09983459;-0.12520075;-0.21965201;0.034683574;0.015109704;-0.09076915;0.013083007;-0.19227749;-0.061225466;-0.124519624;-0.13501148;-0.003543119;0.053580105;-0.21514864;0.036789168;-0.14551656;0.037626885;0.053286932;-0.006446686;0.29448366;0.057134476;-0.2255551;0.11602782;0.093679026;-0.07974048;-0.22870588;0.016061032;-0.09774298;0.110844046;-0.060446538;0.31919554;-0.231044;-0.050784834;-0.27684218;0.04568055;0.094949305;0.15659887;-0.0761425;-0.052772988;-7.1107774e-05;0.19316107;-0.18870436;0.05967102;0.32035318;-0.051397257;0.11425131;-0.112617984;0.031193856;0.06099696;0.284247;0.058374904;-0.33344185;0.09946801;-0.02497759;-0.015233847;0.10682551;-0.2650032;0.046992194;0.21740697;-0.037844602;0.03530915;0.20229733;0.09698238;0.026944503;0.037647013;-0.07141345;-0.0029717393;-0.24844244;-0.016460069;-0.024812097;0.09904621;0.27685988;-0.041243736;0.018892359;-0.06074422;0.06251384;-0.054173324;0.038548224;0.1237139;-0.034770437;-0.03275035;0.019724375;-0.07103191;0.01821445;0.009804318;-0.074715614;0.07084135;-0.012874846;-0.1914163;-0.010007866;-0.0038212496;0.02527832;-0.1718909;-0.19568892;0.01802685;0.006269235;-0.009424093;0.18845272;-0.19759877;-0.05951092;-0.019335316;0.043452352;-0.01895546;-0.11836244;-0.041505;-0.020534398;-0.07500711;0.032660484;0.008789152;-0.14460272;-0.17259653;-0.07731337;0.34198207;-0.043075096;-0.008135322;0.15204541;0.013815944;0.00067188026;0.11008681;0.25049293;0.024788331;0.18989353;0.033708364;-0.008434093;-0.008252456;-0.0008147904;-0.14501818;-0.050640374;0.060633633;-0.06370338;0.031811062;8.917123e-06;0.011642459;0.13509208;0.22227666;0.009333858;0.07014994;-0.0031056881;-0.21381462;-0.009473193;-0.08992274;-0.00015016622;-0.017708158;-0.1118644;-0.016089002;0.32430455;0.2727936;0.039429083;-0.13162017;-0.060067583;0.34321886;0.04575582;-0.13172533;0.10896967
-0.068992116;-0.066853665;-0.018698301;0.017206904;0.12277563;0.009706391;0.040866144;0.00014673817;0.05818915;0.02299514;0.15657374;0.07431542;0.020258792;0.11389355;0.13056935;0.010418848;-0.043714527;-0.04077023;0.023022862;0.098000936;0.046642136;-0.05390971;-0.04017776;0.048039418;-0.17163208;0.15005255;0.0204431;0.07751127;-0.06214338;-0.008647121;0.093393266;0.027632989;-0.36672357;0.018592134;0.06902319;-0.12421764;-0.033058606;-0.14250058;-0.12570022;0.041188493;-0.005006558;0.024245936;0.046644505;-0.15719539;0.16513304;-0.14093152;-0.002746193;0.06335181;-0.020875301;0.26783755;-0.10373262;-0.03851708;-0.122187145;-0.22267127;-0.044420484;0.025597803;-0.03317029;0.006750835;-0.06510241;0.1322765;-0.050717942;-0.038832564;-0.008799055;0.101276346;0.2638256;0.35357648;0.23203066;0.05643516;0.053371202;0.15202358;-0.3329578;-0.35072082;0.22582234;0.11570423;-0.003071251;-0.020219317;-0.22979328;-0.2504135;0.21571998;0.015943995;0.004906556;0.029430462;0.028001454;0.13235621;-0.055348948;-0.039106414;0.036289446;0.0025906437;0.07798266;0.1401943;-0.181391;-0.18823034;-0.028282104;-0.008100279;-0.07544708;-0.36981055;0.028316488;-0.0057155374;0.12602195;-0.051345665;-0.1593224;0.022859396;0.022849169;-0.15262608;0.29742432;0.05696237;-0.11695628;0.011648488;-0.024758833;0.043095227;0.0058655064;0.081328064;-0.105627775;0.10195905;0.009761063;0.19363882;-0.3095532;0.19686832;-0.050530467;0.08821115;0.20848866;0.0002497155;0.09033636;0.32541078;0.13816261;-0.09169115;-0.113927804;-0.17801246;0.016798774;-0.029039063;0.13807191;0.065652184;-0.0028804906;-0.05377946;0.0007275098;0.006078662;0.243453;0.02207279;-0.12323083;0.113664664;-0.026591139;0.0053736647;0.046488773;0.08966914;-0.017929118;0.022160718;-0.049121752;-0.036913935;-0.07339461;-0.4122845;0.08126993;-0.30812567;-0.028211985;0.039936803;-0.20767313;0.055374518;-0.012501949;-0.0050813844;-0.026839655;0.14078066;-0.05205656;0.084970176;0.26137155;-0.1447593;-0.06087218;-0.02644792;0.10432022;0.16352208;-0.18958376;0.005958996;-0.005570314;0.2119638;-0.0041902703;-0.03657814;0.021772984;-0.29140174;-0.21670179;0.014777543;0.05751802;-0.040137805;-0.049284894;-0.107329585;-0.12793277;-0.08906787;-0.034043603;-0.02343767;-0.076619945;0.23231669;-0.2615861;0.28304297;-0.006141599;-0.10605467;-0.04641984;0.02425782;-0.27571768;0.18346368;0.02564983;-0.013103223;-0.15224281;0.1837169;-0.23619603;-0.04361897;0.065893345;-0.009626414;0.14380287;-0.0741732;-0.10215591;-0.10829122;-0.06768218;-0.07744026;-0.022979358;-0.14672585;-0.03330056;-0.02576573;-0.07921785;0.18456998;0.07869093;0.059183676;-0.26203352;-0.14496775;0.16852152;-0.1729707;-0.25527605;0.18463024;-0.021657925;-0.18854064;-0.13471347;0.017248476;0.0006975289;-0.023157634;-0.014360762;0.28501827;0.034844194;-0.051802803;0.049574338;0.004717285;0.016812587;0.04739181;0.043028284;-0.22099707;0.19460541;-0.26140162;-0.0018652839;-0.10739704;0.014990446;-0.07549104;0.12440591;-0.24797603;0.05459905;0.038553204;-0.29434064;-0.064668566;-0.1474047;0.019886727;-0.03367998;-0.029103786;0.034658566;0.037747987;-0.2948691;-0.10829625;0.33307835;-0.13899615;0.018862138;0.080967195;-0.02109081;0.026666718;0.029171202;0.037247818;-0.12326059;0.029611442;-0.072725035;-0.20453027;0.13728946;-0.14016455;-0.021279953;-0.09218019;-0.17309916;0.06423549;-0.22364882;0.0128967175;-0.13098495;-0.0160037;0.070863836;-0.045144614;-0.006593638;-0.35621998;0.028458476;-0.13832459;-0.012139582;-0.010371009;-0.14765754;0.10070664;-0.022803849;0.011846078;0.015005736;0.004396666;-0.34058657;-0.06327179;-0.13802163;0.011114621;0.07408704;-0.026283571;0.057728533;0.03886129;-0.32147768;-0.26213714;0.22394906;0.01826366;-0.01264208;0.044418138;-0.18638374;0.037249573;0.030385444;0.019304214;-0.2001502;-0.0137872305;-0.065874934;-0.02121779;-0.033459615;0.13142736;-0.05450454;-0.0029925092;0.21799742;0.07537661;-0.01932639;-0.1629848;0.0055466983;0.061640225;0.057357844;0.10339175;-0.11920208;0.030316364;0.23095264;-0.040748954;-0.026051244;-0.037227366;-0.035151485;-0.29781303;0.31926894;-0.092629224;0.053407826;0.11789722;0.06589069;-0.17951368;-0.050554514;0.015282647;-0.04339224;-0.025783962;0.014171706;0.12838696;0.23216636;0.12060533;0.05062235;0.17470683;-0.1979606;-0.118612245;0.29432535;0.03301922;0.10311771;0.051758297;-0.28045964;-0.14341699;-0.06377939;0.0629794;-0.096275814;-0.3652017;0.031584397;-0.019823883;-0.23026751;-0.0021470522;-0.17485048;0.15980715;-0.040718134;-0.032626484;0.026895944;-0.073142916;-0.06365963;-0.006002954;-0.06894174;0.04098803;-0.05496491;0.050694227;0.0022378461;0.1624229;-0.05826325;0.0133366175;-0.31172726;-0.058045145;0.2744759;0.2756667;-0.073092416;0.06765845;0.20098744;0.02861087;-0.008693954;0.13592184;-0.013707229;-0.12404868;0.21134056;-0.3295816;0.25273484;-0.018128756;0.09571913;0.02786022;-0.17423512;0.103726506;0.2845025;0.004828225;0.22518975;0.049559303;0.023535063;0.04949962;-0.042880647;0.06669504;-0.039285798;0.035946902;-0.046331264;-0.0026173224;0.033551514;-0.04444313;0.17672811;0.13518459;-0.15611464;-0.047737412;-0.09480679;0.021733437;0.0007765955;0.007023728;0.06499942;-0.15600699;-0.2693659;-0.113489516;-0.08610588;0.005675204;-0.0066631488;-0.14079884;0.14986706;-0.12795012;0.14549261;-0.017096967;0.048616342;0.17469734;-0.060523976;-0.29063332;0.046504058;0.07137626;0.042824846;-0.21113329;0.007720706;-0.056689188;0.18131746;0.01786071;0.37975702;-0.21135972;-0.05035016;-0.15218562;-0.05665349;0.098380625;-0.0058216657;0.0409975;0.02105434;0.036213864;0.065485634;-0.17792691;0.020017957;0.10883723;0.039788757;0.15909764;-0.029192947;-0.08495133;-0.000874956;0.18507144;-0.03722034;-0.3498285;-0.0670901;0.025658824;-0.0152160665;0.10778975;-0.43036762;-0.06271994;0.13267942;-0.14815174;0.03394394;0.22108778;0.08038188;-0.022705067;-0.014988207;-0.018576054;0.007172945;-0.37333444;0.005810113;-0.14043276;0.10337988;0.2603132;-0.051634267;-0.027650505;-0.065031245;0.0011595681;0.0801104;0.06896362;-0.029238297;0.04539695;0.06661868;-0.03282504;0.103927344;-0.014717949;0.004856216;0.02347279;-0.0052772765;-0.12452481;-0.15549122;-0.06870938;0.0068036686;0.013998964;-0.19008459;-0.15750657;0.030273126;0.021129848;0.023889747;0.10958579;-0.18705103;0.033975545;-0.031514607;0.0001846348;0.053859018;-0.14036646;-0.0038358483;-0.050988164;0.01006602;0.013636003;0.14862663;-0.112653114;0.016835878;0.01846794;0.29100862;-0.039976314;0.04217071;0.0781931;0.036144953;0.017930714;0.061624177;0.23038822;-0.03764988;0.16523881;0.012698066;-0.023296509;0.03531575;0.053461954;-0.115724236;-0.0054932353;-0.027694067;0.04485789;-0.037476473;-0.070897214;0.029830081;0.026866844;0.14778945;-0.017559078;0.019975873;0.036234643;-0.30476984;-0.007479554;-0.030965652;0.012259938;0.022658044;-0.0147777395;-0.0073096785;0.31143716;0.24342343;-0.072980866;-0.13899642;0.058473367;0.449369;0.02925573;0.0076636015;0.2882354
-0.039179787;0.020376638;-0.009987924;-0.100951634;0.07067102;-0.028459623;0.08615228;0.0044275788;-0.03465911;-0.0055913567;0.1293245;0.05778237;-0.050666206;0.10937797;0.15842275;0.093457915;-0.04279105;0.050804947;0.016806146;-0.04639334;-0.034856677;-0.14783454;-0.08111005;0.07910402;-0.27024335;0.14710104;-0.024417922;0.021587033;0.03921603;0.07359098;0.03600598;0.005046717;-0.31912678;-0.032646228;-0.040834546;-0.13438219;0.03132325;-0.090134256;-0.06703808;0.2539264;-0.022511149;-0.026858801;0.09370566;-0.11279267;0.19508658;-0.039305985;0.044493683;-0.019649427;0.04617999;0.30846187;-0.22239119;0.007917163;0.01263893;-0.23512359;0.042617537;-0.0011502804;0.012791609;0.050222132;-0.10038885;0.19433862;0.0079394905;-0.0691611;-0.02143418;0.077619284;0.37688604;0.36506978;0.16386527;-0.07520854;-0.05979371;0.123629585;-0.11203468;-0.20639676;0.22621453;0.17904548;0.08202026;-0.075069614;-0.1973382;-0.22815713;0.01845518;0.07287625;-0.013682606;0.073244646;0.022535471;0.022176694;0.008832415;-0.16941014;-0.071464255;-0.038002856;-0.03235251;0.12800144;-0.2319702;-0.2217967;0.00921147;-0.06918206;0.051001307;-0.35236272;-0.059406526;-0.10054975;0.2313558;-0.050409768;-0.05638635;-0.03919978;0.016592933;0.0013723793;0.17969616;0.050032225;-0.023269635;-0.018279389;0.0029925539;-0.045609202;-0.023308696;0.20149504;0.1561506;0.10276009;0.024434462;0.21523972;-0.23880237;0.17890897;-0.018878656;-0.05357159;0.19556685;0.06341799;0.04441219;0.06949613;0.13876434;-0.08940336;-0.04376259;-0.12978712;0.17619203;0.023635957;-0.024465548;0.058814675;-0.059181366;-0.11251119;-0.03593382;0.012511108;0.21952125;-0.028191049;-0.013488092;0.06636457;-0.05740324;0.033154376;-0.117320366;-0.018924555;0.15064953;-0.00022793151;0.036891878;0.089683816;0.021383153;-0.3981995;-0.06000036;-0.069459945;-0.016219709;-0.029838046;-0.41323128;-0.1539935;0.026762282;0.22889534;0.043825354;0.16957591;-0.07231601;0.19023108;0.1383878;-0.06667858;0.05360817;0.051116083;0.013194649;0.06802757;-0.026618697;-0.025964385;-0.027533066;0.11900811;-0.07020261;0.013630177;-0.010000012;-0.36260873;-0.14941482;-0.041344944;0.011588881;0.11412231;0.10573031;-0.021390319;-0.13829528;-0.16420922;-0.011451344;-0.11047897;0.055296384;0.2715815;-0.2547206;0.2647091;0.051253174;-0.34639403;-0.120097;-0.017226378;-0.2205563;0.078571305;0.023251427;0.15948132;0.02204572;0.21165511;-0.3286941;0.029062169;-0.031539217;0.06777631;-0.02540767;0.014868087;-0.37967247;-0.13157926;-0.06361003;0.03221234;-0.039342314;-0.058771174;0.016952971;0.03605109;0.09205614;0.038258053;0.00653246;0.065554716;-0.23206326;-0.0832519;0.15900572;-0.30226094;-0.33941686;0.25930434;0.01650512;-0.31939232;0.06252674;-0.055231143;0.040625513;-0.18934844;0.073609926;0.40461084;-0.034485552;0.04785419;0.16202836;0.015685836;0.20994294;0.07285443;0.0018215684;-0.14460531;0.018770946;-0.23243503;-0.0393726;-0.04720538;-0.023079207;0.013986476;-0.00015009474;-0.32724616;0.08082897;-0.026528668;-0.1932131;0.020479288;0.033541948;0.062405165;-0.020201152;0.050017986;0.14740288;-0.048818324;-0.20886163;-0.2352618;0.35197133;0.04119231;-0.004740723;0.122152515;0.01343502;0.016931579;-0.05251458;0.01501898;-0.17318785;0.043951027;0.03748284;-0.3057433;-0.017379632;-0.15597266;-0.045901302;-0.13175978;-0.14798328;-0.054784976;-0.20525424;0.0106745865;-0.062833235;-0.118544094;0.18390557;0.03340252;0.011309042;-0.2237477;-0.023489168;-0.16662806;0.20383592;0.03757331;-0.046359655;0.22489637;-0.036365163;0.07640356;-0.006207432;0.076720044;-0.29063872;-0.035265915;-0.1917363;-0.026711011;0.061991036;-0.04328798;-0.019337235;0.01860629;-0.26094487;-0.137162;0.22540906;0.0019182822;0.01087691;0.120335214;-0.11668121;0.13719393;-0.06969713;-0.015424127;-0.0739188;0.11722611;-0.10767539;-0.03824959;-0.018238338;0.14337711;0.060368884;0.0013163013;0.20110957;-0.011890976;0.107685104;-0.1604543;0.046409026;0.07691303;0.104850166;0.07161387;0.038065042;0.0042343545;0.18310748;0.10319601;-0.042702742;0.02027585;-0.052358717;-0.21993825;0.31599244;-0.13408789;-0.050036617;0.19093922;-0.02254516;-0.20240068;-0.045196943;-0.021543423;0.038484346;0.032093935;0.22535932;0.12441857;0.35561517;0.15369643;0.114513904;0.24018776;-0.27976325;-0.01380719;0.20898135;-0.070636846;0.15928261;-0.0011496426;-0.18304607;0.097040966;0.053431246;0.04111109;-0.19327249;-0.3387171;0.009180372;-0.027115444;-0.24667807;-0.108904764;-0.005481821;0.22508003;-0.008937076;-0.0059294174;0.011362017;-0.018058836;0.058573637;-0.03357635;-0.06308865;-0.00090769003;-0.041085497;0.097397044;-0.025814356;0.06318092;0.0011639647;-0.035659872;-0.40921462;-0.008113534;0.21356802;0.04912133;-0.00077059836;0.057728387;0.059123233;-0.05287917;-0.097486705;0.07576191;-0.008084358;0.107516795;0.3227708;-0.24140827;0.24703282;0.023487879;0.10462866;-0.019746423;-0.14951706;0.07242494;0.20371844;-0.07544044;0.2749485;-0.023072949;-0.022705868;0.015049585;-0.08681785;-0.045347515;-0.071072385;0.031403873;0.046084177;9.337156e-06;0.16835095;0.041957293;0.23575844;0.31541303;-0.26854742;-0.052775156;-0.111793794;-0.063771434;0.0057557984;-0.023387821;0.07728012;-0.008822332;-0.13421649;-0.2144241;-0.056867983;0.02955017;0.07078084;-0.12389213;0.062330317;-0.022949288;0.067719564;-0.00094224204;-0.015807;0.20706314;0.038973156;-0.46067142;0.15425384;0.039096057;0.041458268;-0.20349462;-0.0104839355;0.06648826;0.118572585;-0.03992275;0.31027704;-0.34300372;0.020718705;-0.20356543;0.016356468;0.13448933;0.10600051;0.017663945;-0.015240263;-0.032162026;0.08116462;-0.21515754;0.07280368;-0.02770578;-0.04958865;0.13251887;-0.07285522;0.072397225;-0.16505824;0.2302622;0.04265663;-0.2096133;0.13236442;-0.018386174;-0.021702869;-0.09353729;-0.19697498;0.004399245;-0.0022196358;-0.08745366;0.06416288;0.12990613;-0.06460007;0.0047799796;-0.04745841;-0.12499308;-0.03963679;-0.27734956;0.059307385;-0.10777407;0.14034714;0.21152876;-0.05955503;-0.043418158;-0.08815885;-0.054830406;-0.0067149387;0.20886846;-0.034076072;0.071389034;-0.065182626;-0.04841708;0.0731435;-0.008507771;-0.05084018;0.045996357;-0.058429584;-0.14052951;-0.0739948;0.06062191;-0.15580094;0.06616361;-0.22091122;-0.26096675;-0.029042985;0.010718668;0.005213982;-0.020043049;-0.11392319;-0.031641394;0.03973481;-0.024595253;0.0015736594;-0.28786114;0.041134425;0.015204938;-0.020230697;-0.049824342;0.06913193;0.025549278;0.047713403;0.041425917;0.17598383;-0.043161195;-0.08606951;0.25144768;-0.03917325;0.017661432;0.039313562;0.28560883;-0.0017049509;0.10613751;0.024895782;-0.038800538;0.14351286;-0.010121986;-0.08282834;0.07893942;-0.0153591465;0.00889809;0.000424106;-0.0991494;-0.0029889138;0.11798655;-0.058650278;-0.05349269;-0.018208886;-0.037036147;-0.44700083;0.11887864;0.09119357;-0.04086637;-0.02113695;0.00465108;0.02436043;0.090361096;0.21039239;-0.0074298726;-0.1410902;-0.028527334;0.4568626;0.14435247;0.05407216;0.3115791
-0.03249218;0.18843628;0.026287688;0.043097377;0.15245174;0.013430321;-0.14755799;0.049642067;0.0144875785;-0.0044976594;0.16925283;0.088590026;-0.034758147;0.21044362;0.21553709;0.11944152;-0.021018596;-0.00432649;-0.011564315;-0.12935717;0.020396173;-0.09688419;0.011026119;0.08001179;-0.067809016;0.07076199;-0.0767331;0.012721142;0.016462436;-0.018212993;-0.02210507;0.11182255;-0.39475164;0.007373663;0.04101437;-0.12722975;0.06545553;-0.13076352;0.06085016;0.29079798;-0.17254974;0.04460958;-0.04869134;-0.3352901;0.27212107;-0.26553208;0.009685051;-0.03541706;-0.045306485;0.27415296;-0.12016447;0.015321309;-0.00969544;-0.114546254;0.03305741;-0.0077079334;-0.12336694;-0.02431206;-0.025549855;0.07733634;0.031546872;-0.03868833;-0.0018365185;0.0027233046;0.47129908;0.29856545;0.15540336;0.0468119;-0.016591452;0.21756846;-0.04285673;-0.12453192;0.056227047;0.2781308;0.26044184;0.017117761;-0.26011366;-0.16868745;0.11103428;-0.03157815;-0.009764096;-0.01657434;0.07464341;-0.122616716;0.022909136;-0.06874604;-0.04050681;-0.01763279;-0.05352104;-0.051507667;-0.07181617;0.010850904;0.020159828;-0.06894441;-0.020805199;-0.35953492;0.026265835;0.019751303;0.07814976;-0.16539425;-0.06820634;-0.049715005;-0.0015354682;-0.08841667;0.1563708;-0.045317918;-0.027232246;-0.051376194;0.03763099;-0.072295494;-0.027548125;0.14119065;-0.005740598;-0.060004108;-0.0015778395;0.046277612;-0.24378942;0.19733328;0.096752875;-0.18472758;0.053838424;-0.06685636;0.006773638;0.0349259;0.11474152;-0.08839627;0.04527765;0.080003954;0.19833459;-0.0030959153;0.092170745;-0.045524623;-0.0054611964;-0.13617362;-0.008543093;0.06114346;0.11677992;0.04430481;-0.06456992;0.005759163;0.0021320675;-0.097071685;-0.2652769;0.0016572588;0.1685908;-0.048743293;0.0012912258;0.09199058;0.03258323;-0.3506289;0.13438877;-0.032360353;0.008670987;-0.04735472;-0.22908789;-0.068233445;0.0074778735;0.2147322;-0.06963688;0.15677713;0.016616268;0.111346826;0.11970289;-0.01859562;0.004376984;-0.06527686;0.026022363;-0.04057007;0.08061706;0.03880133;-0.0043665096;0.120850146;0.052346036;0.047749355;-0.038454555;-0.1714677;-0.121170826;0.06763723;0.22653766;0.41354424;0.11912985;-0.09919226;-0.12126497;-0.21061768;-0.015909882;-0.07045899;0.00899595;0.25911134;-0.22868195;0.25177023;0.118346006;-0.25403798;-0.037875608;-0.09403835;-0.32436752;0.14828385;0.039362174;0.10276888;0.00992133;0.18968855;-0.20500974;-0.014302516;0.015121896;-0.051404726;0.020358084;0.10596459;-0.27223614;-0.09348776;-0.21163864;0.043894637;0.0076332185;0.0025732561;0.016752733;-0.014808701;0.12799776;0.094434366;0.045305494;0.09767001;-0.20639151;-0.081959896;0.07509167;-0.14238925;-0.24750182;0.30360347;-0.049111385;-0.4093811;0.062183317;-0.052242078;0.0095649455;-0.10326586;0.12709996;0.32478154;-0.010451049;0.013389454;-0.0016625059;-0.019454157;0.13172606;0.10651172;0.054061107;0.016481427;0.0904563;-0.02688565;0.020721706;-0.030566568;0.024889937;-0.021031452;-0.0016229931;-0.18518668;0.10340765;0.021693243;-0.24139617;0.017052665;0.116310865;0.19939867;0.07566841;-0.122675516;0.03453908;0.035753798;-0.113118835;-0.33157912;0.25835446;-0.19045271;-0.054799657;0.0059608403;-0.010793871;-0.14223069;0.013670315;-0.038759597;-0.25144228;0.0021292844;0.03644725;-0.1426108;0.1166798;-0.13066094;0.0668155;-0.059706934;-0.23201123;-0.010708646;-0.13044028;-7.194231e-05;-0.13577446;-0.100687385;0.03384408;0.04883686;-0.02135498;-0.41623348;0.02980615;-0.26074585;0.11113109;-0.0011850299;0.06026536;0.15379113;-0.098746195;0.02303303;-0.038572054;0.1297487;-0.35674846;0.06679516;-0.054533582;-0.012969031;-0.09500157;0.06766846;0.009783003;0.041490953;-0.2402722;-0.11037774;0.045373693;0.051190935;-0.024363091;0.09798228;-0.03549723;0.007890612;0.06222843;-0.108014084;-0.15185978;0.08513411;0.05261536;0.059872393;0.03236859;0.10942053;0.19928537;-0.039494023;0.17569047;0.041359182;-0.022183198;-0.0776933;-0.022359526;0.04069674;0.1885374;-0.03550161;-0.093713015;-0.04352543;0.28177387;-0.02214963;0.10108802;-0.017595945;0.03709862;-0.16067252;0.03710764;-0.16368464;0.049684234;0.20624454;0.013495604;-0.15637708;-0.10711107;0.05810647;0.0031109087;-0.01642097;0.059831843;0.17909434;0.21056104;0.12276307;0.08351214;0.21141051;-0.22911343;-0.061021965;0.10285728;0.02189506;0.15431547;0.024642868;-0.1480107;0.0158116;0.0089819785;-0.06291572;-0.12593128;-0.36856255;-0.008091887;-0.0933674;-0.040994417;-0.0080697555;-0.036444783;0.24037418;0.026685305;-0.01974362;-0.0178946;0.053751178;-0.012205369;0.007850284;0.058339793;-0.030352566;-0.02653462;0.23478231;-0.026132971;0.17820524;0.06188005;0.0141472835;-0.45343366;-0.042227585;0.3393061;0.14708857;0.17903277;-0.010854714;0.15099932;0.0071135084;-0.025637323;0.117692925;-0.018155713;-0.16059712;0.20000379;-0.25353912;0.3255062;-0.026786847;0.008706169;0.010110182;0.045457657;0.032231867;0.3825947;0.017986868;0.27471414;-0.0067384345;0.039960973;0.044531528;0.09678842;-0.016403183;-0.34803635;-0.020278841;0.04629172;-0.02345056;0.1326296;-0.070665866;0.17847066;0.31401372;-0.20192395;-0.049100198;-0.23171175;-0.032829504;-0.01924206;0.073839195;0.023410624;-0.09365855;-0.095085986;-0.15738213;-0.027433943;-0.07100628;-0.067600146;-0.054007985;0.07374248;0.015702376;0.018295424;0.0020839071;-0.052183963;0.20059024;0.022694815;-0.42219585;0.07267558;-0.023536244;0.015186052;-0.09397825;-0.048815258;0.074663885;0.08002384;0.0076683694;0.13146019;-0.2665976;0.00030838314;-0.0155519685;0.029245103;0.18231888;0.12756558;0.040307384;0.015448781;-0.035532016;0.10018237;-0.21698947;0.09237612;0.057917245;-0.03608772;0.14370395;-0.07302709;-0.052696634;-0.12778783;0.25526536;0.025996827;-0.19864568;0.24801552;-0.04809985;0.07433778;-0.04587562;-0.20794518;-0.007318469;-0.0049582142;-0.012596715;0.090232074;-0.10787536;-0.1844247;0.055027913;-0.06593837;-0.097397074;-0.025383549;-0.44528654;-0.039814167;-0.11411669;0.08747543;0.29244852;-0.039547335;0.07309191;-0.07387423;0.014072031;0.15187486;0.27979863;-0.045837257;-0.029308004;-0.058887232;0.054045923;-0.06724339;-0.028546177;0.019302813;-0.008150046;-0.1410539;0.18689466;-0.24355337;0.042472586;-0.19067109;0.047519717;-0.14431053;-0.2343769;0.045207106;0.12849486;-0.018328138;-0.17354344;-0.17706543;-0.018155864;0.03322789;0.072244614;0.04800691;-0.2504419;0.04375933;0.072525114;0.0553462;-0.0064474717;0.07941105;0.058026433;0.012004609;-0.03855049;0.05386411;0.024567015;-0.10583835;0.2714624;0.0429464;0.11330168;-0.13430162;0.25857112;0.04441789;-0.122431286;0.04149018;0.06838755;0.008576767;-0.044499207;-0.25400487;-0.041296016;0.18353955;0.02579213;0.03014384;-0.034526516;-0.035820473;0.026613804;-0.00324748;0.020771455;0.038531594;0.024882108;-0.43762773;0.21709433;0.020988274;-0.17485155;0.051008794;0.14974357;0.0049646385;0.005887684;0.15271617;-0.082610756;-0.01889586;0.077270515;0.3816248;0.058661774;0.028574666;0.30114034
-0.0515883;0.18216646;-0.049542647;-0.01337849;0.08410121;0.019176522;-0.13872182;-0.0026363248;-0.07473628;-0.032663234;0.17925972;-0.04609463;0.070545286;0.25964645;0.46835446;0.16998447;0.046636134;-0.05781978;-0.07454039;-0.2512025;0.09496221;-0.09950312;-0.08683214;0.10884134;-0.046182923;0.017366843;-0.09698186;0.12025801;0.039571185;-0.020049306;0.048688635;0.18493375;-0.32797825;-0.028872924;-0.04557648;-0.09203232;0.15092205;-0.10376214;0.13472328;0.19300461;-0.08752665;0.009136039;0.106585816;-0.24029548;0.114346236;-0.32212475;-0.015682988;-0.11544963;0.0070874374;0.31559184;-0.14689526;-0.021777162;-0.12703262;-0.015278076;-0.04276808;-0.052047282;-0.116092324;0.03166347;-0.13127983;-0.032274585;0.052997496;0.05736279;-0.0040772483;-0.029124599;0.47674742;0.21174802;0.25280866;0.2705073;0.04610949;0.037619796;-0.08595275;-0.122424856;0.050430745;0.31006685;0.23901214;-0.05384708;-0.37111673;0.087735265;0.12016845;-0.045236778;0.04649419;-0.035740353;0.08911237;-0.05370889;-0.005617456;0.03401179;0.05687587;-0.0027361137;-0.032852866;-0.017501308;-0.17831111;-0.04291888;-0.0015652743;0.008515122;-0.021029402;-0.21432918;-0.006272377;-0.009898036;0.2543287;-0.26622084;-0.27244478;0.0030433277;-0.037199467;-0.039929833;0.2790836;-0.04745923;0.0029212239;0.044604935;-0.07507051;0.07057809;0.034630995;0.15949923;0.018848559;-0.034891576;0.054463193;-0.038087502;-0.091442704;0.04875498;-0.057815254;-0.14963837;0.039253894;0.05995694;0.03921959;0.17708683;0.136844;0.0019813124;0.0052875597;-0.08242553;0.11607511;-0.004908888;0.09100555;-0.09932911;0.043934777;-0.053109813;-0.016017305;0.1658124;0.14320251;0.029286837;-0.10926181;0.02808532;0.053820595;0.02481749;-0.2411894;-0.06765869;0.07763895;0.027947295;-0.03006882;0.10173693;-0.028894955;-0.36070496;0.14374883;-0.03200104;-0.042790666;0.022855002;-0.19338599;-0.14916141;0.04011101;0.118930005;0.015861358;0.23890832;0.051848195;-0.045378756;-0.07401143;0.015817923;-0.012559475;0.05718518;-0.008658514;-0.0454093;0.01083697;0.0010695857;-0.0069464953;0.18676418;0.0074062077;-0.043938983;-0.017126223;-0.16726393;-0.22199602;0.12857085;0.079539225;0.36304644;0.22041254;-0.13400725;0.016373426;-0.19901443;-0.0059738685;-0.0070687006;0.047267735;0.16519625;-0.16080198;0.239521;0.21743289;-0.2011149;-0.09365582;-0.23501804;-0.28121093;0.21047483;-0.02256882;0.1298693;-0.032909334;0.14779758;-0.27884415;-0.02549126;-0.067229606;0.018513283;0.027971253;0.10147388;-0.08207459;-0.046161734;-0.052230544;0.018591883;0.13076797;-0.047337554;0.01588677;0.017256333;0.0193143;0.043623008;0.015111224;0.016261289;-0.21910506;-0.12694134;0.07671443;-0.09013162;-0.23837206;0.2811086;0.049602274;-0.33297056;-0.073168285;0.030130116;0.0074229278;-0.18495804;-0.00024464246;0.32750618;-0.016960913;-0.030456945;-0.026768045;0.10009664;0.08025867;0.13965656;-0.0451727;-0.061350968;0.2093337;-0.17236347;-0.04545112;-0.023130447;-0.017670792;-0.04224603;0.13908915;-0.2055325;0.12122824;-0.018183578;-0.22374831;-0.027677454;0.2497882;0.036175977;-0.023560317;-0.1885201;-0.034474667;-0.0049286354;-0.19483285;-0.18098895;0.13314335;-0.105838805;-0.023311695;0.12852776;-0.04632333;-0.0009530501;0.049312677;0.023635393;-0.07667007;-0.03942825;-0.009285454;-0.06205986;0.15732065;-0.06444956;-0.022575157;-0.046521112;-0.101749465;-0.0037404248;-0.08408819;-0.015552621;-0.14485125;-0.13971825;0.044863522;0.058921225;-0.030494453;-0.44856212;-0.038246933;-0.33617336;0.17930987;0.00793466;-0.007774991;0.305895;-0.060793553;-0.05310013;0.030159455;0.047755778;-0.16750239;0.04081489;-0.056635734;0.06619079;0.060962655;-0.07818185;0.0050256257;-0.0456064;-0.32016402;-0.2794977;-0.060654037;-0.028646503;0.09745108;-0.07774158;0.014151365;0.023162665;-0.02772881;0.07439386;-0.21467097;-0.026215581;0.0727792;-0.016164107;0.015012234;0.09320824;0.09764144;0.018998537;0.2006816;0.15214191;-0.0061535086;-0.06613235;-0.025394438;0.05437472;0.17419147;-0.0014595866;-0.067450106;0.0048629576;0.23164085;0.040474407;0.07359981;0.004976475;-0.07924188;-0.26643676;0.062274773;-0.28962773;-0.07127956;0.27613747;-0.04165707;-0.17688453;0.036141623;-0.019993018;0.013224269;0.002067578;0.1957388;0.06977044;0.41417748;0.14944956;-0.028353699;0.22811551;-0.3846541;-0.017473318;0.15654409;0.010311483;-0.009517787;-0.021167185;-0.14940311;-0.074931316;-0.046939515;0.024575876;0.004886075;-0.3799699;0.016737387;-0.04406202;0.048883017;0.043530464;-0.025940526;0.18466358;0.025732314;-0.042490467;0.016459769;0.053302858;-0.077599004;-0.025686309;-0.056415193;-0.028822722;0.059323188;0.2819729;0.026902722;0.2035528;0.019175157;0.0023196272;-0.38550112;0.039930597;0.43865666;0.24528462;0.11632513;0.011927084;0.19201219;0.02944752;0.006778889;-0.00934103;-0.01147228;-0.1806669;0.16715851;-0.22462636;0.35811934;0.03167493;-0.0040689902;-0.019759515;0.047599744;0.06632091;0.36957443;-0.055209797;0.24676384;-0.028493633;0.017635452;-0.047212157;0.09070424;0.017409965;-0.2792986;-0.11371304;-0.04337486;-0.010745058;0.12711307;0.01114201;0.08467687;0.36920398;0.015579189;-0.063729204;-0.18020491;0.04310464;-0.065598525;0.17996208;0.07134154;-0.012462701;0.06253697;-0.026041307;-0.059178416;0.040016536;-0.03347109;0.012021646;-0.057725932;-0.07913802;0.26160726;-0.05341272;0.031867724;0.28262877;0.004622205;-0.44082162;0.013020568;-0.03775706;-0.071843445;-0.11253331;0.05666658;0.052737094;0.14428735;-0.0192417;0.24660861;-0.18301451;0.004060035;-0.044812173;0.024017733;0.15296428;0.11339999;0.024183523;0.005202457;-0.024159003;0.041129805;-0.15367343;0.088467106;0.13007702;0.08465475;0.08752636;-0.1192198;0.0747756;-0.14061497;0.20989467;-0.03461452;-0.28966683;0.13762012;0.061468206;-0.051541876;-0.03655761;-0.21512097;0.08190693;-0.09831302;-0.10852798;-0.014167857;0.014112352;-0.08086009;-0.0738683;-0.0069309482;-0.026715314;0.04032908;-0.4307323;-0.013226371;-0.006442879;0.15338713;0.361912;-0.21524337;0.014856685;0.026230514;-0.042243827;0.14214732;0.30745003;0.00014053023;-0.04176532;0.08625039;-0.046080925;-0.06667704;0.03743331;0.105579205;0.036142368;-0.12908342;0.09491163;-0.23604158;-0.08012695;-0.13503483;0.057723626;-0.04119037;-0.14047578;-0.036318857;-0.01088045;-0.04134295;0.011928787;-0.14443254;0.06362886;-0.0028845146;-0.038236436;-0.003701481;-0.17968276;-0.062012162;-0.04208161;-0.035748906;-0.028134938;0.19805393;0.0016577941;0.059387717;0.016809648;0.10011146;0.052099552;0.0057572527;0.28616872;-0.04187957;0.21045867;-0.01870634;0.2142062;-0.03506642;-0.12419711;-0.01458563;-0.045259476;-0.005450388;0.009667027;-0.18454376;-0.020630425;0.10865257;-0.07314408;-0.024699258;0.008159219;-0.003322638;0.16444114;0.24978895;0.021322351;-0.04125455;-0.01829052;-0.29397994;0.2114117;0.05604798;-0.0923087;-0.05961602;-0.021706715;-0.01044245;0.027484441;0.2812045;-0.025659252;-0.06674838;-0.065181956;0.33125952;0.13116252;0.10208269;0.30198455
0.051694605;0.19135189;-0.09905736;-0.055954177;0.039254665;-0.07342482;-0.22119182;-0.032750696;0.06751328;-0.014318923;0.17977974;0.13017453;-0.04797969;0.23534633;0.34292433;0.18851207;-0.00074470264;-0.005392318;0.08369222;-0.12549815;0.018580647;-0.25343695;-0.06527317;0.035952944;-0.080196895;-0.0064875716;-0.07505162;-0.022496663;-0.06184641;0.01316976;-0.115818605;0.020610142;-0.40778527;0.025697058;0.009081051;-0.07124267;0.013433058;0.02379503;0.034111228;0.08769754;-0.012023386;0.026139755;0.06652337;-0.0048217615;0.15248868;-0.27113053;-0.037535813;0.04934342;-0.0045985407;0.26279664;-0.07270746;0.030076822;-0.16541158;-0.058242183;0.04400381;0.040580027;-0.17238131;-0.01621233;-0.13025315;0.0039775283;0.03564505;0.00077140913;0.048004933;-0.080254406;0.38092327;0.23992538;0.1614964;0.2831852;0.0037661616;-0.044117495;-0.04052866;-0.17358449;-0.0945917;0.19875091;0.23363122;-0.12750778;-0.26211384;0.13395657;0.22837742;-0.016294884;-0.010178645;0.0054796753;0.12287505;-0.1867036;0.057934817;0.048097227;-0.017359726;-0.00165943;0.045222975;-0.081833474;-0.10989352;-0.12740126;-0.028385334;-0.06752581;0.020867743;-0.28123635;0.0166945;0.016068505;0.15265208;-0.20266408;-0.22191766;0.040933818;0.046375744;-0.017142478;0.15077507;0.019140972;0.21055037;0.002872209;0.046397246;0.055638533;0.1576333;0.11665341;0.056645077;-0.04984047;0.02566843;-0.20285279;-0.05075198;0.042718943;-0.033375643;-0.0067160516;-0.13497286;-0.02753147;0.10248112;0.1621323;0.0669091;0.08862253;-0.10905179;0.09759326;-0.05253071;0.033264667;0.09267795;-0.18307872;0.028172443;-0.06987868;0.032842692;0.1692257;-0.11860969;0.15140788;0.028934473;-0.077728376;0.07279271;0.037832897;-0.34756005;-0.05557659;0.14717637;0.04722116;0.013234286;0.21687078;0.005847724;-0.23270947;0.10958543;-0.030591987;-0.013550234;-0.023982024;-0.20910773;-0.0837058;-0.015609758;0.082244016;-0.030941958;-0.004363245;-0.09109929;-0.058372617;-0.10082387;-0.003303514;0.009739194;-0.041337218;0.0012318842;-0.0590572;-0.02603805;0.007959268;0.007362492;-0.0025611403;0.040447712;0.062930524;0.058169633;-0.1479695;-0.25887096;0.11379016;0.046030764;0.4858739;0.2045012;-0.18535404;-0.015735058;-0.27395433;0.055667702;-0.0013205672;-0.02737663;0.21484134;-0.14813317;0.21747571;0.21591207;-0.11903554;0.05350497;-0.18756266;-0.44162554;0.33617327;-0.021884171;0.105631016;0.029546594;0.11070639;-0.18158306;0.030671539;0.027896244;-0.011490516;-0.046987824;0.22624582;-0.06529799;-0.0548406;-0.05909133;-0.039277572;0.062234364;-0.05935676;-0.004470737;-0.011767639;0.06542911;-0.10602421;0.02330673;0.07810258;-0.08462219;-0.19461218;0.09392665;-0.227612;-0.2683721;0.45300692;-0.043920003;-0.3344073;0.06619539;0.032794476;-0.038395885;-0.10486369;0.07901468;0.33007312;0.077951275;0.013552031;0.034456376;-0.08974029;0.08353516;0.09659052;-0.06414835;-0.0029768674;0.08805945;-0.109484375;0.07316705;0.12305398;-0.039307;-0.060973607;0.09385569;-0.07406795;0.06442255;-0.06031732;-0.38817847;0.020858714;0.12587881;0.14555185;-0.0031216736;-0.10759363;-0.04449742;0.012940841;-0.039854728;-0.2783995;0.15755945;0.05697548;0.11758664;0.07373237;-0.0001479862;0.044593025;-0.07222667;0.03595478;-0.17674956;-0.066419534;-0.03054127;0.012672098;0.03001878;0.027356979;-0.018808212;-0.12689003;-0.24809562;-0.04098747;-0.3135488;0.07242444;-0.107546754;-0.1951724;-0.07882847;0.009362007;0.004749931;-0.23804592;0.057603866;-0.3294629;0.16845404;0.069625646;-0.083693855;0.26638559;-0.16521522;-0.10725936;0.034915294;0.08236774;-0.17427902;0.011246165;0.14064093;-0.02291155;0.17130084;0.004468805;-0.025793374;-0.05837703;-0.24047892;-0.06979591;-0.077995144;-0.027981585;0.038280416;-0.11987986;0.066292755;-0.051135454;0.04714066;-0.040098418;-0.145;-0.0016962724;0.18529975;-0.027009957;0.0035719287;0.22433957;0.16939214;0.019636536;0.304571;0.20213626;-0.017434694;0.03797706;-0.004718893;-0.019272003;0.01929486;0.14004345;-0.3338978;0.02732778;0.26264128;-0.05722875;0.075561084;-0.0019474834;-0.090486206;-0.07072597;-0.05747191;-0.46290025;0.012399928;0.1435479;-0.026289454;0.07037249;0.04954112;-0.013138288;0.028724007;-0.040096022;0.046636414;-0.014966404;0.3854728;0.20166701;0.06708315;0.23368128;-0.35591242;0.00743396;0.1612812;-0.0050717634;-0.14933339;0.020809287;-0.22472614;-0.048359215;0.023986492;-0.11296608;0.031705387;-0.32653567;-0.00430953;0.099424295;0.010963942;-0.048233658;0.010438779;0.30192286;-0.027056303;0.06113121;-0.0057129827;-0.05435442;0.05738666;0.030626774;0.05404375;0.053441785;0.01601218;0.23962286;0.029681657;0.2061079;-0.04156459;0.0024843495;-0.26849583;-0.13492432;0.31896862;0.18508002;0.102355435;-0.06984772;0.20598404;-0.032927148;0.047203932;0.119791485;-0.020631649;-0.20742936;0.18719397;-0.228448;0.29968217;0.013635637;-0.065470755;-0.0072312905;0.007524484;0.08364325;0.3608881;0.010475603;0.16464086;-0.016940668;-0.016704466;-0.052740984;-0.0074371677;-0.04138101;-0.13569757;-0.21974474;-0.16937357;0.058509924;0.024567109;0.029916564;0.035240605;0.35241437;0.16155039;-0.17686953;-0.21234092;0.049863447;-0.023909325;0.27998292;0.051070906;-0.08024478;0.13888147;-0.15902908;-0.016764455;-0.009680593;0.035487853;-0.0763569;-0.19345282;-0.05433464;0.1089326;0.07702019;-0.07167427;0.17018317;-0.012322878;-0.1712992;0.05408651;0.12322125;-0.017418068;-0.12837097;-0.040746294;-0.04516195;0.19525808;0.055674747;0.2985864;-0.22480613;0.06682926;-0.19707029;-0.044256836;0.06496387;-0.0009686263;-0.06652077;0.03748382;0.035623997;0.09018617;-0.2404706;0.09765261;0.024627216;-0.034941543;0.14111915;-0.045378756;0.012812333;-0.10704508;0.2977829;-0.04383431;-0.18953483;0.24085112;0.03536273;0.03521712;-0.10100186;-0.10636844;-0.056748737;-0.16814463;-0.09156161;0.06629737;0.17486228;0.13105807;0.0074065425;0.08891096;0.058687046;0.038392212;-0.33504468;0.03961974;-0.20979269;0.021582937;0.21778712;-0.25057343;-0.06913819;0.005712799;0.045802455;0.13600837;0.41545394;0.13589299;0.028562611;-0.0052433247;0.03319745;0.04305157;-0.0076891812;-0.016777575;0.032952655;-0.118024185;-0.08425804;-0.20213918;-0.08179524;-0.16159578;0.08186249;-0.076369286;-0.14474791;-0.02711776;-0.009277128;0.049904704;-0.029506536;-0.03172431;-0.026334837;-0.0035860029;0.022837397;-0.035749253;0.028874608;0.014289185;-0.011680616;-0.0028163295;-0.009205451;0.15914568;0.05615596;-0.06999411;0.032736834;-0.02852586;0.0009133;-0.07986149;0.2890057;0.048823085;0.04296117;-0.08295141;0.26298112;-0.047238655;-0.041517064;-0.010165194;0.061504498;0.1604111;0.07329498;-0.28464296;-0.006763011;0.28463522;-0.00030894787;0.01621914;0.07943779;0.051851407;0.12493129;0.1634737;0.04160651;-0.00758687;-0.023274397;-0.21805252;0.07039057;-0.007734962;-0.14853556;0.013293728;0.037759736;0.03788004;-0.04035248;0.15282;-0.02792584;-0.028837753;-0.02773403;0.15552902;0.13948241;0.06781202;0.19339372
-0.036011785;-0.0093496;-0.069061145;-0.045616973;-0.1777913;0.057986032;-0.13987559;0.010203912;-0.0203679;0.024428727;0.18846661;0.29293707;0.0493935;0.26915663;0.21277684;0.16054596;-0.034099013;-0.036255244;0.0076558865;-0.01361548;-0.13330129;-0.17095104;0.010729358;-0.027948104;-0.20318313;-0.0009146536;-0.03444976;-0.018454794;0.0019179997;-0.019159418;-0.038723055;-0.12349173;-0.39423722;0.036766917;0.036386885;0.029624984;0.006283839;0.07037844;0.22190702;-0.03146522;-0.011436474;0.002851662;0.14169139;0.1217017;0.19778818;-0.2517555;0.063042365;0.030411966;0.004056435;0.19053535;-0.14256884;0.04640576;-0.069215216;-0.008620512;-0.03868396;-0.013639383;-0.14892656;-0.06236667;-0.15749303;-0.0018117173;-0.0691357;0.08678407;-0.041231725;0.11895642;0.3127057;0.1832192;-0.019201346;0.17615339;0.022176985;-0.09477211;-0.2735522;-0.11045248;0.05187288;0.24313858;0.08807805;0.007824858;-0.30500153;0.07534396;0.22276118;-0.0028877;0.02987462;-0.003188302;0.24570507;-0.16762462;0.024189854;-0.060217228;-0.14647125;0.057962403;-0.060811438;0.02329376;-0.085054696;-0.09143729;-0.021978274;0.09467346;-0.008573355;-0.18064581;0.023367466;0.025770348;0.32719684;-0.012897481;-0.041722633;0.0062103947;0.02405952;-0.011410025;0.15080172;0.001025291;0.23484786;-0.0014628695;0.046318755;-0.04625529;0.08165992;0.15900275;0.05546991;-0.11202243;-0.049652617;-0.17927067;-0.07424192;0.13880311;0.096626915;-0.08678511;-0.15335545;-0.0008689747;0.040767346;0.03818113;0.1039236;0.032235555;0.09665842;0.026676532;-0.124432266;-0.03487757;0.14204192;-0.22175243;-0.055852417;0.06366436;-0.036809746;0.10438643;-0.08008265;0.30586842;0.040526215;-0.1843834;0.05284444;-0.019536696;-0.1339191;-0.066993184;0.26188156;-0.01472839;0.01201547;0.085983925;-0.023291696;-0.20345949;0.1885684;-0.11944565;-0.05519112;0.047743633;-0.15633859;-0.13131972;-0.045783963;0.16776873;-0.021886155;-0.0015148949;-0.10032131;0.2523762;-0.046675146;-0.0387746;0.00017600873;0.009006403;0.045760877;-0.105261534;-0.11364292;-0.034817275;0.036450047;-0.05958066;-0.024960402;-0.0053855185;0.0044329874;-0.2556322;-0.03959172;0.13280906;0.12510082;0.48517457;0.1850558;-0.027359167;0.019804562;-0.22136752;-0.026076427;-0.11079433;0.016553886;-0.028503666;-0.20266807;0.19861892;0.09252668;-0.04428253;0.04867517;-0.2030985;-0.4802056;0.20937742;-0.03798997;-0.02804459;-0.03425828;0.1889309;-0.16048165;-0.02719384;-0.0053374697;0.045127638;0.09375619;0.117506;-0.10881299;-0.1285389;-0.008272813;0.0046117143;0.18319507;-0.09769188;-0.05573314;-0.01951138;0.07542122;-0.124261044;0.17794569;0.22132526;-0.22685778;-0.056121938;-0.07264382;-0.12449338;-0.23902157;0.34593496;0.08407913;-0.17943424;0.014817076;0.0115334075;-0.076892294;-0.122361295;0.046989202;0.31158707;-0.035695884;-0.016280942;-0.028035657;0.051243383;0.09019789;0.011404074;0.056268156;-0.21314582;-0.045638304;0.012163714;-0.05201868;0.07557805;0.033877652;-0.15550342;-0.10680857;-0.044100698;0.089999795;-0.0060871867;-0.38068435;0.05106365;0.08493679;0.059027713;-0.002134402;-0.34854966;0.10426277;0.0029519051;-0.07403944;-0.3458118;0.15471432;0.11048158;0.26850873;-0.07633857;0.03947005;0.027552463;0.03431805;-0.014957944;-0.12405452;0.025758673;0.01267001;0.118294954;0.044717923;0.0971406;-0.0013113082;-0.18445148;-0.10972351;0.020208905;-0.17543593;-0.032335106;-0.22138111;-0.16269451;-0.037129838;0.05422943;0.028001953;-0.06548041;-0.06390038;-0.30177438;0.054956924;-0.07107602;-0.028405132;0.29292485;-0.17926049;-0.13256903;0.022366684;-0.014617282;-0.2471386;0.065084435;0.12154661;0.025003642;-0.070565;0.0522681;0.01626813;0.010204031;-0.095657885;-0.061352577;-0.01890408;-0.02728844;-0.0014758967;0.05467215;0.17506008;0.061739538;-0.04802281;0.05382561;-0.11985408;0.07776896;0.1335864;0.027805386;-0.024908185;0.18039489;0.08290749;-0.03211874;0.27157265;0.09905753;-0.03251437;0.119045585;0.0052735065;0.10807739;-0.052779745;0.1548094;-0.2216881;0.0037471359;0.18590619;0.010561194;-0.0030482726;0.010522088;0.054142095;-0.13907431;0.12884322;-0.37519732;0.025963604;0.23656319;-0.12229088;0.11425627;0.0565311;0.02896841;-0.03727937;0.047000296;-0.005385981;0.002585786;0.34406397;0.21433012;-0.03665814;0.054009724;-0.24051826;0.083501235;0.1300533;0.012287866;-0.16642186;-0.04966897;-0.08315052;-0.01618312;0.017391767;-0.0923114;0.22471973;-0.11138343;-0.038550567;0.1597322;0.15179925;-0.058738712;-0.16559188;0.27055836;0.0010907924;0.011910738;0.0373199;-0.0014014669;-0.048621166;0.022524517;-0.073734336;0.034304313;0.025733171;0.32083195;0.0098972805;0.15725033;0.019218372;-0.040551137;-0.26716363;-0.11375655;0.350292;0.17117746;0.21765082;-0.013023727;0.12786008;0.048616547;0.057134036;0.13660315;-0.0023395333;0.008487134;0.16676307;-0.3530811;0.24886858;-0.033501394;-0.072926335;0.00693758;0.18718314;0.113130115;0.21150704;0.013792044;0.11295262;-0.0142715955;-0.036899008;-0.023096757;-0.05489533;0.038101133;-0.29331043;-0.1492981;-0.16700505;0.00457192;0.11521561;-0.011351317;-0.02463963;0.18955207;0.092421055;-0.10643437;-0.2456145;0.027118947;0.05889547;0.2713877;0.08036832;-0.023968289;0.09612748;-0.29493213;0.0011953972;0.008175509;-0.047359854;-0.125878;-0.1755685;-0.18739328;-0.081757486;0.0051910495;0.07595541;0.14760157;-0.043440305;-0.16015197;0.026303573;0.25113004;0.04104741;-0.113163754;-0.033487722;-0.20192212;0.26644897;-0.04728323;0.27098304;-0.28154212;-0.06602673;-0.033681747;-0.001301357;-0.043037616;-0.05728836;0.0083085345;-0.02116177;-0.011230944;0.019384691;-0.13371038;0.023883933;0.09283055;0.0021628817;0.29430258;-0.024078494;0.050986055;0.045083728;0.2219849;0.0004642059;-0.23281907;0.27233857;-0.04506869;0.06875824;-0.06148754;-0.052672144;-0.06689554;-0.103981964;-0.21083269;0.12793621;0.13139969;0.20456527;0.030859781;0.08189734;0.047148332;0.022781331;-0.124172516;-0.033356752;-0.17976959;0.035617653;0.047609944;-0.27302915;0.041980106;-0.11253906;0.044472713;0.15213996;0.40297264;0.109063216;-0.011624747;-0.03113905;0.021697946;-0.016455587;-0.023173198;0.08081561;-0.07703888;-0.018871278;-0.29140133;-0.22705463;-0.042142864;-0.12254885;0.118174605;-0.099012084;-0.13432296;0.008855275;-0.14630981;0.009948034;-0.111442186;0.07724159;-0.003213333;-0.0028330649;-0.09010922;0.00084417127;0.18693528;0.07232541;0.0035310101;-0.036983147;0.06927067;0.07868403;0.17383638;-0.07787488;0.007844822;-0.20938526;-0.07207517;0.09508256;0.10179031;0.03632002;0.043984808;0.053594362;0.21120687;0.08496464;-0.008906467;-0.05044774;-0.023887536;0.30956662;-0.06339153;-0.26329732;0.045399066;0.34907496;-0.0041705742;-0.006661174;-0.12028934;-0.040627696;0.1432696;-0.019949596;0.05940214;-0.013475255;-0.044615347;-0.29336855;0.07187204;0.062112276;-0.18626893;-0.026790274;0.12955856;-0.063689485;-0.05354329;0.10348796;-0.09903341;-0.031927828;0.054457277;0.09370214;0.123833954;0.2129314;0.1602386
-0.18734983;0.13739288;-0.1576913;-0.0044802143;-0.14278232;-0.049613394;-0.22267917;-0.04807852;0.013126886;0.02433113;0.22709918;0.30625364;-0.021023689;0.43965563;0.16707583;0.13497104;0.026736705;0.13566059;-0.0013809244;0.15552711;-0.06425152;-0.15052229;-0.012616935;0.1128575;-0.20194688;0.026103903;-0.003409409;0.044606596;0.016223602;0.015517286;-0.16315138;0.05766172;-0.26100993;-0.023108097;-0.019596374;0.1395766;0.08739028;0.15509935;0.11725752;-0.027839253;-0.0074694166;-0.09422107;0.06731103;0.14908014;0.16275445;-0.06952084;-0.011000554;-0.033025455;0.009886356;0.2734407;-0.11217535;0.0011662074;-0.08874474;0.04685428;-0.0020901337;0.016826283;0.003055578;0.067891896;0.015412349;-0.23195763;0.02538659;0.1351854;0.018377965;0.2574837;0.26864845;0.35777074;0.10656843;0.13710457;-0.011679743;-0.16447075;-0.08409147;-0.020243762;-0.050470874;0.37968776;-0.085463665;0.113215275;-0.30169502;0.15049091;0.10962896;0.0024906164;0.0049550263;-0.0009101168;0.21172729;-0.004395714;-0.06878124;-0.031657454;-0.106705315;0.006962151;0.038708363;-0.18094991;-0.16307075;-0.003323931;0.016026946;-0.022977449;0.039592806;-0.115863636;0.0068984586;0.057762034;0.16831389;-0.07269126;-0.022279222;-0.018327886;-0.059069652;0.0711336;0.14128357;0.0028363282;0.24140258;-0.036096174;-0.020393599;-0.013325293;0.031100187;0.012619674;-0.0453681;-0.097595006;-0.00029134436;-0.16244632;-0.08618498;0.15005705;-0.062017947;-0.048252467;-0.03641751;0.017496267;0.14949697;0.0038450412;0.018777216;-0.046472266;0.22085527;-0.0139277605;-0.20541695;-0.00023845659;0.1879681;-0.22019555;0.03395434;-0.10050593;0.022336055;0.19270158;-0.18754172;0.2875509;-0.015063466;-0.17284016;0.1932459;0.051163416;-0.22335948;-0.21831757;0.18249309;-0.028947588;0.015046169;0.25869504;0.052422363;-0.20793769;0.0484712;0.01594806;-0.004238789;0.017715346;0.05157318;-0.050087847;-0.010641846;0.14914984;0.1432453;-0.053106125;-0.08757305;0.17014697;-0.1609386;-0.03889254;0.12971945;0.0049615745;0.03278078;-0.07566026;-0.15255405;0.023827275;-0.009863987;-0.2230896;0.004633906;-0.028179295;0.009729845;-0.14968373;-0.07514292;0.011487176;0.06536078;0.4904496;0.091779634;-0.087708816;0.03871435;-0.08472942;-0.009992833;0.09672748;-0.0701956;-0.011694913;-0.27121872;0.22388573;0.11239235;0.021886783;0.046514984;-0.15333007;-0.4973472;0.15101574;0.018646099;0.0053337957;-0.018747618;0.20573635;-0.06833937;-0.02439096;-0.03936812;-0.05568253;-0.029822646;0.076108396;0.048123557;0.024435688;0.06804421;-0.008926499;0.13648234;-0.11648833;0.055165697;-0.002139543;0.22822566;-0.0980472;0.1943749;0.22290456;-0.17872792;-0.17530642;-0.104018785;-0.1946504;-0.233805;0.23830299;-0.042861998;-0.122300185;-0.030369593;-0.02736145;0.038358092;-0.062262338;0.052924044;0.25431126;-0.0057678195;0.014920392;-0.17792232;0.14334093;0.22396111;0.2317308;0.0021314428;-0.2793298;0.060127612;0.068858564;-0.06813216;0.034268316;0.05717204;-0.040985633;0.01682524;-0.067375496;0.06271885;0.06379709;-0.37026852;-0.044970527;0.12122934;-0.0674263;0.020425292;-0.3351143;0.14563437;-0.009830792;0.039145432;-0.29469928;0.04462294;0.027035112;0.22270225;0.07169906;0.0116896;-0.08849368;0.056634746;-0.035913777;0.010901361;0.018307;-0.017324515;0.08661516;0.03482555;0.06530626;0.034676924;0.043757312;-0.07023215;0.058617655;-0.24722946;-0.06320438;-0.15499866;-0.1056506;0.15094963;0.055622987;0.0105377035;-0.11772359;0.048845783;-0.2251474;0.109264724;-0.06017092;-0.03812501;0.27788466;-0.18860632;-0.13167855;-0.06937561;-0.2496465;-0.34446633;0.04130582;0.19464889;0.052524585;-0.083664805;-0.022335643;-0.05539939;0.040609464;-0.020524563;-0.14315511;0.008655387;0.04987676;-0.016561504;-0.12025363;0.16263947;0.07295934;0.029910086;-0.056138698;-0.11938349;0.1280662;0.19837786;0.015808456;-0.04472894;0.15283382;-0.07497589;-0.001986887;0.2696361;0.04455418;-0.019284694;0.00023090842;0.01445902;0.10078331;-0.094192386;0.1285332;-0.3109906;-0.015588108;0.15263063;0.02582027;0.026594732;-0.0395199;-0.0670155;-0.1450006;0.25740567;-0.46678552;-0.010955032;0.33980644;-0.02015881;0.08193559;-0.042916022;0.002838015;1.2661218e-05;-0.027310593;0.13816282;0.024327772;0.29711884;0.10259496;0.17312594;0.032859944;-0.22124846;0.008096949;0.079572655;0.0361109;-0.15445018;-0.023658007;0.01737496;-0.117827006;-0.052343022;-0.0015815727;0.26796588;-0.22132361;0.0036680389;0.004711921;0.06929354;-0.042062107;-0.18741457;0.22497088;0.008263421;0.017433828;-0.05529008;-0.027183061;0.065067805;0.006432252;-0.0165023;0.07078581;-0.061532926;0.24744223;-0.068751864;0.06791404;-0.033426046;0.04013202;-0.2145708;-0.037988998;0.43141583;0.21439652;0.1138429;-0.063846454;0.037869986;-0.006017217;0.067488;0.0029737581;0.011052091;0.06033375;-0.061693095;-0.2329052;0.11507209;0.016233128;-0.07952406;0.020765873;0.21775739;-0.027546298;0.26692358;-0.0018699437;0.049240787;0.016588733;0.022832869;0.05004889;-0.17704943;0.0023385107;-0.10156665;-0.21918747;-0.12916484;-0.06516127;0.29852092;0.018469842;0.04497849;0.2294918;0.034128904;-0.045169637;-0.25589314;-0.04890338;0.035288367;0.3535457;-0.05125047;0.054582126;0.12409232;-0.22584227;-0.029313019;-0.013701765;0.051267494;-0.047873113;-0.3112621;-0.32388693;-0.09937679;-0.045729738;0.033149283;0.26432592;0.024768392;-0.04766148;-0.12093773;0.071373686;-0.041251574;-0.05133584;0.0953011;-0.15045811;0.22394507;0.052324694;0.1269489;-0.33116505;0.014049353;0.057492226;0.01741396;-0.09927102;-0.06512154;0.0016314257;-0.03985105;0.01640587;0.056907013;-0.05966279;-0.13357055;0.043201193;-0.0064232657;0.20070383;-0.2578072;0.047706548;0.09845156;0.23192164;0.035308935;-0.2008532;0.2760226;-0.036182057;-0.06226897;0.020415263;-0.025981473;0.038683508;0.038277727;-0.35050982;0.113647796;0.06627326;0.11675662;0.00094696274;-0.11379259;-0.04992885;-0.07302973;-0.2322343;-0.055139873;-0.2329145;0.02066535;-0.08520187;-0.21553856;-0.043649714;-0.02479227;-0.016766865;-0.008716497;0.4064117;0.17166382;-0.004618049;0.032858063;-0.006854;-0.11045316;-0.0057863146;0.052718308;-0.053988885;0.056475468;-0.39479217;-0.019380542;0.004581774;-0.14789511;0.21771799;-0.045574628;-0.01485827;0.008624194;-0.10423333;-0.0415771;-0.08984789;0.10424377;-0.07011378;-0.06441646;0.06538238;0.012799516;0.092408925;-0.058653202;0.012501729;0.07303487;0.07642625;0.06666282;0.08477144;0.050542004;-0.05477844;-0.13624564;-0.026250752;-0.049457926;0.09176717;-0.08262358;-0.08111871;0.05383672;0.29020122;-0.056087803;-0.06459489;0.0154522145;0.004741827;0.16982065;-0.014693202;-0.16002563;0.04005068;0.29269943;0.045984812;-0.03462173;-0.022041013;-0.031511795;0.010910788;-0.02493326;-0.008639562;0.050144896;0.043053742;-0.25522414;0.0039533116;0.03344039;-0.16978529;0.06257916;0.040000174;0.010261307;0.09970441;0.07037442;-0.19124486;-0.09513643;0.009541437;0.12241555;0.031030418;0.20212889;0.12799072
-0.0644064;0.029784009;-0.15233712;0.016026458;-0.019664792;0.0129515445;-0.30845886;0.039891824;-0.122419246;-0.045769792;0.15468217;0.33138993;-0.034119815;0.24003886;-0.073238924;0.14000508;0.06443388;0.13342267;-0.044469144;0.025191478;0.035534758;-0.17670941;-0.036839765;-0.015655657;-0.109302714;0.06716485;0.018492203;-0.094650246;-0.008561728;-0.02199035;0.0016938878;0.095750034;-0.20326005;-0.009360421;-0.021520516;0.16771023;0.061062623;0.17584066;0.11765644;-0.034454618;0.08054442;0.043469287;0.07090072;-0.07128773;0.2540695;-0.08921102;-0.0234732;0.02544335;0.0502207;0.13271423;-0.027434329;-0.027561948;-0.053235184;0.008797376;0.019090146;-0.060253672;-0.009635633;-0.04301642;0.044278696;-0.24999148;-0.045600135;0.00799883;-0.038639247;0.14990664;0.07889314;0.31191355;0.07837364;0.10468317;0.0045210184;-0.018566143;-0.262417;0.0012076381;-0.022643385;0.44249588;-0.08115396;0.16434443;-0.145669;-0.06372186;0.14493027;-0.004704788;-0.008068954;-0.00013323885;0.24477574;0.08661881;0.02461327;-0.00727425;-0.07423401;-0.051288992;0.07364211;-0.24027929;0.0024289873;-0.07018874;0.057208627;-0.08287227;0.0100186765;-0.08700307;0.0020488496;-0.023578402;0.33083686;-0.15504208;0.12177925;0.053837612;-0.0070494916;0.21813129;0.078242585;-0.0063701347;0.13498572;0.06012583;-0.06551089;0.024420425;0.009420303;0.1498653;-0.067100815;-0.03841488;-0.03292905;-0.09455397;-0.13453859;0.19480905;-0.038466856;-0.14486401;-0.008546662;-0.042735443;0.21503854;-0.0438428;0.03914024;-0.019807886;0.19451283;0.00059384195;-0.23020749;0.016606132;0.13576236;-0.23914306;-0.03885607;-0.08955602;0.024643697;0.14178301;0.03888254;0.32936418;0.040984306;-0.05485213;0.12202827;-0.013874318;-0.09091208;-0.33605036;0.11020196;0.034788754;0.015520617;0.29127085;0.008084749;-0.030847084;-0.029353684;-0.016800694;0.053972058;-0.052468553;-0.0630389;0.06025896;0.021851681;0.21597755;0.028786262;-0.1806738;-0.023501836;0.196757;-0.16792142;-0.026586566;0.062524624;0.038367737;0.037175577;-0.026192714;-0.22270274;-0.034531895;-0.0042249737;-0.26703194;-0.057141762;0.012828758;-0.02169369;-0.14838776;0.0062826457;0.09851152;-0.1438426;0.31331438;0.019635443;-0.05498802;0.20838028;-0.06865996;0.05001829;-0.041922092;0.019577246;0.11065201;-0.23486413;0.25724247;0.07134698;-0.1401363;-0.05852151;-0.23371264;-0.33267188;0.060179275;0.037089117;0.097156174;-0.04615567;0.24775343;-0.03307451;0.0534348;0.03401068;-0.033511784;-0.061296742;0.17811887;-0.061115883;-0.10433426;0.23376614;-0.030982012;0.21076055;-0.11826717;-0.04326151;0.0025488765;0.09145681;-0.08813366;0.38240185;0.20814337;-0.13470896;-0.2698382;0.019940121;-0.13733812;-0.24655673;0.1992119;-0.001919516;-0.19856626;-0.10589556;0.00038671488;0.07039707;-0.1273969;0.019584427;0.29077536;-0.038361806;0.019838056;-0.07830937;0.06444686;0.118414335;0.17665432;0.034992557;-0.21933198;-0.1401214;-0.0048695356;-0.07781012;0.21117131;-0.03984376;0.02563386;-0.03590853;-0.08452061;0.075088;0.025246974;-0.44272006;-0.05289782;0.2320791;0.014972915;0.019023385;-0.5104585;0.11409178;-0.040403206;-0.028918175;-0.2901836;0.14913394;0.03303735;0.23195948;0.042719506;-0.028481757;-0.21606374;-0.02876207;0.01256999;0.013781294;0.021920037;0.018452227;0.050271485;0.0055353455;0.10729143;0.031883642;0.0034541416;-0.0708691;-0.024034368;-0.35390165;0.024740702;-0.12562774;-0.1374198;0.11506454;0.0018576835;0.0030058906;-0.022725737;0.026871728;-0.041656252;-0.023157094;0.035409473;-0.06636162;0.2908717;-0.2662731;-0.27435645;-0.019331483;-0.16633298;-0.29054257;-0.029597074;0.23038015;0.013018825;-0.09113918;0.06885478;0.002961451;0.010359095;0.05401817;-0.05233667;0.083504185;-0.004809524;0.15778457;-0.07057064;0.18029484;0.18294641;0.017992968;-0.105574846;-0.2260298;0.074157044;0.103105634;-0.02640297;0.063431725;0.09373988;-0.01071979;0.013310447;0.15170285;-0.046729524;0.042223807;0.09862532;-0.00536908;0.0955584;-0.03782205;0.21124408;-0.079912074;0.03355771;0.07156227;0.0872148;0.03681592;0.064163655;-0.10752663;0.11679266;0.38534573;-0.55489534;-0.048516203;0.2631857;-0.06941476;-0.12331132;-0.09624475;-0.043902237;0.029018668;0.016207222;0.1241552;0.14844307;0.28494865;0.20971657;0.125297;-0.006668097;-0.16173004;0.1028345;0.12774116;-0.019912135;-0.22956155;0.006538453;0.052127775;-0.124898925;0.060762823;-0.039385803;0.3344638;-0.19591756;-0.03092552;0.06321918;0.07708781;-0.023241462;-0.09530865;0.20243904;-0.007536782;-0.023880666;0.03702463;0.07313427;-0.055801477;-0.01944036;0.05538296;-0.053390898;0.058059383;0.27142617;0.017036151;0.13363364;0.006844992;-0.0024387287;-0.03354818;-0.06621693;0.4357331;-0.015014957;0.11241192;-0.060259882;-0.170798;-0.02512847;-0.050627682;0.001285832;0.07001295;0.09826026;0.034428604;-0.31011668;0.14220107;-0.01647812;-0.148513;-0.031982735;0.2569274;-0.0054271244;0.05230312;0.013369837;0.12969019;0.029289125;0.009725999;0.045155138;-0.051490873;-0.009733633;-0.08909147;-0.1858848;-0.046105508;0.02127867;0.21978468;-9.829625e-05;0.15238295;0.17050649;0.12238749;-0.064243354;-0.26489142;-0.03913586;0.05638149;0.3816442;0.014445307;-0.028961219;0.054089595;-0.18885961;-0.10459476;0.04110383;0.019746853;0.115010954;-0.23657452;-0.2130953;-0.25047448;0.03331771;-0.029544087;0.31070745;-0.020899467;-0.025471242;0.014527876;-0.02099671;0.051804863;-0.08077685;-0.037649598;-0.10198601;0.120625354;-0.00443939;0.015760832;-0.3403933;0.028244738;0.037200373;-0.021558492;-0.13773438;0.17739625;0.03255522;0.042406697;-0.01520995;-0.16760322;-0.19122963;-0.048536792;-0.17601423;-0.030848483;0.19712354;-0.31573573;0.16411221;-0.05584902;0.2649918;0.0042134165;-0.12528759;0.04975889;0.011690547;-0.044176687;-0.10768865;0.14182967;0.023203248;0.13572024;-0.36072102;0.053588923;-0.09987359;-0.048900727;0.031987272;-0.111306526;-0.09457373;0.012858148;-0.22641996;0.04225595;-0.13069342;0.16093406;-0.18757235;-0.24350803;0.027025228;-0.12204309;0.0037450164;0.12156744;0.28092688;0.07360026;0.0030391987;0.025380015;-0.028027013;-0.2407897;0.07832477;0.09546996;0.059050806;0.09818974;-0.3473778;-0.093825676;0.1294608;-0.0708357;0.0801076;-0.08711627;0.07087338;0.007271943;-0.17965584;0.04320919;0.042197056;0.16953929;0.056456633;-0.009619868;0.076027125;0.0073106987;0.21816503;-0.03283506;0.04692278;0.047992535;-0.06374207;0.07825738;0.115387;0.05626381;0.0036411176;-0.18358374;-0.08385367;0.072711274;0.033726264;-0.05914768;-0.13599676;0.03734831;0.108708106;0.004365667;-0.030387852;-0.0046138237;-0.02949853;0.20923354;-0.037910577;-0.055348016;-0.041248072;0.0916448;-0.011797079;0.007701178;-0.06669858;0.05253403;-0.047162317;-0.10849888;0.0543233;-0.020674907;0.027741164;-0.34749767;0.066202775;0.012856745;-0.2281275;0.030268991;0.13540345;0.038911432;0.07647819;0.16509728;-0.18718119;-0.17931828;-0.04653215;0.07946297;0.10372289;0.04915614;-0.023772676
0.110285535;-0.045896918;-0.29645154;0.0882129;-0.007243778;0.027243571;-0.25422367;0.025420994;0.1260803;0.03538885;0.06817589;0.2520898;0.013953933;0.11774702;0.0030057468;0.10250973;-0.01159284;0.17886585;-0.0024897375;0.07036594;0.009953942;-0.20468883;0.04556731;-0.018952783;-0.1844883;0.13082057;-0.01148279;-0.14507617;0.05240682;-0.01326385;0.04996167;0.053818423;-0.14695512;-0.014305447;-0.015622152;0.028598037;-0.0008298577;0.14174794;0.2905937;-0.08429053;0.206638;-0.0021711607;0.124621235;-0.17583944;0.07869648;0.014734875;-0.034056798;0.047349248;-0.037624896;0.20769083;-0.05200901;-0.036510184;-0.01036883;-0.11421861;-0.0035171916;0.043365102;-0.06606528;-0.031369176;0.025851581;-0.1825365;0.0031848291;0.038748555;0.027549481;0.09524978;-0.011638826;0.35517675;0.013079993;0.15810703;-0.060581144;-0.061765496;-0.16963719;-0.06281695;-0.037950337;0.132634;-0.13839264;0.22687848;-0.06449319;0.059390254;0.086778805;0.01475752;-0.01776563;0.04120429;0.27777943;0.060408488;-0.09412021;-0.084357746;-0.08996275;0.032038983;0.00019024004;-0.3433493;0.010671947;-0.060760234;-0.05804971;0.0011246102;-0.03657885;-0.00033546236;-0.059994712;-0.012984007;0.27821985;-0.2681198;-0.05286219;0.01860352;0.056736823;0.12585942;0.01877038;0.031434204;0.012739373;-0.02098801;0.0349284;-0.02378271;0.057442173;-0.088405065;-0.11732378;-0.09425692;-0.02714795;-0.14167234;-0.069901876;0.23837468;0.028885588;-0.1491109;-0.08393033;-0.00072525715;0.16272068;0.15758403;-0.018002592;-0.037955035;0.105479114;-0.03433794;-0.14964116;-0.038234327;0.06278966;-0.43050545;-0.02227539;-0.047898974;-0.015280207;0.03753678;0.02093536;0.2431549;0.139062;-0.07196632;0.11898231;0.0022242619;-0.14821264;-0.35352728;0.105469204;0.010504966;-0.053615518;0.3024527;0.015280339;0.055335984;-0.045660432;-0.23716882;0.018266413;0.025566312;-0.22553942;0.1206321;0.020981457;0.14245576;0.15354297;-0.11229423;0.04486055;0.335594;-0.2911767;-0.05423427;0.012473679;-0.039279368;-0.022087794;0.00049883896;-0.23873852;-0.022042677;-0.0018908101;-0.15761456;0.059966378;-0.06293935;0.023080338;0.003584038;-0.13144048;0.08058452;0.030057386;0.121928275;0.16260746;-0.07382007;0.2528051;-0.09110798;-0.025221957;0.014945271;0.0037661768;0.046755034;-0.1923582;0.17997527;0.15648396;-0.046432365;0.09126288;-0.045696847;-0.38494837;0.055030726;0.00036309886;-0.13180913;-0.061803635;0.17443591;-0.023635998;0.011892275;0.02982073;0.02318443;0.04452777;0.12938072;0.06832185;-0.21702537;0.14897656;0.04788923;0.05091823;-0.041220773;-0.0039112982;-0.008061404;-0.028545205;-0.06882631;0.15549925;0.11574525;0.019319871;-0.21526764;0.017472858;-0.006285707;-0.25094172;0.046018757;-0.04044009;-0.007814233;-0.07054142;-0.05951336;-0.059565935;-0.025665358;-0.07047917;0.14725831;0.044498455;-0.052309476;-0.08510572;0.04412546;0.24121477;0.11046168;-0.039852582;-0.22011451;-0.11332733;-0.007235783;-0.08411016;0.26367238;-0.023922484;0.12787578;0.0013347885;-0.06305728;0.060197283;-0.049611352;-0.37313277;0.043580677;0.20898932;-0.00036564725;-0.006786744;-0.36527228;0.08900644;0.03009175;-0.007885775;-0.33317673;0.25257695;0.13582826;0.24442557;0.044919454;-0.0045136414;-0.13612902;-0.03681432;0.036407497;-0.019259395;0.048980754;0.06054708;0.060136676;0.073953226;0.24481447;-0.052161958;0.050544042;-0.09861563;-0.032317758;-0.3399812;0.01915636;-0.096748605;-0.1141686;0.14806905;0.07407448;-0.03805856;0.09825069;-0.018862592;-0.1753722;0.014472764;0.06429114;-0.05159565;0.21347037;-0.27112415;-0.0153498845;0.029402979;-0.13733013;-0.1795877;-0.055024818;0.2486954;0.17366596;-0.16065666;1.0698345e-06;0.045377817;0.00060010946;-0.036116134;-0.13836412;0.010313593;-0.028212214;0.22159798;-0.09491927;0.13386497;0.12701347;-0.024625832;-0.090435885;-0.103135996;0.049460642;0.21320882;0.0133330235;-0.057515334;-0.052742433;0.07506509;0.042726386;0.28131363;-0.13482825;0.009999984;0.13902332;0.03394299;-0.0024919063;-0.09155268;0.25610575;-0.23605838;-0.08175776;0.11378893;0.12668975;-0.06306517;-0.040221438;0.03648503;0.041658178;0.33982942;-0.60384744;0.065774575;0.2884535;-0.05398019;-0.09222792;-0.013458833;-0.027324751;-0.063326076;-0.0354666;-0.019424953;0.119917236;0.33286864;0.16467166;0.23834513;-0.040552296;-0.17102452;0.076200195;-0.047449637;0.03041588;-0.20486626;0.12417019;-0.06387;-0.13133681;0.009202849;-0.09101596;0.390323;-0.15403433;0.024897741;0.004442364;0.104210235;-0.037931267;-0.11838769;0.20126791;-0.0018484195;-0.003818164;-0.027969964;-0.07337003;-0.0021176166;-0.031379953;-0.025207141;-0.049661696;0.03912668;0.39662233;0.041708924;0.10524035;-0.030382473;-0.0048371283;-0.030157862;-0.019818485;0.34807587;0.046220817;0.12807278;-0.14193438;-0.12529121;-0.027570933;-0.055774204;-0.039376665;0.013292329;0.13293901;-0.17298299;-0.21374217;0.29036915;0.016137365;-0.27972713;-0.025847668;0.22229923;0.061525922;0.03196136;-0.018129049;0.3196216;0.036172006;-0.03278851;-0.0010070109;0.05274229;0.016408173;0.18107925;-0.0033316878;-0.07752613;0.056065917;0.21271288;-0.032602906;0.10697888;0.15933232;-0.02125124;-0.09560024;-0.15973088;-0.018782698;-0.03962898;0.2477144;-0.16751012;-0.12749627;-0.08488771;-0.35965458;-0.17726387;0.033570956;0.018716862;0.032988153;-0.22700709;-0.08607373;-0.29058173;-0.02986229;-0.05799946;0.29215688;0.03936628;0.09029243;-0.027191812;-0.0053442046;0.05644773;-0.10668999;-0.024937624;-0.21485531;0.13185197;-0.055171248;0.12052048;-0.27242017;-0.04937117;0.22444905;0.017613139;-0.031762533;0.104654;-0.019573286;-0.017752873;-0.012721052;-0.20917942;0.047480624;-0.06317753;-0.062036406;0.04092368;0.18701312;-0.24757671;0.13733216;-0.04564045;0.26169324;-0.028458536;-0.060993146;0.022406448;0.038017903;0.0104429405;-0.027730864;-0.0457571;-0.023094995;0.11617242;-0.2695105;0.22276482;-0.16804348;-0.03941046;-0.059846587;-0.34713373;-0.22509716;0.009282434;-0.20582025;-0.052562427;0.083871886;0.03960436;-0.32905963;-0.2654384;0.009390871;-0.0967105;0.006292783;0.23401183;0.2354178;0.052838027;-0.017546907;-0.0656772;0.034839325;-0.40524408;-0.016622463;-0.09359156;0.05796425;0.0916459;-0.53442144;-0.18530358;0.329948;-0.036172006;0.17091632;-0.12133357;0.06257071;0.02889904;-0.048158657;-0.014375139;0.0921563;0.14417817;0.058113594;0.050527997;0.17515847;-0.051936083;0.12989387;0.025537359;-0.012584049;-0.10522335;-0.057749104;0.11269754;0.10676204;0.09167613;0.012904383;-0.15054345;-0.0005466734;0.08828393;0.004400258;0.08574182;-0.22280248;0.14744048;0.10095379;0.037479848;-0.021201808;0.010061034;0.015293689;0.27526328;0.031218186;-0.10745602;0.008808537;0.033454765;0.0094294455;0.018666863;-0.14648208;-0.038249366;0.013212139;-0.2755283;-0.011321014;-0.0450786;0.023346988;-0.3090537;-0.09069153;0.22845751;-0.20925598;-0.06493789;0.033195913;-0.04369299;0.050736066;-0.0084601855;-0.14165467;-0.23216577;-0.03266523;0.14232184;0.10148786;-0.03309324;-0.033580113
0.06510876;0.08954714;-0.3419909;0.06954954;-0.019083511;0.058164146;-0.24934486;0.019813035;0.055594828;0.03339051;0.13853909;0.19718805;0.022113217;0.15102771;0.05178406;0.0806153;-0.039790012;0.29056135;0.026452027;-0.0063817874;0.023872701;-0.22316407;0.058671493;0.048195064;0.016197205;0.22596964;0.04231178;-0.22617681;-0.023753421;0.03481934;0.0035125047;-0.03113946;0.10031896;-0.000107330095;0.00010625109;0.036381364;-0.013459903;0.08924471;0.31863683;-0.09616666;0.038339183;-0.016683506;0.2112602;-0.34857708;0.20916863;-0.023588452;-0.011813886;0.033466864;-0.048182573;0.17674975;-0.044907995;0.005332646;-0.0852553;0.023280486;-0.010087992;0.024056531;-0.025552733;0.023218418;-0.08542837;-0.17707397;-0.06268946;-0.06855864;0.038652364;0.042340953;0.026776463;0.40432104;-0.021005072;0.13418423;0.05916685;-0.084429;-0.16505747;-0.2994667;-0.07732978;0.1417537;-0.06343927;0.23177354;0.022886192;0.013606952;0.07718155;0.08048458;-0.016852297;0.015242246;0.17458256;-0.034570687;0.017470893;-0.1073779;-0.0024377499;-0.03271645;-0.038795386;-0.20078632;0.06346791;0.06348139;0.049717557;-0.0015372342;-0.027729621;0.015800815;0.019510264;-0.03099354;0.20471373;-0.17694692;0.022484578;-0.06119688;-0.07799279;0.26506785;-0.0013885744;0.0051633394;0.0066545084;0.015478681;0.041693356;0.0020614031;0.051993713;-0.057502452;0.0090748025;-0.12868646;0.034108292;-0.081134945;-0.003292185;0.28865847;0.121880636;-0.09614837;-0.048809405;0.04568456;0.22248937;0.2184241;0.10902506;-0.017984733;0.07749737;0.02473905;0.0042681852;-0.031325433;0.023075348;-0.21938515;0.043540224;-0.21906982;0.017818216;-0.01267664;0.036466982;0.3208096;-0.04749825;0.00568944;0.13724272;-0.053470377;-0.21979769;-0.30649278;-0.026231114;-0.052026004;-0.042845633;0.3017165;-0.037198164;0.08087158;-0.20506473;-0.28262082;0.014324784;-0.06582519;-0.19622874;0.021773594;0.025986508;0.06089094;0.10597649;-0.11006853;0.10270681;0.21192156;-0.29528528;-0.015357017;-0.09235625;-0.02351183;-0.097840846;0.05164541;-0.18686323;0.05497548;-0.06006714;-0.12375851;-0.0023138486;-0.031219723;-0.03677632;0.045565687;-0.08788195;0.09829391;-0.044004124;0.14946789;0.1899566;-0.014850833;0.2485637;-0.20764259;-0.0037410294;-0.074875616;0.019963974;0.1450554;-0.1541747;0.21284221;0.10805867;-0.19843768;0.2905133;-0.20772752;-0.4478225;0.23972997;0.0025646465;0.049761463;-0.0527964;0.24988113;0.1689964;-0.04187709;0.030223591;0.028686233;0.02642652;0.06389152;-0.11719637;-0.16051316;0.12684219;-0.05725822;0.10175827;-0.19057266;0.023153428;0.047466557;-0.033684935;-0.061685815;0.22864062;0.22565646;-0.024174381;-0.26391935;0.0074833236;0.110336736;-0.19897184;-0.093041755;0.071313016;-0.14885752;-0.20671642;0.032432064;0.046825163;-0.09234938;-0.021569893;0.074292436;0.026483107;0.013894063;-0.17286552;-0.0139983175;0.19727832;0.20899262;-0.020045318;-0.18908411;-0.17720793;-0.047112253;0.09896896;0.22254038;-0.022335334;0.08830156;0.022586852;0.014069815;0.10577399;-0.010961315;-0.32219362;0.022924889;0.1148918;0.09033798;-0.050985634;-0.3138875;0.060891557;0.03803964;0.010018672;-0.36954975;0.19482955;0.16830166;0.26163965;0.05478661;0.010528803;-0.03495713;-0.012719883;0.0396784;-0.06525558;-0.03595986;-0.062316928;0.20753698;0.19087997;0.1820609;0.059172336;0.20308599;0.11040454;0.0045093726;-0.2737164;0.028590674;-0.0034815557;-0.28871372;0.19679207;0.06643138;0.017331675;-0.0082133375;-0.019953305;-0.22096585;0.036264196;0.0066633923;-0.026756376;0.2311479;-0.31624103;-0.041400086;0.048948526;-0.12994774;-0.1591545;-0.16005982;0.1521549;0.13991176;-0.021262543;-0.052418377;0.022437958;-0.031566765;0.07431106;-0.016066607;-0.0685256;0.0033708003;0.16641302;-0.06756635;0.04727825;0.2097096;-0.0046107545;-0.13208401;-0.052371383;0.09968997;0.30965185;0.007379075;0.07037584;0.03202473;0.119623214;-0.03883144;0.03164994;-0.020506108;0.032489616;0.112993725;-0.050773047;0.008630835;-0.11460366;0.026206639;-0.25711873;0.014248014;0.23236892;-0.011104479;0.04869333;0.025781604;-0.042440474;-0.03444133;0.31530204;-0.38759288;-0.016197108;0.37008196;-0.18955287;0.057641093;0.16016352;0.038558062;0.00948373;0.046001416;-0.030541303;0.069553755;0.22467385;0.06689331;0.1688078;0.07684015;-0.1245694;0.07770487;0.09480529;-0.06142474;-0.1441314;0.088853806;0.08470728;-0.08148949;-0.039718065;-0.16840601;0.29376912;-0.18444233;0.063468285;-0.099059545;0.004950517;0.015792603;0.069417536;0.08810171;0.017405553;-0.028858472;-0.0013918446;0.011710625;0.06891158;-0.0048582503;-0.014676661;0.045684285;-0.08199164;0.27679574;-0.04208793;-0.12978019;0.044736788;0.06440838;-0.025701929;-0.04172486;0.34824052;-0.016894342;0.27589074;0.05627529;-0.10860889;0.021006066;-0.024712013;0.12682775;-0.07130407;-0.116470315;-0.23946115;-0.12060251;0.23492365;0.00040279084;-0.2661782;0.028078912;0.055199396;0.084228724;-0.010912909;0.029430589;0.22529821;-0.027331555;-0.0024434295;-0.022005016;0.08182329;0.022591043;0.16521998;-0.020289386;-0.099548325;-0.029120201;0.17202853;-0.02383924;-0.08091949;0.30628747;-0.12362046;0.085555464;-0.18655713;0.058447182;-0.061329022;0.2728921;-0.027230509;-0.032134224;0.07508096;-0.28003263;-0.14839031;-0.067662746;-0.044222414;-0.009617866;-0.16097936;-0.048260998;-0.29036373;0.006681029;0.068571374;0.25021794;0.0100854905;0.10819169;-0.08969018;0.035063148;-0.0913738;0.12830092;0.03258776;-0.067023955;0.16701858;0.036230583;0.1293776;-0.3349889;-0.0006783975;0.117432915;-0.034978848;0.037746537;0.04717187;-0.00036928797;-0.01767071;0.0656937;-0.066716835;0.10076924;-0.06719151;-0.20211703;0.049667094;0.055846658;-0.032363147;0.056343302;-0.028003938;0.23846734;0.011377974;0.12250831;-0.185682;0.0062182834;0.00015682024;0.093760386;-0.12053646;0.05926379;0.22494598;-0.20343027;0.1684059;-0.27066734;0.05478266;0.0066336226;-0.34445736;-0.103349105;0.010291135;-0.04685515;0.049133483;-0.14293471;0.13741404;-0.3792984;-0.3300295;9.077182e-05;-0.17660403;-0.065002464;0.26911736;0.22596073;0.023863986;0.008301052;0.06901042;-0.05598601;-0.5201179;-0.03721856;-0.095990025;0.008577924;0.06410237;-0.5322352;-0.040079866;0.23300806;-0.076239;0.16227622;-0.14263998;-0.093160786;-0.05275702;-0.0797629;-0.01516633;0.06471398;0.22803618;-0.030051325;0.027194165;0.18995579;0.017582899;0.18919463;0.008922685;-0.0075004357;-0.068659425;-0.016290268;0.12901315;0.11941182;0.011584468;-0.018190077;-0.031278934;0.009082925;-0.0731942;-0.049344804;0.029792495;-0.16782881;0.035618078;-0.121963024;-0.011570758;-0.15013535;0.04249614;-0.013500384;0.2028411;0.07554011;-0.11154244;-0.014595524;0.0026389228;-0.0073610223;0.04868945;-0.14944905;0.012596744;-0.19655527;-0.24594067;-0.136921;-0.009810596;0.049945306;-0.31955943;-0.08398921;0.121717125;-0.13038512;0.026022207;0.12731564;0.04435148;0.02906199;-0.025712105;0.053443458;-0.18682882;0.068562895;0.101233624;0.08513042;-0.01193044;0.04573636
0.104106314;0.05145256;-0.30241817;-0.035631377;-0.1398498;-0.023108203;-0.011820422;-0.03207038;0.07393936;-0.06809217;0.05240598;0.1370512;-0.0009612366;0.12092685;0.0028551866;0.14726584;-0.0047080615;0.2895919;-0.043461204;-0.07772322;0.008462563;-0.2112428;-0.02507477;0.00049653655;0.0011281118;0.13980536;-0.012719431;-0.20716299;-0.049254067;-0.0077087292;-0.03884236;-0.07280001;0.06447393;0.038338736;0.028548764;-0.08836575;-0.04175618;0.11226684;0.28293017;-0.23896474;0.09529806;0.03185803;0.20598312;-0.1787054;0.20752782;0.08671367;0.055079788;-0.030423874;0.039078638;0.23165838;-0.08996436;-0.016665535;0.024583066;-0.11157254;-0.0083330935;-0.057457294;0.042171374;0.057697326;-0.0208421;0.004548626;0.024274556;-0.06730511;-0.02296263;0.047342576;0.06474868;0.21676147;-0.05828206;0.14564875;-0.070463695;-0.13530965;-0.064837284;-0.21085583;-0.12335884;0.1537278;-0.009169083;0.15128006;0.013634665;0.13785157;0.09794661;-0.05445032;-0.0046884865;-0.032052856;0.26177254;0.06259666;0.05226051;-0.18456218;-0.11904841;-0.0035859754;-0.039081722;-0.22236606;0.11405038;0.10004863;-0.023729129;-0.039056253;0.023924423;0.107156835;-0.0027412984;-0.015712459;0.4139064;-0.104411334;0.0827437;-0.0014471811;0.05124437;0.2794459;0.07237961;-0.0033061637;0.11476968;0.019974492;-0.02828726;0.0021739318;0.08599607;-0.025584493;0.03757839;-0.02383852;0.0103339;0.027115522;-0.053230777;0.25980338;-0.029647103;-0.08555623;-0.022497477;-0.018799648;0.092157;0.2367206;0.018129917;-0.109705724;0.039490893;-0.052654196;-0.0016240098;0.06368566;0.1404301;-0.25334015;0.022073725;-0.15679991;-0.022614209;-0.078642115;0.14036116;0.35461327;0.02465053;-0.02604211;0.0011632425;-0.027488155;-0.2348795;-0.17714667;0.10730795;-0.022302799;0.041686893;0.28665218;-0.03015312;0.26050925;-0.22323518;-0.12946844;0.012127011;0.068909846;-0.16373152;0.041207816;0.04501491;0.1860593;0.10071316;-0.21143252;0.23267153;0.24137206;-0.2620882;-0.10995418;-0.28932068;-0.009654998;0.018469816;0.07826056;-0.2565311;-0.033371303;0.02920213;-0.10737105;0.013646703;0.012587388;-0.037514344;0.06640498;-0.12798505;-0.008117888;-0.24273972;-0.033637084;0.21257211;0.08486303;0.165587;-0.18734585;0.011007341;-0.123908326;0.017092703;0.065340646;-0.19489045;0.2805222;0.12603602;-0.1607811;0.2123096;-0.25652254;-0.2542787;0.1788399;-0.029274955;-0.009490697;0.09031939;0.2668702;0.046869855;-0.025518404;-0.02171837;0.018938286;-0.15569496;0.25860023;-0.02333884;-0.01943268;0.09046774;0.09378255;0.07844242;-0.11990062;0.033858597;-0.03228935;0.046228975;-0.13631813;0.21479909;0.12837073;-0.044035528;-0.10370975;-0.11291975;0.20745157;-0.11992545;-0.15019776;-0.005093671;-0.08260315;-0.16826841;0.016603872;-0.028277528;-0.08403067;-0.014667497;0.06255427;-0.026922561;0.024166014;0.033839047;0.115293674;0.15406434;0.2093946;0.062817864;-0.24227847;-0.11352748;-0.15216021;0.0032888167;0.12950729;0.038261764;0.10889513;0.055143043;-0.12445023;0.1419048;0.05964589;-0.277631;0.01404025;0.27825856;0.04899835;-0.01755713;-0.20444198;0.07599546;-0.029323647;-0.07713894;-0.2790226;0.22473387;-0.013496666;0.33681446;-0.005497349;0.044672232;-0.16295923;0.0016459287;-0.003142363;0.002761118;-0.050255775;0.036675077;0.3016946;0.26234624;0.17577887;-0.069996506;0.09685068;0.03950721;0.04392608;-0.16429529;-0.018762752;0.1387478;-0.30914673;0.11599539;0.1681776;0.020383513;0.07154889;-0.01650939;-0.10087655;-0.05600983;-0.040563416;-0.14406878;0.11633436;-0.28670228;-0.03679965;0.045284204;-0.111061536;-0.14080688;0.008732121;0.05923144;0.26643777;0.07129537;-5.6385146e-05;-0.027752543;0.0036673783;-0.18648803;-0.013730593;-0.020263204;0.016795645;0.060293294;0.06059589;-0.11837436;0.13216929;0.0053021293;-0.044768296;0.1578815;0.12093934;0.15420966;0.02778784;-0.016361384;-0.08478844;0.10641173;0.0023950846;0.11574898;-0.08334616;-0.014450511;0.030817652;0.037032496;0.044235285;-0.0031437096;0.07324117;-0.20742281;0.048305694;0.33937526;-0.12476747;0.07214042;-0.037037294;-0.064306945;0.030872315;0.25146374;-0.3343771;-0.022711568;0.36991504;-0.14356452;0.16024151;0.17175609;-0.021838833;0.014886579;-0.02603692;0.2545971;0.038371447;0.17377743;-0.026371472;0.1258471;0.019529538;0.007250953;-0.00047999722;-0.016574608;-0.017087081;-0.17119488;0.0842413;0.2125317;-0.06460483;0.0018840331;-0.09907205;0.17467639;-0.04380068;-0.045404207;-0.10690711;0.102667175;-0.0061729844;-0.035946295;0.152075;0.002001643;0.031134447;-0.01116701;0.07158147;-0.023926126;0.021470916;-0.030020567;-0.0076247077;0.026698967;0.16572885;0.04532652;-0.21742727;0.045970783;-0.045885887;0.19360022;0.004540558;0.23656802;-0.015020656;0.15549137;-0.049952995;-0.032032568;0.03871711;-0.085079305;0.020881511;0.03865704;-0.03262304;-0.13829267;-0.06389466;0.07772265;-0.02719139;-0.3510252;0.03686463;0.039169025;0.022493336;-0.059519593;0.007929748;0.17717241;0.020124964;-0.014523554;-0.012793143;-0.028135937;-0.009256609;0.2549919;0.031844314;0.019649254;-0.0068018865;0.079956174;0.001892664;-0.052475527;0.30420014;-0.05694846;0.084842615;-0.10135163;0.017600046;0.004393993;0.21420212;-0.07410922;-0.0046612555;0.054877166;-0.15490599;-0.10125939;-0.04807776;-0.046874035;-0.054237936;-0.36327958;0.054525264;-0.32665408;0.015085354;-0.025743911;0.3197484;-0.045847874;0.28054133;-0.095132746;-0.2620478;-0.027771091;0.17834462;0.0004176621;-0.08980258;-0.15672533;0.02047686;0.11078068;-0.34113446;0.024789678;0.09133856;0.0032777106;0.0024260257;0.061779317;-0.039706893;0.045980442;0.011115946;-0.15963735;-0.017788002;-0.28381187;-0.06995113;-0.0028705474;0.09193409;-0.014701491;0.008995082;-0.16011994;0.2348739;0.07399476;0.112493984;-0.22887245;0.018481381;0.07917588;0.1247611;-0.17955288;0.0057035857;0.11666268;-0.11765929;0.18292822;-0.28073728;0.046482865;-0.01395025;-0.2879037;-0.16142666;-0.009249743;0.004152667;-0.006737067;-0.091534145;0.12817231;-0.41404065;-0.31386325;-8.652415e-05;-0.10306702;0.0008983864;0.21733874;0.20831428;-0.06621305;0.051893957;-0.044267453;0.034556463;-0.46842137;0.03687246;0.06464906;-0.06583624;-0.07106524;-0.4329271;0.13025707;0.312601;-0.024333479;0.14407131;-0.12975328;-0.08504391;-0.02686547;0.018485952;0.03813834;0.08980627;0.20666295;-0.0291516;0.035437815;0.011125017;0.02078017;0.03147547;-0.04112693;-0.016354583;-0.12751348;0.015759792;0.16870652;0.12788379;0.0006593548;-0.03575961;-0.09219698;0.00068821467;-0.16424492;-0.12364245;-0.04112028;-0.15832804;0.11366318;-0.092961065;0.011361774;-0.16629525;0.0257075;0.019718338;0.14389369;-0.047284693;-0.095954515;0.029482521;-0.19740379;0.048212364;-0.055967435;-0.21730459;0.023149887;-0.13232552;-0.10232483;-0.22262126;0.030965317;-0.090874575;-0.2727686;-0.13508591;0.19160739;-0.048531033;-0.06438194;0.10738932;-0.024381401;0.029157206;-0.10907119;-0.07263135;-0.3753941;0.008473108;0.105500564;0.013102569;0.027408212;-0.12472556
0.10411006;-0.033747587;-0.38873857;-0.016710423;-0.10685658;-0.057404134;0.047201164;-0.0047830814;-0.022298252;0.018246623;0.12351047;0.053668372;-0.0007961395;0.0016948378;0.068935886;0.11988795;-0.018827792;0.37573704;-0.007795219;0.044072814;-0.0847273;-0.11469186;0.10468409;0.004447213;-0.0030774323;0.109189495;-0.019816324;-0.08371723;0.05301132;-0.0058380063;-0.0001655449;0.043452643;0.14496902;-0.018813483;-0.0055524185;-0.037906162;-0.19437122;0.10812062;0.2828701;-0.1687267;-0.0930064;-0.040787;0.3273187;-0.24067056;0.19722648;-0.09939799;0.05685054;-0.036498133;-0.009132365;0.092797495;-0.10137783;0.0054192273;0.06835039;-0.07566337;0.010603583;-0.011822606;-0.01312199;-0.05289088;0.012353869;-0.08160958;-0.018546106;-0.11077704;-0.05024253;-0.1478586;-0.02266196;0.36518285;-0.060653124;0.18280762;0.046220448;-0.11456426;-0.110744335;-0.23711817;-0.022260526;-0.030054584;-0.11534981;0.03539495;-0.0054162336;-0.0643623;0.25767702;-0.03394868;0.007588395;-0.011137475;0.27689496;0.040657517;-0.046362624;-0.086076505;0.09887154;0.024282783;0.017854087;-0.2409851;0.12563479;0.17743455;0.009030431;0.11187143;0.018086424;0.09812672;0.02132521;0.09203457;0.44739068;-0.12879542;0.078335464;0.064072736;0.0014083381;-0.07530067;-0.021151863;-0.033506196;0.22917266;-0.06508216;0.036932584;-0.036701474;0.018281143;-0.070286535;-0.0074963314;0.034297917;0.0058019497;0.11499774;-0.13356043;0.263146;-0.021951504;-0.07672797;0.03594225;0.013292062;0.18999511;0.17296806;-0.004423379;0.028427286;0.0155533105;-0.027865557;0.19720718;-0.0033014433;0.076422885;-0.05470243;0.032165937;-0.15163651;-0.049583063;-0.047010705;0.10930921;0.26761076;0.11376046;-0.1956983;0.08641225;0.06977833;-0.36214018;-0.25224277;0.040904492;-0.0072024716;0.031301502;0.2639859;0.005201852;0.21230014;-0.108010985;-0.19055219;-0.04255922;0.01721752;-0.22551599;-0.11391773;-0.082684144;0.2549978;0.14624803;-0.12298873;0.09935869;0.08662574;-0.3290463;-0.1129485;-0.22922081;0.03603916;-0.014018141;0.06810216;-0.33129334;0.01538981;0.043553088;-0.12154242;-0.040112674;0.017363466;0.014909618;0.0800255;-0.08058298;0.12578225;-0.16505449;0.0030239949;0.17964418;0.09507845;0.015504473;-0.016012657;-0.017525317;0.0068711927;0.023649504;0.097554505;-0.19427973;0.12325328;0.109222256;-0.12913975;0.19026363;-0.11695406;-0.24141237;0.1416159;-0.03274269;-0.21224095;-0.011066847;0.22039774;0.08621519;0.08549352;-0.0019355493;-0.022504626;-0.22332047;0.24569105;-0.048014488;-0.017429247;0.16617237;-0.018540319;0.08549956;-0.22989151;-0.07333021;-0.014864178;-0.0298951;-0.10862961;0.09572132;0.067371264;0.043742962;-0.04970442;-0.15702063;0.24140574;-0.097674824;-0.23797299;-0.014476423;-0.08006891;-0.031066924;-0.00048765252;-0.024326868;0.005225364;0.055006076;0.033609428;-0.039289687;0.030226676;-0.01385738;0.13525231;0.09219343;0.14448586;-0.03352745;-0.22404012;-0.1253484;-0.008002195;0.07872722;0.21468878;-0.0078106904;0.017202297;0.02451115;-0.1528142;0.05262633;0.0031105615;-0.17520384;-0.03451869;0.23508787;0.070408635;-0.004844357;-0.21314764;0.04152571;0.021742258;0.017171718;-0.33444825;0.14488986;0.09723578;0.28193653;0.055947166;-0.041771065;-0.25847328;0.05160279;0.031189118;-0.015910177;-0.0153549155;-0.06422742;0.17049393;0.11557889;0.16605759;-0.0040993025;0.13572556;0.09164903;-0.017562691;-0.025418576;0.030003687;0.107161134;-0.14550148;0.030332722;0.123012505;0.023822468;-0.078575134;-0.017815076;-0.09904163;-0.090048514;-0.04914772;-0.08499992;0.23290253;-0.25704247;-0.096370704;-0.041843332;-0.37539333;-0.1033009;0.0101097785;0.04467558;0.16928211;0.051512912;-0.021945583;0.040787958;0.0036691187;-0.06249471;-0.035749447;-0.03414088;0.044076275;0.085665464;-0.072038084;-0.12588148;0.22011192;0.002506688;-0.00823031;0.19490485;0.100822076;0.21246512;-0.009098156;-0.009696199;-0.061399873;-0.071137615;7.6169854e-05;0.1970513;-0.074094206;-0.03521264;-0.037409082;-0.060908213;0.032288793;0.0037413496;0.16330218;-0.20116916;0.0061548003;0.3516717;-0.055008575;0.12886953;0.029893646;-0.14867124;0.17085412;0.17111276;-0.2660319;-0.0076732985;0.35759187;-0.11060882;-0.047393817;0.1569709;0.03975885;0.03409361;0.021869889;0.17927197;0.091357425;0.16175015;-0.113276325;0.07138311;0.08574954;-0.0048038843;0.15175064;0.054825857;0.06646946;-0.24972859;0.2053574;0.2646528;-0.08435923;-0.011398421;-0.031608984;0.17311348;-0.012075458;-0.039021056;0.11017086;0.081490956;0.04821666;0.04746872;0.13252324;0.002622601;-0.035207458;0.048030436;-0.07269339;-0.015457379;0.033774886;0.009776061;0.034484588;0.024992246;0.28073874;0.013773321;-0.099117145;-0.04285049;-0.01895705;0.14346698;0.07331963;0.2002066;-0.116040014;0.05999786;-0.07878502;0.12418397;-0.009516594;0.025389519;0.1944338;-0.05294782;-0.09201543;-0.23544714;-0.11471325;0.01575314;0.0194484;-0.2733561;-0.0050602895;0.052480914;-0.036540497;-0.3589496;0.00951105;0.20302093;-0.052272853;-0.0054827365;0.003106276;0.1244079;-0.038366493;0.43940127;-0.07422717;-0.12809853;-0.052845072;0.043762144;0.026248211;-0.17976454;0.08126536;-0.10291574;0.032944422;-0.18506934;-0.03911453;0.030242458;0.11764765;-0.18036498;-0.11667313;-0.005071834;-0.25241086;-0.124319136;0.025084006;0.045385845;-0.002844207;-0.4496775;-0.11207712;-0.26952702;-0.016961224;0.027784668;0.28762153;0.012488366;0.1917706;-0.14137222;-0.016972577;0.036669496;0.20439601;-0.038558006;-0.023522114;-0.20033248;-0.07033455;0.056741565;-0.20421644;-0.012102134;-0.052045416;0.03341121;-0.13066854;0.21583314;0.048036903;-0.025281217;-0.08390441;-0.22097561;0.0836414;-0.34261623;0.08480058;-0.040230047;0.11583587;-0.0077115013;-0.0382613;-0.121946454;0.19913174;-0.058872875;0.07988828;-0.2145615;-0.05065284;-0.05863229;0.18015668;-0.08051976;-0.052258268;0.1008091;-0.10729689;0.06239495;-0.38469347;-0.106648855;0.09121806;-0.4487979;0.070814304;-0.004927074;0.013909995;-0.05108058;-0.17256293;0.109614685;-0.25925246;-0.30531538;-0.0031357727;-0.042434506;0.0542804;0.049916252;-0.04334812;-0.029765252;-0.03381503;0.03610546;-0.0176094;-0.16111006;-0.040514868;0.0668264;-0.0007855094;-0.08919443;-0.48667917;0.17520578;0.25653782;-0.058976747;0.10780805;0.030623795;-0.119940616;0.0604628;-0.102167144;-0.056992173;0.12507765;0.16726142;0.0058642244;-0.0814902;-0.09041536;0.004083324;0.1652864;0.052825913;-0.02388517;-0.18518752;-0.011469642;0.20900543;0.014447162;0.02730773;0.06514766;-0.06562367;0.0081708;-0.03314868;-0.076125585;0.007544348;-0.1918904;0.0030874643;-0.18055302;0.000559719;-0.3672377;-0.08551137;-0.023405472;-0.005963447;-0.021794409;-0.13057598;-0.047426518;-0.26763496;-0.05152697;0.0075150747;-0.08002612;-0.037012096;-0.2783209;-0.047014493;-0.33500946;0.03864723;0.010692101;-0.2537653;0.07895754;0.24312311;-0.12513693;0.0013100563;0.107539535;0.028923284;0.04018042;-0.028893156;-0.017138146;-0.33028585;-0.0012140989;0.19738401;-0.08275448;-0.035117786;-0.29652128
-0.03853137;0.15610453;-0.22580746;0.023199145;-0.121539935;-0.0075027514;-0.038518887;-0.021697415;0.01996937;0.0073756813;0.09738578;0.09003049;-0.030708577;0.017311702;0.08327328;0.21794023;-0.0112639675;0.3959989;0.061247595;-0.06538637;-0.0130780265;-0.09141208;0.005172684;0.0019799522;0.030709572;0.084173955;-0.039349645;0.0027222745;-0.0007048864;0.050543584;0.06804669;0.18896292;0.09618286;0.009202905;-0.014348951;-0.16734166;0.11375832;0.20408864;0.105705075;-0.13603467;-0.11850739;0.07688805;0.22781822;-0.15771885;0.002481354;-0.03807697;-0.022229701;-0.06547274;0.013935503;0.0019277831;-0.0005661456;-0.010258603;0.032941982;-0.17308976;-0.021288369;0.074579105;-0.0022966457;0.045403726;-0.02138512;-0.1495561;0.049474258;-0.050199382;0.082856886;-0.17005056;-0.074397266;0.32707882;-0.13645607;0.3719752;0.042258557;-0.2133201;-0.010402679;-0.1260895;0.035686303;0.026949795;-0.0742427;-0.046400487;-0.28549406;0.04203256;0.2625512;-0.01954735;-0.012293673;-0.026792724;0.2817549;-0.08875182;0.032386646;-0.09459183;0.19692495;0.023607364;-0.018371757;-0.30551457;0.18432935;0.25214002;-0.05271741;0.061378825;-0.03331515;0.022382319;-0.032239284;0.043952513;0.26417822;-0.022951754;-0.05318503;-0.051194694;0.038672782;0.060001686;-0.014714283;-0.024661308;0.20360264;-0.019564731;-0.0655456;0.045033135;0.03387646;0.030204847;-0.023572892;0.15450168;0.040172834;0.17406166;0.036904592;0.14074278;0.024861293;0.035667248;0.041159272;0.00851666;0.15580277;0.1441039;0.07265355;0.03256196;0.122633964;0.030513173;0.17488463;0.05664788;0.20635931;0.0074117864;-0.036002047;-0.08432159;0.02968761;-0.1477499;0.18391655;0.10503437;0.23418118;-0.14069808;0.06923408;-0.014923053;-0.1926978;-0.137862;0.068141356;0.04476234;0.0030187506;0.08085134;-0.009422196;0.046232454;-0.12139493;-0.32035777;0.019533124;-0.08172819;-0.019810636;-0.11258831;-0.028853156;0.20461042;0.026086884;0.067628264;0.17423445;0.1298314;-0.31619945;-0.044283293;-0.24705675;-0.0118663;-0.01968557;0.10760632;-0.3163732;0.02061621;0.011238894;-0.15671113;-0.008343473;-0.006304748;0.023439674;0.23540449;-0.21740799;0.079708904;-0.12832512;0.1028718;0.41977453;0.10951472;0.019422367;-0.023472685;-0.028738238;0.08829908;-0.015804002;-0.02455572;-0.27232698;0.1349952;0.07900238;0.16110823;0.40338075;-0.006907761;-0.30694276;0.112175666;0.00033254785;-0.19274788;0.024335118;0.010304442;0.1125763;0.0009160713;-0.032080304;0.0021303128;-0.1290771;0.22159868;-0.13619371;-0.26272482;0.1146423;-0.01922157;0.02155023;-0.21076483;0.030396838;0.008778431;-0.061469916;-0.117784746;0.082594275;-0.0459293;0.07142338;-0.06334268;-0.1805737;0.22522782;-0.22803341;-0.38218772;-0.02961017;-0.10948078;-0.088937916;-0.050069235;0.00929739;0.059013758;0.05528574;0.14593737;0.020885982;-0.020418458;-0.015521923;0.1339486;-0.077488795;0.042530663;-0.011358256;-0.31856802;-0.07188481;0.020568816;-0.0012111927;0.13224119;0.013416442;0.09970868;0.014395695;-0.23591042;0.09199431;0.010078599;-0.29423663;-0.010457889;0.2975373;0.0592828;0.08132852;-0.20353876;-0.030789008;-0.023588344;0.10226412;-0.282725;0.20786653;-0.010484476;0.20479941;-0.013260558;0.035298668;-0.14464265;-0.03233126;-0.0635259;-0.024417888;0.0016576922;0.042497054;0.3092874;0.15715201;0.16400439;0.051393256;0.14888157;0.10065508;-0.017686192;-0.012563109;-0.07986513;0.076391965;0.1710857;-0.0577921;0.16846636;-0.060057838;-0.06745297;0.029421395;-0.14184877;-0.0048645544;0.04778118;-0.13385227;0.16267279;-0.26501974;-0.07048116;-0.018848594;-0.42476326;-0.1017405;-0.04627692;0.17751515;0.31737217;-0.019318014;-0.01787042;-0.03552178;0.016886258;-0.13762641;-0.061840218;0.12028734;-0.034403626;0.05139466;-0.21207124;-0.054974437;0.16871354;-0.030493466;0.05862319;-0.0052608354;0.07443763;0.0802207;-0.032807756;-0.02068578;-0.0006942624;-0.056628454;0.032287158;0.18722409;-0.02226314;0.02319594;-0.15223539;0.032269206;0.114346966;0.21468367;0.16199632;-0.10096111;0.014410224;0.14383593;-0.009910498;0.27028048;-0.01791832;-0.021840898;0.04712856;0.034815524;-0.2999368;0.030762179;0.23878647;0.040008117;0.07828862;0.17229573;0.019939288;-0.022420967;0.003876263;0.071931995;-0.04375798;0.17659475;0.020830097;0.14199457;0.046404883;-0.16065858;0.059142932;0.028799538;-0.031555347;-0.0822965;0.1613693;0.16474769;0.10850526;0.029192045;-0.0633529;0.28044042;0.10821992;0.051149875;0.096044384;0.008641956;-0.11176391;0.0038100402;0.16627738;-0.050321143;0.0003443476;-0.024849115;-0.04158105;-0.032896016;0.026645709;0.053952;-0.030889507;-0.019813355;0.14583145;-0.03804052;-0.24085331;0.0016694923;-0.028237268;0.115429655;0.006333594;0.12150141;-0.29281187;-0.035671305;-0.018562129;0.07590882;-0.04140891;-0.01506046;0.20781997;0.03239742;0.16870141;-0.042658318;0.0137266945;-0.0024452666;0.028106745;-0.36968416;-0.04219073;0.064103566;-0.053678133;-0.18265286;0.011064915;0.050428152;-0.0077181915;0.040153895;0.036509283;0.1239496;-0.012263302;0.3965074;-0.15424998;-0.029266432;0.078636006;0.07054403;0.056254297;-0.18629299;0.11140489;0.026021047;0.047087576;-0.17915638;-0.007066529;-0.003145346;0.021420116;-0.14848457;-0.06884869;0.080199234;-0.16557576;-0.08045151;0.07235547;0.025373222;0.039212693;-0.27128574;0.054152604;-0.34539166;0.012618734;-0.07360403;0.1433448;-0.0018630775;0.28840965;-0.032746978;0.022915559;0.061845876;0.088141486;0.07026356;-0.09547955;-0.00035495963;0.03084727;0.085987076;-0.16770808;0.023089219;-0.14219938;0.005694035;-0.098761454;0.15694068;0.006170489;0.010778832;0.037279546;-0.1117004;0.18088192;-0.37160784;0.12957232;-0.04807113;0.12361209;-0.003326774;-0.003670618;-0.23967904;0.11214931;-0.054943763;0.18006937;-0.037028324;0.025674516;-0.061100468;0.083910495;0.011247293;-0.0027571525;0.09318175;0.03571285;0.04108383;-0.51730627;-0.01450741;-0.0243904;-0.3573702;-0.021845404;0.036502585;0.21636422;0.08134394;-0.10905588;0.16265169;0.0642806;-0.3194968;-0.013330669;-0.12901205;0.041382723;0.051738095;-0.05546156;-0.07398604;-0.015649026;-0.032074913;0.027390765;-0.16430551;-0.012984686;-0.059657574;-0.036754504;-0.084178865;-0.19812979;0.17685801;0.20413905;-0.09547282;0.18494295;-0.02048603;-0.0009106459;-0.031199073;-0.05656159;0.011887679;0.12607951;-0.018373584;-0.0012911038;0.05026542;-0.14092903;0.0015670335;0.08263599;-0.044502858;0.004309811;0.019397065;0.08015113;0.12327811;0.1620929;0.1273073;0.01683018;0.0021694012;-0.0048264316;0.0037513329;-0.3325105;0.0066152136;-0.09556232;0.014528379;-0.10207479;0.011630875;-0.23583317;-0.008537839;0.059926394;0.008830153;-0.011230436;-0.1025557;0.013209342;-0.079999186;-0.04004274;0.0011668244;0.015099995;0.023772193;-0.4257926;0.14473478;-0.23301363;-0.0002474821;0.02422007;-0.13270132;-0.11360794;0.24859104;-0.0055072005;0.022767987;0.13063729;0.0019430292;0.26818362;-0.1489902;-0.075612634;-0.35046571;-0.030083539;0.038731243;0.037453033;0.045269422;-0.4239123
-0.052466895;0.13442068;-0.04791525;-0.04279231;0.033183336;0.061830148;-0.13770786;-0.0027901302;-0.038332224;0.04980395;0.1590331;-0.10154584;0.014330261;0.018618528;0.08013706;0.1367128;-0.002722255;0.30756903;0.020425547;0.02329546;-0.04438803;-0.025511246;0.061107628;0.107550435;0.07287713;0.25572786;7.628079e-05;0.07619266;-0.061089016;-0.031304017;0.0012106257;0.25135493;0.13248143;-0.024639184;0.043633346;-0.06936967;0.08708003;0.17261048;-0.005969315;0.014896377;-0.035459116;-0.018596468;0.19711101;-0.061813466;-0.19454794;-0.0028837405;-0.02031689;-0.051401146;0.0064094015;0.013474365;0.11161633;0.051955566;0.047750954;-0.11333911;0.04704143;0.014849924;-0.021218142;-0.03699979;-0.14113149;-0.004411097;-0.013082178;0.03739448;-0.018293336;-0.13901323;-0.18920754;0.23926155;-0.13323219;0.18885675;0.03594164;-0.12525567;-0.01889418;0.01573848;-0.057087973;0.038296696;-0.048873667;-0.06978022;-0.23361641;0.11861172;0.10751694;0.036298335;0.0041267676;0.03687493;0.20072351;-0.15214515;0.013917355;0.030565893;0.27489337;-0.017233437;0.003231136;-0.30651733;0.20429276;0.3368266;-0.0072439783;0.06433551;0.009471841;0.07478837;0.021815967;0.034800865;0.20428075;-0.13656628;-0.034036983;-0.06299794;-0.064409874;-0.0020517537;0.052889287;0.013048252;0.20954093;0.03542809;-0.023592517;0.03260463;0.02536589;0.04141412;-0.048039794;0.058824006;-0.022437377;0.07240279;-0.12084403;0.18924549;0.08921315;0.0070033097;-0.0020568415;0.0022435067;0.19666903;0.18966416;0.18536747;-0.0069471574;0.051323585;0.01070898;0.06123677;-0.078760244;0.1507099;-0.051755168;-0.014719211;-0.041704815;0.037645716;-0.09493186;0.11336939;0.1377576;0.24781913;-0.22098406;0.14430062;-0.014889672;-0.07540438;-0.15760843;0.02445693;0.036962144;-0.003715222;0.17207651;0.06079331;0.15571576;-0.15119855;-0.30509523;0.022010481;0.016239567;-0.015866267;-0.09261676;0.019628972;0.11665752;0.034459375;-0.086655855;0.27664232;0.052691117;-0.338253;-0.034343317;-0.27050972;-0.013040274;-0.042981733;0.091229595;-0.14945368;-0.052640133;-0.06636524;-0.16725293;-0.00066922785;0.023357155;0.033468243;0.22486034;-0.22810812;0.21939063;-0.14498536;-0.1033264;0.37610662;0.18961145;0.060490627;0.15694457;-0.0076158564;-0.079913706;-0.004263969;0.07590722;-0.28639343;0.123125784;0.14198083;0.19218601;0.16328113;0.061762873;-0.23806779;0.13229166;0.026375946;-0.3045915;-0.045127135;-0.066991255;0.1532352;-0.04156723;-0.007262857;-0.03492317;-0.031547308;0.09814823;-0.03020062;-0.2761953;0.23779705;-0.01088825;0.13477;-0.1405003;0.018537676;-0.016469888;-0.01308303;-0.080647245;0.14842498;0.0069149327;0.23748074;0.06895298;-0.14279132;0.19282041;-0.046221416;-0.36498368;-0.037993886;-0.038505234;-0.0859562;0.030219609;-0.002130871;0.17532595;0.05930824;0.050070237;0.027832728;-0.02374592;-0.015382894;0.14585862;-0.20990887;0.0592142;0.05248031;-0.37478235;-0.035183936;0.0062303254;-0.17752318;0.08404734;-0.021895414;0.014660807;-0.022718452;-0.29281804;0.13471593;-0.022787359;-0.18153776;0.010121615;0.3470948;0.10323564;-0.005855438;-0.11948326;-0.036420155;-0.026722798;0.067212336;-0.28585142;0.050997898;0.0775036;0.3365718;0.12740564;-0.073831335;-0.030951569;-0.004621817;-0.09357273;-0.14323254;0.07143343;0.016345166;0.27295813;0.16744712;0.029963713;-0.015886988;0.226826;0.24666092;-0.016163738;0.015779994;0.027830359;0.17590055;0.22007933;-0.051926464;0.011651998;0.076853454;0.14148127;0.006293358;-0.024707362;-0.15728761;0.0015166947;-0.08823874;0.31464526;-0.27982414;0.07140188;-0.018426495;-0.4619522;-0.036084365;0.010471327;0.2358478;0.017050961;-0.122996986;0.05069031;-0.011038285;0.017167453;0.016595157;-0.19428872;-0.0229119;-0.04333592;0.00013467067;-0.21406092;-0.16203873;0.10246961;0.027405854;0.09269417;0.07761749;-0.0054644705;-0.028871726;-0.019428117;-0.031025097;0.0230818;0.06417075;-0.06888686;0.07883717;-0.082739264;0.00833662;-0.38489243;0.0030555828;0.12967083;0.11368157;0.14150284;-0.1303862;-0.0042411373;0.19356558;0.043230433;0.32760593;0.03788769;-0.013886761;0.19159806;0.07596505;-0.247239;0.05176738;0.22282526;0.076165885;0.073907;0.28259018;0.011488258;0.016106464;-0.042743467;0.09043623;-0.13117886;0.14698717;-0.11552342;0.03163313;0.15363155;-0.11932111;0.040165182;0.05407018;-0.01499935;-0.13884442;0.15936585;0.14573778;-0.06296912;-0.033061787;-0.2153314;0.16005285;0.22413573;0.037552193;0.12003202;0.15784344;-0.12905872;0.02024066;0.1151764;0.044386826;0.053454034;0.01199247;0.024745338;0.015872559;-0.03185452;-0.09128175;-0.011844543;-0.022773556;0.31642956;-0.047657736;0.00013198724;-0.0025206555;0.06665862;-0.038974147;-0.027193176;0.099980235;-0.20661278;0.027019454;-0.0387885;0.060348913;0.029861685;-0.019998461;0.19559646;-0.034596976;0.08677954;-0.12748116;0.0036774445;-0.08423918;-0.011813388;-0.5139348;0.019928731;0.1864954;0.09981537;-0.39015087;-0.065347195;0.051447306;-0.018965596;0.05070797;-0.03702888;0.14357707;0.011056318;0.20366612;-0.17273818;-0.008558891;-0.04479048;-0.05638951;-0.040615074;-0.18854561;0.16991255;0.065012254;0.05162576;-0.10172435;-0.02852962;0.008066316;0.07556973;-0.12511095;0.011425305;0.07947958;-0.009645915;-0.08110254;-0.058120914;-0.02814392;0.119647294;-0.14429964;0.093810216;-0.2538761;-0.03236886;0.01431663;0.33987898;0.015690707;0.3135187;-0.26170605;0.11493086;0.016874023;-0.036933854;-0.022288876;-0.09517349;0.0046176286;0.027138414;-0.07659006;-0.17980629;-0.022926077;-0.046160642;0.0124486275;-0.029351084;0.36332506;-0.008308614;-0.040629096;0.007016903;-0.10102121;0.12976712;-0.37594914;0.18506679;0.055584073;0.072488174;0.028867241;-0.022724431;-0.13474163;0.16388093;0.04556424;0.06072714;-0.19173531;-0.009799115;0.041309953;0.090982996;0.0299996;-0.0216355;0.061995476;0.073926;0.10497562;-0.35906667;-0.15583323;-0.046294615;-0.258583;-0.12530318;-0.053710252;0.26263693;-0.030686492;-0.109305345;0.12496431;0.145572;-0.19518255;0.01091258;0.03936605;-0.062289983;0.1927823;-0.23755;0.0057466947;-0.014577058;-0.0022406185;-0.021745661;-0.20480916;-0.005764326;0.0032147123;0.02771309;-0.08379548;-0.13782902;0.13775064;0.2425675;0.00960527;0.1810377;-0.0016358537;0.05191383;0.078317456;0.033224553;0.04252616;0.058998004;0.022351278;0.017443124;-0.029009074;0.08585672;0.038556155;-0.0566323;0.07147032;-0.008993381;0.03878248;-0.05363065;0.26815528;0.019808521;0.11378987;-0.066931926;-0.023468236;-0.031914335;-0.07150449;-0.0850366;-0.03970617;0.043463238;-0.028427925;-0.09333965;-0.0063101086;-0.095325604;0.02394636;-0.07032158;0.0043572313;0.028813103;-0.0018989304;0.009455997;-0.23967528;-0.018208671;-0.003716416;0.1271598;0.010728747;-0.331612;0.19088389;-0.22646302;0.011764895;0.008171345;-0.039688673;0.00901446;0.23545732;-0.07511717;0.058340788;0.10652686;-0.05321111;0.08170019;-0.08797123;-0.030793702;-0.4223652;-0.021008652;0.11401606;-0.021307962;-0.0245729;-0.5245791
0.017031241;0.18566424;-0.006685462;-0.007354526;-0.03973787;-0.043720286;0.052842665;0.057156794;-0.0565202;-0.08619491;0.114154465;-0.17975606;-0.005657584;-0.044619612;-0.069035046;0.086759195;0.041554082;0.22487038;-0.06390622;0.12901045;-0.08697159;0.10727336;0.08886848;-0.022851583;0.054758027;0.275669;0.008244345;0.09325371;0.040811367;0.008757809;-0.05039085;0.16732758;0.09746587;-0.020608656;-0.05204815;0.038116965;0.011548621;0.5416303;0.014859606;0.078815006;-0.008048267;-0.045538172;0.2694815;-0.23486967;0.0146473935;0.033296183;-0.053313956;0.05536828;-0.049534727;-0.009500746;0.11626138;0.009703341;-0.065236785;0.016993102;-0.019059824;-0.018233553;0.04692028;0.012887775;-0.09712899;-0.13354781;0.0035958136;0.021761203;-0.01431343;-0.17783025;-0.1719496;0.07673195;-0.044808835;0.1140981;-0.046857916;-0.30821592;-0.07996944;-0.122820586;0.014844253;-0.02082468;-0.09415123;0.11349113;-0.21616675;0.18369986;-0.035179764;-0.05472517;0.028419163;-0.080642454;0.13506627;-0.2674243;-0.061776876;-0.0012136359;0.2536167;-0.0400292;-0.014214061;-0.31770915;0.13765062;0.20181483;0.06457138;0.0042864042;0.013349525;0.029828962;0.025342515;-0.00956442;0.1880737;-0.1203447;0.027203638;0.0131804645;0.0025035865;-0.064417444;0.024240192;0.030287929;0.12132135;3.0487092e-05;0.016389353;-0.036099963;0.016385324;0.05096486;0.16106364;0.06299919;-0.004158178;0.17031078;-0.07950273;0.28484938;0.12589286;0.02217736;-0.09423542;-0.0681127;0.18181068;0.24211873;0.18752752;0.0012673589;-0.011804036;0.031051554;0.050750244;-0.032683227;0.14195922;-0.11579724;-0.017214824;-0.13853808;-0.045738857;-0.20776463;0.05991799;0.036702305;0.17879154;-0.12960526;-0.033278376;0.018260557;-0.08341287;-0.150227;-0.120998785;-0.033230092;-0.07179532;0.14006239;0.005767597;0.058725443;-0.08680283;-0.43057737;-0.023722844;0.054630447;-0.009832133;0.0060111377;0.05345234;0.1477009;0.022513855;0.02814144;0.25220484;0.06217887;-0.2668572;0.03012252;-0.35466912;0.047376625;0.09924821;0.02032678;-0.19628325;0.084486604;0.06334142;-0.14941049;-0.01452091;0.017757928;-0.019241152;0.29861552;-0.09543002;0.13331074;-0.11756995;-0.1147131;0.32838082;0.29648778;-0.10309573;0.0960338;0.029229473;0.05785493;-0.06880537;-0.11402491;-0.2973698;0.098053396;0.058031943;0.35050306;0.21237788;0.0007374185;-0.2137872;0.26367372;0.018627336;-0.36891797;0.05433147;-0.0083495015;0.16719575;-0.05726552;-0.01375431;0.07167324;-0.09965485;0.09459208;-0.16824795;-0.122455016;0.19605002;-0.017373374;0.16441523;0.03036836;0.011264465;0.050828476;-0.057487976;-0.1690479;0.07538829;-0.01586424;0.05420501;-0.084691204;-0.13279429;0.21176557;0.034100126;-0.29937926;0.039716005;0.113007165;0.08896308;0.07195542;-0.034785666;0.14957583;0.016447762;0.08054783;-0.0035767003;-0.029297238;-0.04252586;0.026754253;-0.17394128;0.2474981;-0.067399696;-0.23350617;0.04091293;-0.1410681;-0.082773715;0.04861302;-0.013116015;0.031545527;-0.17871483;-0.36188862;0.022325143;-0.061464638;-0.1457834;0.030048901;0.27350527;0.047821958;-0.04336486;-0.12555231;-0.10395473;0.0137912845;0.003155012;-0.29746923;0.045915622;0.23358072;0.16409639;0.25356397;0.00034346688;0.062175184;-0.00441665;0.04648324;-0.13272074;-0.04641546;-0.022352904;0.18158102;0.25617668;-0.021687385;0.014384119;0.29628086;0.18844342;-0.006995099;0.10337986;-0.002513269;0.10436033;-0.06337646;0.07039837;-0.06062956;-0.026479956;0.24124286;0.002513132;0.05825831;-0.24427724;-0.07258834;0.0012144785;0.21059252;-0.22618937;0.134761;-0.020015398;-0.48996004;-0.108370475;-0.0752777;0.26454556;0.008277394;-0.20200455;-0.0668353;0.028837407;-0.011606575;0.14754046;-0.16074476;-0.10187487;0.02809316;-0.006854297;-0.1973691;-0.14969295;0.1432132;0.04467694;0.03926236;-0.023298146;0.029685697;0.053449668;0.05281946;0.08877785;-0.033848908;0.15126854;0.018634189;-0.013438582;0.01758942;0.01723795;-0.32987127;-0.021058083;0.064579934;0.041369326;0.10689689;-0.083298415;-0.031205667;0.3103891;0.021110628;0.23223145;-0.045763973;-0.047947355;0.27081618;-0.09180173;-0.17821237;-0.06211;0.19184405;-0.026290083;-0.07235108;0.1632089;-0.027223185;-0.054884233;0.012245514;0.086305;-0.12153513;0.07075155;-0.056573994;-0.08646067;0.102715194;-0.013983371;0.033952907;0.120040014;-0.004356471;-0.06952686;0.24767162;0.30038685;0.025761636;0.0094691105;-0.27906725;0.21433404;0.31016636;-0.039826524;0.062879145;0.07730643;-0.15858677;0.08678044;0.18573935;0.027490364;0.0074117146;-0.04280831;0.038589865;0.06134224;-0.027107412;0.046539098;0.05258633;-0.024374286;0.3088694;0.07345154;-0.14780882;-0.049815573;-0.029250054;0.039587613;-0.017119836;0.005407375;-0.15759934;0.051051382;0.10922172;0.14101182;-0.005413588;0.02834645;0.14143251;0.05288797;0.11564293;-0.031586196;-0.079181604;-0.046224132;-0.039359584;-0.34776366;0.06063657;0.20782715;-0.07593671;-0.423201;-0.0076703234;-0.009883567;0.0010202939;-0.04092085;0.026948411;0.17224376;0.040696602;0.37629974;-0.12819673;-0.050383832;-0.025309326;-0.026588388;-0.03487098;-0.110790916;-0.033425722;0.25574043;0.066695794;-0.1354056;0.069521986;0.022232693;0.038988773;-0.06374272;-0.059372142;-0.08921235;0.006383263;-0.08411044;0.0027330257;0.046098415;0.14822151;-0.13433255;-0.016729176;-0.21593276;0.021651084;0.038696513;0.19804552;0.026406638;0.22360478;-0.120163925;0.047099162;-0.049675796;0.10375067;-0.042943526;0.10176571;-0.04102319;-0.018132644;0.046658352;-0.043598786;0.0429544;-0.16878639;-0.06610058;0.040933806;0.21524665;-0.021219663;0.024062844;0.024003604;-0.033795256;0.10975707;-0.4011646;-0.015804492;-0.035577305;0.08599834;-0.041521233;-0.008449065;-0.20856468;0.0965959;-0.03105119;0.10600065;-0.06404617;0.0069410987;0.044150177;0.115944125;0.12973873;0.027913097;0.045030985;-0.003931882;0.16481893;-0.4131366;-0.38665125;-0.029863367;-0.3132632;-0.17315124;-0.034303963;0.25775868;-0.06903367;0.037006367;0.05423198;0.29077905;-0.35218784;-0.0006517188;0.10678328;-0.0039584264;0.30409917;-0.2256968;0.12599118;0.044082213;0.043075122;-0.0045376047;-0.07682065;0.022556016;-0.10120132;0.03347479;-0.10357014;-0.1869058;-0.0278108;0.18178852;-0.05886521;0.086065724;-0.036432438;0.070183955;-0.029951645;0.20389251;-0.057216138;-0.021432888;-0.08017524;-0.033214003;-0.03888382;0.049103227;-0.07219459;-0.068988755;-0.013660115;0.017084667;-0.015602718;0.007872231;0.12835886;0.06526324;0.07265582;0.06499421;-0.047020767;0.026981622;0.12897727;-0.18019359;0.024137199;-0.08211184;0.010214337;-0.23286146;-0.024316013;-0.020796096;0.017174643;-0.040274918;0.10806781;-0.0033288226;-0.08618078;0.0026585923;-0.2413658;0.06293173;0.00017636939;0.12740082;0.01749857;-0.19581328;0.13627237;-0.16217498;-0.0767991;0.024767313;-0.28431323;-0.04778095;0.17766385;0.02128089;-0.009486574;0.122465566;0.042292744;0.18146896;-0.1562703;0.135841;-0.23248914;0.039972425;0.16896436;-0.110892646;-0.00152165;-0.4690766
-0.104523666;0.12763745;0.056813236;-0.04753776;0.06382289;-0.004541555;-0.035293877;-0.048881736;0.13115482;0.05298829;0.10306709;-0.19209525;0.043130096;-0.02778519;-0.26072928;0.17297518;-0.012433205;0.34526268;0.050756916;0.014864297;-0.052087758;0.31560126;0.04823053;0.08904419;-0.025541196;0.25705785;0.056964353;0.16565388;-0.010849618;-0.0289444;-0.042632528;0.20009166;0.24428323;-0.0050068228;0.0056418465;-0.09831129;0.06638497;0.3827494;-0.052334707;0.110011525;0.005246538;-0.014861128;0.2672354;-0.21653064;-0.12366457;-0.0030335444;-0.0034608124;-0.049866248;0.07518427;-0.010124689;-0.048090767;-0.08123278;-0.006616892;-0.02812774;-0.0642994;-0.045486126;0.08268628;-0.00967547;0.058231123;-0.3335607;-0.017567106;0.1087463;-0.011217793;0.046867117;-0.019424986;0.17237514;-0.15536171;0.06741901;-0.06241548;-0.10749883;0.030694768;-0.056682836;0.059288587;-0.061467618;-0.048361707;0.052966412;0.043460593;0.2184777;-0.066050015;0.049996927;0.015555657;0.06675912;0.09355445;-0.23149726;-0.0017467238;0.057774235;0.2768012;0.053733606;0.06361872;-0.30561945;0.010553635;0.2920133;-0.032660954;-0.021473095;0.0049533118;-0.011200222;0.0075593605;-0.04579614;0.2909908;-0.0049623162;-0.06945122;0.06367631;-0.020760393;0.0704967;0.007833723;0.022669518;0.15620168;0.04350553;0.04603775;-0.039780647;0.06111233;0.12993188;0.2934242;0.16439123;-0.029146014;-0.053182587;-0.111548655;0.2543453;0.2684707;0.07805027;-0.2583499;0.04861418;0.23133616;0.14046791;0.31298146;0.04408359;0.026127612;0.11422171;-0.10888808;0.05425093;0.2206808;-0.22233826;0.011119153;-0.13179725;0.05782218;-0.1999451;0.0031669755;-0.08572934;0.46264976;-0.13900554;0.07628534;-0.023675777;0.08895335;-0.057938553;-0.08243306;-0.021359397;0.05759273;0.33502224;-0.05010368;0.05620888;-0.05676585;-0.40398994;-0.0945689;-0.033876617;-0.076767;0.040582642;-0.050005183;0.024128454;-0.028406318;-0.02393189;0.325182;0.14007287;-0.19672795;0.13349316;-0.28229725;0.01092624;-0.04374434;0.09075672;-0.31343734;-0.04197121;-0.042863052;0.01124631;0.076743186;-0.025863266;-0.007583425;0.30357042;-0.10671776;0.11879338;0.04060524;-0.16189925;0.40633464;0.17691286;-0.07149208;0.09164306;0.05149522;0.018241536;0.06228803;0.0017452085;-0.30818373;0.10970483;-0.04942236;0.39256626;0.12023099;0.0013349064;-0.060275033;0.26985997;0.057354897;-0.34704944;0.08414372;0.046957273;0.13336658;0.078915186;-0.0003861982;-0.0050965673;-0.14174825;0.004056219;-0.19841427;-0.025811948;0.12782471;-0.01626796;0.17195387;0.042659514;0.02327571;0.007883753;-0.10306022;-0.08877595;-0.0101300515;-0.10847406;-0.070490114;0.057725895;-0.059246827;0.13527219;0.022592919;-0.31194556;0.061757606;0.17469671;0.26582554;-0.065419845;0.053958997;0.1973111;-0.11182384;0.1793151;-0.0029412948;-0.02659887;-0.10222132;0.1330926;-0.06412422;0.12844107;0.029656922;-0.20450382;-0.13463244;-0.2779395;0.039580148;-0.022941753;0.048418347;0.043219406;-0.11260362;-0.43383536;0.05353514;0.0679079;-0.21027105;-0.05709458;0.15750176;0.09200105;0.010289126;-0.065520324;0.07732498;0.064783484;-0.08726319;-0.3488638;0.05186019;0.14020495;0.17236179;0.27343062;0.027198248;-0.1272821;0.014379643;0.00942462;0.00027054816;-0.006405188;0.013808049;0.23635188;0.22593825;0.13395785;-0.02617415;0.13813445;0.23020105;0.03311852;0.20746349;0.030419357;0.10686223;-0.10901492;0.13895209;0.14166458;-0.055031184;0.23881352;-0.020936048;0.12293887;-0.1293803;0.0582077;0.040250126;0.18403505;-0.075927004;0.107496195;0.010022721;-0.5009;-0.055080786;-0.21162942;0.16105106;-0.10690566;-0.048792303;0.017887639;8.073904e-05;-0.029033713;0.096117035;-0.22069661;-0.03525897;0.03211491;-0.065145865;-0.16601342;-0.02980093;0.253859;-0.048385974;0.14832339;0.03579093;-0.02117841;0.04211757;-0.026497858;-0.034127172;-0.037792105;0.100922234;0.052477922;-0.08091035;-0.1790583;-0.04088822;-0.27344006;0.04753957;-0.01015097;0.03693313;0.17108265;-0.07586529;-0.033923976;0.28906837;-0.05165892;0.09178179;0.08733375;0.015830219;0.065417185;0.04535378;-0.24187858;0.009251942;0.1258841;-0.17454903;-0.060862046;-0.005249513;-0.03344809;0.05567377;-0.038839962;0.22245045;-0.021139953;0.08926844;-0.24057424;0.07959823;0.11427795;-0.035935313;0.103448234;0.13375902;0.002129078;-0.17120253;0.23332602;0.2828123;0.050698783;0.067627765;-0.39069766;0.05486578;0.31743464;-0.05393677;0.09568575;0.01578142;-0.1065975;-0.02132861;0.10873794;-0.051075853;-0.07408883;0.030642267;0.05018501;-0.05074873;-0.033157293;-0.022463366;0.030186834;0.06191453;0.27044567;0.019010348;-0.0526115;0.080050714;-0.044765446;0.0071272743;-0.0012395679;0.04790767;-0.13561986;0.1895104;0.11322361;0.08550109;0.0036504955;0.125397;0.22920369;-0.017896235;0.08342992;-0.08866869;-0.09058756;-0.104043305;0.028536925;-0.29248264;-0.05988934;0.206526;-0.17198385;-0.34215194;0.061154272;-0.077213354;0.027911758;-0.021268036;-0.02431149;0.25743943;-0.02993827;0.25532812;-0.15856634;-0.08650746;0.07089351;-0.048914645;-0.014108885;0.055307046;-0.12147472;0.17951891;0.04928235;-0.068587616;0.036230903;-0.016970903;0.05899172;-0.03939905;-0.0071546966;-0.17743163;-0.021359688;-0.11959606;0.006666505;-0.027062079;0.22890607;-0.18278441;0.07423083;0.02188317;-0.0066528446;0.027847132;0.067894824;-0.023695925;0.156445;-0.2847358;0.086721554;-0.0014206045;0.15989624;-0.040516414;0.010313486;0.008564845;0.00022471503;0.067814395;-0.11814297;-0.012910562;-0.22552207;0.023124225;-0.056254674;0.13720326;0.052555416;0.047155797;-0.0222328;-0.027069632;0.10522403;-0.45997655;-0.027395464;0.022031285;0.09501997;0.15329331;0.016054017;-0.10075574;0.16658863;0.040872715;0.13101174;-0.046432495;-0.016986798;-0.03737124;0.054751568;0.07806189;0.017900676;-0.08250074;-0.008953305;0.1989856;-0.19994266;-0.4589205;0.038371015;-0.1989933;-0.17271487;0.051385727;0.26906988;0.01717181;0.06417655;-0.056334887;0.3612947;-0.3974134;-0.061077762;0.024891514;0.013881529;0.18529783;-0.12746619;-0.036813222;0.008880153;-0.08921569;0.015286745;0.017311156;-0.025661564;-0.10467465;-0.067411385;-0.24704304;-0.14269617;-0.052195992;0.18080866;0.026394883;0.12661396;0.04430181;0.16572496;-0.0474499;0.09182096;-0.018895775;0.041598376;-0.07442813;0.015144129;-0.013201992;0.10415217;0.0627957;-0.059266534;-0.0336782;0.019732932;0.0041762544;-0.00057770166;0.064237855;-0.02096243;0.026599966;0.016833989;-0.1036668;0.07562221;0.02977257;-0.08484887;0.012999909;0.06430703;0.032862827;-0.2832065;0.0049868464;-0.01296598;0.0058540856;0.038728032;0.1681014;-0.03216994;0.019900983;-0.026756477;-0.1826903;0.0014530594;-0.009670344;0.040685702;-0.080528274;-0.1981241;0.16013938;-0.057793614;0.05772225;-0.057273373;-0.34719872;0.06425702;0.10384064;0.080399856;0.0029329993;0.16453373;0.029399421;0.085314855;-0.24738741;0.07687072;-0.11719046;-0.022312824;0.22967134;-0.036909025;-0.10648136;-0.31674936
-0.23704849;-0.019678613;-0.043881547;0.04023868;0.15218575;0.020614557;0.12919763;0.017026903;0.16066657;0.02223888;0.081597716;-0.063338414;-0.0042892345;-0.10998266;-0.18076573;0.092536405;0.03749753;0.09135356;-0.024157478;-0.041038007;0.11841796;0.14832282;0.0674393;-0.016805826;-0.081489734;0.22618087;0.13849108;0.2580001;0.012428166;-0.017398678;0.13699877;0.047771342;0.21887058;0.09051454;-0.006168741;-0.12503028;0.04794012;0.3778716;0.13234991;0.12685795;-0.08829552;0.054255642;0.3022726;0.06020425;0.0052644657;0.050393652;-0.02611849;-0.04552477;-0.020297393;0.09429526;-0.07422416;0.06077037;-0.15132707;-0.04850578;0.0021717225;0.04772647;0.12744923;-0.04342159;0.06260016;-0.2775842;0.032774985;0.009977653;-0.0015676836;-0.02398688;-0.10432326;0.18187444;-0.17276718;0.17063405;-0.00085861934;-0.13087028;0.050457988;-0.05679013;0.15087117;0.03836722;-0.015378894;0.03565792;-0.14050004;0.12195826;-0.056774564;-0.0048400774;-0.031555213;0.0694147;0.044696394;-0.26037726;0.07436465;0.083530106;0.23273797;-0.010517814;-0.04504013;-0.19720167;-0.12787463;0.24400279;0.0072467476;0.044048857;-0.030049106;-0.040696103;-0.03375461;0.022522375;0.2524217;-0.122264825;-0.21051407;0.021068279;0.058629163;0.0056065093;-0.19251227;-0.0582843;-0.09100769;-0.053626493;-0.015134056;0.0054407814;0.02325639;0.22890782;0.22231336;0.15879822;0.027022343;0.008944837;-0.11755132;0.2556761;0.18516043;0.054614604;-0.26046258;0.02828159;0.24539053;-0.00062549126;0.47108555;-0.09425889;0.008925809;0.11098784;-0.15439951;-0.018839933;0.38091457;-0.027722089;-0.018347481;-0.04338619;-0.05622331;-0.12057193;-0.017122962;-0.12534213;0.42589355;0.060686223;0.0031569137;-0.06425855;0.06848196;0.014143202;-0.17732923;0.06299345;-0.028169371;0.16785781;-0.0009317167;0.045565143;-0.0089356415;-0.43390486;0.052558996;-0.06739772;0.01601487;0.037846964;0.0029885157;0.03308324;0.10070034;-0.042681325;0.32064667;-0.11239755;-0.18893048;-0.018119164;-0.23283617;-0.026907293;-0.026629403;-0.0075462605;-0.31230325;-0.0064983233;0.043741386;0.036909614;-0.025714025;-0.026043937;0.022592576;0.3624605;-0.13361911;0.15919957;-0.024899587;-0.17427781;0.21215789;0.06676164;0.16326097;0.07606137;-0.0032885019;0.11581072;-0.0046200394;-0.093351535;-0.21520887;0.15259327;-0.08913692;0.19121315;0.06648415;-0.09567041;-0.21394026;0.25130486;-0.018448208;-0.14944032;-0.013359667;0.14687358;0.24281818;-0.0089742;0.030225066;-0.042852305;0.02429137;-0.040166788;-0.18309444;0.031371813;0.17253532;0.022177892;0.10278229;-0.07195427;-0.02742042;-0.02771669;-0.05330592;-0.05796127;0.10609924;-0.016925724;-0.011803469;-0.043861303;0.08085655;0.16148305;0.068368435;-0.312894;-0.046783324;0.15721197;0.23729202;0.031568084;0.008575743;0.20193467;-0.0463116;0.11744492;0.0026386774;0.03335857;-0.10938358;0.16120915;0.0045981607;0.22149312;0.013226329;-0.23421267;-0.1159205;-0.24021529;-0.027951078;-0.011288862;-0.05086454;-0.024672976;-0.14317234;-0.324604;0.070207246;-0.0012528822;-0.13752659;0.039216995;0.2985861;0.21046892;0.069572136;-0.0028345014;-0.10442985;-0.0639381;-0.2740257;-0.23227902;0.12333674;0.0776915;0.18602572;0.25072664;0.0021484843;-0.07260514;0.032116137;-0.0006373159;-0.12120799;0.06481044;-0.049986918;0.24079818;0.118512005;0.108949624;-0.047056034;0.17493673;0.056872357;0.022224009;0.07501556;-0.041458387;0.13683985;-0.18603462;0.2543386;0.26542073;-0.0007137816;0.2689377;0.04242519;0.0802301;-0.0061173774;0.0020597966;-0.017758561;0.10813724;0.019394217;0.013963983;0.028117595;-0.40150034;-0.010511441;-0.1370823;0.15631098;-0.11984895;-0.11565121;0.04427535;-0.029944792;0.027057698;0.07087386;-0.16518536;-0.30572084;-0.0048544565;-0.044557847;-0.050021637;0.07736932;0.12679313;0.033808827;0.08554983;-0.03192571;0.114775255;-0.042253565;-0.033068754;0.01096813;-0.105106026;0.19060597;-0.039137777;-0.066343956;-0.23698385;-0.013617685;-0.414378;-0.0035857128;-0.0007756168;-0.067999944;0.05202214;0.02044404;0.06735053;0.21345504;-0.056105185;0.1516983;-0.014743149;-0.13301612;-0.014873939;0.057051335;-0.13348682;-0.02908152;0.28035095;-0.094202794;-0.2446348;-0.030219344;-0.037467994;0.02276483;0.015499631;0.16813214;-0.104289345;0.09619596;-0.33805078;0.054979507;0.054691173;0.064760745;0.05845503;0.18784736;0.035875067;-0.040089745;0.24987255;0.2646497;0.07483866;-0.05383683;-0.28622115;-0.0343923;0.238781;0.023766624;0.10895851;-0.0077775926;0.037366938;0.038959578;-0.00912311;0.05317963;0.012428991;-0.022941984;-0.07948943;-0.024607105;-0.006229392;-0.034876518;-0.061650004;0.01025815;0.072825685;-0.010499539;-0.05874092;-0.049288526;0.013119538;0.09434276;-0.11399248;-0.014586983;-0.30118048;0.10746945;0.097280644;-0.07455686;-0.03419614;0.095692374;0.19230698;-0.055061404;0.27805755;-0.17586571;0.036925774;-0.16091478;0.013224817;-0.31293693;0.01121495;0.23109892;-0.056330632;-0.1788861;-0.00034976323;-0.022102226;0.02259397;0.00337855;-0.04330737;0.1903801;0.0071191294;0.10101818;0.15296254;-0.05055927;-0.008986286;0.05601527;0.017634986;0.02282214;-0.13019028;0.019809015;0.07704349;0.08090041;-0.048392408;-0.0022643313;0.122942254;-0.105665974;0.111965284;-0.19293542;0.091727644;-0.10957225;0.0011272714;-0.021711603;0.081953585;-0.06726895;-0.057954308;-0.12560022;0.025308868;0.03838118;0.051548548;-0.05665894;0.13388357;-0.18411249;-0.09234737;-0.048654407;0.025949668;0.06979449;0.023283923;0.018999377;-0.014183281;0.25849494;-0.022440644;-0.015703892;-0.29407609;0.01085137;0.15568368;0.03918372;-0.060975973;-0.059336267;-0.02131243;0.01839346;0.19994587;-0.28467107;0.010080631;-0.0269289;0.12998071;0.08252824;-0.056930535;-0.12862195;0.14061704;-0.0062747127;-0.09606688;-0.011296268;-0.037160717;0.036848515;-0.040257566;0.033068098;-0.00042252155;-0.15339659;-0.02691847;0.24163716;-0.27158704;-0.23637412;0.056325033;0.014862352;-0.13411814;0.041950226;0.11873093;0.08406956;0.20842446;-0.051402245;0.14279707;-0.40303966;0.053052437;0.11620049;-0.037929524;0.2246365;-0.110042356;0.11990392;0.0006832392;0.06222551;-0.058386274;0.1748586;0.04665206;0.040322434;0.046525277;-0.18153897;-0.16909587;-0.13239288;0.096461676;0.005552033;0.1178788;-0.016296703;0.11107921;-0.005980772;0.013035727;0.019639244;-0.04079173;-0.14196251;-0.026675535;0.06711424;0.012649441;-0.019551443;-0.08801923;-0.005381229;0.045638986;0.0011010845;0.00019108535;0.09621372;-0.025735453;-0.058891807;-0.06531691;-0.090806715;-0.07180504;-0.023726208;-0.09025429;-0.019236432;0.029335383;0.0006430439;-0.32158116;-0.033420842;0.07244905;0.00673693;0.008788776;0.089540966;0.045721766;-0.07655243;0.039051123;-0.11712498;0.0111780455;0.020111674;0.005096855;0.022987638;-0.035430286;0.0022557215;-0.14051645;-0.049384695;-0.0316673;-0.27969524;0.21988182;-0.036910843;0.19437978;-0.031944413;0.027899044;-0.07043445;0.093237184;-0.1266438;0.1743207;-0.17150302;0.036222633;0.24132502;-0.07901118;-0.050911956;-0.20790401
-0.26281416;0.0037424022;-0.009855476;0.037443694;0.21277402;0.028521413;0.11428819;0.07223805;-0.09085305;0.026788682;0.23530021;-0.06808569;-0.0576629;-0.08036689;-0.17248285;0.12328528;-0.019339371;0.11425431;0.0077268286;-0.18240738;0.033312555;0.29100338;-0.015982103;0.031526566;-0.017178992;0.19688353;0.0944449;0.24809703;0.04035852;0.008189172;0.121725924;-0.0022463487;0.19846469;-0.036089778;0.023285376;-0.108351104;0.112130195;0.4226027;0.15407288;0.12630661;-0.008515971;0.015451801;0.32844204;-0.013639051;0.018074682;0.051112253;0.048274487;0.16802788;-0.03918271;0.011496454;-0.07415621;0.0061458484;-0.09978738;-0.15756394;0.05457906;-0.031302627;0.16596533;0.04261171;0.19274585;-0.1387606;-0.07303304;-0.004185511;-0.014646489;0.011664378;0.044904504;0.1805602;-0.23650573;0.13117567;0.083815835;-0.13516808;0.015377457;-0.018794948;0.10240581;-0.021904092;-0.029819911;-0.10769293;-0.096886635;0.20842841;0.05275018;0.014315047;0.00586912;-0.0738655;-0.026583722;-0.09146315;-0.016291423;0.056031913;0.19802523;-0.02144806;-0.025275989;-0.16706231;-0.19512549;0.25174487;0.005712899;0.13475831;0.02807716;-0.0155227855;0.037154462;0.028804367;0.21414185;-0.017759284;-0.22977279;0.015445585;-0.071576074;0.067089655;-0.0011739312;0.011401544;-0.026934428;0.069515094;-0.020035109;0.027496338;0.059396952;0.23849207;0.24219584;0.25141957;-0.00445592;-0.16310559;-0.014274449;0.22750944;0.003301804;-0.022163182;-0.26506692;-0.04305934;0.14463001;0.043803915;0.37267312;-0.02982235;-0.040733807;0.20231105;-0.09713134;0.039790034;0.34131345;-0.05941057;0.05820247;-0.12979889;0.032989502;-0.115870416;-0.1671993;-0.16032825;0.4718727;-0.06776423;0.052103348;0.04942897;-0.060083997;-0.14169374;-0.08731992;-0.06473514;0.034250714;0.17904474;-0.01115914;-0.05907083;0.068670906;-0.41203314;-0.03441032;0.061790284;-0.048615966;0.120729975;0.035896264;0.0053239972;0.21353757;-0.0029420194;0.2764501;0.014105583;-0.070305675;0.0121924495;-0.1719247;0.013657404;-0.037096623;0.12460745;-0.23527628;0.006656373;-0.04154929;0.06578001;-0.024445256;0.018361533;-0.016481485;0.293432;-0.1678083;0.13038981;0.057858467;-0.14950599;0.10108918;0.09938915;0.3414287;0.14922713;-0.07450175;-0.008155654;-0.021920534;-0.23243876;-0.20578022;-0.033127572;-0.09660426;0.0332281;-0.06511955;0.036049508;-0.19661862;0.19374806;-0.06225066;-0.19140467;0.015501053;0.013109015;0.14682102;-0.032187924;0.016815478;-0.014448073;0.06903412;-0.17046314;-0.20611903;0.19121222;0.21560854;0.01858859;0.1058432;0.123624;0.020553749;-0.022037853;0.052884772;-0.06159969;0.113258325;0.12169198;-0.08878037;0.11086712;0.043368272;0.33297852;0.12737414;-0.15133747;0.03193807;0.16557156;0.09088;-0.00020078779;0.036074907;0.17993273;-0.04672073;0.13806501;-0.015673071;0.049940303;0.061134525;0.2002636;0.042805847;0.19971572;-0.006684077;-0.3698466;0.004565839;-0.11987686;-0.014043949;-0.082465686;0.008456968;0.029950017;-0.27557334;-0.31981766;0.1290912;-0.04209602;-0.15809366;-0.012607349;0.2997312;0.28088653;-0.058418207;-0.022822399;-0.055178136;-0.033974048;-0.15047629;-0.24040918;-0.015263091;0.030334847;0.25619215;0.3204615;0.047661602;-0.02204626;-0.053646203;-0.039802924;-0.20244606;-0.05457675;-0.008610283;0.13091254;0.008527359;0.104731545;0.022769615;0.0789527;-0.050022874;0.00941055;0.1640269;0.020688089;-0.09429124;0.016390784;0.085259;0.15371579;0.034486994;0.2519795;-0.033685483;0.08379941;0.033332646;0.041802026;-0.064155966;0.25358537;0.0031146554;-0.004105077;-0.014033424;-0.40246308;0.15118887;-0.010369058;0.1429016;-0.041913766;0.021144863;-0.007434083;-0.028671274;0.013105018;0.006620945;-0.30718258;-0.11064195;-0.014763871;-0.095733106;-0.04207059;0.2845283;0.095985174;-0.02504558;-0.0403643;0.024831606;0.028789889;-0.16273144;0.040585093;-0.043252144;0.0121624125;0.22754419;0.009755087;-0.06419112;-0.10884558;-0.024981063;-0.38461053;-0.029132668;0.0797672;-0.15881652;0.21982498;0.118010536;-0.05789456;0.33754706;-0.021596273;0.15546237;-0.049704686;-0.27945206;-0.10437792;0.1400749;-0.12675492;0.030526644;0.14850608;-0.3051986;-0.19646993;0.11433094;0.054670654;-0.052094985;0.05106554;0.34218737;-0.057013072;0.096264355;-0.18224551;0.048874214;0.070525296;0.08183671;-0.058639407;0.09268895;-0.017560925;0.14106536;0.23436674;0.2472528;0.23332305;-0.016530918;-0.20083863;-0.02826367;0.2866864;-0.005889791;-0.007493441;-0.027261073;-0.037038196;-0.01837165;0.110195115;-0.05523394;0.045668732;-0.030756004;0.019777352;0.049247283;0.046590313;-0.07289378;0.035089783;-0.05841779;0.021488441;-0.022571705;-0.09154754;-0.0017029457;0.0029522511;0.2210476;-0.10825725;-0.0028630458;-0.31573823;0.069889374;0.07778439;0.028311413;0.053041115;0.0074548917;0.1900478;0.06432263;0.1990049;-0.08037804;0.10148319;-0.15257446;0.013170867;-0.3987038;-0.022300646;0.24870531;-0.13514893;-0.04369287;0.021692397;-0.095524244;-0.046430152;-0.00029675284;0.032579377;0.2761165;0.013602626;0.069322094;0.11174496;-0.044781417;-0.023955453;-0.01741638;0.07064097;0.049144;0.01786598;0.03299807;0.13242012;0.121638864;-0.01080061;-0.040368844;0.09431693;0.07581774;0.039858427;-0.22549951;0.05326401;-0.12843381;-0.020430896;-0.0067050704;0.08077264;-0.19554646;-0.120772876;-0.1300315;0.012854264;-0.042655148;-0.09862761;0.023055864;0.14529938;-0.15275642;-0.08788194;0.005365146;-0.019294921;0.01845697;-0.10815285;-0.027957344;-0.020596521;0.30259588;-0.049686905;-0.01562209;-0.29229718;0.02991636;0.26220647;0.15184313;0.024295028;-0.005390073;-0.051449005;0.020159129;0.13457975;-0.22520167;0.054021068;0.05725156;0.11114467;-0.011298916;0.11740931;-0.19624184;0.18444628;0.04836523;-0.092554696;0.066541076;0.050844267;0.0061749592;0.089914754;0.19015943;-0.06698422;-0.21990286;-0.0023547122;0.12151326;-0.1825136;-0.2794994;-0.042532347;0.07337801;-0.09423049;-0.056595445;0.008177323;-0.002026256;0.31676978;-0.13148154;0.21436527;-0.35811466;-0.0077207587;0.14199573;-0.0045025307;0.14373;-0.0017673571;0.09699678;0.022881825;0.04272853;0.067080446;0.07667362;-0.0187737;-0.08785083;0.032212593;-0.27279568;0.019040016;-0.042396672;0.13476042;-0.16822879;0.06106649;0.018904565;0.11092762;0.0026437251;0.0023190086;0.023558468;-0.079385236;-0.13342477;0.046940517;-0.02380708;0.03716799;0.012074243;0.005239247;-0.0345996;-0.033798918;-0.03429567;0.0013659797;0.025342397;-0.15266754;-0.14484973;-0.016056959;-0.15634581;-0.09916112;-0.11985296;-0.12594052;-0.06557318;-0.12950812;0.018964447;-0.21008325;0.09521074;0.23485549;-0.025703683;0.030830614;0.29169947;0.05674033;0.06526364;0.0167142;0.10372085;0.0008941448;0.0041073314;0.17459531;0.011317421;-0.06496351;0.008606694;-0.010893973;-0.013358842;0.045306504;-0.34899777;0.23937625;-0.0898938;0.03981967;0.0061419625;-0.114556625;0.016040811;0.00801624;-0.15959193;0.06977037;-0.065945014;-0.07120027;0.22542466;-0.063380495;0.10559712;-0.14050327
-0.19521755;-0.004819056;0.14903569;-0.060749277;0.061175674;-0.004556276;0.14773545;-0.05440358;0.03392822;-0.04079993;0.19052665;-0.15835524;-0.003289782;-0.10115354;-0.060003757;0.07798014;-0.05421299;0.010499873;-0.014059612;-0.13013491;0.09454684;0.23256865;-0.022827532;-0.010344523;0.001640495;-0.0313837;-0.0032337187;0.31857598;-0.028223407;-0.025003329;0.06696703;-0.00717727;0.20586738;-0.062225726;0.006221707;-0.022661423;0.17138435;0.47179145;0.018964624;0.25554526;-0.14798945;-0.05738212;0.31458074;-0.044683583;-0.10361558;0.29926434;0.025559844;0.112318955;0.009148428;0.14044887;0.027967978;-0.023562137;-0.17984168;-0.082947604;0.012839445;0.026107678;0.15878445;-0.034562282;0.09546943;-0.06155974;-0.039013468;-0.037871137;0.018465728;0.12473456;0.06672458;0.24768376;-0.104757614;-0.036943328;-0.017784337;-0.016733333;-0.10798673;-0.09076878;0.0015249207;-0.04767003;-0.008063992;-2.9824514e-05;-0.037687518;0.081560254;-0.012795294;-0.010683309;-0.048873078;-0.0158277;0.038882535;-0.045863412;-0.0109401615;0.14828773;0.19146712;0.05490597;0.061951954;-0.08650023;-0.23815519;0.23896742;-0.015227111;0.032521773;-0.014817251;0.033593338;-0.070246235;0.008855584;0.19077204;0.04874041;-0.19521256;-0.0499655;-0.0035169923;-0.089865506;-0.0013527316;0.06268282;-0.13622168;-0.022032823;-0.017807242;-0.028458674;0.1848284;0.1502169;0.08729321;0.081563786;-0.025980933;-0.025251579;-0.005624705;0.15790686;0.12910357;0.060060907;-0.20290829;-0.0011914426;0.19298694;0.08193379;0.3862714;0.0628283;-0.082325324;0.1749143;-0.17669529;-0.007831774;0.07833679;0.011145881;-0.02491175;-0.12561995;0.015257778;0.03667038;-0.07369484;-0.09606448;0.32597652;0.024955856;-0.00037635563;0.035875034;-0.06644957;-0.050481904;-0.116055325;0.025937362;-0.012395312;0.24351406;0.03515892;-0.010751289;0.103860885;-0.20251851;-0.053202145;0.03451783;-0.046879496;0.08306187;-0.040615167;0.028555542;0.07091251;-0.07719915;0.17669256;0.05754651;0.046844374;-0.025091348;0.05411595;-0.054580543;-0.04183364;0.18996507;-0.32469153;-0.033701863;-0.035171498;-0.035348997;-0.02481257;-0.020736726;-0.005733787;0.21447033;-0.15679921;0.0460792;0.020390697;-0.005783474;0.011877325;0.020505423;0.2806647;0.12000106;0.020128941;0.14615846;0.027283924;-0.28001285;-0.32704332;0.08760348;-0.0046763197;0.08611396;-0.0025754191;0.0034366734;-0.26013538;0.29874352;-0.03714396;-0.25262198;0.022647433;0.061680328;0.20064215;0.017803721;0.046994578;0.00702194;-0.009518677;-0.098254375;-0.18051685;0.17430066;0.15838055;-0.014521941;0.17499658;0.20624077;-0.032202028;-0.018088097;-0.08967276;-0.01033299;0.22160278;0.03248779;-0.06608238;0.123878986;-0.028550543;0.2228512;0.087647885;-0.28766578;-0.08367623;0.15579711;0.12983035;-0.072029226;-0.010625677;-0.01310706;-0.039049994;0.13990253;-0.06359979;0.024333157;0.0043226336;0.08315148;0.059602797;0.24264845;-0.008505983;-0.39171892;-0.026839424;-0.16867866;-0.09844587;-0.20121095;0.041215144;0.028654657;-0.30139804;-0.32122067;0.118825756;-0.014874403;-0.22331348;-0.023740772;0.18816456;0.17154336;0.0039872783;-0.029206475;-0.045526598;0.083248034;-0.030127605;-0.16345805;0.13296917;0.046735935;0.36642712;0.40165585;-0.050910864;0.155929;0.0013832215;-0.042061158;-0.08303337;-0.03186909;0.0668017;0.06016604;-0.09789579;0.13913521;0.029964402;0.12575774;-0.01956777;-0.029415246;0.28852865;-0.004264612;0.15221204;-0.11732374;0.18849564;0.008027927;-0.028499939;0.13506833;0.029357236;0.11680867;0.060436863;-0.0759351;-0.18654622;0.20244871;-0.0558848;-0.029281057;0.0011972565;-0.2646595;0.051639866;0.1460641;0.05597338;0.09019225;0.025135538;0.025070567;0.033543386;-0.027774828;0.092285186;-0.32560572;-0.19162114;-0.025691247;-0.10531634;0.011541111;0.25063387;0.002235853;-0.001277787;0.14180294;-0.027502468;0.036963895;-0.11887929;0.029884906;0.0012488399;0.023811746;0.1369298;0.01336086;-0.16431254;0.07841675;-0.011625953;-0.367032;0.05328612;-0.18681158;-0.07620486;0.16645198;0.2550177;0.057568338;0.4392063;-0.053799547;0.18930364;-0.04273971;-0.2767167;-0.17312141;0.06097653;-0.17196962;-0.044019807;0.25636756;-0.19187084;-0.14240758;0.04028596;0.0072269575;-0.0064438013;0.0063655237;0.2639086;-0.2192615;0.11374625;-0.199002;0.14939356;0.150056;0.115079544;-0.035041247;0.15220185;-0.018608421;0.12025773;0.20930907;0.2223282;0.01738711;0.005622667;-0.3193008;0.009105153;0.16125129;0.014858972;-0.102310345;-0.18820113;0.106796496;-0.05477825;0.12732689;0.005548606;0.055794824;0.040089402;-0.023827864;-0.054414287;0.045822155;-0.076079346;-0.039394632;0.029727254;0.07371075;-0.04694467;-0.2110832;0.028222326;0.06195209;0.33614293;-0.010961343;-0.028291313;-0.28849638;-0.011824275;0.06839262;-0.17937137;-0.003309265;-0.085030824;0.017538259;-0.030856816;0.025046283;-0.11154133;0.10764957;0.035780407;-0.044463817;-0.4353181;-0.033092428;0.25056675;-0.06979645;-0.13457105;-0.03888279;-0.031816047;-0.007260236;-0.00618561;0.05059202;0.24806596;0.008489631;0.23383692;-0.06755149;0.05393158;-0.0034796312;-0.15078479;-0.02591853;-0.09413816;-0.14905412;-0.051680557;0.20074078;0.19486861;-0.022920175;-0.014314433;0.012807355;0.12730321;0.13289222;-0.1426277;-0.013067097;0.014536134;0.03457952;-0.025463162;0.15145251;-0.18063319;-0.1770227;-0.19561641;-0.009600108;-0.056144703;-0.11391005;0.061215308;-0.05769625;-0.1995768;-0.113755636;0.05687808;0.06857311;0.02150119;-0.19656673;-0.19931486;0.0077175973;0.21643093;0.008134819;-0.010521077;-0.18825983;-0.02206811;0.044206932;-0.020851497;0.027872417;0.02617723;0.042168904;0.1871296;0.21494679;-0.20937242;-0.033848036;-0.02298327;0.0032643434;-0.16373935;0.043983586;-0.07062579;0.2616103;-0.03331678;-0.012723527;0.1872541;0.01236533;-0.07584058;0.054688413;0.30814677;0.06343378;-0.26503673;-0.09579095;0.23939171;-0.13113236;-0.3154105;-0.008277417;0.19556318;-0.14276856;0.008164182;-0.16111435;-0.0074296705;0.13429642;-0.16919266;0.11236664;-0.3233353;0.019215511;0.20869976;0.03941784;-0.02589339;-0.05729676;-0.0043637236;-0.03123868;-0.04990953;-0.035398718;0.16071753;0.039191525;0.083326265;0.03857733;-0.2966161;-0.019582992;-0.12488119;0.20368282;-0.13400805;-0.015915304;0.06627263;0.20191349;0.01594466;-0.056493968;0.015401102;-0.0523961;-0.20619273;-0.004921653;0.05368806;-0.052544598;-0.04551304;0.004958109;0.06019905;-0.02243345;-0.01288938;-0.036984432;-0.01652535;-0.15798263;-0.08414267;0.056955803;-0.033633277;0.045247894;-0.24809471;-0.09891943;0.060654156;-0.10811784;-0.019813377;-0.22458477;-0.044449873;0.19403508;-0.011073667;-0.0060978336;0.22233081;-0.035751168;0.08533904;-0.014924954;0.09043939;0.0022242975;-0.012274147;0.11729408;0.021801854;-0.10002615;0.16440177;0.036918625;0.061954513;0.012728711;-0.2961202;0.36914074;-0.16206619;-0.07546191;-0.01975142;0.03518202;0.057293523;-0.1647336;-0.18187666;0.066831365;-0.03974488;0.03881873;0.14250067;0.09745577;0.2497599;-0.08146499
-0.088285625;-0.1608686;0.07108087;-0.017313808;0.13603054;-0.080830194;0.09095105;-0.04014783;0.0641563;-0.005416459;0.13323304;-0.34278885;0.046236996;-0.108293496;0.026971186;0.2074186;0.04404367;0.07792362;-0.006021346;-0.24019875;0.020225408;0.0639788;-0.014790492;0.04695032;-0.14362016;0.0049331165;0.04183428;0.1485884;-0.036326658;0.050475813;-0.07205359;0.04630802;0.16604736;0.05999255;-0.061868597;-0.060634956;0.018742748;0.46347755;0.16085973;0.17092954;-0.003545479;0.032255493;0.19829005;-0.17878588;-0.23360395;0.238389;0.034083705;-0.06324119;0.021459864;-0.03723312;0.060345452;0.0068174046;-0.23087363;0.021302726;-0.019421335;-0.002070727;0.25961366;0.006699176;-0.051864404;0.014342854;-0.009750482;0.10985065;-0.031170154;0.094911;-0.060535192;0.11714229;-0.02990218;-0.07528801;-0.060133353;0.055505212;0.035041545;-0.024053816;0.03579486;-0.11972292;0.10484575;0.1216502;-0.04483728;0.20734893;0.15435821;0.01840697;0.019906739;-0.03601671;-0.009933456;-0.032915667;-0.0003764358;0.041909013;0.19222541;-0.069670394;0.008554015;0.053431004;-0.16633472;0.12485934;0.017083885;0.002520531;-0.047630485;0.13149078;0.027502617;0.017885713;0.20160007;-0.11251762;-0.24940628;-0.009097725;0.032825187;-0.07464619;-0.021470187;-0.09289364;-0.07864697;-0.06706409;0.046205595;0.037609167;0.110779375;0.20628718;0.14684857;0.04967443;0.028892932;-0.037027944;0.095536284;0.15094198;0.033177473;0.08337106;-0.0770022;-0.012078938;0.14630744;0.032033764;0.15019454;0.12603916;-0.23208746;0.0763886;-0.18280998;-0.015998358;0.02493957;-0.04138371;0.019571608;-0.13628222;-0.03837462;-0.027240984;-0.17761347;-0.113428034;0.28478235;0.09889829;-0.114872575;0.050413027;-0.16728799;0.034704685;-0.1035541;0.004136161;-0.042680494;0.110009216;-0.01108914;0.032304265;0.07244854;-0.29840103;0.020408113;-0.01746076;-0.07965867;0.11903153;0.0054737153;-0.09524017;0.10732498;-0.102745175;0.08668303;0.05114137;0.11096887;-0.003070291;-0.021277457;0.0035337498;0.02287212;0.21409102;-0.19031762;0.033121828;-0.018228274;-0.039193626;0.02331724;0.027216727;-0.04318651;0.24227382;-0.02083244;0.117096476;0.10896702;0.05243227;0.019731687;0.04570332;0.31380066;0.031348586;0.049384415;0.11671774;-0.039421536;-0.19943991;-0.17856997;0.03317223;-0.108303115;0.032854293;0.09286564;-0.064885855;-0.31565908;0.1829037;0.035562992;-0.24339078;0.07263083;0.047383506;0.095919475;-0.021824868;-0.030731285;0.029575108;0.09496542;-0.23520386;-0.19115715;0.093590535;0.11862393;0.004144305;0.09455104;0.2270277;-0.010586132;0.0077979155;-0.22454683;-0.11420664;0.27506787;0.10909112;0.015534313;0.0048173727;0.025694558;0.05850925;0.06492171;-0.21134044;0.069797486;0.13759965;0.12991425;-0.00017724329;0.0065532816;-0.00029047733;-0.0462057;0.121920295;0.03514497;-0.03968644;0.05980075;0.011576809;0.107966095;0.18954228;0.00066611875;-0.32393467;0.047239337;-0.13701682;0.02319768;-0.2603433;-0.042919528;0.054649957;-0.20383252;-0.38749567;0.12336436;0.039052933;-0.38775602;0.033446986;0.021658313;-0.01616733;-0.06416293;-0.0112073505;-0.008115236;-0.03631273;-0.11294832;-0.11606668;0.16600607;0.05843688;0.36204058;0.42569536;0.0224599;0.36630234;-0.009183182;0.07650431;0.11388421;0.061808378;-0.041661255;-0.10976234;-0.3416148;0.01735664;0.0580039;0.09555334;0.15705793;0.029672649;0.34217095;0.025571067;0.04555684;8.204233e-05;0.04655928;-0.00082978397;0.030454952;0.11015136;-0.05115968;0.05074123;-0.05421868;0.023646638;-0.11121061;0.25608078;-0.05559997;-0.24977796;-0.0023716502;-0.25643405;0.0441085;0.08211278;-0.056174807;0.2856289;0.0014692846;-0.014241939;-0.0062766564;-0.02315382;0.15294325;-0.31914055;-0.08997301;0.0018023979;-0.119923145;-0.17148627;0.22887301;0.15248977;0.016391516;0.24439175;0.111249655;-0.1784354;-0.1759376;-0.0524793;0.02894847;0.1455646;-0.13159046;-0.051662643;-0.13338779;0.05934155;0.056419384;-0.29172635;-0.06725457;-0.30023542;-0.05772628;0.19306545;0.46013623;-0.019902399;0.40607357;-0.06490434;0.21539;0.046210296;-0.14403416;-0.25621343;0.15867381;-0.04879609;0.023407038;0.19287983;-0.10342917;-0.09353317;0.013118209;0.014027607;-0.02096795;-0.012078115;0.23995532;-0.027560007;0.04495236;-0.14267728;0.12041023;0.102096006;0.2867568;-0.064572245;0.120934606;0.034611333;0.22276555;0.3638831;0.31248555;0.014720754;0.051343046;-0.20729752;-0.03892874;0.031264298;0.03594344;0.017125672;-0.24342217;0.166413;0.03179445;0.008337822;0.04754048;-0.06280182;0.06996431;-0.00055067375;0.0376905;-0.068053335;-0.034871742;-0.063876666;-0.053480513;0.059949826;-0.0037419586;-0.07818077;-0.07783306;-0.033252165;0.28891778;-0.013371394;0.15384574;-0.16278994;0.0375029;0.012477154;-0.13225104;0.016139705;-0.16919607;0.0638893;0.006073282;0.030115522;-0.09781855;0.16032143;-0.02151812;0.043313332;-0.44658342;0.052861188;0.21702768;-0.15481424;-0.30255628;-0.013085738;-0.18235776;0.015823478;-0.02789966;-0.020374035;0.26881644;-0.08683106;0.17715618;-0.08089557;0.07991173;-0.025734244;-0.15455082;-0.0903004;-0.07937322;-0.07794369;-0.03350715;0.32538706;0.21128556;-0.03569362;0.005011083;0.10078342;-0.021774849;0.20455468;-0.23900618;-0.18309732;0.081725135;-0.007596241;0.03039477;0.15039162;-0.07252334;-0.06579815;-0.051862318;0.011674525;0.04972567;-0.22473578;-0.048630845;-0.032835357;-0.17138171;-0.010504394;0.010688096;0.09810227;7.112093e-05;-0.28091198;-0.17398939;-0.007876446;0.19363119;0.16071251;-0.007058908;-0.23069714;-0.0012876962;-0.0066531296;0.009899509;-0.05514947;-0.010321064;0.020959835;0.1385246;0.07708543;-0.33435294;0.04033929;-0.033201598;0.10057244;-0.19314404;0.0922328;-0.15126647;0.24693045;-0.015744992;-0.12403773;0.16379872;0.036766432;0.018104073;0.06266291;0.17387173;-0.021734765;-0.049645934;-0.20853646;0.12909219;-0.09422167;-0.34286225;-0.028095882;0.3511347;-0.12835492;0.012649431;-0.11267926;-0.04226454;0.071981914;-0.045554478;0.018166471;-0.2289869;-0.02194698;0.22727709;-0.012053441;-0.11461177;-0.08115424;0.030033955;-0.033422407;-0.034763563;0.020856751;0.13874099;-0.061264187;0.1549096;-0.064032994;-0.23650159;-0.016884185;-0.05235471;0.32157555;-0.23231286;0.112371765;0.17810026;0.19790806;0.020362513;-0.08496467;0.006463392;-0.017679688;-0.2499953;0.01823386;-0.073078796;0.020640388;-0.009803926;0.17479417;-0.019425008;0.04742553;-0.07302129;0.06258562;-0.058968354;-0.028394952;-0.0045235325;-0.023899714;-0.06153777;0.026979562;-0.1068934;-0.15553747;-0.010161835;-0.16538249;-0.14142369;-0.27061763;-0.053698815;0.3452246;0.028208517;-0.0012319069;0.3662708;-0.044413257;0.027907493;0.0077511226;0.053337175;-0.0069584916;-0.020214079;0.028353522;0.068949096;-0.07521329;0.11149944;0.12191569;-0.026049254;0.039464064;-0.31147674;0.31435427;-0.021281466;-0.11694191;0.015615846;-0.16621809;-0.054159876;-0.22769636;-0.003777524;0.25459105;0.010811429;0.02431294;-0.079768956;-0.12806503;0.30967116;-0.020571405
-0.058918584;-0.15062739;0.05085699;0.046064448;0.2740932;0.065143034;0.1591029;0.047088824;-0.012525667;-0.04020477;0.1435959;-0.29466838;-0.0028195847;-0.26202753;0.09285192;0.2162002;0.037634123;0.093551844;-0.027708987;-0.03024129;0.19105648;0.14722861;0.00812066;0.1320718;-0.009609768;-0.099781826;0.00893422;0.1349086;0.031016652;0.027726876;-0.06204272;0.033053882;0.08567473;-0.030968668;0.020100359;-0.06333163;0.09696687;0.22484486;-0.038841236;0.020450655;-0.0034216833;0.022161033;0.12009409;-0.14452676;-0.34667698;0.20924895;-0.06352306;0.017746406;-0.02309051;-0.001993393;-0.021880131;-0.0027403645;-0.08502881;-0.031404834;0.04028221;-0.035522625;0.08735693;0.026402034;-0.04341066;0.030946478;-0.050948758;0.16811785;0.01994548;-0.051980313;-0.20072043;0.14248614;-0.09665509;-0.18646856;0.06563596;0.05741827;0.120863564;0.14089741;0.10806774;-0.04058251;0.09652635;0.115710884;-0.009528851;0.03961267;0.21685345;0.003405514;0.017159067;0.050463654;-0.148198;-0.06460625;-0.005866364;0.031751167;0.22557239;0.014892711;-0.06280869;0.06946905;-0.20663412;0.09305105;-0.033618677;-0.053400975;0.07170182;0.17331517;0.053576358;-0.08562517;0.13804415;-0.09686323;-0.3250454;-0.041948933;0.044046838;-0.06385517;0.1292023;0.024266347;-0.15095308;0.04044188;-0.0076164566;0.011033134;0.24539168;0.17010483;-0.0124025885;-0.11353333;-0.021573585;-0.00041350452;0.09761077;0.13372296;0.012636336;-0.009138083;0.028965987;0.019895619;0.20750983;0.03989914;0.107184835;0.10912136;-0.06833202;-0.10941639;-0.25874394;-0.0048263455;0.17993462;-0.043929037;-0.05261593;-0.037071574;0.00080218114;0.006869364;-0.18276465;-0.0784484;0.17187768;0.1565479;-0.007409984;-0.0456901;-0.2601216;0.07069839;-0.122851394;-0.005708373;0.0155080035;0.23561828;0.0014575728;-0.07119524;-0.020560361;-0.19413297;0.0070205336;-0.019233242;-0.093006164;0.120454274;0.0018916929;-0.30754632;0.1531166;-0.22757109;0.01931948;0.053754214;0.050767303;0.01044917;0.011458545;0.07897769;0.033222783;0.30281577;-0.16713399;-0.028337708;0.07419447;0.07682998;0.034519095;0.018236302;0.014492257;0.21751742;0.08275601;0.10709829;-0.061604362;0.08828626;0.12737566;-0.1898006;0.1198034;0.19310814;-0.053239577;0.014926976;0.031568;-0.22918527;-0.27208182;0.11210673;-0.19966143;0.12575185;-0.13435;-0.16137439;-0.32524097;0.18246883;0.049245782;-0.28223726;-0.021734651;0.022970697;0.08323818;0.0139529845;-0.005027936;-0.034559425;-0.0029377784;-0.08881162;-0.17340606;0.068784095;0.05327222;-0.006700265;0.12682292;0.14672385;0.03455354;0.032386705;-0.23771276;-0.010333925;0.09243646;0.008128033;-0.02862136;0.25633365;0.18688385;-0.04212202;0.088959344;-0.2880483;-0.066048265;0.11181075;0.15974763;0.050341614;-0.040527638;-0.02502771;-0.123303294;0.04823078;0.04094923;-0.039076246;0.101072475;-0.06796287;-0.014024817;0.12480333;-0.023540117;-0.32335317;-0.055846028;-0.22799966;-0.061064422;-0.31861228;0.021649607;0.05101998;-0.28255105;-0.27273434;0.17767835;0.051237;-0.2429592;0.024310114;0.14922395;-0.06569074;0.035988633;0.13585734;0.026349405;-0.0498566;0.022981197;-0.06026743;0.023768654;0.059517134;0.3643268;0.39007267;-0.017792024;0.36886042;0.051943712;-0.00969833;0.1337203;-0.0061657056;-0.016325835;-0.16343844;-0.3990115;0.10124465;-0.03298393;0.044361893;0.16166954;-0.028067123;0.3599099;-0.023304392;0.120671235;0.050259046;0.11938357;-0.055547755;0.053417362;0.17397735;-0.00442131;0.20506205;0.09732083;-0.015217884;-0.007801028;0.28337973;-0.06654211;-0.27998698;-0.010612544;-0.20289293;0.06858073;0.022510745;-0.012901113;0.39166608;0.086601995;-0.032539237;0.065574706;0.01300266;0.1634519;-0.36881945;-0.0038929577;0.054416228;-0.102056414;-0.12220316;0.32366276;0.08214965;0.000108221;0.097076565;-0.09094168;-0.08060789;-0.04273752;0.032949325;0.044598456;-0.057973683;-0.1077294;0.057036333;0.03971819;0.24538195;0.061603166;-0.051611815;0.05154041;-0.22777772;-0.095430166;0.16413842;0.35679212;0.023985524;0.31472328;0.026481714;0.27329963;-0.03955426;-0.12002173;-0.15685584;0.22803704;-0.070608824;0.018035784;0.21881461;-0.050900456;-0.13692816;-0.032554492;-0.045272585;0.004831168;-0.05983312;0.10972369;-0.1705671;0.04834819;-0.056602698;-0.029809989;0.19289896;0.38143492;0.014230049;0.061285842;-0.017743716;0.08494817;0.33885998;0.34234482;-0.17989492;-0.061498836;-0.18374033;0.046967153;-0.18767807;-0.036599036;-0.015743744;-0.19038472;0.076563776;0.036390085;0.017904943;-0.055537287;-0.057808757;-0.060838297;0.056573756;-0.04799828;0.055578467;0.08206473;0.028407125;0.00021608347;0.20830204;0.029427955;-0.18910663;0.054139797;-0.015688235;0.09568192;0.031257063;-0.020266902;0.021737594;-0.097671196;0.056668155;-0.1571713;-0.04126993;-0.097045094;-0.08241522;0.045564767;-0.08957606;-0.27061218;0.19755094;-0.058152728;0.006166614;-0.3361507;0.0053650965;0.15066239;-0.22520564;-0.27290887;-0.0031577717;-0.107788645;0.012889182;0.026849186;-0.03173421;0.17200567;0.05272495;0.20759693;-0.02170091;0.08570019;0.050161242;-0.26107928;0.02327043;-0.1146118;-0.22601236;-0.05253144;0.28707725;0.30510443;0.027002104;0.045174155;-0.06677818;-0.021069821;0.23370647;-0.109885104;-0.28857315;0.0064669405;-0.0017930745;0.007942345;0.13374844;-0.052668955;0.1650488;-0.0007069261;-0.058194675;-0.008474947;-0.23132847;0.02731423;-0.07682966;-0.23822677;-0.033398904;-0.059824843;0.0068072034;-0.078175925;-0.326969;-0.07640464;0.048940387;0.055096503;0.32437968;0.01288586;-0.06579742;-0.026978776;0.0031810033;0.040426027;0.016577177;0.026087504;-0.008738939;-0.025605466;0.2791418;-0.2118861;0.03364526;-0.010503512;0.12508884;-0.19949348;-0.042545464;-0.20362078;0.27122012;0.0079034455;-0.05829032;0.15331562;-0.03380924;0.013587595;0.0625868;0.21153462;-0.026573911;-0.10377981;-0.21532503;0.07328802;-0.17204978;-0.21418214;-0.014879018;0.28203732;-0.0910915;-0.02831592;-0.18402535;0.032031715;-0.05758219;-0.08938856;-0.061332773;-0.23476659;-0.029484658;0.24272528;-0.016191594;-0.08848315;-0.10280261;0.07854338;-0.036351766;0.05790982;0.0016696434;0.035416804;0.010090998;0.085109375;-0.008563308;-0.36413914;0.10732538;0.07666135;0.17079437;-0.15742232;0.00013332171;0.11329155;0.21193542;-0.0049722195;0.05068758;-0.08741557;-0.05698566;-0.29173467;-0.002215966;-0.013033908;0.045111258;-0.021827307;0.21602665;0.004095989;-0.064346805;-0.010681192;-0.036437698;-0.07794625;-0.05212978;0.120615095;0.0014707128;-0.047158916;0.0269093;-0.042823203;-0.102451175;0.060073975;-0.07982461;-0.1393851;-0.1578008;0.0010334759;0.2924458;0.012368224;0.02391744;0.20659792;0.007311803;0.01535429;-0.043218758;0.056449246;-0.05816768;0.0373857;0.11485791;-0.038136296;-0.048183773;-0.10983931;0.11597991;0.057894878;-0.05953181;-0.12401773;0.31498888;-0.016615978;-0.020920824;0.010660179;-0.08149684;0.020405052;-0.16383012;0.017657414;0.3323685;0.14122418;-0.03992486;-0.113346145;-0.03900799;0.43434978;-0.061897352
-0.06342874;-0.16732799;-0.082104474;0.09325336;0.32988054;-0.008903571;0.20292832;-0.057036504;0.061005063;-0.0051094205;0.32279673;-0.3052663;0.004532782;-0.39505497;0.17196532;0.20225947;-0.054988172;-0.15593737;0.02791677;-0.033573017;0.09733096;0.03732861;0.055930093;-0.022977402;-0.11013745;-0.028533597;-0.025623776;0.1412737;-0.037829924;-0.059481524;0.029066885;0.03764516;-0.059871003;-0.013142909;0.016118513;-0.06902454;0.13103256;0.18998618;-0.11301849;0.07087809;-0.0066525973;-0.055027787;0.25997025;-0.29713318;-0.35073128;0.11975144;0.006134525;0.13246742;0.030423414;0.05023666;-0.014965596;-0.02351656;-0.06986483;0.04362673;-0.01718913;0.06620428;0.13674633;-0.034953658;-0.09114375;-0.010828908;-0.01763643;0.12059112;0.0464598;-0.0071087275;-0.24481624;0.124700174;-0.08337913;-0.22533706;-0.03366205;0.022456637;-0.025664166;0.19653;0.12903526;-0.048182286;0.11655932;0.09326598;-0.100486845;-0.05461082;0.23961705;-0.017855909;-0.008213454;0.016414713;-0.048297074;-0.00665777;-0.039302364;0.06920479;0.23499861;0.03483431;0.00427206;0.14940201;-0.18398985;0.13647668;0.031494364;-0.017393073;-0.017889632;0.0062680226;-0.01969613;-0.03968032;0.088556595;-0.10862996;-0.3542869;-0.005220517;0.010696699;-0.13692541;0.06194276;0.052337736;-0.12915868;0.043237463;-0.0221717;-0.011594834;0.1418209;0.18316811;0.2010461;-0.070934765;0.0265108;-0.044713087;0.25873703;0.06422034;0.04045455;0.07675325;-0.08718917;0.04403739;0.2152855;0.005238886;-0.08554666;0.06340319;-0.0676667;-0.06428576;-0.12025682;-0.004656351;0.110017575;0.12312703;0.033703603;-0.0648174;0.054863077;0.057361457;-0.44514626;0.021480653;0.24836352;0.18252501;-0.029724516;-0.04869251;-0.2718364;-0.030492388;-0.0059054727;-0.042820916;0.020775996;0.2505809;-0.010557096;0.07645213;-0.18805537;-0.11311029;0.047833167;0.0037863092;0.016246153;0.15327807;0.031189973;-0.12681471;0.2016639;-0.4198039;-0.0977998;-0.084130816;0.065248445;0.03701538;0.09694603;-0.042884547;0.01807974;0.21349962;-0.29962102;0.0059322435;0.00036791895;0.16173592;-0.05610571;-0.031861234;0.034760624;0.2097702;0.27987263;0.055244677;-0.04277048;0.104094155;0.043180868;-0.18198025;-0.030561043;0.22736035;-0.01953598;-0.020302812;-0.009502922;-0.33007997;-0.2542065;0.07731255;-0.46489602;0.07542383;-0.17186292;-0.18334132;-0.22172312;0.16895032;-0.00875017;-0.29235813;0.0052129636;-0.003188653;0.093107246;0.05028671;-0.05427354;-0.02213395;-0.017962351;-0.18839732;-0.15547659;0.06433068;0.15154964;0.05789373;0.0020017123;0.27349585;-0.010798161;-0.03162311;-0.06164267;-0.07632726;-0.05060363;0.08668534;-0.072434284;0.2588073;0.10200189;-0.05341138;0.20236655;-0.23444602;0.061404366;0.13207318;0.17587179;0.04688415;-0.019201484;-0.1567922;0.035294462;0.097859226;-0.017326526;0.034365237;0.023668485;0.021683317;0.054821394;0.121103406;0.029420096;-0.13970263;-0.12002804;-0.23181395;0.004625493;-0.16126491;-0.020258876;0.018617889;-0.2813768;-0.35012186;0.09169066;-0.08441667;-0.01772091;-0.040049054;0.14164573;-0.045742117;0.0011548552;0.17146371;0.018094651;0.057540536;0.19033855;-0.18041548;0.058338325;0.23291686;0.41196454;0.27385896;0.042684067;0.3606349;-0.066520125;-0.049322467;0.11953791;-0.012634509;0.0131437555;-0.19549572;-0.42011943;0.055283763;-0.0635151;-0.12168408;0.09949462;-0.032355268;0.30416074;-0.01504496;0.21552111;0.033051502;0.11953864;-0.017247757;-0.04762386;0.31875336;-0.012904093;0.28262088;-0.04698508;0.032932807;0.11610447;0.24304686;-0.072669975;-0.3430283;0.074951954;-0.27080163;-0.15251218;0.018864049;-0.054558903;0.27551764;0.224322;0.032815933;-0.06776809;0.046301488;0.029451229;-0.36525705;0.015090511;-0.0740387;-0.06762938;-0.060220312;0.33411032;0.09038782;-0.04059548;0.059980445;-0.031107783;0.0034630802;0.012375055;-0.054767817;-0.062651694;0.06746009;-0.1796457;-0.009287485;0.05760532;0.11089003;-0.056774754;-0.101169854;-0.038904343;-0.25206605;-0.2582567;0.14112039;0.43372142;-0.049889445;0.21063375;-0.04986152;0.19500315;0.045544147;-0.23465042;-0.029265346;0.32216275;-0.07985049;0.04334529;0.14489484;-0.18046021;-0.0949145;-0.07167955;0.056202706;0.04218893;0.049606998;-0.10726517;-0.13183069;-0.063584;-0.10214675;0.10685922;0.10894828;0.28628165;-0.11671747;0.20107284;0.019352436;0.015115006;0.30689675;0.25016496;-0.14909516;0.0054720608;-0.042711474;0.0294811;-0.10985258;-0.0057561365;0.01891067;-0.2591606;0.0063975328;-0.1340772;0.0077641034;0.004104105;0.046280175;-0.012363737;-0.027712062;0.08448358;-0.020603603;0.0005386824;0.032944556;0.062380332;0.0945789;0.025474366;-0.12465591;0.0029440243;0.06508346;0.025036097;-0.020706411;0.06221462;0.070388496;-0.09214528;-0.038698554;-0.09647023;-0.056014683;-0.16892186;0.013143224;-0.01095445;-0.1558934;-0.3057319;0.13052724;-0.14400119;-0.06004721;-0.45294622;-0.007574379;0.13563402;-0.1289019;-0.31726766;0.003711295;-0.101168044;0.025009265;0.017222816;-0.0011219584;0.08842964;0.035629924;0.27907702;0.059125725;0.042532824;-0.022458103;-0.22012931;0.064273514;0.015044145;-0.299762;-0.07488578;0.2823415;0.37474406;0.022310525;-0.010738317;-0.062289305;-0.029784916;0.0737489;-0.2597986;-0.2628795;0.062428292;-0.040580064;-0.02193055;0.15327874;-0.093287714;0.11566079;-0.15456247;0.03436514;-0.05421519;-0.3923696;-0.041562542;-0.13927647;-0.061057445;0.0073923846;0.026390167;-0.06469454;0.06771817;-0.2680044;-0.117989;0.041738853;-0.078399956;0.33789194;-0.01032379;-0.047086637;0.017387677;0.040847346;-0.024698718;-0.038266387;-0.05815401;-0.0066059222;-0.14020906;0.18414928;-0.1622522;0.021632854;0.06232724;0.08391218;-0.18067026;0.08902013;0.00908332;0.14417332;-0.054280125;0.013263851;0.10609308;-0.0373322;0.028868046;0.12123706;0.16627194;0.025206894;-0.22648035;-0.13292107;0.033595428;-0.120222636;-0.12181701;0.02358296;0.29496497;0.042099874;0.051669423;-0.09102382;-0.02746525;-0.11590425;0.02694751;-0.1399799;-0.23485869;0.048734043;0.1849119;0.074072525;-0.11119059;-0.11406679;0.08777447;0.0474465;-0.021315686;0.035670683;-0.0028892925;-0.03200798;0.26154056;-0.0015066176;-0.36855623;0.048968516;0.09095668;0.1676657;-0.2505157;0.035686832;0.08670383;0.15301657;-0.036423266;0.063828856;0.038764052;-0.2433882;-0.055391535;-0.048637673;0.04634406;0.23788536;0.08561807;0.16179359;0.02125978;-0.029809095;-0.079007894;0.013289956;-0.119833946;-0.23072009;0.2092797;-0.00487936;0.055823978;-0.05161474;-0.019091472;-0.15349217;-0.022421815;-0.09674626;-0.15446372;-0.12011637;0.05423971;0.48105058;-0.018659968;-0.058305632;0.03932645;-0.031217726;0.06747759;0.016315022;0.026276322;0.028573755;-0.03196495;0.15127294;-0.0453827;0.12367313;-0.014234682;0.19997169;-0.07762819;0.007849627;-0.106430985;0.3661124;-0.04561635;-0.07920319;-0.023149474;0.16913198;-0.016638082;-0.22718687;-0.07144075;0.3904826;-0.07510676;-0.0049088616;0.067834795;-0.14930174;0.2612562;-0.09112799
-0.03863855;-0.025435198;-0.027157988;0.034017723;0.33057845;0.064041235;0.028312054;-0.015427764;0.13482459;0.026524689;0.24695991;-0.207241;-0.064994134;-0.24494006;0.017396996;0.100132056;0.0012996492;0.02932009;-0.031580526;0.06764606;0.2577687;0.03831535;0.1030303;0.06729836;-0.20393404;-0.032930538;-0.031062664;0.036759146;0.04506008;0.0027100006;0.104401104;0.06327068;0.0017283298;0.017573789;0.03060145;-0.13091756;0.034439012;0.08986481;0.01549499;0.09724969;-0.18910272;0.037000887;0.2006227;-0.14873861;-0.20668073;0.10374424;0.0023222324;-0.025266282;-0.025743049;-0.06947245;0.124422625;0.067154564;-0.09895748;-0.01264463;-0.020180289;-0.015614284;0.23843612;0.024390362;-0.15340827;-0.063800134;0.072218455;0.032445796;-0.04565162;0.020348653;-0.18114299;0.051451243;-0.08416979;-0.26409584;0.066583276;0.03590935;-0.14993349;0.0304271;0.09316758;-0.017532334;0.096457146;0.10443072;-0.19504589;-0.11923421;0.081668265;-0.036701236;-0.016033066;-0.029143086;-0.036097843;0.15418956;-0.059537858;-0.06622697;0.2670803;-0.01249842;-0.012062982;0.08693284;-0.051795285;-0.0021636216;0.045983702;-0.05722446;-0.029489558;-0.030388761;-0.036858376;-0.04155247;0.013796073;0.071299136;-0.39414683;0.062432528;-0.05198767;-0.07620209;0.12890925;-0.059701417;-0.2074999;-0.052648164;-0.0033654007;-0.012967606;0.13436784;0.31766936;-0.01418433;0.10403496;-0.010555033;-0.07952374;0.25194442;-0.018980838;-0.00370402;-0.02243598;0.0048222328;-0.0350324;0.2183029;-0.0018479545;-0.17209303;-0.09404702;-0.21531843;-0.08779126;-0.058881998;-0.044474777;0.1334668;-0.10371783;-0.036561754;0.1045917;-0.058493655;-0.037901778;-0.3715845;0.01346987;0.23630978;0.26520333;-0.0232683;0.0078043407;-0.25974667;0.021512423;0.06887582;0.0577514;0.0072354474;0.18513037;0.016982645;-0.0075974776;0.030725153;-0.1300508;-0.025358185;-0.02969948;-0.12992086;0.08447469;0.031223606;-0.15370288;-0.004948345;-0.4125519;-0.022316745;-0.075916484;-0.041939434;0.015217768;0.087597795;-0.032024626;0.02367188;0.22760594;-0.23249522;0.058482993;-0.046567194;0.2650111;0.02825801;0.036955282;0.0056165764;0.2202504;0.27103308;0.0841479;-0.095559105;0.101011395;-0.046859153;-0.20785168;-0.14797656;0.08676223;0.028739158;0.038392056;0.020627772;-0.29639116;-0.19133039;0.08981726;-0.4099812;0.033074185;-0.21758479;-0.15446727;-0.24389537;0.24469869;-0.078503616;-0.18235874;0.058405563;0.07427489;-0.013517394;-0.014258641;0.021887256;0.07497406;-0.07149201;-0.15359479;-0.10050158;0.06826419;0.18491854;-0.014966956;0.0045032655;0.08830639;-0.023249274;0.019454826;-0.1026009;-0.034712344;-0.013557564;0.004857339;-0.046746332;0.218749;0.22245365;-0.10283259;0.076630615;-0.26521003;0.033314575;0.17010628;0.22724397;-0.07900436;0.032865304;-0.10445768;0.10634986;0.25663427;0.0002801423;-0.02069534;0.041086346;0.062449455;-0.14651549;0.08298905;-0.016926387;-0.12917285;-0.008567271;-0.30282366;-0.06424175;-0.14803994;-0.01799847;-0.03372146;-0.3716331;-0.18592924;0.15858687;0.076457925;0.033374853;2.9515968e-05;0.049857613;-0.16105744;0.048842154;0.1489085;-0.059366044;-0.012165249;0.21769696;-0.15598673;0.109669104;0.20903355;0.4546098;0.20462635;-0.044673353;0.32537973;0.034827348;-0.002001608;0.08172924;0.04957391;0.04960081;-0.19955796;-0.3967614;0.17519753;0.036755677;-0.111770116;0.18188429;0.011322233;0.083872996;-0.023829522;0.0764312;0.06010777;0.105742276;-0.17304412;-0.058002766;0.24578851;0.037917357;0.3042793;-0.16404334;-0.03508387;0.12532994;0.23430564;-0.15995833;-0.29115996;-0.05458927;-0.15147929;-0.16560914;0.026848136;-0.024528611;0.37405494;0.12067251;-0.055067778;0.031156441;0.023610981;0.10118881;-0.33574268;0.037759334;0.03085304;-0.21767746;-0.0733469;0.27891234;0.10239421;0.0058407593;0.058925685;0.021805074;-0.027019883;-0.009403727;0.056163087;-0.06526232;0.07771509;-0.15147792;0.005537358;0.16511904;0.11193862;-0.06639767;0.016208766;0.004236887;-0.134514;-0.21146391;0.005719352;0.29516417;-0.005114501;0.15366012;0.022055414;0.16391654;0.011576769;-0.049686916;-0.006880105;0.14950506;-0.20845541;-0.017161846;0.3679455;-0.17630339;0.064049415;-0.08408122;-0.035147652;-0.02956053;-0.025044173;0.013492268;-0.06623473;-0.08227556;-0.17083341;-0.059147686;0.06360732;0.08080108;-0.038490634;0.34580415;0.004410691;0.02391953;0.22714776;0.26912075;-0.14455186;0.028489197;-0.050265275;0.0588028;-0.1149936;0.038660746;0.045347452;-0.1971366;0.008444543;-0.1272;0.13779448;0.06184932;0.044335335;-0.025748892;-0.0151848635;-0.06617124;-0.064974286;0.03140145;-0.04627117;-0.051107954;0.080696374;0.05028063;-0.08395337;0.0016544131;-0.04617951;0.13206501;-0.024347836;-0.0028237752;0.081664465;-0.009323686;-0.030401511;-0.055773467;0.03243664;-0.22619908;0.12837206;0.020336347;-0.029832855;-0.23659293;0.37463734;-0.009650032;0.013053769;-0.32527828;-0.037503242;0.23042233;-0.11117426;-0.29695773;0.043478977;-0.10800926;-0.01115098;0.058616206;-0.04609996;0.08345603;-0.03475423;0.21473251;-0.058409948;-0.06667783;-0.0071602827;-0.15777896;-1.18657335e-05;0.08887446;-0.17437454;0.053015202;0.24677624;0.4147432;0.011581196;0.03875759;-0.013940852;-0.05939343;0.1946606;-0.23492503;-0.44048113;0.064492576;-0.014343857;0.046293754;0.039405335;0.01870557;0.31690902;0.008946467;0.016752357;0.02462629;-0.2713155;-0.014972989;0.025817988;0.036737572;0.06739915;0.016018508;-0.052961264;-0.048531864;-0.25406483;0.031232264;-0.055013034;-0.07432019;0.2173354;0.045312155;-0.028746834;-0.04947772;-0.051966272;0.05171162;0.05609443;0.02464817;0.010205866;0.05204963;0.21160878;-0.082415536;0.14107253;-0.04956791;0.019506926;-0.017433139;-0.004225653;0.06109634;0.12282571;0.033632506;-0.020553885;0.06437689;-0.007046373;-0.008945119;0.30106378;0.22134447;0.023368264;0.006571532;-0.2098442;-0.030558722;-0.25267145;-0.06382968;0.032422792;0.32715583;-0.088158034;-0.07914418;-0.17775099;0.01028724;-0.08669187;0.036387682;-0.124071255;-0.032919712;0.015139195;0.22541074;-0.07601419;-0.2863368;-0.059102673;0.034083225;0.0009875275;0.01538626;-0.046666443;0.06319193;0.060326923;0.19440241;-0.015365097;-0.24624698;0.21328989;0.09512011;0.19835417;-0.17195328;0.11718778;0.16829357;0.12817559;0.015266396;0.039740678;0.056011062;-0.26102105;0.013144937;-0.045854453;-0.036565177;0.081925444;-0.072687946;0.17262508;-0.027117651;0.06658566;0.07302859;-0.004800633;-0.111230984;-0.17916128;0.29323506;-0.001789656;-0.12956187;0.05605584;0.12406187;-0.072651654;0.022763198;0.10131491;-0.13757174;-0.10932334;-0.003915138;0.43025917;-0.038039796;-0.028175093;0.0487323;0.03838818;0.053545002;0.027307156;-0.12899944;0.014983559;-0.019436546;0.10927645;-0.04348691;0.2695223;-0.10498861;0.3075043;0.053032048;-0.01690118;-0.212294;0.32696003;-0.033867143;-0.0025857007;0.03325272;0.14143068;-0.024945823;-0.027960012;-0.080509014;0.2525534;-0.11044098;0.036324035;-0.027997706;-0.19008178;0.37916481;-0.1061801
-0.034590814;-0.10690373;-0.036677253;0.20737447;0.38840547;-0.0787506;0.064334996;0.046224438;0.14368448;0.046044335;0.25115716;-0.41389102;0.04166239;-0.2173647;0.18741676;0.13639699;-0.08403284;0.13784927;0.015741512;0.13121729;0.19758259;0.12246758;0.020381426;0.029137872;-0.014228565;0.029041665;0.03490694;-0.027586058;-0.036690276;0.010633316;-0.032783296;0.13809955;-0.00236583;0.027620038;0.0041727186;-0.012207304;0.01746733;0.09867022;-0.059638247;0.1756444;-0.183145;-0.0010309287;0.15772736;-0.043170914;-0.31643906;0.071225114;0.01620826;0.021631494;0.008017291;-0.11256953;0.118463136;-0.0627327;-0.1971416;-0.12587166;-0.0023454959;-0.022647776;0.046292063;0.007344184;-0.16617389;-0.0055500595;-5.938226e-05;-0.06455288;0.0604402;-0.03878872;-0.21896347;0.020518271;-0.20047326;-0.3343343;-0.018759442;-0.053226404;-0.07729967;-0.07843423;0.10443236;0.007187197;0.043794252;0.013930018;0.077962;-0.04179785;0.2903206;-0.0039622295;0.016015472;-0.015613196;0.0071137687;0.21416007;0.08049384;-0.027459001;0.19749573;-0.0068733054;0.08480734;0.089396626;-0.04180486;0.03296573;-0.055293176;-0.019073326;0.03221799;-0.10519814;0.04989361;0.038502578;0.08789263;-0.059013553;-0.34517974;-0.028215485;0.0148352925;0.016425328;0.0014124978;0.05460829;-0.25011066;-0.048313383;0.05576827;0.021036185;0.015136653;0.15071438;-0.094966225;0.12087152;0.015459329;-0.13342202;0.33098277;-0.0066577713;0.04724921;0.085276745;0.088473946;-0.025451759;0.37572232;-0.13105686;-0.18811981;0.01553274;-0.1643949;-0.12431508;0.021257197;0.016006172;0.0710607;-0.28287703;0.03303751;0.09693266;-0.033477213;-0.048374265;-0.24577893;0.083134525;0.26832727;0.17880815;0.10478284;0.017704621;-0.13648187;-0.22784573;0.09019978;-0.011353859;0.02318282;0.21674247;-0.03137955;-0.1302027;-0.05719786;-0.21193033;0.11904697;-0.023471111;0.005037491;0.08829082;-0.07770825;-0.021394819;0.08790761;-0.2438636;-0.14556453;0.080947265;-0.07773905;0.11970817;0.12729943;0.03212186;-7.516921e-05;0.015416554;-0.08444343;-0.038186837;0.025878578;0.18126178;-0.016803775;0.018129587;0.017929167;0.11293233;0.21114866;-0.12516548;0.05618463;-0.00014222375;-0.09546602;-0.39568195;-0.011856904;0.24658479;0.020063395;0.05168903;-0.003122666;-0.10133402;-0.18495253;0.12993431;-0.52609897;-0.084190175;-0.33457264;-0.017052075;-0.070182435;0.07302131;0.06770404;-0.3238397;0.036381666;-0.12920785;0.015261087;-0.043729343;-0.054764066;-0.032138675;-0.14488225;-0.06834802;-0.15276736;-0.15619856;0.17749763;-0.03092443;0.08278327;-0.0050908453;0.025343744;0.03269878;-0.07965742;0.029696034;0.016991748;-0.10368688;-0.13740866;0.23528077;0.0658034;-0.017795976;0.15238453;-0.20851785;-0.052644387;0.24525316;0.26087898;0.04996832;-0.028861899;-0.0079197185;-0.023692064;0.16040148;0.026232414;0.035888802;0.09722922;-0.04862251;-0.133709;0.06866562;0.034354836;-0.1394013;-0.015778638;-0.15960601;-0.030938227;-0.12378958;0.054823857;-0.08492577;-0.32373416;-0.20010814;0.101674445;-0.055012308;0.11781012;-0.03204126;0.05999623;-0.095864974;0.002375622;0.17162986;0.10017286;0.07238364;0.20895644;-0.1361274;0.07716675;0.08178542;0.26564342;0.28085312;-0.018772861;0.2625601;0.0053212484;0.019571194;0.11691833;-0.02437227;-0.030156495;-0.07465033;-0.25146914;0.15085559;0.026543884;-0.22616822;0.21735905;0.06545692;0.2455723;-0.005632597;0.11647198;0.09792426;0.10681395;0.006693107;0.021156706;0.25789392;0.069343545;0.27182132;-0.19809489;0.046566017;0.012105509;0.23081821;-0.20822926;-0.19251728;-0.06556687;-0.049175583;-0.16963834;-0.060917288;-0.0071347053;0.15382399;0.13943152;0.007903472;0.014057163;-0.056014877;0.05968437;-0.33521953;0.013648133;0.06343044;-0.22407404;-0.082564026;0.35187945;0.08469257;0.052017286;-0.08949756;-0.017081978;-0.013680822;0.07345464;-0.0188772;0.039809797;0.09505389;-0.033792105;-0.021080181;0.14059356;0.13735282;0.084388725;0.045984704;0.010994659;0.0027937223;-0.19544877;-0.13914444;0.13263766;0.02770185;-0.010739357;-0.041851696;0.099122666;0.0008432839;-0.001098813;0.21866365;0.087474264;-0.15604693;-0.052410465;0.16808331;-0.13663329;0.14046729;-0.16351746;-0.00382462;-0.003878965;0.022156317;-0.06487685;0.026358463;-0.10772375;-0.3853558;0.084892176;0.24144253;0.00016004487;-0.10777201;0.34020662;-0.016568786;0.04807905;0.4070825;0.11620945;-0.14386909;-0.04216774;0.055582315;0.09728284;-0.115991324;0.026710175;0.27195665;-0.19857141;-0.16549386;-0.119075984;-0.034297295;-0.059481714;-0.05181924;0.034041952;-0.045410294;0.045383967;0.06464269;-0.04474704;0.061573714;-0.025465414;0.15390652;-0.082570694;-0.04961647;-0.017743772;-0.036807902;0.05726907;-0.021300826;-0.12915103;0.07085898;0.10472265;0.1265646;-0.0127652455;0.053014036;-0.19009887;0.11992687;-0.076805845;0.05207357;-0.112593144;0.31917274;0.07525361;-0.015172;-0.47523752;0.06738784;0.13528171;-0.046998773;-0.38173622;-0.033530798;-0.09602092;-0.045805905;-0.056494337;0.09008589;0.14818461;0.038399167;0.2596691;-0.07875537;-0.09701629;-0.033923794;-0.039982166;0.014079349;0.026191508;-0.09504635;0.029648915;0.10943142;0.34178644;0.050477367;-0.03566443;-0.035286553;-0.16508451;0.26029882;-0.113177;-0.26331398;0.14498727;0.046861976;-0.018855343;0.009732904;-0.07400917;0.2698461;0.012871917;-0.052790135;0.02567887;-0.12700568;0.02212936;-0.04329706;0.102421135;-0.118673734;-0.063716196;0.03441607;0.022460463;-0.1386066;-0.023744851;-0.019947082;-0.16143617;0.19827555;-0.04177779;0.020331398;0.048421726;-0.17028922;-0.024503833;0.05472049;-0.0044913176;-0.051376726;-0.016457355;0.30630907;0.08771025;0.20747107;7.820371e-05;0.09293584;-0.10628828;0.030085254;0.2820548;0.09121356;0.043370325;0.059302844;0.036017362;0.03357404;-0.02783912;0.26143408;0.06419225;0.024696238;0.099901035;-0.16610636;-0.19935644;-0.19998948;-0.012498438;-0.010154311;0.26826146;-0.21572033;0.017565938;-0.049602665;-0.016552143;-0.10053561;-0.10755881;-0.018195603;0.012262839;-0.0036508092;0.13752143;0.036029845;-0.20475993;0.0046562604;-0.07314095;0.0153702665;-0.04274305;-0.0501882;0.0556092;-0.029363867;0.3120276;0.03878688;-0.27341115;0.27262765;0.07410091;0.18915677;-0.08540232;0.076117076;0.14375433;0.046267804;0.021611761;0.038327977;0.002681403;-0.2178794;0.009423434;0.05019967;0.046253864;0.10847937;0.03756652;-0.04350588;0.042577766;-0.02402439;-0.06026314;-0.065445125;0.021574903;-0.16778949;0.22755632;0.0013825733;0.06350451;0.0074734897;0.26110375;-0.05009018;-0.053718418;0.14477625;-0.11948061;-0.21413141;0.005387424;0.33325207;0.007922;0.033024564;0.09586964;0.039945256;0.20416339;-0.03289999;-0.19283997;0.0010801912;0.035439033;0.108336166;0.038244992;0.3101112;-0.19336008;0.18466775;-0.040260196;-0.005162288;-0.15476619;0.40531403;-0.00973872;-0.03957363;-0.028464096;0.17333284;-0.010751774;-0.0077663;-0.18398966;0.16110541;-0.1675606;0.017844953;0.059534427;-0.1794609;0.25772744;-0.047129788
-0.024742596;0.07070972;-0.14422783;-0.002621898;0.25286525;-0.023571333;-0.11427755;-0.0032387816;0.10385197;-0.03502681;0.34308618;-0.44234875;0.05394;-0.2871767;0.20099482;0.13453422;0.071448304;-0.080318436;0.039942387;0.15397455;0.008434227;0.22150996;-0.054784734;-0.020798558;-0.07770835;0.00914979;0.038177367;0.026973372;-0.008614633;0.0686851;-0.08090229;0.04781523;0.045734886;-0.0035101643;-0.0012442911;-0.0324772;0.07804618;-0.0075569786;0.09426661;0.087735295;-0.18396331;-0.013462538;0.08616067;-0.17729887;-0.3816364;0.08526026;0.002247717;0.09922728;-0.020805895;0.022177098;0.14516175;-0.016954599;-0.11040339;-0.04128434;-0.062963754;-0.016290063;-0.05192143;-0.04471155;-0.24464001;-0.15051858;0.030417636;-0.17341568;-0.048537932;-0.09560967;-0.11275522;-0.20686316;-0.25670674;-0.10511372;-0.04659917;-0.06556028;0.08324781;0.053909376;0.16760898;-0.14552894;-0.051051326;0.16387579;0.04956971;0.028024012;0.27514493;0.0156194875;0.015290932;0.046233937;0.08144575;0.1422;-0.0016834434;-0.060660303;0.21265283;-0.0061853207;-0.027385611;0.1477438;-0.078866646;-0.097757295;-0.034421578;-0.081350766;0.008143924;-0.06967796;-0.04350239;-0.054321367;0.07986103;-0.017481858;-0.54871935;-0.01374086;0.02894164;0.1748575;0.049404494;-0.00977381;-0.14210586;0.03996643;-0.094336696;-0.013365112;-0.091844745;0.2310834;-0.2516727;0.07191818;-0.052588303;-0.1460587;0.28395203;-0.077470385;0.050215483;0.035810973;0.13513629;0.027885213;0.34806824;-0.09337506;-0.16347001;0.1261473;-0.21164924;-0.18932109;0.12281546;0.024265654;0.084340565;-0.3899751;0.02633859;0.17208198;0.031997442;-0.08449397;-0.109091245;-0.082862414;0.32852566;0.009282382;0.19384317;-0.03553729;-0.23795305;-0.075213455;0.15158117;-0.018778125;-0.046723552;0.3044294;0.052626196;-0.15327798;-0.05311584;-0.29753336;0.056456823;0.029388756;0.09353198;0.06262082;0.040826038;-0.08439567;0.007461236;-0.10029008;-0.03898975;0.03623455;-0.11681657;0.066430874;0.0032472536;-0.0029412133;0.010108307;0.060064506;0.1009255;-0.022450624;0.03664467;0.07589644;-0.0012159024;0.0020917838;-0.033092532;-0.04664334;0.28272665;-0.03545029;-0.028243067;0.10933503;-0.06498501;-0.3820581;0.18205194;0.22821501;-0.06550114;0.13475138;0.01427249;-0.14287198;-0.25154436;0.018468462;-0.52429247;0.018337904;-0.23202924;-0.019389208;-0.16673659;0.13452129;-0.037498847;-0.16624257;-0.06290581;-0.23403747;-0.027902823;0.030236378;-0.0033586493;-0.049014747;-0.07957918;-0.123672776;-0.058839325;-0.16985525;0.1605778;-0.05394813;0.073065095;0.04519565;0.02148446;-0.013369055;0.11042355;-0.03403495;-0.06881324;-0.3047116;-0.23943405;0.2717245;0.03964325;-0.029732822;0.122052304;-0.2129529;0.015351866;0.14891896;0.22239996;0.005626474;0.032308538;-0.019145522;-0.04426259;0.25612077;-0.037058573;-0.04754364;0.10105603;-0.058406774;-0.115809344;0.17055044;-0.028334534;0.103662625;0.037086073;-0.10888321;-0.04552392;-0.07993677;-0.015288415;-0.0364784;-0.25074157;-0.29725397;0.18421406;-0.0058936635;0.29861242;0.021417616;-0.027417941;-0.25784355;-0.062356923;0.18264647;-0.052820917;-0.04308993;0.21965976;-0.21067275;0.028214421;0.011437506;0.2900243;0.43125817;0.051605105;0.337559;0.009465615;-0.0012777748;0.15157145;-0.024213325;0.017191347;-0.042261768;-0.21245134;0.04767191;-0.04132881;-0.26556298;0.17352562;-0.034698237;0.25332516;0.026227858;-0.024409195;0.023275526;0.10515594;-0.015776867;0.057301935;0.22246592;-0.010869989;0.053824212;-0.15923902;-0.008237297;0.0122609325;0.19834375;-0.094513245;-0.21269628;0.038067788;-0.107759975;-0.035819322;0.03389131;0.15427643;0.010561439;0.046716727;0.057112705;0.030416673;0.008877039;0.13674921;-0.47168148;0.038056817;-0.06413776;-0.21598028;-0.23162088;0.066383116;-0.07011073;-0.032986045;-0.09521967;0.029696945;-0.06868557;0.0110317;-0.047684923;0.060560156;-0.034676988;-0.096362375;-0.042654525;0.10174872;-0.008725254;-0.047765456;0.0069279396;0.057422943;0.070801005;-0.06651691;-0.1977763;-0.029572375;-0.011315611;0.047897648;0.010229551;0.03872066;-0.06759405;-0.03956948;0.2606949;0.06484488;-0.15755975;-0.007140313;0.14663523;-0.2423573;0.053022657;-0.13011177;-0.02021328;0.027155435;0.040562134;-0.11788367;-0.08061055;-0.11303159;-0.34443915;0.08341223;0.40951326;-0.059015453;-0.08698851;0.23192327;0.0136110885;-0.07632184;0.30946386;0.18827486;-0.05526846;0.07965111;-0.035183497;0.07052239;0.16429976;-0.040185515;0.3214071;-0.046814207;-0.060096767;0.1121586;0.13665316;0.03499339;0.02982834;-0.0104295565;0.059324354;0.013023948;-0.034246664;0.034186;-0.048749007;0.06472088;0.16887194;0.063184015;0.037270565;0.03313855;-0.0051198145;-0.06869969;0.026963249;-0.34608895;-0.05935295;0.076526806;0.008171018;0.0083227055;-0.028352913;-0.18382238;-0.027708236;0.015122274;-0.008873913;0.010108141;0.28453144;0.11504643;0.039068714;-0.3471491;-0.049791016;0.2506975;-0.13945638;-0.16313086;-0.02560247;-0.15763898;-0.0045375945;0.0068334276;-0.0075577977;0.21906972;-0.020612065;0.1826924;-0.03322286;0.0027763215;0.06089732;0.012487688;-0.029125229;-0.02042862;-0.08011448;-0.067716755;0.17023079;0.25183663;-0.06293686;0.008145202;-0.028850848;-0.00660106;0.12011716;-0.0531572;-0.18017252;0.110949285;0.038790952;-0.026632728;-0.052509304;0.025747435;0.25221804;0.05915695;0.06167368;-0.026259102;-0.07430054;0.04362695;-0.0020228727;0.22296104;-0.021487609;0.052185707;-0.09399243;0.048183065;-0.26634327;-0.018529745;-0.027898125;-0.10340892;0.16815986;0.03922437;0.19623354;0.04901313;-0.12505078;-0.040519185;-0.06837088;0.02922248;0.03967362;-0.05196009;0.22433117;0.07364649;0.19024576;-0.009394829;-0.023086308;-0.14571427;0.10468188;0.24693148;0.11062999;-0.056703657;-0.039121985;0.05244521;-0.054773945;0.016594402;0.29631826;-0.017659297;-0.033654682;-0.122795574;-0.19733188;-0.08708025;-0.17276111;-0.03456444;0.046610184;0.2839871;-0.21179822;0.022184232;-0.08648779;0.0406346;-0.019999014;-0.07406513;0.012130446;0.0014233342;-0.023062192;0.035439674;0.03018005;-0.20480505;-0.048012752;0.050513137;-0.0031809388;-0.043635868;0.028221276;-0.18351616;0.04233883;0.19173463;-0.008982443;-0.1287708;0.19254595;0.013026632;0.29577506;-0.2117291;0.076950505;0.0745399;0.08724915;0.0032862904;-0.006710694;-0.061317038;-0.13527146;0.016087519;0.05013052;-0.0113098;0.0950266;0.030317483;0.06979845;-0.06320224;-0.02394248;0.04799648;0.053766206;0.020458223;-0.106656246;0.40887135;-0.027074;0.07705427;0.02607229;0.4927398;-0.053468466;0.031179791;0.08448615;-0.26758716;-0.04103244;-0.048116773;0.42885557;0.06311187;-0.008918302;-0.10963834;-0.04303389;0.30290022;-0.01967516;-0.039119713;-0.0071224826;0.024969732;0.15945233;0.014648746;0.124206334;-0.27500927;0.27498528;-0.048372168;0.056158707;-0.18238497;0.3151042;-0.0414326;-0.23657456;0.022026423;0.1826846;0.034501415;0.052523103;-0.24469163;0.12721314;-0.24982744;-0.005809315;-0.09195386;-0.1591645;0.19303067;-0.016907135
-0.08057381;0.04892402;-0.3823151;0.01898713;0.18571097;0.0014076261;-0.043659344;0.02670529;0.106706;-0.017963054;0.21705298;-0.26866734;-0.039976887;-0.18410267;0.15700187;0.07907772;0.05137198;-0.03237327;-0.03274535;-0.037773907;0.14394392;0.39736876;-0.09493243;-0.022591656;-0.011736917;-0.08993561;0.019336298;-0.017682942;0.011407777;-0.06847929;0.027850762;0.021338021;-0.05264952;-0.027371755;-0.01817566;-0.18977636;0.25005487;0.15136191;0.033791427;0.13049525;-0.11538229;0.033497367;0.1357376;-0.3658255;-0.40823275;0.02792498;-0.041782722;0.012643669;0.022115838;-0.014574917;-0.0002430447;0.040521294;-0.2847808;-0.20982118;0.06152788;0.045633916;-0.11861146;0.01081746;-0.21152925;-0.13198039;-0.07518443;-0.10478197;-0.012194904;0.02927307;-0.014734281;-0.0050653536;-0.12508956;-0.17647618;-0.011156055;-0.1117447;-0.028688928;0.06288414;0.06915222;-0.07169913;-0.1532106;0.12152794;0.06971873;0.07339637;0.23585999;-0.028524717;0.025474569;-0.031286787;0.19110623;0.08544831;0.0076993266;-0.10525388;0.112091504;-0.010604675;-0.0065533463;0.1266349;0.008413883;-0.03750914;0.059089467;-0.0275199;-0.0037852244;-0.034624774;0.009504789;-0.011208593;0.011653603;-0.02446383;-0.49926612;-0.00041538177;-0.03736286;0.19052924;0.040771216;-0.018000994;-0.046423946;0.034382265;0.023758464;-0.07051074;0.04583567;0.0776198;-0.10932395;0.034733124;0.011005944;-0.068486646;0.28016886;-0.009822752;-0.009767703;0.07554877;0.25773534;-0.04640749;0.25083774;-0.1792075;-0.13602684;-0.03388898;-0.15387422;-0.24470966;0.12119435;0.00085743604;-0.07032053;-0.39810902;-0.033815302;0.17249548;-0.039100736;-0.03145848;-0.084010854;-0.08619287;0.25475794;0.051411223;0.21099947;0.010169301;-0.2464637;-0.081106454;0.27984232;0.010370212;0.014293358;0.18699251;-0.042032924;-0.19512822;-0.064812854;-0.23381796;-0.097370416;-0.0064728786;0.11975276;0.0839906;0.059094265;0.18340088;0.03383707;0.029865518;-0.15567774;0.08420324;-0.044488683;0.05323592;0.004350133;0.025114365;0.010960475;0.08914099;0.095128305;-0.024355525;-0.0053733573;-0.043133214;0.014976144;-0.0009840454;-0.051679213;-0.039349936;0.16029558;-0.11926866;0.10570195;0.06192852;0.064291015;-0.36247024;0.06056142;0.2187183;0.037711337;0.06128539;-0.038819093;-0.035300776;-0.18337077;0.028829023;-0.43920934;0.05016611;-0.3102811;0.12282074;0.001751044;0.14127459;0.040324364;-0.1280722;-0.008626069;-0.23423097;0.12290477;-0.015597787;0.05404542;0.06218726;-0.08202875;-0.12930033;-0.11593382;-0.078472085;0.19872096;0.04746969;0.22790079;0.1888576;-0.02756674;-0.04615117;0.0754283;-0.07595199;0.017537374;-0.27913743;0.014959507;0.23944935;0.1142502;0.14436369;0.12017687;-0.32485798;-0.06220425;0.2662525;0.015955368;-0.075869046;-0.016873598;0.005715401;0.021137882;0.30158406;-0.021736385;0.04941202;0.09527884;-0.008093186;-0.16928768;0.16483475;0.00092933263;0.17278506;-0.13292849;-0.10179679;-0.044556946;-0.058580253;-0.04207879;0.022902198;-0.3055404;-0.14563178;0.25276348;-0.018285384;0.24179213;0.041323192;0.06273734;-0.11536001;-0.015083452;0.17693053;-0.121935084;-0.07558485;0.16870283;-0.2097532;-0.033947505;-0.08733552;0.17564562;0.37859344;-0.062496506;0.32292783;0.010673697;-0.05840976;0.15079719;-0.009092114;-0.06711029;-0.009344462;-0.11411062;-0.021618972;-0.014275153;-0.29792634;0.15347745;-0.012700446;0.19613282;-0.002223856;-0.13462234;0.14139442;0.055140473;0.07777069;-0.008339813;0.31864968;-0.053175114;-0.09952444;-0.12035218;-0.071523644;-0.13881151;0.24041839;-0.01266835;-0.12216704;0.05084363;-0.046791177;0.23686004;0.04298191;0.19439557;0.0077885226;0.2013492;0.0011509128;-0.036736537;-0.03919036;-0.066533156;-0.41403475;0.00841952;-0.038741086;-0.19818208;-0.080171876;0.05191541;-0.06680776;-0.031052237;0.041570593;-0.031068198;-0.0065492303;0.06341641;0.047625795;-0.02595662;0.021820834;0.068062805;0.0132782655;0.08194006;-0.25217953;-0.013134372;0.060395855;-0.056764964;0.23865202;-0.18636039;-0.14532153;-0.08032704;-0.010612279;0.012402812;-0.14015743;0.010364578;0.053438425;-0.055256743;0.15933938;-0.037696373;-0.050557815;0.06561285;0.028360164;-0.31847706;0.034130592;-0.0042826543;0.026640886;0.04884469;-0.024929535;-0.032785255;0.07890871;-0.07061346;-0.11500541;0.057685938;0.34660903;-0.064017825;-0.08673586;0.32573304;-0.035610393;-0.088912465;0.32222614;0.225992;-0.078995526;-0.046027265;0.11971352;0.17074426;0.20044407;0.020915432;0.27047136;0.1880489;-0.30239224;0.11015958;0.035241753;0.0154558495;-0.06875528;0.047993235;-0.0157125;-0.0387136;0.040583517;0.0021523568;-0.010750055;0.027556334;0.087456346;-0.054069325;-0.06165094;-0.040128138;0.05667411;-0.08352643;0.06297609;-0.42101225;0.025047787;0.13304564;-0.016434547;0.042941142;0.034751605;-0.29052395;0.03151309;-0.03765219;0.009474884;0.0068433136;0.38342813;0.233598;-0.017305894;-0.46572354;0.034369305;0.118666954;0.04910979;-0.021176899;0.06826031;0.030172108;0.068719804;-0.0122483745;-0.038129468;0.30080932;-0.027133668;0.041124508;0.01967969;0.007865931;-0.018078832;0.07646934;-0.046578273;0.03132747;-0.14271611;-0.12329649;-0.02849806;0.3904341;-0.032134093;-0.007609487;-0.0946443;0.024264624;0.1305313;-0.010069484;0.007967234;0.17947425;-0.0018097091;0.028509712;-0.0009736099;0.070651665;0.22756432;-0.11743596;0.00277996;-0.0072479383;-0.045465324;-0.042169478;0.15013577;0.21207441;-0.046138264;-0.004500546;-0.012404121;-0.06621096;-0.42332864;-0.0032681078;0.020473786;-0.0578684;0.20017023;-0.06651804;0.3173721;-0.03486142;-0.0051927064;-0.008493138;0.021017652;0.03466078;-0.020960448;-0.37734777;0.015699519;0.21337853;0.11708477;-0.0005047572;0.08834057;-0.06774745;0.12269604;0.13393804;0.2564255;0.005719131;-0.109863676;-0.0054035992;0.06870464;0.015329837;0.085469596;-0.023425441;-0.016833495;-0.23755305;-0.108960874;-0.21863072;-0.122961216;0.06362615;-0.04831955;0.16029929;-0.2778167;0.03335156;-0.22264442;0.04227356;0.013189537;-0.008220736;-0.1012726;0.00018063403;0.0025227098;0.12737119;-0.08544653;-0.14830421;0.08594394;0.01979005;0.012905946;0.044015676;-0.012447959;-0.11896859;-0.039195746;0.12077956;0.033877227;-0.1911318;0.29254064;0.063307025;0.2248862;-0.1446923;-0.014417442;0.008565829;0.13845497;-0.017569559;0.046471424;0.041273993;-0.11338237;0.10737464;-0.017428199;0.010575176;0.048088342;-0.017708233;-0.06166609;0.033098962;0.053880855;0.03137838;0.010327925;0.09665565;0.20614377;0.35894433;0.07110374;0.10630502;0.009987937;0.3253593;-0.1850129;-0.028167179;0.14955276;-0.23874736;0.021898007;0.013377573;0.52168703;-0.033213697;0.05319556;-0.027362466;0.053779293;0.20263787;-0.0289245;0.06372467;-0.022313116;-0.049560297;0.105077885;-0.005893062;0.06755183;-0.24328357;0.25308698;0.035587724;-0.021124365;-0.18552493;0.21450831;0.015870415;-0.27546814;-0.039857402;0.10919354;0.04589651;0.086493954;-0.24859169;0.21392657;-0.18089752;-0.03377364;-0.14813682;-0.1550114;0.036769576;-0.024475157
-0.10302816;0.17554912;-0.40748;-0.11803766;-0.017286032;0.07873838;-0.060377963;-0.030147912;-0.08909649;0.019966893;0.25827292;-0.1677692;0.02601924;-0.06928068;0.15483196;0.026883371;-0.046355803;-0.07392517;-0.04160902;-0.097062394;-0.020126842;0.33211353;-0.014854378;0.0028514627;-0.10099661;-0.00501133;0.123232305;-0.01657111;0.014375529;-0.048499297;0.0014641895;0.032476038;0.063859314;-0.028846107;-0.02548875;-0.22852027;0.31947604;0.07623736;0.06437413;0.050741997;-0.16327007;-0.041117452;0.074131176;-0.35869294;-0.3256132;-0.045109916;-0.034165002;-0.06939016;0.003716393;-0.084747106;0.10051461;-0.016933726;-0.1760913;-0.14790216;0.03271897;-0.015653001;-0.049403947;-0.02459818;-0.26145986;-0.06324289;0.005394443;-0.36405352;-0.012141279;-0.024278244;-0.0429016;0.0015210776;0.0030255362;-0.13050099;0.07697212;-0.05784154;0.09321052;0.12166734;0.10183183;-0.111688085;-0.0261277;0.29608387;-0.00997387;-0.03483184;0.22988182;0.04745852;0.002440192;-0.01844237;0.2936478;0.33827722;0.018249445;-0.17419457;0.1402265;-0.040848233;-0.040571865;0.01799004;-0.026954722;-0.2337164;0.019022014;-0.038787387;-0.062826306;0.035760716;-0.0030436325;0.02931422;-0.024503676;-0.04786023;-0.41640025;0.055256464;-0.044440925;0.14093322;0.086942084;-0.018927976;-0.09456095;0.041851815;0.06812371;-0.02018421;0.026789567;0.025102038;-0.059191626;-0.16373529;-0.013056806;-0.10578625;0.3392219;-0.087415546;0.044914108;-0.09344759;0.28320912;0.05448393;0.32591504;-0.23641805;-0.19908234;0.0034183566;-0.14598349;-0.15034494;0.02889513;0.033004455;0.0159739;-0.31795898;0.015116811;0.14835866;0.044073388;0.036958214;-0.121258326;-0.12869455;0.20961519;0.09251994;0.040034913;0.041168775;-0.24741504;-0.0032270506;0.16371891;0.042414438;-0.011154071;0.07548357;-0.023884315;-0.21049176;-0.14792979;-0.2244372;-0.03859641;0.03808025;0.22130626;0.12097862;-0.050186343;0.29109398;0.07694516;-0.03901559;-0.2516048;0.110891335;-0.11946916;-0.099643745;-0.057376068;-0.009178851;-0.02408539;0.19799331;0.02996042;0.044290513;-0.014044006;0.05934368;0.011813409;0.06574355;0.07676548;-0.12166631;0.16716829;-0.090969525;-0.020463677;0.124130405;0.12903489;-0.34379598;0.26449063;0.28102395;0.015397749;0.07370966;0.0058942228;0.035850123;-0.21471605;0.10502746;-0.2898098;-0.045349862;-0.11639687;0.10212302;0.12401155;0.026980327;-0.019047013;-0.13370185;0.031997155;-0.39188546;0.021099936;-0.010228482;0.06904145;-0.015264365;-0.038500775;-0.039449494;-0.07698151;-0.33750173;0.29304424;-0.00058609113;0.21434657;0.04379659;0.009926002;0.05326774;0.21141213;-0.06830244;0.0748688;-0.18371987;0.008129651;0.3327021;0.11250988;-0.08037533;0.18790586;-0.22944856;0.00635508;0.2808075;0.08650328;0.015615252;0.032463633;-0.013732978;0.0236679;0.28551075;0.06647973;-0.009247677;-0.041191805;-0.07909191;-0.22879706;0.097532146;0.026810946;0.054683387;-0.18245941;-0.1581411;-0.08267859;-0.006397777;0.02408845;0.049695544;-0.21795508;-0.12756787;0.104783505;0.028002813;0.14009383;0.023654878;0.085763365;-0.112089664;0.019454809;0.18520848;-0.2654253;0.046196442;0.122917585;-0.25746295;0.033975195;-0.23633136;0.0077907373;0.39803657;0.040984064;0.23898467;-0.021604013;0.017123673;0.085686535;0.022575498;0.06564619;0.0968107;-0.13938615;0.04016825;0.039001793;-0.24659058;-0.077094905;0.014843334;0.3047117;0.05143332;-0.13602482;0.17207412;0.19318084;-0.16220793;-0.02257729;0.31324682;-0.016064072;-0.030185338;-0.04485602;0.061017107;-0.11684746;0.23066193;0.19546378;-0.16166839;-0.033807084;0.037766647;0.06773839;0.068558164;0.05456085;-0.046247546;0.11485362;0.0073802946;-0.05057875;0.036400948;0.004805618;-0.40493083;-0.12480512;0.028322998;-0.0949188;-0.08116192;0.13454498;0.04527259;-0.014577;-0.017627597;-0.051755186;-0.027443126;-0.09838966;0.03239006;0.022974523;-0.0039981897;0.08061513;0.071544446;-0.04670016;-0.50794834;0.06351404;-0.035499703;-0.024195546;0.21350196;-0.055115607;-0.15561895;-0.083170466;0.028062942;-0.08418618;-0.081507094;-0.100514844;-0.0068343272;0.1726567;0.19435523;-0.08918081;-0.05072781;-0.04406226;0.103039235;-0.20563765;0.03078412;-0.122539125;0.017976774;-0.041705478;-0.05790342;-0.2447823;0.02183694;-0.0044301325;-0.18522067;1.2964896e-05;0.20438847;-0.1023816;-0.013393292;0.14535789;-0.015547455;0.007525302;0.3279414;0.20513156;-0.22708942;-0.0011050517;0.094127126;0.27202764;0.27352127;-0.04105222;0.1461459;0.028431991;-0.25572312;0.07303508;0.12631696;-0.043802828;0.053858902;-0.023072692;-0.015813105;-0.00096790487;0.0013244817;0.047837805;-0.05822287;-0.033164624;0.13863832;-0.043470863;-0.02831317;0.030069565;-0.016695734;-0.036171928;0.1289809;-0.17674004;-0.007692745;0.0011742577;0.07387684;-0.0616182;-0.009164306;-0.33485612;-0.048970826;0.07668531;-0.109121084;-0.16660313;0.22853997;0.25997704;0.025349475;-0.22500624;-0.007413594;0.19243775;0.020735664;0.15364844;0.031396456;-0.059569526;-0.015140335;-0.023287836;-0.020306082;0.14462326;0.00879375;0.031168291;-0.034740303;0.07176114;0.028030064;0.011991356;-0.0003092489;-0.09478783;-0.073461615;0.023325019;-0.15348801;0.3949044;0.011348221;0.028700192;-0.12941892;-0.048177578;0.10439082;0.018540535;-0.05247508;0.21571797;-0.08683865;0.029625857;0.033051934;-0.10649977;-0.07004503;-0.07782199;-0.036098573;0.032431737;0.026184049;0.041799735;0.14252181;0.07803125;-0.12376003;-0.022622803;0.0046532997;0.03797702;-0.2590378;0.0370562;0.01611077;-0.06028358;0.24331404;0.044089437;0.3894038;-0.0490414;-0.0725547;0.16344418;-0.037437227;-0.04390103;0.05377169;-0.32632172;0.105123;0.28178224;0.06863174;0.010076087;0.2140212;-0.06416618;0.14033428;-0.023114791;0.13114214;0.035575427;0.017416395;-0.0014676353;-0.0021166555;-0.027367836;0.09467949;-0.082171395;0.0045433594;-0.19713122;-0.0962811;-0.29054093;-0.19397941;0.042433947;-0.045579333;0.17063698;-0.24243195;-0.044528265;-0.14075495;-0.0021717295;0.009620748;0.051998083;-0.13438874;-0.10121486;-0.018183047;0.108640365;0.04800682;-0.11652445;0.10029059;0.074638575;-0.062227402;0.04591131;0.039591923;-0.051499598;0.01777488;0.31267267;-0.037897024;-0.1436363;0.10726524;0.014003416;0.13716123;-0.17581789;-0.023135925;0.14882618;0.16222876;0.004001234;0.08306884;-0.035734095;-0.025275737;0.16688627;0.03504877;-0.03302694;-0.04203787;-0.0036723912;-0.0032009475;-0.021961156;-0.04152595;-0.07673213;-0.018274775;0.026264157;0.20919418;0.27523082;-0.06693238;0.01158946;0.023206329;0.2501768;-0.11809898;0.04879503;0.01853343;-0.19637333;0.0807252;0.031452242;0.53934735;-0.027317718;-0.06896324;0.06564021;-0.057476386;0.08341757;0.035873953;0.0612477;0.039894607;0.022388956;0.010435375;0.02364089;-0.008149656;-0.22561236;0.43335;0.05239747;-0.043925345;-0.20854425;0.12246866;-0.00061321014;-0.12868352;0.028168462;0.13356179;0.0059589245;-0.059404973;-0.119552515;0.2666188;-0.0012773278;-0.006294373;-0.20299989;-0.054468192;0.057521567;0.1676345
-0.081131205;0.14381507;-0.37726375;-0.18152033;0.06645117;-0.031208415;0.08469129;0.0044664955;-0.18823345;0.010192585;0.37162215;-0.025734637;0.0060887826;-0.087043814;0.099171236;0.020464644;0.030516872;-0.23155622;0.029445717;-0.27693826;-0.11622455;0.34796363;-0.066318;0.019804955;-0.2933916;-0.2646704;-0.05061422;-0.08489564;0.020619778;0.042488974;0.056332603;-0.009887259;-0.004842499;0.055643223;0.0076552136;-0.27065247;0.22149348;0.08261572;0.14778566;0.0557724;-0.026691752;-0.02817903;0.10704043;-0.39773285;-0.3926366;-0.1524169;0.030529324;-0.026799718;-0.0122271795;-0.00569863;0.041459586;-0.02380225;-0.27802786;-0.1353139;-0.05793469;-0.04323786;-0.22719891;0.041046806;-0.22734688;-0.07416674;0.035170365;-0.3838136;-0.008746407;0.114539996;0.012141824;0.10412118;0.18096253;0.029168475;-0.06545774;-0.10581257;0.15435967;0.20639868;0.057636864;0.0043976954;0.28079596;0.15285233;-0.11655862;0.0844846;0.22241138;0.026517777;-0.010813936;-0.010574121;0.14522909;0.21555969;-0.033743724;-0.21344481;0.1398727;0.054278992;0.031030733;0.1384322;0.13449165;-0.22472043;-0.029660724;0.072101496;0.020747665;0.052284915;0.023833172;-0.00787142;-0.024193427;-0.08319101;-0.34507048;0.038050428;0.018487053;0.08867324;0.09275561;-0.017998751;-0.19298095;-0.046083406;-0.04914238;0.06390457;-0.15404035;0.06000015;0.0037453542;-0.1945641;0.029454766;-0.042507734;0.20557208;-0.1803114;-0.18069918;-0.08806899;0.2345218;-0.06472027;0.37840146;-0.1470826;-0.1749735;0.009205686;-0.07739584;-0.14705625;0.2212921;-0.046002634;-0.0009734253;-0.22745089;-0.006338043;-0.033530034;0.07273478;-0.042352773;-0.10626079;-0.06734569;0.20827697;-0.053810634;0.04064267;-0.016976839;-0.28001755;-0.008292103;0.29261592;-0.015893504;-0.031106265;0.104493126;0.0058507994;-0.0617377;-0.11325044;-0.17376073;0.043900497;0.04179674;0.15712212;0.28057605;-0.03666887;0.27460444;0.096823804;-0.02179229;-0.1765812;0.1628022;0.1296404;-0.055059858;0.006609575;-0.049088757;0.05919211;0.19714677;0.17737177;0.03561222;0.004131657;0.08246401;-0.0110518485;-0.09549349;-0.04353725;0.014357834;0.020615062;-0.13393658;-0.00029894718;0.085249074;0.014895172;-0.20061122;0.12711713;0.279395;0.00010083855;0.11202997;-0.04422819;-0.032746844;-0.32292974;0.1431069;-0.3130622;0.054126907;0.014863285;0.0764888;0.1461468;0.07739644;0.015120801;-0.16508858;-0.0473992;-0.43311188;-0.038846508;-0.024833702;-0.018664466;-0.02204864;-0.08011024;-0.35460606;-0.19408678;-0.34710738;0.3441759;0.020027954;0.21022734;0.13632993;0.017108677;-0.035185404;0.25987038;0.042945772;0.10366356;-0.21805742;-0.00257317;0.19611622;0.11400037;0.08110768;0.3818885;-0.22294487;0.02136327;0.38895383;-0.046047535;0.02175366;-0.005818161;-0.027738618;-0.009686289;0.28826347;-0.02793142;-0.04594405;-0.07040742;-0.08500166;-0.034719575;0.13687605;-0.01716925;0.08762965;-0.22393742;-0.19015647;-0.08729768;-0.03026226;0.034338266;0.041048586;-0.48174465;-0.038905367;0.097317606;0.017181939;0.11507494;-0.075650826;0.06944425;-0.14915207;0.06929798;0.013956288;-0.104444765;-0.010002896;0.09329234;-0.32694724;0.15579633;-0.19145273;-0.17084126;0.3351734;0.04932731;0.19559827;-0.021728247;-0.038425375;0.100271285;-0.04460405;-0.045750305;0.20979562;-0.1788419;0.011900818;-0.04416699;-0.20729604;-0.08788236;-0.039591897;0.28729865;-0.020288453;-0.19935904;0.09150904;0.19359127;-0.16754234;-0.04199135;0.29132286;-0.041899413;-0.16711825;-0.014477647;-0.03272177;-0.0076532974;0.309968;0.05392479;-0.1383639;-0.05031407;0.0665056;0.025861634;0.14984006;0.0012792948;-0.20451501;0.082399674;-0.023046378;0.009626328;-0.0015608928;-0.005098416;-0.31529772;-0.26272792;0.011731598;-0.14817768;-0.04574365;0.03267907;0.09361993;0.0660572;0.044105664;-0.13932182;-0.0071925647;0.17726682;-0.037582286;-0.02079633;-0.1692044;0.08132297;-0.0323278;0.073770516;-0.44610667;-0.053283866;0.10856074;-0.014296419;0.1840622;-0.13030037;-0.2865395;-0.1793836;0.02126732;-0.051728494;0.0024121588;-0.012881503;0.0043456103;0.008105284;0.36252925;-0.060729217;0.12674473;0.0038384926;0.14085092;-0.2642343;0.017536454;-0.011620427;-0.014663289;-0.048142053;0.024030853;-0.19925316;-0.075521074;0.011994841;-0.09497364;-0.041215833;0.26988316;-0.081237;-0.05898783;0.23013557;0.06758833;-0.06966317;0.48187104;0.14806435;-0.22142646;-0.031930447;-0.013655348;0.27166942;0.15776062;-0.076117255;0.1170957;-0.06835815;-0.22726883;0.10714373;0.22196406;-0.0010660148;0.01518557;0.019513298;0.048100583;-0.059636496;-0.035872694;-0.044494156;-7.351148e-05;0.01835672;0.16061263;0.075266846;-0.059801508;-0.014357108;-0.034841806;0.060519084;0.06686319;-0.27781415;0.07819042;-0.034149155;0.11873822;-0.0670086;-0.0209319;-0.27255604;-0.043268032;0.016394993;-0.13353957;-0.18714038;0.35866332;0.34707996;0.008838453;-0.16522542;-0.04227558;0.08025868;0.0489506;0.11918288;0.019573439;-0.056143705;-0.0739843;0.03473679;0.059276566;0.12844434;-0.041188568;0.09473107;0.06443876;-0.05814042;-0.04642801;-0.058591288;-0.013509486;-0.09317155;-0.06836826;-0.0074042776;-0.08395249;0.43346736;0.03642382;-0.051001344;-0.029001206;0.052855138;0.06899796;0.01923824;-0.111795;0.20905793;0.050502907;-0.06855608;-0.058943726;-0.20360626;-0.013995307;-0.028185254;-0.047561444;0.019198544;-0.015471528;-0.06334787;0.121549785;0.037346717;-0.15322828;0.04108444;0.10383735;-0.04755626;-0.27422088;0.09741881;-0.027719408;-0.13639571;0.17921042;-0.0013628098;0.4274127;0.02579471;0.045766085;0.21167563;0.013608269;-0.08614502;-0.014524568;-0.334472;0.20476562;0.33115876;0.11604927;0.077585995;0.28799468;-0.04574375;0.005970121;0.07359114;0.1549129;-0.0082693705;-0.060040724;0.065618955;-0.0018779128;0.013644329;0.055458523;-0.05778756;-0.04245653;-0.16292739;-0.021675931;-0.22682327;-0.37025717;0.07772952;0.04196492;0.36836794;-0.3249341;0.016656442;-0.10614906;-0.014889763;0.09024862;0.09408721;-0.2140507;-0.13988376;6.97236e-05;0.07030441;-0.007111013;0.05607291;0.16692112;0.11651234;0.04877766;0.014329793;0.044515394;0.17373252;-0.025222233;0.25705093;-0.047129996;-0.027788132;0.17719325;0.13271956;0.32785746;-0.104401425;-0.03474901;0.11800085;-0.013436116;-0.05503436;0.041372303;0.0086775245;-0.032985494;0.098209836;-0.07047026;-0.027683068;-0.14294066;-0.012490181;-0.07135883;0.048313256;0.0075011402;-0.109134346;-0.0002170747;0.055811673;0.15632837;0.20912465;0.05052685;-0.019222528;0.007719178;0.193044;-0.09329317;-0.04205775;-0.030887615;-0.16880907;0.16310129;0.004205918;0.462554;-0.01239188;0.046105303;0.0035065052;-0.024440559;0.15590943;0.079627365;0.17283896;-0.033661027;-0.02558376;-0.059969734;0.011840565;0.17021658;-0.22987762;0.5518019;-0.009343178;0.023615967;-0.20541655;0.12598772;-0.018122029;-0.09192348;-0.00289048;0.09515316;-0.07729216;-0.15934211;0.060203668;0.3028487;0.10640135;-0.05421797;-0.23632406;-0.14426033;-0.10170369;0.12997581
-0.14996487;0.18989648;-0.412693;-0.18101852;0.07961119;0.0059996797;0.02756607;-0.008180589;-0.29906705;0.0014982658;0.2954144;-0.15428647;-0.05945427;0.0897384;-0.018024025;0.059424445;0.014139093;-0.25161356;0.032502238;-0.19624707;-0.07029131;0.5003485;-0.057432946;0.025381623;-0.3709587;-0.17659718;-0.12406203;-0.029772073;-0.025796074;-0.031655837;0.06617785;-0.028519005;0.10581071;-0.026142988;0.00097558805;-0.3773297;0.3070144;0.19120006;0.18316117;0.0025743288;-0.040943664;0.0020555572;0.19290248;-0.4165932;-0.35360047;-0.09851855;0.039648164;-0.099194475;0.02098899;-0.08203054;0.06555943;0.026326085;-0.34851098;-0.083780676;0.012289098;0.03836065;-0.18711446;-0.031125218;-0.17642914;-0.122001246;0.0134863835;-0.40492105;-0.0278084;0.06463272;0.0049917577;-0.079491265;0.088469766;0.064309105;-0.018004838;-0.0062783957;0.11437377;0.15457751;0.22357453;-0.048980225;0.22563142;0.18415108;-0.21778545;0.0007459787;0.050776817;-0.0361538;0.01266782;0.039465133;0.24286842;0.28405535;-0.052320514;-0.17422003;0.02030647;0.014589288;-0.07651596;0.21105942;0.21287969;-0.1245443;-0.0035427846;0.0014923421;0.022926923;0.20106237;-0.04642795;-0.051164772;0.07039007;-0.104598455;-0.20382147;-0.054318056;0.057216965;0.029481508;-0.09715466;0.03817296;-0.049152922;-0.06811204;-0.047666892;0.04306545;-0.23233178;0.016504066;-0.2650292;-0.27555367;-0.03528928;-0.10118812;0.1479605;-0.09938726;-0.11474069;-0.012941477;0.32574943;0.05002361;0.42354944;-0.2737157;-0.19853063;0.012689464;-0.070453435;-0.0136716105;0.22689225;0.0054995916;-0.01769894;-0.29059696;0.03275079;-0.037874494;-0.014315332;0.04481666;-0.0496413;-0.09860355;0.1597876;-0.13374278;0.12580314;0.0013507396;-0.15244938;-0.13592985;0.3354273;-0.07575884;0.017057711;0.017668111;0.05972199;-0.10011926;-0.1839356;-0.13820842;0.029439919;-0.030373974;0.20555863;0.22142166;-0.03561914;0.3259439;0.0017009404;-0.058534168;-0.11524434;0.19839548;0.1170534;-0.04318575;-0.030945813;0.06469141;-0.04490335;0.1464379;-0.009697818;-0.05518942;-0.059165612;-0.014581257;-0.009920092;-0.048280284;0.055688735;0.0140408;0.08390448;-0.2877005;-0.08984199;0.10724022;0.06327139;-0.294621;0.33504745;0.39459473;0.0060861367;0.1873522;0.02628981;-0.19696647;-0.26662862;-0.013825396;-0.1457777;-0.025298923;0.025004786;0.06645968;0.19719712;0.08792141;-0.03984251;-0.23067613;0.14042467;-0.4787555;-0.017202118;0.08142364;-0.032803055;0.017172122;-0.035679214;-0.4033313;-0.073713966;-0.27044952;0.3848364;-0.019083854;0.18744348;0.15770306;-0.030980168;0.012272724;0.31536728;0.19004521;-0.027419345;-0.035329465;0.032047093;0.24274008;0.01096243;-0.031565264;0.3430642;-0.083644755;0.066130854;0.54508275;-0.049170777;0.01086907;-0.018179396;-0.069357105;-0.04693756;0.37455407;-0.048998196;-0.008097494;0.006701983;-0.11155926;-0.31129438;0.1748952;0.03897735;0.17420757;-0.25111505;-0.18676375;-0.1325884;0.14653109;-0.046268124;-0.049221702;-0.59291613;0.0039718114;0.0013199702;-0.005498392;0.09134319;-0.017772052;0.26551795;-0.11236894;-0.01972722;0.090116926;0.1489769;0.03625684;-0.0067209736;-0.3101893;0.010820678;-0.24999708;-0.129658;0.4450137;0.00069813826;0.2318388;0.016669093;0.037980255;-0.041724656;0.042228185;0.0355126;0.28029013;-0.020573523;0.14966847;0.0076095713;-0.23454101;-0.012544261;0.041489873;0.27563283;-0.05855871;-0.27700412;0.31145275;-0.082831584;-0.13871461;0.004668748;0.31786782;-0.0010874307;-0.07831793;-0.13786022;-0.023310553;-0.078939244;0.22762588;0.15193214;-0.19335634;0.031259567;-0.016567763;-0.1028219;0.0385297;0.16685258;-0.03037806;0.23852484;-0.032150347;-0.025824793;0.010727777;0.07844228;-0.12676653;-0.34981677;0.037519205;-0.08567513;-0.10990251;-0.059038732;0.17879343;0.022007374;0.006370239;-0.24560377;0.11817218;0.1394148;0.00069113245;-0.02674708;-0.21751995;0.09454719;-0.0096601145;-0.0001735142;-0.27804446;-0.0028207654;0.16033767;0.071126334;0.24656822;-0.07797433;-0.24036072;-0.051175214;0.010934134;-0.15933603;-0.030473866;-0.09057976;-0.010828333;0.024571817;0.34465376;-0.059107322;0.10165152;0.010797236;-0.0824404;-0.2995683;0.121402904;0.050160363;-0.037541118;-0.014864012;-0.052549653;-0.12825511;0.06481212;-0.015244797;-0.0948032;-0.045390844;0.18920308;-0.066913396;0.09418929;0.3074427;-0.01740282;-0.14614475;0.35241115;0.2954844;-0.3341406;0.013983398;-0.11888133;0.27771607;0.23490342;0.06583828;0.28391832;0.02199337;-0.23723182;-0.14742352;-0.013418988;-0.03260131;-0.03631819;-0.05125909;-0.012592247;0.05387307;0.021436889;0.022985812;0.04973077;-0.05704324;0.06975983;-0.013588828;-0.024736837;-0.009866367;0.0047818427;-0.09310304;0.042705223;-0.027078345;0.13882291;-0.22361091;0.25910252;-0.21357776;0.010557558;-0.16676761;-0.11176947;-0.07915589;-0.05583286;-0.26425576;0.30091912;0.33035335;-0.023749556;-0.21889049;0.05910303;0.110548005;0.11678954;0.2579728;-0.027785355;0.007067365;0.035780326;-0.04261652;-0.060704283;0.13786434;0.03019733;0.21978287;-0.14253524;-0.2033625;0.033985768;-0.028906947;-0.022475913;-0.12114193;0.1120942;-0.039490875;-0.23700874;0.4201731;-0.014911263;0.03788577;-0.108946584;0.14619744;-0.21729915;0.033539325;-0.119549625;0.06324021;-0.02781505;0.01678614;0.04646313;-0.13836382;-0.10811755;-0.066309445;0.0020992125;-0.019564087;-0.103065014;0.05861128;0.18175861;-0.048138004;-0.13545346;0.041497592;0.22918719;0.03205092;-0.18263702;0.047486115;0.028390892;0.034498204;0.018396977;-0.027952148;0.46717903;0.0011466437;0.0010296452;0.25136808;-0.009857404;0.042843666;0.02828613;-0.27295658;0.22919828;0.27795684;0.13192411;-0.06342481;0.28464466;0.025884543;0.026459757;-0.09166483;0.2500016;-0.023549912;0.013821659;-0.0027258801;-0.002581269;0.0144839;-0.14456852;-0.018302176;0.010464753;-0.37485707;0.025713116;-0.30042258;-0.39045942;-0.11367826;-0.034873422;0.3122822;-0.33533686;-0.008990841;0.0596189;-0.075135946;0.043319266;-0.08710428;-0.3147304;-0.100092575;-0.011972723;0.067796655;-0.030078137;0.10718147;-0.015243582;0.020303862;0.05763856;-0.04221545;-0.044695053;0.39743182;0.029662473;0.38842988;0.030840281;-0.061968114;0.05089264;0.20098926;0.2749204;-0.08373233;0.020104222;0.10477675;-0.10542736;0.010836379;0.05259581;-0.05229542;0.21662681;0.12959684;-0.010986823;-0.0062914332;-0.15278703;-0.02670932;-0.01283033;-0.05767586;0.056936268;-0.14059177;0.01646796;0.124807715;0.17140533;0.27816132;-0.0088578565;-0.0653532;0.05959923;0.044242695;-0.060547695;-0.008403673;-0.119253196;-0.3329384;0.12534654;-0.021380039;0.591942;0.015153274;-0.055372037;0.056239787;0.013652709;0.067134716;-0.034655686;0.10215614;0.03163425;0.04008996;-0.03197875;-0.056982487;0.05764212;-0.37594813;0.52989835;-0.01604848;-0.041361738;-0.17460981;0.06885876;-0.13927348;-0.027170207;-0.051448576;0.23034856;0.015834592;-0.06275378;0.038372055;0.19387627;0.046231624;0.050562944;-0.39511666;-0.18043226;-0.011145054;-0.14788032
-0.19182022;0.2251764;-0.4765809;0.16032685;0.16133678;-0.02317306;0.14893825;0.010439206;-0.29840672;-0.016881505;0.3471059;-0.16615352;0.032685585;0.14873429;0.17514023;0.029181477;-0.048291937;-0.40462267;-0.019615319;-0.18936595;-0.1402211;0.61643964;-0.06147948;-0.06702202;-0.4603097;-0.24444896;-0.07846134;-0.1346016;-0.0006325308;0.03382812;-0.056511704;0.022040408;0.17677541;0.0029996254;0.0026978508;-0.35903448;0.3602126;0.17073189;0.19492646;0.054274566;-0.11750628;0.030078147;0.15952958;-0.3850858;-0.45356765;0.019944653;-0.012506141;0.0048652207;-0.01372164;-0.19120198;0.13793287;-0.0064700665;-0.34265783;-0.030471103;0.017490173;-0.0048969937;-0.08410572;0.011382836;-0.28665653;-0.19240649;-0.0053123813;-0.354207;0.042969912;0.257474;-0.0515044;-0.012290986;0.11303054;0.18197094;0.03494449;-0.016297258;0.16154827;-0.0034764553;0.13233279;-0.047623537;0.3205893;0.23360625;-0.12658738;0.12967297;-0.05754991;-0.01482806;-0.029371856;-0.011316207;0.3106438;0.08416755;0.096528605;-0.15561762;0.018426895;-0.02144759;0.06825971;0.23016563;0.42125154;-0.2127038;-0.008859477;0.016195592;0.0026776646;0.3651864;0.022976901;0.037781883;0.06562329;-0.029423174;-0.28720275;-0.012617874;-0.027936324;-0.05364517;-0.14003238;-0.00984735;-0.16156988;0.04820048;0.046588294;-0.037484463;-0.05601993;0.051780872;-0.38027346;-0.10866024;0.022322673;-0.08450963;0.020760132;-0.075199135;-0.27045628;0.082244895;0.13301617;-0.01217881;0.34762836;-0.2988547;-0.18261999;-0.047692053;-0.11519794;-0.086582266;-0.01563735;0.00050720165;-0.15135156;-0.40185785;-0.03783661;0.05534426;-0.052174687;-0.02376423;-0.22387029;-0.016737763;0.12706394;-0.25864303;0.16518572;-0.009448037;-0.092847936;-0.26881784;0.15874986;0.06370206;0.018176638;0.024153596;-0.030275332;0.07076876;-0.37310663;-0.24336815;-0.05701341;-0.030024795;0.48383838;0.11128411;0.04861736;0.33153075;0.049221255;-0.21020932;-0.07974742;0.37214535;0.16798304;-0.009935258;-0.18151197;-0.03450148;-0.013945804;0.013526386;0.0043741884;0.0040221773;0.053531058;0.10777446;0.0005344075;0.06952744;-0.032903437;-0.023818955;0.073862426;-0.36003482;-0.37674358;-0.014778695;0.11847663;-0.39901325;0.30366692;0.38516936;-0.029482223;0.19445783;0.019763036;-0.16518824;-0.2766319;-0.07288359;-0.033629194;-0.03628142;-0.18062213;-0.017303606;0.14407375;0.16609463;0.021371985;-0.36815104;0.18118826;-0.6539433;0.01906887;-0.046164747;-0.012874544;-0.0009332696;-0.0087533835;-0.37237212;0.08247711;-0.18595885;0.40668038;-0.001913289;0.11893296;0.12154027;0.0023285612;0.001914012;0.22622699;0.21979666;-0.2511583;-0.014343991;0.017462434;0.2213985;-0.008189727;0.12330336;0.35447976;0.0089375675;-0.05422163;0.64455336;-0.053430773;-0.0066549;-0.010867187;0.027920976;0.011449994;0.35922092;0.047253046;0.04551455;0.08070184;-0.26843518;-0.29565093;0.2090852;-0.052614007;0.008849831;-0.06571964;-0.065479785;-0.089504376;0.1795562;0.019260947;0.13370392;-0.6285212;0.05134954;-0.10233947;-0.0059963563;0.038079835;0.03862186;0.30953023;-0.14905167;-0.03535858;0.09995935;0.25013226;-0.032251623;-0.12670748;-0.23530024;0.12530519;-0.22371013;-0.02028541;0.5357479;-0.049906865;0.2480565;0.00078929996;-0.060121473;-0.09705168;-0.002785744;-0.014821947;0.24745744;0.053787272;0.15060875;0.030856004;-0.23369867;-0.03309767;-0.009501003;0.24181612;0.043945666;-0.44711033;0.22381349;-0.074053384;-0.15250297;0.025526423;0.15165207;0.05207036;-0.06950555;-0.21007665;0.029949646;0.021096049;0.2889075;0.10149052;-0.10997322;0.009625861;-0.1319032;-0.12247974;0.12395585;0.11144286;-0.05110194;0.23437947;0.018505912;0.05419563;-0.021249281;0.22944267;-0.13403532;-0.36546993;-0.039104324;-0.14966732;-0.12149632;-0.15277234;0.07696681;-0.045775596;0.08167133;-0.19338053;0.21246795;0.03679698;-0.006916771;0.008697175;-0.16754684;0.2063265;0.003554162;-0.01660507;-0.33466557;0.01975691;0.2248545;-0.022828398;0.1966176;-0.21596974;-0.08645109;-0.3056142;-0.047677927;0.0057751103;0.005579084;-0.07840301;-0.007956068;0.010888236;0.34382167;-0.00011410575;0.056354538;0.0022631001;0.09164887;-0.17085251;-0.0127929235;-0.04345362;0.024570843;0.0464828;0.05301337;-0.19906063;-0.09042882;-0.063805506;-0.20314685;0.01913499;0.0851102;-0.016914234;0.20125175;0.15291245;-0.023480328;-0.09161275;0.32903102;0.38772672;-0.28636238;0.015726821;-0.052569196;0.23342782;0.08614925;0.02116555;0.2055346;0.050721;-0.32779622;-0.13693412;0.048099037;0.038528476;0.0127788875;0.014670166;-0.020340038;0.01172417;-0.0073003476;0.076176725;0.017201249;0.032065623;0.10389812;-0.006999685;-0.06451392;0.0083752945;0.019580806;0.020792643;0.23931828;0.2227381;0.07985458;-0.28654224;0.31083435;-0.13886489;-0.00054891343;-0.20459236;-0.11523774;0.040859822;-0.044489667;-0.28719234;0.34079176;0.2792702;-8.126517e-05;-0.3820652;-0.02640349;0.028640084;0.10643131;0.16833146;-0.022784853;-0.021877598;0.0055172187;0.029193703;0.030225687;0.08526188;0.004084522;0.23694372;-0.23593651;-0.06036977;-0.025248721;0.22026221;0.06422504;-0.08015236;0.10586994;0.19733998;-0.2816883;0.4885519;0.011293029;-0.024061186;-0.19035973;0.19111976;-0.17110005;0.08248389;-0.18610922;0.13906495;0.022198133;0.010883992;-0.008384826;-0.13745785;-0.049838997;-0.15461418;0.045643646;-0.0117233535;-0.1729438;-0.028408257;0.11362452;0.02248816;-0.23175251;-0.06691923;0.2237495;-0.008478395;-0.41363266;0.13340707;-0.008526745;-0.08453537;-0.04059769;0.019095931;0.5419756;0.015111841;-0.07158806;0.27090615;0.01110495;0.024754079;-0.043580774;-0.13759567;0.08363186;0.2862341;0.046748847;-0.0056498903;0.37708136;0.23850472;-0.09685934;-0.18531805;0.31359;-0.0032682659;-0.11786324;-0.0017446503;-0.012781131;-0.019941632;-0.2809765;-0.14953612;0.03844679;-0.31065765;0.087088;-0.21604364;-0.44391137;-0.09514901;0.034984402;0.53322256;-0.44263923;-0.0015015943;0.10357399;0.08097;0.2250081;-0.13481025;-0.56704134;-0.16744062;0.025278892;0.16112223;0.027076252;0.18424292;0.06440552;-0.06351322;-0.07043996;-0.006310065;-0.009623652;0.33683145;-0.007937013;0.20758486;0.0102111725;-0.0581995;0.034299046;0.19173622;0.34656844;-0.17695852;-0.13417569;0.18945152;-0.3280694;0.04116763;0.020278499;0.06286241;0.14699589;0.06615784;0.031061787;0.04419379;-0.12161304;0.026983919;-0.15739791;0.018412512;-0.05085727;-0.16570306;-0.010611672;0.08971685;0.061582256;0.2373768;-0.020043617;-0.07068501;0.00092676043;-0.08927062;-0.29914558;0.027397756;-0.27079856;-0.31923407;0.0087557845;0.0026889895;0.4593286;0.019212147;0.044860564;0.23601575;0.022087319;0.12813276;-0.031351253;-0.0029638377;-0.010710007;-0.026173687;-0.098166056;0.017862348;0.12731072;-0.2845562;0.60722905;-0.006911685;0.04942265;-0.19311461;0.029086186;-0.20598936;0.08053124;0.04886964;0.28455332;0.0062450473;-0.23226243;0.23421408;0.22794275;0.118991844;0.011720476;-0.21358788;-0.21708846;-0.011253856;-0.13398416
0.48984924;-0.06891207;-0.354777;0.37037387;-0.034652766;-0.007036955;-0.31853062;-0.028039558;0.30869707;0.012133453;0.4807106;0.09772843;-0.0030074995;0.24720806;0.05944171;0.1955842;-0.009876031;0.2721633;0.00962297;-0.033139143;-0.08452786;0.43887815;-0.0050979354;-0.11150953;-0.08812762;0.30445775;0.12684757;-0.12944022;-0.004158069;-0.0040543047;0.043380495;0.09379826;0.6549167;0.015130426;0.00797057;-0.0003423638;0.21929103;-0.04229695;-0.18587556;0.42499036;-0.21420386;-0.0076163197;0.06045553;0.03215936;0.45024776;0.13661963;-0.0015476532;0.030826826;0.0012900167;0.03558659;0.1463983;-0.0017668272;-0.5388984;-0.11846218;-0.014601322;-0.0016460537;0.040865116;-0.010567514;-0.21611463;0.21099891;0.061717145;-0.2298961;-0.011359495;-0.17503127;0.07659999;-0.11602874;0.07879615;0.12279486;-0.0021469065;0.06233753;-0.868849;-0.23073624;0.5166895;0.20499972;-0.30258822;-0.3626415;-0.5353077;-0.25804222;0.2717953;-0.008071861;-0.0005868069;-0.00047568363;-0.2512402;-0.5051636;-0.00842299;-0.26607406;-0.25053233;-0.005828053;0.0034991445;0.13201891;0.2764046;-0.04116704;0.0017840444;0.018509287;-0.010375433;0.36230388;-0.0037591008;0.04236989;-0.42988458;0.15609315;-0.08958874;0.013298934;0.006330982;0.21445327;0.18730529;0.0031203895;-0.4514698;0.0047460957;-0.017617641;-0.0043314984;-0.051751256;0.021000907;0.033267584;0.24486096;0.002240855;0.2150193;0.03325248;-0.1928815;0.32494357;-0.0065510827;-0.3061469;-0.0041311765;0.15490523;-0.0032079262;-0.62605155;0.06416575;-0.10480488;-0.4792266;-0.4996416;0.0033907124;-0.00812262;-0.2703548;-0.004399763;-0.07402078;-0.012022503;-0.05083126;-0.15581241;-0.49932072;-0.25418457;0.35388678;0.27440584;-0.013898399;0.14183937;0.110373415;-0.4044324;0.0007958422;0.0089738555;-0.26989773;0.016487464;-0.26881754;-0.46308458;-0.43121788;-0.045153663;-0.005176883;0.44189164;-0.49865448;-0.01279271;-0.15945794;0.112675235;-0.0069615887;-0.20813787;-0.008862495;-0.1305996;0.07258245;-0.18892898;-0.010108232;0.024781007;-0.38380608;0.08330737;0.0031391364;0.02141222;-0.24297665;0.006862138;-0.018925095;0.0068437443;0.5267066;0.24699545;0.02167244;-0.11839231;0.0025376221;-0.6127953;0.09341461;-0.25584775;0.44252297;0.0007404507;0.42287213;-0.0020581598;-0.33136657;-0.19998734;-0.49634165;-0.13945611;0.26404813;0.15051906;-0.0042776815;0.41337278;0.28997222;-0.005808851;0.223344;0.67139095;0.10222274;0.09841309;-0.008494595;-0.00649571;0.0054419027;-0.13767746;0.22624525;-0.16792002;0.08823558;-0.19601896;-0.0033389318;-0.0025487808;0.29323846;-0.00020959691;-0.0045685368;0.38916332;0.22284989;-0.35617575;-0.27584916;0.19763954;-0.13680945;0.13801226;-0.025737017;-0.075537995;0.32318866;0.010289011;0.10979281;0.29413038;0.0048115468;0.012708478;0.31109944;0.07157339;-0.56854814;-0.0055333693;-0.017381199;-0.870019;-0.59800595;0.29559585;0.005112679;-0.017533176;-0.05342117;0.2257993;-0.009949882;0.48299316;0.18792641;-0.018341448;0.040097702;-0.070673704;-0.07459487;-0.25532937;0.006353997;0.09286066;0.0017915278;0.29396376;-0.43045074;0.009667953;0.009376774;0.010664837;0.00271532;-0.13174845;-0.3170983;-0.5355069;0.23847324;-0.19444643;0.5404931;0.012884531;-0.054910816;-0.0020802657;-0.010102664;0.046323862;0.0051553887;0.015067949;-0.093831405;0.1030219;0.39339107;-0.010251176;-0.38908634;0.18378638;-0.008202377;0.1488059;0.014959728;-0.06803765;0.108750686;-0.08940087;0.24788754;1.6047172e-05;0.43260953;0.008338203;-0.32127967;0.07825707;-0.0047580176;-0.26524648;-0.18243332;-0.06579538;-0.41934285;-0.0072439373;-0.08270646;-0.031486552;-0.0053839637;0.03912715;-0.021379855;-0.02914331;0.02369216;-0.012025673;-0.0026733726;0.058916397;0.1627176;0.08256582;-0.01796907;0.02602833;0.036817253;0.11560744;0.36738193;-0.011805953;-0.34877905;0.15858988;-0.23543899;-0.066824846;0.010230378;0.0017560187;-0.026069948;-0.14338498;-0.0007916982;-0.36663324;0.091042615;-0.00070686184;-0.2034775;0.005443423;-0.22282216;0.113409705;-0.057962593;-0.3383898;-0.004355776;0.38281965;0.044486895;0.22641325;0.0056091184;0.094394736;0.03568437;0.23052897;0.32096085;0.0045106355;-0.061253235;-0.12953371;-0.14302176;0.09745574;-0.002995793;-0.009022084;-0.0062281857;0.17503838;-0.28367192;0.15042979;-0.3765875;-0.020603703;-0.5822172;-0.4150519;-0.14884065;-0.085565306;-0.0034095224;0.19211309;-0.015604401;-0.021269586;-0.14965792;-0.0021783567;-0.35411972;-0.009025055;0.16592903;0.009190591;-0.55060774;-0.34142342;-0.03614252;-0.46929222;0.15427916;-0.008788264;-0.0119060455;-0.008833272;-0.0033499515;-0.016999846;-0.008191489;0.028778344;0.02848048;-0.00096811634;0.20938736;-0.0071635977;-0.29198882;0.0013904267;0.021663789;-0.16099249;-0.06235922;0.5274742;0.5567986;0.26797783;-0.6068755;0.11316904;-0.010021649;-0.17934442;0.11396991;-0.005684697;0.07834916;0.26251096;-0.04946868;-0.026837336;-0.007056128;0.17355879;-0.004302189;0.189328;0.05867525;-0.109947726;-0.056864444;-0.39478657;-0.0038540487;0.0063865026;0.009527387;0.040902;-0.006705172;-0.53347963;0.38085586;0.075250044;-0.011512194;-0.37607336;-0.008625186;-0.13338013;-0.2771433;0.35414883;-0.24350955;0.101467475;0.005254069;-0.0061636628;-0.44366738;0.30540675;-0.5027302;0.34515652;-0.65093416;-0.1846299;-0.00042314932;-0.004479919;-0.2565545;0.13893071;0.1516407;-0.40703282;0.006859906;0.02240512;-0.40143776;-0.004061223;0.067577764;-0.7680996;-0.019417183;0.011489187;-0.25245008;0.005996589;0.10772199;-0.47230643;0.0042441944;-0.33675584;0.27395204;-0.004919941;0.008208255;6.358352e-05;-0.45731482;-0.21573801;-0.005458675;0.012808101;0.009745988;-0.28414962;0.102709174;-0.2354049;0.034033433;0.0019927162;0.2733392;0.11709186;0.18654825;-0.045075696;0.3292576;0.002477373;0.12427797;-0.14790103;-0.011609419;0.011344811;-0.5201504;0.20348975;0.011271812;0.012030204;-0.094201185;0.14890593;0.30558175;0.468746;-0.009829255;0.40236315;0.14420852;0.0047113495;0.27229157;-0.045824077;0.3244891;-0.42213497;-0.1239806;0.021525236;-0.011799577;-0.0107140485;0.007588829;-0.49149594;0.07069456;0.40138125;-0.0076541477;-0.01044488;-0.004930618;-0.5239364;-0.007167508;0.21880472;0.010111823;0.036260765;0.15423824;-0.49234593;-0.073385715;0.16371083;-0.097064145;0.13048793;-0.2934594;0.0060459846;-0.2677653;0.0041496814;0.36345336;0.008434575;0.00807404;-0.0041789883;0.5506865;-0.0075091887;-0.2548693;0.014150152;0.0010894461;0.043651048;0.008649075;0.20460801;-0.019075356;-0.2842284;-0.0036524471;-0.020107437;0.008863526;0.22709872;-0.17733507;-0.012455193;-0.036123294;0.37804934;-0.1473751;-0.0025526853;-0.20564827;0.012744202;-0.0018517938;0.09773077;0.013511771;-0.03959211;0.0024212066;-0.40927577;0.0055502555;0.00013826399;0.24533065;-0.008229243;-0.056669857;0.22949253;-0.44220215;0.003724082;0.020041939;0.44369468;0.007883272;0.34554377;0.2361183;-0.004056029;0.15131573;0.009365684;0.04030233;0.3432272;0.11126276;0.19455372;0.0004026619;-0.03348593;0.017063934;0.0032754731;-0.1544428
-0.21801482;-0.25390822;-0.42660633;0.30887732;0.040637992;0.016940461;-0.20913175;0.029750373;0.25545433;-0.016368872;0.4989115;-0.0405674;0.004318583;0.2199751;0.25477213;0.22543408;-0.005296292;0.20404054;0.0034149624;0.031205323;-0.05942941;0.16771565;0.0638733;-0.05401918;0.1139013;0.13979878;0.13588774;-0.09507311;-0.019626286;0.009701256;0.08594564;0.32275277;0.40957692;-0.009321816;-0.014029007;0.12795009;-0.06858995;0.021263955;-0.028704382;0.07996066;0.008720816;0.011107772;-0.070067115;0.041660957;0.1268602;0.163903;0.0052808444;-0.03295573;-0.0028672786;0.028199283;0.1325216;0.011472231;-0.33863187;-0.32051805;0.012529817;0.0007577118;-0.21269684;0.009806159;-0.49768096;0.26971477;0.004610328;-0.10953846;-0.005020888;-0.20921105;0.061699595;0.17709818;0.07259843;0.029279018;0.003231155;-0.21052566;-0.26903677;-0.10326298;0.2862736;-0.0901702;-0.22925603;-0.5082333;-0.4132808;-0.16032405;0.40218392;0.005033213;0.0057502445;0.002342437;-0.16232412;-0.45444518;0.018814098;-0.19596061;-0.14510196;0.01917088;-0.0052229175;0.13255428;0.05754096;0.030095207;-0.027682377;0.012995274;0.0032842604;0.20426784;0.014183603;-0.016298624;0.018824784;0.21026061;-0.2260617;-0.013965351;-0.010751824;0.22286643;0.103029065;0.009535947;-0.14623798;-0.009863378;0.011387339;0.0075133713;-0.31695187;0.12588121;0.027770488;-0.25279543;-0.00031885318;0.14776108;-0.11987375;-0.14677274;0.33020815;0.17566355;-0.4105342;0.013161687;-0.027444145;0.36964992;-0.2786693;-0.10788768;0.08075967;-0.20401502;-0.27224734;-0.0006458819;-0.23433773;-0.2575477;-0.008141409;0.024969064;0.02020707;0.010685577;-0.24381794;0.07481961;-0.05035042;-0.061038926;0.20148934;0.0060854396;-0.18910368;0.09951657;-0.37761027;0.006389592;-0.006059095;-0.09069812;-0.020624578;-0.091192804;-0.14791267;-0.35450292;0.07360209;0.0054791616;0.46971133;-0.5220186;0.017019995;-0.21200481;-0.04240807;-0.18098831;-0.42590925;0.10167594;-0.13894387;0.011412355;-0.3717286;0.010759218;-0.014080318;-0.50023055;0.074375704;-0.0155567;-0.017082235;-0.23293528;-0.0065046703;0.018799914;-0.008274784;0.17679545;0.41592917;-0.1143664;0.06064415;-0.17345484;-0.4327772;-0.15120359;-0.23730393;0.42399397;-0.007868731;-0.043277156;0.011133872;-0.19916573;-0.2711857;-0.40793422;-0.26928705;0.10142092;0.1945766;0.05448583;0.31396186;0.24111034;-0.01832478;0.23813777;0.32127085;0.045964386;0.30790842;-0.00086953817;0.019438569;-0.006952588;-0.23705435;0.14234589;0.15891583;0.0021890136;0.03458476;0.009704055;0.17274359;0.015019246;0.001400319;0.0056341477;0.10356043;0.16765109;-0.6602439;0.028771704;0.13194327;0.010130755;0.19907467;-0.06518082;0.045257863;0.19683023;-0.015692938;0.012454487;0.13741587;0.013565924;-0.02138697;-0.09404229;0.017924411;-0.47007972;0.020867668;0.020308373;-0.6361317;-0.65596163;0.32954833;0.06859093;0.035499465;-0.16202334;0.32838398;0.1222865;0.26350284;0.0014338576;0.007933113;0.15856646;0.1690526;-0.45601454;-0.16002828;-0.007887041;-0.25112128;-0.017966285;0.26916525;-0.32967997;-0.021567779;-0.036111843;0.0139473155;-0.00656264;-0.088754594;0.020012356;-0.49300194;0.17431381;-0.24616365;0.22976969;-0.0074222493;-0.006022033;0.004072896;-0.015355375;0.09373672;-0.017853478;-0.013834915;-0.2375729;0.075215995;0.17228968;0.01020542;-0.190671;0.41782248;-0.003688457;0.23034814;-0.0152839795;-0.10137557;-0.12521449;0.04850675;-0.04129827;-0.011769033;0.26586702;-0.012528567;-0.05460705;-0.022201853;-0.0012804266;-0.22980617;-0.20983787;-0.12948374;-0.29586768;0.010033136;0.20672108;-0.043193005;-0.26024166;-0.18412721;-0.039445378;0.052248664;-0.029680308;0.010968863;-0.010148624;0.100605026;0.18793201;-0.12550664;0.006400049;-0.20797864;-0.035590783;-0.16407222;0.2012673;0.011829494;-0.23156968;-0.19486384;-0.40168583;-0.20137273;-0.011684621;0.008009768;-0.07663381;-0.13810343;0.0037704976;-0.28816724;0.11263422;0.008760625;-0.12041978;0.0035993122;-0.06195798;0.1274217;0.15504351;-0.15304123;0.010744645;0.38194257;0.010413985;0.17760044;-0.006860224;-0.10593867;0.097463526;0.31827626;0.12604648;-0.0027036348;0.1158693;-0.1987907;-0.02335488;0.15641576;0.012459164;0.0018860988;0.008085915;0.10412221;-0.23391634;0.2964183;-0.3739512;-0.06255307;-0.19247237;0.009618592;-0.09231944;0.04383573;-0.0034864384;-0.03629276;0.20861648;-0.1512405;0.058321808;-0.011277664;-0.267227;0.0395238;-0.028668245;-0.0057305205;0.19417895;-0.0882483;-0.14459673;-0.123860724;0.12861224;0.018725535;0.0133789545;0.010362046;-6.6050896e-05;0.022648763;-0.0019539606;0.034410376;-0.03234806;0.00716226;0.13407136;0.0012802439;-0.073765226;-0.012366807;-0.010905663;-0.416852;-0.043325223;0.250795;0.26590276;-0.12663214;-0.40401685;0.0062281094;0.008395601;-0.23057581;-0.004563559;0.011668592;0.12107285;0.078378566;0.02671466;-0.3439984;-0.0045777294;0.039685454;0.006622175;0.2553053;0.1343717;0.018135056;-0.0028803372;-0.4577711;0.023627907;-0.0194911;-0.012546835;0.21936472;0.008934444;-0.1522053;-0.059950873;0.043017816;0.015644459;-0.1544733;0.021749532;-0.41503465;-0.45963714;0.07604047;-0.13769202;-0.249804;0.0058801915;-0.0041610515;-0.25593632;-0.004470038;-0.42825338;0.13038439;-0.487837;-0.26821294;0.0032237729;0.003848206;-0.33359388;0.1594636;-0.034006733;-0.39524198;-0.004417707;-0.014236521;-0.60383993;-0.0038643926;0.19550855;-0.47538507;-0.03242978;-0.02770922;0.20880969;-0.004704194;-0.0317027;-0.44834113;-0.0032912872;-0.11593547;0.08917947;0.003488158;-0.24107464;0.002569733;-0.4059192;-0.065878384;0.0001963521;0.0021726873;-0.010576253;-0.02035295;0.09743732;-0.041106403;0.1624213;0.0027568159;0.17096327;-0.17649509;0.012743674;0.08672288;0.38618144;0.0013456304;0.02391698;-0.2440042;0.008265702;0.0052303774;-0.24407394;0.15313852;-0.0055454457;-0.19742516;-0.24748877;0.123585746;0.25663543;0.3406509;0.014897712;0.22829911;0.25515813;-0.010126464;0.06053392;-0.0007892906;-0.0029375853;-0.24508323;-0.26277015;-0.19181171;0.009848459;-0.064971864;-0.022356868;-0.070070826;0.12655465;0.2806281;0.012320485;0.017449746;0.0057897344;-0.49340668;0.0038717296;0.05725214;-0.027913766;0.1386754;0.1005977;0.063451365;-0.011372261;0.20074564;-0.025929784;0.0035036318;-0.37383932;-0.010094586;-0.26456684;-0.0030053912;0.20128378;0.03021912;-0.002920248;0.009557653;0.15711784;0.0016729522;-0.17591307;-0.0063895253;-0.017198972;0.09263872;-0.03063828;0.1474209;0.15921031;-0.23413701;0.013497813;-0.15731642;0.046743806;0.1460349;-0.27403852;0.015692353;0.0396072;-0.15814358;-0.08396865;0.0034646613;-0.22141178;-0.0028985697;0.0048819915;0.028236162;-0.0049748714;-0.27033007;0.0038857393;-0.40243784;-0.00019225205;0.012778621;0.34998316;0.0124020735;-0.24058172;0.3331481;-0.13924901;-0.0025617485;-0.023411086;0.36749652;-0.09887599;0.048131734;0.09406473;-0.0074584777;-0.044748064;0.003459543;-0.11797106;0.35936105;0.201744;-0.027325125;0.0057347124;-0.07184885;-0.19583958;-0.11500426;-0.20734161
-0.04307771;-0.010092514;-0.2793562;0.2484759;0.18530175;-0.033409297;-0.2994004;-0.009641526;0.30386266;-0.00019108134;0.26612955;0.050757576;0.009338846;0.17557858;0.26997286;0.1576173;0.011427601;-0.2915301;-0.00812426;-0.081894346;-0.017616307;0.12795095;-0.011337944;-0.012795857;-0.05550933;0.2205334;-0.063867606;-0.24911079;0.01490841;0.007129286;-0.0092049185;0.29113427;0.46824953;-0.010654523;0.020144036;0.2939752;-0.1173979;-0.092845485;-0.03638458;0.0049497094;0.13505763;-0.002318846;0.054746136;0.03485065;0.059138864;-0.046246562;-0.007972614;-0.1049813;0.00667753;0.089668326;0.15700324;-0.021721072;-0.060012143;-0.037929792;0.010858371;0.013135502;-0.24013816;-0.0030548035;-0.4345692;-0.07619568;0.0030674422;-0.225421;0.016712075;-0.0896573;-0.2608259;-0.1352291;0.26893598;-0.0707836;-0.007494334;-0.15341628;-0.03878578;-0.09986201;0.29069892;-0.2152491;-0.21654682;-0.2431482;-0.39114192;-0.0020080456;0.003931186;-0.0017681428;-0.01121574;-0.00083121366;-0.13542056;-0.30800572;-0.0320064;-0.17635183;-0.060504142;-0.013525217;-0.014418073;0.04732153;-0.026022905;0.1255445;0.028964445;0.02139531;0.0034530025;0.08342668;-0.020195518;0.026882764;0.16058;0.24920858;-0.25963092;0.009218508;0.005369404;0.21928538;0.11924979;-0.013670988;0.14472696;0.015505645;-0.007062891;-0.02030651;-0.44333103;0.24225844;0.07227007;-0.3619197;0.010715524;0.15613894;0.06861244;-0.02127043;0.15715949;0.1991077;-0.14437175;-0.001329726;-0.11934179;0.35461935;-0.037389323;-0.14016335;0.07031373;0.0075482326;-0.2577637;0.0037829883;-0.44011813;-0.09009866;0.0011646813;0.010505278;-0.00014819668;0.0512216;-0.2542644;0.057973918;0.051707815;0.058917753;0.012240252;0.0061112912;-0.054286186;-0.30903435;-0.48462668;-0.0088077085;-0.014827174;0.075862944;-0.0045679496;-0.21435606;-0.13983299;-0.17180511;-0.034451757;0.0042860284;0.23649143;-0.07189282;-0.0044651516;-0.014627427;-0.0675766;0.091581844;-0.50094366;0.16886735;-0.25871655;0.04554479;-0.30377808;-0.0021704289;0.0060637165;-0.1161183;0.13671416;0.0061135744;-0.0050989385;-0.063458264;-0.012699387;-0.017736288;0.0057396493;0.2304112;0.30445808;0.024900626;-0.011092163;-0.10997576;-0.23398606;-0.065668635;-0.06795589;0.028260503;0.00457622;-0.2134059;-0.0047415188;-0.2910921;-0.18353432;-0.22084484;-0.074584626;0.06929865;0.18563356;-0.130823;0.038146935;-0.03950163;0.015562877;0.3424943;-0.06352715;-0.124413446;0.08296982;0.012732613;-0.015613305;0.010890241;-0.07687674;0.24868198;0.035189383;0.0645893;-0.008974234;-0.01754217;0.03846472;0.07444324;0.0047169975;0.0041597052;0.08572336;0.15496296;-0.5186604;0.022178506;-0.00914182;0.034040127;0.22314413;-0.0141776195;-0.13103047;-0.0030320764;0.00027981948;0.12019106;0.2090988;-0.021250408;0.023486089;0.0063108597;-0.012401359;-0.35606784;-0.0056296904;-0.018522272;-0.44045532;-0.41367882;0.18985197;0.012788556;-0.024487913;-0.06797897;0.4383377;-0.0069512418;0.09314394;-0.008553102;0.0011077576;-0.019488126;0.33276045;-0.41226968;-0.12470234;-4.497595e-05;-0.47248825;0.023385659;0.3560567;-0.18725114;0.016027216;0.04554744;-0.046252396;0.007114026;0.008764864;0.06550951;-0.50263196;0.11776768;-0.28358412;-0.009187043;-0.0072668954;0.36643717;-0.0020668649;-0.013970983;0.09691203;0.009580203;0.014151183;-0.012084549;0.09596767;0.1122522;0.008987822;-0.29240325;0.20997268;0.0031021389;0.2257246;0.012609036;-0.23100115;-0.13416006;-0.009806366;-0.1795893;0.011122252;0.09102908;0.005315679;-0.08770217;-0.15388933;0.014018028;-0.16213155;-0.18284002;-0.16304576;-0.40541413;-0.010199517;0.32605442;0.03457996;-0.27267873;-0.21594499;-0.114879034;0.0052149356;0.019845527;-0.015727818;0.005865099;-0.17451215;0.42038956;0.3463182;0.01393568;0.102236226;0.12776552;0.11731138;0.1307458;-0.0063908985;-0.18813622;-0.2921495;-0.6184252;-0.10409554;0.0036465565;-0.011755373;0.19031708;-0.18508823;-0.01979846;-0.1789494;-0.15415315;-0.0109144915;0.087109014;0.0028420861;-0.098108284;0.022507075;0.13794729;0.14057139;-0.0061462624;0.35885212;0.31385797;0.22400616;4.8442063e-05;-0.034414925;-0.17139533;0.06737355;0.012701291;0.009301311;0.060858306;0.06635036;0.0857046;-0.02715406;-0.014200846;0.014532363;-0.0076469732;0.10044008;-0.020973755;-0.00813773;-0.4271844;-0.07750965;-0.124890625;0.0083196;-0.019581532;0.15074083;0.012450469;-0.08639803;0.35046682;-0.28720507;0.028063025;-0.00052008353;-0.28300044;-0.053871535;-0.17170931;0.01042811;0.2479575;0.024542315;-0.007993066;0.031788018;-0.06962136;-0.0016562527;-0.0015339387;-0.018041678;0.0063116252;0.0028252513;0.0022722061;-0.010220869;-0.007501342;-0.0036733346;-0.13201286;-0.0018227956;0.029331785;0.010006581;-0.022811849;-0.43525195;-0.07161789;0.008803056;0.35760581;-0.19554031;-0.20987062;-0.21289;-0.00044000652;-0.029368518;0.047025513;-0.014022232;0.08901896;-0.11130501;-0.02998913;-0.14539003;0.017074775;0.070708744;0.00056801783;0.09107068;0.18482915;0.085770935;-0.017018437;-0.25068867;-0.014368466;0.025021316;0.0022750036;0.03656733;-0.0017055069;-0.2059135;0.14031684;-0.09461204;-0.015625613;0.071115196;-0.021790553;-0.60398614;-0.21543625;0.03338693;-0.11437764;-0.17418945;-0.017018842;-0.00470308;-0.108374394;-0.006507784;-0.17470133;0.17466818;-0.44934294;-0.16339332;0.0056253225;-0.006149495;-0.33730105;-0.003984307;-0.1771194;-0.33566073;0.011922922;-0.018109351;-0.34971243;0.004064603;-0.029631784;-0.29617527;0.16731715;0.026740164;0.21735594;-0.0067783124;0.09066569;-0.49577284;-0.015143627;-0.13708438;-7.517069e-05;0.0068890136;-0.36269316;0.005205433;-0.36969236;0.037732664;0.01764693;-0.018801207;0.0017367968;-0.10402563;0.07043535;-0.09955796;0.0945015;-0.01938943;0.18637829;-0.26885834;-0.053785298;0.20886256;-0.022288928;0.00715988;-0.03318358;0.017759904;-0.001014878;-0.010878531;-0.39353997;0.2532654;-0.008452588;0.04502419;-0.107224315;0.033724446;0.04153656;0.3448448;0.0038739312;0.054802556;0.25849253;0.012912479;-0.10515507;-0.025169723;0.06856646;-0.030810094;-0.13578288;-0.2914893;0.004641452;-0.010330861;0.027656319;0.0035141967;-0.24965599;0.24329644;-0.009789145;-0.018370993;-0.015386077;-0.15546595;0.004404578;0.013338718;0.026458055;0.2464935;0.011194846;-0.0027411545;-0.009385626;-0.01416331;0.038480006;-0.056420043;-0.27719757;-0.0031970567;-0.28000212;-0.012754427;0.14006086;-0.14087285;-0.024105972;-0.0029478997;0.028803041;0.009087625;0.04108283;-0.0008302863;-0.0010672482;0.009482028;0.010499645;0.1637804;0.033341184;0.16130541;-0.0063302917;-0.017166942;-0.012340166;0.07524422;-0.24875693;-0.0023998085;0.18489239;-0.019401947;-0.14032435;0.002132385;-0.28814867;-0.011189249;0.0023114365;0.06530093;-0.007773773;-0.2750145;-0.016488712;-0.47019267;0.0099335415;-0.005621921;0.2181887;0.0035261186;-0.086934656;0.19139121;-0.17250104;0.009825436;-0.002137714;0.13086379;-0.05231791;0.19603975;-0.10499985;0.002988017;0.06146196;-0.011661297;-0.4745393;0.16154361;0.16152404;-0.22269028;0.0123312995;-0.012528368;-0.15987958;-0.015150189;-0.2433454
-0.02872687;-0.17846127;-0.27816844;0.20556241;0.26198903;0.03140499;-0.06596101;0.004685931;-0.1212718;-0.00013654122;0.018109554;0.16320303;0.003633782;0.24007513;0.37137145;-0.019464232;0.00015069413;-0.32761157;-0.009527859;-0.15919699;-0.117627665;-0.0821578;-0.10238497;-0.09659063;0.12199801;0.18586875;-0.049285613;0.05049263;0.011741593;-0.009497212;0.04636954;0.1435147;0.26851782;0.008895656;-0.007856832;0.12481233;-0.18491036;0.018747818;-0.11115834;-0.0092391055;0.28801438;-0.008231953;-0.0036675788;0.098336875;0.11527416;-0.0685805;0.010716264;0.08397669;-0.0031393822;0.1103821;-0.008913466;0.02083857;-0.26734757;-0.2740282;-0.0047813;0.0100589115;-0.12884627;-0.002953253;-0.13435085;0.04555354;0.030335872;-0.3811853;-0.020538324;-0.21202914;-0.30993894;0.08563641;0.14048286;0.026878644;0.014746635;-0.24655849;0.20292592;0.0441566;0.30925903;-0.06658551;-0.18219395;-0.18933885;-0.42464244;0.22109434;0.063053966;0.010581625;0.009536293;0.006972668;-0.22757018;-0.27207258;0.035610024;-0.034321286;-0.05354085;-0.011079138;0.028352264;0.16519623;0.09113991;-0.2715233;-0.012670826;-0.051269617;0.00398341;0.04704584;0.021521216;-0.027907131;-0.0278012;0.4930922;-0.27248654;-0.03185726;-0.0014380603;0.13294934;0.17467822;-0.0035997543;0.106054544;-0.012590171;0.009042276;0.010974668;-0.40895608;-0.050637282;0.051686373;-0.25246894;-0.009504518;0.11161634;-0.3455816;-0.008655602;0.18589477;0.16411655;0.16979174;-0.0019009196;-0.23858246;0.5208557;0.07638597;0.011488165;0.10973868;0.15432972;0.05248512;-0.0020105892;-0.04646487;0.12463611;0.006631104;-0.08518042;-0.0063349246;0.027088694;0.026798995;0.06269262;0.28776285;-0.05636396;-0.04825852;-0.008936886;-0.022144908;-0.100085065;-0.19109958;0.01243375;0.018424233;0.046998538;0.0017396389;0.1400986;-0.39588347;-0.44338387;0.027975231;-0.019705432;0.1980875;-0.19414808;0.0037955758;-0.15363725;-0.13352287;-0.076334976;-0.17566301;0.26858324;-0.3286305;-0.005819884;-0.17166997;0.0067578154;0.005485053;-0.11365679;0.017962258;-3.973242e-05;0.016981756;-0.29623225;0.01880835;0.00021314797;0.0016529988;0.20755553;0.28179577;-0.017371627;0.077438414;-0.118729666;-0.17783058;0.049504247;0.35990798;0.05243435;0.0069423183;-0.3356762;-0.0025171319;-0.16522117;-0.16501148;-0.085557625;0.053543266;-0.22083718;0.10461568;-0.029253103;0.07421534;-0.027120052;0.009089612;0.15729403;-0.36374745;-0.28239956;0.09783982;-0.0033267653;0.001387359;-0.018390121;-0.043634273;-0.067112476;-0.054211255;0.1065382;0.30866602;0.021523722;0.10067063;0.14430012;-0.01132863;-0.0056503597;0.21080726;0.13212566;-0.5547697;-0.034060188;-0.07940808;-0.08863418;0.13026102;0.013367051;-0.2554026;0.1649774;-0.003938085;-0.03222336;0.36722693;0.00022985629;-0.0131857125;-0.10875124;0.04935648;-0.17882305;-0.010077071;0.023658643;-0.33805853;-0.25054657;0.13196184;0.26202267;0.025309628;0.08925099;0.14613028;0.0032272001;-0.12184411;0.033325326;0.015098125;0.08880573;0.2989833;-0.25735953;-0.412371;0.0030409105;-0.5679734;-0.0043441798;0.19714269;-0.30759424;0.00040531423;-0.040832013;0.035158914;-0.008838428;0.08234134;-0.0314606;-0.2665156;0.18745624;-0.35193953;-0.061128344;0.0037952084;0.29672006;-0.00078952586;-0.022628665;0.09454807;0.01457937;-0.020433785;-0.093885444;0.018160617;0.114369065;-0.008164656;-0.09316372;-0.10657511;0.009267621;0.11263484;-0.014246642;-0.5097551;-0.3113009;-0.04020457;-0.19389537;-0.006388788;0.09709378;0.0008363844;0.06680696;0.05324382;-0.016521843;0.017845025;-0.2397781;-0.09335425;-0.2278335;0.020835353;0.14529602;0.1754727;-0.25911805;0.047047503;-0.09429006;0.2736517;-0.01791019;0.034890685;0.006841302;-0.118514985;0.3211448;0.120986626;-0.005050775;-0.018832076;0.11824776;-0.060502872;0.2453332;0.015558285;0.037268016;-0.04982046;-0.1827077;0.06881146;-0.0014859688;0.003752726;0.005243745;-0.34772024;0.014795872;0.18085489;-0.2681883;0.013143906;0.43028226;0.013758597;-0.17253748;-0.13719417;0.22149943;0.1842312;-0.008639246;0.061872;0.2373559;0.134289;-0.01360306;0.008623946;-0.015431424;-0.19841804;-0.15343665;-0.014767438;-0.10331212;0.01145068;-0.04561661;-0.2841752;-0.0024565442;-0.014555951;0.007009677;0.021679834;-0.17637455;0.050135724;-0.4450051;-0.06384553;-0.042258687;-0.065933585;0.010111615;0.12946615;-0.012372602;-0.26047024;0.29923213;-0.22791058;0.050010625;0.020477725;-0.11844783;0.0032304588;-0.19186032;-0.021951664;0.22702283;0.10892287;0.14665605;-0.09484215;0.114288285;0.0005430313;0.006112262;0.010868949;0.0047945934;0.0017415175;0.013272805;-0.0040496;0.0032162664;0.00850783;-0.5241064;0.016734373;-0.15004143;0.008615907;0.036382306;-0.22113132;-0.022044173;-0.30143034;0.47283533;-0.17072286;-0.27468017;-0.39894065;-0.00064506574;0.15252185;0.068693444;0.007297056;0.2521979;-0.16322903;0.20778115;-0.2398201;0.0024585158;-0.07315432;-0.00014536623;0.1181996;0.06868572;0.030091316;0.066812664;-0.085109465;-0.011941402;-0.0073905545;0.0063843876;-0.39477098;0.00812901;-0.044536304;0.050727192;-0.12448481;0.02207933;0.076903276;-0.0032356987;-0.24258086;-0.32113877;-0.19219193;0.01643829;-0.021198658;-9.172082e-05;0.016939636;0.06944348;0.47174665;-0.059327416;-0.011324531;-0.24571402;-0.25240502;-0.012056106;-0.0040924232;-0.21266073;-0.041889872;-0.26454666;-0.1332035;-0.0067645055;-0.0059089656;-0.36609015;0.011064666;-0.25813577;0.14018181;0.024030646;-0.026774073;0.17917764;0.0050866394;-0.043276113;-0.33995172;0.0039492706;0.004817774;-0.28650472;6.165536e-05;-0.2549093;-0.0024658341;-0.5444854;-0.039328072;0.0011380977;0.0087823905;-0.009203673;0.013301013;0.051910166;-0.09822312;-0.02450355;0.0049477653;0.15600559;-0.2054941;-0.1881554;0.05025479;0.030755762;-0.017162366;0.05398327;0.2040096;-0.0029943981;0.0042288275;-0.30362785;0.2564581;0.0019210001;0.12366652;0.0004981093;-0.25360405;-0.079312846;0.20323427;-0.009543254;-0.02025528;0.01535365;-0.0074978834;0.0659072;0.019275468;-0.26782304;0.12075502;-0.20909546;-0.35954866;0.00795112;-0.04739228;-0.021043656;-0.072699286;-0.16752687;0.32924387;0.00763851;0.019715058;0.02412049;-0.16594417;-0.0054795477;-0.1537097;-0.0073645036;0.22547632;-0.2506689;-0.056352478;0.076942496;-0.057878282;0.11604723;-0.08950551;-0.3709642;-0.0026069062;-0.18261376;0.020569243;0.34993866;-0.23260644;0.024271602;-0.017818771;-0.257889;-0.005071939;0.13674529;-0.004550028;0.009143097;0.033964947;-0.015126576;0.05522699;0.020106597;0.05103221;-0.013428497;-0.041251175;0.008095532;-0.0761627;-0.104591615;-0.010124479;0.10413405;-0.036723945;-0.26588693;0.019707853;-0.43646434;0.010822295;-0.00472774;0.11558352;0.01323577;-0.22940905;0.009039587;-0.37740824;-0.008104642;-0.0068954434;0.23370388;3.5469388e-05;0.0440226;0.004198091;-0.20154166;-0.0031373976;0.0028785758;0.29761177;-0.079825036;0.27257746;-0.19176231;0.010433143;0.024559751;0.0011702091;-0.4260324;0.14214078;0.13761747;-0.1840065;0.00095243816;0.0069771972;-0.3016669;0.1773093;-0.053595256
-0.23870414;-0.11604331;-0.1702415;0.0026406618;0.34041595;-0.0036868046;0.050428778;0.0041415934;0.0040149507;-0.0059708627;-0.042161793;0.43082863;-0.0025249864;0.11180992;0.19242324;-0.07595986;0.009609385;-0.14760892;0.009406082;0.046335027;-0.01923087;-0.057577398;0.012842476;0.021258114;0.13791566;0.15315966;0.11174679;0.0033525876;0.0036631303;0.009342563;-0.034205075;0.18096481;0.4785862;-0.021425487;-0.010678362;0.090238795;-0.028301975;-0.104485884;-0.044364616;0.11213073;0.20584357;0.009235942;-0.17457119;0.22706363;0.06792356;-0.18959329;-0.013401672;0.045103062;-0.004931594;0.004437284;-0.15341942;-0.009470431;0.04891113;-0.048448943;-0.0052546426;-0.021347078;0.04269677;-0.0058442503;-0.10267012;-0.093028896;0.0089514945;-0.17513989;0.013112466;0.037647013;-0.105064996;0.12139546;0.17184834;-0.21037968;-0.008337918;-0.19444346;0.3422627;-0.135238;0.076619916;0.06596329;-0.0023630727;0.22135913;-0.090192646;0.23355566;0.11285104;0.007976325;-0.019026604;-0.016586524;-0.19324121;-0.029246556;-0.013174197;-0.07936655;0.0130217355;0.015402487;-0.021175614;0.040503994;0.05713582;-0.010694283;0.01313936;-0.014287059;-0.005455449;0.14958784;-0.012298412;0.017421125;0.08939849;0.36778802;-0.13413969;0.042125817;0.0021522287;0.1500067;0.16108564;0.01383368;0.09479116;0.013487326;-0.0092649;-0.00080195465;-0.18242729;-0.046018757;0.09564551;0.020729579;-0.009978666;0.062906325;-0.1106263;0.13872875;0.35386768;0.19915843;0.30638117;-0.007499679;-0.28259125;0.4270254;0.17097005;-0.06854385;0.19295174;0.0021041543;-0.027641082;0.0062003997;0.14988893;0.14412805;-0.0055609695;-0.004357343;-0.009288935;-0.11821606;0.011881488;-0.09280285;0.3199364;-0.17777616;-0.25730088;0.00494243;-0.041876387;-0.22088444;0.0049885754;0.007003127;-0.014619239;-0.00073463185;0.022148216;0.040620387;-0.27176666;-0.5476982;-0.033344872;0.0064284336;0.12835099;0.07297091;-0.018407933;-0.061835896;0.035165045;-0.17225043;-0.014317084;0.21754748;-0.26575962;0.0007129485;-0.07210165;0.0022661798;0.009760704;-0.05498263;0.06348406;-0.001912844;-0.017385926;-0.22965181;-0.015757078;0.0045095417;-0.0050379965;0.20703831;0.44452775;0.07204384;-0.16332003;-0.14124493;-0.15599318;-0.18170303;0.35276827;0.17168531;0.0015732878;-0.30923703;-0.0022058603;-0.1070119;-0.17920193;-0.061866406;-0.15374793;-0.33953252;0.0047887643;-0.10499276;-0.079287566;-0.05347855;0.001579123;0.22550346;-0.55782574;-0.15717846;0.08164217;-0.013434645;0.007045832;0.006918473;-0.065942265;0.06740038;0.021141952;0.23580143;0.2934421;-0.022993093;0.14705047;0.13795583;0.010518109;0.0018849217;0.15066744;-0.0024077492;-0.26732165;0.08737137;-0.35745105;-0.15872061;0.032597378;0.0019925295;0.019300021;0.2639136;0.0072379927;-0.30809942;0.36664793;-0.0021842467;-0.00763554;0.109323144;-0.042434026;-0.20803206;0.0033111814;-0.017487679;-0.13718379;-0.08256188;0.16815005;0.15980873;-0.02535013;-0.11590694;0.021181243;0.008366519;0.21081638;0.020158807;-0.0077889487;0.22531147;0.23884669;-0.30389553;-0.35935536;-0.0143903;-0.25004894;-0.0056599625;0.3570525;-0.445029;-0.014927506;0.094928525;0.19291852;0.015404954;0.085184895;0.03419179;-0.19842534;0.057809707;-0.3006806;-0.06758258;-0.009186405;0.23834698;-0.00090881105;0.03967434;-0.0956452;-0.010978241;0.0011506949;0.13067137;0.09766681;-0.11678341;-0.00699296;-0.20568198;-0.28422123;0.00062727043;0.0063969083;-0.0013473901;-0.40764067;0.00092970557;0.024480961;0.10931994;0.0019191299;-0.13156945;-0.0023918366;-0.110598736;-0.032668315;0.006816676;-0.1714901;-0.30026466;-0.32856524;0.022867018;-0.012193417;0.06977027;-0.13852464;-0.39500928;0.22955854;0.022467129;0.1417365;0.016834838;-0.02226339;0.009698481;-0.21337613;0.31513748;0.10346912;-0.009829853;-0.23692365;0.21834716;0.048961576;0.28919545;-0.0061188303;0.17614935;-0.12346372;-0.40897545;0.033424906;0.0036906777;-0.0087797195;-0.1643603;-0.33573544;0.014843234;0.04875914;-0.07537619;-0.0022618764;0.34829688;-0.020453334;0.045710023;-0.41327238;0.37416628;0.26242298;0.01660592;-0.09561927;-0.05849609;0.036521316;0.01073234;0.023389714;-0.0013663447;-0.22870006;-0.07208626;0.005843643;-0.4070652;0.17686138;-0.29408845;-0.38303158;-0.009544509;0.005339671;0.014915038;0.047104545;0.07592687;-0.102485046;-0.31380013;-0.0894391;-0.24326259;-0.037354894;-0.06424958;0.10877751;0.01812012;-0.035022404;0.20194349;-0.10985852;0.015508254;0.002301284;-0.15213092;0.009182696;-0.14678405;0.014968168;-0.06816899;0.11087817;0.28641602;-0.008453805;-0.0036072321;-0.02699733;-0.0069525316;0.010024306;0.0016241053;-0.029597068;-0.0070320563;-0.0047684605;0.031927947;-0.0077363364;-0.48097086;-0.018393712;-0.024027556;-0.016261961;-0.030586138;-0.22181317;-0.10965194;-0.1380549;0.42315492;-0.22180343;-0.22512963;-0.17477316;-0.0039908662;0.16868435;0.08008734;-0.0044904416;0.2529461;-0.0961684;-0.06322152;-0.11825437;0.010234518;0.09206106;-0.0123930955;-0.061121568;0.20624855;0.34525967;-0.052444838;0.0019829231;0.0071054404;-0.0075438623;-0.00614494;-0.2635989;-0.0270851;-0.063612536;0.03213654;-0.2095547;-0.013335522;0.14439219;0.007382649;-0.11676156;-0.26341078;-0.04142883;0.27784857;-0.05414368;9.727459e-05;0.011814372;-0.06463091;0.5170281;0.04388921;-0.41409;-0.22349636;-0.21482047;0.012342137;0.00681511;-0.08443052;-0.09976824;-0.08786189;-0.08882834;-0.01167004;0.014985138;-0.16950554;-0.01047128;0.049438525;0.36200753;-0.056029662;0.020314047;0.38954684;0.001217077;-0.15889876;-0.14404823;-0.003992807;-0.10531335;-0.203637;0.014194799;-0.23741522;-0.00042911072;-0.60274774;-0.22254138;-0.012330138;-0.018243533;-0.006746592;0.102166735;0.011383996;-0.15912478;-5.2147312e-05;0.003148202;0.0031118803;-0.31211346;0.0020459879;-0.055973224;0.08684452;-0.0008089592;-0.14938936;0.12559137;0.0007004953;-0.030196864;-0.27892593;0.2082338;0.004407684;0.28921196;-0.11225828;-0.36671075;0.10032999;-0.09695494;-0.0026221534;-0.09785172;-0.017820483;0.019079512;-0.006405828;-0.011494269;-0.16583496;0.029520722;-0.03534724;-0.22921711;-0.018144708;-0.09191866;0.012898747;-0.15958525;-0.35755977;0.14970143;-0.0031388933;0.0039985077;-0.01027731;-0.10593386;0.0042669973;-0.1874833;0.01955638;0.36439535;-0.120461956;0.08383605;0.5077088;0.092500314;0.18566622;0.017032454;-0.21778654;0.0045818677;-0.03602284;-0.01649612;0.33278263;-0.24621458;-0.012187836;0.019016752;-0.3064541;0.007537984;0.16294187;0.011757619;-0.004427274;0.02241585;0.031952996;0.034889035;-0.13749027;0.14363775;0.0030120318;-0.041872673;0.017198702;0.11571562;-0.26962662;0.003093577;0.13559224;0.02598862;0.083388515;-0.029763853;-0.3314695;-0.01113662;-0.002100697;0.18463221;-0.014459958;-0.0079681305;-0.010266157;-0.47836003;-0.008344906;0.0030043386;0.14896852;0.006751417;-0.14506277;-0.24102962;-0.16938716;-0.01869866;-0.0023286084;0.13535737;-0.08209115;0.014126486;-0.25847968;0.0031242466;-0.04594142;0.0008120454;-0.35405463;0.13772859;0.27420586;-0.3624908;-0.011132394;0.03764661;-0.45458445;0.16235335;-0.2175251
0.24796894;-0.3368774;-0.1976429;0.25487256;-0.017595053;-0.012755441;-0.09195444;0.016780464;-0.23024614;0.016773589;-0.09887283;0.13671732;-0.00015194803;-0.03349104;0.12330729;-0.0019745382;-0.018220017;-0.06707557;-0.008787797;0.021979624;0.15712754;0.017265033;0.015614415;0.07762399;-0.0046202955;0.14334123;-0.107096985;-0.011876181;-0.019331373;-0.015826197;-0.06390902;-0.016920023;0.5431334;0.015220555;0.01190088;-0.10425561;-0.22760154;-0.24649388;-0.088673085;-0.022605289;0.18492198;-0.021054823;-0.22978461;0.27233586;0.17231701;-0.16125286;0.009508287;0.06782315;0.01352886;-0.044757172;-0.21885395;0.015801245;-0.051136855;-0.24576479;-0.012759227;0.0034893;0.14092195;-0.004517755;0.16786563;-0.1391255;0.027731495;-0.40171042;0.006476224;-0.1085815;-0.016039975;0.21736684;0.3197046;0.065855846;-0.015569501;-0.1953126;0.09693345;0.026087655;-0.23530635;0.094149575;-0.12365908;0.2638915;-0.1249363;0.14631747;0.21385472;-0.010501582;0.015471437;0.013015309;-0.015868355;-0.03321636;-0.061367534;-0.21081428;-0.21858901;-0.008111602;0.015239483;-0.2549784;-0.0073167584;0.10696142;0.0023553935;0.008627234;0.0106653385;0.31815726;0.0006980139;0.024587832;-0.001554743;0.3130584;-0.048064224;-0.037198175;-0.014687812;0.07505608;0.13319413;-0.004886458;-0.17814393;-0.011903935;0.022003286;0.0086679775;-0.16817294;-0.08078023;0.016331937;0.03763078;0.0045998082;0.12200621;-0.28043205;-0.06105149;0.19829291;0.022538595;0.32179776;-0.002220135;-0.30263627;0.11126513;0.45793134;0.09629088;-0.028469669;0.048587292;0.3535508;0.003695219;0.05690863;-0.093666814;-0.0014087644;-0.025681993;0.0020146752;0.008413231;-0.058409125;-0.121748365;0.12227914;-0.22643778;-0.21136539;0.013557247;-0.022307266;-0.082596056;-0.08674359;-0.012904115;0.01410635;-0.21587303;-0.007565391;-0.021832805;-0.2325142;-0.24379016;-0.009295803;0.0025489558;0.1621988;-0.2350295;0.019429587;0.12176363;0.12006464;-0.030283364;0.23337251;0.30526853;0.0551446;0.035178743;0.048157685;-0.0040672463;0.06297018;-0.17519803;-0.040192045;-0.008630536;-0.012378587;-0.18664584;-0.0021921508;-0.041210867;-0.0013842206;0.047974847;0.26758033;-0.01355027;-0.1193674;-0.002146536;-0.33162656;-0.00042655857;0.3386454;0.12471866;-0.0069419816;-0.14918059;-0.00035098736;-0.027594449;-0.21736859;-0.2088769;-0.08479589;0.11365875;0.082779124;-0.1802752;-0.19358973;-0.2776794;-0.006119526;0.26844984;-0.53658265;-0.026636207;0.13591021;0.009024277;0.0043768445;0.0077874074;0.00048233106;0.012466378;0.10904617;0.25376344;0.068217635;0.004209661;0.33332855;0.023763258;-0.02091279;-0.005582944;0.27352005;0.05209768;-0.37931004;-0.12479048;-0.41010836;-0.16070914;0.13074704;-0.24981432;0.019756082;0.08073147;-0.0005764683;-0.16925117;0.14679845;-0.012034341;0.0030181324;-0.04085098;-0.021065734;-0.17756908;-0.0015774621;-0.009761793;0.10409347;-0.3493319;0.11545915;0.1900746;0.00989922;-0.025838384;0.10589401;0.036577553;0.009973115;0.05272448;-0.018253876;0.1410691;0.36357665;-0.3833061;-0.29592517;0.0038340858;-0.17395024;0.008534372;0.1798142;-0.3537524;0.02451636;-0.00938152;-0.07852687;-0.017711477;0.1327993;0.12855697;-0.16087037;-0.041419465;-0.2631828;-0.068731345;0.0024822983;0.27627513;0.003893149;0.02210248;-0.103614815;0.0055480795;-0.00054652843;-0.006678791;0.07837475;-0.07633991;0.012597452;-0.05568149;-0.2294778;-0.0059095854;-0.004543131;0.0039940807;-0.18829669;-0.21470214;-0.024326362;0.16043144;0.00059326075;-0.29256523;-0.0117782755;-0.19331533;0.038036592;0.011880067;-0.27133986;-0.27487436;-0.34663412;-0.033583593;-0.0010324694;0.059607893;-0.2886177;-0.123739846;0.19432065;-0.08563915;0.004427409;-0.021673704;0.020923669;-0.013787601;0.047725838;0.049619876;-0.17399456;-0.0018433499;-0.11814455;0.14920682;0.07037015;0.1626209;-0.008830282;0.20728879;-0.10687988;-0.55574036;0.03075913;-0.00031241405;0.009754618;-0.1178168;-0.4049093;-0.023700036;-0.084481806;0.051794358;-0.008481159;0.17594366;0.008782863;-0.05399113;-0.15647493;0.47567436;-0.13413836;-0.0071096197;-0.09865959;0.2340282;-0.07000482;-0.006367036;0.21118769;0.09005432;0.03145375;0.085985705;-0.0072650095;-0.33066836;0.076726824;-0.2271445;-0.1765266;0.017127698;0.00071183674;-0.024937335;0.31538847;0.020193484;-0.13289419;-0.14098997;-0.040933035;-0.19859129;0.29490176;0.012327651;0.10509127;-0.031255327;0.06418813;0.21540517;0.018744208;0.17474654;-0.003216456;0.10360611;0.09467796;-0.21780679;0.005964756;-0.25253093;0.0651642;0.3863047;-0.17744908;0.014367258;0.0035026204;0.0009032028;-0.009575281;-0.017490493;0.016529929;0.0041188584;-0.021305244;-0.022718057;0.0062735025;-0.19381234;0.0002785764;-0.12207824;0.0125817;0.008904291;0.0018073304;-0.10357891;-0.3008221;0.2156552;0.15009108;-0.21887946;-0.21906331;0.0072636507;0.16148835;0.15899065;0.0054369927;0.14694075;-0.13360593;-0.16127102;-0.20920573;-0.012107686;-0.089551374;0.013634838;-0.06360276;0.28909108;0.058415275;-0.026254542;0.18370709;-0.00289302;-0.0023717713;-0.0005640604;-0.3709362;0.017782113;-0.056180283;-0.216949;-0.24744944;0.01357171;0.2273959;0.00031981518;-0.30528733;-0.45543125;-0.16071013;0.18684602;-0.32854673;0.019446483;0.005237163;0.19103515;0.41325206;0.03307967;-0.3624284;-0.22412963;-0.22870927;-0.011598161;0.0037321693;0.17929691;-0.18195276;-0.17621776;-0.18399014;-0.007619616;-0.007851154;0.011931464;-0.013813006;0.0890455;0.44268718;0.092132464;0.0044707027;0.076360516;-0.0044130553;-0.21428318;-0.13733768;0.017467676;0.018845793;-0.35101908;-0.011832425;-0.26639187;0.004330476;-0.4437449;-0.20197935;-0.0037451447;0.0062671653;0.022916358;0.24190292;-0.042766627;0.04035715;0.07562662;0.00046435845;-0.18328387;-0.28152424;-0.017472407;-0.25543916;0.1537724;0.008240185;-0.2027795;-0.004224266;-0.0043106284;0.015209694;-0.2543585;-0.07846906;-0.010884133;0.09673309;-0.00873297;-0.4359986;0.16935684;-0.23527704;-0.006255924;0.0695227;-0.040549334;-0.013302187;0.01844364;-0.026780445;-0.30896837;-0.24650866;-0.07931005;-0.053958934;0.0013680494;-0.15799566;-0.009595122;-0.15737568;-0.008287535;0.019182885;-0.00086687534;-0.0021572632;0.007094032;0.008155963;0.013820674;-0.09042555;-0.01717565;0.15074398;-0.38491634;0.093283154;0.32760468;0.3081636;0.105124585;0.11373119;-0.12134692;0.0040338365;-0.0802307;0.011768606;0.11794427;-0.09723875;0.015475107;-0.006552706;-0.49044472;-0.009603715;0.14414912;0.002188754;0.00067268993;0.012666072;-0.02470231;-0.017786417;-0.08751858;0.09726434;-0.004606748;0.06849353;-0.02029502;-0.029784072;-0.13707474;0.006548117;-0.08997419;0.046417292;0.14683065;0.014310968;-0.24263918;0.003346303;0.011459863;0.132714;0.010082709;0.09038579;-0.010210369;-0.59847426;0.0028178408;0.0068791513;0.12832177;-0.011695684;-0.4214188;-0.13756089;-0.33382764;0.010211966;0.018081598;0.16406563;-0.19168034;-0.16385408;-0.19364172;0.011810784;-0.07467133;-0.0035676346;-0.09753104;0.25495142;-0.100164115;-0.28258443;-0.008810917;-0.16060326;-0.40933618;0.30645394;-0.12124845
0.29240343;-0.39659142;-0.2276943;0.14234672;-0.17673567;0.017503465;0.054920968;-0.033828974;-0.35185978;-0.0030034287;-0.32444084;0.09477374;-0.018928828;-0.08888702;0.058196098;-0.040379878;0.004801289;0.15470412;0.011989698;0.0798413;0.098165;0.20495595;0.014060483;0.034634456;-0.022536369;0.23556828;-0.10918504;0.16604775;0.001111454;0.016233534;-0.08668287;-0.0033277;0.43346235;-0.010863773;-0.012354091;-0.16262037;-0.0914196;-0.13867277;-0.05847398;-0.008960752;0.03757929;0.025288098;0.057155997;0.08787024;0.29168433;-0.13281412;-0.015935233;-0.022108797;-0.0048309616;-0.068902194;-0.28271407;-0.015266659;0.020670738;-0.15352462;0.0036221724;0.0074573206;0.30563796;0.008197073;0.24102674;-0.16571629;-0.028704984;-0.2045791;-0.025346994;-0.013140013;0.011248102;0.2156999;0.31717494;0.015105034;0.0023229294;-0.35139582;-0.07021845;0.059046846;-0.15787438;-0.009095162;-0.051514756;0.34693673;0.108305074;0.2873309;0.08716084;0.0028806585;-0.0053929323;0.0030845236;-0.24079396;0.11043035;-0.022492498;-0.17257869;-0.45200557;0.021658108;-0.013808536;-0.22819136;-0.12639877;0.31744352;-0.0046296148;0.025227772;-0.002777557;-0.18806487;-0.008595818;-0.012183617;-0.07661507;0.37388355;0.053508837;0.009564701;0.010927902;-0.09799017;0.16459987;0.017215012;-0.23404925;0.019337665;-0.019443888;-0.022422485;-0.19649464;-0.1168432;0.20249651;0.34786013;0.01179144;0.012522066;-0.2031388;-0.0210237;0.16037293;0.0160178;0.016925165;-0.0022232705;-0.18924758;-0.028242007;0.2702676;0.004789228;0.032614894;0.1600425;0.23709296;-0.013280541;0.25759608;-0.057634223;0.004830591;0.13725021;-0.0038657705;-0.020572009;0.17628165;0.024573725;0.13848352;-0.14906484;-0.07395546;-0.01809672;0.14572334;0.022488106;-0.03871957;-0.0050772876;-0.00680921;-0.45527932;-0.00392635;-0.04400817;-0.28180856;-0.24751388;-0.008616582;-0.004357435;0.056830775;-0.070309065;-0.021546394;0.11277452;0.03736852;0.19254866;-0.22876067;0.14564453;0.07655391;-0.066184364;-0.102356724;-0.004026237;0.018135268;-0.10973685;0.08118554;0.0175046;0.029412279;0.085626885;0.012118181;0.012065747;0.0029180786;-0.030638574;0.28675327;0.067824274;-0.0812585;-0.013139151;-0.24480268;0.14967746;0.27925342;-0.016723538;0.021892427;-0.035744313;0.012419527;-0.050245173;-0.078662254;-0.0644822;-0.34142968;0.16359045;-0.07166785;-0.13194136;-0.052187573;-0.3813695;-0.0022280945;0.15301731;-0.46445313;0.020492863;0.12558955;-0.012520355;-0.0127738025;0.0059958687;0.020849435;0.1770569;0.10907736;0.058862843;-0.036435504;0.0005951843;0.109649666;-0.095855795;0.016282735;0.012927478;0.3337368;0.10184102;-0.10576776;-0.31263223;-0.202919;-0.023637123;-0.03934671;-0.28202575;0.0060535674;0.070280485;0.0060556834;-0.05691257;-0.06540742;0.004575434;0.002980318;0.0207265;0.055123467;0.10258054;-0.0075709266;0.026217794;0.29702294;-0.38092667;0.18499818;0.01815617;-0.020446451;-0.040487714;0.19105254;0.019332774;0.31589156;0.053042226;0.00656924;-0.20714808;0.31817856;-0.21007775;-0.29613748;0.0013976311;-0.0006638684;-0.013028695;-0.22496976;-0.29186532;-0.009566742;-0.02754859;-0.15198663;0.0004171758;0.27520442;0.11789257;-0.029064042;-0.31203434;-0.11366695;0.12045814;0.015578585;0.35204396;-0.00065419584;-0.0072505106;0.002579064;0.0018625105;0.007007472;-0.1071738;0.091501616;-0.16927455;-0.006125389;-0.35319313;-0.30291653;-0.00084384595;-0.07296463;0.0029889087;-0.15958855;0.14260037;-0.014624099;0.18729295;0.00027716497;-0.12709847;0.019845802;-0.44523478;0.120818295;-0.009353352;-0.18839538;-0.43570256;-0.2021488;-0.20103645;0.01468988;-0.11647177;-0.4257418;-0.12175494;-0.08419391;-0.020864852;-0.039438017;0.020799613;-0.005983281;0.0023169618;0.05086968;0.1110235;0.15538788;-0.005030638;0.08080693;0.07276102;0.09671791;0.05872908;-0.0006697264;0.068640836;0.062415913;-0.46634033;0.19338849;-0.0162517;-0.00023508216;0.0048732213;-0.22661278;0.02223513;-0.22160852;0.22783671;0.006040425;0.14928561;-0.016656239;-0.23311464;-0.051677976;0.29463303;-0.23838225;0.0018443043;-0.0051401197;-0.14651172;0.039020535;-0.017283639;0.25126657;0.16106035;0.0064545553;0.010344542;0.0056475317;-0.11315463;0.13910499;0.0015970696;-0.11046943;-0.012849973;0.0034993563;0.029938895;0.15107538;0.06430935;0.22206283;-0.34525734;-0.05312482;-0.0037288906;0.37625217;-0.047634937;0.1614407;0.004363255;-0.25792608;-0.085194714;0.026423544;0.05268728;-0.01309792;-0.14708418;0.04730499;0.0058519114;-0.012565176;-0.13086443;0.09632327;0.56261677;0.0457402;-0.18844602;-0.0020597058;-0.002125496;-0.00256028;0.024241753;-0.012982908;-0.00051725697;0.01837908;-0.010234198;-0.004406805;-0.19594172;0.011553011;-0.2848714;-0.009169008;0.01759219;-0.09918638;0.028121691;-0.31667808;0.033156376;0.5049141;0.028861286;0.0110322945;0.013499304;0.07749574;-0.05868388;0.0050457884;-0.1977712;0.06065323;-0.08495259;0.012885159;-0.005063855;-0.056346957;-0.0055787046;0.10270444;0.08923918;-0.080611534;0.01873977;-0.10547089;-0.0044910368;0.01077176;0.008115201;-0.13712355;-0.007269472;-0.046817433;-0.54143643;-0.36611685;0.0030268128;0.0034669854;-0.0026397335;-0.24908787;-0.58547723;-0.16902821;0.18686835;-0.037184145;-0.011047939;-0.016216712;0.02199743;0.21468447;0.018448524;-0.36846194;-0.1750107;-0.043882754;0.009046495;0.0027503127;0.2124145;-0.040295027;0.13822663;-0.14961325;0.021869725;0.009634981;-0.011719004;0.015272824;-0.020059617;0.15634717;-0.031003702;-0.019742573;-0.12939425;0.0058886;-0.18083239;-0.09014294;-0.02598715;0.15613227;-0.24349432;0.006950977;-0.20809652;-0.0022815242;-0.3258114;-0.062594935;0.0009161245;-0.008143276;-0.0010121997;0.36046043;-0.15953022;0.037224468;0.0664128;0.0076200585;0.051938087;-0.26200593;0.060285643;-0.34066513;0.25796038;3.1179785e-05;-0.16228162;-0.14258395;0.006723507;-0.004899223;-0.23994462;0.11327072;0.01784987;-0.022089522;0.3168256;-0.31860352;-0.0100301765;-0.020800631;0.0071170246;0.033808384;-0.45224807;0.0029189137;-0.03504601;0.013670034;-0.13070318;-0.21520132;-0.0327156;-0.37106842;0.0140295625;0.05874683;0.016108429;-0.12704986;0.026232688;0.12920204;0.011139483;-0.011384211;-0.014510882;-0.029013231;-0.016665334;-0.24566051;0.0069127847;-0.04237622;-0.43426958;-0.08498838;0.3309154;0.24502388;0.04742648;0.15929496;0.13892014;0.020370089;0.047464687;0.004661966;0.17754532;-0.28554612;-0.01080963;-0.002334279;-0.53034604;0.007155276;-0.052837018;-0.017876728;-0.009486285;-5.946165e-06;0.024174111;-0.08167213;0.11062707;-0.0768902;0.01731896;0.45383036;-0.036516473;-0.075264335;-0.2722608;-0.008261862;-0.009729539;0.193543;-0.01981187;-0.0039862837;-0.20346403;0.0061949072;0.0024136684;0.20001833;-0.021079838;0.2105295;0.011440549;-0.48678684;0.00092138164;-0.011664211;-0.050944492;-0.00045745814;-0.33179882;0.029748918;-0.35206082;0.0022362815;-0.0061172335;-0.06925387;-0.13680172;-0.27852428;-0.13632093;-0.007293327;-0.08433921;-0.0014542126;-0.14647855;0.08301992;-0.16417313;-0.032050543;0.008653082;0.056851033;-0.43205246;0.27463636;0.1799427
0.2529267;-0.16418715;-0.40162456;0.14946447;-0.27321917;-0.012148293;0.011660569;0.005267061;-0.36124733;-0.0044782385;-0.18160285;0.16435237;0.019048316;-0.21567938;0.06278289;0.028372252;0.017682973;0.32880116;0.0038853858;0.09160806;-0.19773152;0.18187252;-0.058522966;0.042035043;0.40589818;0.16503347;-0.0112700835;0.12573418;0.017623866;-0.015882727;-0.024614198;-0.16319874;0.42109585;0.015812717;0.012648054;-0.08522389;0.08539104;-0.02014075;0.022877343;-0.27983132;0.2797755;-0.00510461;0.020262104;-0.05014945;0.23475447;-0.18390012;0.013426148;-0.1503385;0.004332667;-0.2566057;-0.37327993;-0.0023009789;0.13299656;-0.30279046;0.0268809;-7.740747e-05;0.28358227;0.017201671;0.10953433;0.10832116;-0.02287294;-0.24608406;0.027162852;-0.22125067;-0.052959044;0.15645923;0.15470046;-0.07335658;-0.0018773898;-0.19025925;-0.43433356;0.19258839;-0.3003264;0.15071605;0.1426085;0.16624205;-0.03295609;0.2543453;0.118048094;-0.014499573;0.027057031;0.0014685956;-0.30492806;0.0042569134;-0.0036233386;-0.29885522;-0.33183798;-0.01694684;0.011928446;-0.055473194;-0.15276459;0.16771714;0.009009908;0.005617968;-0.010497201;0.081279986;0.005178826;0.008559212;0.07854491;0.08064778;0.23543051;0.0056372522;0.0059054866;0.053140387;0.16318503;-0.013327382;-0.2741836;-0.01027587;0.013400342;0.022088084;-0.19882952;0.023615275;0.15343617;0.1932987;-0.0045299195;0.072471805;-0.3339062;-0.097525574;0.28939143;0.09077818;0.052555162;0.009198015;-0.25228852;-0.1275797;0.032869283;-0.077948496;-0.001066941;-0.15676236;0.2775493;-0.0004879511;0.4242161;0.037708443;5.2523166e-05;0.22311461;-0.0067306673;-0.010943159;0.20620786;-0.2594483;-0.02362421;-0.18593694;-0.026768718;0.0063474844;0.16403586;-0.011613516;-0.16886859;0.0027779292;0.0005667991;-0.17115822;0.004709653;-0.10060691;-0.057802618;-0.07056289;0.007940496;0.031000176;0.16347298;-0.11287096;0.012198458;0.27643612;0.008869515;0.079830565;-0.32404813;0.23221037;0.2524505;-0.03869938;-0.08368718;-0.014466814;-0.011598927;-0.26829603;0.24401416;-0.00776327;-0.032441646;0.20311724;0.00085749774;0.016546741;-0.0027953286;-0.09475346;0.27394214;-0.13775611;-0.05507034;-0.034089733;-0.13120693;0.19225538;0.20708692;-0.1956182;-0.02016182;0.28758508;-0.0033710026;-0.17930238;-0.032343138;-0.10838454;-0.04145988;0.18558058;-0.18623374;-0.21241614;0.03331602;-0.41794065;-0.009211806;-0.017105091;-0.32609627;0.063102245;0.0027810738;0.008828098;0.014044292;0.004241021;0.07275144;0.31316018;0.15834141;0.07990853;-0.07363581;0.009510795;0.036508117;0.11068633;-0.0027636131;-0.013924578;0.14500678;0.081405446;0.18366744;-0.078483246;-0.07706545;0.004270716;-0.13673244;-0.59938294;0.044184737;-0.14745039;-0.016645443;-0.16197324;-0.17069621;0.016348269;0.002857935;-0.09592025;-0.038779076;0.06381956;0.012617434;-0.0063678934;0.26530132;-0.2580676;0.1282745;-0.08306833;0.013339652;0.063397706;-0.00376181;0.050079044;0.23210804;-0.2546222;0.027091522;-0.3627133;0.20448448;-0.23132373;-0.2506313;-0.009635083;-0.077710144;0.007961498;-0.221413;-0.27538964;-0.009910484;-0.19031677;0.243766;-0.011708359;0.18494643;0.110137455;0.055071514;-0.43229848;0.008989152;0.08492203;-0.012491753;0.3886063;-0.0025406997;-0.02031416;-0.16296189;-0.014969;0.0056118807;0.11504951;0.20337056;-0.27510005;0.003449017;-0.36683878;-0.34071946;0.0045375484;-0.09177487;-0.012466987;-0.014616923;0.2777148;0.08579186;0.08707909;-6.8449015e-05;-0.2975133;0.00721372;-0.14807041;0.22821863;0.007966592;-0.1712274;-0.3846954;-0.083831914;-0.08687988;-0.012928995;0.058965083;-0.2833358;0.093791425;0.020710064;0.14405152;0.20237751;-0.016608482;0.014952587;0.0031808165;0.05918987;0.027515426;0.100211404;0.013900918;0.067872114;0.092070036;0.057099942;-0.0724678;0.0030532968;-0.028216973;0.20860979;0.012505904;0.11091334;0.016635887;-0.0049619735;0.10322198;-0.34720543;-0.022986278;-0.23683041;0.00857241;0.009261282;0.25213608;0.01574447;-0.5454445;-0.0112681715;0.20119219;-0.07918009;-0.010180262;-0.20106249;-0.10107954;-0.46734834;0.005375471;0.20646456;0.13027418;-0.16500401;0.082615234;0.005242805;0.062072434;-0.023885546;0.25207275;0.09026712;0.0040546954;-0.013422983;-0.015004104;0.26826704;0.094606936;0.11031334;-0.40253696;-0.2324213;0.16606045;0.071988426;0.013583011;0.3027923;0.019411629;-0.099135876;-0.1315739;-0.04811287;-0.10565946;0.018898303;-0.028160162;-0.08020535;0.05647272;-0.005444214;0.08921617;0.065372854;0.323896;-0.121190175;-0.2691097;0.01292135;0.0039984146;0.014332145;-0.023084175;0.0013762203;-0.0029152357;0.016638583;-0.021584839;0.041761365;-0.28027543;-0.007939486;0.17206892;-0.0059906864;-0.008851451;-0.16690488;-0.035422295;-0.26202393;0.11061027;0.44611904;0.13548271;0.11866764;-0.006207038;0.14752845;0.09910163;-0.013495295;-0.38957784;0.091969185;0.08914531;-0.19690782;-0.0064559276;-0.09825123;-0.00195171;-0.03295315;-0.13116008;-0.3915717;-0.018082934;-0.06547936;0.016002195;-0.0019091384;-0.0031133916;-0.060298465;0.016880766;0.06321019;-0.47355124;-0.34345773;-0.009447517;-0.18902448;0.011268579;-0.07664539;-0.42840484;0.15132776;-0.113065444;0.21507971;0.0059403633;-0.0075428966;0.1630227;0.11258099;-0.042687956;0.06520233;-0.06886004;-0.08186561;-0.0038169967;-0.0042318916;-0.04925419;-0.12280944;0.028956974;-0.18602897;-0.009931603;0.0031529786;-0.047334846;-0.005132232;0.04228185;-0.1543834;-0.040493768;0.01201419;-0.3666671;-0.0041408413;-0.038290218;-0.13746549;0.008022155;0.16158919;-0.21246593;0.0024131527;-0.09497094;0.017821245;-0.28962252;0.10892099;0.016337013;0.013786464;-0.0036627257;0.31899947;-0.18655626;0.038860872;0.0006853486;-0.0045736926;0.23682185;-0.10844385;-0.06453338;-0.15126476;0.3471344;-0.002085616;-0.30346176;-0.121571995;-0.008294481;0.0069859726;-0.2825565;-0.04252299;-0.009294549;-0.06023233;0.1333822;-0.08772137;0.07229123;-0.079285815;0.002601806;-0.09207998;-0.42478;0.009335945;-0.24991463;-0.020229248;0.0083755925;-0.33021623;0.026338084;-0.3412959;-0.006874839;-0.0096377;-0.0036612155;-0.49208164;0.17816524;0.26464698;-0.0057562226;0.0033320843;0.012454917;0.07326234;0.006374567;-0.47659996;0.015455716;0.051983543;-0.2914499;0.13610366;0.14223297;0.123525664;-0.080230676;0.018300777;-0.06457125;-0.019964457;-0.04499603;-0.012579177;0.03458671;-0.29767948;0.0130845215;0.007905006;-0.40332568;-0.0069744806;0.076313525;0.005152107;0.02049422;0.058874957;-0.010380885;-0.22695923;0.09910973;-0.08002649;0.004932743;0.47439712;0.00543798;0.16586058;-0.19002055;-0.010268749;-0.011737589;-0.00049709756;0.1139131;-0.004175431;-0.42205134;-0.0026539194;-0.005415841;0.16532427;0.018086106;0.053960234;0.003065712;-0.38795036;-0.0036466336;0.013789003;-0.073793404;0.003460093;-0.43400925;-0.062099162;-0.234575;0.0006573012;0.0020007829;0.16053508;-0.08550821;-0.2751385;-0.22838534;-0.0058101253;0.08121535;-0.002122708;-0.24468374;0.08045957;-0.37400362;-0.39330214;0.0018541956;0.03364404;-0.18998344;0.18898094;0.1414981
0.0134760495;0.1837547;-0.37585208;-0.0967553;-0.07846108;-0.008013125;-0.026044924;0.021992752;0.12831125;-0.0064279838;-0.15963829;-0.0028902842;-0.008892361;-0.001150678;-0.20670135;-0.08687358;-0.009659687;-0.010460212;-0.016962836;-0.0009092951;-0.07741381;0.095929906;-0.005484372;-0.004903662;0.3366106;0.24598269;-0.020851549;-0.1366332;-0.013778616;-0.0064456863;0.051702883;-0.31481388;0.34885263;-0.011702168;0.02381693;-0.01925377;0.022771606;0.20585088;-0.080752194;-0.23315117;0.27506864;0.0053776517;-0.08266062;-0.012656001;0.40447342;-0.10880375;-0.0073216995;-0.07039982;-0.0138066;-0.36224902;-0.39877534;0.009293517;-0.009911365;0.05381061;-0.016897324;-0.006436466;0.3888098;-0.008839312;-0.010882661;-0.10234189;-0.013505059;-0.06552705;-0.021083059;-0.06676965;-0.23044221;0.1271736;-0.14155908;-0.13222452;0.006321432;-0.14870042;-0.17138705;0.23355217;-0.11812025;0.2989068;-0.00086121314;0.037268683;0.08775194;0.10888811;-0.11420796;9.598978e-05;-0.022002686;-0.006042358;-0.13525365;-0.07629388;-0.011300088;-0.3547797;-0.22967258;0.0031025766;0.0016368472;-0.103797086;-0.25637445;0.25295353;-0.002016011;-0.017499607;0.012757928;-0.11515698;0.0068757418;-0.010161456;-0.19825786;0.09309173;0.19181447;0.02428541;-0.0011477929;0.008702764;0.21916077;0.0004932839;-0.28561866;-0.008872221;-0.0052471766;-0.013620848;-0.12675306;-0.21896581;0.2478664;0.2203311;-0.00062174123;0.29746428;-0.32429704;-0.15698245;0.27684522;-0.09726723;0.13669564;0.00901502;-0.23869157;-0.18128684;0.07285829;-0.0030214551;-0.017900493;-0.07093348;0.14198336;0.0036593864;0.29980043;-0.10369862;-0.009049483;0.32137802;0.008155316;0.13683699;0.07940783;-0.18383381;-0.051201046;-0.23090053;0.0068155113;0.010340197;0.19289349;-0.39463112;0.046354204;-0.010076144;0.0068963068;-0.31424183;-0.006116257;-0.081352785;0.08382902;-0.016948575;0.042701166;-0.030178895;0.15475005;-0.024248384;-0.013980931;0.35474145;0.048879273;0.16502719;-0.23998085;0.19018586;0.12642272;0.021698492;-0.0435809;0.007543147;-0.002956608;-0.18666607;0.18393591;-0.006343141;0.015313649;0.104855634;0.012922693;-0.045887776;-0.0066081816;-0.100440525;0.17860053;0.096792646;0.21751429;-0.124165945;-0.42988163;0.14079188;0.073169805;-0.15341005;-0.00010604113;0.091750465;-0.004218362;-0.25183475;-0.07639411;-0.13275997;0.096127585;0.19495422;-0.051268768;-0.07071398;0.0964478;-0.054328397;-0.008003345;0.030552173;-0.3713985;0.036209192;0.026646266;-0.0011759059;-0.022851627;-0.0101397;0.10657647;0.089254595;0.28914163;-0.12253179;-0.031208273;-0.012783702;-0.36899102;-0.16023524;-0.00881806;0.013355379;0.1900907;-0.041105587;0.22063246;-0.422487;0.103664264;-0.070185296;0.005623536;-0.3662109;0.020752398;0.12144343;0.017265456;-0.21201794;-0.2942526;-0.010507066;0.00978568;-0.07470549;-0.09272235;-0.036557153;-0.015180307;-0.006494552;0.0752304;-0.23525566;0.31578928;-0.047717314;-0.007495653;0.23611864;0.023740262;0.05236257;0.30687064;-0.22451793;-0.0037438122;-0.13385426;-0.060671147;-0.08616713;-0.27707553;0.016903622;-0.09203064;0.012807921;0.09207584;-0.009460225;-0.0048528602;-0.14983544;-0.08583888;0.01714414;0.2516837;0.19223495;-0.120985016;-0.034803007;-0.10827503;0.123360805;0.011427747;0.18124104;0.006325297;0.025767015;-0.52735645;0.009920865;-0.0032097148;-0.16577138;-0.08767949;-0.10625738;-0.014773808;-0.16029109;-0.21168229;-0.0064132735;-0.26722413;0.032797318;-0.1284411;0.3292013;0.09358034;-0.043603096;0.006780258;-0.22567026;-0.014306698;-0.025262214;0.2111553;0.007907126;0.041721754;-0.4172979;-0.0010209342;-0.35627112;0.004272889;0.015519074;-0.13424666;0.088245146;0.09807872;0.16308336;0.22983879;0.01579744;-0.0053660767;0.001486301;-0.17901106;-0.030118562;0.100141205;0.010097;0.051959123;0.03805707;0.37637883;-0.07611987;0.00827187;-0.36491644;-0.28640887;-0.18246806;0.11930711;-0.009445462;0.013820367;0.18318255;-0.28116658;0.011438543;-0.19596717;-0.08317087;-0.020412546;0.28527573;-0.0076372554;-0.23804832;0.09750311;0.16265035;0.016212022;-0.009681038;0.22488733;-0.02253855;-0.56683266;-0.008734087;0.14127667;0.09389086;0.007956653;0.028747829;-0.0045613647;0.2131074;-0.06946082;0.35118052;0.059917502;0.02838569;0.020248951;0.0031076951;0.0016708035;0.00863106;0.34596777;-0.45393994;-0.20611964;0.22138508;0.1006938;-0.050962396;-0.0034082227;-0.018162366;0.010728195;-0.12449918;0.018340489;0.0037259327;-0.015061175;-0.23449862;-0.19160081;0.115519576;0.011392466;0.16009107;-0.12956221;0.13574357;0.19752121;0.0029096713;-0.017558236;-0.014935936;-0.016421389;0.020371713;0.023519926;0.00344516;0.0068385163;0.044323567;-0.02820804;-0.3176923;0.0042279037;0.15030804;0.005220528;-0.008864962;-0.101438686;0.065631166;-0.032469917;0.063890845;0.1566424;-0.033453505;0.0077045723;-0.004760384;0.21640754;0.20080602;0.018055415;-0.22845364;0.049785506;-0.11243157;-0.13180335;-0.006261393;-0.0034681156;0.0012573816;0.18445309;-0.0059322314;-0.5274255;-0.014655863;0.11925988;-0.005398186;0.0127451345;-0.0039301403;0.026890583;-0.012718989;-0.14891696;-0.22293952;-0.42097604;0.0044677462;0.12510711;-0.032594763;0.05622455;-0.28940585;0.19353361;0.017001407;0.19137508;-0.005899507;0.020145588;0.19988598;-0.021168338;-0.058288373;-0.20665027;-0.38095716;-0.05744042;-0.0014160138;0.0055795047;-0.12868325;-0.16750972;0.04843624;-0.12898198;0.007482083;0.0010063631;-0.00094314455;0.012862756;0.15689419;-0.030546824;0.09420174;0.0004099834;-0.19593763;0.017718388;0.08367838;-0.27393475;0.0056615807;-0.114933;0.053788424;-0.010881703;0.034105342;-0.011316794;-0.050828185;0.13869248;-0.0054063248;-0.012136113;0.0040104673;0.16184121;-0.13268697;-0.0758233;-0.18849032;-0.0003171114;0.21058524;-0.11237099;-0.14114028;0.08188806;0.5110021;-0.013613032;-0.4076052;0.13079664;0.014964009;0.0038985612;-0.3794705;0.054042656;0.008255217;-0.04501294;0.0057837893;0.13771956;0.2244709;-0.36949676;0.001052757;0.11279519;-0.41236982;-0.023341464;-0.018369;-0.013036979;-0.067228034;-0.16926752;0.015187759;-0.12030052;-0.006867746;0.15794367;-0.013470177;-0.41138318;0.052003574;0.016091479;0.008014681;0.005692795;-0.011100533;-0.098356344;0.017911732;-0.4038327;-0.030592289;-0.1351143;0.020701125;0.038780864;0.16291422;0.123510376;-0.13388903;-0.03683999;-0.030833822;0.0012326791;-0.038544625;0.015832266;-0.14239989;-0.42696986;-0.010474473;8.939233e-05;0.03678072;0.004512893;-0.13458739;-0.0034625144;-0.005067526;0.005599445;-0.013544011;-0.41148844;0.19370893;-0.0566301;-0.0060252836;0.4822233;0.029214105;0.06505462;-0.49488893;0.003023482;0.042747542;0.11480251;-0.0060625374;-0.0036092186;-0.3267692;-0.008848733;-0.006612914;0.032929704;0.0073821866;-0.13552186;-0.010045323;-0.19906062;0.0025186064;0.0033964093;-0.1591518;-0.008901045;-0.11861801;-0.008478948;-0.06238071;0.009465315;-0.013846274;0.26932135;0.10706713;-0.074720204;-0.20251611;0.0073508234;0.044499766;0.0075521995;-0.04204901;0.06210554;-0.19570859;-0.41578197;-0.011041703;0.078474246;-0.3346008;0.2036637;0.17861219
0.16412075;0.037115894;-0.39597958;-0.11877132;0.1562875;0.012128448;-0.032493327;-0.01313418;0.036902424;0.014138961;-0.30609828;-0.12982002;0.0037920994;-0.049880736;-0.3334394;-0.017658906;-0.021745848;0.059842642;0.0155274505;0.09788798;0.021132214;-0.032989103;-0.054512996;0.044657644;0.09846966;0.14311023;0.0144861;-0.10610789;0.009384584;0.014321294;-0.0037148723;-0.09212142;0.3468737;0.0033472872;-0.029751454;0.052660942;-0.024671802;0.10908542;0.29560113;-0.1809262;0.17250168;0.002164279;-0.056618102;-0.09987204;0.071559265;0.20092529;-0.00034359787;-0.052284427;0.00032827503;-0.35832483;-0.0686243;-0.007890732;0.11412497;0.08823737;-0.0053752093;-0.0008432668;0.15508963;-0.024726154;-0.19783379;-0.12180495;-0.022561433;0.0089695975;-0.00091190357;0.06287192;-0.21062836;0.19715269;-0.2870776;-0.1600791;0.00026378557;-0.16380604;0.026367731;0.43672508;-0.4144712;0.4094826;-0.11905516;-0.24133489;0.002127901;0.10199115;-0.023725614;-0.0008047217;0.02194916;-0.0039645922;-0.02075272;0.12930262;-0.0037173585;-0.38352412;-0.090130724;0.012941749;-0.004076021;0.13868189;-0.19252226;-0.018286753;-0.0023366443;0.010470044;-0.012831168;-0.09455707;-0.00085901626;0.031144356;0.03654834;-0.021399602;0.16418326;-0.01920429;0.011082264;-0.018263713;0.07702298;0.0100149065;-0.090360284;0.0123032555;0.013859568;-0.013937468;-0.03553875;-0.0050489577;0.16320504;0.18057433;-0.0063528335;0.27146932;0.057409216;-0.20127054;0.12016493;-0.10818828;0.033721857;-0.016314205;-0.15416412;-0.029246558;0.18939187;-0.024302427;-0.052903667;-0.05416265;0.24704742;0.0062335944;0.28972998;0.097983256;0.013036597;0.4098473;0.0038386714;0.026001945;-0.073403336;-0.28119272;-0.13103047;-0.13448802;0.03823693;-0.011929462;0.1073137;-0.4643382;0.16711482;0.024476936;-0.0072292825;-0.39868143;-0.0003238129;-0.1945994;0.1539848;-0.002058098;-0.104181;0.0018628581;0.009357194;0.00118632;0.010982672;0.28345072;-0.0067202635;0.046049852;-0.4159563;0.08880582;-0.12474309;0.025054285;0.087809235;0.0068293656;0.021628466;-0.08781513;0.03380485;0.0075884755;0.015700117;0.22763945;-0.0080162035;-0.014586407;0.0006508919;0.017688338;0.11073589;0.121196076;0.24443644;-0.19417492;-0.34970143;-0.10169954;0.053944185;0.007356899;0.006050881;-0.067865215;0.0075752037;-0.3576494;-0.074298255;0.0735165;-0.045289665;-0.117080465;-0.06897531;-0.18345226;-0.09885366;-0.15568343;0.023137398;0.10087671;-0.16183358;-0.2058868;0.010713456;0.0071998984;0.023557587;0.0018332673;0.03128944;-0.030948555;0.2750539;-0.0937229;-0.027973333;0.01528258;-0.33317867;-0.2851237;0.0056355624;-0.019736582;0.13798928;-0.05027772;0.21650746;-0.29244328;0.104444414;0.15723962;0.19095716;-0.22918075;-0.0030195194;-0.15765469;0.003070826;-0.026869206;-0.11431344;-0.013462598;-0.028894396;-0.05008454;-0.11348208;0.029929742;0.007999049;0.018738985;0.0056091007;-0.08697765;-0.17750302;0.033511803;0.0043938262;0.42944726;-0.09066618;0.020754924;0.045006186;-0.01804237;-0.002128688;-0.17516601;0.17070024;0.066784754;-0.27300185;0.004546785;-0.034447424;-0.008574759;-0.01359155;-0.025236806;0.008736482;-0.1053641;-0.35009015;-0.0025707877;0.15419394;0.13976546;-0.1182481;0.040992524;0.002507451;-0.1507486;-0.02001638;0.013087712;-0.0094215665;0.04724429;-0.4736381;0.011430958;-0.0068279062;0.08412491;-0.08225827;-0.18432917;0.021968096;-0.1047688;-0.065729484;-0.012404971;-0.14488779;-0.0180865;0.21510804;0.3656333;-0.012118198;-0.06593683;-0.0057852603;0.08397865;-0.011014264;0.0040536867;0.06329742;-0.0060274294;-0.1505527;-0.29317167;-0.02048878;-0.29901928;0.012946519;-0.15760022;0.0059819724;0.0687812;0.26418456;0.23569165;0.050848395;0.017419811;-0.008914801;0.011838919;-0.00930339;-0.122062765;-0.06724026;-0.020183593;-0.021905009;-0.06713223;0.22126551;-0.09327628;0.0025671949;-0.29634747;0.010446354;-0.07799158;0.18088536;0.010157491;-0.012244654;0.3786883;-0.29607004;0.0022272824;-0.22776854;-0.25311303;0.01638506;0.07382918;0.007015647;-0.2648327;0.08415515;0.37215644;-0.12311398;-0.0020476806;-0.049519565;-0.27639693;-0.31069574;0.018544123;-0.03836695;0.23256001;0.11485541;0.06692543;-0.011800981;-0.049396366;-0.1381901;0.2549301;0.1068763;-0.03339959;0.0024496713;-0.005982872;0.0046246126;-0.17032082;0.14393502;-0.20656534;-0.14779267;0.19920999;0.012272831;-0.046414442;-0.45485955;0.01024477;0.07094341;-0.037749738;0.0047404235;0.09142722;-0.01531322;-0.09856366;-0.21995167;0.1954282;-0.009920853;0.08929662;-0.060625866;0.060191203;0.16615963;0.013423647;0.01828209;0.011440943;0.0034818375;-2.7193923e-05;-0.0074865846;-0.008860912;0.0092710005;0.00053935754;-0.030970084;0.012913921;-0.00045477686;-0.16122064;-0.007020002;0.023798134;0.08311093;-0.057939287;-0.035051852;-0.1669313;0.23301089;0.06925586;0.038478572;0.018509053;0.207073;0.12395217;-0.008684809;-0.039424606;0.14949222;-0.17477874;-0.21542263;0.015962057;-0.1496936;-0.002425124;0.28849435;-0.036634192;-0.23869453;0.007397541;0.2433068;-0.0077236593;-0.01362997;0.01269925;0.2559832;-0.0059539303;0.045234554;-0.09093549;-0.25290954;0.004995542;0.092498064;0.022173231;0.21549721;-0.012837551;0.24391057;0.05738399;0.20807484;-0.0004365717;-0.02658231;0.1802018;-0.013868997;-0.03998697;-0.20687124;-0.30369535;-0.30287054;0.021657892;-0.0076016155;-0.2451801;-0.27231038;-0.2200679;-0.1563791;0.0017009549;0.0046640267;-0.040314358;-0.016686156;-0.11728538;0.004688449;-0.1744913;-0.01386375;-0.23430441;-0.016477441;0.017308183;-0.14686623;0.014817146;0.02223024;0.14027093;0.0038575002;0.007888659;0.006014823;0.012003775;0.007706231;0.0007857561;0.007510506;-0.0109218;-0.0009260214;-0.061699085;-0.045893613;-0.23732416;-0.009759181;0.07068428;-0.08576282;0.012744392;-0.1408663;0.21294463;0.016540531;-0.48489264;0.05308293;-2.076609e-05;0.005052143;-0.38422826;0.26148918;-0.007132818;-0.13091908;0.10330305;0.21348687;0.22261088;-0.08029325;-0.0072936364;0.20800956;-0.25760525;0.01816747;0.012505575;-0.011976846;-0.1118854;-0.25474283;0.28596202;0.13517354;0.00611052;0.03203059;0.009915949;-0.22431017;0.2617845;-0.20912065;-0.015390737;0.0021628242;0.013164166;-0.09190786;-0.021730663;-0.44273064;0.02441586;-0.04857677;0.012241992;0.21679205;0.23456581;0.020533301;-0.15631112;-0.00857909;-0.19754167;-0.00024324111;0.09131571;-0.0019960154;0.058535136;-0.47323042;-0.008922384;-0.002460719;0.0038279027;-0.015331038;-0.15572329;0.0029664703;-0.0033014696;0.05099598;0.010529659;0.003785164;0.006623371;-0.0033638752;-0.0077784895;0.42425054;-0.01837691;-0.17158063;-0.4938887;0.0051410943;-0.29325145;0.136185;0.030903023;0.023683105;-0.18470567;-0.0014465217;0.0007631516;0.04841307;-0.00075515185;-0.11874988;0.0147267915;-0.13858588;-0.008048203;-0.013289359;-0.19542107;0.016826589;0.035324976;0.034890145;-0.28224018;-0.011726842;0.0042684996;0.31967404;0.14871411;-0.2833756;-0.0775563;0.0012866176;-0.24751152;0.0040868083;-0.12528135;-0.030886963;-0.4488622;-0.14839718;0.0023443874;0.0065873046;-0.1377894;0.19531442;0.2522768
0.1144667;-0.10699663;-0.33215007;-0.17171274;-0.013937396;0.014760318;0.2062081;0.029527374;0.14737682;-0.004591946;-0.3694702;0.05545881;-0.013694562;-0.04552643;-0.23075423;0.101646096;0.011365317;0.066003755;-0.010218681;-0.105025195;0.023307718;-0.047558144;0.05758029;-0.06786764;-0.10859947;0.05253361;-0.14930558;-0.08390255;-0.010173065;-0.008818456;-0.073523305;0.036412727;0.32019585;-0.00036518803;-0.004098943;0.019379815;-0.082108535;-0.020332575;0.29634604;-0.091319226;0.1526906;-0.024295975;-0.034118883;-0.1323365;0.23094442;0.24992749;0.0012085743;0.10353872;0.015628109;-0.33522308;-0.22953455;0.007554057;0.29728436;0.12620197;0.0037898405;-0.000719179;0.20363872;0.019014657;-0.10988545;-0.040262498;-0.019217703;0.12762073;0.00029548327;0.15058172;-0.2791941;0.15875441;-0.30622476;-0.055296678;0.0016733112;-0.05825947;-0.010566548;0.4076999;-0.37730888;0.19138087;-0.18705992;-0.4007071;-0.09870982;0.12840211;-0.042782027;-0.018386833;-0.045614526;0.0011818284;-0.018501146;0.34031755;0.00403901;-0.0150268935;-0.061630547;-0.00956739;0.00595284;0.49417847;-0.03474568;0.120507896;-0.009204151;0.008059889;0.009617423;0.038449682;-0.010235052;0.039209057;0.08747466;0.121248886;-0.009477477;-0.013369433;-0.0039666262;9.498992e-05;-0.001359523;-0.02054982;0.117312185;0.0049731536;-0.0050067776;0.015902163;0.09380308;-0.031462282;0.13439111;-0.08115672;0.0012254219;0.061011802;0.2623145;-0.21998681;0.16565204;-0.043913245;0.23445775;0.015219438;-0.20833571;0.15547054;0.13464919;0.013462485;-0.09731056;-0.08899166;0.20629188;0.0043644286;0.27721012;0.30932906;-0.001539665;0.38388062;-0.006479444;-0.07150913;-0.082918964;-0.13672978;0.05478784;-0.34427634;-0.051750086;0.00427431;0.04435195;-0.30916667;0.07440827;-0.023793923;-0.016125722;-0.2950991;-0.0020737525;-0.1811085;0.2694057;-0.19746508;0.020919759;0.008408424;-0.0017389915;0.22815035;0.0059035;0.3331851;-0.014503848;-0.25323436;-0.22824842;0.26885495;0.111104704;-0.032456543;-0.2472129;0.0020645296;-0.01751192;-0.040343057;-0.089548945;0.007382648;-0.024742981;0.1435314;-0.0073367134;0.03246502;0.00486824;-0.015827345;0.2925848;0.24495055;0.13765821;-0.05084848;-0.21205243;-0.16194196;-0.038787395;0.066651866;-0.003955518;-0.042019922;0.009175262;-0.26143196;-0.2332006;-0.010065372;-0.05526008;0.08576818;0.0975099;-0.1536264;0.031823717;-0.13592105;-0.016146595;0.043684267;0.025582789;-0.3581129;-0.02266857;-0.012697779;-0.01916091;-0.008875037;-0.042008903;0.017609904;0.29944092;-0.08127968;-0.20589563;-0.010783968;-0.42480618;0.08081795;-0.009335444;0.012194124;0.02388178;-0.018577153;0.0950345;-0.1028971;-0.017829604;0.11007199;0.18353578;-0.13251753;0.12610754;-0.26111174;-0.02061354;0.048180666;-0.07933096;0.002556896;0.004602656;0.03773991;-0.03869186;0.18267372;-0.0053920243;-0.040450744;0.016647637;0.028490147;0.050055392;0.02060028;0.0127783725;0.09567499;-0.053514685;-0.0045872005;0.082220465;0.1674737;-0.02303355;0.055953667;0.08817682;0.084264815;-0.21021578;-0.0036146832;-0.23642102;0.0067895325;0.08858161;0.07238933;0.0013610005;-0.099648975;-0.018245287;-0.0014428749;0.14554077;-0.0011345826;-0.15861835;0.09995346;-0.040742286;-0.059306167;0.01628702;-0.10783953;0.006725395;-0.032793034;-0.40060407;-0.016281242;-0.0054085767;0.22109047;-0.21948995;-0.24154827;-0.004462061;0.04880911;0.20747247;0.005757612;-0.3156606;-0.0039927773;0.02364771;-0.07703746;-0.08314979;-0.17959318;-0.008653435;0.03310326;0.003925969;-0.2118333;0.07589619;-0.011302508;0.10974221;-0.23797822;-0.18588202;-0.23232794;-0.013313732;-0.118940555;-0.0036734377;0.23595795;0.10200471;0.12508099;0.16049266;-0.03179377;0.005608224;-0.0032533715;-0.077566184;-0.05070601;0.1501889;-0.004702026;-0.011559408;0.040905524;-0.03732898;-0.16419958;-0.01015888;-0.2446915;0.080292515;-0.10736091;0.20329049;0.0092023425;0.005165341;0.20372263;-0.31986055;-0.009260951;-0.23662876;-0.2741153;-0.03063485;0.30055973;0.0037092986;-0.41278097;0.33194107;0.10521628;0.04058469;0.004753711;-0.15047067;-0.492474;-0.39796457;0.011912117;-0.028599706;0.24555941;-0.018195879;-0.13701689;0.0025926102;0.057249647;-0.15564181;0.067794904;0.09598554;0.025731448;0.0065747956;-0.014353336;0.070975505;-0.065913334;-0.2212548;0.06083824;-0.24779846;0.13137671;0.031795282;-0.0021586677;-0.33253533;-0.019040104;-0.056057293;-0.10397227;-0.0026955614;0.15199037;0.010983743;-0.21780972;-0.14627975;0.14075746;0.001506572;0.031948928;-0.030732954;-0.38474098;0.05045172;-0.20659883;-0.025558628;-0.00020737259;0.010221989;-0.006898702;0.026544472;0.014120807;-0.013160468;-0.02708995;0.0274326;-0.070613325;-0.0036834446;-0.15399754;0.0042073852;-0.018745467;-0.15871984;-0.0543672;-0.21387097;-0.08256531;0.15574846;0.044925723;-0.07736376;-0.012035877;0.07587136;0.06738333;-0.01603119;-0.08048475;0.2740922;0.11751779;-0.28091556;-0.00031396002;-0.02810846;-0.0043195407;0.2307935;-0.10398361;0.4308557;-0.00029319557;-0.16658977;0.0027313496;0.0020048113;-0.030180007;0.17788775;0.01186129;0.138365;-0.11987742;-0.15510994;0.00053809566;-0.005576639;0.003335247;0.18158512;0.20473698;0.022708401;-0.020709088;0.19631322;-0.0021933925;0.016962985;0.18401861;-0.37881482;-0.011489462;-0.23036745;-0.3458569;-0.2711422;-0.022250721;0.008600579;-0.25055626;-0.6628044;-0.29932392;-0.23419756;-0.01375953;-0.012756349;-0.26655117;0.018121028;0.083276056;0.038477905;-0.3983286;0.022371044;-0.21681046;0.0030675349;-0.10493416;-0.004382917;-0.021832868;0.07787757;0.10897314;0.0024878578;0.08290323;-0.02003562;0.080341026;-0.026370758;-0.0015660588;-0.004866191;0.004027574;0.23431098;-0.016261037;-0.11668238;-0.17502257;0.009722505;0.10709642;-0.15437464;0.006390265;-0.08725833;-0.2768553;-0.0030301816;-0.4639477;-0.44071427;-0.002664184;-0.021187274;-0.4062215;0.14741519;0.016062673;0.02354174;0.16191365;0.26107043;0.12970777;-0.23745227;0.008114635;0.22422144;-0.30800712;-0.0024456845;0.22644907;0.009583546;-0.016169194;-0.23297463;0.53519887;0.117129065;-0.0057451962;-0.038544476;-0.014326768;-0.4605148;-0.055299137;-0.17479004;0.0044111423;0.0027577379;-0.006982238;0.022770157;0.008422152;-0.12909587;-0.026280468;-0.04996475;0.23709126;0.018263647;0.054763965;-0.034926806;-0.098940514;-0.10184028;-0.24592985;-0.004785216;0.14221032;0.001131466;0.011841343;-0.41464508;0.0071992087;-0.007527963;-0.17149295;0.022038212;-0.061874647;0.01114694;0.002164427;-0.016261239;0.00847325;0.07390182;-0.049241297;0.12673248;0.013755826;0.4929671;0.05205694;-0.049134802;-0.4736023;-0.0043820157;-0.4732717;-0.12870349;-0.045234524;-0.003377381;-0.26989594;0.013849472;-0.003770241;0.14485802;0.00594561;0.06002515;-0.005332071;-0.14413953;0.020352768;-4.641067e-05;-0.036445387;-0.015707634;0.0026898484;0.23638695;-0.6649104;0.008123466;0.008362409;0.27936143;0.18342942;-0.27307796;0.021858105;0.0097508645;-0.01194022;-0.0015936376;-0.07366851;0.1706446;-0.55450684;-0.12149904;0.013357702;0.13304844;-0.033724055;0.021681916;0.18558852
-0.08537805;0.094731174;-0.2693905;-0.15878953;0.18662101;-0.022534972;0.2165593;-0.0257876;0.054199845;-0.008983111;-0.29964483;0.22603725;0.016403833;-0.1225416;-0.3467249;0.16538984;0.0022787189;0.107747644;0.0064550145;0.096651845;0.23211597;-0.0066360063;0.014660095;0.024952354;-0.07087652;0.18867691;-0.120617636;-0.063774295;0.008998001;0.025129156;0.026151635;-0.046995282;0.061952483;0.008566304;-0.008160294;-0.09057388;0.04764212;0.018983139;0.17558704;-0.28332815;-0.054938126;0.019367663;-0.029540647;-0.30642292;0.29251397;0.024687048;0.01906607;0.03977199;-0.00960618;-0.26170382;0.09351082;-0.01819411;0.20624459;-0.0044721924;-0.0057393867;0.0077960794;0.12657635;-0.011757005;-0.04751192;0.042852953;-0.04299001;-0.06441084;0.010441923;0.29263428;-0.17192224;-0.03468109;-0.18312103;0.040771164;0.012466749;0.14823471;0.028720668;0.29980004;-0.48958343;0.2877332;-0.27709985;-0.45985022;-0.16382895;0.25477964;-0.26428106;0.030442761;0.017771896;0.00096072356;0.05142692;0.14416656;-0.032273073;-0.02861137;-0.000787031;0.011997951;-0.009910288;0.30656812;-0.03588866;-0.07601549;0.014000956;0.0036204478;0.0045320243;-0.08407034;0.008825533;0.05663499;-0.17208184;0.11581609;0.11055581;0.0436497;-0.0059995223;-0.113691546;-0.0027014785;0.005174631;0.048925042;-0.005851565;0.0016977509;0.012379799;-0.014757863;-0.25459367;0.14465313;-0.26813918;-0.009700802;-0.2481767;0.2421061;-0.15756848;0.16226639;-0.09138879;0.09317368;-0.00407622;-0.23310693;0.031206133;0.25518653;0.09402592;-0.13689148;-0.13294663;0.008098434;-0.004937415;0.049335558;0.03157018;-0.0010394296;0.14154397;0.0069280574;-0.02870772;0.08922499;0.04949523;0.037221298;-0.28622383;-0.13134336;0.011097741;0.13484281;-0.13514234;-0.077792175;0.005101678;0.016021159;-0.10734984;0.005419879;-0.27460393;0.43780732;-0.22847524;0.093905434;-0.010853098;-0.012453233;0.22314368;-0.0050792713;0.084399424;0.0882411;-0.31270772;-0.12146286;0.46342745;-0.0011941643;-0.085043296;-0.02016688;0.0011564348;0.023915825;-0.02299097;-0.05704447;-0.027006788;0.024351362;0.32073563;0.006214866;-0.029728467;0.018006748;0.044037204;0.2245827;0.29850698;0.19476525;-0.06441676;-0.18341582;0.069563374;-0.26236403;0.029874183;0.006277108;0.17432429;-0.015024284;-0.08473344;-0.1659191;0.03407476;0.06309218;-0.004340233;0.30381775;-0.4170838;0.08065064;-0.006708126;0.011165492;-0.008996461;-0.0104293125;-0.29478234;-0.07932508;0.020132786;0.012903551;-0.00085631496;-0.032348394;0.05530465;0.259754;0.16107811;-0.12849304;0.0026317243;-0.5834328;-0.06449474;0.016682616;-0.013250485;-0.047255356;0.13611494;0.13407212;0.0273757;0.07731327;0.27496436;0.05599194;0.294754;0.1247018;-0.07996261;0.014940219;-0.027774151;-0.22944133;0.0002844108;0.0023469678;0.22305264;0.06363996;0.23565646;0.008409213;0.01191346;0.13142948;0.186564;-0.078622445;-0.24257647;-0.0044531464;0.052150108;-0.010220548;-0.27398556;-0.116408706;0.2685517;0.010879039;0.20896015;0.16105352;0.1642298;-0.273677;-0.008353173;-0.47345886;-0.005781965;0.031501714;-0.21187893;-0.021887068;-0.049024288;-0.069163404;0.0030939612;0.2269094;0.20190823;-0.15114234;-0.089794956;-0.3170062;-0.13588189;0.00025453354;-0.058715947;-0.0095178215;0.044321526;-0.32327923;0.010198635;0.025824929;0.038355134;0.0044218884;-0.11704689;0.0036169393;-0.012033351;0.48321712;0.002089323;-0.21274942;-0.0052690357;-0.04153374;-0.27257717;0.09452971;0.069136724;-0.0053173197;-0.23763171;0.0015270514;-0.23635523;0.15142305;0.0075418195;0.3205551;-0.08776074;0.07954489;-0.058992878;0.00082151283;-0.023120513;0.22723374;0.105466105;0.046269823;-0.056241542;0.029717265;0.008102907;-0.009453051;-0.009121409;-0.09533093;0.05147361;0.19651972;0.010509833;-0.26278922;0.23526981;-0.11570846;0.0437214;0.0003217568;-0.11141615;0.028225482;-0.033841163;0.21982075;-0.01854643;-0.016478326;0.30890238;-0.49959952;0.009434154;-0.2771937;-0.17321423;0.025064347;0.43075123;-0.008471412;-0.44065738;0.20620234;0.1070609;0.038512632;0.0061951205;-0.0659454;-0.25157192;-0.42532957;-0.017443039;0.24192318;0.07462538;0.059747428;-0.35311475;-0.0051518874;-0.037942052;-0.28382075;-0.26119623;0.130298;-0.023268348;-0.019228563;0.0048848647;0.15971328;0.20751594;-0.20077515;0.09028739;-0.103687115;-0.01107416;-0.12247387;0.06977962;-0.07329068;0.018969057;-0.14939888;-0.1991242;-0.013867212;0.17537463;-0.015636744;-0.09628555;-0.11922027;0.066775784;-0.008846327;-0.17235155;-0.18954076;-0.4240702;0.12170137;-0.09707;0.027017431;-0.0112688225;-0.012189945;0.008102139;-0.02277745;-0.003489522;0.009165559;0.027814785;-0.0030770681;-0.2903811;0.01198481;-0.20055911;-0.004213083;-0.011725107;-0.15749584;0.0064679882;-0.059935573;-0.2648391;0.0090035945;-0.09151177;0.12087729;-0.0022828998;-0.011463462;0.04114028;0.019135013;-0.14723226;0.27036068;0.08439815;-0.26244354;0.002366276;-0.026536843;0.015344167;-0.02273496;0.0018175517;0.2713615;-0.025815649;0.13023537;0.0036725872;0.0029858835;0.013356936;0.22578077;-0.0057543516;0.10272504;0.05608758;-0.024353608;-0.00026427043;-0.10017615;-0.00039301126;0.22063614;-0.040071525;-0.055737905;-0.20094942;0.29551655;0.0009704062;0.006373513;0.16038913;-0.48657888;0.11576269;0.023864236;0.012313015;-0.15479308;0.030169768;-0.0068072225;0.006102192;-0.5453589;-0.05353123;-0.20428413;0.03335878;0.0027325999;-0.30592942;-0.015790341;0.16415192;-0.08487304;-0.21251185;-0.012117237;-0.07196028;-0.013054689;0.09236474;-0.15416901;0.0065400996;0.2518562;0.20847858;0.0003878932;0.064328276;0.0077470364;-0.05708334;-0.009941157;-0.0029578772;0.0075580277;-0.0027337216;0.012800201;0.10670361;-0.11346097;-0.11455261;-0.008631757;-0.114062935;-0.001333805;0.117362715;-0.123837784;-0.52804047;-0.002484502;-0.4704424;-0.14164609;-0.0063467706;0.005445934;-0.13177705;0.1499369;-0.001552367;-0.31877106;0.2203281;0.2549714;-0.04064243;-0.09245069;0.0038227616;0.19271018;-0.1792388;-0.005497248;0.15913747;-0.001250207;-0.077110164;-0.06658234;0.5205265;-0.10607882;0.00550705;-0.1290942;0.013219467;-0.37157565;0.1546847;-0.17475526;-0.0020020078;-0.002515715;0.003083284;-0.18119586;0.003787156;0.049690172;0.019577997;-0.117734775;0.008211333;0.061382007;0.14832994;-0.04195141;-0.10717137;-0.15257798;-0.21967098;0.004904039;0.089957155;-0.0111158;-0.069285296;-0.24144371;-0.0024055224;0.006219336;-0.22171007;-0.008596324;-0.21444303;-0.020087522;-0.014473968;0.022067701;-0.020347614;-0.0027165888;-0.022961432;0.14131227;-0.00946776;0.5020122;-0.02703328;0.05270588;-0.42191052;-0.010513857;-0.38874155;-0.26003906;-0.05416346;0.0032902171;-0.1581355;-0.0022962163;0.0049723815;0.09631992;0.0038551774;-0.12806739;-0.010881765;-0.24100351;0.0070183417;-0.0062866006;0.01747341;-0.0023635621;-0.08492962;0.0130328;-0.6048187;0.0001259502;-0.0005291063;0.32321817;0.14480667;-0.07982165;0.045225035;0.003142031;0.08542367;0.00255955;0.04696889;0.26068574;-0.18627457;0.013721137;0.0053929915;0.2539858;0.09647706;-0.1848092;0.29788053
-0.100197814;0.13915497;-0.25908878;-0.29249036;0.10205319;0.01768328;0.38225117;-0.013646076;0.13553935;0.005624156;-0.22403154;-0.090476766;0.0014114939;-0.21562763;-0.12640487;0.16499758;-0.011501023;0.13316694;0.0014292317;0.05134252;0.11625479;-0.22819683;0.06819247;-0.060105663;-0.19634187;0.0899502;-0.17842379;0.20165493;0.009313134;-0.014030229;0.011994795;-0.049173288;0.11566312;0.00095106644;0.014120021;-0.004645111;-0.027968751;0.06719969;0.13510972;0.06985397;-0.057727132;-0.011395426;0.034314513;-0.16798855;0.21204361;0.120764256;-0.0079691745;0.09491315;0.01252065;-0.17322308;0.12784792;0.005951181;-0.0916156;0.038728274;0.0028937787;-0.011974793;0.24785191;0.008956353;0.04870297;0.008013194;-0.059287906;0.13780057;0.002520423;-0.09256912;-0.2077855;-0.071647555;-0.13953833;0.1202531;-0.011095932;0.092414245;0.19613811;-0.052586842;-0.20957279;0.34197456;-0.2674145;-0.18795617;0.0003000327;0.05322676;-0.33133125;-0.013309762;-0.022401948;0.010482546;-0.07695431;-0.15118536;0.008032454;-0.35570833;0.0941705;-0.02192299;-0.008967531;0.16121617;-0.16035523;0.070979014;0.0056017386;0.019372849;-0.017029619;0.05737323;-0.0042303363;0.042028263;-0.042023797;0.08525416;-0.014532804;-0.03418483;-0.002311797;-0.078325406;-0.12016618;0.00622727;0.3881542;-2.5760573e-05;-0.011939416;-0.012851296;-0.10062237;-0.21493268;0.32338423;-0.3844003;0.001973005;-0.3819892;0.287694;-0.1878262;0.15107462;-0.24512784;-0.12819105;-1.1095867e-05;-0.09877448;-0.073099755;0.2098661;0.02513348;-0.084461726;-0.016038517;-0.088378645;-0.00018344578;-0.08432989;0.13050993;0.0026430385;0.081880026;-0.016317284;-0.06866007;0.12260253;0.050343234;0.25529724;-0.11567199;-0.11520105;-0.028460639;0.26859522;-0.34415886;-0.10167819;0.004717395;0.0031984565;0.07703844;-0.0049463497;-0.11988;0.15444654;-0.23503673;-0.020713551;-0.006689155;-0.056597788;0.10781705;-5.0007242e-05;0.07573242;-0.030055042;-0.15598178;0.07807334;0.48366237;-0.16596954;0.032415785;0.25817755;0.0015805507;-0.04641172;-0.19274502;0.26276103;0.017378576;-0.02772962;0.25137076;-0.009541929;-0.012677318;-0.025829041;0.04964565;0.3506354;0.27992123;0.1302159;-0.16514786;-0.21379939;0.12519361;-0.3419932;-0.051318225;-0.008204243;0.037932876;0.00043653493;-0.14952363;-0.25871488;-0.14944889;0.26039428;-0.31721845;0.11990601;-0.1852723;0.322823;0.06958313;-0.015980368;-0.019154012;-0.056558594;-0.32116485;-0.053407144;-0.018673161;-0.026873766;0.015128706;-0.21865176;0.23915339;0.26028106;0.1368102;-0.22750488;-0.011942547;-0.45729116;0.0066988315;-0.00506159;0.0060679023;-0.08505409;0.123232774;0.12334022;0.060367722;0.18510333;0.05836487;-0.18310216;-0.043996308;0.024225714;-0.09248937;-0.0017841356;0.08922931;-0.008607757;0.015991395;-0.005412573;0.15092653;0.0611855;0.10745858;0.0108944215;0.017785443;-0.01287068;0.025470208;-0.14422593;-0.11722831;-0.010093531;-0.057117242;0.20343533;-0.019630821;-0.12051314;0.31981772;0.005447413;0.22776586;0.08593395;0.2147277;-0.34440783;0.0021689653;-0.33069196;-0.0005848216;-0.1103714;0.0010570738;0.024358891;-0.05872932;-0.034863696;0.02077154;-0.0038842168;0.28511506;0.017616823;-0.23677705;-0.2312822;0.1536946;-0.004578481;0.1827807;0.0024492221;-0.015904984;-0.024171745;0.010919422;-0.015116194;0.095420055;-0.025269482;-0.052625366;-0.0029772974;-0.0757188;0.026262725;0.010263993;-0.22151431;-0.00013555771;0.007762165;-0.13189381;0.13563651;0.039318677;0.0058529223;-0.24453825;0.02156641;-0.0130567355;0.13119107;0.004757522;0.42853987;-0.22170618;0.13207644;-0.18031052;-0.011241418;0.0029426273;0.015967023;0.17880455;-0.058319077;-0.10647862;-0.29496512;0.0030277262;0.013127647;-0.005900723;-0.021774251;0.23413016;0.29210928;-0.019616805;-0.14652844;0.18708587;-0.13368046;-0.104368635;-0.0013667694;-0.16751757;0.16292523;-0.1103421;0.3665658;0.0049525546;0.0026589627;0.090969324;-0.14078683;0.010774561;-0.34320045;0.15033329;-0.012852336;0.2700771;0.006091617;-0.48685545;0.099310465;0.18227534;0.2836632;0.015323541;0.0908678;-0.07312163;-0.40827537;0.00644908;-0.029514262;0.10324658;0.23423086;-0.21048847;0.0207554;-0.23257655;-0.14496443;-0.1051043;0.03691474;0.0030219494;-0.0048150397;0.0048112497;0.15125185;0.115601465;-0.12412105;-0.112663604;-0.12267152;0.025271514;0.005371242;0.03203276;0.018441347;-0.0024647892;-0.019964634;-0.17727384;0.051016387;0.27227953;0.013958479;-0.069946945;0.015456817;-0.006798119;0.013705708;0.056611963;-0.008573059;-0.7184452;-0.098211296;-0.26343885;-0.02138218;0.02533755;-0.008868651;-0.014140344;-0.010175839;-0.001189548;0.027752357;-0.0068251784;-0.004042032;-0.2869592;0.0035557414;-0.06660564;0.0016036297;0.019122178;-0.1961286;0.012729102;-0.07976636;-0.11292318;-0.1734642;-0.09038885;0.23413433;-0.0035520794;0.14669085;0.022236375;-0.015638676;0.075188085;0.20620538;-0.40511334;-0.34965855;-0.015170957;0.13864264;-0.00051681924;-0.06532991;-0.12338735;0.026910687;0.01916589;-0.09069537;0.005236017;-0.011122458;0.0026955788;0.12160601;0.013187568;-0.09030673;0.3504935;-0.11062102;0.0073077288;-0.06438366;5.870174e-05;0.39384654;0.095364295;-0.03782792;0.05440976;0.03588925;-0.019639496;-0.018756837;0.06481823;-0.63969237;0.0641098;0.112683535;-0.03223874;-0.057328623;-0.021371208;-0.005001112;-0.11758241;-0.29043016;0.079931825;-0.29324046;-0.036592234;-0.0065141413;-0.21579272;-0.015857752;0.011223338;0.057232574;-0.037555113;-0.0012408064;0.23548482;-0.0040323827;0.0634989;0.11524958;0.00995466;0.20925626;0.20295149;-0.0034780174;-0.060283765;0.0045052697;0.17368574;0.20395318;0.0029217596;-0.0007902814;-0.0045144157;-0.18135844;0.18479133;0.06756845;-0.38569015;-0.0019145414;-0.25142586;0.13117556;-0.025140913;-0.1292406;-0.24486;0.0061349957;-0.49766216;-0.063762195;0.012415846;0.0097442465;-0.37192822;0.1233927;-0.02158848;-0.38279504;0.31516215;0.30687153;0.011003347;-0.17338505;0.0017477601;0.33675078;-0.24905893;0.0033588775;0.36871707;-0.005718539;0.1444686;0.001451078;0.4701845;-0.030329416;0.0032418212;-0.42642224;0.016422683;-5.1112256e-05;-0.018505229;-0.18110134;0.0051831235;0.0044001527;-0.0065153977;-0.024226734;-0.008856111;0.04775375;-0.01917411;-0.106466636;-0.1582055;-0.12226373;-0.03847157;0.19405293;-0.1626304;-0.03327682;-0.1833754;0.013225982;0.28888857;0.012319388;-0.16731565;-0.22636561;-0.011531547;0.011874366;-0.0791466;-0.006806209;-0.1604535;0.017025081;-0.004335633;0.121788606;0.009854702;-0.061007176;0.0044513466;0.008388233;-0.0028452124;0.20146517;0.010754115;0.16909672;-0.48881242;0.01553532;-0.32779694;-0.15569477;0.02990099;-0.011204535;-0.20911735;-0.011026209;0.0035514499;-0.019763663;-0.0071922163;-0.09822063;0.016336318;-0.37403598;-0.01233246;0.01284164;0.07049645;-0.0038742071;-0.14343232;-0.025020005;-0.5939422;-0.0020535735;-0.0025516055;0.22245333;0.064666726;-0.02607204;0.15621443;-0.014342678;-0.11045222;-0.01533797;0.30316082;0.091715105;-0.05628004;-0.051506605;-0.012520374;0.08221695;0.20009735;-0.0046134065;0.19609849
0.012220958;-0.09641448;-0.0066538206;0.029959492;0.11611361;0.0071169953;0.013349242;0.019449683;-0.13173091;-0.0077674994;-0.24558921;-0.25575805;0.0066447775;-0.23420252;0.015852282;0.16412207;-0.0035638788;0.020638842;-0.007722668;-0.0429907;-0.13223869;-0.22134992;-0.03545154;0.05100177;-0.14003626;0.2531548;-0.14921561;-0.1353232;-0.0031834096;-0.016845101;0.033412885;-0.1760785;0.21238057;0.007229219;8.133498e-05;-0.03162986;0.020050615;0.14347267;0.09989714;-0.015497418;0.024201656;0.016853139;0.0013860714;0.113809265;0.08404143;0.11460322;-0.008056628;-0.015142861;-0.00869123;-0.084675625;-0.029000388;0.004503238;-0.107923076;0.1358386;0.0056524286;0.0051970407;0.3718624;-0.024839498;0.13501371;-0.10466163;-0.019011853;-0.040329833;0.010550472;-0.058315214;-0.31599063;-0.012449599;0.037236694;-0.021287182;-0.0029941478;0.14722027;0.1341677;-0.13531864;-0.10958505;0.15490612;-0.25452402;-0.29002383;0.028197674;-0.15521131;-0.22328082;0.01387539;0.010303152;-0.009538833;-0.05680273;-0.18508242;-0.035508767;-0.20401895;0.12874892;-0.004207404;-0.007363242;0.18941866;-0.10703091;-0.09451749;-0.008011764;-0.015589252;0.017681707;0.04418368;-0.0046856566;0.024320979;0.13657013;-0.005419372;-0.007623414;0.007072942;-0.0003122774;-0.0986228;-0.010353449;-0.01577849;0.07008204;-0.008450871;-0.004377323;0.00014395613;-0.09369462;-0.1438244;0.2486939;-0.48007122;0.0046201223;-0.49905348;0.25325778;-0.16262133;-0.1269055;0.07850319;-0.11184484;-0.005850426;-0.18963294;0.14532602;0.1307579;-0.07898592;0.04312279;0.009709085;0.054102633;0.001141961;-0.18885526;0.00998528;-0.0069767456;-0.039722487;0.013471269;0.15812379;-0.04894879;0.21395382;-0.015668992;0.055721596;0.0130577115;0.010324964;0.16454162;-0.52936494;-0.07860636;-0.022817608;-0.01352449;-0.052074615;0.00584518;-0.10846679;0.12975647;-0.2596602;-0.040168326;0.007490191;-0.050949857;-0.019438818;-0.0055991076;0.080319546;0.1905066;0.020163668;-0.078701995;0.2282019;-0.19164109;-0.042807702;0.5365225;-0.009082674;-0.04494785;-0.11556683;0.17769618;0.007908425;0.02161801;0.19242176;0.001192426;0.01784045;0.010661065;0.17971802;-0.054302428;0.2624074;0.034014214;-0.1814632;-0.10255536;0.1290149;-0.35165358;-0.14512734;0.009095513;0.035924412;0.0029399842;-0.17227326;-0.16899693;-0.21539345;0.0013943387;0.003106615;0.18513256;0.019744245;0.44627434;0.22156847;0.019189153;-0.17773466;-0.017567778;-0.26642376;0.08770352;0.0033536109;-0.009321945;-0.018177275;-0.18176946;0.12905823;0.038557474;0.27367637;-0.22288762;0.011454497;-0.404386;0.17693892;0.0047541806;0.009729132;-0.211458;0.15205546;-0.052996207;0.16697843;0.22153093;0.22451565;-0.001451429;0.15885428;-0.16670416;-0.03976518;-0.0012992349;0.10160349;0.16583432;-0.03273387;-0.00083696307;0.024682475;0.053280782;0.008197845;-0.014406835;-0.02301643;0.03823621;0.063824944;0.0008445215;-0.14600201;-0.013242248;0.03231884;0.23019572;-0.108186506;-0.20956601;0.18202446;-0.01285939;-0.06441995;0.04125182;0.10420667;-0.2188556;0.018419791;-0.20711015;-0.00022308699;-0.17764498;-0.053865902;-0.009115083;-0.10472223;-0.032353748;-0.017649876;0.18124904;0.27352953;0.13343298;0.0059625455;-0.15240161;0.17764816;-0.0042865025;0.4028736;-0.005217403;-0.0075372295;0.006748114;-0.015195554;-0.0136090005;0.16796789;-0.309168;-0.045605298;-0.012510115;0.045724593;0.01022117;0.0014848199;-0.22350697;0.004351453;0.013356636;0.1492301;0.058756307;-0.40281665;-0.02261212;-0.0068679308;-0.015070202;-0.021541484;0.13133863;-0.010634773;0.33123884;0.032742333;0.24414109;-0.2298113;0.0018458281;-0.047362152;-0.0796516;-0.073778495;-0.6290426;-0.268223;-0.5457295;-0.010019626;-0.02693995;-0.0036437283;0.14652385;0.07358775;0.16919948;0.016995795;-0.2766547;0.19815904;-0.09917923;-0.104275666;0.0015527119;-0.09582549;0.16079743;-0.16142614;0.16339883;-0.0037029607;-0.0073428415;0.18273824;-0.25692666;-0.03408265;-0.22557701;0.30050924;0.011623109;0.18571955;-0.009634704;-0.2953506;0.31542012;-0.064497195;-0.2069944;-0.009143406;0.09134102;-0.00532944;-0.39700785;0.0038693924;-0.26363882;-0.21961223;0.16890295;-0.39222008;-0.010048327;-0.285378;-0.23695053;-0.08822636;0.08742652;0.0092050275;-0.009826458;-0.0074106334;0.18349122;0.19139925;-0.3414816;-0.045207236;0.0020085133;-0.05312332;-0.047756918;0.071368575;-0.40136382;-0.017784916;0.024812287;-0.18659823;-0.017957816;0.11232693;0.008405591;0.076659404;-0.26075396;-0.07962923;0.002114246;0.10056326;-0.24304242;-0.53005636;-0.26728797;-0.17914297;0.020819606;-0.02236159;0.0082513625;-0.005604506;0.008676256;0.00010883127;-0.0036275247;0.021345623;0.014883726;-0.47314757;-0.020210585;-0.19408579;0.014203612;0.0008749397;-0.03513631;-0.0008403261;-0.13914478;-0.12175401;-0.06758254;-0.21278402;0.020728495;-0.005743281;0.22763693;0.13219309;-0.006590206;0.094017334;0.13468167;-0.38324055;-0.09335335;0.013037185;0.031059721;-0.009691611;-0.24550301;-0.08546454;-0.04623215;-0.011398912;-0.021309897;-0.006952036;0.0024465155;0.002620261;0.19290493;-0.01180508;-0.0393551;-0.047589798;-0.12051842;-0.0127195;0.023862576;0.013630497;0.0015608607;0.10120655;-0.009927378;0.1271037;-0.19725536;0.008009774;0.010312429;-0.04210921;-0.8220876;0.010109305;0.25008214;0.19897686;-0.17216325;0.0037785165;-0.011417076;-0.11627922;-0.036090255;0.0798187;-0.3077856;0.012408054;-0.004924201;-0.076310754;0.014682846;-0.088635296;-0.042165972;-0.034776777;-0.0071338625;0.16308743;0.013641709;0.14139946;0.09103787;-0.012778716;0.27083185;0.062209006;0.015016555;0.021276107;-0.005018164;-0.044488627;0.40066767;0.013015932;-0.007115604;0.016408635;-0.014462742;0.25429493;0.021745687;-0.28408703;-0.0034343023;-0.13034557;-0.026539316;-0.051541205;-0.112143025;-0.34466317;-0.011554793;-0.3592665;0.0776271;0.0006401124;-0.015312964;-0.39781362;0.2930747;0.0069645736;-0.22102365;0.29433343;0.1704966;-0.08489994;-0.023666695;-0.010380575;0.17226467;-0.22778255;0.0019726944;0.175608;0.029498093;0.1469364;-0.10281973;0.11785953;0.01957387;0.013081407;-0.13950866;-0.024244908;-0.1531043;-0.06714735;-0.21575566;0.0010272284;-0.013422485;-0.0046075652;0.03438853;0.017710568;-0.017293448;0.027428912;0.065676056;-0.12561168;-0.24643521;0.0022871615;0.2542637;-0.04856515;-0.034707706;-0.25306308;-0.019699536;0.05781678;-0.019640809;-0.005215041;-0.1551582;0.01481205;-0.0039809076;-0.22848491;-0.004869131;-0.2675573;0.004490654;0.018320678;0.06608176;-0.015681459;-0.0009349679;-0.2279344;-0.00056838855;0.00396758;0.04623849;0.015273648;-0.1369717;-0.4315633;-0.01731286;-0.39600897;-0.0837204;0.023459671;0.00088220224;-0.18229064;-0.008429844;0.0010348334;0.039491545;-0.015407329;-0.14921634;-0.0097051775;-0.13023637;-0.00039393263;-0.0033411726;0.0045333435;0.009995427;-0.21680841;0.03703848;-0.5947355;-0.002911234;-0.013376976;0.27914417;0.22671326;-0.16803402;0.09618588;-0.005527927;0.060312293;-0.0010342097;0.07931164;0.06208652;-0.07690946;-0.13315015;0.018685184;0.020536892;0.19677761;0.030629976;0.3587676
-0.08093846;-0.107064344;0.19062118;-0.1013542;0.055563815;-0.012916269;-0.19160369;-0.021172592;-0.17117003;0.008011686;-0.31764954;-0.45445505;-0.014229724;-0.03445001;-0.108258516;0.15582338;0.009311165;0.0763662;0.0070780446;-0.1734973;-0.2106701;-0.14942531;0.0590508;0.06716754;-0.3459994;0.22193049;0.07719395;-0.03611549;0.0016182621;0.0027795145;0.009642574;0.04686324;0.09459674;0.008034398;-0.012170583;-0.052756753;-0.16421601;0.2351174;-0.026934132;-0.28926966;0.11694679;-0.010454964;0.1822352;0.21250674;-0.22285038;0.119185865;0.008097162;-0.042850193;0.0100263255;-0.12813888;-0.1350364;-0.006342541;-0.1317729;0.074014425;-0.004524781;0.0080872085;0.33390355;0.011684938;0.0729663;0.07324225;0.0374608;-0.10115327;-0.01413114;-0.14100106;-0.091679595;0.031176878;-0.044038408;0.29227883;0.0035087538;0.0641145;0.10395725;-0.2865363;0.014262967;-0.032936793;-0.17162476;-0.13133253;0.0056551043;-0.17843305;-0.037671518;-0.0042771744;0.024009576;0.005196763;-0.1740421;-0.2364744;0.028848844;-0.06274828;0.21423605;0.0069130873;-0.00023208598;-0.047524754;-0.4539768;-0.23591511;-0.007598806;0.043767408;-0.009297939;0.046427634;-0.00068447355;0.02938833;0.005708906;-0.032569714;-0.13278964;-0.033844892;-0.00050650345;-0.082974896;-0.0065200254;0.00087238837;-0.36402914;-0.0043129553;0.0098694125;0.0011706102;-0.077411346;-0.23648146;0.28248203;-0.26120824;0.0047630533;-0.3286185;0.069396414;-0.07946186;-0.20364052;-0.00055746257;-0.14694326;0.0059850616;-0.09536287;0.029461725;0.04104271;0.014155333;0.2003835;0.0099635385;0.18702497;-0.0033441624;0.08472262;-0.050724894;0.00025403398;-0.14301434;0.0048497915;0.10241853;-0.017651027;-0.012971246;0.029710583;0.02654335;0.22278951;-0.0028047827;-0.13975203;-0.5222296;-0.25474614;0.009390033;0.014520732;0.10910774;-0.0054901456;-0.19709511;0.38215223;-0.19793354;0.028950356;-0.0009364428;-0.05386167;-0.01946893;-0.008913462;0.16646458;0.14910097;0.2229767;-0.2950615;0.17084192;-0.31694257;0.053852804;0.42939985;0.0060727247;-0.013547035;0.03899196;0.09772977;-0.0069195535;-0.016015539;0.09763542;-0.0018919611;-0.004404777;-0.0012666319;0.1646764;-0.032609977;0.14366502;-0.06527465;-0.36931968;-0.0012972394;0.037357252;-0.31645462;0.014513972;0.0009559939;0.066993035;-0.012371709;-0.022373734;-0.3197653;-0.14992638;0.16986685;0.050523564;0.056224152;-0.12956923;0.24720795;0.0318699;-0.003464559;-0.11435417;-0.22674385;-0.16269521;-0.17675409;-0.007757877;0.015779942;0.01116116;-0.3235904;0.18392284;0.13589446;0.36532477;-0.22490755;-0.004795131;-0.15052375;-0.011676536;-0.0014081713;-0.0019603039;-0.07253421;0.011281837;-0.20837156;0.13753846;0.13585858;0.0078657195;-0.056903265;0.3587304;-0.28643218;-0.19103001;-0.010339961;0.034012206;-0.058666125;0.010552195;0.00858361;-0.20252591;0.017035283;0.003761647;0.0037642894;0.018357875;0.1416731;-0.074861534;0.14759924;-0.04698604;0.0016623123;0.08477102;0.360879;-0.12616621;-0.043950327;0.38746858;0.005405416;-0.019614644;0.26052;0.17153302;-0.14420943;-0.008471181;-0.190097;0.0048401942;-0.18779963;-0.09713554;0.0035640872;0.07451116;-0.03974554;-0.0016877692;0.0747992;0.23979592;0.25298834;-0.05810885;0.020365434;0.19777341;0.008526238;0.19030268;0.009682081;0.0014206909;0.10660333;0.0104637295;-3.6483234e-05;-0.02149567;-0.021523036;0.047120653;0.0056977104;0.07313408;-0.047895536;-0.014048381;-0.11257265;-0.0072339927;-0.08802581;-0.039469074;0.2364994;-0.52792627;0.024509368;-0.042675063;-0.00080213655;0.010517314;0.13031274;-0.006412278;0.17958084;-0.07768096;-0.012633375;-0.03598377;0.018463658;0.009236644;-0.099607;-0.021523634;-0.1299899;-0.37911943;-0.3909069;0.016524892;0.02616667;0.0045414274;0.21563156;0.17315397;-0.011463959;-0.012514828;-0.36182567;0.2663584;-0.24234594;-0.17633438;-0.011337643;-0.21417116;0.12775718;-0.38562033;0.2110163;0.017566476;0.008630238;0.24943855;-0.21660854;0.021989215;-0.32549196;0.26413894;-0.00091673114;0.07848643;0.019656667;-0.17914328;0.24609256;-0.37798417;-0.40591425;0.0074466555;0.021715058;-0.27700615;-0.18204953;-0.015238886;-0.22120318;-0.3672926;0.13403884;-0.14994536;-0.0031477793;-0.43896455;-0.36701292;-0.00920949;0.012026638;-0.0017010614;0.010708452;0.013748208;0.24343821;-0.03143219;-0.39543465;0.00474021;0.083560154;0.08676881;0.1194927;-0.055812415;-0.44614118;0.017315606;0.2007302;-0.30897647;0.21969728;-0.029694512;0.002331758;0.22124772;-0.17601554;0.06478958;0.003269553;0.086128;-0.14550608;-0.33319935;-0.3187604;-0.33518463;-0.013625904;0.0073129158;0.0038779147;0.005648794;-0.008171849;-0.0052571404;0.0047831205;-0.03652083;-0.029046211;-0.19727573;0.015435247;-0.17505845;-0.0065230015;-0.014455126;0.047900673;-0.06043466;-0.122783095;0.13180213;-0.20741533;-0.28215978;-0.02674009;0.008890385;0.367558;-0.045545623;0.00045563225;0.36072725;-0.24657439;-0.5955225;-0.09820388;-0.011855331;-0.02537338;0.0072018104;-0.28418687;-0.12725727;-0.14337862;-0.0028605985;-0.24582134;0.019071955;-0.013661775;0.005605484;0.17504689;-0.0111166015;0.029610675;-0.24788384;-0.25609314;0.008186425;-0.029832678;-0.012642265;-0.2450064;-0.18821907;0.17353953;0.061776023;-0.3811696;-0.0046841977;0.020882059;0.12194996;-0.5854366;0.07389311;0.11444608;0.3873864;-0.2802122;-0.021441203;0.009498348;-0.2014923;-0.08787407;0.19801715;-0.3198138;-0.0006254732;0.0018720721;-0.22603782;-0.0015441853;-0.37539873;0.3002259;0.26470044;-0.0039656195;0.17424263;-0.007278379;0.24270514;-0.025362046;0.01012296;0.25816017;0.059229884;-0.020013032;0.14848301;0.007002217;-0.24320178;0.3931724;-0.012091793;0.005415501;-0.035224598;-0.14808989;0.274551;0.08595347;-0.06713626;0.012251454;-0.47187826;0.114779264;-0.07776021;-0.05059761;-0.27071065;-0.0040175566;-0.14597009;0.00357511;0.0038751573;0.0015254279;-0.24217795;0.3220063;-0.007332806;-0.2504086;0.3615261;0.019632746;-0.11204254;0.25825465;0.00039583337;0.15076774;0.14519154;0.00018705003;0.18480483;0.015655197;-0.0032582579;-0.2529763;-0.03979534;-0.06915669;-0.024796152;-0.05656139;0.008246363;0.0009990782;-0.26363716;0.15044436;-0.007868456;-0.006263931;0.00750828;-0.011478153;-0.022919374;0.013906449;-0.002141754;-0.21271941;-0.10308249;-0.045787565;0.09320446;0.08441341;-0.1269995;0.07311381;0.0700555;0.014041662;-0.06733889;0.0016001819;-0.12930602;0.05292883;-0.0046315645;0.005475897;-0.08978563;-0.015431818;-0.43052885;-0.011086226;-0.012720016;0.00076180266;0.0027854291;0.03937677;-0.35997143;-0.021521034;-0.001894806;-0.15744454;-0.02408638;0.04007463;-0.41907007;0.014787555;0.102296524;0.05607334;-0.13891093;-0.0073358472;0.0085000675;0.014867306;-0.0038024231;0.20275211;0.020265618;-0.21074933;-0.0066089653;-0.07721241;-0.011959254;0.004582623;-0.07810654;-0.008918426;-0.22665302;0.20712845;-0.27375364;-0.002078979;0.0061965943;0.32953537;0.25345287;-0.19642171;0.039630238;0.0007500854;-0.08974803;0.009933384;-0.2942616;-0.028464397;-0.16611852;-0.27800167;-0.01848145;0.022250615;-0.08919281;0.23194978;0.4548396
-0.25114393;0.06732876;0.084874325;-0.1460805;-0.029283222;-0.0015227911;-0.09875567;0.017575758;-0.263045;-0.004523465;-0.41429144;-0.43728662;-0.003262904;0.23487939;-0.09255243;0.31360006;-0.019769674;-0.13509442;-0.01295063;-0.13878582;-0.5466933;-0.044907317;0.059348866;0.10447944;-0.41850436;0.2781475;0.025012713;0.11121227;-0.009542657;-0.0065939613;0.012749176;-0.05751702;-0.09218026;-0.011676657;0.00035955745;-0.052821558;0.09726241;0.0810367;-0.025605781;-0.23149957;0.038386352;0.008037753;0.008350904;0.2805525;-0.030511096;0.041600622;-0.016011953;0.042904213;-0.011368256;-0.12910001;-0.08932373;0.018781753;0.12368353;-0.038989604;0.018493406;-0.0045658387;0.17416449;-0.009841225;-0.06998249;0.15727742;-0.06060778;-0.2117665;0.0023721282;0.07198728;-0.041888434;-0.06278778;-0.43213573;0.25476542;0.0076107816;0.08061278;0.29811642;-0.21157539;0.28078368;0.115494266;-0.029032834;-0.055029273;0.018736236;-0.019612996;-0.288635;0.0046462254;-0.016651947;-0.01061098;-0.14803807;-0.25041497;-0.033600815;-0.08410171;0.1845888;0.0021399816;-0.0011848845;0.07225092;-0.53925085;-0.19598857;-0.00083554693;0.016917992;-0.004914114;-0.17994897;0.009915463;-0.092983745;-0.28854123;0.07614751;-0.093017854;-0.002132895;0.008296064;-0.08636618;-0.063460775;0.0017216523;-0.60997355;0.004598018;-0.02381489;-0.0057213437;0.13252145;0.0025767318;0.29063636;-0.023183273;-0.0027100486;-0.12938024;0.1609157;-0.093340926;-0.051297154;-0.10838099;-0.121540345;-0.024129217;-0.14749092;0.011428259;-0.030873895;0.1355577;0.11535692;-0.09086105;0.15021355;0.006984477;0.31799686;0.10082298;0.0041693947;-0.17520843;-0.0058126175;0.028401623;-0.0062060873;0.14671162;-0.08037945;0.10102599;0.30651668;-0.004313269;0.097825855;-0.4169429;-0.040959142;-0.004701733;-0.008694465;0.1365679;-0.0059575196;-0.053109366;0.37382293;-0.19331816;0.01297646;0.0015693967;-0.074597195;0.22119956;-0.00783832;0.08879055;0.085028924;-0.014541131;0.017371481;0.32869273;-0.10035895;-0.090264075;0.24774435;-0.015016543;-0.03368308;-0.24006258;0.037878178;0.0010337216;0.016527276;0.20955391;0.0027916336;0.0061025233;0.0044033565;0.09299486;0.015954541;0.31858605;0.3678066;-0.1740439;-0.104482085;-0.08798149;-0.46437404;-0.25500432;-0.009624407;0.3867103;-0.0014152795;0.10931874;-0.3093969;-0.30339172;0.12648956;0.030637901;-0.021885756;0.07152814;0.083528295;0.32756153;-0.00033640602;-0.45397925;-0.07031462;-0.2502789;-0.13397093;-0.010211303;0.0021751404;0.0033635802;-0.011723089;0.20509219;0.2535327;0.030782133;-0.16608062;-0.015377134;0.07186269;-0.0194333;-0.008429731;-0.013784991;0.04992812;0.08515447;-0.112540685;-0.033267476;0.08897614;0.07381938;0.027640868;0.35248482;-0.26906875;-0.26162305;0.014959854;0.17678036;0.16329852;-0.0044254395;-0.013806959;-0.13580222;-0.036680143;-0.1374777;0.0065370165;0.0012050013;0.16443814;-0.03890496;0.10409355;-0.14302228;-0.0002574648;-0.02830657;0.4817178;0.0127768405;-0.10068022;0.3577324;0.010770312;-0.08058443;0.19143958;0.16504236;-0.052768186;-0.008315864;-0.14428985;-0.014293937;-0.14240171;-0.4686227;-0.01017733;0.07338475;0.12491805;-0.008346275;0.007791847;0.34313673;0.2804563;-0.003929424;0.08399644;0.19311564;-0.00874902;-0.09227048;0.00931626;0.012809515;0.053802602;-0.016568698;0.010476079;-0.5810014;0.15239666;0.06165596;0.012905439;-0.017284576;0.078137636;0.012967723;-0.17867035;0.0032610246;0.047390103;0.097870044;0.37201995;-0.23600104;-0.0009869837;-0.30888364;-0.0005172742;-0.013391365;0.17060302;0.004872314;0.265101;-0.065823875;-0.18923973;-0.40534106;-0.0034256915;-0.27214435;-0.14117108;0.16621755;-0.23278852;-0.5617414;-0.5849651;-0.01307184;-0.015109883;0.00031375253;0.2605712;0.12241491;-0.16122238;0.006406701;-0.21450064;0.06853319;-0.116630174;-0.05515951;0.0060202223;-0.19040409;0.08596876;-0.46823236;0.16088557;-0.015910583;-0.006970084;0.1261283;-0.31212842;-0.01223009;-0.109627225;0.31097493;0.0024259486;0.068954006;-0.01333763;0.20909177;0.1344601;-0.43472394;-0.32532907;-0.013881737;0.41318655;-0.01978963;-0.16063158;0.015610008;0.0365474;-0.20581308;-0.024061939;-0.027257701;-0.0146630015;-0.40619877;-0.14274448;0.10800454;-0.061927196;-0.0065511283;0.017130617;-0.011048966;0.17834297;-0.09218208;-0.44094124;-0.032757305;-0.0038983559;0.042605806;0.066591084;-0.06586765;-0.12886918;-0.017235462;0.14500608;0.018620888;0.03241486;-0.09004345;0.0063066715;0.31366637;-0.38059363;0.018490652;0.0039832783;0.36394015;-0.48164165;-0.20749484;0.00095672905;-0.29641968;0.011392206;-0.0021037972;0.0048776143;0.017780868;-0.0010907282;0.019152861;-0.004426855;0.010414966;0.011135928;-0.1394847;-0.003639784;-0.0630571;0.0014040747;0.0038459755;-0.15920718;-0.02705343;-0.23553838;-0.1478004;-0.3163611;-0.22998522;0.15666287;0.0027618776;0.094502866;0.038813006;0.0040748953;0.23928662;-0.0597973;-0.17747174;-0.10641516;-0.00042226716;-0.06277592;-0.008674717;-0.35658112;-0.077013925;-0.06304238;-0.03563898;-0.33891866;-0.024475712;0.0034953693;-0.0096239755;0.31766784;0.018502932;0.21451692;-0.33665967;-0.29755408;-0.00027767132;-0.108785555;-0.02152015;-0.3193328;-0.057564642;0.070888706;0.0870241;-0.15298107;0.014598709;-0.009886296;-0.0061304374;-0.16187294;0.13817048;0.23015699;0.50023466;-0.31001964;0.020122593;-0.001206841;-0.08726068;-0.033710837;0.1579321;-0.26515952;0.009277987;-0.0011636001;0.06285254;0.009730934;-0.32845294;0.253915;0.32196015;0.018276073;0.28110588;0.00623417;0.20206425;-0.10817822;0.0011330913;0.30778816;-0.23420317;-0.0058141206;0.17332563;0.004262554;-0.16727217;0.31091827;-0.018713025;-0.01251315;0.028553087;-0.27176952;0.5447851;0.14800268;-0.0155833475;-0.0022548803;-0.16592221;-0.016935375;-0.036430944;0.2537809;0.040130686;0.002380723;-0.17031184;0.2025318;-0.0161513;0.017439377;-0.16581815;0.16074742;0.018817896;0.07558295;0.5671054;-0.060493853;-0.06293895;0.105010524;0.007938005;0.20237447;0.26090917;-0.00916356;0.03464912;-0.009105787;0.08975515;-0.21286759;-0.12524551;0.19371022;0.006114018;0.12803517;0.016899072;-0.11406636;-0.34038103;0.052851576;0.0049806824;0.004881958;-0.00539909;-0.1373493;0.009933394;-0.034413286;-0.007875705;-0.187702;-0.1568438;-0.17227305;0.16282304;0.03218305;-0.23572506;0.16215837;0.104190186;-0.008506054;-0.065601505;0.0063934717;-0.12514669;-0.16711782;-0.009290165;-0.0040076217;0.007524263;0.026600838;-0.33112413;-0.005506932;0.010080195;0.032013796;0.0010516043;0.054164894;-0.18671826;-0.09688611;0.0062822285;-0.07393421;-0.0008047187;-0.0012341168;-0.3167631;-0.015922956;0.011848768;-0.041205615;-0.2835289;0.0039205197;0.19117619;-0.004630765;-0.0037588207;0.0137633495;-0.024954198;-0.31316745;0.030554406;-0.10028141;0.0010136373;-0.0018570303;0.03443984;0.00665097;0.2043615;0.37023747;0.0097046485;-0.009703442;-0.005998802;0.44184598;0.3025479;-0.2490124;-0.05636899;0.022677613;0.022559224;-0.0004852276;-0.3982273;0.08345633;-0.112573236;-0.46418014;-0.010405321;0.1606229;-0.17946249;0.45576894;-0.019274369
-0.18149444;-0.2590818;-0.05007879;-0.24218658;-0.041947592;-0.009475163;-0.15262234;-0.009860229;0.082595855;0.011889374;-0.32670584;-0.20737529;-0.0026273238;-0.002202786;0.109257795;0.29554543;0.011671603;0.08259463;0.017060991;0.13851081;-0.2613399;-0.07491022;0.07549639;0.09193561;-0.47694337;0.18056193;-0.08828009;0.1662339;-0.00048505474;-0.0013636736;-0.088769935;-0.084931426;0.14538051;0.005595977;0.007600071;-0.044057;-0.011932005;0.013014043;-0.15423128;-0.0428608;0.13773681;-0.0072747422;0.07832735;0.105231114;-0.32703996;0.010300431;0.0014916582;-0.037817534;-0.0054183565;-0.053535584;-0.3744547;-0.0034386194;-0.06460682;-0.10248624;-0.013427943;-0.004164494;-0.04140393;0.009031728;-0.13871673;0.13258216;0.006377558;-0.4008297;-0.0043333443;0.22894931;0.007854939;-0.06615913;-0.41519803;-0.012562101;-0.0066592707;0.06351077;0.12187212;-0.05473009;0.3200799;0.41840535;-0.08146976;-0.067865886;0.089699596;-0.1321633;-0.29074463;-0.008874187;0.019013079;-1.9304246e-06;-0.17771673;-0.19100706;-0.019851012;-0.06564609;0.1228688;-0.011177515;0.014821413;0.078256994;-0.46332633;-0.3493513;0.010958931;-0.0017288614;-0.0020388737;-0.25160253;-0.007528214;-0.024530686;-0.40311125;-0.024672981;-0.097554676;0.04812848;-0.012729383;-0.021234129;0.07370391;0.004495732;-0.4248669;0.010353971;0.022101428;0.0048875855;0.13705756;0.0018122562;0.100939095;0.06838873;0.003414519;0.013110419;0.20363268;-0.24175426;0.096279986;-0.27288768;0.2167605;0.016344626;-0.042763002;-0.050593592;0.073653825;0.13842416;-0.037886787;-0.1266943;0.14085472;-0.013016873;0.07878841;-0.090248436;0.004758028;-0.2487614;0.011240747;-0.14365393;0.035932597;0.059093896;0.10132554;0.09297553;0.17781395;0.014742709;0.17977163;-0.18695143;-0.2990588;0.004494517;0.003002573;0.14315814;-0.0071308543;-0.053620484;0.46958658;-0.020853287;-0.042184323;0.0053171273;0.12551898;0.042550303;0.013059823;0.15071402;0.055445667;-0.10697617;0.28495902;0.12647074;-0.022862172;0.055080287;0.40027648;0.027408179;-0.0134812975;-0.30413768;-0.02244093;-0.003954976;-0.0025202283;0.055633135;-0.002406354;-0.010357284;-0.0041806856;0.14461638;-0.045170944;0.27629516;0.4077614;0.028305499;0.04038449;0.069795854;-0.26094052;-0.08909019;0.0065867924;0.34422588;0.011011292;0.1523552;-0.23266539;-0.2532697;-0.08775001;-0.21119264;0.08702437;0.27134836;0.007944553;-0.0005638266;-0.0128016155;-0.21251918;-0.070770934;0.045552064;-0.11302258;0.02090526;0.0045215324;0.010279897;-0.14003284;0.15993452;0.12094843;0.14593653;-0.063663706;0.0039103967;-0.22777389;-0.050794877;-0.0017650699;0.022721434;0.24460681;0.12474168;-0.17062274;0.025485216;0.14377134;0.14162308;-0.030280255;0.021039438;-0.26378253;-0.14138207;-0.015211491;0.13844104;0.26383647;0.0056477147;0.002423294;-0.119266324;-0.010264307;-0.102904215;0.0008824052;-0.0058277682;-0.14630094;-0.0046150787;0.21268232;0.02807357;0.021712078;-0.14228484;0.2183247;0.097192;-0.34705904;0.33207363;-0.010206293;-0.2089692;0.20101942;0.14640376;-0.06611017;0.0011318089;0.29788688;0.013598716;-0.0024749401;-0.2671626;-0.0026515997;-0.07428778;0.2255305;0.013948314;-0.07454523;0.3562588;0.39656478;-0.19866197;0.03859783;0.0937123;0.00463169;-0.11316124;-0.0097316215;-0.019887842;-0.24242413;0.0010946387;-0.0013009467;-0.43582064;-0.14153449;0.0005727175;-0.018441528;-0.074556366;0.059208382;-0.01559344;0.013076913;0.008812522;0.042462982;0.037872232;0.054188587;-0.0910277;0.0046399613;-0.17148924;-0.006600832;0.0052048084;-0.09564824;0.007389448;0.08507062;0.03234292;-0.075449325;-0.156653;-0.021910092;-0.38963148;0.17554162;0.18575247;-0.4645316;-0.301104;-0.53210825;-0.012168008;0.005778909;0.012347224;0.32335424;0.24013697;-0.19154923;-0.0031943475;-0.082822464;-0.194359;-0.45900998;-0.1468336;0.00035778288;-0.21895835;0.30095762;-0.4164227;0.21056968;-0.005259536;0.009946605;-0.08265862;0.006668631;0.0041964957;-0.15637103;0.11765691;-0.011304564;-0.06442447;0.004794641;-0.060008273;0.26159725;-0.5841408;-0.47799748;0.010959423;0.1985846;-0.075392194;0.04471172;-0.011150122;0.14610723;-0.18120795;0.15504333;-0.17468399;0.00709056;-0.55812216;-0.092464164;0.19303563;-0.29395297;0.0011231892;-0.026940297;0.0016514482;0.12043994;-0.24775168;-0.36683422;-0.2829481;0.009516659;0.1536456;0.0116260825;-0.068404354;-0.06323187;0.012936084;0.15329047;0.23502615;0.22230007;-0.2194107;-0.02251838;0.25805652;-0.3455104;0.07482039;-0.0089215115;0.4494832;-0.42848378;0.12841333;0.21424226;-0.07396763;-0.017883295;-0.0038052166;-0.015975202;-0.010283711;0.022454545;-0.022162756;-0.050172254;-0.008454951;-0.0002492246;-0.27926445;0.003357995;-0.04239517;-0.010163245;0.008368611;-0.09133888;0.09122368;-0.4087199;-0.22810504;-0.11064979;-0.27823997;0.16016677;0.0035358889;0.056460086;0.050683;-1.6940209e-06;0.24102987;-0.04969376;-0.06829705;-0.094804235;0.005524091;-0.04520652;-0.00091900176;-0.26815674;-0.07830468;-0.24130115;0.008912587;-0.31023613;0.008247515;0.0014256651;0.0126121;0.18024988;-0.023372788;0.24161707;-0.12073982;-0.29046175;-0.0075222277;-0.00493866;0.03270538;-0.19037312;-0.16058552;-0.17835034;-0.18496674;-0.23454262;-0.014473709;-0.02136093;-0.06527794;0.049707297;0.06895289;0.08993978;0.4885097;-0.13782889;-0.0020099278;-0.0028381827;-0.5029258;-0.08011244;0.36624312;-0.2790245;-0.009657287;0.024326174;-0.022256643;-0.011892943;-0.16231437;-0.15110348;0.09703823;6.625096e-05;0.16552573;-0.0003831282;0.12904653;-0.0020615675;0.005273627;0.27631673;-0.29330376;-0.0030502165;0.30137107;-0.003886944;-0.10009083;0.22332366;0.01227845;0.0018495581;-0.0030423882;-0.096635625;0.49493444;0.07633254;0.097698696;0.013569751;0.0136282155;-0.18224622;-0.009200049;0.21775965;-0.022207057;0.011917896;-0.046992384;0.060280193;0.0003569144;-0.012688157;-0.37800166;-0.021354875;0.004045886;-0.09810864;0.21805125;-0.21258257;-0.042988278;0.036478814;-0.017789569;0.15276915;0.37884915;0.0017133463;0.3024563;-0.019226883;0.22050624;-0.057567712;-0.017449334;0.027918799;-0.004081226;0.10810886;-0.018005189;-0.45138285;-0.2796887;-0.07151954;-0.012720205;0.01815787;0.0024059701;-0.060021345;-0.006948565;-0.07725897;0.0023308531;-0.30278403;-0.24503133;-0.3799255;0.32102206;0.0882052;-0.21125841;0.06902026;0.14920631;0.00382625;-0.13416405;0.011019986;-0.2156419;-0.08459142;-0.0027935584;-0.0031931698;0.07442902;-0.017424302;-0.55358565;-0.00046256007;0.004679641;0.074286915;-0.007777659;-0.1892088;-0.20856097;-0.25578266;-0.0056052837;0.036434833;0.0010203897;-0.11584756;-0.2411655;0.026779836;0.102801174;0.0333048;-0.26388314;-0.007147053;-0.043679815;-3.5652505e-05;0.00055771915;-0.14496154;0.027985768;-0.18279737;-0.017743038;-0.025284844;-0.0010721843;-0.0035205875;-0.030211382;0.00068398425;0.18452239;0.22011147;-0.10973281;0.016902287;0.009030688;0.37927386;0.30668977;-0.13320085;-0.072736345;-0.008444005;0.05437019;-0.008464835;0.089537494;0.14992516;-0.30017397;-0.16894032;0.005061972;0.118210696;-0.10750249;0.32887954;-0.12862149
-0.19517808;-0.19947983;-0.2605187;-0.060084347;-0.15130152;0.0075965994;-0.09752731;-0.0050751213;-0.13675317;-0.006933656;-0.42422214;-0.10298584;0.022474384;-0.023133;-0.15894277;0.20411503;-0.010312703;0.19673134;-0.00399574;0.21328714;-0.03970465;-0.2913699;-0.1439164;0.02536464;-0.34775;0.08177823;0.038432643;0.28191698;-0.00088726316;0.018507903;-0.01798746;-0.18580954;0.028886937;-0.018440835;-0.0032013953;0.10588125;-0.07208043;0.08731171;-0.066376604;-0.2611906;0.1725071;0.0017171653;0.06967061;0.1647906;-0.080978565;0.088945486;-0.003232342;0.011486456;-0.004719745;-0.050956063;-0.48570454;0.026504777;-0.060379546;0.041305073;-0.013111766;0.015584588;-0.10976323;-0.010117339;-0.19174355;-0.109540105;-0.035891384;-0.13406341;-0.024511063;0.19444683;0.1486506;-0.15901355;-0.26696888;-0.020658737;-0.0015691846;0.31258562;0.27797732;0.05700355;0.31180477;0.31815934;-0.009805463;-0.19144663;-0.13564831;-0.2365832;0.10547725;0.010597807;-0.017372541;0.0036927382;0.0055704904;-0.21623969;0.057336755;-0.1856607;-0.003437039;0.008364595;0.00022702824;0.12041689;-0.4126387;-0.31166115;0.0022394008;0.010646172;0.001218634;-0.23474076;0.0001831917;-0.012156098;-0.51880556;-0.0077184974;-0.026121449;-0.041348998;-0.011142785;-0.093574874;-0.081076935;0.0015669072;-0.34660217;-0.013560373;0.00030219156;-0.010166586;0.18627366;0.04893258;0.17460069;0.18544276;0.0007082251;0.10340235;-0.013681317;-0.23447019;-0.08799556;-0.16338837;0.17774867;-0.0029361849;0.044482905;0.04747653;0.31352103;-0.09370757;-0.34327364;-0.22306003;0.0007120089;0.021670574;-0.13673574;0.09784977;0.01472213;-0.12545283;-0.0097581325;-0.19434042;0.0009402869;0.11650966;0.13289765;0.19623701;0.27722937;-0.006143621;0.07710429;-0.16134667;-0.22255841;-0.0058799023;0.005099359;-0.103389554;0.026158538;-0.1543606;0.52891946;0.0016041582;0.05997605;-0.001097621;-0.1931875;0.057476014;-0.014104475;0.24655043;0.21054707;-0.09793139;0.26961166;0.07733985;0.06727226;0.08790121;0.47710624;-0.028324276;-0.046058036;-0.43758467;-0.045728765;0.0019240141;-0.0067256493;0.08894813;0.0002894578;-0.036187313;-0.004812232;-0.025439896;-0.1649335;0.12975357;0.16032664;0.07136128;-0.058929563;0.13246725;-0.07027203;-0.44150355;0.004857669;0.10894553;-0.0076552983;-0.026689548;-0.34922335;-0.26687256;-0.21805486;-0.23579311;0.15497243;0.17138496;-0.02139822;-0.1091391;0.02220735;0.111148484;-0.39700755;0.047959443;-0.25670505;-0.0062460224;-0.02617926;-0.019543538;-0.24447012;0.036369793;0.19631498;-0.0039928667;0.06982736;-0.0054641585;-0.208328;0.08983676;0.0053837122;-0.008609197;0.099792756;0.0707305;-0.19332726;-0.17990708;0.26758313;-0.09578846;-0.17214334;-0.264077;-0.12294912;0.038716223;0.014144521;0.080126874;0.67925286;-0.013969558;0.016514702;0.12901008;0.02999629;-0.18105245;-0.014419728;0.0040534786;-0.26555675;0.15499899;0.085668474;0.009160225;0.0011561271;-0.2244946;0.16152535;0.23150735;-0.62954825;0.17601459;0.009440264;0.16068238;0.004428836;0.27256447;-0.08799123;0.011699353;0.229157;-0.0122765545;-0.115732834;-0.2561432;0.006534542;-0.09663524;-0.017143628;-0.021805808;-0.08649447;0.42217425;0.28597972;-0.17298691;0.047770485;0.036236756;0.003663795;-0.14417873;-0.008232769;0.03800339;-0.2203262;0.011300492;0.0042619375;-0.32906795;-0.19700456;-0.15362842;-0.0025167868;-0.13451499;0.21170804;0.0030810821;-0.062725365;0.007165097;-0.12977351;0.08036301;-0.043620337;-0.1225987;0.0058192797;-0.28785756;0.0121614905;0.16396503;-0.003267902;0.002669897;0.24771862;-0.14022169;-0.086645246;-0.185571;0.019632483;-0.6405084;0.2484275;0.022809051;-0.31092757;-0.26245221;-0.28490958;0.010160032;-0.015559675;-7.730438e-05;0.4288879;0.25139222;-0.18870275;0.0077639213;-0.13441496;-0.20041813;-0.36174846;-0.1342584;0.020767765;-0.23259479;0.07773594;-0.33522937;0.13932952;0.019945046;-0.009348036;-0.13105638;-0.25363117;-0.0107010035;-0.08514558;-0.012930675;-0.0033129945;-0.26269156;-0.012944976;-0.15430088;0.3014383;-0.19455822;-0.096472986;-0.014226925;0.11185782;-0.061340738;-0.20393376;0.014611684;0.2784056;-0.1134997;0.10335659;-0.0797331;0.0015510025;-0.31282765;-0.11102906;0.054366123;-0.14134797;-0.003613012;0.015131466;-0.005690419;-0.022243122;-0.25866255;-0.013253521;-0.22596383;0.076378554;0.31449276;-0.07864578;0.07549936;-0.27487513;-0.0020268122;0.21202964;0.17692868;0.28633836;-0.17524809;0.024209771;0.30204347;-0.29639184;0.02327261;0.0029146885;-0.026996419;-0.12768757;0.15814215;0.111648776;-0.13221364;0.016696904;0.0112949405;0.009833208;0.0025256197;-0.019391425;0.005405727;-0.0051163575;0.029482193;-1.5516638e-05;-0.27790344;0.0014205002;-0.10396535;0.0040119947;-0.003455434;-0.09855788;0.080788106;-0.33901682;-0.09913104;-0.31291503;-0.15289304;-0.010521336;-0.011439206;-0.08257753;0.14346968;-0.009880697;0.42687047;-0.02318036;0.0023622713;-0.31300884;0.0022261606;-0.012097458;0.0026169838;-0.30206597;-0.0070284223;-0.17322165;-0.002741433;-0.30495837;0.0004979492;0.0032832737;-0.003554406;-0.19950373;0.020457065;0.23955652;0.010051744;-0.079561375;0.0011312689;-0.16812229;-0.039139464;0.19827244;-0.03505078;-0.14171636;-0.19813544;-0.055400766;0.001505767;0.014029813;-0.11857628;-0.26750222;0.09038943;0.09285278;0.30246896;-0.10080647;0.0007405164;0.0040438594;-0.73397154;-0.024211166;0.1330194;-0.24428095;0.013180151;-0.032038607;-0.082683645;0.020729;0.018582072;-0.31964746;-0.05854615;-0.0063003167;0.3331459;0.015718425;0.14178975;0.27825594;0.000879115;-0.036368005;-0.20478399;0.008735528;0.37849244;-0.010763112;-0.03820184;0.1279756;0.007151086;0.016623423;0.013970729;0.11932214;0.5050947;0.08245496;-0.07056408;-0.017796105;-0.2353539;0.14124532;0.050195266;-0.0030653768;-0.030930426;-0.010165453;0.062058795;0.012436773;0.0020782184;0.0062621604;-0.29123148;0.06351037;-0.0040538735;0.043348167;0.06564746;-0.01601539;0.055535678;-0.105088934;0.014943041;0.11486182;0.13580236;0.011951706;0.28143787;-0.007886335;0.20731957;0.03640687;-0.026360823;0.14358449;0.012758642;-0.034643143;0.002054612;-0.4124161;-0.18836741;-0.027126037;0.012124744;-0.018458024;-0.0080917;-0.03918675;0.005182628;-0.1804755;-0.007425209;0.04453461;0.007870389;-0.39325738;-0.004192537;0.03444092;-0.180496;0.11842836;0.12355581;-0.010754155;-0.005804846;-0.008804704;-0.13099173;-0.07991414;0.0076885363;-0.011253227;-0.15848662;0.01821875;-0.4110504;0.017761393;-0.0017180481;0.11615528;0.018034492;-0.209097;-0.282718;0.044471364;0.009600017;0.000360941;0.0024733343;0.097428165;-0.3526643;-0.03138511;0.026652228;0.16977642;0.2322259;-0.009238896;-0.12131274;-0.01817142;0.0035037366;-0.014471726;-0.021850767;-0.12245906;-0.006149031;0.03928161;0.0075142873;-0.012498225;-0.16942206;-0.0033721402;0.08431244;0.14845201;-0.11884207;0.0045192977;0.001224153;0.11585356;0.24506314;-0.060841538;-0.25894314;-0.0076309093;-0.045037933;-0.008765479;0.1937028;0.022110136;-0.19708084;-0.25028822;-0.0012261695;0.24743192;-0.11374387;0.16963549;-0.107511856
-0.26762012;0.10872331;-0.31182462;-0.09565758;-0.0081943255;-0.0029469666;0.13667066;0.0054144403;-0.1621781;-0.01085198;-0.26122096;-0.020540843;-0.021722319;0.1721601;-0.22589366;0.22626881;0.011126718;-0.09025623;0.0059312405;0.22944456;0.05604687;-0.19828591;-0.07202957;0.14441235;-0.19129524;0.12077871;-0.0066823023;0.26020303;-0.006262369;-0.0068362486;0.011335605;-0.065348424;-0.15817149;0.019521246;0.005113006;-0.06374561;0.17046231;-0.0043262783;-0.24620649;-0.07527752;0.06251679;-0.010410654;0.1781406;-0.08648162;-0.15779538;-0.044976205;0.0066452343;0.049803585;0.006570014;0.0013920254;-0.16784069;-0.044937328;0.022604646;0.09779016;0.0220512;-0.013301926;0.08953491;0.013413697;-0.10250825;0.030612702;0.059264287;-0.36437964;0.021937666;0.03376018;0.026731066;-0.41725415;0.015434243;-0.12737235;0.009447525;0.44756997;-0.108997986;-0.021596951;0.0042121303;0.18276015;-0.034511782;-0.07583789;-0.20787613;-0.08072297;0.17588755;-0.017260067;-0.0025428203;-0.00024007245;-0.06664713;-0.1919319;-0.031217972;-0.07827843;-0.11583117;-0.007316035;0.010357409;0.3052863;0.034739196;-0.013464632;-0.025559269;-0.008753931;-0.009886137;-0.1625047;0.0069125956;0.011167283;-0.4092423;0.07138102;0.011210043;0.0093890745;0.0077175726;0.02624564;-0.025819473;0.011469143;-0.17068775;0.009884877;-0.0015393627;0.018641746;0.17037885;0.11555194;0.19368851;0.5062825;-0.009148514;-0.020505553;-0.10863099;-0.09096208;-0.10697388;-0.063774124;-0.0978773;0.0025741186;0.122196555;0.007820307;0.045709893;-0.02978027;-0.33211806;-0.2998242;0.027322803;-0.016575808;-0.29328996;0.18511301;-0.007720484;0.024963427;0.012901172;-0.109640226;-0.0055013895;0.06743791;0.25849327;-0.1274173;0.24368556;0.0037769855;0.19720559;-0.3017949;-0.086163;0.014336812;-0.020200405;-0.23716027;-0.019077362;0.080905326;0.14265472;0.15703721;0.0018769181;-0.002686919;-0.08210752;0.22987057;0.0036634174;0.05926567;0.011481744;-0.0071351975;0.21193422;-0.11728699;0.10424502;0.03342584;0.06004249;0.0046102726;0.009705138;-0.41968027;0.055276714;-0.018987203;0.0023859243;0.2093454;-0.004628534;0.01779088;0.0020822983;-0.33245826;-0.028909516;0.021981202;0.19679154;0.1288201;-0.1715359;0.011879298;0.088433996;-0.28579512;-0.0065457723;-0.1267024;-0.024945289;-0.080358386;-0.3789768;-0.048297487;-0.10028879;0.050772168;-0.039576;0.1343634;-0.14607668;0.20692247;-0.010891979;0.23968892;-0.28198797;-0.09285017;-0.09418401;0.0021081367;0.008075775;0.0046510445;-0.23921727;0.0640563;-0.059087947;-0.14560516;-0.2611599;0.005510781;-0.3607931;-0.14486529;-0.005608756;0.0036339068;-0.06816764;0.10558529;-0.17144917;-0.13082445;0.06388082;-0.03934212;-0.10643311;0.036257245;-0.16600761;0.2053933;-0.0051544495;-0.07094822;0.10162991;0.016434325;-0.0047199624;0.005257878;-0.0040119058;-0.027514502;0.0020185248;-0.015793685;-0.05841028;0.38864487;0.1811069;0.015760751;-0.0056446507;-0.23063779;0.080397554;0.33372796;-0.32612023;0.19757718;-0.019928152;-0.012047624;0.095232815;0.160542;-0.16374321;-0.021029973;0.16620615;0.009049132;0.042549003;0.029045323;-0.008017927;-0.050957166;0.18235214;0.01532593;-0.13259763;0.16260387;0.20836031;0.017053721;-0.054313805;-0.03771862;0.00048228007;-0.035486624;0.014940953;-0.01387965;-0.03716839;-0.0010294775;-0.006236809;-0.38261846;-0.095905244;-0.025820749;0.0053729746;0.080461495;-0.04542136;0.010846792;-0.19137515;-0.023704594;0.060721923;0.08737233;-0.10498011;0.01983883;-0.023979332;-0.10744279;0.003064622;0.29407647;-0.0487862;0.0020576406;0.23150286;-0.13238573;0.13352963;-0.58675236;-0.006954498;-0.3214305;0.31790757;0.1555367;-0.13185923;-0.09095916;-0.10395305;-0.027426051;0.019415649;-0.0052197273;0.049481522;0.17592356;-0.23763454;-0.019094447;0.11413852;-0.18806921;-0.26223138;-0.049166556;-0.016078167;-0.048635982;-0.30504334;-0.12287137;0.09606412;-0.0039286437;0.015036649;-0.29942212;-0.19264373;0.005308457;0.18882225;0.16520716;-0.0042029396;-0.23416062;0.016693242;-0.3202938;0.22151063;-0.35798076;-0.20641115;0.015489305;0.44472694;0.13168663;-0.1466051;-0.0055292267;0.16420744;-0.16119488;-0.013216445;-0.0607113;0.0073250597;-0.121347286;-0.1344553;-0.08594996;-0.1511767;-0.014314187;-0.018793758;-0.0024868362;-0.0945172;0.11659429;0.03443853;-0.089296676;0.065299064;0.3016096;-0.021224098;-0.004166273;-0.53450745;0.008110256;0.1702128;-0.08049907;0.28988838;-0.11903007;-0.012192982;0.26287457;-0.22708571;0.0034606687;-0.00360975;-0.20071863;0.057887018;0.05796244;0.15496863;-0.30618936;-0.022683451;-0.0008794245;-0.0019470842;-0.024679635;0.01271018;-0.0168959;0.02320414;-0.0046118256;-0.012238786;-0.16672678;-0.014385477;0.017496808;-0.009692313;0.018069506;-0.10736311;0.1288788;-0.34842825;-0.18790704;-0.22547594;-0.071146265;0.08214612;0.00023024534;-0.1072801;0.16446511;0.014115929;0.08599634;0.07029252;0.013529297;-0.31630272;0.009519243;-0.016199937;0.0005147954;-0.3347941;0.110351056;0.020846765;0.07739529;-0.13727231;0.008002198;0.019035487;-0.0140414145;-0.017090058;-0.0032753802;2.7155465e-05;-0.09776163;0.047877535;0.00070414966;-0.016877841;0.017158192;0.04179581;0.030387536;-0.05369794;-0.29925516;0.06807715;0.010469285;-0.01272682;-0.17887872;-0.12360984;0.018033464;0.030112574;0.12876114;-0.20254768;0.01680231;0.004316879;-0.62164474;-0.1775035;0.1341333;-0.26628742;-0.012881307;0.011159453;-0.10779134;-0.021181311;0.040786274;-0.07773858;0.06619791;-0.0068407077;0.02385934;-0.015554004;0.1323717;0.40256715;-0.01733238;0.13988091;-0.2258932;0.013049233;0.4193312;-0.009553595;-0.019537272;-0.0034528086;0.0077202376;-0.0040389565;-0.017189804;0.048471976;0.46355012;0.18707708;0.17302452;-0.010989423;-0.10385689;-0.046868768;0.12227117;0.025579302;-0.296975;0.012641747;0.22103396;0.12595676;-0.0029333727;-0.015169097;-0.22509682;0.12702751;0.0033197931;0.1912961;0.041023128;0.0522387;0.039079193;-0.21492599;-0.0152200265;0.1331212;0.027650578;-0.010419489;0.088422775;0.0025669413;0.4024359;0.18888755;0.03532263;-0.072191216;-0.007452098;-0.12266461;-0.00016812315;-0.0732912;-0.21771336;-0.042319078;0.0039965496;0.015178402;0.019788703;0.101993926;-0.011982999;-0.07949529;0.0060374346;0.07410481;0.0024747457;-0.23759691;-0.08297542;0.03781644;-0.025963418;0.10489068;0.11584845;0.00065959623;-0.06676336;-0.0063312575;-0.0031955475;0.08137953;0.00027856682;0.0031003307;-0.14999776;0.0006139804;-0.14954826;-0.016391134;0.0065807803;0.065109365;-0.013844689;-0.18854442;-0.012521999;0.050041296;-0.012584753;0.030174267;0.027150076;0.10338642;-0.013924985;0.018130956;0.043600116;0.10545234;0.17680596;0.009200891;-0.19163091;0.03850841;-0.007002266;0.26079997;0.0045893476;0.112377405;0.008935309;0.029996688;-0.0044419644;0.0107478695;-0.5496733;-0.004816457;0.18719116;0.20866431;-0.10944232;-0.013254532;0.005300064;0.21889324;0.26408365;-0.17075677;-0.03879788;0.009529182;0.16451444;0.008157372;-0.16581199;0.13147964;-0.18960048;-0.24840024;0.0037788;0.050739143;-0.076665595;0.11546431;-0.33808059
-0.3826129;0.04012849;-0.37821448;-0.04850461;0.1051697;0.014607726;0.06918755;-0.0054810434;0.1746972;0.02481567;-0.07171279;0.040256355;0.017988643;0.01895696;-0.27283224;0.20772079;0.016339928;-0.13704844;-0.010761576;0.10435957;-0.08774791;0.09977522;0.09497504;0.04605117;-0.27809426;0.12217487;0.010870475;0.15421563;0.0065777553;0.016534166;-0.08992477;-0.082050726;0.052708197;-0.013288749;0.004114662;-0.15136409;0.40439686;0.22542319;-0.04358762;0.34896445;0.07027011;0.0005703916;-0.018909257;0.030023651;-0.2754596;-0.003512744;0.0026861378;0.016549828;0.0031111133;-0.058326155;-0.059612196;0.015705664;-0.07546766;0.32451975;-0.01670925;-0.00039420094;-0.018428281;-0.018280972;-0.059862882;-0.16923797;-0.022605417;-0.07650748;-0.004914146;-0.11213989;-0.2018156;-0.36318937;-0.23089108;-0.100334056;-0.007259049;0.16539437;-0.20913573;-0.24192102;-0.1421259;0.12815385;0.011462573;-0.23713118;-0.11945227;-0.14417738;0.14713179;0.011115037;0.02122125;-0.0016101766;0.12833962;-0.07657348;-0.009197211;-0.18568543;-0.24149206;0.010787481;-0.011789636;0.06676703;0.041151002;0.08895995;0.039852526;0.0046731164;0.012434123;0.056336485;0.0057713226;0.029870126;-0.16488223;0.09694044;0.06429175;-0.008412608;0.0057675675;-0.023606554;-0.04613241;-0.013739247;-0.2308853;-0.009182473;0.0068561304;-0.013105624;0.30877468;0.14695433;-0.097090475;-0.036858726;0.008326185;0.059916534;0.17325655;-0.1374857;0.0004887573;-0.2513307;0.22293584;-0.00012948834;0.18165185;0.05883802;0.24438669;0.01151513;-0.47231433;-0.039792217;0.031967305;0.0047747525;0.03039562;0.11911381;-0.007773075;-0.09965809;-0.013468707;0.15087996;-0.14876653;0.050783582;0.3295018;-0.26931638;0.17657265;0.0077597722;-0.06400808;-0.44716382;-0.05809805;-0.017668633;0.0007474978;-0.2463719;0.026954453;-0.005521025;0.06963145;0.17310588;-0.06419647;0.01695248;0.059778158;0.30627778;0.0050234008;0.0266817;0.08257021;0.2343142;0.30040985;0.08200203;0.09541818;-0.07836755;0.12636696;0.0053018713;-0.02153852;-0.4326791;0.10667533;0.030274069;-0.017882343;0.1564669;-0.006097819;-0.030849312;0.0096393395;-0.47544268;0.05471246;-0.103412114;0.06611035;0.027272807;-0.1263231;-0.013142044;-0.29172316;-0.2044562;-0.011269262;-0.044070445;0.004783907;0.042766493;-0.33045012;-0.061420217;-0.077326424;0.31873533;-0.051882263;0.18528126;-0.15073408;0.2612966;0.0023831986;0.22380689;-0.22793205;-0.065775715;-0.09774966;-0.023393393;0.0013194885;0.00042491607;-0.13921571;-0.07122903;-0.21233507;-0.047258798;0.071221754;-0.0021474427;-0.2849844;0.18362784;-0.0019632576;-0.006134849;-0.097134896;0.1053433;-0.08391852;-0.06892196;-0.0077204085;0.03122181;-0.08449181;0.037495695;-0.19724356;-0.073492534;-0.007284904;-0.16925833;0.08636734;-0.018623395;-0.0015320523;-0.027811896;-0.049928285;-0.1732378;0.0013644004;0.012038595;-0.00041247936;0.34871927;0.16131142;-0.09246974;-0.0025809754;-0.20953375;-0.026596237;0.23499364;-0.31308004;0.10232521;0.02769633;0.20571606;0.060966313;0.04507293;-0.20965247;0.018714374;0.026514612;0.0054845205;-0.043648645;0.03572591;-0.0017757439;-0.14684147;0.23290613;-0.0031229837;0.056792807;0.17485599;0.14820512;0.0124365855;-0.026115954;-0.124946736;0.00020819997;-0.15176;-0.011092684;0.017234243;-0.020240517;-0.0062303646;-0.0019057066;-0.2736792;-0.19268674;-0.25497165;-0.0036538565;0.12921621;-0.27383783;-0.013592945;-0.29345605;0.020451821;0.16530909;0.23274311;0.13379693;0.030902667;0.028677579;-0.20008543;-0.01774007;0.03233186;0.07115269;-0.0043126536;0.3438333;0.02520012;0.28061134;-0.4366331;-0.0006691659;-0.30835158;0.3920006;0.21537054;-0.17901075;-0.18010196;-0.0638006;0.021229863;-0.011435905;-0.006252807;-0.10288749;0.13361369;-0.21281654;0.01944157;0.17662661;-0.2034619;-0.3538744;-0.11581096;-0.0020924064;-0.02151614;-0.22525078;-0.30498794;0.15370265;-0.0059631974;-0.02367127;-0.099557064;-0.37464333;0.024242649;0.14427109;-0.27346173;0.003274044;-0.010102063;-0.015073415;-0.252497;0.13829264;-0.30979455;0.26130384;0.0063956617;0.4169251;0.16452982;-0.31107622;0.017465837;0.09502125;-0.2611328;0.17268427;-0.1927266;-0.010263937;-0.13064808;-0.00047211553;-0.007623255;0.09159726;0.026933577;0.01431975;-0.0036543799;-0.14937873;-0.04746322;0.12145122;-0.056182995;-0.05630557;0.25597098;0.12891467;-0.09792534;-0.062366642;-0.003820135;0.30517972;-0.00056930666;0.40230474;0.10091493;0.0031850263;0.17889443;-0.36881122;0.023678789;0.004602574;-0.23171064;-0.05428064;0.02408306;-0.091517046;-0.06506859;0.005541673;-0.010465228;0.010514369;-0.0023995144;-0.007124745;0.010045858;0.02041192;-0.07748191;0.0058787987;-0.014552498;0.004927576;-0.10995171;0.016644651;-0.0236059;0.0022593841;-0.015753124;-0.41524148;-0.11147826;-0.22428118;-0.15732744;0.15978825;0.0025515265;0.09049143;0.12157068;-0.010662469;0.17765754;-0.08632463;-0.045152374;-0.54355663;-0.008609379;-0.07211341;0.0036931718;-0.3455747;0.14357693;-0.06371014;0.0053361724;-0.16914839;-0.014437829;-0.019548668;-0.0024799753;-0.014200074;0.0024537665;0.026024131;-0.083580635;-0.03874303;0.01230684;0.04598596;0.010421025;-0.041415937;-0.038513456;-0.07240929;-0.21510442;-0.004967406;-0.012419907;0.019444406;-0.13450414;-0.08737841;-0.084969655;-0.12791307;0.048310187;-0.35082513;-0.019096825;0.006999213;-0.24924383;-0.16116416;-0.29023963;-0.0016727415;0.006153585;0.013237622;0.075596005;0.010098401;-0.09396542;0.36873248;0.0017229273;-0.0045415275;-0.05775077;0.0036808036;0.20311464;0.353752;0.009541197;-0.27316225;-0.0897091;-0.013435104;0.2328916;0.0050207716;-0.26537153;-0.01174729;-0.011769286;-0.00013387184;-0.010591068;0.15425359;0.21621011;0.2471341;0.06838156;0.0065881307;-0.14362462;0.2554671;0.09856671;0.042439595;-0.2397122;-0.01661462;-0.18772575;0.010206906;0.012631119;0.013303076;-0.06979559;0.15215921;-0.0013848556;0.18018915;-0.07229873;0.22797246;-0.03848276;-0.13164973;0.023776542;0.1529622;0.27454787;0.00831795;0.12677537;-0.028719151;0.3243239;0.15710817;-0.18821736;-0.19264306;-0.002001162;0.035780173;-0.014139601;-0.1593503;-0.042822707;0.017342644;-0.0039135376;-0.011233642;-0.006371897;0.10142869;0.008439725;-0.16347148;0.0054123993;-0.028173575;-0.026402988;-0.3046576;-0.34542686;0.043565758;0.08261055;0.052566595;0.11983509;-0.0010903883;-0.10200701;-0.0010876553;0.18109918;0.092021294;0.011949987;0.014691992;0.112405986;-0.014405476;-0.13527822;-0.0017840739;-0.022164294;0.10453066;0.0042737047;-0.22937807;-0.12763473;-0.040405896;4.119667e-06;0.06250257;-0.042725425;0.19064327;-0.173192;-0.0036440238;0.11887171;-0.12366286;0.020262172;0.01894062;0.12429729;-0.025168343;0.014162534;0.28812185;0.010009725;0.113368206;-0.0022510872;0.114576444;-0.00078722916;-0.009752626;-0.43967757;0.011916916;0.09584136;-0.25176966;-0.14783348;0.010281993;-0.004288281;0.2069847;0.34462333;0.014567478;-0.038260974;-0.01672399;-0.06800891;-0.0006596455;-0.44451046;0.074163996;-0.23961711;-0.19430198;0.0005954302;-0.10251763;0.041830163;-0.056728717;-0.25583622
-0.16285373;-0.08742386;-0.110259734;-0.013946389;0.14803731;-0.006864001;0.11690563;0.016910741;0.49868855;-0.014841867;-0.15633065;0.12895492;0.002187976;-0.13381925;-0.23824082;0.18336049;-0.0176304;0.123915315;-0.016277568;-0.082142256;-0.112568595;0.26644835;-0.05328596;0.00029712913;-0.29422602;0.16327943;-0.07474871;0.04788805;0.0034384045;-0.017133618;-0.058862694;0.01668987;0.28712615;-0.0062788613;-0.008713216;-0.08855124;0.27372882;0.24981865;-0.15551613;0.40634134;-0.12321807;-0.0032724123;-0.16046815;-0.03358266;-0.18100531;-0.14116468;-0.003722107;0.02345624;-0.004459892;0.15168421;-0.27170843;-0.0037308368;-0.0848678;0.29957652;0.01940971;0.0019921414;-0.039643586;0.0064483313;0.050739944;-0.09772069;-0.010666056;0.22739063;0.0033346538;-0.04805738;-0.042900562;-0.28596324;-0.06827076;-0.12386945;0.0069368645;0.06656257;-0.0003424;0.05669487;-0.15385434;0.22870198;0.09037587;-0.23871092;-0.037315268;-0.06717705;0.15825711;-0.019846963;-0.022713503;-0.01428087;0.18825367;-0.1841266;-0.026937142;-0.2844199;-0.22245322;0.002102845;0.009625329;-0.04879397;-0.024557542;0.22476786;-0.031001687;0.009415329;-0.0059095644;-0.16963062;-0.008457267;-0.015909774;-0.3047928;-0.067165345;-0.023201229;0.006262059;-0.0011177547;0.0924482;-0.05909473;0.0043710163;0.056495126;0.0010595528;-0.0040703327;-0.009281057;0.07840503;0.14895947;-0.15415144;-0.075242475;-0.007810223;0.019311007;0.23006596;-0.12641098;0.13296416;-0.18587609;0.21599592;0.001329506;0.08624412;0.14380674;0.46830785;0.07854244;-0.21880677;-0.0073852697;-0.06899935;-0.012571465;-0.013998565;-0.1328896;-0.006404376;-0.04954436;0.009274856;0.024620874;-0.16234018;-0.11887472;0.030149627;-0.3544205;-0.09947616;-0.015325837;0.0033938051;-0.28955385;-0.11370467;0.01687624;-0.0014192356;-0.115962096;-0.014182702;0.14873666;0.17356083;0.10461608;0.022938123;-0.02231757;-0.026471848;0.29309067;-0.0027141422;-0.07213359;0.15556751;0.101986386;0.14174938;-0.08409897;0.07641505;0.01689108;-0.01739864;-0.011977992;0.02316461;-0.19058351;0.14947884;-0.017462151;0.0072261016;0.04373177;0.02213697;0.010003862;-0.012768551;-0.30612615;0.21578161;0.046926226;-0.0088425055;0.10809359;-0.10277211;-0.27821177;0.23213951;0.18159132;-0.004993074;-0.02896431;0.006913182;0.057272702;-0.35527092;0.06911499;-0.07555746;0.17097865;0.08981825;0.32352188;-0.09314085;0.32784843;-0.004252183;0.06546768;-0.29812554;-0.010797082;-0.13312139;0.0220617;0.008197817;-0.0152839115;-0.17947161;-0.011206585;-0.28987423;0.02017261;-0.0741618;0.012714001;-0.3110382;0.010994915;0.009241466;-0.002019172;-0.09766551;0.08695791;0.16949719;0.06865815;-0.17703538;0.014122798;-0.18617892;0.013303596;-0.18340228;-0.10170264;0.010533716;-0.17263481;0.15838195;0.01580176;-0.007106144;-0.08536669;-0.020576602;-0.068555914;-0.0006534053;-0.012203457;-0.07237265;-0.0299286;0.15313709;-0.27487507;-0.008226048;-0.18014368;0.08148012;0.41679236;-0.16398142;0.17151962;-0.015961466;-0.011065347;0.041173153;-0.062229034;-0.05622335;-0.015330379;0.14909674;-0.010945951;-0.2767374;0.0823489;0.0050816475;-0.14617303;0.19040082;0.013134951;-0.0051962393;0.00031382302;0.008421189;0.18150005;-0.022559633;-0.2176088;-0.0011135081;-0.29926872;-0.005688961;-0.01851283;0.07083974;0.017686453;-0.0048344415;-0.28313544;-0.16161561;-0.3878275;0.004694372;0.22702006;-0.36410528;0.012686327;-0.28782436;-0.013796759;0.13939825;-0.0011532088;-0.047146697;-0.18436472;-0.010635549;-0.08505723;0.0066722212;-0.02250536;0.11691845;0.020357806;0.42463434;-0.021826096;0.24113853;-0.315739;0.00021556062;-0.3288276;0.4424477;-0.014477515;-0.025125558;-0.12905228;-0.077330105;-0.01537444;0.026100302;-0.001278592;-0.15688686;0.11818459;0.009506968;-0.004217274;-0.049455356;0.066304035;-0.10529363;0.06509821;0.0023759098;-0.106063455;-0.24224311;-0.47147346;0.12514149;0.0055699437;0.0009502374;-0.05755722;-0.3460129;-0.014617415;0.13037847;0.054486018;-0.005424575;0.054591827;0.0022353453;-0.3041554;0.1637388;-0.25726807;0.37007657;-0.016865898;0.4257036;0.21693286;-0.26103616;-0.019481698;-0.013987017;-0.19821288;-0.08441733;-0.2716097;0.016029902;0.03041402;-0.037094723;-0.10171219;-0.06893233;-0.026318278;0.012940866;0.012922432;-0.16764037;-0.09751175;0.09541852;-0.1033782;-0.04853512;0.32031333;-0.12499084;-0.02494671;0.11885056;0.009403332;0.19321369;-0.17723987;0.37518466;-0.023493486;0.0074458118;0.06679411;-0.11302417;-0.20780501;-0.02099215;-0.16953954;0.050467726;-0.04077595;-0.105621584;0.11862998;0.0040086606;0.02722941;-0.021337472;0.008764441;0.0015809706;-0.0073740883;-0.015439733;0.016133685;-0.0064227935;-0.23728766;0.0016758639;-0.044014823;-0.0063604736;0.006735792;0.014218794;-0.021734038;-0.2924101;0.36483285;-0.13185193;0.070264004;-0.17642704;0.007963774;-0.014032284;0.1850703;0.0132277645;0.008318726;-0.24194925;-0.31017935;-0.3773753;0.0091043;-0.017815702;-0.011549705;-0.26357204;0.1530245;-0.08166755;0.07774012;0.0770461;0.0055971206;0.0091647385;0.009659439;0.08530552;0.004831795;-0.014379536;-0.030344794;0.116999134;-0.008668346;0.08448116;0.011354471;0.18541329;0.08915654;0.055370063;-0.1411699;0.27904984;0.010251997;-0.008292596;-0.13083838;-0.04148514;-0.020908235;0.20610781;0.06592477;-0.27382496;-0.0089055095;-0.01259701;-0.062234722;-0.22495942;-0.03643127;-0.013730088;0.0017476372;-0.027448732;0.05103641;-0.008313727;-0.23893476;0.38730097;-0.0723874;0.0018986523;-0.07057218;-0.002891882;0.3610948;0.521724;-0.0009540806;-0.026474603;-0.09039654;0.017794061;0.31139424;0.008175533;-0.1745107;-0.16642651;-0.008203129;-0.0036902255;0.013339362;0.012994444;-0.024375271;0.033054274;0.10494565;0.0031423194;-0.12708326;0.29444182;-0.0034948676;0.008235044;-0.2114262;0.003794562;-0.23521246;-0.22794499;-0.0009954245;-0.004946869;0.06023893;0.23471287;-0.01346877;0.21787477;-0.13621056;0.18055338;0.09761564;-0.069512285;-0.016845472;0.03867902;-0.037928324;-0.015413373;-0.2324173;0.022339975;0.08771374;0.14948371;-0.08128529;0.05501739;0.01029407;-0.048029486;0.004843145;-0.23381612;-0.08474947;0.22158182;-0.0048608105;0.008180034;-0.011053794;-0.18225142;-0.016750328;-0.16535464;-0.020987488;-0.052342847;0.07278141;-0.2764001;-0.33937886;0.109883316;0.047888957;-0.08945715;0.10858509;0.0042753094;-0.1816707;-0.0064358227;0.33041325;0.17984948;-0.01565096;-0.006006953;0.055691283;0.0003053485;0.21804649;0.0045119305;0.010585349;0.03857119;0.003541806;-0.43154752;-0.21967801;-0.03253913;-0.0027648606;0.06806799;0.0004411315;0.36268142;-0.013058028;-0.008258847;0.39242548;-0.059692405;-0.11979829;-0.003830648;-0.13306542;0.008288296;-0.022366894;0.02800654;-0.007586572;0.09102084;-0.019291319;0.1252478;0.005592665;0.002859943;-0.4605887;-0.0044494243;0.06324068;-0.3226238;0.0774651;-0.0048022023;-0.002713862;0.22087659;0.27507007;-0.21064283;-0.1023956;-0.0077077863;-0.056040056;0.009344561;0.068252735;0.079454616;-0.16108099;-0.17440583;0.013236693;0.032593537;0.073546596;0.04537208;-0.17766786
0.068009935;-0.08833832;0.102026425;0.20037122;0.17778704;-0.009756549;0.35107484;-0.013895415;0.28949073;0.015799718;-0.20532721;-0.007035132;-0.014804985;-0.14813448;-0.012171843;0.22273189;0.0042230184;0.0678934;0.010433507;-0.01484107;-0.1695026;0.2902677;0.049705364;0.0049249274;-0.24273545;0.11063419;-0.042557474;0.1961985;-0.0071353773;0.005832567;-0.01101573;0.31445545;0.12071115;0.008620441;-0.004077878;0.08503151;0.18676403;0.30161226;0.13080303;0.27388278;0.10298606;-0.0043631014;-0.09568139;0.18992932;-0.109452315;-0.18373495;-0.015846048;-0.12301065;-0.00588427;-0.03073433;-0.2955231;0.017478868;-0.080079235;0.005158667;0.0048096576;-0.018400136;0.0053736162;-0.006200461;0.005052075;0.099089876;-0.014173352;0.19156826;0.00042601503;0.009629877;-0.08890972;-0.1383909;0.0018390184;0.11780688;-0.009691536;-0.06442781;-0.051743414;0.09014093;-0.3379939;0.111629464;0.05024;-0.33550516;-0.18711886;-0.15798779;0.009358539;0.0044673607;0.0068061203;0.004757403;0.08130192;0.038815267;-0.019897902;-0.36535302;-0.26805982;-0.0021687788;-0.031447504;-0.12222098;0.08605209;0.20853473;-0.022924945;-0.0128218625;-0.003569296;-0.10046225;-0.010526709;-0.03181887;-0.05084822;-0.13894808;0.046252128;-0.011986934;-0.0040567745;0.10217807;-0.23034233;-0.0049708528;0.1472151;-0.0032894365;-0.0022581823;0.022761885;0.08844287;0.14548366;0.031714115;-0.45716506;-0.0018023037;-0.120863184;0.17866871;-0.1304755;0.13916649;-0.38183838;0.26409408;-0.007298097;0.07255405;0.009958159;0.5118912;0.0023665333;-0.25326598;0.040051706;-0.10422166;0.025531325;-0.09157948;-0.21426257;0.009189464;-0.13573284;-0.014296975;0.026672442;0.040859286;0.08310519;0.039034482;-0.32443574;0.0017640693;0.008302941;0.012203026;-0.3347487;-0.1427352;-0.008649855;-0.0062797247;0.08220407;-0.009062464;-0.07118138;0.12765415;0.104566075;-0.015196069;0.0066212425;-0.05849299;0.0060568047;-0.003816425;-0.047249347;0.14682198;-0.23142987;0.19040188;0.026178233;0.081657365;0.024386667;-0.11005245;-0.0026098003;-0.037892375;-0.2597142;0.19249113;-0.0027737278;-0.0019954415;0.01939325;-0.008620239;-0.016837295;0.020192122;-0.18536778;0.098482914;0.073802635;0.25577238;0.12051475;-0.027284749;0.004177831;-0.07431287;0.26944757;0.009761232;-0.01162571;-0.0027368292;-0.059836812;-0.48592916;-0.018018056;-0.021292802;0.27345133;0.113408074;0.20754734;0.09368811;-0.10477324;0.0058068056;-0.22080174;-0.12385676;-0.107210055;-0.35773775;-0.007164207;-0.022199597;-0.0018971544;-0.14630991;-0.08684369;-0.2822578;-0.06384989;-0.020077491;-0.009749679;-0.09472321;0.12502982;-0.0017911516;0.0021148946;-0.19290802;0.1423052;0.0059152674;0.08539658;-0.16017093;-0.0032402836;-0.28959242;0.2267971;-0.10608902;0.088803805;0.0059253112;-0.032105893;0.08166259;-0.012309486;0.0120357;-0.02909001;-0.056039434;-0.072007544;0.0021076764;0.02077497;-0.0037505692;-0.11188871;0.26177353;-0.4087582;0.010475317;-0.4796505;0.2045557;0.25723696;-0.22401437;0.0013178841;0.008871615;-0.15430714;0.23342079;-0.1012801;-0.21710984;0.024751563;0.29620966;0.011265764;-0.08277801;0.1453858;-0.0018610619;-0.07036787;0.010167633;-0.013593756;-0.0068443934;-0.0008379543;-0.1084372;0.2683823;0.02867653;-0.0020428933;0.00657604;-0.15094092;0.0029511629;-0.027196953;-0.023974268;-0.013397992;-0.01791573;-0.19066814;0.1222966;-0.37987602;0.013499208;0.24209455;0.1394467;0.0004406101;-0.2129561;-0.01815146;-0.057259746;0.22098741;-0.028669663;0.11723651;0.013515276;-0.06302133;0.009183594;-0.23790662;0.033058573;-0.03201876;0.23127875;-0.02400284;0.2445777;-0.25720108;0.009664783;-0.6154662;0.28818846;0.04049411;0.081065096;-0.050751805;0.0884872;0.023165017;-0.02671501;-0.0023482814;-0.1710131;0.1625855;0.33232263;-0.004144103;-0.23608188;-0.046129942;0.0727046;-0.041595936;0.0071035028;0.07262752;-0.26341355;-0.56390464;0.45255446;0.0075715254;0.026500411;-0.0779467;-0.19914353;0.008699115;0.26585296;-0.23233576;0.015996933;-0.05298796;-0.004775337;-0.2660969;0.25262898;-0.103151515;0.4126204;0.0059223427;0.08834036;-0.038685255;-0.24930248;-0.00058839243;-0.09779605;0.12406661;0.0039721476;-0.19437586;-0.009790629;0.30515882;-0.01888155;0.20817131;-0.03205447;0.014189639;-0.038994454;0.008157288;-0.3387507;0.09259255;0.1412372;-0.06299328;0.01970504;0.3211063;-0.16605026;0.0033517643;-0.14634366;-0.009685406;0.14738932;-0.12847058;0.13974755;0.10498404;-0.012242555;0.14622222;-0.14579989;-0.17478496;-0.019906664;0.26826316;-0.15456177;-0.23928498;-0.3451707;0.054751296;-0.008786102;-0.017629884;0.0112494;-0.0055768066;-0.005240654;0.0022524798;0.015153319;0.09718165;0.0013397307;-0.17898798;-0.008380078;0.039121967;0.012450869;0.0030902673;-0.101559125;0.05319199;-0.0744871;0.36887008;-0.08311575;0.10505264;-0.10144301;0.004742872;0.21621367;0.06441083;-0.0045930855;-0.09860026;-0.53566587;-0.22849657;-0.28898767;-0.020589717;-0.051700875;0.014031376;-0.24538246;-0.10868624;-0.16992672;0.028112262;-0.02104403;-0.009041868;-0.013942447;0.0031996272;-0.30598488;-0.01109992;-0.1714649;-0.0597796;0.13834275;-0.004283828;0.10674665;-0.03727126;-0.15596588;0.12568265;0.1570854;-0.008549609;0.45589566;-0.015709626;0.0069622938;-0.058070775;-0.0036495314;0.022272827;-0.25871462;0.03510119;-0.19745126;0.010652348;0.014965171;-0.11340563;-0.0059321173;-0.23336896;-0.011770829;0.0067996196;0.0004457444;0.091227494;0.007873033;-0.065909475;0.1279041;0.16293283;0.012806334;0.24520351;-0.015085707;0.31561047;0.5517683;0.0079693515;-0.10055013;-0.0016986005;-0.021562705;0.13656747;-0.01095404;0.20684178;-0.08890364;0.016654866;0.013817202;0.0062709884;0.03900273;0.041185368;0.041427195;0.097128876;-0.0010887882;-0.15839177;0.12213922;0.018980965;0.020653395;0.11727431;-0.004060656;-0.20919129;-0.28168544;-0.0011132808;-0.006564783;0.193421;-0.05981314;0.013485065;0.02047077;-0.06711094;-0.113297515;-0.009976309;-0.089699954;0.0064005046;-0.112161234;-0.11742291;0.0075130495;-0.2892994;0.042098965;0.16480382;0.04089913;-0.43746755;0.03625495;-0.0054292814;0.21204863;0.0059462436;-0.09210377;-0.20425141;0.071591005;0.010173513;-0.008741107;0.0127809895;-0.12287309;0.020241987;-0.08250584;0.022131847;-0.13585119;0.12098698;-0.32131678;-0.47359282;-0.094619475;-0.028029637;-0.15673569;0.2564167;-0.001972257;-0.3165633;0.0013645624;0.11773974;0.28671962;0.014693323;0.011104995;-0.14732544;-0.004095976;0.3222057;0.004433498;-0.0114241205;-0.035662636;-0.020475522;-0.3630534;-0.3864031;0.13817133;0.0009748421;0.10241556;0.020773297;0.3643299;0.2461166;0.029158639;0.24501318;0.02013545;-0.06126782;0.0026545795;-0.2805517;-0.0042318683;0.014548479;-0.017494982;-0.000858407;0.19236834;0.0142030995;0.13635202;-0.008117403;0.018038157;-0.51874346;-0.005245808;0.013414572;-0.022504376;-0.1681519;-0.0043215984;-0.010573289;0.16586536;0.14047547;-0.27850276;-0.15158461;0.016749438;-0.20386934;-0.016630301;-0.07930998;0.29294002;-0.2535726;-0.1849334;-0.021061715;0.048362322;0.2392426;-0.08448713;-0.06515994
0.23067752;0.12844536;0.29217038;0.01625897;0.14321668;0.0077735307;0.21438499;0.0047468278;0.28877342;-0.0076586576;-0.3136726;-0.3573793;-0.0035298336;-0.12564623;-0.030482447;0.291755;-0.015156243;-0.0324208;0.010252021;0.013951797;-0.09095454;0.09416523;0.008951862;0.1633757;-0.36885694;0.1303692;-0.043132734;-0.0791805;-0.004581623;-0.013261277;0.06239564;0.13804154;0.37931025;0.0059478185;0.002121566;-0.10145596;-0.1257912;0.2722256;-0.44648862;0.1893479;0.11597172;0.013025855;0.010825139;0.3827045;-0.21061637;-0.2301518;0.022131052;0.0037599134;0.00088805746;0.17972177;-0.21045417;-0.011638212;0.10975694;0.059991762;-0.017118355;0.029434664;0.10421055;0.010869995;0.100471236;0.050711073;-0.047819514;0.19947934;0.0043866313;-0.016510148;-0.1203114;-0.21520582;0.081995554;0.2237645;-0.0034640078;-0.061867774;-0.044538703;0.16249536;-0.22101238;0.22996952;0.04931038;-0.383159;-0.14124586;-0.20548612;-0.16956115;0.024695767;0.009482958;0.0010830389;0.054147024;0.13487689;-0.033376034;-0.26455638;-0.27037367;-0.0063503366;0.01831862;-0.26848042;-0.05091576;0.07057376;0.02733431;0.03844674;0.018201781;-0.26299384;0.003465215;-0.023953797;0.07930983;-0.23510155;0.26392657;0.015797002;0.009286158;0.23247845;-0.11318028;-0.0010729466;-0.04698791;0.008117954;0.004425829;-0.008671966;0.13919504;0.21922192;0.10234626;-0.28856617;0.009369127;-0.04257664;0.18235737;-0.050487418;0.098687805;-0.45725313;-0.120100744;-0.0024148724;0.056492373;-0.10363546;0.28332642;-0.003596459;-0.18484451;0.121246144;0.11601015;-0.024254527;-0.041966412;-0.063647345;-0.004349532;-0.04887144;-0.0058100703;-0.1750796;-0.17101695;0.047048196;-0.0035019328;-0.19433051;0.04413125;-0.009749091;-0.03161149;-0.23354116;0.09602491;0.0021121907;0.002630147;0.09830645;0.0012019477;-0.045574307;-0.003131672;0.20978177;0.026282148;0.0035502748;-0.039250035;0.1831053;0.016856432;-0.0702525;0.16236508;-0.21174726;0.100254506;-0.096487045;0.14934975;0.0829758;-0.32274362;0.012413452;0.016246902;-0.26935986;0.20902653;-0.005185693;0.009853616;0.1180524;-0.017208429;0.009070122;-0.015415841;-0.3354074;0.042253464;0.24768285;-0.011059154;0.015782932;-0.104933165;-0.009602388;-0.16533694;-0.03485902;-0.0012566237;-0.16407615;0.0018602018;-0.06879822;-0.40018338;-0.03946352;0.05753578;0.21714334;-0.100333296;0.09244031;0.09415357;-0.16721702;0.0066819703;-0.21385053;0.05973925;0.17231652;-0.3166363;0.004117782;0.022739159;0.0062772725;-0.25691515;-0.13349758;-0.4079915;-0.05940813;-0.0055197775;0.015841063;0.046035852;0.16640723;0.010088246;-0.00010316479;-0.042499244;0.06348348;0.2518346;-0.15329294;-0.19052643;0.0027477234;-0.12910795;0.42041337;0.16094007;0.10347968;0.0025371653;-0.01960926;0.10800748;-0.008102876;-0.007751631;0.09616843;-0.002569923;-0.034364812;0.012972088;-0.008100924;-0.14654233;-0.25575015;0.14680223;-0.6431456;0.009420183;-0.15091337;0.03292953;0.057412375;0.010970873;0.1356724;-0.0059556286;0.075887516;0.07719939;-0.12787107;-0.11753977;-0.022355758;0.16341658;0.0018883202;-0.04760241;0.031674415;0.010548029;0.13510232;0.09163125;0.006414564;-0.04344542;0.005655562;-0.009520993;0.25941342;-0.0025618328;0.13894051;0.007285059;-0.20267336;0.004372045;-0.024894474;-0.0882327;0.015266856;0.020474788;-0.2986227;0.022323806;-0.24470282;-0.019662151;0.3936162;-0.02022293;-0.008958303;-0.15259075;0.016713547;0.019708486;0.21703444;-0.14263365;0.33993956;0.0036961287;-0.13144937;-0.0001456846;-0.15033013;0.026676018;0.019360922;0.42301267;-0.05058215;0.29803953;-0.31173405;-0.009334262;-0.23691005;0.14413847;0.10578489;0.2216479;0.15508583;-0.039708544;-0.027813938;-0.0046125366;0.00944818;0.11157624;0.10296395;0.12866163;0.012059653;-0.24958739;-0.036071997;0.087697245;-0.039519783;-0.016151661;0.080325425;-0.01998526;-0.22596954;0.16344814;-0.014401594;-0.013506389;-0.17687315;-0.15844233;-0.004930733;0.31963664;-0.27056354;-0.015771799;0.15346554;-0.003907681;-0.18151534;-0.16257097;-0.121466815;-0.06775151;-0.009841327;-0.19069846;0.019500129;-0.27235427;-0.006547746;-0.040243533;0.09032022;0.25409037;-0.042189248;0.009804587;0.36910644;0.094396226;0.36408284;-0.15654518;0.0053159487;0.0001307297;-0.013059689;-0.0206667;0.089448325;-0.047912665;0.038569346;0.14922439;0.12897886;-0.032130845;-0.012528167;-0.1833053;0.0023211264;0.056652233;-0.23742828;-0.04412897;0.25194043;0.003659074;0.17062156;-0.11853447;-0.002696921;0.03576572;0.17695121;0.060169846;-0.18580045;-0.5405685;0.015471637;0.00080329407;0.002219133;-0.014617678;0.00876478;0.01563697;0.005712507;0.010425109;-0.05018291;0.003657523;-0.15312682;0.009915091;0.07094648;-0.024460187;-0.025283258;0.015556378;-0.060190205;0.005919591;0.19947451;-0.0782659;0.1355895;0.0072847684;-0.010453052;0.058983203;0.081967294;-0.0010954253;0.0560463;-0.4455894;-0.14569026;-0.28161427;-0.003174498;0.09861071;0.001308432;-0.18601862;-0.024649346;-0.15931794;-0.03039464;-0.11663701;-0.0038363363;-5.6435303e-05;-0.0015906605;-0.29768926;0.009962543;-0.18434133;0.082954414;0.039035853;0.009776375;0.10008424;0.030253552;-0.056270737;-0.08197093;0.02076342;0.0342985;0.24884956;0.0147476755;-0.014161145;-0.13889019;-0.14741775;-0.039537407;-0.39751473;0.014143279;-0.1043093;7.14339e-05;-0.011302694;0.05212846;0.16035403;-0.3051922;-0.076111086;-0.0067995596;0.005870082;0.016649745;-0.0042502875;-0.16750284;0.14742506;0.22134325;-0.0019444416;0.05694564;0.015190515;0.34099185;0.42702347;0.005758645;0.32835317;-0.15868805;0.019681305;-0.009730656;0.0038596261;0.31753358;0.2582374;-0.002283582;-0.00644827;-0.00823999;-0.024188567;-0.017244935;0.06386375;-0.05397957;0.017040474;-0.039982695;0.027621318;-0.1879749;0.044780757;0.14977846;0.008491503;-0.12579699;-0.3196394;-0.0067845997;0.008461227;0.23256622;0.046240456;0.0050145825;-0.1010957;-0.2462856;-0.29409447;-0.0059360797;-0.1644053;0.003793352;-0.21677439;-0.43703902;-0.0015526931;-0.41583115;0.026549924;-0.14400287;0.04739587;-0.27870315;0.12119164;-0.0034255448;0.25008535;-0.006727454;-0.2310361;-0.2905645;-0.10270805;-0.0052383286;0.010034484;0.009632251;-0.21751596;-0.007515078;0.17121851;-0.018509924;-0.07392024;-0.07415381;-0.09816624;-0.16244316;-0.073163375;0.019503666;-0.17332295;0.19944023;0.0061953003;-0.30377576;0.010306261;-0.06622371;0.3601581;-0.018258564;-0.01362589;0.092600286;0.0022139638;0.08734053;-0.0042874794;0.017098242;-0.09275903;-0.019684426;-0.43126357;-0.21199924;0.14358246;0.012549614;-0.025737619;-0.00039267057;0.12599693;-0.074800335;-0.03052486;-0.08748362;-0.05233357;-0.078677356;-0.018614322;-0.18025266;0.003332115;-0.018860368;-0.19315849;-0.020162879;0.15664026;-0.009200748;-0.01721435;0.009067658;-0.016848827;-0.3578169;0.0023728705;0.0503625;0.09826603;-0.09885357;-0.00054152915;0.0152258305;0.15698998;0.06133715;-0.23308259;0.10226643;-0.00033067184;-0.13660485;0.005066625;-0.2412491;0.05620802;-0.03547464;0.08059077;0.008048621;0.107754014;0.17718956;-0.33074838;0.037285842
0.3193268;-0.046958327;0.37675524;-0.009102366;0.003912794;0.01203136;0.094603345;0.020687178;0.3050673;-0.00025988626;-0.44085893;-0.31246734;-0.0020813409;-0.02787303;0.25208452;0.1990199;0.0015141586;0.086349025;-0.012546117;0.21045497;0.03532017;0.09059285;-0.0056164414;0.045512754;-0.16610861;0.22947745;0.3335652;-0.27162722;0.008958032;0.013853365;0.008605848;0.041999064;-0.05286886;-0.0005588003;-0.0012829419;-0.035943147;-0.062316816;0.094345555;0.053149752;0.21537696;-0.15593979;-0.0029700182;0.07811467;0.31926665;-0.16078533;-0.13845031;-0.002455135;0.12544706;0.00948957;0.068457596;-0.116236;-0.021675963;-0.05847419;0.1909867;0.015837532;-0.0073107015;0.035874397;-0.017950585;0.023316164;0.236134;-0.011273972;0.23052166;-0.006204573;0.016537115;-0.096207775;-0.19226216;-0.054681312;0.24325396;0.020702355;0.41060373;-0.27145293;0.1400741;-0.3982034;0.09207693;0.21911882;-0.3078793;0.00756404;-0.022042355;-0.39113897;-0.023826987;-0.00437956;0.012929678;-0.16374205;0.3269051;0.0050894795;-0.26623586;-0.1393781;-0.0032450587;-0.0031659808;-0.40242958;-0.1743767;-0.24601863;-0.014931592;-0.010700908;-0.015073561;-0.32115343;-0.01613871;0.031128827;0.066644706;-0.1019259;-0.056554265;-0.013638552;-0.014612704;0.028808909;-0.09559591;0.0046833255;-0.064003006;-0.014062441;-0.0025619825;0.0012487513;-0.0864989;0.055444036;-0.055279594;-0.018287905;-0.013023674;-0.25154796;0.34467155;0.07609513;-0.089624844;-0.32821295;-0.14037657;0.0071332497;0.063792534;-0.076143466;0.27758902;-0.09462831;-0.096649006;0.156763;0.038051773;0.0112777855;-0.27591905;0.005002059;0.0003292609;0.072837494;0.024557402;-0.069474824;-0.020965444;-0.27975658;-0.02757363;7.636643e-05;0.11748337;-0.008243463;0.010245573;0.038485233;0.2559513;-0.015630338;0.010266485;0.15311745;0.007515464;-0.40152252;0.08561996;0.16481818;-0.07082885;0.0029699479;-0.16149178;0.07126542;-0.019064728;-0.038101513;0.22499177;-0.12179572;-0.14512749;0.06932302;0.25044322;-0.009238553;-0.48204935;-0.0041456083;-0.02582538;-0.56095016;0.15532848;-0.0012343624;0.0054769902;-0.03794279;0.0036298553;0.05800108;-0.006486536;-0.4523011;-0.06482287;0.11921487;-0.23159146;0.18902951;0.018200215;0.020093406;0.079693764;0.035067305;-0.008327897;0.21918315;0.0040716035;-0.21111465;-0.4115274;-0.13481228;0.21262617;0.20914368;-0.064655334;-0.049594782;-0.007394705;-0.024852967;-0.0046429527;-0.16198911;-0.025767671;0.060505066;-0.4411928;-0.0024303917;-0.021286339;0.0051910314;-0.19587444;-0.11438833;-0.2053604;-0.21451457;0.17660536;-0.02543247;0.2409745;-0.11624383;-0.013794127;-0.00023217758;0.008671414;-0.030265449;0.101224154;-0.11325175;-0.027133903;-0.084828585;-0.10238941;0.07057469;0.034937058;-0.025878059;-0.01097422;0.061429884;0.11821125;0.015734397;-0.001118166;0.1447494;-0.0073690843;-0.14705747;-0.018210884;-0.009874342;-0.23879364;-0.15218139;0.07282427;-0.7166926;-0.0068758316;-0.08877384;0.0039257193;0.10822515;-0.12455638;0.057321597;-0.014249757;0.06866879;0.04480148;-0.06921727;-0.15570028;0.009985457;0.11375965;-0.012543846;-0.0022253261;-0.11802876;0.0032811377;-0.049859118;0.16540217;0.005400749;0.010559802;0.08141052;-0.016462319;0.1962574;0.02260106;-0.08744515;-0.014308003;0.010667076;0.0049739643;0.034324273;0.06235073;-0.029281596;-0.0071016573;-0.19284655;0.29490942;-0.09651232;0.010470513;0.35624042;-0.111684546;0.0026465945;-0.10136985;0.009423424;0.34943488;0.23101978;0.02076208;0.20504618;-0.0022403381;0.019452902;0.006468692;-0.17835562;-0.106924385;-0.0005388428;0.46861634;-0.106811866;0.05837353;0.09513589;0.0022274458;0.0007725957;0.12924084;0.13500427;0.21766724;-0.050810706;-0.076247126;0.02470105;0.02146019;0.004025671;0.49958727;-0.041343916;-0.18040319;-0.009313489;-0.21898422;-0.1501353;-0.11905098;-0.11117846;0.003965226;-0.0924016;0.07625563;-0.03076435;0.12038447;0.013430037;-0.005127672;0.087678984;-0.088314734;0.0021798336;0.1129075;0.007083677;0.011312583;0.108158275;0.020488769;-0.22583368;0.10690553;-0.31916562;-0.09779492;0.014717115;-0.16055752;0.006592978;-0.23999062;0.0048469137;0.26594287;0.063458145;0.14494191;-0.22654554;-0.003993579;0.434008;-0.008209053;0.4338537;-0.21475488;-0.004993427;0.030335277;-0.0005320407;0.10716721;-0.06620125;-0.026631782;0.2795284;0.04513923;0.089426465;-0.08311678;-0.09219436;-0.21658988;-0.010740718;0.1465737;-0.36935693;-0.04810729;0.34728402;-0.0069976016;0.23268816;-0.041899137;-0.14246088;-0.023916299;0.3856158;0.10146543;-0.33523214;-0.25684452;0.06646823;0.018329559;-0.002879515;0.009086866;0.008640176;-0.01368435;0.00059221114;-0.026804991;-0.030763943;0.013772846;-0.1449216;0.0081696035;-0.09441095;0.033485945;0.009586997;-0.028964486;-0.079345234;-0.09351471;0.031723533;0.20602508;0.022869745;-0.014630744;-0.002245544;0.073540375;0.038576063;-0.004558566;0.026386717;-0.3515689;-0.27398086;0.11260504;0.014204196;-0.176665;-0.00964058;-0.13750595;0.17654178;0.07047506;-0.020039247;0.132408;0.006025096;0.012593812;0.008657322;-0.04031349;-0.018019471;-0.1444201;-0.06346055;0.17064852;-0.0062733064;-0.046581175;-0.019043425;-0.00030005546;-0.16368407;0.034611855;0.04835907;0.08201542;0.00025620326;0.017624995;-0.015074308;0.08432807;0.0773286;-0.47106588;0.23368429;-0.03153373;-0.011881363;0.00076864794;-0.14194581;-0.07485291;-0.10121286;-0.05501059;-0.014972384;0.024488244;-0.05479081;0.007301863;0.321902;-0.014459352;-0.16898486;0.00014638837;-0.22818837;0.0060650394;0.21639404;0.37107685;0.007905666;0.18356831;-0.19675;-0.0067505864;-0.048120484;0.0054508466;0.23794341;0.11232026;-0.0030350268;-0.00013696686;0.0019632573;-0.13068928;0.041190203;0.04621659;-0.3587815;-0.00943928;-0.08664752;0.19114898;-0.13077106;0.04187759;-0.13322546;0.0029203233;-0.13188066;0.038741447;-0.011800288;-0.007659118;0.11523048;-0.03383389;0.0070740716;-0.13774976;-0.19353768;-0.2742113;-0.021511713;-0.07329564;-0.0070972466;-0.24558723;-0.22947694;-0.0004891611;-0.08468836;0.021425366;-0.006760545;-0.025916873;-0.13875756;0.182617;-0.0057427683;0.042476427;0.0050919405;-0.38521492;-0.040755063;-0.11473078;-0.0048911734;-0.006866125;-0.028535895;-0.15994298;-0.0018648711;0.094747946;0.0052108895;0.21283086;-0.04252741;-0.024671072;-0.23034443;0.051322084;-0.13796723;-0.12864284;0.32052574;-0.011422984;-0.3728623;-0.0076816874;-0.09408037;0.28078336;0.010113426;-0.0039724256;0.11739597;-0.0041893693;0.052487582;0.0052460046;-0.0019442553;0.12034807;0.028138138;-0.30419275;-0.053980105;-0.027618235;-0.010474255;0.06836443;-0.009263555;-0.042434305;0.07605952;0.017287338;-0.1598432;-0.10597683;0.037914388;0.0025709118;-0.1220509;-0.008287593;0.0007808911;-0.14769684;0.014817398;0.17388052;0.011249981;-0.018727059;-0.01059057;-1.5808773e-06;-0.26482266;-0.004279095;0.27378112;0.04287764;-0.026444428;-0.016858075;-0.0003968226;0.13557251;0.109314315;-0.44764066;0.03041051;-0.009736677;-0.044975404;0.006651625;-0.18962842;0.04569876;-0.16394426;0.042547442;-0.006737831;-0.03354505;0.10981122;-0.00949062;0.19824041
0.011195943;0.1576152;0.23239572;0.051649548;-0.015781105;-0.010193587;-0.05395245;-0.03058223;0.17344505;-0.015064096;-0.3679087;-0.36635682;0.0012569646;0.030158011;0.24266715;0.22150159;-0.017521763;0.11075514;-0.0050845747;-0.017661795;0.10387948;0.109570645;0.007675293;0.062450737;-0.110268;0.21249463;0.1621538;-0.20628136;0.00026484704;-0.006174063;-0.06962771;-0.0071737887;-0.113207646;-0.0010120937;-0.0039050006;0.43290895;0.11968671;0.13624132;0.11038925;0.22717412;-0.07858234;0.010536274;0.098928064;0.47187063;-0.084078744;-0.09557311;0.02140116;-0.021606997;-0.006158327;0.17240787;-0.22997494;0.01751007;0.09228122;0.16591641;-0.027821256;-0.009851756;0.23976772;0.008831265;-0.17081413;0.06112805;-0.0002450101;0.025060456;0.0022469817;0.3435907;-0.09656209;-0.064883634;-0.33688363;-0.015226054;-0.025549686;0.41110638;-0.14946048;0.140486;-0.09336938;0.26099873;0.14473738;-0.10534848;-0.013282186;-0.20995247;-0.06792541;0.027119445;-0.010453797;-0.015350052;-0.09585569;0.17820676;0.030552233;-0.26065767;-0.11679746;-0.002930661;0.0025700019;-0.25169814;-0.2470323;-0.015480567;0.009413009;-0.020733565;0.0043626474;-0.50500727;0.0056103575;-0.07028707;0.022179019;-0.046857167;-0.15555574;-0.015804678;-0.0019165423;-0.1524402;-0.07446865;-0.004995209;0.105240785;0.0052666003;0.006891663;-0.016559515;-0.1836554;-0.11766274;-0.039107658;0.10357642;0.015077485;-0.2368369;0.24988955;0.045087792;-0.13660365;-0.34953842;-0.4250891;-0.0044965404;0.16163059;-0.20337404;-0.07003193;-0.03971853;-0.08087719;0.075226635;-0.20108615;-0.0051162136;-0.4351092;-0.13435309;0.017806591;0.23841736;-0.025994984;0.03000404;0.05853905;-0.08761128;-0.10448743;0.0047343588;0.18534228;0.021651875;-0.11837463;0.018967802;0.09295262;0.014479022;0.008776071;0.11445242;-0.024007043;-0.30997086;-0.12088001;0.42443788;0.030147595;0.018147392;-0.010146379;-0.23062606;0.0013021756;-0.015349169;0.14937843;0.007688859;0.13879031;0.09887721;0.10149988;0.0008295308;-0.48756576;-0.008193657;-0.0056367842;-0.6783684;0.081930876;0.01242345;-0.008023827;-0.038449842;0.0010451748;0.018916098;-0.0040703267;-0.51166266;-0.15662578;-0.12191569;-0.2087149;0.22773673;0.13500504;-0.20762996;0.0017903601;0.018952847;0.01884872;0.02999211;-0.010216647;-0.15672012;-0.3125654;-0.13378946;0.061975207;0.009426405;-0.08651822;0.18303472;0.04399668;0.03834139;0.004375635;-0.070845194;0.23935105;0.13032492;-0.5697715;-0.002823878;-0.0030718534;0.015924789;-0.011737338;-0.23676454;0.053446576;-0.063995786;-0.14131613;-0.0022552076;0.06365843;-0.24615493;-0.00951315;0.013517709;0.13327213;-0.060774352;0.21398331;-0.07165982;-0.008544489;-0.057224322;-0.18200532;0.03571933;0.14919513;-0.1475668;-0.003986831;-0.029679632;0.23638178;-0.012012617;0.0016563517;-0.018646711;0.091252305;-0.068306856;0.018891495;0.00633582;-0.17520222;-0.021037806;0.25330594;-0.39267227;-0.011739854;0.1965387;-0.112793654;0.11789604;-0.27266976;0.07765557;0.01945345;-0.19913186;-0.19456212;-0.17058365;-0.12983337;-0.0071242964;-0.20294836;-0.004098932;-0.0024561556;-0.13396221;0.00027933618;0.10793209;0.094648235;-0.0002573706;-0.030228736;0.15480827;-0.0019593819;-0.13867183;-0.0220729;-0.016334293;-0.0053201905;0.45016116;-0.022988696;0.0059205694;-0.1718479;0.0068762577;0.023708401;-0.26664528;0.2834545;0.114549205;-0.0007155849;0.12214153;0.055391736;-0.010169408;0.18697555;-0.02016531;0.010486089;-0.057420086;0.12752129;0.069731236;-0.01816971;-0.1331735;-0.018620973;-0.09062852;-0.011627904;-0.025202246;0.25482094;-0.027198127;0.11446309;0.28088716;-0.011475619;0.26543948;0.092453994;0.16404068;0.20383216;0.03679618;0.3090803;-0.015570735;-0.010686837;-0.008350599;0.0445661;0.049028795;-0.13747346;-0.009070045;-0.19049285;-0.29046223;-0.16477719;0.042590886;0.016947312;-0.1886312;-0.03062395;-0.023328615;-0.17939202;-0.020760814;0.0065424815;-0.07788769;-0.07501212;0.00628314;0.11258171;0.237856;-0.009078067;0.10742863;-0.016840102;-0.15695569;-0.14792894;-0.10185401;-0.35978734;-0.00033477048;-0.19092557;-0.00829162;-0.22163282;0.0070353565;0.3124453;-0.071336366;0.07934121;-0.15778077;-0.0014920266;0.3291713;-0.28472823;0.23154664;-0.14112704;0.0019629882;-0.025757708;0.00043004943;0.17938255;-0.14391415;-0.06603016;0.34010953;0.17686516;-0.008464255;-0.12661012;-0.069617115;-0.30125594;0.0039577214;0.16940393;-0.39756298;0.06678299;0.20317811;0.01446718;0.20252001;-0.21409154;0.008450439;0.018062564;0.33642235;0.17975862;-0.34459916;-0.25640458;0.13604625;-0.0092826;-0.008364041;0.0133786;-0.010333706;0.010665283;-0.0043883338;0.00049472204;0.008541804;-0.014833409;-0.06198992;-0.002757148;-0.011690297;-0.012778957;-0.0077894167;0.28615454;0.09254895;-0.08742493;0.051099498;0.15141872;0.014102196;-0.13134071;0.00094086776;-0.585696;0.16038586;0.0064143245;0.14945272;-0.31737792;-0.07707787;-0.023463009;-0.011025165;-0.19872183;0.0097729545;-0.20535438;-0.031796034;0.1471434;-0.00080893765;0.07817914;0.014956008;-0.01055748;-0.0015774005;0.007855131;0.020276845;-0.1474542;0.020603066;0.008602835;-0.0029214805;-0.01786716;0.034335837;-0.10956572;0.018417377;-0.081931956;-0.15435822;-0.28229675;-0.009210616;0.0097699985;0.22816959;-0.0768645;-0.07518539;-0.12443686;-0.07740628;0.13378076;0.0022134404;-0.00036610194;-0.19733891;-0.1803345;-0.04673685;0.059876952;0.008991868;-0.016071608;0.04927288;-0.021342276;0.20856215;-0.11048231;-0.16304578;-0.00483273;-0.25786367;0.0074322484;0.21872434;0.087074056;-0.006700979;-0.12158617;-0.110234305;-0.007309596;-0.24938683;-0.012510701;0.13510518;0.08503348;-0.013424494;0.0074372087;0.008883804;-0.060494974;-0.17291583;-0.010947809;-0.23226674;-0.008770737;-0.3042189;0.09199301;-0.14788336;0.065735124;-0.12389753;-0.017621845;-0.18617925;-0.04828487;0.008886136;0.00662712;-0.19083495;0.12693796;-0.013822942;-0.32348526;-0.03901367;-0.1108024;-0.05209046;0.1419342;0.015947284;-0.20208722;-0.05900235;-0.007149426;0.24102198;0.01121965;0.11030779;0.045141023;-0.11207794;0.19131613;0.00920467;-0.025693499;-0.008662582;-0.4103274;0.0648627;-0.13503794;0.0041116034;-0.011750892;-0.0060497085;-0.10467305;0.014941834;-0.000514516;-0.004261864;0.03862074;0.045903187;-0.011160996;-0.36927724;0.09759452;-0.20414886;-0.10289924;0.17532681;-0.00945223;-0.29863477;-0.002884603;-0.35143238;-0.005374505;-0.010278585;0.004179235;0.2149631;0.00016144609;0.08829529;0.003689284;-0.00040741876;0.06147524;8.0086626e-05;-0.40088975;-0.19881119;0.059177045;-0.0030379184;0.08310635;0.0071147666;0.12998468;-0.036743436;-0.022959283;-0.24394803;-0.015505517;0.18820266;0.0075847195;-0.034318503;0.009668051;0.021921769;-0.25278488;-0.016832061;0.23208095;0.0005071986;-0.1981801;0.009542287;0.0043398626;-0.25963414;0.011796742;0.22491708;0.09837344;0.15564409;0.01531595;-0.011849149;-0.008476028;-0.33862242;-0.25355878;0.158103;0.011589301;0.07775693;-0.016486654;-0.36013967;0.019384136;-0.1771968;-0.11139003;0.02144043;-0.2100958;0.006520669;-0.08478742;0.36424828
-0.042743288;-0.089348994;0.1880573;0.03419259;0.093833044;-0.0031362746;0.029749436;-0.0055308226;0.041342624;0.016217792;-0.21818417;-0.09307949;0.00182617;0.23868597;0.19227678;0.19243577;0.0147688715;-0.040490113;0.0016719508;0.13993914;0.11258039;-0.008341993;-0.10130101;0.10187671;-0.065347925;0.11376373;0.26386836;-0.3056628;0.001614707;0.0066053276;0.05070487;0.036126558;-0.28115696;-0.007773406;0.008796318;0.24892299;0.25132048;0.13569234;0.30279204;0.27963826;0.16679448;7.009038e-05;0.010656759;0.53889894;-0.07648937;0.061729666;-0.03929474;-0.03234579;-0.0058245026;0.13534129;-0.18495831;-0.015458224;0.08810053;-0.07958505;0.010119577;0.014240589;0.20507367;-0.0020741487;-0.1783704;0.16653632;0.027562922;-0.19638428;-0.008281444;0.0668572;-0.32614958;-0.04167507;-0.06088919;-0.017452562;0.024853947;0.26018262;0.11268864;0.08330338;0.016939044;-0.123990215;-0.03954351;-0.26431087;-0.010620123;-0.29307127;0.10646022;-0.0337015;0.012582384;-0.0048344275;-0.2710242;-0.048715916;0.03802017;-0.13344447;-0.07443673;0.003307848;0.000551792;-0.2132934;-0.30667883;-0.1669942;0.011658997;0.0029122622;0.0027135073;-0.5984726;0.008002668;-0.0047949133;-0.04477263;-0.13080284;-0.1091202;0.010215919;0.0017548942;0.02937304;-0.051531013;0.0021521791;0.1157271;-0.0028058179;-0.014493546;0.004964105;-0.12642266;-0.33959046;-0.13051066;-0.06822813;-0.02001084;-0.22623955;0.06521813;0.03777754;-0.3028559;-0.2376533;-0.30996275;0.0048353374;0.20470168;-0.28311402;-0.23340482;-0.018991407;-0.2677641;0.2016876;-0.2010801;-0.0049939523;-0.24344781;-0.18561113;-0.008203957;-0.049694806;0.024097648;-0.004302472;-0.12227655;-0.0064693117;-0.1281896;0.09232624;0.2175798;-0.0025726557;0.2045483;-0.025153344;0.15416741;0.003906575;-0.032872174;0.18275926;0.013590477;-0.2677177;-0.19413602;0.17683682;-0.01983457;-0.030920113;-0.029666198;0.04396014;0.010935308;-0.18286109;0.090727895;0.11869204;0.30166695;-0.056175858;0.19404693;0.00026189163;-0.30846432;-0.0010778785;0.03454233;-0.6714564;0.2187042;0.0027020914;-0.007800819;-0.058977373;0.0074497387;-0.003241036;-0.0026430483;-0.18757544;-0.1891613;0.011268188;0.004757718;0.21627173;0.2704772;-0.2868745;-0.13875113;-0.018544469;-0.009508295;-0.07417511;0.0024339636;0.05475381;-0.25695464;-0.17142138;-0.14329517;-0.1749432;-0.1471109;0.15218745;0.015273031;-0.12133334;-0.0070215454;-0.027798727;0.13480657;-0.04483546;-0.57581544;-0.0021321303;0.01687207;-0.015577193;-0.11059947;0.11033471;0.011296207;0.042071324;-0.32898822;-0.0103701595;-0.17443833;-0.009587178;0.021098178;-0.012149439;0.18515629;-0.051409636;0.00010294368;-0.091871955;-0.22828643;-0.02502924;-0.3479575;-0.050168343;0.010368367;-0.0974015;-0.0003751649;-0.0483002;0.14334773;0.009085549;-0.014374804;-0.098633766;0.05770465;0.047132026;-0.010229868;-0.004821474;-0.09914352;-0.33734336;0.1670565;-0.42245144;0.018575527;0.07423504;-0.095243715;-0.117494486;-0.120999895;0.03661054;-0.015858177;-0.14094613;0.030812992;0.15541364;-0.02781656;0.020639662;-0.13841018;-0.006904191;-0.031306945;-0.08419254;-0.0076300115;0.017395616;-0.00055751466;-0.019607011;-0.0011005764;0.024148492;0.08861804;-0.42073956;0.05303553;-0.024381695;0.007980668;0.28491688;-0.01478681;-0.01289154;-0.052390274;0.007745048;-0.02760369;-0.10912111;0.35672513;0.3440174;0.0014217164;0.065212294;-0.07478258;0.0024576162;-0.007341163;0.012338782;-0.33571857;-0.23701917;0.1922932;-0.16109547;-0.00884615;-0.028084852;-0.003749964;-0.2504048;-0.06315856;0.03182197;-0.024921989;-0.05507299;0.1040625;0.19495168;0.0060016047;0.25152093;0.07205713;0.07566069;0.1843554;0.11296158;0.09956952;0.005679052;-0.008654615;0.006629427;-0.3639738;-0.1449991;-0.34912843;0.012854864;0.057137165;-0.06921603;-0.03432931;-0.13502985;-0.0109987985;-0.13290396;-0.100296274;-0.09476533;-0.16044714;0.011398971;-0.0022144462;-0.028698696;-0.10946921;-0.011576702;-0.13409938;0.3774197;-0.00760309;0.30105048;0.006530531;-0.097810924;-0.38596487;0.21466386;-0.002465664;-0.00901707;-0.1261547;0.18805732;-0.11682224;-0.00056755723;0.26171476;0.020370407;-0.13790615;0.08278572;0.0018404932;0.3233479;-0.44985765;0.08721939;-0.09819077;0.012129383;0.010069914;0.0022916887;0.062913224;-0.1007105;-0.31030694;0.3024719;0.23888247;-0.0145851225;-0.051240183;0.006196526;-0.03837787;0.009376868;0.14388272;-0.3998359;0.049713615;0.07616644;-0.018233407;0.07624434;-0.088514954;0.22751646;-0.02290905;0.18815516;0.33198187;-0.494193;-0.26146567;0.31239945;-0.0032131125;0.005815039;-0.019968575;-0.010305568;0.0016887733;0.006418986;0.0145162335;-0.005978615;0.004666942;-0.114706784;0.0041252235;0.18410817;-0.016609361;0.024715364;0.0564487;0.17318684;-0.18052247;0.13696493;0.40382564;0.18986666;-0.02038838;0.016286546;-0.35456705;0.10268882;0.009795982;0.014538146;-0.3437535;-0.0076479376;-0.053040102;0.007340043;-0.064707294;-0.009766636;-0.22230792;0.06963552;0.16263227;0.032550808;0.09419371;-0.0171656;0.011909321;0.001319852;0.10737361;-0.01739825;-0.12766588;0.069532625;-0.0576121;-0.010896033;-0.0035562643;-0.03169687;-0.14998168;0.19738485;-0.06744281;-0.058281355;-0.23524044;0.02198352;-0.03461013;0.12615941;0.008720726;-0.049011245;0.096098684;0.24400659;0.20756683;-0.014651066;0.013500993;-0.13153042;-0.054091707;0.16987205;0.014069928;-0.012245253;-0.0039347834;0.13506503;0.029495934;0.21608013;-0.1821787;-0.19491386;-0.014385034;-0.14820895;-0.0109220445;0.13043877;-0.02423602;-0.026361682;-0.3269734;-0.10960504;-0.0052343425;0.13644342;0.0074644773;0.1267471;0.18622796;0.014806097;-0.0075637153;-0.022350324;-0.17327844;-0.33761948;-0.011576961;-0.25390553;0.005959928;-0.31367388;0.19823734;-0.08404302;0.14515519;-0.28205127;0.0044467472;-0.27313384;0.029846007;-0.0062846155;-0.0073132054;-0.09206981;0.05941634;0.0082757445;0.18426378;0.06416143;-0.4322752;0.09593929;0.015425428;-0.007835604;-0.044037372;0.04459085;-0.0010466768;0.13211323;-0.001045628;-0.11249071;0.12981963;-0.09978269;0.20579417;-0.0037338324;-0.14559199;0.004451637;-0.2495409;-0.04720328;-0.119322784;-0.0044919564;0.02074426;0.013732111;-0.29128554;-0.015367433;0.009458227;0.0013254746;-0.18970674;0.16317627;-0.24005239;-0.59595704;0.022520788;-0.2250277;-0.09355411;0.18531983;0.01232072;-0.21757475;0.0039028476;-0.39314955;0.02694241;0.018966317;-0.0065068966;0.26518416;0.017928269;-0.049849235;-0.00012556356;0.008013442;0.07403127;0.020141311;-0.31208676;0.081400074;-0.01363935;-0.0022580344;-0.046243962;0.022046598;0.022963053;-0.038280018;0.0032314262;-0.30252573;0.08358743;0.2781028;-0.014311465;-0.14049536;-0.008379977;-0.027118202;-0.15573154;0.004729894;0.14117491;-0.013159697;-0.39476287;0.002099869;-0.012376508;-0.12812008;0.0028865137;0.057254918;0.053733546;0.028335849;-0.0009372383;-0.00027415433;-0.038513787;-0.28892827;-0.115954824;0.3374014;-0.010461227;-0.11939467;0.011399788;-0.12970123;0.09678386;-0.05891285;0.0737766;-0.013360794;0.022486575;-0.08332593;0.0035074777;0.31819436
0.09923001;-0.033633012;0.22259772;0.05324897;-0.11977282;0.0045556575;0.1580663;0.00059213;0.30193642;-0.012072526;-0.149336;-0.17437187;0.0099966545;0.057517555;0.21922371;0.106127106;-0.009428352;0.065142445;0.0014161075;-0.031719234;-0.12588735;-0.21628682;0.09785949;0.15747268;-0.18965243;0.13235001;0.13987081;-0.0030768197;-0.0034286196;-0.008684807;0.042116795;-0.1484593;-0.40954137;0.00027920204;-0.010671191;-0.0014491645;-0.14818847;0.11878654;0.017620642;0.25157693;0.05026163;-0.010620905;-0.13336429;0.40663326;-0.032966323;-0.059426427;0.015769878;-0.13376783;0.0042100106;0.06440367;-0.24990761;0.014838066;0.31911382;0.09879763;0.0022406112;0.007758151;0.3066272;-0.0045425664;0.011308634;0.26018488;-0.030134521;-0.017554391;0.0042339796;0.010712524;-0.14619434;0.04186897;0.24895397;0.11554883;-0.001057363;0.16111028;0.28722176;0.008230722;-0.2901069;-0.03752237;0.017227104;-0.23645769;-0.09139875;-0.2725646;0.26595786;0.008331533;-0.0030176754;0.010392632;-0.22955999;-0.1899586;0.026974462;-0.18219848;0.15341756;-0.0018430565;-0.010418033;0.03541481;-0.26704013;-0.33468896;-0.007258056;-0.014434115;-0.01717605;-0.39850107;0.015379009;-0.049892537;-0.3554952;-0.2587812;-0.19037013;0.036017444;0.017261732;0.017683517;0.15181136;0.004806186;0.04089048;-0.0119587565;0.007812614;0.0071769836;-0.13173716;-0.21465601;-0.16288768;-0.064381786;0.008062337;-0.18859188;-0.16848078;0.015062855;-0.3035061;-0.15527213;0.04237519;0.0058096373;0.22847345;-0.678687;-0.30134717;0.010185923;-0.24136776;-0.06363011;-0.11773223;0.0049204286;0.19977291;-0.32782716;0.0028206117;-0.1872347;-0.026018962;0.08496286;-0.071121946;-0.16759257;-0.16223347;0.016777495;0.097620524;-0.0124467565;0.34497908;-0.012768874;0.07262569;-0.008317012;0.028636256;0.047438774;0.009906381;-0.2756599;-0.43770972;0.004281973;0.0963336;0.0008595353;-0.25111336;0.024980208;-0.004763571;-0.37274715;0.093319535;0.18884254;0.38699812;0.0047733625;0.09450295;0.0049044746;-0.22798608;-0.011864775;-0.014041208;-0.24847144;0.35284373;-0.012216723;0.006611195;-0.17199166;0.005040775;0.009781444;0.013124702;0.2132521;-0.07100579;0.030261677;0.16986711;0.3493204;0.09805547;0.0076181926;-0.23243903;0.02089282;0.0013344575;-0.14605007;0.0016339308;0.13621537;-0.21212018;-0.20417486;-0.10084661;-0.18909775;-0.29240075;0.2603988;0.20368816;0.00027192043;-0.018073553;0.0981298;-0.19748473;-0.045384638;-0.24747758;0.017907465;-0.01795759;-0.012808917;-0.048327696;0.4346301;0.038568586;0.014646687;-0.15037467;0.011981845;-0.07667319;0.07250582;-0.014070662;0.0022641167;0.1256031;-0.12070121;-0.050346058;-0.0023536414;-0.22915883;-0.0040685385;-0.12638706;0.025766904;-0.16686602;0.06428629;0.02554961;-0.03108042;-0.19391656;-0.0021343972;0.0248958;0.05017315;-0.05702843;0.0047284206;-0.00713191;-0.0037424548;-0.4174653;-0.39106888;0.03522812;-0.58506554;-0.011643696;-0.00069624337;-0.1530767;-0.013218772;-0.23274888;0.1708289;0.0069065657;-0.012358266;-0.07158916;0.29279548;-0.09599434;-0.014415538;0.109809265;0.017311363;0.11850076;-0.16913691;-0.018285623;0.22722112;-0.18775988;0.011060863;-0.03467373;-0.076500006;0.16290888;-0.14909916;0.15347527;-0.039523564;-0.011339509;0.19566497;0.018133435;-6.1000577e-05;-0.05007952;-0.009700553;0.017158667;-0.27273715;0.41671383;0.37999052;-0.011695721;0.044086404;-0.20470618;-0.0036475174;0.062052637;-0.00066381635;-0.48674414;0.08005055;-0.12750436;-0.009184551;0.025065571;0.008602811;0.014335999;-0.30393592;-0.036466736;-0.022293193;-0.31325442;0.046246435;0.03284887;0.31091166;-0.004756704;-0.00665541;-0.07654958;0.0054466156;-0.038144182;0.09493631;0.04869516;-0.00433142;0.0053245313;-0.0066215396;-0.3205908;-0.0011959721;-0.27822927;-0.013375474;0.27035144;0.068177454;-0.105349965;-0.06757456;0.0001513904;-0.27767238;-0.061603367;0.029810678;-0.48972154;-0.0014358482;0.009146225;-0.025143584;0.06863043;0.0107930405;-0.33958927;-0.013322213;-0.003970005;0.1627872;-0.010265082;0.017143758;-0.31864187;0.20139319;-0.017566986;0.018052183;-0.18724158;0.2758427;0.08103255;-0.005412117;0.08155749;0.29944852;-0.08655245;-0.10670606;-0.006407869;0.40244725;-0.28912267;-0.017796827;0.02039703;-0.012184606;0.0021435912;0.0012039086;-0.10857026;-0.028731627;-0.17598434;0.18755461;0.050671455;-0.21979444;-0.140723;-0.0064054267;0.08133237;-0.016639497;0.072685465;-0.33870044;-0.095663786;-0.18931298;0.014284116;0.164746;-0.13583496;0.3958296;0.021311503;-0.027229114;0.41331384;-0.5699342;-0.16875157;0.3191152;-0.0050178342;0.008098621;0.012615458;0.009657403;-0.012847341;-0.004302781;0.011966698;0.007642586;-0.011092754;-0.060115263;-0.01578861;0.23341635;0.004584369;-0.02053235;-0.021330006;0.052331463;0.11655318;-0.013169386;0.20669052;0.28487054;0.2427507;-0.01688549;-0.275806;0.04498972;-0.008534846;-0.22314991;-0.120955065;0.030673696;0.06669959;-8.651747e-06;-0.11994214;0.0060047843;-0.1193364;-0.067536116;-0.01068633;-0.05241226;0.010423716;0.0101338755;-0.0023146796;-0.009508259;0.1447894;0.0036276302;0.20498769;0.117733374;0.043758538;0.0028032877;0.12288952;-0.0020021398;0.04314888;0.37371477;0.14994067;-0.08469519;-0.26169345;-0.02231903;0.013870955;0.3524607;0.32876396;-0.12333233;0.20493004;0.09133366;0.30035985;0.02374193;-0.002966469;-0.09775233;-0.2728424;0.337655;0.15609698;0.012421235;-0.0042543006;0.25540742;-0.023083648;0.118628725;0.014641333;0.17173883;0.0123247;0.06473022;-0.008167936;0.16990952;0.14019634;0.006107902;-0.32415503;0.20513606;0.01599319;0.22893988;-0.004330088;0.043171413;0.00971839;-0.00012945736;-0.014418925;0.0062563354;-0.033600554;-0.102120414;0.029376075;-0.091334954;-0.009261502;-0.35088542;-0.016555946;0.24222653;-0.0946208;-0.29359108;-0.0047649867;-0.31417778;0.21920274;0.010526903;0.012424103;0.08433612;0.06446887;-0.0058663622;0.069087945;0.002333545;-0.38881564;0.012394275;-0.035994276;-0.015001361;-0.18186945;0.14910974;0.0047233505;-0.1511178;-0.009713083;0.0182777;0.059859604;0.134068;0.25581846;-0.0029045837;0.12437638;-0.008239195;0.06756339;-0.053286605;-0.017925177;0.0091805775;-0.026179312;0.0055372897;-0.04774068;-0.018556662;0.03153032;0.0221656;-0.14127256;0.14582293;-0.16656682;-0.5445579;-0.016878178;-0.14705983;-0.051685765;0.11996123;0.002003833;-0.04690201;0.0033410985;-0.2749461;-0.042454567;-0.013126941;0.015856287;0.478369;-0.0132775605;-0.21450584;-0.010605396;-0.010676489;-0.0031865851;-0.036250643;-0.22950077;0.20526537;-0.104551606;0.01695909;0.079521075;0.00969787;0.058070358;-0.14082442;0.019183451;-0.17788298;0.098604865;0.07712193;-0.004327412;0.00943592;0.0050024996;0.010702864;-0.34620497;0.03803756;-0.13646722;0.015067506;-0.26034892;-0.015043593;0.014295758;-0.09581116;0.0038737555;0.15229781;0.024451787;0.03506139;0.00266488;-0.00566051;-0.042989623;-0.22869042;-0.13241196;0.40790498;0.0049497625;-0.19885033;-0.0072229016;0.01747638;0.01540469;0.16615106;-0.008626756;0.015913013;0.08644891;-0.045959912;-0.06476208;0.2084974
0.104080416;0.13313767;0.22215697;0.15992439;0.064778134;-0.0074232835;-0.13441315;0.018007107;0.08200982;0.019999279;-0.11053328;0.0046680183;-0.009991307;-0.059657294;0.108320326;0.28123555;0.0013974736;0.093218535;-0.013131029;-0.0647004;-0.19155754;-0.16952467;-0.034500387;0.20987685;0.104764566;0.17012438;-0.052418448;-0.051330432;-0.010493787;-0.0015071282;0.045056183;-0.05256155;-0.06425765;0.0060649305;-0.0029002544;-0.28439456;-0.45439255;0.069167286;0.15182292;0.12597695;0.21815033;0.0068369335;0.11348337;0.17348999;-0.1797316;-0.09536931;-0.015496319;0.06803317;0.010723034;0.11175496;-0.09460989;0.021305291;0.16300291;0.010271485;-0.009930298;-0.0041944734;0.23730253;-0.0025580495;0.065099716;0.16664274;-0.0045453454;-0.114860736;0.0039235647;0.05589721;-0.050795674;0.09693633;0.15213273;0.059752107;0.00018667364;0.108496875;0.20000859;0.17169033;0.006542562;-0.27804998;-0.25723568;-0.42887586;0.10513892;-0.22149803;0.0672801;0.011744253;-0.011010037;-0.003615092;-0.11933979;-0.10272045;0.00023324211;-0.17334166;0.14544044;0.0068494766;0.011224411;0.104662396;-0.14258209;-0.46163663;0.0052545676;-0.0110539915;0.019349378;-0.56378585;-0.01638004;0.005671597;-0.12313718;-0.18817484;-0.01787092;-0.033524252;-0.006102455;-0.0541256;0.015204735;-0.008304157;0.045672793;0.010940588;0.004380768;0.0043031597;-0.1778648;0.009919249;-0.2495379;0.069317564;0.0017429086;0.14017361;-0.30994454;0.11918217;-0.27694014;0.015202589;-0.0798149;-0.00046634415;0.20971687;-0.56038475;-0.31900898;0.08414517;-0.048918016;0.05126455;0.023930037;-0.006112938;0.21527638;-0.22219267;-0.02106832;-0.19638212;0.022878053;-0.03721217;-0.21458319;-0.077849016;-0.043414325;0.42647687;0.17822792;0.009155928;0.34851688;-0.06260495;0.020906111;0.0005622899;-0.014691652;9.501689e-05;-0.016420705;0.108461656;-0.21563576;0.0080946395;-0.09153413;-0.012904993;-0.09195597;0.12082523;-0.005494091;-0.1534208;0.07440772;-0.1398492;0.14471969;-0.016142331;0.06572055;0.06623123;-0.11463357;0.013109506;0.019363254;-0.12526968;0.16373697;0.0027180857;-0.018040458;-0.3552469;-0.008404069;0.025402466;0.0044695465;0.21357578;-0.2904028;0.07082653;-0.06973141;0.31549802;0.23006798;0.114927076;0.13803846;-0.29658842;-0.017409334;0.2483247;0.0021270437;0.10006402;-0.35894293;0.052057732;0.03164569;-0.6229264;0.10057073;0.17090207;0.20058699;0.1350332;0.022212325;0.12106188;0.018126914;-0.041631464;0.030556438;-0.012448577;0.007248232;0.015528314;0.14482625;0.32828766;0.037726432;0.09432949;-0.09877531;0.0009882082;-0.13056199;-0.13325284;0.014669361;0.004960675;0.048473723;-0.10622789;-0.141032;0.13638929;-0.2511654;-6.372879e-05;-0.044058237;0.0114268;-0.3684872;0.2174268;-0.007547179;0.024212606;-0.10901589;-0.0017461897;0.001718611;-0.29529646;-0.046716377;0.12041758;0.010763833;0.0073572285;-0.037499703;-0.10591404;0.014956021;-0.36376232;-0.0051189424;0.1881773;-0.030003304;0.16662258;-0.24816155;-0.038860768;0.004675066;-0.046846375;-0.17447564;0.25211978;-0.1975365;-0.0022930305;-0.060035244;-0.009737445;0.118029185;-0.08370851;0.024143724;0.100534424;-0.07219637;-0.009680977;-0.03436488;-0.09666115;0.12792948;-0.23914522;0.16934884;-0.053870425;0.017439283;-0.047199562;0.007681301;-0.023545813;-0.16894935;0.008312634;-0.0294462;-0.1099449;0.1461147;0.22302866;0.0087399995;-0.05723897;0.01988514;0.01027204;-0.2466378;0.007510799;-0.24591239;0.21618555;0.0453931;0.029333102;-0.0025035262;-0.05774565;-0.0030909842;-0.0012836675;-0.0897437;0.015737671;-0.10185227;0.0043985406;0.28924695;0.07184509;-0.0029654636;0.0044098175;-0.15161967;-0.028057279;0.13707998;0.19178583;0.009387595;-0.002584158;0.0009963943;-0.011278802;-0.019372374;-0.104087435;0.06337664;0.0011055472;0.21115813;-0.08893963;0.054207455;-0.115092695;0.0016300718;-0.31462145;0.097723864;-0.11666606;-0.58528805;-0.007451212;-0.0124018;-0.28511906;-0.06849625;-0.0073232716;-0.23757996;0.21032858;0.011890428;0.18250675;0.0140703;0.20182355;0.113521814;0.06510517;-0.07709094;-0.03127763;-0.168108;0.32078278;0.0933028;0.011314145;-0.12362198;0.19051331;-0.023223089;-0.083832264;-0.0024186207;0.40372103;-0.38990483;0.14778078;-0.2601554;-0.0109817935;-0.0038896715;-0.0027214661;-0.1364256;-0.020119112;0.025613504;0.40315583;0.09369496;0.011913957;-0.19539069;-0.012759885;0.2724612;0.01860764;0.024753628;-0.36683452;-0.2832608;-0.0016230233;-0.001082742;0.23035643;-0.12507059;0.28744304;0.007355939;-0.1762783;0.3688384;-0.47421464;-0.23046218;0.27290896;0.004471233;-0.016770437;0.0019201671;0.002739337;-0.00805832;0.016438674;-0.02054608;0.0064186854;-0.0019948224;-0.24359593;0.016887318;0.2112265;-0.0007971796;-0.005501574;-0.17570014;0.0519974;0.108561784;0.09485516;-0.18442646;0.2834702;0.17623952;0.012176765;-0.042591263;-0.020676246;0.009694404;-0.24691674;-0.087826736;-0.118306525;-0.20212935;-0.008447474;0.003621555;-0.007080986;0.049670465;-0.0153199015;0.16433977;0.0041836784;0.003962977;-0.013336288;0.004570232;-0.00089816976;0.15193352;5.566814e-05;0.25987378;0.19307207;-0.0980634;-0.0056726215;0.018674737;0.02356557;0.035138454;0.3904428;-0.3040478;-0.013709053;-0.12887374;0.012097606;0.0011487341;0.11133336;0.16140993;0.036596335;0.32001486;0.13989012;0.40886277;-0.013747274;-0.0021293624;0.12114649;-0.33746016;0.08290858;0.22762537;0.0007495145;0.0062563787;0.361731;0.0071620084;0.11541836;0.06750946;0.16296692;-0.020512998;0.11288957;0.020061756;0.18971401;0.10141697;0.0014095266;-0.122626774;0.07768788;-0.001243335;0.055545658;0.0038129464;-0.01686943;-0.022113813;-0.0059907637;0.020861294;0.014709904;-0.16144492;-0.013528097;-0.17773533;-0.17279038;0.0033570924;-0.17952643;0.11168725;0.24919063;-0.04228507;-0.11063169;-0.001543266;-0.35091633;0.23387545;0.0044018044;-0.017346924;-0.13147064;-0.14705873;0.0019726567;0.09855887;0.089420594;-0.33535564;0.02997822;0.12285286;0.019440738;-0.3346126;0.16929692;0.0005521735;-0.19913381;0.014472363;-0.32911205;-0.12308966;0.025296913;0.44334927;0.0066801277;0.0819842;-0.0074634454;0.061616715;-0.12908748;-0.053111523;-0.0066314614;-0.0015293225;-0.020112574;-0.40144166;0.019750372;-0.14078683;-0.008546211;0.11610578;0.08817081;0.05641184;-0.42674956;0.011144882;-0.14543048;-0.1768061;0.1209982;-0.0014940166;-0.14827901;0.014392035;-0.24200656;0.092356786;0.0005134652;-0.008756465;0.26116195;0.004074568;-0.24404077;-0.008064061;0.0041025085;-0.097610265;0.03138299;-0.053416777;0.12249214;-0.07115733;-0.020410668;0.13510366;0.0048228055;0.07724975;0.16547066;-0.018576771;-0.16440262;0.22610632;0.11143481;-0.006620681;-0.051580194;0.00061573833;-0.012796366;-0.22812694;-0.0069690733;-0.20119374;0.015534687;-0.23776434;-0.0017512976;-0.005067138;-0.12301243;-0.020279096;0.025311789;0.42846322;0.17421013;0.010947138;0.014476017;-0.05652095;-0.46254265;0.01894193;0.5055556;0.009591877;0.030204045;0.008654113;0.103679985;-0.34645125;0.17074877;-0.24268007;-0.013826796;-0.053783666;0.03143825;-0.056230992;0.23105802
-0.10056982;0.031773154;0.023631137;0.086343974;0.008073654;-0.010203711;-0.12195581;0.0018950711;-0.22809748;0.00407365;0.08006118;0.04509727;-0.00061154895;-0.0071566603;0.012690444;0.16848747;-0.010093063;-0.1219554;0.02073343;-0.0125573855;-0.4253237;-0.26878732;-0.061517086;0.16319023;0.19503193;0.08836096;-0.05112863;-0.032548707;-0.0054632258;0.007946774;-0.0056458726;-0.2665115;-0.14355507;-0.005962882;-0.008209313;-0.2576614;-0.0936912;-0.032988127;-0.11123107;0.13855807;0.0012324941;-0.010816604;0.00036815397;0.2489853;-0.42125487;-0.07163713;0.0017376076;0.10636496;-0.0065533365;0.23108056;-0.10427924;-0.02786944;0.06283339;-0.23708558;0.01876569;-0.008471377;0.24949825;-0.0022218681;0.23722385;-0.073952004;-0.016624896;-0.08652229;-0.0042968923;-0.16444388;0.04232061;0.117243394;0.29232153;-0.086252324;0.0025490017;0.08199906;0.05320479;0.1580229;-0.24697663;-0.26184386;-0.098026715;-0.3165699;0.37180677;-0.040481903;-0.053922176;0.002781845;0.0090823425;-0.008789206;-0.11882652;-0.34734792;0.031954538;-0.1402695;-0.1507971;-0.009499667;-0.00075103587;0.05209595;-0.19527793;-0.46271288;-0.004613662;-0.0030329472;-0.019534128;-0.1535882;-0.0017914119;0.017018232;-0.34509024;-0.28419298;-0.22114421;-0.019832386;0.0003280189;0.027828075;-0.05822622;0.0085423365;-0.009503054;-0.016101416;-0.019566327;-0.00167427;0.0064773723;-0.035992958;0.0619333;0.1553725;0.009177271;0.35875502;0.07667269;0.061391618;-0.23780233;0.03788011;-0.157946;0.0045534326;-0.0143643655;-0.31701156;-0.37621638;-0.012127982;0.0840034;0.186382;-0.289729;0.0026900955;0.1283247;-0.04821908;0.02421195;-0.07106819;-0.014634858;0.10116915;-0.30677956;0.17554882;-0.11913638;0.39736444;0.017857647;-0.012740454;0.21527429;0.1879872;-0.022307305;0.0026938259;0.00085536344;0.18391547;0.025323536;0.47691524;-0.038073547;-0.068226025;-0.039276026;0.013581116;-0.08187405;0.064842045;-0.011333272;-0.06402556;0.040622868;0.187736;0.31331038;-0.1643134;0.16811934;-0.0011540789;0.36110264;0.00050319085;-0.06093047;0.010211035;0.13072892;-0.010011497;0.002271584;-0.57856417;-0.0077564707;0.007827918;-0.012564311;0.13959895;-0.33563834;-0.03675369;-0.062391285;0.34954846;0.19128016;0.31451052;0.13656832;-0.22407159;-0.002516475;0.06347714;0.009731356;-0.014469059;-0.34332272;-0.0042773113;0.018178442;-0.13297573;0.21753559;0.0315727;0.031531796;-0.05839761;0.0008115208;0.0127881095;-0.019965125;0.00947874;0.0652962;0.0020562913;-0.0148879085;-0.007812897;0.12914568;0.1200849;0.011220802;0.13865806;0.21790084;0.00011424675;-0.12064989;0.007953084;-0.0045844265;-0.005350787;-0.020351132;0.052679405;-0.009241032;0.14813454;-0.08625067;0.013095987;-0.027246756;0.002944866;-0.36061764;0.21352802;-0.009033872;0.05138184;0.14692143;-0.008148055;-0.021587092;-0.09072524;-0.048635904;-0.12773694;-0.010654867;-0.021580761;-0.19226925;0.05636115;0.08563968;-0.551252;0.018323634;0.15938899;-0.057814598;0.06543387;-0.26760995;-0.03897327;-0.018041085;0.0056143315;-0.24821514;0.4114486;-0.17126158;0.00900529;-0.018052848;0.008284446;0.017664455;0.06811571;-0.0066130674;0.011029279;-0.1033948;0.010765939;-0.1346974;0.21866065;0.036897764;0.0020761392;0.33982474;-0.20118748;-0.00398697;-0.26836053;0.012726761;0.04261023;-0.14114764;-0.013084074;0.01096523;-0.5619418;0.12832251;0.23354834;0.0009425166;-0.20227274;0.043641686;-0.007480883;-0.13831487;-0.019509403;-0.29173264;0.21743649;0.024978135;-0.03604128;0.004124966;0.060909387;-0.0032551053;-0.0657486;0.10173179;0.002418061;0.06360457;-0.080007635;0.15775038;-0.05353945;-0.0058677685;0.09226949;-0.19543362;-0.0055597173;0.17610066;0.294145;-0.019739041;-0.022896877;0.0065623405;0.011330318;0.06838192;-0.245557;0.07876832;0.005690685;0.038746662;-0.11820504;0.01758545;-0.11848806;-0.0051440694;-0.45418242;0.1001494;-0.38915655;-0.40311873;-0.0012226327;0.0018603225;-0.19476846;0.00011894394;-0.0030849034;-0.2506587;0.0020290068;0.0066615054;0.008322439;-0.03568929;0.25258577;0.062020388;0.16852514;0.24775198;0.008827933;-0.36906374;0.301568;-0.02996263;-0.01617573;-0.11590924;0.17879215;-0.09557922;-0.17874062;-0.0019370192;-0.05137478;-0.5863819;0.4148424;-0.06276476;0.0004566338;0.011348025;0.01659893;0.019077891;0.008635053;0.13425626;0.3802909;0.004697301;-0.17056438;-0.31998095;0.041466024;0.04934644;-1.35037735e-05;0.18433824;-0.3197448;-0.1374993;-0.115190014;-0.009890657;0.09424035;0.0036462597;0.28500807;-0.015685027;-0.06693534;0.18438682;-0.3283712;-0.10517975;0.22214456;-0.00036248556;0.014004144;0.00041596778;-0.013272406;0.00809726;-0.010337847;0.0021162212;-0.031186538;-0.0068174293;-0.22795157;-0.011513492;0.2313753;0.0014391968;0.03221057;-0.598478;-0.0011122897;0.11757528;-0.01934619;-0.34971523;0.07518758;-0.070387624;-0.0025208443;0.20642042;0.001193564;0.001544277;-0.10949882;-0.05511015;-0.05646236;-0.18039238;0.008225211;0.059670556;0.005188557;0.29840055;0.11050041;0.36164314;0.021250715;-0.020631148;0.01082409;-0.0022205312;-0.0038466612;-0.025136603;0.009325901;0.1320942;0.017391408;0.053514723;-0.0043239673;0.0635101;-0.024879726;0.11533568;0.3994443;-0.27300423;0.049515344;-0.12758988;0.013045521;-0.005036018;0.17385526;0.3722981;-0.038234666;0.18217365;0.17307934;0.3921844;-0.0075108665;0.0057730353;0.03815675;-0.06561011;0.035345905;0.2442368;0.010792203;-0.032440696;0.29182732;0.0033514872;0.22535738;-0.26925936;0.0050235214;0.025981158;-0.019434297;-0.03435695;-0.033540577;0.16758193;0.016412864;-0.16322076;-0.05842438;0.015167823;0.25287086;-0.009863741;0.103802316;-0.31573284;-0.00026777573;-0.011949046;-0.0072840033;-0.062060896;-0.04446652;-0.055496275;-0.20690514;0.0015353815;-0.03532729;0.06352302;0.21244085;0.07065361;0.057919357;0.0025795754;-0.27847037;0.13997816;0.0012582951;0.0032756603;0.18184239;0.027894653;-0.0050506387;-0.09214576;0.071585104;-0.28000137;0.17305495;0.1316722;-0.0010211321;-0.21844621;0.20883358;0.00035379492;-0.15123457;0.0031168293;-0.30500263;0.30282986;-0.10559118;0.07344404;-0.018178465;0.15228863;0.021288365;0.17217638;-0.20489074;0.07888849;-0.0049461336;-0.002518471;0.015971188;-0.108466625;0.0010708156;-0.050011523;-0.016091803;-0.007409496;0.047925863;-0.079797246;-0.41057572;-0.14871098;-0.138391;-0.10989744;0.28900665;-0.0063259066;0.005054044;-0.022973867;-0.19487695;0.060103044;0.0018094338;0.0073413127;0.11901238;-0.002839959;0.05877305;0.015519935;-0.014214903;-0.038997322;-0.012380403;0.050295167;0.2215095;-0.15932864;0.007366469;0.13275507;-0.0065175686;0.008757499;0.16267124;0.018630883;-0.35736626;0.06750082;0.21160112;0.02293481;0.055360198;0.003397365;0.013614427;-0.2539867;-0.03452793;-0.12544845;-0.025284993;0.01279501;0.0028083134;-0.0011431928;0.17910185;-0.0024974616;0.19290644;0.09173196;0.31509262;-0.016095245;-0.009167829;-0.056967005;-0.36008814;-0.041035596;0.08044379;-0.011525347;-0.047682054;-0.010475269;0.17386934;-0.33075312;0.179878;-0.123044215;0.008513856;-0.03771051;0.17602475;-0.13732922;0.19608374
-0.044551793;0.24804232;0.1269686;-0.01619686;-0.123419344;0.02219235;0.037536476;0.010447186;-0.015047816;0.005563041;0.095926896;-0.040401246;0.007141683;0.050462604;-0.17475602;0.17676511;0.0070649064;-0.29014453;-0.0073479568;0.053614896;-0.10095312;-0.31620947;0.03690714;0.100325465;0.016238721;0.20803787;-0.04360517;0.0919942;0.02278576;-0.011363973;0.0937772;0.06663611;-0.196335;0.021538384;0.018361779;-0.08527377;-0.1881585;-0.09331117;-0.44159093;-0.038540795;-0.09091601;0.008748307;0.02080426;0.018973632;-0.07464682;0.011663742;-0.018266289;-0.01073884;0.00360338;0.12546681;0.043197025;0.010290685;-0.011299731;0.05675938;0.001074883;0.010493438;0.032265138;0.010594199;0.16528472;-0.35663673;-0.009190651;-0.12774208;0.0034974662;-0.38233554;0.14208001;0.084520265;0.057545513;-0.13121855;-0.010094907;0.08250427;0.262348;0.19455254;-0.17773834;-0.2794013;-0.079240024;-0.13288254;0.18616588;-0.11932257;-0.19591404;0.0054419893;-0.0066163796;0.0119678285;0.013429746;-0.27794945;0.0031992418;0.1896157;0.0077719367;0.0030973125;0.00079421676;0.11056716;-0.009761919;-0.33543518;0.015409662;0.0072878683;0.025769385;0.028770646;0.01217442;-0.042142812;-0.20026009;-0.23302102;-0.027900726;0.04434108;0.007153216;-0.07444136;-0.13951248;-0.003906359;-0.16751058;0.0013971546;0.0058342637;-0.0030322708;0.026979689;-0.3396729;0.09642299;0.028341567;-0.00778067;0.23737325;0.11287703;0.112393856;-0.037919004;-0.07847394;0.016985519;-0.004115186;0.04011733;-0.22528072;0.0068332376;0.04234719;0.04163566;0.23554188;0.092367366;0.0036138284;0.2116436;0.35694784;0.0033712352;-0.044597197;-0.011114935;-0.16493896;-0.1379847;0.030496385;-0.090065256;0.5679157;0.109185226;0.009625768;0.09177262;0.07013456;-0.12831756;0.0033394361;-0.00080177386;0.29284513;-0.018670008;0.27519232;-0.062022664;0.04291882;0.03741616;-0.010059017;-0.002677856;0.0902296;0.013596123;0.04234904;-0.14128996;0.032185357;0.09416948;-0.20376699;0.035087306;-0.0070174853;0.42109832;-0.0037442287;-0.022733249;-0.18948945;0.1727185;-0.0027554813;0.008350293;-0.5826052;0.0054303426;-0.004783079;0.0018101659;0.017229045;-0.11360149;-0.2811582;0.02575897;0.24903744;0.24978822;0.2104449;0.08095172;-0.23875992;0.017042244;0.16897364;-0.008883074;-0.045218166;-0.23815228;0.020221513;-0.09889099;0.0042067748;0.17207906;0.16794813;0.1444781;-0.04519053;0.009234823;0.25450125;-0.13020793;0.083273016;0.27068636;0.0037636692;0.010876185;-0.0052176397;0.13154359;-0.2949029;0.096059866;0.20662299;-0.18708433;-0.016501086;-0.10054173;-0.22881693;-0.003922054;0.0012301164;0.17666402;-0.087597676;-0.15165989;-0.066695265;-0.22688054;0.04661709;0.11970746;0.037911374;-0.23390768;0.15612738;0.0011989839;0.055368464;0.41278931;0.010198538;0.022092126;0.06562541;0.014062969;-0.024574362;0.012236554;0.012719601;-0.37236467;0.19908744;-0.21255276;-0.51438165;0.0028129611;0.2650878;-0.10508351;0.07944416;-0.25225893;0.06290699;-0.006795349;-0.039700978;-0.25309268;0.4638621;-0.16479011;-0.02490442;-0.18362671;-0.004110064;0.15117487;0.12418496;-0.0024376332;0.07328246;-0.10524243;0.011065385;-0.16173683;0.25788766;0.112679765;0.13714911;0.20451114;-0.27091023;-0.0008545981;-0.13633102;-0.012115852;-0.019725317;-0.2038379;0.018246002;0.002803052;-0.55349874;-0.080631316;0.38575047;-0.004545369;-0.04195007;0.07029306;0.016497698;-0.09342984;-0.0013589046;-0.008667829;0.16486348;0.073635735;0.15514493;-0.0021470487;0.072400205;0.019080518;-0.039501313;0.025488628;-0.023745848;-0.2125923;-0.2727894;0.1779707;-0.06282971;0.019696351;0.1938041;0.0364961;-0.2065887;-0.055910405;0.122816764;0.03806382;0.0041169166;-0.003375301;-0.0019963442;0.08683833;0.14841485;0.113281295;0.0018942417;0.038401708;-0.088034175;0.0077502737;0.0322251;0.0015694606;-0.44835898;0.15480806;-0.13458377;0.028656622;0.009298118;-0.0060263695;-0.2521007;0.3333849;0.018796552;-0.118490405;-0.11771901;-0.014172371;-0.017646309;0.020828992;0.07545826;0.009098706;0.104500145;0.1442121;-0.0046315077;-0.26439193;0.19248268;0.18349679;0.00632369;-0.27797595;0.020684136;-0.17636839;-0.25324774;0.00046555523;-0.04050078;-0.28526056;-0.23223142;-0.12785107;0.008559194;-0.0039348365;-0.0035086751;0.20249784;0.112473875;0.069676116;0.2185287;-0.061129436;-0.17690139;-0.16816127;-0.052161444;0.20812844;-0.0046540108;0.0060684;-0.15761131;-0.106257156;-0.23619908;0.0073148236;0.02150944;-0.0684115;-0.122124135;0.0031101417;-0.30639768;0.4106313;-0.3119002;0.139514;0.1647648;-3.5477326e-05;-0.0040385495;-0.014987254;0.0041367523;0.0050181537;0.006402894;0.036135036;0.024721261;0.003690465;-0.18987633;0.00295207;0.05122492;-0.004009245;-0.031514592;-0.6180799;0.08574553;0.08350766;0.084759966;-0.50758773;-0.022494297;-0.027352408;-0.0037102986;0.0763181;-0.010215058;-0.012697751;-0.2359836;-0.26096386;0.08182471;-0.17118134;-0.006183044;0.084934495;0.011315517;0.25746036;0.21535978;0.04527819;-0.005244035;0.12689832;-0.005307012;0.0009488984;0.012479139;-0.05598448;-0.004173844;0.22196737;0.06074902;0.14131242;0.015488209;0.0025776287;-0.017909858;0.16777515;0.1961202;-0.108920135;0.043655083;-0.33738673;-0.02175599;-0.009753683;-0.10490629;0.52133197;-0.01006722;0.2670108;0.09534178;0.10507492;0.020908972;-0.009537586;-0.039073747;0.16864975;-0.25151545;0.22276288;-0.001066762;0.032521557;0.07712326;-0.01752217;0.0055191196;-0.15973216;-0.056226574;-0.024669368;-0.06513399;0.02949251;-0.05107609;0.11337348;0.00013036223;-0.181806;-0.08113574;-0.012206767;0.16707057;-0.0044583096;0.24623424;-0.23602115;0.019144468;0.001974534;-0.0050661243;-0.16214837;0.017827371;-0.117098644;-0.14054617;-0.0004071199;0.05153126;-0.10490233;0.028553227;-0.039433435;-0.016055893;0.0019533043;-0.39171878;-0.07989614;-0.0012279727;0.01140974;0.2391734;0.09646502;0.010970441;-0.19382522;-0.002432817;-0.3150371;0.21033522;0.018283855;-0.001210228;-0.04944565;0.32803777;-0.0076941047;0.12648474;0.01587185;-0.012095834;0.025013922;-0.09432738;0.22946636;0.013757225;0.2362017;-0.009617222;0.24173187;-0.12661509;0.04537775;0.009643203;0.009904094;-0.00759589;0.055929787;-0.026010549;-0.13343735;-0.00028647628;-0.26211023;0.097914845;0.06879604;-0.07343302;-0.054674335;-0.31807032;-0.050755154;0.052082315;0.022372749;0.12040797;0.007363734;-0.30092016;-0.084011324;0.007848534;0.008868009;0.035352487;-0.001527827;-0.21705925;0.00690827;0.0044453205;-0.011199649;0.0031259677;0.017339952;0.2227267;-0.17157401;-0.0086460095;0.008964919;0.043308157;0.015463444;-0.17927486;-0.029955955;-0.13303469;-0.08204819;0.037165817;-0.008394875;0.237526;-0.00022824458;0.0028797693;-0.32085606;0.0037253497;-0.10938925;0.028241996;-0.027055863;0.001587816;-0.004438808;0.22899418;0.005389669;0.3063775;-0.05545134;0.27908713;-0.0019866508;-0.0034631398;0.10212187;-0.19416152;-0.022772761;0.011911835;0.0017730085;0.15908907;0.012441165;0.18630292;-0.09703433;-0.16305922;-0.1158235;0.00021525519;-0.17206992;0.120085135;-0.014312958;0.17815259
0.103767656;0.31477907;0.06857793;-0.03932759;-0.29408094;-0.007460416;0.06911675;-0.01837716;-0.04936999;-0.011704233;-0.103127375;-0.17904022;-0.0034048762;-0.16716987;-0.38681877;0.15633237;0.017264826;-0.13813367;-0.0050738207;0.09502388;-0.25607035;-0.19943391;-0.023165297;0.096556015;0.09243498;0.07251083;-0.07471381;-0.07419642;-0.015804458;0.0062927874;0.053199608;-0.019988881;-0.14627814;-0.018427031;-0.007483085;-0.0769254;-0.033144355;-0.08959697;-0.46227425;0.08334663;-0.24759285;0.0041172276;-0.107803255;0.12806942;-0.3297526;-0.063669965;0.044466253;-0.12676294;-0.0021533272;0.1119844;-0.05289304;0.00022478867;-0.06492869;-0.039045412;-0.006086218;0.0009022788;-0.12759872;0.00061381294;0.2444881;-0.031977538;0.017364347;-0.17722087;0.015154555;-0.35465708;0.046343423;-0.080236435;-0.13534988;0.06403115;-0.0017614347;-0.012370429;0.20108984;0.019705327;-0.085921705;-0.13727091;0.18724602;0.17746161;-0.18173563;-0.054886833;-0.38108805;0.005490196;-0.020817319;-0.0009214774;0.18378633;-0.33822957;0.0041786083;0.30717668;-0.038557734;-0.005030498;-0.002577324;0.17071427;0.105385676;-0.028371671;-0.020034732;-0.0036475938;-0.021143142;-0.13476305;-0.015505414;-0.031876497;-0.027293397;-0.18510489;0.047038782;0.0101106055;-0.02430283;-0.20852916;-0.048618417;-0.0033539955;-0.40791222;0.0036142694;-0.00046759166;-0.004130201;0.16319941;-0.34236255;0.02153403;0.28477573;0.00034909908;0.021703884;0.18059422;-0.10230323;-0.12902439;-0.032699484;0.14584056;-0.006527079;0.005531995;-0.28205335;0.089246266;0.018313063;0.15916736;0.3008386;0.12747927;0.013543607;0.30517203;0.2496996;-0.006037028;0.10219714;-0.002444678;-0.053814486;0.17948589;0.08564363;-0.084027894;0.32324848;0.25031427;0.0025854802;0.17956291;0.08950582;-0.1707653;-0.003346088;0.01603188;0.14340858;0.0015895145;-0.039980996;-0.009570763;0.0332747;0.010629074;-0.004071611;0.12487755;0.06384449;0.0060262177;0.1519778;-0.25035647;0.026027044;0.15091212;-0.27974606;0.11438947;-0.034054592;0.093781486;0.0016102106;0.0060852333;0.060125474;0.19307876;0.007678411;-0.017647674;-0.49410114;0.008321874;-0.001405548;-0.007442647;-0.10896612;-0.12045839;-0.28932706;-0.038216036;0.13267179;0.24801114;-0.06529177;0.03022677;-0.07978903;0.0022416532;0.132657;0.0035487418;-0.024230566;-0.2744392;-0.08811976;-0.032188214;-0.1609052;0.0042148787;0.017761199;0.15908271;-0.10885012;-0.002921225;0.25393602;-0.063743316;0.09592908;0.18088838;-0.010461744;-0.014598536;0.014480213;0.15934499;-0.21275635;0.045780867;0.07221955;-0.09086224;-0.007239297;-0.016469916;-0.20308343;0.0070415116;-0.00024844284;-0.14294401;0.04049544;-0.23302376;-0.01044203;-0.05860751;-0.11217573;0.09260355;0.053312495;-0.16168891;-0.14258395;-0.0067614606;0.088464044;0.31377807;-0.010528348;-0.0097979;0.013949682;-0.08702666;-0.20260699;0.00032080553;0.0242863;-0.14021726;0.37531894;-0.26125056;-0.4457185;-0.02461089;0.1461326;-0.21172227;0.15012345;-0.1934905;0.06536819;0.010730758;-0.052164525;-0.09511837;0.36982635;0.12524205;0.02677044;-0.022433959;0.0030902007;0.2935116;-0.011158403;-0.0069199665;0.34198472;0.036759295;-0.012954841;-0.08104312;0.20746385;-0.103370175;0.06416142;0.046335533;-0.18586084;0.0025446804;-0.14077231;-0.0063433745;-0.02059403;0.013939066;-0.01975396;0.00092686515;-0.6060797;0.051235788;0.19305404;0.0038554075;-0.27070257;0.07914772;-0.0134049235;-0.120478675;-0.0027613314;0.14333075;-0.2343929;0.16756165;0.33596638;-0.011291158;0.030271571;-0.01932605;-0.1414093;-0.065166704;0.017391806;-0.2983532;-0.13861613;0.095024176;-0.058063768;-0.006803884;0.25423354;0.17552108;-0.29735282;-0.08758975;0.036669564;0.010886575;0.01972599;0.024050202;-0.011996978;-0.053529628;0.22556749;0.23700824;-0.0026191676;0.22722596;-0.31543043;0.1530814;-0.22702317;-0.0028950342;-0.33470917;0.36956912;-0.26385683;0.16096188;0.0034246705;-0.0032940754;-0.02794874;0.115762316;-0.01803061;0.07880859;-0.23655678;0.012970343;-0.075646855;0.017078951;0.18370861;0.31671524;-0.016557045;0.040924653;0.021312742;0.030268755;-0.007745721;0.00490943;-0.0055158474;0.1316508;-0.0022497263;0.051403254;-0.18248947;0.0010465969;-0.00756762;-0.23083436;-0.12610412;-0.07415868;0.00073568453;-0.006380632;-0.008628998;0.11702901;-0.1112836;0.07719276;0.25150058;-0.052862376;-0.04242412;-0.26925674;-0.05115261;0.2837263;-0.005613943;0.20181234;-0.21326926;-0.019167423;-0.17920646;0.006020194;-0.04314466;-0.217472;-0.22565114;0.0074129407;-0.23501141;0.3971792;-0.26304898;0.014275597;0.19005994;-0.0015621199;0.0096604945;0.012011958;0.004886997;-0.004351606;-0.0056315167;0.04531435;-0.010184548;0.021515435;0.08048658;-0.017542636;-0.027033852;0.0012116901;-0.0003319768;-0.5719642;0.0025523312;-0.06093388;0.07955624;-0.36136356;0.012215603;0.04770901;-0.00960092;0.0012652726;0.053878788;-0.0058646747;-0.11856872;-0.36105177;0.19685772;-0.19740437;-0.0035101091;0.18739925;-0.0010203144;0.17949876;0.31439665;-0.0010701027;-0.004824051;-0.07336214;0.0010639583;-0.002347784;-0.011458329;-0.3286158;0.01114987;0.25550222;-0.07627134;-0.045047205;-0.012938718;-0.13385844;0.021499425;-0.0030806973;-0.04001787;-0.28386605;-0.021141205;-0.13986407;0.0054954654;0.018907463;-0.3463399;0.19393367;-0.0128137;0.29264972;0.0055655236;0.10849933;0.0036565214;-0.012622163;0.013299941;0.121608466;0.08709743;0.127761;-0.027242264;-0.002384919;0.22122984;0.016793072;-0.20519014;-0.42066655;-0.020586012;0.025649505;-0.094359584;-0.003971823;-0.010762683;-0.005489236;0.018682325;-0.025146443;-0.11521166;-0.0009382465;0.08351428;0.005982762;0.14594942;0.005265772;-0.011605879;-0.0012523977;0.012679796;0.001538616;-0.102419585;-0.1265695;-0.10465377;0.0088806255;0.015556057;0.08900086;-0.12357931;0.047393546;0.021830443;-0.0040621017;-0.31946215;-0.26621574;-0.010361258;-0.008242965;0.16062099;0.0030690576;0.014229826;-0.16777268;-0.22030544;-0.3975275;0.1688223;0.24022056;0.011046641;-0.05353224;0.18283994;0.013522115;0.11641981;0.0026623325;0.039898;0.07618563;-0.024258906;0.08229228;-0.0015341993;-0.08069593;-0.0040254453;0.2719064;-0.31904188;-0.017331071;-0.012970803;-0.0050348043;0.0044446196;0.34506622;0.02074497;-0.34898573;-0.000426613;-0.25134128;0.04701357;0.28213882;-0.31634864;-0.20960678;-0.17217442;-0.090163246;0.25789183;-0.008984029;0.2761664;-0.016153416;-0.36873242;0.064379565;0.00042081572;-0.023281036;-0.18960038;-0.0011726402;-0.3772232;-0.0046886704;0.0185803;-0.05104853;-0.025628608;0.007459373;0.20653968;-0.19000569;0.01653581;0.019117875;0.05837827;-0.022257177;0.22663012;0.0262285;0.18161151;-0.26242802;-0.17731042;0.009664496;0.08805729;-0.013899482;0.009225823;-0.44606188;-0.0015227018;-0.037815783;-0.022097355;0.20962425;-0.00085263635;0.004818897;0.27099666;0.004744561;0.11750718;0.17904653;-0.077565566;-0.00026995974;0.0062340056;0.0037039183;0.15223667;0.074793935;-0.36040628;0.00184332;0.11989965;-0.012314565;0.12443373;-0.044332173;-0.12310586;0.04816627;-0.0051451484;-0.17333364;-0.091234654;-0.0126016075;-0.048619486
0.06662013;0.030766144;0.08202796;0.15676504;-0.057234704;0.0019755622;-0.09995384;-0.0011304389;-0.30017862;-0.02151929;0.005245565;-0.14616163;-0.008704947;0.05637119;-0.19087003;0.25319487;-0.01792676;-0.017662603;0.017852196;-0.06332716;-0.25921428;-0.26094583;0.032642342;0.03608671;0.14827517;-0.2327502;0.003916415;-0.2188336;0.013261509;-0.00016952411;-0.062317003;-0.09084285;0.10902205;-0.014743407;0.00097078667;-0.18352057;0.14259145;0.14958812;-0.5134997;0.08982363;-0.18147744;-0.018662073;-0.066564955;-0.13355458;-0.19291906;-0.06657557;-0.028830167;0.084563024;-0.005305546;0.042833757;-0.08919236;0.0018761815;-0.090059884;-0.2753505;0.008401182;0.0054250224;-0.0039630816;0.007072899;0.24759348;-0.12046001;0.071946025;-0.36512688;-0.01720137;-0.10370264;0.13501595;-0.13954517;0.024096359;0.06461948;-0.00017648187;-0.052079096;-0.015201417;0.044188865;-0.031447437;-0.06500181;0.07832154;0.26192436;-0.16613491;-0.24388503;-0.408564;-0.019981423;-0.0073728506;-0.0026450641;0.21176194;-0.30502427;0.025031257;0.25505897;-0.17673829;0.014412228;-0.009656861;0.29070142;0.26118433;-0.25205752;0.02778507;0.002325278;0.0040369006;-0.053276327;0.003615087;-0.007869763;-0.04239304;-0.12039866;0.14102148;-0.06172741;0.0042586657;0.088417634;-0.09218183;0.010487632;-0.40174296;-0.0011707995;-0.004005856;-0.010302333;0.14187364;-0.28361058;0.15283133;0.07245454;-0.0149530955;0.08289369;0.23299421;-0.14755495;-0.3142136;-0.045283936;0.18256323;-0.01063023;-0.06624975;-0.40180996;-0.06001908;-0.06255896;0.0072225896;0.10515478;0.2724739;-0.025255872;-0.120826945;0.18974495;-0.0092052175;0.14843574;0.019516924;-0.22480212;0.19812839;0.092339315;-0.13796186;0.2818835;0.17066585;-0.0073783346;-0.047499012;0.04478933;0.017616235;-0.0071419957;0.001892628;-0.026025947;-0.00058727514;0.08082947;0.077690005;-0.048286058;-0.01328031;0.024048042;0.15364228;0.10349117;-0.0050903005;0.12097088;-0.29884002;0.105799906;0.28851035;-0.21281847;0.1949862;-0.004047718;0.12548436;0.0019341504;-0.0030562025;0.099437624;0.2120057;0.02036752;0.019934798;-0.48484987;-0.0019208295;-0.008745935;0.01971974;-0.11693984;-0.3757727;-0.3093847;0.08192735;0.28644004;0.21468288;-0.06914974;0.14575778;0.037585862;-0.0055051073;-0.058912337;-0.013478493;0.12082421;-0.31148934;-0.14459424;0.21904792;-0.20566244;0.07040946;0.06973298;0.051075086;-0.21417452;0.0060814843;0.22692293;-0.13979967;0.04889304;0.44744587;0.013558575;0.008054845;-0.010677104;0.09689602;-0.08305786;0.101286784;-0.060102433;-0.060488895;0.010543909;-0.42097288;0.00082402356;-0.0070374752;-0.007600687;-0.22786517;0.107014686;-0.22506814;-0.024140721;0.06695465;-0.1983842;0.09378891;0.108831495;-0.23571175;-0.09728676;0.0004557404;-0.11210135;0.15964302;0.0144542465;0.0002130125;0.16073532;-0.005889643;-0.32996133;-0.0019104242;-0.008561899;-0.1635325;0.19941802;-0.15585728;-0.41050583;0.013509619;0.225259;-0.15767065;0.13797155;-0.121076025;-0.06883287;0.019866224;-0.017674696;0.08410137;0.3223131;0.15791245;-0.007006586;0.08048317;-0.013837391;0.33052614;0.3824675;0.015737968;0.19774856;-0.2770865;0.0036779065;-0.022612631;0.03776514;-0.2197572;-0.06536799;0.013268636;-0.31808394;-0.004582136;-0.077808574;0.010720909;0.0232681;-0.22400019;0.015290657;0.0023423345;-0.44785368;0.034679983;0.24995269;0.010293482;0.0017958946;0.116263114;-0.018007595;-0.18443528;0.022191674;-0.019226288;-0.21994877;0.1227787;0.25936067;0.0011336454;-0.03549592;0.013619051;-0.19978474;0.06880412;0.014969644;-0.27873832;-0.07362897;-0.2900686;-0.07256614;0.010774085;0.45726123;0.057166174;-0.32952318;-0.12318944;-0.0567705;-0.002778327;0.0034854726;-0.008357013;0.005427772;0.14172854;0.010699944;0.2156358;-0.01725016;0.25342488;-0.2769731;0.06806739;-0.046590336;-0.00011857919;-0.31034;0.3497354;-0.09786248;0.23488139;-0.012788602;0.013648124;0.12811479;0.3029856;0.015718881;0.21659935;0.0069115055;-0.022174792;-0.13617572;-0.019039597;0.07178673;0.084109455;-0.07497509;-0.027361652;-0.023401305;-0.09188729;-0.39643964;-0.16522707;0.005058615;-0.1921896;0.084029876;-0.1190149;-0.3805927;-0.0002917444;-0.105530486;-0.2623185;-0.048695005;0.05934551;-0.017389813;0.0011407452;0.00080447155;-0.02018224;-0.22925986;0.023506945;0.28777146;0.06447182;-0.0017672937;-0.22430775;0.006152987;0.42118686;-0.0013331189;0.1503741;0.1729631;0.031918675;-0.059625745;-0.009396113;-0.02782341;-0.09755384;-0.16690327;0.0076310006;-0.048548106;0.24763294;-0.21902525;0.0033107225;0.1496214;0.011426584;-0.004478875;-0.0067236666;-0.018185904;-0.0004980266;0.0050998926;-0.03206623;0.030365912;-0.013166512;0.23990269;0.028036395;-0.040592797;0.004691562;-0.010108937;-0.32310975;-0.03165527;0.17930807;0.11514664;-0.161149;-0.09219876;0.544527;-0.0032464;-0.010291511;0.08569671;0.017372489;-0.024860488;-0.36170045;-0.21428303;-0.22784038;0.008322347;0.0068514976;-0.0054732803;-0.15464656;0.39706013;-0.07291027;0.0023389352;0.038073692;-0.0062654736;-0.004798383;0.0009285222;-0.381366;-0.02030607;0.019166743;0.18056385;-0.040698547;-0.0122934785;-0.20846479;0.003412712;0.11002158;-0.023654755;0.26822883;-0.2832648;-0.24726932;0.01655503;0.0011517414;-0.32857227;-0.077411845;-0.007307674;0.010203278;-0.10100039;0.21592753;-0.035984132;0.009098859;0.044297744;0.17208645;-0.07271243;0.19660525;0.015952604;0.0016527759;0.25180775;-0.008440637;-0.11913642;-0.22264995;-0.048138287;-0.007353611;-0.08982355;-0.000273882;0.08088467;-0.2903856;-0.019523857;0.077859;-0.25728515;-0.0042688963;0.08428762;0.0047700023;0.3128719;-0.20284377;-0.008173364;-0.0038148547;0.013238696;0.09929443;0.023233483;0.045037244;-0.17008473;-0.0027197169;0.121036164;0.11454246;-0.18552399;-0.22861415;-0.164729;-0.004808006;-0.09414203;-0.19521557;0.01321102;-0.0019406163;0.36164805;0.08452719;-0.017843159;0.023588339;-0.05471844;-0.24314804;0.14711872;0.15465061;-0.017875753;-0.031940438;0.1745344;-0.012507237;0.21102759;-0.004828834;0.23373815;0.2580054;-0.3341256;-0.060281884;-0.008407413;-0.04189903;0.018420735;0.35923874;-0.34436005;-0.06535278;0.0035772768;0.001288205;-0.00746801;0.3430285;-0.001894078;-0.1757556;-0.0076782536;-0.29187527;0.019432386;0.3408462;-0.3847227;-0.1261121;-0.2295269;-0.020803291;0.2989805;-0.009204418;0.26760656;0.015891466;-0.24653101;0.20482504;-0.019376822;0.0076975003;-0.33203897;0.013184388;-0.47153652;-0.0019586298;-0.020616343;-0.0932508;0.021313028;0.12206718;0.2804031;-0.29795435;-0.016267987;-0.035701934;-0.050852634;-0.03583445;0.25451958;-0.0020036818;0.14983633;-0.06438936;0.04996771;-0.01844717;0.01131505;0.013248809;-0.009896736;-0.43025994;0.007185846;0.036377158;0.017728705;0.26987898;0.008592596;0.0038084101;0.29655606;-0.0005125336;-0.21197899;0.21055877;-0.103340685;0.008195822;-0.0115939025;0.1047099;0.2360473;0.12973644;-0.36034366;-0.0028106326;0.11042754;-0.0001336214;-0.112606876;0.15198123;0.0005424317;-0.10095112;-0.015778705;-0.13801028;-0.20206597;-0.1338833;0.16301237
-0.084404126;-0.2022485;0.22174916;0.0010292163;-0.07947853;0.003938528;0.0825671;-0.019644225;-0.05875866;0.01764687;0.06402179;0.051361635;0.01712264;-0.03593628;0.0617851;0.1442225;-0.014178648;-0.058196127;-0.00849552;-0.071471184;-0.1608368;0.0068667275;-0.12432258;0.06939213;0.058668908;-0.114805825;-0.034232967;-0.15997313;0.0037949118;0.00024814325;-0.009312611;0.0337582;-0.043566592;0.014530255;0.005665925;0.18125466;0.34223416;0.049053572;-0.51088476;-0.11952244;-0.026674762;0.023275537;-0.08285096;0.07319498;-0.33631712;-0.025897512;0.026065547;-0.02603982;0.0015916865;0.063689165;-0.17308833;-0.011291842;-0.23426071;-0.009214526;-0.012926061;0.0021894528;-0.10785351;-0.025491957;0.18640806;-0.06925038;0.027950289;-0.18245375;0.0065735904;0.32133695;0.0039354223;-0.24470659;0.008666697;0.39147478;0.0052795867;0.056011293;-0.3970102;0.04851695;0.16282684;-0.16586709;0.16602454;0.34392005;-0.20924935;-0.15970427;-0.33440164;0.005692475;0.00063357933;-0.012099942;0.122507624;-0.406917;-0.0164276;-0.063550144;-0.11617255;0.002580447;0.019895706;0.27732447;0.16060853;0.24013945;-0.025896195;-0.0200242;-0.012504689;-0.14345862;0.004430721;-0.014622025;-0.14747205;-0.09475173;-0.023083147;0.04310661;-0.0033600102;0.17252843;-0.11967188;-0.016884934;-0.37736392;0.0066566607;0.007066504;0.00823224;0.09306106;-0.17922309;0.25650966;0.17400664;0.009403922;0.018873481;-0.098422945;-0.08681356;-0.2472647;0.209024;0.044410188;0.00740919;-0.058486365;-0.35371515;0.024162307;0.018539496;0.12326981;0.039659105;-0.020674078;0.02413357;-0.29682395;0.113854125;-0.015785236;0.13904384;-0.017694121;0.120846875;0.14950962;0.20158651;0.018263215;0.27797198;-0.028055986;0.013285444;-0.045453828;0.37642625;-0.052587923;0.003740297;0.004546781;0.038242158;-0.016710699;0.13279292;0.00849146;-0.016401919;-0.011829446;-0.0050644497;0.13561134;0.17503178;-0.0026502816;0.08021573;-0.40158293;-0.078967564;0.23795801;-0.0013275099;0.039646856;0.043077696;0.13736346;0.0003736348;-0.032613877;0.212336;-0.013217449;-0.0035827053;-0.0046254154;-0.46720245;-0.00960866;0.008661299;-0.013294806;-0.021399353;-0.4241027;-0.2953003;-0.031580012;0.2567576;0.09746834;-0.12038011;-0.31639987;0.13325524;0.004688649;0.05673336;0.013863234;0.12832944;-0.21394342;-0.058343224;0.0005976514;0.11460829;0.110278755;-0.090008736;-0.09954208;-0.13973394;-0.0054441965;0.0744637;-0.034306917;-0.00022928248;0.3044689;-0.010337843;-0.01230992;-0.0029283897;0.17499661;-0.05788699;0.04939971;-0.119152896;-0.08845434;0.009039476;-0.32337028;0.3500161;-0.0017862396;-0.0022485477;-0.21380983;-0.036414135;-0.18979752;-0.10949973;0.14414352;-0.27789345;0.20903881;0.22351672;0.07996938;-0.17992066;0.00023384922;0.04167662;0.06891806;-0.016655432;0.0067149117;0.032554433;0.019059448;-0.24368729;-0.010097311;-0.002875017;-0.11052905;0.38156796;-0.022601003;-0.31558177;0.009147862;0.08659267;-0.018260438;-0.14476502;-0.060497828;-0.13144098;-0.014252134;0.066116855;-0.00588051;0.5390496;-0.03243966;0.014716216;0.06656104;0.0034957696;-0.034498557;0.29648846;-0.018341884;0.0020464456;-0.0130465;-0.011030407;-0.011250544;-0.07626839;-0.093382314;-0.12577674;-0.0810702;-0.05203909;-0.00037365657;-0.17535444;0.0015178088;-0.011231922;-0.18257518;0.0016621414;0.014625428;-0.41459414;-0.0033994392;0.22154228;-0.013796525;0.08566009;0.18256162;0.01336597;-0.033961255;-0.031612266;0.011568365;-0.42758572;0.102030426;0.26590988;0.005035334;0.36026594;0.0023023265;-0.20942931;0.049224384;-0.034221355;-0.5194261;-0.17709766;-0.2656143;0.003651024;-0.0042077284;0.2558944;0.032855526;-0.41531888;-0.09596842;-0.20676681;-0.13292922;-0.010738557;-0.010400968;0.009470775;-0.21828187;-0.21166494;0.17395821;0.009067693;0.12042208;-0.13813952;0.11470674;-0.02639254;0.0043947883;-0.36062586;-0.07524328;-0.076754995;0.33864516;0.009751031;0.0016221615;-0.039679978;0.34013984;0.0069754566;0.27832332;0.06554947;0.013205556;-0.47290653;0.0073109767;0.07331001;0.018795235;-0.1250265;-0.2126452;0.029832583;-0.088507034;-0.34875894;-0.23794244;0.010733118;-0.17659009;0.2221735;-0.41184348;-0.2928876;0.0011333015;-0.16421355;-0.2909763;-0.31041548;-0.077106;0.019137507;0.0034008774;0.005685637;0.10361621;-0.22790648;0.20345013;0.2039993;-0.0982264;-0.13779952;-0.09803147;-0.006111708;0.50395817;0.011494914;0.18020871;-0.012451348;-0.008734068;-0.19452737;-0.0052523944;-0.0044998485;0.072611436;0.16255087;-0.034882057;0.07163204;0.2441869;-0.054686744;-0.28159735;0.12185677;-0.013701273;0.0017961602;0.0098552685;0.011136465;0.013539707;-0.014355592;0.010378486;-0.061145116;-0.011358526;0.03135263;-0.01011574;-0.38147563;-0.0072486876;0.021475637;-0.29253617;0.013232261;0.33710197;-0.0494266;-0.033449143;-0.19977859;0.12978812;0.02214483;0.0015648445;0.15344284;-0.012953373;0.10264506;-0.5882833;0.18770659;-0.24764901;0.016690653;0.06063724;-0.010581624;-0.40093836;0.04276113;-0.08889979;0.020834614;-0.051764216;0.010851452;0.0013888463;0.0014591225;-0.3696067;0.0015932627;0.24608397;0.23799096;-0.17661904;0.013861632;-0.31560862;-0.0009994253;0.026003288;0.021554166;0.083367914;-0.13179109;0.003842811;0.005718562;-0.004438726;0.03696821;-0.13911422;0.15267609;-0.11635551;-0.06163037;0.38124156;0.031289186;-0.00041769227;0.017554164;-0.029219503;0.06983533;0.09503195;-0.015274964;0.0018261257;-0.2144121;0.014007282;-0.09673133;-0.11532485;-0.030286498;0.0032047045;-0.10794845;-0.0007498927;0.16718379;-0.15547214;0.004240833;-0.05868585;-0.07657318;-0.0050781774;0.23451641;-0.003185007;0.0637839;-0.30420774;0.011176481;0.010891118;-0.012986791;0.16708632;0.08481101;0.28921092;0.010361967;-0.004920897;0.17527334;-0.049262423;-0.18824139;-0.4094912;-0.1527988;0.007880703;-0.07188029;-0.19830292;-0.0007147062;-0.0036193822;0.3739182;0.09910165;-0.015015305;0.12641093;-0.0060841185;-0.11166417;0.23139168;0.3424197;-0.0017010277;0.06891884;0.33604342;0.0070162974;0.41214705;-0.0036706561;0.465039;0.3369017;-0.1684108;-0.26629606;-0.0019095975;0.14627156;-0.0146711655;0.39534763;-0.46391907;0.019710772;0.0006742811;0.013485013;0.013513016;0.36829713;0.011601069;-0.013005528;0.010003394;-0.5773232;-0.116203375;0.026780624;-0.25974628;-0.21958598;-0.2675889;-0.062170804;0.036488276;0.014619819;0.262758;0.00076659233;-0.045159288;-0.060871217;0.017448839;-0.0024092568;-0.21198443;-0.008192689;-0.67914593;0.016809857;0.017495468;-0.037882008;0.0122452695;-0.16101685;0.16398871;-0.30344525;0.005733296;-0.12911497;0.05254966;-9.847957e-05;-0.07178585;0.012441293;0.31478444;-0.08959443;-0.06382872;0.015831137;0.24829106;-0.015026665;-0.013468348;-0.10691622;0.0087322295;0.11203865;-0.036745287;0.5528272;-0.019975156;-0.013582274;0.051513348;0.0042414274;0.010891843;0.062497944;0.007246459;-0.009475361;0.014714661;0.03383352;0.081222706;0.13271116;-0.4347586;0.0039207535;0.1605226;-0.00044224915;-0.13839322;0.19534975;0.030357566;-0.31781206;0.017780066;-0.052127067;0.030329082;-0.21013291;0.029469945
-0.07856768;0.0012234977;0.013682369;0.2153859;-0.03190333;-0.007732255;0.030783404;0.025738949;-0.1128164;0.0069951303;0.18654037;-0.09924422;-0.02665416;-0.052643955;-0.052388377;0.11431353;0.0072823255;0.09272632;-0.0070191375;0.14897113;-0.13481241;-0.15601014;0.09288908;-0.009666359;0.08143814;-0.1531578;0.28714645;-0.011896047;-0.01366908;-0.0034261604;0.0011410861;0.13888119;-0.1888753;0.00046368066;-0.008214537;0.27166533;-0.100375645;0.14384626;-0.23629414;-0.18504699;-0.11284527;-0.00989292;-0.069763854;0.048764873;-0.3910002;-0.17538677;-0.0068627484;-0.088883966;-0.015891723;0.065398194;-0.38425875;0.015069914;0.005026727;-0.23653094;0.009548881;-0.03216225;-0.012771809;0.019699765;0.26604205;0.097598486;-0.0048793764;-0.038187135;-0.0091014635;0.44819048;0.09513586;-0.20134442;0.27888638;0.39244583;0.005669457;0.025854899;0.013906878;0.20516872;0.12418158;-0.16621429;0.24067765;0.024477849;-0.16801757;-0.20258448;-0.051356666;-0.0027912178;-0.019087577;0.015184302;0.19255826;-0.2140838;-0.016278962;0.027642129;-0.38053635;-0.0015808063;-0.0073094955;0.43081537;0.0078087747;0.12934196;0.004761851;-0.04199776;0.020019274;-0.08861195;-0.009091103;0.05090313;-0.06456651;0.024726486;0.16374485;-0.005615714;0.004672573;-0.16597366;0.060199875;0.008938317;-0.12826103;-0.0019395882;0.0044385926;0.0011950403;0.08192684;0.104056984;0.20373102;0.08588602;-0.0050805216;-0.10310552;-0.10345499;-0.05743263;-0.35116017;0.18935345;0.03657973;0.0029306645;-0.055748124;-0.44955277;-0.12321749;0.07127392;0.0715267;0.012456177;-0.012918122;-0.02855305;-0.16645722;-0.064983174;0.004028586;0.23372124;0.022572614;0.18560763;0.07962584;-0.15718621;-0.12905818;-0.070707254;-0.2961239;-0.025943339;0.024586793;0.31902122;0.016828533;-0.0082797855;-0.004588963;0.025857568;0.021359118;0.13823527;0.0023018043;-0.037976414;0.031776737;-0.01181138;0.31051022;0.37814537;-0.000955128;0.14373533;-0.26211455;0.041012175;0.011155449;0.14343819;-0.021372065;0.03324289;0.0081349;0.01944504;-0.030499624;0.31839922;-0.064396136;-0.0058683595;-0.0064783404;-0.28125417;0.0081257215;-0.0014853438;-0.008080762;-0.027353859;-0.34947893;-0.2816109;0.11689321;0.175479;0.26952723;0.0764945;-0.26018056;0.1527133;-0.0052024927;0.262412;0.0015124045;0.08350294;-0.30476975;-0.19056478;-0.35154757;0.16395253;-0.16161554;0.18062785;-0.15609902;-0.1007746;-0.009209656;-0.06424947;-0.11942278;-0.028896576;-0.046125475;-0.004234724;0.009685322;0.002425593;0.1007077;0.006459401;0.03897777;-0.1538057;-0.015819348;-0.027295394;-0.30179802;0.3276151;-0.002770261;0.0012148857;-0.10797807;-0.07830289;-0.046173356;-0.019135216;0.24514951;-0.20087029;0.12784612;-0.044711377;-0.026846712;0.124037355;-0.00032318156;0.20086738;0.079440944;0.0021162194;-0.013796777;0.15616213;-0.018241078;-0.20671065;-0.0067353067;-0.0031976847;-0.07770117;0.08637368;-0.14991587;-0.107475765;-0.014856161;0.13483515;-0.33172917;-0.21816586;0.073382825;0.063121535;0.007873865;0.10945817;-0.025626108;0.5497596;-0.059759878;-0.0027645004;-0.10939063;0.0073632933;0.08203223;-0.0027441236;0.005005399;0.25969392;0.27970022;0.020207575;-0.090758115;-0.0111084655;-0.27835467;-0.08097436;0.060183916;-0.27358615;0.011468893;0.018049879;-3.245875e-05;0.00924683;-0.50040644;0.008117297;-0.009344396;-0.1908905;-0.14774019;0.17093837;0.0011375456;-0.15825005;-0.06230566;-0.0016120161;0.113544226;0.015551205;-0.14706984;-0.19190444;-0.14285389;0.08637646;-0.0045469035;0.41148585;-0.012562169;-0.2268283;-0.085487865;0.0065815025;-0.24369548;-0.17974168;-0.21732771;0.16284114;-0.0027835267;0.22969766;-0.19490227;-0.21648742;-0.08084004;-0.022734944;-0.13207462;0.0043953527;-0.0019095582;-0.006449327;-0.04531817;-0.1709118;0.19340475;-0.013981291;0.08197127;-0.21563183;0.18904431;0.062359937;0.004037789;-0.33669132;0.2590145;-0.12990563;0.34843838;0.0013420414;-0.0057926425;-0.008478641;0.108410195;-0.016232032;0.050931394;0.20248795;-0.0074659525;-0.19654332;-0.013445221;0.13349634;-0.03029998;-0.13438319;0.1452996;-0.020449508;-0.11889719;-0.11049195;-0.18767183;-0.0009307948;0.039616663;0.4459971;-0.3038782;-0.50055027;0.0039432724;-0.06487982;-0.45509255;-0.3546844;-0.18379638;-0.013016141;-0.0096649;-0.01598581;-0.22643343;0.17131744;0.016716538;-0.007985246;-0.14914308;-0.0072396644;-0.13959305;0.010492;0.21180423;-0.006675539;-0.05778246;-0.14663872;0.23880549;-0.046800748;-0.0031935207;-0.030701015;-0.108009085;0.48710114;0.02101998;0.025114547;0.071865216;-0.06539447;-0.25728217;0.16762412;0.016907813;0.0018235614;-0.004431757;0.020909084;-0.009232078;-0.00049922266;0.017582728;-0.010463096;0.044482738;0.23490036;0.0060932264;-0.31129405;-0.0027474079;-0.0050169863;-0.07099482;-0.036032382;0.43267345;-0.14255315;0.07822669;-0.068607315;0.12657785;-0.017148595;0.084914714;0.03982951;0.012684543;0.3777213;-0.20299163;0.2895714;0.06376252;-0.014113559;0.0028476976;-0.0013683666;-0.3383147;0.093844995;-0.24615906;-0.048066746;-0.24697219;0.005231182;0.0013979386;0.014607569;-0.23618555;0.00816945;0.12203927;0.2917659;0.08897461;-0.0005177563;-0.45656118;0.019817255;-0.20652197;-0.0016099967;0.11915567;-0.09632844;-0.08064735;-0.0062501733;-0.023845436;-0.087343484;-0.30582747;0.1369254;-0.32163063;-0.023160461;0.32064894;-0.013796249;0.01038751;0.022747368;0.14801462;0.030510921;-0.18421546;0.009268673;0.00017869177;-0.20009248;-0.009205362;0.118765004;0.017839188;0.19054964;0.0006825305;-0.13460419;0.008607114;0.2214413;-0.14655349;0.014090237;-0.074383244;0.096879035;-0.0023405312;0.06925959;-0.0012202768;-0.10913102;-0.3693426;0.004913268;-0.0135967685;-0.018105859;0.22596939;0.12262358;0.17104706;0.048347432;-0.0004546066;0.172281;0.09124903;-0.2494272;-0.23110916;-0.3111918;-0.0068855193;0.013229765;-0.0549867;-0.0007021355;0.0088834325;0.22074638;0.06665487;0.013324829;0.23844972;-0.27409613;-0.2790276;0.058332067;0.122984745;0.008816554;0.10033229;0.056803763;-0.005037062;0.46696714;-0.006253799;-0.16244426;0.39439276;-0.3058833;-0.088086426;0.027303979;0.0879921;0.010970962;0.40479118;-0.5148885;-0.15513319;-0.009277138;0.003177442;-0.005557814;0.3095113;-0.01204376;-0.1185417;-0.0136322975;-0.33604637;-0.055064216;0.011114753;-0.111495696;-0.34748894;-0.10034525;-0.12313525;0.0338512;-0.007919169;0.26052466;0.0020667135;-0.06060269;-0.11298707;-0.0019885846;0.009382774;-0.43165845;0.00036870036;-0.4971213;-0.022165397;-0.008837837;-0.019589242;-0.015163764;-0.29071465;-0.01866741;-0.32482675;-0.017473461;-0.10526128;-0.013452337;0.048528895;-0.08752794;0.01965162;0.19067647;-0.121654294;0.25264087;-0.014460134;0.17614748;0.0039631384;0.008081812;-0.005732465;0.00058513193;-0.004481671;0.012958935;0.25544938;0.01699292;-0.0017571879;0.110019855;-0.014463049;0.24270074;0.1483062;0.010973286;0.013411485;-0.0017965111;-0.0070310864;0.14047712;0.13320872;-0.467498;-0.0032448196;0.16232334;0.017428506;-0.075643085;-0.18763766;-0.008539649;-0.2213938;0.0108506605;-0.18460311;-0.22499482;-0.21090423;0.19768201
-0.16684358;-0.2172019;-0.08542975;0.14166534;0.13057816;-0.0011221413;0.019630328;-0.001964554;-0.2700411;-0.025919778;0.26233268;0.039572496;0.020868348;-0.00062215823;-0.2154937;0.18963745;-0.008551825;0.086458206;0.009466513;-6.515331e-05;-0.26316074;-0.11798952;0.12378825;0.062371545;0.094919674;-0.3027707;0.14629719;-0.0537482;-0.0011793245;0.0025786264;-0.07187219;0.08818378;-0.041340902;0.008878917;0.00936085;0.15619653;-0.03345726;0.24049315;-0.34354195;-0.31021246;-0.078383595;-0.00042171704;-0.05252045;-0.1410593;-0.14925565;-0.02300748;-0.010977858;0.10670172;0.011887001;0.17098197;-0.4429033;-0.009154508;-0.057051416;-0.19632675;0.0093669705;0.015695171;-0.28193754;-0.039391596;0.062546775;-0.14373283;0.00878262;-0.010716316;0.016346395;0.047611102;0.026179526;-0.095979;0.2561878;0.19836967;0.0038745243;0.15853249;0.045957863;-0.023552917;0.28232422;-0.116411485;0.15051724;0.031874374;-0.22542663;0.10617526;0.08393817;-0.00083271344;0.026519734;-0.0051308707;0.24354704;0.08504692;0.010199137;0.15522692;-0.2082336;0.0025399963;-0.0007035364;0.52902216;-0.07522364;0.110829316;0.010059788;-0.024422811;-0.019570535;-0.10628544;0.010146585;-0.05532922;0.30263588;-0.053257708;0.09050213;-0.014557787;-8.594797e-05;-0.11674114;0.0092904195;-0.009051316;-0.20729853;-0.004668592;0.007696302;0.021815956;0.10997392;-0.19385794;0.059329916;0.08666866;0.009185295;-0.05987478;-0.151087;0.04835155;-0.13694885;0.15413581;0.19398636;0.009399187;-0.12691048;-0.38176507;-0.5280605;0.089892894;0.13902579;-0.3302093;0.09825895;0.01640983;-0.07937121;-0.2950725;0.0007082699;0.073890455;-0.001195274;0.18039607;0.08452034;-0.04602147;0.19544955;-0.018195508;-0.22931719;0.015537044;0.027660392;0.22771838;0.16542129;0.011519025;0.012061964;0.068029135;-0.008779229;0.12047539;-0.17588101;0.021569036;0.0008522989;-0.0051114284;0.12746246;0.23169465;3.3231465e-06;0.16269276;-0.16367507;0.35691476;-0.1293866;-0.069869965;0.015645511;0.034753747;0.14929558;-0.017802633;0.04105088;0.18150346;-0.1220678;0.014614312;0.002975305;-0.13477615;-0.00783242;0.004711477;0.022649426;-0.035047658;-0.2864291;-0.16251747;-0.06268571;0.14926513;0.16465938;-0.10810738;-0.27853265;0.3028079;0.0022813552;0.06021862;-0.0043970835;-0.056538057;-0.30479762;-0.10108128;-0.26985553;0.26311737;-0.23721384;-0.051442582;-0.07881233;-0.11027409;0.012820331;-0.1655928;0.114338994;0.064514436;-0.07106232;0.011301783;0.0009636621;-0.0036615178;-0.15831055;-0.018915309;0.0320634;0.017731767;-0.0010509302;0.00045838873;-0.10648528;0.046553284;0.0063579297;0.008625864;-0.2006489;0.013424442;0.18539171;0.22574896;0.25322667;-0.1248565;0.11065387;-0.2026225;0.010727773;-0.046248503;0.0028422328;-0.049212255;-0.1793955;0.001282377;0.012354562;0.35671735;-0.09738236;-0.23528749;-0.0014687121;0.008572017;0.21887802;-0.13669279;-0.19638865;-0.18960276;0.023163555;0.1459167;-0.3543691;-0.39831564;0.027700802;-0.21556439;-0.0038208289;0.38355273;-0.15285282;0.41293594;-0.0110485405;-0.01131142;-0.25868076;-0.012756165;0.06848613;-0.042066153;-0.006109544;0.04074814;0.3569294;-0.0038828293;-0.11205598;0.06270892;-0.21369274;0.10881281;0.06825816;-0.19725081;-0.015054703;-0.111326955;0.0023608988;0.010620314;-0.40911156;-0.0059692226;0.017237065;-0.047010984;-0.043898772;0.047928877;-0.00011245021;-0.104822345;-0.20483391;0.007063107;0.37760106;0.014439553;-0.5520955;-0.10041012;-0.099611506;0.25594488;0.0047239033;0.37540838;0.02094314;0.12664631;-0.059471168;0.0076017207;-0.3243664;-0.076337844;-0.2636316;0.110664956;-0.017368859;0.06514059;-0.026318552;0.038121976;0.1084375;0.100893416;-0.3201034;0.013080345;-0.0006983651;0.014184441;-0.33743948;-0.08079112;0.10409539;0.00033960887;0.20521674;-0.21719901;0.27378258;0.096044935;0.0009613232;-0.16818361;-0.121196695;-0.1278491;-0.014200113;-0.014463429;0.0020288175;0.24774502;-0.17805737;0.012437577;-0.068641886;0.05105394;0.005202912;-0.14826977;0.019809367;0.18817952;-0.042131945;-0.1761985;-0.10745308;0.01735069;-0.16755804;-0.13040735;0.114594124;0.0072680633;-0.25213137;0.24513529;-0.24683416;-0.40679106;-0.0057165297;-0.0024904998;-0.13617024;-0.43100354;-0.2589954;0.010920338;0.0013218609;0.00988114;-0.0037382762;0.31554455;-0.185301;-0.14270173;-0.08422953;0.08074872;0.021615334;0.017896455;-0.03849945;0.010269031;-0.07581982;0.033197973;0.33910102;0.014590434;0.00079718727;0.03392468;-0.2419449;0.35460755;-0.009231243;0.18125972;-0.089194156;-0.30682522;-0.14698784;0.0002663734;-0.018154602;-0.015329596;0.011523294;-0.007195228;-0.0024279314;0.010641876;-0.034612786;0.08782159;-0.041523937;0.14299579;0.013697669;-0.09602638;-0.012389499;-0.0024849682;0.06292086;0.032297242;0.3153803;-0.0024014919;0.05969144;0.19204725;-0.0928489;0.013409916;0.13687927;0.12327028;-0.00032860265;0.009267743;-0.15630083;0.02589012;-0.0006924661;-0.008607566;0.13354689;0.0032233046;-0.2752809;0.053172424;-0.2535014;0.008047916;-0.034351986;-0.015159523;-0.0047163754;-0.0041056443;-0.102988765;-0.0034763871;-0.12084215;0.0938281;0.16800568;-0.005570727;-0.39245343;-0.02353298;-0.18237978;-0.4330473;0.10072708;-0.13205682;-0.19278248;-0.024711365;0.01592696;-0.3264155;-0.21265586;0.25061104;-0.04663596;-0.073739;0.24132691;-0.0025210057;0.006673096;-0.039480235;0.098477274;-0.03440267;0.16341849;0.00723735;0.016192798;-0.4209816;-0.0021982763;0.1671882;0.0570125;0.054709256;-0.0074285497;-0.27126345;-0.0001345934;0.1281965;-0.26384076;-0.0111994855;0.0876181;-0.07714829;0.010861406;-0.15538433;0.0028654393;-0.15333824;-0.5002228;-0.022926837;0.0003515578;0.00895444;0.21319973;-0.2790716;0.24945717;-0.08607426;0.0012079728;0.18488371;0.18992147;-0.15572402;-0.15201752;-0.116065346;0.0118248435;0.30131188;0.10816979;-0.006191535;-0.003870769;0.18667966;-0.001038177;-0.010786674;0.13776813;-0.40807158;-0.3775013;0.061080527;0.20166965;-0.010510717;0.010414515;-0.19025439;0.010973929;0.0073438757;-0.0025761498;-0.3082951;0.2651458;-0.32126218;-0.110202745;-0.029908296;0.28021118;0.0073679546;0.19852449;-0.29408;-0.13652734;-0.0030138039;-0.017885406;0.0077975537;0.07780358;-0.017305586;-0.21536222;-0.003153181;-0.3207045;0.040080205;0.23352501;-0.020129953;-0.27778846;-0.0015207621;-0.048184536;0.13580583;0.013806005;0.4814203;0.015261609;0.10666227;-0.10401144;0.0076399064;-0.013428623;-0.34302258;-0.011829511;-0.36313134;0.014519268;0.0053949966;-0.045925632;-0.00037285066;-0.14762394;-0.20384516;-0.11671017;0.017033717;0.08451381;-0.03386849;-0.10736497;0.0705814;-0.016063813;0.26677912;-0.019271355;-0.1652595;0.020772766;0.22051549;0.00096396194;0.0005584694;0.010011373;-0.0027557975;0.0166612;0.0111022545;0.33571643;-0.009736622;0.0012097422;0.04749317;0.019911522;0.05913766;0.12036049;0.119510815;-0.020611828;-0.007635127;-0.19257438;-0.049157478;0.26578313;-0.35675183;-0.0056968047;0.23142536;-0.011680536;-0.15823393;-0.18247281;0.059136502;-0.18171579;-0.018170977;-0.22824146;-0.3144483;-0.27699128;0.16611758
-0.09071849;-0.44262838;0.00912416;0.18761243;0.076123275;0.001893916;-0.05649813;-0.02900979;-0.22501263;0.010429683;0.34309512;-0.2446816;-0.011811058;-0.1909332;-0.3442303;0.24373297;0.0011958623;-0.155831;-0.016147407;-0.05593231;-0.29586905;-0.30887395;-0.017121386;0.09180532;0.11119026;-0.08907562;0.26088;-0.17284496;-0.004778;0.0031386712;-0.019299306;0.014900591;-0.06717655;-0.017596493;-0.0029500187;0.19584866;-0.19556226;0.16233206;-0.2708808;-0.29518214;0.076484665;0.018942824;-0.06689615;-0.24497108;0.031624075;-0.038289294;0.0010884586;0.022755422;-0.0069349217;0.37882343;-0.029793695;0.008763798;0.02727622;0.14556739;-0.018961204;0.007487177;-0.1798332;0.0366956;0.056227505;0.04488375;0.012814418;-0.010672281;-0.011228319;-0.041658722;-0.13730855;-0.174909;0.023551658;-0.043000624;0.002027893;-0.02152545;0.16224557;0.06379533;0.17390247;-0.016830286;0.13144241;0.25289112;-0.18375683;0.068515584;0.09966352;0.008483;-0.010323796;0.013814284;0.105414145;-0.022500256;0.015538908;0.049053986;0.20039271;-0.017490976;0.0035950346;0.15424879;0.079034634;0.11492168;-0.017022485;-0.044663202;0.00037698133;-0.19714846;-0.015435156;-0.10449199;0.1540177;-0.015151136;0.22945778;0.018102102;0.0009237538;-0.0566052;-0.02574608;0.002990606;-0.17522286;0.0055451477;-0.01838568;-0.017260846;-0.12704144;-0.27246222;-0.026636792;0.19778578;0.014930257;0.0301547;-0.16287577;0.050084386;-0.17747676;0.21550183;0.2722075;-0.005879887;-0.001994778;-0.31822702;-0.37420562;2.1769965e-05;0.124938644;-0.097848766;0.120639145;-0.010776826;-0.19304645;-0.15485969;0.0036272847;0.06410354;-0.017751519;0.01092693;-0.12536302;-0.5197673;0.22186056;0.09218548;-0.2047333;-0.004043225;0.13578744;0.11388464;-0.042660378;-0.005525146;-0.0132899415;0.030178718;-0.011323898;0.3246338;-0.02669785;0.23808064;0.025567338;0.013529697;0.24880342;-0.23715605;-0.0042928313;0.16291258;-0.09446107;0.05232918;-0.13419427;-0.19159617;0.03970788;0.051747765;0.01844313;-0.006272191;0.0797233;0.38223544;-0.10267058;-0.01176411;0.0015301775;-0.1537221;0.010858603;-0.032181486;-0.0019909411;-0.09943768;-0.3026359;-0.20766369;-0.10461109;0.18670645;0.17677636;0.150051;-0.0016216667;0.27104566;-0.007392087;-0.06542171;0.0007483567;-0.039884742;-0.29798695;-0.0521274;-0.4903117;0.22565673;-0.37966657;-0.17315759;-0.24127047;-0.16444018;-0.005264754;-0.0073597534;0.13028394;0.27011284;-0.11441358;-0.0046735913;0.013320739;0.0044756373;-0.09550483;-0.02395312;0.018903878;-0.019744981;0.09013985;0.00062812737;-0.056365248;-0.11282669;-0.005306504;-0.012807223;-0.02830885;-0.016251083;0.08507619;0.044825017;0.109514154;-0.27305695;-0.0038805332;-0.14596842;0.110390246;0.24746531;-0.0071857627;0.054626696;-0.4155989;0.01056658;-0.013489433;-0.15567592;-0.066504635;-0.28401417;0.014893875;-0.018835036;-0.060765747;-0.08133808;-0.24351095;-0.25863203;-0.013280604;0.21562822;-0.51024294;-0.49029365;0.013658587;-0.28095877;0.007734824;0.27559528;-0.38865638;0.29047307;-0.112288415;-0.01675297;-0.05129698;0.017902318;0.04815072;-0.009506353;0.006146058;-0.058605377;0.105006866;-0.0145910345;-0.27510035;0.16596985;-0.26103297;0.16471164;-0.003958406;-0.17513251;-0.00073992636;0.064159855;-0.015221743;0.0058335913;-0.012111138;-0.011687385;-0.0069066486;-0.23731796;-0.040329825;-0.0501618;-0.0028616153;0.023362603;0.032743674;-0.00761134;0.24577124;-0.019873682;-0.4094138;-0.025994677;-0.13616991;0.24822348;-0.0023439084;0.27897575;-0.004876819;0.17759612;-0.07911653;0.00549371;-0.16107598;0.043325946;-0.3832905;0.22088827;0.013592544;-0.044616066;-0.18019877;0.016403414;0.03301059;-0.027568046;-0.16755599;-0.02353325;-0.012400465;-0.0035309296;-0.2943448;-0.024936069;0.019287404;0.02119349;0.30155995;-0.1556936;-0.06686611;0.010379497;-0.011870539;0.01795277;-0.30700374;0.045185022;0.05385015;0.021561807;0.00074152683;0.03831272;0.058613293;-0.002248091;-0.0037910168;0.15964648;0.004753612;-0.3699831;-0.010926186;-0.103051886;-0.15825745;0.052382346;0.024636349;-0.009223618;-0.09067295;-0.089136004;0.23818594;-0.0036279568;-0.18565273;-0.29141876;-0.24294508;-0.17999262;0.009728684;0.14311783;0.35528636;0.026754444;-0.036982797;-0.0071195834;0.020562483;0.0023899178;0.05725026;-0.08648188;-0.2728427;-0.19947962;-0.090067625;-0.17675772;0.04525056;0.023207117;-0.26362783;-0.017856726;0.1913388;-0.13495548;0.3047821;-0.08245814;0.007079282;-0.1184465;-0.13492869;0.052275185;0.01801703;-0.015454887;-0.096940525;-0.29026785;-0.116753034;-0.13682868;0.0022491072;0.0009445851;-0.009198523;0.0025707434;-0.005466653;-0.00068616954;0.026682895;-0.05023053;-0.0019792377;-0.0902442;-0.019970017;0.055356998;-0.006372116;0.006080123;0.2747972;-0.008259189;-0.11007183;0.09406882;0.05323509;0.0627937;-0.05378659;-0.008687997;0.13011542;-0.016275894;-0.01063912;-0.11553908;-0.24193276;-0.06404082;-0.18165837;0.004681419;0.118964165;0.020491824;-0.08054838;-0.04237557;-0.30390686;0.01689633;-0.005091018;0.015354583;0.0014495982;-0.0038834217;0.07935863;0.011158114;-0.1831009;0.12739818;-0.12194476;0.010982357;-0.39895916;-0.013619721;-0.18449874;-0.28249437;-0.3000505;-0.035982426;-0.29191905;0.025588967;-0.008666487;-0.23229524;0.06490198;0.24086346;-0.06815353;-0.16846427;0.105038986;0.002011285;-0.006003869;0.07328032;-0.016553538;0.12618718;0.15563956;0.0038801979;-0.046433605;-0.2640896;-0.0018183086;0.19013311;0.20010057;0.28408077;-0.00622586;-0.23567687;0.011576926;0.00019385463;0.038830273;-0.0130618755;-0.08495771;-0.0151615385;-0.0062948596;-0.20245057;0.0060021398;0.012335031;-0.3432528;0.024956224;0.011241477;0.00581057;0.21742494;-0.18957643;0.17779899;0.043282278;0.018540861;-0.13375114;0.19899562;-0.023727687;-0.011402087;0.13850245;-0.016826274;0.27529258;0.023539953;2.2551758e-05;-0.010709776;-0.09522551;-0.22677106;0.0115244575;0.05229799;-0.085266195;-0.20886764;-0.033967774;0.20651591;0.00081988785;-0.18731298;0.13730296;-0.007559989;0.22995374;0.0010508758;-0.11865155;-0.034061678;-0.35743687;0.26509237;0.0030159783;-0.038066756;0.00088442164;0.17924389;-0.13036469;0.008885568;0.005999322;0.0010005785;-0.006430948;0.006988608;0.010167932;-0.1551699;0.02024398;-0.17938313;0.18659587;0.12661162;0.00680871;-0.09946637;0.05079282;0.017026702;0.23358455;-0.009876241;0.3244807;-0.02645968;-0.00015603153;-0.199363;-0.010888295;0.01403263;-0.2369101;0.011345357;-0.3806035;-0.013310218;-0.0121522;0.016958687;-0.0026356422;-0.27449173;-0.2783139;0.052548584;-0.006400573;0.04617934;0.007056072;-0.21753237;0.09046817;0.0015948237;-0.033904683;0.347461;-0.18416189;-0.015047379;0.035495937;-0.0041114273;-0.0021134561;-0.15238512;0.03275054;0.117143854;-0.02334242;0.14506277;0.00562815;0.009279038;-0.47025236;-0.009737687;0.060688414;-0.028823407;0.0004328928;0.024534697;-0.0043986617;-0.20482562;-0.09056666;0.042352926;-0.3290506;0.011887801;0.1918487;-0.007045675;0.25207308;-0.1231446;-0.041946854;-0.14756909;0.01461147;-0.18746069;-0.42775783;-0.05982838;0.29357737
-0.12026648;-0.12280333;-0.011572889;0.06731594;0.004379095;-0.009847324;0.18242845;0.027984759;-0.25559464;0.014357631;0.22819853;-0.2947038;-0.007881558;-0.11176522;-0.15921123;0.1434395;-0.014455192;0.13495408;0.002081819;0.013751646;-0.33915123;-0.17387271;0.036857184;0.09141186;0.060636412;-0.06068448;0.31396;0.049996417;0.012429369;0.0043236646;0.0285064;0.30878514;-0.04894247;0.017918197;-0.006362712;-0.11699978;0.1470237;-0.02295439;-0.4529949;-0.1500117;0.19213854;-0.0166578;0.0021104624;-0.0516976;0.04805743;-0.35983673;0.0071076006;0.15744735;0.0060555455;0.35751596;0.2210028;-0.0020818906;-0.08656263;0.015917253;0.012612195;0.0037934326;-0.22668305;-0.010493757;0.08112813;0.10872905;0.0023073072;0.42506114;0.0075370315;0.049740747;-0.045908682;-0.15109316;0.27161378;-0.16145328;0.006071016;0.015481948;0.11578297;-0.20892285;-0.28273842;-0.17954527;0.38040757;0.42508093;-0.13508399;-0.05076075;0.07743755;-0.018759444;0.032949273;-0.005684774;0.14486897;0.0793371;-0.021660266;-0.060129214;0.32117948;0.010970141;-0.0074017206;-0.19007254;0.0051378324;0.3152351;0.020290827;-0.0045413654;0.0067755687;-0.027635042;0.0018745257;0.038659994;0.32201195;-0.03782704;0.43303296;-0.015196109;0.006751207;-0.09346439;-0.089008726;0.0122183515;-0.17603184;-0.02010694;-0.0028889172;-0.008863091;-0.08587666;-0.12709889;0.008697445;0.0217315;-0.0056755347;0.041390795;0.034815144;0.093555905;-0.0073556923;0.17358807;0.19149564;-0.00091629353;-0.05014137;-0.4992496;-0.47836307;-0.09358344;0.22039822;-0.2767296;-0.080450304;-0.012028648;-0.2683866;-0.18638678;-0.001485836;0.16495359;0.008035314;-0.061104022;0.044015374;-0.11807582;0.014901518;0.11906912;-0.19599696;0.0015052789;-0.062110964;0.020855134;-0.2548561;0.0091550825;-0.009567691;-0.14502658;0.013146149;0.44461435;0.052885436;0.17363581;-0.08154086;-0.00014944914;0.27385682;0.0023492323;0.012481149;-0.09398414;0.026110766;-0.040235437;0.012612928;-0.17931667;0.028939774;-0.004060152;-0.051885385;0.011130033;0.026862165;0.22930653;0.042600855;-0.019630555;0.0012495877;-0.11758781;0.00068415573;0.021271309;-0.0052185343;-0.030892527;-0.34170577;-0.23674479;-0.10060481;0.06840603;-0.06843835;0.039268594;-0.12723175;0.29857734;0.007907389;0.1664808;0.0036950195;-0.20651634;-0.20673582;0.10249036;-0.7242293;-0.05271427;-0.09293246;-0.23350862;-0.18032682;-0.4837782;0.0044877534;-0.034451485;0.2866671;0.1364654;-0.13299987;-0.0006208589;-0.021279447;-0.009377215;-0.07732501;0.17684957;0.101375885;0.05735791;0.09964431;0.010850466;-0.037910614;0.110976525;0.002685594;0.016810406;0.13545054;-0.07786129;0.08612839;0.08029714;0.05014683;-0.22449973;-0.11942943;0.043304734;0.18460199;0.18868856;0.00539116;0.21139164;-0.24738252;0.0042425133;0.010889383;-0.21110485;0.04149757;-0.12619308;-0.010824872;0.024079151;-0.27518427;-0.0904768;-0.083954975;-0.467759;0.0024238299;0.26113775;-0.31552765;-0.17324625;0.031779934;-0.4399708;-0.004868385;-0.1337414;-0.20824705;0.28485397;-0.05482526;0.019981982;0.025966072;-0.02301218;-0.0442102;-0.021698505;0.0012291096;-0.09596691;0.09557762;0.012046604;-0.33017203;0.23192248;-0.11775892;0.057110127;0.10358419;-0.28649524;-0.0063282247;0.072582796;0.015672585;0.0007880813;0.048563745;0.00084159174;-0.0048111556;-0.11067222;0.16330375;-0.15855238;0.0047518606;-0.06353747;0.009966415;0.006080909;0.15729839;-0.00028130648;-0.4599793;0.04158666;-0.06344422;0.2004968;-0.0034145066;0.41141027;-0.009011333;0.07189456;-0.10707464;0.0051870733;0.02871758;0.16495621;-0.12678105;0.15813449;-0.00093919784;0.019177664;-0.20602453;-0.07018082;-0.039001357;-0.3027863;-0.05308182;0.032750446;0.015875377;0.001369844;0.0446817;-0.03913118;0.26453763;-0.007422007;0.10952888;-0.07423468;0.09389746;0.064682856;0.004063457;0.061183766;0.09139029;0.13913278;0.021519369;0.0046880464;-0.015178918;-0.09504982;-0.152939;0.0059661716;0.22068994;-0.012847787;-0.0057673845;-0.2535168;0.008336066;-0.098697275;0.07913032;-0.13166107;-0.03198357;-0.0048706173;-0.133323;0.14512901;0.18625858;-0.0049526617;-0.12741768;-0.2597402;0.0913447;0.026913961;0.0020681054;0.03310669;0.43509778;0.032814298;0.013171713;0.0038562233;-0.03045154;-0.0077275173;-0.10882425;-0.08241437;-0.3905037;-0.16577344;0.042005043;-0.29669508;-0.16514333;0.030874329;-0.40497157;-0.001548953;0.21761091;-0.29178968;0.2454941;-0.207859;0.0013777614;-0.28476542;-0.24701053;0.15491295;-0.018496444;0.47096586;-0.04403639;-0.22733453;-0.27833152;0.049140636;0.0135254515;0.00689562;0.01108689;-0.00628577;0.010899541;-0.0020724416;0.026033038;-0.035507083;0.0029461377;-0.03330312;-0.015887404;0.27259701;0.014132575;-0.0003966314;-0.16981912;-0.05601969;0.013324284;0.011701164;0.17910577;0.15228039;0.07825189;-0.004030659;0.056077268;-0.037925083;-0.0035383815;-0.18028171;-0.336778;-0.03576978;-0.21244113;0.00380425;0.12779854;-0.01351598;-0.04345889;-0.19205065;-0.1627924;-0.009130251;-0.0615866;-0.008077235;0.010991584;-0.011728006;0.048817728;0.0005738757;-0.2396372;0.25523293;0.10024627;-0.002135423;-0.0871609;0.0117761865;-0.24273862;-0.15728518;-0.0030228188;0.12797786;-0.23945406;-0.0058404366;0.004742414;-0.0009042612;-0.105518214;0.16498533;0.14799006;-0.02867651;0.20561971;0.015262256;0.012770403;0.14180456;0.08884507;-0.27249238;0.30258563;-0.029169055;0.026511384;-0.2725821;0.0055692946;0.22695217;0.075808465;0.47714597;0.00067707634;-0.12907201;-0.022582462;0.0044490825;0.2118768;0.016722178;-0.13009709;-0.2452094;-0.004744863;-0.08059194;0.0013265274;-0.0014508676;-0.4434415;-0.0018166543;-0.011202438;-0.0013059343;0.12937926;-0.41962174;0.117998526;0.18073411;-0.021596592;0.14707789;0.12973379;0.072597615;0.060735643;0.1709956;-0.003299232;0.02918072;0.13199823;0.0015384922;0.017955236;-0.06338087;-0.059442416;-0.0073461006;-0.06520912;-0.16580878;-0.4458136;-0.050786737;0.36562207;-0.0026681912;-0.20631678;-0.021096496;0.005472855;0.17210507;0.009058945;-0.035823695;0.028540563;-0.25905442;0.109699175;0.019805808;-0.105684906;-0.000279577;0.13605003;-0.07010603;0.12217942;-0.008477312;0.005082277;0.009681471;0.3379124;0.0055437475;-0.21496968;0.0040154075;0.08212483;0.24604553;-0.0097292345;-0.07084532;0.05202336;0.22461191;-0.0111454185;0.3842591;0.011242057;0.45053768;0.009558373;-0.042104937;-0.10446632;0.011207637;0.0012633626;0.02204064;-0.009296201;-0.43060017;-0.0073172986;-0.0025709302;-0.060305014;0.008511972;-0.023700623;0.032447167;0.11201374;0.008820589;0.24595149;-0.038633473;-0.2246099;-0.07111514;0.013488637;0.10734619;0.25616133;-0.11371676;-0.003256304;0.115639925;0.013156897;-7.620127e-05;0.033606037;-0.04212006;0.14112891;0.024843244;0.1546761;0.008374077;-0.00237014;-0.23538248;0.00788633;-0.09400689;-0.1490677;-0.13677214;-0.010889137;-0.01115072;-0.17645213;-0.05919345;0.17610493;-0.42092738;-0.0071452744;0.08955348;0.0032359867;0.04121813;-0.33115846;0.15321897;-0.17067552;-0.024458034;-0.120674446;-0.51380384;0.020107787;0.39416274
-0.0723845;0.13281415;0.044887554;0.10689545;0.016999092;0.022064421;0.046018828;-0.015502633;-0.5360861;-0.010716816;0.18577461;-0.26856148;0.017178884;-0.098315306;0.17648807;0.13572834;0.021498507;-0.09403509;-0.0001639454;0.2839579;-0.07117997;-0.32224393;-0.097492084;0.055071782;0.22488245;-0.004244968;0.16177396;-0.020124933;0.0029185682;-0.00744196;0.03942552;0.118211865;0.05892683;-0.0035104048;0.023116656;-0.21247655;-0.08995806;-0.033812527;-0.36000285;-0.69807315;0.015503639;0.007858059;0.090652965;-0.3073121;-0.236506;-0.3644123;-0.0064058383;-0.19361609;0.010265134;0.31244153;0.14644906;-0.030140953;-0.35051978;-0.096825086;-0.0058718217;-0.013176773;-0.22728296;0.00048464042;0.20180951;0.0075494065;0.023215184;0.12746646;0.009690358;-0.2182385;0.127239;0.03072944;0.095834404;-0.28040665;-0.027087415;-0.24967878;-0.01180992;-0.14764345;-0.27527165;-0.32486552;0.036543004;0.1528028;0.059234627;0.051123414;0.14113416;0.024450673;-0.019164158;0.0037714583;-0.0059808604;0.3303812;0.027785959;-0.013627145;0.28737965;-0.010011146;0.003904122;-0.4768335;-0.08445119;0.38431883;-0.021176418;-0.05207506;-0.0039428268;-0.17022556;0.0049321447;-0.0019312602;0.3302321;0.04466305;0.31613585;-0.0027481718;-0.005605958;0.037451327;-0.0053035514;-0.010534774;0.0069757625;0.015571215;0.013267462;0.020972228;0.1082259;-0.23271157;0.089195125;-0.27388942;-0.010895722;-0.0508673;0.16214025;0.1411816;0.15442921;-0.0018276643;0.027542725;0.015943658;0.07175289;-0.36586794;-0.19347677;0.08443276;-0.0407588;-0.13424958;-0.083730854;0.013523172;-0.10230311;0.10120252;0.0030902107;0.0612837;0.0028036204;0.014524155;-0.070002444;0.03590768;0.044240646;0.23818581;-0.26971194;0.0042179143;-0.24769475;0.20138004;-0.13850655;-0.0034164786;0.00084612303;-0.100831434;-0.009078486;0.47247657;-0.12692705;0.29823855;0.073042154;-0.0019523395;0.075617254;-0.030883491;-0.0068623824;-0.13498093;0.31156224;0.0151989935;-0.14366981;-0.35320923;-0.18178569;0.06766062;-0.13362536;-0.0024689233;-0.006679452;0.20439197;0.04971505;0.02678225;-0.0049875607;-0.037200116;0.004658424;0.033841357;0.0035376993;-0.11599983;-0.043230847;-0.1823964;-0.08491635;0.22356997;-0.23591575;-0.018837675;-0.28388986;-0.07583646;-0.017787185;0.28669453;-0.0062531815;0.06668984;-0.24879739;0.02789253;-0.43472508;-0.16003424;-0.2205657;-0.22690924;-0.021240652;-0.24229011;-0.004016424;0.17510727;0.1963751;0.31356984;0.022905175;0.0021344856;0.007511421;-0.011760092;-0.18138568;-0.03749426;0.11360368;-0.09263049;0.070118956;0.004040844;-0.17253372;0.012102853;0.0068113157;-0.01939115;0.2031247;0.059091795;0.2288073;-0.24059032;0.023345768;-0.11224127;0.0663202;-0.13829091;0.09975743;0.08445688;-0.0052487026;-0.0073465593;-0.23496005;-0.02366745;0.0054547847;-0.16736686;0.06152453;0.01770494;0.01765215;-0.009809035;-0.34441426;-0.20667621;-0.16429095;-0.25317568;-0.00037465198;0.17078882;-0.26728573;0.06616119;-0.12575093;-0.45635825;-0.001311648;-0.46920648;-0.19041176;0.19506101;-0.18176657;-0.014053685;0.09656616;0.00814746;-0.0352483;0.06392294;0.004389605;0.036078222;0.073904164;0.0069420654;-0.25400272;0.2418319;-0.20646532;0.11868827;0.028335622;-0.28299308;0.006738247;0.29120216;0.010804963;0.019043315;-0.21331011;-0.0034621179;-0.004347497;0.20092751;0.041631807;-0.16964686;-0.013637112;-0.09090025;0.23217694;0.00069136085;0.12218384;-0.00024960004;-0.39415377;-0.12882032;0.2155073;0.07832752;-0.0017802607;0.19071557;0.004284401;0.05477145;-0.07711126;-0.016853701;-0.21252564;0.075502545;-0.1995376;0.34123033;0.009374615;-0.013246317;-0.040006056;-0.21978062;-0.13221431;-0.16055988;0.004271054;-0.017144984;0.014244816;-0.0132268295;0.25126868;-0.09973808;0.3695429;-0.0009854854;0.11457536;-0.087132655;-0.06128571;-0.0833118;0.0031211465;0.040977765;0.15540509;0.19582982;0.08018052;-0.004024047;0.01088301;-0.18330702;-0.035374925;-0.008077037;0.11185697;-0.02340551;-0.0020041254;-0.253045;-0.009832151;0.0009552427;0.0078098513;-0.10613684;0.17835242;0.003075492;-0.07681485;0.22293605;0.35893613;0.0024078926;-0.04425057;-0.18149777;-0.2307432;-0.021340713;-0.0004932949;0.08798509;0.43237156;0.021362087;-0.17716275;-0.00023018835;0.043208774;0.020194544;-0.17126222;-0.025567079;-0.16083704;-0.25845137;-0.103602976;-0.24731022;-0.29753283;-0.0014697928;-0.6249722;-0.0022825806;0.26251674;-0.4116888;0.15569493;-0.09414384;0.010918315;-0.25139472;-0.3217026;0.14338239;0.013260669;0.3612574;-0.1130118;-0.11824228;-0.31891364;-0.13067544;-0.024260309;-0.018112857;0.0073661185;-0.00090274104;-0.011398676;0.00423525;0.0064253528;0.059438467;0.008639698;-0.034062847;0.023574611;0.11953427;0.002713707;-0.01737174;-0.17834617;0.015178046;0.14047562;0.030958802;-0.089419164;-0.011611255;-0.049275853;0.005314611;0.009859821;0.06744498;-0.012939077;0.1032924;-0.31300247;-0.02155989;-0.39691097;-0.009475169;-0.08582758;0.0049910676;0.07955165;-0.109707646;-0.03512812;0.0072391904;0.14112423;0.0006874924;-0.0007137963;0.0061289854;0.10237006;-0.011487239;-0.07967604;0.061559822;0.05399646;-0.0035963585;0.21615712;0.004660889;-0.054113884;-0.05088434;0.1576446;-0.09365893;-0.04630263;-0.0059084645;-0.00046637436;-0.0018135433;-0.07157602;0.05664054;-0.038947407;0.103116296;0.24297735;-0.027441163;-0.01681941;-0.055221654;0.31986806;-0.30322126;0.14227152;0.0076981885;-0.010860243;-0.033262506;0.0001023263;0.07763403;0.23523614;0.3483948;0.013051334;-0.01773041;0.010285215;0.020415071;0.060855195;-0.013348698;-0.022768207;-0.19729382;0.01461619;-0.13786192;-0.005976239;-0.033571854;-0.39153728;0.0016056931;-0.0009895354;-0.014360248;0.046108473;-0.23302706;0.1951684;0.1466922;0.017115038;0.055753585;-0.014239515;0.13785218;0.24788222;0.1332157;0.003272622;-0.026475733;0.19103576;0.0010551923;-0.023170443;-0.10770079;-0.3290638;0.006733069;-0.11545086;-0.07760218;-0.33299297;0.07684256;0.1216774;-0.00088470813;-0.3650143;0.075876795;-0.008003343;0.026010469;-0.0024800634;-0.020228606;-0.15798311;-0.16839015;-0.030278193;-0.011859362;-0.39693052;-0.02173388;-0.04454468;-0.04032023;0.19937459;0.0032263787;-0.00386161;-0.009688686;0.1712186;-0.0032264395;-0.020350175;-0.027142305;-0.0071767173;0.13458194;-0.15508014;-0.10280853;0.10380106;0.15870984;-0.012970844;0.2550125;-0.0055369134;0.30534652;0.00057428906;-0.031160198;-0.1158414;-0.01487784;-0.0048894146;-0.14083166;0.016536877;-0.09501046;0.009169045;0.017055282;-0.00036257601;-0.008493387;-0.055298347;0.0023791261;0.12599786;-0.006040485;0.25533372;-0.036361873;-0.2427176;-0.39633504;-0.026046751;0.14463156;0.19441019;-0.057818927;0.0014130381;0.12464151;-0.015260915;0.009170126;0.2785306;0.0061106086;0.0038277067;-0.010050723;0.03507885;-0.017426025;-0.0058274097;-0.20180905;-0.013373542;0.075241044;-0.30785814;0.106550775;0.0013577825;0.012871533;-0.25375015;0.040502653;0.15994295;-0.26690745;-0.004943025;0.13358696;-0.0011009007;0.24264008;0.09485662;0.09592812;-0.050660633;0.020682966;-0.15694258;-0.53422165;0.34949744;0.22910982
0.26276353;-0.0861597;-0.20669807;0.1484155;0.06630366;-0.018042028;0.08248405;0.006239009;-0.41161808;0.0076284776;0.17834266;0.04932477;-0.009717791;0.009574531;0.06022491;0.15761928;-0.005351761;-0.21114582;0.005720328;0.14220423;0.36752468;-0.30197796;-0.063019395;0.07624732;0.17496303;0.06257307;-0.13692304;-0.17600827;-0.011049629;0.0030174896;0.027935414;0.18081316;-0.057286713;-0.0013606134;-0.012567685;-0.042721175;-0.13142467;0.021832565;-0.1884195;-0.5751733;0.070238255;-0.009978983;0.17541419;-0.29396918;-0.23712884;0.025331402;-0.008457536;-0.08908766;-6.740323e-05;0.23848645;-0.239656;0.03183425;-0.34536654;-0.29171062;-0.010064154;0.0011490808;-0.24975763;0.006732848;0.08960042;-0.028656462;0.016475227;-0.16104677;-0.019637635;-0.18674767;0.1989599;0.045868486;-0.029668124;-0.115275234;0.012102252;-0.043955624;-0.24544188;-0.045451295;-0.25292408;-0.25849426;-0.009058941;0.29819202;0.06471769;0.065258995;0.23332861;-0.013152669;0.008377443;-0.0071443305;0.0315405;0.46857226;0.017727472;-0.02288981;0.34964073;0.018619806;-0.0029024445;-0.84081966;0.067238994;0.08777794;0.02953646;0.048389863;0.001347361;0.110192664;0.0037877022;0.0033813375;0.04564873;-0.015381475;0.25706443;0.012546069;0.0037366874;0.16120312;-0.022827284;-0.0071117985;-0.2933695;-0.007485295;-0.004705298;-0.004410053;-0.095711865;0.012356634;0.101337254;-0.19647954;0.0056832577;-0.049350128;0.050458003;-0.01740196;0.07658455;0.007977173;-0.09604692;-0.0067330003;0.007826264;-0.43578836;-0.19046068;-0.05074127;0.27423427;-0.25567314;0.09700658;-0.003970245;-0.21676725;-0.022295756;-0.016037457;0.15975286;-0.014689249;0.05950488;-0.09591255;-0.17422715;-0.027279591;0.202288;-0.28373748;0.0061721774;-0.19552216;0.24697594;0.06670741;0.0023418404;0.0052088187;-0.5383211;-0.010907172;0.52412856;-0.09158185;0.27967325;0.0025365078;-0.013929035;-0.045288824;-0.024853755;0.026889797;-0.122678556;0.30439636;0.46304065;-0.39040133;-0.38551024;-0.15506272;0.07807642;-0.17658101;-0.0036023834;-0.052796487;-0.028250936;0.042941485;-0.0051773363;0.0012641499;0.054940253;-0.017079176;-0.004062597;-0.0110395495;-0.17707536;-0.26218885;-0.18220545;-0.10538438;0.08430617;-0.3593784;0.004627514;-0.23105812;-0.1430283;0.01784786;0.11570062;0.008955545;0.107679896;-0.26643604;0.13549313;0.065959334;-0.2621504;-0.19576052;-0.027390597;0.10339285;-0.3651604;0.0025102403;0.10987428;-0.1894643;0.21613698;-0.21607538;-0.028712187;0.00061758247;0.027525615;-0.032669622;0.05042456;0.22292179;0.028164174;-0.01352742;-0.0069725164;-0.2002637;0.11982557;-0.022188457;0.009078681;0.31715155;0.02286661;0.2608386;-0.18981877;-0.18445612;-0.1845069;0.017791528;-0.012268619;0.042799354;0.09653065;-0.005952907;-0.2957992;-0.12951823;0.010476111;-0.01347215;-0.09530952;-0.012361036;-0.06034609;-0.0013848395;-0.011499659;-0.4485668;0.043874636;-0.049176015;-0.18777913;-0.03170922;0.12878478;-0.23765211;0.028053423;-0.28474206;-0.37516582;0.009624953;-0.10042376;-0.06866306;0.21778406;-0.1422498;0.011564786;0.23494895;0.011651567;-0.058693018;0.053331766;-0.0039193765;-0.1018236;-0.044038527;-0.008853769;-0.16994414;0.1376616;0.07827892;-0.10757093;0.019707127;-0.057017714;-0.01406671;0.1613386;-0.012073893;0.015864871;-0.18102588;0.014300602;0.01663183;0.24891208;0.029390525;-0.18366513;0.011037909;-0.25620034;-0.03936379;-0.0065503353;0.17438371;-0.003873102;-0.30946967;-0.10554851;0.040459353;-0.032170456;0.007732197;0.07654659;1.0066517e-05;0.028896078;-0.23530534;0.014208686;-0.20353714;0.21254353;0.07823371;0.27428094;-0.0041788816;0.15240629;0.1419075;-0.09568194;-0.20896682;-0.19279154;-0.20747568;-0.015029901;-0.015709043;-0.006526793;0.30197823;0.1953005;0.2105422;-0.014370885;0.13203256;0.13592562;-0.07093101;-0.016293706;0.0039007906;0.03634862;0.26901418;0.3090911;0.059307445;-0.009344197;-0.0060247225;-0.23484157;0.07264826;0.012899706;-0.14841412;-0.15405297;0.003261566;-0.21569277;-0.005753365;0.22604403;-0.0919443;-0.1031998;0.34531862;0.009001968;-0.06740439;0.01250809;0.43158594;-0.011154661;0.19476579;-0.017573519;-0.3770858;0.054781713;-0.009549832;0.09484361;0.4373919;-0.010801078;-0.39982784;0.012164316;-0.032102164;-0.0035464545;-0.2533792;-0.10718671;0.038336173;-0.065336585;-0.052790146;-0.14313835;-0.12719183;0.0064753485;-0.28475627;0.0030472423;0.32775715;-0.26416707;-0.1512388;0.050418664;-0.023841295;-0.09690963;-0.18925458;0.04303064;-0.011240459;0.2748162;-0.19825725;0.05664138;-0.20134099;-0.1567351;0.02682477;0.025719378;-0.017156394;0.005335363;-0.0062459917;0.0006420051;-0.024969252;-0.008200064;-0.005190064;0.16414414;-0.0017185598;-0.01565673;-0.011076069;0.017445546;-0.1920584;-0.010628469;0.30735415;-0.15739936;-0.19525106;0.17698066;0.020170592;0.0070786546;-0.09008838;0.046496164;0.004834021;0.23745668;-0.27217528;0.12978028;-0.55246395;0.013474597;0.012837307;-0.0084475465;0.33375776;-0.045857582;0.102384165;0.010526968;0.26881936;-0.011051399;0.0010350449;0.008398196;0.08792262;0.0024540904;0.031117626;0.15631336;-0.0007667094;-0.0004134372;-0.09020039;-0.024950951;0.05197564;-0.03125252;0.24616793;-0.09816603;0.06915472;0.0058501805;0.0070780134;0.065865695;0.1301578;0.21814618;-0.14315945;0.12552817;-0.17719984;0.032543316;0.004676447;-0.00016267238;0.07702234;-0.23708194;0.15500717;-0.005476544;0.016868524;-0.046991393;-0.0022314356;-0.0146151595;0.11027074;0.049253773;-0.00782998;-0.18009268;0.008475841;-0.09504099;0.29081255;0.013600419;0.1106788;-0.17604989;-0.005544251;-0.10675962;0.0007599481;0.058221523;-0.29330087;0.007512706;-0.0018433486;0.011112464;-0.051200643;-0.03933106;0.060234345;0.093596764;-0.012117361;0.15172976;0.11685504;0.021892529;0.06582732;-0.060787108;0.000933336;0.12223783;0.104251444;-0.0077196388;0.013557262;-0.20635247;-0.4207599;0.017208472;0.0859883;-0.08597348;-0.42736015;0.059427496;-0.22274335;0.017818205;-0.25516102;-0.011448764;0.0077274595;-0.18656142;-0.009899821;0.042668626;-0.3627156;-0.015523421;-0.13544913;0.0037458553;-0.67307734;0.02445549;-0.19789912;0.09013162;0.20316008;0.0056171087;0.0005760591;0.0037295106;0.03942609;0.004054018;-0.040541448;0.018504463;-0.30658737;0.11010927;0.04993592;-0.16822466;0.02399382;0.1854646;-0.12258591;0.15807971;-0.008829398;0.2897789;0.0028710908;-0.2368716;-0.08047515;0.015575799;0.0076649413;-0.17817327;0.0075179455;-0.13781032;-0.003216918;-0.004656009;-0.020043496;0.011267824;0.012122433;0.041356746;0.032567076;0.0021289247;0.26201636;-0.03756785;-0.354755;-0.12788482;0.014072785;0.07630951;0.121114545;-0.057179354;-0.0010004363;0.37253603;0.010726371;-0.009670623;0.2408741;-0.0018363325;0.08362916;0.0059114685;0.12197754;0.006464455;0.002784331;-0.21816227;0.009476265;-0.04660974;-0.19598025;0.15229967;0.006076372;0.011790031;-0.08317429;0.102224335;0.16047645;-0.2962591;0.019504268;0.036573634;0.01040139;0.14731857;-0.03891211;0.027090859;-0.116726935;-0.0064510996;-0.06151497;-0.2957348;0.35189077;0.33653516
0.18853256;-0.25657564;-0.2648099;-0.09292882;-0.11306159;0.00827269;0.21097422;0.026213584;0.10598431;-0.01940545;-0.052189723;0.16500813;-0.00544891;0.06329363;0.014706586;0.14226909;0.008561925;-0.08794026;0.0012317591;-0.12708922;0.038201477;-0.22674452;0.10096669;0.16406964;0.15020777;-0.08088638;-0.029485414;0.030850252;0.010845934;-0.0028764168;0.07875143;0.16517042;-0.32560122;0.0032111108;0.0030776572;-0.015327232;0.060181692;0.1526993;0.05166835;-0.06640836;0.062109027;0.006657205;0.12868144;-0.23858489;-0.08013476;0.13926053;0.02874052;0.004306323;-0.0032564749;-0.047784146;-0.4329828;-0.016506277;-0.11516847;-0.2644181;0.0075136307;-0.0051788436;-0.3595931;-0.023015391;-0.12501751;-0.09126295;-0.005506798;-0.045918632;0.008934851;-0.14732757;0.19697082;0.1112691;-0.14137465;-0.21360338;0.0022074934;-0.14104201;-0.17323661;-0.19151352;-0.11232343;-0.18894643;0.022848615;0.33469108;-0.07327019;0.037378304;0.096303225;0.00042169652;-0.0067449515;0.0059439796;0.05756681;0.19770388;0.011584421;0.09260411;0.41988906;-0.016235499;0.0008988852;-0.7685576;0.07685324;0.03302959;-0.008421736;0.011111172;0.00037980083;-0.026631517;0.0021938689;0.04696528;-0.060831964;0.029795818;0.14550063;0.00015210641;-0.009213963;0.12520975;0.038818657;0.014169737;-0.40874174;0.008857168;0.0060205786;-0.01531177;-0.21791168;0.11589702;-0.004857405;0.07069198;-0.0046126265;-0.044670798;-0.17323531;-0.15551971;-0.112542845;-0.028462524;0.028152935;-0.008089559;-0.1261211;-0.47710237;-0.2419543;-0.12518397;0.26242244;-0.2828122;-0.013734702;0.009037011;0.094487235;-0.1957923;0.00911462;0.2580893;0.019498568;-0.0044174315;-0.015629865;0.0060108756;0.030269181;0.05430106;-0.24969341;-0.0018727073;-0.27810684;0.165124;0.20050338;-0.010888107;0.0048766285;-0.51708275;0.011927654;0.36092377;-0.18691781;0.22711779;-0.046674613;0.020887775;-0.17842014;-0.12676099;-0.020798923;-0.014240558;0.23094241;0.17457156;-0.18150389;-0.35178038;-0.10087026;-0.03288863;-0.0870362;0.0065591102;0.034527745;-0.022020208;0.0036575636;-0.0033871797;0.008203261;0.16724071;0.023921765;-0.031528167;0.005513662;-0.10824057;-0.34367022;-0.24732605;-0.068869434;0.2708429;-0.08163311;0.024917599;0.005210795;-0.16645086;-0.00316001;0.15796728;-0.016926194;0.18088476;-0.38273326;-0.027170887;-0.21164495;-0.33384544;-0.2538173;0.2707557;-0.012347021;-0.22149624;-0.0070095696;0.22553496;-0.30813998;0.13804694;-0.062480092;0.016794233;-0.0013486721;-0.018947726;0.06418017;0.032605983;0.36285812;0.33514944;-0.13551664;-0.007925939;-0.21781157;0.12237665;0.0129389;-0.000755896;0.2364199;-0.04052339;0.09203375;-0.27666396;-0.21784677;-0.24099629;-0.048182074;-0.110432506;0.10641834;0.11377454;0.02229886;-0.18533854;0.04358028;-0.019027386;-0.0013497223;0.14138132;0.017860793;-0.095176525;-0.017635144;0.010026997;-0.41205594;0.0031357266;0.05617558;-0.5057623;0.0058143907;0.09792786;-0.11704244;-0.13221459;-0.17786546;-0.49275598;-0.021535229;0.20983605;-0.011511723;0.10203828;-0.115694344;0.008330794;0.19198792;-0.011412563;-0.07103341;-0.1540241;0.006960151;0.0039386344;-0.030705173;-0.00554262;-0.09150107;0.06980544;-0.13970755;0.09164879;0.06665163;-0.03108651;0.02003952;0.05194376;-0.006167662;0.019611701;-0.013396884;0.0015036024;-0.013358907;0.20346959;-0.12694025;-0.059224725;0.0072228755;-0.12814179;-0.035413694;-0.006410861;0.2644715;0.022830093;-0.034633648;0.20036773;0.0469549;0.31159496;-0.0077617792;0.056814432;0.013422046;0.00521547;0.025560739;0.0037749335;-0.22578381;0.09924867;-0.028187482;0.54690593;0.00730918;0.23413716;0.065913886;-0.17660686;-0.1253727;-0.10590826;-0.2934585;0.009856691;0.0049244976;0.010662557;0.3322698;0.1944551;0.062311906;0.015062929;0.12836793;0.083153464;-0.035526264;-0.17464027;-0.005209714;0.21925063;0.09806752;0.21685383;-0.12749064;0.012172758;-0.0030346005;-0.3859605;-0.049326673;-0.014968402;-0.08049084;-0.25689736;-0.0010748103;-0.32136726;0.023354085;0.055737562;-0.1393046;0.06405825;0.3144905;-0.008889021;-0.16620517;-0.18269125;0.57108545;-0.0017249635;0.17896503;0.11595948;-0.45008534;0.14554942;0.0014753086;0.078263536;0.06036346;0.089285985;-0.21944332;-0.009512324;0.016394962;-0.024439182;0.02349753;-0.17194062;0.19429342;0.03546036;0.04940443;-0.14849082;0.0211847;-0.0006145962;-0.4221801;0.013447099;0.15258928;-0.15468733;-0.052766465;-0.078194305;0.014236931;-0.05227013;-0.13273802;0.06643265;0.019043256;0.093113884;0.07784765;-0.05726555;-0.1861708;-0.38083702;-0.0076446724;-0.020823129;0.0136563955;0.0020282632;0.004383628;-0.0071165483;-0.03303854;0.006739885;0.02557534;0.5004167;0.005503712;0.13176404;0.0020144873;-0.0152941765;-0.059040394;0.09207008;0.29883757;-0.03442358;0.041665133;0.07681538;-0.17723386;-0.027212644;-0.14659683;0.026873175;0.017703993;0.24807651;-0.07704068;0.18888804;-0.21634668;-0.0070444876;0.05180922;-0.005585332;0.44362792;-0.014557875;0.09928167;0.009832875;0.27028608;0.002275672;-0.011289455;-0.0047827954;0.065177254;-0.015200118;0.077027164;0.048543736;-0.10484876;0.002007641;0.19985487;0.008022767;0.18067716;0.04468556;0.04501223;0.16559677;0.074644275;0.000348407;-0.00060464005;0.11153968;-0.1315146;0.22656018;-0.053387668;0.07582808;0.0033243143;-0.021689063;-0.020559778;-0.018232582;0.43681046;0.074248016;0.32281896;-5.858874e-05;-0.0038255572;-0.0057784356;0.0013323987;-0.11331368;-0.03614337;-0.33699438;0.0053018574;-0.061634604;-0.0023253693;-0.21017586;0.1277235;0.0037286435;-0.044135943;-0.07404278;0.0057260497;-0.22282906;-0.019721705;-0.10139861;-0.3562424;-0.02651654;0.0020923454;0.0033292493;0.0032750745;-0.025806583;0.09351706;-0.013835036;0.0014389245;0.20196071;-0.08571101;0.051731344;-0.048899174;0.022281883;-0.003447211;-0.14444;-0.069098756;0.016464842;0.005337824;-0.21830188;-0.4977583;-0.026110427;-0.19134127;-0.34897763;-0.1645588;0.06572791;0.030684138;-0.016506774;0.19802067;-0.35362035;0.0021817791;-0.19259995;-0.0068077077;0.20016965;-0.29517525;-0.062779665;0.11352091;-0.0097981775;-0.42950943;-0.009584045;-0.16046087;0.29269543;0.39173803;-0.00024745517;0.0067198155;-0.002471245;0.20638795;-0.0075170845;0.12511545;-0.016038505;-0.4105931;0.15591732;-0.19900522;-0.25944456;-0.14045483;0.21544734;-0.008641407;0.21318674;0.015271573;0.34323174;-0.0057314173;-0.06873626;-0.057012774;-0.00889438;-0.005722142;-0.014934793;-0.024584854;-0.15142174;0.014942264;-0.006826245;-0.0020586408;-0.027459133;-0.020278154;-0.22468796;0.13463202;0.01194045;0.23182854;-0.004707876;-0.11890888;0.107711285;-0.0025317513;-0.23743956;0.024447171;0.17280929;0.004628788;0.24247034;-0.018968198;0.0018966149;0.24009922;0.00080048037;0.073003896;-0.008609788;0.05102369;-0.013723479;0.004301977;-0.011321202;-0.015807461;0.02283036;-0.37763363;0.124512896;-0.017959228;-0.019006284;-0.11175316;-0.063003264;0.07434546;-0.28425357;-0.029574357;0.07657695;-0.01192781;0.004219033;-0.0061195004;0.14179818;-0.040652044;0.009899326;-0.16259597;-0.3674344;0.14819057;0.33703822
0.19832961;-0.2895445;-0.032259587;-0.08962363;-0.21335673;0.0017155297;0.15532944;-0.038364094;-0.19416095;0.009124445;0.09029974;0.21475363;-0.006071939;-0.034965627;0.02378203;0.13580069;-0.0020796817;-0.30770501;-0.0007564401;-0.2025653;-0.06871467;-0.22668085;-0.09565711;0.10684722;-0.017609544;-0.055467453;-0.4068508;-0.1621588;0.004384721;0.001785245;0.016089883;0.07604409;-0.22266059;-0.007884918;-0.005409063;0.15381885;0.042023588;0.053807862;0.076568425;-0.18013875;-0.0568222;0.0053409943;0.24804722;-0.4318841;-0.0066690994;0.100278996;-0.01874351;0.11181221;0.00079099764;0.13112606;-0.19886474;0.011229706;-0.14332893;-0.16827074;-0.0070548854;-0.0019457513;-0.4933637;0.012544115;-0.0030486411;-0.11925879;-0.029417058;-0.18001296;0.007154134;-0.092685275;0.29941168;0.20321232;-0.11543967;-0.3028729;0.0078905625;-0.17353757;-0.11974707;-0.22627771;-0.038477715;-0.009596666;0.11682198;0.165467;-0.114341274;0.16094661;0.09214483;0.0019187474;-0.003081034;-0.014006525;0.0035048572;0.09927255;-0.022625854;0.0663198;0.5828398;0.01555624;-0.0069488296;-0.6578322;0.036140706;0.07335705;-0.016117597;0.0071224277;0.004207801;-0.017831555;-0.0071298126;0.017826598;-0.05046496;-0.048825007;0.12430506;-0.019403726;0.0016723741;0.21062198;-0.15382181;-0.015541344;-0.27319488;0.011807781;-0.007641615;0.013473189;0.15897788;0.10460464;0.09889718;-0.043410216;0.0034539695;-0.045031626;0.08215855;-0.054376014;-0.2125607;0.11587795;-0.08040785;0.0014473518;0.04458616;-0.33597893;-0.26354355;-0.16687572;0.22699119;-0.3484064;0.0925517;-0.018359559;-0.064814955;0.16375224;-0.003523633;0.18405;0.0045626266;0.024002252;-0.025375437;-0.119654;-0.02714822;-0.07479816;-0.13750933;-0.010996214;-0.13916208;0.27486715;0.09228983;0.021471309;0.006711285;-0.53463316;-0.002821422;0.13558097;-0.072251104;0.26261005;0.07216415;0.0035778226;-0.085051626;-0.36077768;-0.0022538402;0.13988295;-0.03697074;0.23493855;-0.13290517;-0.11388546;-0.20317923;-0.032015905;-0.1582861;0.000118759344;0.045828883;-0.09100125;-0.08871313;0.016930353;-0.0038518468;0.09711704;0.0014141999;0.031043567;-0.0018228341;0.1261492;-0.18749796;-0.27969807;-0.17161359;0.2418205;0.10286131;0.075276755;0.2367249;-0.13039805;0.004872513;0.16399772;0.009230104;0.45468768;-0.27957454;0.076520324;0.0050697187;-0.009151622;-0.07048036;0.08383137;-0.13542998;-0.34399956;0.00027372033;0.10669205;-0.15533468;0.13407168;-0.090171695;0.014543135;0.004857946;0.0065863593;0.11195026;-0.28885487;0.32938695;0.46815324;-0.29550746;0.008054281;-0.31515697;0.024419563;0.0068722856;0.003027268;0.211931;-0.089570425;0.10842857;-0.08981048;-0.16205914;-0.14002953;0.1767166;-0.08029286;0.27935538;-0.028868737;-0.020795122;-0.23504841;-0.052769937;0.014477118;-0.018062543;0.22083598;0.0797026;-0.020044193;0.011093192;0.009693145;-0.5070963;-0.016899776;0.22145218;-0.65852344;0.013888502;0.26616773;-0.45992392;-0.009875356;-0.0774793;-0.14875376;-0.0024934446;0.0590296;0.08025168;0.15889485;-0.07277439;0.0045992155;0.1309332;0.010699986;0.065355;0.12052937;0.001730841;0.038285453;-0.0012302088;0.009348822;-0.026917389;0.08740694;0.025785245;-0.05729489;-0.00032513367;0.014201387;-0.007847716;-0.24496768;-0.001992082;0.0025121514;-0.066919245;-0.014232209;0.012648947;0.37226674;0.0052118064;-0.056138817;-0.009917336;-0.10670574;-0.072064884;0.002628138;0.2800786;-0.017253619;-0.075760715;0.06043648;0.09389567;0.32843643;0.003451284;0.091551304;-0.011686774;-0.10321486;-0.058195315;-0.009868558;-0.11741193;0.0490482;-0.23218982;0.41702124;-0.0020556983;-0.0116610965;0.06801017;-0.06163442;0.02453986;-0.16053739;-0.33217564;0.026171433;0.006170873;0.014444811;0.025694685;0.18222612;-0.2148547;-0.015481938;0.059611205;0.043212693;-0.24814776;-0.22801633;0.009350696;-0.008240363;-0.11087675;0.2785566;-0.18300477;0.0040284;0.018281527;-0.4594169;0.31182292;0.012798563;-0.1812936;-0.09582671;-0.007838917;-0.15775473;-0.013786617;0.076393954;-0.19002241;-0.02761797;0.3593604;-0.008583213;-0.16829605;0.0071591;0.4415503;0.015856963;0.14846872;0.026111057;-0.5738256;0.17702588;-0.013147409;0.18477254;-0.087841876;0.043622795;-0.14037646;0.0072861803;-0.006893333;0.0076406356;0.050432645;-0.10934499;0.2214893;0.08236989;0.096775524;-0.3901906;0.092675425;0.0035528054;-0.27843204;-0.015248839;0.016544767;-0.080067396;-0.15102914;0.011972756;-0.0050409148;-0.23260348;-0.13449548;0.1724541;-0.004553659;-0.04900994;0.06308411;0.07957383;-0.01668057;-0.5069484;-0.0021571268;0.024254713;-0.01154352;-0.0033186807;0.0060405526;0.009087029;-0.017105805;-0.012575612;-0.011560824;0.19246747;-0.0043330584;0.18049328;-0.0011595947;0.004250459;0.32514703;-0.1104205;-0.05383725;0.070960596;0.04723351;0.024183623;-0.09055485;0.02480187;-0.34740895;0.14584577;-0.015753487;0.07740218;-0.042796545;0.033842094;-0.16623874;0.004719452;-0.044261716;0.009291381;0.48249826;0.23533177;0.09613898;0.0023233234;0.24273318;0.0008242348;0.008139117;-0.0033699905;0.14372995;-0.017179623;-0.10411156;0.29725793;-0.21557769;-0.00462877;0.06420726;0.00848129;0.06765133;0.11896493;-0.16162011;0.31083536;0.030371856;-0.006080012;0.0044327755;-0.11454534;-0.49091798;0.20766719;0.14129475;0.008527697;0.036827836;-0.0066809207;0.011383059;-0.096670896;0.32687098;0.33412445;0.17202564;0.008969535;-0.0093651265;0.0600613;-0.0062562893;-0.19591457;-0.07671273;-0.41730127;-0.008992938;-0.024665538;-0.005716058;-0.1480803;-0.038145393;0.0003610965;-0.111533016;-0.040838055;-0.0002822228;-0.20521314;0.01037956;0.13031597;-0.13514328;0.027943106;0.003411867;-0.0014971218;-0.11616292;0.064753026;-0.13217527;-0.09105926;0.018974952;0.21681409;-0.055741362;0.08484413;0.07768147;0.22400323;0.0014835766;0.061501514;-0.1262827;-0.013569753;-0.0073713697;0.018219886;-0.17261572;0.022938427;-0.11953657;-0.4454192;-0.3096271;-0.16575278;0.025146337;-0.0032062526;0.30962026;-0.42306376;0.0006995733;-0.26929483;-0.011128269;0.06685307;-0.17216311;0.005791637;0.31517723;0.01772428;-0.3144753;-0.007847911;-0.036877353;0.6023868;-0.11269243;-0.019656481;-0.0020935042;0.009907152;0.18262656;0.016115835;0.07705955;-0.004672332;-0.38927862;0.10730112;-0.3340651;-0.23085874;-0.16961224;0.1087642;-0.026409721;0.17156222;-0.0035540909;0.325902;-0.0014637578;-0.16033936;-0.23150617;0.019279402;-0.004630049;0.057478376;0.0016473464;-0.19005106;-0.015918128;0.014519859;0.005055055;0.028296847;-0.0022607618;0.020194214;-0.085578315;-0.013252662;0.26132905;0.010962822;-0.24951258;0.10978942;-0.0043811426;-0.21824066;-0.054554258;0.09974907;0.008409822;0.07197772;-0.010326552;-0.0025459102;0.45280883;0.0011159217;-0.06595718;0.012410909;0.09170693;0.010518547;-0.006733574;-0.3499649;0.0062471586;0.18470956;-0.12479587;-0.08299005;-0.00018036643;0.016785055;-0.14229806;-0.057158273;0.16186556;-0.18939729;0.023525583;-0.051129572;0.011514345;-0.14870833;-0.4286566;0.018891493;-0.20402826;-0.012484127;-0.23881128;-0.2775015;-0.04597416;0.37723875
0.17336346;-0.19168432;-0.17179835;0.0108681405;-0.31443784;-0.0018724854;0.03465535;0.006379002;-0.26197538;0.023942556;-0.042091176;0.04630369;0.017222086;-0.011266323;-0.1324125;0.16453256;-0.0011534453;-0.26423016;-0.011883458;-0.44314685;-0.14801924;0.022649096;0.021451509;-0.009545147;0.13234942;-0.0909726;-0.33370528;-0.1686557;-0.00086805044;-0.0060827695;-0.14328691;-0.110603884;-0.21134865;0.010019984;0.0022000563;-0.11985839;0.13776556;0.015784035;-0.070712574;-0.0056077912;-0.1979276;-0.00496253;0.25968716;-0.27351078;0.021127649;0.006476379;-0.00014758956;0.09175354;-0.011462717;0.0069669066;-0.08093171;-0.015752707;0.15459606;-0.11229996;0.0054296996;0.012500379;-0.38837972;-0.014165482;0.33288372;-0.006044451;0.034010462;-0.044852793;0.0038020802;-0.0115635805;0.20981252;0.16743876;-0.16769548;-0.2773126;-0.006408948;-0.25996813;-0.1657647;-0.24463557;0.13789712;-0.18173386;0.035098128;-0.20804688;0.000432056;0.08344107;-0.17891926;0.012912632;-0.013471593;-0.0031456104;0.021681437;-0.15166989;0.010567379;-0.07780811;0.28869313;0.003681566;0.02097571;-0.5176735;-0.029197928;0.20712437;0.013331571;-0.02185277;0.0013982693;-0.16170472;0.0041153333;-0.00865708;0.03846205;0.3085456;8.482702e-05;0.02598075;-0.0041045863;0.07929673;-0.035513468;0.0054048765;-0.0768342;0.006009024;0.015465626;0.009260301;-0.018577786;-0.08776925;0.22190356;0.026910495;0.0049568443;-0.32739893;0.11787447;0.022287026;-0.26947752;0.46664646;-0.2633522;-0.010339989;-0.108884245;-0.38452053;-0.30584466;-0.008218022;0.34489086;-0.1426161;0.3270324;0.011095686;0.03181922;0.1593858;0.012465653;0.21612878;-0.005976803;0.06747431;-0.10583939;-0.13748708;-0.09435346;-0.20728667;-0.09323271;0.017219603;-0.040498573;0.39881378;-0.07298859;-0.024600713;0.013730208;-0.4859381;0.009538528;0.33729142;0.09702395;0.29287723;-0.04966255;0.0066363947;-0.15316215;-0.33631298;-0.013701506;0.22694755;0.014293601;-0.06922426;-0.072722174;-0.029182002;-0.12552626;-0.15414597;-0.085791536;-0.0073502436;-0.0022944298;-0.13622281;-0.07356055;-0.019061629;0.0123480745;-0.030645054;-0.008943666;-0.013755207;0.009282325;0.11713477;-0.17123832;-0.21828093;-0.2932889;0.30987906;0.21002436;-0.025921911;0.2135406;-0.14818905;-0.0011232421;-0.08396139;0.0057264087;0.3748405;-0.3817988;0.048834383;-0.031597137;0.13740471;0.15690649;-0.042185836;-0.029138528;-0.44640094;-0.0058309576;-0.028068954;-0.09093221;-0.025571043;-0.05221282;0.00069835654;-0.007930465;0.0055601858;0.12678811;-0.17012306;0.19322465;0.44270578;-0.0135367755;-0.004575423;0.015451898;0.014066605;0.00036995413;-0.0011712128;0.0346222;0.061777852;0.027864309;0.09620256;-0.005608088;0.058429245;0.09861087;0.040187392;0.21581924;0.15726243;0.015671318;-0.20707016;-0.34976944;-0.005922111;0.03159049;-0.09539775;0.0653556;-0.050574698;-0.005818227;-0.019165874;-0.38399878;-0.045981538;0.2833617;-0.27889225;0.015051264;0.35175654;-0.6542657;0.0067033735;-0.12120382;0.06523749;0.035075027;0.136821;-0.0063323905;-0.097476475;-0.005146233;-0.008176705;0.23901682;0.0010515086;0.10711402;0.07797265;-0.013322489;0.028392233;-0.13165005;-0.0044446527;-0.04187479;-0.050641026;0.079968706;0.13556457;0.09486909;0.19948928;0.013398424;-0.33635446;0.00028248012;-0.00027785907;-0.19514695;0.0028664262;0.010815621;0.39187503;0.054717675;-0.047541354;0.00846889;-0.11536205;-0.21553634;0.013768473;0.15619822;-0.018179568;-0.22684589;-0.14645575;-0.03439696;0.23670523;0.0072749592;0.037565276;-0.006507728;0.037697405;0.042666495;-0.0042047864;-0.038113795;0.10331;-0.08190821;0.33361456;-0.005275154;-0.046019424;0.119657695;0.23886913;0.10999284;0.047228906;-0.52062017;-0.014870709;-0.020725206;-0.0209619;-0.3584957;-0.019537857;-0.27187273;9.844904e-05;-0.048205253;0.1935172;-0.4746039;-0.07408273;-0.007295044;-0.05436442;-0.18676522;0.43573934;-0.09547352;-0.0043238145;-0.01666107;-0.44276935;0.1545807;0.00608413;-0.14886792;-0.16061373;-0.00575148;-0.04890039;0.0134755;0.0076835095;-0.0529345;0.01052019;0.14198788;0.012177549;-0.25486135;0.035546046;0.23534538;-0.0035961964;0.13970086;-0.23247823;-0.6300923;0.012077178;0.022354342;0.13266344;-0.27249163;-0.1822329;-0.10300187;-0.021245558;-0.012876254;0.017243689;0.18694155;-0.0092492625;0.16174662;0.17374903;0.29039147;-0.31632388;0.13244973;0.0174473;-0.060438074;0.007906806;0.1797492;-0.08933259;-0.19592142;0.18414028;0.0018266077;-0.1706757;-0.1587251;-0.005918779;-0.007841954;0.03445404;0.17251186;-0.061429933;0.072377905;-0.37347153;-0.0048229643;-0.00911047;-0.0132441865;0.0046659173;-0.0005310696;-0.0007014585;-0.014501026;-0.022455791;0.0021326598;-0.13751689;0.0009643959;0.05491453;0.0068974285;0.011448184;0.31677574;-0.07250547;-0.019273838;0.18479876;-0.035746388;0.06902283;-0.16798094;-0.021158388;-0.3281056;-0.013477051;0.023586007;-0.17983975;-0.30515015;0.14164743;-0.21900734;0.0016431521;-0.11292823;-0.0005785429;0.29481554;0.10163089;0.15531829;0.015784735;0.052918646;0.0054454845;-0.008882129;-0.009908134;0.1948715;0.03344884;-0.055037893;0.25450143;-0.04505604;0.009821198;0.00120882;0.0063176276;-0.1443262;0.13905954;-0.20016131;0.2141374;0.23308474;0.00097156514;-0.00131215;0.018378433;-0.5746365;0.23548143;-0.06140176;0.034483783;-0.13810629;0.017960178;0.003488692;0.15191846;0.45653647;0.21443658;0.20265442;-0.0025041348;0.0062475633;-0.11971916;0.014787388;-0.2212004;-0.10803014;-0.2900826;0.0034480186;-0.09136724;0.007848935;-0.081260614;-0.067195736;0.0062657273;-0.10892934;-0.027547093;-0.00052299444;-0.22118963;0.0055333087;0.14243016;-0.010419965;-0.029625159;-0.005694215;0.015139734;-0.29916248;0.24081112;-0.34032384;-0.1842723;-0.01628994;0.0833147;-0.0663595;0.04817664;-0.051661205;0.15859355;0.022464743;-0.008017199;-0.03390385;0.0054853936;-0.0020686756;0.14774373;0.12281854;-0.011552107;0.11740041;-0.30915436;-0.23108022;-0.06691056;0.04520329;0.0073532443;0.101189315;-0.37474838;-0.0034262724;-0.280245;0.006019008;-0.047859248;-0.13041897;-0.16454269;-0.0838487;-0.007559791;-0.22349551;0.016171401;0.13735427;0.47016677;0.06285221;0.005980856;-0.0029398738;-0.00052102626;0.07663944;-0.011191315;0.24700761;0.00768355;-0.3812317;0.09370411;-0.2597871;-0.17467408;-0.22700752;0.20502359;0.019553442;0.07990407;-0.0039612213;0.10547398;-0.00054429984;-0.21513723;-0.14637871;-0.02019939;0.0077331113;0.15786776;0.0021199328;0.10224599;-0.0016605995;-0.007923052;-0.021461494;0.0026927337;-0.1288098;-0.077568784;-0.039536647;-0.0013404496;0.09619102;-0.020901702;-0.34046498;0.14811097;0.0069414056;-0.14567669;-0.23198342;0.0680704;0.0018182141;0.27761465;0.0129885;0.0063247113;0.2667627;0.0025201987;-0.30534354;-0.019445006;0.15886638;-0.0050031026;0.008697858;-0.24273412;0.0066278707;0.1775322;-0.04979629;-0.0038498777;0.01569101;-0.0038352306;0.07382643;0.08228795;0.08542817;-0.1828627;-0.015301891;0.17243779;-0.017022839;-0.31256706;-0.31942105;-0.05306941;-0.23235512;-0.01015329;-0.08029473;-0.058261167;-0.0074961567;0.2376668
0.26221654;-0.097234845;-0.064639226;0.05076657;-0.39173153;0.00637659;-0.037080124;0.022038013;-0.19286987;-0.028429005;-0.2528822;0.19634165;0.0025614821;0.25990027;0.19676438;0.21610434;0.0010659503;-0.26697856;0.021625657;-0.34235176;-0.16359559;-0.015353564;0.029431807;-0.02391887;0.3215054;-0.15370056;-0.17732492;0.05654631;-0.020539802;0.004375394;-0.04825866;0.11338761;-0.21310996;-0.007869584;0.013388842;-0.15607037;-0.11001793;0.09332975;-0.008657176;0.013445579;-0.012204245;0.008670968;0.24827115;-0.37585285;0.17341006;-0.15781814;0.013857562;-0.057924032;0.0011759725;0.010038858;0.06966143;0.012264134;0.22979659;0.027393619;-0.01794268;-0.002224413;-0.31758857;-0.004467896;0.46860632;0.015588614;-0.011495502;-0.14123096;-0.0056802183;0.035479043;0.15144172;0.024868174;0.054915413;-0.14569454;0.013372758;-0.12160292;0.12981635;-0.15751176;-0.06866726;-0.37419218;0.10741466;-0.21776007;0.040596478;0.08642897;-0.13407847;-0.0074165016;0.012749463;-0.0012642986;0.050548922;-0.33346775;-0.016340787;0.28505415;0.18008654;-0.005390382;0.0059901145;-0.4347764;0.016733443;0.28934062;-0.009783035;-0.00800378;-0.0027430784;-0.16047789;0.0035776407;-0.023881655;0.03468438;0.09494625;-0.037320614;-0.0063223746;0.0117324395;0.3428081;0.07270203;0.005403843;0.10235194;-0.0041012364;-0.010046925;-0.015880216;-0.07551697;-0.040931974;-0.019771077;-0.18306482;-0.008523557;-0.33816934;0.18394078;0.19094707;-0.33836028;0.43796247;-0.27649307;0.010069103;0.016635517;-0.17205963;-0.39909637;-0.09475994;0.19802119;-0.08322877;0.08177734;0.0017280744;0.12995537;-0.026786622;0.0009063282;-0.057186417;0.0047790683;0.11606295;0.14684157;0.12566637;-0.04488266;-0.4514165;-0.11179523;-0.007149785;-0.22338168;0.38384682;-0.07769697;0.020974506;-0.023980046;-0.46891662;-0.015334187;0.08724831;0.2163021;0.06329418;0.016237633;-0.0022991796;0.08036248;-0.3509975;0.0077371537;0.1625394;-0.016048174;0.15605861;0.061125156;0.025247758;-0.14029682;-0.09162647;-0.13272999;0.013352326;0.015525108;0.011036463;0.025074959;0.009897777;-0.0133763105;-0.08719005;0.0023376776;-0.008340133;0.002887017;-0.10345264;-0.241787;-0.3742211;0.14250621;0.36336708;0.19082668;-0.06737504;0.08352498;0.10664611;-0.003932178;-0.5688535;-0.024693476;0.06380107;-0.3215357;0.038591042;0.03600801;0.00061884586;0.17098825;-0.1779527;0.07930814;-0.11212524;0.00043544266;-0.19155043;-0.096945524;-0.32845354;-0.13943255;0.00022475679;0.021745037;-0.016147612;-0.00031315594;-0.1588417;0.23586416;0.27737835;-0.09196222;-0.013774263;-0.009442577;0.060295902;-0.0035643426;0.0001029866;0.030812845;0.020481877;0.07829325;0.045699213;-0.08061653;-0.038254444;-0.1598539;-0.20634384;0.09705375;-0.0048660142;-0.01593796;-0.28550854;-0.31212574;0.0058112578;-0.019313393;-0.078575015;-0.007458598;-0.2181451;0.013276277;0.02140218;-0.48839453;0.11121397;0.12811539;-0.42665944;-0.01692642;0.200009;-0.51584774;-0.019108683;0.23130125;-0.11020239;-0.022715548;-0.12220293;0.14664443;0.084830396;-0.058136683;0.0043273563;0.08073433;-0.01564479;0.18090653;0.23602024;-0.00403013;-0.024087816;-0.20719777;0.0077329935;0.27862746;0.05736069;-0.060336024;0.0057527176;0.018315554;0.1019337;-0.0045078434;-0.3885869;0.011082681;0.02216012;0.13840987;0.012273588;-0.039198097;0.26172125;0.094843976;-0.01580532;-0.013039603;-0.065957494;-0.110914;0.005800859;0.2910845;0.02242026;-0.18907563;0.16366173;0.16062772;0.026212396;0.0020250122;0.39083803;0.0070985714;0.0871363;0.023066228;0.007951228;0.20829162;-0.0032463036;0.06312054;0.14559588;0.007272326;-0.20193025;-0.00047147702;0.12792996;0.20559764;-0.06941576;-0.43349206;-0.020407408;0.015449578;0.01590571;-0.20926759;-0.130753;-0.22949407;0.006759359;-0.1059675;0.04760789;-0.30006245;-0.2074762;-0.003088536;0.10874846;-0.02966635;0.41613352;-0.031179378;-0.0154075995;0.00033575512;-0.17056765;0.20924637;-0.0072461786;-0.12348781;0.027120937;0.012221174;-0.05618342;-0.015780348;0.3718311;-0.16162045;0.06211233;-0.17353381;-0.00800584;-0.2850445;0.07511846;0.16621462;0.00018140479;0.13439259;-0.09919605;-0.24247581;0.21719128;0.0019564654;0.21231632;-0.11091542;-0.05729321;-0.015902381;0.013901038;0.00077016343;-0.021865303;-0.08775358;0.052845795;0.23723689;0.032076135;0.13162048;-0.09031031;-0.014350353;-0.016172353;0.125268;0.0058972803;-0.117696166;-0.06685443;-0.12211134;0.18699269;0.0022469019;-0.08230292;-0.16147631;-0.17940956;0.011179816;-0.19219059;0.13659513;0.2406407;0.02412189;-0.42978293;-0.003423151;-0.010735466;0.022946216;-0.01095439;-0.0040002195;0.009003913;0.0029574442;0.007927724;0.008512501;-0.2760146;-0.009344388;0.04492485;-0.006686301;0.0032066621;-0.066730134;0.077332266;-0.01490973;0.029284626;0.054214362;-0.009918995;0.07532314;0.013550524;-0.16995017;0.027013114;0.0031539318;-0.13320874;-0.036555648;0.34350708;-0.11297078;-0.0014622906;-0.03366498;0.013277008;0.010907949;0.15207002;0.28654465;-0.031371284;0.14972465;0.010630965;0.009415831;0.021480652;0.03850499;-0.00071864156;0.2846369;0.24665014;-0.1654937;-0.0062156147;-0.053103484;-0.015103935;-0.33154342;0.38271335;0.021486666;-0.035465177;0.079856865;0.019707954;-0.0055826046;0.0517082;-0.3667416;0.16264926;-0.102496885;-0.15164258;0.037956644;-0.015741287;0.0028171134;0.028916035;0.040392082;0.11295067;-0.0063416944;0.0015462046;0.020644791;-0.18453485;-0.014426516;-0.056481667;-0.12638953;-0.3640166;-0.0071586217;0.07268956;-0.008842245;-0.19059528;-0.1310142;-0.023887113;-0.05968082;0.12962684;-0.018684091;-0.06360562;-0.0016560466;0.28793275;-0.17336881;0.0019938068;0.008691776;-0.0038723073;3.591305e-05;0.4223934;-0.3903333;-0.27520815;0.012570721;0.102202915;0.0011499303;-0.10324431;0.27354464;0.22935791;-0.02373394;-0.09227512;0.29897523;0.0068430933;-0.004542497;0.101543315;0.11116505;0.003945946;0.044611294;-0.11830659;-0.101691134;-0.011129308;-0.013076237;-0.0048216837;0.13056596;-0.24349906;0.009573573;-0.35682344;-0.004725503;-0.26313028;-0.112742886;-0.13762844;-0.13408244;-0.0043481532;-0.08597185;-0.012818986;0.008673624;0.19194332;0.3786684;0.00079693226;0.015143947;0.00091554184;0.032066584;0.011434514;0.4306788;-0.009798426;-0.25981185;0.08785601;-0.28431863;-0.13634977;-0.043584697;-0.06852137;0.004167901;0.116772264;0.011065529;0.019038687;0.008725462;-0.06461601;-0.10707884;0.01228828;-0.02539021;0.009561926;0.008012443;0.13971001;-0.0031870557;-0.02152763;0.07271809;-0.009952738;0.054226138;-0.21368884;0.070661835;-0.009483332;-0.05865966;-0.01537833;-0.36701941;-0.021718394;0.014875795;-0.11760841;-0.39874184;0.07795766;-0.00575112;0.27687818;0.0032870893;0.0028051746;0.059541453;0.004427713;-0.06860206;0.0034739804;0.26267618;0.011058447;-0.0076139127;0.17055325;0.00023190759;0.380689;0.13254268;0.010618571;0.003363365;-0.0016669072;0.04506295;-0.037081473;-0.09280106;-0.011692241;0.011443916;0.059841886;0.0031748216;-0.07797673;-0.1976014;0.33597952;-0.08520648;0.010879618;-0.11373692;0.08001654;-0.18958558;0.00046599883
0.1421443;0.22362337;0.038703445;0.24878095;-0.27773103;-0.007710218;-0.10628984;-0.033118956;0.13076156;0.03267696;-0.24131547;0.25126994;-0.014400772;0.24759558;0.21628374;0.2765498;-0.018900428;-0.05067587;-0.010726973;0.12836888;0.01936925;0.14570546;0.039671876;0.043516323;0.14766058;-0.21701452;0.11190726;0.17396855;0.0039477353;0.0057345917;-0.09377481;0.26503724;-0.115725406;-0.0067277225;-0.012242467;-0.034668896;0.14135793;0.14780414;-0.098774895;-0.060732033;-0.07987907;-0.013378638;0.23120049;-0.2562653;0.07943865;-0.17777376;-0.016115768;-0.09711162;0.004137115;-0.09396958;0.026958814;-0.011368703;0.1240931;-0.055380978;0.026301652;0.0030897607;-0.11438178;0.013904771;0.36028;0.15205158;0.0376828;-0.21399648;-0.010402386;0.04332101;-0.0052676033;-0.056867268;0.16493367;0.058758058;-0.017062878;-0.012025924;-0.055140026;-0.4344208;-0.25586808;-0.31176937;0.005865318;-0.3905997;0.19260734;0.18874629;0.014771402;0.028301436;-0.019736342;0.027304595;0.17934978;-0.14866495;0.0022471962;0.21494055;0.24054547;-0.0110124275;-0.0072071934;-0.36014622;0.058289748;0.47433972;0.0074323625;-0.044246193;0.004415012;-0.2877807;-0.011373018;-0.013056073;0.034443785;0.09906207;0.037688218;0.008676895;-0.0050477893;0.11201753;0.023610918;0.01364958;-0.015540893;-0.0097789755;-0.0055211755;0.021580722;-0.12384576;-0.0568814;0.023408994;-0.3675881;0.0100067565;-0.10749525;-0.09482582;0.08111314;-0.3496236;0.42221346;-0.2059046;0.009097522;-0.030879125;-0.0066450406;-0.6098141;-0.0013897843;0.047365382;-0.03042562;-0.048646122;-0.00085513724;-0.23024628;-0.028933538;-0.012695604;0.03659474;-0.0029696599;0.1952765;0.0780537;0.08059354;-0.11592122;-0.48906597;-0.016153168;0.010878071;0.03194334;0.45361263;0.06839425;-0.01230512;0.012408227;-0.42285752;0.008797998;0.21736543;0.046062104;0.025048858;0.0020342537;0.008322686;0.05305751;-0.21755998;-0.0002971207;0.14670393;-0.07030967;0.17710793;0.07302006;0.09615743;-0.33677304;-0.035298865;-0.09803678;-0.004131262;0.024133252;0.20843057;0.09737802;-0.013708479;0.0061007254;0.21353216;-0.026281206;1.3139165e-05;-0.0032830313;-0.06684347;-0.30712238;-0.36335763;0.031065222;0.30678606;0.29085544;-0.18332523;0.24827789;0.013834942;0.0037021535;-0.47942525;0.026245125;-0.114956364;-0.33098468;0.14039624;0.08000742;0.29855904;-0.0539827;0.04136646;0.18929556;0.08663994;0.0039229747;-0.006452368;-0.10092075;-0.1259576;-0.13138813;-0.0035804282;-0.007808662;0.022265907;0.069024734;-0.11041439;0.42034096;0.25330797;0.05077186;0.012421597;-0.07295704;-0.035361458;0.0002545835;0.004222662;-0.17761566;0.032289047;-0.11555388;-0.130871;-0.09633359;0.17229682;-0.123020254;-0.3212281;0.18045051;-0.037333153;0.013095172;-0.27461264;-0.46781084;-0.0011513507;0.03960192;-0.0077299164;0.0988251;-0.28637487;-0.010175538;-0.013273329;-0.5023489;0.14096071;-0.023172896;-0.1936953;0.0047217323;0.35164815;-0.26515236;-0.0039984607;0.13295843;0.05674411;0.011758105;-0.1985566;0.23463857;0.022229005;-0.186106;-0.008654591;-0.06821034;0.011044516;-0.25023326;0.4132967;-0.0012048315;-0.078544386;-0.08416424;-0.001755517;0.2539537;0.15073255;-0.014806899;0.0057312185;0.14500433;0.03404983;0.0009110811;-0.11509717;-0.01488899;0.011345892;-0.021592604;-0.008849397;0.03103391;0.23224789;0.015369545;0.031826004;0.0018523339;0.0233633;0.06806079;-0.0033399295;0.11622553;-0.017676651;-0.08344462;-0.1477951;0.0931402;-0.093989514;-0.010506403;0.32525262;-0.009248703;0.24348523;-0.2709809;-0.007358017;0.08519204;0.1160428;0.11453343;0.082668595;-0.0045423177;-0.18663278;-0.017008182;0.15487416;0.24118574;0.030551849;-0.19425705;0.019951107;-0.0018700574;-0.009613257;-0.4140536;-0.086434096;-0.23069675;-0.00162472;-0.28873122;-0.18738812;-0.27372348;-0.30070037;-0.014091493;0.009318733;-0.017528335;0.12960894;0.019176135;0.0141654685;-0.0029882386;0.06318788;0.083132304;-0.0035399885;-0.2906464;0.2739376;0.010742792;-0.22379592;0.01707874;0.34819692;-0.3100409;0.20751177;-0.14794545;0.013847522;-0.45704678;0.007907053;-0.18127136;0.0064586503;0.27927983;-0.21530128;-0.25111428;0.15287954;-0.00038000612;0.15919858;-0.064103864;-0.030742219;0.002821469;-0.008617029;0.003717261;0.03272538;-0.24044092;-0.006216384;0.031786796;0.27541655;0.09235781;-0.14157213;-0.089916214;0.023534356;0.09762337;-0.016814848;-0.1314601;-0.32156062;-0.18395106;0.23530465;0.0020960576;-0.033350263;-0.0828092;-0.33645698;0.0022515543;-0.31612745;0.18130122;0.07975821;-0.36897758;-0.45431688;0.006463473;0.005025234;-0.012246462;0.0018413602;0.009135888;-0.001477795;-0.02499761;0.06628953;-0.031124046;-0.23874962;-0.000114401286;-0.006001892;-0.004426864;-0.010275641;0.118674316;0.018795071;0.21633492;0.08888388;0.19472396;-0.010188903;0.1298471;-0.0073863477;-0.08592653;0.06999889;-0.028650459;-0.03578167;-0.308744;0.19829428;-0.3661521;0.0043500843;-0.024382653;-0.011022263;-0.29007587;0.22378151;0.13941514;-0.02512196;0.20171802;-0.0073209843;-0.0013709234;0.005730659;0.1472189;-0.0011800082;0.24276544;0.2951507;-0.19705707;0.0007382968;-0.31090823;0.009982707;-0.2541253;0.30770984;0.3774577;-0.025929697;0.2367426;-0.021913612;0.016731294;0.25931495;-0.24107103;0.11924355;0.016585043;-0.20113845;-0.042257953;0.012022995;0.009469033;0.028850049;0.10725086;-0.054880526;0.16160154;0.0037486302;-0.03357516;0.25414667;0.009179402;-0.03928633;0.11210104;0.16875078;0.014347073;0.05401254;0.010469736;-0.2146065;-0.085693836;0.0070911874;-0.16580237;-0.094219446;0.023652771;-0.15444991;-0.00024528045;0.4222076;-0.20362748;0.022375047;-0.014845089;0.0005481889;0.13947295;0.47044125;-0.5614034;-0.19038667;-0.016173847;-0.04658526;0.06065979;-0.083702035;0.47474343;0.11659586;0.015828837;-0.10080336;0.16419053;-0.006709449;-0.008692768;0.20062119;0.04301754;-0.0067757643;0.38765007;-0.26361716;-0.20873801;-0.07010542;0.21564032;-0.001124014;0.12630723;-0.41786852;-0.014099981;-0.12014281;0.005556558;-0.34050682;-0.14222123;-0.08230774;-0.14901619;-0.0007011879;0.005414649;-0.00041457269;0.014532805;0.078081176;0.21867031;0.021119302;-0.009092997;-0.021721497;0.11638049;-0.010091812;0.40180004;0.013093656;-0.25886968;0.21650496;-0.060217675;-0.07233389;-0.054241754;-0.03367686;-0.1329496;0.3877594;-0.00840841;0.035940886;-0.008100451;0.27147362;-0.011062441;-0.010984728;0.02962801;0.09503016;0.007171712;0.19853537;0.011199925;0.010215249;-0.054680675;-0.00085019576;0.13290061;-0.14939733;0.06112475;0.013581783;0.09175323;0.009607443;-0.13969356;-0.3126956;-0.018052995;-0.018429238;-0.09875474;-0.0027467178;-0.0018936924;0.31908804;0.005266159;-0.015241407;-0.14051478;0.013802781;0.094130665;0.0038610534;0.3432573;-0.009806187;-0.0023727918;0.002008881;-0.0017520079;0.25055653;0.26315132;0.32853138;-0.0038142854;-0.009613924;0.022158472;0.19656742;-0.13344121;0.122448675;-0.008018651;-0.17380874;0.012601427;-0.10860666;-0.18883574;0.23503393;0.07531634;0.0050773066;-0.062246718;0.08539708;-0.16718516;-0.16089219
0.29290542;-0.05766888;-0.19414559;-0.10195018;-0.4726871;0.0017345522;-0.24909876;0.024681097;0.203848;-0.012360608;-0.108365245;0.33340594;-0.00807176;0.096653506;-0.20073202;0.25911662;0.009547557;0.038672984;0.012408114;0.39132738;0.0060793506;0.14875007;-0.051626254;0.041065637;-0.059981156;-0.16970901;0.02466272;-0.024408072;0.013449772;-0.00094066316;0.0435855;0.039099984;-0.12765543;0.004420907;0.012194566;0.08554519;-0.30186698;0.17133783;-0.22443736;-0.13528988;0.0061937845;0.021962866;0.1755582;-0.085818;-0.015054248;-0.1981769;0.0213525;-0.11801081;-0.010175902;-0.13959931;0.008189991;-0.0044858884;-0.2810147;-0.086114526;-0.012764696;-0.0024258394;-0.18590261;-0.0071037295;0.12601802;0.040326912;-0.02515636;-0.1483757;0.0036448669;0.118970424;-0.38956273;-0.0412611;0.14844237;-0.11453979;-0.009572149;-0.06866115;-0.09973733;-0.2569151;-0.20333448;-0.2224013;0.015893096;-0.4139113;0.36122656;0.14468494;-0.3665184;-0.013877882;0.011778239;-0.0040946696;0.1769174;-0.020950567;0.0027564536;0.057630315;0.20064968;-3.567908e-05;-0.013579986;-0.28851902;0.09322879;0.080879286;-0.007832562;-0.00739531;-0.00045642676;-0.35111126;0.0137607865;-0.013038004;-0.10417362;0.010632466;0.18577527;-0.039358333;0.009129136;0.13953047;0.19150078;-0.012305256;-0.14350101;-0.007157828;0.010741023;-0.040153172;0.03730624;-0.18440863;0.09624953;-0.028913125;-0.00431818;0.058040697;-0.10525816;0.13489594;-0.15372458;0.4382505;-0.03908001;-0.00717048;0.14226788;0.027304986;-0.44717988;-0.029279158;0.13715447;-0.2669954;-0.0478276;0.007034347;-0.15071471;-0.12129341;0.009726379;0.025549185;-0.0044081393;-0.1108143;0.18016689;0.21361637;-0.20309354;-0.38247925;0.056453325;-0.016326344;0.026694456;0.4092159;0.07850828;-0.002183005;-0.0004518349;-0.4823927;-0.007079838;0.07356773;-0.3648487;-0.07093907;0.012996704;-0.010613811;-0.048097234;0.0077122794;0.0010247302;0.15492383;-0.015838202;0.03306456;0.019622022;0.056914296;-0.17749989;0.012289997;0.0056192963;0.0040568;-0.024372788;0.19569722;-0.29779604;0.009328528;-0.010794905;0.27219158;0.024575306;0.021472743;-0.0043972554;0.2952532;-0.11996431;-0.24203455;-0.025974156;-0.0019089625;0.3913791;0.025156716;0.2849398;0.26406562;-0.007753094;-0.2534703;-0.0093636885;-0.30138522;-0.42187276;0.14695576;-0.1485009;0.5055371;0.029382702;0.0835891;0.00062179257;0.17290387;0.013535522;-0.033903457;-0.08900433;-0.10764248;-0.18280794;0.0059578093;-0.00051622035;-0.0053750016;-0.13183463;-0.13503817;0.2941305;0.28157577;0.051636312;0.0059441566;-0.11753073;-0.18826437;0.0064637284;-0.00040577786;-0.13239302;-0.027706154;-0.23514442;-0.22331342;-0.25782135;0.13864735;-0.0036553422;-0.2864077;0.08979976;-0.19453752;-0.016309593;-0.22796838;-0.44439816;-0.019562485;-0.029116003;-0.055690516;0.04135058;-0.2008504;0.006074069;0.017159132;-0.41801155;0.05652572;-0.020795932;-0.14873147;0.014425198;0.24918506;-0.11612671;-0.23774907;0.22976401;-0.07933863;0.0052547236;-0.15246113;-0.0150143625;-0.13099444;-0.09503841;0.0034475937;-0.004460149;-0.007992597;-0.4475989;-0.011453369;0.010249786;-0.09743571;-0.12288396;0.001299426;0.25012386;0.15168527;-0.07523436;0.08624915;0.16544148;-0.29301175;0.0017079617;-0.3585952;0.009042133;-0.012205897;-0.072351255;0.015456686;-0.011573234;-0.1460396;-0.027810728;0.22737944;0.0055845478;-0.11102591;0.17440858;-0.0043466897;0.16491546;0.009773251;-0.15314402;-0.30294985;0.012296423;-0.2925246;0.014055359;0.28105435;0.002367666;0.15598823;-0.07385735;0.0031897293;-0.0694222;-0.032510404;0.07309839;0.24086504;-0.011638268;-0.10812926;0.10396012;0.027705211;0.08717239;0.011127067;-0.36949992;-0.01017346;0.009254091;0.016952831;-0.26501304;-0.13065295;-0.075873695;0.012070791;-0.45946148;-0.115608625;-0.09319616;-0.1802046;0.010949376;0.05405021;0.2650991;-0.18425962;0.09659457;-0.0045956657;0.009691022;0.033178058;-0.17829451;-0.0022992024;0.032019887;0.20448132;0.012009259;-0.1250636;-0.015902685;0.5225398;-0.1980731;0.109038495;-0.37081692;-0.014704572;-0.3661074;0.06858787;-0.08406121;-0.016354159;0.28018346;-0.020617507;0.08098777;0.18591034;-0.010751213;-0.22804005;-0.22290808;0.16231921;0.11211729;0.018375218;-0.0017222501;-0.01594893;-0.20831871;-0.105549015;0.10670938;0.17825657;0.07873159;-0.43867064;-0.08763378;-0.014485767;0.25767514;-0.0005127738;0.010158989;0.0110144345;-0.17379957;0.1640349;-0.0004211655;-0.10094076;-0.070098534;-0.1931977;-0.0087601235;-0.18350405;0.1450816;-0.117841505;-0.38628268;-0.4143652;-0.014595876;-0.019995429;0.0029300186;0.012165095;0.0007208883;-0.0013647997;-0.0044040573;-0.10265654;0.0059342575;-0.27028772;-0.008532572;-0.28075382;0.014343302;0.008488501;0.046479493;-0.045411684;-0.21198858;0.009627678;0.17942683;-0.009606843;-0.04243805;-0.0013154243;-0.22019842;0.08627788;0.028323442;0.19588442;-0.12556265;0.09091291;-0.31295446;-0.00058158435;-0.07626105;0.004958199;-0.20604476;0.2380174;0.11702016;0.009607283;0.04962331;0.0068785017;0.009081834;-0.0011055814;0.23996486;-0.0050581247;0.31124026;0.3455773;-0.027116193;-0.0062007285;-0.043958675;-0.008109671;-0.18096875;-0.055016965;0.26348296;-0.20385192;0.23477821;-0.0105127795;-0.017937409;0.2393129;-0.12666623;0.16376829;-0.08284825;-0.2780893;-0.20492569;-0.0023269271;-0.008823243;-0.13514327;0.014875822;0.19195485;0.22561482;0.0010823748;0.02771284;-0.026693352;0.011603665;0.07287519;0.2552039;0.32786563;0.0038623833;-0.18722005;-0.016057039;-0.22499709;-0.10388591;-0.008618316;-0.1428304;-0.1623635;-0.006787541;-0.11997798;0.009717093;0.11594019;-0.022344356;-0.0011153399;0.027697792;-0.01892161;0.09381066;0.36457437;-0.3329532;-0.32644123;0.003548694;-0.046071876;0.03839024;-0.012188695;0.42390135;0.12486242;0.012396677;-0.083260156;0.11166664;-0.0050774463;0.023583993;0.1659079;0.014951186;0.0010340537;0.49923554;-0.20991811;-0.24668846;0.12998562;0.3176988;0.028672958;0.0007150216;-0.4242325;0.003597263;0.107882686;0.026323674;-0.04088263;-0.1335765;-0.08472042;0.12923756;-0.0025935022;-0.046870306;-0.0017329068;-0.20696285;0.22015952;0.21299976;-0.0050086556;-0.019902268;0.02507474;0.21606384;0.0058858194;0.17295796;-0.010313568;-0.35661384;-0.23361713;0.1095504;-0.051560614;-0.029176226;-0.078985795;-0.123407125;0.19496822;0.013248388;-0.07922021;-0.0024650523;0.16558574;-0.08434283;0.0072710062;-0.010702267;0.094513014;0.009508343;0.23387396;0.013605919;0.014510472;-0.059099842;-0.016889488;0.0070260526;0.30512112;0.046053596;-0.006646095;-0.030292472;-0.03675749;-0.20896086;-0.46586716;0.02373823;-0.1969623;0.2117297;0.3140294;0.019970175;0.43886918;0.01159325;0.024423612;-0.056620795;-0.011000985;0.13593058;-0.00072700373;0.01095329;0.020688213;0.011782454;0.007822211;-0.0013678472;0.20855859;0.15844202;0.1729123;0.0044295597;0.01590513;0.057337027;0.19531955;-0.0323794;-0.0027309125;0.014319042;-0.10567663;-0.009386443;0.039798204;-0.33847702;0.31608334;0.056697678;0.01750314;-0.10518045;0.10296223;-0.18872045;-0.11850188
-0.022289496;0.009102976;-0.20081818;-0.19236064;-0.054599255;0.0036275159;-0.103359185;0.022983167;0.08430213;-0.023173658;-0.112001285;0.33260533;0.013786473;0.17857273;-0.06834816;0.24452563;-0.009612717;0.15035377;-0.02402088;0.56454885;-0.20877354;0.007469756;0.043062404;-0.04756512;0.12512022;-0.15681297;0.0066362964;-0.022280049;-0.0020273891;-0.008185934;0.052466568;-0.0146108465;-0.014342144;-0.00020025807;-0.018777039;-0.017811464;-0.14267445;0.090476885;-0.19264907;-0.19568478;0.103703335;-0.003994786;0.1123959;-0.07933267;0.20567577;-0.05102196;-0.011880667;0.0890509;-0.004377722;-0.052725695;-0.028832065;0.007246146;-0.24997571;-0.13815565;1.6854116e-05;-0.02274831;-0.15872343;-0.008921551;0.21622467;0.049847227;0.021719776;-0.35264844;0.0058707115;0.18924783;-0.19861878;0.12850547;-0.0077745635;-0.06554014;0.030717274;-0.13924076;0.11042263;-0.20814516;-0.05758021;-0.3381564;-0.04083865;-0.18203834;0.29618445;0.05572405;-0.3996708;0.00059794844;0.0025997313;-0.01421385;0.06946014;-0.0253867;0.023361996;-0.10389745;0.05826255;0.0013005292;-0.0054192543;-0.19292186;-0.038870763;0.079871416;0.0076456997;0.021118874;-0.008017772;-0.31588632;-0.009667617;0.010376718;-0.15270592;0.058203496;0.33792898;0.015350442;-0.008093103;0.08835856;0.17622705;-0.008182043;0.13113418;0.01125612;-0.020937601;0.036723074;-0.2222052;-0.058014195;-0.031944342;-0.24158603;0.016615806;0.05985315;-0.16074203;0.0817273;-0.11772001;0.09949565;0.07713232;0.0032346954;0.11496449;-0.1482994;-0.64787304;0.16556588;0.20037505;-0.027457004;0.12078214;-0.009526139;-0.1074013;-0.23659772;0.0026100366;-0.039662734;-0.009934956;-0.050948918;0.17931943;0.20240144;-0.24936111;-0.5269525;0.064013585;0.0046587326;0.11109062;0.32944474;0.039965916;0.005546391;-0.015526952;-0.31825843;0.011457821;0.033218283;-0.25326306;-0.101623334;-0.07712226;0.008198921;-0.09526843;-0.11334101;0.0014909803;0.26184714;-0.10916407;0.17880256;0.08242749;-0.07809969;0.010548887;-0.05555434;0.18238515;0.003867282;0.01351823;0.17591304;-0.124345206;-0.0021231365;0.012104863;0.19072762;-0.009521115;0.0072159353;-0.0043045892;0.20244531;-0.23833354;-0.15873328;0.08485595;0.24495998;0.32572404;-0.13364947;0.37918016;0.23292929;-0.0069233677;-0.4851029;0.023679506;-0.4535285;-0.4039339;-0.060944024;-0.26043773;0.12757935;-0.16512164;-0.0867691;0.22758836;0.097961016;-0.012794539;-0.09871119;-0.10791267;-0.06716343;-0.11988062;-0.014182522;-0.016370814;-0.00863889;-0.16976257;-0.15194944;0.2801745;0.19983992;-0.3744153;0.0067219418;-0.03976453;-0.21347663;0.0024128386;-0.0042688577;-0.33310577;-0.0012767828;0.011528791;-0.22027303;-0.14380404;0.13022007;0.22361162;-0.18059441;0.15558808;-0.080413975;0.0089911;-0.008483803;-0.31616282;0.0070681525;0.026928509;-0.19678001;0.041254085;-0.3365054;-0.0027626606;-0.0150483;-0.43017855;0.07161321;-0.10219625;-0.015585204;-0.017857056;0.11790332;-0.04389828;-0.15282433;0.12769035;-0.20186712;-0.01664388;-0.16968574;0.014482313;-0.27583474;-0.08193543;0.006896666;0.034755126;0.0055755507;-0.5487318;0.13031366;-0.0022901858;-0.09748206;-0.0915132;0.0074810577;0.07451797;0.15155032;-0.027495213;0.16478287;0.34663963;-0.013638642;-0.019034127;-0.34705734;0.0026504756;-0.024737243;-0.079325266;-0.02182761;0.011232786;-0.21651964;-0.23012336;0.2668777;0.0063186013;0.11657888;0.087686874;0.0018747285;0.21167098;-0.0029896465;-0.064388394;-0.12356484;0.010287669;-0.33457556;-0.011577537;0.164003;0.0051492187;0.20866755;-0.071322784;0.01199395;-0.09937134;-0.075182;-0.0775575;0.3815974;-0.0011912662;-0.05270634;-0.032578122;0.06904358;0.24159116;0.014009013;-0.45034587;-0.01528567;-0.023101345;-0.016384859;0.001844217;-0.09367118;0.10074246;-0.01047293;-0.39125347;0.26819327;-0.2874998;-0.27760634;0.009846503;-0.017740728;0.3834513;-0.2645544;-0.06521102;0.0020024783;-0.008346147;-0.12975259;-0.118382625;-0.0069374396;0.02682207;0.054845884;-0.010146297;-0.117400825;0.011662204;0.5180683;-0.2605291;0.1539107;-0.29498804;0.005653419;-0.4532963;0.32157508;0.023952192;0.007921704;0.027855499;-0.02083942;0.0005390717;0.10981373;-0.0021262667;-0.30273938;-0.15221488;0.321504;0.15921584;-0.009558406;0.004679051;-0.00087801367;0.19112806;0.19805634;0.083916865;0.1853911;0.05014947;-0.07149337;0.060393326;0.10555246;0.15507293;0.004604361;0.06286831;0.031795464;-0.21828912;-0.049927004;-0.00546325;-0.02599643;0.17187671;-0.15882166;0.0114917485;-0.11590721;0.04487474;-0.2627525;-0.23930493;-0.51365143;0.023726007;-0.0021917021;-0.0038907484;0.006168972;-0.009833859;-0.001573704;-0.074831374;0.02478267;-0.0006302197;-0.27201182;0.009579994;-0.40940478;0.016247781;-0.0093683135;0.13816004;0.036581077;-0.10597132;-0.32100877;0.065233305;0.106755786;-0.19457924;0.010583241;-0.009609501;0.097211435;-0.016632598;0.068170466;-0.20281014;0.0408084;-0.4244875;0.004002188;-0.21917346;-0.011507487;-0.20293376;0.18318069;0.20888771;-0.033642646;-0.02444631;-0.011863205;-0.0064705447;0.0030631218;0.046531085;0.004792068;0.07766727;0.23363853;0.17126834;0.0035184324;0.084631644;-0.0028887726;-0.05297891;-0.2179363;-0.4250875;-0.36040273;0.205742;0.013844479;-0.005849297;-0.07928586;0.0318088;0.0226274;0.07365744;-0.24630868;-0.257912;0.001842687;-0.013781762;-0.14325163;0.14877254;0.045078866;-0.024911202;-0.01685337;-0.025821049;0.026424523;-0.008248027;0.07665132;0.23424084;0.20937811;-0.01158514;-0.23794383;0.0064286287;-0.16040191;0.030309098;0.0055053853;0.110896625;-0.21095122;-0.008022949;-0.020375958;0.0007879712;0.012241188;-0.033509865;-0.007941583;-0.007747888;0.008659414;0.2319185;0.31806254;-0.20471074;-0.30983448;0.008450647;-0.19220033;0.0013008001;0.1648719;0.4503194;0.0005081028;-0.019071896;-0.1260784;0.18207952;0.015712557;-0.0075375447;0.14789703;-0.026424829;0.004592303;0.38502002;-0.31190646;-0.17234604;0.008449171;0.12088082;-0.035482958;-0.09017245;-0.4410469;0.0052984077;-0.035345465;-0.006988353;-0.18480316;-0.13522752;-0.17060593;0.14055254;0.011276694;-0.37932596;-0.005918649;-0.12402561;0.39454797;0.2626274;-0.014024005;0.02999077;-0.018765729;0.14119622;-0.00034697592;0.122336775;0.029365446;-0.32418755;-0.34094313;0.035532355;-0.011197646;0.02651767;-0.09094591;-0.25155568;0.06923355;-0.014090556;-0.063734174;0.0021757095;0.16009288;0.05199185;0.0016616655;0.009870697;0.16854782;-0.005622971;0.22003715;-0.011494728;-0.0075202957;-0.022469059;0.021649677;0.00688665;-0.058460098;-0.04923012;0.0024938337;-0.14885187;-0.0051950538;-0.21306896;-0.764839;-0.031824518;-0.15278785;0.067009725;0.27063334;-0.018917115;0.355166;-0.00790311;-0.017631462;-0.2799584;-0.009285519;0.12529321;-0.0077120746;0.09957751;-0.019992225;-0.01609073;0.018241143;-0.00074582355;-0.0036966915;0.04542063;0.24887456;-0.014551402;-0.01312127;0.0008622766;0.0029730063;-0.037326854;0.013711948;-0.017703641;0.04035792;0.012182836;0.22337702;-0.3596211;0.027990391;0.19208492;-0.023662623;0.06898588;0.13328125;-0.21434344;-0.18608017
-0.32228208;-0.12741578;-0.33319238;-0.14365178;-0.18828297;-0.017153976;0.16893221;-0.040967476;-0.1630509;0.018349446;-0.05247506;0.3374068;0.0034167164;0.0075910017;-0.11254861;0.20532806;-0.001749359;-0.06620141;0.01292038;0.17652309;0.07677931;0.1552433;-0.0049272943;0.042348012;0.19057022;-0.14725906;-0.22864649;-0.04291219;-0.0047210003;0.0031439373;0.062138777;0.011311935;-0.0044360277;0.007424339;0.018982897;-0.14739798;-0.016002906;-0.1574516;-0.01260467;-0.22880653;0.26014018;-0.000336644;0.028695185;-0.13826367;0.24433564;-0.296678;0.011610274;0.045429252;0.009923396;0.043517325;-0.06365896;-0.0007304214;-0.23470153;0.06795137;0.0085393535;-0.00045199133;-0.16084328;0.008299362;0.23050854;-0.058413126;0.021525512;-0.25486463;0.0038497527;0.0027251197;-0.2352762;0.13699514;0.01973709;-0.07491537;-0.010007456;0.062568665;0.1477259;0.024996221;0.01717251;-0.27250463;-0.061058246;-0.34977168;0.3776224;0.08302846;-0.20297611;-0.0063717673;-0.0017018507;0.009061878;0.22451912;0.21309336;0.0038358835;0.042610608;0.06936503;-0.005953483;0.0032193107;-0.31704026;0.013342007;-0.12476265;-0.02729207;-0.031905163;-0.0033286766;-0.3551912;0.0126815755;0.019577974;-0.1439497;0.16918482;0.21510638;0.015057671;0.023436485;0.14603055;0.05027718;0.00095730374;-0.13517842;-0.0029844178;0.01591094;0.0007124773;-0.2027465;0.078909025;-0.06260253;-0.13410383;0.014541927;0.28039584;-0.3403731;0.051319726;-0.08151887;-0.025005214;0.2317976;-0.0053295414;-0.013069252;-0.2249499;-0.4886763;-0.017857678;0.2924267;0.13871479;0.2549801;0.010968005;0.059912756;-0.3509655;0.016032059;0.06371957;0.016323619;-0.188822;0.32152018;-0.002309673;0.038906015;-0.20190012;-0.20873405;0.004725051;0.13735503;0.2359789;0.16723907;0.00017129854;0.011283804;-0.27008513;-0.011849227;-0.006824236;-0.3463816;-0.06421419;-0.018087018;-0.0058575463;-0.13525909;0.09748087;-0.0044938633;0.002930821;-0.10495146;0.2955227;0.20758018;0.07949057;0.12414486;0.054388568;0.18144473;0.0015076414;0.046923712;-0.061485264;-0.07108731;0.013521927;-0.013148323;0.1903912;0.014435361;0.0037843408;0.0067355703;0.22582586;-0.17676045;-0.17308903;-0.010510725;0.1133763;0.34413618;-0.076772414;0.05365944;0.4951064;0.017333928;-0.08855655;-0.020384433;-0.06904902;-0.3710685;-0.05455529;-0.1324329;-0.048678428;-0.3184378;0.03495377;0.18357314;-0.15122934;0.0017444901;0.023540331;0.0429175;-0.23473623;-0.08268541;0.010207784;0.005409957;0.015407459;-0.0065014297;-0.15080711;0.35118422;0.1721803;-0.15473415;-0.014914978;-0.086734;-0.01651123;-0.00047260904;0.002107357;-0.2991915;-0.03728565;-0.04145544;-0.26862887;-0.12089327;-0.047936648;0.27365783;-0.1614824;0.1305348;-0.14378925;-0.0011542728;-0.1464077;-0.25794157;-0.0077136504;-0.024944857;0.024168003;-0.10717849;-0.22733691;0.018092096;-0.0007214597;-0.22438847;0.21393806;0.18585469;0.3651515;-0.011346106;-0.02234574;-0.21699336;0.046593715;-0.18385422;0.105092876;0.008382275;-0.06472909;0.046163395;-0.20331205;0.011451238;-0.023654472;0.16673264;-0.00060373027;-0.11739614;0.10301977;0.0106181735;-0.07328901;-0.13407177;0.0045309523;0.18853806;0.19601415;-0.0051965057;-0.051811285;0.22032814;-0.041612104;0.018611962;-0.34747717;-0.014559654;-0.01831599;-0.024340035;-0.0014009043;-0.0045750467;-0.05525425;-0.18472041;0.07925012;-0.018819537;0.10252395;0.022126034;-0.009204287;0.3838657;0.024456428;0.074624255;0.16685404;-0.044108674;-0.36245638;-0.013224622;0.12255692;-0.012921844;0.23792776;-0.027837783;-0.0013490946;-0.15556033;0.005481779;0.03403073;0.30482075;0.01890552;-0.22056104;-0.16441797;0.12580913;-0.024266273;0.10756296;-0.65052253;0.011438947;0.018989673;-0.0109146815;0.19750664;-0.23014231;0.0894841;-0.0110679995;-0.2813985;0.1761506;-0.045439996;-0.25027165;-0.016416863;0.17300686;0.32686943;-0.31219757;-0.17713849;-0.0006481148;0.019122515;-0.18953389;-0.046605248;0.0033547704;-0.092433855;-0.20746845;0.0105053885;-0.26888445;-0.021594465;0.48990086;-0.12646993;-0.042293567;0.13613081;0.003404404;-0.45341003;0.13501795;-0.21953495;0.005390751;0.022900032;0.13567932;0.06018724;0.22590718;-0.0053620236;0.053532965;-0.30313396;0.027323069;-0.09992059;0.0017910076;0.008684776;-0.0032399204;-0.025422888;0.06073257;-0.021161415;0.1729939;0.1472558;0.1710804;0.007109096;0.07164902;0.08865736;0.010514961;0.048949398;0.36941865;-0.09459198;0.038681008;0.0061923666;-0.056369334;-0.08728197;-0.017984923;-0.011946205;-0.42634544;0.066096246;-0.4305966;-0.2881658;-0.64210546;-0.003127622;0.01251877;0.011719704;-0.0047048395;-0.0025450897;-0.0019387556;0.023452722;0.013672042;0.013800219;-0.29728773;0.003394452;-0.27317443;-0.017467452;0.010403616;0.21408872;0.07500298;-0.0058216075;-0.47711465;-0.25593516;-0.17588647;-0.40283597;-0.019230746;-0.20301376;0.049651746;-0.011673802;0.101450205;0.0046790857;-0.026067171;-0.12317364;0.0012263661;-0.17684717;0.008511818;-0.26687586;0.112793975;0.24847537;0.00091984763;0.12316387;-0.011226595;0.008059851;-0.017605005;-0.05136289;-0.013102117;0.049564548;0.27385515;0.26760447;0.0032821023;0.18054008;0.0070738154;-0.032825686;-0.11484352;-0.34214708;-0.1993094;0.079226434;0.018314138;-0.0022298354;0.10021942;-0.069252715;-0.13285165;0.0037591062;-0.27438253;-0.07087653;-0.0013325358;0.01579009;0.072306015;0.19512676;-0.30339658;0.23660478;0.022547955;0.0033829438;0.14736956;-0.010357369;-0.03953617;0.28514978;-0.13190702;-0.0024352612;-0.03336362;-0.0026802905;0.073466234;-0.119278505;-0.0015931547;-0.055616014;-0.2996275;0.024480926;0.097630285;-0.0027748456;-0.037100524;0.11910935;-0.00086396676;0.0029481493;0.0053929086;0.37081882;0.44839832;-0.111199506;-0.32820824;-0.0033725041;0.03879008;-0.056518838;0.13917522;0.25335926;0.10488219;-0.011680393;-0.023552021;-0.2078371;0.0033218323;0.019989558;0.09884607;-0.015405072;-0.013127736;0.379582;-0.2541249;-0.21909851;-0.12684329;0.020496925;0.017760258;-0.05798653;-0.38361213;0.004158253;0.006927535;-0.020491546;-0.052836563;0.021562517;-0.004067462;0.12203518;-0.014515455;-0.26618704;0.003592598;0.076311044;0.39511886;-0.032184947;0.017228695;-0.016907347;0.015318374;0.01273334;0.011932941;0.15786453;-0.023453992;-0.0020119157;-0.13045645;-0.0062460075;0.10461809;-0.00012617811;-0.04865953;-0.0995357;-0.028406348;0.00067408895;0.021054585;-0.006446342;0.2480473;0.10602044;-0.002798621;-0.0006225936;6.2777246e-05;0.01121986;-0.10792469;-0.00040849176;5.0833016e-05;0.039212987;-0.012554779;-0.17920882;0.09282564;0.14724143;0.0042949757;0.08565404;-0.013615011;-0.16172016;-0.56869024;0.038971383;-0.2175459;0.25600794;0.13611034;-0.005197073;-0.027401153;0.0033401125;0.030388873;-0.020042948;0.016053904;-0.011926973;0.0028817558;-0.069200344;-0.0019410544;0.004674674;-0.18659584;0.005300172;0.18471071;0.06725081;0.15733013;-0.006856773;0.0016654219;-0.05050028;0.21091178;0.038662285;-0.093939416;0.008970013;0.11518719;-0.006446558;0.034085523;-0.23609737;0.10017207;0.1322108;0.010299871;-0.04487025;-0.010332618;-0.1674548;-0.4091037
-0.15330787;-0.12601587;-0.115908735;-0.20519845;-0.010279538;0.02252615;0.019161565;0.015474912;-0.064464904;-0.0062534604;0.11732311;0.28474653;-0.006156073;0.076018535;-0.09146051;0.14391725;0.009170229;-0.10467141;0.005067486;-0.18251382;0.29656526;0.11018292;-0.111918755;0.07068135;0.10163802;-0.10876218;-0.1681288;0.027131341;-0.006663486;0.0012915056;0.05575216;0.23109421;-0.15988992;0.005862666;-0.014221114;0.119035125;0.25220102;-0.042784907;-0.13929135;-0.19419026;0.14374708;0.005846968;-0.09166925;-0.25716987;0.26711023;-0.4584707;-0.019098105;0.120197445;-0.0050564664;-0.08702358;-0.020347401;0.01677866;-0.15921766;0.01974348;-0.013832351;0.013745901;-0.119291715;-0.019890396;0.21758638;-0.0816312;-0.007745822;-0.22036584;-0.009744589;-0.1195721;0.101636365;0.016436232;0.06972202;0.120278254;0.0049620667;0.08545706;0.58658034;-0.34663844;-0.18858501;-0.2297262;-0.101878956;-0.43853727;0.40822232;-0.048961695;-0.3675954;-0.007366685;0.015269199;-0.0050262604;0.3836445;0.3746265;-0.0069965823;0.09469346;0.06730416;0.02686762;-0.0034887772;-0.3437659;0.06949333;-0.104048654;0.03132159;-0.0023329111;0.016721787;-0.3869722;-0.001174245;0.011906964;-0.16466124;-0.08896248;0.19816144;-0.004251889;-0.011051306;0.13130625;0.033393703;0.012417091;-0.08988023;0.00015289702;-0.0014509631;-0.0073086033;-0.1614098;0.112476304;0.086351775;-0.15495886;-0.024762185;0.2969609;-0.14310473;-0.025201255;-0.07425618;-0.13878651;0.34691545;-0.00012001524;-0.16677406;-0.22353737;-0.44436863;-0.15128097;0.12136744;0.27519482;0.28504053;-0.0049227094;-0.026596846;-0.01322845;-0.020185843;-0.12330316;-0.011466052;0.025121156;0.078846;-0.17314717;-0.0006957577;0.08044807;-0.21161358;-0.0017798753;-0.124355264;0.017358806;0.20256881;0.0051092156;-0.004217578;-0.11305082;-0.010795357;-0.07182878;-0.26687607;0.01904384;0.098284975;0.01678343;-0.17827404;0.0047425013;-0.007790219;-0.046103366;-0.23991346;0.15379252;0.15867937;-0.2043793;0.1319237;-0.021279631;0.051601626;-0.013092028;0.011471895;0.007830854;0.06931946;-0.012932917;0.010969536;0.16179597;-0.006689029;-0.038544774;0.004772508;0.16063352;-0.2738365;-0.047431763;-0.052505106;0.27105588;0.30883124;-0.13551188;0.13511871;0.3178472;-0.011293613;-0.25773206;0.013361711;0.19540827;-0.40551174;-0.0015700861;0.029152526;-0.27186906;-0.20466954;-0.15803762;0.06677365;-0.14809327;-0.00059667794;0.120250866;0.039341804;-0.21390949;-0.062044933;-0.0076933024;0.007894587;0.0007850931;-0.14775522;0.049843606;0.16723512;0.15369678;0.06827103;0.010094026;-0.1728945;0.017333971;-0.008300282;0.0061430084;-0.44021028;0.013272559;0.04886079;-0.36581746;-0.07730496;-0.094394125;0.09611942;-0.05012571;0.12722069;-0.13587864;0.011967596;0.025141686;0.008981128;0.015419551;-0.0041598547;-0.03731415;-0.19198087;-0.22185597;-0.015354649;-0.0039987345;-0.116784394;0.17097637;0.004240801;0.45427403;0.018218376;-0.021741338;-0.046000224;0.12773877;-0.15455583;0.12540571;0.012413186;0.23299766;-0.011683102;-0.06169682;0.10908329;0.0043059126;-0.04576631;0.0051506734;0.07439494;0.18225034;0.00086341996;-0.07274716;-0.30023068;-0.009473301;0.16342403;0.19665602;-0.06737812;-0.06995289;0.20418411;-0.10876524;-0.001807906;-0.1542398;0.007814124;0.025167665;0.055411275;-0.004810326;-0.00656287;0.07671326;-0.21199606;-0.010320861;0.0071727424;0.053851623;-0.14618312;0.0067271767;0.1585696;-0.015310787;0.1691136;0.17038593;-0.049764417;-0.23154743;0.02188511;-0.142786;0.015386584;0.26627126;-0.16937932;-0.015902303;-0.058444884;-0.016252065;-0.010068077;0.0335873;-0.010380012;0.03315727;-0.19048382;0.037449468;-0.09172256;0.0844974;-0.2626512;0.011869351;-0.012560484;0.013196597;0.024704171;-0.15653804;-0.13270022;0.0058080927;-0.11201104;0.21101739;-0.17348559;-0.29610595;0.0113022635;0.23364107;0.19368687;-0.27240267;-0.29174712;0.009288902;-0.023083141;-0.19180009;0.049593393;-0.0030036543;-0.142022;-0.44562194;-0.02365848;-0.31890813;0.015247395;0.34391943;-0.42165297;-0.066684075;-0.012418341;0.021350374;-0.31355488;-0.12706052;-0.15637733;-0.0004935263;-0.24422273;0.07170438;-0.32874277;0.13342798;0.016050743;0.09211252;-0.35980657;0.106179535;-0.09675534;-0.0006598356;-0.019363524;0.00089737854;0.056196976;0.24053895;0.15009104;-0.08324645;0.008030231;0.16065203;-0.056057457;0.13807534;0.29709798;-0.016034395;0.026271101;0.35267538;-0.09192347;0.053060684;-0.004989792;-0.2549224;-0.0043710764;0.0861923;-0.003811154;-0.4002866;-0.08247805;-0.31950712;0.07022294;-0.3322268;-0.0066654477;0.007966592;-0.0058007147;0.0037125333;0.0131492065;0.01197975;0.014507295;0.027445571;0.0028236075;-0.38849723;0.00797563;-0.3373984;0.003107773;-0.016347935;0.31304044;-0.06405253;0.09205882;-0.42713964;-0.3585018;-0.007703759;-0.28596008;0.026571486;-0.29160282;-0.08011619;0.012724576;0.007987135;0.06616945;-0.1805334;-0.00769419;-0.008889914;-0.26624465;-0.0055379146;-0.4668332;-0.005372269;0.093821414;0.022295019;0.24410836;0.0037276417;-0.01221952;0.0019615712;0.16430552;0.008020405;-0.07745308;0.23455681;0.2806724;-0.0005138608;0.22728333;0.01898107;0.27888203;0.22795872;0.041797016;-0.33713692;0.45640847;-0.0016802888;0.010348287;0.16942692;-0.078526996;-0.17634705;0.48216286;-0.15617478;0.02240081;0.0050499677;-0.012713206;0.2521844;0.3727424;-0.16850233;0.31885162;0.008264372;-0.0003056523;-0.0074649123;0.010907118;-0.28283563;0.29928577;-0.46168646;0.0043542036;-0.17423268;0.002161073;0.25104368;0.011872503;0.0039107194;0.1596638;-0.13990653;-0.016571093;0.13724574;-0.0072110216;0.3076231;0.28996155;-0.0034429925;-0.0024003622;3.5178873e-05;0.012219824;0.16515195;-0.05058465;-0.285005;-0.0035348574;-0.24490064;0.18615565;0.022883834;-0.0021479144;-0.1822395;0.0025380978;0.31209278;-0.36595225;-0.003173371;-0.002860846;-0.09153268;0.0014769998;-0.00065719214;0.33282262;-0.06851054;-0.18784449;-0.019122047;-0.17067245;0.0019957635;0.057185065;-0.0774708;0.006083654;-0.25570437;-0.0265003;-0.06343245;0.06903794;0.025089905;0.031547338;0.002993664;-0.17953259;0.024375083;0.009685274;0.45995817;-0.12812845;-0.011512275;0.010268845;-0.0073770205;-0.19462964;-0.0211168;0.0007243375;-0.008854606;-0.09427536;0.14560644;-0.26194108;0.018520225;-0.0547981;-0.06853346;-0.14219745;0.047352042;-0.003186098;-0.07635985;0.01556608;0.26667607;-0.03606377;0.0013525565;-0.0037482632;0.17156497;-0.013311714;-0.17444366;0.021539416;-0.0025353981;0.0495968;0.0015362552;-0.025185289;-0.14158115;0.24565344;0.001648924;0.25318164;0.03531301;-0.05768077;-0.8850268;-0.006171683;-0.08337348;0.012656208;0.03445184;0.018815039;-0.20370065;-0.01713289;-0.017687054;-0.20667951;-0.0024110242;-0.010166138;0.0054106032;0.06512083;-0.0028924113;0.0015235636;-0.122139595;-0.00096825644;0.03830224;0.057312693;0.025991524;0.0025944707;-0.0031916308;-0.03398591;0.0947925;-0.029168133;0.051246177;-0.0043232893;0.12749821;0.0043920456;0.23530585;-0.15960516;-0.100472644;-0.02123453;-0.0015548031;0.02951012;-0.11553763;-0.16480868;-0.13091278
-0.20257758;0.008085966;-0.0035076432;-0.059678186;-0.06104106;-0.030491445;-0.040408235;-0.0044088494;0.102873094;-0.009209518;0.07268505;0.21149957;0.0019800023;-0.42398742;-0.03266694;0.24994044;-0.009200338;-0.24770339;0.0053940746;-0.2859003;0.19574104;0.06491202;-0.10712286;0.041713085;0.18348189;0.10773252;0.07435896;-0.024843017;0.009277752;-0.0008452265;0.11236236;-0.023489218;-0.22771473;-0.0041254377;0.013666817;-0.14692266;0.08065262;-0.001672324;-0.045402166;-0.12992187;-0.07620452;-0.018964902;0.025004124;-0.22644202;0.21061943;-0.38395494;0.020088308;0.012487326;0.012438969;-0.11745181;-0.1331046;-0.0027999186;-0.07753044;-0.26098767;0.0017338936;-0.004824383;-0.11425633;0.02141622;0.33501577;0.002350001;-0.03602213;-0.2368273;0.013104815;-0.01658625;0.2549526;0.083134644;0.21532482;0.10367641;-0.005423495;0.00925017;0.5142819;-0.4373941;0.27333435;-0.6473104;0.08060943;-0.38029215;0.35803282;0.122265354;-0.36949334;0.0064872475;0.0013507019;-0.006863983;0.33263686;-0.0072386675;-0.031418927;0.1688331;-0.03370184;-0.014720711;0.0067453273;-0.1464746;2.018431e-05;-0.095030494;-0.014594776;-0.033556722;-0.006267189;-0.07761165;0.003382105;-0.025515093;-0.29179364;0.0024516755;0.0803966;-0.010803908;-0.0074835955;-0.30038223;0.038260125;-0.014482416;0.11030257;0.005330165;-0.00082964095;-0.008332398;0.04389177;0.017897291;0.24172655;0.1545188;0.016548295;-0.011883812;-0.33547664;0.03982099;0.04474091;0.08884392;0.3807378;0.0015392214;-0.09407903;0.19044761;-0.48169634;-0.03510279;-0.019343428;0.33408168;0.25405908;0.0011392568;-0.1540385;0.047566663;0.0130831525;0.012910921;0.009529352;-0.05585184;0.13720621;0.057858318;-0.042679768;-0.20281436;-0.027004212;0.014093842;-0.19300935;0.023068579;0.266367;0.00080061913;0.013855942;-0.24956794;0.027573701;-0.17790034;-0.31778434;-0.014893534;0.015120519;-0.006976217;-0.33243325;-0.18280894;-0.0068463096;0.05348022;-0.17038475;0.34428272;0.11376045;-0.28540766;0.06244515;-0.061809022;0.07088115;0.024355257;-0.010450373;0.013801292;0.046297997;0.0047432054;0.006395881;0.23618685;-0.006529073;0.0016852105;-0.003416814;0.16004543;-0.17724349;-0.15588777;-0.10946476;0.22559668;0.24544303;-0.02202868;0.1168441;-0.0115135675;0.0036683502;-0.11244094;-0.019560458;0.2783153;-0.34036297;0.06113214;-0.16301301;-0.20321898;-0.1351218;-0.14535144;0.13277502;-0.15340413;0.0027369948;-0.15402696;-0.070163265;-0.21132194;-0.07992732;0.0048044366;-0.017925914;-0.014666053;0.11685657;0.04759081;0.17881463;0.0017540352;0.005682566;-0.015519008;0.01805607;-0.046584483;0.008079968;-0.021967446;-0.5226994;0.0020296287;-0.17133018;-0.3190963;-0.063593045;0.101705864;0.024204725;0.25922376;0.049641248;-0.13853104;-0.008667923;-0.006958938;-0.01008821;-0.007263801;-0.0024098333;-0.16094232;-0.043083955;-0.018356208;0.0029421605;0.0054974714;-0.023738401;0.21414068;0.032381862;0.2498808;0.003564892;0.006780327;0.02903899;0.29464558;-0.09392548;0.13272628;0.005603039;0.09563589;-0.034211867;0.013567291;0.22287297;0.01753982;0.15587147;-0.0016909547;0.13622881;0.45849174;-0.014456692;0.20944148;-0.3904883;0.0013392583;-0.03390595;0.05600236;-0.10679814;0.012858931;0.060962804;-0.34745276;0.011054905;0.0039329287;0.017062772;0.015613942;-0.10004822;0.014145685;-0.00032208223;0.33954602;-0.09738434;-0.052515816;0.014156547;0.10766433;-0.1436319;0.005286558;-0.016427767;0.004703736;0.30195376;-0.10326459;-0.012372761;-0.22906536;-0.014197348;-0.07256717;-0.0010823307;-0.06461813;0.0289436;-0.0010120756;-0.052467354;-0.021792658;-0.3021579;0.2193007;-0.0016983513;0.07704002;0.041710515;0.06578183;-0.10496796;-0.09373949;-0.07624295;-0.005284564;-0.0077962615;-0.0024339012;0.0136888;0.05577854;-0.25837427;0.0070566125;0.093439095;0.18739949;-0.025928574;-0.14069803;-0.004828533;0.42624268;0.10234384;-0.13111089;0.091513306;-0.009750854;0.012133753;-0.104190975;0.32896724;-0.005100207;-0.12371933;-0.3389923;0.006884408;-0.27131563;-0.01404603;0.2111005;-0.078433946;-0.18395525;-0.013030943;-0.022488121;-0.40882814;-0.071823165;-0.1171512;-0.010657336;-0.11795591;0.016484203;-0.37911907;0.09731195;-0.01927412;-0.1757376;-0.16550222;0.027496519;-0.17389104;0.010031803;0.014004744;0.0035066123;0.02501783;0.28370008;0.16105737;0.0334129;-0.048987176;0.078469224;0.0016940228;0.05922857;0.170926;0.025024012;-0.079639874;0.22431567;-0.18308416;-0.02124169;-0.0026955514;-0.12869656;-0.18423459;0.13770086;0.0061522056;-0.5429179;-0.16426608;-0.18420176;0.20635246;-0.2673382;0.0136178555;-0.0018687939;0.0044502392;-0.019083986;-0.0054108766;0.002830747;0.014600064;-0.017179132;-0.02051849;-0.38222462;-0.022404093;-0.2786871;0.0022011453;0.0013549313;0.29038218;-0.142253;0.17353201;-0.33496368;0.08089894;-0.113678105;0.060697976;-0.013517722;-0.34414312;0.007878557;-0.008116111;0.03167977;0.22721837;-0.09477691;0.18514054;0.011024909;-0.15864214;-0.0007762902;-0.3402986;0.22281249;0.114783846;0.016446585;0.043562695;-0.004123234;0.009343631;0.0077957185;0.116323575;0.0058278358;0.3609973;0.25770283;0.23530294;-0.0062188073;0.16784908;-0.009809837;0.28452826;0.35444808;0.042070623;-0.29387444;0.5249395;-0.003228082;0.007870209;0.17561981;-0.17409271;0.042820655;0.5298062;-0.3130071;0.024602704;0.005364502;0.019748943;0.14796509;0.24718489;-0.16533515;0.29496065;-0.017657643;0.033805992;-0.03640563;-0.006972818;-0.027972586;0.19018616;-0.2793224;0.0021314395;0.06804643;0.006067195;0.29052278;0.15469624;0.00658888;0.16524641;-0.081740074;-0.0037488784;0.07536795;0.0070592775;0.5414447;0.23200324;0.004104804;-0.0098631;-0.00510299;0.07296143;0.01958897;0.041144;0.06882017;-0.00066847634;-0.23468493;0.34746695;-0.08975455;0.21414278;-0.24696842;0.01024089;0.5363743;-0.5837003;-0.015501397;0.0007884652;-0.0839317;0.0003763417;0.0028180962;0.1499066;-0.0060265693;-0.07319118;0.14988427;-0.19156836;-0.0024004248;0.13975205;-0.315062;-0.003463043;0.11714922;-0.0022023001;-0.019378768;0.032216318;0.33597004;-0.1970001;-0.0026496516;-0.02755033;-0.016169995;0.32801974;0.27137238;-0.11230548;0.008655423;-0.011443462;0.008608126;-0.14117023;0.012312356;0.047196552;-0.009135284;-0.09257973;0.20454249;-0.47292274;0.157985;0.029409368;-0.032365117;-0.10471358;-0.03087991;0.015194373;0.12905844;-0.007020208;0.3205567;-0.06467612;-0.015834972;-0.014048607;0.31137237;0.0064706146;0.08371442;-0.014843894;0.0072899563;0.066894665;0.026812252;0.08469785;-0.046918176;0.12761036;-0.0047817957;0.0890808;-0.03084719;0.038543977;-0.7123073;-0.032118168;-0.02922167;0.12347102;-0.21627094;-0.015072326;0.13031738;0.002722149;-0.003978363;-0.22223735;0.0004320669;-0.07780423;0.011797926;0.17735031;0.019042691;-0.01679083;-0.25230333;-0.0052316342;-0.11864729;-0.10505484;0.042259835;0.004785549;-0.0038991047;-0.13621624;-0.005119187;-0.011392585;-5.5751525e-06;0.018575206;0.15140325;-0.009604674;0.13163881;-0.0342481;-0.095094144;-0.019195972;0.006808227;-0.012388802;0.0005306104;-0.21708442;-0.09411937
-0.073984824;0.11883167;-0.019284831;-0.27672324;-0.2961217;0.03343959;0.16234483;0.0034246652;0.19560735;0.009324238;0.02501762;0.1282538;-0.009936499;-0.21341448;-0.011876226;0.27110052;0.01235601;0.018846773;-0.03652915;-0.23071215;0.19089378;0.08369819;-0.09317907;-0.06882757;0.036025386;-0.04395531;0.031700343;0.17987208;-0.0089873625;-0.007074731;0.035161164;-0.2682144;-0.22354;-0.0011573805;-0.0050664605;-0.14034748;0.17288226;-0.14409783;0.14653783;-0.088747114;-0.22135982;0.007262329;0.091167025;0.018874714;0.07695053;-0.32863998;-0.01706294;-0.062338572;-0.014558594;-0.24811003;-0.13802253;-0.018974092;-0.19873416;-0.267149;-0.0086001195;-0.014076718;-0.2460003;-0.025321756;0.4683016;0.10054075;-0.009580029;-0.06624535;-0.013497037;0.013189091;-0.0041621793;0.07405345;-0.004656659;0.41785467;0.008288992;0.0036076007;0.2713997;-0.4840848;0.26071265;-0.7941582;0.18638717;-0.39468822;0.2837344;0.11971108;-0.29813153;0.004064551;-0.012954701;0.012729609;0.035922017;-0.13830458;0.035361838;0.18714029;0.057046063;0.008537003;0.014820469;-0.18555817;-0.059615836;0.30593804;0.0095305815;-0.0007321652;0.011380249;-0.3016513;-0.0002916311;0.033635553;-0.15336673;0.0012386984;0.19571385;0.028379733;-0.0017734198;-0.108196065;-0.064563185;0.011567973;0.14366686;0.005485771;-0.008052462;0.014715773;-0.070803404;0.03658101;0.0829251;-0.0335124;-0.023188222;0.02651638;-0.14109908;0.018404627;0.037560232;-0.011178981;0.22231182;-0.0030607611;0.028409244;0.122669354;-0.19371112;0.0073370445;0.04351347;0.4348401;0.28624776;-0.0019794898;-0.31649828;0.23337238;-0.013317657;0.09732845;-0.009148189;0.08892185;-0.09351559;-0.09928985;-0.20432591;-0.2214791;0.092405595;-0.011141879;-0.111593194;0.06595367;0.3145928;-0.0047511365;-0.0023494402;-0.04158831;-0.013191835;-0.22213013;-0.036871392;0.1798255;-0.036053445;0.0030716339;-0.26802295;-0.12325652;0.016733343;0.11015423;-0.3291563;0.33541605;0.0022505727;-0.11762835;0.06665177;-0.10405134;-0.1292064;-0.0016125765;-0.02061758;0.093151875;0.01780967;0.0013594723;-0.010449596;0.340032;-0.009165183;0.038478687;-0.005240984;0.15579581;-0.07072192;-0.27432165;-0.0524525;0.20189494;0.33323473;0.19072469;-0.10176319;-0.14740293;0.008394258;0.35705996;0.00790369;0.32809773;-0.40078324;-0.0017867383;-0.085709356;-0.09245986;0.07614818;-0.13805264;0.27898315;-0.26240093;0.0030566235;-0.14026387;0.009807911;0.08610874;-0.0053727296;0.0021851908;0.01096857;-0.0004897133;0.07006208;-0.29405722;0.17928714;-0.06703118;-0.13427301;-0.008030236;-0.06925936;-0.30869424;-0.0066716475;0.015139865;-0.3544173;-0.08099296;-0.274151;-0.25456858;-0.26680622;0.23657452;-0.13316092;0.19790941;0.14758483;-0.22716838;0.0042057894;0.014877805;0.22670937;-0.0009803459;0.02281139;0.11784589;0.09091846;-0.08420021;-0.005450204;0.009933711;0.026663875;0.04034476;0.008055309;0.29273236;-0.019884247;-0.18010779;0.08998486;0.32602856;-0.15426059;0.112103835;-0.012782288;0.0036524548;0.014835451;-0.03341988;0.072581664;0.0011383485;0.35408238;-0.010233228;-0.2557952;0.37823778;0.025529124;0.09566149;-0.36933538;-0.005083976;-0.073094286;0.09717734;-0.22455129;-0.02171953;0.039666444;-0.3752376;-0.019778328;0.01713018;-0.009691236;-0.017318366;-0.009990461;0.0024057608;0.010193401;0.22648008;0.012468614;-0.15420458;-0.009839565;-0.067686215;-0.20685546;0.001009774;0.057669245;-0.0035262643;0.07256368;-0.24009137;0.10817695;-0.15402141;0.0144987535;-0.058659233;0.0039180876;-0.19945805;-0.045234196;0.0024182177;0.024866851;-0.06933865;-0.3263113;0.37549192;-0.0069164517;0.019499881;-0.040728506;0.03590255;-0.20653728;-0.28039235;-0.04293448;0.025171677;0.0053974683;0.0021328332;0.00082654995;-0.065930605;-0.028906116;-0.011348721;-0.19955055;0.07690107;0.17358074;-0.15321137;0.010002283;0.4277365;0.14635956;-0.09188744;0.27188757;0.00771087;0.009073162;-0.052961852;0.35552102;0.015464953;-0.113566846;0.19192222;0.005708391;-0.32642323;0.016232636;0.0932758;0.109573685;-0.004975179;-0.21975178;0.023209289;-0.31829935;-0.33548927;0.009144164;0.028640775;-0.3308408;-0.14705658;-0.3583421;0.11920137;0.012083156;-0.070457935;-0.13477135;-0.08519247;-0.20341791;-0.020643745;-0.0043774764;-0.012116792;-0.09561324;-0.055939976;0.13694444;-0.19067255;0.0657056;0.018237576;0.07073629;0.06406747;0.20978612;-0.0100611495;0.20153666;-0.085247844;-0.14676829;0.19292156;0.0035435022;-0.17197508;-0.1430775;-0.27190477;-0.009450847;-0.36827022;-0.099700145;-0.23124759;0.017772054;-0.14939828;-0.010654974;-0.0013971023;-0.013997727;0.033641707;-0.0023027314;-0.017730923;-0.071083695;-0.030504711;0.013450387;-0.30376962;0.0049261083;-0.47224966;-0.008563069;0.018933425;0.23767503;-0.06568597;0.09516535;0.012938442;-0.09550056;0.22847483;0.36942673;-0.0058653853;-0.061482426;0.061153155;0.018057706;-0.19577242;0.20624588;-0.10746166;-0.07143921;-0.009050064;-0.23677413;-0.003567932;-0.12826926;0.122644834;-0.061556827;0.0085030375;0.18735407;0.011970763;-0.0039406223;0.0044849524;-0.1649052;-0.010527529;0.33269212;0.050678346;0.31213996;-0.001039577;0.21330287;-0.015051336;-0.24031848;0.21867275;-0.10827629;-0.4618696;0.33852413;-0.0056778356;0.016006945;-0.047692206;-0.07795335;-0.017948613;0.09425948;-0.18033616;0.14882071;-0.004099518;0.0005886462;0.256933;0.10772022;-0.007263652;0.44140962;0.012765503;-0.030414732;0.034147136;0.0066902274;0.17909743;0.22435679;0.017545639;-0.007419041;0.14619075;0.0045514796;0.33689266;0.20663115;0.0020707762;0.122992165;-0.038188785;0.0070841634;0.225196;-0.008054546;0.33073804;0.17262644;-0.008309744;0.01026734;0.019189335;0.18971343;0.29537734;0.084399395;0.08840516;-0.0025524376;-0.066116564;0.35764924;-0.054836415;0.15425;-0.2025963;-0.010102047;0.5380516;-0.19375195;0.013216037;-0.0053192102;-0.057380717;-0.15572612;-0.011477343;0.0107151;0.2651134;-0.07506774;0.111433;-0.008461743;0.00891613;0.17955573;-0.30004212;-0.0060649524;0.048834506;0.03166332;-0.04548263;0.018692233;0.20080252;-0.091531664;0.009217204;0.034735367;0.0074117864;0.25773948;0.089883916;0.16874023;-0.0064329696;0.01401856;-0.0060318476;-0.04257441;0.017300507;-0.059274323;0.013674373;-0.059606247;0.14513046;-0.50051737;0.12784414;-0.04233444;-0.18618584;-0.19247778;-0.18717779;-0.006003992;0.23304255;-0.00037850052;0.22355522;-0.054332424;0.011991401;0.00023432728;0.10458805;-0.0025837107;0.08916602;-0.016829642;0.009001434;0.017997326;0.0036457586;0.022377435;0.10650631;0.08642071;-0.003943599;0.06765958;-0.04390137;-0.19609834;-0.4490633;0.0169373;-0.22691151;-0.14487486;-0.17564277;0.0044932636;-0.0513905;0.003849566;0.0073873606;0.06583998;-0.020560808;-0.090744324;-0.0060408134;0.040384464;-0.00063581334;0.0024976374;0.05168262;0.0037684892;0.08604623;-0.27125368;-0.13629372;-0.0030778437;0.0153781995;0.13300052;-0.11881466;0.064979695;0.06411613;0.0022043795;0.12100813;0.01397888;0.31467864;-0.012999618;-0.080365606;-0.07350552;-0.00092763535;0.12299535;0.018268725;-0.14651126;-0.2836941
-0.32180306;-0.015640367;0.0051120333;-0.24257462;-0.35369268;-0.025466261;0.0035557104;-0.015225405;-0.066826835;0.0033050606;-0.024595471;-0.032792993;-0.0051786224;0.043305404;0.106476404;0.33699483;-0.0034857597;0.18073547;0.023054466;0.06135472;0.27040303;-0.06181377;0.10586861;-0.032046758;0.013662184;-0.089513555;-0.19891557;-0.05713909;0.015354184;0.006106854;-0.068316504;-0.16031684;0.031573318;-0.013676063;-0.022346143;-0.013074642;0.17635755;-0.33194304;-0.042197786;-0.2862478;-0.1060395;-0.0069290297;0.050386954;0.15149064;-0.11196349;-0.31791878;-0.0058066146;-0.03582873;0.0050302357;-0.0885356;-0.24659859;0.012922981;-0.2764573;-0.07632202;0.008084469;0.01954333;-0.18497823;0.006518827;0.26120588;0.22145604;0.0060005337;0.16512541;0.00042692645;0.023766441;0.122246385;-0.07796695;0.059311017;0.075917;-0.010837318;-0.030184574;0.38745964;-0.39491606;0.34142068;-0.1676115;0.12609518;-0.5271541;0.25918654;0.13718766;-0.26267546;0.0012011969;0.008573884;0.0035384959;0.0044710767;-0.257904;-0.048562318;0.26159087;0.031197382;-0.009192208;0.006413107;-0.37788075;0.23731782;0.21975377;-0.010683559;0.0056366976;-0.01872058;-0.3126233;-0.008281642;0.017461577;-0.25657576;0.16519879;0.25598085;-0.00680418;0.012398287;0.078688055;-0.12319744;0.0047681415;0.3806829;-0.014703661;-0.007063729;-0.019324845;-0.14727132;0.19395328;0.0026912126;0.009766347;-0.0030601206;-0.18187767;-0.22334433;-0.31172833;-0.11420045;0.24055809;0.081354514;-0.00019447801;-0.047108542;0.08561935;-0.17694828;-0.1377056;0.22974028;0.22419171;0.004360931;-0.009888753;0.03743511;0.21980427;-0.0027479047;0.052642956;0.027437113;0.13644809;0.1762746;-0.029279364;-0.16627567;-0.3384256;-0.021521928;0.0046526766;-0.24875791;-0.09694295;0.184317;0.009576017;-0.0021947806;-0.25680208;0.01684749;-0.23293455;-0.1368418;0.24977393;-0.08385798;-0.008641647;-0.16401644;0.20482388;-0.0042437143;-0.119198434;-0.25735015;0.13104229;-0.11184539;-0.022170004;-0.09284895;0.016852753;-0.16170911;-0.0061881025;-0.01456894;0.058434434;-0.056409195;-0.012352882;0.0014623924;0.28162146;0.019196369;-0.029303098;0.019547462;0.21681829;-0.07604457;-0.24359886;-0.09397856;0.256066;0.30189878;0.14973962;-0.2916718;0.016707953;-0.008935705;0.37251177;0.0015721477;0.13900225;-0.42531607;-0.056101862;-0.19004996;0.09338953;0.11675734;-0.14219674;-0.024907837;-0.28706968;0.0061888807;0.012739121;0.009980381;0.100740455;0.0439422;0.0035505535;0.0071418905;-0.0070752325;0.07088216;-0.26207578;0.24751227;0.052330263;-0.08655908;0.0078089554;0.05468015;-0.023538854;0.004127543;-0.009356587;-0.19716926;0.03871322;-0.09257696;-0.22921216;-0.12068156;0.43068913;-0.23361279;0.123264834;0.1761439;-0.058912594;-0.01041746;-0.08539935;0.21965425;-0.010826551;-0.0076320125;0.18178713;0.0055605057;-0.15874662;0.0037869501;-0.01922783;-0.115385644;0.21723211;-0.106388725;0.25934154;0.022248244;-0.17987706;0.13417597;0.19926167;-0.14045352;-0.14324756;0.0044817436;-0.0052172225;-0.055784546;0.08069621;-0.027839491;-0.015220495;0.42753845;0.014881546;-0.14901319;0.245729;-0.0121316025;-0.099782445;0.041477557;-8.647862e-05;-0.10772628;-0.066081196;-0.30222034;-0.16280788;0.04035675;-0.1518205;0.011881549;0.118475005;0.0009627907;0.009790584;0.31610253;0.011413668;0.009094322;0.48288587;-0.043524724;-0.4109226;0.0016573509;0.14997861;-0.22109519;-0.008331305;0.10191911;0.0061131325;-0.2795133;-0.07391545;0.054864004;0.041731324;-0.019768545;-0.06775015;-0.0018311272;-0.16638546;0.026081752;0.005350588;-0.0062935203;0.037741836;-0.11913533;0.095760286;0.00416054;-0.40350384;0.080271505;0.09725917;-0.32354096;-0.6894037;-0.07906236;-0.0135636395;-0.008936916;0.0055603227;0.12926483;-0.13755618;-0.17546576;0.0020222245;-0.01612695;-0.1543916;0.31508425;-0.25959322;-0.010121144;0.3257229;-0.12250324;0.08084163;0.048127774;-0.013522975;-0.016557386;-0.021557914;0.13131131;-0.011811289;-0.24861108;0.25362653;-0.008218076;-0.3584613;-0.007929453;0.21286255;0.009317379;-0.05158227;-0.02138864;-0.022690637;-0.28095454;-0.1527462;0.1309007;-0.015893033;-0.54328924;-0.19122921;-0.072697006;0.20253876;-0.0015389001;-0.13115057;0.0562342;-0.23992573;-0.19554596;0.008815153;-0.010385365;0.011721492;0.15397674;-0.05891391;-0.04555423;-0.13657081;0.0047025853;-0.07816973;-0.05853813;0.043932762;0.17843495;0.0006872987;-0.08516852;-0.027832078;-0.05198534;0.20145229;0.0046924157;-0.040437847;0.09242839;0.012492815;-0.008527057;-0.3005975;0.12111161;-0.17815374;0.2040669;-0.29783073;0.012042345;0.0013061074;0.014240705;-0.02469813;-0.0043901796;0.011502377;-0.015289902;0.08444834;0.0117385965;-0.3219188;0.009601619;-0.52968967;-0.015847456;-0.007262269;0.25537774;-0.04152888;-0.060513865;-0.14094874;-0.30545002;0.15211935;0.20455435;-0.007549734;0.27376446;-0.027192272;4.6016503e-05;-0.18531206;0.3219899;-0.15481867;-0.11385346;0.0071679545;-0.2927919;-8.178895e-05;-0.16182914;-0.11108392;0.0040591345;-0.012901754;-0.094673656;0.003293013;0.0028619177;0.008705226;-0.46691993;0.015995082;0.030179743;0.13588569;0.29058507;0.013039138;-0.021108765;0.034877658;-0.09884473;0.13288924;0.19011529;-0.13555679;0.3364408;-0.002447796;-0.030695256;0.10772467;-0.10401717;0.09597384;0.15729974;0.027540337;0.1653267;0.01617542;0.0016230023;0.19000769;-0.13195606;0.074344836;0.50518113;-0.010231193;0.000580236;-0.049600862;0.0033454597;0.17291263;0.19295591;0.123280786;0.020184046;0.19309582;-0.016101215;0.14216708;0.15507346;-0.015873512;-0.27418992;0.105144575;-0.01172727;0.20618773;0.0018875992;0.030691357;0.34394044;0.017798996;-0.0022080767;-0.031556237;0.18874447;0.10493469;-0.041886825;0.017878057;0.010390771;0.078966804;0.13151339;-0.16888784;0.06473691;-0.11467498;0.0011762216;0.45950398;0.009914231;0.0016526849;-0.005822971;0.05826024;-0.22010556;0.019788528;-0.102886386;0.2564297;-0.21592787;-0.017945558;0.051301964;-0.015604898;0.22091047;-0.16341324;0.0076090335;0.15212034;-0.029104419;-0.21590655;0.020526929;0.22530454;0.026586164;0.0024784575;0.22485946;-0.0023928774;0.10623309;0.11792796;0.14225341;0.0048272316;-0.018042943;0.0010952646;-0.07663328;-0.020357795;0.124409206;0.025001377;0.07254608;0.24950188;-0.14677837;-0.06231546;-0.17563023;-0.25354013;-0.17902304;-0.25792855;0.0033365644;0.07325172;0.0043346663;0.08693218;-0.06330068;0.00748457;0.015867688;-0.14786778;-0.009716807;0.08511728;0.017172223;-0.012398788;0.08470858;-0.033532728;0.1529409;0.059103552;-0.041904982;0.0035442866;-0.032542862;-0.034808185;-0.016192343;-0.2646958;0.005082387;-0.18546271;-0.13824473;0.11650283;0.016659131;0.06487531;-0.009645342;-0.013815678;-0.33457372;0.039315104;-0.24102642;-0.0038521802;0.3681712;-0.0072068274;0.0149887195;0.09844608;-0.005106617;-0.058226477;-0.17034288;-0.29340824;-0.008019819;-0.0049232533;0.11589278;-0.27753738;-0.0023123738;-0.01152617;-0.01005145;0.117745355;-0.012096795;0.16438076;0.07765971;0.09685918;0.109745495;-0.02143296;-0.04378048;-0.036550704;0.10030226;-0.40316862
-0.18722141;-0.015479236;0.20841606;-0.14799786;-0.45823774;0.028789947;0.20003335;0.04423972;-0.22880845;-0.004257364;0.14667065;-0.13450125;0.014009483;-0.054536857;-0.13496687;0.27110237;0.009350833;0.11394104;-0.0017541266;-0.31825426;0.20353635;0.09329671;-0.03378534;0.0028616711;-0.19903177;-0.09926619;-0.1298647;0.0033885138;-0.0060311244;-0.0074550267;-0.024851216;-0.087655336;-0.15093857;0.017943617;0.02024355;0.16611655;0.009828572;-0.08636533;-0.26080087;-0.3878178;0.16923425;0.004654044;-0.03868954;0.11261389;-0.078732386;0.027762381;0.01075403;-0.05744685;-0.016533915;-0.124793105;0.01281905;-0.01717345;0.13873582;-0.18840995;-0.008083673;-0.014483924;-0.35888728;-0.012103409;0.28737646;0.016142419;-0.021644725;0.29938433;0.01182492;-0.283296;0.01299637;-0.011855804;-0.11295346;-0.07221722;-0.0034907497;0.01818606;0.17263459;-0.21177591;0.11543952;-0.0048286575;0.080183886;-0.72798014;0.34901205;0.07238675;-0.16695699;0.021582456;-0.020957332;0.002702981;0.035088122;-0.12134153;0.009585928;0.4491885;0.1312301;0.003715208;-0.01006055;-0.46691117;0.32061625;-0.23722605;0.025938176;0.027839255;0.000704067;-0.16352603;0.002065853;-0.010673224;-0.179725;-0.10855579;0.31191543;-0.026690474;-0.015936935;-0.1670628;-0.3283801;-0.00534418;0.3030053;0.016233189;0.02046687;0.0024259314;0.016543124;0.16548155;-0.09795;-0.3570444;0.015670432;-0.20221119;-0.13696441;-0.31101447;-0.050524518;0.28214154;-0.029712247;0.009585503;-0.048484325;-0.06799963;-0.237408;-0.026628613;0.17188483;-0.004011132;-0.18982458;0.004750794;0.27615348;0.13187544;0.015688522;0.15933572;-0.02629353;0.11368647;0.15103123;-0.08997132;0.09681368;-0.26515913;0.035392493;-0.018267827;-0.48508725;0.09518377;0.29714274;-0.013135106;-0.02110791;-0.092625014;-0.027505705;-0.24816939;0.22048812;0.28876537;0.008706004;-0.011306991;-0.19053936;0.35360774;-0.0015507654;-0.16521536;-0.24134274;0.04121411;-0.37373465;0.016680537;-0.17834637;-0.010075182;0.31317145;0.0008718842;-0.020758145;-0.12205941;-0.09906722;0.015378309;-0.005642983;0.12574124;-0.0037158227;-0.034014978;-0.023353662;0.0019909716;-0.12944944;-0.10643546;0.0678398;0.07521257;0.319892;0.5211777;-0.18652926;-0.01997616;-0.0015765058;0.18707159;-0.0019544456;-0.01363533;-0.31845313;-0.1311921;-0.26429796;0.15282953;0.21898548;0.049308788;0.17404883;-0.47736058;-0.004248982;-0.55497104;0.1573816;0.09800884;-0.17582354;-0.005659414;0.0034247383;0.013629547;-9.0350455e-05;-0.15846407;0.19519028;-0.07241324;-0.34811285;-0.016093919;0.1319148;-0.10301126;-0.0009420885;0.020020282;-0.07319986;-0.055332873;0.30275765;-0.45264503;-0.123556055;0.33787268;-0.53913575;-0.074178606;0.12740529;-0.018978108;0.006870209;0.041936304;0.41894433;0.001383446;-0.00024748882;-0.049014322;0.058446694;-0.11896942;0.013570652;-0.00033019387;0.07077037;0.2594675;-0.13052766;0.21889181;-0.012333106;-0.2924024;0.22602865;0.2050196;-0.23930895;-0.20797035;-0.0117627205;0.14942911;-0.18461055;-0.1635466;0.01643402;0.012744249;0.23014301;-0.0076662977;-0.07720112;0.088998124;-0.004243664;0.05089623;0.09139861;0.008834873;0.0947745;-0.11998796;-0.2124406;-0.12262741;-0.053737625;-0.21471629;-0.00708743;0.02266231;-0.0056304676;-0.023765806;0.17930071;-0.011009048;-0.01665101;0.22070412;-0.022898618;-0.41293356;0.012759912;0.09224188;-0.17697571;0.005503836;0.20275909;0.011725192;-0.038434833;0.20011699;0.10071102;0.05804646;0.011993898;0.09596742;-0.011020105;-0.084130295;0.059751015;0.028567124;0.14627701;-0.0026265609;-0.065781765;0.07818361;0.007894513;-0.53408676;-0.051930882;0.32014495;-0.070728615;-0.6490326;-0.048357032;-0.005386261;0.018064268;-0.010223183;0.07003201;-0.046256848;-0.04807804;-0.0009886957;0.021424897;-0.07481111;0.3622945;-0.173887;0.008753335;0.47228676;-0.28229278;0.27431107;0.03662448;0.024228182;0.026055457;-0.23691681;-0.032033596;0.017744528;-0.049751867;-0.02991001;0.023094047;-0.34131077;-0.012970015;0.21227661;0.089548364;0.21581969;-0.034639627;-0.004576722;-0.45899135;0.07165536;0.14639862;-0.0045317686;-0.4219457;-0.21289639;-0.15908508;0.23270063;0.00381654;-0.2687726;-0.10502247;-0.54982364;-0.44041747;-0.004384232;0.0053461157;-0.0058935075;0.046858177;0.13839425;-0.09108362;-0.16194406;-0.01405181;-0.10997298;-0.054299198;0.09529946;-0.0982176;-0.013087257;-0.27582508;-0.13711694;-0.060562715;0.058564052;-0.011846991;-0.03453436;0.06603348;0.060839955;0.034081295;-0.2606867;0.05531673;-0.22127791;-0.48639977;-0.20340626;0.0037150495;-0.016145254;-0.015748452;-0.008395861;0.018113904;-0.015405529;0.024355343;-0.012888348;-0.022373887;-0.24973498;-0.009154003;-0.044513706;0.023172235;-0.0031008923;0.054347336;0.0073269526;-0.05183712;-0.038605623;-0.4255893;0.14039427;0.25026843;0.0034985384;-0.08947026;-0.048767254;-0.01814836;-0.19812033;0.30162477;-0.10447203;-0.22150923;-0.0040031583;-0.2264914;-0.007429562;-0.18636328;-0.17812227;0.04092968;0.031337637;-0.0756696;0.002684375;-0.016630763;-0.013778834;-0.4544558;-0.016992304;-0.1342906;-0.25890484;0.08857674;-0.0022445708;-0.35461974;-0.04027234;-0.009410003;-0.11511339;0.25962338;-0.15659292;0.13819133;0.0029540833;0.014566163;0.022053504;-0.15456504;0.12468179;-0.33109406;0.046390537;0.120552875;-0.017487621;-0.0014046484;0.20399374;-0.26122645;-0.08198944;0.5222819;0.0077362815;0.0011955006;-0.10186215;0.0008934512;0.007308996;0.0038571018;0.16496372;-0.027841587;0.20323904;0.009384665;0.12346647;0.15767027;0.0054926407;-0.29415625;0.086152576;0.012943195;0.06526991;-0.006432021;-0.19976014;0.28504556;-0.022952335;-0.005410706;0.038450472;-0.31070814;0.04315391;-0.003595889;-0.034897886;0.0051879417;0.0026534388;-0.06740757;-0.045631927;0.0811596;-0.091983706;-0.0040082578;0.25285324;0.20251682;0.00030007644;0.007994207;-0.18095817;-0.07145881;-0.014636907;0.003090159;0.20268066;-0.26791084;0.031612754;-0.1230091;-0.0041994653;0.048453648;0.0926901;0.004858768;-0.22737938;0.010937224;-0.13626918;0.128444;0.3282866;-0.15355736;-0.007627424;-0.0077169915;-0.024019448;-0.1652593;0.13558523;-0.10854251;-0.0124454545;0.007827273;0.0028642304;0.018533532;-0.004114758;0.14971419;-0.024631552;0.10381102;0.23836288;-0.32086122;-0.24582823;-0.105549455;-0.11241089;-0.24379653;-0.24424097;-0.0034246037;-0.118434876;-0.008605489;0.0017778736;-0.07574926;-0.0033849608;0.00083000585;-0.27765578;-0.00061002333;0.044883348;-0.0101428665;0.0076777516;-0.019394115;0.0101227835;0.05778037;0.09426118;-0.10175192;-0.008993684;-0.16655622;0.025475303;0.016698323;-0.17967054;-0.0034189816;-0.08175615;0.027450321;0.21016148;-0.009226456;0.19959775;0.026652193;0.010944161;-0.12089196;-0.02586783;-0.007055942;-0.004182538;0.42050856;0.013084086;0.0024968684;0.065281756;0.0038663554;-0.09064598;-0.016492506;-0.20688596;4.809285e-05;0.019216942;0.1330902;-0.33750033;0.025706427;-0.09661807;0.0055696857;0.19387643;0.0041878703;0.11672714;-0.12432417;-0.10184732;0.07021835;0.023699954;-0.0854725;0.3158239;0.21261781;-0.41824445
-0.35586607;0.0019465024;0.3827712;0.06894614;-0.14478265;-0.0046492466;-0.0130012;-0.037728213;-0.21756561;0.009808675;0.17791706;0.32564825;-0.008784746;-0.14456493;0.011554769;0.17398202;-0.021729346;0.09247569;-0.012012903;-0.061845507;-0.18023412;0.16076058;0.18782003;-0.019545108;-0.3963734;-0.06476448;0.10423307;0.07637969;-0.0058155027;0.008190874;-0.119962715;-0.108243726;-0.041603066;-0.0037925323;-0.016937718;0.26416326;0.1613198;-0.021707637;-0.1012067;-0.43875307;0.09752495;0.0003051992;-0.08911183;0.117272675;-0.119009726;0.0983567;-0.0006908388;0.013832655;0.002395384;-0.10839975;0.035329923;0.010527065;-0.36811563;-0.051839244;0.0015980863;0.0036100294;-0.21713926;0.021212244;0.15477437;-0.22483082;0.020624563;0.33973616;0.012517116;0.03530598;0.050523575;0.09685053;-0.07332133;0.12767716;-0.00056801987;-0.044822253;-0.17308973;-0.3636364;0.20580536;-0.020711146;-0.0017816381;-0.43139184;0.14761053;0.08725161;-0.21779376;-0.014505325;0.025372416;-0.0033608964;-0.02155962;-0.15990871;0.020489454;0.23734523;0.28294915;-0.009812833;-0.01966264;-0.31045046;0.22025438;-0.18956956;-0.031035716;-0.014386012;-0.0014701951;-0.29801676;-0.0024092295;0.014341525;-0.22939165;-0.1581472;0.24634579;0.018724943;0.012190374;-0.12974595;-0.19041464;-0.0054273396;0.2163346;4.2885775e-05;-0.012106743;0.010494208;0.1606863;0.16397943;-0.25339368;-0.31911734;-0.016913773;-0.10736957;-0.16033676;-0.2942081;0.0970746;0.09454868;-0.2025051;-0.009369371;-0.13337031;-0.17689006;-0.092255555;0.094024196;0.33975738;-0.05147279;-0.25895748;-0.0046464726;0.03899698;0.01936403;-0.006194261;-0.03728856;0.0069749504;-0.11135004;-0.071465984;0.060208876;0.12175362;-0.32966954;-0.03731097;0.004646134;-0.3140305;0.04196639;0.1880234;-0.011393973;0.016095214;0.14445454;0.011579297;-0.08374299;0.10461901;0.18504414;0.06865474;0.013720898;-0.12881884;0.27408296;0.023668697;-0.053364713;-0.18358286;0.03504392;-0.3368214;-0.0721267;-0.13535294;-0.015937386;0.4089518;-0.01318981;0.029476019;-0.04087396;-0.12189197;-0.012750888;0.00057014445;0.25072527;-0.0024083334;0.010861938;0.0018757872;0.029448655;-0.055712298;-0.02866257;0.20135757;0.20868252;0.15501778;0.113559894;-0.20671166;0.18705706;-0.004745372;0.23032463;0.009676334;-0.15297762;-0.34164912;-0.2214728;0.10127312;0.18816383;0.40271494;0.1484196;0.08904686;-0.39265007;-0.0043556876;-0.5212001;0.092458434;0.0470711;-0.22399224;-0.014889091;0.0029338798;0.0013899077;-0.16123402;-0.24731508;0.15646286;-0.10790576;-0.24004316;0.02279692;-0.039273508;0.13401291;0.00503328;-0.015386228;-0.19857273;0.036958747;0.13992932;-0.21381323;0.025685372;0.074342154;-0.25429565;-0.0025943562;-0.15987165;0.11181297;0.012692656;0.097050846;0.33585754;0.00066564337;0.00016506643;0.022328224;0.018590191;0.0033221918;-0.022740323;0.013217284;-0.25057653;0.08301901;-0.13459146;0.08125715;-0.009113879;-0.18636315;0.02810185;0.35878086;-0.25932026;-0.11286117;0.009797595;-0.09870568;-0.038050987;0.11965758;0.015313067;-0.004036011;-0.162335;0.01494099;-0.11274805;-0.1520827;-0.0030817993;0.1263104;0.16990438;-0.009682655;0.068652555;-0.06954918;-0.16970031;-0.27621225;0.035009574;-0.05648468;0.019757284;0.22598484;-0.0014001001;-0.013672819;0.0392138;-0.0031223763;0.008469557;-0.16305347;-0.019343052;-0.36898297;-0.027553577;0.16276221;0.3256132;0.000639147;-0.021213511;-0.012204536;-0.046842314;0.022741612;0.2460219;-0.18374018;0.0056231967;-0.13700813;0.0014383651;0.018665448;0.080941215;-0.028029554;0.19441314;0.0145530645;-0.2177671;-0.09585538;0.010394374;-0.25034738;0.06382953;0.12740979;0.05576433;-0.774654;0.067883156;-0.024143903;-0.01649039;-0.0023281078;0.45677692;-0.090623386;-0.08528993;0.001442315;-0.0059229806;-0.34718293;0.37708533;-0.08788477;0.0014396149;0.37746423;-0.42173067;0.20748855;-0.09639859;-0.016072026;-0.021504993;-0.05305168;-0.0018519096;-0.020082172;0.037206393;-0.028596766;-0.021169133;-0.17007619;0.015701914;0.15793002;0.19468695;0.19795199;-0.110471874;0.016970366;-0.6497879;0.43189427;-0.22463444;0.0064354623;-0.15924697;-0.14081794;0.05250613;0.1308306;0.0004152846;-0.0027832305;-0.12147212;-0.23758982;-0.39648983;0.0028570548;-0.003000056;-0.00576633;-0.040583536;0.009063252;-0.04999901;-0.03792235;0.056097753;0.33094788;-0.2874641;0.024028629;-0.23126727;0.0029707283;-0.055954058;0.01414528;0.26577494;0.18900901;0.006792949;-0.051827554;0.19535641;-0.06183666;-0.023499537;-0.369911;0.122537754;-0.09204643;-0.30210185;-0.24436538;-0.011214048;0.01421749;-0.0062465784;0.027608775;-0.019600214;-0.0003379376;0.006493282;-0.036772255;0.00012305085;-0.0053630956;0.014570063;-0.20771836;0.002620765;0.013148508;0.011387914;0.03418007;-0.13436535;-0.043941054;-0.19954504;0.31267977;0.026687855;0.005352719;0.13309221;0.031539753;-0.000823239;0.009132643;0.42520097;-0.10631977;-0.18782596;-0.0008361736;-0.093962245;0.02114009;0.014263719;-0.079217575;0.046404503;-0.016078359;0.012497954;0.0029504045;0.014234271;-0.005749658;-0.4521457;0.0217465;0.025045205;-0.4413472;-0.04356107;0.003429975;-0.25572908;-0.026072659;0.21642599;-0.10740793;0.09144008;-0.3192809;-0.16926916;0.00943246;-0.011019097;-0.11519263;0.13971719;0.19944407;-0.21472663;-0.014057722;0.22760835;-0.012445634;-0.019564025;0.32216352;0.0039217873;-0.034923233;0.53497183;-0.0038533728;0.0051290635;0.106051676;-0.016391993;0.079265215;-0.032292284;0.5519331;-0.0025625208;-0.05551178;0.008415473;0.13851205;0.3627443;0.0076984204;-0.104828514;-0.14159572;-0.008181073;0.12221404;0.005001034;-0.07919744;0.20657463;0.011610945;0.004236945;-0.008960266;-0.35164097;0.119325;-0.15356737;-0.2522787;0.006734032;-0.04185587;0.16202319;-0.060475662;0.16430241;-0.29130593;0.030234495;0.24312426;0.027214697;0.003243871;0.015181542;-0.1613181;-0.13503566;0.011402437;-0.038892433;-0.054978672;-0.22314359;0.15856782;-0.2689015;0.00491878;0.11001666;0.132173;-0.011332756;-0.05502698;0.005248919;-0.03156654;0.21097419;0.24933141;0.30259493;0.0002759844;-0.17120874;0.019257603;-0.054035448;-0.0446972;-0.08528791;0.017278373;0.0024574145;-0.0065509523;0.14166668;0.012730989;0.0028334823;0.0033109898;0.29130706;-0.007448608;-0.4631194;-0.33990544;-0.05143168;-0.0802235;-0.17844704;-0.029229999;-0.017768798;-0.21626526;-0.005384087;-0.10430399;-0.057409383;-0.0040227827;0.0004910352;-0.2462818;0.0073652775;0.14696996;0.0028841868;-0.0074278787;0.020899123;-0.017963212;0.27076823;-0.03892392;-0.11542792;-0.004199964;-0.20205542;-0.024065608;0.06367226;-0.0939204;0.002599328;0.085924245;0.28055793;0.14939916;-0.0035422784;0.39788;-0.0141703235;0.004372899;-0.24917018;0.01611987;-0.12225505;0.013705484;0.25195745;-0.0018907876;-0.018245397;-0.112685286;0.0040342505;-0.20804;-0.16225377;-0.092600524;-0.0007166179;-0.027752195;0.21892738;-0.22623754;0.055227734;0.043910876;-0.00790606;-0.10970959;0.01113471;0.023872068;-0.24563286;-0.0709117;0.047884896;-0.008567421;-0.07066426;0.21067728;-0.08578909;-0.04000246
-0.31670287;0.20261116;0.37789398;0.10595256;-0.20062593;-0.015853772;-0.06272095;0.013020201;-0.14500128;-0.022050079;0.06374668;0.36771232;-0.0013904888;0.07455171;-0.11357935;0.18681394;0.006201677;0.055409487;0.0007678926;0.1698375;-0.10817298;0.21527341;0.006089048;0.00017953145;-0.30730885;-0.07260838;0.19017376;-0.26437068;0.004935976;-0.006017999;-0.020649688;-0.23508418;0.017374838;0.00039040062;0.008992982;0.24676713;0.08133758;0.10115428;0.10649847;-0.4708934;0.16993761;-0.006530544;-0.13635743;-0.09744656;0.004820841;0.15182863;0.012007671;-0.05208395;0.0020479744;-0.0881511;-0.21646929;-0.019936979;-0.27182382;0.15157299;-0.0005647817;-0.01931468;-0.23635149;-0.013627927;0.1551005;-0.22924991;0.01458153;0.19978715;-0.029276181;-0.0637165;0.09531048;0.15615046;-0.20478147;0.031863548;0.0024930374;-0.06542566;-0.2090934;-0.4246577;-0.1955563;-0.14970487;-0.119136214;-0.21356367;0.067228;-0.01792306;-0.20748065;0.0039252276;-0.011210646;0.0036826355;0.056102738;0.061404817;0.006549705;0.26480332;0.17241055;0.016306432;0.01320697;-0.32090166;0.043983586;-0.5063194;0.0130383875;0.03521035;0.002874346;-0.1474197;0.006740471;0.009795927;-0.4382192;0.0027544664;0.16308653;0.004974103;0.0006452894;0.17410693;-0.16169432;0.0025010318;-0.32619053;-0.021173334;0.0046341196;-0.02180523;0.15365419;0.111054696;-0.2677095;-0.07672016;0.010481637;-0.059101466;0.16180632;-0.14492278;0.15165316;0.051054567;-0.17520966;0.012569525;-0.013063379;-0.3113297;0.032322038;0.07811137;0.42570192;-0.02191085;-0.057211824;0.015311465;0.0012249462;-0.16668506;0.0068159057;-0.15420043;-0.018438654;0.058490742;-0.062739655;-0.001625147;0.0117771635;-0.30422705;0.05615249;0.010098502;-0.03421906;-0.0167586;0.026619872;0.003957918;0.012194534;0.12776937;-0.0138300555;-0.114942454;0.082399465;0.19754036;0.056549367;0.0020215637;-0.24207641;0.041620824;-0.030552814;-0.109596424;-0.26162964;-0.057866145;-0.082325704;0.12498983;-0.27680805;-0.034919657;0.3015039;0.016856747;-0.011040846;0.08886444;-0.15563886;0.014388403;0.009334483;0.28993756;-0.00033359512;0.024150573;0.0028417148;0.120655745;-0.102273986;-0.026618173;0.08213789;-0.055941857;0.09562928;-0.006232887;-0.03692006;-0.17649503;-0.00092149316;0.310988;0.0005761707;-0.101565674;-0.36020643;-0.11218246;0.19101511;0.04066613;0.20776264;0.12463181;-0.020913878;-0.38137826;0.006021767;-0.28956622;-0.23254614;0.07616073;0.093088545;0.02587045;-0.014609786;0.0010864539;-0.123798184;0.03933717;-0.15110466;-0.0731433;-0.13174225;-0.010443206;0.025986798;0.14054683;-0.007839411;0.016309569;-0.06849928;0.023657076;0.30691084;-0.16624884;0.0315294;-0.056526445;-0.37317684;0.13611774;0.08374034;0.10307455;-0.003874478;0.102992795;0.06135119;0.00916999;-0.006084175;0.06164038;-0.085940525;0.07121855;0.007833104;-0.0002147762;-0.4059512;-0.027368251;-0.048586007;0.18046607;0.015588965;0.09354489;0.13907427;0.3039079;-0.48389006;-0.07349086;-0.0076035326;-0.039369736;-0.06359313;0.17898746;0.053936347;0.0034290792;-0.278971;-0.017556002;-0.21406685;0.047136832;-0.009623811;-0.088589475;-0.060365703;0.005996235;0.023851309;-0.19724275;-0.06772992;0.032869138;-0.034329273;-0.042318586;-0.016549205;0.38692158;0.021104002;-0.0020931063;0.068345144;-0.014635369;-0.018875184;-0.058764607;0.1799669;-0.10987268;0.0075147133;0.18598185;0.14264722;0.0099842055;0.15037063;0.013346114;0.07991539;-0.12463769;0.11946467;-0.23394544;0.00469836;-0.07955874;-0.0056132847;-0.13188301;-0.1282691;-0.013107692;0.32043198;0.03412058;-0.12786563;0.2174111;-0.007545017;0.1566417;0.15794419;-0.03859996;0.19314791;-0.47277248;0.105650485;0.019813688;0.00866012;0.0031788966;0.2913904;-0.12525728;-0.28500405;0.003100438;0.23196034;-0.10767493;0.3088776;0.0024900371;0.0018520087;0.09408487;-0.5845804;0.10775907;-0.34139886;0.016407445;0.015807703;-0.13632913;0.15780248;0.005380288;0.068036824;-0.11726931;7.7133016e-05;-0.1638299;-0.025981259;0.2789524;0.06991748;-0.21669042;-0.24218105;0.0018709525;-0.5055732;0.26898265;-0.15383951;-0.006201212;0.14490555;-0.034144055;-0.12843154;0.061139006;-0.0041482947;0.208126;-0.05119422;-0.3141702;-0.49180746;0.008877787;0.015281591;0.026545696;0.05753526;0.14768183;-0.12428368;-0.16539754;-0.048343524;0.13319565;-0.27687174;-0.005033599;-0.16123971;0.017447602;-0.04005053;0.003442336;0.13859326;0.24882811;-0.0039469176;-0.09966901;0.106049374;0.10263267;-0.017751392;-0.4854313;0.0366794;-0.18051772;-0.35690543;-0.09963113;0.014088241;-0.014314564;0.019640647;-0.02860945;0.009910813;0.02502088;-0.005740229;-0.06424515;0.013489099;-0.0045144223;-0.01622067;0.068697795;-0.022574639;-0.023437561;0.06280618;-0.061095774;-0.034701686;0.07186978;-0.091947936;0.20572627;0.096710294;-0.009018541;-0.08189157;0.063265376;0.002947504;0.021493783;0.12053875;-0.06141812;-0.07978688;-0.00041065027;-0.10228756;-0.0046035703;0.14170429;-0.07947767;0.052223857;0.0040480727;-0.06255241;-0.017984152;-0.01180133;0.0036597233;-0.4807394;-0.02915138;0.13279296;-0.44395363;-0.085948884;-0.011262059;-0.018193994;0.03560167;0.34396034;-0.00073527533;0.21867779;-0.09478752;-0.13863258;-0.012149403;-0.004270077;-0.07676132;0.08229794;0.23031601;0.08230894;0.16062939;0.28377008;0.011775363;0.01238665;0.44712257;0.15941268;0.27597716;0.3959306;0.004554176;-0.007680752;0.12101317;0.010309237;0.2129391;0.021221079;0.09906771;0.008771634;0.04841222;-0.021485869;0.22327724;0.30455402;-0.010967564;0.08987482;-0.19070387;0.0068014245;0.1461015;0.0005396817;0.09521043;-0.13621747;0.0052051567;-0.002255741;-0.017233621;-0.09790963;0.030746855;-0.09453983;-0.06894895;-0.017258529;-0.07882187;0.13065141;0.016643953;-0.052420318;-0.1381089;-0.034621432;0.25953513;0.1304039;-0.017027218;-0.020407462;-0.2612687;-0.089816414;-0.012993015;-0.04557069;0.13068269;0.1104058;0.12454816;0.21077132;0.014934601;0.11229121;-0.210444;0.0110731;-0.1661464;0.004589221;0.42513034;0.20385979;0.10371558;0.21115632;0.0058826925;-0.18251424;-0.0030737363;0.10772389;0.06961125;-0.20957308;-0.009498294;-0.010536339;0.005380875;0.035835445;-0.01607383;0.13707106;-0.006284642;0.05517212;-0.2862256;-0.39388514;-0.35844848;0.023132756;-0.12729077;-0.26223543;-0.0635603;0.02509171;-0.23066448;-0.0025184103;-0.16403547;0.12231359;-0.00048345941;-0.008460707;-0.06325453;-0.01323873;-0.057112254;-0.0075584794;-0.011151106;0.04280119;0.022472102;0.10920276;-0.059895545;-0.13231406;0.023620224;-0.16359411;0.032171067;-0.07891774;-0.20007393;0.0033915602;-0.042490155;0.3615833;-0.032378413;0.01247562;0.41802913;-0.004459943;-0.012114365;0.199379;-0.005763255;-0.13417315;-0.0087552685;0.14323118;-0.0051158047;0.017886378;-0.25324667;-0.00702698;0.006257099;-0.33276543;0.14848869;0.015180401;0.0126033295;0.05748076;-0.15841433;0.11125967;0.21438478;-0.013090723;0.061240923;-0.008413528;0.1731634;-0.3148523;-0.1963026;0.08391068;0.004475521;0.0112673985;0.36511457;-0.078542516;0.013745234
-0.1408341;0.02677513;0.24889053;0.21497968;0.00391369;0.012585544;-0.074091755;-0.0018976667;-0.44404158;0.024162533;0.1749404;0.08068996;-0.0056091114;-0.12118848;-0.07166462;0.15857588;-0.010283916;0.13891739;0.02783906;0.30644283;0.115219906;0.21841253;-0.10239189;0.06771828;-0.27410883;0.06274027;0.30812332;-0.2347885;-0.010945253;0.013118403;0.008955595;-0.28689352;-0.07737238;-0.00054176734;-0.00461507;0.45451066;-0.21322693;-0.044691723;0.26420897;-0.29078963;0.023266627;0.010339646;-0.13483897;-0.08982323;0.13468947;0.24209456;-0.0024917594;-0.03278179;0.016283652;0.09141575;-0.23076779;0.02962482;-0.07494917;0.22710375;-0.0015308808;0.019099064;0.031187087;-0.0010403271;0.15126656;-0.30567402;0.008950697;-0.0063208994;0.024267362;0.11112525;0.06543592;0.14235744;0.036282256;-0.021259347;0.014717332;0.021231791;-0.07139706;-0.29030445;-0.19642304;0.053607546;-0.39122504;-0.08093058;0.13697162;7.278922e-05;-0.23755838;-0.014352414;-0.005897202;-0.0057611866;0.009141735;-0.035553865;0.019218024;0.2756427;0.3038244;-0.010346982;-0.0025248397;-0.1666549;-0.044153895;-0.49268463;-0.022360101;-0.0115157105;0.0005771893;-0.18242864;-0.014259794;-0.028702907;-0.24817845;0.07718167;0.122001566;-0.01594611;0.0054764724;-0.11304581;-0.2033744;-0.015620135;-0.49360055;0.005493808;-0.025425201;0.017869718;0.10345314;0.19784963;-0.2484521;-0.07767475;0.01177403;-0.01608147;0.11686551;-0.17352164;0.0955474;-0.12913726;-0.10558169;-0.017364515;-0.039541602;-0.2925012;0.2498207;-0.07550877;0.2633772;0.14020102;0.027612785;-0.0047288844;-0.13376075;-0.21125185;0.0018887428;-0.34059757;0.01994112;0.043295532;-0.17506114;-0.1427905;-0.20171545;-0.1385883;0.0908068;-0.007966107;-0.10323678;-0.35938603;0.017083209;0.009406513;-0.013523509;0.104264;0.0013645773;0.21424964;0.10395508;0.08261204;-0.0054836036;-0.0040357257;-0.15587282;0.14153938;0.0004381415;-0.08959826;-0.15568718;-0.1820887;-0.11361491;-0.19997813;-0.26249477;0.06566367;0.15794761;-0.009202526;0.011268799;0.009672396;-0.21880493;-0.012562161;0.0025960808;0.36967373;-0.0031720267;-0.0049910475;-0.001971803;-0.016081546;-0.030528888;0.08837397;-0.36125496;-0.105731755;-0.03496757;-0.099063866;0.050341375;-0.049936324;-0.003647642;-0.047271643;-0.003588128;-0.16737552;-0.2809907;-0.1409284;0.008598513;-0.046553537;-0.15818712;0.23807599;0.15584973;-0.33099577;-0.014056172;-0.24950403;-0.16988456;0.014119621;0.26889062;-0.009686965;0.0062413784;-0.010404388;0.054335747;-0.25895992;-0.16830894;0.08692942;-0.09170552;-0.004346342;-0.054914117;0.12100176;-0.0044570556;-0.0140639385;-0.009419382;0.09389813;0.34715888;-0.27062175;0.04256564;-0.093369536;-0.46752638;0.483173;0.21207812;0.10135518;-0.022219608;0.04969923;0.07795265;-0.02200489;-0.0026684003;-0.09512172;-0.06729554;0.11849316;0.004376536;-0.008606148;-0.26692897;-0.06207574;-0.16352873;0.30273783;-0.0066418513;0.09713193;-0.013889032;0.14733358;-0.26411822;-0.18118443;0.008430077;0.029748363;-0.122104056;0.45451927;0.13168041;0.0124650635;-0.1767668;-0.0059274337;-0.06867973;0.106093235;0.03533871;-0.026693115;0.26292062;-0.0009677304;0.026638268;0.008715453;-0.022252582;-0.08387616;0.1584894;0.0061195376;0.01736661;0.3629857;-0.016261453;-0.0009618188;0.27499667;0.005661282;0.025897698;-0.07313668;0.16708998;-0.0011259585;0.015140418;0.13107957;0.18476291;-0.020837799;0.11403023;-0.017963326;-0.12997347;-0.11894798;-0.019938545;-0.38821167;-0.008693312;0.00072477397;0.002420671;0.24008898;-0.31293008;0.023776101;0.13444911;0.18501604;0.22329599;0.15388511;-0.0016116006;0.24400216;0.31892705;-0.0077352854;-0.0298162;-0.1924412;0.060288332;-0.012000593;0.0013672949;-0.008656899;0.11136093;-0.3365905;-0.5493115;0.006117274;0.17372008;0.065368526;0.36468318;0.047365345;-0.010257526;-0.10271723;-0.037685916;0.079964675;-0.31254023;-0.015849248;-0.000536638;-0.38198423;0.33604318;0.0076373066;-0.11710157;-0.29871386;0.018371152;0.03882162;0.021045139;0.14851198;-0.24224547;-0.26430637;-0.10859253;0.0026361526;-0.18254924;0.14186156;-0.21483822;-0.0036848793;0.08759512;0.10893846;-0.17496653;-0.0120654125;0.00760094;0.11870696;-0.2861146;-0.18688689;-0.45382613;-0.005671171;-0.012607745;-0.013746774;0.16822705;0.2563494;-0.039395038;-0.2797926;0.028710674;-0.021449031;0.032435313;0.06756678;0.040412016;-0.023738949;-0.014094534;0.058054537;0.10196598;0.2848526;0.010093143;-0.0030465573;-0.0201955;-0.17889138;0.030001037;-0.18905601;0.029746499;-0.04116367;-0.24968688;-0.20373744;-0.018344661;0.008360844;-0.012021666;-0.0036536525;-0.015211471;-0.015825048;-0.011127991;0.07486905;0.0022182663;0.23008886;0.008069542;0.28224394;0.007715163;0.0013428217;0.09818879;0.10807302;0.024256231;-0.04256641;0.12001664;0.093194924;0.053851046;0.008865714;0.09100422;0.009468824;-0.0057056895;0.12539749;0.13690217;-0.20932531;0.22967222;0.008368718;-0.05255861;-0.010672866;0.13170175;-0.10066593;-0.18492481;-0.014193248;0.03953973;0.015098537;0.015412506;0.004980694;-0.3056345;-0.0038879036;0.14263614;-0.2189414;-0.10895452;0.018476073;-0.020181611;0.01987387;0.36750656;0.3156535;-0.12034908;0.15119804;-0.09556702;0.0040227547;0.021451257;-0.059931885;0.1040515;0.14317273;0.22906427;0.07530256;0.06923543;0.0031475048;-0.0041453233;0.19067714;0.22178142;-0.00886041;0.18365663;-0.010237756;-0.004689801;0.21506342;-0.0058832625;0.24847609;-0.036284402;-0.26921055;0.0112332385;0.19402608;0.020714873;0.00823853;0.30341232;0.0141131105;-0.04024239;-0.33761683;-0.0030708064;0.14460689;0.0105376495;0.21990627;-0.010603141;0.0009106047;0.008402394;0.0056004906;-0.34692875;-0.15392774;-0.102714665;-0.14770922;0.00028075493;-0.043278873;0.07027952;0.15381351;0.18594483;-0.13285455;0.0052845567;0.20148301;0.09443147;0.0076699844;-0.008198971;-0.2340172;-0.15467086;0.007039062;-0.098670565;0.11986301;0.088992245;0.1955361;0.060065296;-0.00541094;0.13218603;-0.27354908;-0.009409743;0.18903737;-0.0047243945;0.28288195;0.2641192;-0.28865397;0.09924009;-0.0058717616;0.006956051;0.023110716;0.110211745;0.15888603;-0.08569408;-0.010228104;0.010655287;-0.0004734651;0.063298374;-0.0022913706;0.04616135;0.00047864756;0.1454268;-0.37261504;-0.3681444;-0.06443359;0.031645194;-0.074361406;-0.18469068;-0.0737611;-0.018933348;-0.53591186;0.000256554;0.021229865;0.07806637;0.006658691;0.00068524026;-0.19103524;0.012721935;-0.05237569;-0.01264517;-0.0006506066;-0.05708024;0.001152288;0.13632861;-0.095330656;-0.3421987;-0.00012352149;-0.309852;-0.00078343845;-0.0305312;0.08286416;-0.0019992848;-0.07041106;0.021375451;-0.01086461;-0.0074803727;0.27490315;-0.0064416183;0.026312102;0.1312838;-0.009003552;0.050120234;-0.016092831;-0.12634598;-0.0067265513;-0.011948412;-0.031589992;0.0005311843;0.29822037;-0.491036;0.13293646;-0.0010509262;-0.003130274;0.118473515;-0.01737914;0.11291463;0.13408232;0.012319117;0.064647965;0.011595538;-0.07868902;-0.22981963;-0.13505036;0.13416739;-0.0036781586;0.122769095;0.099497005;-0.25990328;0.060232762
0.026377097;0.068702176;0.18831986;0.2931674;-0.041439246;0.0010686632;-0.15631378;-0.015765639;-0.108016476;-0.0077503086;0.1373825;0.33360946;0.0028231593;0.024708735;0.06979025;0.20056425;0.010459977;0.17177239;-0.017545631;0.16507791;-0.006030538;0.25764686;0.016180085;0.11090353;-0.248196;-0.028750401;0.34795576;-0.028097464;5.162406e-05;-0.0048195357;0.0017394662;-0.29736847;-0.11901329;-0.011677283;0.009025577;0.042586684;-0.15480584;0.07087395;0.27183014;-0.109185256;-0.085307054;0.010658617;-0.23295046;0.08164375;0.21165858;0.16836765;0.0017487096;-0.115870595;-0.00561135;0.052480042;-0.2324546;-0.018915934;0.1659764;0.33141083;-0.0010741901;0.0054111555;0.103150286;0.01265858;0.23415117;-0.40069875;-0.011913563;-0.13182063;-0.0067678518;0.23669662;-0.035920307;0.15333746;0.091478564;0.08761694;-0.0077092024;0.03244442;-0.2304473;-0.3950141;-0.0814083;0.13648172;-0.37952375;-0.06273986;0.060897082;0.018505117;-0.035201814;0.009810623;-0.0021225223;0.015358774;-0.16387042;-0.030078003;0.0043668835;0.114782356;-0.031065663;0.011702939;-0.011182591;0.09719866;-0.19120605;-0.3112703;0.011198326;0.049653675;-0.0006975378;-0.092989884;0.011127517;0.029335707;-0.084709145;0.03684617;-0.16962491;0.010538531;-0.011525305;0.023962509;-0.1597467;0.013244328;-0.6141157;0.011899504;0.01756358;0.0008970167;0.17884997;0.17214851;-0.24479596;0.29312903;-0.013753805;-0.02700705;0.0630776;-0.077280976;-0.052132268;-0.25287613;0.26352075;0.022444881;-0.027771775;-0.093234755;0.21810105;-0.025733694;0.1380895;0.06944126;0.17345783;-0.0055596707;-0.045669824;-0.046443623;-0.035591103;-0.2302657;-0.008652991;-0.046954915;-0.08353326;-0.15930644;0.06773343;-0.13356529;0.04215273;0.0049705165;-0.1680951;-0.20862162;0.025827175;0.0059544137;0.016726984;0.09395315;0.024013126;0.28010634;0.06374685;0.15800367;-0.11552457;-0.002795937;-0.34999827;0.02016483;0.0072223837;-0.11940675;-0.12216539;-0.40056223;-0.18069;0.16226763;-0.39827374;-0.045384165;0.18478201;0.005338501;-0.010000738;0.22151838;0.12447974;0.011923007;-0.01153784;0.544045;-0.006284204;0.002858311;0.012507038;-0.002624998;-0.089964844;0.0987817;-0.45308062;-0.15939808;-0.04140061;0.0498639;-0.00924993;-0.18322915;0.004504939;-0.21041311;0.0021224155;-0.11943502;-0.39046204;0.20463423;0.16269216;-0.005200601;0.10332306;-0.008355943;-0.17395043;-0.16853221;0.020632304;-0.06297443;-0.024302708;0.30430594;0.25464094;-0.0014636413;-0.0028084002;0.0042740013;-0.15368147;-0.30972743;-0.14345126;0.2381216;-0.0086076325;0.0048018633;-0.27327466;0.15490468;0.010414012;-0.005044607;0.08628511;0.07151498;0.108797766;-0.31694967;0.1307913;0.10537424;-0.42681822;0.34390223;-0.019303469;-0.023695946;0.0147835035;0.026491266;0.24810052;0.014268194;-0.0048682755;-0.026360903;0.027236504;0.20853677;0.00045185146;0.00050723174;-0.18722337;-0.061859038;-0.13985689;-0.12905337;0.0061571803;-0.17388585;-0.059481744;0.16611207;-0.10795289;-0.27355897;0.0067783897;0.10592556;0.052314065;0.48211753;0.07784598;-0.018077053;-0.3496216;0.0016445981;-0.04497475;-0.0658667;-0.017961493;0.15909833;0.24352933;-0.0072086793;0.0521028;-0.109132685;0.13641688;-0.20878957;0.16534433;-0.13175133;-0.024208795;0.19642942;0.0053992425;-0.02362481;0.42211854;0.016687911;-0.008911556;-0.007254501;0.10105502;0.13133675;-0.012381067;0.15846622;-0.19798858;0.0029000738;0.12327447;0.008637153;-0.22724925;0.015519943;-0.19456522;0.09084881;0.00616257;-0.22569968;0.009676207;-0.016463116;-0.08694749;-0.016121874;0.08626379;0.12103806;0.10149554;-0.104629256;-0.00423812;0.30828896;0.3127676;0.0037958797;-0.12207692;0.06767415;0.15790434;0.008941121;-0.020006083;0.010222102;-0.22358386;-0.19919872;-0.21340208;-0.01711215;0.25881633;0.33563113;0.3337967;0.12576689;0.0059775533;-0.027905587;0.05888905;0.11361106;-0.050307382;0.01061724;-0.014498768;-0.45496395;0.23047467;-0.019619303;0.009950544;0.004918359;-0.010108896;0.057744596;-0.0076662777;0.0038172335;-0.057100486;-0.1383984;-0.008747854;0.003579672;0.010963448;0.086311854;-0.28618753;0.020369722;0.12049709;0.024995262;-0.28288147;0.115797;0.008710247;0.24543619;-0.02672787;-0.4535495;-0.31496093;0.017107775;0.010297413;-0.010060281;0.20466575;0.22203694;-0.17073439;-0.09354745;0.3861629;-0.0063895104;-0.16509451;0.050183203;-0.17503102;0.013383427;0.059184037;0.06729117;-0.00933152;0.24659961;-0.01326452;0.03534474;-0.09323041;-0.23107366;-0.0059683034;0.074366555;-0.14255565;0.17195778;-0.24056175;-0.08181491;0.018415209;0.0072109704;0.0030768674;0.015947592;0.01724942;0.010265518;-0.011522672;0.025679074;-0.005530723;0.015033587;-0.017893687;0.023872485;0.01215547;0.011749264;0.22499262;0.058723856;0.12412559;-0.3786716;0.2875392;-0.119361795;-0.0871074;-0.0026335758;0.12946449;-0.05148236;0.011814917;0.13427752;0.22777227;0.007574142;0.24596044;-0.0036646833;-0.20772153;0.0132404445;-0.098082244;-0.09357139;0.0454162;0.004437263;0.021563612;-0.018636763;0.0050823595;0.0022067064;-0.20605007;0.011630487;0.28117704;-0.30437633;-0.07337826;-0.012586482;-0.13113432;-0.019638978;0.3977484;0.12523185;-0.08741384;-0.0063030254;0.01172297;-0.016414823;-0.017186929;0.04380075;-0.051844586;0.11477543;0.021368807;0.16715512;-0.1556502;0.001926127;0.0045644045;0.06553444;0.2315886;-0.12436927;0.014902256;0.006849402;0.0011367043;-0.102124654;0.016412303;0.08527089;0.046454087;-0.39285293;0.012082566;0.27519858;-0.008836322;0.050690506;0.18077326;-0.011122016;0.19429518;-0.10817945;0.0058814064;0.1258929;-0.0043772743;0.061586384;-0.28945372;-0.0149543155;-0.020275922;0.013665176;-0.26400885;-0.067309;0.062296327;0.017325448;-0.001289005;0.022169506;0.17940345;0.18871634;0.18687269;-0.17732947;0.010424284;0.113653645;0.14258699;-0.0010640647;0.013837249;-0.2735059;-0.091045156;-0.021761695;-0.21061184;-0.1708669;0.24810505;0.18890294;0.009850824;-0.004989491;-0.11955609;0.017712018;-0.0035213989;-0.10629113;0.0052772784;0.32729897;0.0061531304;-0.34805048;-0.040217012;0.0019080872;-0.24258809;-0.025074225;-0.071159385;-0.15098166;-0.20666848;0.0049142735;-0.0024938416;0.000111722795;0.072991185;0.0046687596;0.08776145;-0.012516073;0.003044714;-0.14764231;-0.31168365;-0.03395544;0.10377785;-0.07908263;-0.17027181;0.07895762;0.029809153;-0.9457092;-0.00095143693;0.14719635;-0.06355675;-0.0066832863;0.00064398773;-0.27564675;0.0077956123;0.17909536;0.024123069;0.00050714234;-0.012697409;-0.022085365;-0.011001479;-0.076602526;-0.26575574;-0.012716626;0.04271265;-0.012011656;-0.23803778;-0.22097519;-0.027253602;-0.060934935;0.034643617;-0.24101806;-0.0010945909;0.09992476;0.0031817183;-0.035009395;0.15805316;-0.004415624;0.03657044;0.018213535;-0.31843325;-0.006848558;0.009328469;-0.05872174;0.0014823489;0.25901592;-0.4435495;0.3055103;0.0062441733;0.009169181;-0.12887527;-0.010933405;-0.092412844;0.107343525;0.011486839;-0.04645972;-0.018960722;0.041576266;-0.21150507;-0.085595325;0.223459;-0.0034639912;-0.029038612;0.026062002;-0.11063926;0.018277103
0.0940336;-0.0022033576;0.19543402;0.10128024;0.18766645;-0.009497361;-0.25379416;0.011360229;0.12187335;-0.020054458;0.12096532;0.37958914;-0.00012038578;-0.07426778;0.019232284;0.19285533;-0.0050233016;-0.011857888;-0.005517764;-0.3033608;0.017419778;0.15280451;0.04853113;0.053434145;0.04236473;-0.15156215;0.09165381;0.25868636;-0.0024203947;0.008321341;-0.05695055;-0.11472501;-0.118514344;-0.0013708114;-0.018420296;-0.056174204;-0.0065042772;0.048993964;0.16303092;-0.030235756;-0.2140933;-0.023612062;-0.14103991;0.23166718;0.21666408;0.10864109;-0.037874542;0.1404077;-0.005401379;-0.1209887;0.03142488;-0.0016467987;0.043001506;0.10065285;0.006012198;-0.012115704;-0.017588852;-0.009380557;0.17517614;-0.011367395;0.005636074;-0.22005019;0.007781785;0.36974585;-0.06476914;0.062630184;-0.0093332315;0.43310714;0.00042502012;0.15286437;-0.21413524;-0.391547;-0.03483026;0.070771806;-0.2859132;-0.18139379;0.08691551;0.103682674;0.22176267;-0.01389513;0.033661366;-0.020026244;-0.20940988;0.019686617;-0.030701254;0.1832906;-0.22724555;-0.010717995;0.009319728;0.053214394;-0.16019663;-0.0067435857;0.017642874;0.023046045;0.0022554512;-0.1606957;0.0052348883;-0.005206024;-0.07202361;-0.03897883;-0.07433418;-0.017772555;-0.0008174131;-0.087809384;-0.13693872;0.0060252543;-0.5741082;-0.0103982985;-0.011649162;0.004187283;0.095905766;-0.04014463;-0.11537402;0.37197852;0.00452709;0.07173661;0.033656433;-0.102672234;-0.07202236;0.02801366;0.2151064;-0.023431746;0.0021189512;-0.15703708;0.04518153;0.154649;0.181428;-0.066024326;0.004699841;-0.013271459;-0.05398451;0.21553184;0.011656831;-0.051291976;-0.0012227704;-0.04276894;-0.07364245;-0.02147785;0.26897234;-0.14601284;0.08694451;-0.0075607337;-0.34470147;-0.1263319;-0.033800043;-0.0029783156;-0.025591658;0.112170056;-0.012856075;0.19371922;0.27370206;0.08471076;-0.051075127;0.015077365;-0.42788047;-0.057601288;0.017669568;0.27645388;0.031154007;-0.38665235;-0.032884724;0.06690217;-0.2111948;-0.05294712;0.037902977;0.0034329488;-0.015085001;0.0778417;-0.014986004;0.0010699622;0.005827141;0.22953323;0.002119998;-0.006262616;-0.002301185;-0.16474828;0.027048176;-0.052291233;-0.27479133;-0.07751533;-0.12144886;-0.23240954;0.13963656;-0.18787834;-0.00036654607;-0.038231824;-0.016164683;-0.10365941;-0.26842454;0.29701084;0.0054970686;-0.17316449;0.024366593;-0.09944666;-0.13698696;-0.1887572;-0.0073148715;0.12343976;0.13012595;0.07279354;0.2345346;-0.008619606;-0.0044930116;0.0023479953;-0.058327857;-0.17715818;-0.1698984;0.22416167;-0.112676844;-0.016331421;-0.25281647;0.058367055;-0.004348909;0.023098318;0.26788995;-0.1292841;0.028975712;-0.22897801;-0.05322963;0.1452623;-0.32702813;0.24485269;-0.16879006;-0.22587416;0.0012994987;-0.042775527;0.3200748;0.016631085;0.007685515;-0.007859081;0.06044432;0.18096457;0.001664457;-0.01858022;-0.051251438;0.12958527;0.13313457;-0.20632574;-0.0082950685;-0.00854575;0.016562078;0.12907802;-0.12887932;-0.15563647;-0.03092938;0.17954831;0.10936914;0.44828886;-0.004598632;-0.0035583503;-0.31779858;0.013373496;-0.15820599;-0.011579726;-0.0052026995;0.053998858;-0.033791095;0.0049110265;-0.11252686;-0.068749964;0.15956084;-0.44956726;0.2052012;-0.14778721;0.01502555;0.029628372;0.004908459;-0.009428277;0.40318137;-0.0150625175;0.0067429086;0.021982353;-0.06761089;0.18171567;0.013997055;0.16425782;0.037081577;-0.008921927;-0.22961998;-0.005999405;-0.17933634;0.048426244;-0.048104167;0.2953716;0.0030658052;-0.27564037;-0.014411235;-0.2266436;0.048430074;-0.014352289;-0.035971586;0.12449478;-0.104868926;-0.22512746;-0.004653726;0.15185253;0.1739564;0.116592035;-0.09900922;0.12459803;0.06393207;-0.01948434;0.010668283;-0.0038586084;-0.21171692;-0.024853265;-0.27692398;0.0054837917;0.08368297;0.24661767;0.42478663;0.026341721;0.014346574;-0.12152628;0.051484015;0.03625366;-0.15044159;-0.0060178856;0.028903974;-0.3753546;0.07536742;0.007960364;0.2068384;0.029746378;-0.0061051426;-0.104202524;-0.00202781;-0.2437892;-0.026040386;-0.12944256;0.13402578;-0.016239349;-0.11986547;-0.051407583;-0.0011905171;-0.013806903;0.15249906;-0.35399598;-0.13122611;0.00045190201;-0.018138314;0.08692424;0.33389583;-0.081910625;-0.0063112327;-0.014169244;-0.017369669;0.004359112;0.438516;-0.10662938;-0.17505191;0.0021287366;0.43683895;0.049110953;-0.04408336;0.092869036;-0.15387423;-0.011521711;-0.042151254;-0.10119817;0.0131765045;0.19392312;0.0033387125;0.0430892;0.041241508;-0.24214277;-0.0038202326;0.30405495;-0.016435463;0.39895517;-0.23035736;-0.040046144;-0.00040533685;-0.00032668433;-0.0057588075;-0.004719972;5.6641693e-05;-0.014245316;-0.004494371;-0.030842107;-0.01466755;0.035991415;0.018651279;0.008582862;-0.021027703;0.003297181;0.11478443;-0.0543111;0.15462564;-0.39200205;-0.13355342;-0.36837405;-0.07196494;0.0022605497;0.1670364;-0.1645783;-0.010967263;-0.059854757;0.12565234;0.022123829;0.03501115;-0.0014867249;-0.17468412;0.0010638307;-0.07907916;-0.09240956;0.06627569;-0.010677563;-0.14231357;-0.002483453;-0.0069546048;-0.003397868;-0.40372065;0.0009290183;0.16732271;-0.3977704;-0.016006771;-0.009863259;-0.10109921;-0.022997728;0.07478393;0.19421326;-0.40249297;0.051234253;-0.12354345;0.0295306;0.010387858;0.28128752;-0.07008447;0.13354653;-0.028196778;0.10141069;0.03232834;-0.009447197;0.0033746348;-0.11308397;0.28368494;0.17226933;0.0787326;-0.0005522616;0.004665879;-0.052018832;-0.015785841;0.14624698;-0.061332762;-0.17467037;-0.01424574;0.31584382;-0.015646104;0.09396644;0.070494495;-0.011105165;0.24940714;-0.043337997;-0.0024284401;0.100541525;-0.0005873629;-0.09816986;-0.2809839;0.020477088;0.010354064;-0.0021705371;-0.029024903;0.11627792;0.084429264;0.04338333;0.0044655907;0.071592264;0.20101434;0.06905599;0.013350728;-0.14259581;-0.014071645;-0.18745957;0.13500158;0.007767143;0.0026210935;-0.15906361;-0.23766753;0.028070332;0.040071964;-0.04773025;0.12129174;0.19727276;0.30457994;-0.007795863;0.041438974;-0.16046314;-0.008866491;-0.18033703;-0.0009733386;0.16641372;-0.033459608;-0.4215964;-0.03991258;0.006782343;-0.205857;0.009538626;-0.2417041;-0.21627058;-0.31163657;0.0071702627;0.004717718;-0.0045105363;0.04779371;0.008376421;0.057134233;0.01760232;0.022956226;0.012079583;-0.14450786;-0.0066527096;0.114383616;-0.073666975;-0.023980888;-0.14594106;-0.028555587;-0.93317956;0.0024447804;0.027718479;0.14865926;-0.007712361;-0.02027939;-0.3372604;-0.0151419975;0.32458204;-0.008103473;0.003976282;-0.07442519;0.0101742875;-0.003678231;-0.1532842;-0.30750445;0.021289634;0.16925189;-0.040620215;-0.02744659;-0.1596873;0.036151446;0.17063695;-0.14391232;0.026052674;-0.0027809476;-0.101781815;0.007801316;0.013820526;0.073588416;0.026116932;-0.020543573;-0.010237727;-0.23782563;0.021003319;-0.009995496;0.042886518;-0.00053879234;-0.04571284;-0.4077514;0.018750744;-0.016274555;-0.002462131;-0.18348467;-0.036615953;0.08814577;-0.042069715;0.010343871;0.004819191;0.017216742;0.07728764;-0.36073324;-0.20585757;0.2741228;0.011043042;0.19388627;0.17278516;0.04723028;-0.27172247
0.11852966;-0.0621298;0.19217566;0.20581703;0.27014226;-0.0002248133;-0.259159;-0.0058120834;-0.15667632;0.013326016;-0.006326684;-0.014989028;0.020208022;0.19967322;0.25753075;0.34215686;0.0069209146;-0.37831485;0.017098894;-0.18802062;-0.10042323;-0.11080471;-0.0074040326;-0.010742086;-0.19430865;-0.03429777;0.024982978;0.11030901;0.00947824;-0.0131057;0.026764017;-0.4640611;-0.1622742;0.004847214;0.009609921;-0.04054971;-0.022400366;0.07856341;0.0044399034;-0.18274444;-0.32482186;0.004168196;-0.21298166;0.3331143;0.12344448;-0.20169409;0.023777548;0.14146769;0.010527677;0.016989496;0.23447868;0.0030473254;0.09828409;0.13344845;-0.027038954;-0.00208973;-0.04786603;-0.0059343055;-0.009454279;0.5818211;-0.00083095976;-0.15202202;-0.020176793;0.0060510444;-0.07945983;-0.045694478;-0.22502506;0.21467546;-0.018187324;0.08551319;-0.22681724;-0.24263911;-0.04761236;-0.10207187;-0.16071565;-0.25132617;0.09674861;0.1970946;0.1885778;0.01958802;-0.03020213;0.015328962;-0.30903026;0.051624868;0.004413077;0.011484928;-0.08173181;0.0008501544;0.017834442;0.034230437;0.016979909;-0.023619115;-0.0038119243;0.028990788;-0.0020326888;-0.06771699;-0.00577343;0.0005807605;-0.16813205;-0.05993755;-0.062115736;0.019445915;0.00401843;-0.12681518;-0.0067708734;-0.0071510365;-0.40948343;0.013413742;0.013724632;-0.028915247;0.13611981;0.047925137;-0.118999824;0.30708885;-0.007901749;0.13881981;0.04901426;-0.18993104;0.016102402;-0.19879399;0.1296729;0.008403404;0.017344449;0.089284055;0.03808874;0.083895065;-0.062421292;-0.0912881;-0.2088377;0.013513389;-0.03971066;-0.0018396312;0.0008234741;0.033336435;0.011814824;-0.046196103;-0.13129593;0.015906995;-0.12335592;0.03970545;-0.14359699;-0.007843589;-0.38988668;-0.07185233;-0.19555299;-0.0076048886;0.018704845;0.17309922;0.0032179316;0.006992653;0.2807955;0.073170096;0.109678484;-0.018430367;-0.41245285;0.035791695;-0.026022447;0.2810522;-0.014306986;-0.029081099;-0.02688138;0.14787741;0.014074951;0.034521315;-0.080954045;0.0042097494;-0.0018859667;0.25559142;-0.15887706;-0.004368593;-0.0025823212;0.22862908;0.015058652;0.0123848645;-0.004897394;-0.044696014;0.25595516;-0.0773897;-0.25990313;-0.13237849;-0.050013132;-0.046034556;0.21265697;-0.16493988;0.0125188595;-0.13170089;0.012549102;-0.15935151;-0.31724507;0.23944263;-0.06307206;-0.07499223;-0.09769333;-0.14711;-0.42549488;0.09420763;0.017656263;0.1326208;0.16904153;0.085037395;0.00042798225;0.0005108936;-0.0119961295;0.0079910355;0.06410979;-0.12785129;-0.004490504;0.008749547;0.009299063;-0.003746228;-0.29518026;-0.04158255;0.008809615;-0.0015828587;-0.030950101;-0.10415386;0.021099463;-0.33503017;-0.12080857;-0.06786388;-0.17010354;0.123524405;-0.051904242;-0.046657294;0.009340633;-0.017545292;0.108446375;-0.021516474;-0.005607271;-0.06356657;0.012405253;0.1400125;0.005759736;0.010342107;-0.24452384;0.172354;0.15731876;0.012582714;0.004332517;-0.22414324;0.26164687;0.23630062;-0.25042766;-0.016482117;0.027556706;0.14202039;0.065501176;0.4871292;0.066477664;0.0061357976;-0.3068962;-0.014630099;-0.022141073;0.14224993;0.0038768952;0.17544739;-0.16153525;0.01665598;-0.0057739858;0.0016067524;0.002965993;-0.121076375;0.11320942;-0.041556038;-0.0038983738;0.13933463;-0.009237527;-0.006431035;0.48147666;0.001006259;-0.0073341154;-0.0045454875;-0.21765712;0.19585459;-0.016978277;0.21279275;-0.06833013;0.01769757;-0.0692394;0.016956488;-0.15584601;-0.0140284905;-0.16545829;0.097163446;-0.013148681;-0.19861764;0.01671049;0.009659249;0.018624308;0.013402754;-0.1922446;0.1508091;0.10404926;-0.3774439;0.008987731;0.06150116;0.23602216;0.17425089;-0.081057854;0.23973964;0.003870787;0.014413215;-0.0023834535;-0.009125143;-0.21689805;0.124773584;-0.18345128;-0.001914758;0.07296106;0.09629013;0.36518618;-0.0053289784;-0.023137903;-0.11579119;-0.24598719;-0.03689424;0.0856897;0.0028188087;-0.008500521;-0.43944508;-0.13592227;0.009887012;0.21432437;0.3346207;0.011978473;0.2829275;0.007639103;-0.064619996;-0.06202424;0.11051091;0.43216103;0.006663812;-0.1478559;-0.1348038;-0.09411327;0.0058362824;-0.16032158;-0.1694371;-0.070693575;0.17637031;-0.001030083;0.07446031;0.11984351;-0.022293909;0.28507775;-0.008646793;0.009530297;-0.0042638513;0.31005633;0.016141288;-0.20378388;-0.0701221;0.35057274;-0.122712515;-0.18702091;0.0760693;-0.17950374;0.013123921;-0.117845766;0.13986877;0.1318783;0.19612738;0.023082158;0.17566988;-0.11819751;-0.4371728;-0.014312902;0.06815825;-0.015912851;0.31676438;-0.12892272;0.112493016;-0.013617471;-0.019356295;0.00361622;0.022378867;-0.00791365;-0.0077925758;-0.016699051;0.036020827;0.022962496;0.1812542;0.010404197;-0.039230287;0.006171001;-0.017837629;0.2646692;-0.11201784;0.021809194;-0.19450885;-0.25188223;-0.5395828;-0.12311341;-0.0024348977;0.07951721;-0.029211212;0.031957906;-0.24328114;0.19788025;0.16481224;-0.098634854;0.0024709972;-0.14819272;-0.0100905765;-0.117966175;-0.061317675;-0.26879182;0.0017903697;0.011066412;0.007845133;-0.009048453;-0.0038679293;-0.21499892;-0.0020847302;0.04170067;-0.25149545;-0.14329147;0.024921091;-0.12340368;0.015852904;-0.18503162;-0.033322994;-0.22240849;-0.015424541;-0.23574227;0.004705955;-0.0068862494;0.24336027;0.03262953;0.04325215;-0.06480619;0.078401335;0.16673028;0.0035276203;-0.00068204646;-0.09580231;-0.15005143;-0.034559965;-0.06963146;0.010093314;0.008839772;-0.15903701;0.01714017;0.13148437;-0.07685413;0.06297251;0.0017219095;0.16117461;-0.0028862718;0.047721047;0.096095525;0.025993679;0.33681175;-0.11107903;0.0013169042;0.08706488;-0.0031647468;-0.08227923;-0.13882022;-0.014931452;0.0073685953;-0.006515665;0.023078913;-0.08894547;0.25193703;0.017371358;-0.0057713888;-0.11395305;0.099892415;0.047420137;0.21873425;-0.14639366;0.019530825;-0.123517334;0.011167988;-0.015138518;-0.009971206;-0.18018657;-0.10966817;-0.0009754492;0.10697581;-0.07113468;0.24120481;-0.009041273;0.24542795;0.0134096425;0.13519399;-0.07338049;0.014185591;-0.22231856;-0.012538571;-0.21363609;0.06367355;-0.19276088;-0.009839396;-0.013031588;-0.06688949;-0.00423771;-0.07093051;-0.017734865;-0.2885669;0.012429459;-0.008501927;0.0056512305;-0.019049393;-0.011864692;0.31694925;-0.001316447;-0.09807542;-0.029153157;0.12880649;0.04164084;0.21939437;-0.11835414;-0.21867749;-0.28255147;0.0031456058;-0.95366734;0.0007256323;0.23173791;0.1562324;0.003606119;0.005685979;-0.51375103;0.02252788;0.050192118;-0.005429813;0.0013217257;-0.0112144025;-0.0054101637;0.10433981;-0.054476548;-0.21298239;-0.008753701;0.13317475;-0.010879964;0.0072848676;-0.24334915;-0.018108921;0.13721985;-0.25916937;-0.13177024;-0.0006630212;0.16377224;0.00441949;-0.008359608;0.06428057;-0.012449956;-0.014522562;0.0017088371;0.0354639;-0.00907954;0.012876174;-0.064019375;-0.0075048725;0.0023890603;-0.60340655;0.13657737;0.01720049;-0.0065734875;-0.06755297;-0.14544518;0.069277756;-0.078635916;-0.00937487;-0.0062721246;0.0049358145;0.3143308;-0.32024768;0.10639994;0.063269615;0.00156879;0.17535909;-0.025503952;0.16830723;-0.3669939
-0.09816105;0.052652806;0.10706263;0.056442745;0.45243636;0.0012095616;-0.19982584;0.00020578515;-0.23042522;0.0063679335;-0.22913499;-0.091862544;-0.016422557;0.095652744;0.33498177;0.2884729;-0.0076448875;-0.19574812;-0.014675941;-0.005509027;-0.12062855;0.03536855;0.010170496;-0.00096649415;-0.18216084;-0.074983336;-0.16570427;0.024025882;-0.0074065244;0.004959413;-0.024498623;-0.249195;-0.029915277;0.0087876;-0.011319538;-0.014959835;0.06858666;0.24228114;-0.007890651;-0.042836938;-0.036558717;0.010636763;-0.25546873;0.08523378;-0.07187458;0.027194852;-0.019270727;0.18367127;-0.00075374026;-0.0693366;0.26866663;0.0010542707;0.054134972;0.26201776;0.016732838;0.019250141;-0.109975316;-0.0033847273;-0.14385259;0.33077684;-0.018549075;-0.13910814;0.0113582555;-0.15079841;0.0459258;-0.0838102;-0.19552918;-0.055502877;0.00468028;0.10736943;-0.28544757;-0.16694492;0.0692207;-0.044336736;-0.2661709;0.07517111;0.08023717;0.293849;0.20728037;-0.017961059;0.0053564925;0.018911023;-0.080284365;0.10062595;-0.010877281;0.13556051;-0.1431248;0.0009998769;-0.020300874;0.22568348;0.06436982;0.01865245;-0.0037058177;0.016856296;-0.002899793;0.12998265;0.0060353256;0.04099868;-0.047260754;-0.03623037;0.10581698;0.02650804;0.0069561223;0.16641055;-0.021617834;-0.0020290173;-0.039901543;-0.004244213;0.00033086888;0.01094395;-0.04034062;0.07990648;-0.23504496;-0.028820325;0.0060226587;0.20570298;0.2595463;-0.02011059;-0.035642922;-0.23923725;0.26085293;0.0120034125;-0.06795366;0.19232923;-0.21197103;-0.038940143;-0.09893457;-0.008081745;-0.13374846;-0.01417245;-0.10603628;-0.008511868;-0.012737677;0.022718623;-0.013387841;-0.008122422;-0.11188063;0.05875099;-0.20146742;-0.1488092;0.10750998;0.0015418427;-0.44706047;-0.16497402;0.02854821;0.008501458;0.0013279999;0.12803186;-0.004745797;0.02773595;0.30448434;0.15878142;9.058076e-05;0.009015469;-0.34906417;-0.16132107;0.013502253;0.24336998;-0.10035047;0.11530296;-0.04173442;0.31269473;0.019237358;-0.026017437;-0.26973465;-0.006764296;0.0073778895;0.015417934;-0.33470204;0.0034712197;0.0060973153;0.010824794;-0.015335826;0.002921219;0.008376152;0.13904858;0.070472464;-0.11734018;0.015247594;-0.054618407;-0.042451516;0.018595785;-0.04268487;-0.32419938;-0.00075039687;-0.23240864;0.0055673677;0.19993123;-0.28153598;0.32221326;-0.037874956;0.27817643;-0.027356865;-0.12204138;-0.6183998;-0.19496003;-0.013864205;-0.122535266;0.13643652;0.15400735;-0.38243484;0.020279376;0.02715533;-0.017938713;-0.06529206;0.017579556;0.089074634;0.053281967;-0.20133322;0.0042841714;-0.048741497;0.01935761;-0.007728471;-0.007995355;0.0183045;0.151181;-0.2344611;-0.35303465;-0.21133167;-0.044372257;-0.18415552;0.02836416;-0.110272236;-0.017997183;0.0046719704;0.02450535;-0.042472485;0.019281132;0.016917272;-0.12886271;-0.106245704;0.24088229;0.0032700228;-0.009726391;-0.077836275;0.14381017;-0.03419116;0.056191042;0.001282022;-0.079991765;0.34982237;0.07661828;-0.16461541;-0.044069707;-0.0010672963;-0.11896236;0.028263701;-0.002515877;0.21558584;0.016803488;-0.2577206;0.013851211;-0.40083036;-0.08104568;0.0010839405;0.23993775;-0.055520464;-0.017088095;0.08760799;-0.018152412;0.17076524;-0.1123064;0.06929875;-0.040500138;0.0016317547;0.1360789;0.013121969;0.016706578;0.676509;0.019067641;-0.001656271;-0.25841278;-0.027194053;0.01626014;-0.0060738684;0.113613285;0.23237109;-0.010402971;0.12862575;-0.011392336;0.09406548;0.07436587;-0.30655077;-0.06658797;-0.0037061574;-0.14427997;-0.019115437;0.06046454;-0.22058888;0.0008010643;-0.22582717;0.0911957;-0.0024806373;-0.3285276;-0.0073349024;-0.033510238;0.14354774;0.16400522;0.15527944;0.22877607;0.07060357;0.0058802324;-0.0070362836;0.016788397;0.0021902476;0.21180709;0.10438183;0.0035781686;-0.023726221;-0.17658809;0.07350468;0.032123737;0.021771714;0.10698179;-0.12060815;0.008873348;0.027040068;-0.013169381;-0.0037610591;-0.50050706;-0.30871195;-0.011769478;0.1588654;0.39756632;-0.018604219;0.09972879;-0.0012374741;-0.19665097;-0.11966885;0.10399871;0.20491089;-0.0063892175;-0.25339878;-0.1335265;-0.12713452;0.011152829;-0.14964867;-0.30552822;0.065997615;0.080048956;0.001460585;-0.13408558;0.24823995;0.41528353;0.0805175;-0.0003297859;0.017328067;0.006572625;0.3861787;-0.0019319959;-0.34394255;0.00024662848;0.28134707;-0.046984456;-0.33085033;-0.08495133;-0.10569622;-0.005032927;-0.12329032;-0.11097134;0.12263943;0.04591706;-0.028579982;0.11389166;-0.05269549;-0.24264511;0.009590951;-0.086680844;-0.07383307;0.1873263;-0.25807896;-0.06903595;-0.0011437378;0.013473741;0.002614309;-0.013474528;-0.0019657859;0.00840892;-0.019800156;-0.043328047;-0.006950358;0.106715985;-0.008994164;-0.074533865;-0.0020056064;0.0027035282;-0.035067197;0.0439571;0.033833634;-0.1742191;-0.17044806;-0.12633531;0.014925707;0.004207643;-0.013296825;-0.18028119;-0.04465718;-0.35968873;0.20514172;0.16629459;-0.19375876;0.005266589;-0.19168329;0.011644385;-0.07237804;-0.08801475;-0.22838128;0.0024293715;-0.08796334;0.0034874228;0.018008525;0.005234552;-0.51106286;0.012198771;0.12039538;-0.6096864;-0.28195366;-0.01721728;0.057988588;-0.008075238;-0.17250887;-0.15527138;0.10367007;-0.10159162;-0.15085109;-0.014173093;0.003401163;-0.04218884;0.21051984;0.17766818;-0.027599927;0.11659984;0.0011646029;0.0061546965;-0.008068759;0.18228282;-0.15945464;0.1516766;0.062472835;-0.0063763824;0.0089291595;0.0026676024;-0.03118974;0.017712396;-0.16622528;0.06503039;-0.005386319;0.12455554;0.013066273;0.04352116;0.04181807;-0.021444777;0.17609084;-0.14566067;0.00091309455;0.066642724;0.012910069;-0.30671713;0.18940097;0.009352018;-0.009495745;-0.0014270414;-0.10460599;-0.29974478;0.06621401;-0.013615814;-0.0043723886;-0.2530364;0.06808056;0.06951521;0.015356969;-0.15933919;-0.01301658;0.008523742;-0.17091385;-0.0011629097;0.025853023;-0.12385864;0.24117209;-0.016058026;0.06911406;-0.08040298;0.051391196;-0.011507374;-0.120785855;0.0049915994;0.08237;-0.44256106;0.008967799;-0.30452785;0.037687972;-0.24643774;0.10207912;0.0437743;-0.18295506;0.0029528504;0.0006736773;-0.008281095;-0.17625685;-0.063579135;-0.623192;-0.0048357854;0.002365915;-0.0133470865;-0.043958087;0.006535204;0.29105523;-0.016152516;-0.15677069;0.025862373;0.22476251;0.24582517;0.1584016;-0.22945896;-0.087438375;-0.18910545;-0.006621064;-0.7481813;-0.003671084;0.12991329;0.17873172;-0.002039662;0.018252619;-0.0564149;-0.0055683185;0.09575064;0.013620279;0.014361538;0.0017283916;0.011335045;0.1459544;-0.23185346;-0.1615863;-0.015621656;0.1353941;0.023065533;-0.0541771;0.061031036;0.0014522811;0.008625839;-0.26987317;-0.0239329;-0.001802745;0.016598795;-0.008324976;0.0038172677;-0.108907335;0.006812618;-0.009178744;-0.0008551843;0.0034262924;0.009582727;-0.015090726;0.08052899;-0.00023739086;-0.23393854;-0.3459336;0.20510577;-0.014352865;-0.004114284;-0.045220368;-0.1301229;0.11610035;-0.12761545;0.010352269;-0.07694;-0.018394928;0.14714524;-0.26801017;0.23379788;0.1640851;0.005683532;0.046848513;-0.09365923;-0.09987034;-0.54352796
0.10752691;0.07854864;0.033318136;-0.033573885;0.16844875;0.011461292;-0.2578167;0.012683305;0.044009358;0.014285807;-0.28071108;-0.11380436;0.008365999;-0.116972744;-0.026445579;0.20711233;0.007805796;0.103774816;6.89675e-05;0.24378256;0.06941976;-0.054268472;0.030772915;0.03127975;-0.17277533;-0.13419649;-0.13817969;0.105058685;0.01890607;-0.010340514;-0.08380422;-0.28420606;-0.22705634;0.0032795174;0.013601822;-0.06659466;0.02816964;0.13239776;0.04612891;-0.12554753;-0.107695825;0.0012945613;-0.29969463;0.23024121;-0.11458191;-0.038103938;0.013584691;-0.20402846;-0.0048685274;0.0908696;0.36065972;0.0056782104;0.09919568;0.05437218;0.011797119;-0.014941865;-0.06393486;0.0034051482;-0.21325722;0.16579777;-0.01585894;0.047681347;-0.013541067;-0.2766986;-0.20886974;-0.14714392;-0.45142987;-0.14538975;0.018629326;0.111305945;0.018611511;0.047527995;0.058874317;0.101246215;-0.29594842;0.03339366;-0.21215715;0.32946047;0.019900013;0.014785653;0.002023069;-0.014652078;-0.054124556;0.11901712;0.03298106;0.04073051;-0.10526651;-0.0007870952;0.011704928;0.32665506;0.0616246;-0.052472383;-0.0092629455;0.007484442;0.004562029;-0.15896794;-0.0063929316;0.009772651;-0.07468002;-0.13888812;0.15128587;-0.002587083;-0.0065189926;0.25406867;0.07651583;0.0015559131;0.0041506537;0.009129893;-0.0024002872;-0.006923797;-0.12962191;0.11116156;-0.26315987;0.032894228;-0.001880762;0.2656975;0.027310336;-0.12002321;-0.12681983;-0.09368574;0.37211025;-0.009753792;0.021165833;0.114685155;-0.234584;-0.022601023;-0.0002974318;0.21410888;0.008485985;0.016519517;-0.19629882;-0.017439084;0.031554956;-0.032245547;0.010076095;-0.02439609;-0.12100741;0.12980202;-0.17785433;0.10441744;0.177561;0.0010759957;-0.12824562;-0.01605056;0.05187172;0.0016343122;0.0063799797;-0.13696004;0.0066394946;0.05003233;0.17488185;0.29422238;0.03146142;-0.008378462;-0.067473955;-0.29002592;-0.004082253;0.2685691;-0.26632115;0.044087727;-0.10611091;0.4044693;0.054328326;-0.055341158;-0.22627203;0.0025135218;-0.016252039;0.19727652;-0.06464538;-0.0019471156;-0.0043982607;0.018173665;0.0058867396;-0.014031945;-0.0045792637;0.22238812;0.14787708;-0.079780586;0.11047043;-0.1519071;0.20589346;-0.14837669;-0.009876665;-0.25219232;-0.014675501;-0.35281718;-0.010337718;0.054199275;-0.31889552;0.31384996;-0.21359013;0.09394585;0.2938258;-0.0836331;-0.3918199;-0.18783395;-0.003668762;-0.29251856;0.034969777;0.24730755;-0.40283304;-0.029144317;-0.01620611;0.014153099;0.13846162;-0.0017417728;0.07830848;-0.11153409;-0.055475302;0.0005809179;-0.124815136;-0.038121898;-0.001685007;-0.00064803084;-0.15808925;0.08967287;-0.07673687;-0.21126814;-0.02417568;-0.018032352;-0.25474787;-0.12885919;0.1291751;-0.24753876;-0.008351644;0.05661967;0.110415444;-0.007853236;-0.010652544;-0.08818866;-0.009629725;0.29798093;-0.014611626;0.016893987;-0.13732873;0.14112699;-0.1344125;0.10130444;-0.0024399606;-0.21485786;0.116255574;-0.07267819;-0.09859894;0.08223533;-0.030541904;-0.35252902;0.020125782;0.14849728;0.08571372;-0.013465085;-0.16112238;-0.0053028;-0.3518427;-0.30735734;-0.0016007607;-0.15642624;-0.0070290193;-0.0065697357;0.20255893;-0.111444965;0.040163472;0.33025745;0.085747786;-0.021842277;0.020474467;0.066809796;-0.007721376;0.0035644597;0.54582906;-0.026758987;-0.002437165;-0.32340196;0.0070071616;-0.05898158;0.016029915;0.021304848;0.37280524;0.01598936;0.12389892;-0.0045555527;0.48834237;0.0303074;-0.29063243;-0.224395;0.00985153;-0.07020343;0.015937015;0.11760072;-0.05370434;0.0049880138;-0.30941045;-0.036761165;0.0776926;-0.29850653;0.0053823953;-0.27015236;0.095230184;0.20498253;0.04378748;0.44401333;0.012353827;0.0020086425;-0.0007168244;-0.010857429;0.0339304;0.14405546;0.019571986;-0.0068518887;0.07271146;-0.20237991;0.015898723;0.05232201;-0.019813614;0.3260312;-0.10160262;0.15616956;0.027566222;0.021719625;0.0054277848;-0.2781914;-0.4326048;0.004135641;0.20221025;0.2613975;0.012966019;0.12281988;-3.7146234e-05;-0.2254321;-0.02750597;-0.0044538123;0.21985017;0.0057666176;-0.37148315;0.17532213;-0.13997068;-0.021640662;-0.06376611;-0.24043207;-0.05474894;0.026421193;5.1693507e-05;-0.07528851;0.30270693;0.3455546;-0.14155585;0.017042482;-0.020639354;0.0041207275;0.15319005;-0.29288504;-0.2483797;0.046156067;0.0968855;0.029413339;-0.21807718;-0.062566146;-0.0028393585;0.0009376591;0.31513482;-0.0567241;-0.010649084;-0.0764224;0.008582536;0.26346037;0.03459023;-0.26638114;0.00499863;-0.10079228;0.15560661;-0.024320995;0.042658824;-0.07827122;0.018155072;-0.0016415576;-0.00928737;0.0042548305;0.0038375794;0.0010541542;-0.012156443;-0.06737907;-0.0126963;0.24643403;-0.009713984;-0.093704075;0.009714807;0.02056138;-0.19124405;0.04348912;0.08377082;-0.32142338;-0.18364055;0.022230342;0.10992072;0.0012187056;0.053675983;-0.12206243;0.043316856;-0.22017153;0.16583253;0.035089854;-0.29089692;0.0017056257;-0.058214482;-0.02912352;-0.1956513;-0.099192694;-0.28242528;0.0065457607;0.059774302;-0.009220336;-0.017955478;-0.008763911;-0.58002156;-0.0001423527;0.3127329;-0.56432885;-0.35492173;0.010671265;0.14853506;0.014451519;-0.040042967;-0.07812696;0.15549746;-0.17495357;-0.16554222;-0.0026976932;-0.017984563;0.03951835;0.012529495;0.041129857;0.17062858;-0.0025098843;0.004072365;-0.014672338;0.011772093;-0.22742993;-0.18247217;0.25392124;0.015669819;0.009186189;-0.03422011;0.20379792;0.013200215;0.01822578;-0.10999869;0.15650316;0.004869819;0.027406057;0.0010956029;0.062282834;0.018108858;-0.0075303186;0.068518005;-0.23335904;-0.0095363455;-0.037376378;-0.008675092;-0.09142364;0.009324875;0.00091120467;-0.013556342;-0.010585136;-0.2635936;-0.12716992;0.12569492;0.06292963;0.017779075;-0.11478243;0.04601782;-0.0675629;0.10720151;-0.08126279;0.015625188;-0.0443409;-0.051749755;0.008922201;-0.019466737;-0.24417904;0.11813124;0.014732127;0.12053142;-0.22714666;0.031059485;-0.15282097;-0.31716913;0.00090537005;0.24717076;-0.2803867;-0.008696169;0.027772587;-0.02131827;-0.39961135;0.2044646;-0.108804576;0.15278028;0.0030905157;0.13452207;-0.002947498;-0.32075045;-0.01812877;-0.84293073;0.007962095;0.01803914;0.0042472756;-0.20474644;0.010015379;0.31871417;0.027611803;-0.044914126;-0.22685112;0.11967283;0.11606166;0.25345573;-0.2110253;-0.08489309;-0.27944148;-0.0016132417;-0.5138089;0.007234222;0.22235675;0.1902871;0.01492783;-0.0110134175;0.040100317;0.0009263573;0.07950046;-0.023237696;-0.006856591;-0.009099079;0.0037327302;-0.07309891;0.0010037542;-0.18052572;0.012845862;-0.06011653;-0.02774757;0.24980693;0.012268837;-0.005519411;-0.16116473;-0.07923235;-0.07906336;0.018129507;0.02610244;0.0020863153;0.010370546;-0.10388979;0.00054238643;-0.100700736;0.009437691;0.009705602;0.0057709045;0.019208172;-0.014694151;0.008481506;-0.1655139;-0.27428108;0.33420506;0.008686964;0.011892818;0.11883122;-0.15650856;0.13972098;0.039505556;-0.018666167;-0.18809056;0.008566187;0.10093302;-0.10604571;0.18549865;0.10817303;-0.012628909;0.115972646;0.13038103;-0.15799594;-0.3953954
-0.110231884;0.121875085;0.039863177;-0.026534578;0.19534035;-0.014515363;-0.18689547;-0.011534634;0.037948854;-0.037452005;-0.31165534;0.17134571;-0.014987567;-0.032353435;0.058841776;0.18815295;-0.014014373;-0.007391965;0.0060351877;0.115208425;-0.020510487;0.0712435;-0.000105851635;0.013654636;-0.26835555;0.038183007;-0.072832555;-0.07758953;-0.01037512;0.0012907898;0.055452753;-0.3527027;-0.42363554;-0.017159158;0.0022598591;-0.17314738;-0.23828828;-0.00056868984;0.096276954;-0.29026237;-0.34405762;-0.014111187;-0.2284653;0.19932926;-0.0048989253;-0.23230636;0.03192929;-0.10151101;-0.005406;-0.02688758;0.43567774;-0.006514821;0.10234744;0.19978777;0.0004883048;0.013244728;-0.1321145;-0.010807225;-0.25957984;-0.20412505;0.041738383;0.08827923;0.010450431;-0.28679582;-0.377378;-0.031021146;-0.2990076;-0.020452715;-0.011556872;-0.107277654;0.06643799;0.016089395;0.31857884;0.06039693;-0.024577854;-0.05929116;-0.08855627;0.37083015;-0.042299725;-0.0018354338;-0.028310912;-0.0031094027;0.18963738;0.11698413;0.015508908;-0.014694952;-0.3289613;0.010011973;0.0042841323;0.2172708;0.27628;0.11701204;0.007037157;0.018740967;-0.0018504687;-0.10770104;0.0039306916;-0.014983895;0.09001405;-0.032429636;0.16586909;-0.03343996;-0.0065183206;0.25198177;0.03271875;0.0028326816;0.079264164;-0.002178258;-0.0009885076;-0.0010058776;-0.08402487;-0.058061656;-0.14022972;-0.057700213;-0.0030124197;0.4101021;-0.28694424;-0.16128553;-0.0262457;-0.16671544;0.068482384;0.0027283083;0.03649659;0.3686638;-0.087479174;-0.0073575806;-0.19579296;0.15006904;-0.13645327;0.0040570307;0.18286575;0.041383214;-0.023513425;0.009339291;0.0024073147;-0.021138135;-0.110544726;-0.030764872;0.10368312;0.14246136;-0.07346614;0.007843958;-0.083164394;-0.07561023;0.14660962;0.00038033992;-0.013137781;0.16884412;-0.0029627183;0.24356732;0.12898597;0.22176582;-0.051730607;0.018092014;-0.061142616;-0.23648661;-0.00412603;0.023061318;-0.099518135;0.020041743;0.3603911;0.23284328;-0.13072972;0.017479237;-0.28881198;-0.0083776135;-0.011146178;0.026780091;0.053030234;-0.010534896;-0.02287403;-0.044317737;-0.0031103913;0.013877529;0.0013812307;0.12992634;0.029089456;-0.2329208;0.18489157;-0.11749396;0.07513082;-0.21413921;-0.095564224;0.0122191375;-0.0055285674;-0.33624867;0.008681203;-0.05659175;-0.20653129;0.21194158;-0.27978092;0.20217021;0.26159197;0.08190974;-0.43853793;-0.25535107;-0.0015447855;-0.019671615;0.00868166;0.25036135;-0.43947145;0.021332406;0.024855334;-0.012420132;0.30137572;0.102057256;-0.057773527;-0.14073513;0.026380595;-0.0041424693;0.0072483257;-0.25285426;0.007677745;-0.006851043;-0.15254287;-0.143432;-0.15484032;-0.41786823;-0.08606193;-0.068038836;-0.014883978;-0.036050357;0.004758261;-0.11319197;-0.0017029166;0.12600689;-0.035026427;-0.030688457;0.0110154245;0.15526997;0.017995644;0.35952502;0.0067956955;0.022095863;-0.19175714;-0.18938346;-0.13264577;0.17336006;-0.0005890031;-0.25843388;-0.07539276;-0.0013395954;0.037256625;0.15511087;0.018380474;-0.0065962747;0.09784914;0.112763636;-0.0035933806;6.6736495e-05;0.10919001;0.011017865;-0.11945204;-0.3085733;-0.004880681;0.017330611;-0.18702506;0.013418171;0.034411754;-0.11547169;0.07559894;0.29320198;-0.054623786;-0.050673105;-0.027145825;-0.28315148;-0.00443615;-0.0355209;0.26346248;0.008173611;0.015385569;-0.21248406;0.1888786;-0.0505451;-0.0017440871;-0.07530285;0.119745396;-0.011651872;-0.04006705;0.013925896;0.41658878;0.21889268;-0.36662504;0.076437466;0.0013774178;-0.026196294;-0.0061591794;0.111282766;-0.11770108;-0.007745142;-0.1395729;-0.09074038;0.09198087;-0.37662393;-0.0013432429;-0.25836438;0.03880336;-0.030353535;0.05743741;0.22387981;-0.036407042;-0.010620255;0.011774087;0.0017454647;-0.07720527;0.105464324;0.11137659;0.0005830088;-0.083153225;0.017402802;0.018011361;0.044075135;0.01855274;0.3854723;-0.16006652;0.074366234;-0.050535865;-0.008888352;-0.017710581;-0.36270803;-0.14987142;0.010044401;0.27953762;0.08873619;-0.0055561457;0.3762639;0.003967906;0.015472934;0.0037663735;-0.12969372;-0.061259232;0.01077511;-0.3839718;0.23110923;-0.2717286;-0.0004774391;-0.09240283;-0.053326912;-0.18473245;-0.04916498;-0.0031149639;0.10947283;0.17531364;0.31021932;-0.1458297;-0.017365826;0.0026328207;0.01411271;0.19260134;-0.10089472;-0.21019362;0.060264934;0.06791978;0.14090228;-0.25016674;-0.0055378936;0.06951649;-0.007560098;0.009070764;-0.053174756;0.1095314;-0.011123354;0.011857691;0.15088671;0.070720024;-0.2014573;-0.0024069822;-0.012173728;-0.14775391;0.068125516;-0.07361341;-0.039668556;-0.022484675;0.023189234;0.000514954;-0.008268884;-0.008365004;0.020166386;-0.056730635;0.034043405;0.021580176;0.22829492;-0.0037914005;0.2111507;-0.010298955;-0.025278397;-0.12644748;-0.01310185;0.08437416;-0.103852384;0.047198407;-0.09628053;0.08533528;0.004945713;0.041934088;-0.15482634;-0.033485506;0.17167541;0.3634766;0.12364317;-0.36115456;-0.0057746083;0.046601128;0.020697571;-0.15746121;-0.064880356;-0.23917063;-0.01097731;-0.18893002;-0.0010043331;0.012694846;0.023011884;-0.5979991;-0.004045124;-0.0028409988;0.024297725;-0.3027195;-0.009558604;-0.05219777;0.012868794;-0.00765977;-0.07352475;0.027949277;-0.10736996;-0.20532808;0.00014026358;-0.007563464;0.09532798;0.0008849608;-0.027034586;0.35470596;0.02788576;0.0017582342;0.0059106736;-0.020413123;-0.3921843;-0.30521184;0.2369837;0.09531868;0.0013218429;0.0030081342;0.04262215;0.017191183;0.2677601;-0.09618345;0.19169323;0.011050294;0.11002008;0.016082168;0.23311715;0.15261087;0.019762482;-0.17946447;-0.23595811;0.01396801;-0.100405596;0.0064206664;-0.03764612;0.09508711;-0.0022149093;0.019217374;0.012535947;-0.40012652;0.18028598;0.061471254;0.23003273;-0.017215453;-0.21470173;0.007658535;-0.01558639;-0.005252554;0.011893993;-0.01975193;-0.06530178;-0.2624014;0.013024374;-0.0026058499;-0.08886292;-0.052003663;-0.009248885;-0.018877596;0.12589353;0.00020175317;0.11963044;-0.31994265;-0.0067365984;-0.033470973;-0.14929183;0.0062833466;-0.03987001;-0.004424838;0.08664809;0.21373802;-0.09399266;0.15447195;0.0007145977;-0.25868985;0.010410187;-0.043825284;-0.058532346;-0.8123912;-0.004343777;-0.011943524;0.014011568;-0.23965643;-0.0045408676;0.055947844;-0.011352496;0.011479283;-0.15789472;-0.060364153;0.061241776;0.23360863;-0.2099692;-0.018408334;-0.15810391;0.010451091;-0.39604288;0.008434331;0.31151435;0.14176488;-0.004223636;0.021192215;0.124072194;-0.011592298;0.12644184;0.027472673;-0.0016511135;-0.100282334;-0.022124248;-0.017937489;-0.08326051;-0.08687806;-0.0037759712;-0.19830912;-0.0050292867;0.36182708;0.18798621;0.004902818;0.19478649;0.22277676;-0.2906608;-0.007798825;-0.08923195;0.0050828587;-0.011907107;-0.32481715;0.013500907;-0.13989227;-0.00019483911;0.06485731;-0.012005343;-0.016731642;0.12084491;0.0022642743;0.046731368;-0.24403739;0.054951403;-0.0038729983;-0.0057517947;0.05742033;0.00938777;0.065586835;0.085040994;0.010949765;-0.087775245;0.011993024;0.13840114;-0.24759446;0.054831035;0.16655377;0.00823853;0.23896073;0.234512;-0.24657388;-0.40175605
-0.18066786;0.11024907;0.07642562;7.2684685e-05;0.24923784;-0.0035974493;-0.2568866;0.001335018;0.2839247;0.024056235;-0.21792808;0.010845283;0.013632225;0.09813015;0.15561703;0.19621265;0.0034238342;-0.13672848;-0.0010281336;0.2576054;0.042515907;0.17940609;0.059842307;-0.034570117;-0.30241612;0.056914162;-0.165203;0.2684183;-0.0077683497;0.012411936;0.18036051;-0.36152476;-0.49865672;0.017493801;-0.016811443;0.045080177;-0.22308886;-0.22535005;0.07537112;-0.076433666;-0.22784314;0.004982406;-0.38003546;0.15542191;0.12541157;-0.2541219;-0.025444258;0.059499905;0.010825387;0.07916452;0.22231528;-0.0057236413;0.058745485;0.19361031;-0.010794464;-0.0077171656;-0.16225483;0.005375852;-0.11562125;-0.19715878;0.016131993;0.22112536;-0.011794387;-0.15078692;-0.06710675;-0.013464016;-0.24345271;-0.24953008;-0.00559177;-0.06641841;-0.20848279;-0.10838063;0.11010251;0.1731922;-0.05940671;0.07995198;0.04780074;0.36639586;-0.180234;0.0009845728;0.030104471;-0.00092277775;0.049395643;-0.3049663;-0.013100715;-0.17234483;-0.29061618;-0.010554542;-0.0019422006;0.01534218;0.16681868;0.061583888;0.004894915;0.0018589818;0.0002913547;-0.22987081;-0.0049294573;-0.009910266;-0.12428319;0.023055527;0.17186445;0.013990028;0.009501819;0.13908456;0.0013899613;-0.011457754;-0.0074279415;-0.011689974;0.0064255516;0.008701864;-0.09819992;-0.19671129;-0.26168415;0.44308472;0.013494023;0.25156742;-0.316278;-0.024994545;-0.09770818;-0.3022914;-0.05378904;0.0012086483;0.09340145;0.29513663;0.07898203;0.06044937;-0.089844726;0.036671434;-0.33631906;-0.018410694;0.26535782;-0.031949766;0.003366561;0.0064393114;-0.015880838;-0.08337113;-0.20492043;-0.058775127;-0.02879413;-0.09596253;-0.07731391;0.01516137;0.0050593773;-0.007225454;0.17983289;0.0018331936;0.0107721705;-0.048001572;-0.00018528193;0.06281703;0.27806517;0.1063346;-0.0500646;-0.015809754;-0.016207838;-0.2612864;0.0015460749;0.27982718;-0.013487925;-0.20671572;0.24795367;0.11684411;-0.11121503;-0.049509455;-0.3488637;-0.007833707;-0.033292864;0.07198534;-0.06836109;0.013934523;0.0100124655;0.0539244;0.0052486053;-0.016731996;-0.020124529;0.09513308;-0.11930256;-0.17204401;-0.03083876;-0.36533812;0.010235332;-0.3926142;0.1445935;0.21673723;0.015097158;-0.13896851;-0.014982065;-0.050462734;-0.34782267;0.07068453;-0.26178858;0.16127622;-0.062816985;0.05357281;-0.18303505;-0.07620576;0.006628671;0.13380125;0.061011005;0.38099042;-0.42390883;-0.016292032;-0.0075293295;0.0044302014;0.084018715;0.15556753;-0.1228114;0.07481711;-0.03188631;0.0009267747;0.23846897;-0.06380175;-0.011745311;0.0050845905;0.09672461;0.018698353;-0.15271056;-0.592395;-0.2068609;0.045406863;0.12562743;0.25608316;0.22035004;-0.11280044;0.0021526571;0.11192993;-0.04690658;0.027574405;0.0018584842;0.17193605;-0.04368364;0.258156;-0.009147583;-0.03587646;-0.2718781;-0.111626275;-0.0161997;0.23702914;-0.013561778;-0.17038982;-0.19717635;-0.2010754;0.18841024;0.33041543;-0.00829876;0.060271207;0.15156989;0.25967428;-0.036982693;0.01441385;0.094911225;-0.0041462355;-0.22208267;-0.18157691;0.0037212877;0.2337155;-0.013239238;-0.00030128506;0.19905598;-0.25105375;-0.029903974;0.38345802;-0.27543366;0.19752847;0.010335919;-0.12132463;0.0024237724;-0.0073073264;0.0687571;-0.0014987774;-0.022317015;-0.049087275;0.3325287;-0.056954004;0.018213812;-0.0050957333;-0.26598424;0.007934603;-0.06436998;-0.0035506224;0.3188912;-0.028047234;-0.27893;0.28048843;0.002165927;0.30284885;-0.009246884;-0.06836297;-0.065607145;-5.9974072e-06;-0.27487618;-0.004625463;0.14483482;-0.24483311;-0.0007971439;-0.45781767;0.0185623;0.16378137;0.047653154;0.1342797;0.045975555;0.019104876;-0.013799694;-0.012621981;-0.122348346;-0.061316203;-0.11122813;-0.005700654;0.22185753;-0.009099302;0.09322524;-0.0042320713;-0.014837235;0.12530886;-0.20070012;0.034954697;-0.13952492;0.00852592;0.022484884;-0.58011055;-0.16284674;-0.015166078;0.17736179;-0.28678405;0.011956568;0.43481198;-0.024573686;0.06511564;0.03646765;-0.2306651;-0.12821807;-0.020399768;-0.32242253;0.22506563;-0.018635456;-0.006609923;-0.35102805;0.0855547;-0.050989717;0.28357622;0.0047021937;0.20432429;-0.031579062;0.04508551;0.042996585;0.017814202;-0.0011328537;-0.0084016565;0.2512807;0.013562249;-0.20674382;-0.020742;0.07650913;0.2669121;-0.27702516;-0.11371055;0.3633793;0.013302259;-0.067303896;-0.17327867;-0.16368908;-0.09487848;-0.011534693;0.09538393;0.10722746;-0.42133352;0.01854329;-0.20738123;0.11238906;-0.1150571;-0.154518;0.24546775;0.024191774;-0.026953453;0.024648018;0.011251738;0.0011253954;-0.025799816;-0.04435282;0.035569023;-0.041630633;-0.0052284207;-0.0072256234;0.118624724;-0.008133364;0.041945945;-0.2366679;-0.09143115;-0.025171155;-0.23022093;0.091658704;-0.21820904;0.032436702;0.01216334;0.15484352;-0.18883233;0.0051239915;0.23949572;0.33869222;0.0857706;-0.37784252;0.0034173494;-0.08572109;-0.006180505;0.16787322;-0.20045939;-0.13650292;-0.009776034;0.051064122;0.0038138658;-0.010984756;-0.014083994;-0.32410687;-0.004612863;-0.18898794;0.14144295;-0.31409293;0.012209589;0.15904295;-0.043776006;0.17281996;-0.30126208;0.21985509;-0.34165612;-0.08363178;-0.019150767;0.014307076;-0.10081505;0.029950932;0.012366831;0.2515649;0.10108896;0.10254277;0.0035233393;0.004952432;-0.4139904;-0.1458404;-0.014897038;-0.12855561;-0.014044908;0.013675449;-0.055783935;-0.010659553;0.11062369;0.11041081;0.057373483;-0.0151134;-0.048650898;-0.014359237;0.23268868;-0.09367628;-0.012866655;-0.13847125;-0.040510897;-0.011852396;-0.089375;-0.00032914444;-0.2431492;0.1916221;-0.0012528287;-0.016044343;0.0073492457;-0.21897373;0.27257016;0.07983218;0.13102593;0.0057783965;-0.24109569;-0.019182405;0.036698505;-0.1654657;0.040332764;0.010349722;0.06186606;-0.1554061;0.0019739186;-0.0064510563;-0.05126895;0.09392139;0.013227462;-0.0036685641;0.12960602;-0.031268105;0.24926051;-0.43465677;0.0009868986;-0.018472856;0.10194491;-0.0065078805;0.16518451;-0.023050204;0.28551686;0.22035982;-0.3119793;0.14578995;-0.0045060143;-0.14333062;-0.0011375046;0.012546033;-0.123609714;-0.5949682;-0.020305676;-0.00427414;-0.011310828;-0.07184292;-0.002525583;0.04435618;0.010130487;-0.04068323;0.09323894;-0.26055288;-0.070286065;0.20980592;-0.25333905;-0.08883068;-0.15449022;-0.0007329956;-0.42308682;-0.011258806;0.27317327;0.3128328;0.002785234;-0.024901317;0.25832695;0.00025219852;-0.21116816;-0.01501449;0.0076831607;0.05523602;0.02613421;0.07846788;-0.102087446;-0.1318835;0.0029648468;-0.35616043;0.0175948;0.25801122;0.09065926;0.0112386355;0.04583346;0.25089622;-0.24224423;-0.014145203;-0.061138216;-0.0071905814;0.0031332348;-0.33496743;-0.010826516;0.046539713;0.012824192;0.20742424;0.009775887;0.0008432232;-0.094920844;0.019069659;-0.112262905;0.02468788;-0.0693853;0.004332396;0.0137787;0.012894511;-0.046574898;-0.22534557;0.21094021;-0.0124215605;0.12323643;-0.01914265;0.24085528;-0.34076065;-0.024486383;0.33308795;0.010455022;0.19733389;0.28548405;-0.4360228;-0.5021207
-0.15096246;0.1243296;-0.120867684;-0.22870758;0.1270205;0.008734629;-0.22175905;0.005279181;0.11573088;-0.015506933;-0.139766;-0.10723747;0.0047515435;-0.016255092;0.22413845;0.116080694;0.019053634;-0.24812485;-0.013514439;0.093692;0.17456044;0.08192737;0.010898112;0.033530656;-0.3744552;0.14094491;-0.12747698;0.18831174;0.0072661904;-0.004494899;-0.07269132;-0.10957242;-0.28633514;-0.019316195;0.011797387;0.13192312;-0.022445323;-0.08487732;0.051199235;0.05722173;-0.09475135;0.0049102968;-0.35301667;0.14702435;0.3840627;-0.41105798;0.006970127;-0.026285186;-0.009775762;0.11838088;0.20316271;0.019562911;0.08456524;-0.19051373;0.028820874;0.0054511754;0.05565379;-0.0052012457;-0.22149861;-0.19004883;-0.008243305;-0.14900672;0.012524583;-0.06484061;0.0119818235;-0.03827755;0.0018153281;-0.2801275;0.0024489732;0.014252572;-0.13492635;-0.13749497;0.16019471;0.0037509715;-0.081432566;-0.07561998;-0.14339192;0.29087424;-0.16247249;-0.003742841;-0.016341459;0.013215493;0.02800032;-0.36278132;-0.0117971;-0.18781231;-0.31181937;0.007574645;-0.0139110545;-0.13945937;0.23899359;-0.16942374;-0.018292189;0.0021077637;0.0082182;-0.18155546;0.0142995035;0.021365467;0.005807228;0.04812011;0.15246107;-7.738934e-05;0.0075317384;0.22968453;0.03380579;-0.0018805017;0.07565672;0.010576946;0.000844187;-0.0036712964;-0.2477655;-0.029669063;-0.35697317;0.42785275;-0.012980278;0.074691504;-0.038046673;-0.11794179;-0.05386943;-0.14749455;-0.18651225;0.005836888;-0.015017274;0.3421743;-0.010983747;-0.02497459;-0.12514491;0.14380349;-0.23119539;0.0137816295;0.06762135;-0.041632704;-0.0040058503;0.19189274;0.017303407;-0.075492494;0.047264922;-0.11039204;0.042090174;-0.20037548;-0.05959607;-0.01171085;0.14158008;-0.092107214;0.14223881;0.004424335;-0.022517055;-0.1953796;0.009891669;-0.115786344;0.36059466;0.1958074;-0.018327862;0.006954905;0.0075734956;-0.29440516;0.00087106944;0.3384164;0.090470426;0.05198121;0.05847358;0.1809359;0.17710757;0.058325313;-0.058754772;0.021793658;0.036854733;0.047424745;-0.21503186;-0.015796915;0.006881195;0.0026822018;0.002331579;-0.0006467686;-0.002752733;-0.13618422;-0.07789627;-0.18324493;-0.007977614;-0.35396734;0.101220116;-0.13866583;0.23641025;0.030077174;-0.008484513;-0.3834527;0.007679666;0.032911442;-0.21337838;-0.064864144;-0.18427086;-0.11877293;0.111607715;-0.02125441;-0.0015249819;-0.2740339;-0.0021841032;0.2106869;3.1683012e-05;0.47123602;-0.47446087;0.005595744;-0.014894109;-0.0035484303;0.25471073;-0.14665698;-0.062489644;0.14966157;-0.16350976;0.0033649353;0.29590595;-0.06652266;0.008429474;-0.0017982548;-0.009348052;-0.12982142;-0.10371686;-0.34570596;-0.0016525344;-0.1499887;0.056064956;0.053899534;0.09203017;0.13994183;-0.003313426;0.06088887;-0.020567209;-0.012444731;-0.021503596;-0.07583363;-0.009978567;0.21957712;0.011731987;0.028525839;-0.24530755;0.014944777;0.15762608;-0.02404106;0.014907974;-0.14724506;0.021648383;-0.11782579;0.07433158;0.53734314;-0.0075829485;0.044020593;0.3174485;0.28458467;-0.09219664;0.0073624053;0.23379831;0.006342443;-0.3082166;-0.1355063;-0.013378418;0.045088626;-0.15064003;-0.023196481;0.17314498;-0.3260239;-0.06378065;0.25239155;-0.29126766;0.09181106;0.0007684068;-0.12300135;0.010654134;0.0052010906;0.0435172;0.0051717893;0.022146508;0.009592368;0.3398031;-0.0033301532;-0.0010366135;-0.114390306;-0.2792538;-0.008700526;-0.13950911;-0.0047549373;0.20155954;0.09842199;-0.097694926;0.1265454;0.0045534177;0.064231716;0.007089951;-0.06272397;-0.21419111;0.0066754273;-0.33968094;-0.11771245;0.01561188;0.0718638;0.0049386616;-0.345146;-0.08235845;-0.17864536;0.08621507;0.1166286;-0.020498484;-0.025741953;0.025041021;0.0037712858;-0.038941585;-0.15084031;-0.012360158;0.014459425;0.08333696;0.115973234;-0.16951159;-0.050938305;0.016545681;-0.14355853;-0.14459999;-0.02838231;-0.07104109;-0.0044568744;0.0012254667;-0.3848849;-0.2181401;0.018314466;0.08690751;-0.279609;0.019611517;0.30157095;0.031255443;0.074196436;0.15772586;-0.34839207;0.023313876;0.025062097;-0.340541;0.04458391;0.15961024;0.009688718;-0.40577608;0.03477501;0.036042836;0.12743646;0.0034984401;0.08760217;-0.040440693;0.1248785;0.048691884;-0.006709921;-0.006501624;-0.017347245;0.34644002;0.028597727;-0.14506492;-0.12846033;0.037986882;-0.04653883;-0.34161314;-0.08623072;0.29552206;-0.014292336;0.1329201;0.15318054;-0.38204053;0.0031679766;0.007890377;-0.047144387;-0.014719044;-0.089870654;-0.025856066;-0.0396961;0.17517446;-0.22714312;0.15519036;0.13727319;-0.014290587;-0.0030088807;-0.010228965;0.0028407953;-0.003065318;0.022793502;0.040813167;-0.02331201;0.029999515;0.05432565;0.014911291;0.30999133;0.01756046;-0.02478405;-0.12120808;-0.08883488;0.18300492;-0.29914737;0.049376264;-0.100580506;0.08280449;-0.029393978;0.015491365;0.018522011;0.03326392;0.117293425;0.35790777;0.24277097;-0.19308394;0.0068904967;-0.06010476;0.014937013;0.23600785;-0.025790544;0.01957167;-0.0009475955;0.2116419;0.013046921;0.00079453655;0.0021368763;-0.2666945;-0.00755072;-0.21396819;-0.27866048;-0.20550808;-0.005728291;0.29340222;0.015878698;0.24961507;0.19580716;0.12878388;-0.30316174;-0.03742767;0.014857828;0.0015866737;0.15277673;0.11846435;-0.003671397;-0.1288631;0.26948366;0.10852615;0.006704274;0.014683829;-0.2073537;-0.02073495;0.15222654;-0.084489934;-0.0070457836;-0.01413864;0.07515776;0.008820091;-0.14052309;0.06763951;-0.2952878;0.01397823;0.06437206;-0.0042829444;0.1504382;-0.23880813;0.013601514;0.15482782;-0.14838211;0.0061936416;0.04232277;-0.009940868;-0.018482132;0.16865186;0.0029668584;0.017222414;-0.015285399;-0.10852726;0.09071611;0.081764296;-0.04645367;-0.010465909;-0.20047326;-0.042321246;0.025295403;0.07602786;0.017617414;-0.011826364;0.20132029;-0.16408406;-0.004565855;0.017973613;-0.06546921;0.13054024;-0.015406783;-0.0784322;0.00058499875;-0.030545624;0.19934812;-0.40767646;0.0063616703;-0.072418794;0.04060869;-0.0027985845;-0.11561543;0.0026075193;0.14993533;0.33360985;-0.124090604;-0.009660043;0.002508683;-0.009353783;-0.012365635;-0.25790724;-0.17357783;-0.531094;0.008824261;0.014987688;0.010406042;-0.08772895;0.005024474;-0.117815346;-0.014578868;0.05319126;0.057870995;-0.23917988;0.2563087;0.18717435;-0.1528147;-0.03200965;-0.20763835;0.0015836769;-0.40714863;-0.012018393;0.30648553;0.2447187;0.00091367855;0.00011825248;-0.3090428;-0.008259942;-0.36519185;0.008730438;-0.011065868;0.059406623;-0.017251907;0.32062623;0.045823075;-0.36541346;-0.0023407917;-0.08109991;0.057168245;0.20233664;0.13408224;-0.013863557;0.32501385;0.06474458;-0.16068971;0.004560021;0.16623138;0.012899615;0.011426944;-0.18072337;-0.03447224;0.1565202;-0.02547727;-0.08505564;-0.019673442;-0.0032039566;0.0025444736;-0.012092924;0.021333635;-0.18426916;0.07617235;0.007844834;-0.01155151;0.05627249;-0.21257326;-0.082828395;0.24048391;0.009732026;0.16656232;0.020810252;0.34424955;-0.039744686;-0.010849267;0.19051602;-0.014619004;0.20481816;0.20748726;-0.32858306;-0.47996366
-0.09249676;0.1352143;0.025111903;-0.20273358;0.046021726;-0.00086263457;-0.18875133;-0.014817038;-0.22175275;-0.00013034443;-0.18197048;-0.23290063;-0.014466117;0.09478809;0.095057696;0.20869651;-0.019295726;-0.17327745;0.0053555123;-0.03227518;0.03645062;0.108765125;-0.08822195;-0.0036086186;-0.21620451;0.18850797;0.19991294;-0.06514784;-0.011812204;-0.00888885;-0.0795736;-0.1686451;-0.14727946;0.0054048835;-0.004928829;-0.07573932;0.22149451;0.043229025;0.17179321;0.17799856;-0.2074432;-0.019065939;-0.23388456;-0.027123604;0.21206911;-0.39361155;-0.0042260457;-0.13614434;0.0044084983;-0.16228886;0.3094777;-0.014500387;-0.0733626;-0.33724076;-0.020780358;0.0059849294;-0.07569644;0.013071005;-0.21066687;-0.04763259;0.017053643;-0.23614793;0.0071518174;-0.055325624;-0.015129896;-0.06168083;0.035206825;-0.09156836;0.0006908109;-0.17763412;0.012821232;0.11380986;0.35323894;-0.1299878;0.0031671505;-0.07150141;0.043173656;0.481459;-0.21682216;0.010783569;0.023001809;-0.0070928894;0.30071995;-0.299233;0.015777107;0.12917888;-0.100713044;3.164244e-05;0.003956563;-0.028983261;0.1040583;-0.07868728;0.014313296;-0.024075704;0.00048148385;-0.14051513;-0.009588509;-0.014777426;-0.078793794;0.09141639;0.15237872;-0.012472617;-0.0031765304;0.09883463;0.10309716;0.013220104;0.10723051;0.008048116;-0.006688767;0.0036554702;-0.21712145;-0.040081233;-0.38184565;0.19882211;0.0082635;-0.17213416;-0.16305442;-0.05959911;-0.03244242;0.029269805;0.01566047;0.0013752161;-0.10365181;0.28106815;0.07584406;0.040247202;-0.4184817;0.05522638;-0.17349388;-0.0120562725;-0.12691139;0.0167306;-0.0007125613;0.13134985;0.0011506721;-0.05730855;0.1078044;-0.004043969;0.117511116;-0.2381276;-0.060143854;-0.02280833;0.23757237;0.24692197;-0.12272095;-0.013359403;0.024041016;-0.024520712;-0.018709106;-0.16692753;0.36914048;0.38808292;0.095181;-0.0044728694;0.0074101076;-0.136941;5.0462426e-05;0.26371026;0.09761228;0.11632213;0.074550025;0.104312174;0.21427162;0.019153638;-0.15209725;-0.009112309;0.037016448;-0.0970667;-0.025673794;0.01929781;0.0048725023;-0.11509951;0.0050049853;0.007818662;0.017683312;-0.24147217;-0.09539341;-0.15308245;-0.04331217;-0.25086343;-0.040695354;0.19287893;0.19028635;0.06276452;-0.012554027;-0.23064788;0.0051921755;-0.21537282;-0.26223487;-0.042422783;0.01919348;-0.041158278;-0.06896957;0.025598053;0.13556711;0.030840984;0.010518429;0.18278113;0.041028462;0.42188025;-0.26736104;0.021725873;0.0068238094;-0.013233878;0.3683524;0.057586484;-0.049603388;0.18980187;0.072436094;0.0033246945;0.38298246;-0.18015283;-0.009982961;0.0072585945;0.028223252;-0.20539771;0.14433463;-0.4162195;0.053983763;-0.35429978;0.15063432;-0.09553103;0.11165745;-0.027184008;0.0036437558;-0.13619502;-0.16428022;0.025956487;0.008165587;0.0791851;0.019568522;0.12064443;-0.0014843581;-0.020184593;-0.05631376;0.029891958;-0.11868597;0.19136575;-0.00767825;-0.10119477;-0.0001526797;0.10812369;0.09986197;0.07692037;0.006959207;-0.18699938;0.27360934;0.13041697;-0.100579344;-0.02027886;0.065217786;0.0006777744;-0.13606629;-0.2794386;0.0060404376;0.17130004;-0.18743172;0.01661258;0.19525547;-0.05934373;0.012157765;-0.015126626;-0.35837248;0.098828346;-0.010619389;-0.042196464;-0.014388842;-0.036291018;-0.06048207;0.003801089;-0.023755366;-0.04423677;0.34883836;-0.12940939;-0.02754188;0.03472201;-0.16850996;-0.01278544;-0.17281052;-0.0016747636;0.10441853;0.114831276;-0.010740251;-0.10374632;0.010499286;-0.22520614;-0.0042665736;-0.24503553;0.033623043;0.007478212;-0.59029263;-0.13914862;0.086971365;0.24393879;0.015716359;0.014734607;-0.12360879;-0.37040976;0.14455305;-0.16938335;-0.06578264;0.009800411;-0.017110204;0.011647988;0.0073739956;-0.122880556;-0.10384287;-0.018782841;0.12615411;0.16746667;-0.092240654;-0.03449471;-0.012977264;-0.022069622;0.10383715;-0.2359706;-0.03140749;6.241685e-05;-0.009242757;-0.2231714;-0.31901577;-0.002394148;0.1182392;0.091271296;-0.025054606;0.35759342;-0.029510435;0.19182992;0.23523007;-0.21986341;0.031350356;-0.025028856;-0.25723106;-0.12674484;0.16817303;0.0038845467;-0.11808364;0.19686195;0.18863773;-0.016787076;0.0056162556;0.06843115;-0.04641191;-0.20026189;0.1226056;0.00612888;0.028910931;0.010793934;0.4798794;-0.022633847;0.13002862;-0.06716498;-0.060563967;0.011897601;-0.24187486;-0.044233844;0.11802803;0.01665819;0.031444177;0.07893106;-0.24353723;0.09002976;-0.007913762;-0.19716981;0.01542691;-0.010209802;0.02008586;0.039277207;0.2207217;-0.13246723;0.28648356;0.059550174;-0.007336375;0.0044405707;-0.016056878;-0.0046685226;0.011905441;-0.013933332;0.022237834;0.05445569;0.009071384;-0.030412404;3.68212e-05;0.08419506;-0.002527486;0.010535766;-0.20194586;-0.00084052206;0.28826568;-0.13563006;0.12232355;0.2031547;-0.0020217882;0.007218107;0.08447853;-0.018994236;-0.014490434;0.13375832;0.30241057;0.26429567;0.042404532;-0.014437493;0.086672045;-0.015912853;0.24765883;0.07476361;0.17936336;0.02606716;0.024035612;-0.012883145;0.013130738;-0.007661773;-0.10275386;0.01786038;-0.1767358;-0.5907611;-0.08992647;0.006684099;0.16220102;0.0019785496;-0.050011773;-0.08129396;0.38355687;-0.5501873;-0.094963916;0.001679052;0.007551403;0.2634109;0.027264962;0.14479944;0.070890345;0.19793896;-0.025163393;-0.027038474;-0.015719095;-0.30457348;-0.1760027;-0.06606731;-0.14752717;0.013672409;0.019018833;0.10310594;-0.020046962;-0.06930344;0.0771589;-0.2484456;-0.01704513;-0.15953279;0.004823343;-0.022968214;-0.1790238;0.019610804;-0.16781712;-0.053559132;-0.003490504;-0.016759353;0.001261073;-0.17100118;0.09902802;-0.015772598;-0.013202442;0.0047145337;-0.2903444;0.071464024;0.226768;0.2069447;0.016799944;-0.039876163;-0.11935806;0.10867829;-0.27624717;0.23015721;-0.008451012;0.16056025;0.14385833;-0.0029182888;-0.0076316353;-0.20513716;0.26602688;5.300714e-05;0.013374388;-0.007420748;0.09661533;0.14537093;-0.19314212;0.0012391695;-0.27316633;-0.045118816;0.009638461;0.17525715;0.0026694646;0.10394152;0.06721241;0.04616732;0.24225822;0.0070173917;0.11437793;0.025169132;-0.21781974;0.009600558;0.0049546626;-0.0032013566;-0.01689764;0.0046843;-0.024072671;-0.010891937;-0.19809729;-0.011640454;0.14631006;0.11545642;-0.22389267;0.1553199;0.21054518;-0.21172796;-0.14506687;-0.24888454;-0.016719395;-0.496426;0.01141465;0.31461537;0.007944814;-0.0070560123;2.7318016e-05;-0.55392104;0.02310512;-0.18445946;-0.0003482693;-0.0060209;-0.015425841;0.012699245;0.28196174;0.30968997;-0.36605668;-0.010864622;-0.21054374;0.010066998;0.4832704;0.0573957;0.023438334;0.31150597;-0.085000925;0.17675777;0.012780941;-0.06411287;-0.009813359;-0.034020483;-0.21120591;0.022533264;0.05166209;0.013265222;-0.047787335;0.011482278;0.004887552;0.10264718;-0.0067835497;-0.3434478;-0.12610148;-0.11077264;-0.017775068;0.0049213422;-0.088721834;0.0065196757;0.05476327;0.124148436;-0.0034429661;-0.16915269;-0.018662438;0.3461218;0.10196099;-0.02009408;0.51810914;0.005976179;0.13703275;0.1687857;-0.1408152;-0.03096235
-0.0027612806;0.08569478;0.094412975;-0.027509071;0.07096137;0.0064802906;-0.09817063;-0.010409339;-0.25212345;0.0018395813;0.08470082;-0.07597548;0.00081031217;-0.017046012;0.18030441;0.22590539;-0.0010058173;-0.104500145;0.0055998433;-0.42955253;0.035295255;0.14378108;0.07170915;-0.01739909;-0.17392182;0.16502017;0.3412081;0.14987217;0.009643629;0.0047644395;0.053944774;0.10387726;-0.013024811;0.0005595314;0.019872373;0.09148503;0.44500384;-0.073983476;-0.028128205;0.13575086;-0.09139249;0.012246437;-0.17349268;-0.12954722;0.04852399;-0.54986376;-0.012392515;0.12845181;0.0060196924;-0.04056646;0.2843135;0.02147885;-0.12981561;-0.45040676;-0.002413107;0.0049152756;0.050024807;-0.01280195;-0.14306685;0.19469598;0.013844674;-0.47540855;-0.018560898;0.33521944;0.057132944;-0.115127005;0.10454737;0.30226636;0.0024902385;-0.0381802;0.21870261;0.20142794;0.039642535;-0.3838903;-0.34075463;-0.18790865;0.19683681;0.41497225;-0.063708946;-0.018966665;-0.017675878;-0.0038656816;0.19069949;-0.40159604;-0.014152606;0.1271015;-0.17197135;0.0052364306;0.003544144;0.030082555;-0.031799942;0.041616216;0.008834682;-0.014977162;-0.010214872;0.081512935;-0.004143831;-0.06665612;-0.003932586;0.03904172;0.14029178;0.01699407;-0.0076110507;-1.5883466e-05;0.16971478;-0.006530842;0.30736125;-0.0130846035;0.0057543293;-0.007046428;-0.13432333;-0.2549861;-0.2647451;-0.049724326;0.0019288585;-0.17197369;-0.32550827;-0.03072695;0.14705284;0.24117126;-0.11997659;-0.0069574914;-0.054138172;-0.032047875;0.18249543;0.030499203;-0.108679995;0.1555299;-0.34922993;-0.009596056;0.08958723;0.024514176;-0.0070632123;0.07687162;-0.020351911;0.039544355;0.12138098;0.1824272;-0.19256724;-0.28633505;0.03236879;0.019659044;0.05750659;0.44642106;0.063544124;0.015367801;-0.0067221373;-0.04821995;0.020426482;0.13474241;0.2060039;0.25635535;0.008901151;-0.012523569;0.16022694;-0.1580161;0.011516663;0.038515497;0.12739246;-0.07995427;-0.17041612;0.10771312;0.12410178;0.042748693;-0.008273821;-0.01882053;0.0014126796;0.0002936417;0.010157975;-0.011133878;-0.01270944;-0.21976835;-0.012105098;0.01567611;-0.011324904;-0.2224539;-0.1026209;-0.2061445;0.028525552;-0.22045597;0.2509631;0.17872384;0.3469222;0.28003412;0.020036783;0.013065696;-0.009683271;-0.051620316;-0.24993142;-0.03254065;0.11411866;0.06262649;-0.05588581;0.19255386;0.18604635;-0.18753318;-0.03718695;-0.058692932;0.07772075;0.37165618;-0.1077971;-0.0139355995;-0.015598495;0.018464496;0.23859817;0.024099145;-0.25334007;0.059475362;-0.026034068;-0.0018768942;0.30310154;0.071187705;0.0025071597;-0.0073296917;-0.020080583;0.0039753322;0.17129138;-0.21431299;0.16341104;-0.2179734;0.14977717;-0.053459458;0.035559416;0.113005415;0.018698778;-0.09193768;-0.255009;-0.026052581;-0.009076826;0.058238063;0.05064318;0.05242195;-0.009544889;0.014700595;-0.20652157;-0.22956099;-0.0011168573;0.12724888;-0.0040419367;0.077380754;0.054601908;0.028080009;0.100600384;0.17318532;0.00092362385;0.16246054;0.08995349;0.12838526;-0.20137587;0.016877744;0.14776894;-0.009764639;-0.024610206;-0.26628882;0.023155993;0.029946484;-0.20922147;-0.009697116;0.13591225;-0.1273205;0.01924461;0.009995669;-0.31701282;0.24047434;0.004553632;-0.27322426;0.006531411;-0.0009190447;0.07545614;0.007988576;0.02625235;-0.08087056;0.25903112;-0.031048032;0.019565374;0.08277918;0.19046058;0.009199278;-0.12608868;0.0026097905;0.1955716;-0.068913944;0.13351426;-0.09919545;-0.03650331;-0.097555436;0.01637428;-0.11539792;0.04914017;-0.010673056;-0.57835454;0.040623598;0.020196212;0.11820971;-0.012530052;-0.04742875;-0.05065155;-0.31107146;-0.0018634076;-0.10342874;0.028253451;-0.006863875;0.003716446;0.0013255827;-0.009066389;-0.33767784;0.14955997;0.00085192715;0.10743815;0.08951941;-0.13698629;0.049056415;0.0032314963;0.07241067;-0.02531958;-0.24414283;-0.057994686;0.008341142;-0.016989032;-0.18940756;-0.47517794;0.0021483577;0.09334219;-0.092772305;-0.014733414;0.042933833;0.0059151277;0.14768739;0.22703874;-0.38333464;0.24222971;0.0014260096;-0.32266852;-0.10459085;0.22349334;0.007112555;-0.027696436;0.16583252;0.2556329;0.008685915;0.001015457;-0.06988031;-0.18998678;-0.054329973;0.44680586;-0.0024509223;-0.021885954;0.006830648;0.29780325;-0.021172034;0.030840743;-0.0788591;-0.10164677;-0.12758316;0.08017774;-0.029471235;0.017884664;-0.016611464;0.026453903;0.19540502;-0.116516605;0.117719635;-0.010965949;-0.10918048;0.15375799;0.19329646;-0.008661649;-0.06019944;0.21598034;-0.21791382;0.39215362;-0.06551351;0.017664019;0.018237304;0.0127577055;0.0035263398;-0.013541995;-0.013775438;0.047472622;-0.0762989;-0.033163425;0.027447447;0.014040954;-0.02816406;-0.015099181;0.0055048163;-0.3431668;0.024803147;0.24372034;-0.19115092;0.07569436;0.22813313;0.05891807;-0.004759434;0.07727621;0.06373656;-0.0031459802;-0.13461143;0.14087258;0.15097423;0.07517565;-0.0034153094;0.077343516;0.0033292265;0.23844521;0.042427268;0.231451;-0.034548577;-0.09671841;0.0059347744;0.00027628193;-0.011407015;-0.013629516;-0.013868435;-0.35314155;-0.38126954;0.071119346;-0.013182298;0.16241644;0.0062810606;-0.061008107;-0.26121804;-0.052766837;-0.5441607;0.065103725;0.005980364;-0.0031158552;-0.08681961;0.2916391;0.017543193;0.013638149;0.33398336;-0.18165317;0.01573267;0.017090205;-0.017976059;-0.23168579;-0.24778223;-0.20646428;-0.0028868224;-0.009355957;0.085559376;0.011291843;-0.094643325;0.06526971;-0.26752648;0.008787694;-0.1090437;0.0021229903;0.023636382;-0.24197878;-0.016925678;-0.07332304;0.074080475;-8.433865e-06;0.055658367;-0.005789934;-0.33689705;0.015354732;0.022177145;-0.0074416967;-0.0015502939;-0.243678;0.20965146;-0.11645402;0.09989584;-0.011889197;-0.019814508;-0.3922832;0.20803958;-0.4422941;0.103812344;0.01309998;0.110191986;0.26512253;-0.003530725;0.0071601802;-0.27864653;-0.039695464;0.01622338;-0.11640816;0.0031599975;-0.1786961;0.033216365;-0.11875668;-0.0012956519;-0.35574856;0.00079285697;-0.00974325;0.16338147;-0.0029178166;0.068224914;-0.050186016;0.11304127;0.2273332;-0.0046760114;0.43340474;-0.017766284;-0.14503305;-0.013318915;0.0045096483;0.0015875904;0.011942228;-0.022874758;-0.18007647;0.013308656;-0.17482643;0.011665005;0.037403103;0.32436696;-0.048992135;0.005995705;0.1517239;-0.1223302;0.057283536;-0.19298747;0.017685816;-0.47854415;0.0071843867;0.069806494;-0.30213624;-0.022377891;-0.00036940636;-0.5015055;-0.017905839;-0.02686318;-0.0041175075;0.008100586;0.0056407033;-0.0056486335;0.091743566;0.08511024;-0.23890844;0.017865842;0.024240898;-0.014673131;0.27870104;0.15955172;-0.012466915;0.28397024;-0.2553795;0.13528478;-0.012822528;0.10376585;-0.009166993;0.008167696;-0.35030693;0.0060614445;0.19911662;0.002612099;0.008454046;-0.0025644246;-0.01607632;0.20788461;-0.0056946566;-0.21034381;-0.16697216;-0.028241267;0.010026228;-0.008063429;0.12521273;-0.11267648;0.043813802;0.17596883;0.009541331;-0.097649775;-0.0027340883;0.17773388;0.120192215;0.079089686;0.45000094;-0.0019104622;0.08318208;0.45325977;-0.28399578;0.05375691
0.06733484;0.10128522;0.011734436;-0.07362223;0.0031947577;-0.024662107;0.08271393;0.034204725;-0.3452969;0.0067569315;0.15616108;0.022336936;-0.0012209523;-0.15036587;0.17876624;0.21407959;-0.017173067;-0.3547233;-0.0056600524;-0.27330834;-0.0097158095;0.12188207;0.091191426;0.070001565;-0.06678602;0.08604073;0.01957826;0.20973863;-0.007240152;-0.005538152;0.096711814;0.09536053;0.037005838;0.0035474242;-0.008738327;-0.08175777;0.47594726;0.002390273;-0.045159202;0.011189871;-0.054183908;-0.0085603865;-0.31223765;-0.3932573;0.12446736;-0.4303412;0.031007526;0.097115286;-0.015015284;0.024493882;0.18270887;-0.031764645;0.08384321;-0.39087486;0.0003999766;-0.020687325;-0.02219596;0.0041885;-0.04786794;0.19873767;0.008772533;-0.41008958;0.024486242;0.2662932;-0.084750995;-0.13489099;0.32504338;0.2568919;0.0031835039;-0.10217055;-0.14885274;0.1604644;-0.18406628;-0.25808227;-0.41295165;0.011236872;0.0667007;0.39738396;-0.5153998;-0.00041770173;-0.0021569633;-0.0055272467;0.08568471;-0.26886362;-0.019498274;0.057160337;-0.17754877;-0.011119016;0.010868194;-0.03816444;0.23012939;0.2618613;-0.011037701;-0.021430423;0.01658794;0.018449895;0.0055641313;0.005978073;-0.14486626;0.06337547;0.09525203;-0.010764781;-0.0010573119;-0.40787297;0.15943463;0.0026271953;0.40381157;-0.0072478876;0.011101148;0.009143102;-0.039017424;-0.46697375;-0.21470226;-0.32980984;-0.0060466886;-0.08601289;0.06526115;-0.14301136;-0.1566304;0.25667644;-0.32377946;-0.0076499567;-0.30339918;0.21235803;0.06320219;0.017479926;-0.10297925;0.02204211;-0.39210495;0.014647734;-0.12855847;0.25609046;0.016531289;0.086417064;0.012763969;-0.042727076;0.009032485;-0.043688454;-0.14953174;-0.31971902;-0.10227058;-0.0044380007;-0.18999094;0.6030006;0.05989311;-0.005848521;0.0035668104;-0.036099073;-0.013467976;0.3612326;0.06535505;0.20320499;-0.05889392;0.0019562265;0.23384516;-0.03975655;-0.018943597;0.019792197;0.0785485;-0.14832444;-0.32183424;-0.13082397;0.1988913;0.03557443;-0.21337439;0.010160555;-0.009115031;0.08826415;-0.10879211;0.017752422;0.013084216;-0.27091762;0.0048614964;-0.011967938;0.021024786;0.02580592;-0.25589836;-0.09872248;0.09978708;-0.060024522;0.3328184;0.099018216;0.2600778;-0.19219457;-0.00780335;-0.025973136;0.019550182;-0.36820906;-0.26024204;-0.10145424;0.1916122;-0.053256977;-0.059788134;0.24351463;0.1608391;-0.016863024;0.026878903;0.048040908;0.31821018;0.27951032;0.0501392;0.0042326148;0.0052628545;-0.007399481;0.15517694;0.0077853384;-0.28899968;0.10090482;0.020041682;0.0009665736;0.011237918;0.01355838;0.006920414;-0.00016872019;0.17486812;-0.13127066;0.25010887;0.103378125;0.10366427;-0.23563582;0.16153474;0.2339903;-0.12811866;0.089341566;-0.015624978;-0.046238493;-0.46386394;0.012237391;-0.00899895;0.035447855;0.023317901;-0.20077455;0.008741719;-0.014314678;-0.11082103;-0.28563294;-0.07186513;0.06565079;0.02201242;0.22910549;0.0009239399;-0.047134466;0.16671409;-0.05363243;-0.006798373;0.14310573;-0.14104259;0.16154087;-0.17316899;-0.010214173;0.42159387;-0.0020433252;0.060700927;-0.32628998;-0.016413227;0.17608517;-0.13359788;0.023897592;0.046742007;-0.104663596;0.20588587;-0.018424787;-0.040998515;0.20354535;-0.01181326;-0.35320395;0.0068375077;0.01955287;-0.08398422;-0.008420663;-0.0029788476;-0.16408041;0.033155944;-0.18490212;0.0017436654;-0.082938224;0.13723136;0.007360739;-0.17604072;-0.018462056;0.14749463;-0.08626413;0.18486731;-0.19784795;0.023102507;-0.32317206;0.012707732;-0.18314157;0.055587046;0.012007565;-0.37352288;-0.085509084;0.2812011;-0.030426336;-0.006432707;-0.15387994;-0.040263332;0.022938667;0.11774626;-0.0024540795;-0.054416914;0.0061039696;0.01209627;-0.006880745;0.03696361;-0.29952294;-0.023897849;0.023068918;0.1424138;-0.03521676;-0.051223636;0.15080838;0.006257262;0.13468271;-0.09623785;-0.247384;-0.20763604;-0.010190108;0.019646205;-0.2704193;-0.28337044;-2.5635156e-05;0.14730093;0.059882943;0.021284882;-0.035552863;0.014067186;-0.11238905;0.34280318;-0.1377116;0.0752645;0.0013229088;-0.18232773;-0.03263617;0.26412454;-0.011102038;0.1587324;0.017623324;0.24593978;0.021552715;-0.02031509;0.07011314;-0.14894748;0.11221196;0.26817128;-0.0076281107;0.012775224;-0.011190674;0.3117293;-0.13823517;0.0208222;0.2229333;-0.10003929;-0.02504481;-0.10726338;0.050566953;0.05092997;0.0070288177;-0.15684536;0.013974435;-0.119516775;0.060929544;0.0052760406;-0.28913796;0.2035616;0.32037786;0.003291613;0.08528327;0.22733617;0.061674763;0.3545542;0.1811744;-0.009067246;-0.029987536;-0.0054535647;-0.011633762;0.014563921;0.011640669;-0.03636755;0.032700084;0.015359784;0.19191878;-0.01763731;0.07821602;0.0054726633;-0.03165546;-0.13921587;0.09967016;0.48196217;-0.33208823;0.21083401;0.056917727;0.032507457;0.016014978;0.2116227;-0.17664482;-0.006775063;-0.033968054;-0.008103035;0.07438248;-0.024413362;0.0072257444;0.04762613;0.015880203;0.30818743;0.010856452;0.47943673;0.00935988;0.009682367;-0.004801857;-0.0032216217;0.020553794;-0.05377229;0.007810042;-0.26102373;-0.083597995;-0.13021418;0.0008768616;-0.21090893;0.020832704;-0.11455198;-0.414252;-0.2545951;-0.40474266;-0.0430114;0.0023070578;0.0050733374;-0.24186784;0.347614;0.004514098;-0.113218404;0.31501326;-0.26146612;0.00042519486;-0.012686845;0.044643342;-0.30027848;-0.35631284;-0.28681147;0.0041559497;-0.012415343;0.06374457;-0.003711296;-0.05810968;-0.08148657;0.028235098;-0.010562522;-0.05852491;-0.0030158688;-0.04913711;-0.06669575;-0.013375349;-0.037442874;0.16561313;-0.003263549;0.013178742;0.015498607;-0.29180306;0.024862995;0.0010972217;0.015163212;-0.0042966437;-0.42111576;0.257505;-0.334754;0.06916037;0.011191436;-0.010157506;-0.25682548;-0.20799465;-0.6056087;0.051993642;-0.009897052;0.27353376;0.29962727;0.00073159364;-0.007759898;-0.49394852;-0.10089662;0.0029792031;-0.15804766;0.04692472;-0.15859504;0.19147384;-0.18811148;0.0021788625;-0.21401007;0.23528418;0.00314948;-0.08116529;0.0016495282;-0.053372975;-0.18285927;0.2260271;0.013513163;0.008144526;0.4286345;0.0032894954;-0.13097453;-0.24710253;-0.08114494;0.003072149;-0.020346407;0.0027251455;-0.13365452;0.011102937;-0.37064883;0.014040828;0.07134577;0.3407868;-0.22325301;0.07426356;0.054777164;-0.023115052;-0.082923934;-0.4338613;0.0015934693;-0.3108497;-0.004626742;0.11639943;-0.2771337;0.028915197;0.009545332;-0.19217509;0.005230337;0.044825412;0.0012183462;-0.0018284095;-0.032814775;-0.014068911;-0.056442715;0.29471737;-0.07514674;-0.014223938;-0.18427263;0.00480505;-0.09524255;0.12281012;-0.011188506;-0.07103701;-0.24169037;0.20990339;0.006122554;0.037297744;0.012919222;-0.0080051;-0.2362304;0.0059799887;0.028453443;-0.022850784;-0.05001795;0.007179412;0.015629116;0.0892558;0.006034608;-0.4761958;-0.07546254;0.12612973;-0.00097341865;0.0056425147;0.17976585;-0.104278706;0.17154701;0.15285034;-0.0034591604;-0.122824736;-0.0047154375;-0.11475811;0.1096531;0.12920481;0.28274423;0.004895091;0.03565346;0.38662866;-0.16193163;0.18991399
0.20714179;0.23630302;-0.08718616;0.06639476;0.3287504;0.0059836335;0.19617504;-0.008821277;-0.10838201;-0.0064688157;0.13387701;-0.14712824;0.024301734;-0.04336931;0.25231394;0.22297883;0.028737683;-0.3897338;0.005382681;-0.21906784;-0.051798437;0.116822824;-0.06957985;0.037842866;-0.03918995;0.022371877;-0.0035868385;-0.06199129;-0.0073566805;0.01908089;0.072785124;0.16325654;-0.0068500303;-0.0044506337;0.0043858155;0.040683158;0.09984747;0.08810221;0.041041292;-0.08729219;-0.10299239;0.0019993167;-0.26867744;-0.30420104;0.34498024;-0.53177637;-0.025249608;0.059934948;0.019963399;0.051167414;0.4178671;0.009152932;0.2416756;-0.5449521;-0.016687382;0.017625783;-0.1269943;0.0019799196;-0.08409964;0.11938042;-0.011066296;-0.41950458;-0.018586593;0.17412484;-0.19639266;0.16859187;0.12496149;0.04279247;-0.029751122;0.09894754;-0.09370036;0.33557823;-0.036202684;-0.078541875;-0.22549841;-0.26956335;0.04161913;0.26561025;-0.32602817;-0.001577271;0.010209798;0.011644828;0.23358071;0.08687123;0.007369542;0.006497619;-0.029222146;0.0037046056;-0.0063284766;0.008540439;0.15669265;0.0104899565;0.0028442766;0.02649855;-0.006039323;-0.14123768;-0.0009362106;0.02164413;-0.003529898;-0.10662362;0.32449186;0.0059467847;0.01342195;-0.61078995;0.16441372;0.011118662;0.2194774;0.008966103;-0.009320324;-0.019309783;0.046975173;-0.42125043;-0.03347977;-0.351601;0.0014502035;-0.15519199;0.070719;0.122885436;-0.15785874;-0.16469768;-0.024625098;0.0029812867;-0.30227405;-0.08277931;-0.068653435;0.0027266901;0.05080159;0.16181432;-0.2759643;-0.005023483;-0.19601385;0.3081657;-0.010717072;0.12722975;-0.025614629;0.011596809;0.18862134;0.2933351;-0.41506812;-0.23560657;-0.06426318;-0.011562295;-0.040575076;0.48559308;0.0050607426;0.005029385;-0.0042504226;0.10397496;0.014494833;0.27186236;-0.08734603;0.07755198;0.039054334;0.0057213083;0.34004182;0.16207163;0.011540602;0.090263315;-0.03317742;-0.5451328;-0.41985485;-0.22384286;0.031564318;0.021742223;-0.2582877;0.00084280316;-0.007177752;0.16088034;-0.16015434;-0.01931349;-0.0047117034;-0.09671849;-0.020497253;-0.004260596;-0.022925537;0.053572748;-0.25804207;-0.1272639;0.03180384;-0.14106062;0.15925953;0.02769009;0.07926428;-0.25303444;0.0033586852;0.1598245;-0.015499974;-0.3029669;-0.37217605;0.0094767455;0.3819477;-0.20208882;-0.01851047;0.362263;0.04086432;0.021633621;-0.021401303;-0.034862854;0.34000778;0.22812848;0.27622402;0.0054720687;-0.0082337875;-0.007645137;0.081052184;-0.15726145;-0.26919988;0.2680768;0.052374855;-0.014345818;-0.052553054;0.28170156;0.001450845;0.008733461;-0.0028508718;-0.059313092;0.22761081;0.2974509;0.2918534;-0.27454692;0.04415517;0.05062484;0.030609377;-0.00021755758;-0.004759969;0.108970165;-0.19797355;-0.006509211;0.025214992;-0.1528249;0.019023554;-0.20318818;-0.0112134395;0.00073661;-0.121063516;0.003896343;-0.018649122;0.18539152;-0.017235707;0.09031152;-0.03595445;-0.22717954;-0.034223583;0.13809085;0.0074412855;-0.21076757;-0.091724515;0.16412008;-0.108037904;-0.002989597;0.32125416;0.0028149914;0.28141707;-0.168339;-0.012433782;0.20760696;-0.006994021;-0.027067145;-0.073809855;0.019369895;0.19497485;-0.11129396;-0.054576196;-0.11083184;0.011440058;-0.38516793;-0.010657323;0.0036709215;-0.46786398;0.0041718506;-0.009940127;-0.08709157;-0.0885381;0.13783324;-0.008612902;0.09716735;0.13016626;0.0039122;-0.16717112;0.021144984;0.17856263;0.17326674;0.16675718;-0.16329373;0.009123516;-0.07176992;0.00087497773;0.047503285;-0.1464235;-0.0026135924;-0.44230852;-0.14409244;0.07832718;-0.01827792;0.004996407;-0.34099936;-0.10421175;-0.06280374;-0.06160106;0.39539915;-0.08774809;0.010511063;-0.0025568844;-0.0043609184;-0.0032596162;-0.3070234;0.031302042;-0.021331577;0.10299814;0.0015484104;0.17998539;0.26119655;-0.0036313005;-0.10501652;-0.23188815;-0.11904093;-0.02001498;0.0030565653;0.0029617555;-0.29332104;-0.13073832;-0.013663565;0.08790706;0.016166018;-0.01588285;-0.15115857;-0.019244744;-0.2645244;0.22655341;0.14230826;0.22064053;0.007056882;-0.062655814;-0.20437643;0.0685933;-0.006487342;0.20038417;-0.20801634;0.21464333;-0.21197358;0.0046866015;0.037566975;-0.17978731;0.10737948;0.2348603;0.0028430691;-0.010616074;0.02064264;0.38064343;-0.19126475;-0.0034749268;0.07633205;-0.22443223;-0.23069967;0.063234076;0.0195341;-0.12130555;0.005962276;-0.15402237;0.022369131;0.012119944;-0.19567032;0.022601884;-0.3060319;0.32472208;0.25740424;0.005618519;-0.12490195;0.22366922;-0.07570064;0.11744306;0.13711448;-0.0013086817;0.024252994;-0.0009115147;0.0016654336;0.007897799;-0.0043064156;0.022081975;-0.014859473;0.01870933;0.09267928;0.009561911;-0.042680833;0.004838724;0.013074422;-0.0314039;-0.028935365;0.29939893;-0.27387217;-0.17796952;0.10918382;-0.14661635;-0.008759913;0.2009283;-0.07819627;-0.013277102;-0.23159765;-0.21165742;0.25868884;0.0049743615;0.002773535;0.1890017;-0.016736545;0.16910094;0.028425911;0.4941015;-0.002926408;-0.11338973;-0.013993577;-0.0011450442;-0.0040093637;-0.0505964;-0.00659085;-0.24003065;-0.1452567;-0.10731887;0.008395057;-0.062420573;-0.029868381;0.15281713;-0.46845824;-0.15199499;-0.48853;0.06987186;-0.016462997;-0.0052880114;-0.1040058;-0.069062285;0.21483509;-0.49793848;0.17263253;-0.004230213;0.0022210476;-0.00059703767;0.14208241;-0.34350678;-0.17400779;-0.22376688;0.0027879335;0.017162979;-0.16234675;0.006828793;-0.10639587;-0.101880096;0.28339714;0.014175648;0.066689335;-0.00085809064;0.051130854;-0.2054951;0.0026615355;-0.03777506;0.13070375;-0.00090030243;-0.11907789;0.0049669985;-0.23657656;0.15345228;-0.010667232;0.0019502911;0.014531451;-0.15321675;0.26269817;-0.12396699;0.20734796;-0.012034771;0.13411036;-0.0025870954;-0.2614678;-0.21570937;-0.07319259;0.012296372;0.33687496;0.1260804;-0.006934261;0.007631011;-0.37953353;-0.12955658;-0.023759963;-0.053405207;0.047744755;-0.31148303;0.2702673;-0.09268983;0.0005660682;-0.07194364;0.14689048;0.0012424828;-0.11717186;0.015890434;-0.36269617;-0.04887115;0.2079579;-0.054820012;-0.009716883;0.4843247;0.0093244715;-0.0110085085;-0.16259718;-0.18026997;0.006435677;-0.0031044825;-0.02045333;0.019015756;-0.0010763909;-0.3069431;-0.0056228517;-0.16643682;0.20761146;-0.10246989;-0.09084886;0.1100118;-0.08549024;0.0046644835;-0.668221;-0.013442541;-0.24892496;0.004526705;0.13480078;-0.14123929;-0.013543948;-0.011144697;-0.23490232;0.011387088;0.17311618;-0.005365895;-0.0103832;-0.098976225;0.009921789;0.09971944;0.28959548;-0.2550522;0.0041609104;-0.13059387;0.010688945;-0.36241135;0.029863307;0.0063816174;-0.03651642;-0.1533261;-0.050883513;-0.0050814366;0.14979441;0.0014748848;0.0078179585;0.123747826;-0.022947123;-0.0654965;0.018304043;-0.018888123;-0.0039701564;0.00376769;0.11686628;0.0015297548;-0.22454037;0.018048039;0.10301015;-0.01692421;0.007859477;0.075622365;-0.18463962;0.11465955;0.23980542;0.0030477482;-0.45395818;0.010381302;0.077625886;0.05775024;0.09859326;0.19081448;-0.0043007364;0.072078325;0.21060753;-0.16647309;-0.0055064913
0.22653057;0.12753372;0.12841797;0.11280543;0.3577813;0.0014239121;0.04747217;-0.00065668375;-0.021040235;-0.011895266;0.10828807;-0.06279025;-0.010774073;0.015719242;0.19426137;0.28189793;-0.011277755;-0.45612338;-0.0025897673;0.26426047;-0.11992403;0.020022806;-0.10761801;0.021836935;-0.11938739;0.059190124;-0.115543194;-0.11998202;0.008642072;-0.010410882;0.039480835;0.31137395;0.016842688;0.0006540518;-0.0042430703;-0.09725475;-0.3088213;-0.13767558;-0.1746311;0.051504266;-0.3523878;-0.003615866;-0.22493614;-0.14624014;-0.11938003;-0.48013082;-0.0034882806;-0.13251777;-0.012218768;0.09347178;0.46110177;0.009456244;0.0747277;-0.5008211;0.014434183;-0.01674607;-0.039177444;-0.008246711;-0.00834485;0.0106187975;-0.009278802;-0.3410363;-0.0037478209;0.14906283;-0.04941001;-0.070618086;0.042690523;0.15590462;0.016028354;0.17796835;0.13922575;0.30101365;0.0638892;0.0071868096;-0.12506162;-0.46031046;-0.23210669;0.3761012;-0.45204327;0.010982255;-0.0042064935;-0.010300668;0.23325607;0.18102896;0.023863511;0.09535846;-0.15944818;0.00028941064;-0.00044740143;0.018873822;0.1509551;-0.09602214;-0.0076883473;-0.041462723;0.0022896929;-0.019232977;0.004617222;-0.03691735;0.035517767;-0.07887419;0.43238428;-0.0054652854;-0.01605646;-0.3314095;0.123401865;-0.008341879;0.11501693;0.0076534394;-0.00576212;-0.011143927;0.0017476501;-0.16805094;0.056500927;-0.285727;-0.0039475188;-0.008129765;-0.024942603;0.022563037;-0.054928157;0.008890236;-0.05736621;-0.0059459037;-0.27484727;-0.10874638;-0.38963634;0.04127962;-0.0748674;0.13444439;-0.1420354;0.004907263;0.14873622;0.11104866;0.006278365;0.16579708;0.014291844;0.14764598;0.15457556;0.5010826;-0.17877464;-0.31241393;0.08969548;0.015577881;0.09807883;0.099428646;0.114544936;-0.0013251067;-0.010043283;0.27166745;-0.016405607;-0.032182965;-0.29044282;0.033413373;0.102478586;-0.0009361399;0.30726162;0.12338382;0.02528459;-0.2089247;-0.30506092;-0.43932626;-0.20731772;0.015329135;0.043620776;0.01372259;-0.15189813;-0.0013228877;-0.005038459;0.04121445;-0.19362241;0.0043059313;-0.0030499657;-0.10419159;0.026114278;0.012364866;-0.0027274454;0.016282964;-0.067791715;-0.20733984;-0.10175887;-0.0915537;-0.11134452;0.14841196;0.01262298;-0.2117222;-0.006058214;0.16501448;0.0069541815;-0.49325493;-0.35318527;-0.02674607;0.38911766;-0.11509577;-0.15210138;0.08300576;-0.23415048;-0.17413296;0.025501681;0.16048862;0.3002385;0.23143017;0.2003084;-0.007064284;0.015977109;0.0047828844;-0.077814326;-0.15420938;-0.25194204;0.28803086;0.17419718;0.0024500776;-0.18641616;-0.004231642;0.004763109;-0.020126557;-0.37719974;-0.01979611;0.056564383;0.25247845;-0.02961995;-0.14374802;-0.043885805;-0.21025245;-0.016554454;0.03872712;-0.0065487055;0.2019252;-0.010739443;-0.007724387;-0.012988415;-0.094372176;0.03802085;-0.09052858;-0.005153293;0.008214025;0.007880833;-0.23956671;-0.02286481;-0.06426526;0.022022372;0.002208631;-0.0008671182;-0.2034053;-0.18017164;-0.09685677;-0.0037166632;-0.025284017;-0.27637088;0.15766886;0.0820361;-0.011149155;0.34017387;0.00974601;0.44186693;-0.42340347;0.013012637;0.2925888;-0.1217693;-0.0009965355;-0.03865994;-0.028523229;0.12433916;-0.10716326;0.12380779;-0.24830523;-0.013011038;-0.08889698;0.011971857;-0.025462797;-0.6815102;0.00083346636;-0.006605189;-0.01957193;-0.1224927;0.078776166;0.00010315633;-0.030868404;-0.025210584;-0.007378232;-0.062639706;-0.011680793;0.03572436;-0.08750605;0.013463848;-0.27100605;-0.010657559;-0.19803776;-0.017684631;-0.20911694;-0.25258154;-0.01519996;-0.20503068;-0.23289484;0.121465184;-0.029342022;0.022014977;-0.4810556;-0.19241314;0.040613875;-0.26756325;0.432303;-0.15550144;0.0037667206;-0.0016433609;0.0055171405;0.08302217;-0.06846222;-0.034757033;-0.0020967715;0.0237919;-0.1516108;0.16037582;0.3856593;-0.0044515985;-0.31576493;-0.076624736;-0.12424434;-0.111258626;-0.01095662;0.01674985;-0.14381541;-0.29871663;0.009940782;0.15992607;0.22397988;0.0010504178;-0.09524319;0.009179799;-0.1514116;0.37957567;0.010859646;0.21943393;-0.014961113;-0.19534233;-0.30725718;-0.11135587;0.013060588;0.15733485;0.068898514;0.38018402;-0.13033289;0.010860214;-0.05305424;-0.068458006;-0.047587484;0.2614637;-0.0067821597;0.010296704;-0.012888824;0.39824763;-0.114981905;-0.26482365;-0.07600766;-0.12782604;-0.24136133;0.2773762;-0.017893864;-0.09137634;-0.018653138;-0.25544068;0.108027935;0.11312605;-0.2781825;-0.018750057;-0.23436663;0.0875904;0.11413203;-0.006285322;-0.20314284;-0.09562989;0.2776546;-0.058789495;0.32074454;-0.0021820087;-0.03107575;0.013515188;0.006088701;-0.014931076;0.0050037093;-5.0216375e-05;-0.048003122;-0.014130115;0.15824303;-0.014722352;0.061963525;-0.011618241;0.022586497;0.321108;-0.02830069;0.4675757;-0.092857786;-0.4317065;-0.0015924546;-0.19563983;0.00925606;0.2088238;-0.12914053;0.022374261;0.05944982;-0.15393928;0.31853387;-0.11461326;-0.0034168935;0.100907505;0.014603816;0.07198191;-0.11185011;0.077623926;0.012422708;-0.06070187;0.032537986;-0.0038916282;-0.014112353;-0.2596412;0.008223335;-0.1990907;-0.21778898;-0.15489924;-0.003823617;-0.12374729;0.0067652166;-0.01584724;-0.2795074;0.01640926;-0.24663134;-0.37620434;0.0044957255;0.011375414;-0.19589166;-0.045270626;0.12642314;-0.116806485;0.27773535;0.15172936;0.015658993;0.007598577;0.05648744;-0.444427;0.10812136;-0.15041678;0.005951825;-0.0063504362;-0.25582483;0.0062675807;-0.0015130627;-0.05480121;0.28640372;0.0012681113;0.23555344;0.008460304;-0.112140834;-0.008728587;0.0031097417;0.06731298;0.035799913;-0.0027593009;-0.1745689;-0.003841126;-0.5378571;-0.0114200795;0.0020305286;-0.0010060945;-0.024637038;0.11707524;0.33956197;-0.24455635;0.32635432;-0.00588817;0.33628315;0.20242569;-0.22782171;-0.18995799;-0.10717993;-0.012732967;0.17141159;0.14882034;0.016049774;-0.0016190516;-0.29175225;-0.045507327;0.011871616;-0.13169931;0.16283189;-0.26567307;0.05062454;-0.10647637;-0.008178157;-0.03319667;0.25849548;0.008845829;0.19243053;0.012795819;-0.016894182;0.1594442;0.1166927;-0.23422688;0.0020550815;0.42976478;-0.013277747;-0.03646452;-0.18745592;-0.030729476;-0.004882255;0.022390693;0.013709598;0.26851594;-0.0051038787;-0.24558778;0.010007968;-0.018033866;0.006482077;0.05234329;0.09622537;0.09511261;-0.06516672;0.08033667;-0.5593385;0.013327208;-0.22350068;-0.011296577;-0.021961765;-0.16459177;0.0069917766;0.0093641;0.07158866;-0.0038901812;-0.009989419;1.4690799e-05;0.0036240735;-0.053969577;-0.000227454;0.09045338;0.047715817;-0.18430822;0.019145012;-0.08064109;0.0046089985;-0.41008386;0.24170725;0.0051502823;-0.069740094;-0.35025808;0.08136682;-0.00080361613;0.17364947;0.0072803185;0.0065479544;-0.14103514;0.027956175;-0.017247759;-0.02070837;-0.14030664;-0.0008932885;-0.0076172114;0.15029968;-0.0019791638;-0.05498269;0.025468623;0.059053373;0.023110243;-0.008179539;0.03519045;-0.030025605;0.12774152;0.2233624;-0.0012374196;-0.012522012;0.015316782;0.019418787;0.19081795;0.048173185;0.39557177;-0.009589774;0.22876087;-0.09796127;0.25792006;0.06636755
0.10266357;-0.18000391;0.0068181027;0.22189547;0.40033522;0.009875148;-0.038593616;0.0043938286;0.18411584;0.014894546;0.21166793;-0.04306345;0.006397047;-0.23019439;-0.035400085;0.20958695;0.008511583;-0.4839713;0.005407739;0.21749717;-0.02404385;0.15628716;-0.03922267;0.11579776;-0.016835073;0.120724075;-0.31636384;-0.0695483;0.000902207;-0.021166243;-0.03323485;0.29423192;-0.33438858;-0.0041305376;-0.01383727;-0.052078534;-0.33549127;-0.2333011;-0.21282981;0.056203634;-0.22401845;0.00035513358;-0.22169952;-0.031503044;-0.20202616;-0.26049384;-0.0020901752;-0.03158361;0.0067424686;0.11633941;0.41670665;-0.011327276;-0.09181818;-0.24650413;0.00565698;0.00852734;0.05587089;0.0011295432;-0.10268247;-0.23968188;0.006419638;-0.21062967;-0.003154272;0.020696502;-0.3780265;-0.23201664;-0.17932567;-0.19975887;-0.0047895187;0.17414236;-0.06991308;0.29299042;0.27140567;0.14629559;0.004715496;-0.2848643;0.0038725738;0.5762418;-0.69708866;0.0038784214;0.01849252;-0.0015213214;-0.07205606;-0.15005764;-0.023593502;-0.12659688;-0.14113158;-0.007973199;-0.008653596;-0.182992;0.23723952;0.0040359856;0.013574699;-0.017389037;-0.017268246;-0.24990653;-0.007131387;0.025963984;-0.028512742;-0.04892804;0.3487406;0.023975866;-0.001927755;-0.32765675;0.1722996;-0.0035365568;0.33267155;0.009798783;0.023824943;0.005751102;0.034320667;-0.08383026;0.10521686;0.028347256;0.0049438425;0.14245194;-0.2517728;0.14955506;-0.14218992;0.0813903;-0.075745486;0.0010426048;-0.33136925;-0.25606492;-0.06386423;-0.0364825;-0.12575014;0.028504292;0.14040895;0.007850739;0.19900447;-0.15940407;-0.0011073195;0.15158652;-0.0030454316;0.07909155;-0.0072901733;0.27905482;-0.020618819;-0.28383976;0.12992467;0.008116778;-0.045912277;-0.04995736;0.11975376;-0.005139825;0.0033091437;0.3763824;0.004636908;0.14838943;-0.2366341;-0.20688426;-0.0792714;-0.00023208138;0.284028;0.23526244;-0.026601404;-0.18983121;-0.3501852;-0.3682885;-0.10320901;0.09440942;0.07170382;-0.011717069;-0.004724773;0.00032986695;0.009615994;-0.33737195;-0.08874134;-0.0040317257;0.0077301613;-0.14492835;-0.022288768;0.009889013;0.0013912112;0.045292124;-0.15907736;-0.0034463813;-0.15490036;-0.17526394;-0.1978441;0.0033376657;0.054466717;0.023160271;0.012433358;0.066970006;-0.004193259;-0.6042852;-0.25543264;-0.069372565;0.3279971;0.036627255;-0.06192025;-0.19464216;-0.3619655;-0.33769387;-0.010302682;0.34164917;0.293913;0.18363224;0.1116312;0.0013673941;0.016690956;0.014627595;-0.20294143;-0.044975888;-0.3420589;0.5435616;-0.04067417;0.009408627;-0.26166037;0.18615781;-0.008878142;0.009249513;-0.19836307;0.030359432;0.06031984;0.05455471;0.08293543;-0.14705853;-0.051163808;0.08547591;-0.055365946;0.28533483;-0.01015669;0.312211;0.047104076;0.0034730393;0.003630388;0.100338876;0.014082908;-0.12796989;0.018062497;-0.0055681034;0.037582386;-0.13608623;0.044615295;0.28024638;-0.0076223696;0.1823166;0.29368472;-0.41436845;-0.043953203;-0.15107492;-0.009873557;0.118278146;-0.29246056;-0.052500047;-0.0777782;0.01759337;0.40217933;0.0015607422;0.41575733;-0.23044133;-0.003884057;0.2508203;-0.00032868877;-0.001006125;-0.06989912;-0.09940263;0.13095424;-0.01823186;-0.12063758;-0.13904946;0.0125373695;-0.054488942;-0.013363144;-0.017813815;-0.6566719;-0.0013760013;0.019307222;-0.159685;-0.17105718;0.069591776;0.00081735296;-0.21977882;0.19677025;0.0021274136;-0.123135395;0.024255209;0.11546501;-0.051490396;0.04091876;-0.24519101;-0.002995559;0.14178951;0.0025233866;-0.2896443;-0.23742378;0.008827177;-0.029683847;-0.28753778;-0.1597648;-0.14892377;-0.014689708;-0.6337824;-0.067567386;0.040850762;-0.26704696;0.35535944;-0.5237651;-0.002778611;-0.005724207;-0.0017230402;0.03123602;-0.13487223;-0.053594362;0.009401115;-0.22792855;0.104903564;0.17490777;0.5282444;-0.009778797;-0.5297214;-0.07227275;-0.20922133;0.16329877;0.025251685;-0.0061339405;-0.10080542;-0.25572702;0.011460622;0.09984939;-8.1469756e-05;0.02308628;-0.2599753;-0.017781837;-0.15803982;0.24513683;-0.30041376;-0.051877223;0.016577803;-0.28088036;-0.27389306;-0.07171406;-0.020452062;-0.08818138;0.12277471;0.25167343;-0.031867974;-0.0077600204;0.06531463;-0.05992074;-0.13852894;0.044107318;0.00336061;0.0082550105;-0.0091006365;0.38073078;0.13719076;-0.4462962;0.039381888;0.017253907;-0.30433488;0.42815277;0.04632658;-0.03127352;0.010230529;-0.4692484;0.07846105;0.010910189;-0.20289707;7.818388e-05;-0.038362127;0.065570675;-0.08780555;-0.018092638;-0.034944378;0.020637125;0.23560613;-0.12003291;0.07435165;-0.011600395;0.022545202;-0.011192645;-0.0016828638;-0.0040522395;-0.0024771695;0.0056094476;0.020616302;0.00016665684;0.09188304;-0.0014516885;0.14828809;0.008222504;-0.028103119;0.19045128;-0.046322845;0.393403;0.08955283;-0.29971668;-0.076662846;0.009267803;0.001406109;0.13061799;-0.1656482;-0.014916915;0.09147378;0.012360949;0.19757986;-0.014715696;0.010788358;0.043631848;-0.0018167312;0.09452101;-0.20639864;-0.17802852;-0.02100992;-0.06580858;-0.015903233;-0.0024778745;-0.00011837119;-0.2558223;-0.0056799287;-0.071231864;-0.12317415;-0.09952932;0.006095737;0.02877966;-0.025046429;0.35090354;-0.03805109;-0.06770072;0.027281886;-0.39683846;-0.018230852;-0.015425073;-0.009519391;0.19867672;0.16741084;-0.22952919;-0.010368556;0.08485255;-0.027052695;-0.0039706123;0.17637578;-0.48462915;0.02880832;-0.040204953;-0.01319768;0.0024700451;-0.09292447;-0.005638182;-0.3695349;0.16893807;0.002317638;-0.0028611317;-0.094516136;-0.015349783;-0.048950814;-0.3033607;0.005460839;0.032619454;0.046610735;0.0034306569;0.15280518;-0.008752117;-0.32002562;-0.46095607;-0.0027006161;-0.0012137855;0.023371337;0.117421046;0.18383457;-0.30055845;0.17404878;0.0063600596;0.39096016;0.026197966;-0.30517808;-0.31324488;-0.042714093;0.010143556;-0.015844528;0.0893141;-0.010267592;0.003122142;-0.09556217;0.23288693;-0.010317069;-0.20413955;0.18802015;-0.07652521;0.17521611;-0.05585147;-0.020066913;0.020311765;0.11417848;-0.015686149;0.13717511;-0.0062333997;0.075015865;0.15815485;-0.018897086;-0.2046904;0.0010232207;0.18432362;-0.0015140728;-0.050243486;-0.39358962;-0.097167276;-0.0057008876;-0.015058577;-0.009989887;0.16312467;0.0023961354;-0.19293909;0.002586308;-0.020730922;-0.117625825;0.08668168;0.40043327;0.20180976;0.10427066;0.05788939;-0.68435454;-0.010595605;-0.3863418;0.0012509248;0.04006931;-0.29522884;0.008754034;-0.005064425;0.1933105;-0.014419944;0.045117296;0.0125663355;0.0041344455;0.031873748;0.0014755807;0.15918858;-0.07625907;-0.041253466;-0.017938184;-0.04993369;0.0024306746;-0.2269163;-0.13676822;-0.006877029;0.002042278;-0.25534698;0.09995891;0.011961705;-0.049243443;-0.006782788;-0.006676015;0.02267977;-0.014387669;0.18932949;0.0019327288;-0.14177074;0.011529997;0.0018503021;0.34812477;0.009808947;-0.0439747;0.012260331;0.29016268;-0.00561797;-0.002515301;0.10068404;-0.116374254;0.23834251;0.0799244;-0.0028669434;0.017040798;-0.0070245625;0.17067456;-0.034202207;0.280645;0.25228682;-0.0031586553;0.116380416;-0.23942688;-0.044390775;-0.20440817
0.11779211;0.06398833;-0.18552078;0.16219424;0.28992975;-0.013538217;-0.07928729;0.0027662334;0.018236296;0.0050346116;0.1136987;-0.24855834;0.0062655364;-0.19072655;0.118118666;0.2845496;-0.0060966774;-0.63589793;-0.011209783;0.28060192;0.032338;-0.034357376;0.18392883;0.099356465;0.045297313;0.10993618;-0.11311685;0.03550533;0.0025992237;0.025035435;-0.013571022;0.16837482;-0.08075134;-0.00255312;0.006143062;0.028183414;-0.15697165;-0.34649488;-0.1969106;0.06459421;-0.3317193;-0.009268354;-0.2888083;0.037595663;0.0066651735;0.1554765;5.744409e-05;0.006819764;0.007536035;0.1843859;0.3520217;0.014681935;0.17744327;-0.26345882;0.0037728848;-0.010961975;0.17799895;-0.010443539;0.1240289;-0.06501881;-0.020487309;-0.13612877;0.0015429186;0.06225103;-0.31272495;-0.16639803;-0.1811335;-0.12483131;-0.004112484;0.22832628;-0.17178006;0.16215117;0.1288648;0.28924114;-0.21345735;-0.061185583;-0.058794983;0.4161921;-0.3155618;-0.0005235589;-0.004257607;0.0009988083;0.08229405;-0.066467166;0.00016793562;-0.034269877;-0.21887428;0.004077421;0.0027314937;-0.047209337;0.077991076;-0.07902851;-0.0033733556;-0.0035302364;0.0067633037;-0.018601837;0.011770781;0.013783706;-0.08575005;-0.0701299;0.38797215;-0.021012288;-0.0010346887;-0.31465733;-0.036760684;-0.009496665;0.23512746;-0.011002386;-0.018472098;0.014448479;0.15182827;-0.16762961;-0.083356075;0.20443755;0.004378793;0.27524123;-0.11810949;0.15251897;-0.14095081;0.0775768;-0.14790937;-0.0065335636;-0.37354055;-0.3582621;-0.3170363;0.02185148;-0.019102171;-0.10755019;0.14126931;-0.010278612;-0.023316897;-0.08634145;0.0013370576;0.059626427;0.018303175;-0.22357635;0.019440994;0.024100894;0.20043553;-0.30602807;0.11514777;-0.0145411;-0.19597292;-0.17852834;0.048066743;0.011743239;-0.011468234;0.34590536;-0.012953322;-0.1056209;-0.19760266;-0.07046595;-0.060878675;0.019317497;0.15158273;0.10270025;0.009268145;-0.01254962;-0.2908043;-0.32845977;-0.1026296;0.21805634;-0.023413809;0.0068530105;-0.10734624;-0.0059530865;0.017129526;-0.19969091;-0.011386058;0.02204112;-0.013505445;-0.054700393;0.01934287;-0.009910909;-0.0014987584;-0.02712334;-0.049943537;-0.16318186;-0.068039596;-0.07661803;-0.24407542;-0.16766746;-0.005852903;-0.20506163;-0.0005833144;-0.080758296;-0.017157022;-0.21746919;-0.38258928;-0.07212031;0.36912617;-0.17717062;-0.34781316;-0.24471307;-0.27567178;-0.37450472;0.0034884969;0.20273067;0.2842762;0.11309935;0.27092555;-0.005796428;-0.003209646;-0.021841357;0.0497376;-0.05396401;-0.35348573;0.6083868;0.15305038;0.010673248;-0.2005835;0.09517154;0.012593729;0.0028151982;-0.5373278;0.004532352;0.003906111;0.00578819;0.04872129;0.08676743;0.2658936;-0.14952849;-0.32930607;0.20696543;0.01915849;0.28813574;-0.1608963;0.0012060688;0.008292678;0.18818717;0.03424394;-0.10911275;-0.012371294;-0.0013733046;0.06296323;-0.13433376;-0.10392895;0.40782732;0.020487612;0.394628;0.094287924;-0.28502458;0.021215776;-0.13046902;0.009923;0.08569094;-0.11068481;-0.07537257;0.078111514;-0.013074238;0.36408386;-0.011698865;0.35020322;-0.430426;0.0062095006;0.32908;-0.3105831;0.0030089808;-0.050004747;-0.10356881;-0.0023329114;-0.11143183;0.06751914;-0.23457617;0.0016656846;0.080083184;-0.002668378;0.01900968;-0.43383145;-0.015821759;-0.014033971;-0.13855317;-0.4566696;-0.13402168;-0.003416353;-0.030054256;-0.060752977;-0.011972045;-0.105473205;-0.024307428;0.011874667;0.07121889;0.0011514744;-0.16094452;-0.015196483;-0.08384844;-0.018545715;-0.078252725;-0.23130491;-0.0076344893;0.02250105;-0.22479735;-0.10741733;-0.25277466;-0.007599479;-0.29276863;-0.042626645;-0.0646596;-0.133006;0.33010477;-0.3731591;-0.0092425905;-0.0037595583;0.011576771;-0.07914971;-0.17393138;0.10595548;-0.0071358616;0.05412293;0.0039462755;0.15822224;0.31701717;0.018964397;-0.57081777;0.11988279;-0.2049343;0.12991942;-0.020291798;0.0008445721;0.02102038;-0.12832531;-0.009580781;0.2775525;-0.100305684;-0.027762748;-0.481717;-0.0028132617;-0.17961979;-0.072121374;-0.629433;0.012519438;-0.00252697;-0.33020544;-0.20518751;-0.06513414;0.0105959885;-0.11982;0.1370104;0.15432107;-0.33230874;-0.009109934;-0.021478975;0.054642037;-0.05999909;-0.02642883;0.0033481093;-0.032056313;0.0043648453;0.4649042;0.24229877;-0.24777578;-0.039532676;0.03953894;-0.13496278;0.27133566;-0.018073283;-0.10351293;0.010792916;-0.3393363;0.13925822;0.10788837;0.03969441;-0.0028594;0.14578901;0.03400401;-0.15708585;-0.0038019766;-0.14281687;0.04271665;0.18820192;-0.022168955;-0.09102171;0.010083247;-0.0016946576;0.013489091;0.01325315;-0.005991923;0.0024474568;0.0014250011;0.06325921;0.0012211325;0.28830254;0.009446686;0.3268122;0.014919636;-0.0026726811;-0.041915346;0.141815;0.33784822;0.001419672;-0.3847638;0.0029053846;0.0077328053;-0.009347914;0.0808097;-0.11166895;0.020098995;0.16038448;-0.07028468;0.24364653;-0.09223385;-0.0069927834;0.07553197;-0.0051191156;0.14476122;-0.17384003;-0.2671659;0.050294876;0.1827414;-0.014827855;0.004428756;0.004205238;-0.2572476;-0.020478554;-0.064795084;-0.17705348;-0.01959485;-0.013482897;0.1879288;-0.0022720143;0.10708465;-0.06938725;-0.042607564;0.097198166;-0.52115446;0.017613685;0.013642933;-0.12385929;-0.27102858;0.17798871;-0.29522166;-0.20605166;0.14372972;0.00961179;-0.009594083;0.33487886;-0.46042895;0.29810724;-0.23920363;-0.01189308;0.017123088;-0.0072125727;0.0024361378;-0.31331867;0.08188042;0.06515268;0.010110253;-0.23753694;0.0061908117;-0.007493675;-0.09616703;-0.017633796;-0.15090092;0.102109514;0.0060328697;-0.0006165217;0.0017508824;-0.41725257;-0.17267808;-0.0032053762;-0.024602197;0.000752999;0.4153135;-0.07043164;-0.26885122;0.31525868;0.014605758;0.16584761;-0.26531634;0.093829796;-0.43968487;-0.0056029363;0.0013657053;-0.28350553;0.11893926;0.0070196544;-0.003752841;0.051681112;-0.14599943;-0.0013380985;0.0065741395;0.27718115;-0.08446241;0.06998689;0.14159262;0.024915194;-0.21256247;0.09419137;0.01801935;0.08253629;0.0017260673;-0.20604874;0.16078077;-0.112849265;-0.23196691;-6.0074108e-05;-0.043253146;0.003027581;-0.08561698;-0.3074963;-0.20641738;0.0045009027;0.020065082;0.024407843;0.015533223;-0.0084919445;-0.08438095;-0.021672819;0.2230687;-0.3058351;0.12123173;0.16871741;0.15982236;-0.042505585;-0.11039809;-0.47895467;-0.02340933;-0.5298583;0.005308543;0.067288816;-0.06800531;-0.017334102;-0.014944506;0.09961937;0.014167871;-0.039053425;-0.00094316114;-0.012415443;-0.03932279;0.0019659374;0.18740213;-0.021287926;-0.3105917;0.01924707;0.12473559;-0.00036469454;-0.18200055;0.16584744;-0.0029317206;0.045325536;-0.1322732;-0.18939239;-0.0014003355;-0.06206359;-0.0060646324;-0.004272038;0.03184947;-0.009476323;0.10395693;0.02258004;-0.24630679;-0.02360179;0.004016714;0.23734221;0.008735628;-0.09741178;0.065123275;0.011119373;0.01937614;-0.0030442565;0.041920673;-0.11830379;0.07983292;-0.028765338;0.010351203;-0.08223721;-0.01071044;0.08277133;-0.059809394;0.23454182;0.22384284;-0.014952102;0.19742155;-0.39307782;0.37794104;-0.18608013
0.2950677;0.030370964;-0.28699082;0.16955306;0.24070635;0.018192591;-0.088232964;-0.009537046;0.07813865;-0.0050209016;-0.26010492;-0.080240615;-0.01735181;-0.018370038;0.037177972;0.3034119;0.018054988;-0.50692165;0.026345398;-0.07324433;0.0045675095;-0.16710469;-0.14347714;0.114796326;0.13837698;0.2572238;-0.05467029;0.02661598;-0.0032476266;-0.014661012;-0.13288124;0.07062911;-0.27335522;0.005264979;-0.0075098583;-0.03718386;0.121797286;-0.12280436;-0.2467943;0.04840274;-0.17775817;0.003975635;-0.26337072;0.14142914;-0.033873588;-0.007197873;0.016030759;0.025869139;-0.0038698432;0.06157681;0.14356798;-0.014178684;0.26375934;-0.3424849;-0.015651241;-0.003208276;0.0916579;0.009558616;-0.055282727;-0.026652584;-0.010896702;-0.22744225;-0.01192178;-0.14607438;-0.19824992;-0.037408605;-0.3429235;-0.18700142;-0.010435969;0.20110485;-0.11634797;0.30982533;-0.078882866;0.20353948;-0.15662363;-0.026703568;0.200912;0.2710356;-0.14159495;0.007908335;-0.014330824;0.0011992691;0.044032402;0.15801351;-0.0006477229;-0.017057143;-0.10593457;0.011610862;-0.014479121;-0.14063576;-0.03698037;-0.2773296;-0.007106059;0.017940367;0.0029045846;0.04737114;-0.008639743;0.0320947;-0.024869166;0.020839445;0.18259797;0.027218206;0.018465178;-0.0077387965;0.019726042;0.010598888;0.17253293;-0.010133044;-0.00829587;-0.002238267;0.22075118;-0.45348096;0.059225872;0.34646457;0.0017258605;0.11855063;0.16816399;0.06719189;-0.20164262;0.06931802;-0.13995755;0.008869307;-0.37355536;-0.1592338;-0.25207117;-0.027996652;0.1802179;-0.22078934;0.21252383;-0.00092035;-0.020628484;0.041992668;0.003953943;0.21189557;-0.0027528666;0.030623866;-0.22236107;-0.087892644;0.18965489;-0.40588388;0.09389181;0.018680785;-0.16934358;-0.13285011;0.19846989;-0.027818086;0.010715944;0.38087156;0.020487433;-0.0003054549;-0.14097655;0.09105699;0.031086396;-0.0050607626;0.24620354;0.24278094;-0.008226672;0.06011065;-0.38132071;-0.24171281;-0.34133726;0.16141054;-0.15233131;-0.0067528747;0.033546273;0.018223705;0.01145294;-0.02552424;0.10972568;-0.020100968;0.006357285;-0.008720926;-0.010395356;0.00049481145;0.009922507;-0.11268191;-0.19890872;-0.018413786;0.18992934;-0.10092584;-0.2655594;-0.0887362;-0.060901817;-0.1173215;0.0025318752;0.062823035;0.013024036;0.17149329;-0.3401365;0.0003080326;0.19028068;-0.31533852;-0.46640626;-0.16519947;-0.45276967;-0.09582398;-0.0066617355;0.1842932;0.12216417;0.30395952;0.048475813;0.021452596;-0.004899179;0.016713578;0.13296656;0.07575399;-0.3533897;0.5566421;0.32126033;-0.01844826;-0.11275709;0.0162974;-0.010388304;-0.004225657;-0.6044131;-0.058954395;0.28931767;-0.09961102;-0.14179757;-0.03809491;0.3419104;-0.039272074;-0.46559495;0.23633784;-0.0013769555;0.39344913;-0.3627252;0.0009807491;-0.008675631;-0.088644855;0.015680024;-0.15124494;-0.0061330125;-0.0021540828;0.070898205;-0.14749475;-0.05961503;0.17937738;-0.030412517;-0.0075136786;0.11134807;-0.28197184;-0.020802543;-0.41595674;-0.0007795623;0.002182218;-0.19209112;-0.22735378;0.08941861;0.004210444;0.14628161;-0.008067417;0.20139425;-0.44533986;0.003990953;0.22838815;-0.6814973;0.004626653;0.033162367;-0.047103826;0.025406824;-0.0025811947;-0.10115784;-0.5397989;0.0130859725;-0.12761496;0.012280991;-0.029076856;-0.6385777;0.025478972;0.004603202;-0.4288035;-0.3829624;-0.08521721;-0.005299116;-0.19567238;-0.15536101;0.0035388814;0.1112635;-0.00035433966;0.031184055;-0.13394015;0.24257416;0.23982812;0.0033553683;0.15722847;0.010609816;0.027195603;0.22840157;0.0024864906;0.041772615;-0.35888952;-0.16177261;-0.115577765;0.010173857;-0.057192057;-0.14061241;0.013421592;0.17039071;0.39544335;-0.70593774;0.006434808;-0.0020766102;-0.009081603;-0.18001941;-0.19837165;0.12642102;0.014033524;0.14084794;0.040896237;-0.07962058;0.26488277;-0.0038206382;-0.42382687;0.18604767;-0.07385496;0.2139523;0.0018672842;0.0013994394;0.050063513;-0.16807988;0.0026436239;0.25122872;-0.151551;0.011526325;-0.60940653;0.013249635;0.033045832;-0.15197633;-0.5183807;-0.20874491;0.00840541;-0.010491;-0.23413822;0.27083948;-0.0026585152;-0.13413781;-0.17375001;-0.09750348;-0.07389301;0.012970266;0.068532534;-0.0075190496;-0.22722931;-0.09111331;-0.009623454;0.017795525;-0.0079673175;0.36712953;0.021764996;-0.11780571;0.04062304;-0.19587207;0.074824974;0.11675883;0.008513646;-0.038638245;-0.00999139;-0.0448869;0.22872679;0.03104563;0.12527919;-0.0057585817;0.30934283;0.18397646;0.088604115;0.006122166;-0.3541069;0.061199903;0.037491452;0.062291574;-0.20940335;-0.020696297;-0.019057082;-0.009537654;-0.0055776923;0.006593341;-0.0009782951;0.030927585;-0.067440264;-0.0060389717;0.42966312;-0.0043208934;0.43280306;-0.02623892;0.0070993463;-0.23018229;0.05169038;0.14912078;0.185039;-0.35685322;-0.19426836;0.09511218;-0.0006948403;-0.24881928;-0.11833689;-0.018056668;-0.07213852;-0.1122596;0.18006104;-0.28042415;0.005351233;0.13898188;0.007253499;0.26344454;-0.03544393;-0.17092025;-0.020967798;0.32983372;0.011900811;-0.008426094;-0.010906251;0.122570835;0.018667629;-0.27542105;0.024801483;0.21621318;0.0069344053;0.049099527;0.021438902;0.09043476;-0.036478434;0.048605092;0.053142406;-0.5215543;-0.009516855;-0.00056620024;0.113628455;-0.3801813;0.49710587;-0.42775306;-0.2582462;-0.005502224;0.004944263;-0.004137002;0.45095277;-0.53630483;0.04786107;-0.25731608;0.0052998904;-0.019535765;0.2102991;-0.0022680382;-0.12894654;-0.041971352;-0.29962605;0.0030783806;-0.2471673;-0.0023835045;0.062669046;-0.089393705;0.015670653;-0.054030303;-0.009347045;-0.00798831;0.075896285;0.0040774522;-0.3636421;-0.28055617;0.007816721;0.023240462;-0.00077529333;0.40076062;-0.04243657;-0.34821695;0.07198996;-0.010840574;0.21192612;-0.49311176;0.2202441;-0.59303206;0.08976219;-0.003812426;-0.32351744;0.08286286;-0.008212155;0.006692957;0.029850096;-0.07710622;-0.005175262;0.12228735;0.08544746;0.041744858;0.10768718;0.25781116;-0.020275408;-0.16538398;0.26178715;-0.017133653;-0.29474244;-0.0016480023;0.06849774;0.04446901;0.11362463;-0.21323785;0.0006958647;0.14734554;0.012616098;-0.38529366;-0.25455788;-0.2922258;0.014157173;-0.020164348;-0.016879767;-0.2344967;0.014826677;0.08329705;0.018738875;0.31527224;-0.014456549;0.17802921;0.042056546;0.21237803;-0.13689831;-0.15644534;-0.30603787;0.024754306;-0.6208806;-0.0207946;-0.124763444;-0.15172464;0.0030930634;0.0020550652;0.27031365;-0.013642661;-0.06971256;-0.0034822458;0.025533076;-0.059057135;0.003596793;0.13767083;-0.05264536;-0.44467223;-0.007687847;0.08181984;0.035575125;-0.20675242;0.16961071;-6.372542e-05;0.06892523;-0.06205101;0.1393439;-0.008494002;0.04726271;0.003164409;-2.7867964e-05;0.17366034;0.0076076896;0.03860262;-0.004799912;-0.057204526;0.019894097;0.002741522;0.4901791;-0.015035012;-0.30653536;0.23132144;0.13080497;-0.020128464;-0.007012037;-0.23118831;0.31447846;0.08143152;0.022591803;-0.017672265;0.049389087;0.0025544986;0.11858456;-0.28551507;0.07046636;0.15563959;0.018706944;0.24818514;-0.39184144;0.45951498;0.112884074
0.15375844;0.30484334;-0.13967761;-0.055739015;-0.002976631;-0.009429108;-0.074791186;0.00913844;0.06909243;0.0049796742;-0.39912856;-0.022288656;0.009406662;0.27017564;-0.06676879;0.12298599;-0.014533619;-0.5279077;-0.010745267;-0.4903664;0.2586251;-0.31141013;-0.008436459;0.02921234;0.40721953;0.5042655;0.105248846;0.13365196;-0.00014629513;0.010796114;0.020703511;-0.0768518;-0.5949364;-0.0008560175;0.009953779;-0.23360167;-0.06519363;-0.11662444;-0.08816818;-0.0351178;-0.15881732;0.0062405397;-0.26754886;0.24073558;0.07746125;0.015979026;-0.004633728;0.015566917;0.00069288426;-0.013871587;0.26273367;0.008414696;0.13519126;-0.44104534;0.01315023;0.008075729;-0.077301934;-0.0021922998;0.053445652;0.15683503;0.011563802;-0.29151922;0.01052794;-0.25039685;-0.14319657;0.20966059;-0.097766854;-0.32202986;0.009355893;-0.14126207;-0.11365029;0.5796716;0.0401775;-0.08285196;-0.43108666;-0.1932287;0.1814454;0.13655612;0.15151176;-0.0075955684;0.00614523;0.0014395155;0.01961535;0.10711628;0.0018783332;-0.050874818;0.2311244;-0.0018931534;0.019868458;0.029194735;-0.20584705;0.026018865;0.00095664256;0.03421328;0.0017207027;-0.19820017;0.0057756663;-0.0039676256;0.07424285;-0.33444068;0.062065937;-0.018718397;-0.00675121;0.18099603;-0.20250423;0.00025034268;0.48892885;0.010743025;0.010283564;-0.00033076963;0.1742483;-0.5144873;0.24898332;-0.007161199;0.0024963184;-0.17944838;0.63964146;0.102302454;-0.29522932;0.094706684;0.2064205;-0.0030657086;-0.23850831;0.15113512;-0.2953908;0.020543266;0.22158954;-0.20391077;0.42605108;0.0037305036;0.246902;-0.027784506;-0.0018094527;0.16694713;-0.011172651;0.046207912;-0.005728825;0.0971372;0.18654005;0.019021265;-0.04338661;-0.009391838;-0.29911473;-0.011608425;0.11703148;0.018383484;-0.0011169069;0.41093913;-0.008096734;-0.34912905;0.21625371;-0.048159108;0.01297845;-0.008339075;0.28338608;0.23719038;0.010470636;-0.20299782;-0.46382877;0.11801591;-0.44006407;-0.3052244;-0.21018937;-0.010272177;0.07767725;-0.0045321076;-0.026143039;0.10139065;0.13313948;0.0019732285;0.015175585;-0.023188671;0.003456224;-0.01423362;-0.0022327623;-0.09145233;-0.10014508;-0.036694225;0.52685785;-0.280189;-0.39755774;-0.09285131;-0.46652013;-0.47106338;-0.004425899;0.042471636;-0.0013199307;-0.031664155;-0.37001678;0.0463512;0.18442415;-0.108183965;-0.22728904;-0.11702735;-0.47555524;-0.174616;0.0014127246;0.060301967;0.16443117;0.36564985;-0.029024957;-0.009370432;-0.0041302666;-0.008627775;-0.07968114;0.044687632;-0.28226063;0.5640132;0.14056322;0.0073516187;-0.038326368;-0.060768858;0.003983114;0.0068113217;-0.7478097;-0.28945208;0.35789162;-0.05053364;0.049113393;0.052249905;0.49885982;0.04827256;-0.4579887;0.20245522;-0.0053499714;0.22247331;-0.34277233;0.0005818548;0.001118691;-0.11139951;-0.0028844697;-0.10266472;0.0087327035;0.009906461;0.28244933;-0.11991262;-0.32261765;0.13958217;0.010615775;-0.20238903;-0.04611551;-0.52618146;0.18745512;-0.50777805;0.003487659;0.008555722;-0.16771093;-0.28344837;0.036173522;-0.0005768806;0.48336023;0.011130451;0.05097882;-0.49536958;-0.00822513;0.22284067;-0.5801671;-0.0061498354;-0.020752061;0.07968994;-0.20876911;0.17872652;-0.007670238;-0.66925305;-0.015659507;0.017998802;-0.0015779937;-0.0014443557;-0.50016046;-0.008736832;0.0029363863;-0.4959891;-0.63665074;-0.09487038;0.011742176;-0.28317335;0.19141398;0.0016879686;0.035224512;0.0048533916;0.4664583;-0.0031487308;0.14625473;0.08814744;0.0070080743;0.35028708;0.011511404;-0.008262864;0.27226123;0.005587228;0.097468846;-0.33202907;-0.24475166;0.1935922;0.00095580565;0.24084349;0.104218744;0.17103282;0.008556809;0.46341136;-0.87462986;-0.00041034556;0.00944114;0.0060081473;-0.10944652;-0.3306432;0.19733423;-0.0072745294;0.102991164;-0.07246455;0.024491807;0.20907614;-0.0076746093;-0.34850755;0.15409619;-0.06739661;0.20996813;0.00057020807;-0.0008267242;0.17357032;-0.10751762;0.00037608691;0.28596655;0.17416228;0.003517239;-0.40633577;0.0048812316;0.24514896;0.27090406;-0.6799608;-0.17427959;-0.015748035;-0.1469544;-0.23956494;0.29434133;8.738825e-05;-0.09316713;-0.28611505;-0.22812666;-0.19840492;-0.0038204289;0.011927893;-0.12415173;-0.14651746;-0.0077148485;6.368445e-05;0.0034452707;0.013999002;0.39811274;0.14453302;0.09366599;0.13699105;-0.24586554;-0.035907187;0.035421386;-0.02967354;0.2407693;0.003366263;-0.23602422;0.26391718;0.007105371;0.24984659;0.0065651922;0.3593757;-0.12446743;0.242171;0.016230898;-0.30299467;0.09162973;0.07249703;0.34985545;-0.022302054;0.015285825;0.011793831;0.00625133;-0.00024211085;0.0057098363;-0.0022794;0.0143705355;0.029869305;0.0055268803;0.29398906;-0.00024734452;0.31916177;0.011538115;0.0017210145;-0.59192455;0.01988526;-0.06550367;0.38090834;-0.19326156;-0.18983774;-0.1751068;0.0029530965;-0.24574958;-0.07804561;0.010093137;-0.06328537;-0.11661097;0.2088745;-0.23745799;-0.004395333;0.25868765;-0.0008890412;0.2175332;0.015402877;-0.032657772;-0.010992156;0.1864659;-0.0027616173;0.0062151495;0.003410494;0.4446775;0.00049773423;-0.6785435;0.123027;0.021591112;-0.0039316877;-0.058095336;-0.0065597524;0.17495896;-0.017608851;0.018387247;0.007551161;-0.5073255;0.004140934;0.0016777355;0.15968469;-0.42648226;0.67934114;-0.10263361;-0.14739397;-0.4524758;-0.0026627;0.008516859;0.192483;-0.5595772;0.03277133;-0.20864362;0.008329321;0.010809962;0.15888782;0.000525655;0.016492343;-0.20567118;-0.13383304;-0.012853536;-0.12148657;0.00596117;0.03198794;-0.24974062;-0.004393179;-0.21164593;-0.040566407;0.0036902456;-0.088056944;-0.00017739496;-0.33599412;-0.44443667;-0.0011322357;0.0017281749;-0.004726382;0.44402555;-0.19115622;-0.2720653;0.29928547;0.0009146807;0.05849554;-0.6799738;0.2517877;-0.42273372;-0.03715655;-0.0011076792;-0.09709148;0.26315385;0.0048486977;-0.003115782;0.12899117;0.12022705;0.009836397;-0.07201992;0.2380395;0.14083882;0.3384368;0.5904712;0.016101127;-0.109290466;0.18031284;0.0067851595;-0.3592133;-0.0023126793;0.09843666;0.15658158;0.34025937;0.006921631;0.0042962753;0.15119791;-0.0039583254;-0.28831312;-0.27489278;-0.17025466;-0.010861415;0.0021719062;0.0013572162;-0.2300876;-0.010194699;0.076648116;-0.0010382958;0.3782945;0.112072214;0.052169822;0.049162544;0.26202106;-0.14490645;-0.16112582;0.09563591;0.0010587763;-0.62088376;0.023355886;0.018677678;-0.116231345;0.0050655752;0.009597918;0.23962426;0.0014213662;0.25769487;0.0010567183;-0.013138562;-0.108902246;0.0018135866;0.28099707;0.12107821;-0.26119745;-0.0003634249;0.062366184;-0.001156631;-0.10360278;-0.014596456;0.0021376943;0.49853987;-0.14275381;0.11502575;0.0056856405;0.06766799;-0.0003919974;0.002912136;0.15885243;0.00025058433;-0.12627545;-0.007731773;0.30386317;-0.0041155946;-0.0023666122;0.45166463;0.008588893;-0.16302657;0.03108498;0.28473496;0.004200304;0.009354139;-0.12764366;0.573267;-0.04209326;-0.17316659;0.009723406;-0.24907362;0.003972852;0.050853904;-0.19190834;-0.04534883;0.29331505;-0.0019035257;0.28616744;-0.05189361;0.5762205;0.27350038
1.3943067;3.1486752;-2.837505;1.2000037;-6.775311;-0.0067539765;-0.20580891;0.13082162;-0.58944184;0.023186611;1.1506124;0.43407533;-0.033354353;-1.6211166;-0.12881622;0.818329;-0.011465201;1.4975501;-0.00857576;1.9745377;-0.09710514;1.3496846;-0.05266758;1.9534366;3.5205014;0.053135056;3.2978888;0.091005236;0.036735874;0.019823834;-1.2425541;-2.4321094;1.5225602;0.070978604;0.0053925854;1.571262;4.9979496;0.5653446;0.6088521;0.1751767;-0.87517536;-0.030144084;-0.3648407;-3.144727;-0.45261225;1.5464842;0.049769618;-0.4722406;0.00080874475;-2.130422;1.138323;-0.012576827;-0.19614325;2.6940854;0.019016588;0.033295527;-0.5063984;0.018915186;-0.33006385;0.9922351;0.0328102;-0.11949166;0.050004326;1.9778587;-1.5027306;1.5800261;0.14467524;-0.015300502;-0.05735461;0.017892852;0.14681005;0.4871991;0.93398625;-1.1214752;-1.3487906;2.4601688;4.907061;2.2584918;2.6298163;-0.012827527;0.031891745;0.0005377258;-1.3632529;-1.7730322;-8.595111;-4.918097;-0.4011233;-0.015283224;-0.017562468;-2.1598482;2.6416109;0.86734915;0.0024901803;-0.13328782;-0.0016743594;-1.0984967;-0.042528182;-0.042836662;-0.085513055;-0.7062235;4.742146;0.23097865;0.014503004;-0.57330084;1.3777605;-0.017344752;2.7922337;-0.040012226;0.019756436;0.04507977;2.24095;0.51855046;-3.129528;1.8188311;-0.037136212;-0.9697872;2.120441;-2.9345;0.66409075;-0.8190699;0.6058341;-0.041155696;0.7211785;-4.7723355;-2.3321989;-5.881998;-0.008023476;2.402381;-3.8819666;0.002375816;0.3230447;1.8029884;-0.09295406;-2.0897927;0.0023096825;0.40554604;-1.6478766;-0.5147744;-2.7044377;-0.08601073;1.7079234;0.024646379;0.6665703;-2.1450555;4.029938;0.007604507;0.04546684;1.5461;0.04091281;2.8758502;-1.3689969;-1.3543212;-0.14034896;-0.005901786;-4.1207924;2.0137012;-0.042871885;0.8468607;1.817523;-0.3430479;-1.0773784;0.36505342;-1.3536527;0.35118857;2.5212617;-0.04311397;-0.08825079;0.5643121;-1.2799736;0.48333994;-0.021107927;-0.24280979;0.0044953916;-10.086459;-0.048207097;-1.7019308;2.3183725;2.1580687;-3.616272;-0.24768752;-0.9947468;-2.8382275;0.08884357;1.3358033;-0.027381714;-1.3784937;0.015971633;-3.3783646;-1.9968805;-3.5430634;0.05854978;0.48498976;0.32175356;-0.29067317;-1.815113;-4.0574007;0.0034372672;-0.6540288;0.2586474;0.14006151;-3.5744689;0.011716607;0.0034108218;0.03641564;-1.8319577;-1.1056263;0.011937405;-2.5997164;-1.1242268;0.011552048;-4.4123516;0.12973742;-0.02441512;-0.012467323;0.3642667;-4.6452866;1.3453143;-0.15385698;-1.7843548;2.1594949;2.1039884;1.1196246;-1.626982;-0.79467946;0.0035207034;1.516063;-1.0080193;0.037724555;-0.009517333;2.791167;-0.41490915;-2.114454;-0.035051823;0.0022698995;1.1470501;-3.0862117;-1.5854933;1.4126322;0.016508449;1.1302059;-4.9082527;-0.028993655;-0.42310256;-1.2724744;0.04067808;0.07701911;-2.7063386;1.6890318;2.1304004;-0.0065935934;-2.0456223;-0.020706462;-2.6917815;0.59069306;0.0151551245;-0.19480631;-1.5360526;-0.010888136;0.63700193;2.2336655;0.5302312;-0.1795151;-1.4225641;1.0234854;-0.014385104;-4.5543647;-0.057332236;0.07280256;-0.6307221;0.04461365;-0.007527116;-1.6515352;1.5988475;0.5567715;0.0060935295;-0.3340053;-5.251044;-0.040493216;0.73797554;0.020203147;-1.277854;-5.6720862;-1.2532598;2.1980257;0.051759917;-0.63354176;0.029147584;-1.7683046;-12.52148;-0.0136691;0.13926502;-0.07389408;-0.8627618;-1.0018069;-0.0035347422;2.0357418;-0.58593047;0.5013203;1.6483277;1.2956051;-0.8877165;-0.0067376727;0.02613967;0.0009518797;-0.30899096;1.0073214;1.1156249;-0.008864065;1.9998125;-0.17278856;-2.2559292;-3.633418;0.019829867;-2.8577905;-2.351415;1.055175;1.4507498;-0.03541613;-0.018244509;2.351474;-0.8928618;0.02067125;-3.110029;2.2731128;-0.049240775;-4.0588846;-0.01287877;-1.8687447;2.005329;1.2868015;-4.292511;-0.014618675;-3.235273;-0.2718331;0.122365035;0.032823816;0.3290683;-0.23776026;-1.606178;3.780545;0.0052785827;-6.269823;3.914704;0.53762865;-0.095557265;0.0053022695;-0.007531328;0.018424086;-0.9748174;2.5418212;-3.103953;-3.4003203;-0.56699854;0.7908456;1.1989065;0.3594504;-2.492533;-0.026655294;-1.4301114;-3.0132205;-1.760813;1.0568573;0.00020001504;-1.754029;-1.0969924;1.2716501;-0.0005745299;1.3578184;3.1028695;2.2427807;-0.6441017;-2.0965335;0.6257464;0.052856304;0.09874554;0.021354169;0.61966974;-0.061651066;0.083456166;0.024669003;0.0887321;-2.6623328;0.018446537;-1.2653518;-0.027609127;-0.03820104;-2.2604809;-8.180278;-0.48854175;0.28042847;1.2554024;-3.9515352;1.1320078;0.043048542;-2.216891;-6.185929;0.010913355;0.14169647;0.8664758;0.053870905;-4.6551113;0.018958569;2.6846395;0.028748611;-2.6503913;-4.49036;1.2306262;-12.447291;2.145909;0.0021567957;-0.0122757815;-0.014939732;2.5278974;-0.007826816;-1.7037044;0.6315482;2.7986495;0.0018625506;-0.72680116;0.61589915;0.7194192;-1.0742865;4.588604;-2.0132904;-3.7723045;0.043013528;0.0100950245;0.6737558;-2.4684267;0.0379749;0.46387383;-1.5926893;1.9232279;0.023345578;0.0003816785;0.4229413;0.803842;0.8979005;-1.5372459;-0.011744587;-0.044719703;-2.5423763;-0.0016145275;-0.49838898;-1.0121204;0.44635266;-0.0019909316;-0.7202063;0.030276174;3.9550965;-1.15738;0.029312022;-8.541773;0.3214362;-0.028452357;1.0989845;0.06844614;0.378956;-4.290879;0.016834058;0.022308247;-0.011818986;0.078007005;-1.5833198;-6.916851;0.07025174;-0.0148244;-2.4937508;3.1446958;2.024384;-2.1095967;3.8741987;0.006525061;-0.82645553;-0.5746827;0.035788983;0.020399239;-1.2998126;0.32437056;0.05824281;-4.8394113;-2.4041588;-1.3740826;0.8396551;-2.150077;-0.017536404;2.1335871;-1.1261952;0.005389593;0.47739488;-12.991746;-0.777921;-1.6074933;0.07088563;0.12643711;-0.014349797;-4.474621;-0.015373776;0.63761866;1.4642624;-1.3991704;0.061702218;-0.056667544;-0.015916867;0.61266106;-0.0028059124;-0.9591233;-0.09498421;3.768679;1.4330906;0.5043573;1.6947044;-6.868949;1.1151205;-1.772211;-1.1172833;-0.08091551;-0.07280206;-0.013139822;0.9148752;0.65228254;0.057960466;0.0393756;-1.7018197;0.0061736633;3.257157;-0.020202039;0.03595497;3.1987643;-0.0011980492;1.1597476;0.29528168;2.6070826;0.03533369;-5.513772;0.022065511;1.2770478;-1.3211689;0.0063999183;-0.19499104;3.5220242;-6.6201043;0.033641115;-1.0204791;0.005601862;-0.05608735;0.1275708;0.025820749;-4.1209445;-0.002369635;-2.8609712;0.020173846;-0.006634935;1.886097;0.018514104;-0.33944574;1.7681441;2.3207798;-0.017160492;0.061812613;-2.7727652;0.10623655;-2.2098067;-0.81835926;-0.028369473;0.07971456;0.001809871;1.856109;0.7268029;1.0572255;2.3467515;0.009923116;2.9050546;1.963662;0.09638866;-3.502073
-3.0765808;1.9273384;-2.3974788;1.6811318;0.12918916;-0.040635716;1.0700003;-0.0009756516;-0.1207701;0.05049079;0.6412416;0.73442435;0.003125224;-1.2894366;-3.193397;1.9581246;-0.02657745;0.8690536;-0.024133725;1.6523532;-0.36403462;3.2364814;-0.69681984;3.576272;0.4789562;-2.1900134;1.5809128;-0.0013747095;0.032106757;-0.014817097;-1.4263052;-3.0549576;-1.570467;0.055557374;0.012789669;1.1018913;1.5041819;2.1689749;2.2463589;0.4471175;0.94996893;-0.00459857;-1.8877406;-1.7702577;-1.7493438;1.5330992;0.0062033087;0.15485941;0.007571196;-1.6171343;-1.5935209;0.0027865306;-5.086021;-2.1367052;-0.0045965086;0.065007865;-0.05823022;-0.010637785;-3.187774;2.1003673;0.2395355;-1.0828774;0.0015554947;0.8236221;0.3644207;0.5594943;-1.3036352;1.4182351;0.0073636496;-2.8746264;-1.5961206;1.11576;-1.1532826;1.3361179;-1.8439054;0.45186043;4.9015064;3.4684076;1.2551953;0.00824805;0.006273012;-0.0033965625;-1.5815911;-1.429595;-10.105831;-3.6215067;-4.9636045;-0.01862641;0.004045631;-0.36866504;0.5948682;0.19763169;0.042148992;0.2182247;-0.009370954;-1.434716;-0.03556375;-0.0063378084;0.065712705;1.602052;1.4800258;-0.10182122;-0.011792347;-0.86316353;2.9471464;0.021470953;-0.06288351;0.009401546;0.021058163;-0.011616683;-1.667015;1.5943996;-2.5432198;0.53683805;-0.016071292;-4.600157;1.9247898;-3.9827652;0.78451526;-1.503782;0.20271528;-0.036990605;-2.0814404;-1.8686569;-0.7184189;-9.612254;1.0056437;0.618778;0.9835737;0.005721584;3.0713186;-1.0639795;0.68427485;-1.8664627;-0.02029493;1.8583587;-0.6866105;-0.6952941;-2.3716319;2.441848;0.9621083;0.026625479;3.7723577;-0.0039118906;1.3193996;-0.00996668;-0.012993244;1.4851075;-0.022416601;2.376623;-0.689008;2.9415677;0.1780381;0.024985535;-2.2164903;-0.020327492;-0.010807155;-1.9716636;3.063828;0.23963325;2.848826;2.2358942;-1.5830084;0.033862617;3.0170717;-0.034542494;0.12750642;-0.6279754;0.6994369;-0.003783333;0.09264677;-1.0421826;0.07969195;-11.387414;-0.012052155;-1.9274863;2.652099;2.483145;2.89003;-2.3453226;-0.6715901;-1.8564845;0.0499191;0.023248352;-0.037340898;-2.777657;-0.01102675;-0.8711086;-2.3991542;-3.1579792;-0.8273769;0.13063222;0.2361865;-1.7191918;1.5796465;0.97490185;0.016326837;0.21123101;3.540496;-2.163001;-2.216443;0.01000238;0.023564054;0.047226224;-1.8536289;-2.4450614;-0.14787288;-1.5474262;-0.70638263;-0.041904647;-1.3847922;0.5006012;-0.008573544;-0.02176042;-0.85126144;-6.816048;-6.1915126;0.7295104;-0.7261581;1.3262537;1.2740756;-1.6389172;0.31276715;-2.3900356;0.051244132;2.9519942;-0.90942675;-0.01993805;-0.006604157;-0.3612879;0.046848647;-1.1746368;-0.009509841;-0.031212784;-0.31835517;-2.7772927;3.5072434;2.4536912;-0.01911265;1.4977028;-1.2010837;-3.7399428;2.3697906;-2.2798748;-0.018302044;-0.8006894;1.1916986;-0.6608745;1.8595577;0.021916164;0.028655691;-0.0455714;-2.6999953;-1.1495287;-0.049795505;-1.0801487;-3.0384161;0.008866187;0.8404898;2.975411;0.8583296;0.21760713;-2.3398998;-0.16365889;-0.011499805;-5.4931192;0.022467885;0.105899796;-2.1174808;0.023580836;0.06831094;-2.5774105;1.0993412;-1.3151304;0.013889499;0.5082684;3.7520785;0.015023995;3.0172346;0.06066757;1.0610963;-6.1069164;-2.4841719;-0.5311586;-0.00489745;-0.7231785;-0.018377468;-0.14166528;-13.86874;-0.00035655953;2.0181272;1.2896756;0.7578466;4.306324;0.012116058;-0.28212363;0.6046789;0.23168646;-0.6395911;0.059366588;-2.2809694;0.012851485;-0.010570448;-0.018184401;0.9462522;0.028710011;0.39722303;0.07340873;0.36958507;3.0409746;-4.0625224;-3.1825652;-0.013286868;-2.5361474;-3.1377878;-0.4762703;5.580584;0.026862778;-0.003948856;3.0610397;-1.154061;-0.021312116;-1.2758368;0.23088136;0.04733579;-3.8941417;0.027495112;-0.3795153;2.3780842;1.4633526;-0.5208431;-0.056097616;-0.2240418;1.0913601;1.682028;-0.04332334;0.211412;-0.2916951;-1.9664004;2.1495929;-0.009590365;-4.5538764;-1.6541609;0.9378806;2.0015411;0.023686185;0.013691702;-0.016037762;-1.6154191;-0.27985477;-1.3390042;-0.88196313;0.5593307;-1.0420777;1.1573584;-3.7263532;-1.5163234;-0.042469487;0.77026016;-1.4426472;0.13566284;3.236956;-0.014160567;2.4113247;-1.2058233;0.56023216;0.038632482;-4.0568357;1.8821695;-1.7960951;1.6637921;-2.5024412;-0.17221129;-0.013243131;-0.06798218;0.0050793495;-0.24073423;0.019388614;-0.06892951;-0.048261948;0.015163624;0.6165476;-0.018335132;3.9185476;-0.02854165;0.050034467;-1.0997422;-10.749325;-0.86538815;-0.30205873;-0.5030145;-2.8395712;1.5090938;-0.063369446;-4.1317563;-5.1607475;0.034380913;0.6612147;1.0428404;1.2200449;-4.637305;-0.02151046;2.9411898;0.020516139;-1.1340832;-3.3616714;-0.21679617;-14.182051;-3.1579132;-0.018160606;-0.01565632;0.012358491;4.6249046;0.035456214;-2.7013307;-0.9241307;4.8667183;0.018561145;-2.5328834;-0.23517962;2.359626;-3.295658;-0.8447332;-1.1256905;-3.4510007;0.0038225562;-0.0083467765;0.21135855;1.3686572;0.55055255;1.0740057;-0.14161608;-0.5260225;0.018602084;0.00037787214;0.26038864;2.015099;0.038958225;0.529709;-0.016522674;0.005536354;-5.5726905;-0.014894236;1.4445382;0.48899275;-0.119657256;-0.0424506;0.5665306;-0.04561042;1.619662;-2.599314;0.040196605;-11.870713;-2.9520717;-0.027885055;-0.7513372;-0.009972537;0.18489954;-5.227456;-0.019226583;0.022452937;-0.050276414;0.555967;0.21831511;-5.248644;-1.5148692;-0.01782926;-1.4040006;0.9563218;0.5219436;-4.0907593;3.5895708;0.015814934;-0.17223543;-0.048903808;-0.015234184;0.02583058;-2.7625415;-0.23668167;-0.048442822;-3.5243564;-4.064839;-0.08646347;-0.87625736;-0.118894495;-0.0013998904;1.479265;-3.0798771;-0.008287541;2.3253102;-13.80589;-0.8753143;-2.242451;-0.3895697;-1.9430132;0.0071736076;-2.4253688;-0.007924976;-1.1910101;0.46251282;-2.426609;-0.009915639;-0.023227097;0.05685386;-2.3525817;-0.052339133;-0.23278996;0.0719634;0.64326644;2.7897663;1.5240799;0.734836;-4.3610764;1.8995188;-2.7963114;2.1586363;0.003934009;-0.8248956;0.07204047;1.2684922;-0.0188061;-0.016755648;0.014489037;0.44351646;-0.00825329;2.9883442;0.020672409;0.04672265;3.885855;0.03394089;-0.12983628;1.7970079;0.059462775;-0.04507402;-6.6491947;0.17317428;1.543428;-1.1910822;-0.00131077;-0.36296466;3.3013694;-1.1409581;-0.031446695;-0.98468924;0.008849069;0.0443274;0.54582644;-0.01180125;-9.898077;0.010854781;0.27135566;0.0032979322;-0.015112334;-0.20609525;0.0031876536;-0.91600406;0.8146439;0.81139034;-0.009860457;-0.0043824394;-1.8070148;1.769178;-2.6541739;-0.71026146;-0.011478204;-0.052605346;-0.0023203876;0.7342248;0.12725914;1.7321854;-0.19285062;0.0068084616;1.4381001;3.0981154;-1.2088215;-3.0270247
-5.7488694;1.7273443;-1.4798709;0.8086507;0.53204215;-0.014643011;0.28861856;-0.029076524;-1.2367922;-0.03171527;-0.59175956;3.7528028;0.0013955988;-2.7850146;-7.05937;1.9361093;-0.017287144;-0.25997472;0.022745926;1.4387785;1.0748857;1.5614742;0.17600174;3.2442372;-1.3955749;0.9374295;2.4769948;0.6641884;0.044296928;-0.010690932;0.034074664;-0.1179859;-2.495835;-0.0031897458;0.00516262;0.4779722;0.6762625;1.4398683;-0.027382232;1.8289077;0.11440763;-0.0016274421;-1.3373506;-2.0341673;-0.1051032;-0.6960428;-0.020617234;0.33822468;-0.03508168;-0.53428817;-4.7355227;0.039728515;1.4136965;-0.61742103;-0.0048433235;0.003995271;2.997073;0.0028657462;1.0217453;0.37664196;0.2735785;-0.8171233;0.02015119;0.6232768;-3.029828;-1.1984823;1.3235282;1.2303352;-3.7330985e-05;-2.7536156;0.5337505;1.3979661;0.18719734;2.274433;-0.6435992;-0.7172251;-0.10662973;0.023133824;0.6660898;-0.008472976;-0.009620221;0.04347917;-1.8345522;-0.81048554;-10.719667;-0.34373647;-7.409196;0.0078024045;-0.02569438;0.5446237;0.7047026;-0.7042249;-0.01784331;-0.121385984;0.001884912;-0.89457035;0.035717983;-0.77559835;-0.890784;1.385498;4.774582;0.026955154;0.0178706;-0.7797604;3.5583124;0.0062566083;1.2252423;-0.0019049644;0.017454837;0.0343974;-3.1572602;-0.09866103;-3.012785;0.53989476;-0.008723075;-4.2389994;-0.283397;-2.8953936;-0.13359338;1.6171094;0.30462706;0.07729007;-0.9359407;0.11495836;-0.55936307;-9.416879;0.6328204;-1.1647288;-1.372636;-0.0074471165;-0.48816755;-1.2421612;-0.21602818;0.24370039;-0.010353477;0.49709833;-1.0061744;-1.4346126;-1.9666042;1.9143358;-0.5228237;-0.03901794;1.1089567;1.2814977;1.4355139;0.009479189;0.0034733866;1.4540592;0.010873099;-0.16082297;0.14338697;2.057368;-0.009880687;-0.029860415;-0.5122047;0.75831693;0.026952056;-0.33207113;2.7489152;-0.50261146;1.148652;2.9765515;1.15745;-0.13773791;1.1274602;0.0019157942;-0.09695012;1.8095573;-0.781631;-0.098223634;0.021777136;-1.8439928;0.04199901;-11.633415;0.034196433;-2.3609657;2.511193;2.151736;-0.4400464;-1.4209206;0.7151697;0.36577797;3.3202555;1.115101;-0.0006790378;-0.58624226;0.0024351862;-1.3508562;-2.2023473;-2.2151127;-2.4115283;-2.2841446;3.8459282;0.14906134;1.6373574;2.3365126;-0.03419115;0.5853816;1.6673467;0.76809263;0.052058548;-0.011048343;0.0497821;-0.013481769;-2.7018046;-2.7199018;-0.31681463;0.57592624;-0.43115035;0.0052344096;-2.582553;0.7806064;0.029730286;0.015514696;-1.9793564;-3.159565;-8.862563;2.3932347;0.03746881;3.6705399;1.3419666;-0.006144538;0.105015606;0.023249054;0.032372728;1.3339416;-3.3911211;0.038188927;-0.037816655;0.83195454;-2.7100055;-0.13262227;0.047252756;0.0754786;-1.7178047;-3.249884;3.136329;0.8180534;0.029959017;3.5806146;-0.37014675;-0.96068156;0.7937073;-2.7519462;0.055732366;0.27349734;0.17814729;1.2827415;-0.2992771;0.03622424;-0.13814051;0.004360991;-1.4508541;0.7849155;-0.0062126033;0.034103952;-4.3266296;-0.010435038;0.36297455;0.44045797;0.73965216;-2.7135336;1.5017754;-0.036092136;0.015027939;-2.5395284;-0.022241991;0.1629547;-1.4791967;0.010126373;0.035637792;-0.3596701;1.6286329;-0.4525255;0.015506287;-2.0505052;-0.61650485;0.010781096;3.072943;0.026333084;1.5166945;-5.066768;-5.565061;2.137308;0.007853167;1.7815043;0.03972532;1.5051014;-13.39049;-0.009512635;-0.46918863;1.5014045;3.3135273;0.96651465;-0.013119833;-0.91570735;2.2619028;0.48147812;-0.6923636;-0.45205617;-2.3840725;-0.04721597;0.03186653;-0.03140566;-0.32042366;-1.1781801;0.53292394;0.018973496;-0.7471712;0.19716375;-2.1990128;-2.2134595;0.0010112365;-2.8041456;-1.6138843;-2.978694;1.4780185;0.004243181;0.03483933;0.910065;0.74464124;-0.011416752;-1.246262;-1.7227217;0.011217078;-2.7687118;-0.02643037;0.7742838;1.3811705;2.2372715;1.8757381;0.0037161312;2.1961303;1.6261977;0.6182725;0.019150924;-0.64574397;0.4416605;-2.7945802;0.5289322;-0.047698017;-3.5070019;3.176076;1.3918275;0.40854955;0.0037072918;-0.042004324;-0.0014181684;-1.8639057;1.415405;-1.4547566;-1.49606;1.3889307;0.61262155;2.3282936;-4.0927763;1.2761508;-0.0058088778;-0.16770768;-3.039132;-3.275469;2.539797;-0.019942537;-2.3951864;2.2149665;-1.9207456;-0.027584806;-2.6530826;1.4483749;-1.2069207;-0.63140726;-1.2820083;-0.08428818;0.0047354074;0.016282778;-0.010296982;-0.025584033;-0.004948976;0.049684998;-0.13995892;0.015757032;-1.0214062;-0.009005708;2.5636795;-0.030930016;0.03332763;1.5519534;-12.774493;-1.5087713;0.7453109;-1.0546919;-6.6313777;0.21310091;0.0057416814;-0.06901089;-7.859082;-0.0062883347;2.0358405;-1.5599068;1.2916256;0.93621397;-0.036957182;-0.75336367;0.038100034;0.6454015;-3.1812901;-1.325414;-13.774228;-0.49116567;0.03552125;-0.008265763;-0.0034481117;0.13977723;0.016137699;-1.3829527;1.7675799;1.3737925;-0.018451475;-1.0866491;-0.059899718;0.8945249;-0.3060743;-0.49123433;0.9179835;1.8397864;0.0048706704;-0.046887245;0.9428303;-1.5276257;2.0253658;2.5848925;-0.7662901;-0.6553695;0.007708247;0.0052615046;-1.4135703;-0.7904293;1.3522;0.70213795;0.0067878757;0.053446252;-4.255701;-0.017530562;1.4489541;1.1649003;2.909873;-0.03567583;-0.69790816;-0.0047278297;3.2723591;-2.2185068;0.0069049154;-9.784615;-0.9476748;0.02301951;0.40932348;-0.027876424;1.5438645;-2.6056595;0.03218443;-0.019868786;-0.038622994;-0.87761897;-1.9597639;-5.8372416;0.55112666;0.035283454;-1.812244;2.0033953;-0.099664986;-1.9211202;2.8485167;-0.023383165;0.099870004;-0.92038894;0.010057211;-0.007231708;-3.3399098;2.1185052;0.046735514;-1.0318607;1.4555206;2.4337008;-3.5608807;-0.5523526;0.00040464816;-0.2964375;-0.4503686;0.04173106;3.885904;-13.489608;0.7140429;-2.7449274;1.075151;-3.248515;-0.007975121;0.2888133;0.02423699;-0.6216904;1.2404513;-2.9186985;0.044809975;0.036648765;0.0092281075;-2.6163788;-0.04512241;0.60172564;-0.03821808;-0.23132294;0.0033294563;1.3488566;-0.18145311;-2.3779142;1.6929862;-2.854444;-0.6901812;-0.025890904;-0.8858764;-0.013914099;-2.9520812;-1.1000915;0.039863437;0.023267064;0.6610959;0.00858674;-0.09666465;-0.046333462;0.033832535;4.0065045;-0.021431418;3.2047372;1.8388824;0.8729469;-0.118929595;-1.010983;0.042887937;-1.5190041;1.0773089;0.030511541;0.6817478;1.5038068;-4.5722904;0.027154287;-1.8696475;0.013140523;-0.010926569;-2.213032;0.022424478;-6.7382426;0.07321186;-0.7808735;-0.07402067;0.040895753;2.2561429;-0.007307879;-1.6120306;0.007341242;-1.313671;-0.008215979;0.013805475;-0.5053894;0.22479427;-1.7653314;0.08078428;0.004460938;-0.19018836;-0.0060104844;1.7598823;-0.37698048;1.3208554;3.5875518;0.0016858493;2.3089156;0.65295994;-2.0121307;0.3537961
-9.048514;0.362403;-3.3010387;2.7179754;4.052869;-0.09992481;2.5746608;0.08612763;-2.2599394;0.024331508;0.4443255;-0.0013084812;0.0012717188;-1.0669657;-1.2152638;1.5603851;-0.017372834;-1.5805411;0.03976772;-0.7316015;1.5014718;-0.32525077;-0.9964595;3.377859;-2.04906;-2.068985;-3.0171835;-0.4070932;0.01978884;-0.0048672943;0.5767884;-1.3681787;-1.8282034;0.07245014;0.00056023157;0.9392327;-0.028121153;1.3897676;2.3881967;-1.7267425;2.233793;0.022152139;-0.2122678;0.33608165;0.0068562827;-0.40701997;-0.06140718;-0.96960866;-0.011842236;-0.13003497;-1.0039647;-0.03611028;-1.9683888;-2.3914063;0.017837679;-0.033814598;1.3005695;-0.0039898707;0.32337612;-1.0427369;0.22736956;1.5991155;0.051689368;0.77753335;-4.867124;1.2371218;1.474412;-1.0359559;-0.037769467;-5.948594;-0.4606641;-1.4518423;1.2697841;1.0237919;1.868724;-2.749635;1.4766632;0.49466863;-0.09548786;-0.0043372004;0.00970848;0.0077000586;1.0455273;1.2938434;-11.860288;-3.4567761;-5.714538;0.06584704;-0.023933388;0.07175789;-1.5940014;-0.90616584;0.04451212;0.13480939;0.01751341;1.1626126;-0.04746562;0.30473286;4.018768;4.3014593;2.8457654;0.013319073;-0.005859903;-5.5711513;4.998863;0.025895663;-1.6009866;-0.015696673;0.005809489;-0.040952593;-0.6617419;-1.5980501;-3.5926409;1.6906198;-0.030485217;-3.3191335;-1.1681314;-3.7396443;-0.8385898;-0.09605734;3.2178376;-0.0045845485;-0.46131256;-0.009903382;-0.06359093;-9.871507;-2.8772311;0.3509195;4.4919944;0.024285398;-1.4800192;-0.4814659;-0.07108885;-3.4211948;0.0135601545;-0.5532129;0.11017159;-3.8269398;-0.9193844;0.6848803;1.1890564;-0.042971887;-0.21969338;0.8200811;2.5288558;0.0022728133;-0.010024667;1.2662128;0.015378109;0.4072867;-0.31520656;-3.6984475;-0.06851953;0.027633943;-1.8215698;-0.74025166;0.014828167;-3.2525723;3.9361978;-1.908037;1.6178373;1.7777419;0.43907836;-0.45576978;-0.93504405;-0.059564807;0.00433976;-2.2233622;1.7429702;-0.04804127;0.016667178;-1.6445476;-0.007012856;-12.506851;-0.013334936;0.17144793;1.2898318;1.6074973;-3.2285302;1.3941108;3.0775576;2.4402227;0.77156615;1.4112954;-0.0242417;-1.043711;0.017901672;-1.620866;-2.2120972;-1.2236186;-0.91419536;-4.539775;-1.3669342;0.8922629;-0.54845756;1.3817983;0.0019031949;0.50116533;-3.0328531;-3.1722767;-0.111324646;-0.00057344284;-0.026937947;0.016336177;-1.9581194;-1.5531086;-2.7835245;-0.3677786;0.6473167;-0.0021304735;-2.1936448;0.75643706;-0.045956135;0.051465046;-1.3237082;-1.276975;-9.9086075;2.8251233;-0.46053255;1.1542788;2.4504685;0.6826364;-0.56985605;-0.09420192;-0.007412559;1.3304285;-1.4603722;-0.16440089;-0.012286193;-3.0233545;-2.9028664;1.67736;-0.023563521;-0.006565587;-0.32401782;-1.875951;-1.187707;2.5709603;0.03256834;4.181084;1.0656462;0.69424003;2.3970582;-2.8707044;-0.030260777;-2.1903183;-2.381428;1.9937991;-0.62541234;0.024597118;1.7421311;0.040360183;-0.57237405;-1.1155632;0.0274797;0.8392224;-2.9859633;0.01602547;1.698249;-0.92020625;0.21226989;-2.9869328;1.7511946;1.0753347;-0.032013066;-4.8840036;-0.039919265;-0.08550617;-4.8995743;0.030269973;0.01242411;-3.4883623;0.5156631;-1.5916128;0.028367009;-5.9546857;-0.8992131;-0.032349233;4.2060566;0.07402275;0.16973075;-0.42421734;-5.502342;-0.59594727;-0.0016277821;1.6148664;-0.011780839;3.895084;-13.950822;0.014842749;-2.1156535;2.0986962;-0.01734018;-0.48491174;-0.026889501;-2.9434428;3.3296022;0.16972733;0.28211898;-3.881182;-1.867463;0.021455133;-0.063879445;-0.040847488;-3.7058136;-1.0875055;0.023229966;-0.0053293337;2.1740098;-1.9865727;-3.397099;-2.9619243;-0.004385688;-3.5726712;-1.693764;0.5630065;2.5887604;-0.04312838;0.010107872;3.0870419;-2.8542285;-0.031436812;0.16149579;1.771169;-0.015420766;0.4330182;0.10291169;-0.12952885;1.0587891;-1.6789559;3.7271795;0.020556519;1.9579183;2.6358955;1.8821782;0.01239902;0.4403617;-0.089023605;0.30706996;-1.5048625;0.00479348;-4.9912357;1.881577;-0.5211737;-4.48552;-0.053814836;0.040282816;-0.009607125;-1.1492776;3.1776857;-3.284368;1.4905636;0.973458;3.6445374;1.4206;-4.8904595;-0.6601591;-0.007927076;-2.2392716;-2.8829963;-2.5567741;1.3978715;-0.06086819;-7.437789;3.3930528;-0.3382173;0.1406524;0.76536906;-2.262663;-0.5113605;-2.5937865;-0.9218758;0.032982115;-0.031321105;0.026719104;0.023223374;-0.04340362;0.05019383;-0.010696138;0.117837474;0.040517546;-2.8433874;0.022371579;-1.1381487;-0.005573314;0.038734987;-0.08249245;-15.365051;-0.7834019;2.0467215;0.43144187;-4.4576893;0.44104132;0.012314728;-0.98830295;-7.5616994;-0.008508227;0.40983373;-0.33328122;2.283394;3.4677625;-0.0277826;-0.17085122;-0.010436922;1.4078642;-3.5894415;0.29780883;-14.184072;-2.076214;-0.022343334;-0.042878695;0.01463236;-1.3843465;-0.0021068733;-0.93841577;1.3413961;0.7116284;-0.015540412;1.1125304;0.0637342;-3.0429885;1.7796462;-3.3278978;1.3278098;1.5976076;-0.0030287472;0.013447503;-1.827073;3.858906;1.2415074;0.44429868;1.7563188;-2.965161;0.025289722;0.09414653;-2.6627736;-0.9753978;-0.5322293;-2.300833;-0.009506613;0.044183232;-6.2556615;0.025636168;-2.2505298;1.2581524;0.2438995;0.098529935;-2.1765525;0.043052133;-0.024421437;-0.13026322;0.016528772;-9.0808;2.9134805;0.02577938;1.1945493;-0.0085488;-0.056679882;-0.69973534;-0.014562958;-0.054211862;-0.0082816;-1.1484772;-2.9266825;-4.623752;-0.23044202;-0.06509326;0.22204489;-2.1499484;1.0548815;-1.1616533;1.9879539;0.005208969;-2.2749565;-0.20340724;-0.0033318612;0.026770845;-2.2597513;1.310929;-0.0113195;-0.01536247;-0.26378417;1.7639639;-3.7840903;0.43655387;0.031688735;0.7760742;1.5287848;0.020916622;1.6310751;-14.085776;-2.0483558;0.82660997;-0.6412157;-2.4388;-0.023993887;1.7198861;0.0049771545;-0.4706204;-1.7020708;-0.09528972;-0.0016695829;0.0014434345;-0.040858567;-1.7256143;0.0115409205;1.667783;0.05891021;0.93814665;-1.9642389;0.94654965;0.9517462;-3.5895455;2.4063337;-3.3282485;-1.7903886;0.0071172435;-1.9475226;-0.029666552;-0.73255605;-0.451536;-0.019595787;-0.004847808;-0.5494541;-0.0100605395;-0.6374528;-0.0077590705;0.021536388;3.886866;-0.021260645;5.4457755;0.5469183;-0.6344141;-0.091197476;0.31087613;-0.11144729;-3.2075002;-0.41939926;0.023228332;1.1065674;1.6985948;-4.9127564;-0.057749614;-2.6565197;-0.039856292;0.0053568543;-1.9436036;-0.018042209;-9.348712;0.035144452;-1.8671886;-0.05312812;-0.033578135;-0.26765013;-0.043081503;1.7481853;0.98080605;0.13155526;0.010047107;0.002893734;1.7655566;3.6537893;-2.441566;-3.7025976;-0.056081176;-2.1722066;0.037535697;1.5947108;0.9143723;0.2250587;-0.854165;0.005547937;1.2673025;-4.12103;0.6440965;0.6771545
-6.6626024;-3.7398105;-3.2662945;0.49695367;2.657906;0.59095645;1.3595942;0.03959304;-2.41045;-0.016033323;-0.9014568;-0.7699246;-0.04846721;-1.1602744;-0.13211267;1.4348893;-0.016527617;-0.56217146;0.015951162;-2.711451;1.8953402;-0.10534645;0.4929485;4.137956;-1.2303219;-2.8187025;-5.6981754;0.7881632;-0.009633131;0.004708157;-0.039327342;1.156067;1.4166006;0.0062762555;-0.02532089;2.581341;0.45977294;1.8688104;2.109648;-0.014165735;1.5830102;-0.002696323;-1.9180566;1.486059;0.42484182;1.6856704;-0.019961983;0.5360214;0.0037586223;0.0185519;-3.693716;0.025292097;0.89190733;0.15542491;-0.04216601;0.034821447;-0.6340212;-0.03315761;1.1290706;-1.7167734;-3.316458;1.3973876;-0.019464144;0.502914;-3.620452;2.6807873;-3.5861232;0.24323778;-0.055150952;-1.1837903;1.3200923;-2.497755;2.4725738;-0.07081154;1.8382654;0.79036134;-0.34645155;0.20862725;0.451171;-0.0089599565;-0.03452366;-0.012948747;2.6366012;1.7467167;-11.820347;-0.5080662;-6.4866033;0.045185734;0.007349951;2.0976892;-1.630073;-0.301768;-0.046447042;0.2306796;0.0062675006;2.4664552;-0.050659962;0.5413138;4.154723;3.1039155;3.49036;-0.03852379;0.021776183;-0.013776935;4.060297;0.0009934421;-1.9344237;-0.006074458;0.014064287;0.0348283;-0.9208054;0.84558403;-3.615504;0.063566454;0.0028121585;-3.2530808;1.9177881;-3.6324925;2.6045988;1.700936;1.8785675;0.07938212;-3.1199203;1.8080443;-0.19155194;-8.969986;0.19353312;0.2607307;-1.653111;0.027581403;0.7572938;-2.8652358;-0.008330185;-0.10258537;0.014775519;-0.46140236;-2.652178;-1.9258467;0.54053813;2.274305;1.3809834;0.017244767;-0.38796982;-0.66044295;0.013903732;0.0021121704;-0.019682553;0.90682685;0.037952527;-1.8362993;-3.4357367;-5.065947;0.14650424;-0.032266367;-4.0971084;2.6788542;0.007883398;1.4334719;1.8402627;-3.3230808;1.2883289;2.9871845;0.3384444;-0.07862303;2.080878;0.037935592;0.090895995;-0.45329514;1.6687727;-0.007395968;0.010588362;0.7012106;0.003413642;-12.907176;0.011647303;-0.22175011;5.8122935;0.13190946;-2.9963388;-1.9860821;0.7600848;0.7437231;-0.5112519;-0.68836933;0.00038891833;0.3097521;-0.041521516;-1.6942292;-2.4317315;-1.177934;0.82523924;-0.56302434;1.1589214;0.34047562;-0.63780284;3.1207297;0.03147211;-0.04147592;-4.463168;-3.5856295;-1.851242;0.05289577;0.005972495;0.03567067;0.09632915;0.39031544;1.1813207;-1.7287477;0.8350021;-0.011962594;-1.3493419;0.17888424;-0.070545636;0.0098630525;-4.183006;-4.061097;-9.342447;0.8952439;0.28658402;1.0044849;1.0472223;0.6816399;-2.3842595;-0.96536535;0.0362154;0.24774712;0.57688385;0.36111006;0.13451159;-0.12410206;-5.219607;1.876883;-0.0005207942;-0.02249818;-2.7396903;-0.8265984;-0.82913727;-0.31338316;0.015033684;6.0423417;-2.1749866;1.2974224;2.8178213;0.1609678;-0.0022858742;1.6295968;-1.4762723;-1.3360192;-0.038785577;0.018263137;3.7031853;0.03884647;-0.42965922;2.3327262;0.04763998;-0.15138662;-2.356717;0.009168096;2.4618993;-1.0019342;-0.9598984;0.0030136302;2.5043483;0.8084195;0.08651162;-2.3186338;0.018375617;-0.05823642;-7.10696;0.02997686;0.0076989015;-1.1311787;0.49879715;-0.20064145;0.019815192;-5.712293;-0.74279225;-0.13062197;3.481494;-0.003424838;0.32862642;3.1743488;-2.3888602;-2.093157;-0.0179409;-0.3780527;0.017219035;2.4016829;-11.539232;0.02682504;-2.2831266;2.3113067;-1.7515191;2.1808434;0.040021256;-0.14892668;4.7740517;0.3707975;-3.3230054;-3.5037272;-2.4965117;0.0009298182;0.15458931;0.004199805;-4.330485;-0.24270365;-2.076842;-0.050656497;-1.9585018;-1.2525196;-2.4976337;-2.6757154;-0.0021969897;-2.4041424;-0.8528849;2.630089;-1.5271965;0.03892876;0.029967444;1.8868148;0.88010174;-0.031928826;0.3654711;1.2534642;0.036647554;-0.10848783;0.0051962654;0.5007079;1.8616598;0.17007615;2.3706183;0.012008535;1.4014642;-1.1516225;0.35822198;-0.011914539;0.6458021;1.3842535;-0.35047755;-2.1684492;0.0011595696;-1.3860849;-0.61069965;-5.5705676;-1.2633399;0.06561045;0.027776074;-0.0005742816;-2.486372;2.0216217;-1.4821087;5.1110544;-0.1929549;-0.05071676;0.12790702;-5.005569;1.0021939;-0.18987662;0.4299358;-1.5569109;-2.6185548;2.1190207;-0.087551974;-8.618178;-1.3173957;-0.88099164;-0.0041056424;-1.0753077;-0.93929946;1.2758865;-2.0131824;0.7316974;0.0019292093;-0.02803975;-0.03085463;0.010796212;-0.007050057;-0.047827255;0.16199747;-0.057612576;0.0012712267;-1.2651024;-0.03269619;-3.9455643;-0.02975604;0.023231992;-1.3180118;-15.085709;0.21176414;1.880041;-1.8418467;-4.4399962;3.8535552;0.0030590766;2.0706718;-7.0486116;-0.0044239247;1.0146804;-0.48860222;-0.59562004;3.6283164;-0.010434429;1.4268347;-0.011576992;2.559924;-2.2806768;0.8747194;-14.630118;1.2555707;0.02326815;-0.02229799;0.007913939;-0.38254362;0.017578285;-0.6461692;-1.0404592;-0.17555922;-0.00836184;-0.3699088;0.025134753;-1.8370475;1.5563165;0.11421155;0.6669178;2.3257303;0.027005425;-0.009864937;-1.0861855;1.1360389;-0.5322145;-4.7012815;0.29393786;-2.6626844;-0.03741367;0.00057346676;-2.138101;-2.224341;-0.5652173;-2.5743487;-0.008036783;-0.088564426;-4.1291704;-0.00083098863;-0.39959988;2.77317;-3.4797359;-0.009905686;1.0640434;-0.027631462;-0.74515796;0.0032747695;0.024418175;-6.0984693;1.5273036;-0.047360476;2.4643164;-0.0006007186;1.4526784;-0.36834642;-0.019919299;0.04770909;-0.028194306;-2.7821999;-1.8222283;-2.7671385;-2.658804;0.03263139;-1.1344917;2.0470433;0.918669;-0.8510281;1.274552;0.035641905;0.6880485;-0.91252434;-0.04010303;-0.002463184;-0.798183;0.41476494;0.030262306;-1.3114942;1.3006341;-1.1585445;-3.295045;-2.61163;-0.01061068;0.13529795;-1.5535139;-0.021911303;2.535294;-14.030575;-3.7515445;0.39730638;-1.0700469;2.2611713;-0.014750835;0.3383145;0.006199783;0.8275765;1.0517293;-0.7833696;0.02470155;0.03515416;0.047747567;1.829256;0.0026606594;-0.08591495;-0.02897808;-1.2176253;1.2385896;0.8173634;2.4820704;-3.776192;2.19096;-3.3602111;-0.26838714;0.057552166;0.060003694;-0.023250645;-1.8498577;-1.6233057;-0.012511226;0.002304289;-2.2350938;-0.038305514;-2.32025;0.019607006;0.013612088;4.6178627;-0.019517245;4.4505105;-0.2990646;-2.3497381;0.6812549;-1.9442357;-0.010658132;3.4936447;-0.3815242;-0.0035010497;0.8820727;1.5911423;-4.37034;-0.005297936;-1.2496953;0.07774487;0.005616045;-3.2449636;-0.002053809;-6.8598633;0.021386895;-2.556646;0.72648233;0.029955497;2.0251918;0.011670307;1.9219195;-1.1717331;0.54267955;-0.0023984062;-0.0060715554;0.24859227;3.839941;1.1081166;-3.7588964;0.026221195;1.4663225;0.015779046;1.684844;0.60438645;-0.47772148;0.69029486;0.009730887;-0.90748435;-2.5933375;1.9080492;0.3004141
-1.5882077;-6.231499;-0.6631896;0.8611586;2.3965032;-0.12041106;1.4087262;-0.033946045;-2.0928855;0.002526261;-0.37843123;-0.30722472;0.021157576;2.9752738;-3.3173091;1.4666952;0.02314836;-0.6867067;0.023695553;-0.57796013;-0.8516659;-0.3008925;0.62455297;3.745441;-0.47252363;-2.1548195;-5.0185113;0.5699422;-0.0038209683;0.015259327;-0.5902425;-1.3120828;3.4550202;0.020550689;-0.0012834764;1.6006566;-3.4449327;0.7589158;0.21177642;-0.11560069;2.6391168;-0.008330958;-2.4175458;-0.5060821;-0.48172736;-0.8278698;0.049325496;-0.10145914;0.054766886;0.77175677;-3.6896656;0.0024939203;2.2983994;-1.0796974;0.025910368;-0.006580718;-0.038576685;0.029009119;1.4508482;-0.41690448;-6.5157504;-0.67273545;0.02460726;1.1156577;-4.3125973;2.2596116;1.7242516;0.69135356;0.40903082;-1.0907569;1.6303183;-2.1587608;3.3363552;-0.25955233;-1.2131301;-0.5539288;-1.9034321;-1.3086627;1.1157409;0.045417443;0.022429371;-0.010360196;1.8790128;-0.1520883;-11.295699;-0.95047045;-1.0539039;0.04838012;-0.009363603;-0.20438577;-3.343356;2.7158306;0.019625092;0.021820907;0.009236086;0.39517373;0.5431295;-0.30751374;-1.42874;3.7014701;-0.11549248;-0.01557335;-0.030585874;1.1003674;4.003529;-0.001297648;0.9697203;0.03560724;-0.05084431;0.0003832488;-1.8938309;0.46901354;1.1945024;1.5609134;-0.020498052;-2.1193156;-2.9671052;-3.8450963;-0.39777917;-0.10905264;-1.0839789;0.020567184;-1.2771561;-0.3512775;-1.898657;-2.9605577;0.1076833;-0.06782239;0.8209483;-0.051248074;2.582379;-3.8368273;-0.024317596;0.73287916;0.024190156;0.30721563;-1.2904066;-1.6327232;-2.2918909;-2.2247605;1.0352736;0.02039173;1.3168104;0.8566143;1.0131389;-0.02551673;0.072811544;1.9396065;-0.009249756;0.88748324;-4.80637;-1.429087;-0.0231692;0.0018853402;-1.3795142;0.40730456;-0.04300892;3.1923022;2.5556536;-3.1760588;0.42562416;2.2041507;0.46298292;0.81751627;2.176434;0.006685445;0.34334356;-0.21483484;-0.0356273;0.016522368;0.003799054;-0.6332362;0.046985824;-12.141711;0.0070392634;-0.022996262;1.2566375;1.4857095;-1.4148083;-2.366213;3.616068;1.2330846;-2.738975;2.3569987;0.07412648;0.6826027;-0.013607047;-0.5139682;-2.5005136;-1.7812766;-2.693431;-0.6994191;0.06939803;0.5962734;1.4067637;3.3791683;-0.04457987;0.8949146;-3.6294446;-1.2143439;0.9608714;0.012212314;0.05037707;0.028710714;-1.1549364;1.246676;-1.8924707;-3.083376;2.683366;-0.0011496303;-1.2576103;1.636298;0.76472443;0.009315979;-4.7153087;-5.3271728;-8.889648;-2.6396458;-4.669233;1.6446795;-0.25892946;0.16298802;1.6622233;0.80100286;0.004066037;-1.0381122;-0.7430409;-0.14871633;-0.03999387;0.19091687;-5.2341413;1.830976;0.017224038;0.029623218;-1.6372153;-0.4158636;-1.5156052;-1.9593428;0.021850934;2.7473736;-1.6695093;-2.2604434;1.5128828;-1.9289452;0.15567006;1.7289634;-0.1304566;-1.3366742;-0.2406896;0.04711038;0.54061407;0.019467268;0.038268168;0.5692486;0.028852833;2.2450526;0.70491105;0.033606652;2.9387894;-0.8902926;-1.2474821;-1.1692044;-1.3639762;-0.3382106;-0.0057406933;-1.7094871;0.016861118;0.13076992;-4.6618476;-0.02625724;0.03631147;0.4444697;-2.6418343;-2.773019;0.00029106482;-2.1381452;-0.15173335;0.6876913;3.9532752;0.002144844;-0.13655142;4.1270914;0.30923057;1.8216975;-0.03773396;0.559422;0.011047954;2.3276925;-10.835486;-0.046820413;-2.746565;2.1585362;-0.50309;-0.14306815;0.013653347;3.2349415;4.262425;-2.832674;-5.402874;-2.9644241;0.46642974;0.02228841;-0.13289364;0.020776909;0.23186517;1.9066037;-1.4004593;0.006651928;-6.36919;2.3754303;-1.5907733;-3.3398242;-0.0062298896;-2.4536629;-2.056946;0.54797846;1.339803;0.06759772;0.025024524;1.076935;0.719614;0.049648765;-2.848075;0.23765942;0.025581697;0.75239766;0.00038077604;0.39650166;2.444464;3.955161;0.14850558;0.012021959;2.681719;1.5459634;0.80045843;-0.030855414;-0.21438041;1.2304491;1.169388;2.7649088;0.021000618;-2.5065515;-2.1280746;-4.519438;-2.2501595;-0.006531362;0.058048904;-0.0023998783;-1.6246632;-0.17024225;-1.1920395;1.561177;0.5829926;-4.285946;0.32042974;-4.0976686;0.0694903;0.7233722;-0.8460657;-1.2183859;-3.3117483;1.8693609;0.5480722;-3.291537;-1.2140361;-1.5045562;-0.021825973;-2.5650365;-1.2040645;-2.0466862;-3.7046714;2.9690664;-0.0035071;-0.020951802;0.007921939;0.046127256;-0.031450678;-0.0075867395;0.04277526;0.046364643;-0.023055654;1.63403;0.0035435352;2.5203726;0.010300865;-0.034454055;-1.9785993;-13.761533;0.18543175;-0.6844959;2.4552944;-3.481925;1.0680609;0.018391985;2.1173499;-5.6405263;-0.040910836;2.134041;-1.3198153;-0.67122376;3.908363;0.02552524;2.1326237;-0.00347131;1.2989742;-3.633248;-0.28269255;-13.113819;0.9514521;-0.01414583;0.033805087;0.011257793;1.7132797;0.024419133;-3.1142628;-0.33241695;0.24272475;-0.019020835;-0.074658096;-0.022136968;-0.03264535;-0.35706732;0.27891168;-1.6987451;-0.35864878;-0.020027814;-0.028319413;-1.3938209;-0.7537055;-2.1465185;-4.2777877;-1.5065084;-0.9051587;0.02555808;-0.0015054975;0.6335142;-2.018482;2.0244417;-1.1806786;0.004926065;-0.023858216;-3.3337874;-0.0014683288;0.60484356;1.8898203;1.5149232;-0.039113298;-2.116331;-0.04929582;0.15047823;0.04537733;0.022391109;-3.6525905;2.763606;0.064308986;-0.276491;-0.023138508;1.1915156;-1.1658958;-0.013556463;-0.03454901;-0.10944469;-1.2680649;-3.0841746;-2.1035454;-0.31414592;0.006921152;-1.2922839;1.4364752;1.1952554;-1.3803729;1.9611007;0.025639199;2.3286304;-3.8688374;0.05183988;-0.003378803;2.2039773;0.34596863;0.002960785;-2.459474;2.9379215;2.4100494;-3.135649;-3.9509587;-0.024485534;1.2596785;2.1962101;0.008339149;1.6489203;-13.374621;-1.7174996;-1.0044775;1.5351037;1.8675247;0.0073597073;0.76275444;-0.002938364;-0.5940274;-1.0627283;-4.233931;-0.0071568624;0.032927036;0.006630394;-1.6482857;-0.008208932;3.877079;0.038997903;-0.12505908;1.1905335;-1.357457;2.1937802;-1.4261212;2.6696188;-2.9135551;2.3528633;0.054642886;0.772097;0.015079906;-1.6521077;0.10529719;-0.041268606;0.033420984;-3.815561;0.00074695767;-2.4166222;0.022830792;-0.016415814;4.2959046;0.04131003;2.0863812;0.5502073;-1.0552003;-0.14897996;-2.6628764;0.08024589;2.3183453;-0.510141;0.013340208;1.8500307;1.9022636;-3.1075673;0.020283492;1.1543407;0.0160733;-0.0031146957;0.08219302;-0.014418566;-4.799813;0.008310024;-3.7972388;-0.22359274;0.058872636;3.5880299;0.039805036;1.5782096;1.0862043;-0.031842336;-0.015308081;0.025950897;0.20364976;1.8091111;-1.150278;-0.5224027;0.009651616;0.51671904;-0.011256385;0.69718933;0.79390526;-0.69696164;0.7839835;0.021204712;0.2230217;0.1962576;2.346437;-0.40399113
-2.4215086;-4.359703;-4.273855;1.4348018;0.7888905;-0.112551115;0.73578477;0.017211957;-2.5808263;-0.052033413;-3.4640627;-1.528448;-0.00030759498;4.730222;0.026134131;1.5748827;0.00018106446;0.9005022;0.0069858115;-0.8354234;-0.50293946;-0.42065185;0.37204;4.091884;1.1470202;-0.80238384;-3.0643985;1.0320784;-0.01815317;-0.070503436;-0.47604102;-1.5169046;1.3638191;0.04504144;0.07469042;0.5088173;-6.085606;-0.02454264;1.7890095;0.3123591;1.7115945;-0.0102374265;-4.245364;0.06403626;0.3096715;-1.2862709;0.026535265;0.1337898;0.0031139334;-0.09671146;-3.2029202;0.028151771;0.41564107;1.1618814;0.063994616;-0.055191033;0.6390818;0.029380485;2.3677275;-0.38714343;-7.829066;0.7928761;0.056824904;0.08673526;-2.5275898;0.079348445;0.8828662;0.89171624;-0.06706636;1.5668085;-1.4984843;-2.723776;3.2858174;-2.2069428;-3.7991688;-1.1139898;-2.401111;-3.884573;-0.55709475;0.038859386;-0.014491133;-0.03711023;1.6570135;0.27193362;-11.815286;0.25279292;-2.9222271;-0.023981724;-0.032530308;1.2260897;-4.434984;0.6988476;-0.057329286;0.42447633;-0.00871569;-0.6933862;-0.09309362;0.3439613;0.6599861;5.192677;2.3416486;0.03381053;-0.00688599;0.43396032;4.458231;-0.01923814;0.98163265;-0.0035312613;0.052157138;-0.01373266;-2.8513746;-0.055309612;0.7537622;1.4950095;0.016656784;-3.1115367;-0.6224152;-2.8729866;-0.88252074;-3.2220643;0.5827705;0.0380381;-2.7115722;1.3139136;-2.6692746;-2.7975068;-0.92931104;2.049295;1.8533683;-0.0029039464;2.150886;-3.6480224;0.016084678;1.3641926;0.031633757;1.1296093;-0.17147781;-1.4926234;-2.3030443;-5.096141;-0.16289608;-0.024179053;0.6449449;-1.5428075;-0.88037235;0.020878268;0.029365627;2.717535;0.027788557;-0.9082699;-4.3404393;-2.231152;0.60855585;0.031781655;-1.3927376;2.7952611;0.016791023;1.7217394;2.06966;0.2500427;0.6077297;3.5335662;-1.2400111;0.2715259;2.9049523;-0.0027323556;-0.1305193;1.5966522;0.7486825;-0.02000537;-0.002907361;-1.0475286;0.051173955;-12.10363;0.026930934;0.94820106;-0.949904;1.6164199;-5.3040667;-2.1724966;1.1648126;1.5329903;-1.6438919;-0.21261348;0.0024664977;0.3351455;-0.0045153988;1.1958764;-2.7989943;-3.2559247;0.36343387;-1.1174282;-5.450916;2.2912319;1.4517592;-0.009861966;-0.1652274;2.7656403;-1.1595612;0.9065926;1.5401739;-0.010731533;-0.027439734;0.027483772;-3.6905134;-0.0528371;-0.7309852;-1.6892257;2.2412336;-0.0032755737;3.2308817;2.3981056;-0.25345418;0.010035688;-1.2490599;-1.7764639;-5.496243;-1.9470904;-2.5873468;2.7499943;-0.602613;0.30921423;-0.1489685;0.12642804;-0.027929107;0.29152736;-0.9370836;0.020705586;-0.003796455;-1.3905357;-4.862594;3.0492191;-0.052365836;-0.010450592;0.5171565;0.2342558;1.8301338;1.0418801;0.018066868;2.3397293;-0.26745406;-1.939393;-0.005705131;1.6290209;-0.06967095;-1.8619523;-0.6829318;-1.3652626;0.750053;-0.017508414;0.062110644;0.027997812;0.00042920385;1.1043988;-0.010911979;-1.073949;1.5579839;0.015775431;4.5366216;-0.22226152;0.68928;0.6169464;3.908481;0.3391222;-0.060684144;0.8469931;-0.008816387;-0.015898172;-3.6692443;-0.024293557;0.023412498;-1.3939614;-0.53193015;-1.617073;0.010356259;-4.5831914;1.3040898;-0.1786578;2.8315773;0.048511304;-0.9259431;3.1339712;-0.75857043;0.2076104;0.024759533;-0.07121218;-0.014205931;2.6451006;-7.3435044;0.019761764;-1.5649424;2.6026435;1.1646639;1.6722436;0.0053217;3.199759;4.2471504;-3.7450569;-2.5260885;-1.6578401;3.2357;0.016355101;0.1507726;-0.004234711;-0.69017786;-0.5699751;-3.178788;0.030115917;-3.8420498;-0.5383734;-0.19847202;-2.9809363;-0.0070498297;2.0256689;-1.7752522;-5.3735185;0.7106951;0.0013899397;0.0069799107;0.8620554;2.3105056;-0.052753754;-2.511862;0.7979468;0.0083215395;0.30404308;0.084124476;0.9597484;1.1736337;2.5430293;-1.6325605;-0.14471847;1.5343124;-1.7465771;2.7001414;-0.09273843;-0.4515292;0.8770369;3.4027138;0.5260264;0.031671964;-1.657911;-2.9274695;-6.0994873;0.17500378;-0.0050730384;-0.047819547;-0.009040404;-1.0960907;-1.2720228;0.8485041;0.13563874;1.5630285;-3.46851;1.5607841;-4.391826;1.0374461;-0.19216378;1.8087177;0.75202435;-0.83902985;2.9512713;-0.046741683;2.8409464;-2.2298386;1.4304312;0.0722394;-5.9527073;-0.75387263;-5.1649146;-1.1054182;2.7383966;0.097110264;0.04507768;0.022443818;-0.022143722;0.032495145;-0.019244885;0.13922879;-0.019193329;0.0632078;1.5587612;0.045838412;3.046954;0.0028539372;0.004970005;-2.7058663;-13.968174;-0.35518193;-1.3853644;1.314072;-1.0483998;0.76107264;-0.038407292;-1.2152884;-5.1970763;-0.0005559258;2.3954062;0.4349199;2.35422;1.8690256;-0.027796365;-0.20333728;-0.0456649;-0.9744019;-3.280444;0.98649514;-13.3933735;-0.8211597;0.014593938;-0.026397033;0.02187495;-0.08870652;0.08312337;0.8030088;-0.01070081;1.5888456;-0.018286908;0.70937;0.019032389;-0.038284734;-0.16245411;-3.6120224;-1.1114235;2.0769103;-0.0048951814;-0.024237314;1.4358957;3.1604466;-3.599077;-0.5203715;0.6867499;-2.1990077;0.0287061;-0.008609429;-0.25897682;-1.3875072;0.77079415;-1.2756608;0.0019991796;0.004966728;-0.33405903;-0.038808037;-1.20855;1.2922093;-1.380717;0.02428291;-0.598711;0.022456782;0.38521042;5.944882;0.09955058;2.7067256;3.3383076;-0.005878459;-2.8278239;0.017992143;-0.5962395;-2.7204125;0.03896135;0.009665408;0.0003650129;-1.0020955;-2.789389;-0.83788204;1.4855791;-0.01861266;0.5305686;0.56250316;1.2290266;1.3545158;2.031781;0.053610045;2.8736286;-4.482042;-0.072341;-0.011440759;0.17718144;-1.1668301;-0.009046233;3.9648886;1.3534807;0.39305568;-0.6453158;2.1574817;0.0072887954;4.053599;-0.083495684;-0.009476188;1.9336123;-13.2093725;1.2729415;0.5946834;2.3773937;-1.8267509;-0.023983259;-1.178209;-0.015361983;2.0797741;1.187089;-0.49856767;-0.012292041;0.031097943;-0.010992546;-0.15064368;0.026679846;-0.96998376;0.016414374;0.59921074;1.3648974;-1.8382369;-0.40101108;-4.153321;3.477419;-3.2433047;-2.3497238;-0.04069371;-0.18475755;0.02143349;-3.3798032;-0.22743148;0.03709153;0.07027915;-2.0613825;0.011641841;2.1896138;0.031497374;0.079789296;4.3801117;-0.02469025;3.0686455;-0.80666804;-2.3460696;-0.06998901;-1.7902737;0.26318237;3.411173;1.1791416;-0.020434031;-0.78470004;3.233118;-4.6108613;-0.026783952;2.9401557;0.004171252;0.035780888;2.0237842;0.03550772;-4.5705132;0.003497322;-1.2297932;0.0721607;-0.020023815;1.904242;0.029682858;0.903686;1.1580322;-0.65923864;-0.02540417;0.06347937;-0.06684551;2.346754;-1.1633846;-2.2234879;-0.02492048;-0.26243204;-0.031159852;-0.10473888;-1.1095778;1.1775379;2.4283068;0.020143267;-0.24642101;0.049977656;1.0659902;-0.39402297
-1.3129443;-1.0939255;-3.6269767;1.2076737;3.0177784;-0.017127033;2.010422;0.07387891;-2.355885;0.022070438;-1.7019589;1.9227084;-0.021618709;4.051385;-0.2985264;1.0888348;0.060448855;-0.03995653;0.0017079554;0.8480687;-0.5337618;-0.8786725;0.8571843;3.32681;0.86559933;-0.37971997;-1.7864689;1.7345337;0.042202555;0.018282788;0.2849192;-2.649666;1.9067078;0.008668031;-0.04304678;0.5854156;-2.0156705;-2.931699;0.9569294;-0.3046194;2.4213998;-0.0038383242;-1.592731;-0.7277148;-0.6686653;-1.0276129;0.37218493;0.87571913;0.039713375;-0.65425783;-4.0211515;0.011119019;2.5329256;-1.9212661;-0.025597665;0.018328989;-0.6713133;-0.007647065;2.9684403;-1.9105809;-9.506757;-0.47518694;-0.021610327;0.5509048;-5.109555;1.6829408;1.9223423;2.963347;-0.029009249;-0.6796266;0.4436308;0.5206984;-1.2578079;0.21907227;-1.6242958;-0.14208715;1.1340237;-2.1410828;0.86869335;-0.0019714963;-0.010008132;-0.029262606;1.8215765;-0.3966787;-12.502675;2.7613933;-5.9296713;0.0659037;-0.02847307;-0.5583117;-5.1695213;-4.118863;0.008722796;0.048420884;-0.018329045;-0.4335984;-0.012461538;-0.076021634;0.39940777;3.2423172;3.079109;0.0041689123;0.010332031;3.7854362;4.4548807;0.0049393377;1.4829608;0.013238317;0.031051895;-0.0117356945;-2.960125;1.2304986;1.863094;1.1326921;-0.013295749;-1.1578531;0.05060199;-2.873309;-0.5806302;-1.181946;-0.27892458;0.012086446;-1.654919;2.1760774;-1.1988089;-4.7485304;-0.14267652;-0.04524197;0.80511683;-0.009148723;-1.0172615;0.9915646;0.013370899;0.36390013;0.0022630966;1.3895693;-0.7328289;1.5572815;-0.64531255;-3.4834263;2.1941955;0.0038157972;0.4816522;0.72701657;0.7884151;-0.007599464;0.008231577;4.07521;0.0038134635;-1.8324106;-1.0400983;-4.119148;-0.36649418;-0.07045702;-1.9731106;1.3776804;-0.036770117;0.3093512;1.6267347;0.12529643;1.5877743;-0.11097405;-0.19700637;-0.0027629207;-1.2044432;-0.02326797;-0.20009665;-1.381207;0.10309118;0.07088681;0.035706475;-3.1849134;0.030099135;-12.561323;-0.05079197;-0.15923427;-2.0551329;2.754772;-4.8738246;-3.4120147;-0.657737;3.430316;-1.1522309;0.4050751;0.027948845;2.1713023;-0.01755589;0.9113462;-1.9468147;-5.7099986;0.09890197;-0.9584661;1.1849966;1.6720984;1.5207896;1.1755505;0.68832487;1.6398515;-0.30831346;0.64344126;2.0203836;-0.008189047;-0.013810606;-0.004266152;-0.31719428;0.7261519;-0.64632446;-2.4720395;1.064416;0.052320216;1.6148918;0.37919548;0.006425146;0.026918905;-0.0247385;-2.2875664;-1.877626;1.2428135;-2.8963876;2.5713608;-2.5118744;-0.4450874;1.8850523;0.22788714;0.08795154;-0.42417732;-2.5746608;-0.011731203;0.028584737;1.2760133;-4.946727;2.0796416;0.014325086;0.0149515;0.67958236;-0.06887959;-1.1831458;0.22449324;0.06671093;0.6373211;0.962082;-3.115549;0.010775003;-0.6816198;0.0054123797;-1.0304619;-1.8458841;-0.8580054;2.6003506;0.33069065;-0.31806117;0.024770264;-0.5039447;0.7771608;0.17677034;-1.7873353;0.83570844;0.01821713;3.8902993;0.8741514;1.6219714;-0.12149646;0.81732875;0.2083315;0.057342246;2.5033536;-0.0077357786;-0.013517125;-2.884137;-0.030127067;0.038384307;2.2828937;-4.469327;-4.9395623;-0.031385746;-0.2532842;-4.113056;-0.021954684;1.4622508;0.001136808;-1.179429;2.572453;-1.0387346;-3.3398144;0.00069831184;1.1792833;-0.023829961;2.9654453;-6.693921;0.046222832;-0.17604232;1.7603215;-1.9536535;4.045589;0.00065301766;1.2468982;2.3782244;-0.2655752;-4.2569127;-4.1094165;2.029635;0.04442637;-0.07308844;-0.022085287;-1.0784338;0.7091007;-0.14713229;-0.025161661;1.0231357;-0.8629907;0.20934336;-5.2660418;-0.043832812;2.984979;-1.6554891;1.8453645;1.7169552;-0.022969471;0.0041873083;-1.5210689;1.8439869;-0.017648367;-2.443095;-0.6757089;-0.05142651;-0.299879;-0.031581637;0.6922803;2.562119;1.5726019;-2.318974;0.6440677;2.7709804;0.08334524;3.5577137;0.5808291;-0.3334104;3.550725;3.3178253;-0.00020463503;0.008505677;-1.0256238;-3.151709;0.8336438;0.4537097;0.0138842715;0.04497205;0.04869064;0.0352332;-1.7166207;1.1795886;0.97272134;0.34018475;-3.7708623;0.8314792;-4.7097926;0.93402463;-0.03278708;2.575389;1.090356;-0.3781269;2.523082;-0.06512027;0.46709555;-0.37387154;-4.0592856;-0.032002233;-1.4775594;-4.084972;-1.3584373;-4.2807894;1.1092788;0.050198164;-0.024644343;0.001766554;0.062076554;0.07254235;-0.025474465;0.014247778;0.21750847;-0.05268932;-1.4251233;0.024473472;2.5404384;0.0094605;-0.018975211;0.782388;-14.159727;-0.30615914;-1.0017375;-1.1875683;0.24970447;3.5310168;0.03355384;-5.7737575;-4.9598694;0.02210962;1.1948739;0.89855945;3.467105;1.0608842;0.0939602;1.7170442;0.011123327;-1.9575402;-3.1205952;0.3914485;-14.230724;0.060338408;0.009990092;-0.007406522;0.018057067;-1.7320306;0.00036073217;0.3808074;-1.7501653;2.088024;-0.020022368;1.0806789;0.053770807;0.14393398;-1.5529748;-2.7504818;-4.0735207;2.428875;-0.035535384;-0.0036109933;-1.2465128;0.66855204;-4.039169;-1.512448;-0.7551355;-0.9557038;0.004086532;-0.01862888;1.211615;2.3242142;1.7108438;-1.2644684;0.08243401;-0.0796192;1.2705603;0.019109456;1.4872535;-2.1753345;0.7913426;-0.01037421;-0.61650443;0.015459922;4.9135685;-1.2532579;-0.02824997;2.8726635;0.9395724;-0.028893948;-1.5803926;-0.010918484;-0.17446229;4.890611;-0.0007403009;0.005237311;0.42374593;-4.1860094;-0.6508799;0.17287618;-0.59779257;0.024568213;-2.1783333;3.526393;1.9400212;0.6338036;0.101852156;0.03110681;2.8844311;-2.365397;0.016755693;0.027991712;0.71515316;-1.1661865;-0.023346625;0.4787178;1.1818892;0.13712034;-1.6960447;-2.4111078;-0.018735142;3.4477143;-0.38800177;-0.02899433;2.9928446;-13.586089;-4.4441624;0.57787496;1.7923584;-3.063391;-0.00018353666;0.5561496;-0.01426887;0.042224307;1.149828;-4.028444;0.03116025;-0.008128783;-0.057612654;-0.454952;-0.019315427;0.8169346;0.030283077;1.7178748;0.8649789;-0.8640631;-2.6998296;-1.4820591;1.6595955;-3.1537395;-1.9419342;0.07050962;-0.47206938;0.0019491811;0.34221715;-0.8712302;0.0516029;0.02566391;-1.1883948;-0.033245783;0.46004862;-0.046356373;0.024213796;3.9437788;0.022805197;2.2935221;0.54924446;0.5274068;-0.072039664;-2.2990618;-0.0151533885;3.319647;1.3694927;0.3433936;1.6786786;1.9765514;-1.4070671;0.0028309766;1.2441814;-0.0091264;-0.0070115514;-0.91741604;-0.023469657;-1.6212777;0.035015654;-1.9492176;-0.06830789;0.050992794;-0.8140787;-0.002194263;1.6819562;3.9810493;-0.015832495;-0.000660821;0.0052856905;-0.65472114;1.1868094;0.46094567;-0.8264515;0.03860622;-1.4365544;0.05730606;0.29432175;-0.062011167;2.020185;0.50897074;-0.008201372;-0.6374914;-2.2761388;-0.3595375;-0.7897623
-2.7772784;2.24759;-4.28736;2.761245;0.9843524;-0.04263365;-2.3298411;0.032149795;-0.025808644;-0.006406005;0.89633036;2.3555305;-0.017848656;2.344804;-0.9222563;1.0828091;-0.03539204;-0.61177427;0.038480874;-0.60166526;-0.86501604;-1.5987388;-0.7557129;3.0864484;-0.52675587;0.7079918;0.5738053;-2.3593974;-0.012611921;-0.027780602;1.1728235;0.50731754;1.9861546;0.0014036961;-0.036586724;0.9177949;-0.5366965;-3.8125463;1.999301;-0.3056057;2.2321823;0.020328624;-6.3025007;0.8063474;0.008861277;1.3161572;-0.064896226;-1.0683243;0.000503553;-0.14091109;-4.369387;-0.028112475;2.4822102;-1.9730585;0.02944287;-0.032398045;-1.575468;-0.00092212594;3.7184446;-2.2271702;-10.159787;-1.3457195;-0.008344716;0.7229859;-2.1135955;1.431565;2.341036;2.5574083;0.015804112;-0.16909614;-1.1436678;0.53482455;1.0968453;-1.3607088;-1.1155717;-4.028181;4.507385;-3.264648;-0.11231544;0.022473484;0.023811618;-0.007857021;1.4690211;-0.29562896;-12.5346575;1.8647306;0.5919031;-0.004925836;0.009302181;1.7620798;-4.702358;0.15304609;-0.028501308;-0.10183257;-0.010291927;-3.910939;0.0188995;-0.17736329;1.4087193;3.8762906;1.1854174;0.0039789127;0.0017196251;0.64977086;4.414597;-0.0014782426;0.8976905;0.00043476833;0.004259079;0.0019221114;-3.213705;2.5843277;1.3351909;-1.0165068;-0.010059328;-1.0000703;1.7327216;-1.3949903;1.1269844;-1.5615157;0.17023253;-0.019775022;-6.2002506;0.9124688;-2.154908;-1.7352271;-0.3836134;-2.1909297;-0.25406927;-0.020140184;-0.20511305;1.5450398;-0.036876854;-2.1233006;0.0005401723;-0.16140595;-1.2509888;2.1772177;-1.6398869;-2.880499;1.1151322;-0.03416197;0.22611064;-3.0858881;0.15959911;0.02461737;0.021841422;0.88056296;-0.016144196;0.10107147;-0.033393323;-3.60511;0.15056577;0.0023885996;-3.0559301;0.28552434;0.0068135513;0.62859297;1.1317619;-1.327039;-3.106657;1.0674359;-1.8534546;0.18580927;-1.9477078;-0.05166747;0.9209529;2.5126772;0.75206184;-0.0142564215;-0.0040003704;-1.9779602;0.03015542;-12.942157;0.0075177783;-1.615748;0.6861485;2.1765835;1.7286115;-2.213876;1.3377197;3.872164;-1.2120538;-0.88074774;-0.010731254;-1.2836059;0.020355998;1.475558;-1.8787497;-4.701165;1.4411672;-0.30325848;-4.0916743;-0.5348513;0.9531118;0.94774085;-0.18791772;-0.1716906;-0.039785627;-0.971037;0.5534715;-0.051409137;0.071781695;0.023785397;0.6846895;1.1053284;-0.9401023;-0.8633591;2.5873601;0.02790421;-1.3805714;-0.53777695;-0.011322656;-0.02706372;-0.18783349;-0.15769789;0.9688226;0.74763215;-2.3378828;1.952112;0.74831146;1.2345405;0.6749041;1.2549897;-0.05803649;-1.0056611;-2.4502428;-0.0143624535;0.0052127596;-0.1530527;-5.2184343;1.0582972;-0.040258374;0.08051008;2.129996;-0.11517436;-0.30926603;-0.4774606;-0.051346052;0.8287394;-0.648459;-0.12142317;2.935818;1.3301382;0.018366903;-2.8274715;-0.85454583;-0.97447777;3.6140575;-0.10436702;0.24658526;-0.030458724;-1.3314006;-0.4524812;0.061444562;-2.6617146;1.1932875;-0.034616426;4.393747;3.0693016;-1.4764265;1.2369796;-0.3523237;1.3298166;-0.021512328;-0.20322524;-0.043288283;-0.0050944835;-0.43641487;0.034805227;0.02146377;0.934205;-2.158767;-4.1032686;-0.023605863;-3.6161258;-2.8845465;0.010798125;-3.9196193;-0.00042195298;-4.8745365;2.4953158;-3.610533;-0.7999639;0.028025476;2.216276;0.2298682;2.1168828;-4.2148714;0.005682773;-0.5549093;1.2929314;-0.6728465;2.5578861;0.01079864;1.8469143;0.36843145;-2.1679103;-0.65856934;-0.6342437;3.010647;0.0036099977;-0.022507483;-0.013662858;-0.6217026;2.3595004;1.1722683;-0.015205079;2.1751292;0.8565422;-1.2377963;-6.604279;0.018616237;3.5832841;-0.95229167;-3.4536972;2.8326814;-0.011386195;-0.1012101;1.7618258;-0.06581013;-0.042163916;1.9838002;-0.83545333;-0.004419699;0.32397583;-0.0014690583;1.3795836;3.7872527;-0.21797232;1.8044466;-0.16006069;1.6234288;-0.51951206;4.5228243;-0.05441063;-0.53994125;-0.26656827;0.7275726;-1.7898586;0.0024475744;-1.5238305;-1.3968995;0.9608677;-0.17660436;0.0053899856;-0.04700581;-0.03532465;-1.5769528;-2.432147;-0.06724862;4.498924;0.48710465;-6.753738;1.1804309;-5.066529;-0.9122;0.008034405;2.6459503;0.40831667;0.036297224;2.3042028;0.030686311;1.0856206;-0.14542818;-1.2766858;-0.022258548;-2.3994598;-2.9625478;3.7004688;1.479473;1.3068951;0.024113733;0.051278517;-0.0044227676;-0.0120342625;-0.017518269;-0.028173693;0.39976445;0.12345522;0.027709732;-0.9981108;-0.011178536;3.2660086;0.1401173;0.06338556;1.4022895;-10.37234;-0.80447435;-0.34217748;1.9638354;-1.024529;2.9405818;-0.019914452;0.48456842;-4.316326;0.002540021;1.3347132;-0.7783054;1.4423608;0.6213998;-0.044797193;2.2664566;-0.0015110505;0.42013362;-6.3431287;-2.729815;-14.106405;-0.028010203;-0.0016888333;-0.012857047;-0.012323864;0.19747551;-0.0025749693;0.53316545;-0.79750824;1.7113831;-0.041298967;0.10563293;0.0027393133;0.45305738;0.2043186;1.5627784;-4.19165;0.29388228;-0.02647681;-0.06682844;-1.7831004;0.12881725;-2.8315146;-0.6574383;-2.6075132;1.5322361;-0.0033460492;-0.04116763;2.375257;-0.53310066;-0.9285175;0.30309802;-0.0030287413;0.051034983;1.5303811;-0.100371376;0.6217574;0.6126767;0.52159125;-0.0529343;1.1480558;-0.0266903;1.9926921;0.3973923;-0.028606592;1.7507486;3.3015082;-0.0073376424;-2.7109702;0.0135712605;-1.5543531;-1.3759586;0.0041217674;-0.00727011;-0.18247928;-1.7186772;-0.5857892;-0.39789572;-1.495377;-0.007930734;-0.57848394;0.40913633;1.1933429;0.96626186;1.2506946;0.06433995;1.5650039;0.42132792;0.0047192466;0.054095328;1.3552239;0.037468944;0.0027181755;2.0110552;0.84910464;0.746853;-0.91307443;-1.1801616;-0.0065744664;2.527024;-0.9058026;-0.04190245;1.8957498;-13.010757;-1.8544408;0.90044487;-2.5214443;-3.4974573;0.09406625;0.022361506;0.0070417086;1.0213364;-0.18091613;0.06055885;-0.0068920525;-0.020845499;0.002420103;1.3339173;-0.02141191;-4.7266855;0.025638187;1.2183667;1.1691477;-0.4528529;-0.4683357;-1.9863219;1.8524308;-3.1516387;2.149331;-0.028473396;-1.673197;-0.011526964;0.028663814;2.3791714;-0.032535274;-0.0022102285;1.2631701;-0.014285446;2.1014216;0.020863168;-0.00084578997;3.9335818;-0.0075963354;1.9722086;1.2315841;2.0352082;-0.0034497094;-4.117548;0.049485635;2.9922845;0.38349602;-0.028792603;-1.0674338;0.39197147;-1.3282099;0.03135924;3.4400291;0.050809417;0.017573932;-1.76454;0.031617414;-1.8577642;0.03794409;-1.3216813;-0.043857314;0.029076982;0.2537189;0.0024288697;-1.9554912;1.6141816;2.1691692;0.0077692172;0.022225128;-0.78150505;-2.2459185;2.2299023;-1.382306;0.058731023;1.6981434;0.0010446045;0.026659792;0.3085454;1.3068842;1.7309477;-0.03716181;-1.019938;-2.3253255;1.65666;-1.7368525
-1.1553813;-1.4030305;-4.679351;3.3388562;0.23308167;-0.0047747088;0.8872743;-0.0071490486;-3.1439776;0.020199455;2.20746;0.4410322;0.13334045;-0.23162526;-1.263548;1.4462;-0.027133044;1.3788241;-0.0028670528;-3.2794633;-1.0377083;-2.3845506;0.4373896;3.3371928;-0.35130048;0.033265725;-0.6982048;2.485986;0.06845888;0.015639372;-0.17158937;1.4691316;0.4551029;-0.012063899;-0.009801285;0.32999852;1.9107774;-2.4542265;-0.0041465918;-0.43703616;3.7036586;-0.009170312;-4.86609;3.8497837;-0.50242907;-1.4825269;0.034965407;-0.14134218;0.0038433184;-0.04720909;-2.1679196;0.032247476;1.8507028;-2.2334495;0.040305536;0.055131167;-2.0143542;0.16907257;2.2253282;-1.3475597;-10.694671;0.1786106;-0.03822627;1.2818022;-2.65504;2.384463;0.42862955;2.0258334;-0.029095395;-0.75043863;-1.582956;-0.08460197;0.38617563;-2.0947914;-0.73565716;-5.2035446;1.8492045;-2.8855286;0.25704917;0.0035035927;-0.087953694;0.012049309;2.267812;-2.8891459;-12.4516735;-0.7337011;-0.12599123;-0.003454586;-0.028075943;1.3608749;-2.157447;2.4289382;-0.01783644;-0.14844814;0.0149933705;-5.077102;-0.04944086;0.18592648;1.254364;2.6217482;1.7242563;0.09381442;0.01231712;2.5981693;4.1949096;0.07629648;-0.2803943;-0.053786058;0.027111428;-0.011221781;-4.2200494;1.6449137;-1.214165;1.2369713;-0.012387174;2.7288394;1.8438506;-2.5829527;-0.8812803;-0.07860541;1.4166803;0.07446899;-3.8317344;1.2027333;-2.5211575;-0.47444743;-2.808805;-0.41241685;0.2651232;0.06867809;1.7484926;2.7941005;-0.034190536;-2.998711;-0.022102939;0.58385617;-0.92491716;-0.23992069;-4.3724113;0.73395103;1.113311;-0.005574748;0.14322528;-0.08876831;0.15499304;-0.012790394;0.02798936;1.2306516;-0.011177066;-0.616799;-0.43794215;1.1123117;0.31801754;-0.019931514;-0.32149026;1.1741438;-0.029876854;0.053155523;1.4959254;-0.6124366;-4.3297977;0.887883;1.8188354;-0.18292002;-0.96490556;0.020394426;0.393807;-0.93653864;0.4157927;-0.015469781;-0.0012690844;-3.192259;-0.019595409;-13.688725;-0.023093043;-2.777413;0.15897764;0.790263;3.9453413;-0.71048373;-0.6405609;2.067506;2.256147;1.3748212;0.016049253;0.9147435;-0.053092424;-1.2446148;-2.365116;-3.3174536;2.976429;-3.577256;-1.834155;-2.5426612;1.303076;0.05039947;-0.06577616;0.073370256;-0.21148661;2.5739655;0.1570801;-0.08431336;-0.09176227;-0.026864242;-1.4865078;-1.7255088;2.6559544;1.7534105;0.10838285;-0.04373585;0.42107677;-1.0066408;-0.021115087;0.023874052;2.0926027;-2.3242476;4.4288716;2.4758675;-0.16964497;0.67836124;-0.5811175;0.65734786;-0.15513591;0.58351105;-0.08318829;-2.8877149;-3.318806;-0.000984568;0.026650213;0.0021644882;-4.8350883;-0.09704784;0.529738;-0.045169927;1.2764447;-0.57848716;0.14658949;0.61993825;-0.0058649383;1.2589726;-0.5896014;1.0731684;-1.6498849;0.9049875;-0.045912202;0.95397174;-2.2315366;-2.4133482;1.9920828;-0.04915576;-1.685955;0.028965127;0.370843;1.3690729;-0.088632256;1.0062407;1.3747202;0.084143445;4.245319;3.7138057;-4.762006;1.6377449;2.4993289;2.6845663;-0.01461503;-0.5147866;-0.02916148;0.21557614;3.087931;0.002653279;0.002250483;1.9451643;-2.6126838;-2.1477768;0.030767215;-4.985547;-0.41841727;0.0040795677;-2.0735004;0.006301178;-3.345591;1.2652887;-1.1974707;1.5968852;-0.003792703;1.4518577;-0.057782713;1.8023767;0.19951384;-0.07213957;-1.1630038;1.745694;1.3311391;-0.45627844;-0.023616849;0.14661808;-1.5490633;-1.9713578;-1.9528995;2.548921;2.5636206;0.04185142;0.021943614;-0.013350973;-0.17486946;1.9145575;1.0861969;0.022001762;3.117953;-0.48946363;0.97825086;-4.0528293;0.032496072;2.6650279;-0.27433878;0.42202166;-1.2507639;0.024853054;-0.061830338;1.6079096;2.5337234;-0.020786582;4.638946;0.14577968;-0.055719387;1.8163021;-0.018167662;-0.39641717;2.1592097;0.88133216;0.4187705;0.0018975156;0.8662627;-1.9216721;4.2533693;-0.041620128;-4.7561917;0.41915378;-0.62392205;-2.4564457;-0.071808234;-3.516279;-0.9768722;-3.3422618;-0.7139484;0.07137815;-0.04736726;0.055463597;-0.04507146;-1.845258;-0.65498954;1.8149072;0.26760498;-2.5876706;-1.7105343;-4.8868246;1.01248;-0.03947642;1.1486866;0.5749044;0.19903752;3.4333382;-0.02516525;-0.26505685;2.5385733;-2.6583245;-0.009769896;-3.2874873;-1.7534983;4.1981;-1.1683457;2.1875536;-0.02864282;0.049405772;0.08360328;-0.037951753;0.028892683;-0.0010487485;0.067318104;0.0028061292;0.018735863;3.229946;-0.022330012;-0.5633093;-0.06032493;0.112160444;1.7091365;-11.648846;-0.15146391;-1.0631741;0.21347615;0.05410975;0.17336188;0.007094786;1.4788641;-6.1663065;-0.01876997;1.7316314;-0.4941735;1.4280887;-3.4923854;-0.019585023;0.544435;-0.004254358;0.44435343;-2.098065;0.28175807;-14.518918;-1.5374417;0.044709485;0.043556735;0.012815575;-0.56941676;-0.045492638;1.2491598;2.3307247;1.1134281;-0.009822072;0.62015265;0.009551906;-0.9306914;2.7586193;-0.24404576;-2.4182372;1.5883986;-0.0066590584;0.104191184;-0.22896929;1.543587;-1.5150782;0.46569675;-2.6837513;-1.6998477;0.03270786;0.012424037;3.2501893;0.37707198;-0.28178108;0.5299088;-0.040049564;0.049678005;1.4387445;-0.08576061;-1.778915;-0.080979645;-4.8774004;0.11452431;1.3249836;0.019169455;3.9763358;-0.08766317;0.065211646;3.2633586;1.7043549;0.010613216;-2.4846597;-0.050115623;2.0800695;1.2168664;0.030420572;-0.057922818;-0.04847077;-0.35217705;-0.19829184;2.8031938;-1.2429131;0.019021722;0.6890072;4.533061;1.1773285;0.91398656;3.448749;0.044010386;0.29179186;-1.0346155;-0.019894041;-0.058198273;2.7394972;-2.4223282;0.0021529347;-1.9914972;0.33385718;2.04529;-1.9903634;1.6400986;0.008690803;0.903993;0.21680954;-0.010998244;1.6787696;-13.401533;0.38520324;0.8678022;-1.4717413;-1.8526621;-0.090710096;0.6774529;-0.028654322;0.22227697;-0.5031715;1.2744223;-0.020080892;-0.020127112;0.049103282;2.812737;0.015249377;-4.129331;-0.0030905586;-0.4816815;0.16051961;-1.4386622;0.5048241;-1.6995008;1.2883489;-3.2792678;-0.2141875;-0.041089475;-0.8983451;0.0016407823;-3.9901578;2.2556555;0.030339982;-0.00077853684;0.6918089;0.020526519;1.5849837;0.01533914;-0.0115659395;4.5462055;-0.049666718;2.5851653;-0.29913774;1.452053;-0.0005209249;-3.2847822;0.13956869;2.4380329;1.1761758;-0.06121283;-0.46185252;0.62693197;-0.4112038;-0.03219731;1.0394299;0.03368727;0.03894288;-1.3204767;-0.019687662;-2.0080538;-0.027316224;-0.5939647;-0.017345197;0.0615872;1.7875068;0.057935603;1.5793048;2.995332;2.5872085;0.029506123;0.023838513;-1.8880694;-4.144151;-1.2120402;-0.8735215;-0.0047680824;1.5043035;-0.002593634;0.90780485;0.66193575;-5.423098;0.6288128;0.019311382;0.29806903;-1.6364233;-0.8786344;-1.7203606
-1.190104;-4.4463806;-2.3599045;2.8426135;-1.4588354;-0.00771504;1.7894448;-0.011199181;-3.2980368;0.008351868;-0.42683655;-0.93023235;-0.013997821;-0.3605863;-1.0870745;1.7900175;-0.0007502393;1.9245998;-0.02025006;-1.7790446;0.15677929;-3.64562;0.98894703;3.8228335;-0.8647495;-2.3123822;-1.5491261;1.2042711;0.011611978;-0.013864995;0.70530725;0.5362204;1.7636818;0.016466657;0.04188624;0.015560314;1.9318546;-0.67260206;-1.5856776;0.27882868;1.7877237;0.016044175;-3.940689;3.4350204;1.1544237;-0.99868584;-0.095302045;1.7125611;-0.037780467;-0.22159377;0.27558517;0.023541147;1.8180327;-2.347828;-0.011653527;-0.019274887;-1.5056124;-0.023408014;2.5792022;0.20514536;-10.702857;-2.0012302;-0.018099526;2.87024;0.8412919;2.124627;1.2195681;-0.1534522;-0.016250713;1.8810501;-1.5237848;0.8655865;0.43349698;-1.0759053;0.78804344;-6.286589;0.53790045;-3.2187676;-0.22060677;0.042817842;-0.042267;-0.0023589022;0.5101683;-1.9085717;-12.187462;0.9299925;1.799313;0.0377804;0.0145925395;-0.33760577;1.7944521;2.1392357;-0.032415222;0.19978233;-0.01866082;-3.9633548;-0.017959869;0.24898383;0.309515;2.364513;0.68072844;-0.010290367;-0.018745624;1.0350459;5.057444;0.015262552;-2.9590428;0.08593875;-0.03880012;0.0027620427;-3.721366;-0.0076077874;-3.8265598;-0.45157507;0.0073580407;1.0877562;0.036576506;-2.296639;-0.05337999;-0.63483584;-0.62866104;-0.04205579;-2.8230636;0.40564176;-1.6483002;0.81656015;-0.6574;0.586953;0.85961086;-0.027024772;-1.4614393;2.543192;-0.044823993;-1.566571;-0.03107461;-0.41780344;-0.35229874;0.018327866;-2.984852;-1.7262536;0.80247545;0.011301511;0.028618323;2.322709;0.67251396;0.024686132;-0.0052581537;2.216065;0.28281772;-4.795461;-0.3066532;-0.047111195;-0.25055447;0.006190933;2.6350343;1.260671;0.014669679;0.28013912;2.4463305;-1.7696748;-2.7200923;-0.12622422;0.20356575;0.36015856;-2.8998017;0.024584787;-3.8871508;0.26681507;2.0231333;-0.029412372;0.014116643;-0.9519184;8.6615706e-05;-13.646723;-0.009743925;-1.4701574;-0.6949692;1.0088824;1.9491688;-1.9190834;0.77043223;2.4642363;0.21143615;-0.9642785;0.012308485;1.6530006;-0.0009862756;-0.6093064;-2.9336243;-0.90160114;1.3675715;2.2399058;-0.13936761;-1.4738264;1.4130182;-1.4957927;-0.0307823;1.7320058;0.11047473;2.5479527;-2.6979218;-0.18653502;-0.0387367;0.033297997;2.4085906;-0.33143133;2.5298648;3.4515998;3.2630982;-0.00056719466;1.9308774;-0.68329805;-0.003168339;-0.057114206;2.938967;-2.6924238;1.924683;0.5924907;0.54804903;-1.0237607;0.021701373;-1.8711932;-1.156123;2.9163315;0.49826294;-1.4521288;-1.3317175;-0.0020531032;-0.027614849;0.016783664;-3.2408834;-0.65798455;-0.14652127;0.035653085;-1.2632028;-1.1799504;2.2510197;-0.43289885;-0.0105549665;0.3657107;-1.6425364;0.18208672;-3.0702085;1.008595;0.0108041;1.889418;-1.1270442;-2.2693284;3.3869479;-0.0054794266;-1.0737504;0.016751114;-1.3347255;1.4679464;-0.0012575027;2.1234117;1.3769044;0.047821376;3.5029113;-2.164537;-1.9260998;2.2353828;-2.3189158;1.8031131;-0.029500078;0.37864533;0.033561237;0.10466737;1.9744171;7.655469e-05;-0.018361216;-0.46699393;-0.85913813;-3.284883;-0.01947711;-3.252074;-0.71696544;-0.03520943;-3.5739324;0.012828561;-4.403691;1.745589;-0.43220958;0.7655687;0.016525097;1.323334;-0.010224376;0.40030727;0.96651554;0.0516357;2.1811764;3.4282007;-0.71789896;-0.84742296;-0.04215709;0.951184;-1.2422488;-0.49427623;-1.4189728;1.8923706;2.4626675;0.02371637;-0.04552167;-0.0007427084;-0.5007616;-1.19557;-1.1456277;-0.05647511;2.9056573;-0.46986845;2.016321;-2.3147583;0.02823015;4.0655265;-1.5800114;-0.6131595;-1.4548086;-0.048259996;0.011397863;1.4705913;0.29359463;0.0109539265;4.729219;0.469536;0.058052674;-0.9936333;-0.0018068484;-0.0550971;1.3763031;1.1694353;-0.7908661;-0.05154323;-0.15668556;-5.395808;-4.026005;-0.009184171;-1.0945694;2.160418;-0.13806802;-0.9133563;-0.04333595;-7.2289047;-1.9452235;-1.5622667;-0.033664353;-0.007785334;0.014370786;-0.037152026;-0.1747335;-0.78286487;-0.6802315;1.9207722;2.3363948;-3.874489;-1.179096;-4.503646;-1.1890191;-0.010748319;0.455406;0.31378952;0.9901401;2.13213;0.023568958;3.3345318;3.9357545;-1.3674581;0.038706053;-1.1413326;0.7617257;3.2021163;0.53544426;0.65238816;0.05311589;-0.024714617;-0.032183748;-0.010579238;0.055624474;-0.042531393;-0.30257997;-0.23686153;0.01877145;0.02402895;-0.009870847;-5.4433513;-0.0041722152;-0.04843201;-0.1832259;-12.573711;0.0012978045;-1.5316553;-0.24588364;-0.31891882;-0.50917786;0.03227523;1.0088798;-7.4877896;-0.0066413274;2.4759557;0.121550545;1.8665128;-1.2764202;0.018610492;-3.1121233;0.033157207;-0.5885928;-0.19081365;0.5435116;-15.094426;-2.7651274;-0.021002144;-0.18724035;0.019541277;-1.8118147;-0.0038532729;0.2965636;1.0764028;0.930485;0.014973724;1.7950655;0.02555607;-0.99394494;0.58155715;-0.4614902;-3.1655567;2.6208436;0.02828399;-0.039862547;1.7265646;1.4783709;-5.044199;-0.2735643;1.1063915;-1.9602332;0.0064446116;0.046421293;0.9396212;-1.5411025;1.8201029;-3.0061715;0.05633711;0.03841695;-2.437363;-0.07626379;1.228878;0.5151754;-7.4740553;-0.041180354;2.2205262;-0.019304024;4.6116214;-1.8095076;0.06973748;2.2042246;0.33776096;-0.010411381;0.3782398;-0.007237097;0.6780617;1.5392485;-0.04564727;0.024177002;-0.03943324;1.0939648;-1.4563168;3.9884732;0.010696306;-0.061630853;1.9479846;1.305626;0.3305489;1.0932544;1.772743;-0.07441896;-1.129555;1.3598869;-0.037397783;0.026331065;-1.2434332;-1.9631624;-0.031313635;1.1306809;-0.2849384;-0.07352406;-0.93407094;0.03900567;0.009979535;2.8643808;0.8057019;0.03201968;1.4856818;-13.274218;0.7667753;-3.7974708;0.29596063;0.82950747;-0.018977022;-1.1317841;-0.028045459;-1.1191154;-2.0734923;1.3597174;0.012961684;-0.023897378;0.0050110216;1.2807685;-0.037773192;-0.35970083;-0.01034811;-2.5687213;2.1761456;1.8758796;0.9033351;-2.2218978;2.1243796;-4.239298;-1.098179;0.20927574;-1.0030738;-0.027842402;-2.2015994;1.7806252;-0.030246053;-0.006117484;1.3575021;-0.02565704;2.0543387;-0.054495152;-0.02563847;4.9741282;-0.011107549;1.9914842;1.1779822;2.378308;0.014202148;-2.196029;-0.3571879;-0.17121868;1.3506354;0.010832335;0.978028;0.8276022;0.6452116;0.02299424;1.519186;-0.027949298;0.0046630716;0.15356134;-0.025298811;-6.7167;-0.018475423;-2.6042025;0.0042279256;-0.010800565;1.7494329;0.024460131;2.6011345;3.0204077;-1.4831473;-0.017573178;0.040837727;-1.5241188;-2.55295;-4.123673;-0.7999383;0.016396012;-0.3694238;-0.018032748;-0.47284117;-0.21660863;-5.877336;1.5027347;-0.047491465;-0.7189608;-3.5979426;-2.1593125;1.727732
-4.609282;1.314863;-1.0969703;1.846828;-0.3969177;0.014558846;1.9111075;0.04501897;1.260066;0.0077949017;-3.2867997;-1.5394176;-0.017802037;-2.180318;0.78889465;1.7615364;-0.013033045;0.11128016;-0.020997692;0.23772798;2.8504736;-1.6182028;-0.46721166;3.4817405;-1.2751045;-1.3325598;-3.4777565;-1.7096721;-0.0181612;-0.02537539;-0.93616277;-1.6717975;2.4481287;-0.032930404;0.011948625;1.7591681;2.0203974;-0.7889232;-0.50401384;0.6992183;0.5279433;-0.0033345702;-6.069234;3.6619246;1.5589765;-1.8608932;-0.0036175188;-0.59615946;0.026457245;1.4825301;0.6384515;-0.00809672;1.9572256;-1.3766505;0.0018213497;0.016397554;-0.657872;0.0010202983;1.0191344;3.4635484;-11.034356;1.1313744;-0.026179757;4.2612157;0.7389697;-0.18080117;3.6194232;-2.581172;0.04989484;1.5098873;0.47669166;1.1670316;1.2345663;-2.562198;3.4109147;-7.991836;-2.7192225;-1.0392783;1.3874698;0.0024780475;0.08633383;0.035345376;0.55622834;-1.7994138;-11.501891;-3.813909;-1.5434439;0.023559824;0.035796996;3.425817;-3.7025597;3.2628183;0.0027715075;-0.018879754;0.061238676;-1.2579883;-0.01752484;0.3932377;0.160674;1.8867314;1.9346637;-0.08035066;0.059441198;-2.5398695;4.5581775;0.016718715;-2.0617588;-0.05104166;0.056182645;0.013664986;-0.6790383;-2.199126;-0.97595215;-0.004707495;0.00472652;-1.9055479;0.33211535;-3.7607224;0.6800084;-1.6946913;0.4420327;0.079014614;-5.317091;2.5565343;-0.90623635;0.7992292;2.708118;0.6544382;-4.632682;0.035380032;-2.3915672;2.9624667;0.039960917;-2.9124262;0.043730933;0.11318377;3.1792657;2.2495537;-3.256157;-0.5315741;1.2119765;-0.019758591;-0.5943281;1.796031;0.74169123;0.050936375;-0.023477333;1.3219091;-0.032923266;-4.653177;-0.35892603;-0.26343822;0.73580223;0.043582182;-0.23888029;0.91328627;-0.035855412;0.5773092;1.4055613;-1.0384029;-2.1621492;-1.9304643;-0.1735573;-0.6633866;-0.7587401;-0.03317979;-9.258645;-0.78179294;2.9312007;-0.032096457;0.009847999;-1.9841639;0.0017663388;-13.277848;-0.029043166;-1.6438026;0.32804644;0.26089707;3.8282504;-1.4991293;-1.5775775;2.5308712;1.939395;-0.15186456;0.063508786;1.1626396;0.0319813;0.17809874;-2.4829936;-3.3699858;1.3087888;0.8082016;2.2653928;-1.4155463;2.542509;2.1216013;0.009623875;0.092008285;2.85211;4.187242;0.06121973;0.92444587;-0.0072847;-0.048407163;0.599285;-1.3285266;3.2665043;3.8477902;1.1533809;-0.044522535;1.4857645;-1.9529521;0.039812833;0.027309403;2.6107862;-4.5622015;-2.2322228;-0.3304413;-1.6923261;-0.99728155;0.3538646;0.32733753;-2.3688993;0.9409998;-0.13790391;-1.7751545;0.5776399;0.0020855241;0.021561105;-1.8070407;-3.2538595;-2.6521602;0.03535209;0.04090184;0.16958143;-0.34047794;1.1630135;-0.2661057;0.04139685;1.3579283;-0.18318753;0.016747976;-2.1904793;0.46659276;0.020282058;0.7360517;-0.8694675;-0.84723157;1.5685499;0.05667864;-1.8435434;0.03383117;-0.3725512;-1.1993225;0.14489569;2.9723663;1.0472109;-0.0011817093;3.9728673;-3.957682;-4.116904;2.6796339;-2.444264;0.93590736;0.0059129777;-2.6018982;-0.02314583;-0.08967686;3.0088925;0.0050083958;-0.022701466;0.81607324;-1.6988951;-2.5181086;0.051529657;-4.8194723;1.0126419;0.019549152;-2.9088402;0.024294512;0.38475057;-2.9592462;-2.9178848;-0.05472183;-0.01956232;1.008998;0.007405909;0.62437737;0.5758717;-0.015740285;0.92334735;2.473987;-0.4180344;-1.9912517;0.001825144;-0.26425874;0.14647232;-2.7600536;1.411936;2.4774299;1.1555265;0.0006229772;0.017629068;0.01769251;-1.0158672;-1.6241751;-0.29630643;0.0024178135;1.4780782;2.1166239;0.78269464;-3.4140244;-0.0042329845;4.4161997;-4.912571;-2.6219854;-1.1401103;0.02780597;0.98168474;0.10450573;-0.5932464;-0.055306233;4.378265;1.1841885;-0.02874702;0.67182446;0.028719354;-1.3677274;0.4904405;0.8812663;1.0694256;-0.017792735;-0.42367113;-7.2992764;-2.46303;-0.027686356;-1.9874054;0.0265031;-0.35905474;2.7354424;0.080736995;-1.4426106;-2.210915;-3.9600122;0.8829601;0.019680623;-0.020908803;-0.0022154073;0.882616;0.14098951;-0.68078524;2.459173;1.8493437;-1.5455172;3.1056845;-4.9488463;0.5983589;-0.029062202;1.1398159;1.1153104;-2.2581675;1.5304973;0.019447746;0.13402517;4.273437;-2.0861523;0.006031315;-2.63377;1.4369652;1.0737424;-1.0145953;1.7664928;0.0050719073;0.020051165;0.012694013;-0.014642799;0.013149249;0.042359803;-0.15838337;-0.054058935;0.03185716;1.5896144;0.0121499505;-3.4023914;0.07001935;0.05939793;-0.7225596;-7.292657;-0.30572018;0.18207827;1.3157251;-1.6602838;-3.2376761;-0.01747186;2.721793;-5.4329405;-0.009957301;1.9598398;-0.23401836;-4.236835;1.5213766;0.010418786;-3.7327135;0.008500745;-2.9690878;0.35776347;-0.10348594;-14.188375;-0.37035576;-0.018393219;0.33554068;0.006795308;-2.4763;0.10546662;0.6984196;2.249544;3.373038;-0.019343283;0.71506125;0.0145169115;-0.8507181;0.20164618;-0.17633574;3.660556;3.45691;0.007299782;0.0027023642;2.2285736;-1.7900978;-4.118799;2.4919043;0.60749245;-0.070901155;0.02426779;0.01506348;0.8186664;-1.8018166;-0.1056837;1.4042029;-0.02811144;0.04386716;-1.4380972;0.84817857;3.984772;0.50283736;-5.6463842;0.11901923;2.7429667;0.017553482;4.3731937;-1.6219981;-0.015915418;-2.2581835;1.6484627;0.08578907;2.1467736;0.00792106;-3.0520358;-0.030417513;-0.023134898;0.007812464;0.05082892;0.03886407;-0.9811844;2.199877;-1.6069422;0.0032774296;1.6336502;1.095527;1.7763073;1.5191251;1.0518168;0.0070482073;-0.91763544;-0.39933828;-0.025099564;0.008104724;-1.1517059;-0.049546286;0.0106733;-1.1771603;0.27016613;2.5105329;1.1094334;2.3494408;0.035200737;-1.2564857;0.6678254;-0.02369149;0.31754822;-12.970243;-2.0541973;0.8317444;1.6101942;2.0739174;0.04612019;0.060244076;-0.0009648532;-0.6886151;-1.1846433;0.7814937;0.030439267;0.1298451;0.009278079;1.3486049;0.05079897;-0.566178;-0.022546021;-1.7922672;2.302287;1.8469085;1.4068193;-4.112429;2.1362467;-3.4678047;-3.529298;-0.04768548;-1.4062785;0.039714165;-5.3664193;2.6802886;-4.948025e-06;0.007608735;3.5156639;0.0028717727;2.2747936;0.022703571;-0.010885943;4.55805;0.06767838;1.7049009;-1.0485643;1.2308515;0.04246575;-1.1255988;-0.13358153;1.8250695;1.0606871;0.057212356;1.7150631;-6.6756034;-1.0468266;-0.019723559;0.1605757;0.045455385;0.032083947;1.0217808;-0.04323043;-9.773584;-0.026047584;1.0723144;0.07243744;0.0203992;0.34506446;-0.020025117;2.4755049;2.1435513;-0.7559737;0.018559128;0.019287238;-0.69179106;-1.9350932;-1.8533368;-0.5554218;-0.027776388;-2.0777693;-0.008180234;-0.7824505;2.3497295;-4.6582265;-0.31968412;0.021595614;0.85955423;-1.4119437;-4.1755643;-1.52757
-5.017443;-1.1021757;-0.7298267;-0.059329513;1.0209956;0.05417982;-1.7005436;0.033974618;1.0395509;0.001979168;-0.7563313;1.149332;0.022567598;-2.8444393;1.239011;1.6983757;-0.014459255;0.0042005065;-0.04199615;1.8950155;0.6264697;-0.088152066;-0.051411945;3.9357898;-1.5663171;-3.307074;-3.5065198;4.541496;-0.032131303;-0.020820739;-0.959745;-1.3295064;0.8268208;-0.010357;0.009443274;-1.0268002;1.2337835;-1.0350615;-0.92626065;1.6037871;1.6248846;-0.01240734;-3.7900143;4.688558;-1.5210084;0.1673285;0.015666386;-0.53828347;0.018186908;0.65564644;0.53116065;-0.042408407;0.011586808;2.0579352;-0.06365073;0.028831022;1.3664932;0.04393433;3.2460303;0.6651517;-11.717692;-0.74686384;-0.00064426684;1.4542826;-1.0979702;2.5690203;3.2436235;-5.3862243;0.021197282;-2.1157207;0.8040262;1.4780118;-1.7747539;0.93738;-1.8337991;-1.209673;1.1302367;0.21922821;0.90875024;-0.018528495;-0.004469987;-0.031185746;2.2394447;-0.5859794;-12.182289;-2.12969;0.39669698;-0.011208483;0.025736049;-0.16475114;0.4860134;2.419601;-0.13526362;-0.10279068;0.015307725;-0.3299856;-0.020655714;-0.11422857;1.2896582;2.274064;0.11127546;0.007553382;-0.021130294;-1.3017502;4.73492;-0.009646392;-1.0957285;0.023081321;0.0357772;0.033212867;-1.1420848;0.2169035;-1.59887;8.491605e-05;-0.04746381;1.1291897;0.39250866;-2.779036;1.9587471;-1.9632797;1.2133386;-0.044604365;-4.372202;1.7152525;-0.21421415;0.078704536;1.1818917;0.5264361;-6.079124;-0.036368728;-0.14706653;2.1806548;0.017762473;-5.4260483;0.011173945;-0.8198976;2.4124985;1.9564911;-0.36056218;-0.16444434;2.0541596;0.01961036;-0.22604465;1.2703527;0.8479745;0.00049985526;0.02532526;-0.075783044;-0.019468097;-1.1909363;0.23375584;-3.1971843;-0.70660204;0.018018601;-1.34533;0.22565454;0.0172792;0.6995816;1.0090306;-1.8964678;-3.966104;-1.0236703;-0.27403393;0.4929862;-0.03419912;0.04713646;-11.127791;-3.901813;4.2185626;-0.0020897307;0.044513624;-1.0750176;-0.047940202;-13.259432;-0.02054797;-2.7449977;0.15740731;0.11764603;2.0824492;-1.5690209;-0.77447087;3.1285539;2.9722085;1.0096419;-0.031364273;-0.73428696;-0.051151585;-0.57875043;-2.9041116;-0.913279;1.1439177;1.6421707;1.3385481;-2.4396884;-3.2289174;1.0437826;-0.022999935;2.0815492;1.8600857;3.5452924;2.2660606;-0.26728302;-0.016505819;-0.008748799;0.9081468;-2.0188498;-1.2101728;2.2144923;0.08883789;0.038477764;0.57314146;-1.5084586;-0.0036414356;-0.01648286;0.7958182;-3.0861754;0.9526559;0.84238064;1.9263499;0.0044674836;1.1644287;-2.0763664;-1.1084274;1.055908;-0.015647003;-0.9856784;3.9631493;-0.009001224;0.020225694;0.57460433;-3.3485088;-0.28923902;-0.035658203;0.0045112655;-0.39108944;-2.3545887;-1.0089481;-0.1907633;-0.030598173;-1.4396262;0.7417866;1.2382779;-3.3652303;1.4171984;-0.053594314;1.3948282;0.41275352;2.1637735;3.2472098;-0.047852445;-1.2498201;0.012193906;-1.7083255;0.55966216;0.021821115;1.9192111;-0.30074778;0.014408462;4.9828935;-4.009514;-0.6900252;1.3577895;0.72356915;2.259749;0.061250918;-3.0905738;-0.012716907;0.025708525;5.458586;0.0053214743;0.044142827;0.35583866;-4.2665677;-1.0859908;-0.02346571;0.19883734;0.46902868;-0.019354707;0.55348045;0.045028202;-1.6492218;1.1481903;-1.3967829;-0.7057258;0.018222285;0.8389683;-0.024436425;1.3802685;-0.2645295;-0.10839728;-2.716283;2.0300798;1.0632476;2.1302655;0.020531358;-0.35294986;2.5846097;0.04080753;-0.37215832;1.6927567;0.75692886;-0.017610634;-0.03126955;-0.008179811;1.172017;1.4500815;-6.1790113;0.0176483;-0.5141021;2.1880724;-2.0390275;-2.47337;0.005020288;1.0855082;-2.6410234;-0.5867493;-1.7305235;-0.10737428;-0.28811455;1.9248602;0.76676685;-0.06648153;4.031081;-1.2550119;0.009629294;0.54668826;0.026617635;-1.1097;-1.1010046;2.0940864;2.0428035;-0.041706257;2.0602486;-5.7649484;2.5785985;-0.010293325;-0.6753212;1.849517;-0.27462214;1.4666632;-0.037984744;-0.22649646;-4.153345;-3.717371;0.94892234;0.010541629;-0.06825644;-0.0073894057;-1.5418115;0.18346487;0.23388019;2.2470727;0.8138018;-2.0482876;2.3081684;-3.9700837;-1.5317382;-0.02546592;0.8067705;0.89942515;-1.1760505;3.3610861;-0.052958276;0.21766162;2.6974387;-6.0005865;0.018539622;1.2974864;3.23965;5.017835;-0.6311227;-1.3084272;0.057949953;-0.009995933;0.0022322906;0.041846216;0.037694905;-0.014115938;0.120486304;1.0693588;-0.022408655;0.6843553;-0.0063816467;2.550146;-0.0033846993;-0.018966708;-0.14331068;-4.763904;-0.37997267;0.13472703;2.0693233;-4.250919;1.6638045;-0.012316236;1.5885245;-6.7801156;-0.04167288;2.596715;1.8931689;-0.56563777;-0.30967924;0.030027177;-1.6430727;-0.0003671645;-1.3130108;-0.36401907;1.1035697;-14.572221;-0.13720083;-0.001809212;-0.123196736;-0.021393541;-1.6865628;-0.04891433;1.2343519;1.0756135;3.8138533;0.043131154;0.044734612;-0.013262007;1.503485;0.86791295;3.8145645;-1.7622918;1.2908887;0.03306431;-0.016508926;2.726923;-1.2860638;-4.3054996;-1.1404798;2.2552075;-0.2928868;0.023834905;0.021704283;1.0184509;2.6017618;1.524553;-0.7189213;0.046602584;-0.06557862;-2.473992;-0.1636478;2.680888;-2.2209575;-2.2070787;0.018867176;2.5528336;-0.021791695;4.9266553;-2.6894348;-0.053607143;-1.7740223;-3.365935;-0.022833081;1.6097554;0.006340025;1.1539588;-0.19141631;0.014484299;-0.042822335;-0.030704726;2.677881;-1.5964384;0.791312;-5.3829093;-0.044645622;1.0381052;-0.94756716;-0.8751365;-0.5448015;1.9412129;-0.009667996;-0.13897555;-0.73714423;0.024495546;0.022934081;-2.9620295;-1.3542918;-0.015064012;2.2325642;-0.720436;3.2429626;-0.50916755;-0.02082354;-0.049306054;2.9196746;1.2208999;-0.008542253;0.46057934;-13.028416;-0.50258607;-0.22179154;0.07155459;-0.3195414;-0.03270062;-2.3437963;-0.0031078232;0.5450387;0.11348469;-2.5935626;-0.023049302;-0.064724445;-0.020505719;-1.6617342;0.015141899;-2.3438172;0.030174674;-0.26705644;0.79862684;2.9255853;0.6506997;-3.2507262;2.0424986;-4.3375273;0.23254177;-0.085015565;-0.8802168;0.009494106;-4.0736217;0.9845861;0.019054612;-0.01811746;1.204888;-0.0166716;2.2138565;-0.015075773;-0.02850255;5.303999;-0.024332877;2.3013933;0.67418647;2.154435;0.04170496;0.37302655;-0.03335766;-0.1122695;0.5477048;-0.054793973;0.5373118;-1.6177273;0.49729455;-0.005535405;1.1091444;0.027081637;-0.04821674;1.182506;0.25851724;-9.4035015;-0.03384822;1.3443582;0.018700607;-0.03718702;0.8970098;-0.01930253;2.5093834;3.3326435;-1.7536668;-0.014211509;0.0035326662;-0.99408466;0.01596233;-0.93701416;-2.2323167;0.0074159573;-0.83659995;0.03307279;1.8401117;3.150506;-0.049798306;1.4030942;-0.06116489;-0.09055435;-3.6125574;-4.537124;-2.6899288
-4.9944987;2.523266;0.41324064;2.75786;0.6860971;0.02301624;-4.2945733;-0.05792765;0.11944888;0.040565923;1.0361807;0.421017;-0.0017084694;-2.004888;-3.0823634;1.3469393;0.046772465;0.65022045;0.032131404;0.4094788;1.6893538;0.8606513;0.15342408;3.7799888;-1.1157914;-0.5760512;-1.9425267;-1.8949115;0.027051268;0.032493994;-0.4784933;-2.5142703;1.0283852;-0.0020274725;0.02952841;-1.7215917;2.3165784;-0.38454902;0.7930645;2.2776763;1.4727051;-0.012658591;-1.1821482;-0.27596694;0.02161118;-0.5539646;0.027392687;-0.6804966;0.00016275357;0.7516592;-2.703083;0.002987738;0.6059216;5.253208;0.02868293;0.013750226;1.0054928;0.03252198;3.1055846;-3.0839589;-10.716061;-0.3300178;-0.0021065017;1.3718921;0.67213243;0.3938179;-0.6434857;-0.10729627;0.10137046;1.5588869;1.0910912;0.8965212;-1.3019103;1.229119;-0.83913064;-0.71894324;1.8899463;-2.0613196;0.21717001;0.0051954775;-0.0034538088;-0.017838567;-0.72718304;0.43090704;-11.1106825;-0.26916903;-0.70805836;0.046153404;-0.011763463;0.836423;-2.7592325;0.43255624;0.16444911;-0.014236958;-0.01751234;-1.2053789;0.021543594;0.12435682;-0.8809279;1.1622434;0.2639789;-0.033782028;-0.010417882;2.1085353;4.0213065;-0.018915348;0.5212076;-0.00016739695;0.0031534582;-0.03738257;-1.7205368;0.34704748;-1.1945014;1.5955539;-0.010373622;0.1622353;2.3999798;-3.340039;1.8028895;1.1177976;-0.016137084;0.03388499;-2.307307;3.198543;-0.31947377;-0.03194713;1.08562;0.9404822;-3.977279;-0.016875304;0.17424753;1.5557839;0.009763608;-2.6046894;-0.06526098;-0.30948538;2.6123457;2.5549085;0.3321211;-2.119221;1.810006;-0.025019733;-0.45336217;-0.10097988;2.3637793;-0.030146664;0.061285373;0.691635;-0.028783279;0.46702296;2.0721235;-1.9491467;-0.38120496;-0.05108019;-2.7084355;3.1925373;-0.01260596;1.2190439;1.4789428;-1.2671485;-1.3351185;-1.966099;0.7277767;-0.52466625;-1.0506545;-0.03045391;-11.638881;-0.44172293;1.6264092;0.005424763;-0.02325386;0.045369353;-0.0003436514;-11.883566;-0.015449135;-2.2061534;1.7547843;2.1058323;-0.74947476;-1.7416041;-1.0817004;2.5090008;2.1203563;2.469198;0.04567867;0.019412696;0.04014765;1.9001391;-2.469817;-0.8915994;1.4660641;1.5160844;-0.09470912;-0.6956096;-0.20412132;1.5532402;-0.045193054;-0.21351181;1.1279376;1.6216238;3.0918741;-0.06642251;0.33948463;0.02900177;-0.5755951;-2.3399813;1.8845309;0.3510882;0.93997693;0.0018812801;0.6086162;-0.09666643;-0.017960982;-0.002584545;0.41456348;-1.7897252;-0.49352092;0.7650036;-0.78536046;2.6775196;0.63247913;0.83678514;-4.2335334;1.3413198;-0.031317927;-0.3442464;2.8788347;0.053059366;0.066117965;0.914386;-2.4774263;-1.3117536;-0.042971663;0.034726076;0.46237448;1.6101286;-1.3603055;-0.5854351;0.07707603;0.5636785;-0.62888074;-1.7624844;-0.29760253;-2.418074;0.08203939;0.89433074;0.9306115;-0.7797976;2.675577;0.0058516306;-1.0159454;0.028924989;-3.6050465;1.60853;-0.010376876;0.69621485;1.0460932;0.06933948;4.281708;0.6617458;1.3033885;1.8244835;-0.7626924;-0.5822303;-0.004211923;-1.7484925;0.010503944;-0.0010759399;5.5771856;0.019601073;0.023427814;1.0778677;-1.1013905;-3.242427;0.014441593;-0.9272394;-2.0322843;-0.00786845;-0.65732884;-0.04342449;2.1073408;1.3915613;1.209424;1.7039037;-0.029778967;1.722112;-0.021749552;2.0470862;1.1955295;0.11458566;-1.09688;2.057695;2.1585011;2.3749132;0.0427867;-0.16788623;-1.5393628;-2.503769;1.5905528;2.50586;0.69790095;0.010106971;0.112292185;-0.03898857;0.27991614;2.1929126;-7.4745355;-0.020389672;-0.6460479;2.9375093;0.38761604;-3.352195;0.012746434;-0.316215;-0.9527194;-1.0112932;-2.0776303;0.4197147;-0.042594507;2.0796313;1.7193047;0.5827736;1.2593387;-0.046254434;-0.017119156;0.17668663;0.0053110756;0.17125723;-1.1882266;-0.13778564;1.0488224;0.029231446;2.0980797;-2.8012266;2.2201433;-0.0024350034;-0.054949395;-0.0010023214;-1.323327;-2.3242266;0.02554397;-1.8138417;-4.001924;-0.5163547;0.2649409;-0.05389099;0.25646618;0.05182414;-0.994183;1.8010516;1.6472656;-0.9936038;0.90394735;-2.753096;1.2195005;-3.6348553;-0.942712;0.026988953;3.1537633;1.0120807;-0.06266416;2.2125137;0.011237819;0.68054026;0.8006325;-2.99358;0.01109549;1.0705051;0.8418631;1.3846837;-0.17925134;-2.325857;-0.059287474;0.0074151494;0.007300021;-0.0024443236;-0.041827668;0.0010417408;-0.060504843;-0.04618378;-0.04654415;1.4540479;0.023211883;1.2228065;-0.020159405;-0.04095389;1.0176084;-5.975165;0.22870994;-0.1783519;2.055559;-2.2365475;-1.6152602;0.031943154;1.4854153;-4.8798814;-0.098277286;1.4523153;0.6387884;1.2194351;-2.082454;-0.017909804;-1.5257165;-0.0014834735;-0.25074777;-2.397226;2.472053;-12.237232;-0.41284487;0.004639774;0.062307697;0.0009127435;-0.58897597;0.0180247;-0.64903986;1.7359473;1.6912608;0.013592529;2.6386368;-0.010292076;1.5005723;1.0388286;-0.5967856;1.0810132;2.2333794;0.0109564485;-0.03130872;1.6696484;-2.935346;-5.026506;-1.0535673;0.7739138;-0.28434616;-0.0038313766;0.0010383615;1.6879534;1.152239;-0.008491675;-0.2436773;1.4818725e-05;0.014566535;-0.77169204;-0.08889305;0.35448825;-0.33086145;0.73987156;0.15260507;1.3048229;0.01646344;2.315293;1.4986438;0.08129903;0.92067236;-5.0705276;0.013175339;1.2952993;0.002150285;1.1357062;1.6432528;0.03557594;0.035361104;-0.028462581;-0.091505684;-1.4431173;0.582568;-6.029965;0.011090824;-0.07445479;1.9168769;-0.20081605;-1.1884527;1.1879199;0.09612527;-3.341984;-2.6046567;0.004660142;-0.04870562;-1.2107471;0.8118609;-0.042645402;-1.0522883;0.74925786;-1.313336;0.38190815;0.4278912;0.03415768;0.0651358;3.057953;-0.009181545;2.1955075;-11.1265545;0.7276351;0.594135;-0.7202774;-2.3107069;0.021271659;-0.5184258;-0.0048269327;1.2633969;0.34305203;0.4618408;-0.042375043;0.04392604;0.02442514;0.8395935;0.0029565382;-1.6360675;-0.007952238;1.1477693;-0.023225347;0.24273908;0.1745337;-2.5569277;2.0400932;-3.6152492;2.14886;0.020770436;-0.992198;0.007680577;-4.1325765;-1.2559794;0.03655575;0.0003533771;2.2646945;0.11675209;-0.5913968;0.019067058;0.0025609615;4.5523276;0.017638968;3.2103682;-0.831579;0.882818;0.016575072;-0.027914286;-0.020291535;-0.48795933;0.5975725;-0.084120356;-0.22682054;-1.1882913;2.3928843;-0.08063034;-1.0134479;-0.0024818433;0.009988797;-1.7944558;-0.046368454;-5.4287243;0.020024573;-1.8435593;0.024692755;0.08337418;-2.1469712;0.024178073;-0.70626396;2.4660692;-0.53545934;0.02212291;-0.030299285;0.34650296;-0.4023451;-1.8241903;-3.6079655;-0.03154555;-1.3296076;-0.023963429;0.5556646;2.1789405;2.4994662;3.4567506;-0.008661812;0.74269545;-1.2945976;-0.9730022;2.2076077
-1.6515517;0.66152483;2.091537;1.1026146;-0.047342762;0.004204019;0.13091029;0.030329444;-1.8608927;0.03170042;-1.1705128;1.5168605;-0.015550264;-5.1359453;-0.1781921;1.3592136;-0.017425932;-0.124388926;-0.021910148;0.019718667;0.74085754;-3.3202746;0.0072249006;3.463777;-0.76049006;-0.4010588;-3.5347779;-3.1664104;0.021929458;-0.1490257;0.7969719;-2.4056768;1.1357818;0.07209057;-0.009126645;-0.19546168;0.5735435;2.9140813;-1.1727254;-2.1444635;2.527929;-0.0022213466;-3.088395;-0.69800997;1.9411426;-0.5696344;-0.011853011;-0.18372317;-0.046155486;0.050296675;0.05348894;0.029190926;0.15852797;1.7212539;-0.004731308;-0.016482415;1.4436682;-0.016938873;1.5501281;-0.8970931;-11.157136;-2.0679407;0.053025186;1.0396833;-0.24938695;1.6338898;-3.1874273;0.14050908;-0.02486273;0.094765976;1.2536439;3.6943648;-1.6166798;2.2483745;-3.7620373;2.8218613;1.1534412;2.5175817;-1.6900997;0.019200414;-0.02892118;0.00330185;-2.5106475;-2.0027559;-11.612417;2.1394427;0.64274067;0.03146263;-0.025887746;1.4086572;-0.95129746;0.72963905;0.0039864425;-0.12261217;0.024273138;-1.4187757;-0.010225708;-1.6288179;0.19282183;0.65777844;-0.04035394;-0.029199587;-0.0065483158;3.446931;3.703111;0.003371206;-0.46536645;0.0021542993;0.0062639476;0.051195722;-0.70226103;0.7503454;-1.6731124;-0.7156643;0.0315683;0.92396116;0.6911032;-2.8040545;0.523467;1.0569755;1.5051512;0.0058442256;-3.8005748;-2.6896915;-3.0064645;-0.2127151;0.68115646;1.1779231;-1.6333678;-0.033965856;0.4043065;0.4855683;1.5240254e-06;-1.2699453;0.040758666;-0.62005615;2.220727;-1.0827531;0.06355255;-1.1692257;2.27318;-0.020713834;-1.2123246;-0.9514493;0.23330037;0.01969375;0.025794761;-0.5044487;0.017421952;0.40474924;1.1714251;1.6366317;0.13423401;0.017594358;-4.2163386;0.22198056;-0.006612786;1.1501588;2.043501;3.9238212;2.3747604;-2.6048567;1.0316159;0.10705598;-0.6069275;0.0006583373;-11.994844;1.0036594;1.3796668;-0.001732556;0.00022866915;-0.24195012;-0.02868564;-12.934369;0.04189059;-1.0353074;0.16472948;3.1990786;-0.19894987;-2.154811;1.5571089;1.1549877;2.2419505;-0.16373536;-0.001931274;0.36279482;0.01148477;0.47319874;-2.4300025;-2.483218;-0.9836733;2.3330002;-0.14741434;-1.5329058;-2.6411345;1.0187262;0.010491295;2.3382347;0.71451277;2.3586264;3.059707;-0.011689735;-0.058460753;-0.031641163;-5.2121105;1.224202;-1.5875508;2.8043792;0.9302772;0.03099092;-0.10091416;-0.78874904;0.014286859;-0.03928093;-1.3557805;-1.4989005;1.0126523;1.5775717;-0.7006872;2.4912224;0.18379465;0.6967708;-1.9794781;-0.36319453;0.016770901;-0.7220315;1.6599842;-0.020427015;0.053432222;0.32288474;-3.0291097;-1.3807435;-0.009283188;-0.035205476;-0.60177666;2.5562828;-1.3146462;2.6467466;0.023884151;2.575948;1.9714963;-2.91436;0.18504426;-1.206366;-0.017167492;1.1279936;0.36228555;-2.6715105;0.26514223;0.04588028;-1.9447076;0.02545747;-1.6129899;-2.1732004;0.015224276;1.8617874;-1.2644469;0.006086707;2.8979845;-0.8956198;-2.6318905;1.9630487;1.4379593;0.2637272;0.017801352;-3.1091743;-0.02650162;-0.047295902;0.058287293;0.010912576;-0.028444992;0.32199144;2.0299518;-5.29943;-0.024017392;-6.0791116;-0.07296306;0.03321426;-0.48214695;0.0013657071;1.5741873;1.0466229;0.6782225;0.022591881;0.05644538;0.5646289;-0.015868474;3.0088642;1.3922722;0.06186394;0.4189756;2.254215;1.154803;3.086581;0.0112232985;-1.1430928;-6.595393;-4.683919;-1.7331893;-3.6394165;0.45830575;0.0067621213;-0.012160045;-0.018131472;-1.5792714;2.4801576;-5.785235;-0.07115164;2.498463;1.2360421;-0.14125432;-5.3085017;0.036369544;-2.7124655;-0.09482653;-0.43715262;0.26642656;-0.11560745;-0.027360473;1.2418957;1.151148;-0.074677676;0.70666575;0.044056457;-0.06672847;-0.7948755;-0.033481255;0.87205064;-0.5568727;-0.09317521;0.45514408;-0.04732215;0.9439222;-0.42134845;0.10280666;0.056723442;1.1167235;-2.4726274;-2.737073;0.2059924;-0.0041956687;-3.941487;-3.8532822;-0.110763736;2.574591;0.08635236;-0.13440669;0.0151569145;2.0210602;0.7670107;1.6464207;-2.1693308;-0.13330807;-0.07170822;2.194957;-4.1973553;-2.9803195;-0.031219102;1.6992365;0.6816557;1.0823659;3.7225418;-0.036380235;-2.1621485;0.8737051;1.607546;-0.017077051;-0.004574445;-1.0591625;-6.3168883;1.6235672;1.2484189;0.002723996;-0.030333987;0.030502133;-0.015003835;0.02779678;0.019381467;0.037343;0.13043664;0.00045961136;2.4352868;-0.017683094;-2.5536168;-0.0013285001;-0.012056039;-0.38854483;-6.347888;-1.507795;-0.3121182;2.8960629;-1.0409237;-0.16197062;-0.058222964;2.5768807;-3.3999884;-0.10832741;-0.6537061;1.0965418;-3.168114;0.76708657;0.021242775;-3.1635966;-0.014884187;-2.6738422;-1.6452792;-3.0295825;-13.885662;-0.5260936;-0.01600629;0.0059207054;0.008173251;0.9628829;-0.008153661;-0.38977447;-0.3342864;0.35812262;-0.014511256;0.36329162;-0.046037186;2.4938347;0.8321009;0.638266;-1.6620648;4.4503593;0.037616875;0.008365956;-0.83298117;-0.7029544;-1.0200891;1.9749533;1.369245;-1.126063;-0.028712042;0.009918149;0.07579093;0.6319093;0.1931088;0.15037912;0.016614266;-0.094415165;-0.50858325;-0.032005034;-5.5553226;1.5076883;-0.17545408;0.0065545226;2.673914;0.03207067;1.0516461;-2.1639562;0.055819634;1.2411442;-1.851636;-0.0548351;-2.8795888;-0.03262532;-0.79101366;1.6579272;0.010652739;-0.024207821;0.09494668;-1.0254006;-2.8805034;1.1826574;-3.0935004;-0.009967992;0.20276316;-0.02667088;-0.14106412;-1.3861963;0.39719447;-0.023160568;-2.3924122;-2.6735349;0.01399085;-0.0009946848;-1.9812622;0.06338849;-0.02557868;-1.7852507;1.4783888;-2.9217849;1.186602;1.6224233;0.027666895;1.3183725;2.7206972;0.0458551;-1.0100083;-11.690405;0.778724;1.8268605;1.2746893;0.034535836;0.022826767;-0.9290273;-0.044552322;0.10746872;-2.0572848;0.84544235;0.02039083;-0.041903768;-0.04591291;2.3045385;0.05281189;-3.09003;-0.020498188;1.5030262;1.3575507;2.004014;1.1114666;-2.5581162;1.545768;-3.9445906;3.296097;-0.001463524;-2.1010458;0.034158085;-5.5353785;-1.060876;0.036242243;0.03715043;-4.873782;-0.042080123;-1.8901132;0.017096879;0.059039872;4.5870824;-0.026299343;2.936069;-1.5450777;-1.5803518;-0.015771816;-2.4991999;-0.045139235;0.37297022;0.57001925;0.0042736186;-0.026517767;-0.9185907;0.7438117;0.006595823;-0.044007167;0.0062361024;-0.0011643387;-0.21620981;-0.025391461;-6.733355;0.060228366;1.8071457;0.027464762;0.02106164;0.15389925;0.0030740483;1.7350267;0.74444866;-3.5798204;-0.0017282882;0.037031654;-3.718749;-0.16886836;-0.8713039;-3.5496933;0.0446406;-3.239105;0.018952606;0.41255268;0.20767975;-2.523681;0.643406;-0.036021896;-1.8895804;-2.7909744;-3.7435179;0.8098799
-2.4129128;0.45844936;-0.3539751;4.1322293;0.8309315;0.011575498;-0.32374263;-0.036978938;0.14864849;0.012106269;-1.1633717;-1.8630915;-0.030256214;-1.8946106;-1.7950652;2.174444;-0.013089951;1.2544105;-0.020273512;-1.5294777;-0.32407367;-0.7792187;-0.65378;3.8675735;3.7367105;0.6681884;-0.7413569;-3.204343;0.004709569;0.7656773;-0.03449518;-5.642457;-0.002019276;-0.022053912;-0.0395116;-2.0194173;-0.27219987;0.85240453;0.9585751;0.14890684;1.0980775;-0.026193678;-3.3272557;1.3990248;2.8482604;0.50552076;0.03446871;0.028480623;-0.0276878;1.5047723;1.7181382;0.013705096;0.9522901;0.2621564;-0.012785305;0.006619404;-1.1566998;0.09430482;0.83526874;-1.3419505;-11.922278;0.5843554;0.006515836;2.681784;-0.38219476;2.811738;-3.601329;-0.9209445;-0.017673587;-1.8612182;-0.5173042;3.0381231;-1.333231;3.078427;-3.04636;3.2552652;-0.5094735;-1.3232669;-1.968322;-0.026073785;-0.0099198185;-0.010062941;-1.456207;-0.36886254;-11.796019;-0.48685628;-2.8395174;-0.041238427;-0.0005675212;2.8026986;-3.177212;-1.9657183;-0.04015709;-0.24050887;-0.015138966;-0.06313528;0.019353919;-5.6626353;-0.59473294;1.8599839;1.9552788;0.7906233;0.025468849;5.00821;4.59679;0.0036661793;0.5008958;-0.021998338;-0.0039486866;0.033462558;-1.2721244;1.5473934;-0.9941489;-5.4671926;0.000103926686;-2.3042717;-0.56413;-2.5437245;2.978594;-0.96851766;-0.09631738;0.05087496;-2.5663526;-5.2372828;-2.9128385;-0.15338826;-0.54339164;0.545639;0.5555807;-0.033105735;-2.8019326;0.7612073;-0.041738644;-1.2793217;0.0323975;-0.79135793;-0.8143321;0.1728935;-1.1848217;-1.7011898;3.002336;0.032479446;-1.5793892;-1.5271553;3.9072707;0.00068955263;0.052388925;-0.88721806;-0.0145258885;0.8885182;-1.1058471;1.816911;0.059734613;0.03400678;-7.630471;-2.020251;-0.055201575;-0.26858774;2.7439952;0.03940256;2.5361612;-1.1109033;0.25346977;-0.036922872;-3.953629;0.059824184;-12.943956;0.14338554;3.256838;-0.019578913;-0.044411477;-2.3834653;-0.02939409;-12.895346;-0.008425004;-1.7795181;1.7744316;3.6222172;1.3785269;-1.7171836;-0.28481957;1.6448799;1.4179853;-1.6687043;-0.028550174;1.0667795;-0.04687225;4.7212634;-2.738822;-3.0408416;0.33666468;1.4708782;1.3083916;-0.8454309;-0.5295412;-3.282412;0.009834652;-1.9040784;-0.641051;0.03173763;1.9316585;0.0018464241;0.018724237;-0.026478192;-3.7701378;-0.60034406;1.5194778;0.67827374;-0.90590763;0.024567187;-1.3804018;-0.9128916;0.005951064;0.015699815;0.9518542;-2.8743784;1.6077203;2.1231525;-5.78107;2.4436927;2.2891362;-3.3602664;-1.1507695;2.3051202;-0.043674782;-0.6515704;-0.24093924;0.030614223;0.051726226;-0.71593297;-4.884704;-3.5187178;-0.017609224;0.010746943;-0.8221114;3.0690863;-2.6099844;3.182775;-0.028553257;0.6308455;1.0328091;-5.453581;-0.20215331;-0.2400163;-0.04676876;-1.9896154;-1.2481486;-2.1860104;-0.35535812;-0.018114291;-1.9080307;-0.0120513495;-0.57738864;-1.2907844;-0.010686895;-1.5297657;1.5089877;-0.024113514;2.4806795;0.291729;-1.4076934;2.3731837;-0.3878012;0.9968225;0.04514194;1.4032785;0.028616678;-0.07850562;-0.16287251;0.05992443;-0.03696283;-0.06048847;0.82511514;-6.3662286;-0.01260609;3.472388;1.1361438;-0.01559341;-3.1888657;0.060904894;-0.18276286;-0.45001835;-3.3016253;-0.22576238;-0.008914508;-0.66897273;0.0020838904;0.92672884;0.1735394;-0.07932218;-2.6738393;1.6459061;0.46907943;-0.025486965;0.027844911;1.1073886;-2.717526;-1.5849545;-0.033915643;-5.8181024;2.7714946;0.010970845;-0.013497377;0.04592237;0.4246276;0.84056675;-3.8993654;0.44799286;0.06677293;0.921917;3.0311575;-3.6731868;-0.022103624;-3.1387181;-0.3659904;-2.527567;2.371355;-0.03054792;-0.01788276;2.734893;2.1137476;0.03184642;-0.7411325;-0.22615439;0.013008017;0.8721647;-0.030534336;2.3020015;0.21185642;-0.7533665;2.9092276;0.006336754;-1.2069662;1.0935143;-0.1677832;-0.0145420795;-1.2626854;-1.3371415;-2.3403714;2.377805;-0.021537933;-4.2859488;-2.2960072;-2.2437892;0.7357693;0.0037090995;-0.047246303;0.018655667;0.39831817;0.6768058;-1.4667498;1.2528833;2.4217887;0.95731425;2.7636108;-4.794586;0.8494546;0.05643809;1.597231;-0.0064289244;3.3348129;3.8937578;0.04205645;-0.7939995;0.32271558;1.9217975;-0.028868988;-0.54770005;-3.000631;-1.7037328;-0.16245526;-0.058573943;-0.008417701;0.016757045;0.0073155323;-0.018056713;0.019523073;-0.0018199073;-0.02213513;-0.3121229;-0.060060862;2.5175064;0.0133857;0.47156784;-0.006341954;-0.024527237;-3.8824754;-4.7268944;-3.3163877;2.7974572;1.385864;-3.1963844;-1.6783439;0.03857991;0.4954823;-4.8862123;0.95661145;0.36887115;1.7559601;-2.9243383;0.11405171;-0.019375853;-2.8585343;-0.021518506;-3.5889914;-1.2150766;-0.50525457;-13.609464;0.0866017;0.015635014;-0.04612708;-0.0091725355;-1.8280025;-0.0755562;-0.6189259;-2.4275255;0.31428474;0.052194204;-1.7215868;0.06833793;0.117770255;2.5163732;0.44047245;-0.8880204;0.30363616;-0.035918415;-0.0021150487;-1.9861523;-0.9462575;-1.9720174;-0.40811533;-0.91412556;-2.2707121;-0.027142603;0.025059152;-4.2108483;1.099327;-4.2571745;1.2662102;-0.023627559;0.33352965;0.5749236;-0.042700734;-2.0134647;2.3993883;0.8521524;0.0637811;1.7792209;-0.038996052;0.9172608;-0.5221618;-0.022709575;0.7475277;-3.5043097;-0.024099588;-4.152592;0.020474326;-0.8761643;0.7898913;0.018837009;-0.029285513;0.011696656;-0.042042512;-3.4009283;0.5536688;-4.5965667;0.007242394;-1.8574222;-0.4139562;-1.0658458;2.6816483;1.6029446;0.000885301;-2.1582115;-2.219256;0.0096853785;-0.042291895;-0.28878996;-1.7696067;-0.02255939;-0.11570144;-0.3936634;-2.3514109;-2.430067;-1.8134995;0.009943878;-0.24712923;1.4563677;-0.028702643;-0.16155641;-11.377373;0.5635523;3.99243;-0.2184332;-0.5211041;-0.017702192;0.56821823;-0.0018387723;2.984965;-0.9741335;-0.5523846;0.0032234278;-0.010645916;-0.0028735194;2.9202273;-0.048642535;-4.0933075;-0.009700855;1.8656803;-0.0868538;1.0658971;-0.9082127;-3.996143;2.8094466;-4.456675;3.884227;-0.024244528;-3.0816357;0.056391593;-4.714925;2.5968978;-0.0048110187;0.015132257;-4.041159;-0.006791534;0.5872781;0.029046608;-0.029832173;5.133845;0.052537713;2.8493192;-8.229012;-0.10715622;0.007273405;-2.5074399;0.039258543;0.32549104;1.2120831;0.029600479;1.0386992;1.9328914;-4.568867;-0.057601754;0.41049823;0.0023681333;-0.0027751876;-1.4102718;0.015468953;-7.235119;-0.045048747;1.8178926;-0.03340083;-0.057140235;-1.4126701;-0.010222759;-1.3778579;1.1726558;-4.481943;-0.030123997;0.015402846;-0.3685054;-0.2877562;1.0315413;-1.47773;-0.008973521;-2.050292;0.024706407;0.9207759;2.1284342;1.2465384;3.2941797;0.03609806;-1.6492524;-1.8385489;-1.2613308;-1.0697418
-3.0560055;1.3592396;4.5569806;1.7401766;1.5955528;0.0040254015;1.6608198;0.056019783;0.38080072;-0.008823361;-0.9854105;-3.1132965;0.045677524;-3.3200777;-1.0429177;2.4413092;-0.0018513685;0.591311;0.009600315;0.22526008;0.8667353;-1.2469667;0.19825095;3.2937646;3.5896137;1.0344632;2.802116;-3.458327;-0.039771896;-0.11578477;1.2992216;-3.3262665;0.93977624;-0.07272631;-0.02658844;2.2633033;1.5205866;0.46226832;-1.4973564;-1.0913781;-0.37902436;0.08207892;-3.0945575;-0.37331107;4.408219;0.061711956;-0.03852003;-0.53272074;-0.010960313;0.70388323;-0.61605704;-0.009590076;1.5130695;0.98758876;0.017718505;0.0028193449;-4.4242997;0.025735056;-0.19556153;0.8721397;-13.042411;-0.43472874;0.0022512346;3.1017785;-2.4659767;-0.36947936;-4.6002316;-1.8628665;-0.010658834;-3.0185466;1.5156778;1.6657155;1.1729958;0.6860377;-1.9619925;1.7014648;0.6865303;-3.4204988;0.8692515;0.012090392;0.018464228;-0.032821;-1.3949035;-1.1216084;-11.777639;-2.9219146;-2.2050486;0.0023382795;-0.028891973;1.0159621;-3.6363258;-1.7979089;0.0012146492;0.2372431;0.011024127;-0.78437763;-0.008013994;-5.7057467;2.584308;2.746158;3.4785013;-0.09436062;0.009429262;2.0820837;2.9756331;-0.011008816;1.5744035;-0.014147664;-0.04756835;-0.022134494;-3.9939852;1.1416609;-2.0246449;0.8513888;0.024636973;-3.372477;1.4837039;-1.5732325;3.421516;0.73805386;-2.305085;-0.06867489;-0.5728664;-1.3442091;-5.834438;-0.22938624;2.619473;2.607942;0.2233944;0.013617847;-3.041952;1.1595384;0.009515557;-0.9695798;-0.012418933;-0.964671;1.8793396;0.67183924;-6.163536;-1.0966702;2.1988976;-0.040107343;0.17824087;-0.55287516;3.6713848;-0.005308453;-0.011349503;2.6965241;-0.02420259;-2.2778869;0.5557961;0.8979855;-0.01879155;0.014988858;-5.498866;1.2815605;0.87653345;1.0646373;1.6619918;-1.0165247;0.8625027;-1.7011759;0.13775419;-0.5444629;0.21831776;-0.011458042;-13.254368;-1.671812;2.8903618;0.030219698;0.0013573468;-3.2048368;0.042733863;-13.6242285;0.040376056;2.460403;4.065074;2.5890796;0.082697675;-4.406217;0.084357366;1.9683809;0.7297595;0.61001956;0.014232731;0.19559048;-0.07198669;3.6495152;-2.4887028;-1.8447464;2.0795267;-2.532363;0.26128587;-1.4589221;0.32361203;2.145879;0.030696526;-2.7135515;-2.5193224;0.057534713;1.139944;-0.019518644;-0.0591535;0.019866003;-4.4421816;-1.4226118;2.315576;2.6615667;-4.7782125;-0.031788837;-3.6333663;1.782927;-0.002008834;-0.0052099023;3.6367962;-4.6965117;-0.99839866;2.288181;-3.1782277;3.4224393;1.46879;-1.2542465;-1.5749806;3.5140285;-0.018081903;1.1485219;-4.0342298;0.00921944;0.11376288;-0.95037204;-5.621684;-3.41882;0.017715637;0.021043222;-2.533723;2.4849112;-1.2963674;-0.13604668;-0.021526502;-1.4726192;-0.84603435;-6.625632;-0.65866303;-1.1422062;0.028969208;-2.0493019;-0.6819341;-1.380496;2.0373821;-0.03956071;-1.598031;-0.03553982;-1.581409;1.1113452;0.01339219;-0.22454952;2.138366;-0.033407073;2.6359267;2.2178261;-1.6150528;-1.6492281;-0.9913217;4.1767507;-0.0010555616;-5.558803;-0.044097356;0.12920602;-3.5161815;0.049409207;0.0529899;0.16301402;0.56729317;-4.9686565;0.015458424;-1.0850005;-1.5768979;-0.029822396;-3.194414;-0.010438663;-1.067676;-0.712993;-4.6214147;-2.5783186;-0.00097454013;2.5858943;-0.018701151;-2.515745;0.6969574;0.03963055;-1.9909501;1.4648635;2.0057876;2.0595639;-0.0023235828;2.256169;-2.9948587;0.26123905;-0.14549385;-3.217757;2.8057418;-0.033800296;0.018447788;-0.031649973;0.20602593;2.3777106;-3.2081568;-0.010128307;0.53112775;1.5882643;1.2783648;-3.6111538;0.0305926;-2.5412505;-1.2516004;1.217829;2.691891;-0.087796785;-0.04490963;-0.42585343;3.6912718;-0.060807835;-0.47299126;2.9116855;-0.077140875;-1.46508;-0.0339689;1.0555365;4.157303;1.582627;-0.51123804;-0.0367017;0.36899775;1.5084734;-1.8346052;-0.0022326915;-0.058864694;1.0127087;-2.0811183;3.2056847;0.031377938;-3.606361;-3.6392758;-2.9789999;0.16581622;-0.0021949406;0.041346427;-0.005613523;1.8764997;0.4698026;0.25513148;1.0093533;1.2499715;0.17087945;1.8426;-5.314242;-0.85951203;-0.022888565;-0.48025623;-1.132855;0.4879993;2.414368;0.023293229;-2.4856417;3.4690955;3.2949839;0.005005244;-0.69180536;-2.6758637;4.2248883;-0.30306864;3.3541772;-0.042428296;0.086097375;-0.06985815;0.004992221;-0.030205132;0.04082024;-0.24864176;-0.2330331;-0.02466835;-1.1700348;-0.05907481;-0.31510237;0.052115418;-0.03900125;-1.6014966;-3.9635532;-0.7673231;-0.6322774;1.4857615;-5.84344;2.1240969;-0.004045147;-1.5746044;-4.386974;-0.21062607;2.148227;-2.1842258;0.68129945;0.063747786;0.008200297;-0.7582233;0.05333344;-1.8238997;-2.3633542;1.3192238;-14.370668;0.9460402;-0.00770205;-0.017971624;-0.042090654;-3.5380106;0.021935262;-1.7833443;1.1151929;2.415427;-0.011948502;2.534048;-0.04085634;0.55626935;4.2024693;0.2593257;-1.5039223;1.5388575;0.04310683;0.053365946;-1.0110234;0.47405404;-1.068967;-1.6660901;-3.9174883;-2.2285082;0.011294117;-0.0146083925;-7.0151353;1.9216138;2.2113209;0.08889826;0.040303245;-0.11965111;2.507756;-0.029768964;-1.2709001;0.47146672;0.17608714;0.058108855;1.3743124;0.04604168;2.28895;0.22784187;-0.06501088;-0.99641734;-1.6397196;0.028023072;-4.6603107;0.009780837;1.7003418;0.0757043;-0.035581753;0.0070563685;0.066497505;-0.42011315;-5.0975575;-0.02127824;-3.7120879;0.0003581403;-0.3114269;-0.78200096;0.16571958;0.74122036;2.9434097;-0.0031065755;-0.59213686;-3.208104;-0.0017242142;-0.0013004192;1.2301115;-1.1379342;0.065425836;1.5669289;-0.63915896;-1.5980927;-3.6828535;0.8247542;-0.009394527;-1.9385812;-0.24105245;-0.01730072;0.9792194;-13.176663;-1.6154382;3.4247503;0.020925788;-2.9725785;0.021276481;-3.7637427;0.01044065;4.812817;-2.305126;-0.9289966;0.006847216;-0.018295897;-0.013475563;1.7326301;-0.011679013;-0.3437299;0.023814313;2.8685365;-0.6196461;-0.4050625;-0.3172022;-2.4990246;2.6761785;-3.7171838;3.6594763;0.009046362;-3.2310174;-0.030966628;-4.3180437;1.8397957;0.015140961;-0.024664558;-2.0701492;0.047854666;1.729358;-0.006002027;-0.012682662;4.5751295;-0.0049714674;2.2699602;-4.547381;1.1098561;0.021751687;-2.2094085;0.0020500347;-0.495787;0.94231963;-0.06268668;3.1930172;-1.3800514;-0.9143744;0.006765639;1.9954898;-0.0070985095;-0.012016993;-2.5879056;0.0074672787;-3.2145414;0.014114497;0.21139349;0.019223476;0.0025219517;-1.2436584;0.04012646;-2.4527931;-0.0055024675;-0.4490793;0.020093407;0.023223964;-1.0746051;-3.901969;1.9247974;-3.3626442;0.028251624;-1.159584;0.00351014;2.7364266;1.9924537;3.9555166;2.4557636;-0.038389273;-1.794798;-0.77285403;-1.426717;-6.3050985
-3.275404;-1.2830399;2.501536;0.14430937;-1.2803456;-0.029195976;0.78316003;0.06994356;0.4650086;0.0033710375;-3.9049726;-2.0123146;-0.012834782;-2.1993313;1.235771;2.0137546;0.047810152;-0.271155;0.03447463;-0.29177868;-0.34219342;-2.3898783;-0.67771363;3.4175222;0.4491691;-0.16715384;2.1531382;0.5086823;0.0003630115;-0.095004894;-1.3988429;-3.926577;-1.4255414;0.013403455;-0.019536776;1.3373505;0.20944077;2.0297108;-2.211927;0.7871908;-0.662457;0.0042435867;-0.3193057;2.615784;4.751093;1.3994707;0.0039453604;-0.30076241;-0.015553823;3.2148657;-1.86229;0.043537978;2.4753382;-1.3902997;-0.0026727465;-0.004726952;-3.156997;0.025631022;-2.9602394;-0.07210935;-12.574922;-0.8004038;-0.005054032;2.108011;0.87487936;0.39495018;-6.665099;-0.88872206;-0.0604969;-3.6535115;2.6399164;0.050312407;2.5219197;0.40351018;-2.1532795;2.567833;-0.33283168;-2.5140355;2.345105;0.04726467;0.05507673;0.031198211;-2.30612;-0.18862966;-9.9766245;1.070338;-3.0925674;0.006314066;-0.0055392673;1.7664808;-7.330166;-3.9523218;-0.013998294;-0.11841296;-0.023061216;1.6095885;-0.012159487;-4.918077;2.4552858;4.065038;0.97993386;-0.23083931;-0.026907569;0.5999257;2.4719677;-0.031237917;-2.475023;0.04851322;0.0055756;0.031286057;-1.6085826;1.5604123;1.0391906;-2.8504615;-0.039153844;-4.389737;-3.7602172;-0.9685667;4.4154234;-1.5811552;-1.8658714;-0.01869969;-0.090016365;-4.8087544;-4.05325;0.4417356;0.3633025;-0.8968363;2.074;-0.011308206;1.0528109;2.1666956;0.055651173;0.37329856;0.018031167;-0.9791228;0.68206424;2.988254;-1.9535878;0.42579836;4.2267776;-0.016663764;-0.6323434;-0.9510591;0.84635824;-0.035794057;0.0120432675;1.7815927;-0.016173732;-2.5528579;-0.9553701;-1.4677085;0.03484649;0.055644646;-3.544325;-2.7198591;-0.073276915;0.6300637;1.5530442;-2.0082426;-2.7912667;2.4736085;-0.13444984;-0.0072874734;0.004498575;0.026984889;-13.623203;0.4448775;3.656958;0.021529386;-0.02620742;-0.8059246;-0.045381285;-13.147521;0.040097002;1.4395498;4.1936016;1.5603813;-0.17957227;-3.876973;-1.4701;3.6700857;0.18325645;-2.4071734;-0.020377763;-2.5460577;-0.081464685;3.075997;-2.6412134;-1.2746612;1.0002477;-0.22808008;0.27242357;-2.2079127;0.9826022;-0.27882537;-0.019491766;-5.3666506;-5.2150874;0.35227397;-1.2072413;0.026527364;-0.008337116;0.005977225;-4.5946574;-2.245444;0.27961153;0.37363005;-1.6014867;0.030217433;-2.184854;1.119706;-0.014917731;0.044599835;3.452039;-4.6209908;1.7408608;1.1316156;-2.9068763;1.1978136;1.4570574;-1.3095672;-3.8306832;2.4478617;0.0012628355;-0.73045754;-0.15197013;0.023149062;-0.015680121;-3.5356357;-5.138073;-3.0330672;0.035938997;0.012116977;-0.4755745;-2.6705983;-1.4213438;0.725753;0.10384137;-4.264361;1.9664528;-2.6233592;-1.6914755;0.16426423;0.07125036;1.6189654;0.43057397;-1.0715585;0.9358504;-0.020163417;-0.1160988;-0.03637807;0.17959252;0.14380732;0.12028389;-1.8825777;0.32125664;0.0015457153;3.360052;-1.3547962;-1.8564808;0.6403496;0.7644626;2.9601586;0.0088174315;-3.2249553;0.019685386;0.10793225;-4.6033645;-0.006152032;0.027180841;1.4753432;0.22421359;-4.453263;-0.05031559;-2.204511;-1.2684525;-0.030006608;-5.30433;0.017970528;-0.7125903;0.34383076;-0.63741285;-2.6383078;-0.026872069;1.6675652;0.00028843264;0.3696859;0.7124956;0.029578585;0.8321328;2.6141124;2.552216;3.9113731;0.023065057;-0.3523001;0.21632095;-0.9037814;-3.6397707;-3.4549255;2.7869892;-0.033785097;0.01621654;0.010835514;-0.19476242;-1.3227489;1.3417861;-0.04346912;1.0577009;1.1603366;0.97597575;-2.1820073;0.0142116705;-2.2117603;-0.41247404;3.5146751;1.7589631;-0.033303197;0.013091593;0.2030432;1.7063786;0.058213558;-1.5806345;1.67555;0.12258901;1.5868062;-0.012938058;-0.20708972;1.9407673;-0.124558486;0.87959176;-0.0050508883;-1.5215693;0.3422128;-0.65189326;0.0111853145;0.08347231;0.9467115;-0.6469067;0.12951411;-0.024718378;2.167278;-3.2100556;-0.53118074;0.78365296;0.0051423106;0.020346638;0.030994443;1.8010069;0.65640646;1.4372938;0.44393793;0.3997112;1.1613688;0.46338323;-4.830249;2.2509034;0.03113944;2.3915105;-0.92885935;-0.09213055;2.3716702;-0.07554352;-3.227445;3.6343255;2.4635031;-0.03411049;2.43259;0.6822348;2.5214515;2.2440727;1.2991787;-0.012596237;-0.033278152;0.0070369556;-0.053916343;0.031290155;-0.0093375705;0.32871854;0.025910063;0.014228445;0.11610095;0.033478577;-0.9810603;-0.007466814;-0.061582487;0.46538422;-3.0779657;1.9566511;2.7318583;0.48085862;-2.8755658;-0.11888353;-0.028874284;-1.2837034;-4.398857;-0.13087104;-0.110356405;3.0397966;-2.0499594;-0.5229494;-0.019256476;-3.9400325;-0.022956096;-0.33666041;-2.4160974;-1.8967948;-12.508947;1.6839547;0.015072459;0.024226435;-0.014845584;-1.0974526;-0.06517946;1.2052006;1.2727998;2.872125;-0.019722773;-0.48871827;-0.0697916;3.2685282;1.5537595;0.07141678;-4.8740635;3.958831;0.015518793;-0.062309373;-0.43459362;-3.2578127;-2.9826262;3.0642421;-0.69032943;-2.6835399;-0.02304927;0.042894833;-5.6842136;2.228431;1.6299948;0.735582;-0.006133733;0.009754394;1.1954132;-0.006806923;-1.4866208;0.36782712;2.446441;-0.026356786;2.3125963;0.0012817216;-0.24047935;0.58845925;-0.004346101;-0.11138259;-3.9934268;-0.0026590824;-5.6485305;0.0062213577;0.49461797;0.95997715;0.012657545;0.0050190925;0.031667214;-1.8293761;-5.950694;-2.2378967;-2.8278885;-0.021141063;-4.593878;-0.9878608;0.64862585;1.4398799;2.14741;0.016518794;0.38352773;-4.61155;0.0007512823;-0.014459571;0.30612043;-2.2783983;-0.017229598;-2.3680007;-2.1063793;-5.927141;-2.5017865;1.0677981;-0.010001144;-0.13691288;-0.44988862;-0.018506737;-0.6658765;-11.451217;-0.958327;3.1007638;-2.078907;-3.2988594;-0.04601666;1.4675009;-0.022111498;1.9201882;-0.9787264;-2.368434;0.018970605;0.014743167;0.0039288667;0.74380106;-0.13810395;-3.9376938;-0.012305727;4.1103187;3.4494605;-1.3180797;1.539962;-3.8789668;1.656473;-3.7076075;2.2590888;-0.030798974;-3.8821797;0.07076097;-3.6522424;4.3336034;-0.0065592984;-0.0014810984;-2.482029;-0.009986709;-2.1233306;0.042431045;-0.031182539;4.80265;-0.05186386;0.5025093;-6.124521;2.5783737;0.019409075;-3.154353;-0.038751252;-1.5474113;-0.41478437;0.043381047;1.7140534;1.1616696;1.0259687;0.00722308;0.7722785;-0.021953091;-0.085065424;0.8442752;-0.028601147;-2.3149922;-0.029272597;-2.4650543;0.010828515;-0.04488009;-0.78388286;0.021441797;-3.5439079;3.0645196;1.7132686;0.0044289646;-0.02470824;-0.25566936;1.0298986;3.1509588;-2.6001627;-0.034716308;-3.1317477;-0.005383235;1.2720578;-0.1321362;4.6262517;0.4701824;0.023523588;-0.044181515;-1.3500801;0.1599101;-2.5336037
-2.6551952;-1.364514;1.80734;2.5835729;-1.0284042;0.038084;1.3128455;0.14528462;-1.6460726;-0.024718804;3.8401132;-1.780194;0.04162224;-3.900429;0.97061646;2.2204273;-0.011125362;-1.9721028;-0.01737199;-0.20836638;-1.0395714;2.151037;0.21794595;3.823018;2.444724;-0.079399735;1.1331657;0.30635035;0.04185623;-0.023157414;-0.29791248;-3.6019273;-1.4484457;0.021725297;-0.017293006;0.3278554;-0.9672222;-1.1576376;-2.6328166;-1.6157583;-1.0051728;-0.023773914;-0.21083377;1.9415891;2.4734623;-0.047701705;0.0084951315;0.6511479;-0.0132805975;3.0412452;1.7053566;0.0159693;3.5997038;-0.9843053;-0.0039431257;0.008854071;-0.8827387;0.008160184;-0.28337425;1.0875227;-13.57248;-1.5375637;-0.0036573613;2.1566594;0.49848592;1.4449836;-10.02262;0.5262657;-0.026784653;3.2476401;0.3167638;1.4343722;-1.6775693;-1.0141857;-9.707359;-1.4172562;0.87232625;-4.6599298;2.039957;0.050979875;-0.009441278;-0.048806295;-0.9573928;-0.6502394;-12.396007;1.8238053;-7.709294;-0.004509811;-0.009782101;0.48631194;-7.523681;0.49807957;-0.006967167;-0.2088054;-0.014517709;1.0670693;-0.020243729;-7.1166377;1.7972301;3.4404407;1.7746297;0.010787654;-0.009948101;-2.7217014;1.8977399;0.0026731591;-3.4693055;-0.0186112;0.031757053;-0.0065985764;-3.928148;-3.1932268;1.1580137;1.0078659;-0.0034356876;-8.435783;-2.9331152;0.43653008;0.23455636;2.520047;-2.4421506;-0.044500604;-0.66128325;-3.0531156;-0.21365708;1.5937564;-1.8789674;-2.8623896;2.0871224;-0.0044986894;-1.1850045;0.13856262;0.017338451;-2.7007349;-0.024065148;-0.18852966;2.1306887;0.21580955;-2.1439505;-1.3312446;4.5223536;0.023519864;-0.15053314;-0.987609;1.0499588;0.0038550557;-0.040987063;-0.3667072;0.08291987;-1.4533173;-3.8678079;-1.8964711;0.0836829;-0.036410023;-2.0892663;-0.12687276;-0.12537651;-1.8681556;1.5302846;-3.2544632;-4.7537823;-1.29586;1.2555803;-0.14055842;-0.61295515;-0.038828716;-15.005535;-3.5410323;3.94109;-0.015773918;0.011809199;-1.6593571;-0.0021078147;-13.06287;-0.044464413;-1.4183517;-0.8506059;1.8617909;2.4347594;-3.5404894;-2.4427412;1.6069176;-0.46187702;0.8335205;0.007222748;1.7487628;0.94031155;-0.0018897703;-2.6870573;-0.93025315;1.6907297;-2.1845558;1.215734;-3.9295576;0.8304285;4.1523066;0.071420684;-2.9488618;1.6819048;-0.11165779;-0.032770436;0.00421847;-0.017095096;-0.025348559;-3.5970166;-1.0642146;1.565012;0.59544814;-4.0385566;-0.008736965;-0.22820657;0.5543724;-0.03313131;-0.026854282;1.175191;-2.737653;-2.0858796;1.0632663;-1.0000294;0.124184616;3.0635562;-0.37012175;-1.9914632;1.0300871;0.026471317;-3.8475096;-2.063238;-0.06256303;-0.017791297;0.09019794;-6.4711018;-1.838128;0.010405474;-0.03933549;1.7601424;1.9284451;0.62972534;0.8297223;-0.032827396;-1.2399426;1.8788772;-0.36087248;-0.83275163;-0.09571428;0.036352005;-1.6031238;-0.45481434;-0.23745084;1.1612965;0.014848804;-2.026087;0.013355363;-0.59571594;0.6344578;-0.027717628;0.060348883;2.3333244;0.0135139655;3.2020535;-0.8616251;-0.26480913;2.027102;2.1698081;4.720701;-0.07714973;0.97670555;0.0043599014;0.26120615;-3.524927;-0.012716841;-0.030402025;2.0881934;-0.71650773;-2.5173934;-0.009158191;0.07122785;2.0672512;-0.031171903;-2.816105;0.07635795;-1.9848472;-0.6964289;0.07932148;-1.0848079;-0.0050655226;-0.30931637;0.009833028;2.1346846;1.0590847;0.043488223;-0.31517357;3.1143038;1.2243044;4.875417;-0.021690182;0.3390744;1.9434248;-0.063053995;1.2603136;-2.003686;2.9137516;0.02146041;0.015397448;0.037303653;0.80758977;-0.88440937;1.7945929;-0.0076461467;0.28132036;2.2452981;1.5615731;-5.8570747;0.048979413;-2.1145515;-0.88578284;3.862611;-2.944485;0.0038017482;-0.0012901732;2.497298;0.86035556;-0.011350092;-4.047121;0.99615514;-0.049903795;2.4995854;0.02370541;-0.25352573;2.6272326;-2.331784;-1.1944112;-0.00032265336;4.23158;-0.7293358;-4.018244;0.02918276;-0.33380544;-1.3136027;-1.174846;0.404019;-0.06451674;0.5822862;-2.7547572;1.196083;-0.58982134;0.059535515;-0.026746053;-0.00039383525;1.6923068;1.9064584;1.1559438;1.6262813;1.3780439;-0.7045703;-0.22656605;-5.3577;0.48672506;-0.04610575;1.4216378;-2.056958;2.9222853;0.93277013;-0.026323898;-3.30858;5.0222435;1.2913883;0.052222427;0.2574885;-0.37212697;0.3090184;0.55047894;0.70202047;0.04250185;0.008299943;-0.047081593;0.0035540578;-0.004884081;0.027202502;-0.08528357;0.052834157;0.015733516;-0.12526199;-0.022153337;4.952597;0.073227555;-0.0114358;1.3340418;-0.14748144;-0.25888005;3.5645902;1.2129356;2.129331;3.7772765;0.0080690645;-1.3128548;-4.9045544;-0.024862722;0.062309675;2.2307239;-0.7663669;1.8399988;-0.020815859;-3.348524;0.0047937655;3.4260623;-2.3338678;-0.084463224;-9.632214;-0.8439778;-0.052376457;-0.029342629;-0.030237488;2.5905871;-0.011060372;0.025322692;-0.25302306;0.4747757;-0.01910046;1.1041162;0.0809622;-1.0208838;3.4635234;0.9992256;-2.5985022;0.6187506;-0.014237944;0.012689057;1.5399735;-6.0469966;-6.9313;1.7293844;0.27998558;-0.6501768;-0.020772995;0.017513704;-8.044492;2.0336268;-1.3464174;3.789223;0.034599897;-0.00094198115;0.5327121;0.015924506;-3.400898;-1.672071;3.277674;-0.02288965;0.3361568;-0.001785642;2.0168562;-0.05309029;-0.009560182;4.2424593;-3.8834784;0.024228653;-1.5659536;0.051190186;0.5601777;1.0180773;0.010523702;-0.021803021;-0.044550817;-3.3064258;-8.522507;-0.7388085;1.786673;0.0048946077;-2.600581;-0.25143105;-0.46133456;-0.6947912;1.4759353;-0.03773729;-0.4672617;-5.58945;0.035200324;-0.030692965;2.6378562;-0.9765554;-0.028497243;0.47564733;-1.1829621;-4.39013;-2.8666418;-2.1121478;-0.0321376;0.3305579;-0.4211324;0.040872205;0.8493059;-11.289159;1.4519955;2.7326446;-0.932442;-2.0923417;-0.03159398;-0.09303835;0.023599574;2.137283;2.628128;-0.60796607;-0.042733666;-0.00927992;-0.02309908;1.5799758;0.8798095;-4.1693254;-0.0007959405;5.9701138;1.4647379;0.23380047;1.8940321;-5.452254;2.402411;-4.1369667;-0.87095445;-0.068432145;-3.514934;-0.008338521;-4.894566;2.0265467;-0.008811232;0.017676119;-3.4070656;0.0057203737;-3.8889651;0.059354566;-0.0334684;4.736422;0.041608572;0.7637152;-5.9614906;-0.053473413;0.05091645;-2.557148;-0.080583185;-3.4247556;0.31869954;0.005686472;4.2698026;1.4810549;1.2482034;-0.026959969;-1.1845756;0.013418465;-0.008833762;0.8148211;-0.04345544;-3.2000706;-0.01657577;2.4720068;-0.010882618;-0.057140373;-1.8251942;0.028281363;-5.7606435;1.0988455;2.5900798;0.004057458;0.002810488;0.63580495;-1.2829093;0.7472647;-1.9031152;0.012211581;-2.502;-0.019504879;0.02933392;0.4903203;2.2279027;-0.6044712;-0.037163116;-0.10197698;-0.52896625;1.8814142;-2.6291392
-2.6139717;-0.113741525;2.7841208;-2.6644304;-3.6738882;-0.03719279;0.6112067;0.03409672;-3.582792;-0.057852548;-2.538151;-0.47493923;-0.008770152;0.1813167;-2.670184;1.7719077;-0.02639995;-3.6505306;-0.005867342;-0.46417895;-1.5271703;-2.8997095;-0.02175253;3.4840293;-0.62947303;-0.28515834;2.1199055;-0.13467331;-0.031490136;-0.027793422;1.1341504;-4.1196837;0.7570799;-0.028816557;-0.03434619;0.30941305;-0.9697489;0.051531557;-3.86327;0.03021713;0.5426137;-0.0129979905;-1.1783193;-2.1434057;-0.34989396;-2.9741406;0.0028923335;0.83788836;0.014925435;2.9189265;2.465449;-0.05479375;3.2981217;-1.1404494;0.056188226;-0.006037441;-0.1173369;-0.0034135482;1.5028292;-2.1099668;-12.953416;-0.6089407;-0.009228787;2.1068347;2.2723439;0.20470199;-9.6384735;1.3084699;-0.037095815;1.3606423;0.5238363;3.2650816;0.8147673;-3.1017723;-4.5957704;-4.9375224;-2.5567508;-3.6480274;1.7606437;-0.010457318;-0.021912765;0.003414358;2.0105708;0.8309215;-11.388516;-0.33390576;-1.6779253;-0.038246114;0.033277888;2.2098;-8.245624;-3.2253158;-0.08400288;0.18064009;0.026420299;1.4741383;-0.030386264;-7.4716196;-0.10109498;4.2772985;2.0193288;-0.088691406;0.040831972;-2.984722;2.8774755;0.039303582;-7.023014;-0.030381138;-0.036961526;0.0002691943;-6.8092217;-1.3549144;1.5100782;1.7978077;-0.052894466;-5.8626804;-3.0923023;-0.99102706;-1.3909638;1.5189213;-0.9980273;-0.01257803;-2.292354;-4.333703;4.668355;1.0645273;-5.182919;1.4737049;2.2188442;0.040106717;2.3084536;0.83600235;0.023212954;-0.72961205;0.028773814;1.2962362;2.9588675;1.1407189;-0.092972495;-2.169392;5.3453646;-0.009812716;-0.009255227;-0.5105376;4.6048846;0.019690273;-0.039403804;-1.1178699;-0.0068402435;-5.243034;-0.6195338;3.089944;-0.020968087;-0.009167078;-2.852502;-1.6431204;-0.033341397;-1.3163666;0.80119896;0.53503835;0.3021548;2.3254232;-1.3237503;-0.24095868;-0.7481328;0.010267572;-14.39273;-1.0533879;3.3402731;-0.0161044;0.060283158;-2.4310331;0.049524933;-12.246802;-0.050036296;-2.2033865;-2.9071267;-1.0306892;-0.37344232;-0.95967466;-1.2053505;1.806945;2.305811;1.0427063;-0.043115024;-4.55235;-0.12633593;1.0744824;-2.4217439;-2.0071769;2.1697624;-1.4431084;2.0738466;-0.6499817;2.611039;3.6293778;-0.011688089;-4.932098;-0.9475284;2.8100212;1.2111381;0.013375784;0.017856395;-0.12732154;-6.172109;1.3673539;1.1760598;1.2457362;0.7783838;-0.043363824;-2.196354;0.9675351;-0.04556465;0.028085114;-0.50948757;-3.5156558;-1.309227;2.1870415;-3.5727854;1.9595315;3.7207422;-1.1494033;-1.4431314;0.007959462;-0.04680884;-1.8229709;-1.3797266;0.049078252;-0.0109942565;1.8169113;-8.120349;-2.3820732;-0.012750224;-0.026400749;4.6340995;1.9842463;0.051110648;3.576106;0.0050026695;1.1368365;2.136444;0.28313386;-0.22308882;-0.5528576;-0.06920479;-0.92849594;1.9404267;0.476303;2.166575;0.0073649534;-1.2446576;-0.017325643;-0.2130767;-0.73465216;-0.0785133;-0.38466337;-0.53767604;-0.058875516;3.2933986;1.067526;-1.093023;-2.3857877;0.53914845;3.0943854;0.010035757;-2.907503;0.014038979;0.007049901;-2.863697;-0.056288805;-0.013512524;-1.5493354;-4.3173146;-3.2555287;0.029000755;0.25015685;-0.9403104;-0.031103635;-1.0812976;-0.058622282;-1.4095051;-2.9117982;1.3317415;-0.4332513;0.010389081;2.2163863;-0.02665946;1.7174733;1.787671;-0.013167823;0.48286113;1.5899351;4.559984;1.6216614;0.04067975;0.6836132;2.8084974;0.16517648;-1.5464554;1.5062554;4.027625;-0.059390135;-0.008613448;-0.0014796766;0.5997695;0.80142635;2.6007242;0.008143537;2.9344876;0.051700123;0.46663088;-3.7888396;-0.015619285;-1.8221023;3.0193398;3.5348961;-2.7452807;0.007948248;0.008136188;1.9824978;-0.46297348;0.008404172;-4.3947353;1.3387641;-0.028479094;-0.21491966;0.0023758619;-0.85697997;2.2089143;-1.0289302;-3.2630339;-0.008594424;2.3674288;2.9413123;-0.89419055;-0.042769816;0.89090455;-2.4281056;-2.698115;4.4247828;-0.04430577;-1.2445731;-2.4713407;1.9382908;4.247136;0.011325548;-0.011197353;-0.037918758;1.0382538;1.9174396;0.8349742;0.9218914;1.2121824;1.1875856;0.7806679;-6.0570564;-2.1004884;-0.024700303;1.1610577;0.5506492;3.4701731;2.5381007;-0.036399115;-1.5114477;2.0200224;-0.2969744;0.0010041608;-0.86914515;-0.9625778;-0.814526;2.1464627;-3.8635712;-0.015359757;-0.013775142;-0.03243078;-0.0486905;-0.039537787;0.010885548;-0.31723174;-0.17988631;-0.054884203;3.4075837;0.013830578;1.8608629;-0.06016132;0.00998023;0.31408945;-2.2174757;1.6447328;-2.5338929;-1.593295;2.7493749;5.004492;0.012312853;-0.76516944;-5.3856516;-0.02086021;-1.220448;-0.22159636;1.2273382;1.4581498;-0.03609522;-1.6844009;-0.0041019386;-0.017975608;-3.3711941;3.1258767;-1.3937768;3.5552132;-0.020512182;-0.034057625;-0.020753844;3.723865;-0.014916669;0.08311814;0.32199213;1.4513985;0.019071382;3.0117562;-0.010522024;2.140404;-0.24339604;-2.4383826;-2.9476578;2.8043199;0.098503016;0.016605135;-0.42619696;-5.125925;-3.3069139;0.85764086;-0.8814843;-1.2512445;-0.013114305;0.035465658;-8.200386;-0.20617136;1.4828862;4.6566486;-0.010936886;-0.08054304;0.9120882;-0.03944457;-3.58677;2.0566576;0.3104915;-0.013383111;0.91785455;-0.0764689;5.1500955;2.4669316;-0.027573746;-1.1952976;-2.8008473;-0.021196373;-1.5399773;0.00032965626;-2.2554445;0.47440997;-0.020248134;-0.017601853;0.010025507;-4.4928994;-5.185956;0.36530402;2.9367895;-0.013407604;-4.838378;1.9053547;-0.7426198;-0.110807545;-0.22203705;-0.02556625;0.072939165;1.0026424;-0.0601776;0.0050862064;2.2946317;-0.25097016;-0.012326672;-1.3319418;-0.15071052;-3.3579216;-2.3954866;-4.9298825;0.010573993;1.8143921;1.3716699;-0.01894132;-1.1903868;-10.570456;-0.8111477;-0.012085656;-0.22167303;-1.685776;0.008591446;-0.7410198;-0.00920043;1.8401568;3.4689097;1.3331327;0.015041807;-0.047140747;-0.011885477;0.38940364;-0.1731205;-3.5037205;-0.01876088;2.9165926;4.65497;-0.21057504;-0.8142582;-4.3104453;0.8808081;-3.082827;-2.1961281;-0.025975667;-2.9753385;-0.068589084;-0.09412206;0.4641909;-0.01627433;0.029033562;-0.8732274;0.029426329;-5.2429023;-0.028513558;-0.030871455;4.216061;-0.057755932;1.7425582;-9.696284;2.8334818;-0.025404142;-3.1663544;0.008934407;-4.182638;-0.78162444;0.03449946;0.88304377;1.6034135;0.25575963;-0.07211031;2.4295597;0.03435839;-0.0012562235;0.3041639;-0.09085231;0.18583454;-0.014607123;-1.3136474;0.009050358;0.014746313;-3.5923307;-0.011318792;-3.2566702;1.7790612;2.3549125;-0.003591004;0.0019525939;-0.49502414;-0.8965441;1.2744541;0.2877512;0.0141829215;2.3057997;0.0064062085;-2.2751107;-0.91738164;0.9706353;-5.648753;-0.012302186;0.63249606;-2.2277603;-0.86109537;-1.7731653
-2.8981347;-0.47454265;3.5423203;2.3467681;-3.3237789;0.0055264216;-0.8315586;-0.115466535;-0.94216603;-0.08066785;-2.821591;0.5038047;0.022455562;-4.1593094;-0.023737933;1.1577225;-0.0016873761;-1.7983972;-0.023988022;1.4781109;1.7805094;-1.5000128;-0.25905144;3.5399182;-1.6293782;-2.5598838;3.4589994;1.218752;-0.018476175;0.028594788;2.9396088;-0.5355041;-2.009761;-0.008543082;0.010675054;-0.15127678;0.6260962;-0.6036682;-2.3003647;-1.368352;0.020867145;-0.0039561596;-3.5429564;-1.2863822;0.4074208;-2.3087995;-0.05013412;-0.3238292;0.005807979;3.4614673;0.27081323;0.00017720941;4.6835837;-1.6529279;0.006942613;0.03563295;-1.2611328;-0.02702538;1.1907111;0.8984279;-12.574723;-1.0664154;0.012512272;-0.15203266;0.48573983;0.16839418;-7.35763;-0.6284301;-0.00855911;-1.3514817;0.10690894;1.8897172;2.437526;-2.1890194;0.6143976;-3.1897318;-1.3688514;0.9594098;-0.29241332;0.041884866;0.022537336;0.066440545;2.2031386;-0.44119743;-10.231869;-0.8890383;-0.21396683;0.0004940393;-0.031485315;0.587435;-6.044964;-3.012109;0.19468339;0.39398947;0.05195346;2.2525136;0.013336499;-7.8442383;-1.2348378;0.5352663;2.6815383;0.011137945;-0.039815657;0.32363495;1.6514809;0.014924721;-5.6972313;-0.015949497;-0.01987247;0.019079655;-3.4260504;-3.3012426;-0.74566185;-0.64150244;0.007003661;-2.9359202;0.99740624;-2.785339;0.614971;1.709692;-0.102008015;0.01127035;-3.345885;0.37279093;6.098826;0.21521142;-6.214091;0.6486507;-3.7128386;0.0011141091;2.471527;-1.6537772;0.016851613;-4.644157;0.022216717;-0.40208483;2.6016805;1.5045822;0.53165096;-2.1128898;5.9754024;-0.05946257;-2.6283844;2.151848;1.7307904;0.010891459;-0.049929865;-3.5087638;0.025952397;-2.8144014;1.7455889;0.55829185;-0.055669002;-0.0074269683;-4.2148504;-0.5405538;-0.0078087575;-4.0280995;0.8571394;1.050569;-2.5809436;-0.37422645;-1.863559;-0.3806221;1.4126691;-0.008960858;-13.902684;-2.8808336;2.6530044;0.0070807585;-0.047654863;-3.5861547;0.0053308443;-10.94445;0.0063420595;3.5351262;-2.2602973;-2.0717578;-0.58410275;1.4444189;2.4341455;0.053365555;1.6743996;-0.5540381;-0.0051346;-4.3345165;0.0146239;1.9815003;-2.4186573;-2.2393928;2.456336;-0.89209867;4.424977;0.60291463;-3.0061057;0.2196313;-0.061274886;-6.7307334;-1.8723658;2.0537462;1.7847961;-0.035580408;0.02546079;0.7531542;0.2539057;0.7095727;2.3831894;1.2941945;-0.5833713;0.04714566;-4.1170726;0.3870725;0.018035317;-0.017475786;-0.14912376;-3.1881447;0.09545329;0.1649992;-2.0759804;0.83237725;2.5653403;-2.023795;1.0197685;0.9092169;0.01598648;-0.052090388;-4.6975355;-0.02146795;-0.010417754;-0.047107827;-8.084853;-3.440541;-0.0013726343;-0.021733737;-0.28137928;3.3143466;0.31525895;1.556619;0.057803743;3.3370802;1.9704139;1.5456394;-1.5572702;1.1631562;0.07583534;0.008396495;0.36638734;-0.31511322;1.3223846;-0.00860809;2.710621;-0.045969814;-0.19304451;0.6703283;-0.05716195;-0.6597731;-3.7988126;0.06321601;3.1895304;2.2753901;-1.3244482;0.04701281;-1.2330952;3.0441213;0.008462733;-3.8888133;-0.012627634;0.051572137;-3.1647294;-0.038291067;-0.006262575;-4.094963;0.6982917;-3.5150197;-0.007605008;-1.1171383;-3.418526;0.003157641;-5.492101;-0.026654884;-1.624133;-0.019187713;-1.9034309;-5.8969107;0.019281914;-1.6060632;-0.023695588;1.5162671;-0.15506727;-0.053750265;-0.63536805;1.7195859;3.2543838;3.98154;-0.024256887;-0.44527388;-0.37360942;1.7144661;2.9757147;1.9199647;0.03574957;-0.0014657737;-0.04797226;0.017090762;0.38942045;2.4160058;-0.83782697;0.019561563;0.08115305;0.49035874;-0.40709433;-1.3277329;-0.026838042;-1.5410722;2.7414892;0.7028478;5.7306123;0.02578209;-0.032285914;-0.33547038;-0.2606377;0.03811159;-2.1739662;0.869912;0.004541524;0.09941877;0.011212661;-0.20910797;3.7282858;0.095499694;0.089446984;0.010806349;0.6253395;1.2490364;0.2015422;0.0482201;0.25698045;-2.856258;-1.3505392;1.7159805;0.021638101;-1.8758093;-2.752413;0.6836268;2.247995;0.055555057;-0.022844182;0.009970693;1.1293343;-0.075530596;2.3210475;1.1308632;0.47220165;1.0004007;1.4959669;-6.583051;-3.9304135;-0.009217093;1.4129688;-0.0813538;2.6103916;2.2294812;-0.038471736;-1.0779648;1.6507996;-0.97407913;0.009421229;-3.5977228;1.9461273;-0.81507605;1.1894507;-1.9513726;-0.011472761;-0.012293665;-0.045846306;-0.024618851;0.004330657;0.006169509;0.07984159;0.10424897;0.010193153;-0.46917737;-0.03052994;2.5965266;0.010276232;-0.0078634545;1.1191133;0.062093165;2.33057;0.86359006;-2.6932802;1.2950908;3.727198;0.021632325;0.81245714;-3.5163841;-0.07214871;0.19201046;1.0136071;1.2200015;1.4890269;-0.020321524;-0.40990052;0.0044662664;-0.13990106;-4.421212;1.5696789;1.5346231;0.858606;-0.018482376;0.010528686;-0.017149804;3.832726;0.0057110046;-0.54681414;1.3343431;3.1382146;0.0027566312;1.0003223;-0.022349807;3.3289917;-1.5658606;0.12928051;-2.4305592;1.7208184;0.074797586;-0.005040945;-2.1422896;-1.1986774;-1.2620091;3.5472562;2.9588914;2.3282082;-0.010674174;0.07094631;-6.885213;2.819026;1.848992;4.9990845;-0.026476689;0.06438142;1.0171704;0.02256477;-7.0970354;0.087534375;1.6269991;-0.024601066;1.1284012;0.0072428486;2.8012378;-0.60511553;0.030387111;-3.3494062;-0.14789842;-0.0051213624;-3.1219292;-0.026499042;-1.2864264;-0.3750663;0.0071632047;-0.012211103;0.0034489993;-1.8225245;-5.395212;1.8143016;-5.2388186;0.02787795;-5.9316883;-0.70144135;-0.7626114;-1.5597659;1.8653367;-0.018127535;-0.3976677;3.3669949;0.034556784;0.0047389828;2.2208207;0.7380512;0.029985877;-1.7716395;-2.3547413;-4.452404;0.81193334;-0.74715996;0.028214822;1.7785869;2.2242868;0.015180974;-4.16812;-6.5349708;-2.6032226;2.1000564;1.9211311;-4.4880047;0.0021155013;0.8585097;-0.026899233;2.886576;1.7318529;0.9707185;0.014509533;-0.02753563;0.013316845;-2.072286;-0.00431669;-5.7801685;0.0009292638;-1.8437299;3.1079187;-1.7377895;-3.3787158;-1.9450313;2.0323088;-2.8774285;-0.9559927;0.052206755;-3.280517;-0.00325516;-3.2537603;-0.56918585;0.039345328;0.019638574;-0.85832804;-0.04463113;-3.1003945;0.04216026;-0.041488167;4.326234;-0.037323434;-0.7701003;-5.462807;4.4169154;-0.012365233;-1.9517148;0.08351485;1.4523909;0.94594026;-0.060296595;2.6559818;0.25678548;-1.2832047;-0.044428688;1.9781506;-0.040118;0.021099083;-0.15648967;0.025597058;-2.0124698;0.0026301462;-1.2091953;-0.033012856;-0.01916221;-1.6501409;-0.0020273926;-5.4571557;-0.1313193;4.3788776;0.005193874;0.014290335;1.0424936;-0.41224644;0.37937713;-0.101608984;-0.012949271;2.9271603;-0.02728416;0.25428504;-0.57866526;1.1868175;-1.1637086;0.012485541;-0.6084165;-0.9219664;1.6999595;-0.62434393
-1.0722152;1.829102;1.7501134;1.2371901;-3.5463152;-0.01205334;-1.916082;-0.0025173475;-2.4101691;0.66983837;-3.815649;0.5509875;0.014541263;-2.9334898;0.64130306;1.5207236;0.0135570215;-1.1771011;-0.02813686;-0.76067865;1.6679015;-1.8709959;-0.4003511;3.341283;0.38364348;-2.1153476;3.8844035;1.8815733;-0.027093094;-0.02899126;1.3344682;1.9125168;-1.4169306;-0.02180857;0.029329026;0.69800794;1.6348258;0.24297108;-2.2178555;-4.478277;2.4294496;-0.0023279076;-0.03984931;3.7802567;-0.9621978;-1.8155632;0.004320398;0.029018518;-0.0140174;2.187158;0.5938251;0.02339353;-1.554952;-2.6788867;0.010177431;-0.011355225;-1.1092253;-0.027594462;-1.4820559;0.79044586;-13.16708;-1.8438388;-0.0065782224;-0.55962384;1.0589405;0.75873697;-5.437045;-0.7805048;0.015502752;-2.302655;-2.1351924;2.2722986;0.93314725;-2.2267256;-0.26094574;-3.9503133;-1.9265423;-3.3519592;-2.5013244;0.03524441;0.030341152;-0.07085634;0.60111076;-0.63685524;-10.979775;-0.4861459;-4.7946515;-0.06426424;0.019515503;4.7225647;-3.5863974;-0.8041779;-0.071477205;-2.9357424;-0.020195052;1.3570603;0.0038620317;-7.9171658;1.3563623;-0.15347482;2.7840993;-0.022837555;-0.016618062;0.7261822;0.41135702;0.010337047;-4.5229077;-0.0029108322;0.0048351414;-0.0012931979;-1.7887241;-3.0152807;0.9714709;0.87471056;-0.07523653;-5.3462744;0.21321824;-2.0483801;0.37721485;0.98501265;-0.08725733;-0.009762472;0.13175885;1.4500325;5.909068;0.08011276;-1.5443485;2.544227;-3.1468728;-0.023763072;0.857348;-3.4717083;-0.029220061;-5.3586373;-0.002680488;1.2848694;3.3488698;1.5624156;-2.1909127;-4.5068383;3.729094;-0.00049150863;-1.2127881;3.5942097;0.3219077;-0.024281073;0.3964347;0.79780567;0.005158808;-1.6714785;-0.6575709;2.4489431;0.13253239;-0.052191287;-2.468803;1.746311;-0.031470407;-1.5642669;0.88730377;1.7602578;0.090161026;2.875934;1.800416;-0.3310853;1.2734414;-0.044205546;-14.305725;2.3443913;3.554505;-0.030657362;-0.015661001;-0.07598362;-0.023482673;-9.075441;-0.052187603;2.7814624;-0.47602966;-1.3189279;3.6310358;-0.63346875;0.8476163;0.36403665;2.3120866;-2.4089868;-0.006334395;-4.0583444;-0.0620268;0.75710607;-2.4697104;-1.5128146;1.420436;-2.0526228;-0.39292404;1.475426;-0.4749213;-0.37557945;0.004245101;-3.4373865;-1.4834127;0.90035784;2.2459085;-0.023350446;-0.02392911;-0.25249994;-1.113044;1.5252831;-1.7774236;1.2754232;-2.0049548;0.0018757163;-3.3826256;-0.7192321;0.03381691;-0.02923241;-0.075403385;-5.0295973;-0.1939223;4.8301926;-2.676414;2.5193884;2.7245364;0.272884;1.262889;0.9956106;0.03732864;1.2781934;0.65720487;0.012026102;-0.022207797;-1.4022266;-9.270463;-3.0001009;0.012150811;-0.016045362;0.05454897;2.54476;-0.5959287;0.017577697;-0.06951292;2.3902068;2.1492069;1.3443745;0.78734875;1.7060525;-0.032580808;-2.1193888;0.3653093;-3.153766;1.3974627;-0.0070822677;-0.06210803;-0.01831447;0.9645195;-0.60190374;0.015671728;-5.270312;0.13372238;0.012295768;2.2944431;2.5918498;-2.253462;1.4771987;2.1198387;-0.5570563;0.050164297;-2.6018393;-0.06240927;0.36531588;-2.5069277;0.031379882;-0.12424018;-3.1801884;1.233499;-2.5697598;-0.028860979;-0.32471597;0.9267146;-0.008931996;-1.2126465;-0.00622691;0.01759784;0.35098192;-1.4808298;-5.315363;0.0041118967;1.5240873;-0.046072394;1.3991827;-0.6964936;0.037596457;-2.2818227;1.8947105;0.46473482;4.079541;-0.004673639;-1.5106753;-0.045093484;1.2558233;-0.74145967;0.43975115;0.91800547;-0.07548552;-0.044601258;0.0039838078;1.1672224;-0.7395859;-1.7011509;0.0013733185;0.83082926;-0.42358142;-2.4084764;0.58691883;-0.0147846425;-0.99867237;0.7696766;-1.4760135;0.76835346;-0.0054454585;-0.043474205;-2.3713984;-3.2102828;0.0014109396;-2.5522037;0.001456605;-0.029590357;1.0606945;-0.0528036;0.054191113;0.26218128;-2.9860933;0.18312374;-0.06394497;-1.7803204;2.1936467;-0.11693406;-0.029475346;-2.504883;-1.957387;-1.1406008;-0.5077508;-0.047552343;0.55846596;-3.2360039;-0.80303353;-1.1599016;-0.0038418372;0.02041183;-0.017962208;-0.46604225;-0.24342208;1.0302225;1.1953981;-0.0911439;2.082335;-0.13506329;-6.159302;-1.3901497;0.016352145;1.7870029;0.83266443;-0.11658779;1.7316611;0.010700231;-1.2089818;0.48016927;-0.059175476;-0.048454702;-3.1658812;0.9841698;-1.1136109;1.5330684;-1.2160153;-0.025458483;0.047476172;-0.03979275;-0.06436887;-0.017633332;-0.02482952;0.34676284;-0.2628348;-0.048802767;-2.1858957;0.013529154;3.3317423;-0.049589217;-0.073962726;1.0024108;-1.4721264;-0.13532448;4.7210183;-1.0661405;-0.4173308;2.9212515;-0.014236011;0.4549442;-0.7482058;0.013011443;-1.1476346;-1.9772259;2.1640518;3.264867;-0.051167764;-2.290264;0.017619925;2.8892143;-4.9820843;1.4671049;0.2512467;2.5035427;-0.013951918;-0.0103795575;-0.0072225854;0.99565864;-0.015246747;-2.24233;0.7933935;3.930658;-0.017413972;1.5265002;0.008266682;1.0530435;-0.824607;0.27244413;-2.3576198;3.772269;-0.006900547;-0.029360952;-0.07921593;-0.9516352;-5.0310287;2.0470812;1.1388413;1.6909226;-0.03864004;0.014094437;-6.1867275;1.2495795;0.94252825;2.7430875;-0.016859213;-0.05966586;2.3952103;-0.005626836;-5.6615586;-0.0055485936;0.94969463;-0.08873932;0.57682866;-0.015678205;2.861312;1.4764665;-0.028111175;-1.652883;1.8052773;0.036218125;-0.23432733;-0.013578025;-1.1230812;0.69756275;-0.04872356;0.0029995516;0.018712388;0.86192435;-5.1417265;-0.35307842;-2.6532466;-0.031065589;-3.480595;0.8789576;-1.5620743;-0.4732541;1.1794033;-0.032761607;0.88658357;2.9356542;-0.01779861;0.016191691;-2.8719978;0.29596722;0.019505704;-1.7332983;-0.67789245;-4.2666674;-5.4727936;-3.368995;0.0015950376;-0.3969832;3.6746387;-0.03322505;0.39578852;-3.214093;0.9670958;1.2006662;0.62604076;-0.48389497;0.009087705;-1.0807499;-0.043689754;2.4601073;2.3190491;1.7674893;-0.02192737;0.031829856;0.005475811;-1.9749056;-0.060719192;-1.4276656;-0.008556165;-0.46047515;1.0900254;0.81458414;-1.814767;-1.9207526;1.9960934;-2.998932;1.610194;-0.012140065;-3.341825;-0.015576865;-4.0955954;-0.16599266;-0.011875726;0.0066067385;-0.6707705;-0.033161666;-1.1424806;0.013315451;-0.0073708384;4.3449945;0.010492112;0.16260216;-6.9240766;3.0611608;0.02942339;-3.38384;0.008320617;1.9301865;0.6506477;-0.01862718;3.3824782;2.619317;-2.3630545;-0.08247556;2.4057715;0.014010225;-0.037237003;1.0993117;-0.12679009;-1.6320561;-0.054370344;1.9191097;-0.04527419;-0.055417765;-1.8228301;-0.0016739449;-2.8769927;-2.0166566;2.687269;0.010169151;0.014221353;5.702868;-1.8443359;-1.1123474;-1.6473523;-0.008944672;-2.7279594;-0.02191367;-1.0886331;0.8321545;1.1702452;-0.771092;-0.01455593;1.6694943;1.843723;0.5570059;-0.7747408
-0.44867313;2.1336145;0.9211014;-0.2755891;-1.7730204;-0.0025330363;-1.2893887;-0.023051098;-4.1625676;-0.19317384;-3.347348;-5.620989;-0.036695626;-2.8965647;-0.95309645;1.8491393;-0.00693785;-2.4461381;-0.0031063491;0.51272744;3.4675667;-3.307944;0.11569026;3.7513683;-0.45085463;-1.7925587;2.671678;3.0856624;-0.005374834;-0.03673026;-1.442621;2.6757572;-1.4567788;0.012034217;-0.007817001;0.8141722;0.41526735;-2.069163;-1.3147674;-5.807476;0.4286692;0.028463386;-1.318645;4.04858;0.12614334;-2.2207952;-0.0039375215;-0.6219568;0.011292321;3.6773794;1.4483305;-0.003564562;1.8778813;-3.233828;0.030779852;-0.01017898;-1.3421267;0.0012168129;1.2063216;0.056751136;-13.33954;-1.931538;0.006812772;-0.30391368;1.7123595;0.86122817;-1.5029469;-0.3836536;0.016034579;-1.592283;-2.9067;0.048750132;1.5416242;-3.7241247;1.9034572;-3.5527775;-0.7903353;3.9393637;-3.2092154;-0.03369097;-0.0029240358;0.053877585;0.05762431;-1.5551592;-9.020323;-0.89705366;0.58151823;-0.008533093;-0.009704714;0.9116708;-1.2617772;-2.8807926;-0.02010294;-6.829569;-0.010666508;-1.2184995;0.021698825;-8.663223;1.9514928;-0.19614053;0.23633192;0.014726574;-0.016202193;-4.0504227;0.5780945;0.019728858;-3.8549109;-0.0151371;-0.0123568615;0.031055063;-3.329063;1.0528251;-0.8745754;0.48214263;0.5135125;-5.9668746;1.29644;-0.50789905;0.82546043;-3.490249;-0.044125453;-0.005663654;-2.7031887;0.22049181;3.4417493;-0.20163047;0.08595722;4.846655;-3.900058;0.0413353;1.7832679;-0.21716624;-0.049726184;-3.3909612;-0.081055805;0.9016564;3.8716505;-0.8125823;0.8247603;-1.8033292;3.839469;0.0025338712;-0.86923885;4.8124847;-0.03638298;0.056621518;-0.06560055;-0.44213572;-0.029963506;1.1653876;0.39792454;5.052049;0.10130037;0.0043798876;-5.0650773;-0.7786114;-0.025284518;-3.2468395;1.7310122;2.667303;-1.3526547;0.52880365;-1.9473748;0.17932491;0.37381154;-0.0018120246;-14.9883175;0.9569208;2.1795032;-0.07811951;-0.03158547;0.74547565;0.010293053;-1.6086884;0.043074317;-0.969704;1.8195506;-0.40074635;3.5703492;-0.07529805;0.41126463;-0.070733294;3.4392898;-1.3740592;-0.0075582843;-2.4304352;0.021363614;0.82149935;-2.3587055;-1.4544947;-2.1288671;1.075727;3.1320112;-0.21075125;-0.78522825;0.95817477;-0.008480094;-4.2836504;0.47939235;2.340014;2.1801872;0.0074584032;-0.09972641;-0.024904963;3.2315855;-0.7482483;1.0015129;2.1451526;-0.9258659;-0.016744394;-1.6318958;-0.82614326;-0.012310908;0.010468152;-0.33573443;-5.430257;0.0056436295;0.28456607;-4.5935383;0.9759864;1.2372034;-1.1985242;0.9188604;2.13316;-0.010550518;3.7208538;-1.2096401;0.03075893;0.037776873;1.163093;-9.572823;-3.0095668;-0.017519264;0.053948816;0.5384526;0.06557574;0.6018075;3.2184443;0.0485552;2.114297;1.0189964;0.88164127;2.319781;3.4448946;-0.007315925;0.5026262;-2.1555784;-4.7642107;0.88240707;0.033219967;-1.0348366;-0.00023930529;1.2509023;-2.256196;-0.021827316;-4.435355;-3.866076;-0.0013785617;1.6369946;-0.8723545;-0.4588603;-0.19475774;3.1439807;3.716415;0.039695103;-1.7148405;-0.012086486;-0.021332886;-0.4937044;0.0017398832;0.5377369;-3.507637;-2.4641933;-4.7293363;0.014419131;-2.900747;1.4625444;-0.0030207522;-2.1648335;0.014833443;0.11571342;-2.6797314;-1.5942055;-1.767312;-0.010486091;0.763994;-0.041364957;0.51874095;-0.98497593;-0.075432226;-0.41884544;1.253044;-1.4326775;-1.1482505;0.032221038;-0.13585564;-0.3236074;-2.1345472;-0.82936484;-0.43628556;-1.4994256;0.029131018;0.2527066;0.013087049;0.10025648;1.1495456;1.1273255;-0.06520342;3.1672723;-1.1473439;0.18952177;-0.39737457;0.006639057;-1.1415414;1.3206087;-0.9538168;-0.37609303;0.0018063918;-0.0020565323;-1.9574246;0.20561549;-0.036068812;-3.167053;0.016317097;0.05147821;-4.1710224;-0.04531241;0.7065178;2.345764;-1.3376087;-0.36369544;-0.0016347835;-1.8694235;2.6359808;-0.8946746;-0.031369828;-0.9083859;-3.1791127;-0.38258138;1.6456109;0.0038819923;-0.03458482;-3.1033406;-0.6849269;3.8989167;-0.007615553;-0.014461244;0.072845794;-0.7252081;1.3176761;1.3781216;0.050375607;3.9137402;-0.1253786;-0.68078655;-6.1529427;-0.5576164;-0.03435346;1.2787045;0.602135;-1.879535;4.4151635;-0.0094545465;-0.18365374;2.3466442;2.4105089;-0.045653228;-4.737365;-0.4294816;-1.5037479;3.0291605;0.117145956;0.009958788;0.009327093;-0.08286204;-0.15970422;-0.037569683;0.055096515;0.063825056;0.03922544;-0.013548548;-0.8553298;-0.012503253;2.9966586;0.047566414;0.06384291;-2.704554;0.11022672;-0.50841725;0.48384526;1.4563112;-1.7698901;3.0081272;0.005689027;1.7998345;-4.307487;0.01013017;1.4358518;2.521371;2.2845793;1.5787406;0.6141484;-0.514779;0.044613946;3.0638123;1.3306324;1.2257389;-0.0032610525;0.7491078;-0.0015336737;0.023557803;0.043973304;1.4189711;0.0010881904;-4.094953;-2.6990042;1.6958698;-0.030149287;0.37214035;-0.029074837;-2.199011;-0.047316164;2.2324703;-2.7904012;3.587865;0.027719257;-0.056405693;2.4900897;-2.5999138;0.64195746;1.6300895;1.0160451;-0.5115734;0.045688253;0.042342655;1.309122;-2.7252197;-0.76675975;0.9994002;0.009813536;0.031992905;0.024853973;-0.0022943376;-8.341823;0.7023843;3.419191;0.032055464;0.8252893;-0.01794928;1.7725753;0.9951076;0.009944781;-1.3465724;4.8267856;0.019569756;2.9733407;0.0043430566;-2.3648574;1.1868043;0.033231232;0.022173189;-0.018078096;0.8350967;-2.9509394;1.3737179;1.0775037;-0.074203886;-3.6750038;-0.2266243;-0.23219006;-2.0011532;1.8124069;0.009271287;-2.0867841;0.5904346;-0.038169917;-0.014273154;-0.9191669;-0.7132597;0.020720763;-1.1155738;-1.7966597;-1.9251972;-4.670327;-4.0876513;-0.0059095966;-1.2061049;4.085115;0.019051882;-0.1470799;0.547462;0.97349465;1.7203513;0.10415245;1.2383448;-0.05039392;-3.0671222;-0.012123739;1.4274408;0.49220383;2.4866345;0.004008901;0.027322706;-0.01414759;-0.467993;0.01669942;-0.8256619;0.0064203683;-1.281343;1.6454465;0.7877798;0.49129868;-3.167292;1.833326;-2.707678;-1.318812;-0.046413086;-3.5386035;-0.013373596;-2.2092884;-3.7707903;0.015751412;0.018782346;-2.4093192;-2.2508502e-05;-0.44265285;0.027396185;0.004141524;3.5113146;0.045153398;1.0819639;-9.233522;0.5521407;-0.029571814;-5.062474;-0.024542458;-0.762767;0.4154194;-0.027377788;1.6136895;3.3174791;1.0250604;0.873402;-1.6593008;0.037170272;0.058031466;1.4942445;0.58273214;-0.44430363;0.05013614;-1.9364022;-0.0049108253;-0.030771852;-4.050196;0.00028123686;-4.448505;-0.8090944;0.5049482;0.007559694;0.007890099;3.029809;-0.13751794;1.8088474;-2.4871242;0.014118962;-5.88568;-0.0005811469;0.17578019;1.737732;0.2318771;2.7856877;-0.011707872;0.21538235;0.82079536;-0.003751815;1.175076
-0.28197053;2.352457;2.6627982;2.9481072;1.4922409;-0.0094382465;-2.0348608;-0.018862778;-2.2914839;0.009730958;1.9925375;-6.57913;0.013163389;0.7086973;0.28906953;1.71307;0.016603481;1.1459094;-0.013299068;-1.0305533;1.7207973;-1.4429479;-0.22303551;4.144802;2.3351204;-1.7492206;0.6583723;3.0332625;0.04983916;-0.010693618;-0.7127674;-2.815111;-0.7969783;0.04974938;0.020671716;1.0523944;-1.9255301;-0.7262109;1.636116;-2.974269;0.9858203;0.0006006981;-1.7083362;4.2662754;-0.4686421;-0.78796554;-0.023980023;0.30520773;-0.015799316;2.8218195;-0.3904878;-0.0029686962;-1.617395;-2.8493807;-0.014868057;0.025931114;-3.3577068;0.07253609;2.0687635;-0.9039427;-12.828088;-2.1489544;0.008455946;-3.137967;1.5766137;-0.34415892;-5.2402163;1.4308872;-0.023205945;0.588465;-3.1043842;1.1120464;-2.65861;-0.8817423;0.16873917;-2.74046;-4.1360435;1.683072;-3.013899;0.021054206;0.017870367;-0.0032982426;2.9413743;1.7745942;-4.8076177;-1.6525326;-1.6666079;-0.005272112;0.023484228;0.011492191;-2.5475006;1.0860837;0.0029035655;-6.182707;0.053552378;0.45471814;-0.020746628;-8.140705;0.6663239;-1.1691252;-3.4023883;-0.06503066;0.02454273;0.9566037;-0.27965245;-0.0042294306;-4.443203;0.045485657;-0.0071606124;-0.045816068;-0.14043449;1.1549838;-0.047814682;0.7551097;-0.039210014;-5.2461877;0.82505894;-1.5986854;-0.12908368;-9.245899;1.3737998;0.015720991;-1.5121561;-3.7211356;1.6631836;0.11713119;0.9063776;4.275468;-4.9253197;0.0013608946;-3.5776474;0.01369634;-0.039956145;-4.188514;-0.0028229111;0.72331476;2.2500272;-1.1172514;-0.92063415;-1.5992725;4.454903;0.08061523;0.088754684;0.73194116;1.2526137;0.008994421;-0.044725318;-0.843095;-0.06343475;-0.09799529;-0.44955197;3.275815;-0.05718715;-0.023042595;-5.7717366;-0.06429176;-0.025368981;0.5140321;3.9092846;0.7065858;1.748943;3.40409;-0.888147;-0.022305267;1.9171525;-0.16883472;-14.16245;0.92984325;3.8954463;0.034853805;0.05752477;-1.3766149;0.088954896;0.040518053;-0.10759469;-2.5760827;0.23061152;1.1251684;1.3960257;-3.8250487;0.67428976;0.49925408;-1.888792;-1.0437627;-0.029388247;0.87255484;0.0008513157;1.5652742;-2.9376724;0.2512761;-0.26603177;-0.9665007;2.660061;-3.4650135;-3.413092;0.097545736;-0.00520352;-5.126314;-0.61008316;1.6648419;2.0107343;0.005259472;-0.007593442;0.096625604;-1.3365519;1.3361595;1.4110646;-0.07804799;0.16286553;0.026057234;1.2512107;2.23984;-0.049489073;0.041615933;-0.4417684;-3.3543193;-1.2859445;-4.388325;-1.344968;0.45169142;-5.682869;-0.848187;2.0924895;3.0154912;-0.011843817;1.0482792;3.4312239;-0.11784833;0.028174544;-0.15222442;-8.488484;-3.6380026;0.02188791;-0.07144325;-0.17439461;1.7771168;0.4056322;-0.23498797;0.010869859;2.9796333;0.81248313;4.3716044;-2.6243606;0.23200984;0.022795714;0.72384775;0.48066226;-5.8897505;-0.45109257;-0.016704034;-0.35573214;-0.024813246;1.1011361;-1.3889605;0.049246717;-5.319473;-2.3087566;-0.017960217;1.1341034;-1.6004466;-0.25799596;2.3738265;1.7993218;2.8926206;0.031917546;-0.48980272;-0.22495306;0.12586512;-1.2953421;0.04525651;-0.124108166;-0.08632795;-2.4013329;-3.9464068;0.014620621;-7.5134172;-0.93264335;-0.049024045;2.4322584;-0.029664356;0.43862846;-2.0185893;-3.243335;-6.2893486;-0.006207062;-0.8511373;-0.08888973;3.0388114;-0.6071019;0.056297105;-0.5963214;2.6408036;-0.9082645;-0.8333047;-0.033424947;-0.2132771;-2.3032956;-1.756548;0.083032705;0.7496792;0.6716166;-0.054451287;-0.07176076;0.02504977;-1.0631641;3.2873664;-0.7166659;7.938912e-05;0.40513843;-0.5061038;-2.3998117;-1.7382815;0.030258868;-2.24606;0.44150886;0.0059466013;0.28884012;0.017508613;0.007844855;0.94208413;-1.9399077;-0.01451966;-4.259263;-0.25779104;-0.013999544;-3.4028728;0.008931101;0.52980244;1.891447;-4.90331;1.0665997;0.009581578;-0.86089617;3.7275012;4.7950177;-0.00689471;1.0086663;-0.40251237;-0.13672315;0.7706857;0.05390713;2.885665;-1.6947149;0.5503898;3.419206;0.050490953;-0.023793058;0.018179411;1.3292593;0.3297919;2.0074656;0.021922324;2.5937471;0.35242325;-0.41274282;-5.0946207;-3.023949;-0.038777072;1.4564291;0.5147216;-4.263815;2.476719;0.0020086612;-0.5987055;1.958014;1.6634253;0.045351434;-1.13181;1.0451995;-2.1838284;3.566588;-1.2261456;0.012035128;0.0035683434;0.47058487;0.8244471;0.028876739;-0.010093979;0.053274624;-0.019267574;-0.00056591356;-0.36080465;-0.003381384;1.283648;-0.010799716;-0.027471505;0.042572744;-3.3847523;-1.5387963;-0.100100264;4.045546;-1.7662486;0.3059921;0.01906678;3.4506447;-5.135666;-0.0054129846;2.0491645;0.41998735;-3.1129296;2.1047273;-0.11455836;-2.1180818;0.017200863;3.4262748;-0.24775171;2.1755738;0.9608922;-0.679641;-0.023865882;0.021432444;-0.033077057;-1.8622918;0.014688109;-5.3497434;-1.2988212;2.955755;-0.09681434;-0.82059216;-0.011896322;-1.987677;-0.27568287;-0.89333135;-2.7414331;4.1256027;0.011787047;-0.10512182;0.8738235;0.6078423;0.27399242;0.28866556;1.2183105;-0.9580554;-0.021481013;0.007490515;0.984215;-1.8330092;-1.2595736;1.20311;-0.013049709;0.015458411;0.66480947;0.019295907;-1.9092135;2.5161965;-0.63905615;-0.0084815305;-2.243029;0.058938168;0.13532144;0.6185437;0.09860294;-3.2544842;1.3295197;-0.054374505;2.5454516;0.026135596;-2.30581;1.68515;0.042765558;0.024850383;-0.012166153;2.746008;-3.8837168;2.1643105;-0.6315001;-0.06580815;-4.9624906;0.100367256;1.694941;0.7058979;2.4922574;0.019444307;-0.09483094;1.7867761;-0.05718167;0.006609546;0.27536073;1.8655704;-0.046599235;0.12583564;0.5532811;-2.6298807;-4.2927814;-2.538797;-0.026346428;-0.9074823;-1.217075;-0.20847058;0.24524255;-0.4620198;-0.50186825;0.56366986;1.479773;-1.1339858;-0.012076065;-0.31092757;-0.1122809;-0.72148883;1.689821;-0.42928597;0.0065074996;-0.045531858;0.094339155;1.2385288;0.051254902;3.9843645;-0.033514135;-0.04603936;1.6449734;3.564276;-0.37580696;-2.591288;2.5007024;-2.4306006;-2.8096821;0.42507282;-3.641176;-0.007144521;-5.2449985;-3.610213;0.025731828;0.0022975337;-1.546838;-0.010002888;3.008546;-0.03292774;0.04747649;4.4092383;0.017031368;2.8001766;-10.579704;0.23582315;-0.01019422;-2.5088706;-0.1016975;2.4896243;1.9369057;0.013322904;0.37703094;-0.29640284;-0.5070495;-0.19013356;-3.21574;-0.0063742255;-0.012357128;0.6471065;-0.17325634;1.5712432;-0.04467855;-2.8374038;0.03297223;-0.032367125;-2.2864807;-0.0036962454;-0.96211445;3.5665894;-1.8657458;0.0070962985;-0.00067015766;1.1062416;-1.2741284;2.1167467;-2.0859797;-0.034049377;1.0152074;0.027606688;-1.1784548;0.48883584;0.9797106;2.6399128;0.008684411;-3.3796043;1.7860476;-0.5286054;1.4717727
-1.0184132;2.0364294;2.2835774;1.5101652;2.197033;-0.019460026;-0.91826415;0.014396249;-1.6684306;-0.05947025;-0.07822301;-6.049164;-0.03809045;1.2585903;1.7737825;1.4959116;0.0026140255;-1.7912849;0.043035187;1.2367389;0.9555008;-1.6784012;-0.42045763;3.5495398;3.332206;-3.3283005;1.287447;1.4173672;-0.014218899;0.008298272;1.0337706;-2.663282;-0.1450696;0.011814913;0.00871571;1.1098708;1.1631346;-1.4495416;-0.7544798;-4.88196;0.74969345;-0.020956157;1.0465331;1.6878939;-2.6058197;-0.10919167;-0.0040079784;-0.33855045;-0.040237837;2.772502;0.8010506;-0.017573409;0.27738982;-0.47513413;0.048657842;0.025873635;-1.8065737;-0.012352884;-0.97678393;0.45886108;-13.166567;-1.5256824;0.0094303135;0.25154352;0.64243287;2.4834807;-7.376694;-0.10374962;-0.032498967;-0.8641104;-0.47797528;3.0443428;-0.8318589;-1.9000938;0.5614932;1.4125509;-2.2103143;0.12225817;0.017218087;-0.0027273537;0.018788999;0.024631195;3.4781017;0.9804614;-0.430236;-1.6704379;-4.307804;-0.045395467;0.0142399445;-1.9973286;0.2547033;-0.96881115;-0.0019047861;-8.456625;0.009743435;1.1070027;0.016005166;-10.807953;0.79595286;-0.10121507;-1.7683066;0.09059748;-0.0058807996;1.6359473;-0.066503085;0.047787488;-1.611315;-0.046849046;0.027799832;-0.010986963;-1.5228815;2.333858;-0.7270284;1.9487333;0.19415917;-6.351632;0.7466893;-2.1023595;2.0912566;-7.866027;4.042812;0.030817993;0.18365853;-1.8547037;-0.31525797;0.5685496;-2.0815866;3.4316542;2.2972527;0.031403262;-3.7430418;1.2351179;-0.0008482762;-2.5725765;0.052992776;-0.09512056;1.6995175;-0.97484195;-0.123134695;4.478486;4.575814;-0.06339388;2.15517;-1.9480591;2.2127974;0.019940596;-0.025041005;1.2436333;0.11603336;1.0333779;-0.25839174;2.4816656;0.04392722;0.0010202817;-2.0416942;1.2500482;-0.0007277047;0.07756953;3.8643126;1.8501034;2.1978507;2.8404324;-0.9735199;0.20012839;-4.119247;0.8605868;-14.996154;0.7809921;0.16130325;-0.017165532;-0.0068276273;-2.2939413;-0.01920163;-0.12184526;0.4883249;1.5148183;0.258108;-0.37139502;-1.2720537;-1.6355345;2.8510268;1.3240819;0.71660006;-0.75817937;0.0021811803;0.98051536;0.037910145;-2.3924782;-2.1816356;1.0213547;-0.2909909;-0.57671;0.005560522;1.538879;-3.5983238;-3.6038644;0.0029432182;-5.6923566;1.3142358;0.88561296;4.24023;-0.012496303;0.040066402;0.003237519;1.7460711;-0.45875406;-2.0219638;-0.46820685;-0.030992016;-0.01800677;-3.8687792;1.1682495;-0.0048911287;-0.029874276;-4.7823687;-4.801417;-1.1081473;0.52665335;-2.5948782;1.9498317;-1.8113153;0.99916244;-1.9143043;-0.004684117;0.018284827;1.4610194;1.9804435;0.13854787;-0.030515356;-0.35705426;-9.210894;-2.9245863;0.029251644;0.07039064;2.4061785;4.546918;-0.50038946;1.571724;-0.02423706;1.9065144;-2.4374144;1.3067108;-2.5412228;-0.5049091;-0.038930863;-0.5582569;-0.50332654;-6.32186;1.9724163;0.012900614;0.5632222;-0.0010912198;-0.27759358;-1.4956259;-0.029865136;-1.0458322;-2.7690644;0.022177638;0.82640463;-3.831413;-0.87034494;1.9865564;0.5959563;1.1709327;-0.018103579;1.6052216;0.7613248;-0.039321166;-0.05825756;-0.017300384;-0.013631535;-0.20331058;-2.5000734;-4.9756083;-0.0114852395;-3.6422396;-1.5639375;0.037041187;-0.7185903;0.05790298;-1.4845588;-1.8279507;-1.076881;-1.9226189;0.031106494;1.5119395;0.42846817;-0.023443641;-1.0746645;0.038155086;0.6641017;1.8208754;1.0494055;1.1048518;0.045877352;1.2600957;-0.2691607;-0.30115145;-4.6924467;-2.1237736;-1.677084;-0.0035074004;0.021649618;0.008158393;-0.9931968;3.6929655;0.4281024;-0.0031586646;0.145415;-0.31304276;-0.5830404;-1.7773489;0.021221051;-1.3704344;2.3896644;-1.1018836;0.46335518;0.017552309;-0.0006806705;2.4240277;-1.8945776;-0.04379827;-0.37211612;-0.28338972;0.06941966;-0.33005002;-0.030923609;-1.6086991;3.846974;-1.7103527;1.0715218;0.017451601;-3.0044026;1.2934233;3.9266622;0.002702505;-1.0354171;-0.7878941;-0.33107734;0.16806108;0.009341198;1.4258103;0.06076639;-2.2241035;2.568315;-0.015763652;0.031288672;0.015328402;-1.3034532;-0.73249984;1.6895581;-0.7286334;2.157752;1.109339;0.1834263;-6.112354;-0.7092358;0.008460315;0.39899373;-0.7757925;-0.70862895;1.538355;-0.024067916;4.075298;-1.7704164;1.395134;-0.021240026;0.4479873;1.0722963;-1.2702827;5.0536284;-1.7598336;0.0030252042;0.04289065;-0.026359687;-0.18904819;0.025971893;0.038757984;0.32865188;-0.05131095;0.0115460055;-1.4493476;0.021512123;-0.40822986;-0.05557757;0.06940769;1.1738993;-0.022418108;-1.6470549;0.19571653;0.88284224;0.36535266;1.6884924;0.0412851;1.9432441;-2.6755414;-0.012108492;1.1851015;2.470006;-0.6648347;1.4189465;-0.03203599;1.159762;-0.010158154;-2.3136644;-0.87512434;3.2006414;0.046329588;-0.30279133;0.03109471;-0.004054787;0.066886164;2.1434462;-0.037858464;-1.1410543;-4.119893;1.7987105;0.15356402;1.888653;0.026253726;-3.1063747;0.5372779;-0.9675218;-1.5491108;0.95948595;0.014667276;0.49415514;0.6225286;-0.16772702;-1.6033121;-1.5059639;-1.9659572;-1.018373;0.0035878762;-0.01702999;0.8747443;-0.7040811;-2.3243477;1.081998;-0.057178788;0.041101143;0.8160723;0.013337275;-1.8760861;3.7747533;-2.201323;-0.036883585;-2.2545986;0.0059266165;3.1370199;1.2234083;0.029338019;-2.1691704;0.7084777;0.009877364;-0.06533396;0.044015434;-1.3587918;-1.9856857;-0.0094685145;-0.025004167;-0.033557314;0.055308174;-1.753142;2.0645845;-1.2029998;0.7834207;-4.6953607;1.7204263;-0.5009845;-1.1795728;-1.0311401;0.020350814;-4.4030232;2.4085927;0.084801935;-0.04181443;-0.7434911;1.4521765;0.001434327;-1.0119759;0.13980877;-1.7620566;-4.146505;0.2539943;0.01456466;-0.48410186;4.182756;0.9453804;-0.73253083;-0.2279146;-0.26911604;-2.5858905;-1.4026289;0.7388258;-0.070028596;-3.7458923;0.7850431;-0.93513066;1.0322465;-0.50408185;0.014654412;0.009186814;-0.01864627;2.340918;0.05476385;2.0725267;0.06122826;6.0293946;0.050068308;2.6244607;-1.7212746;-0.9365581;1.7880008;-1.9831505;-2.7533028;-0.041435722;-2.197211;-0.007855842;1.1540126;0.30215496;0.024624616;0.0064334683;-1.4306254;-0.015434307;3.4035797;0.061528582;0.016697813;4.3917356;-0.00016056374;4.5588284;-8.655855;2.3272533;-0.03741368;-1.7078463;0.11011998;2.4977312;-1.8690904;0.024922438;1.8784597;0.37244278;0.57033515;-0.031211637;1.3336155;0.029010093;0.020617899;1.0034139;0.047591805;0.58596283;-0.007022586;-0.9159608;-0.015730562;-0.05849963;-2.4061112;0.00960991;1.3956183;-1.0365485;0.19339651;-0.04992167;0.0073300633;2.3512895;0.3120767;4.137416;0.16593035;-0.045370206;-2.7617412;0.017675512;-0.24062456;0.54708964;0.24338517;-2.075642;-0.002959131;-1.7540821;0.62432754;-1.3044308;2.3217194
-1.8625307;1.6288506;3.5302622;2.2415645;3.6238666;0.034860786;0.8650946;-0.03334364;-2.2112896;0.0082697775;2.252389;-6.0366254;-0.00800578;-0.6628683;2.0812726;2.1671672;-0.07242474;0.36936992;-0.010378587;1.1442921;0.12305859;0.6401094;0.49815884;3.9302404;0.57947975;-4.074099;-0.8655206;-0.49417895;0.0067525296;-0.022629676;3.061882;-2.057009;-0.9560178;0.011423233;0.017482277;2.0041847;2.528368;-3.746189;-2.3239148;0.3261543;0.48096564;0.015386444;0.09811053;1.5645411;-4.965812;-1.5920496;0.008169822;0.49950424;0.015559113;3.0081053;0.22587085;0.034797676;-2.407697;0.63903844;0.022043556;-0.05647902;0.73486245;-0.028625386;-0.8955472;-0.39337254;-12.848302;1.6340212;0.01381201;0.83966434;-1.170309;2.507773;-3.056914;0.5697539;-0.019958016;-0.79190624;1.4894694;-2.7087827;2.240021;-0.63426214;3.6830165;1.7176628;1.8313967;0.23500466;-0.4302041;0.022401452;-0.022327213;-0.031135438;1.0762327;1.0389557;0.32279763;-2.3942273;-0.34291476;0.02469793;-0.008929638;0.50030106;-3.7440581;-3.8121312;-0.0635953;-11.498593;0.0473044;0.5698634;-0.003282132;-11.028522;-1.810325;0.0716546;1.7387011;-0.02597504;-0.0101901265;0.8015272;-0.44311443;0.013537608;-1.549991;-0.02804198;0.01177257;0.021771954;0.43423998;3.1854374;0.36791483;-0.102539115;-0.056662824;-7.170992;1.0718331;-2.1464317;-2.9239414;-7.446504;-0.694351;0.06620615;-0.94736767;-0.40298733;-2.2244115;-0.23436858;0.0643011;2.9998276;-0.6562464;0.020911003;-2.8000426;-0.34878442;-0.042570595;-2.9579127;0.01926635;-0.120910555;2.7860813;-0.5991745;-0.36580238;0.49418846;5.265252;0.05003538;1.9061329;3.5503788;-1.0302546;0.022979986;0.03734513;-1.35244;-0.03018201;2.9215043;-3.2076123;0.22657841;-0.13707264;-0.026716454;-0.55864066;3.0118203;0.0010174132;3.983211;2.171984;1.5649958;0.787455;-3.5929756;1.7042472;0.19283603;-4.6730695;-0.09065609;-15.264446;-4.215753;1.1650494;-0.019944761;0.0033329993;-0.33304542;0.027282577;0.054398533;-0.12537052;-1.564118;-1.9262453;-0.32358998;0.23456281;-0.64813554;1.479086;0.58320224;3.034448;-1.4278439;-0.032255135;1.2968111;0.02517081;-2.2397082;-2.317444;1.6493335;2.1918864;2.2637765;0.43051106;0.81795424;-4.931969;2.3209589;0.004871797;-8.285385;1.2834752;-0.7261952;2.8476703;-0.026370404;-0.023122314;-0.08444559;0.33149615;0.54877925;-0.4395385;0.0391102;0.51334745;-0.04053633;-0.6207185;2.0443904;0.018962888;0.054466844;-0.9681805;-2.3266737;-0.0024854925;-1.3791467;-2.0570352;2.2839773;-5.9703116;-1.6342257;3.0394926;0.6323832;-0.029163972;0.89074737;0.21613859;-0.063655004;0.0051351623;1.3779889;-10.267108;-3.1675265;0.0029870574;0.03800336;2.878992;-0.7571438;-0.1441453;1.525031;-0.056373358;-1.10316;-1.0008895;0.8991515;-0.7685653;0.04148925;-0.07796174;1.5757205;0.17150371;-5.2752295;3.854744;0.013110178;-0.6465793;-0.030324165;-0.0038541367;-0.44986135;-0.040242165;2.6843832;-1.8030932;0.055730518;1.3864334;-4.9423885;1.4607506;2.6691992;-0.253725;3.3339238;0.02600578;0.69942164;0.057317022;0.030228917;-1.8361855;0.017050153;-0.011050111;-1.599736;0.057897005;-2.201835;0.029700007;-1.023059;2.601425;0.011030616;0.63930863;-0.02505682;-0.14674622;-1.6859957;-0.44648674;-1.8399224;0.14601341;-0.047790363;-0.07782085;1.0773599;-1.5631367;-0.052011054;-1.2584155;2.0932333;-3.990513;1.8812337;0.018734578;-0.9396181;0.74624735;-1.4678657;0.3243165;2.126155;0.25734526;0.036949012;-0.016272912;-0.013288288;-0.71016335;2.2339733;1.5169406;-0.014692206;2.1497893;-0.48693168;-1.5779551;-1.2216476;-0.0039990717;-1.765553;0.8561442;0.2778512;-0.23059022;-0.031849258;-0.009775859;0.9080657;-0.6709433;0.045327235;-2.8118582;1.0008935;-0.015110145;1.966336;-0.013710183;-1.9024296;2.0814805;-2.332171;1.9207333;0.0044977027;0.06486274;0.9478062;3.07762;-0.056378365;1.2886548;0.20095357;-0.74952036;3.4781535;-0.04038281;-0.12284242;-0.07285112;-1.9032078;0.92026234;0.016935222;-0.05692902;-0.041843366;-0.9661577;0.18704258;2.1593728;-1.3630191;3.732019;0.4688689;0.11755413;-5.792608;-2.3806038;-0.0029190644;0.6433025;-1.7795906;0.24867742;0.3682896;0.0031918366;2.6275342;0.83402497;2.7940373;0.053982966;-0.63305455;-1.2167016;-0.23133072;-2.8862057;-2.085206;0.006944139;-0.038754147;-0.033833385;-0.04327834;-0.010149763;0.035059955;-0.042708743;-0.15151165;-0.11457549;-3.738334;0.009285321;2.1584718;0.018415634;0.028868886;0.26581824;-0.46233827;-0.51689523;0.097013086;-0.9925645;-3.519758;1.1381314;-0.017192625;0.20201008;-5.269594;0.030514086;0.27277902;3.282652;2.2699447;6.214514;0.008575439;1.8345704;-0.010960765;-6.087658;-2.9096987;0.8810961;0.035513915;-1.7618134;0.02439843;-0.008071782;-0.027118057;1.9001877;0.022494338;-0.67660654;-0.09779365;2.1774852;0.82432413;0.4451445;0.03804993;0.39451602;-1.5573395;0.021270772;0.70863783;2.9341228;0.022770897;-0.04691425;1.8064402;0.41648912;-2.693843;-3.865854;-2.8780932;-0.9309126;-0.008786474;0.007968044;0.99385226;-1.8857577;0.4502061;-2.1474566;0.025652597;-0.025903692;0.1537753;-0.049966507;0.27264464;-3.2194655;0.7514192;0.0651676;-0.92530465;-0.006889384;3.109596;1.5952146;0.003281082;-2.8680618;-0.11992015;0.05486501;1.8251989;0.022404185;-1.7432992;-2.1544163;0.016109357;-0.005503786;0.016874783;-1.9182366;-2.4124706;1.466399;-2.0471275;-0.17887613;-3.6619177;1.4993582;0.02189028;1.1119503;0.2692541;0.01053496;-2.8834631;2.8254638;-0.07178349;0.030878901;-3.6736398;1.9717492;-0.042649932;-0.5799054;-0.49964195;0.31168216;-5.829111;1.8246987;0.049347408;-1.7392327;2.6830058;-0.17457248;-4.09279;0.3676888;-0.9569285;2.1500356;-1.8834275;1.0543109;0.0036329443;-3.0773108;-0.2541069;-0.65056026;0.102437735;-1.3801745;-0.023795528;-0.015234515;0.05584961;2.232019;0.008904427;2.9885893;-0.03159077;0.71567;0.17125328;1.1838952;-1.0178702;-2.8071446;1.442931;-1.4232906;-3.588128;-0.002892951;-2.455019;0.0007493322;-0.39413095;-0.42488998;0.0010299784;-0.0053422316;-1.0374066;-0.01557822;5.7024693;0.01796788;0.019274678;4.2634935;0.019425236;2.782993;-3.7332702;0.012450858;0.02917732;-2.1151536;0.0791209;1.8644778;0.075582474;0.01512674;0.7976884;-1.0646902;2.488372;-0.02640447;0.18010302;0.022530295;0.06519632;-3.3237047;0.0074663414;3.0492892;0.032320473;-2.1949217;0.015163344;0.00803945;-1.5982826;-0.008346541;0.6353334;-0.094442435;1.210587;-0.023645494;0.021654816;3.7421367;-0.308208;0.8568484;-1.3824054;0.029868133;1.2484645;0.01014571;1.4509221;1.6590328;2.852073;0.4804009;0.012595102;-1.7881097;0.8064326;0.2863408;2.0417712
-3.2235296;-0.055727646;3.0097852;3.551208;1.2137134;0.018151978;0.9299078;0.02814343;-0.93609107;0.03592995;-1.7253305;-0.7926055;-0.012289339;-0.42522126;3.3773088;0.985758;-0.004736592;0.51141804;0.014455281;-2.878283;-1.5873928;1.0748554;-0.29961777;3.4968894;0.36193997;0.1533412;-2.441443;-0.75729454;0.01931929;0.019288398;1.7285378;-0.020919897;-0.85395515;-0.015476761;0.04734033;0.6942712;0.93491983;-3.1510592;-3.1688824;-0.49460733;-0.9488612;-0.008049369;-0.88591564;2.1663663;-3.6018558;-2.6285768;0.044964887;0.6262653;-0.001180835;2.6854243;-2.4055364;-0.023500482;-0.31119332;0.6033245;-0.02176746;0.020598866;-1.5563915;-0.0024968206;-0.81967103;-0.96586794;-12.60575;1.1436104;0.014402654;0.6063608;0.6429325;3.109651;0.55237895;0.49945208;0.019371055;-2.055012;0.40271387;-0.4392225;1.4915451;-0.3966351;2.4960413;1.436199;1.1078026;1.3483026;0.88851905;-0.047111206;0.05200717;-0.02306699;-0.08631103;1.6343356;0.08427474;-1.8726686;0.67468065;0.03916084;-0.033968505;0.30945554;-2.5899785;-0.23357773;0.0432396;-10.715366;0.004409776;-0.05406598;-0.027798742;-10.254153;1.0790213;0.009726373;-2.4480135;0.014239727;0.046757426;1.4294602;0.9083059;0.006889529;1.495322;-0.0105424635;-0.004556868;0.034374185;-0.9781477;-0.89199394;2.1272926;1.3337247;-0.05895087;-5.09706;-0.29326293;-1.8561436;-1.9184527;-4.2050977;-0.13920932;-0.014998339;1.2152652;-1.1069605;-4.444479;-0.18896739;-1.5935905;2.468965;-0.15497118;-0.03370463;-2.360137;-0.8263814;-0.027249314;-7.0513997;0.039592598;0.6230795;2.5030873;-2.9419286;-0.26737422;2.3115053;3.3735557;-0.057846796;-1.0102164;-1.7118359;1.6902668;-0.018694136;0.0053126975;-4.470249;-0.0043390384;-0.8051276;-3.9104812;-0.5091033;-0.02164775;-0.056009438;0.306337;-0.85998476;-0.00085553364;0.23517165;1.4348679;-0.39726493;0.34903684;0.2584581;0.89317375;0.3564867;-2.0202112;-0.10877869;-13.544985;-3.7350693;1.2972512;0.034239102;-0.047118872;-5.059044;-0.009838463;0.06754386;-0.008882796;0.85975724;0.2513568;3.9618826;2.1862454;2.2784777;-1.6090403;1.2200372;3.69052;-0.7770276;-0.00087610615;-0.83295405;-0.006482945;1.3047736;-1.9668617;1.6621243;2.6878436;1.7406672;-2.5193424;-0.32661954;0.91212857;2.5621982;0.06047325;-4.1118183;3.0292156;-2.160891;2.7440927;-0.0523477;0.06412799;0.06424965;-1.205654;0.35664693;-0.5768339;1.2284505;-0.44024643;-0.041454505;-1.4027426;3.1137514;-0.01422955;-0.016952964;-0.4966722;-3.748058;-3.4199874;-1.5618538;1.8921642;1.0632265;-1.5216877;-1.2773798;0.02300965;-2.1144648;-0.06818809;0.8579542;2.2205353;0.0029764448;-0.0075921738;0.40419465;-9.891395;-2.175582;-0.018067466;0.012800154;2.130741;1.9034646;1.2060784;1.3029176;-0.013427407;0.06510701;0.6672667;-0.90367603;2.882989;2.0944402;0.021889836;0.9032135;0.49086547;-3.4323225;3.0032644;0.034078464;-0.0073601315;0.019767739;1.0351022;0.1593201;-0.0033187196;0.19052742;-0.32998362;-0.015111968;1.0569407;-5.2562532;1.4834323;2.0739834;2.103381;6.0683036;0.050365232;-0.44937903;-0.20036507;-0.057573706;-2.7222059;-0.05277202;-0.06959993;-3.3535924;-0.7084417;0.50178534;-0.0076913834;-3.853427;-0.5569375;0.008508143;3.572943;0.04539817;0.25883394;0.19583991;0.65308195;0.45334423;-0.097010076;2.091967;-0.02233697;-4.66655;-0.45607334;0.030420825;0.35525784;1.5497665;-2.1810994;1.9745982;0.02797767;0.17786795;-0.8246196;-0.7953674;-1.9773083;3.6134448;-1.716405;-0.09199378;-0.041455917;-0.023609705;-1.4029005;0.8814539;-0.66562897;0.024608256;0.3182267;1.3643918;-0.2522086;-0.1792779;0.085534684;-1.4353627;0.26336852;2.4493928;0.60850513;0.04117645;-0.06068047;0.41733962;1.5024127;0.020611301;-4.4353857;-2.729746;-0.032052856;0.083128594;-0.0046740714;-0.76001316;4.7682195;-2.7009254;1.5949503;-0.014805725;0.13876784;0.2551225;0.8156535;0.041158915;0.47282216;0.4409995;-0.30191833;-1.1405538;-0.061209194;0.5771282;1.2457861;-0.22662903;0.4286891;0.021068724;0.022297928;-0.0024673587;-1.0675415;-2.2504811;2.6933491;-2.49608;2.539117;-1.6688595;-1.0295334;-5.3246145;-2.1797395;-0.0042411424;-1.3470714;-1.9990855;0.9499602;2.096236;-0.039465163;-0.26438344;4.6043663;-0.1638558;-0.02869554;-1.4212351;-1.2945354;-0.5162857;-2.8902278;-1.4787956;-0.0031773297;0.029638939;-0.026711794;-0.005426524;0.01720421;-0.015295324;0.03085806;-0.014374196;0.09924548;-3.9265833;0.029127607;2.7854645;-0.059107825;0.021530028;0.8433599;1.6845028;-1.5229994;-1.5824745;-1.4211084;1.9474417;-0.68408555;-0.015253057;-4.0478735;-3.2240467;0.03524653;3.0448177;2.0853987;-1.3802737;4.2672453;-0.04957217;-0.799022;-0.018218346;-2.1039639;-2.2780738;-0.07610937;-0.253653;1.8414686;-0.014797278;-0.010520923;-0.01692504;2.3555892;0.01806276;-3.5399866;-3.845192;2.741872;-0.20951603;-0.4680533;0.024056608;2.9891858;0.923281;1.6031866;-5.434627;2.8758395;-0.00017773666;-0.059108034;-2.4878097;2.013034;-0.32458586;0.48960125;-5.111611;-1.28133;-0.021281116;-0.0037451994;0.8124515;-1.1279869;0.32599393;-1.1479695;0.026900407;-0.017886642;0.99678916;-0.022384372;-1.0840884;2.5133832;-0.4180385;-0.048554856;1.4221559;-0.007455701;2.2291164;1.4685433;-0.029456927;-1.7548857;-0.013184412;-0.009419218;2.1727717;0.0211919;-0.619324;-2.0601707;-0.013910452;-0.08558151;-0.023543648;2.8050537;-2.3139634;1.9941901;-1.1953609;-0.045558326;-5.535487;-0.11988682;0.016931266;0.8007502;2.181214;0.055559542;-0.5658525;2.3306088;-0.0032976165;0.015422508;-3.929238;1.7126864;-0.022022046;-2.7244499;1.4853302;-1.2307974;-5.1917505;1.752286;-0.046610355;-0.9424389;0.6950545;-0.051137105;1.286805;-0.052552216;2.234814;1.8338485;2.4387307;2.3315294;-0.01964025;-0.1970244;0.027955212;3.0510037;2.6359968;-1.2357327;-0.011475384;0.01754411;-0.0010364734;-2.3601487;0.06120734;3.0392401;-0.014957611;-1.6941793;0.6766683;0.11097522;-0.4686917;-3.7963226;2.6415248;-1.3019134;-2.08606;0.005834639;-1.1266897;-0.03667549;-1.2215669;0.40103564;-0.010602889;-0.029453928;-0.19494598;-0.022615962;3.4408777;-0.0015579725;0.029436512;3.5802126;0.012645298;2.3527098;-2.1805742;0.9194768;0.013602212;-1.2465001;-0.12906812;2.3291388;2.558281;-0.03340809;0.7847838;3.1372929;1.0889716;-0.041144386;-2.1166415;-0.017696831;-0.031668082;-2.6210525;-0.12121381;0.82258165;-0.06236825;1.2689637;-0.024709787;-0.08458626;-0.66088575;0.016976021;0.6879746;-0.7125648;1.598287;0.0016552324;0.017698545;1.6498538;-0.4823949;-1.0655537;-1.6910579;-0.017170042;0.38915667;0.025402552;-0.6276197;-0.36249137;0.8641118;1.4444146;-0.026937934;3.18527;3.9016237;-0.5569438;1.6859155
0.3389903;0.046385728;-0.06259848;2.1508904;0.9580091;0.008714348;1.3242865;-0.067844205;-1.3908676;-0.029950771;-2.3678093;0.9034576;-0.013342063;1.5162699;0.7686707;1.5501202;0.29816064;0.51485735;0.008433184;-0.5629549;-0.7791567;1.5496252;0.24459939;3.1609488;2.285073;-3.0855508;-1.3272424;-3.389346;0.004767037;0.014823224;-1.5059074;-2.7209797;-0.49363822;0.018072072;-0.011073997;0.5105942;-1.4569957;-2.504496;-0.90618926;0.21971393;2.083265;-0.015254477;-0.95534897;0.6632813;-2.9693043;-2.5574217;-0.051291697;-0.032073215;-0.032922957;3.5747821;-3.0392063;-0.018945137;0.40345055;-3.0372593;-0.039195064;0.0321027;-1.3314488;-0.02842341;-1.6987385;1.0374563;-11.220125;-3.332492;-0.012819216;1.5132649;-0.43324435;0.6836306;-1.9998478;-1.3752387;0.014492061;-0.42470714;1.1837231;0.8085387;1.1365591;-0.64409095;0.5754415;-1.5170528;0.5201123;1.984864;2.1690552;0.00813482;-0.0016862844;-0.03810993;1.7036823;0.17832999;0.07946727;-4.254949;1.7695067;-0.050545517;-0.0240031;-0.7911926;-3.2016535;-0.3361051;-0.05005667;-11.37466;-0.052891802;-0.14028315;0.015819497;-10.092407;2.6521525;-4.2051;-1.3919475;0.02008325;-0.054203767;0.43006095;-0.4244059;-0.04776345;1.6136464;-0.085256815;-0.0035798405;-0.02773651;2.3294454;-0.045834005;2.1074817;-1.4529411;-0.0065831933;-4.8854566;-3.8160145;-1.946714;-1.9125024;-0.16494149;0.2853957;-0.034999058;0.29249993;-2.4412467;-2.6535945;-0.3749782;0.28167686;1.6206607;-1.7957109;-0.04074023;1.2544848;0.31091282;0.011190871;-4.0432277;-0.05946589;0.60478127;1.6027957;0.22559437;0.9287419;2.3201818;3.6083932;-0.07121045;0.32223243;-2.6585336;0.41580403;-0.028516524;0.015503617;-1.5712436;0.0004956144;4.286959;-1.5887965;-3.6100883;0.20761126;-0.01799528;-0.44554582;0.2930627;-0.03600205;-0.8922431;0.89234567;1.1739709;0.22721465;1.5920566;1.6888578;0.36342224;1.5505707;-0.05115085;-13.510083;-3.4329808;2.232164;-0.08706262;0.05219291;-0.44365552;-0.007469629;-0.054046445;0.030878454;0.1261106;-1.3337554;-0.17880745;-1.8763926;2.8430593;-1.610846;1.03854;-2.3936682;-0.5657549;-0.020665733;0.47329792;-0.007585947;0.5479546;-1.8343097;0.41249362;0.8505331;-0.48210308;-1.8747672;-1.2829221;-0.668629;-3.0772724;-0.036115393;1.0338036;-0.29945114;-4.673547;2.5812442;-0.016601797;-0.026579494;0.012829569;-1.8811655;1.0934;-0.346138;-3.877823;0.77279544;-0.11131058;-1.7023578;3.268565;0.021871867;-0.06468968;-0.6164289;-4.784308;-2.882001;-1.3083113;-3.590012;1.9595721;-0.14172448;-1.6440457;1.4561244;-2.6827297;0.15247309;0.2132634;0.38987732;0.043992072;0.0050040362;0.30508512;-9.60638;-1.3474814;-0.03236293;-0.025675865;4.540117;2.5649;0.0066459356;1.905125;-0.038421717;3.5440154;2.7824063;1.1661719;-3.4810932;0.0050222147;-0.05769099;0.12434736;0.70368654;-4.81521;2.4421997;-0.025376778;-3.2401829;0.016367022;0.0029753046;-0.61926854;-0.017082594;0.32089505;0.44923043;-0.018828375;1.7124813;-3.5760376;-0.19737765;-0.7207765;-0.8589188;0.2730137;-0.019432705;2.0540493;-0.07159125;0.07003751;-2.1942115;0.0143691;-0.08896413;2.9576783;-2.519681;-0.69863784;-0.03992973;-3.4073088;0.8870336;0.0080635;1.7850671;-0.012091456;-0.6788818;0.27622557;-1.7077113;0.32311407;0.022203539;1.5239831;-0.056948323;-0.27451214;-2.3649666;-0.0886726;3.8551867;1.5742329;-3.1778798;0.28678674;0.0012062696;0.6607929;1.0102824;-0.96040475;-0.0868631;1.0846505;-1.5800074;0.006328535;-0.03340404;-0.029466521;-0.075685695;1.3847207;0.010686787;0.007453174;0.19216926;-1.1495658;0.19569674;-0.8248966;-0.034649123;-1.3201886;0.9405733;-0.68041396;-0.6509872;-0.022052914;0.039658636;-3.0289204;0.73164296;0.033906948;-0.78490263;1.8703126;-0.04316331;-1.4046937;0.001256029;0.6599655;4.1392536;-0.8228977;1.2257806;0.0016465748;-5.424997;-2.2479537;2.6096454;-0.020831183;1.786455;1.1155453;1.454699;0.42245975;0.48983037;0.20763601;-0.7725498;4.8252306;0.5599327;-0.025339687;0.030694436;-0.011491106;-3.985586;-0.2726023;2.9594858;-0.9053015;2.4336264;-1.7873263;-0.15184985;-5.2950664;0.9494608;-0.016745431;1.326601;0.4728523;0.9022418;3.1959732;-0.030970883;1.0486674;1.4054748;1.5493782;0.015195407;-0.9562422;-2.6155117;-0.4161714;0.4973824;0.3695381;-0.026142873;-0.02317646;-0.011716712;-0.046233848;0.032544978;-0.036533657;-0.32826933;0.07482842;-0.0454748;0.33147493;-0.008212496;1.4072454;-0.017996108;-0.019447494;0.15233898;1.0411546;-2.51784;-1.7124033;0.81153905;1.3440446;0.70852375;-0.0040612794;-2.453203;-4.2433333;0.022226928;-0.383028;-1.4521524;-1.413484;1.1795683;-0.03651862;-1.006992;0.015630655;0.106226556;1.2588851;-0.4122521;0.26319897;0.40707922;0.037099086;-0.0007380032;-0.06832615;2.5873046;-0.0315606;2.5291185;-3.7043846;1.4847962;-0.056817368;-0.4735994;-0.046054266;-1.6978201;0.7642995;-1.0368651;-4.624758;-2.8072298;-0.0059577515;0.034669925;-4.580746;0.011575298;-1.2950081;1.6459159;-2.5701911;0.4814876;0.028180446;-0.025224654;2.88752;0.07161577;2.171648;-1.1155548;0.04211257;0.045447662;0.4686147;-0.0067593153;-3.7156022;-2.9953299;1.5313542;0.04227031;-0.2505442;-0.07182398;1.2937422;1.0207025;-0.012476955;-2.6185277;0.2637763;0.005137199;2.079866;-0.053667966;-0.71944124;2.0199072;-0.0046041384;0.69300205;-0.030852614;-1.8026564;-1.6912795;-2.0680602;-0.26154524;-0.071559526;1.3692621;0.4530493;-0.3718321;-0.6895752;1.1966841;-0.0650059;0.22835009;-2.3135023;-0.030335233;-0.009427712;-3.870844;1.3318682;-0.021645613;1.4333026;1.6133039;-1.8008868;-5.3214846;1.758945;0.0043876506;0.603889;0.017322503;-0.04180155;1.1549699;0.030607702;0.23508243;1.1368239;3.1142166;1.2899597;-0.067112915;1.9390602;-0.0038144882;1.6865714;1.4188011;0.51762116;-0.02627416;-0.04507289;-0.015527204;-1.3607504;-0.07739081;-0.20856969;0.0048620338;-4.702908;0.48696655;-0.9756947;-0.58264047;-0.78634816;1.6258394;-1.8311113;-1.3870289;-0.0004626669;-1.6168783;-0.04496086;-1.3835499;0.004925271;-0.058353927;0.04600621;-2.4841712;-0.04237166;1.1279092;0.01891528;-0.04491416;1.9181672;-0.023131657;0.30605844;1.9988168;1.2798086;0.070921764;-2.7959633;-0.27925375;0.8323829;3.5460556;-0.010361026;-0.6984614;1.0246475;0.13332978;-0.021688206;0.34779778;0.017177202;0.028400455;-1.741034;-0.027177008;-0.5186859;-0.003367424;0.45129794;0.019688219;-0.041748427;2.541723;0.008977305;1.1139787;2.7471933;0.724407;-0.01788862;-0.026226893;2.2966783;0.73181146;-0.059976507;-2.052614;-0.007890685;-2.2135363;-0.034291673;0.9006596;0.30801213;1.673149;1.7620994;-0.021927813;-0.36492312;1.1558726;-2.83528;1.8500959
-1.9970438;2.3747265;0.25749958;2.3807414;-3.4327667;0.38641694;-0.7798929;0.016901607;-1.3177027;0.003812858;0.0775198;-1.3401486;0.014270288;0.7799286;0.69344395;1.565243;0.52473134;0.6273937;0.036823053;0.8803538;-0.8607781;0.46832544;-0.39604542;3.2758298;1.954264;-2.4671514;-0.5278454;-4.622019;-0.015355464;0.06559833;-0.8919987;-1.4997572;-1.2087351;0.015552582;0.044661846;0.5279213;-2.3861575;0.2518846;-0.92290753;0.96065944;0.48855335;0.028125698;-0.38845804;-0.63260895;-3.0461805;-1.2443314;0.03939381;0.12640573;0.042836424;5.1183205;0.51900506;0.014031122;-2.5066283;-2.4357038;-0.03489535;-0.02849161;-1.2851058;0.077792466;-2.232693;0.8118788;-11.043263;-2.1466808;0.00595126;0.88853586;0.3888401;0.2028015;1.2284434;-0.79179746;0.027364893;-0.06672927;2.458569;1.7421333;1.1912566;0.5144423;1.3038832;-2.4960198;-1.2691323;2.6988294;2.3636699;0.017363578;0.092485726;-0.0064641456;2.1623049;0.9707419;-0.113276176;-4.634588;1.1410301;0.018752638;0.03142856;-1.0627581;-2.6432962;0.31980386;-0.009610726;-12.002667;0.04522142;-0.6859578;-0.0150637645;-10.727143;-1.0792267;-0.6033687;-0.88890064;0.08078062;-0.009885493;-1.5193213;-0.27465242;-0.008483702;-1.7075025;0.7418339;0.00068404723;0.05759807;0.51408696;-0.1405073;-0.536743;2.4187443;0.030448757;-0.42059782;-2.110033;-2.4498534;0.47709456;-2.1927369;-2.4569805;0.06021224;0.20279656;-1.8320124;-3.906146;0.10238452;0.8180701;1.2418574;-0.06448614;0.009876231;2.106259;-0.23525752;-0.015761763;-3.617036;0.023830736;0.9755081;3.0673501;0.5216184;-0.5703273;4.326992;3.4514422;0.085414894;0.7001669;-0.57260567;0.2641261;0.024983035;-0.0195927;-1.9047463;-0.029642023;2.555121;-5.616728;-0.48101208;-0.0747253;-0.017207531;-0.73370886;0.4386979;0.09805487;0.53368896;1.0222623;0.788352;2.7738786;-2.0405927;-1.2250103;0.17957415;-2.4059768;0.0042076823;-13.612722;-2.8462336;3.1266816;0.17533208;0.007568041;-1.1055021;-0.042262837;-0.016836349;-0.023125831;0.4106975;0.96940094;0.1430048;-5.2228923;2.9288497;0.51876265;-3.0550492;-3.2983809;-0.9890764;-0.04203492;0.5407487;0.013676943;1.5545491;-1.8760768;-1.090245;1.7867274;-0.087789975;0.037022438;-0.7160141;-0.42715606;0.41589046;0.04101157;2.2914042;3.7241116;-1.741808;-0.6333654;0.04944648;0.15073244;-0.013757509;-4.402623;0.03786917;-1.8657873;-1.7711124;1.2741655;0.6200211;-0.6126677;2.7371323;-0.02687286;-0.04200574;1.1574543;-1.4400467;-3.0364342;-1.902744;1.338984;2.9136827;0.85287386;-0.71381927;2.873784;-4.598447;-0.0069406517;-1.0716687;-0.96951926;0.01696493;-0.0037860312;0.0049152193;-10.690681;-1.7955488;0.06105554;-0.005101749;0.7752113;1.3578771;2.2039814;-0.37716246;0.010869555;1.8562262;1.1254737;1.8511835;-3.5406969;-2.8367908;0.68835664;0.6339501;-0.8334191;-4.6999474;1.3875698;0.013021488;-1.2716031;-0.038894635;1.5496635;-0.07124731;0.009975435;0.22738665;0.80912536;-0.0030020133;1.3846533;-3.2042923;-0.7845717;-3.7120366;2.8442817;0.22525054;-0.03352867;-1.6127404;-0.032674886;-0.04514278;-1.3043092;0.029388582;0.22558832;0.3958512;-3.8697665;-0.2272595;0.02968204;-0.5480934;0.44896886;0.024308888;1.8952031;0.07453798;-0.6293679;-0.08634251;0.17606856;-3.2469728;0.009788022;-0.6964351;0.014515578;-0.7638041;-1.1006813;0.51886255;2.6816397;1.4182262;0.35333112;1.8324887;0.0031175136;1.079481;-2.1612275;-1.4514915;-1.6543294;0.5659078;-0.4794246;0.4232598;-0.019568259;0.024874764;0.3695765;1.0324781;4.135637;0.020190172;0.52387637;-6.3100786;-2.1578395;-1.1667651;0.0055984836;-1.3709091;0.7204122;0.19073047;-3.7979064;-0.003358949;0.0199123;-0.19942436;2.2263193;0.0049865013;-2.7353933;0.9470009;0.015386299;0.53837734;0.010094729;-0.27978864;2.5942342;2.256633;1.1442736;0.0136106;-1.9037793;-0.5373565;0.027570074;0.050432295;2.108077;-1.8939966;-1.4107497;-0.8467024;-0.000580552;-2.4121435;-0.24428803;3.3929162;2.2963183;0.030897588;-0.012788747;0.011780887;-2.0819;1.8730505;3.1604104;0.057525452;1.9417806;-2.275308;-1.6824384;-5.233821;4.170746;-0.009054464;0.87113315;1.3352654;2.1207838;2.5738125;0.120472915;1.99759;0.41256163;0.7357044;0.056735955;-0.11353078;1.0863672;-0.42735344;2.2874205;1.6117761;0.0031242024;0.0067796656;0.02708839;0.048233453;-0.033932284;0.01146872;-0.019999782;-0.0025304698;0.08582107;2.2154496;-0.016745353;-0.5057683;0.3043784;-0.056072243;1.5615267;0.24507746;-0.9780225;-2.327904;-2.7994523;2.1226265;0.32619366;-0.0058240094;-2.2899253;-2.0638502;-0.02954362;3.5949569;0.4355589;-4.581772;-1.1609946;0.052745882;-1.1649709;0.057258718;0.47382104;-0.33312893;0.83837485;0.3575791;-2.7804906;-0.0022041707;0.037238587;-0.04380962;0.39076775;0.01364942;-0.21540444;-1.0690163;1.0417048;-0.052831072;-0.3832283;0.045316007;2.4559715;0.20254102;-0.70331585;-5.6752877;-2.909939;0.027859928;-0.022084976;-3.8504632;1.6998004;-3.3538134;1.3180722;-4.9845824;2.2298725;0.048623085;0.135329;1.4870609;-0.3512257;-0.9533855;-0.39049643;-0.020407438;0.042637642;-1.0905753;0.015842758;0.7846944;2.0887918;0.49894908;0.021126654;0.6423714;0.07195099;2.332136;0.9879168;0.025307287;-5.3655457;-1.1425248;-0.006837859;1.9388742;0.04690018;-0.3645532;-0.9950824;0.07103767;-0.17833118;0.106523275;2.3968685;-2.4025862;-0.49598357;-1.4743879;-0.040529896;-1.1599604;-4.2436156;-0.7921495;1.4965767;0.1807801;0.3974549;2.593566;-2.284437;-0.035650264;0.021638976;-6.5055423;1.4666106;0.0077477912;4.280728;-1.0344274;-1.5289713;-1.6262519;1.3267624;-0.00056399935;0.59588325;-0.7632296;0.012215566;0.51833254;-0.0075980905;0.56415087;-0.23602013;1.9940842;-0.21224783;0.089175545;-0.28785825;-0.060873985;1.1219966;1.6715465;-1.4383651;0.032092597;0.2754274;0.009487357;-0.3688211;0.043692455;3.3710935;0.0024307515;-3.0981324;2.5918553;-0.69407845;1.8725;-0.91775864;1.0229361;-1.5465223;0.81607294;0.03697821;-2.2184505;0.0041214847;3.2782729;-0.22854972;0.089996465;0.013113088;-0.72970855;0.032187495;1.3264916;0.006909913;0.04953054;1.5962522;0.013976552;1.020568;0.6842238;-0.8370854;0.0075307316;-0.41692117;0.10009808;0.365486;0.7456464;0.018381668;0.47249043;0.5228135;1.4426601;-0.040915266;-1.5204656;-0.0041855313;-0.04044733;-2.3814812;0.047859367;2.2850091;0.06429655;1.2550352;-0.019353986;-0.037738014;0.12445603;0.020628512;0.45871514;1.9234142;2.682932;0.044239648;0.009344391;2.9216554;0.29757556;-3.1613305;-1.5621613;0.0031082;-3.5643306;0.023530858;0.48953077;1.0098989;2.7989862;2.6469698;0.016337072;2.9416022;-0.9898095;-3.4492216;1.2085211
1.6154913;2.486944;-1.0133911;3.062868;-0.22323444;-0.13895257;1.2714515;-0.026465304;-0.55951256;0.0044126413;-2.8520308;-2.1672084;-0.029895587;-4.4984756;0.83344024;1.7197472;-0.09024769;-0.13985263;-0.0045332555;1.561532;1.8502104;-0.6408471;-0.77225864;3.3863533;-0.40071067;-0.3612221;0.46191138;-0.7407738;0.0038060173;0.03125565;0.09678259;-1.3853915;0.7619248;-0.013896022;-0.0071058557;1.5602878;-1.0817312;-1.7350017;0.14614451;-0.647131;-0.88296086;-0.008007126;-1.148519;-1.250555;-2.1669755;-0.9901614;-0.048898876;-0.32192013;-0.0016108685;4.418524;-0.079818904;0.030614901;0.69400537;-2.801905;-0.0006597954;-0.01162668;-2.3846102;-0.0687701;-4.4682617;-0.28860432;-9.812657;-2.8239243;-0.008686915;-0.70728236;-0.2970565;2.3106945;0.40592197;-1.1218193;-0.028164458;0.08675317;0.22922587;0.258617;1.7321389;-0.13318335;1.2756466;-3.4530387;0.96988046;1.5888628;1.8459791;-0.033496648;0.017568562;-0.057489563;1.2987552;1.339714;0.10074708;-4.8856745;0.20437846;-0.03485666;0.041329075;0.38065708;0.54928946;1.5088634;-0.061717726;-12.750706;0.0069353366;-1.8262644;-0.017181164;-10.9761715;-1.5105424;-2.786669;0.73864126;-0.10172167;-0.09355181;-4.037212;-0.06631582;0.031513073;-2.4799798;-0.22284685;-0.022795355;0.021601183;-1.872979;-1.8191278;0.6195014;0.44138908;-0.01001743;-0.44044396;-3.1705725;-1.3479443;-0.22012785;-3.5216944;-1.7933699;-0.17231259;0.16525435;1.6177881;-0.8970645;0.7760222;1.3394083;0.65968835;0.3995838;0.0024914064;1.870573;-1.1350971;0.0016274139;-1.6909653;-0.008253497;0.37073016;1.1425691;0.11526479;-1.0998694;4.437093;4.4146852;-0.06857103;0.2601386;0.82476264;1.6328641;0.035744492;0.0030547376;-1.2427981;0.053370614;0.10441099;-3.1677043;-0.41594136;-0.1939208;-0.019531311;-1.2062459;-1.3435776;-0.025513295;-1.2851133;0.17461355;-0.7034138;1.2412891;-1.7442212;-1.10852;0.2299698;-4.477456;-0.024230361;-13.601062;-1.7555461;1.7365689;0.09635773;-0.03335955;0.1863474;-0.006376402;0.12731741;0.008341583;0.18091363;0.6552313;-1.3072696;-2.6855445;3.2505512;-0.9568457;-1.4117252;0.2921048;-0.10905935;0.019672494;-0.6096397;-0.039051723;1.1783497;-2.1660547;-0.92438686;1.415362;-2.5247664;-2.2035813;2.152501;0.8460636;-0.6570282;-0.023504725;2.5669932;0.91811645;-1.2547117;-1.5870473;-0.014483171;-0.051597558;0.0034613502;0.24696606;-0.08088265;-1.0521249;-0.5593293;1.2505479;-0.104104795;-2.4818845;1.6703649;-0.03196538;-0.12604643;2.9520543;-1.8447618;-0.9951033;-4.164903;0.97061116;2.6870134;2.7282732;2.1692927;1.796056;-1.6401893;-0.060725573;1.0290442;-0.53406435;-0.03308674;-0.040201508;-1.6817297;-10.025282;-1.2681162;-0.08631386;-0.07246053;-2.677104;-0.6617323;2.0537977;-2.409774;-0.043368522;1.3875579;0.9165915;0.34660077;2.3520048;-2.9449975;-0.21821672;-0.12904182;2.096935;-6.6817193;0.88545716;0.012641418;-2.484741;-0.0011248735;1.3989812;1.9743507;0.057006758;-1.456238;1.4812796;0.030179955;1.5119196;-0.9047395;0.22252911;0.11512843;0.761502;2.026252;-0.0071248007;0.9569796;-0.020410234;0.18913528;-1.7635227;-0.06475241;-0.08334864;-0.9011198;1.7479225;-0.93500495;0.0015130376;0.1842994;-0.37226516;-0.005980832;0.5625805;-0.02880439;-0.47204357;0.7571616;-0.4456687;-1.6843802;-0.028607251;-0.85872823;-0.024631137;0.3742356;2.0147212;-0.12106266;-0.55176365;1.9194958;-0.55003434;0.29613224;-0.009527181;-1.4561167;-3.358497;0.30037948;-0.9228081;3.1764565;-0.107789256;0.025865959;0.0268648;-0.022442872;-0.118839934;0.533894;1.5496224;-0.0076177376;0.9925247;-9.0705185;-3.8203552;-1.4462229;-0.023910817;-1.5197301;0.120979145;1.2502888;1.2840085;0.00210812;-0.03039412;-1.2238123;2.6578326;-0.017585216;1.4347775;-0.31779447;0.040166132;0.29625356;-0.03399808;-2.4385796;2.5199919;2.3889616;0.30347222;-0.019267663;-0.7378191;-0.6795618;-1.4413376;-0.047405124;1.8243469;1.1882609;0.020053543;4.1488037;-0.07161793;-1.6751789;-0.7225567;-5.780339;1.9245052;-0.03615984;-0.021334758;-0.038135923;-3.7438633;1.329266;4.3694544;-1.8685241;3.1119268;-2.1794991;-2.5052161;-5.613689;2.6041663;0.005787306;0.9839281;1.6095465;1.4002526;2.0443518;-0.017329926;1.1875538;0.37539688;0.6891231;0.025779868;-3.2539916;2.1437192;-0.4463155;5.736369;1.7822738;0.0063513443;-0.009459653;0.064669356;0.021521118;-0.00086017716;-0.116479516;-0.26651895;0.67895144;-0.112093545;-3.0673108;-0.009860752;-0.13242005;-0.10318561;0.049659733;-0.2946841;1.7601479;0.038599145;-3.8578658;0.52211225;-0.7597683;1.1446972;-0.009349213;2.9459603;-0.77171975;-0.018659988;-1.4312638;2.288972;-3.403253;-1.5855573;-0.0075543327;-1.0581241;0.0054406566;3.0867362;-0.8095881;-0.8787674;0.19469452;0.9062697;0.026825005;-0.01997384;-0.044050753;2.9672399;-0.012269271;-0.1482659;0.3729283;0.98834383;-0.039782953;0.55986434;-0.04659919;-0.07610852;0.5424399;-2.5195634;-4.6133056;-3.625342;0.01865723;0.0019513333;-1.0629609;0.13187578;-0.9532679;1.8745216;-5.0053067;0.056235574;-0.06809263;-0.07782121;2.0320735;0.30765027;0.941014;-2.051326;0.00885113;-0.018680677;-1.7011416;0.022572791;-0.34373835;0.6944082;-0.09128028;0.03446222;1.3272223;-0.055794418;-0.4290818;0.9685087;0.0072534196;-1.028252;-1.5588794;-0.03347631;1.4213594;0.0012995247;1.4351165;0.9937217;-0.06075037;-0.07079234;0.0037406588;2.5187585;-0.69269717;-1.1806996;-0.60747737;-0.016468216;-1.3694497;-5.481527;-0.7480992;1.9296733;3.2859812;-0.07493063;0.29215494;-3.1960316;-0.000423034;-0.03543834;1.7295897;0.89097184;0.057113715;3.052879;0.40388414;-0.99447805;1.848187;1.4180818;-0.07159478;0.47373822;0.7216543;-0.020620357;0.9313643;-0.017896114;0.18817534;0.7320943;2.5055585;0.8788412;0.05589414;-0.06418209;-0.019951887;2.1478736;1.9041747;-2.1289265;-0.03002336;-0.11774406;-0.038992897;0.14069833;-0.017259803;1.8187839;-0.03339364;-3.158196;0.93921;-1.0918096;1.5512505;-3.1271782;0.8848665;-2.3247004;0.61782306;-0.09080556;-2.63954;0.26984155;4.4675503;2.7430472;-0.022190247;-0.011984276;-1.7271448;-0.027167352;1.1792911;-0.037465252;-0.055387188;2.4143324;-0.02056931;0.018722747;0.6792105;0.3295812;-0.03226814;-0.8733233;-0.23599127;-0.11034473;-0.4954116;0.008271132;1.1901526;-0.36884063;-0.75761616;0.034003478;-2.3038135;0.009576461;0.009851735;-0.7381109;-0.024988784;0.12115227;-0.017635297;1.5731999;0.029889932;0.7527231;1.7030067;0.04025119;1.368584;3.632796;0.62104976;-0.033920895;-0.038602356;2.4165325;0.63226783;-0.32470164;-1.5637414;-0.024467131;-4.7007775;-0.12796481;1.0234603;0.5782536;2.7636218;5.0212746;-0.08114925;3.374691;0.15823627;1.6619097;1.6081331
0.38925812;1.9909216;-0.48945367;-0.08042371;1.0280997;0.08477037;-0.04130175;0.013713606;-3.2790139;-0.039462484;-7.785406;-4.0488043;0.011043193;-0.25387767;1.859515;1.8708513;-0.07668421;-0.374884;-0.06330578;-1.0696261;0.5940189;0.7330228;0.24516208;3.6337245;-2.7261739;-2.617598;-0.18749826;-2.3193953;-0.035076227;-0.05946464;-0.017876707;-0.81831086;0.25933594;0.0037893802;0.025829537;2.4935293;-2.1970725;0.8827525;1.649975;0.11985423;0.9571302;-0.07695515;-0.72592276;-0.31846324;-5.9881597;-1.9197873;-0.000425923;-0.11806041;0.014924996;4.2031674;-2.579351;-0.065988556;0.77215266;-2.5709214;0.011948711;-0.014585071;-1.6109154;0.06721993;-2.5649014;0.4446317;-6.3463855;-1.0262423;-0.02312909;2.237988;0.8307922;2.1070886;0.81700075;0.5368308;0.009449663;3.422452;1.0880376;0.51996195;1.8048227;0.3943075;1.5695014;-2.5803988;0.008731997;1.6256424;0.9752527;-0.046637524;-0.002269105;-0.1749917;1.5770214;0.9518072;0.33534285;-2.932937;0.5381395;0.043501604;-0.028764416;1.1850946;-3.984455;-2.0918655;0.0066665253;-13.18887;-0.039677467;-0.34917763;0.020545587;-11.078201;0.06456416;-4.562736;-0.24498895;0.008052032;0.9139808;-2.4238365;-0.039130602;-0.0712579;-2.0506883;-0.0062179766;0.0004370825;0.024474202;-1.194695;-2.2778873;-0.25528777;-0.09832384;-0.004300051;1.7038783;0.23327193;-2.4570916;0.23536849;1.8504207;1.4306371;0.06533469;-1.4105024;0.2394736;-1.4409242;-1.1765395;2.5457501;0.033475563;2.1863449;-0.049024846;1.0869863;-0.14827909;0.0014262763;-6.934717;-0.0081314;1.3606876;0.33772132;0.4717419;0.65674204;3.851705;4.042752;-0.04711554;0.010400888;1.1132843;2.2135718;-0.024398994;-0.040964395;-1.9461535;-0.026366455;-0.54132;-1.0279367;0.07520058;0.14259051;-0.00789908;-0.21348463;2.154389;-0.040323623;-1.5216718;0.5714415;0.696329;-0.90837145;0.7556848;-2.2870386;0.09025521;0.94726336;-0.0060697854;-13.643404;0.17164722;2.293706;-0.003136696;-0.022135533;-0.14788146;0.0036573564;0.09056319;-0.027203575;-1.318427;1.626155;-0.8826527;-3.1200116;3.178836;0.6407403;-0.47796014;-2.4893057;-0.82860667;0.047107287;-1.6414704;-0.040255364;-0.4424734;-2.2800386;1.128885;1.8838196;-4.2055187;-1.1870064;1.6013392;2.588912;-0.5052092;0.038604368;0.64372826;1.1531719;1.441906;0.37984407;-0.022673039;-0.008263172;-0.062075928;2.635531;-1.4195006;1.8487221;-0.19340466;-0.052459244;-0.0013235315;0.52245754;0.20416886;-0.03633925;0.7929849;1.4388844;-1.4795146;3.0435212;-2.4082377;-3.6245944;0.22730389;-0.22467586;0.8302066;1.9809681;-1.0636035;0.011971809;-0.34703472;-1.2171352;0.0026736043;0.018144943;-0.7573796;-10.364803;0.82593936;-0.09096907;0.0045923446;2.1419077;1.3226646;0.5502391;-4.0245624;-0.02297969;0.13460347;-0.35540342;1.2511517;2.2119842;-1.572136;-0.07231682;0.23347622;3.6318252;-4.719326;1.7374393;-0.048819005;-4.780985;0.013203003;2.0708098;-0.08041511;0.06048791;-3.7749393;-0.8552654;0.01566294;1.7993776;-2.1379247;1.0160413;0.679617;1.169538;0.68863624;0.027568346;0.27171645;-0.019702066;0.09424452;-0.94589955;0.052205328;0.006319105;0.9361858;-2.6595023;-0.5191434;-0.009851591;1.1565315;0.4217472;-0.0015471538;0.8283625;0.026755001;0.792305;0.108806044;-0.03601306;-1.2629678;0.015115087;-5.177181;-0.005933659;-2.7790585;3.056637;-0.0041234787;-0.013215977;2.057982;-1.9588833;-1.9148864;-0.0150059005;0.63189495;-4.2131968;-1.7299588;2.1313694;-3.348206;2.656952;-0.02207793;-0.033197895;0.0044606477;-0.85028815;-0.17608845;0.39331785;0.063766;1.065467;-12.603663;-5.2549176;-2.0320978;0.02099454;-1.6526555;2.1818159;-0.6277009;1.3837137;-0.041504547;-0.013400086;1.386092;3.0353577;-0.03501253;0.36141312;1.2018603;-0.17703453;-0.5189691;-0.014330802;-0.42656988;4.396781;2.335462;0.16802298;-0.0029002272;0.011197406;1.0881542;-0.32278484;0.022279806;1.0632526;-0.6159884;1.7779956;-0.20199732;-0.043825552;2.27873;-0.18785028;3.1366894;2.8718724;0.005297502;-0.007935551;-0.019953316;-2.7309601;0.5334257;2.3446746;-0.6587797;2.0442908;-2.8997898;-5.6939983;-6.0002527;2.3789635;0.0038467697;2.4354308;0.66674095;2.0271719;1.5688931;0.010332601;1.7178131;0.91613543;-1.6271207;-0.063971646;-1.2599839;1.2207558;-0.3872734;2.043373;0.46140197;0.021079173;-0.037712436;-0.04516679;-0.046114832;0.06495137;-0.0975186;-0.06774484;-0.3351819;-0.013147331;-3.3642144;-0.004850591;-1.4495156;-0.03723668;-0.003133471;-3.002665;0.45338234;-1.3267558;-2.1881673;0.2121798;-0.39239243;0.76177007;-0.045912497;0.93478787;-1.8965361;0.057683516;-0.7922532;5.27024;-1.0151038;-2.0013468;0.009573483;-2.542769;-0.029954521;2.3201215;1.5814644;-0.56343687;-0.38326758;1.1196272;-0.00080145005;-0.022311572;-0.06573532;1.543975;-0.037538793;0.14669155;-2.1757998;2.0715392;0.030003097;0.21405016;0.037634127;0.5606628;-0.6027721;-4.4923196;-2.5030134;-1.4151356;0.0019223053;-0.018665807;1.4193239;0.80093366;-0.9211186;2.0178397;-5.0533834;0.539908;-0.009399541;0.008100975;1.4260623;1.3610902;0.16623761;0.6911207;-0.0036596365;0.0022487002;0.06301154;-0.071214266;2.0576816;0.05298981;-2.2206616;-0.06296223;-1.1174294;-0.010762986;-0.97360957;-0.79475975;-0.088849366;-1.3497305;-1.7498302;-0.063393615;-1.2271914;0.00760263;-1.4094478;-2.4044368;-0.023587631;0.06375436;-0.025080094;5.6134562;-2.190676;-3.8706787;-4.3265553;-0.03677189;3.0526326;-3.5012612;-1.0186319;1.1526613;1.1047409;-0.03390175;0.29552093;1.6506494;0.014108189;0.027244784;2.5360937;1.4090132;-0.03227784;1.1598679;1.4953786;-0.8081088;-2.2648106;0.829007;-0.21934302;2.623299;2.3162477;-0.017993443;1.8526988;0.14322405;-0.82965493;2.8119023;3.429435;2.748516;-0.039873816;0.19789575;-0.043763198;0.76077497;2.37713;-3.835241;-0.05934092;-0.058337823;-0.024825504;-1.0855234;-0.09600311;3.3377717;-0.028152054;-0.62746805;0.73309267;-1.3774271;0.3083193;-1.269188;1.8108526;-2.1532643;2.6314096;0.010633288;-1.5440646;-0.12049033;2.573982;0.3067519;-0.010031433;-0.018183568;-0.12359622;-0.0054942793;0.4656368;-0.018848654;-0.009161103;0.6680461;0.061777517;1.0443649;4.7270546;-3.9390728;0.002146236;-2.0302243;0.085714266;2.7340832;2.6759372;-0.04300469;0.88358694;1.29766;-3.000505;-0.028685158;-3.13433;0.015331024;-0.17991698;1.1849757;0.011004004;1.7034869;-0.03145881;0.5916121;-0.014240922;-0.16331139;1.412255;-0.023453105;0.9601399;0.12582067;-1.0341613;-0.037282083;0.009865224;1.3818675;0.89922446;-2.2219367;-0.42444944;-0.052725133;-5.03557;1.0358098;-0.069707215;-0.009309163;1.7145498;4.74729;0.14598292;2.4375002;0.5199065;-1.450171;1.5992522
-1.113867;2.4937315;0.026428958;1.3634367;0.47158408;0.020967448;-1.6312557;0.042354017;-2.6777074;-0.0141433;-7.964687;-3.7589061;-0.028388206;0.18295632;1.0383517;1.2993166;-0.023927776;-1.1499398;-0.019098597;-1.0068944;-0.3539273;2.0269973;0.750647;2.6278021;-1.7805631;-6.3241057;-2.709445;-0.43985754;0.049236383;0.013968289;2.0218868;-0.102056436;0.03692577;0.018789873;0.025169997;0.06539714;1.4984374;0.22207974;0.41505364;0.98332053;0.46779993;0.5237859;-1.4333001;-0.3979169;-5.9039316;0.79979086;0.061481465;0.76256967;-0.015771486;3.7538922;0.06045125;0.02177518;1.410804;-0.30461103;0.012940827;-0.07495946;1.0636606;-0.04809287;-0.04700326;1.0773282;-1.6250412;2.5140681;-0.005215433;1.7110436;-0.21324536;0.20311634;-0.41379896;-0.73260707;0.026952153;0.7328077;0.21993324;-1.3446252;2.1468828;-1.2645277;0.13443218;-3.6932716;2.198253;1.4167731;2.391029;0.013224768;-0.014616393;0.60340416;-1.4651585;1.3716066;0.055077072;-1.4968321;1.7822003;-0.0025600763;-0.02224125;-1.5865165;1.8335042;1.1734076;0.045889236;-14.0825815;-0.022034805;0.61211115;0.010526793;-11.284638;3.18657;-7.155984;-0.8406103;0.24162905;-0.08933258;-3.5632856;0.48384175;0.022475062;-1.8700932;0.017029798;-0.008142573;0.0049420786;-0.414203;-0.46052724;0.2941697;1.2166263;0.052912254;-1.1836157;-1.177634;-3.5749083;1.0293359;0.53952265;3.9164815;0.7110769;-1.2054156;1.326564;-0.66495883;0.5132242;1.8111099;0.14057244;1.8844358;0.01440451;0.56235176;1.9762359;-0.03930331;-3.418602;-0.02137345;1.4524765;-0.4267845;0.8225188;0.8720166;-0.08009319;2.2718916;0.031276155;0.5850906;0.19386888;0.18474722;-0.045997422;0.025628382;-1.608024;0.016165368;0.26813835;0.29501605;-1.9068625;0.09489809;0.014650828;-1.7710474;0.64079094;0.0032010467;-0.2593924;1.6663523;0.45431218;1.3201814;-0.9432365;-2.184086;0.07025828;1.3409898;0.04051585;-13.605364;1.3702811;2.080411;-0.010569446;0.038982112;-0.26532084;-0.006517048;0.2074671;-0.035904996;-1.1002836;2.0095096;-1.618391;0.9532299;2.2746568;-0.15682961;1.776627;-0.18322335;-0.57605284;-0.04702176;-1.1271952;0.024020202;0.50847995;-1.6294609;-1.458729;5.38712;-1.3037189;0.13548039;1.6141473;0.3343266;-2.1196625;0.019432418;2.0820627;2.3045118;-1.488264;-1.3025169;0.023725986;-0.04668411;0.013226184;2.8244543;3.2010245;1.0453401;-0.40697384;0.93974394;-0.032626446;-0.37571263;-0.8262317;0.0018186838;0.15376109;1.9719273;1.2621933;2.3902574;-2.4562309;0.96347004;1.7058141;0.4843632;0.23981847;2.381149;0.036156908;0.030437715;-1.3767265;-2.5750442;-0.042013012;0.08598134;0.7485714;-9.825897;-1.362735;0.57701373;-0.011103481;-0.21944532;-2.7929182;1.3086073;-4.143674;-0.008932814;0.50991714;-1.4408925;-0.08086518;2.591169;0.1310979;-0.1458884;-1.2966946;2.5638528;-5.583652;1.8765187;0.06845873;-4.2292633;0.11524412;0.13702388;1.0205781;-0.036080133;-5.1629586;-2.426006;0.4353207;2.5868058;-1.1320733;0.4690352;-1.8667287;1.1057023;-0.78130865;0.0063790134;-0.8050167;-0.0034519301;-0.03990067;0.650607;-0.023024868;-0.03926871;2.2016392;-1.2635359;-1.5608537;-0.0037205394;2.1682994;-1.3761245;0.0233628;1.1520416;0.027343739;0.6177761;-0.7693382;-4.5438814;-0.3545128;-0.07227235;-3.142317;0.02037553;-2.500733;1.9036295;-0.05700552;-1.5307969;1.1839418;-0.4824687;3.532258;-0.017386839;-1.6812457;-2.6474133;-0.6768722;-0.61457837;-1.833086;3.9190085;0.08319118;0.049025044;-0.034469068;-0.008653077;-2.5339763;1.5248121;-0.017684044;-0.6912595;-11.956751;-3.801722;-1.6950893;-0.013002232;-1.0247774;2.3771555;-0.22447994;-0.85934544;-0.012685804;-0.029230215;-0.84483165;1.6918339;0.024288556;0.92863625;1.1935233;0.59355634;0.13521624;0.008306868;0.30752805;2.9341462;4.100573;-0.59057766;0.06379098;-0.5352346;1.4468753;-0.746096;0.031634632;1.4555163;-0.9675758;-1.4407889;-0.26419654;-0.0063573993;1.7628393;-0.55431014;0.56359017;3.2194467;-0.0013243401;0.0008312949;0.055541422;-0.022638243;-5.306289;-0.8244891;-3.6930325;1.6970398;-0.43413445;-2.849446;-6.1528234;2.0801642;-0.02283831;1.2010821;0.6282846;1.7871052;0.2754521;0.008802573;1.495105;-1.3176615;-2.9069173;-0.028063392;0.786289;0.22921102;0.17263958;0.24930048;-1.4185538;0.03287351;0.037187073;0.04323261;-0.06055932;-0.034835897;0.86121124;0.087226935;-0.15802562;0.02675018;-2.3758843;-0.009213366;-3.385752;-0.030874273;0.03778356;1.3901318;0.083816;-2.912185;-1.5050547;-5.851873;1.3400866;1.0096681;0.0194538;1.1287023;0.82595617;0.0027844354;-1.4136726;2.8249383;-1.5116507;-5.0558457;0.020137046;-3.947438;0.025018217;-1.9112378;-0.85126513;2.7871504;-0.02674449;1.6905147;-0.003433993;0.013249977;0.7333677;-1.2160269;-0.037832037;-1.198124;-0.4466918;1.7003556;0.011331809;0.30607587;0.053845286;-0.74112916;0.82872343;1.0898702;1.6370147;-2.560381;-0.019709373;-0.021307053;0.25242797;-1.2053611;-1.4214044;0.25770283;-4.761464;-0.20263724;0.022513058;-0.016874917;2.2451086;-0.54786044;-0.070369735;0.36120474;0.007872546;0.0446681;2.0652258;-0.009664179;-0.90266037;0.2790394;-1.1267147;-0.03102;0.4624353;-0.0320628;-2.0198147;-0.041313607;0.068894014;0.52140874;-2.153899;0.5949804;-1.8381206;-0.024541749;-0.30376184;-4.350627;0.04403617;-0.07657807;-0.05478166;1.8386889;-2.6558235;-0.5385384;-3.3088596;-0.008577255;1.9249103;-2.5717783;-0.6367629;1.3083606;-0.9843384;0.028460247;2.0352285;0.6653729;0.013189522;0.011184753;2.125961;-0.77463263;-0.012901974;-0.7121972;1.057353;-0.0712918;-2.2027543;0.5566673;0.9208762;1.8158205;3.0141797;-0.003221738;0.04694515;-0.053811725;-1.1220437;2.6984222;-2.1453044;0.092360936;-0.04827397;0.026424905;-0.04691386;0.2974366;3.049173;-3.1770499;-0.025184685;0.23202196;0.08698927;0.6837951;0.03915243;2.997415;0.025210973;-1.3740803;1.3637881;-0.20579758;-0.71126974;-1.3578435;1.3394074;-1.8996068;2.1824577;0.048555102;-3.6656723;0.039202783;1.7399019;0.5884544;0.020948308;0.020028256;1.2049419;-0.007958699;3.504279;0.015200662;0.042023234;0.0357088;0.04064967;0.4930826;5.3317313;0.085219964;0.019458454;-2.846194;0.022915885;0.78774047;1.5266775;0.02473991;1.1916642;2.3683581;-3.247006;0.048572972;0.5721327;0.005785762;0.61110127;1.8998792;0.03803717;0.8613992;-0.0007296021;-0.30983785;-0.0020409778;-0.042653974;0.33623728;-0.014647748;-1.3992478;-0.6677565;-0.46199328;0.05144752;-0.040216476;3.010748;0.9996829;-3.943655;-0.12306919;0.0064878548;-3.4685657;-0.1942157;1.9262376;1.5620958;2.4438853;5.1360135;0.69279045;1.1420459;0.32430854;0.8772933;1.3303155
-1.980762;2.4924786;1.3160936;1.2105705;2.4123478;0.048000045;0.44829604;0.015459012;-3.2252421;0.04854626;1.7574388;-8.384154;0.08485689;-0.312426;-0.3656371;1.6306531;0.037448533;-0.039758712;-0.065799266;-1.0020982;-0.22719312;1.4950272;-0.74264526;3.0530174;-6.632188;-7.4152355;-0.32601312;-4.4740305;0.0538309;0.04317669;-1.4088777;0.07618873;1.9063057;-0.017342065;-0.047623236;1.8115419;0.113605686;-0.5016759;1.4805287;-1.7839031;-0.2876544;-0.09609624;-0.78669226;2.218717;-7.0664654;-1.3118178;-0.026569495;-0.15305366;0.19200648;4.2873363;2.360347;0.014845885;3.2242756;-1.1511892;0.049843255;0.029833062;-0.65716314;0.16780381;0.3999927;-0.63615036;-0.05712669;3.7559657;0.0369282;-1.4136372;1.0436962;2.7840831;-0.14500217;-2.357776;0.058155593;1.0703645;-1.9029552;-2.1596909;0.38877007;-1.4852396;1.4153643;-4.0719433;-0.21723363;2.289055;1.770787;0.048121914;-0.026756022;0.12530829;0.76497626;0.5492172;0.31732386;-2.7310178;-1.2966924;0.0043147625;0.009839048;-2.1496162;-0.8999693;-1.6911483;0.043065336;-14.378395;0.039668914;-0.1368532;0.010528882;-11.319801;3.8725939;-7.6118135;1.404666;0.016494684;-0.047880694;-2.445831;-0.1997583;0.039419156;1.6006261;0.014723229;0.007508373;0.0057559614;1.7622831;1.7831057;1.6972587;1.0297898;-0.027342577;0.40072545;0.22787306;-2.0881784;-0.4278602;-1.5758281;2.14319;-0.18262702;-0.8456982;1.6144073;-0.1891676;1.5584865;5.2360926;0.59563065;-3.1046479;-0.012908539;1.9329565;1.0569245;0.025659503;-4.995265;0.0031094172;-0.9474094;-0.60320115;-1.0276724;-0.81948656;0.06650981;2.5912244;0.06787018;0.50437057;-1.5370914;-0.013071127;-0.031120392;0.03419369;0.4937539;0.0069582365;-2.33489;1.2190368;-1.4461939;-0.016861867;-0.08424551;-0.07646566;-1.1836323;-0.010890555;1.6131202;1.0602026;0.8872435;-3.0751624;0.050503228;-1.2351899;-0.27685922;-3.6908686;0.026524752;-13.406499;-0.35988164;1.0510821;-0.0130558675;0.086583614;-0.3233976;0.032635234;-0.05034981;0.013014272;-1.4584782;-1.7282149;1.0528786;-1.0675695;-0.5695276;-0.84629595;2.2302032;-1.6329002;-1.7330502;0.055623073;-1.4868237;-0.0022304584;0.87915736;-1.8779709;-0.40311828;3.7293932;1.6324278;-1.3374112;-0.37411353;-0.090964295;1.3502936;0.02314409;-0.15477604;1.6629994;-2.334556;-0.67984486;0.046766195;0.038237657;-0.0313384;2.7729776;3.1289701;-1.8702136;-2.087419;4.118918;-0.0003812213;0.38916147;2.3506224;0.06449849;-0.20994182;-2.9268591;0.7362649;1.4125538;-0.8832254;-1.6176155;1.6897665;0.15284017;-1.2911268;3.4136448;-1.1131126;0.047463425;-0.6589373;-1.2135732;0.0042935754;0.01892956;-1.839808;-10.130036;-0.03434121;-0.07036868;-0.033079013;-0.45650235;-3.2349184;-2.2180364;-2.2336216;-0.008333604;0.39502814;1.402545;-2.3405921;2.4681191;-1.4957981;0.14598824;-0.89492196;4.643234;-6.06579;2.6111786;0.045681097;-4.8313503;-0.020987049;-3.608633;1.8689702;0.038562234;-2.9791875;-3.9308207;0.052826148;1.9394387;-1.2566642;0.005928535;1.5453416;-1.0828642;-0.35375842;0.027776595;1.0492052;0.0073032384;-0.0015933936;-0.5490399;0.0083381925;0.0030193613;4.3465557;2.6808662;-2.4240758;0.008854392;1.7146446;2.3710742;0.017888442;1.2187917;-0.014281785;2.119183;-0.3177974;-3.2164993;0.7288505;0.03528148;-3.7485352;-0.020892523;0.89413804;0.39501107;0.037116405;0.16831371;1.0622689;1.321427;0.7057069;0.040188868;-0.7907895;-3.6344836;-7.029386;-0.64775175;-1.3133923;-1.3623954;0.09058145;-0.013784155;-0.012898037;-0.5243901;-2.2763345;1.5558193;0.012129036;0.78494745;-12.5307255;-3.1269379;-1.0082077;0.034619827;-1.3833374;-0.5718704;2.1564739;-0.3949912;0.005834606;0.010980429;1.2024783;1.3417234;-0.042831305;-0.35060206;-0.09289453;-0.109577954;-0.023661418;0.048059124;-3.9096642;1.5022684;-1.4161452;-0.026047405;0.00836877;2.5027664;1.5827081;-0.4993135;0.00044011223;-1.6731087;-1.0694584;-1.303277;0.5780305;0.006190427;1.67911;-0.36804423;0.5385611;4.121336;-0.00830374;-0.019198883;-0.0058956873;0.38871092;-5.4838686;-0.56688946;-3.7555704;1.3780771;0.9296286;-1.4275459;-6.270888;2.1729445;0.08030667;2.5260715;-1.2223042;3.9629252;-0.70469606;0.047757905;1.5902512;-2.1583333;-0.9235285;0.06727469;2.9499352;0.94585866;-0.28094834;2.8233023;0.16773959;-0.010222277;-0.05185481;-0.01423027;-0.005541259;-0.027035058;-0.0564284;0.44769827;0.013942328;0.0255978;-1.6360993;0.023205075;-0.6444955;0.043910533;-0.023232095;2.6399052;1.5929834;0.36671433;-2.7254145;-3.1295426;2.3610923;-0.20559631;-0.0072346595;0.041576006;-1.28637;0.057765167;-0.5387566;2.233387;2.732974;-3.4425898;0.016217018;-3.0139766;-0.013168031;-1.9490699;-7.538667;1.1645324;-0.044865157;0.8130154;0.013321646;0.024821399;-0.105014004;1.2241815;0.74229294;-0.89786845;0.539697;1.99977;-0.004784311;2.8730917;-0.053298663;0.93410665;0.6478555;1.0653654;3.6644394;0.49173537;0.021388672;-0.024528818;0.92033;-1.5857508;0.5258218;0.06533488;-2.7918797;3.1927545;-0.031538468;0.047185913;2.7152157;0.6513545;1.2591945;2.7407908;-0.020812957;0.010734061;1.866271;-0.003455332;0.13865402;-0.072685815;-2.585145;-0.025563054;-0.66157204;0.046514776;0.92583025;-1.159089;-0.006185849;0.072704054;-0.9511404;-0.07967473;-0.6746608;-0.03379786;0.1378039;-3.0908625;0.052234508;-0.013795729;0.3503595;0.6114918;-2.1147082;-1.5286591;2.7977834;-0.009315799;2.7127528;-0.52265614;-0.30001265;2.0491838;0.90814626;-0.08880599;-0.0104435645;2.0939033;-0.013304653;-0.04830716;1.1299763;1.3849375;0.026597949;-1.0916733;-0.5072246;-0.6767602;-2.13002;-3.6422024;-0.21150303;-0.11645928;1.3568621;-0.006956524;1.3626213;-0.15838727;1.9354159;1.332678;-0.4812946;0.97572964;0.0794717;1.6026086;0.04795494;1.442122;2.0236712;-0.8515617;0.7230046;-0.018118322;0.00055537774;-0.09800271;-0.011976973;2.919648;0.050935436;-1.1566536;1.3410217;0.7451974;-5.4938526;-3.7837377;0.6006006;-2.0535572;1.6079048;-0.004257512;-2.1962655;0.005454248;2.423609;3.3663712;0.013963216;0.0065767514;0.38865367;-0.022737341;-0.45283765;0.029722044;0.040332574;1.1159308;-0.03460061;1.0284736;4.9464626;-1.4713707;0.007018964;-0.8736538;0.28738755;0.13119218;0.19183674;-0.017035032;-0.3712923;2.2103465;-2.4986792;0.0023669559;-1.5608062;0.014288315;-0.14678966;0.64089227;-0.0014088281;0.49541512;0.012056591;-0.66866755;-0.0009112971;-0.023690047;1.7899288;0.033901665;-0.19108;-2.9874744;-1.4411659;0.03798957;0.014490586;0.37776107;-0.06375936;-2.5986395;0.43264166;-0.0039909463;-0.9592988;-0.08141586;1.677494;-1.0398394;0.6507723;2.698366;-0.22455144;1.0396469;1.0364282;0.56960845;2.1275573
-9.329392;3.4479032;-1.8175247;1.6894705;1.2663673;-0.06823439;0.54608405;-0.01990404;1.214709;0.002306346;-1.0183194;-0.57104045;0.74945205;-1.5097792;0.49210617;1.2829459;-0.028673245;-1.1084002;0.021799065;-1.1051499;0.38288325;0.340962;-0.12812822;2.8909867;-2.3071413;-6.6374416;-1.9483469;-4.028937;-0.01114136;-0.0064481236;-0.39675224;1.6625636;2.5730238;0.028857376;0.00910376;0.057320345;1.0470355;-0.7124765;1.770504;2.6348717;2.396605;0.010484717;-0.13166296;1.5954798;-6.050022;-5.037781;0.06935272;-0.54864496;0.018306402;3.9314206;-1.9781221;-0.0071919584;0.63513625;0.78391194;0.017457863;0.024964834;-0.32090867;0.0075066388;2.0521426;-1.3121203;-0.29988196;4.910734;-0.0061797868;-0.7526747;0.8155108;1.1203606;-0.6111759;-1.1638033;0.024861423;-0.46399674;-3.0892873;1.3437575;-1.8261956;-1.5432129;1.4660347;-1.4706776;-0.8095915;1.3776162;1.4037261;-0.004420096;0.012815484;-0.068000205;0.37385657;0.4207601;0.6392323;-6.4475603;2.3784919;0.027818598;0.021457117;-1.8295411;0.24021757;-2.0711198;-0.05484056;-15.352545;-0.049969517;1.521904;-0.009072772;-11.680653;1.0551391;-4.5858;1.0644573;-0.06254076;0.0038353314;-0.25917554;-0.42318866;0.030906612;2.0333261;-0.03599336;0.03556352;0.053936165;-0.9377453;2.7877073;4.025668;3.6594691;0.004891146;0.8089491;1.7620201;-2.5160294;-0.16392094;-1.9551066;-1.0817223;-0.028418921;-1.0262849;0.30905175;-1.159757;-0.42137298;1.0183122;-0.3506643;-3.3179915;0.090590976;0.650231;3.0251782;-0.021300385;-5.6256766;0.009120895;2.3483377;-0.5400816;0.3526049;0.45880884;2.8860807;1.878095;0.06283936;-1.4628744;-0.43945464;1.8728867;0.030024854;0.050609097;0.48991257;0.025676824;-2.0602558;3.1802144;1.5650474;-0.020938996;0.7459773;0.68639433;0.9879171;0.011965866;2.7333763;2.2254682;1.0109428;-1.324381;-1.1648629;3.8408709;-0.97983944;-0.21276423;-0.012816505;-11.636896;-2.172899;1.486049;-0.0050393296;-0.055126943;0.99951375;0.0066504376;-0.0057350663;-0.01832204;1.0348316;-1.1434095;0.8563671;-0.16102654;2.2421541;-0.9262489;0.20355698;-1.133682;0.83351046;0.04361869;-0.63333035;-0.0025272164;0.34603605;-1.9107149;-0.5093592;2.8944402;-3.3170276;-7.2949457;1.2118566;-1.537094;1.6327872;-0.02823944;-0.23133877;0.4781973;2.108334;-3.600759;0.009871756;-0.030024938;0.015276401;2.9120972;-1.8413392;-1.4318529;2.7865913;0.60965824;0.040784117;-2.16408;2.1148303;-0.031491052;-0.041138075;-2.810292;0.42478415;-0.5115737;-0.4420574;2.147454;0.15152337;-1.6212428;1.933761;3.6295257;-0.06437836;0.016244376;0.13671483;0.21220748;0.017857691;-0.028232776;-0.10391445;-9.897993;0.115164176;-0.010569669;0.06253957;0.1687362;-0.9213411;-0.22744875;-3.132679;0.021181338;0.770855;-0.14020447;-0.9177871;2.8153746;-4.8050094;-0.08674637;-0.87466997;3.2752275;-3.8245797;2.3442454;-0.017440056;-6.525737;0.039582502;-1.6018373;-2.5200572;0.01656478;-3.3781106;-3.8822765;-0.012498487;1.8712687;0.2926924;-0.9953039;-4.171686;0.4328006;0.19864282;0.005305076;0.0069455416;-0.015481584;0.33622095;-1.3033096;-0.006813637;-0.029481083;4.235812;0.19062081;-2.8396487;0.014761329;-4.4450316;-0.40895277;-0.02263659;0.6601923;-0.01677257;0.18245591;-1.8666791;0.7260238;-2.0809994;0.038721282;-0.7594394;-0.03643141;3.5273583;-0.15391241;-0.04937026;-0.7236611;2.0864818;3.1352782;2.024873;-0.0290586;-0.03388047;-0.23365013;-7.767986;-1.7555038;-3.311822;-3.3423927;-0.030643545;0.019474274;0.007073676;-0.19269058;-4.6895204;1.5346382;0.0011527668;-1.255001;-11.954306;-5.97428;-1.0660381;-0.044970825;-1.4795599;2.9166799;-0.098005645;0.5826899;-0.03607862;0.056738213;-1.9657774;1.6255838;0.04620541;-2.36314;1.0348463;-0.00078497635;-1.2642804;-0.011198845;-1.5565566;0.71976024;2.0906153;1.6265988;-0.0021196192;-0.028666656;0.4689695;1.0524824;0.054766834;0.34716377;1.8120433;0.23052078;1.1644799;-0.05134986;-1.5908432;-0.11611251;-1.081616;1.6015782;0.016192662;0.09799928;0.04064675;-4.175929;-0.38985175;0.9115434;-1.1550136;0.92964464;3.0288124;0.9786358;-6.686121;-1.828693;0.025131335;4.001205;-1.2111435;4.957951;0.17676745;0.0055315876;0.9388272;-3.1950448;-0.035537764;-0.033142153;0.22307593;1.5505806;-0.17667204;0.6476965;-2.671753;-0.03776836;-0.012541475;0.04523348;-0.00189348;0.022178786;-0.039683215;0.62638783;0.105488926;-0.0058632777;0.40836984;-0.021609725;-1.7820867;-0.005030772;0.009052765;5.4094276;2.8613725;2.2238903;-1.9565657;-2.312299;2.970792;0.50570315;0.03320813;1.3021641;0.08255048;-0.0002394146;3.7722292;2.7406764;1.91999;3.0840745;-0.0031986488;-4.257024;-0.0013984418;-3.2149415;-2.6174772;-0.052232143;0.21610601;-1.0562235;-0.0020391177;0.026311845;-0.02892745;-0.08123043;-0.13032508;-3.5650911;1.7078947;1.9451187;0.03131299;1.4041638;0.08463544;2.8672435;1.0142905;1.7381842;4.2193136;-2.2307389;-0.029612975;0.014527336;2.8782172;-1.4509166;0.59234583;1.6530827;-0.51862645;4.079112;-0.087007284;-0.06372066;1.466393;0.5615215;-1.0575932;-3.2839875;0.022684569;0.012189074;2.1178164;0.010787864;-0.21787736;0.97440076;1.7025166;-0.0070560477;-1.0310291;-0.008581507;3.0725636;-1.4772999;-0.019802686;0.64374;0.32787672;-0.016011411;1.0278563;0.039849546;-2.5098515;-5.473902;-0.02229807;-0.022900963;0.09097583;-0.124090716;-5.7569456;-1.4429004;1.8068482;-0.051183473;1.3492218;-6.2643986;0.44995004;-0.5280951;2.0206003;0.015401199;0.98658943;-3.6324472;0.038522802;-0.016421467;-1.464006;0.58211684;0.013523702;-0.17714746;-3.2105868;-0.45204598;-1.8644339;-1.3739297;-0.026677005;0.9796216;3.2615364;-0.013679644;0.10300686;-0.16025785;2.7571993;-0.17373563;0.35032973;1.1131406;-0.091975234;1.0677288;-0.020375883;0.80629015;-3.454121;-0.9251803;-0.059979904;0.052488633;0.017772939;0.615873;0.038680274;0.07447325;-0.0066929404;-0.5071452;-0.6455655;-1.0471354;-5.396377;-3.443147;1.6445253;-2.1277094;0.44592685;0.005833145;-0.47023258;0.03862268;2.4026723;-5.8242598;0.058045443;-0.018560829;2.1369066;-0.11232163;2.0489197;0.010470828;-0.06332487;1.3130916;0.044559307;1.5036914;1.0108198;-0.7253515;-0.0066255406;-0.030919915;-3.2406802;2.6505792;0.88516057;-0.004906017;-2.3817482;0.92024434;-1.0814583;-0.030396633;1.6710773;-0.026458982;-0.015129504;-1.522435;0.049282037;0.2679417;-0.083612695;0.7575341;-0.031520963;-0.0038102134;2.3050916;0.012046819;-0.5371898;0.19191198;0.08201959;-0.037397828;0.016800301;2.950974;1.1784004;-1.6669439;1.3795055;0.034755297;-0.4102035;-0.0052142646;1.7352971;2.8941314;1.484061;5.4376426;-0.030918976;1.3305527;0.77020013;0.08895131;0.6301269
-7.181506;0.7308017;0.44231144;1.7766035;2.1982017;-0.031376377;1.7042446;-0.041876927;0.7055532;0.004894712;-1.2304579;-0.612804;-0.10218745;-2.7301915;-0.37264034;1.6606266;0.0049038758;-1.3858;-0.07072938;-3.6418965;-2.0060897;1.2023016;0.0031950658;2.8919916;-3.415079;-2.464032;0.3398229;-2.9518793;-0.003611306;0.012667564;-0.68820125;-1.0214518;2.8249736;-0.0504777;-0.028748596;1.5447339;0.6307026;0.7647483;0.41342396;1.9770828;3.6760526;0.0012321881;0.13211371;-0.21509711;-5.8225064;0.36041215;0.022631604;-0.118371904;0.0027212068;3.490071;-1.8142178;0.020454349;-3.2951753;-0.52538574;-0.0061319447;-0.07370227;0.32825524;0.02806244;2.183683;-2.965292;0.24771734;2.843759;0.010406696;0.895877;-0.60052156;-1.2416372;0.75409096;-0.3742938;0.037237648;3.2397776;0.80114377;2.6748219;-0.33910552;-3.995086;0.6751925;-4.796471;2.8979528;1.6638469;-0.8317467;0.015805878;-0.004711492;-0.033191495;0.81153417;-2.505438;0.17278428;-3.838663;0.8777584;-0.01188959;-0.021034054;-2.66879;-0.42550686;-4.304163;0.022091577;-14.460907;0.06465015;2.3583965;-0.035203807;-11.813941;2.4254668;-2.4792604;-2.0880969;-0.0429454;0.012651625;-0.59201807;-0.46476832;0.046908837;-0.84028554;0.017949201;0.00024080968;0.024221469;-1.2567824;0.7156279;2.9692223;0.11104845;-0.017312597;0.8989818;1.5068117;-1.6211921;1.2952008;0.15860674;-1.5723983;-0.05404985;0.24330705;0.19743906;0.30027568;0.6364761;5.592072;2.1134136;-3.018805;-0.037242554;1.0505155;2.7068744;0.0049258163;-6.079414;-0.0022059502;-0.9672724;-1.4721404;0.8954323;1.3680981;1.4693053;0.99457675;0.0010335711;0.81019473;-1.3903627;0.9019446;0.0004653801;-0.023763157;0.4024069;0.049396303;0.20078343;2.356179;-1.4253159;0.20913042;-0.14143886;3.235859;-1.6170175;-0.055460803;2.0906377;2.0128098;2.0791094;3.0541577;-3.170333;0.94301337;-0.04990419;-0.3197495;-0.0006928625;-3.654317;0.11906432;1.4267255;-0.05278363;-0.04516769;-0.67084837;0.027216189;-0.122787476;-0.035931885;0.5740323;1.5371472;1.4209682;-4.287729;0.61571944;-0.18197489;-0.70247716;-0.95830405;-1.0176315;0.033447254;-0.5696625;0.006682692;-1.4929055;-2.1520903;-3.1761177;0.6309775;1.785928;-2.9394267;0.6855126;-0.45858848;-3.6674724;0.059163764;0.99922264;-0.6690523;2.1558244;-4.334321;-0.013652416;-0.010757196;0.0009401652;-1.0313746;-1.7672353;-2.8459618;3.0116687;-0.70007885;0.008664082;-0.91962564;2.3849514;-0.023281567;0.025015196;-3.0712311;0.76916945;-2.308304;3.3406892;0.18349746;-0.9953483;-1.1092994;1.5807648;0.559015;0.48993507;-0.024926262;3.0912116;1.7615818;0.011070986;-0.09594523;0.7470886;-10.394578;-3.2691898;0.0057056793;-0.061413903;2.3918405;0.5267647;-2.9914496;-2.1552837;-0.04142996;0.13690028;-1.4385293;-2.9138634;-2.7434022;-1.2146957;-0.02857952;2.0534601;3.9114106;-2.5244658;2.1864266;0.016397838;-1.987882;0.021959502;-2.7533948;-1.3723779;0.009478256;-2.6713338;-4.2878547;-0.028370805;0.67184377;1.2023181;-0.28020984;0.2025736;0.7882714;0.045157388;-0.056478675;-0.80803436;-0.004677493;0.0052386546;-1.4347253;-0.046901036;-0.04209754;2.6833563;1.7167454;-3.2825341;-0.008934256;-6.0043364;2.50294;0.033563256;-3.245129;-0.021064654;-2.9119923;-1.5447013;0.018345762;1.279229;-0.03708181;1.5002941;0.006421731;4.241637;-1.4825059;-0.005064369;-1.5681831;2.0096574;0.24596262;4.2017064;-0.005518764;0.6345085;-0.4526009;-8.818874;-0.1931359;-2.9815695;-2.711649;-0.044938795;-0.0023267975;-0.044228137;-6.862525;-3.3431506;3.5261822;0.009094333;-1.5169407;-12.462936;4.1076527;-1.3815726;-0.0063447566;-1.1541804;-0.083078004;-2.6435363;-0.8038552;0.006583906;-0.013885208;4.7204823;0.98126835;-0.0722544;-1.1851069;-0.96750295;-0.061679505;-0.9045882;-0.05329698;0.42212072;4.615468;1.0035537;0.38053575;0.011823404;-3.9466653;-3.0392196;-0.08304679;-0.017539732;1.57162;1.2713149;-0.4113335;0.49323654;0.008739614;-2.735475;-1.0537982;-1.23514;-0.89069605;-0.011234334;0.010930314;0.005301867;-5.8210144;-4.4298205;-1.0824628;-0.9175178;0.37779486;2.2055104;1.802501;-6.7470064;-2.3981;-0.015356733;2.409875;1.3680047;0.08218151;-0.45749718;-0.029391047;0.14728655;-2.2715783;1.9258217;0.025153708;-0.20794976;-1.0255107;0.047550537;0.87496656;-3.4902508;0.014479685;-0.0103698075;-0.03471444;0.006488842;0.011494007;-0.050047494;0.5919864;-0.054869223;-0.0068146056;1.798102;-0.054303557;0.4652748;-0.018895147;0.062529735;3.285912;1.0826697;-3.464186;-3.2562966;1.0734649;2.6032617;1.7708597;0.043890834;0.6890613;-0.35755438;-0.06111376;1.9428061;0.5657374;1.4138258;4.401849;0.13263424;-2.8854706;-0.021086585;-1.2720426;-0.7148063;-1.3577282;-0.06344408;-1.983712;0.006877259;-0.0143314935;-0.020705462;-4.23486;0.040957075;-2.8197484;-1.5910878;1.3683846;0.006844723;1.4128929;-0.019655392;0.48636433;1.2580279;-0.041428518;0.07979742;-2.456329;0.00380094;-0.073641255;3.1788538;-1.2380621;0.60585845;0.6643215;-0.7991688;5.61295;0.00023255186;-0.005823731;3.3529446;1.1917865;0.84244686;1.0252755;-0.05593757;-0.008330652;0.19119161;-3.9406874e-05;0.20239651;1.4549161;-1.4817909;0.23704214;1.8260834;0.0058540516;-0.32320607;-0.38744593;-0.0029225692;1.0003192;-3.0452304;-0.0033131256;1.0324264;0.027131218;0.019621972;-0.26196772;0.005537258;-0.026787583;-0.028807549;-1.4084836;-8.482533;-2.8991675;0.58975184;-0.025302596;3.080252;-4.2240605;2.4867096;1.172363;1.1438808;-0.035404;4.72127;-3.2514217;0.083993234;0.056605414;-0.27257895;1.5918264;-0.009520039;1.4632006;-4.0448165;-0.64892477;-1.224918;1.344253;-0.028762208;-0.016400684;4.1709285;-0.02598146;0.87944984;-0.13003653;1.2882888;-2.1111956;-2.8081145;0.7034222;0.063525096;-0.6930274;-0.004097636;0.2262984;-2.7650986;-2.6800349;-0.03696399;0.053212542;0.025283722;-0.14186119;-0.011377235;-1.8808196;0.021239564;3.4975963;1.4604392;-0.9733223;-2.9271228;-3.3632965;1.7452669;-2.3865986;-1.5647585;-0.06557096;1.3061944;-0.05051095;-0.98074937;-4.2062774;0.034596816;-0.0149458945;2.705058;0.71338904;2.6091826;-0.026053207;0.029282605;1.838422;-0.04317098;1.5229695;1.1144918;2.1156774;0.0029157999;-2.775891;-5.4956765;1.6128149;3.5138564;0.017060159;-0.5210378;0.6502749;-4.800604;-0.027913993;0.08011269;-0.024039414;0.00704119;0.27106577;-0.013259007;0.49403948;-0.05718145;1.5666742;-0.026938982;-0.015341276;0.9490186;0.001421911;-0.044049308;-1.1446037;1.1183907;0.012678885;0.0018253067;0.71405566;2.0900533;-1.4003739;1.1666331;-0.04062304;-2.267522;0.0034191664;1.6192734;1.4724331;-1.7630001;4.938391;-0.01367059;1.4498404;-0.6783013;0.5440997;0.83529645
-5.91885;0.79191494;2.159465;-0.3737637;0.5223156;-0.03613055;4.207099;0.015623012;1.1119643;0.011779052;-0.42631644;1.8283799;-0.02604244;-1.3442912;-2.0617242;0.8866946;-0.10089612;-0.31777182;0.30660415;-3.0786333;-2.178602;0.34304744;-0.19360064;2.8425012;-1.0954386;-3.2662475;0.3574253;-4.3495235;-0.014826352;0.0343342;-0.49324298;-1.2184621;2.2650535;0.033247143;0.017963786;0.42124128;-0.44164288;0.5698087;0.8272659;3.339332;0.6551776;-0.044163313;0.8403981;-3.7503686;-4.6673007;-1.4005152;0.052518304;-0.18888435;0.034466587;2.5610087;-2.296502;0.036789116;0.18944947;6.1709366;0.099816404;0.011620215;-2.876824;-0.023106357;1.7978051;0.6436639;-0.09762033;0.16249454;0.011505966;1.8010865;0.681375;1.5375228;2.4540496;1.1038078;0.035216365;2.4412298;-0.01945281;-0.6557906;2.4693224;-1.1379162;1.430753;-4.0927463;0.01871505;2.0955958;0.7980371;-0.013553001;-0.012604105;-0.033567626;-0.9787866;-0.55095845;-0.058850516;-1.9464991;-0.9890212;0.010591147;-0.0034517404;-2.8710458;-2.4957144;2.03157;0.037118215;-14.236926;-0.020115098;-0.15182416;0.0119093275;-11.543586;2.046215;0.43028992;1.5098581;0.0081277955;0.011691015;0.030138278;-2.1839833;0.0289167;0.5037622;-0.010178108;0.010214288;0.06517367;-2.1106176;0.9563357;0.5499938;1.0301002;-0.0005107065;1.6574695;-0.019914722;-2.065133;-0.6407084;2.2281315;1.457682;-0.039017234;0.3561204;0.06911267;3.1440718;1.1895645;3.6545458;-0.8476987;-2.0535722;0.041715425;0.89017975;0.5633056;0.037263986;-5.3025227;0.009525713;-1.3046284;-2.4679925;-1.4323212;-0.06843927;1.2796991;0.42267045;-0.0354187;0.5605765;-0.44614106;0.53644145;0.045672033;0.038832225;3.650371;0.05284609;-0.29893067;0.6223041;0.3808136;-0.009463567;-0.021770582;4.605396;-4.1049967;-0.012667374;3.613733;0.6010937;1.8033262;3.1155114;1.0939012;0.7757716;-0.18347396;1.7387065;-0.063192576;-0.12610379;-2.8076406;1.7969046;0.013807776;0.012679789;-0.6727645;-0.014115392;-0.053264953;-0.016228974;1.6302395;1.1379977;2.5525239;-3.6245756;-0.39949453;-2.314079;1.5714638;-1.6387916;0.30008933;-0.06306679;-1.6265396;-0.0073248656;-1.7545379;-1.8469591;-2.7861314;0.43664777;0.049025547;-1.0601307;0.83569574;0.6416579;2.2209544;-0.025225965;1.2976164;-0.41994834;2.1091256;-0.2581672;0.013416847;0.01340629;0.030743448;1.6176378;-3.263436;-2.5695527;0.6128791;3.2116444;0.0027834426;-1.5671957;1.703191;0.008631031;0.035768203;-2.4805224;0.8200424;-0.25701085;1.5638428;0.24706712;0.12169522;0.4123144;1.7550178;0.67028373;4.2898498;0.048871644;-1.8042434;-2.124752;-0.048539862;-0.02553993;0.29146013;-10.417465;-4.2350607;-0.04875394;0.00924079;-1.0171317;1.482103;1.0701834;-2.754032;0.10113842;-0.42294136;-2.2834306;-2.130709;-2.2939;-0.84777063;-0.017613994;2.2109778;-2.8328555;-3.1135247;-0.83762276;0.04820385;1.8017236;0.023035217;0.06229892;-1.6331292;0.09823567;-5.738546;-1.3184297;0.010309172;1.8446434;2.588496;-2.940493;-0.037354052;-0.06692577;2.7703135;-0.04631469;-0.053701404;-0.014900609;-0.084941715;-0.71026695;-0.01550587;0.00757854;-0.07850694;-0.43329233;-3.4152832;0.02776741;-0.67972404;0.63780284;0.008492818;-1.636077;0.07106088;-5.76388;-0.13369101;-3.0044632;1.6230632;-0.004341243;-1.3215579;0.040956642;3.7794657;-1.1432533;0.021860631;-1.6632049;1.3233153;2.036014;2.5234158;-0.030610444;0.32915238;-1.2696506;-10.771383;-0.2802256;-1.19634;-1.2209191;0.03501827;-0.0022258228;0.030639391;-8.534078;-4.8571105;1.5876366;0.017484376;-2.8671868;-9.020905;-8.930025;-1.6039629;0.04148646;-1.0444701;-1.4409459;-1.5514412;-1.5355074;0.017438628;0.02294046;0.12044355;0.8016219;0.012559369;-4.411531;-0.7839494;0.018595196;-0.7139618;0.09553406;-0.5527231;1.268498;1.6982085;2.9066427;-0.05676467;0.54607403;-0.6285598;-2.5310564;0.02437758;0.31286117;0.52149856;-4.599976;0.91756755;-0.01411777;1.7049059;-1.3450848;-2.2221434;0.36332145;0.028435217;0.027525635;-0.004811173;-3.2845402;0.015253304;0.4473092;0.4610225;0.01767161;0.30825308;1.2881114;-6.7003245;-1.0232424;0.031456176;0.18016152;-0.37567362;-2.236257;0.19760454;0.040397253;-1.1805352;-0.2309739;1.3444273;0.0013435163;0.27662444;-1.2977672;-0.16614988;1.6882851;-3.733153;-0.039709326;0.026581282;0.011087982;-0.02810314;0.029945407;-0.02601611;-0.09298106;-0.07032145;-0.031765338;0.764931;0.031838987;1.781756;-0.009772622;-0.007839169;3.7202866;1.1150633;0.43025658;-0.77330923;3.3631458;3.241752;-0.13542439;-0.018000478;1.8619578;0.9240741;0.04015822;1.6604337;-1.2728419;0.47082;3.98693;-0.036330763;-3.1097484;-0.027681714;-2.3238935;-0.64856243;-1.9557809;0.28677502;0.91784114;-0.029596677;0.02858661;-0.011553898;1.4069986;-0.14817536;-2.33019;-3.822498;1.7164704;-0.03054507;1.138658;-0.021934714;1.0163765;0.07274037;-3.54112;2.6883256;0.5221454;-0.06632275;0.006354953;0.9712846;-1.7787944;-1.3569613;0.4291755;-1.8715249;1.6851485;0.017527224;0.046227563;0.37283403;-0.1838912;1.1611164;-0.82710165;-0.05639198;0.06468354;-0.15396471;0.006698498;1.6785556;1.131605;-2.2370422;-0.13743213;-1.2526809;-0.0079491325;-0.48821896;1.4013664;-0.028485954;0.021418452;-2.0779355;0.0031284639;-3.2997239;0.040145222;-2.8578012;1.3618653;-0.077723324;-0.028688328;-0.016716326;-1.5763216;-5.199738;-5.0380716;2.116048;-0.02237619;0.7056038;-2.1088192;2.0413845;-1.5207852;2.8754005;0.01686634;0.46327916;0.87474114;0.015792167;0.019836029;-0.1173284;-0.078007504;0.04193918;-1.3534822;-2.0435586;-0.6145935;-7.6245375;1.0293493;0.0014443204;0.5223577;2.5260885;-0.02347036;-0.29112425;0.06517825;-0.657195;-0.35811764;-1.3623267;1.6087785;0.0125816045;-3.2000725;-0.00544368;-0.37075654;-0.63096416;-1.3106378;-0.004207787;-0.00927794;-0.0030607546;-0.179399;-0.044789057;-1.2978531;-0.0022393486;5.6396847;-0.31694785;-3.162712;-2.8621938;-1.1937987;0.61004335;-2.3478777;0.40719312;0.033163197;0.43610504;0.059019502;-3.958336;0.5113306;-0.024144746;0.008231079;0.030016948;-0.27840203;0.6186557;0.011811581;-0.010405526;0.9424794;0.028056294;0.043769795;0.58499277;4.6273313;-0.045670122;-2.3381364;-8.102978;1.6731998;2.2042863;0.056310892;0.117973596;0.6614125;-4.353394;0.016668383;-2.0298004;0.04670168;-0.022127755;-2.6068814;-0.067310974;3.5138822;-0.010258042;-1.5955883;-0.037474636;0.016589755;-3.6106749;0.020809114;0.5855628;-4.118454;2.4104316;-0.012794196;0.023183912;-0.48087907;0.020282485;-0.22034013;0.6541344;-0.015441295;-0.35913908;0.03790003;1.5303922;3.4739738;-3.248038;4.231709;-0.028775787;0.94183886;0.021914663;-2.111229;0.122641444
-1.477221;1.3167074;0.6062497;-0.22022286;0.07993719;0.011286628;4.9117384;-0.18006767;2.3251355;-0.048888102;-0.417432;2.6987433;0.03782436;-1.9333143;-1.4971035;1.2751868;0.033744715;-1.1372504;0.5248064;-0.83382785;-3.3543663;-2.5473313;0.71170294;3.002674;-0.42522976;-6.1691613;1.165343;-3.7849896;0.00956824;0.017902277;0.27381262;-0.9845947;1.8607981;0.04747577;0.036691;1.2854924;-1.0067163;-2.8695295;1.3656427;0.74492025;0.69986326;0.27083024;-0.82104874;-0.26706696;-2.1100087;-3.9469926;0.033122446;0.5965879;-0.044897653;3.5980282;0.33049807;-0.059290845;-0.6312017;3.991295;-0.06589638;0.018358255;-1.4961792;0.03409485;1.2004644;3.641502;0.43687913;2.4474123;-0.026432093;2.7229018;-0.56541365;2.029172;0.40427548;0.9600946;-0.029095862;3.5002701;1.6876713;-0.84953165;-1.097107;-6.989984;0.6217958;0.9770535;2.6517856;-0.3644751;-0.15567423;-0.015128465;-0.029954642;-0.00080888806;-1.5468265;-0.7366176;0.1365292;-5.5584235;0.7132107;-0.088482596;-0.0077891434;-1.5713302;-4.457572;-1.825411;-0.07620354;-14.681284;0.0062131276;-0.29084018;-0.007629017;-11.875393;2.7057648;-0.90565306;3.2078652;-0.018244857;-0.07410249;-1.8172395;-0.13504708;0.022543022;-0.34268036;0.0057335016;-0.037355945;0.0138232745;-0.5527321;0.20837383;-0.8394557;-0.38984102;0.019166416;-0.666694;-1.5784944;-1.7966746;0.36150637;1.7073435;1.0436374;-0.009950828;-0.7121224;0.037080377;0.34797308;0.03773866;0.6329447;-0.5754922;0.8355118;0.03009615;1.819628;1.6470046;-0.012733758;-4.357095;-0.024284553;-0.46650496;-4.250663;2.9638076;-1.0629385;1.7670467;-0.11624554;-0.0049933125;0.48653254;-0.65193605;1.1545048;0.03222174;-0.034163624;2.3983662;-0.078778595;-1.9725548;0.31545356;0.12730508;0.008640338;0.009650103;3.9462562;0.39562178;-0.04188446;0.5048459;2.5903952;-1.5432312;0.38176745;1.4118364;1.0123838;-0.053035755;-1.6178747;-0.033562433;0.13657787;-0.40834677;0.50538206;0.028779514;0.0009236677;-2.826139;0.034515917;-0.05171688;0.009264608;2.2478023;0.7829393;1.8667881;-3.2984023;-0.38148326;0.26769948;-2.350279;2.3443043;1.4938966;-0.038714904;1.3888285;-0.01460261;0.061034895;-1.9397677;-4.6147237;-1.4789542;-1.0183953;1.1109715;2.212653;-1.0776422;1.3267007;0.015439614;0.3347256;-0.12587364;3.2891412;-0.26875186;-0.009615504;-0.055262532;0.06264795;-2.5764709;-1.3603615;0.36461806;1.0167054;0.26941788;0.004525633;0.2875127;3.2146375;0.0007963018;-0.059907746;-4.8448124;-1.4684042;-0.49889877;0.3971268;-0.50427836;-0.12968102;2.8614862;1.7986009;2.5982203;3.0813413;-0.029795328;0.035073403;-1.5850822;0.004252967;-0.017792925;1.5842521;-10.059199;-3.6786733;0.0416407;-0.05612428;-2.2419937;2.2151394;1.5277126;-2.1004314;-0.0044048126;0.28783914;-0.63827574;1.270132;-3.5682402;-2.8096447;-0.017834498;1.6280483;-2.6655662;-2.929561;-0.7717817;-0.06448415;4.5859566;0.02459779;-2.939806;-2.1569927;0.019310435;-2.446602;-0.54756075;-0.0004307891;0.8678552;0.9679009;-2.8364189;-0.90577084;-0.48627558;0.0023058928;0.029547818;0.064044714;-0.015345573;-0.073768556;-1.5449024;0.001563432;-0.031359047;1.1183068;0.9212011;-0.94961804;-0.022126691;-2.7030344;1.924678;0.0085211005;-0.6023638;-0.03597574;-6.8977103;0.6002518;-3.1584299;1.2902073;0.014807757;0.97772473;-0.01600181;1.147852;-0.07956469;-0.021340871;-0.7440969;1.1159139;1.093677;0.052026972;-0.015820324;-2.4588032;3.1441932;-9.497285;-2.0553646;-0.7725314;0.24595465;-0.059176017;-0.005862306;-0.022133885;-3.3517032;-5.947955;-0.18952651;0.013699826;-0.04605599;-8.026882;-6.2689896;-2.2530453;-0.023073727;-1.2153009;-2.1276026;-1.933553;-0.1827571;0.026272355;0.061416104;-1.2672918;1.7734745;-0.0024051755;-0.67405427;-1.6699892;-0.017080707;-1.8662746;0.008000341;-2.2069929;2.7040575;1.6476645;0.8905576;0.017446438;0.9485507;0.9860393;-1.5787289;0.0353935;-3.7889137;-0.6618798;-1.4202628;0.8822678;-0.010811622;-1.3046405;-0.5687927;0.4473753;1.4669752;0.030256087;-0.021291187;-0.0028899778;-2.1079419;0.135473;-0.69435745;-2.0855331;0.1280636;3.6220534;0.41342396;-6.267144;-1.8242078;0.021979995;-0.16022375;1.8775856;-5.7685595;1.3188342;-0.030314244;-1.4539539;-3.3863766;0.1326096;-0.0057017417;-1.6114345;-2.0030873;-0.3438541;-2.6233544;-3.1491973;-0.04360698;-0.051847417;-0.0071534496;0.009019739;-0.0059790234;0.005108241;-3.5178998;0.029294444;-0.017789772;2.601793;-0.032657865;0.9221052;-0.030369824;0.039114777;-0.53573424;1.0557351;0.42098168;-3.321557;0.9528969;2.501849;-0.0121619;0.013317392;1.7050416;-0.8248518;-0.010239449;-3.4136257;-0.26756;2.387462;-0.40340257;0.015836127;-0.7998736;0.007153533;-2.0795321;0.5566489;-3.651003;0.3264149;0.3972141;0.015055682;0.032332417;-0.01300573;-1.266172;0.17234254;1.2413946;-0.572903;2.027653;0.025472026;1.2978928;0.30648685;-1.6364707;-0.8894152;-2.2015276;1.9761177;-0.5531547;0.043295685;-0.061626565;0.6718028;-0.92414474;-3.3029516;0.66086245;0.7287293;3.3168058;-0.006146958;0.011346013;1.1997536;1.9645342;0.54621315;1.6872661;-0.110058516;-0.020054288;1.2009276;0.016553959;-0.49545005;1.1961557;1.457807;0.039646477;-1.6260154;0.04736135;-0.96343476;0.1662907;-0.02550993;-0.6996515;-1.4164044;-0.012837622;1.9370857;0.0030356396;-2.149911;-1.2498411;0.035992447;0.042602684;-0.019576924;-4.1160145;-4.3424273;-1.6489736;3.348875;-0.027913263;0.16340764;0.30909228;1.6693149;-3.0411053;3.988749;0.031390063;1.437693;2.2298799;-0.027365219;-0.07096837;-0.3157865;-1.2489798;-0.021489035;-1.7277521;-3.1510103;-0.5524621;-3.5917888;1.6743858;0.004971612;1.2368064;-0.665133;-0.024937417;-0.52937376;-0.016423112;-0.26443952;-0.6300056;-2.295435;0.35537302;-0.03390226;-0.95742047;-0.04510955;0.05597733;-2.1587799;-7.223425;0.018565925;0.049861234;0.009413105;0.7039711;-0.017431056;-1.4541086;-0.012591128;1.1466393;0.39561927;1.3362161;2.639568;0.9101841;-0.031988353;-2.405373;0.2193373;0.011756184;1.6361245;-0.026202777;-4.71803;-1.6312785;0.012850909;0.0061336136;2.1215923;-0.0015454433;1.2602916;-0.023734404;-0.004956818;0.13999417;-0.07908865;-0.9727829;0.9962982;2.007147;-0.035885084;-1.3379185;-10.734149;1.827801;4.0160394;-0.023805285;1.377333;0.30006447;-5.4528913;0.015924798;-0.2039653;0.005133468;0.041139465;-3.0052114;0.03022893;1.5664464;0.4982407;1.287115;0.011539098;-0.0073989797;-0.8909004;-0.02400361;1.6631094;0.08817509;0.00850494;0.018655308;-0.0042548724;-0.2706723;0.3784102;-0.8271811;2.522544;-0.02980352;0.94407016;-0.017523816;1.2170539;3.932833;0.26145017;4.2222667;-0.0072167357;1.4664332;-0.088067085;-0.27460656;1.1103437
3.0981913;1.4060986;4.174494;3.2499244;1.6529002;-0.034142386;4.4621644;0.4826561;-2.7437518;0.05800818;-1.4944729;-0.6901075;-0.007780167;0.9388844;1.849891;1.7748569;-0.052850682;-1.3514475;-0.13773587;-0.3877671;-1.7874562;-3.5173218;0.026219608;3.266563;1.5062075;-6.5047445;2.0282404;1.4885553;-0.020673374;0.0019248042;2.0919974;-0.68572146;-0.3761446;0.024219856;-0.0054655154;2.2514703;-3.4613478;-0.5038554;0.8480591;-4.57994;1.7097417;-0.12559481;-1.9887356;-2.7871559;-2.3404083;-2.671657;-0.036406104;-0.37037212;-0.009598715;2.976764;-0.90186507;-0.03621944;0.46384665;0.8168519;-0.026651248;0.0017861596;-4.4208484;-0.054533362;2.1751773;3.0261197;0.087331;-0.10029349;0.027519843;1.4221579;-0.52891093;1.6953379;-0.98274016;-3.2876174;0.1615451;3.0730996;0.038682353;0.96435595;1.1871814;-3.584122;0.31416205;-3.6905851;3.569296;-0.6944191;-1.2913893;-0.033808306;0.044045746;-0.029481031;1.1964155;-1.7421743;0.2751483;-3.4419758;0.6908113;0.2898035;0.0014925117;-0.8379602;-5.9473186;0.53658926;0.044392243;-14.258472;-0.0007237185;-1.8643978;0.053275887;-11.069076;0.8083483;0.72166777;4.190796;-0.006953795;0.018242419;-4.588773;0.17081329;-0.029835438;0.2769126;-0.022184197;0.05050369;-0.033307876;0.37682393;2.8763237;-0.61801344;-0.29371062;0.024743175;-0.66635007;-0.41282162;-1.6063465;2.0466275;1.3119199;-0.8075451;-0.021796575;-2.0567558;0.21746303;-3.1267414;-3.6576464;2.5321822;-2.6058502;-0.42591074;0.003141244;1.8215458;1.325797;0.039406642;-1.7024181;-0.013464701;0.6813427;0.119073875;4.120308;-1.3231387;3.9798322;-0.36188543;0.04952136;-0.66036534;1.4483098;-0.6097141;-0.029481985;0.01278626;0.71020514;0.021618085;4.0163784;1.2472445;-2.0659602;-0.238568;-0.067752354;1.9553084;1.7868643;0.04213575;-0.08390935;4.665256;-1.9235795;-0.4480721;2.320931;1.1406263;0.4857215;0.29472733;0.017524175;0.26911366;3.8490283;0.96072406;-0.058687087;-0.020925997;-1.0406333;0.006383544;0.05133327;-0.02701505;1.1374868;1.742211;1.3023086;-3.194556;-2.055063;-3.483783;-3.303455;2.256445;0.48615342;-0.05929124;1.2539241;-0.018538857;-0.029270053;-2.1921911;-2.74022;0.96492964;-4.593851;0.7368165;1.7977176;-2.4069443;-0.9065714;-0.0031572608;-0.6635231;0.19423108;1.3671508;-1.5417504;0.016639229;0.022727862;-0.02100478;-1.3743047;-0.26624438;-1.9851394;-0.09030141;1.0370669;0.0018038341;1.2102232;3.185679;0.01889026;-0.006913899;-2.3037143;-1.7822536;0.025096785;0.81839466;4.0842485;-0.11400593;2.661365;-3.3467522;2.3223736;2.1453907;-0.048115656;0.57337624;-3.313422;-0.009086066;-0.006760119;-1.4554541;-8.653404;-2.898548;-0.0055718343;0.064682476;-0.5703251;-0.004282268;0.28107303;-3.3461478;-0.06195092;2.5323865;-0.34230042;4.641875;-4.319143;-4.061183;0.0035314998;-0.98769224;-0.11240131;-6.554775;0.09609035;0.025494376;3.5874124;-0.02369409;-1.0960681;0.4031999;-0.052812085;-1.4576464;-0.8985236;-0.042019065;0.6129152;0.33593395;-4.7657905;0.33318478;2.2591064;-2.1618211;-0.07773535;-1.3360227;0.004958968;0.14308098;-1.5903528;-0.0020988404;0.0027900827;0.9223712;-5.2753725;-0.5220879;0.000649636;-1.3363386;2.4848018;0.0014557036;1.13102;-0.0112812985;-8.828964;1.8330058;-1.3873068;0.9220147;0.0693591;-1.2514818;0.021237733;-0.3042444;0.29834703;-0.0655012;-1.1381335;1.8954784;-1.4456089;0.79307395;-0.056778554;2.6218936;0.9720498;-11.307146;-4.5834255;-0.9297041;3.1504521;0.038596414;0.005463652;-0.009506048;1.0794369;-4.346093;2.167613;0.018278847;0.9920261;-6.1918225;-6.6581874;-2.3960745;-0.057603285;-1.3878788;-0.87689966;-0.73856163;0.24515784;-0.04864222;0.01581223;1.2578564;3.3518777;0.009870859;1.0327287;0.8439077;-0.022361843;-1.3206168;0.0035341901;-0.85931396;1.2575554;-2.204141;1.6648;-0.014300939;-1.0447972;0.62133795;-2.227702;-0.034258474;-0.81555116;-1.6993808;-0.28477752;-1.995082;-0.054080863;-1.1377053;-0.20051041;2.339882;-0.042465772;-0.01927807;-0.01825922;-0.019798439;-2.8144722;0.34615928;-1.044832;-4.135375;-0.10853207;0.6631198;-0.67471546;-6.387915;-0.7587885;-0.015980974;1.717535;-1.2668724;-2.7468426;-0.24417149;0.025027892;-2.0410454;-0.40573496;-1.5366036;-0.03525298;1.3842243;0.28653142;-0.56482285;-5.8314056;-0.31196493;0.008490812;0.04890821;0.06260078;0.027780877;0.043473344;0.0795725;-7.8868985;0.3136446;0.020178974;-0.16475442;-0.0153640555;1.0636597;-0.023309674;-0.030463533;-1.7784348;1.3710123;-0.6252331;-2.9326575;-3.1932714;1.8932335;-1.1139913;0.0021721544;0.19165005;0.25188568;-0.009253721;-1.8689933;-0.21907642;-0.21321544;-2.3235438;0.027724799;-1.2818907;-0.006670063;-5.119071;-0.39319235;-4.939591;-0.09919273;-1.193902;0.036676694;0.010164944;-0.014786266;-0.23828053;-0.063365825;0.3154424;-2.8986964;2.6223044;0.029022302;2.444499;-0.0413619;0.56937766;0.3910227;-2.1904209;-2.1409218;3.0391204;-0.026917925;0.015999326;1.0168089;-0.53497386;-5.9208016;-0.83449745;0.3088494;-0.19078767;0.03520209;0.0003153224;-2.159422;0.0048345737;-2.4163816;-0.22605766;0.8701225;-0.026744321;3.5081685;0.0049963193;-0.082617134;0.37277284;-0.10802825;-0.11418245;-3.2534301;-0.014337593;-0.5566067;-0.7958808;0.0042816694;-1.5514014;-0.3738979;-0.006994498;-1.3182604;-0.0013066109;-1.2916719;2.0528166;-0.018503787;-0.049484853;0.022458559;-3.015278;-5.038959;0.51188713;5.4297385;0.00034566826;2.1612833;-0.22429116;1.1278697;2.3249006;2.8810642;0.06055682;1.5235263;2.4755514;-0.019273285;0.015361523;0.2504439;-1.6611506;0.0031670404;-0.09822504;-1.8468498;-0.8397532;-1.6382935;0.83472866;0.0030578305;0.72518116;3.7563977;-0.01836816;1.3020232;0.14395963;-0.02917238;2.9062767;1.1941648;-4.571424;-0.022664217;2.8703551;-0.0028947757;1.0283412;-1.1638747;-2.6176174;-0.024960557;0.05349928;-0.016336177;-0.7481504;0.013323393;2.2532287;0.003651647;1.5976323;1.3976531;-2.307057;-3.9294374;-0.5561092;2.183429;-3.179377;-1.4917009;-0.0015553781;-0.35328832;0.00024535533;-0.9201056;1.7064415;-0.009833961;0.03462898;-2.5041115;-0.07113406;0.29507887;-0.047461353;0.0023217304;0.97635555;0.047937647;0.9494517;0.63871884;1.4994886;0.0063895485;-3.6151333;-12.18389;-2.0077047;0.6617962;0.025987387;0.6536203;0.6487949;-3.1330643;-0.0018827535;0.9112076;0.016889589;-0.03441902;1.8734787;0.0064368327;-0.04850679;-0.16000736;-1.0453787;-0.029435642;-0.008775051;1.1138346;0.009750039;2.419903;-3.5738206;-0.91308296;-0.010620577;-0.062206358;1.4802725;3.240959;-2.7289355;1.7720054;0.74659544;1.9141167;0.007003829;2.4049838;0.85831076;1.227522;1.2037036;-0.01705564;1.9283909;-7.0086956;1.6527423;0.40950987
1.9680183;1.4099494;2.4113326;0.03663649;0.30796418;0.03438913;-0.303656;-0.087640636;-3.485664;0.0068933233;-0.6646264;-0.8082363;0.03333854;5.351466;-4.136873;2.3039012;0.007356888;-1.4914824;0.057918053;-1.0696353;1.5866414;-2.7719412;-0.51592404;3.4631338;-3.285439;-6.423597;-0.3519854;-1.5467535;-0.04143157;0.012111613;1.9425619;-2.0356565;3.2330117;-0.009035352;0.01570397;1.5790887;0.56842965;1.0104649;-2.3101459;-5.6342583;1.7433919;0.031088503;-0.8900665;-1.2755101;-4.513145;-0.8832117;0.076461025;-0.32198125;0.08784399;2.7943628;-0.11994819;-0.048305843;1.5444663;-1.0945154;0.066954166;0.0054507996;-1.8416992;0.04889666;2.8331842;2.0577242;0.15260985;-3.9582324;-0.016670033;1.7371876;-1.064879;2.955575;1.4754856;-0.3773126;-0.07346183;4.7493334;0.38481158;1.9615161;0.35414082;-0.53093475;-2.143624;-2.293312;2.0067363;0.8195019;0.07670046;0.009802735;0.022526808;0.01844192;-0.023867488;-1.4888786;0.032982804;-5.270062;0.88166326;-0.089369446;0.018495308;-3.6560688;-0.56855375;-5.8462005;0.055526644;-13.391471;0.032201342;1.6878258;0.022647688;-10.621134;1.3830252;0.865011;5.5416403;-0.053166904;-0.011959567;0.15378438;2.256682;0.06124074;0.75721925;0.025676118;0.030976545;0.03254209;-2.4261374;-1.1140245;-0.8367447;2.0368268;0.009485256;-0.13779794;-2.768481;-1.7246124;2.1517055;2.745802;0.79898715;0.028384041;-1.9017916;-0.6001086;-0.4830191;-7.262601;3.1236758;-6.13138;-4.232944;0.062218778;0.22484736;2.9206834;-0.009258751;-2.9613514;0.05252175;0.22272666;-1.6430109;2.289696;0.18932702;1.8346319;-0.5334492;-0.035291936;0.040422503;-0.0030015067;1.3274683;0.07323551;0.056110434;1.6951895;0.027212434;3.5016236;1.4872166;0.7557917;-0.3164254;0.087569535;3.5039499;3.125226;-0.024433777;-1.0786273;5.139115;1.3670971;0.07423558;1.8562589;3.1809664;0.09059723;1.1461878;0.010579333;0.13529763;2.4465947;1.9084854;0.008382215;-0.010879145;-0.7519947;0.015902681;0.11102742;0.033392664;-1.3719176;1.6698464;1.1326644;-2.6994076;0.4547491;-2.3041468;-1.1067059;2.4579325;2.1878955;0.0046048122;0.64612436;-0.0046251453;-1.1764563;-2.4954581;-2.056943;4.797915;1.9600799;-4.466592;2.6108613;1.4384426;0.05958691;0.030621743;-0.913075;2.2692096;1.3530517;1.7031223;0.011165381;0.0065247966;-0.008885533;0.6857566;1.5068539;-0.93899226;0.5141362;0.20762147;0.016604435;-0.8525746;3.0716083;-0.026287152;-0.03808441;-5.4583273;-2.1573067;0.20999181;2.4058151;-0.72196704;-0.51016754;2.1475222;-4.3298206;0.7410451;1.8790933;0.040335517;0.780732;0.029561413;0.029415527;0.014185381;-1.5166332;-3.6592488;-1.8617767;-0.01849172;0.044553343;0.94628876;0.9277901;-1.1623921;-2.6956527;0.023538971;0.44153413;-5.3764043;4.3884783;4.560355;-0.4388566;-0.12635182;-1.5111487;0.6552089;-8.671745;0.06792413;-0.031446695;2.362866;0.046878077;-0.88471854;0.33172363;0.052112974;1.1089269;0.14574625;0.06396452;2.1548245;-2.6547458;-3.2162247;1.5450231;-1.0452564;0.15222983;0.08185043;1.6978993;0.011748701;-0.07466668;-1.8198576;-0.0030046096;0.06967778;2.8267958;-2.9018836;-1.0539552;0.024137223;-3.2678156;1.4495445;-0.0007630038;-1.7784873;0.04674446;-6.4020624;1.7179756;-3.1593804;2.6098704;0.060321312;0.60567546;0.014736161;1.7993081;0.020870551;0.03496923;-1.4750947;2.799264;-1.3698603;1.2635629;0.00013393183;1.5547951;0.12469535;-8.4337015;-3.9972374;-4.037601;-0.37799087;0.027306048;0.021225234;0.009958031;2.076893;-3.5133965;0.942169;-0.0031329666;0.71675175;-2.4818058;-5.4947724;-2.5481071;-0.019292284;-1.8757517;-2.456192;-2.4507437;-0.31004077;-0.0118736215;-0.012005183;0.1400122;1.4191157;0.009643178;-3.1528747;0.9941379;0.028743578;-1.5536228;-0.033731367;0.39088324;-2.6348014;-3.5104387;-0.5849702;0.010272124;1.1764045;-2.6139967;-2.2805574;0.027734794;-0.34843314;-3.9677975;1.3285825;-3.1157453;0.0052267495;-0.813727;-2.054827;2.6388516;0.8752528;0.053993635;0.0627043;0.036359876;-0.97234005;-0.7393818;-0.21993908;-0.7108924;0.6320807;-1.0449854;4.314169;-4.931501;-1.2908195;0.023487134;0.49904916;-1.2275369;-3.447511;3.5167685;0.027953085;-1.4141991;0.9033474;1.1466482;0.02616162;3.7413177;0.50566;-0.9045229;-4.819458;0.23130967;0.04470985;-0.03534512;0.022248631;0.021282932;-0.006952658;-0.027181197;-9.329736;-0.30932233;-0.052125175;0.47788224;0.005512378;2.0308151;0.012773377;0.040767644;-1.0562232;0.32008323;1.3455354;-2.9384103;-3.6584327;1.7895963;0.9103653;0.041469183;0.6868088;0.93701446;-0.018833775;-3.124426;0.583235;4.1380234;0.11279694;0.0053933323;-4.0229836;0.020678505;-0.9725302;0.34429836;-4.618188;0.08458032;-3.5196304;0.019983275;0.026414441;0.012537378;1.615869;-0.055415127;-0.8131788;0.19072059;1.3132592;-0.0038383286;-1.8739151;0.079957485;0.3858176;-0.035892844;-0.031240953;-2.4987037;-1.9356765;0.017400077;0.058403872;0.24056326;1.015685;-1.6666306;-2.040829;-2.0122721;-0.8074269;-0.022345219;-0.007230525;-2.8550735;-1.7976066;-1.097073;-0.8556183;-0.12259699;0.010287844;0.20815632;0.025922772;1.5094426;-2.9685342;0.08579229;0.069865935;-2.6961393;-0.0019771166;0.6096127;-1.1663252;0.018257892;0.31124365;-0.48255298;0.0033084177;1.2186074;-0.056222845;0.3236617;2.7574313;0.036320142;-0.0010304368;0.0017946924;-1.3914222;-5.0593987;-1.0396357;0.7618374;-0.020543389;2.3423398;2.295124;2.2226999;0.040295463;1.2373677;0.042199474;1.8136181;0.97597545;0.015868252;0.036004126;-1.1560612;1.1193018;-0.01819051;0.08653774;-3.0281994;-1.3263572;-2.9085376;2.7337375;-0.004824998;1.0013491;-1.2649968;0.06514939;-0.86209357;0.03789086;-4.055653;0.5560756;0.9357787;0.10556323;0.038897;-1.3070321;0.0031360362;-1.9755279;-0.9936078;-3.825529;0.014280986;-0.014021965;-0.025061628;-3.5384126;-0.012009978;3.8740942;-0.010088133;1.7431804;2.267186;-1.2523528;-3.9906783;-0.5829592;3.1351247;-3.9881456;-0.044875532;0.046601962;2.1562598;0.022464909;-2.5329545;1.2206798;0.014299536;-0.0066389013;-2.8021705;-0.0036920768;0.062483408;-0.019187218;0.0020634118;0.2857356;-0.015996745;-1.249705;2.6150792;1.0774665;-0.022151714;-4.3904185;-12.912269;-1.6369293;2.5468347;-0.02068711;-2.6702738;-0.71421725;-5.26919;0.057099096;-0.34453312;0.032002907;0.06018068;0.6109104;0.025629403;1.470784;-0.015653426;0.8373391;-0.026355904;-0.03148022;1.8600589;0.0054918635;-0.646679;-0.7721164;-0.16367646;0.05024002;0.01904502;0.2135516;0.95425224;-1.966535;2.3946004;-0.086246796;1.0267501;-0.006615327;1.7788243;-1.0758579;1.817256;2.2909703;0.04168538;-0.28247738;-6.55943;-0.010344465;2.9455914
4.1882296;1.3626631;-0.56028104;-2.70703;0.35898006;-0.0024908436;4.2621903;-0.06061288;-2.1720483;0.03913575;-0.98843384;2.0239143;0.009185491;2.8324602;-4.9952946;2.0139134;-0.01849768;0.5931289;-0.083285116;-3.5040388;3.788668;-2.20933;-0.070173666;3.9835997;-5.919473;-2.9591458;1.3327615;-0.78493935;-0.05440207;0.021113645;0.7068975;0.6378978;0.25415152;-0.052808017;-0.020409126;2.4520698;-2.1280522;0.9270654;-2.135086;0.08192987;1.4397906;-0.06657926;-1.3101918;2.0468924;-3.449496;-2.3933983;-0.06944909;-0.49866202;-0.0399673;1.4145365;2.3059535;-0.0008063277;1.7055371;-1.0199147;-0.0010528471;0.017569024;1.2266798;-0.032284234;0.66950315;0.8077375;0.5642902;-1.5396959;-0.044717856;-0.008202278;-0.29768157;1.9786212;-4.9064536;-2.7114947;-0.05099747;5.1057634;1.0633892;0.17541286;0.7491626;-2.8168716;0.24086599;-1.4182658;1.5470064;-2.31241;5.000124;0.032298766;-0.028838715;-0.03848034;-0.93956983;-1.3301932;0.060395774;-6.0572124;-1.7690792;-0.014168531;-0.01876403;1.5198009;3.312786;-4.4776273;0.009756566;-14.083368;-0.057227984;1.147914;-0.008472474;-11.150155;0.837156;0.18583128;5.6330743;0.034123506;0.0046028774;-4.25479;2.0985448;0.0069930563;-0.95213425;0.019184206;-0.0539654;0.0049837483;-1.7623309;-1.4183428;-1.9754516;0.01883287;-0.0134283425;-0.15474196;0.07645842;-0.76563305;4.3357306;0.7798914;4.045697;-0.028387286;-2.4361773;-0.5213254;-2.0521162;-10.144212;4.347026;-5.070199;-2.5567322;-0.02189618;0.06610192;1.1057341;-0.01968634;-1.9254386;-0.051789545;-1.5542818;0.9907518;1.8958347;1.4697917;0.34495324;0.20578654;-0.05991664;-1.2133666;1.4906384;4.012397;-0.03402323;-0.018659512;1.717707;-0.040926263;1.6035755;0.65167916;-1.7573144;-0.10443805;-0.09036081;5.592954;1.5680696;0.011872905;-1.675761;4.511595;1.1259123;0.40259954;1.2998945;1.6578356;-2.39473;-1.7890601;0.014310224;0.17867486;2.7461073;2.1931584;0.00892144;-0.039426513;-1.6173688;-0.019776363;0.25312397;-0.054373085;1.0383486;2.7872698;-2.2872972;-1.1970034;1.6357036;-4.1869316;0.65351444;-0.37739238;0.16352002;-0.006400184;0.14888282;-0.008988134;-0.14866614;-2.7141447;-2.9049122;-0.3182807;1.4006693;-5.563998;2.452991;1.5218307;-1.4071798;-0.04021619;-0.3810056;3.7577057;-2.1589723;0.78113115;-0.008798172;0.028863026;0.03136328;2.0367398;0.8275657;3.1489253;2.4591079;-0.5075894;-0.0071986495;-7.756968;1.2305257;-0.040003423;0.00511119;-2.7948635;-2.93088;1.6938163;4.7220206;1.2643278;0.7088046;2.99253;-4.1199718;0.6770651;2.3774202;-0.069618784;1.2993336;-2.1796193;-0.06410738;0.7638096;-0.8595943;-0.12796143;-4.378501;-0.018999849;-0.0051679835;0.82498354;-1.9994665;1.7180917;-2.1354165;0.027262086;-0.0028152177;-9.572142;-0.46524048;-2.2804031;-3.804128;0.42524177;-2.9315724;-0.99535054;-5.783384;1.6117724;-0.06475666;5.2184973;0.014538998;-3.0521603;-1.6728442;0.02528462;-0.44190943;0.7139374;-0.04004082;0.48120233;-2.1196275;-4.6930537;0.6315972;0.35828552;-1.8391904;0.67187494;2.0975156;-0.0074633188;0.018686742;-2.0975099;-0.00035520524;0.033267055;0.7920984;-4.2603884;0.61763984;-0.023037923;-4.7760067;1.6875967;0.007139176;-0.29558018;-0.009599981;-4.0861006;2.0637825;0.043747142;0.106031656;-0.050037436;0.19852372;-0.029137801;1.713859;1.470284;-0.02811068;-2.172518;3.2027104;3.4590802;4.2237725;0.014608175;3.9041867;-2.1535785;-9.578792;-2.5684316;-3.9664414;0.3587077;-0.014394792;0.027374525;0.005155633;2.6040702;-4.2501125;0.37901077;-0.014165722;1.7892002;-1.6046195;-3.8040926;-2.5297887;0.042517863;-2.1798592;-2.795819;-2.9903858;0.49696645;0.0046789562;0.013225942;0.31130868;-1.2032899;0.053003345;-2.1656773;1.2658186;-0.05886897;1.0768296;-0.037876;0.2962314;-0.086972445;-0.39119166;-0.6293789;-0.03266924;-0.33320254;2.4744318;-4.1112666;-0.04910997;0.04436572;-2.5798345;-0.03931957;-1.625525;-0.020408109;-1.1838295;-2.5797436;3.069108;1.7674769;-0.023630248;-0.07958913;0.06561002;-0.6018203;-1.4245204;-0.41311225;-0.83353055;1.5574044;-0.49084848;3.4724667;-6.1759253;-4.4384346;-0.045057453;0.14195228;-0.59324634;-2.1365821;4.0258203;-0.022611136;-1.4031827;1.077071;-1.8101606;0.0080493;2.069453;0.39604062;-1.3716608;4.6472325;0.35915306;0.022237303;4.5503024e-05;-0.043439478;-0.011733876;-0.048056588;-0.00978146;-9.851118;-0.16705292;-0.06943712;-0.1489389;-0.06241716;3.1038675;0.11922056;0.012978361;-1.175316;0.65033984;-0.8228958;-5.19787;-3.8456357;2.326706;1.6482619;-0.0061276522;-1.5931652;0.8080532;0.010415616;0.78870213;-6.3326497;2.7684824;3.7346368;0.009919813;-5.9216266;0.026042415;-1.1733822;1.6399761;-4.565078;-0.009443498;-0.7213727;0.033882838;0.017628135;-0.042541996;2.2235713;-0.032446176;-2.1996932;-2.1269534;-0.32696822;-0.017614735;-0.34939516;-0.058907546;0.901982;-0.7273625;0.57340884;-0.65280455;-2.8470168;0.016308732;0.00836125;4.831264;1.5236284;-5.784635;-5.2806354;-2.2196326;0.38353842;-0.021252112;0.030891096;-0.46678868;-1.0965595;1.5899589;0.27077973;-0.026441952;0.03306228;-1.8824534;0.03783529;2.151062;-0.56029665;-2.671991;-0.049744274;-1.4084221;0.020829475;-1.1914988;-3.624329;-0.055231974;-1.3392391;-1.6397895;-0.020314768;1.88964;0.009300675;-2.2567444;4.886516;0.00248399;0.044408865;-0.047945295;-1.3421373;-6.292949;-4.0274944;2.1155179;0.0024713334;-0.015475111;1.4176247;2.7060666;-1.7812339;-3.2201564;-0.0065251905;0.22197628;0.8769804;-0.03202215;-0.014202361;-0.54641145;1.9587147;-0.009300026;1.4141273;-6.687389;-1.202151;-2.6562068;3.5319226;0.012268056;0.5562114;-0.58387625;0.00041235407;-0.48381272;-0.02629002;-2.5372176;1.1798062;2.9527588;-1.4438503;0.020564726;-4.727714;0.030758942;-2.1393461;-1.3649124;-2.3324852;-0.020037113;0.0070501934;-0.014355626;-1.887191;-0.008176092;0.62883985;0.018620316;1.1364771;1.3515064;-2.5368469;-2.6827953;-5.167168;3.4290977;-3.5662448;0.15138122;-0.08319532;2.0992863;-0.024638714;0.017387796;-2.7684429;0.023721302;-0.017745096;1.0465772;0.017824495;1.7417102;-0.004833086;-0.0051554632;0.7770844;0.07697145;-2.6069689;-1.2538933;-0.23341443;0.04535342;-1.9527315;-13.196594;0.52368736;2.7785742;-0.0055599874;-3.0253336;3.3825388;-3.7371023;0.015445361;0.74062586;0.0062692207;-0.049609303;-0.5059002;-0.012025882;1.3205149;-0.05542399;-0.99200755;0.027297003;-0.00021457944;0.2203047;0.03726671;1.1160518;2.0849206;0.29882285;0.022682246;-0.008632879;-0.034783453;1.0937613;-1.3028741;2.4960303;-0.032399915;1.0287423;0.022315787;1.2332277;0.6423595;1.601253;-2.2442286;-0.05019561;-1.1163967;-8.832302;1.2994869;-1.9380338
2.879852;2.4539125;0.7154312;-1.4845;0.8426043;0.00012268769;0.89620423;-0.020522978;-2.5932188;-0.020930808;-1.8406578;1.3757147;-0.037293848;3.1968331;-2.610906;2.0487046;-0.03608496;1.7319489;0.0029198274;-2.7995522;-2.146352;-1.8089176;0.25571764;4.050128;-3.3073387;-2.7172766;2.7878807;-2.930486;0.07573159;0.020195544;-0.64924926;-5.2488723;1.312296;0.02230288;-0.034514215;0.793979;-0.73808426;0.80468553;-2.1061506;-0.62031317;1.0150493;-0.012280487;-1.0491238;1.7865041;-2.3627028;-1.3305854;0.008824154;0.30710983;-0.0027361086;3.7338433;0.2678061;-0.08745772;2.8214583;-2.6838315;0.01074001;-0.040915668;1.2444857;-0.035936054;-0.22645646;-4.906804;-0.5369811;-0.08084375;0.018702133;0.5241855;-1.9761391;2.8799593;-1.4790305;-8.316586;-0.023870127;2.9498165;-1.2145132;-0.8716956;3.426192;0.32542884;2.0068116;-0.9465975;0.6217783;-0.723967;4.1343637;-0.013580074;-0.010960651;0.03341044;-2.1303372;0.06044715;-0.047775842;-0.85624355;-3.2534082;-0.0049538617;-0.03685534;3.6217706;2.2626743;-4.2018743;0.028650068;-12.923787;0.005919474;1.2172967;0.00090584916;-10.375699;0.41138688;-0.11994701;3.3851018;0.028701141;-0.02235721;-0.38197455;2.8093915;0.0029038102;-1.7037587;0.03414492;0.020182224;-0.006539242;-1.988686;0.058801398;-2.3051333;-1.3546513;0.031737577;0.7462604;-0.024754578;-1.8578689;2.5170846;-0.944073;3.1029086;-0.019593965;-1.8192976;-0.65544283;-1.2834764;-11.431242;1.7893729;-4.3133016;0.5989417;0.013893893;2.565709;2.992499;0.018738529;-3.663709;-0.039319754;-2.6159713;-0.96732104;-0.17120676;-1.9393847;-0.72447467;-1.2540499;-0.014029133;0.66798455;1.1589556;1.9122808;-0.030061401;0.004993977;0.26677728;0.036185894;1.8741877;-0.28784016;-1.5678225;0.43557587;0.013148073;2.7957373;3.1825695;-0.028924363;2.045635;3.9313529;0.19524823;0.5252206;0.8187524;4.474526;-7.428774;-4.405481;0.060634665;0.38974229;3.133924;2.4447486;0.01626724;0.011274807;1.8146892;-0.028263282;-0.053458568;0.0026135754;-1.6878392;1.5093993;-1.6109806;0.29604647;1.4507833;-1.3334166;-1.0719709;1.2519991;-1.2516699;-0.111806825;0.82641983;0.005567622;4.5533466;-2.6635911;-0.511507;1.0857749;-1.250234;-3.4715052;0.3910874;-3.106055;-1.3671454;0.07704083;-3.8745463;-1.1857101;-0.008894625;0.4954765;0.05546713;0.008047542;-0.037024867;0.8578157;-0.7034392;-0.20095193;2.3949752;-0.96467614;0.016676737;-4.8661547;-0.1731557;-0.010352253;-0.04857914;-2.1824744;-2.9298685;0.8905931;1.7211595;-2.1122527;3.1306455;2.1183472;-2.5114672;-2.154216;0.20837568;0.008266614;-0.68032134;1.3340276;-0.019352578;-0.016127883;0.9611115;0.5862988;-1.5858486;-0.00017377338;-0.06965304;0.24961068;-0.48528773;0.17263986;-3.1893058;-0.035591986;-0.25899228;-8.429537;1.6297235;4.5184617;-2.1767015;-0.06571749;-0.7351934;2.8311396;-2.2058628;0.92173415;-0.043771826;3.0979753;-0.030652847;0.5811175;-2.2022407;0.03885036;-3.0257947;1.1317039;-0.035056155;3.748878;-2.9898305;-4.668315;0.98410535;0.08320842;0.5207255;-0.13457662;-6.397303;0.027932981;0.2251672;-1.958787;-0.018158121;-0.05125792;-0.82482815;-4.2712593;-0.24396688;0.0023626245;-5.7057223;0.45426014;-0.043715134;0.1237263;-0.0015972166;-0.46932513;1.4033935;-2.983111;-0.30131418;0.055024084;-1.7409852;-0.0015427003;0.030661497;0.46240905;0.04956797;-0.02654464;3.6507034;1.3956443;1.1042928;0.017046964;2.95258;0.3518703;-5.1636615;-3.0558164;-4.7244897;2.12447;-0.08460304;0.012627957;-0.0075058397;1.370566;-4.0774465;1.8935602;0.02625112;2.067679;-1.5432518;-4.0681834;-1.2816417;-0.089283854;-2.1293418;-4.4948545;-3.887112;0.52058023;0.010857703;0.005963829;-0.6832776;-5.25401;0.015939359;-0.9815273;1.3319421;-0.024075417;-4.1647515;0.010122577;1.0322982;3.6408546;-0.81043696;0.2069265;-0.0009824312;-2.5488207;2.3133652;0.66605544;-0.017070549;1.4023265;1.1588768;-0.40866467;-2.563769;-0.008087638;-0.43973023;-1.4762515;1.0516628;-0.022779137;0.011624576;-0.021614691;-0.020392895;-1.3660176;-0.8741723;-1.0959915;2.0750833;0.89508045;-0.11627691;-1.1817125;-6.760646;-2.2449963;0.0056735366;2.0675793;-1.8554841;-1.6970234;-0.20671652;0.052607335;0.22494428;3.9054515;-0.72413874;0.024796067;2.2423968;-2.2490692;-1.6642977;2.953987;0.39146417;-0.009995982;-0.0471222;-0.044141315;-0.09194642;-0.013252579;-0.01834522;-9.690752;-0.3946924;-0.00966139;1.7000285;-0.011283729;3.0675855;-0.08027861;0.0013565363;2.4825494;0.54988635;-3.3774478;-5.6419444;1.2749223;0.7433551;3.2210932;-0.017055653;-1.2975817;-0.6656831;0.029898446;2.2631595;-1.7334467;2.4723184;3.3525782;-0.05955538;-5.541136;0.04002778;-0.20717248;1.4508625;0.16072494;0.06477171;-0.61982656;0.0049014944;-0.036166456;-0.05634798;0.45310587;0.03013721;-5.9030046;3.9360483;-2.253548;0.027743343;1.0352745;-0.04815943;3.777149;-2.3901045;-1.913208;0.50490445;-0.67366433;0.009063347;0.023097463;1.9587523;-0.09400447;-4.223503;-2.6848774;-2.204331;-3.505572;-0.02006284;0.012643637;1.0060443;1.3838032;1.9834753;1.336062;-0.062929094;-0.013302115;-1.6806632;0.03790781;1.0680758;-1.9344718;-0.027244518;0.030372828;-4.797549;0.033478007;-0.72278744;0.13625024;0.0037316228;-1.0651934;-0.68952775;-0.0032898826;0.24560674;0.0027229497;-5.033223;-0.13986161;-0.059567165;-0.004832151;0.04232214;0.68393946;-6.713839;-1.0891885;-0.3964645;0.008257067;-1.3300022;-0.06450686;-0.85409844;1.0040448;0.6462478;-0.0079517495;1.988294;1.4540316;0.044313215;-0.038010314;-1.6642826;2.652377;-0.07831331;2.395715;-5.7771115;-1.2261554;-0.99744874;1.3709298;-0.043162454;2.3705623;-2.7174299;-0.0055190925;0.9939798;-0.066355854;0.78129333;1.7232636;0.77859807;-3.5633473;-0.018648192;-4.8819923;-0.0024862941;-5.0995483;-1.0930701;-4.2190585;0.019418415;0.06389109;0.0020584129;-3.6278932;-0.0012891191;-0.8184354;0.034602538;-1.6374376;0.38952884;-0.6839351;-0.5172451;-5.7698874;2.5447102;-2.6760447;0.007951419;-0.021875497;1.2132409;-0.009369429;-0.73751605;-3.0592766;-0.00016220483;0.016300103;2.2020745;-0.040220138;-0.8767412;-0.051095918;-0.059712496;-0.33418456;-0.03433648;0.5617638;1.770688;-0.084444;0.029021308;-0.60238224;-13.570713;-0.68762285;0.90810937;0.017133161;-0.10823394;5.3245573;1.6873033;-0.024544198;-0.07624121;-0.015645394;0.030502617;-1.3116502;-0.015293254;5.252825;-0.03558516;-2.1183689;0.00514651;0.018059213;-1.4227904;-0.014367408;2.3766892;1.3421359;2.6399927;-0.04568787;-0.10478833;-0.48068553;5.2542343;-1.2060534;-2.0281918;-0.050148614;0.8747938;-0.018729992;2.150324;-0.4601344;2.0580733;-0.08606486;0.0007211171;-1.9764289;-4.46471;1.7814084;0.26288688
3.3929791;2.5715592;1.040737;-3.7439733;0.7736532;0.014398409;-2.3198519;0.023265533;-1.9575478;-0.036665317;-1.2962791;-1.2817072;-0.01105846;4.1743636;-5.323624;2.3336077;0.09078761;1.1726866;0.00074259663;-0.07746492;-2.570701;-1.3719497;0.29266122;3.896711;-1.021595;-2.0314155;3.16437;0.1348943;-0.121097304;-0.004877889;-2.351302;-4.6469283;3.6452792;-0.18594863;0.008107154;1.2231563;-0.6235968;-0.4064718;-1.7087193;0.87700695;4.30223;-0.0368571;0.17420478;-1.7388756;1.1773587;-4.233367;-0.028949903;1.3955928;0.02183739;4.197599;0.0025715227;-0.057708006;1.7661709;0.9761117;-0.052200153;-0.04655627;0.23626074;-0.01662484;0.9964619;-0.033709202;0.0322695;2.131275;-0.18721807;-0.24104394;0.24452302;2.2857406;-0.49568826;-4.9244866;0.0017980062;-0.74796575;-3.2136707;-0.9397612;3.450083;-1.5275689;3.0897923;0.4188146;3.4677274;-1.5304588;-0.8970142;-0.07099014;0.04721853;-0.05428377;-0.78078836;2.8262577;0.067781545;-1.3121173;-2.8212996;-0.026286893;0.010967072;3.573639;3.4307516;-4.030121;0.01673241;-13.934661;0.018564874;-2.2342923;-0.0122316405;-9.970341;1.2463856;4.197807;2.2952378;0.031458173;0.020914093;1.5077091;1.9877969;-0.027200872;-0.4325007;0.05269638;-0.05865348;-0.017011067;-1.9020548;-3.2118087;0.50462514;-1.8366576;-0.051824167;2.0720286;1.1850392;-2.2391498;1.0629756;0.90111226;0.21232098;-0.020123513;-0.6675015;-0.6839829;0.044974923;-11.283711;3.4914749;-1.988318;-0.07638471;-0.012465811;3.0272095;3.105292;0.010957359;-2.1230679;-0.011940896;-0.7740692;-2.2486153;0.096891835;-0.26452163;3.024449;0.53031915;0.019437356;-0.55803776;1.3979517;-0.6584951;0.026780605;-0.051640134;0.23935404;0.020205125;2.4313035;2.409091;-1.8673645;-0.4642092;0.055525422;-3.2030132;-3.3780205;0.004609524;1.4845914;3.9602048;-1.0334113;-0.023098938;-1.6468675;2.2816;-12.319049;-1.410615;0.045589328;-0.050103698;2.6342194;0.99946207;0.025614725;-0.05951266;4.147872;-0.05558143;-0.063743144;0.0069503183;-1.4261222;2.447141;1.980351;-0.47230643;3.179752;-0.31922987;0.7742039;0.28992045;-2.3722558;0.7107765;0.55800986;0.009853132;0.87523353;-2.8350043;-1.3300359;-1.162491;0.3234293;-4.191265;-2.410896;-2.6636539;-2.2515876;-0.0406505;-1.6384047;-4.0106406;-1.5035638;2.0025315;-0.04867804;0.010557554;-0.046447538;-0.5279707;-1.4097042;-1.990359;1.1277008;1.2892979;0.025208006;-2.3426797;1.9220668;-0.024995254;0.002868298;-0.10320581;-2.3145065;-0.6330318;0.7929325;-2.2878;3.8604274;1.7602892;0.1790996;0.6856826;1.4434063;-0.081622675;1.1501644;0.025888817;-0.042928256;-0.0094604585;-1.2283255;0.7494666;-2.9468117;-0.015826624;0.03426082;0.1624154;0.9569663;1.419446;-1.8081418;-0.13992319;2.5666437;-7.10626;0.12101519;3.3757815;1.0032924;-0.057625894;0.07562225;0.7459151;-5.230565;2.9243243;-0.19571088;3.227379;0.055319082;2.6625152;-2.5663152;-0.055616412;-2.8005712;0.59787756;0.0091562;1.737062;-2.8118637;-0.5321471;3.6111624;1.7305765;-2.3828692;-0.07482257;-4.64041;0.018165607;-0.154158;-0.91086817;-0.008777025;-0.024105491;1.9186317;-0.49975985;-0.61046046;-0.007564454;-5.0126104;0.20715575;-0.010143855;-1.6789619;-0.040540654;-2.698045;-0.7382697;-5.7348;-0.06318093;-0.026246967;-0.3944744;-0.00031706408;-3.559214;0.7777198;0.097488835;-0.18162726;3.026951;2.064666;-1.8644371;0.005079376;3.0750186;-4.241434;-0.72715646;-0.18070215;-2.9831853;2.3082373;0.036423776;0.026210116;-0.005514596;1.4414771;-3.9575436;2.9026926;-0.0050140102;1.3855077;1.3110795;-0.1550021;-0.5171763;-0.034502767;-2.0358386;-3.300391;0.3043313;-2.127274;0.039603908;-0.038670335;-1.0090042;-3.8907044;-0.017201183;-2.210423;0.76732004;-0.019157296;-1.4236493;-0.085587226;-0.5622405;-0.32570255;-3.635433;0.8078952;-0.037743617;-2.0377223;2.4795275;-0.36609966;0.03157507;-1.4782172;0.0984802;-1.5687605;-2.0386245;0.0035581589;-2.3820634;-1.9108834;1.3097783;2.1801453;0.040557727;0.026938949;-0.015939241;-0.37023586;-4.1065493;1.2135775;-2.8134534;3.1999934;0.16407616;-2.987336;-5.512197;-0.379698;-0.01786242;3.259602;-3.5334017;2.4407847;2.8196356;-0.008383518;-0.26651144;2.9809701;0.21732362;-0.039873984;1.6171468;-0.16947637;-1.5359406;0.6022343;3.5085106;-0.0313978;0.024505746;0.0073775356;-0.0007962411;-0.0010411774;0.0074424087;-9.9727125;0.08748622;0.0040238015;1.0445083;-0.17228043;1.7933267;0.032897837;-0.010843676;-1.634017;-0.30501804;-3.3095505;-4.8410797;3.5295608;2.3303971;3.9990735;0.004453743;-1.9923745;-0.5508814;0.019069215;3.1871808;-1.0586995;0.7479284;4.2527204;0.017132055;-4.291761;-0.015346883;-1.4448953;-0.814513;0.8145053;-0.21827142;0.6066729;0.014756145;-0.011672712;-0.035954922;1.3999494;-0.030204361;-2.181664;0.979721;0.99388915;0.026968185;1.493821;-0.016841076;0.58874005;1.2436525;-3.3309672;-1.9817508;-1.2090609;0.013014642;0.08624841;0.04540599;0.7454995;-1.5144589;-3.5352263;-4.397275;-3.1760561;0.0072088647;0.02774215;2.6516018;2.2400146;0.50899;-0.26002803;0.04511026;0.01029213;-1.3288926;-0.020249339;2.9926517;1.5229051;-1.0737377;0.0039966838;2.7442527;-0.008012056;-1.7806513;-1.221198;-0.08942615;-6.154248;-0.83792603;-0.02291682;-1.9665445;0.016819522;-2.974213;-0.15688717;-0.11560691;0.002573244;0.044146776;2.6865478;-8.467068;-3.106462;1.2621984;0.036946934;-1.2456367;2.7458694;-2.396666;-0.7071149;-2.3875353;0.065684356;4.5653605;3.215684;-0.030202882;0.02732018;-0.32032016;2.9553602;0.10793167;-0.1778301;-7.462776;-1.4454443;-1.5252889;-0.06726692;-0.045469698;0.47614443;-0.3144767;0.05200314;1.3729744;-0.017702812;2.8236618;-0.4338186;2.2864273;-6.760842;0.054677013;-5.4591055;0.042082712;-3.3868883;-1.1552783;-3.980304;-0.053120505;0.032636616;-0.0047384137;0.10377444;0.01820328;-0.7246458;-0.04433674;0.34412506;-1.3814917;0.246822;-1.9348727;-6.2073255;3.9803236;-2.0577333;-3.1445196;-0.0005662619;0.2594055;-0.052278366;-0.22915782;-4.2926097;-0.004721045;-0.11392882;-1.7037477;0.020613352;-0.6477442;-0.039672714;-0.13534012;0.019667676;0.00061258615;0.39559603;0.47103843;-1.4752333;0.008180198;-3.469024;-13.284451;-1.2101172;1.7993592;-0.014118733;-1.8645263;3.0329857;-2.2185683;0.018604627;0.66106224;-0.020047601;-0.0021007007;1.3078047;0.00027621197;3.3492277;-0.083308;-4.212326;-0.0036466124;0.0020936707;-1.9410158;-0.022017539;2.7953146;1.9615437;2.7001212;0.034018885;-0.08903115;1.4942014;2.9644797;0.3077356;-1.150851;-0.00035912177;-2.7248135;0.035749663;-0.2364408;-2.577098;2.4154804;3.4656353;0.00041508995;-1.5153033;-0.45944607;0.56016314;-1.7197418
0.42167687;0.22424798;-2.410642;-3.190502;-1.3753294;0.016263612;-0.88077575;-0.14831161;-2.4084435;0.114767246;-0.9588351;1.0681762;0.012472115;2.722972;-2.8770838;2.1499808;0.003338164;-1.2603813;0.040490378;-1.3955216;-3.6988604;-1.2725376;0.033168375;3.4917316;-0.29568738;-1.8181695;1.8702558;1.767617;0.9338086;0.0047595706;0.64256364;-1.5186363;-1.1348042;0.9298097;0.004372045;-0.47245103;-1.9678177;1.3377088;-0.9410635;-0.10901168;2.7509553;0.025990976;-0.4247847;-1.6902107;0.26578966;0.54690266;-0.028745355;-1.0574958;-0.016723113;3.7103455;-0.5120181;0.36457342;1.0507722;0.42024735;0.022841737;-0.053712927;-0.30420852;-0.02377081;1.9151845;0.5142168;0.21122377;0.6663444;0.7891207;0.028406112;0.27456912;2.4833255;1.0304556;-2.4074166;0.016569315;0.2765463;0.7725511;0.09918504;1.5833058;-2.4366715;1.0396082;-3.5010812;1.4961247;0.64509374;1.0636861;0.015883727;-0.026113106;0.016125737;-0.4010476;-0.38936153;-0.09893339;-1.6238184;-0.21658824;-0.009286817;-0.0043716696;1.0937554;3.1874566;1.1287113;0.24252684;-12.710424;0.017409751;0.90322095;0.0073143626;-8.13989;2.3751068;5.065641;2.8512437;0.006690878;-0.009038557;1.0477626;2.2973897;0.046333924;0.69132024;0.051343307;-0.0068281475;0.06182496;-2.995722;0.7218815;2.5239048;-0.039547827;0.07176685;-5.898181;0.5805464;-2.6397002;1.1784217;0.3823297;-2.0611517;-0.061019465;0.2667755;-0.8577217;2.6850467;-11.802856;2.3344114;-1.9756215;-0.98675317;0.006398264;0.7900213;2.0814147;0.06443527;-2.6991184;-0.007056531;-0.23273224;2.7215788;1.0590923;1.272189;-2.1490161;0.33052155;0.093035504;1.1025312;2.376944;-0.2467372;-0.033980902;0.052820373;-0.5547317;-0.00774299;1.4807775;2.7638285;-2.781591;-0.25012997;0.027983814;-1.7195181;-3.342936;0.028495586;0.232593;3.4601514;-1.4927144;-0.5636117;0.67083305;1.1751187;-13.294111;-2.4791577;-0.026238548;0.07532604;2.435;0.75282305;-0.056817915;0.00381048;3.3379571;-0.030020395;-0.09217861;0.024461465;0.5138298;1.4923953;0.08500178;-3.1489775;4.922978;-3.6646068;1.5034441;1.0041428;-1.2988247;-0.075381085;-7.750268;0.038866226;-0.16579261;-2.8258543;-2.987052;-4.199913;-3.1927168;0.651097;-0.24906804;-3.187599;2.141203;0.007296374;-0.33201072;-8.410059;-1.4810451;0.39093012;-0.009156402;0.017546302;0.008861197;-0.9967341;0.794364;-2.8749237;4.078264;-0.9235521;0.07564945;-2.1182442;2.6672707;0.0046195816;-0.019739335;2.071065;-2.1191735;-0.6399908;1.2085937;2.7025545;1.1750332;1.218687;-2.1767442;-0.6615672;0.5916352;0.1265827;3.0466547;-0.53650236;-0.011917923;-0.016283501;0.492372;-0.15635717;-3.8830783;-0.008325099;-0.051378157;1.1700561;0.25751913;1.2517997;-3.3921716;-0.09600267;0.28097266;2.7819333;0.5674524;2.964683;0.84636897;0.10963384;0.28331968;-2.2588882;-7.7169247;0.9557318;0.58708334;3.5708156;0.5608427;-0.2161438;-1.4238888;0.05592556;0.19327082;-1.9194983;0.0268087;1.8806785;-7.4396334;0.9894514;1.8714585;-0.41001606;-0.0115267215;0.02589225;-2.6167696;-0.011082659;0.076453336;-1.0580143;0.008674812;0.0816987;0.76710165;-2.7488244;1.5985541;0.02633039;-1.4735204;-1.2113601;0.07726827;1.4989899;-0.021962682;-4.033635;2.2534337;-3.5086954;0.16352044;0.14048852;0.52582765;0.04779222;-0.8390622;-0.10069297;0.024631258;-1.7693583;2.9540026;0.77265954;-1.9717382;-0.018784136;-0.9798269;-2.604533;-3.1427124;2.055397;-2.1467402;-0.8975909;0.024246303;-0.0015130739;0.011139444;0.29697657;-3.1956122;2.4257205;-0.009474489;-0.036749512;0.5664305;-0.81581753;-1.1676279;-0.061531764;-2.7613168;-2.993706;1.2696781;-1.4288325;0.007873994;0.0040017753;2.2007887;0.837663;0.10860013;-2.9755156;0.40543935;-0.016723923;-3.9733527;0.01677889;1.671024;-1.8711911;-1.0814967;3.5389826;0.023089878;1.004393;0.91574085;0.6848319;0.018628241;-1.1801969;1.013868;-3.1775844;-3.616972;0.020263802;-3.381103;-3.7457194;0.57331014;-1.0565081;0.054376923;0.0153174745;0.015088907;1.3618063;-1.2143414;3.4020944;-3.208902;0.43364415;-0.6973987;0.078249454;-4.438746;-1.9882402;0.04296827;3.145726;-2.694949;0.30000174;-0.29681975;0.007915306;1.7081257;0.57519186;-0.032301925;0.043576986;2.0494745;-3.6764796;-1.9413356;-1.9887033;3.3424866;-0.021267762;0.029371707;-0.06340932;0.03075492;-0.0094400905;-0.031227143;-9.549447;0.6794795;-0.02011548;1.8486981;0.8987284;0.04431181;-0.02977489;0.003913399;-1.0722017;1.3172046;-0.77431583;-3.9292805;2.9544797;-2.1522882;0.47457245;-0.0073718824;1.2356505;-0.27253145;-0.012288757;3.1142924;-1.4858245;0.9318359;1.9162203;0.0099718375;-2.1546788;0.0036930197;-1.771135;0.36074603;-0.7194307;0.08794447;3.1035986;-0.027493462;-0.012999985;-0.02095079;3.5682564;0.024130763;-1.3817126;-0.18430763;0.0657807;0.024357436;3.3270829;-0.008383275;1.8636773;0.83051544;-2.4412565;0.32281166;-2.1094112;-0.051042784;0.09666377;-3.1005409;0.03987102;-1.878083;-2.9881432;-1.5601679;-2.0144136;0.04650133;-0.026220538;1.5321473;2.605101;2.2369337;-1.9904505;-0.033775777;-0.03410462;-1.4229589;0.010019645;1.5195919;0.8415836;-3.1791856;0.0470778;3.7953863;0.00842602;-1.8840377;0.5466706;0.6456044;-2.0339408;-3.7514117;0.0088822665;-3.0856109;-0.030350829;-2.6299796;-0.13565102;0.41840994;0.035430703;-0.031562436;3.2654436;-8.161158;-2.4101136;-3.3385758;0.06021323;0.9320249;2.0128095;-1.3978282;-0.4269407;0.14562148;0.15398565;2.1477783;2.6237643;-0.0034375084;0.039030723;-1.5908132;4.8494635;-0.04178626;0.25225636;-7.679399;-1.4447627;-1.4648933;-0.39029878;0.017816493;1.2279652;-2.1936414;-0.011757183;1.99822;-0.091314666;1.7602047;0.90711266;2.1219177;-3.9696293;-0.03071544;-4.528394;0.033450708;-2.5865812;-1.335878;-1.9694247;0.02163958;0.0468997;-0.02308945;-2.4964614;0.00014238589;1.7817847;-0.006825988;0.14709772;-1.0923423;0.07941516;0.28124604;-7.015024;3.1098819;-2.9814491;-0.71252143;0.06538541;-0.39526823;0.001700035;0.031480458;0.3025256;-0.0065693916;0.8746796;-1.8864181;0.03565999;-2.0237758;0.03991197;0.9999044;0.3763437;0.015845863;0.025848905;-0.5566035;-3.100734;0.041355487;-4.5141234;-12.43698;-0.95184404;1.1508886;0.07326557;2.722728;1.4439003;1.9204979;-0.03226193;1.4579909;0.0417969;0.0016743448;0.17575769;-0.0002651503;0.8997746;0.75119907;-2.2592912;-0.0142632965;-0.041301172;-3.5163982;0.004717012;-0.3364262;1.7532992;1.2889416;7.5419506e-05;0.040542386;-0.0022432776;0.40769517;-3.3271425;1.8435162;-0.036715277;-0.19242401;0.02005832;1.8557973;0.12465737;0.39320335;1.4472704;0.026922503;-0.56035584;-4.3009186;-0.981154;-1.8588376
0.6032872;0.30892083;-2.280962;-1.3030422;-1.6215848;-0.02427089;-2.2724423;0.05788517;1.1603425;-0.076345526;-1.5005786;0.66263413;0.008376514;2.2540524;0.49966615;2.261065;-0.013800133;-1.5662373;-0.005771304;-0.9630484;1.5239062;-0.6292878;-0.4182576;3.4053447;-0.33920935;-0.3609968;0.9976539;1.0616834;-0.26665676;-0.010783338;1.8961185;-0.9498353;1.4590628;-0.11485419;-0.046496306;0.3765782;2.4694963;2.3122876;1.3802706;1.1884043;3.2491558;0.04209426;-1.4989902;0.8418872;2.1334994;-2.4118288;0.13822967;-0.25256488;0.012938737;3.0877435;-0.33322057;-0.12096257;0.8727885;-0.9691949;0.015663762;-0.062187936;-2.0078948;0.028766459;0.5421049;1.607029;-0.40748915;-0.9345617;-0.124308124;1.4437953;-1.2833023;4.275879;3.228559;2.3639574;-0.008005265;-2.7719738;-3.067624;-0.41990355;0.43366015;-3.4367738;2.7545304;-0.7719698;1.7789071;1.6274691;2.7870717;0.009012914;0.06213444;0.00067868904;1.541973;0.6115192;-0.08897972;-0.3350901;-1.0175229;0.0027321288;-0.021535596;0.41097182;2.9239428;0.2793094;-0.14864956;-12.726774;0.0638763;0.5115628;0.01379318;-7.6053863;1.6459674;3.164255;0.7169846;-0.09421485;0.006827025;0.46862826;3.5586574;0.0150910895;-1.0712469;0.0016657665;0.011424577;-0.04276149;-1.9809043;-1.735329;1.0904284;0.8631134;-0.049895264;-7.247254;1.606537;-3.7609642;2.3814008;4.051947;-1.2658187;0.0090329945;-0.17638412;-0.9941998;0.5188877;-11.628957;1.0653152;2.029129;0.9525843;0.015438598;0.2170564;1.2218175;-0.046054807;-0.9797322;-0.041924305;0.98809814;2.3121839;1.1725341;-0.5013241;-1.5530838;-0.3624703;-0.072143294;-3.56327;-1.1866593;1.8669406;0.01372506;-0.04426517;0.1500029;-0.014552303;-1.2356988;2.3303103;-1.9125209;1.0439023;-0.06588231;1.1784346;-1.0362637;0.0014512612;-0.3083043;3.046036;0.62719154;0.54635066;0.6214629;-2.638059;-13.838666;-1.8364125;0.0036645532;0.58388066;3.7277634;-0.60417265;-0.0194424;-0.010943212;0.9146018;-0.0066859066;-0.019696694;-0.0023723578;-3.5541327;2.2292097;-0.11695741;3.113402;2.7833774;-1.8312917;0.14553125;2.189074;-0.11690413;-0.1065325;-1.6222348;-0.008614767;-0.58320767;-2.8828;-3.668042;-5.2473907;2.6476035;-0.93840003;-1.7077866;-2.1161318;1.122357;0.014214913;-0.28450984;-4.182194;-2.6716046;3.8143299;0.009066722;-0.11786874;-0.044207457;-0.085328385;-1.7626188;-1.3656969;3.9506445;1.2543187;-0.009362275;-4.2687364;4.4172497;0.026471086;0.05190802;2.2664149;-0.5089194;1.0599887;4.985533;1.3151029;-1.5012552;-0.48104295;-2.9013321;0.6029487;1.2108979;-0.029267333;4.996686;-1.6521184;0.020291138;-0.02920028;-1.925418;0.30802673;-4.9650235;0.009142944;0.019154545;0.7877761;0.75645244;2.0670435;-5.8799353;0.69654655;1.8231353;-1.648757;-0.2289581;4.4130697;1.0202161;-0.12107223;0.8113478;0.2554713;-6.8181477;1.1904513;-0.055140615;-4.7337756;-0.090355076;0.29610816;-3.0608854;0.015083139;1.4180232;-1.046664;0.027443754;2.7268715;-7.837804;-0.6195283;1.2275237;1.430733;0.048044402;-0.03992403;-1.4231963;-0.015556589;-0.11742627;-0.88083464;0.045753747;-0.053638928;2.3548777;-0.71519405;2.0049536;-0.05380382;-1.4192442;0.15386274;0.03555449;-0.39857063;0.04556222;-2.129542;0.536787;-0.40316868;1.3943996;-0.02463765;-1.240898;0.016996985;1.9923083;1.0220641;-0.019379731;-2.1044874;3.6742284;0.013345475;2.6406887;-0.04270703;0.36601526;-5.0257654;-6.5642943;1.8362309;-3.0785763;-0.79759467;0.0013633939;0.0047593396;-0.016882312;-1.7409105;-2.2451134;2.4007802;0.016282115;-0.42625913;-2.6739695;-1.2689359;0.47510514;0.74413115;-2.6338139;-3.5072308;-1.0796357;-2.1672652;-0.045202255;-0.02217241;1.79307;-0.72686327;-0.03666153;1.5274687;2.3827465;0.03490682;-1.6159555;0.049312443;0.8298746;0.14512171;-2.818171;0.74599254;0.0027981454;2.0558286;0.48115182;2.1790986;-0.021714743;-2.5679882;0.6116084;-0.26798096;-3.1117504;-0.17341872;-0.2149599;-2.9765506;-0.8085048;-0.7435208;-0.032565653;0.006738254;-0.009163223;-2.639498;1.2955141;2.0556643;-1.9254262;0.7593741;-0.8514855;1.5664078;-4.2776523;-1.3838056;0.027742958;2.6690168;-0.84672856;-0.7351785;-0.14757545;0.027681524;-0.43266034;-0.2417122;-5.649481;0.020486629;0.72895455;-0.11046809;-2.1967647;1.6629955;2.54032;-0.023018798;-0.0030915106;0.30315658;-0.02039725;0.018838128;-0.029748678;-10.543072;-0.24595472;0.019726228;0.206055;-0.17207807;1.5006545;0.08819569;0.054441024;-1.1656129;-0.54882973;-2.7838686;1.4521871;2.4820578;-3.4838662;0.444035;0.027031824;-1.0857465;0.042613655;0.008307678;0.5082719;-1.014962;0.46427485;-0.6490063;0.020909756;-2.4521468;0.01957972;0.9678209;-0.5703441;0.59131753;0.03202965;2.0655568;0.0017756851;-0.05255128;-0.020841716;0.64947283;-0.012774157;-0.26970637;-3.6812153;-0.35567635;0.0024230296;2.2196217;-0.011932295;-0.41523248;-1.6760999;4.042495;-3.464942;-0.89903307;-0.0006693993;-0.03641758;-1.9094228;-2.293322;-3.264301;-0.37035316;-1.2276039;-3.8639574;-0.03202882;0.025124114;2.370013;-0.016176859;2.7915187;-0.5327215;-0.04912114;0.0054635564;-0.3519986;-0.02608701;1.0047113;0.7336019;-0.6970858;0.0036213621;3.0134737;-0.017967474;-5.2155643;-1.7657516;-0.1163018;0.68381166;-1.3975596;-0.0008257262;-0.88620585;0.03113999;-1.5599236;-1.4619161;-0.2587728;0.005076085;-0.023231477;-0.3385673;-6.7552657;-2.0352378;-1.3200248;0.018313907;2.224776;3.6290677;-0.6290688;0.7660384;0.85354805;-0.12531805;-0.083836004;0.4632164;-0.009377533;0.0067854035;-1.2927057;2.7899833;-0.015793046;3.2478204;-8.00562;-1.3658624;-0.86970145;-2.418934;0.019901766;1.2859609;-5.560012;0.0775058;1.0642266;0.07121974;1.8311508;0.6654685;3.3772752;-5.923202;0.001580451;-4.472336;-0.03684215;-3.4852712;-4.7205014;0.48787454;0.012333181;-0.034955684;-0.007428331;0.6137239;0.011510211;-1.2562;-0.08455324;-1.0039967;-1.3860092;-2.7694323;2.4021878;-5.4111485;4.057167;-3.0005667;-0.87671936;0.021368872;-2.2193239;-0.018433955;0.91830266;-0.94313735;-0.014230103;-0.23210964;-0.8718678;0.011589136;-4.2429285;0.024397682;-0.26234958;-0.48468652;-0.06572474;-0.21629958;-1.9718937;1.4987022;0.03074302;-2.396184;-13.010325;-2.4373066;1.9792119;0.008726821;2.5588086;-1.0744641;-0.78637105;0.010928647;0.25732395;0.06501569;0.049106933;-1.2581413;-0.009798095;0.88927203;-0.15583931;3.7897735;0.0021516278;-0.0021085213;-2.932383;-0.03219119;-0.8417704;-2.4678419;4.433995;0.009118279;0.9296807;0.29392123;0.16806577;-4.2392807;0.79266495;-0.029426629;0.56880915;0.005616084;-0.69019294;-1.3515912;0.28459254;-2.2815988;-0.00018156932;-3.2417495;-6.232311;-1.7240539;1.2916253
1.0685915;1.6197842;-6.4691777;-3.8267357;-5.012912;0.12397832;-0.12660311;-0.032831084;-0.7814842;0.0134393545;3.2455337;0.96928185;0.016983083;3.6358933;-3.7073307;1.9025458;-0.039048646;-1.1149006;-0.026349721;-1.761226;1.0396104;3.0920558;0.3106018;3.1631417;-1.1018869;-2.2921784;-0.30155453;0.75155413;-0.054441184;-0.012859147;0.45996332;0.4775272;-1.3196378;-0.053251058;0.06228155;1.4682636;-0.3633176;-0.075902924;4.2093177;-2.2394538;1.9033529;-0.052015405;-1.769435;1.8875299;0.25583425;-2.8097687;-0.035689693;0.06258527;0.0097382385;2.6772833;1.4152195;-0.04978949;1.5669757;-0.66819805;0.0037817776;0.007019693;-2.2564034;-0.005351464;1.2785158;-0.32260254;0.17610385;0.9768593;-0.073059954;0.86557007;0.56997234;1.7189198;0.6124007;2.509352;0.0335073;-0.69458336;-5.1141667;1.9554944;0.063138105;-1.6464447;-0.35984993;-3.0936835;0.19410242;-2.3022194;2.059039;-0.016442003;-0.03482689;0.0032683078;0.20743713;-0.53497005;-0.045075532;-3.0012646;-0.62368107;-0.019691793;-0.010576799;-0.22138566;1.0750731;-1.3110818;0.0430383;-11.563992;-0.02380077;-0.09233706;-0.015894905;-7.743784;1.0428039;0.57756215;1.6399398;0.018243583;-0.03484342;-2.277271;3.5805898;0.03416978;1.2633204;-0.060730796;-0.05468657;0.03930598;-2.3444104;0.19336034;1.8579845;0.6352461;-0.012595933;-7.7504163;1.6642494;-3.6291018;1.1073432;0.45855123;-0.29523143;-0.03139291;0.23952462;-0.4067822;-0.74074143;-12.155813;-0.17536543;0.9601875;-1.5453815;-0.030776095;-1.3484417;-0.50917673;-0.009245506;1.79781;0.020958941;0.36045155;3.760546;1.7868719;1.277477;-0.34313467;1.5630801;0.032026473;-1.2854749;-0.95044446;3.1958134;-0.007824264;0.0049903053;0.6619449;0.0075018215;-1.4113036;-0.8240052;0.5366818;0.27632403;0.015443157;-2.5503068;0.14359869;0.00956387;-3.8866315;2.3456798;-0.2639363;1.7586402;-0.8269607;0.3630337;-14.031369;1.5100092;-0.04065316;-0.4848412;0.55151737;-1.3252306;-0.03881222;0.006784834;0.10054665;0.0014054041;0.062043276;0.010038085;-3.1167264;0.5982443;0.44231346;-0.3027684;1.8590243;-0.903117;1.0402473;1.4183377;-0.9563072;-0.005046003;0.9803626;0.09003094;0.25672787;-2.3422892;-1.7883296;-2.8410182;0.67725694;2.1215289;3.6265147;2.4361417;-2.6781378;-0.01164182;-3.1225708;-1.7046226;-4.711645;0.5687094;0.038324006;0.17093538;-0.024402156;-1.4707178;2.8531094;-1.9714313;-0.34776375;1.0859965;0.017868657;-3.3709927;4.1812577;0.020000214;-0.023893556;-2.6515853;0.09997901;0.07050831;0.8659291;-0.3442169;-0.20980652;0.36090234;-4.628759;0.31030616;-5.120424;-0.011583141;1.8341088;-0.53567755;-0.23542742;0.04170936;1.8909513;-0.59379315;-1.0025896;0.006981784;-0.030485041;0.27979508;0.23326771;0.74552435;-2.512324;0.29265213;0.7633669;-3.8258023;-1.2736796;1.294223;1.2320015;-0.011838509;0.86741906;-2.9720478;-4.431732;1.5755891;0.047190838;-6.7874856;-0.015974209;-1.2044433;-3.4628954;0.03355603;2.7490182;-4.3017035;-0.023759328;1.3325253;-5.3042336;-1.1413687;0.045506366;0.028229259;1.5394275;-0.024584979;-2.942147;-0.015244084;0.02111588;-2.1411083;0.0003143386;0.033598453;-0.70972085;0.5613792;0.89887106;0.044259083;-2.3225818;0.27192795;0.05468109;-1.8017545;-0.0026874319;-0.16269226;1.0833758;-2.5306065;-4.573315;0.012548125;-1.4979031;-0.035083633;-1.8340353;-0.16578151;-0.004222839;-3.1992092;3.3115182;-0.37445784;0.7934095;0.7011523;2.2742794;-4.1610165;-3.8189642;0.9633207;-1.7848456;0.5863393;0.03527616;-0.007887978;0.032388903;-2.4033568;-2.1568418;0.67248034;-0.005620611;-0.01096698;-0.5307819;-2.878154;-0.375309;-0.17949054;-2.4038653;-0.5436367;-2.52113;-2.9897835;0.03481483;0.061534807;1.8922402;-0.09673884;0.0072272834;3.0297432;0.970164;-0.011527182;-1.7689304;-0.0025890074;1.2763236;-3.0515828;1.2468582;0.18085814;-0.02132265;-0.22930768;1.784391;3.1305633;-0.004400704;4.667946;1.0130545;1.1507236;-1.3743284;0.64538425;-0.7304514;-2.8851032;2.1122506;1.4299251;0.029536895;-0.053980783;0.021990921;-3.9238544;-0.53631526;1.3983697;-3.5281932;0.42259502;-1.8214984;2.30497;-3.8433795;0.110288695;0.026933914;2.4837737;0.61236686;-0.3156039;1.4275448;-0.046165563;-2.6864371;-1.215218;-0.86373997;0.060541805;1.3225951;0.007893793;-1.298229;-0.5551247;5.4383383;0.041080043;0.015526981;-0.06016027;0.024641907;0.021884555;0.027071835;-11.524086;-0.24468403;0.003432089;-0.9132816;-0.0067976965;-0.32785973;-0.037305467;-0.034143273;-1.6316024;0.5131592;-2.380041;-2.5848134;-1.5195963;-4.117507;0.31513542;0.0030347551;-0.48972854;1.9847115;-0.026024295;0.8886304;-3.4244251;1.692055;-1.3030564;-0.032305267;-0.9691448;-0.009312919;0.59055704;-1.6662455;0.66512376;0.39797974;1.0630423;-0.043954343;0.009719336;0.024620522;-4.1292176;-0.00091682316;1.6354296;-2.8784757;-0.14600798;-0.049698178;2.410516;-0.012150641;0.26790905;-0.7048048;4.7375174;-2.089554;-6.6933823;-0.015223603;-0.012385285;-1.0608375;-0.1410283;-0.9505121;1.039981;-2.2693584;0.81246233;-0.01612625;-0.022995245;1.2050221;1.5528593;1.8363221;-3.54992;-0.067271374;-0.034132432;-1.5519933;0.017268945;0.02251742;0.70273554;1.059199;0.06790551;1.1955676;-0.0047660326;-2.6841938;-4.3087378;-0.00714157;1.7378075;-1.5740054;-0.04747149;0.23995996;0.0034795678;-0.97000015;-3.0067272;-0.017855478;-0.0030256293;0.13252017;-1.3710877;-4.813075;-2.818907;-1.5172426;-0.006979879;-0.2001231;3.6287801;2.740629;0.6987481;0.37298638;0.0019643866;0.0006445485;0.79034525;-0.013321836;0.0011747231;-0.35916686;1.39456;0.46360928;-0.25477448;-5.6202607;-0.7501706;-1.7376177;-0.63394254;-0.04515919;2.3925538;1.0776565;-0.05352554;1.9809926;0.07736485;0.7746748;-2.35547;-1.0770648;-0.6733689;0.04622232;-3.025523;-0.02074559;-3.9655788;-1.7266895;-1.2303718;-0.0021978247;0.08884191;0.002558386;-1.1624937;0.04283968;0.374724;0.90805954;-1.382125;-1.3722522;-1.3054136;2.1766322;-5.740879;4.7751756;-2.4046292;0.099797875;-0.06609652;-0.7743929;-0.017235314;-2.6867592;-0.41460666;0.004036834;-0.0010151637;-4.754235;0.0022594626;-2.7520206;0.014658589;0.008354952;1.1599275;0.009233218;0.2796391;0.10866224;1.7330413;-0.027168564;-1.8959473;-13.073478;-2.5865026;1.2698687;0.0146614835;4.019851;-0.8098466;0.88137877;-0.027093513;-0.9498115;0.016680088;0.020329146;-0.58699334;-0.023873778;-0.15419324;-0.031900056;-1.38388;0.008708488;-0.0040936084;-2.5905013;-0.06408969;1.2778292;-1.9435408;2.4246836;0.027427707;-0.17256089;-0.3681621;1.8124076;-1.2876532;-0.51871425;-0.02250654;-1.0315083;0.006192832;-0.258383;-1.9847528;-1.8303223;0.4393805;-0.03313964;0.003159367;-1.4170605;-1.6189867;0.8339995
-1.3751565;2.3165305;-4.3202844;-2.3840582;-1.6332146;-0.08309386;1.6155326;-0.03047975;-0.81044483;0.0054750005;0.8233656;0.50137824;0.012279084;2.6053147;-3.5327063;1.2624882;0.00968897;-1.2222489;-0.030637389;2.308206;1.4563457;0.36401927;0.5001636;2.9194732;-3.898629;-1.5267278;-0.88894594;0.26636124;-0.07329391;0.034006782;0.26553893;-0.21713135;-1.0416011;-0.041233823;0.008654896;0.33103094;0.7158913;-0.3043449;3.893877;-2.3698256;2.6079037;0.024869168;-1.8886789;2.7251976;2.267518;-2.0002222;-0.011856412;-0.488562;0.010286354;-0.01334248;1.6921622;-0.038802844;2.153288;-0.91719735;0.0032381164;0.7324185;0.1340757;0.16469005;0.29781035;1.7211449;0.22443675;2.9272046;-0.07267609;1.1212571;1.4299283;1.8451177;-1.198689;2.8268378;-0.0165278;2.2339706;-5.5432363;2.7742112;0.8977767;-1.3551542;-2.4064767;-2.5762603;-1.2009425;-4.1228437;0.20552914;-0.039449193;-0.016713502;0.0070041944;0.1153478;-0.668372;-0.33307907;-2.6766129;-0.7804233;-0.0028352865;-0.027329886;-0.7215067;0.07203476;2.883861;0.09560527;-11.777574;0.013146023;2.5320807;-0.031025963;-8.524924;1.7311312;0.39640918;0.6295942;0.05090478;0.013309929;-4.2024565;3.9944355;-0.016510699;-1.6415311;0.027775077;-0.0051301173;-0.015828522;-0.9447939;-1.0986983;3.5280573;-0.8604618;0.02371345;-3.3298619;2.5934808;-4.365086;0.58282536;-0.8308901;-0.64561623;-0.008513907;-1.4441313;-0.24036223;-0.43329778;-12.669113;1.3100747;1.4218156;-2.341241;0.027972033;-2.6829834;-0.05339304;-0.02976331;-0.13372536;-0.00792552;1.0783907;1.5127547;1.5733964;-0.20748164;2.7229984;3.298238;-0.04026241;0.35562834;-1.6779482;4.3021407;-0.020395901;0.07895592;-1.1855568;-0.028893137;-1.1391443;-1.4992331;0.86929053;-0.7693946;-0.048783116;2.4339092;2.8468435;0.017275866;-1.6815742;1.0240309;0.19589278;-0.17312106;-3.6420584;-1.2491827;-14.861931;-3.4438734;-0.0020951177;0.2647366;0.38115317;0.099091195;0.030915556;0.029214261;-0.37570003;-0.0006921848;-0.10826019;0.01459357;-1.7595325;0.7040429;1.7924975;0.7428148;3.0195365;-1.9500358;2.027216;-2.0820415;-2.1489718;0.046870474;1.8174843;-0.021185016;-0.44130954;-2.1133893;-1.3244323;-2.6677313;-3.7226348;-3.3843522;-0.54987544;2.239665;-0.61962414;0.03209366;-2.3895679;0.2873539;-1.7556236;-0.19501188;0.024857607;-0.07994518;0.019461125;-2.0356274;2.3463068;-1.5833915;0.6929195;2.1506495;-0.007728053;-3.2002885;2.8982828;0.0023782349;0.034138497;-3.2533846;0.82402223;0.19747673;1.3581499;1.4913222;0.25956985;2.0041664;-4.2389655;-1.0951059;-2.096022;0.048397176;-2.1857138;1.0539808;0.9213555;-0.08827846;2.0658898;-0.0062481267;-3.0914896;-0.017761681;0.014286998;0.7398546;0.86190337;2.7144475;-2.2890112;-0.262439;0.679435;0.15234554;-1.9868821;-1.419815;1.643911;-0.004574885;0.078577876;-1.1782453;-6.7852454;-0.035134733;-0.07187446;-6.4772716;-0.051254384;-1.5619708;-2.1735797;0.0045589725;1.8319684;-5.8032966;-0.040734693;2.3574016;-5.2793193;-2.9164405;0.36582658;-2.1958976;0.5111882;-0.011416188;-4.401074;-0.0059144343;0.09911276;-2.32935;0.03803177;0.025192691;0.0036060817;1.1029483;-0.7097962;-0.008170376;-2.526345;-0.48346767;-0.021702515;-1.266484;-0.020578431;2.4986544;0.42107123;-2.0100062;-3.100671;-0.041597974;0.54202014;-0.011154868;0.42342255;2.0777745;-0.004739104;-1.3955084;2.681916;0.312057;0.73735493;-0.031455796;0.44440338;-4.389931;-3.531243;1.2152201;-1.0757493;0.46161106;0.018078;0.076196514;-0.015851518;0.26938382;-3.7104905;1.3541406;-0.002915524;-0.110369876;0.8118785;-3.4791892;0.23587346;-0.03998732;-2.2618952;1.9223641;-3.1621273;-2.3839738;8.820592e-05;0.020720733;1.3298287;-0.7836437;-0.042370383;2.6579947;-4.548639;-0.020672683;-3.4510598;-0.031302877;-0.5489829;2.0098605;1.3633865;0.42834812;0.051355146;-2.3168468;1.7296078;3.8223996;0.050827205;1.6934937;2.0549598;-0.49437585;-0.009559565;-0.08576675;1.9243823;-3.2400599;2.990384;1.7751099;0.010701147;-0.03499874;0.010313396;-1.3755776;1.3877873;1.9628571;-1.8509895;-0.46731025;-1.1117985;4.595764;-1.1202049;4.146301;0.0035616301;3.762438;0.9701979;0.9451994;0.7477665;-0.023831192;-1.0989327;1.2439682;-0.8833241;0.03438029;1.4197193;-0.9945039;-0.47086838;2.129192;4.6856294;0.031768065;-0.0015505335;0.00993382;-0.008573096;0.026030758;-0.047484368;-12.415083;-0.05772309;0.04019475;-2.2799191;-0.011230285;0.09553515;0.008514089;0.06337645;-1.0216874;0.47565934;-0.26605353;-3.3106556;-3.544746;-3.0885832;-1.7807773;0.0031525944;-1.0847242;1.0860056;0.018373674;1.2166442;-1.6757005;1.0978575;-5.864409;0.04101865;-4.546749;-0.0028785192;0.9860316;-1.4267818;-1.8585715;0.14794293;2.624296;-0.0027984404;0.09925409;-0.025525795;-4.7649474;0.0020720023;-1.9721345;-1.8364695;1.4114741;-0.030491173;1.8335413;0.034771472;0.09593184;-0.60469806;-1.2200087;-1.6525307;-2.2810287;-0.032784;-0.023390496;1.4693311;-0.13807087;-1.1795228;-2.7956016;-1.6167924;2.9319873;0.019607317;0.015683224;-0.8268026;0.22196981;3.1943216;-1.6906073;0.051664803;0.005673314;-1.8636048;0.044050563;3.4707012;-0.6362588;2.9927306;0.022244789;0.07388216;0.09879381;-0.10608516;-1.9233167;-0.0401042;0.5107209;0.14376287;0.10021937;-4.19199;0.013641909;1.337924;-0.2916007;0.040861115;0.029333876;-0.071818516;-2.528266;-5.564367;-1.1433797;1.302055;-0.03133479;-0.20518602;3.906534;1.6990695;1.1534591;-1.6731111;0.025168376;0.19968213;-6.242423;-0.010785046;-0.045962024;1.0891523;2.9791005;-0.13295633;-0.16725066;-6.8276267;-0.7201862;-0.6179377;1.1703107;0.01718226;3.1732895;2.7889757;-0.037319507;1.730183;-0.031734347;-5.065481;-2.0596805;-0.32195988;1.5555323;0.0030369763;-4.4638095;-0.01231605;0.6581523;-0.20446277;1.2834657;0.01960913;-0.008718904;-0.06524803;-0.828498;-0.0052345786;0.49742082;-0.15256822;-1.3797852;-3.171255;1.3465732;2.44019;-5.7712884;3.9245644;-2.1782675;-0.24567245;0.27931905;-0.552431;-0.038755823;-1.4344047;-0.70857835;0.018994475;-0.05420723;-3.2010922;-0.022909462;-4.307772;-0.016004968;-0.0027572028;1.1175809;-0.039192796;-1.4873173;0.9615942;2.7245743;-0.019067153;-0.79623055;-14.272086;-2.544349;1.0707697;0.043081716;1.224097;-2.727746;-0.32139835;0.042841107;0.813954;-0.010553544;0.012601178;-0.78577733;0.0684702;-0.33627716;-0.036260393;-0.88963056;-0.02590222;0.038131617;-1.2405907;0.022935806;1.8722773;-3.1105216;1.6892821;0.04345645;-0.028308278;-1.7372013;0.32499024;-5.4600725;-3.1076915;0.006526981;3.8080254;-0.011043235;-2.5450273;-3.2858872;-0.18091527;3.2402081;0.014057585;1.7464494;-0.76592827;-2.5619614;1.5626264
-7.3466015;0.08758057;0.72478986;-2.9837577;-4.76407;-0.036293853;3.3336103;0.05553815;-3.5942893;-0.020827187;0.29471564;1.2453533;0.030457113;2.9717922;-2.4401686;1.1906204;-0.0033560437;-1.3032397;-0.028292602;4.066451;-1.367301;2.1053576;0.53078556;3.637848;-4.5932713;-1.1657197;-1.0375226;1.6318036;-0.00076062104;-0.025051469;-1.5160711;-1.9410335;-0.7935845;0.0072380668;-0.049705092;0.6892692;-0.2529377;-3.154976;3.7003345;-2.7432153;1.7943364;-0.006341674;-0.94613206;-0.6732476;0.9080624;-1.9583493;-0.030469311;-0.23684976;-0.038428824;1.2648695;2.1678128;0.038209274;0.5728336;-1.399666;-0.008872317;0.45055905;-2.5356374;0.0074150767;2.1045735;0.22570743;0.010378355;0.8579494;-0.00035127657;2.05275;3.4937453;2.3646185;0.3261989;-1.5120659;0.025074575;2.0988393;-3.5238729;1.3893704;0.7371485;0.5555945;2.0132897;-4.3961525;3.3198495;-2.5851629;-1.820506;0.029878093;0.014227328;-0.02181108;-0.12917937;-2.3240166;0.2624134;-3.3714519;0.33824885;0.008153849;0.012723701;-0.93266326;-1.5615858;-1.116886;-0.045649987;-12.343779;-0.025387758;1.4821178;-0.035029583;-7.3352456;2.7138119;4.565995;1.6228393;-0.03310216;-0.017047113;-3.4179;4.5111403;0.01198039;-2.166983;0.014046987;-0.0294035;0.008860561;-0.3005521;-0.7751314;0.8864381;-2.0884933;-0.00032722953;-0.99316245;-1.1024115;-4.155606;-0.6374578;-1.9123502;-0.9137778;-0.010110512;0.26755682;0.020224437;-0.88507473;-12.53157;2.2225935;1.2432773;-0.8136143;0.027680002;-0.25712433;-0.41033983;0.02665008;1.0348231;0.0011152447;1.502355;-0.34789127;2.29797;-1.5014156;1.3617136;1.843016;0.001537979;-1.3341713;-0.7395135;2.4729788;0.037449095;0.016229032;-2.905357;-0.048332784;-0.39250168;2.223152;-1.697458;-0.63091975;0.025444346;-0.093233354;3.2735393;-0.004539823;-1.2140048;2.4205847;0.56167394;-0.37887862;-1.0829223;-1.1363466;-13.749818;-3.3696046;0.01959543;0.0035253726;0.18822193;0.52056736;-0.009813616;0.050925758;-0.9654534;0.04624788;0.061605245;0.011012254;-1.4441788;0.20809837;0.24357703;2.9742134;1.4447831;-3.4115613;-0.26308176;-3.8183255;-0.45802844;0.0021131136;1.2284821;0.028349651;1.9551172;-2.48803;0.57152957;0.15350851;-0.8361268;-5.362727;0.4980378;1.7139981;3.4985988;-0.0152509;0.49289462;-3.878815;-3.9735985;-3.647181;-0.00772169;-0.03405759;-0.029067753;0.072946645;1.834081;1.1944358;1.1432155;0.38284323;0.024566123;-2.855097;2.6453898;-0.029167552;0.03646607;-3.1904082;1.2123413;-1.1142882;-1.7640289;1.8111774;2.110264;0.013813221;-5.472654;0.4992453;-0.24223411;-0.014035838;0.21562088;0.43204698;-0.12521419;0.044181;1.9663223;0.298056;-3.1931133;0.007372989;-0.009363184;0.7538409;2.015267;0.035903823;-1.4964336;-0.092898965;-3.0938044;2.9741468;3.0884037;0.47984672;1.3218426;0.002124016;0.14526673;-0.70555985;-5.8441014;1.5369498;0.002796756;-6.48877;-0.0027902743;1.0676428;-3.154292;-0.03008617;1.6130958;-2.8558688;-0.013365462;3.7877011;-4.2310514;-2.8546643;-0.10327447;-0.5797685;2.105402;-0.039806575;-3.4560745;0.032657277;0.11725968;-1.4739454;-0.032419354;0.007420934;-4.053458;-1.784327;-0.23778366;0.042621236;-2.6871238;2.6361876;-0.0027294206;1.0010878;0.0015024449;-1.1671871;1.1780581;-1.7855777;-3.3767745;0.03476305;1.6342554;0.05088425;-2.3201718;1.2523358;0.0053358898;1.6173658;3.1857347;3.098493;1.4380856;-0.07349457;-0.55662787;-5.1212635;-0.7499522;1.7225103;-0.12291206;0.6534174;-0.03712238;-0.04452666;0.017900947;-2.4227686;-3.190504;2.66198;-0.027360324;2.3690443;0.287253;1.1124071;-1.4880239;0.023141064;-2.2234743;-0.09956338;-0.61823416;-1.8974022;0.0099962605;0.0021805798;-0.37020648;-5.098009;-0.0024216818;-0.5543174;-2.6750472;-0.034849785;-4.779371;0.009187707;2.8042588;0.03583606;-1.0473064;1.2597476;-0.027612874;2.1903136;1.9902691;1.7135643;-0.022699917;-0.90055615;0.901656;0.8075051;1.8820418;-0.05390002;1.7231251;-3.3424373;-0.18695767;1.0370991;-0.006586526;0.014232937;-0.0059704618;0.22393991;-0.13462864;1.3896037;-1.6815828;1.0359737;-2.019846;3.14855;1.0387937;1.6464413;0.010266835;0.8948535;-0.5953792;-0.007001724;0.75319135;-0.047964003;-2.3885384;2.2379258;-1.4119445;0.04781405;-0.3136775;-0.80434906;-0.69172513;-0.6925215;6.7635837;-0.0077615143;0.027371097;-0.017190445;0.019563371;0.02214268;-0.0034063898;-11.9510565;0.13481249;-0.042320043;-0.33980244;0.003031455;-0.39311463;0.061426587;0.027257523;1.8739899;0.594728;1.010807;0.47900975;-1.3469214;-1.7566742;-0.9447955;0.020279855;1.8893511;-1.3493315;-0.018221023;1.6610657;1.3645744;2.0628533;0.4663575;-0.0038156104;-0.9474521;-0.010787118;-0.512453;-0.36330923;-0.101380505;0.03090225;1.7686374;0.0018655618;-0.028977532;-0.021705993;-2.5818348;0.049631875;-5.3863955;-3.1731777;1.8742081;0.043337774;2.6169732;-0.049076453;3.0529156;2.252776;-0.11510877;-1.6220815;2.8066514;0.021616144;0.009811127;1.2053056;-2.2537427;-1.9759785;0.2996042;-2.8163137;0.99566877;-0.012396251;0.02256233;-2.195446;2.7883453;-1.2836752;-0.50757897;0.048685312;-0.011446741;2.450695;-0.024150295;-0.96372813;-2.0932307;1.0498269;0.01718679;1.1331757;-0.033422414;-1.339526;-1.228127;0.012167314;-3.6756878;3.3612974;-0.124066316;0.5655723;-0.020101024;-0.18679948;2.2869306;-0.004130687;0.029268092;0.0029168392;-1.0854905;-2.7149084;-3.38255;1.3965888;0.0110364845;0.81991965;2.2439318;-0.066684894;0.7988729;-0.28591052;-0.004474876;-0.10936576;-0.5515318;-0.0042427434;0.0023735845;-2.254503;2.093713;-0.043233696;-1.9299756;-2.5000834;-1.2884847;-3.2545073;1.7774919;-0.0766957;2.9294043;2.1421182;-0.0006533675;4.136832;0.12284792;-6.8355064;-2.3163788;0.37272933;0.52369034;-0.027081756;-4.2473116;0.03975679;-2.783115;1.2299831;-0.62107116;0.007841769;0.047742262;0.0036795717;1.7052094;-0.00999778;-1.9136568;-0.013384254;0.7578062;-5.9219704;-3.010727;1.9711516;-7.2430587;2.7951105;-2.4173691;-0.8041396;-0.09737085;-0.37959817;0.029286517;-3.7223706;-1.3555849;0.0023437468;-0.025460536;-1.7098583;0.005715937;-0.8917302;0.034952518;-0.06072256;1.5708249;-0.004290283;0.46398497;0.8250703;2.3814716;0.014360193;-0.84212285;-14.107944;-1.7404556;1.2585357;-0.057640288;0.93342966;2.6171517;-1.1676089;-0.027437441;0.5625848;-0.026017983;-0.047466762;0.3303391;-0.02756817;-1.664508;-0.022939153;-0.17191377;0.038039982;0.019635588;-1.8552462;0.04561346;1.7977654;-1.2741268;1.3081579;0.00215463;-0.055782396;-2.046087;2.889232;-1.6321367;-4.129085;0.046617564;-1.5754342;0.0036590013;-0.8012079;-4.059541;-0.2004902;0.7705898;-0.058396865;3.1431906;-3.7592516;-2.1951895;6.203066
0.9706352;2.2509258;-3.0669281;-1.0078118;-3.8840358;0.043168783;0.32679382;-0.096799664;-1.9317327;-0.019469967;-0.72115093;-0.45679256;0.052032374;-0.76765925;-2.1477861;1.2443503;-0.04053392;1.3231937;0.012144614;-1.2334431;3.8725963;1.1211255;0.601223;3.5715709;-2.957851;-3.155836;-5.1052685;-2.7777698;0.06153554;-0.037065484;-0.8426965;-0.5185988;-2.063484;2.0817319e-05;0.042266972;0.11127991;-0.21746154;-5.201366;1.4041692;-2.551357;0.65555465;-0.016629608;-1.8751773;2.320055;1.1345645;-3.2403612;0.074108556;-0.12283702;0.045070354;-1.7508391;1.551788;-0.011062463;-2.0936828;-0.91975164;0.0016403693;-0.3067271;-2.0248682;0.020887043;0.58557004;1.9825587;-0.022861207;1.1231574;-0.016875694;1.5880799;0.050987042;1.349933;-0.40205848;1.0612074;-0.021075068;1.6962684;-0.05456639;0.26400024;1.4521736;1.34944;1.9090639;-3.0837235;4.4047775;-3.4974067;-0.7711948;0.0064789252;0.015410994;0.0022213943;-1.5973758;0.055197883;0.05900875;3.4888535;0.5592601;-0.030302564;-0.0022010368;-0.45101038;-3.1592188;2.2305093;-0.11002719;-11.640029;-0.041271754;2.0076237;0.00016068105;-5.7336555;2.0469418;-0.3901444;-1.2918969;-0.0034862952;0.040943425;-0.1468041;4.336345;-0.020351995;-3.9596334;0.00792721;-0.013791438;-0.017400445;0.719974;0.14977798;1.3226782;-4.1223736;0.055781666;0.63765806;-1.5878618;-3.549308;-1.5383654;-1.1576158;3.650052;0.023779808;0.012956406;-0.32535934;-0.133734;-12.769999;2.8823447;-0.52604824;-0.106388986;0.010732838;-1.7141448;2.4094312;-0.022014756;-2.3023005;-0.040847704;-1.1780146;2.7690303;2.0087998;-0.4884176;-2.0048723;1.4201819;-0.044592913;-2.5366921;-1.1458104;2.215137;-0.0030020648;0.014180563;0.17925397;-0.014761454;0.46923813;2.738609;-0.98977846;0.69672525;0.0044534313;-1.1892744;1.6247046;-0.0468141;-1.2341695;2.50939;2.0423825;0.18283567;-1.0738933;-3.603615;-14.054087;-0.7566889;0.043739416;0.06625113;2.5876465;-1.2532481;-0.007728204;0.008300975;-1.5188158;-0.04093043;0.049398948;-0.022196878;0.47713092;0.022879733;0.92498845;2.5698895;-0.4874051;-1.8355024;-2.331782;-4.909153;-1.322397;0.0038168423;-1.5840296;0.021111831;2.6578305;-2.4825752;0.32331732;-0.9604343;1.3344709;-5.0878744;-1.1828128;-1.0417867;3.6751528;0.019023962;0.30422992;0.7267346;-1.9911728;-4.374618;0.016822396;-0.04983432;0.0033016307;-1.2782358;3.7365844;1.111569;2.1931765;1.7938242;-0.020805288;-0.8489681;-2.7378767;0.005178741;-0.011786594;-3.6457264;2.7152612;-0.6571468;-0.58777493;-1.1886128;1.286205;-2.8754258;-7.5539756;0.22374858;-4.8792033;0.014587315;-0.30773762;1.4151367;-0.09076104;-0.03304469;0.01341477;0.53566396;-2.174262;0.018038588;0.042098828;0.7312346;1.5287864;2.509472;1.8833958;-0.054733086;-0.7640846;1.6270409;0.92767215;2.8332717;1.4098401;-0.055377148;0.26006225;-0.25883678;-1.8247061;-0.9715639;-0.005639372;-3.0317328;-0.04559147;-1.3151916;-5.8999047;-0.04806118;0.7122501;-4.188558;0.038381442;2.9235039;-4.772554;-1.3671232;-0.50347584;0.74407375;3.0703993;-0.010507886;-3.4641511;0.006905285;-0.0025115255;-2.0154886;0.0018947624;-0.00071590586;-4.0909142;0.10227695;-0.98443115;-0.0003680138;-2.3638988;0.9485894;0.0024958162;-1.0917454;0.044226553;2.3199806;0.85324013;-1.0116078;-1.7833042;-0.032167852;-1.8062919;-0.0050344225;1.4135182;0.021146873;0.023331115;1.3516037;3.9304278;2.0705261;-0.21211253;-0.0080336975;0.8830134;-4.124555;-0.8057948;-2.2993095;-1.7784181;0.79319555;-0.02853431;-0.027408818;0.0027545863;-2.2642753;0.040115017;5.7575583;-0.005648063;3.3672693;3.1657546;0.2827884;-2.2799103;-0.027995694;-2.4944031;3.3746357;-2.5196877;-2.0113132;-0.03230895;0.023603614;-2.0126612;-2.526604;-0.011728208;2.4020672;-2.5397692;0.0353333;-4.0515428;-0.009716273;1.1092087;0.44047618;-2.1820712;0.5431067;0.0101078935;2.7315123;2.6259563;0.905856;0.02295561;-0.03068423;-2.3163605;0.6010104;2.1323621;-0.015288084;2.1406426;-2.6429334;-0.8462589;0.6665202;0.013998446;0.0285466;0.014300969;3.8444684;1.8306438;-1.195027;0.119597904;0.19339278;-2.352939;1.9152385;2.1748385;4.807214;0.06210661;-0.5949076;-0.89901847;-0.3469701;-0.003253098;0.020326776;-1.7254145;-0.41058296;-2.393593;-0.0030715822;-2.978059;-1.5777392;-0.59695494;-3.57018;5.2954535;-0.035788395;0.0071116043;-0.027252853;0.009420721;-0.047361527;-0.05681951;-11.999318;-0.37957337;0.037902087;1.1008044;0.008751216;-1.388233;0.030502867;0.051263537;-3.390059;3.7691176;1.5347695;5.1162114;-0.15891062;1.071259;-1.9501271;-0.045622353;2.0845287;-1.1197306;-0.019257987;4.6285553;-0.3824356;4.30884;-1.9577867;-0.007820919;2.828401;0.015410879;0.8743332;-3.6105459;1.5227625;0.44013637;0.45110676;0.021175995;-0.015182931;0.014795309;0.025330126;-0.018165441;-2.3606179;-2.52683;3.1993933;0.009228983;1.4851744;-0.0072663855;-0.04097129;-1.0799387;0.7665665;-3.3984044;2.1336963;0.016914615;-0.006969076;-0.24356398;0.005849026;-1.9869094;-0.048607573;-2.3267705;0.55996275;0.017299451;0.013831341;-1.3698347;2.4321654;-1.1599352;-0.19511758;-0.03308819;-0.02928215;-0.08352438;-0.024247702;-0.045166127;1.7944134;-3.123266;0.024776943;2.8565254;-0.026092496;-1.7913818;-0.7022694;-0.069855064;1.2017488;3.3349693;-0.016414216;-1.0473996;0.03351915;0.23244265;0.1929233;0.001693956;0.010477368;0.023877963;-3.2740486;-3.1658263;-0.6007618;1.2378489;0.017499125;1.7256018;-1.3571315;-0.29629493;2.7738225;0.8663906;-0.02404987;-3.9503684;-2.3199303;-0.030764988;0.0011603772;-1.8217096;2.0790083;-0.0027639254;-3.9438584;-5.0215826;-1.0500108;-0.5781257;1.5560321;-0.029626016;1.5471796;0.19192559;0.01904216;4.0027742;0.12421751;-4.7497725;0.0017971653;-0.89205664;-2.4702816;0.00039868455;-4.816908;-0.019976938;-1.9102207;-2.2290924;-0.63599867;0.039658956;0.026387442;-0.016499754;-0.42226714;-0.0007116445;-1.1261499;-0.017445678;-4.3668995;-0.42670327;0.026639909;-0.9274129;-6.2637887;2.4460876;-2.0910542;-0.74183965;-0.04059449;-0.41628185;-0.0441518;-0.90793395;-0.13519922;-0.015173507;0.034172982;-1.8472645;-0.038581137;-5.5423083;-0.03543254;-0.03661779;1.7204586;0.00709045;0.6946436;2.1456904;5.334844;-0.015677268;0.8034531;-14.216777;-2.380432;1.6142997;0.015690088;-1.8333027;1.44538;-1.655783;-0.0418821;0.15393649;0.01105581;0.042271193;-4.4980035;-0.02052216;-2.5536788;0.03768282;-2.5252683;-0.011040878;-0.004527359;-2.4597206;-0.033600472;0.9202273;-3.023723;1.8909708;-0.044180885;-0.06202464;-0.508387;-0.51188964;-0.00038535142;-5.153164;-0.05201477;-1.4150177;-0.03961321;1.9220575;-3.2451909;-0.46934468;2.7626922;0.02145485;-1.1029471;-5.4189954;-2.5532959;-2.8061085
2.1377225;2.886544;-4.060518;-2.1830838;-1.936398;0.06197607;1.8759521;0.07070517;-1.631568;-0.016938858;2.6569088;-1.7117432;0.07594174;-4.4938264;-0.51098657;1.3479118;-0.0049368404;-1.8711703;0.01155195;-0.65971345;1.924686;0.5039031;-0.09942854;3.0987537;-3.0851996;-4.5920243;-2.791598;-1.9411179;-0.01777327;0.01641568;-0.3863515;-3.3375213;-0.09144373;0.01994611;0.046334837;0.53989244;-1.6140972;-4.101592;2.124376;-3.4677658;-2.2979095;0.017026363;-1.7077839;1.5211746;1.350955;-2.3524315;-0.038176574;-0.9415399;-0.0038737275;0.37867898;0.08695638;0.0065127183;-1.165676;-0.4715015;0.041027132;0.016160486;-0.080333844;-0.027917206;0.47890797;4.719333;0.23478179;1.6034569;0.0075543425;1.6996155;0.85830814;1.6396925;-2.8740754;-0.07449212;0.048503403;1.3390348;-2.1012626;1.0415556;-0.529472;0.13721453;1.4882817;-2.0932457;4.055722;0.37704408;0.9235266;-0.0062499433;0.0030140032;0.026889054;-0.22837062;3.4855983;0.16118628;3.0156472;0.4053001;0.055213295;0.012879368;-0.5465959;2.1705258;2.2055166;0.067439556;-12.125921;0.040018175;0.019131105;0.0035759574;-4.1575027;-3.341463;0.12556697;0.020140022;-0.057519574;-0.027291944;-1.0792514;3.8681579;-0.0013436091;-3.5744107;-0.07529469;-0.025926208;0.028139982;-0.7946988;2.0443573;0.8303438;-3.7356818;-0.034866326;1.2709035;-1.6712321;-2.004981;2.1532433;-3.2287073;4.2500052;0.0200145;-0.79839885;-0.21127567;-0.074879676;-12.289183;1.169376;0.39504376;1.2808043;-0.014277376;-0.3667084;0.32500768;-0.047321644;-1.5365701;-0.05929005;-0.79598165;1.5159703;1.126242;-3.0081952;1.4324927;2.112829;0.024531884;-2.1893835;-1.2950041;1.7233073;-0.022952864;-0.03694856;-4.7262616;-0.014794588;2.2076294;3.024266;1.4500405;0.118217774;0.063447274;-3.0864463;1.0517617;-0.023073003;-0.39644107;2.5214288;0.033770315;0.49308908;-0.5787886;0.7020329;-14.8431835;-3.7767684;-0.037342664;0.22541636;0.8014101;2.3149085;0.04141999;0.015437243;-1.0234848;-0.021836039;0.18525793;0.081284314;-3.3376532;1.8191456;1.0824822;-0.84853107;4.144951;-1.5559777;0.79941493;-0.96962464;0.5509111;0.0064026383;0.36190626;-0.02539733;1.9148153;-2.3955295;-0.5954428;-1.9191023;-5.0437684;-1.7430243;-0.98312455;2.2296717;-2.1295578;-0.008394956;-4.1994643;1.7975895;-2.139992;-0.7448348;0.010790587;0.062194232;-0.11113298;0.61946315;2.740419;1.8789692;0.8535909;1.0534154;0.04818834;-2.270457;-0.8591155;0.043936808;0.026025325;-1.7914817;3.2258313;0.47223294;-1.3918256;-2.7379758;5.0459595;-1.0961004;-5.1981997;-0.0667401;-1.0206118;0.009994402;-3.894297;-1.2866933;-0.022604382;0.029864015;-0.85572237;0.6012693;-1.0151154;-0.041395035;0.00030387565;1.204842;0.9867411;1.8958685;-1.6869192;0.0604717;-0.4178702;2.8844686;1.6346891;0.62244356;0.12953667;-0.017409705;0.36413574;1.7394692;-3.0180566;0.3084019;0.00979243;-0.73022854;0.003384318;-0.4277009;0.4785825;0.08615542;-0.86520797;-4.206429;-0.040481124;0.68688333;-2.004882;1.1408455;0.49277475;0.8432505;1.5980195;0.023928257;-1.935659;-0.0034131345;0.15741175;0.040444568;-0.007788096;0.020953136;1.3318601;-2.0568075;-2.017522;-0.024842478;-0.9229694;2.082701;0.07661705;-0.94757026;-0.019815665;2.7827015;2.9917006;-1.6531501;-2.5848217;0.027460443;-0.10600493;0.0062880423;-1.4215158;1.170138;0.023834394;-0.23146385;2.2837734;1.0350349;0.15444729;0.0048487065;1.1367244;-5.3484573;-1.1771127;-4.249784;-3.6596453;1.7746664;-0.0028290136;-0.006386255;0.020472063;1.4959016;2.1313777;4.812201;-0.011740403;0.8870352;0.25241703;2.7334733;-1.4025089;0.012379171;-1.9421496;-2.6216583;-1.8358221;-1.2227594;-0.010183739;-0.0017135356;-4.6809406;0.7720699;-0.011693769;-1.2494366;1.7527912;-0.034725696;-3.9854167;0.022726994;1.1867237;3.829248;-2.069685;-1.602856;0.041895457;2.7052164;0.28937373;-0.620289;0.0419827;2.5547338;0.013616487;-1.2529535;2.0331821;0.074248254;0.51309144;-2.6714983;0.060612474;1.3845809;-0.035677742;-0.015691508;-0.030995082;2.4969027;1.4225404;-0.5983775;0.26950392;1.6673355;-2.8609025;1.1491466;1.5003504;4.5482984;-0.02033132;0.4029736;-2.6638772;0.7145012;1.701393;0.027347824;-0.7303436;2.3375897;-1.2782758;-0.025763322;-4.378566;-0.14131793;-0.87300503;-2.7058399;4.1714478;-0.011363964;-0.0024184238;-0.0141328955;0.00040815526;0.04510624;0.041350298;-11.502149;0.17671154;0.0259009;0.7428794;0.0018947885;0.45423222;0.058539428;-0.04120807;-0.7089293;-0.8079842;0.41618893;3.2046537;-1.4532495;-1.372043;-2.118412;0.005772176;-0.65628654;0.46286032;-0.007886696;2.7580628;3.3978827;2.6768837;-0.27503493;-0.010528932;0.44685552;0.005648087;0.52270895;-4.8622284;1.4250227;0.5618175;-0.0035644472;0.007176681;0.016791955;-0.02119382;0.30810487;0.026363721;-0.03563123;-1.585628;1.8267789;-0.03819191;-1.6093848;-0.039307337;-0.9691705;0.050779212;2.0939717;-1.5048826;-0.08048412;0.029167116;0.052531768;-1.4353021;1.818115;-3.3737123;3.0693488;-2.628095;2.8966463;0.0036720636;0.02907259;1.2063575;1.3006736;-1.9548562;-2.051481;0.04539844;-0.03994089;1.1850091;0.026202045;1.228152;0.0003919103;-3.6178315;-0.013582851;-2.063606;0.04015431;0.8569283;0.7584118;-0.03806247;-3.5833511;-1.9202126;0.029923074;-0.3083097;-0.0008068397;0.18181568;0.40728876;-0.023701819;-0.02776687;0.07358258;-7.96555;-6.087694;-1.0778494;0.35649198;0.0046155634;0.027294716;-0.5211793;-0.43101203;2.1979997;-0.3218446;0.06876612;-3.3733609;-0.6483166;0.034032922;-0.03362921;4.371799;4.353495;0.014872365;-3.4415746;-3.9155607;-1.2824987;-0.43183967;0.9780654;-0.004544027;0.58183175;1.3564136;-0.026374858;3.5015726;0.13130496;-0.82778573;0.62637925;0.58150965;-5.615929;0.05275138;-1.403766;0.03416048;2.1160142;-1.3676354;2.3820193;-0.030165156;0.06461554;0.03224801;2.4397976;0.0057150684;-2.4653947;-0.048043407;-1.8937888;2.835694;1.4437559;-3.403017;-3.9209137;2.2639751;-0.7303772;-0.4138062;0.012522839;1.1057631;-0.020755885;-0.6704643;0.04466976;-0.045505866;-0.0030779568;-1.556837;0.061764866;-2.0370114;-0.008104258;-0.011806636;-0.5207032;-0.0056759054;0.100984104;-0.63822424;-0.26463926;-0.034095872;0.1871787;-13.032723;-1.8056349;1.7415748;-0.011492141;-3.4483993;0.6904457;-0.062303327;0.04649834;0.7839361;-0.034298703;-0.037043616;2.661186;0.051754028;-1.8507829;-0.027209146;0.14518878;0.0068978663;0.027953343;-3.0268686;-0.0044135796;-1.0600876;-3.3255908;1.8296226;0.000490973;0.0100859525;-2.9127185;2.5170517;-2.2942457;-3.9905894;0.1216905;0.1441933;0.018519478;-0.6718446;-3.2508397;0.21701787;1.671759;0.006310672;0.9687533;0.927952;1.1376072;2.4671805
-2.030803;1.7530836;-4.0622835;0.40967324;-3.6831307;-0.026564352;0.981375;0.012034122;4.118305;0.009268028;0.4989701;-1.3687465;-0.053027436;-3.2632675;-0.19006938;1.8743577;0.028494673;3.155935;0.042859767;1.1626768;-1.3611972;1.5005244;0.6348515;2.9652278;-7.7195773;-2.5619926;-1.3203288;0.78657365;0.019559355;-0.010144429;1.1892053;-1.719404;-0.1675099;0.029951492;0.031958546;-4.6033754;0.11696531;-3.1405315;1.5242606;2.6570485;-4.496113;0.07089355;-1.8140943;1.899595;-0.24533151;0.6235116;0.02224231;-0.43356514;0.0010172117;-0.8087188;1.5420804;0.017865522;1.7711545;-1.3851883;-0.010922343;-0.08229835;-0.14479318;0.0029637252;1.864013;3.5558412;0.13390134;0.99745953;0.00991484;0.7654266;-4.1835513;1.0850407;-0.9209966;3.492875;-0.0068613747;1.3221952;-2.714774;0.76550037;-2.593411;1.7266338;-2.730002;-1.9259758;3.9545193;0.12524416;-2.0970216;0.022069393;-0.008405026;0.021497946;1.3783994;-3.0575836;-0.01476577;4.6144214;1.0972337;0.007423635;-0.027088678;-0.11729089;-1.6131482;-3.0183675;-0.027328964;-10.313098;-0.006744641;-2.192142;0.016947437;-1.1687948;0.30088127;0.8557592;0.29870832;0.022415256;-0.029700821;-1.5946538;2.701968;-0.042743206;-4.354116;0.021555958;-0.04621157;-0.009311461;1.8463347;-0.113906264;2.8213913;4.0208573;0.0304592;0.92305136;0.63445246;-2.3732312;1.7318878;-1.6029563;0.46290067;0.010926844;-1.3088576;-0.28654203;-0.06932172;-12.615831;1.3512534;2.0853236;-1.4149269;-0.010602509;-0.07419441;-0.382732;0.052573767;-1.8152803;0.044867996;-0.36963454;0.66138464;-2.8449478;-2.526278;2.90541;1.2995683;-0.0055924687;-1.3756783;-0.7885526;2.753266;0.00819461;0.0028835468;0.9922043;-0.02494112;1.5004487;2.5540512;1.4198902;-0.28133065;-0.07584488;-5.2063365;1.8381758;-0.006427667;-0.42227942;1.1121236;0.76129925;1.4105477;-0.8491971;-4.049035;-15.314127;1.2636521;0.008547679;0.4921087;-2.0328934;0.56642234;-0.019582491;0.0048395363;-0.68747824;-0.004244395;-0.06302413;0.030162422;-0.32292017;0.36863038;1.2130784;0.39460137;-1.0629542;0.45824847;-1.0039186;-2.327743;-1.0675428;-0.0058818157;0.6499127;-0.017242204;-1.3848858;-2.3408744;-3.172652;-6.156229;0.013254796;1.5929489;-0.01155228;1.9918998;-1.6408265;-0.018059473;-0.25566626;0.5182358;-1.2557193;-0.5125178;0.025198655;0.06979852;0.6865506;-0.83298;1.4191626;4.245918;1.9211533;0.93548536;0.03169803;-0.0039322665;-1.9234263;0.021314513;-0.044227045;-3.7324295;2.1891413;1.6224743;0.5370959;-1.642201;4.285248;-0.07461647;-3.5552077;-1.3264;-0.060309123;-0.03382695;-2.7810118;1.0077279;-0.050410178;-0.005648237;0.72602963;0.9744083;-2.5919607;0.029015766;-0.022621544;2.0353673;0.7956823;0.4156392;1.5297312;-0.041773293;-2.8226337;1.8916235;0.55777425;-1.2122571;0.47956702;0.07828227;-2.9121988;1.6110685;-5.511765;1.6995441;0.014631446;2.825313;-0.027582394;-0.22737756;0.41986454;-0.062042657;-0.25701243;-2.6293693;-0.0012805419;1.3201019;0.551168;-2.0959892;-2.8333144;0.40599304;-1.4383098;0.02653632;-0.00860156;-0.0008667029;-6.9421563;-0.6984819;-0.01204182;-0.01163505;4.030894;-3.27145;-2.984958;0.0075068185;-1.833544;1.7388422;0.011238108;-0.36321318;0.024688661;1.2578794;1.2761886;-4.3024;-0.016585074;-0.0269172;0.16864051;0.013494653;0.43985704;1.5491946;0.03168397;-1.4745927;1.4504018;0.8046908;1.8006494;-0.007316966;1.3319198;-6.5284038;-0.6445311;-1.2001588;-3.0869477;0.91268396;0.015447214;-0.006022816;-0.015135295;0.35859734;-0.6339875;2.6900084;0.03751154;-3.7393944;0.74616325;0.094529405;-0.753999;-0.020495838;-3.0371997;0.052973293;-0.5805113;-1.5710818;-0.017740985;-0.026646173;-4.1792946;0.77394885;0.014337412;-4.388066;0.7628156;0.015143762;-1.462944;-0.0043883477;2.0001676;1.675784;-4.821902;0.64210635;0.0039818236;2.0836747;-0.31326658;1.027407;-0.0033681476;0.33325404;0.93953615;-0.76907384;2.2684834;-0.027208898;1.8207458;-2.4275966;1.7665329;0.88312835;0.010021146;-0.009718447;-0.018662604;2.72478;0.2143293;-0.08967057;-0.46724218;2.3079708;-1.5458105;2.142218;2.2705195;4.4511266;0.011818914;3.3723466;1.4717218;-0.63829833;1.4782907;0.034611907;-2.3180778;2.9554791;-3.4545712;-0.004806268;-0.22646745;-0.7347874;-0.8898101;-1.4402344;3.970511;-0.02265618;0.02880914;0.007659307;-0.015990552;-0.004996848;0.03268119;-11.518693;-0.19216509;0.029297847;3.6517446;-0.02997062;-4.451162;0.04028999;-0.059862696;-0.035670105;0.3797863;-3.29389;2.850923;-1.1631231;-0.26448873;1.6641492;0.009579105;-0.74656385;-0.5429913;0.008678529;2.3474185;0.003868125;3.8820617;-1.5535635;-0.0068275533;1.6138844;-0.01628443;1.6288661;-6.7209573;1.5277127;-0.09664232;-1.4178591;-0.030346917;-0.02913057;0.0029494904;-0.41272527;0.02150836;-0.7491552;-1.0872507;1.27205;-0.012845911;2.8936892;-0.026453009;-2.8096747;-2.0675292;-1.6185833;-0.8928675;-0.8235165;0.022323003;-0.041597255;-4.6461587;1.0259167;-3.2453723;2.2792904;-1.1939131;-1.1963768;0.044906296;0.033358224;1.211381;-1.945897;-2.676898;-2.9027417;-0.013836512;0.001578376;0.4816169;-0.005100259;1.5499916;1.9381168;1.0424557;0.04205837;-1.7984494;-0.06640721;-3.1794887;1.4448688;0.023870457;0.6063493;0.12982412;0.07875937;-1.5621399;0.016930731;1.0363472;2.8584712;0.025354493;0.0029667318;-0.004575665;-8.208542;-6.2288156;1.6208289;0.20474991;-0.028627653;1.4892454;-3.698115;2.6154869;-0.23365802;0.32129568;0.0066815405;0.37084818;3.1829216;0.03237481;-0.06697637;2.538582;1.489045;0.009165724;-2.9409766;1.5915681;-1.4023486;-0.32499316;-0.74550354;0.023407606;2.456386;4.619157;0.007490059;2.525338;0.0072795306;2.3405511;1.1824186;0.27720475;-6.8411818;-0.024113296;2.490657;-0.0012895495;0.8863075;0.49373797;1.9300265;0.027175587;0.0043173907;-0.025852898;3.1911187;-0.04960726;-3.6800535;0.038113624;-3.7500594;0.4640673;-0.53712004;-4.1300983;-3.853499;2.3661218;-1.3013741;-2.7588696;0.022953147;0.40363118;0.028847832;-1.0858694;-1.1972647;-0.047909215;0.041170243;-1.8053604;0.01787708;-5.569233;0.046463925;-0.012058028;1.020893;-0.06788402;1.9521369;0.86599547;2.617381;0.019554492;0.10149177;-12.840148;-2.2307017;1.4924653;-0.057839595;-8.193394;-0.00050241366;-3.0459425;-0.045796685;0.4248974;-0.026255747;0.010569086;3.7412953;0.008441382;0.10650441;-0.013148045;2.9546986;9.306999e-05;0.0047682626;-1.1563962;0.025454938;0.54524004;-1.2122722;3.6270177;-0.0018253418;0.016161043;2.501583;2.3562298;-3.865575;-3.19478;0.046096068;-1.353642;-0.014280495;-0.42251158;-2.7303867;0.8638916;1.5478504;0.026177527;-3.1821299;-2.8027577;1.4049878;-0.028603975
-2.7251933;1.2836936;-2.0539057;0.85030025;-4.8332253;0.10023304;-0.34048355;0.018818451;1.3586817;0.02143801;0.8522245;-0.7232267;0.01296648;-0.024368154;-2.0780535;2.8524575;-0.0037803883;3.0653863;-0.024693653;1.9128433;0.86433095;-2.0574963;0.32205456;2.7352374;-10.898998;-0.84201646;0.5699315;-1.3052298;-0.016942391;0.022915417;0.10617564;-5.5438886;-0.8020162;0.016272027;0.04698773;0.08447031;-1.0098262;-4.71527;6.5997896;2.1944354;-0.1258435;0.005112626;-2.656975;0.5711243;0.73942524;0.6537133;0.0071379393;0.3515826;-0.04110504;0.6208121;0.6919669;-0.015545433;0.5328138;-2.816357;0.0007961718;-0.015918247;-0.7275773;-0.049612828;1.5065266;0.4043035;0.14341848;2.4718072;0.04925924;1.6086831;1.9605896;1.7689528;0.8462167;-1.2710863;-0.0075919596;1.3996601;-2.0506756;0.2756074;-0.38516322;2.0360968;0.679228;-2.3271172;1.9236257;-0.46409553;1.846432;0.0681546;-0.118108794;0.04350474;1.0071847;-2.0266087;0.20150709;1.8772016;1.9297364;0.018132174;0.003266991;0.564474;1.9711398;-2.346392;-0.009126683;-4.6216025;0.0043368456;1.2292303;-0.008516097;1.4902477;1.6843983;1.38931;-0.40987995;0.10220673;0.006302195;1.610598;1.7505512;-0.0507046;-5.4482265;0.022863677;-0.040215228;0.0148473205;3.2102675;-0.5694263;0.6505089;-3.1651945;0.011401579;-0.3760782;1.3215718;-1.2756093;-0.8899036;-0.67872685;3.9218688;-0.01601639;-0.8279332;-0.7585789;-0.32137838;-11.718321;0.72311425;0.7244019;0.94359106;-0.064585395;-1.0695798;0.33810392;-0.0048698722;-4.2024837;-0.039586067;-2.1239994;0.51396865;-1.6500876;-2.6002913;-0.17852913;0.89683586;0.03105558;-4.226256;0.047026116;-0.78400517;-0.028323432;0.0016045144;1.0812647;-0.015081403;-1.2351698;1.9049482;0.4086676;0.29533935;0.02126424;-2.0942128;2.776326;-0.010811407;-2.8010693;0.72950816;0.59037685;-1.0762982;0.046248887;1.8922564;-14.255943;4.3294177;-0.01134557;-0.029848555;-3.4616458;1.5382754;0.02848446;-0.0030947668;0.3455742;0.016252844;0.17172517;0.015095765;-4.1079574;-0.531644;2.2650123;0.32686058;2.9684834;-1.8145429;-0.21102469;-1.2553527;1.129726;-0.077224605;0.73487836;0.015725454;2.3987463;-2.5303748;-2.2453086;-7.416124;0.6328802;1.4087044;-0.4629744;2.3317037;-2.682095;0.027663836;1.08963;-1.3904854;-3.4850752;1.1903485;0.033458736;-0.019157832;-0.17218858;0.6005369;1.2043945;-0.7185171;-0.006105637;0.73748326;-0.008531903;1.8239458;-0.46297655;0.021007577;-0.021676226;0.59242886;2.2697253;-0.302296;0.9425405;-3.4475942;5.4502873;-1.1313484;-1.1801772;-1.9155803;0.77417666;0.044105154;-2.1030138;-1.4701422;-0.020422284;-0.005593729;-0.44054478;0.8992533;-3.0351334;-0.0035723138;-0.0068130926;2.2170413;2.6619585;1.5573449;0.2786419;-0.04455667;-0.7447884;0.1504021;1.4201027;1.6026652;1.348753;-0.031584688;-0.39792427;-3.065386;-5.790278;0.049789287;0.029321473;-0.30478776;0.0021691453;3.3242188;0.65578896;0.019721583;0.9313779;-3.5997238;0.0014773305;0.89374655;-3.2850573;-3.1235187;-0.809864;-0.6712339;-0.6477461;-0.042937927;-1.3297166;0.012770313;-10.141299;-0.74252814;-0.008627449;0.034286518;3.152495;0.4295733;-1.0996809;-0.04313445;-2.1142876;0.86926305;-0.014221761;-3.4002972;0.004641214;0.8807791;0.85881567;-3.729128;-3.2387958;0.041093048;-0.5868494;-0.014012164;-1.5602812;0.96984005;0.04713387;-2.2495663;1.0218436;-0.4591169;-0.31561348;-0.026113585;-1.2313874;-6.7057014;-1.039142;3.036574;-3.1335022;3.8331366;-0.004361;0.063486435;-0.011800243;-0.81791836;-0.2484955;1.2366419;0.0031589104;-0.8743955;-1.6867654;-0.83124506;0.4502863;-0.007678185;-3.6401389;-0.8042914;0.26666972;0.0070467815;0.042467486;0.010636029;-0.97380555;-1.0027719;0.114085354;-1.3789209;2.434093;0.0043060994;-2.885595;0.039315347;1.5223593;-0.12310157;-3.1977818;0.2855859;0.022374991;-0.2979908;-0.109767295;0.74793214;0.035529967;1.7734864;-0.67026585;3.5977445;-0.46341375;0.025164802;1.0281551;-5.5668607;0.8469778;0.031761922;-0.0014141101;0.012648015;-0.0018368704;2.0945408;2.0664802;0.5980746;0.9178359;2.6512012;-1.5323659;-0.07293335;0.8534729;3.468462;-0.0015066162;1.824906;1.9640173;-1.0012705;1.378139;0.038641617;-2.871262;3.5996215;-3.5412679;0.008546121;-1.8779811;-0.9999373;-1.0466362;-2.20141;2.2744298;-0.014584764;-0.0049562533;-0.07743965;0.04445895;-0.01243133;-0.010855922;-11.352657;0.053641982;0.012958782;-0.025397535;0.0067887995;-5.249916;-0.009898153;0.0031402817;-2.2957635;0.64372796;-1.0624403;0.6427851;1.3047248;-1.402973;2.3095336;-0.029585212;4.7246623;-1.1095754;0.0059370613;3.0807219;-1.0899019;2.4340692;-2.435434;0.03428393;1.7201164;0.0066143293;0.6842193;-6.9486246;0.5018496;0.037596263;-1.1537893;0.006477679;0.060592845;0.029828783;2.8530796;0.021874558;-2.8247306;1.253412;1.9011016;0.041699875;2.1602013;-0.04381615;-4.302497;-2.5497952;-1.6286478;1.1866814;-0.26924023;0.025843048;0.044461492;-4.8338037;-0.91495097;-4.178762;0.465726;-1.081581;0.3418032;-0.024005463;0.000978563;0.17828913;-2.7747571;-3.8643553;-3.0647256;0.05833039;0.030362198;-0.9175446;0.033276446;3.1923876;-0.5576186;0.5201184;0.009337756;-4.343134;0.09153045;-1.7340403;0.53964305;0.03732356;-3.967609;0.012338378;-0.030168518;-2.8662624;0.03131566;1.3105621;1.2793255;-0.010194795;0.007636549;0.10641261;-6.2534914;-4.9764857;1.812257;0.3142059;0.04088672;-1.0136988;-1.9858598;2.000879;-0.6306107;1.6879634;-0.003292125;2.3545423;1.7947322;-0.025021754;-0.020689776;-1.0216182;1.3896464;0.006074998;0.58452445;3.7079918;-1.2539021;0.19096632;-1.3251657;0.014408885;0.07053037;0.40562436;0.03913402;1.4327176;0.20651299;-3.6661382;1.0876255;0.7510861;-2.4127598;0.032666415;2.0673573;0.047770713;-0.37488902;1.3324131;-3.3122694;-0.022725893;0.015276585;0.03783002;2.9270318;0.019769179;-0.40289283;-0.0019427527;-3.271806;-0.2611189;2.5609393;-4.830813;-5.4445195;2.158429;-1.2576574;-1.781124;-0.06145412;2.0680506;-0.041584328;-1.0674427;-1.6817642;0.072909094;-0.007910639;0.9720446;-0.0004992292;-3.9744105;-0.030326404;0.036451478;1.294207;-0.013376228;1.69463;-0.38469645;0.5715641;0.024265992;-3.2267764;-12.698163;-4.585129;1.7800531;-0.0038284336;-8.35834;0.9169804;0.49888277;-0.06774072;0.82094604;0.0080439765;-0.013754489;1.6077826;-0.02767749;1.4428636;-0.015135689;-0.023126813;0.01171288;-0.018250838;-2.0725107;-0.025527626;-1.0675874;0.28462255;2.0771728;-0.14224462;-0.03679632;1.02128;0.62898314;-3.570145;-3.2826416;0.009195624;-1.2243776;0.014731218;0.26579985;-1.7567027;0.71501917;3.2378128;0.012492073;-5.3523192;-3.5497112;-1.0796732;1.2664748
-3.2597055;0.789456;-4.4894156;-2.2557018;-0.0068777497;-0.102345236;0.19065365;-0.06806528;-3.0169988;-0.0030297479;0.24918225;-2.9115372;0.00638685;1.0188174;-2.5668292;3.1151297;-0.09720774;1.9639996;-0.011404847;0.9853546;1.557074;0.28072944;-0.6668615;2.510385;-8.454303;-2.1662152;-2.9574466;-2.187049;-0.009792904;0.058492884;-0.4139312;-1.7800056;-0.8993127;-0.033973567;-0.021470876;2.6021943;1.3370999;-2.6072273;-0.25959867;-4.7422824;0.76559013;-0.02238214;-2.641597;0.38719693;0.78962314;0.50919145;-0.010364418;-0.22942641;-0.03724993;0.27121451;1.1019236;0.012184105;-1.044768;-3.3146143;-0.07207833;0.0073405583;-1.672669;0.03435603;1.5807885;-1.848882;0.2636809;6.6962733;-0.009611607;1.4409977;0.4571509;2.002784;2.0280478;0.96687776;0.021803625;2.5457253;1.1539162;0.106680945;1.5010687;2.1910112;1.0367962;-2.4534433;-0.017150622;0.06535033;2.1066957;-0.02662922;0.58371323;0.0020150414;1.6783376;-3.0471141;0.5224336;1.1202339;1.7936349;-0.031287365;0.00053934706;0.17881432;2.5667882;-2.0216372;0.74636185;0.691498;-0.15731695;-1.4733397;-0.029654277;0.56433284;1.107972;2.3813362;-0.8956652;-0.007104709;-0.020255681;-0.67499375;1.0698278;-0.10156425;-3.5526135;-0.06754346;-0.11102968;-0.032823246;3.3216033;-1.5976508;-3.2587535;-2.3251717;-0.002437097;2.6790638;0.17468189;-2.8121743;-0.40932125;-1.2076794;1.70404;-0.056818206;-1.9854189;0.6019676;-0.277217;-10.891341;-0.89347506;1.6329367;0.14995533;-0.21313927;-4.0396023;-0.51864237;0.003648644;-5.4860973;0.055551488;0.86533916;-0.02196989;1.5384505;-1.4714326;-1.6231551;0.19355091;-0.026339812;-3.1021895;-0.65441;3.285225;-0.2095708;0.13261865;0.5153204;0.06633004;0.2967261;2.2083836;-0.22659843;-0.07693409;0.0025648652;-0.66784257;1.5234373;0.018799705;4.9728694;2.216543;-0.62654835;1.3652796;-4.133238;-0.09162181;-13.233218;2.537461;-0.0072082975;-0.1944434;-1.516026;-0.70318556;0.012289891;0.023189412;1.4653584;-0.003894868;0.2359696;0.026371293;0.55026376;1.1848862;4.031875;1.3453107;3.2313058;0.27097884;2.2556176;1.4963493;1.2234138;0.59340525;-0.4532558;0.06215715;-0.88289267;-2.7641578;-1.7094454;-1.2434076;-1.2357914;2.351659;-0.062412195;3.698206;-1.5343779;0.03292145;1.0276723;2.83262;-3.852342;1.2688804;-0.010213025;-0.03054045;-0.020520162;1.1409941;2.7825887;0.7852703;-0.47771043;1.0020447;-0.013847492;0.52000356;1.7965406;-0.009650816;-0.013593924;1.5503002;1.0712801;-0.3620226;-0.79366684;-6.2118635;4.3697157;-2.338801;-3.9443324;0.27936605;-1.4793705;0.064371884;-1.306218;-4.0999393;-0.041500542;0.028857611;0.29758617;0.1504716;-2.7004297;-0.026571754;-0.039716303;1.3311119;2.0933695;-5.357292;1.8315443;0.020355707;-1.9199451;2.3424957;0.7365985;4.6325994;0.6841161;-0.053777598;1.1989923;-0.8489504;-6.61845;0.08614229;-0.0062773875;-1.3936399;0.068110086;-0.1729119;0.16561675;0.14365038;0.06968423;-1.1122061;-0.036802806;0.44101116;-0.67296237;-1.8404288;-0.69223005;3.2253828;1.1144596;0.022571266;-0.031414855;-0.030757258;-14.539238;-4.1016026;0.009056794;0.0010042061;-0.71871185;0.38114077;-0.14799851;-0.1998193;-0.54344004;1.0963694;-0.017374257;-0.4358365;-0.04148597;-0.4307929;1.1626369;0.124775656;5.0509305;-0.00930132;1.5941986;0.048808903;-0.28289944;1.1857218;-0.028252378;-3.6545572;2.122817;3.2984684;-3.253961;0.019016545;1.0163676;-5.3934784;0.6172484;0.8356947;-2.6010907;2.6107943;0.030925456;-0.0048400573;-0.008181932;-0.14492276;-0.8841806;3.1812725;0.005650342;1.659023;-1.7625412;-0.04718913;-0.9184017;0.008856562;-3.7076442;0.33628988;-0.3752931;-1.1998023;-0.055972796;0.00097324775;-2.705323;-1.4101521;-0.03582955;-1.7303853;0.94659954;-0.083937064;-1.1804891;0.03445141;2.9162538;-2.1944048;-1.4603776;0.6721517;0.008655265;0.5434605;1.5976195;2.0532794;0.02061586;0.03920686;-0.9262024;2.8296864;-1.6352614;-0.024915723;-1.6611558;-3.9026809;-5.1637278;-0.16351269;0.051630273;-0.034370925;0.037861604;2.3508325;1.3369833;-0.5811017;1.1059424;3.8725486;0.3548576;-0.4360645;0.68010956;-0.38059843;-0.0042508915;1.5567449;-0.48282337;-0.72589785;1.9568586;0.009525193;0.6896648;2.4583998;0.18602686;-0.019995911;-3.5014138;-4.752991;-1.2857602;-0.2962123;5.6125293;0.032883536;0.0076734126;0.046234842;0.007367354;0.036195908;-0.0025018568;-9.994992;-0.127937;-0.0053348383;2.1027553;0.037561927;-4.508075;-0.0075689466;-0.19760595;1.3691694;0.15143442;-0.6963642;1.6765512;2.6174486;0.36047477;2.16376;-0.11803264;3.492232;0.09842662;0.0015343926;-0.17754793;-5.7136273;3.2766368;1.1331046;0.02106323;0.38343954;-0.020503277;1.986007;-5.196727;0.04766549;0.42684433;-2.8115423;-0.07881184;0.015759392;-0.008508673;0.9450882;0.05643884;-1.4812604;2.5057006;-0.71152365;-0.012985173;1.8123987;0.07919856;-2.3682902;0.12556294;1.714462;0.79745746;-4.3323545;0.04908484;-0.09725194;1.0915332;-0.6325332;-2.1616542;-0.06913676;0.998335;2.432493;0.0069015045;-0.005500707;3.6451743;-3.9161522;-3.4584885;0.15209404;0.0043250993;0.02341323;-1.7901244;-0.023543645;1.7723075;1.5611025;0.76313955;0.03209984;-3.7082157;-0.011606562;-2.3015616;-0.62909067;-0.011627993;-0.29176933;1.7184696;-0.05168517;1.6926475;-0.039768875;1.1540295;2.8955772;0.00036491008;-0.017122997;-0.0018446685;-7.3664765;-6.511441;-2.4424944;0.64595574;0.01819682;-1.1369755;-2.969083;-2.4906433;-0.84251904;1.0143591;-0.030801205;0.45336476;2.436272;0.01381823;0.017402;-1.4260237;2.219545;0.0075006722;-1.548354;3.358941;-1.5575656;-2.1037858;-0.51216215;-0.046230953;0.99974525;-0.9904955;-0.053228695;0.1294725;0.30178484;-2.9630032;-0.43823886;0.9389059;-1.6608716;0.64664704;0.23793468;0.008785589;0.17179641;-0.8978448;-1.8358977;0.032531045;0.030912574;0.0016757536;2.310475;-0.09044788;1.217842;0.08131842;-0.5531092;0.3097735;-5.5619326;-1.4196091;-4.555096;1.7105596;-1.876428;-5.8855443;0.00845686;-0.9000774;-0.05449023;0.53128225;0.13765503;-0.002702709;0.04273614;-3.1143312;-0.026077067;1.071463;-0.055442926;-0.010903288;1.5852875;-0.032265905;2.953606;0.22957799;-0.3661026;0.06468232;-1.7321792;-11.694469;-1.0446131;0.15362962;0.058018766;-7.238468;0.16143708;0.6261049;0.016599359;0.9315727;-0.06758775;-0.19303928;-0.45956373;0.08506221;-0.63697934;0.025474377;2.2247324;0.01760353;0.02920214;-1.8495077;-0.016336009;0.24113245;-0.76279116;2.8245823;0.91995895;0.019169612;1.9703678;-1.4508096;-2.8842857;-3.3341737;-0.020167787;-0.9576033;0.023625055;-0.4472639;-2.9803746;-1.1594033;1.5527583;-0.048432823;-0.6900526;-1.5033162;0.5918592;-0.29939586
-1.9913791;0.58083624;-0.6783055;-1.9725759;0.45717508;0.045015853;2.0282683;0.010763004;1.4968554;-0.034129683;-2.6623724;-1.9134973;0.053013075;2.2365024;-0.44774297;2.3367267;0.090137616;2.7272382;0.02090196;1.5401894;0.35136923;0.42983314;0.30161622;2.4418943;-7.1119294;-0.18964319;-0.6335145;-0.3283987;-0.019786097;-0.021829348;-0.23916624;-3.4187868;-1.7009928;-0.0049635572;0.059164397;1.2498068;-1.5576936;-3.1333556;-0.53121567;3.5574133;0.3018309;0.06775104;-2.689725;2.925323;1.087124;0.57772034;0.04863734;0.2795068;0.40032142;0.9258163;1.2807602;-0.044510413;-6.844947;-2.8731146;0.031120954;-0.024566028;-0.8279472;-0.022783155;0.6493765;-4.964903;-0.16330913;4.1904383;-0.030456873;0.15682122;0.62308186;2.0476282;1.8110473;0.095822886;-0.02342479;2.923951;1.2701244;-0.2767811;0.7477635;2.6158485;-2.1334972;-2.2374609;0.29262513;-2.7449534;-0.2119247;-0.035363097;-0.1396303;-0.0067848642;0.6075167;-3.7908812;-0.11624832;-1.5981877;0.29760143;-0.014206992;0.017396946;-0.101321116;2.8348231;-4.2425227;-0.027270926;0.334332;0.94688106;-2.2643886;-0.028243214;-0.27239576;2.1635137;0.14754994;3.9916563;0.02907156;-0.014223485;1.123123;1.8287449;0.9163205;-2.8329282;0.08158374;0.39839774;-0.021075059;2.8825614;2.9232934;-1.6452868;-1.1203525;0.08659883;0.10704005;1.1635772;-1.1361135;1.6035058;-1.9238051;1.5750633;0.024093485;-1.8509891;1.5451525;0.063477635;-8.230703;-1.1268055;0.603247;0.7920944;1.1040362;-2.085101;-3.3514886;-0.01238908;-5.6699862;0.008682903;-2.6557074;-1.4596448;0.73768824;-2.8347044;-2.087711;0.49193087;-0.032739718;-6.014645;2.2109337;3.516843;0.9796345;-0.0069777477;0.6242935;0.0076287575;0.9708416;2.8086867;-0.20504266;-0.08953435;-0.012722052;-1.3053836;1.3750035;-0.017942358;1.4226292;1.7853659;-0.40133226;-0.23203744;-0.75052917;-0.033907227;-12.234847;2.7600763;0.0064919214;0.054441642;0.52467746;-3.0286622;-0.0018557011;0.015561542;0.13758788;0.03878535;-0.049379848;0.033659786;-1.2737341;0.5068533;3.1002955;1.4826038;2.385687;-1.0642328;0.56809425;1.8419949;0.6623872;-0.07886666;-0.20389707;-0.051235184;-0.47431198;-2.3799117;-1.1705076;0.14665216;-1.9703937;1.3329648;0.8523727;2.3799598;-0.7147881;0.0026965812;-1.0172727;1.2229049;-6.437811;1.3244467;0.017055418;0.019446569;0.01703795;-0.73615694;1.6334288;0.78132933;-2.36775;1.0479591;0.00587525;-0.17620821;-0.08032604;0.0027892813;0.018498195;3.874473;-2.7026522;-1.3455281;-1.3082496;-1.709428;2.9459417;-0.3715271;0.10975472;-1.6200327;-0.23043282;-0.025902063;-3.2454076;-1.5929371;0.004005304;-0.046639405;1.0338206;0.6901444;-1.2769172;0.036549073;-0.0110878255;0.16689782;3.468476;-2.5005198;0.06757212;0.06355059;-0.8356437;0.69696075;0.949912;5.2746572;1.1550063;-0.085228644;-1.3468179;-1.3208327;-3.1157262;0.26527074;0.09212694;-3.3161807;-0.015052294;-1.1121486;0.91034275;-0.024762591;-4.4049625;-0.7338652;0.04100741;1.1984763;-1.8864578;-0.23856747;1.0219656;-1.5253669;0.7404172;0.0074971956;-1.7031447;0.025174065;-14.985052;-3.37713;-0.0131012;0.06569462;-1.0960505;2.917865;0.57220846;0.9774804;0.68878794;0.2634834;-0.028573498;-1.2117425;0.005244972;0.5980988;2.8046732;1.2346734;-1.3144225;0.12101775;0.5490482;0.0073183263;1.6500343;2.5418777;0.034948457;-1.3881708;1.9616472;2.7502818;-2.6131086;-0.021422096;0.16361669;-3.3919935;0.23693752;2.1857197;-1.8692108;2.3132186;0.03823296;0.04399022;-0.022735247;4.7550764;0.8025322;3.2593143;0.015751816;0.30811027;-1.0026945;-1.3011081;0.6752585;0.0027255078;-2.815731;0.79965585;-0.6829792;0.08792297;0.0053696022;0.04556814;-5.9023666;0.6136756;0.11260553;2.118699;1.4626209;0.27540722;-3.577018;0.032428157;1.0225227;-3.049841;1.6755966;-0.7242468;0.003797116;0.97532845;0.19181493;-0.3545856;-0.0151770115;0.09211346;0.88926786;3.3077226;1.4547229;-0.026298242;-0.11980488;-0.90419316;-5.1275535;1.5161581;-0.017913092;-0.03212836;0.03684193;-0.23255931;0.9701891;0.68865764;1.3409177;3.2390254;-2.9043417;0.37486038;0.09665461;-0.62526363;-0.01524266;1.804677;2.418185;1.2463319;2.9199843;-0.03450458;0.094875015;-0.728668;0.42820907;0.028081726;-2.8395674;-6.3201585;-0.34051517;0.01277737;-0.8422682;-0.012269284;0.024053147;0.019670527;-0.016957993;0.017216751;-0.010961862;-9.562273;0.078886285;0.060557026;-1.984549;0.004570931;-6.724555;-0.01905422;1.206502;-0.58752614;1.4138532;2.0620954;0.12299483;2.68853;-1.7648662;2.1778157;0.78469044;2.1676183;-0.41699138;-0.038169336;-2.07734;-3.0723352;1.2812773;2.150756;-0.00054626114;0.89310634;0.001958331;-0.13567837;-5.7381983;-0.46670705;-0.09343807;-1.1876922;0.04508967;0.0077050626;0.016851837;-0.25193787;-0.046965655;2.385325;1.2653759;-0.5636013;0.073754564;2.9938695;0.020753441;-1.2873981;-0.7462985;2.4190123;0.2861625;-0.8852737;-0.03206386;0.019301001;-0.15161684;2.0063317;-1.174684;-1.8305315;2.3781517;3.9451046;0.021457076;0.0120429415;1.6500338;-2.1061602;1.0540701;0.9390204;0.0043389164;-0.018831808;-0.5241895;0.057962343;-0.33690992;1.3769443;1.8918067;-0.0023099124;-6.521762;-0.010019605;0.0626602;-0.33206043;0.005776265;-0.59793246;1.5285552;0.050304703;-2.104248;-0.014184265;2.3857455;0.36972445;0.0011801159;-0.008359111;0.048218478;-4.2242956;-2.3132465;0.471966;3.866427;0.08668792;-0.5233316;-2.7016182;-0.8264587;-2.3717413;-0.3115732;-0.0031505583;-0.4584563;3.6080096;0.028081018;0.016152121;-2.8262312;1.7985197;0.008680532;-1.1276557;1.5549612;-1.2484753;-0.69789255;-3.3520253;0.02570158;-3.0595183;2.197707;0.07757021;1.1732852;-0.06076764;0.34754655;1.032254;-1.4523232;2.6175563;-0.13201177;3.57294;-0.010241787;0.2947671;0.3019469;2.5262127;0.05932323;-0.0002963596;0.07384436;0.85746735;0.3675561;0.58787453;0.008303304;-1.4726338;1.4492868;-0.93518084;-2.9461558;-3.9093385;0.94822204;-1.3840129;-3.2584953;0.030026924;-3.0801334;0.0633547;-2.3548634;2.8552487;0.02707174;-0.013159759;-0.23113124;-0.016507618;-2.9956398;-0.0787822;-0.0123714255;2.2748532;-0.037190985;2.571355;1.1920629;-0.19795454;-0.00562026;-4.281589;-10.895496;-1.5280024;0.67122847;-0.033054788;-5.7610493;-0.29215485;0.6960701;0.04069464;-0.52873206;0.7037958;0.81391335;-0.40594998;-0.037721284;-0.6276955;0.011234555;0.8848222;0.034057785;0.039946295;-1.1655216;-0.011780414;-2.458348;-0.2846541;0.736132;-0.016504418;0.011172291;0.07763399;-0.1595041;-1.5341837;-2.2102509;-0.011438169;-3.3265517;-0.03766621;0.07640449;-7.01022;-3.8535397;1.3974295;0.0011823921;1.049991;1.5505728;1.3428512;-0.23491217
-3.5864992;0.87040377;-2.1268663;-0.7035311;-1.8549314;0.024513315;0.34335068;0.031178446;1.3110896;0.056774326;-2.2369585;-0.1358887;0.0072894148;2.1590967;-6.9330487;2.4248939;-0.036823463;1.2771918;-0.016384538;-0.08072539;-0.5364161;-0.0755623;-0.23920113;2.984195;-5.1176214;-2.4232645;-3.4455788;-0.17685951;0.044757735;0.018844815;1.17002;-2.624654;1.0608015;-0.001870976;0.025713922;-2.0537777;-4.40557;-4.5082974;-0.97413045;-1.2459065;0.66663253;-0.029395796;-1.8118199;2.9727457;0.012332311;0.7431533;0.012366862;0.1070642;-0.028071612;0.28718638;3.0778396;-0.062461782;-0.4085838;-3.4090912;0.018635692;-0.025539486;-1.184958;-0.052583154;1.2050076;-8.588718;-0.08132973;1.2812549;0.08252335;-4.1096735;-1.3072519;1.5604372;2.2958784;-0.61189497;-0.024787694;2.589378;-2.0774808;0.46357432;-1.222019;0.9289648;0.67975235;-1.7669253;2.0566258;1.0750849;1.5411999;-0.20744342;-0.12009399;0.048548732;-0.34779492;2.1881752;0.07367274;1.4414285;0.5602846;-0.0011442677;-0.0031068504;2.3381915;5.664934;-2.8048887;-0.06712999;0.48660234;-0.24070363;1.0881972;-0.041224416;-0.061555285;2.137436;1.1996909;2.071636;0.06439709;-0.019608302;2.0610945;1.8829012;-0.251093;-0.5301785;0.005269919;0.71145576;-0.0056909677;4.1791077;-0.668075;-1.2988176;1.4203857;-0.016704027;-0.93434006;0.33908784;-0.95137495;2.5717103;-1.6478659;0.96643025;-0.04396206;-0.98770136;4.483402;0.87858826;-5.3981013;0.6004204;0.35341823;-1.6092513;-0.29507732;1.4663308;-1.0199544;0.06160016;-3.88461;0.029078975;-1.0290695;-2.8499124;-1.9895481;-2.8888733;-3.134028;1.0454279;0.046114475;-5.31876;1.4046395;0.46084443;-0.22231132;0.03727337;0.5400889;-0.0048233937;-3.230564;2.133614;-2.2671878;-0.021497004;0.031060312;-0.59595907;0.23563223;-0.010726922;-1.1064677;3.7942867;0.6150936;2.3008802;-0.8085207;3.3451376;-12.2971325;2.3597884;-0.052967414;-0.18097124;-0.44696474;0.42415887;-0.038862485;0.010837933;0.45942023;-0.0011234699;0.09781878;0.0028789344;-5.051558;0.77400917;2.853597;0.0931936;0.00030286398;-2.1340268;1.700477;2.665149;0.09698151;-0.091723315;0.31389076;0.046556927;-0.019071296;-2.5929382;-1.8565784;-0.20904057;0.62814444;0.8609222;0.6659384;1.7016271;1.9396482;-0.04857013;-0.25189608;-1.0267663;-5.0767827;0.63158697;-0.020919805;0.06369968;-0.015121734;1.1500186;2.4723322;0.550136;-1.6152885;1.3586432;0.055971235;-1.5939227;1.0917274;-0.064241104;-0.15549645;0.65458244;-3.3771703;-2.371707;0.0013967775;-1.94134;4.086648;-2.477551;-1.6934505;0.42636806;-3.7345898;0.0653187;-0.2888846;-2.3185904;-0.04275105;0.055363044;0.55001825;0.22187836;-1.8447361;-0.08408123;0.015819151;2.0355089;1.4211223;-0.114377014;-2.3989315;-0.02225397;0.34905922;1.7557459;-0.8842003;3.0841465;0.39046535;0.009137035;0.25198832;2.269533;-4.5727477;-0.90558636;0.00423859;-3.3075416;0.023310864;-3.339529;0.19124521;0.025514185;-0.08901027;-0.9915399;0.029723007;1.8793483;-1.6566148;2.2488122;-1.3224729;0.27224272;0.39099798;-0.012132745;0.7695551;-0.07188005;-15.033312;-2.2238584;0.005218002;0.033544146;0.617338;3.9190512;-1.9194769;-0.25669327;0.32315135;2.6241338;-0.04166329;-0.37632677;-0.01690467;-2.438435;1.837477;0.30314696;1.861754;0.00094552746;0.41447884;0.014422954;-0.19611482;0.08288317;0.050568506;2.2004092;2.8612175;1.8684844;-1.6706494;-0.013505275;0.86767536;-3.1591778;-0.9411026;-0.3469163;-1.3520216;2.523333;0.28564093;-0.004630074;0.009760543;0.5280351;-0.9755214;0.40085116;0.029950663;3.4840686;-1.1043282;-3.2712386;-1.3204403;-0.015816633;-2.5332377;-2.0441267;-1.0398079;3.4259424;0.014944775;-0.06358212;-2.7645433;0.67851746;-0.0700652;0.2864794;1.1731629;-0.060842585;-0.17193311;0.036092795;2.1546996;-4.4319286;-0.61277586;1.2341992;0.015258347;1.3416408;0.87130797;-1.5259234;-0.012177455;-1.7448946;1.540651;-0.5965872;1.5000045;-0.016420692;1.7586766;-0.63190925;-4.924532;2.196516;0.0017986837;0.040496416;-0.015634319;1.8592024;0.17611416;0.15975623;0.5258496;4.001424;-0.5247807;-1.8333327;0.28771645;1.0594175;-0.029849615;-0.19174883;1.2067596;-0.72792476;2.755252;-0.035081804;-2.116831;2.4554746;0.84736246;0.02474677;-1.6177461;0.15922658;-2.0583012;-2.3680258;-2.1054556;-0.035125777;-0.013691527;-0.033813514;0.0901025;-0.020248974;-0.030447805;-9.690482;-0.09713127;-0.0074942987;0.06834152;0.044871237;-1.957404;0.23940985;-0.2852642;-0.09024989;0.8992584;0.53314435;-0.07504784;3.0398314;-2.0822105;-0.25145054;-0.08645063;4.942641;-1.0843393;0.3397383;0.6408305;0.6566246;0.8551473;-0.85935247;-0.0074699335;-0.8553249;-0.005716117;-0.4942294;-5.377446;2.6137173;-0.036130235;-2.8344872;-0.008639323;0.026279207;-0.013253439;-0.42279458;0.07884738;-0.014722788;0.91847575;-0.13467023;-0.010938071;3.9859476;0.009747662;-0.6773429;-1.9809431;0.2786598;-0.45884657;-3.689811;-0.003659625;-0.0128720775;0.42084765;-0.9912527;-0.93423355;1.179555;3.706192;2.6164663;-0.0033181035;-0.025062807;2.618029;-0.018617645;3.673655;-0.21148062;0.008086692;0.06034479;0.11474371;-0.014137516;-0.2870649;0.2017523;0.6542068;-0.0003681329;-3.2022493;0.035732698;1.82874;-3.7945454;-0.029470962;0.08301817;5.11742;0.015806124;-3.0874708;0.048635148;1.4779754;0.9616147;0.010977571;0.0058615864;0.036498252;-1.3731008;-1.4914247;0.39192778;1.1566588;0.020783948;0.22139302;1.359142;-1.6233451;-1.618296;-0.006463085;0.1202864;-2.5113971;1.3061372;0.007817631;-0.02659663;0.35257468;-0.7177288;-0.028044375;1.8725045;4.1323776;-1.8525206;-1.175976;-0.06816071;0.030912042;-1.7467755;2.0161824;-0.05270103;1.3051598;0.118875995;1.2489741;-2.2420301;-1.9472295;1.808433;-0.034640536;-0.01905288;0.0009889088;-1.156576;0.16562717;0.49180946;0.027101776;0.05079812;-0.009722104;1.1626561;-0.014423454;-0.32781693;0.09628957;0.4671318;1.649536;-0.8244838;-0.15010929;-3.46755;1.9807905;-3.1018329;-1.6104223;-0.021723442;-1.944801;0.6268746;-1.4132982;0.3982662;0.030893894;0.019980092;-0.7996744;0.05921437;-1.2497606;0.25677744;0.010657455;2.6016185;0.5952313;2.7901313;1.772055;-0.37433228;0.029663242;-1.3175563;-11.149396;0.1457101;1.0122371;-0.005702661;-8.926385;3.4871356;2.102193;0.014334614;-0.9595143;-0.11462625;-0.1861406;3.3617198;-0.005012582;3.1703124;0.035083342;1.0873997;0.022731032;-0.01788063;0.19784543;-0.10646851;-1.417607;2.0589764;-0.25846225;-0.20887546;-0.039074447;1.3399192;-2.3482547;-3.1995676;-2.7421165;0.0040765335;-3.253299;0.037518643;1.6453846;-2.9377995;-1.4726825;1.4840164;-0.0006337985;-0.7882363;0.61971635;0.4821886;-1.4764917
-1.87304;-0.36937115;-1.3938798;-1.7160058;-1.0882651;-0.07453992;1.3560922;-0.05780928;-0.79474306;-0.03643998;0.48217446;0.8230648;-0.015050572;2.3565462;-0.88281596;2.2178319;-0.0048406255;1.9982703;-0.051323175;1.5199698;0.16555172;1.1294415;-0.2943708;3.4225664;-4.3153872;-1.1043854;-2.6428826;-1.1569556;-0.026813162;-0.007772217;0.20801908;-3.3708653;0.9913514;0.011487012;0.053292133;-0.5376284;-3.2563465;-2.7592504;1.6639105;1.2386733;1.623132;0.045064677;-3.0417752;4.3920455;-0.70206386;3.4536645;-0.014938421;0.47132018;-0.0014640263;0.065312974;1.5796188;0.9856236;-2.5131657;-1.8971046;0.50137985;0.031112527;0.36833638;0.12650377;0.13923387;-8.562082;0.08342685;2.0815628;-0.026363596;-2.855055;-0.7773185;5.2527294;1.1150866;-3.3496244;0.026871769;2.15552;-0.31224886;1.0111347;-0.18782027;2.5549526;0.5450795;-2.231745;0.7355878;-0.84693295;-0.14565183;1.1305381;0.027366776;0.0072903614;2.6980894;-0.34125948;-0.079058394;-2.0114536;1.0208821;-0.006320644;-0.05085452;1.9440888;0.96604097;-1.0315658;-0.05797086;0.72197366;-0.07096371;-2.1268823;-0.0044359732;0.05334419;1.8503801;1.7359644;3.1974761;-0.016827554;0.02117786;1.1391418;3.3760269;-0.039828412;-1.8614268;-0.0077029504;-0.15009438;-0.0109908;4.1174397;-0.769322;-2.6473029;3.419758;0.001117178;-0.40735218;1.083085;-1.2315307;1.8293059;0.3908473;0.96962905;0.0058358503;-2.26267;5.2764735;2.3575158;-5.637051;-0.037275318;0.7549355;-2.8526137;-0.111477606;1.7624947;-0.7008785;-0.008082796;-7.1753864;-0.036493167;-0.54890096;0.29374424;1.513181;-3.8978014;-0.5708983;1.5582062;0.05693887;-6.564143;1.1168466;4.0839677;-0.04322288;-0.002904501;0.03715936;-0.08095145;-0.19276316;3.3277;1.4759167;0.05458788;0.01772449;-1.21229;0.20040463;-0.016950618;-0.3912337;2.0499537;-1.447448;1.7941884;-1.1865537;1.7119029;-11.418301;0.5144227;0.04375111;-0.05253905;1.807229;-1.4929632;0.035994504;-0.013203404;-3.8020308;-0.0489823;-0.13042372;0.10103846;-4.1256523;0.43261352;2.531086;-1.9577943;2.1170368;-0.32684678;1.1488813;4.7160635;-1.3389144;-0.04298718;0.8073732;-0.04566033;-0.46603012;-2.7947645;-1.7949573;-2.8945134;-3.4462078;-1.5484847;3.160512;1.8658501;1.2326481;-0.032064017;-1.8160553;-2.9226856;-3.0077336;2.1919713;0.0048571615;-0.029494235;-0.03445029;0.7333201;3.7334425;-0.23435897;-2.2802145;1.737273;0.05085923;0.026031805;-0.81709397;-0.0028952619;0.30111367;2.405936;-3.4295216;-0.11706599;-0.51439726;-0.4587378;2.6740181;-2.6113448;-2.3260682;-1.383609;-2.2716882;-0.02656497;-4.425121;-1.6460018;0.06171634;-0.017444126;0.058348995;-0.08856308;-0.9672566;-0.030326342;-0.00048244602;1.2060844;3.7206805;-2.9740493;0.054520424;0.010878438;-2.0020714;3.0095768;3.1292627;1.8831488;4.066121;-0.029527329;0.53053415;2.736892;-3.527425;0.026482828;-0.040179543;-1.0498518;-0.009946685;-0.891594;-0.35851407;-0.03203966;-0.89018476;-2.9674668;-0.016201355;0.70911896;-1.9304109;2.1268113;0.7313453;-0.31525904;-1.8704276;-0.041848443;2.1135535;0.0017746588;-16.862804;-2.0189385;-0.03185515;-0.050445896;0.24570687;-4.6577144;-1.0526726;-0.08086283;-0.6686934;1.3631876;0.001955268;0.32684112;0.016625376;0.37508282;1.7980638;-1.5410758;-4.3705726;-0.032169815;2.4373903;-0.02158667;1.9753361;1.0106091;0.013276863;4.0645175;2.6950743;1.4224398;2.0193417;-0.0057728672;1.8731757;-4.759877;2.116465;-1.2412236;0.15564197;2.942871;-0.056104243;-0.12502003;0.016914332;-0.6609642;1.6988994;3.710874;-0.01717484;2.8188825;-0.63865995;-1.1635504;-0.8304477;-0.0240693;-1.0396283;-0.14069425;0.75794405;0.8800868;0.05841171;0.010535089;-3.3294866;-0.18643734;-0.0151554765;-2.245137;-1.723008;-0.08913156;-1.6123954;-0.0168013;1.3616542;-7.299254;-1.7971996;1.9487377;-0.040276702;0.47369772;-1.3153968;1.2520939;-0.026092637;-0.5455358;0.44013318;-1.8534619;-1.5986617;0.06371621;0.29046592;-3.5344918;-5.286479;2.0438516;-0.01006184;0.0010586254;-0.15838197;-0.8809084;1.2685523;3.8662868;1.3457361;5.098742;-2.9363544;0.6829127;0.32299167;3.5553608;0.07005484;-0.16838433;-1.8828498;-1.8176956;-0.5960437;0.00043532634;0.8133924;2.948648;1.0830412;0.009467329;-1.7479578;-2.3380728;-2.5311584;-3.410369;-0.8747829;-0.042279273;0.00029017226;-0.009396268;-0.055090375;-0.0260719;0.016201684;-10.326991;1.1546199;0.003460352;1.7927823;-0.08138251;-1.5637246;-0.029110221;-0.08715226;0.37159842;3.3913214;-0.18065867;0.50021297;4.621742;1.7713066;1.3518698;-0.067111135;1.5938792;-1.7825174;-0.054757543;-2.353639;1.7664318;1.123017;-1.7312716;0.021518158;1.2328051;0.00687056;0.31290016;-5.4574714;1.1610497;-0.11916619;-0.70131534;-0.0799007;-0.19750468;-0.032172255;0.5168929;0.0011836023;-0.8332221;0.80194;1.7062969;-0.011375486;2.1840253;-0.047827058;1.1567683;-0.6472273;-0.1233177;0.54977834;-3.580181;0.0048322454;-0.008385587;0.35294804;-0.6350897;0.17699806;0.47520378;-1.6067365;-1.0866836;-0.050569437;0.011792111;3.8065107;-2.879247;-1.5678169;1.578402;-0.0074431296;-0.025498942;-1.4316119;0.04510774;0.045699857;0.826558;0.9267893;0.045418907;-2.104077;-0.21685712;3.0438762;-2.9081032;-0.054607555;-2.6393049;2.5634732;-0.02083969;-0.13150065;-0.015187315;2.3936603;1.7480525;-0.17061535;0.0050259954;-0.02339686;0.032244958;-2.6626256;2.041418;-1.8181593;-0.03714528;2.4153123;0.17592391;-2.9881542;-0.3506955;3.690658;-0.054068394;-0.5346917;-0.3257008;-0.061109826;-0.049606167;1.1640764;-0.15587583;-0.03853895;3.264912;2.5233927;-1.7246583;-1.3118224;-5.338802;-0.033539638;-0.7049879;3.2512565;0.012628344;2.159853;-0.06969789;-1.0317144;-1.1848912;-2.0876808;-0.49656403;-0.018449806;1.7522525;-0.038603745;-0.7750051;1.013505;2.0362244;-0.0018268777;1.175992e-05;0.039388347;4.032985;-0.04179464;-1.364946;-0.00973313;4.0247927;1.3082483;-0.98201686;2.9641466;-1.9811009;2.2633061;-2.9666693;-5.2552776;0.019048903;-1.5703309;-0.17291279;-3.5779884;0.13662964;-0.1282118;-0.049605716;-0.25327453;-0.039874464;0.011556717;0.64404917;-0.00034243692;2.227295;-0.17889908;0.8354211;-3.6404727;-4.6927385;-0.017190775;-0.5178185;-10.663634;1.2936121;1.0627265;0.055627324;-1.9756086;-0.81007296;2.3223348;0.034779742;-1.3364545;-0.0673077;-0.0067408876;1.8703406;-0.006113246;1.1179726;-0.033713195;-0.049258847;-0.056851976;0.043476142;0.6141222;0.6226632;-1.9534909;0.6746647;0.12319505;-0.016957067;-0.023944091;-0.7939582;-3.2265081;0.44150242;-2.773679;-0.0131455595;-1.67712;-0.010306099;2.094172;-3.1264505;-7.151056;0.2995645;0.017088192;-1.2897215;0.05311964;2.1227567;-1.4220558
-0.3839266;0.75262445;-0.5746357;0.28889963;-0.22463995;0.0340382;-2.6775374;0.0146377515;-0.6534517;-0.03479695;0.6168831;1.8855884;0.021614738;-0.49544883;-0.63234305;2.074516;-0.052047294;1.4192452;0.09792094;-1.4157599;2.8540652;2.6946588;0.35445777;2.927306;-5.779912;0.22322321;1.2323288;-1.2496173;-0.016643172;-0.022938022;1.3264215;0.95125556;2.209842;0.023576658;0.02323863;-1.6379942;0.3142612;-1.6352648;0.49691704;2.0787673;-0.22498645;-0.06704151;-3.990771;5.3392715;1.1606023;2.315255;-0.018796628;0.44736663;-0.022826144;0.37386274;1.8975443;-0.22830448;0.46386784;-3.5789058;0.099900894;0.03603464;0.58621776;-0.008715384;1.6623377;-9.53162;-0.12341404;-0.20756139;0.040980283;2.5965734;-0.42939126;3.4389832;-0.27295795;1.7267077;0.009845786;2.3973904;-0.900222;1.404137;-0.07244359;-1.2165962;-0.3229597;-2.270284;2.5973754;1.1629463;1.9629351;-0.28727713;-0.019824121;-0.035640754;2.1553414;-0.77133214;-0.12524009;-3.187359;0.9117605;0.0026696692;0.03655726;5.315873;1.1842295;-0.78463477;-0.031990193;0.5206409;-0.027202297;2.1450672;-0.003917399;0.18488166;0.89266914;-0.45095718;-1.8298358;-0.014376906;-0.010360003;2.0262969;2.7793632;-0.07455436;-2.1765528;-0.0009387651;-0.19274184;0.03377285;1.5395756;-2.9856787;-4.9989552;-0.2340988;0.02893252;-0.4675721;-0.11972526;-0.6034236;1.1925505;-1.205433;0.018698927;-0.044311468;-3.349827;-1.0192037;0.14079474;-3.7418535;-1.6602507;1.6269022;1.5342433;-0.029129459;1.032062;-4.0331135;0.041504055;-6.3210974;0.069029436;-0.7017139;-0.5632167;-1.4290143;0.2408978;-2.900875;2.1954098;0.0013444094;-3.4332962;2.0140707;2.2933836;-0.0098316455;-0.033257846;-2.2940545;-0.083480224;0.83634037;0.30909994;1.3718338;0.14161243;0.031725448;-1.7020125;0.4458625;0.031850066;-2.370594;1.2267663;-2.4624465;-1.952625;-1.6715299;0.9495992;-10.068401;-0.44168684;-0.00018501635;-0.14337899;-1.8276435;-0.11019892;-0.05073553;0.04049549;-4.8167763;0.15454732;-0.054906543;-0.039453965;-2.0528429;0.28891212;1.6985848;-3.5674253;1.1519504;1.365947;0.012548527;2.4641287;-0.4312727;-0.02669683;0.31659743;0.012422891;0.16975346;-2.6749718;0.10214848;0.6137377;-0.1444342;0.8047894;1.2509813;1.611345;-0.41112894;-0.006560014;1.4224514;0.7985127;-0.53887177;-0.7267149;0.069522336;0.009881802;-0.08028323;0.47618565;0.9152469;-1.0841738;-1.6884973;1.7176547;-0.008794647;0.807929;0.48815534;-0.014500655;0.15877418;-2.0624137;-3.6828709;-0.15633559;-1.2826508;-4.1681776;2.5929463;-0.9824681;-2.4841292;0.042687874;-4.522556;-0.060937617;-3.0151424;1.2945197;0.020884942;-0.019247757;1.649417;-0.31665513;1.5417627;-0.035846543;0.04175345;2.472755;2.887049;-2.7186255;-0.043926734;-0.102601446;-2.8629098;0.55228853;-0.63145494;2.0432253;2.8675952;-0.060104527;0.6037029;-1.4086553;-4.7471585;2.8233845;0.035549857;-0.50408876;-0.025187911;-1.0549109;-0.49835876;-0.005404499;-1.2076105;-0.4818348;0.02563832;1.247182;-1.2176328;-0.14245683;0.82140887;0.09476919;-1.1737264;0.01624904;1.1245064;0.022440525;-17.251383;-0.6657636;-0.0219589;0.0371944;-1.3384631;-3.514578;-2.0788846;0.034384143;0.27548376;0.80732554;-0.042761665;0.80460066;0.0055363756;-1.743767;2.1176581;0.52665114;-1.274867;0.05448154;-1.0573299;-0.026708925;-1.1376948;0.8801104;-0.035854;0.5555773;2.2220166;0.75684357;-0.44357258;0.011314939;3.4873893;-3.8992646;0.7926829;0.48379394;-1.7023394;3.156772;0.03280347;0.94123906;-0.023407584;0.5434682;0.6870131;1.7735405;0.021108517;1.1235211;-0.77702934;-0.9275527;-1.2366998;-0.036112204;-0.9177975;0.66064054;0.9096104;2.0972433;0.016243305;-0.039345816;-1.4957035;-0.577839;-0.023959883;-3.2176852;-2.3926938;0.039253492;-0.39331764;0.033006076;2.238484;-1.6742935;-3.4377158;0.34398505;-0.004230351;-0.8706967;2.8827746;0.566057;-0.03055806;0.8471981;-2.166629;-4.366141;0.11607782;0.050182674;-1.5688562;-4.0177298;-5.965801;2.7311313;-0.024912367;0.019625979;0.84170943;-2.6496656;-0.4340661;1.105601;1.2026997;5.985942;-4.5427265;-4.196567;-0.43432954;2.7698252;-0.05491478;0.705822;-1.5371463;-1.341871;-0.64431363;0.02433526;0.57177186;3.131316;2.0850554;0.06675762;0.17511943;-4.6960716;-2.823629;-1.9958987;-2.4125667;0.016805867;-0.021897087;0.025030348;0.040987544;0.018529039;-0.03591724;-9.967726;-0.44293338;-0.023891067;-2.3437607;0.01117793;-0.5633846;-0.020438833;0.057984743;0.13952345;2.4124784;-0.57087064;0.25955197;-0.6231417;1.8782587;1.2796288;0.005593137;0.53452414;-3.3378413;-0.025512714;0.9548964;-1.5926454;0.62165606;-3.0743585;0.08899473;-1.167491;-0.00588861;-0.23168316;-3.0639284;1.5849066;-0.020635365;-0.45468968;-0.09742577;0.8490803;-0.052209094;-1.4701025;-0.059228554;-1.0308409;-0.7459551;1.4222661;0.004735269;2.2781823;-0.02900415;1.2463192;-0.21912625;0.46334505;0.7610666;-4.6366467;0.028480558;-0.004198662;1.4371098;-1.1520789;0.7572321;0.28950173;0.57232577;-2.6956167;-0.036899935;-0.021997238;0.69652385;-1.5282784;-2.1025715;2.5954633;-0.044048555;-0.032688264;-0.8458659;-0.025493806;1.7986283;-1.1078365;0.991326;-0.028642679;-1.786738;1.1077749;4.1212454;-1.3455416;0.0017520805;-0.340093;1.4600608;-0.04380357;1.4038297;0.036976993;1.5687053;2.9511187;0.71273154;0.0534398;-0.032824196;-2.0380845;-2.4131377;1.1034977;-0.3592547;-0.005936306;-0.20309794;-1.5932301;-2.5733929;-0.9411157;0.35065693;0.022993196;0.1752843;-0.16250405;-0.07460239;-0.037739035;1.6109191;2.0139577;-0.00081036164;2.522762;0.72542405;-1.5930752;0.07623743;-1.3327287;-0.007181848;0.023829935;1.6802697;-0.034257736;2.1098938;-0.0778979;2.4505868;-2.0980768;0.72572786;0.9642849;0.037949853;1.9666479;0.025255347;-0.58371013;0.35432112;0.7470596;-0.043162916;-0.015029384;0.016570235;3.070144;-0.028392151;-1.5492527;0.0026119822;1.7839628;2.9308941;0.20290865;3.5656505;-1.055924;1.5095828;-1.8982761;1.0304065;-0.061501905;-1.8734905;-0.016323235;-0.11145955;0.8433786;0.85353297;-0.02187976;-0.80835104;0.023923472;-0.2163598;-0.2001611;-0.0470359;2.8773036;0.078786165;1.3317789;0.46320298;-1.3827465;-0.015705548;-4.0715556;-10.119791;-0.48770788;1.369081;0.06789426;-2.2886689;0.42055258;0.20129088;0.04511385;0.5323213;0.034541268;0.0008825967;2.4224916;0.0017715099;1.0307956;-0.020956127;-1.1382946;0.024400465;0.0282389;0.2717204;0.40761197;-1.8319404;3.0096686;-1.2195524;0.021054545;-0.064067684;-2.3208928;-3.8897898;2.152336;-2.1143842;0.010166368;-3.0644586;0.046922203;1.1214567;-2.9124126;-4.034083;0.85107833;0.0036401472;-0.8936746;0.2449408;-2.525684;0.6792982
-1.4120965;-0.0014236784;-0.6578635;1.1990678;-0.33679;-0.021223903;-2.206936;0.016704636;-2.1245072;0.037634343;-0.86720484;2.5930314;-0.027318027;-0.45913535;1.2006963;2.7328668;0.026966408;3.8036005;-0.036712762;-4.33437;-1.6156949;1.840142;-1.0136813;3.0666108;3.7155168;0.16884638;-5.417746;1.0189874;-0.05419145;-0.025079792;-0.64188814;0.6618864;1.7048584;-0.036143284;0.032821734;-2.1855185;-0.55474466;-5.0639863;1.0671859;1.8004628;0.57927454;-0.005751189;-2.5388346;1.5273927;2.3233948;2.0341918;0.033705257;-0.5492767;-0.08376315;-0.66666776;-0.75404245;-0.11254493;-1.3794713;-2.671228;0.23368011;0.024131978;3.4257796;0.036595017;6.873772;-9.125962;0.34569752;-0.11703167;-0.06340484;2.5778546;0.26575634;1.513956;0.6127796;3.7326262;-0.019649923;1.7511486;0.08493919;1.2240697;-0.96839404;-1.3048893;0.009057052;-2.8605735;2.7679346;0.39111367;-0.5921602;-0.13357353;-0.037507687;-0.01390775;2.8204665;0.018609652;0.20052102;-1.5757424;-2.6140506;0.018683825;-0.09991548;2.6382098;-0.00039671;0.769392;-0.1071169;-0.011386868;-0.07115428;1.4427361;0.003677787;0.8677589;-3.483879;1.5493985;-2.8188295;0.005904437;0.008304285;2.9368346;1.0078814;-0.019539617;-1.8113008;0.011436183;0.0070479005;-0.055266373;-0.3798748;-1.878117;-5.652582;3.8867266;-0.054481834;-2.073955;1.4207494;-3.659458;-1.0507265;-1.9143726;0.50468963;0.018758718;-4.729636;-1.7505391;-0.82804227;1.8215591;-1.0723627;-2.072737;3.0875423;-0.064757295;-1.1417052;-1.1290079;-0.008819003;-3.7760427;-0.014348787;0.3250527;-1.9478925;-4.077378;-0.24704704;-3.4528832;0.85287523;-0.034397047;-6.11813;-0.25968853;1.3748412;-0.061760865;-0.014483451;-0.58905107;-0.06429081;1.7747991;0.42357734;2.7230942;0.17399481;0.0014041355;1.2064105;-5.0643363;-0.018309807;-1.7593863;3.4243379;-3.8152266;0.19407472;-1.5774548;0.57225144;-9.016511;0.13735873;0.021731468;0.24998826;1.9578128;2.1627;0.014259672;-0.034086045;-5.699298;-0.05596264;0.06192656;0.008800171;-4.657138;-1.3455663;1.7237318;-2.9729676;0.033469554;1.4234467;1.4943573;-3.3111227;4.585061;-0.038766813;1.1446297;-0.012273961;1.6767082;-3.0364704;-1.021595;0.020515306;1.4143997;1.0908896;1.510703;2.0430894;-0.62798494;0.022496069;2.9926128;5.275833;0.10288916;0.03480567;-0.058599133;0.057001077;-0.019519795;1.5337236;1.5378308;-1.7725756;-1.1705306;0.98205787;-0.0011084066;1.0326742;-1.1458566;-0.010865507;-0.17378153;2.8215556;-5.671213;-0.48710254;-1.4213613;-2.669694;3.8019717;-3.4152157;-1.0184083;0.8377278;-0.7063509;0.011132153;-1.4850417;0.20877795;-0.00530772;-0.02199193;0.5631395;-0.17253506;-3.0966635;-0.0071936687;0.7866048;0.41966692;3.9534423;-3.9331288;1.7409629;-0.018436255;-1.1700512;-1.7453539;-0.072345495;-1.0174199;2.939499;-0.051540636;-0.98964995;-2.8484638;-2.512413;2.2847445;-0.04781364;-0.49026573;-0.033845134;1.3982167;-1.040728;-0.033154875;-1.2504991;-4.169314;-0.06896701;2.3398156;-3.352383;-0.45961666;1.8647529;-0.13545111;-0.42282283;-0.045324087;1.7355483;-0.0077078557;-18.735546;-2.000145;-0.0117507195;-0.023183845;-0.5976708;-1.9716763;-1.3628212;-0.041214105;0.4180673;1.8472694;0.041293364;0.9653143;-0.013055478;-5.2445173;1.3447337;1.9534991;-1.2350832;-0.065350994;2.2088416;-0.03828007;-1.1642857;1.6248363;0.02785203;-1.3637264;3.858271;1.2766225;1.3934482;-0.016165841;3.7815206;-0.17091939;0.24625464;-0.4262076;-2.2058282;4.3634825;-0.050996594;-0.29408333;-0.05040443;-4.585264;-0.14629991;1.4698471;-0.051945712;1.9293402;-1.4537241;-1.6265469;-1.763762;0.008105015;-2.516067;2.8291128;-0.27903613;1.4633579;-0.009987474;-0.0074404096;2.614511;2.1251705;0.00010949772;-0.9472162;-4.745445;-0.047159627;-2.2360764;-0.017581947;1.621846;-0.63031566;-5.564611;0.5546565;0.013931583;-0.9138963;-0.7735371;0.9900687;0.0010374904;-0.13345017;-0.38359442;-3.0718532;-0.52067554;0.027545169;-1.753122;-0.44693145;-5.9957705;5.47773;-0.025714392;-0.018211085;-0.21900064;-0.033121582;3.0138075;1.5281538;-2.6031284;6.5642967;-3.23298;1.3444;0.94055843;-2.5925627;0.026890744;1.0952586;-1.5661385;0.16877685;-0.91063356;0.033453148;-6.431049;4.1065826;-0.5313146;-0.0562386;-4.3811483;-2.2674432;-3.94696;0.60595137;-0.56649566;-0.08334597;0.05825741;-0.05016413;-0.03655175;-0.037327398;-0.019580238;-11.651182;-0.20325449;0.012719556;-0.8975963;-0.05125028;-1.5917758;0.0023476873;-0.14948699;1.3592281;0.24279019;5.688844;-1.6865579;-6.0110345;1.7682726;2.3787527;0.004030697;0.7439499;-2.1274755;0.016041279;2.635513;-2.1599;3.3514066;-0.36806846;-0.07454174;-4.0109353;0.009231313;-4.9353886;-0.8040963;-0.55271864;-0.039193194;-2.9728053;1.060104;-0.27563232;-0.052047294;-3.8993573;0.05086246;-0.45606658;-1.1486326;2.6482127;0.0020993897;2.7222338;-0.009556159;0.61852163;-0.2426674;-0.2001106;2.5332718;-3.5143197;-0.05553635;0.0008290848;1.5075895;-3.0626357;-1.2135155;-0.03585851;0.31549624;2.7995112;0.04377453;-0.031803954;1.4820021;0.21999362;-2.5068488;0.34445247;-0.012659534;-0.10899891;-0.6607365;0.035146896;-1.7667903;-0.9052672;-2.0358403;0.015751513;-3.117728;-0.36189342;3.0282447;-3.00481;-0.07298102;3.129113;4.29746;-0.018345628;0.36912286;-0.020367276;1.2887365;4.165228;-0.23000626;-0.030659126;-0.016140044;-2.5602484;-1.4750967;1.9756393;-1.0403602;-0.0016974552;1.1297711;-6.4422946;-2.0958397;-1.3903004;0.83929634;-0.027522013;0.18483494;3.8501418;-0.08037904;-0.043323994;1.7858502;-0.8159388;-0.02397134;5.137832;1.5114049;-2.78416;-2.055143;-0.090282455;-0.021108694;-1.9160936;-1.4671912;0.014492403;3.3868701;-0.026409233;1.7025514;-2.708791;0.9440038;0.6669415;-0.028667869;1.5868504;-0.016622402;-2.3643887;2.5758708;-0.56139165;-0.024214106;0.025861276;-0.0032093166;3.062325;-0.067149244;1.7095909;-0.033322092;3.5742612;2.7188237;0.7406404;3.6778417;-4.903837;2.1982582;-2.8427258;-1.480476;0.014643178;-2.914196;-0.026089886;1.2254592;0.7225432;-0.20063111;-0.010451794;0.65433;-0.027290756;3.557124;-0.021585355;-0.024417182;3.8788078;-0.07037396;0.09612754;-2.3523374;1.4694332;-0.011053738;-3.158983;-11.65235;-0.9450231;0.06913716;-0.08236651;-6.1480064;0.89689213;3.231645;-0.050568216;-1.2603233;-0.06005867;-0.033140283;-0.26744628;-0.04068501;-0.0021708203;-0.04167933;-1.6906035;0.01240909;-0.0020462049;3.4867198;-0.2384608;-1.1225266;1.4618481;-2.78327;-0.04777277;0.042413972;-1.1802175;0.33093017;2.1891696;-1.7537457;-0.032129623;-3.6281395;-0.05258573;2.5097756;-4.134569;-6.276738;0.4309645;-0.012609482;-1.0436084;1.452504;-0.24846679;1.4078329
-3.7684774;0.30033252;-0.37313384;0.7880032;2.1976683;0.009780429;-2.9486887;0.008376836;2.2296414;0.009121022;-3.0882723;0.34490386;-0.0072969925;0.10457756;1.1433984;2.6227117;0.050654605;1.6713424;-0.0060554845;-3.3965898;0.62853295;0.21011904;0.6660071;2.877852;4.0394573;1.51337;-4.390283;1.3405261;-0.053616647;0.030652463;-0.32521227;2.0842135;0.53009355;-0.041036103;-0.006996043;-0.34547564;-2.6500452;-5.571635;1.3452904;2.859464;-0.06825891;-0.0004468824;-2.2668505;-1.2521088;0.83507943;1.708407;-0.028630039;-0.46726143;-0.0020381685;-0.34354776;2.7937684;-0.022105457;1.5808945;-1.2083938;-0.010591678;0.01350024;1.501471;-0.013694002;5.473987;-1.0546634;0.38103533;1.2494073;3.0120873e-05;2.5023556;0.2979867;0.2092168;1.5536269;2.3286302;0.0705269;1.7217491;2.399174;0.6258056;-1.6728234;-0.40082622;-0.047208805;-3.0479991;1.746054;-1.0512929;4.1512623;-0.0065702493;0.02366832;-0.009964078;1.5400662;-0.99451256;-0.111918665;-0.23684077;0.33565065;0.03158573;0.0027387561;2.595071;-0.6062901;0.29370812;0.16568756;-0.1349341;-0.02433919;0.35739994;0.09783338;0.31793544;-0.50889695;1.6716794;-1.0344809;0.03518514;-0.027745688;3.3871307;1.3574109;-0.0037260824;-0.6485696;-0.0057137553;0.0028446754;0.008865789;-0.13950624;-1.2640098;-3.2949965;-0.08060173;-0.028220663;-2.8083808;1.1221629;-2.876313;-1.0899558;-2.2968836;-0.9305651;0.0029343595;-3.2640283;-1.8133798;-0.968779;2.092929;-1.5081304;-2.3218124;1.1127788;-0.051960215;-0.8035179;0.52750516;0.0074360142;-3.0805328;0.007440684;1.2959478;-2.1618588;-4.6806965;1.1017144;-4.8054495;1.0915712;-0.027444307;-4.3695226;-2.9639084;-0.5031344;-0.012920674;0.019092865;-0.8437862;0.4440589;1.4877094;-0.9505392;-0.2538075;-0.4534869;-0.005080508;1.9263041;-5.514414;0.021684108;-0.6365134;2.6783216;1.1136867;0.23908047;-0.5915588;1.9545702;-6.915675;1.6051052;0.0057846103;0.17225562;-0.48032126;2.1870015;0.022091411;0.03542771;-3.3508456;0.05289462;0.0035088893;0.019903995;-2.2494004;-1.5585134;1.1554074;0.64566165;0.94086844;-0.5196843;1.6226044;-3.388239;1.008904;-0.023993948;1.5810163;0.027773183;0.3750604;-2.70428;-1.5783587;1.3377566;-0.0038989189;1.9130118;2.6048062;0.6062298;-0.96267813;0.02214396;2.6895864;2.8838255;2.3504686;-0.9768109;0.054504856;0.02062342;0.0056463555;-0.5197256;3.5839996;0.8867801;-1.3426635;0.92967457;-0.006534372;1.0871513;1.3025817;0.0508609;0.0013909079;-0.223513;-3.2170384;-1.3294443;-1.074883;1.1729856;1.8892062;-0.21023242;-0.77766395;-1.3415788;0.5803575;-0.0032659732;0.78318787;1.3251293;0.00430747;0.050466076;2.0164902;0.4127422;-2.8834305;-0.022194311;-0.0772957;-0.45345816;2.735237;-3.516901;0.73416907;-0.074166134;-0.16410065;0.57665133;-1.0034438;-3.6458023;1.9988395;-0.12411942;0.46117944;-1.7835279;-2.5572295;2.6252208;0.010804566;0.8963001;-0.014475616;-1.5246329;-1.4210219;0.009341487;-1.6636645;-4.0056057;0.016378384;3.5391736;-2.6770627;-2.4982178;-0.8169144;-1.8282733;-1.0385884;0.0043480014;3.7572014;0.02116888;-17.427584;-2.3522916;-0.027413515;0.043325774;3.206765;-0.8463302;-1.125477;-0.03623134;-0.3967384;0.50874645;0.036009736;0.5586226;-0.025770633;-1.0303018;1.0212259;2.2339902;-0.96216446;-0.028497469;0.92546445;-0.01091939;-1.4638789;1.8988991;0.039838802;-2.2075894;3.181185;-0.64805686;1.9804018;-0.0050015165;-1.1414391;0.10349024;-0.43658635;-1.463297;-3.626951;3.4122932;-0.023411047;-0.07138471;-0.006425582;-7.127727;0.6266263;1.9625843;0.05578552;-0.5041172;-1.4427042;-2.5883715;-0.7249047;0.0024630905;-2.3917885;0.39534315;-1.4386497;0.9364398;0.01590937;-0.0075041796;0.648797;-1.8607192;-0.028448436;-0.7376991;0.23815288;-0.003989961;2.1275637;0.022928726;1.4274747;-2.5164006;-1.340508;0.42239505;-0.018591613;-1.5146608;1.3863446;-1.4438204;0.010486875;-4.4922776;0.20488738;2.437597;1.4637147;-0.0051236134;0.7000696;0.6749833;-4.147892;3.1449325;-0.0015612165;-0.0038568357;-0.097840376;0.56698805;1.2460617;2.2476456;-1.8809787;6.301853;-2.1943514;-1.3252648;0.42873693;-2.5244412;0.007758971;2.1985946;1.6579379;0.18599233;0.58459914;0.015498595;-4.681415;3.3806422;0.7372523;0.02694208;-2.1268094;-3.7739568;-4.242418;-2.1235445;-5.180169;0.2807895;0.018812858;-0.01218412;0.03954104;-0.034303993;0.017138222;-10.905411;0.06674934;0.0033081432;-1.072465;-0.060306665;2.627881;0.09247729;-0.022217495;0.63873476;1.082733;-1.8563658;-2.079167;-2.3964407;2.7638829;2.144325;-0.015962752;3.0079226;-1.4149638;-0.01829139;1.3092276;-3.5557926;1.335088;1.6273707;0.014131273;-3.843431;-0.0034963689;-4.74562;-1.503281;-1.0014111;-0.11685633;-0.36271262;-0.25270644;-0.0053781774;0.011742064;-1.82008;0.029823454;0.08073571;-1.3120108;1.8904426;-0.0069983248;0.1043176;0.31894365;-3.679848;-0.09785227;0.4085601;2.662865;-4.4283633;-0.03864731;-0.04904758;3.3245242;-1.4810027;-0.75617343;0.6239378;2.781068;-1.2293452;-0.025583198;-0.005001377;1.1214497;-1.1389617;-0.23725441;1.4117013;-0.035706934;0.49258035;0.3819797;-0.03369733;-2.0137353;-3.1320367;2.4912286;-0.0063008578;-1.9563729;-0.042570654;3.9283288;-4.1915617;-0.042277414;-1.3945992;4.1057906;0.00030292477;3.7828953;0.001495552;0.7846147;0.3257393;-0.017439406;0.026542557;0.007828108;-1.5223575;-1.2948102;-2.5358276;-4.5074706;0.09343031;-2.8767025;-2.2330894;-1.1479745;-2.1686006;-0.19844395;0.058924656;-0.061401274;0.7546189;0.650841;-0.105193555;2.9213512;-0.6632389;0.06059363;2.3834472;1.8012007;-2.7681534;-4.526154;-0.3101109;0.002529642;-1.9855647;1.317974;-0.0037021076;2.2449265;0.12028374;-1.6200672;-1.9722279;0.18003084;-0.17609514;-0.025196133;1.6406826;0.0056854435;0.39532274;1.0884204;0.322226;0.0107901655;0.01826181;-0.013195764;3.8183742;-0.005382609;0.24297386;-0.030166358;0.24364462;1.3305098;0.35454336;0.50354433;-3.430567;2.3904154;-2.4785168;-0.95172936;-0.04057131;-2.6782322;0.010738915;2.6168313;1.7227796;-0.0024277493;-0.014745083;2.0507448;0.0013916171;-2.2126405;0.06954582;-0.01709579;3.0565517;-0.017358035;2.205386;-4.0844564;0.51672155;0.03792388;-1.530379;-9.788253;1.4661636;1.6717417;0.023971746;-4.7713084;-0.52750224;2.094243;0.033062097;-1.1345305;0.01496633;-0.0090090865;1.4992391;-0.013995292;0.48206648;0.001513616;-4.9600883;0.025045037;0.016066963;2.419792;-0.0072615915;-0.34130898;2.6298625;-5.391047;-0.027593328;-0.023268823;-0.6154252;0.3092266;2.3221195;-0.09159598;-0.025178893;-3.8201697;0.014916067;2.9449444;0.137713;-2.802241;-1.0594769;-0.013183901;-1.9310888;0.8570236;-1.4603455;-0.09639548
-4.738331;0.82343686;0.32849035;-1.6899279;2.8225825;0.007355406;-1.8851086;0.04152047;0.5636382;-0.056280464;-2.5914848;-0.20813754;0.032006644;2.391582;1.1552334;3.198239;0.0055758045;4.4646373;-0.019493522;2.5326343;-1.460024;0.7428049;-0.5978959;3.4156349;1.7631809;2.889438;-8.243029;-2.7154162;-0.009872253;0.029606288;0.79174286;3.5654547;-1.700264;0.05298807;0.015702406;-0.8495998;-0.048789773;-0.81911904;0.5893482;1.5897244;0.43416864;0.0073492597;-3.1984303;0.36136618;1.5479649;-1.1866913;0.045825094;0.8213015;-0.05371081;-0.56875175;3.525976;0.025121087;1.1703494;-5.3087683;-0.07716884;-0.00978372;0.34608576;0.025702447;2.214256;-4.3146915;0.36410627;-0.24152601;-0.008732035;-0.8260264;-0.19163217;-0.46231502;1.1170158;0.67424047;0.0026448227;0.17324494;0.8529989;3.4543183;-1.5818496;1.0940489;-2.5587149;-3.374234;0.38592544;1.4888006;4.372565;-0.023159444;-0.037998058;0.017722027;-0.10815086;-2.8584895;0.10420363;2.5908804;2.313342;-0.069792986;0.029574739;3.792894;-2.4792368;2.7190943;-0.07469468;0.100361675;-0.011499951;-1.3822473;-0.0031342406;0.28639725;-1.9746631;1.4448652;1.5365711;-0.054974124;0.037003748;-0.080754004;2.6559591;-0.017377459;-1.3460519;-0.02690481;-0.0422544;0.0035403008;-2.8348207;0.83412486;-5.328518;0.43030402;0.030092606;0.7667993;1.6632671;-2.626997;-0.95032185;-0.6145312;0.8592777;-0.009564886;-2.749364;-2.5805392;-0.23227356;0.61234105;-4.8837814;-4.256524;2.0752728;-0.051859707;-0.9454026;1.6715306;-0.019324595;-2.841535;-0.0050251777;-0.0075457236;-0.062411487;-5.016848;0.66439337;-6.604762;1.5422854;-0.037288956;-4.55947;-0.18896252;0.75319713;-0.010128837;-0.02368501;-0.55060416;-0.06894884;2.4081686;1.7446709;-2.224191;0.103374615;-0.0060533974;2.1606336;1.8798782;-0.052446555;0.8883426;2.3820477;-3.0357974;-1.335471;-0.8071918;1.3590329;-9.020448;1.5163696;0.010893514;0.04386626;0.9571495;-2.9950662;-0.0046125376;-0.07654601;-2.217406;-0.008046501;0.09914176;-0.029074036;1.1977953;-0.55197746;3.961764;4.6790624;2.090331;-0.3740241;0.73623186;-0.9929902;-0.06454326;0.01666265;1.2309465;0.017850881;1.0627052;-3.052509;-2.317163;-0.44120976;-2.0573013;-1.3209648;3.664496;0.94258803;-0.20084196;0.029855898;2.4178047;2.5633523;-0.26191762;1.9799814;-0.058620833;-0.034366764;0.008113183;-1.9936756;4.2291884;1.2484502;-2.0469913;1.1221668;-0.0061954577;-0.19230424;1.3891131;0.07233133;0.027847283;0.49735928;-3.4397416;-2.0551474;-1.1039665;-1.1778786;2.0849068;-1.6346422;-0.9395995;-2.3623729;1.0827776;-0.034590226;1.6645927;-2.2263281;-0.027681245;-0.007971204;0.3755195;0.9421071;-2.6244347;-0.013472244;0.033088673;-0.5717211;1.4870584;-4.259213;1.4786401;-0.019246075;1.2313763;0.15245968;-0.23499584;0.18574978;1.144482;-0.2145167;-1.0775722;-0.75397956;-7.570823;3.7686777;-0.007475368;-1.2630831;0.0041931323;-1.8765231;0.4452507;-0.00666651;0.09651842;-5.199395;0.010252183;3.670458;-2.7674313;-2.2979145;-1.5997628;-3.3445606;-0.92757845;-0.008426187;0.39622724;0.042395126;-17.729609;-5.4923124;-0.0035787332;0.0004120968;-0.66356325;-0.12085387;-1.9769094;-0.026320063;-0.5409386;0.40586862;0.07453341;0.05657788;-0.07241784;-1.491591;0.7474476;1.1262401;-1.1305764;-0.0075292764;1.4445381;0.0368446;-0.78522754;0.4369889;0.016856205;-4.152189;4.62231;0.29039794;1.2236725;0.010659886;-1.0249639;-3.0106544;0.7085403;0.6505963;-1.2623984;1.0980774;-0.020373363;-0.061841756;-0.039183468;-4.754886;0.9133567;1.3499433;0.030133251;-0.323684;0.3860949;0.034592032;0.55562174;-0.04101521;-4.3321724;1.7185156;-1.5469184;1.2085346;-0.03737127;0.003883463;2.4420376;0.9485154;0.02654538;0.98723286;1.6387136;0.052657682;1.941748;0.0035742752;2.238148;-4.0739126;-1.3616985;0.47567087;0.036418546;-2.1586597;0.8148492;-1.7756394;-0.032574307;-4.0987163;1.0942304;1.9345379;0.57093894;-0.035941646;-0.30523992;-0.61117905;-0.269591;2.6862454;-0.0021363923;0.04351773;-0.058546875;-1.2792406;-0.7513058;-0.30710453;0.6117082;6.6306043;1.0496651;-3.8901172;-0.45603567;-0.23795773;0.03816991;0.5236893;-3.4565392;-0.3345913;-0.28146145;0.052693263;-4.0848303;1.6912477;3.433999;-0.045278594;-1.236226;-4.8559484;-3.7468727;0.12292492;-3.4133947;-0.119260214;-0.027034745;0.0009056459;-0.011405229;-0.023129178;-0.015601876;-11.133254;-0.024124468;-0.022530379;2.2899706;0.023162344;-0.5087923;-0.018401042;-0.047444303;0.4925847;1.2309555;-3.671147;0.410268;-1.4285675;4.1280394;1.9909254;-0.05464215;4.2550697;0.24877314;0.05786999;1.4509811;-2.6485336;3.0111632;3.4641082;0.0148116825;-5.5540466;-0.14087331;-3.2720556;-2.1760812;0.53695613;-0.008037421;-0.08665652;-0.12307519;-0.09016098;-0.00021754198;0.012767135;-0.010232;0.37627104;-0.12031985;1.4231107;0.037478507;-1.4555156;-0.18789555;-2.0366087;-0.17630573;0.7691748;-0.27394927;-2.6847973;0.007782455;0.010071637;3.2078946;-0.13962227;-0.9231523;0.18967284;2.0650778;-0.5782923;-0.12819321;-0.083802134;0.98765457;-2.904406;-3.8244858;1.5888809;0.0098425;-0.3027196;1.7397511;0.013001034;-2.1825387;-2.8656769;1.2502023;-0.014211415;-2.4457545;-0.05006224;0.7652012;-4.0904474;0.017236246;-2.6373034;2.611741;0.020747276;2.9411652;-0.046083726;1.3727361;1.8435104;-0.113000385;-0.02338121;0.029482784;-2.0243938;-1.3076746;-1.2451;-3.2653682;0.018837066;-2.471869;-2.36683;-1.925122;0.1243561;0.75267535;-0.033028204;1.4634918;2.131491;-0.14143172;0.76349217;0.38738656;3.757421;-0.026754329;0.9667436;-0.9033443;-3.6711788;-5.528721;1.6766865;0.06120409;-1.821408;0.5217868;0.024724506;4.2085404;0.07421818;-0.2577107;0.7260595;-0.31544903;-1.3305787;0.014674087;2.6826372;0.0505546;2.9067326;2.211759;-0.6912894;0.01928236;-0.01219192;-0.006937435;-0.14416894;0.017702319;1.4493372;0.02247263;1.8368483;-1.1476659;-2.7762218;2.1512606;-4.0529413;3.2629418;-3.403299;-3.6905801;-0.011422319;-3.42296;-0.010794285;-1.7905387;3.2964165;-0.079935014;0.023781467;1.8200791;0.01272355;-4.485965;0.011873776;0.005856504;3.101377;-0.08146572;1.9782689;-5.519452;-1.7303387;-0.0010144984;0.7257177;-9.306145;1.2813276;0.96709675;0.0049283043;-1.6817158;0.40607908;-0.79620814;-0.0025630314;-0.8372003;0.006415293;-0.043972638;-3.639976;0.006221906;0.81948817;0.02338158;-3.9856129;-0.028171996;0.06354559;2.9396777;-0.0073776008;0.952246;1.6591997;-2.242019;-0.005301225;0.025625912;-1.6638438;1.0112158;1.607013;0.21519046;-0.042363822;0.013049231;-0.0030292417;1.8188977;-3.1652794;-2.1862297;-0.9665755;0.024183221;0.18483165;-2.2413573;-3.0413702;-2.8443687
-6.04235;-0.35502493;1.0319958;1.1263766;2.1347713;-0.0044274284;-2.5589986;0.017222974;2.7841961;-0.011339235;-0.07825321;-0.31070337;-0.0766771;1.8378811;0.99902135;3.2927172;-0.023738222;4.355085;0.052343328;1.8520305;-1.5053529;0.7251426;-0.040642418;3.5482497;1.9160588;1.8938981;-4.9782763;0.29357126;-0.013165902;-0.008118375;0.16039693;3.8953285;-0.48701444;-0.047883023;-0.022932794;0.18002293;0.73930806;-3.0280106;2.582311;0.09337572;-0.358311;0.003549439;-3.2373917;2.2902315;1.4647648;1.3301438;-0.041893374;-0.9349946;-0.07156276;0.6033168;0.6104459;-0.019500034;-1.42795;-1.116187;-0.045799077;0.008742604;0.6102932;-0.005050153;1.8639059;1.8121436;0.030501617;0.88122743;-0.00887896;3.689631;1.4662262;1.0058664;1.2129517;-0.49391404;-0.028144512;0.47401682;-0.0031874976;2.0812252;0.32534578;0.20611495;0.41483814;-0.6465013;1.5777979;1.3701599;3.376092;-0.015575884;-0.05154795;-0.01940717;0.5226018;-3.587947;0.07127904;5.1423526;2.5123148;-0.061343685;-0.016466329;-0.7629013;-2.236598;-1.7713807;0.0072922246;-0.33659434;0.072471514;-0.4700948;0.035576414;-0.15560322;-0.84105456;3.4073825;-2.3209865;0.10425462;-0.031695813;-1.037554;1.3755804;0.042497005;-1.161516;-0.02605728;-0.0021339436;0.00013147763;-4.2089357;1.699;-4.2716103;0.24967049;-0.012118715;1.3631072;0.12175028;-3.252541;-0.24752861;-3.661124;0.49869603;-0.058848213;-2.957003;-3.1234875;1.7417836;0.044747766;-3.227603;-3.842829;0.3510733;0.028589018;1.3697219;2.0980532;-0.027039172;-1.5903429;-0.035205085;0.76100504;0.35665223;-2.29572;-0.34758103;-3.9151852;2.6909394;0.010241541;-1.4109033;1.8210642;-1.1180693;0.017317194;-0.051016144;-2.3020208;-0.037630793;0.18116857;-0.4243833;-1.1596134;-0.14997913;0.036605924;0.9657853;1.0011624;0.068365686;0.1503568;0.6544478;-1.407413;-3.9693022;-0.44047415;-0.75178224;-7.8204403;1.3063134;0.011374373;0.25247303;2.5462017;-0.8600484;-0.0036343085;-0.0053357556;-2.7647183;-0.013325168;-0.039147295;-0.03438024;-0.8330931;-1.5885139;1.9541464;5.4114995;-0.29623795;-2.5831585;0.60987633;-0.9751045;-0.28305426;-0.030364338;-0.6800626;0.036433447;-0.12052709;-2.8693113;-1.7081656;2.6056259;1.0622079;2.1581311;2.1111228;1.5300328;-1.8021386;-0.027955396;-0.42768386;3.6787546;-1.3220968;0.9925761;0.075025104;0.03602358;-0.040559147;-0.61356556;2.5354056;0.9167771;-1.7146916;1.022743;0.008726132;-0.4866238;0.7719181;0.022383247;-0.035682876;-2.3652003;-5.682329;-1.1052384;-1.3985025;-4.900846;1.6301334;1.0454296;-0.39458686;-4.097179;0.04169885;0.024803663;-1.4956529;-0.8339889;-0.0054181856;-0.011709026;0.78546005;0.61998075;-3.0466907;0.023417287;-0.052414957;-1.9079659;1.8857881;-5.9424305;1.795617;-0.12096618;1.5183767;-0.97880495;-0.76450634;-0.28511664;-0.5775104;0.596824;0.59666955;1.6460494;-6.921887;3.9439273;-0.027756492;2.2611704;0.010327217;-4.920485;-3.1413283;-0.016122002;-2.0971663;-1.6155313;-0.042273898;2.9656098;-0.49685904;-1.4367589;3.0783727;-3.0968287;-2.3562045;-0.013140752;1.2529296;-0.019787287;-18.532875;-6.499301;0.023937296;0.018231643;-2.424564;-0.7764012;-3.8458116;0.016063629;0.14579359;2.9080708;-0.01464452;0.026673218;-0.03698841;1.2091792;-0.13621378;2.1761854;0.76271623;0.003936916;0.46697384;-0.057462044;-1.6544122;0.054511033;-0.0024146363;-3.1499732;4.5960526;-0.033843823;-1.2479497;-0.027304864;-0.0023459932;-1.8986113;1.3922889;-0.14815591;1.4455013;-0.8887252;0.01647366;-0.03854703;0.074910484;2.7117815;0.37153286;-0.41053775;-0.03050766;0.79523826;1.5893317;-2.8394692;-2.7423785;0.038537256;-3.1483295;3.8283043;-1.274812;1.2346275;-0.013083616;-0.0087845065;1.3679103;-1.0745665;-0.012989397;-0.77980006;0.87575114;-0.042958494;1.2471247;-0.015224052;2.7533607;-0.22047733;-1.0912389;-0.18640366;-0.022254378;-2.1977801;-0.571613;-1.8813161;-0.047366466;-2.8867195;0.53072083;1.7598493;-0.6333797;-0.032415915;2.6217365;-0.79481536;-3.2224724;-0.16599979;-0.028164808;-0.053370155;0.0152949495;-0.53878605;-1.5746088;0.522911;-2.207547;6.1451387;-2.1125288;-4.9188437;0.05816;2.1600788;-0.016610937;1.7497916;-1.3729036;0.39364836;1.7803816;-0.02962177;-6.894808;1.990808;0.6407284;-0.016870677;-3.483739;-3.6139927;-1.7893153;1.5392374;-1.7728059;-0.016800947;0.009168175;0.03049929;0.008795677;0.072210826;-0.01861826;-10.999703;-0.06276111;-0.006166205;0.31580153;0.010435936;-3.87733;-0.03300341;-0.020337155;0.26366344;-0.010975521;-3.7627144;-1.9994981;-1.0181953;3.1611445;0.58330745;0.046542358;0.9585871;0.61420244;-0.030664142;3.2920873;0.12114682;1.5412132;0.9868078;-0.004745786;-1.6953905;0.80684;-1.1832918;-2.5747647;-2.0222237;-0.053597182;-0.3950832;-0.014991619;0.0437894;0.009051479;-2.1254487;-0.024976073;-0.8569033;-1.8298742;0.45000166;-0.01478781;-1.6772561;0.008409305;-3.7580402;1.383576;-0.98761433;0.113824956;-4.851669;-0.018171363;0.0030740509;1.361055;0.19403172;-2.0839717;-1.9239409;2.8564913;-1.8909779;-0.010861386;-0.09539641;-0.5679324;-3.1644862;-0.4608292;1.5034368;-0.017418759;0.13023485;2.2376177;-0.010822414;-0.033595692;-2.6102047;-1.0762306;-0.04102699;-0.85028774;-0.049193207;1.3435655;-1.3742496;-0.006602466;2.0531683;-1.0275778;0.0047755814;3.901119;-0.003829499;0.42799103;0.88651294;0.0068996595;0.06243759;-0.019060925;-3.330808;-1.5074835;-5.0459886;-1.944613;-0.010844475;-1.7644029;-0.50821203;0.15639591;0.07545327;1.3745443;-0.036587972;1.4247845;1.5028913;-0.059443388;-0.11882087;0.27667645;3.842164;-0.03424677;1.0026776;0.0258649;-3.1053238;-4.775561;1.6802549;-0.04697929;-0.37236986;0.20535055;-0.023581414;3.3359818;-0.077970125;-4.960035;1.8558788;-2.1429749;1.5062008;0.05266095;1.7732074;-0.03304143;-2.2523348;1.7167786;-1.8584676;-0.021361018;0.008650831;0.026074545;-0.5760082;0.010465743;1.028343;0.023863362;0.8876811;1.264947;-2.9306893;0.8600277;-3.1660838;2.9165978;-3.556525;-2.916016;0.01769149;-2.6264875;-0.008843336;0.17955373;-0.85477674;-0.03531071;0.030880762;-0.39080364;0.0068867328;-2.394823;0.022797553;-0.001421263;3.0642328;0.02558748;3.591288;-2.2517068;-1.501961;-0.007331552;2.3660898;-9.757846;0.48704377;-0.85242385;-0.076831445;-5.197255;-0.74767125;-2.7322412;0.027628155;1.2856389;0.00070448243;-0.03367723;-3.560044;0.03432191;0.24570827;0.0052604694;-1.0812624;-0.0011111188;0.00026297808;1.321992;-0.0063270493;-0.20586765;0.18094037;-0.9375104;0.0025433684;-0.034485105;0.9760453;-0.14126849;1.2288344;1.3990234;0.0038076832;-0.195827;0.014412453;-0.420179;-3.3409188;-5.0915947;-0.3529864;-0.02308004;0.8647696;-1.6476649;-2.7095242;-2.1568434
-5.887094;-0.3589301;2.2476141;-1.4057823;3.7796783;0.0033532674;-2.1896963;-0.12515554;2.9073803;0.0073137907;2.4458299;0.0027176165;0.012069179;0.8471256;0.4944497;3.4505346;-0.024773898;-0.66315746;-0.053531796;1.0118424;-0.6306014;1.5698142;0.7047207;3.5699396;-0.9780772;2.3867;-2.3271515;-0.7765177;0.0022240933;-0.023131443;1.0594592;2.219708;0.9445672;-0.028671855;0.008686045;1.1900965;-2.9341357;-3.5034637;1.5076863;0.70789343;0.7723761;-0.0091441125;-0.9012802;5.7215176;0.94657165;1.4888421;-0.010800953;0.24331963;0.07945105;0.9231613;2.0923028;-5.5910063e-05;-0.48450655;0.30851996;-0.037692636;-0.019199781;-2.9989061;0.07201183;-0.2425951;-3.927786;-0.07152877;2.1119387;-0.05069022;2.7653184;-2.8067174;0.26557985;2.0155745;-2.0432205;0.026265308;0.092372596;1.4178036;0.2746177;-0.8891498;0.3860999;0.11798513;0.7223794;0.6584887;-3.1137972;-1.0910625;-0.0406016;0.0042493907;-0.013236318;-1.081573;4.1560793;-0.10482696;1.6228105;2.2295535;0.003545021;0.005433281;-1.6132329;-1.6929449;-3.1691062;-0.06109195;0.34679952;-0.028759712;3.4751225;-0.006479259;-0.1657445;1.6188704;1.3609722;0.75012183;0.004702756;-0.004576056;0.50334066;0.5870502;0.014333037;-5.568421;-0.021031924;0.027496954;-0.013600601;-3.5067117;2.4584136;-7.633036;0.06398371;-0.006353458;4.213198;-0.108659305;-2.01479;-1.7271394;-2.1810849;-0.031368468;-0.012766963;-1.5239828;-3.4701498;1.2747363;0.3479721;-3.4326186;-1.9096227;2.2975912;0.009582045;0.7400945;1.7307006;0.0077497396;-3.5877924;-0.003653233;1.669414;0.73825455;-1.4651719;-0.12717916;-2.4861007;-0.1967109;-0.01744435;-4.9836597;2.4414096;-0.9665179;0.040594228;-0.018843876;2.3875368;-0.01089114;-0.08286313;2.5137937;1.3043456;0.26217255;0.008615981;2.1277692;-2.788401;0.020798115;2.843701;0.7073994;0.31781006;-4.1738997;-2.0737689;-2.3361473;-6.5930705;0.83515906;0.009011321;0.09150067;4.236662;1.736417;-0.043848213;0.010195321;-1.1466174;-0.056096863;0.0025842688;-0.07088681;-1.2692444;-1.4962434;2.7648613;1.4516156;2.5983613;-2.27183;3.6779292;-2.0765476;0.59906644;0.06178418;0.10940307;0.06308516;-3.7025125;-3.1023624;-1.7948774;0.33487448;0.5141945;-0.19654137;2.0033667;1.3323781;-1.6927586;0.0029816332;-1.8772713;2.3757055;-0.28164005;-2.1588223;-0.016179573;0.037801098;-0.0014196255;-0.37711087;1.8227426;-2.436061;-0.8541799;0.8404095;-0.032106023;-0.32339457;-1.2471105;-0.0004968419;-0.014086645;2.9411778;-4.8792925;-0.16084395;-0.59427035;-5.1104794;1.4443768;-0.96415573;-0.025568135;-3.4327197;1.4757999;-0.074578084;1.4040655;0.29123333;0.0042050714;-0.031939752;-1.5512078;0.5422597;-3.2148407;-0.031775296;0.0059770355;1.1705595;-1.4965694;-5.222652;-1.20585;0.6390767;1.7187916;2.179787;-1.8133271;-0.85068107;-2.8771522;0.667233;0.38664922;0.7426352;-6.4019284;3.4288507;-0.007071625;1.9479501;-0.019383281;-2.3507326;0.104114175;0.00012729713;-1.4795277;-2.3746057;-0.012238603;3.2495666;-0.8865734;-3.1254716;2.7872055;-1.2073181;-0.21956679;-0.00041839547;0.29785824;0.030356271;-18.52529;-3.985908;0.00556896;0.053749554;-1.3441378;1.1423498;-2.4262269;0.04265227;-0.23366909;3.6451526;0.002828979;1.3400496;-0.0781643;1.6074467;-1.1082495;3.8350158;1.8165939;-0.0057332944;-1.4408257;0.016360007;1.6564919;0.12691827;-0.028355103;-3.3442812;3.855794;2.0454874;-2.890422;-0.0038925754;2.058572;-3.8296936;0.031019548;-0.028356355;3.6473758;-0.10390093;-0.015737178;0.018949268;-0.0026552714;-3.4498966;1.4898391;-3.5468843;-0.009989597;-2.1335344;1.1639982;0.8240911;-2.059818;-0.013103578;0.6926875;0.98617727;-0.36316183;0.48910195;0.04588095;0.036637284;-1.3051317;-0.1686596;-0.027009645;-0.51139146;1.2679694;0.0009604942;0.098762654;0.033798512;0.38633695;-3.3809075;0.48015597;-0.12536618;0.027516423;-1.1865511;0.24384648;-2.2221339;-0.009363183;0.21857527;-2.5944102;-0.20441675;2.0047503;0.014722572;-0.60151446;-1.9612286;-2.608336;-1.474258;-0.004675042;0.010621524;-0.03108797;-0.34555912;-1.0346684;0.66059643;-0.59675;6.1481066;-0.38500646;-2.9049797;0.6232863;0.2725445;0.032238707;0.31446797;0.94153476;-2.518632;2.314536;-0.029417805;-5.2372375;2.107647;0.69140583;0.00331309;-0.7869442;-4.7964015;0.046351224;-2.225259;1.442669;0.047532454;-0.007143589;-0.05894107;-0.015355488;-0.017483518;-0.010379376;-12.01545;-0.40971598;0.013752516;-1.2716591;-0.03638564;-4.5599103;0.03851901;0.013960576;0.22400677;0.98591185;-6.2963624;-3.572558;-2.5573964;3.103649;2.1055317;-0.008788338;3.1816194;-1.9160206;0.049092025;3.1254282;2.0481522;2.8321369;-0.27256393;0.041272726;-0.015859818;-0.2803032;-0.67131287;-3.3145022;-3.2742405;0.0042140163;-4.352371;-0.01801127;-0.060942546;-0.040469147;-1.6468916;0.013045212;-0.8428866;-1.3010409;-0.10558656;0.011233598;3.231293;0.080508776;-0.78713816;-0.43916568;-5.880193;-3.1852205;-4.413408;0.81193274;-0.009980712;0.75716513;-0.8906025;-0.22921675;-0.33042252;-0.30354738;0.7410538;-0.015161313;0.7540478;-1.6305846;-2.220097;1.6848309;0.86766565;-0.045482956;0.37172982;-3.568075;0.015573856;-2.4194393;1.8118635;0.75500506;-0.007460205;-0.466884;-0.013149373;0.98862326;-0.08321308;-0.043856207;1.4021528;-3.3809984;-0.04067219;2.3353837;-0.038462203;0.69268495;0.51000965;-0.031396892;0.00024471647;-0.019198304;2.6077182;-0.97780627;-5.035707;-0.7502124;0.0062017604;1.476303;-0.8326449;1.2437124;-1.7083702;-1.529951;0.014215828;-1.1109872;0.461123;-0.026386412;-0.027401991;0.40188122;2.8971603;0.026592748;-1.4904914;0.7939147;-3.4283264;-1.1668801;-1.7431294;-0.0019221802;-3.024254;1.5715696;0.0164418;1.4588764;-0.0522851;1.013395;-1.5478525;-0.42943275;1.468222;0.0006951747;-2.2609127;0.008845249;-1.4855541;1.3480371;-2.3724225;0.007987453;0.06559455;-0.06700615;-0.39664787;0.106029525;-0.26190707;0.00016720059;0.7601685;-0.16053535;1.1133814;1.0081533;-2.7165093;3.5536711;-3.8398001;-2.0143025;-0.021570943;-2.9803846;-0.005910496;0.38185656;-1.5662992;-0.030375276;-0.036898322;-4.450831;-0.01038051;-4.353009;-0.022002885;-0.04593778;2.5736353;0.025899583;3.8246157;-0.7953871;-1.6303189;0.03878935;2.703508;-7.611608;-1.2113919;-0.64761394;0.086985864;-1.601475;-0.26248193;-4.0951514;0.047058243;0.40845057;0.0045810556;-0.010018301;0.9858903;-0.06391317;0.16564105;-0.019261405;-2.3510528;0.044095945;-0.01599981;4.159078;0.022645969;-0.26474434;2.6981251;0.7876626;0.006781609;0.008969813;-0.42307043;0.3732727;0.40842092;2.0319998;-0.017433353;0.02500617;0.055128492;-0.9757093;1.5951252;-3.5560699;1.3562726;0.0059884144;1.0778425;-1.1632928;-3.0376818;-0.5003068
-2.6661768;2.1509242;1.1472064;2.4838994;1.4844435;0.039735734;-2.5927489;0.75295764;-3.188191;-0.01740239;-0.020185476;-1.107316;-0.009104037;0.4664008;1.4665446;2.7181315;0.05434556;-1.1345142;-0.012918361;1.6238105;0.2635103;2.2163746;-0.49524477;3.3086987;-2.4178329;1.3951262;-0.7499131;0.8271964;0.015016573;0.028824363;1.3256937;4.486103;1.6073182;0.03695741;-0.019519018;2.0329134;-2.2698724;-4.357856;0.32908598;-4.1990156;-0.39483306;0.007905564;-2.657154;-2.7120144;-0.92889744;2.950776;0.055428788;0.08992453;-0.035410915;1.3822987;2.2772293;0.080520116;-0.3829187;3.8011396;-0.012018054;0.022436982;-3.988572;-0.028100794;0.36889946;-5.3577685;0.035995424;2.9443974;0.046384998;-2.6830835;-0.97113097;1.7355382;1.0765175;-0.43169183;0.0068312734;0.42455652;0.6849279;2.9466379;1.0529141;0.9246066;-0.2779306;0.82365876;1.7530271;-2.2466867;-0.29035345;0.039458532;-0.00061446876;0.017453529;-0.7479519;-5.7094226;0.15908848;-3.6259074;1.6714804;0.7871673;0.00228975;0.538815;0.7860951;-5.082284;0.040738296;-0.6370754;-0.0647233;-0.5636209;0.0076033464;0.14609593;1.5108202;1.2350544;0.98155385;-0.003790553;0.028177286;1.6663094;0.46688318;-0.018614437;-2.2429204;0.008100618;0.019355565;-0.0021455039;-1.4655355;2.0269818;-8.804281;0.37087038;-0.008160741;1.3297106;-1.3405213;-5.3028984;-0.9380475;-1.3792787;1.5656142;-0.03692246;-4.3782763;-3.3347528;1.2828839;-0.12928875;-3.169595;-2.6061587;1.0106949;-0.03633223;0.45235068;2.0985627;0.016736044;-2.1418931;-0.06491447;-0.23211932;0.6396941;-2.2039204;-1.2441682;-1.9635872;0.20712742;-0.015598276;0.017045481;2.7589478;0.8174359;-0.035018776;0.010126535;0.06956797;0.003931007;-0.12794271;4.2602253;-0.30767608;0.061771996;-0.010542116;4.7918816;0.30689153;0.0063133943;2.123092;0.376305;-1.2705169;-1.3361166;-2.1828709;-2.877407;-1.9989424;4.196534;0.013342273;0.14099678;0.68611795;0.086239025;0.042310733;-0.005994468;-5.355016;-0.01705022;0.01027037;-0.040876098;-0.9155206;-1.1686372;1.991768;-1.7038903;-0.22424819;0.8355454;-0.9797056;-1.6991864;-0.6320625;0.0039666253;0.6881523;0.044194195;-0.36276695;-2.78608;-0.41667148;-0.44697684;-0.6989308;-1.7707759;1.0228413;0.563628;-3.1649303;0.048364326;-4.145148;1.7579707;-2.2181065;-1.9401579;0.01690926;0.1415706;-0.0011801928;0.81580037;-2.1075263;-0.0048937458;-1.8695176;1.3447552;-0.022495447;0.5908445;-0.20492658;0.0018039155;-0.03179816;0.47657764;-2.8836608;-0.39425024;-0.21358572;-4.3416834;1.0631437;-3.0166948;1.236789;-1.9937111;-0.5288357;0.030013232;2.629737;1.5983161;-0.059962954;0.016659742;0.25015828;0.006042175;-2.265163;0.02913723;0.026754476;0.1455805;0.64335096;-2.1124666;-4.6998568;-0.17822774;0.53142244;-2.9607825;1.0606425;-2.1390014;-3.7275255;0.2152475;-1.4871365;-0.58693427;-6.6490655;3.9131227;0.018757317;-0.46659264;0.019601323;2.3140256;0.31817102;0.21443763;-2.0141206;-2.75912;-0.036442574;3.6701705;-0.7895335;-4.2546754;1.4471778;-0.9223052;-0.49687353;-0.03276537;-1.8269345;-0.0066889264;-16.04665;-0.33963197;0.008844111;-0.009279653;-3.6151252;2.3577788;-2.0581129;-0.02179544;0.86002165;2.8142648;0.026734635;1.2988557;0.08039999;-0.5645369;-2.4885697;2.1732898;1.7415386;0.031487327;-0.23572774;0.0057128156;-0.79056895;-1.0248964;0.08304395;-2.7854905;1.9443507;2.0230854;-0.8455684;0.008849925;0.16876888;-6.940367;-0.43948138;-0.7529708;1.2427238;3.214419;0.008269053;0.014353124;0.012360862;-0.25919813;1.6153675;-2.6447234;0.05960533;0.9984569;-1.3594437;-1.2789725;0.29847768;-0.0040829773;0.9410185;2.3054383;0.35202536;-0.047367744;-0.0623347;0.0009232072;-1.6212896;1.1326133;0.058056332;0.02998949;-1.1543559;-0.009615171;0.7841838;0.0075395056;0.22039853;0.35053343;-1.4194437;-2.6496074;0.05740584;-1.2300552;-1.0852786;-3.6295846;0.055459987;2.3361382;0.4825605;-0.47657055;2.531489;0.0038349335;-5.081787;-1.3163139;0.75556153;-5.610996;-0.057098567;0.006613632;-0.018381156;1.7490436;-2.2895546;-0.5083813;-5.502661;5.3297176;1.6986022;-1.4060817;-0.511943;-1.083686;-0.014914572;-0.28641197;1.0301081;-1.7962198;1.7918642;0.066763245;-5.0691333;3.1901422;-2.695049;-0.024049768;2.55448;-4.194815;2.1220396;-0.086699076;3.5309358;0.010638467;0.0028099203;0.008764802;-0.009744142;0.04646516;0.030533545;-10.937746;0.72821075;-0.16496335;1.1537665;0.014303003;-3.0377564;-0.019073337;-0.066873066;2.4711652;0.43691924;-0.63829744;-5.845206;-0.12232178;2.232842;1.8617235;-0.0446189;3.8242135;-2.9558356;0.024722064;0.3214516;1.7603345;1.5744195;-2.1322966;-0.004558055;-0.016770452;-0.030433582;0.61943275;-3.000043;-2.5488172;0.0010406841;-3.2271202;0.0003542681;-0.009651804;0.048312522;-1.8932178;-0.010743097;-0.4220454;-1.3116881;-1.1136405;-0.052608293;3.3109105;-0.029714266;-3.032342;-0.21624665;2.779366;-2.0468824;-4.424448;0.005021704;-0.0036172878;0.4545944;-2.29994;-1.4184403;1.9020463;0.708988;-1.7112247;-0.0422179;-0.1227066;-1.5199195;-1.3307488;-0.7663995;2.7049055;0.06113465;-0.072414204;-5.286211;0.02312637;-1.6699487;3.0444217;0.68157744;0.038349416;0.42675155;0.0061010118;2.1853857;-4.4545403;0.05386846;1.8241398;-3.4586108;0.004857061;0.2094053;-0.006092189;1.3572708;-1.7440656;-0.038744256;-0.00723835;0.0117718605;1.4939215;0.7085338;-5.3863997;0.0699278;-0.0116959335;-1.226121;1.159232;-0.74482185;-0.6699097;-2.9392414;0.0041362904;-1.6550733;1.6496559;-0.0040794085;-0.0068037407;-0.7784752;1.3855813;-0.06274274;-0.32940012;-0.7996189;-2.6534262;-0.7260734;-2.0821424;0.013395327;2.9354424;0.9022816;0.023328526;0.99376327;0.010389982;1.2976909;0.17251863;1.0437639;0.97106683;0.017971283;-0.6274141;0.0035635484;2.7270334;1.3724589;-3.2921271;0.023572948;0.01403995;0.024096837;0.12313451;0.00081964844;-0.99040174;-0.027277157;0.4752389;-0.25543422;-0.5498684;0.9117668;-2.4488897;2.2284298;-3.6835954;-0.9480353;0.03190649;-2.4891152;0.056309585;-0.63218445;-1.7486234;-0.001423045;0.022893844;-3.1125078;0.0018455812;-5.7584505;0.018534642;0.03790271;2.4925065;-0.01805978;4.0913177;-2.6430368;-1.1166838;-0.0047902917;0.15511374;-6.302335;0.14044528;1.8079364;-0.0031495993;-3.206377;0.3749252;-2.7123182;0.0056691933;-0.02201693;0.01939315;0.012306009;0.36967462;0.054853722;0.12940104;-0.01595358;-1.3272774;-0.012729363;0.047383387;3.450825;-0.006627039;-3.8529677;0.9957229;0.036046103;-0.004037815;-0.016906844;-1.7240113;2.0689812;-0.16274627;-0.9517255;0.07399869;2.4974227;0.023270564;1.892886;0.46079662;-2.6667101;-0.9658323;0.0057088286;-1.5284826;-1.327331;-3.0344093;-3.5565524
-2.6856127;-0.32587975;-0.82282174;2.2538474;0.6856818;0.020478372;-1.216024;-0.20600292;-4.683317;0.01503926;-1.9602865;-1.4025834;0.013279471;2.47373;1.0953878;3.2778778;-0.062642165;-0.4061852;-0.0033713223;3.1860757;0.23254994;-3.974228;-0.11033788;3.4812467;-0.5080847;-1.1530677;-0.7380335;1.1124678;0.0269035;0.0050608376;-0.5537658;2.998928;2.0822492;0.035456922;0.6692708;-0.88214344;0.9817804;-1.3900557;2.7585144;-1.3468558;1.2294588;0.008184893;-2.1857688;1.6789954;1.5382355;1.6516763;-0.05238999;-0.45293003;-0.029515622;-0.10576226;-0.13202916;-0.02063199;1.2593657;2.1946256;-0.041405223;0.046355642;-3.8919485;-0.0022869413;0.080559336;-6.443856;-0.3481055;-0.11946459;-0.015677182;0.24498;0.08876036;-0.33192998;0.16104022;-0.67874926;0.00633854;-1.4268453;-0.64624083;1.8271853;1.9507468;0.76027167;-0.34070945;1.8496894;-0.46718505;-1.5023028;-1.557725;-0.0015190272;-0.0064468244;0.028300673;-1.3328921;-1.3781573;0.029170964;-0.6701249;1.3844553;-0.11931513;-0.018223306;-1.7746372;0.4616787;-5.42358;-0.021237928;0.073304735;0.015567881;0.72003824;-0.025157094;-0.19684955;-0.21336268;1.2112077;2.7283058;-0.031423006;-0.00022636642;4.1030655;1.3862115;-0.0061163516;-5.2204223;-0.019655053;-0.010458933;0.006890229;-0.40929917;1.9583828;-5.870458;2.1487074;0.005439319;0.38508618;0.2614173;-4.2043753;-2.8073854;-2.3943877;-0.9941852;-0.019152595;-3.6082146;-3.2524037;2.989172;0.3776963;-1.860965;-2.3079197;1.9639132;-0.016426656;0.6350384;0.74324507;0.024448998;-3.4534056;-0.037994664;0.23917423;2.8864958;-1.7754788;-4.2297106;-1.4636825;1.0991056;-0.015809005;3.0270915;3.4912088;1.4909873;-0.019379362;0.0110791;-1.3834012;-0.023817675;-1.3591206;2.4727302;-0.5302522;-0.34154665;0.019865792;2.010954;-3.8796856;-0.028919704;2.8510468;2.749367;-0.091826774;-5.449234;-0.071520895;0.9960127;1.3982943;-0.07501318;-0.022752624;-0.15070811;1.2095953;1.4157501;-0.011708329;0.002121473;1.5378549;0.018887633;0.08691465;0.6408746;1.2216285;-2.3280709;4.81643;-2.4774756;0.48227948;0.42556375;-2.446384;-3.0759747;0.8239073;-0.014897279;0.82005274;-0.0051233238;0.6357861;-3.065203;0.12014745;1.6535535;-0.518321;0.21079762;1.4842148;1.248223;0.6582121;0.022329127;-5.8498588;1.1276681;1.8757396;0.60157967;0.0028460538;-0.059973385;-0.050522406;1.206446;-1.4316503;-3.377712;-0.75079983;0.40190357;-0.0054461476;-0.8445961;-4.338951;-0.026493022;-0.024635457;-2.7678292;-1.6861203;-2.4683068;-0.76443684;-5.271633;1.3367864;0.5175423;0.35909197;-3.9758706;0.42261705;-0.047228105;3.0699477;0.98499554;0.061654866;0.013934215;-1.6587529;0.21925312;-3.8208055;0.012590312;-0.07574727;-1.4963675;2.9088144;0.61054486;-3.656079;0.028819067;1.6064724;-2.24484;1.488307;-0.18265453;-2.4577317;-0.33579153;-2.759515;-0.036216673;-5.354783;3.2411473;0.0014147619;2.78575;0.049093004;0.23631898;0.1415147;-0.009907048;-3.8719296;-2.6068459;0.09879977;4.6305213;-1.6983095;-5.4956627;1.2397882;2.2877727;1.2513491;-0.026583415;1.386637;-0.015009082;-17.192398;3.7698472;0.0016858894;-0.020390062;-1.9282733;0.6890379;-1.2682527;-0.012164349;0.78743064;-0.2158724;0.004363249;2.2399373;-0.15257247;0.3715704;-2.649152;3.2596724;1.8107224;0.025509622;1.1228505;-0.020271912;-1.8980945;-0.12825295;-0.003636512;-2.5613053;2.0878353;0.52327514;0.20834242;-0.01852808;-1.6541051;-5.674558;-6.9610124;-1.5673088;0.20212698;1.7590145;-0.04569777;-0.0030499257;-0.039406065;-0.5787636;-0.27111632;0.8939534;-0.009678079;1.79868;0.52126646;2.0950098;-1.1054201;-0.07217826;-0.88270926;1.6967936;-1.6774918;-0.22738174;-0.0038481397;0.00022799545;-0.63243127;2.822873;-0.026620554;-2.8419838;0.4544732;-0.047580946;-0.18897232;-0.0018074377;-1.209547;-0.6169924;-2.212923;-6.1958027;-0.03248945;3.0167527;0.8976447;-2.2736943;-0.015435092;-0.8183506;2.2955704;-1.8741522;-0.4550303;0.011572921;-3.4577792;0.43856576;-1.0420033;-1.2558284;-0.056721337;-0.009737749;0.043667234;-0.52869487;-0.75356394;1.9483421;0.26630354;4.804505;-1.1380905;-1.0982116;-0.8825239;0.0065070638;0.023708194;2.401691;1.1610639;1.102064;2.514132;-0.046452027;-4.075214;4.003164;0.7162916;0.028472709;3.2841072;-4.6491575;3.9016595;-0.26336113;4.058389;-0.008471326;0.008209737;-0.046946447;0.0014474846;0.0064790677;0.00013097389;-11.018812;-0.25183117;1.1267227;0.35695487;0.007847028;-1.1193807;0.019214831;0.073235;0.27769834;0.5872977;0.05925142;-4.6142993;-1.6601698;-1.0837449;3.1422539;-0.0053472994;0.27486724;-2.8582766;-0.06389343;3.4259167;-2.1469247;1.759487;-1.869378;-0.011279253;-2.5967076;-0.03416214;1.6679676;-5.189293;-3.3504488;-0.050385196;-3.3113592;-1.4569481e-05;-0.0027940387;0.019098721;2.360553;0.05274515;-0.20877631;-4.8666997;-0.75743324;0.037591927;4.699962;0.0102348225;0.30380473;2.3470259;0.21479817;-0.7584332;-3.0936382;-0.04175022;-0.014707274;0.8126411;-1.6704687;1.0908835;-0.68852997;0.15562794;-0.7128169;-0.1295109;-0.07693291;-3.790689;0.011504037;0.7089809;1.0004504;-0.02982423;-0.034690183;-1.0682138;-0.0014570276;-0.44223538;-0.0191206;0.23521933;-0.06254263;0.71253;0.00023882119;1.8588285;-3.0601578;0.017641407;2.2030494;-3.0663817;-0.040557846;0.68339294;-0.06250641;-0.51453424;-2.4595287;0.032862563;-0.034210797;0.019627403;1.1246438;-0.82430774;0.040994268;-3.157156;-0.028063333;-1.2753086;1.5043992;0.6198514;-0.1432091;0.7997474;0.06708979;0.76559776;-1.4115491;0.0029847708;-0.10019251;-1.0655706;0.25554398;0.02108167;0.89686203;-0.38331243;-2.4427361;-2.2044098;-1.2923936;0.033788443;-0.5917026;-0.996678;-0.033851575;2.2898183;0.13499041;1.3055629;2.5730114;-0.35007796;-1.4129571;-0.07058876;0.4745639;-0.0357279;3.6798337;1.5303457;-2.4876149;-0.045839418;-0.04067512;-0.07647486;-1.2623175;-0.025044098;0.7707344;0.060406484;1.1168106;0.10158668;0.83585113;-0.08824409;-2.778608;2.7051926;-4.580161;-3.8825707;0.043995418;-2.522128;-0.022816345;-0.12982933;-1.452106;-0.0064214384;-0.019082716;-2.6431317;-0.021099418;-3.9710515;-0.015353409;-0.02799714;1.7019262;-0.018949902;3.4779024;-0.9665232;-0.51142085;0.012716844;-0.0025029185;-4.3966227;-2.3165903;3.8482223;0.009329378;0.07438523;0.47828662;1.7301097;-0.0014730723;0.07940361;0.010733545;-0.009120677;-0.8106377;0.06725338;0.98380977;0.0031079212;-1.3897359;0.009707822;0.028137205;4.5704613;0.03655794;0.30653343;2.3779671;-0.93907225;-0.018450849;-0.020023905;-2.812517;3.436954;-3.20417;-1.3648075;-0.029811375;-0.62818193;-0.013166199;1.9589761;0.8911835;1.5923026;-1.6952019;0.06528228;-0.7527595;-1.1649743;-1.6580929;-1.4468338
-1.0473827;1.4997922;-0.2133881;1.1440461;2.0896373;-0.030137844;-4.2492585;-0.0130341565;-3.3261418;0.002707657;-0.9092797;-2.8507833;0.033497803;1.060352;0.6679969;2.5989196;-0.011797653;0.49663597;-0.03109107;-0.42664692;2.7055368;-0.8534233;0.15795667;2.9370196;0.7068941;-1.4136457;-2.530646;-0.6359738;0.0037353064;0.031230122;-1.2202469;2.575476;-1.4422553;-0.09197053;0.04339908;0.8050751;-0.8648898;-3.6879337;2.5818965;0.7822656;2.8002408;0.034235243;-1.2001475;0.3442271;1.8334837;1.3380861;0.00040111016;-0.5135353;0.02630486;-1.7185974;-0.6620762;0.0060155913;0.48809415;-1.8374666;0.0022872277;0.06752634;-5.318172;0.009018879;-2.0799456;-0.8331555;-0.040136155;-0.8926571;-0.015014117;-1.6022248;0.7995419;0.5774839;-0.3062467;1.6711477;1.3248222e-05;1.268328;-3.9812422;2.0863607;1.1957444;-0.1731005;-1.8984686;-0.5318881;0.8756132;-3.6950257;0.14512648;-0.031602316;-0.07391907;0.03136248;-1.8490515;-3.8289824;-0.011873076;3.6583798;1.1433748;-0.050652575;-0.004805077;-1.6575959;0.37278277;-4.5111747;-0.01758037;0.059946142;0.042205386;0.59676296;-0.03790238;-0.40976378;3.9033554;1.8789009;3.075533;-0.024966694;0.01458907;1.2686354;1.4126029;-0.029257143;-2.4167213;0.021786585;-0.02850716;-0.024297014;2.366139;-3.3892865;-6.434609;1.4864955;0.0025805393;-1.3599175;-3.5794394;-3.0159907;-2.5742314;-1.4039977;-0.22511147;0.027091611;-2.0429366;-3.0577612;-2.5765145;0.14500245;-4.2108903;-0.94981927;-0.7099023;0.018664267;0.6689522;0.9685989;0.054709624;-5.2868037;0.019123875;-0.58117056;5.241525;-1.1418408;-4.5415053;0.25229955;0.94036514;0.03151048;0.90704983;4.2235684;-0.59917223;-0.017100608;-0.040386852;0.3506481;0.04690476;0.6135148;1.1393951;-0.28937903;-0.0133226495;0.04792685;-1.4657756;-3.0671601;0.012698436;1.2468133;1.6428363;1.9217695;-6.670172;1.7788758;-2.4118583;0.5005875;0.053448066;0.023001682;-0.08134076;-0.5702169;0.8517115;-0.009482117;0.0066910386;-2.2440052;-0.042917497;0.007265551;-0.13679744;0.78456736;-2.2063727;4.2530146;0.7371603;-0.42289013;-0.0053033396;0.23755455;-3.193471;0.72612095;0.028971983;-1.443558;-0.047272023;0.79610807;-2.6498132;-0.0076982225;1.4751301;1.5334451;-0.993365;1.7778813;3.1485953;-1.1679834;-0.00014187099;-0.5680574;1.8296267;2.3335598;1.8712369;0.0074756746;-0.060666826;-0.05619151;-0.39752862;2.2025287;-2.3731263;-1.9337825;-0.5650873;0.010049558;1.1020248;1.3483162;-0.016086541;-0.037592698;-2.1262035;0.48611426;-1.9513383;-0.622749;-5.937098;-0.04993947;4.8295965;0.7975157;-1.3365989;1.5379906;0.015428024;2.5255206;4.8609133;-0.041923266;-0.049508344;0.7553089;0.048388302;-3.722232;0.010412304;-0.012879418;-0.5714121;0.4777227;-3.97673;-1.9764595;-0.11313429;1.8541105;0.06463945;0.9943946;1.3552476;-2.4045975;-0.12185232;1.3859884;1.4111074;-3.456525;3.1732554;0.0051341187;3.553564;-0.038846094;-4.5546937;-0.18790117;-0.031092068;-2.9210877;-1.280052;-0.04973603;4.64938;-2.544292;-5.3879185;4.2760415;-0.69290936;1.0981246;0.0493043;1.6971351;0.03259338;-17.988462;3.7303836;-0.0042709825;0.03670207;-1.3290808;-0.78861773;-1.3149682;0.028556613;0.60800296;1.418096;0.030560927;0.30853376;0.27234676;-3.3865228;0.95712537;3.5530534;-0.08921078;-0.02165457;-0.09675026;-0.036381282;-2.9213157;1.4341525;0.0031517611;-2.1635532;1.1861176;1.6831645;-1.4878091;0.0020417627;2.0273983;-5.4701004;-1.8938377;0.5918774;4.0144267;-1.658355;-0.007998438;-0.02212007;-0.004701365;1.2532989;0.90514535;0.8483174;0.024300352;2.149306;1.7796977;-0.7335559;-2.8192222;-0.04086484;0.90049636;1.3977547;-2.5357502;0.0874677;-0.04220344;-0.011245054;-3.4804647;1.84939;-0.038052052;-1.2153407;-5.066071;0.003985222;-2.3435516;0.015955104;1.4686298;0.06391039;1.4552133;-0.87495553;0.019563483;-0.37968206;1.5160035;-1.8535162;0.013585485;-3.5885549;1.7200979;-0.9661162;-1.2709447;-0.032831468;-2.4875917;1.5040257;-0.60269666;-0.7366244;0.022014206;-0.02261921;-0.03780313;-1.3584672;1.6857506;3.2447565;1.0490464;2.9091225;-3.5839715;2.3602855;-0.8838006;1.3083858;-0.00096568797;2.0327494;0.45503289;1.4221967;2.3350875;-0.0025501908;-4.82508;2.6257243;2.1943223;-0.031545613;1.0719119;0.564343;3.7353013;0.32846704;0.74993724;0.06193507;-0.017697984;0.008807553;-0.016718024;0.008610306;0.018433416;-10.989594;0.25828305;-0.23550622;1.4538693;-0.0016783117;1.5509723;0.05590342;-0.040411536;-2.4547098;0.072774;-1.5150023;-2.446803;-2.2496614;-2.1743295;3.047674;-0.046855718;2.5486934;-3.0569417;0.05890764;1.3012546;-0.9404694;1.5326381;-4.2680907;0.059092283;-2.6006627;0.0072412537;0.8732661;-3.9132648;-4.056712;0.12684135;-3.5738304;0.029593743;-0.0062885326;0.022395577;1.50199;-0.018083585;-2.6254969;-5.867966;1.5917232;0.006209201;3.8440793;-0.03867658;-1.0291406;3.2236683;0.6945687;-0.6326704;-1.9304368;-0.055416413;0.00015848652;-2.5548146;-2.6311853;1.3048006;-0.9313811;-0.40881646;-1.2715892;-0.11290235;-0.047770023;-4.699313;-0.68117917;-1.6821427;-0.8290163;0.05390607;-0.11646458;4.182036;-0.022511149;-2.551466;2.0896077;-0.45578268;0.048203744;0.4176636;-0.0006778725;1.8466791;-1.6737435;-0.04073197;1.1381365;-2.4411848;-0.021314016;1.4669739;0.72534937;-0.056039434;-0.074554384;-0.023271373;-0.017310625;0.041042395;2.7385774;-0.7000199;1.1599607;-1.5255096;-0.019570485;-0.46564102;-0.78101534;0.42749563;-2.9718318;-0.86706;0.0024176543;-1.873442;-0.4728339;-0.0015128977;0.035909064;-1.5253131;-1.5472769;-0.013984799;-1.723991;0.2883106;-1.9962232;-3.9396198;1.0209905;0.004699551;-0.81052375;-1.6548792;0.03723605;0.07924557;0.035208642;-1.5700372;1.8867311;-0.30152;1.0905724;-0.019323798;-1.2889472;-0.026975805;2.0819218;1.3050703;-2.4511685;0.011066726;0.02825687;-0.01671689;2.1472862;-0.04020363;0.07251539;-0.01948651;2.601863;1.6925162;-1.9954715;-1.8303386;-2.4324222;2.6101785;-4.6701827;-2.624315;0.021898044;-2.2001512;-0.01114782;1.8940837;-0.13141462;-0.029328072;0.008422169;-5.246066;0.029832944;-3.7858958;0.015953388;0.015553104;1.0510299;0.023248244;3.687312;-1.3137432;0.36501327;0.013682732;0.45232517;-4.3976336;-0.15142465;3.2728536;-0.04273925;0.7398848;-0.42399094;2.3084605;0.00797028;-0.9563305;0.016430289;0.012111348;1.8187073;-0.017055612;0.7766722;-0.0028989944;0.68800384;0.0018505325;-0.006682876;4.99173;-0.015423601;1.5176544;1.6272991;-2.8391888;-0.020420281;-0.04968918;-2.9471788;3.8086948;-4.513249;-0.76698834;0.0153351575;4.978838;0.0113566;1.4861122;3.7276595;1.2223599;0.46572265;-0.013811283;-1.5644666;-4.0165544;-1.5727398;-0.15699643
-1.5574292;1.2800792;-0.58967185;1.4146258;1.4129133;0.0118337;-3.3950305;-0.15568231;-3.5011456;-0.009355003;-0.095271416;-1.7749676;-0.050994813;2.397648;0.8008554;2.5883331;0.023929086;1.1149576;0.120860346;-0.3883102;-0.86949944;-1.2436755;0.33692396;2.4555542;0.8792543;-0.34764826;-2.7240455;-1.7072066;0.009017885;-0.011411974;-1.0663649;1.3087343;1.8519297;0.01894899;-0.047723863;0.62135327;3.4744482;-5.704572;1.37895;-0.2552883;2.5157182;-0.043751534;-1.4455931;-0.36362526;2.4274354;-2.1052656;0.018927814;1.2649318;-0.033744942;-1.3328364;0.75541633;-0.028971534;0.7143783;-0.7775606;0.00465063;-0.009526751;-2.3265994;0.03544917;-4.070288;0.9055983;-0.2062415;-0.45221797;0.018516203;2.662306;-0.043118387;1.6950204;0.17156546;1.5397155;0.117553554;1.4127408;0.39593837;1.8940783;0.5432862;-0.767684;-0.5395542;2.438235;3.5305848;-1.5691276;1.0899734;-0.031969223;0.6964737;-0.009458782;0.64269674;-1.3007228;0.034448657;1.340581;1.5563881;-0.0287971;-0.06147304;-0.12763923;0.5634091;-3.9900498;-0.03615714;0.34044254;-0.0011819309;0.7379518;0.010599943;0.11480081;1.4682994;-0.103563756;0.29105067;0.09650563;0.011841549;1.9587212;0.35512462;-0.011874886;-2.479788;-0.006878894;0.04840763;-0.23759893;1.2120475;0.43474635;-2.5368114;-0.5426349;-0.048793793;-3.401415;-1.3823702;-3.282374;0.7256801;1.6639963;-0.21645872;-0.024746414;-2.7308755;-2.4402504;-2.108064;-0.40087026;-2.3593466;-3.0919082;-3.0377517;0.006463029;0.8750801;1.9684993;-0.017001873;-3.2645714;0.040894847;0.4357273;0.8420377;3.2209058;-1.7834773;4.380131;1.2402668;-0.0010896818;-0.71310234;4.656516;0.14217392;-0.017584274;-0.03251837;1.6994845;-7.9243335e-05;0.34593615;0.015722383;-1.7587419;1.4015496;-0.022749608;0.76045895;1.4956714;-0.022010589;1.1667597;2.2364798;0.7678213;-3.2795694;2.4970703;-0.18934545;0.9983813;1.7951938;-0.017007241;-0.11325968;1.3414413;-0.37298992;0.039277997;-0.02219932;-0.76687735;-0.038854998;0.12004447;-0.03106046;-1.4430306;0.7962226;3.3492854;-0.80101496;-1.4203452;0.9139666;1.6318103;-2.3684132;0.8717349;-0.052004177;-1.8008822;-0.0032949154;0.5623126;-2.7227387;-0.44903082;2.3538215;1.4970677;-2.6348965;-0.41991928;-1.7455685;-2.3677273;0.053379156;-2.182641;2.8538253;-0.50892997;0.12165526;-0.004627396;0.099158436;-0.014763897;-2.862678;0.9249425;-1.5326335;-3.0452518;-0.013801777;-0.026312716;3.5536664;-0.34254622;-0.014020608;-0.0019911863;-0.4870092;0.9702235;-2.311961;-0.76281923;-4.15572;-1.5766069;4.185836;0.097770385;0.7857544;0.25739843;-0.057143066;2.4572918;1.8365172;0.05585697;0.0071431133;1.1762614;-0.09596618;-1.2503576;0.03923427;-0.0049189753;-0.6950653;-0.07670206;1.7917082;0.77768457;0.046179205;1.024047;0.43588632;1.2340847;-1.4264852;-2.1831613;-0.058452707;0.57539845;1.9886863;-4.9973183;2.9318032;0.009248315;1.4970784;0.038395118;-2.56209;-0.034292623;-0.028276635;-6.705528;-3.785135;-0.0037831797;3.8346713;-0.54774076;-2.3804412;4.036823;-1.9715979;-0.39210147;0.02218618;0.011326901;-0.024143765;-18.218277;3.2784064;-0.019054655;-0.014959647;-0.4924422;-0.6665909;-0.93416363;-0.03949955;-1.9272449;-2.1296034;-0.015333567;1.8315973;0.6564675;-3.0720942;-0.03734602;1.8438941;2.951917;0.035703838;0.67971724;5.5929428e-05;1.749464;2.0441308;-0.04432224;-1.856947;2.0871868;-0.36966434;-1.6570852;0.023336155;2.5900836;-6.51406;-4.9744864;2.299785;3.5578876;0.38019246;0.005909536;-0.027231218;-0.005970805;-0.74459606;0.25764984;3.7808497;0.03363171;2.158555;2.229642;-2.0368555;-1.8047465;-0.031967983;-1.458978;-0.94857496;-0.7469923;0.20667338;-0.021612199;-0.00822299;-2.8813958;-0.260909;0.015139484;-0.69167405;-3.0222135;-0.009563675;-1.0149623;-0.015024988;-1.0910686;-0.84304523;-1.1287282;1.3441933;0.07652418;-0.8304962;-1.0176052;4.0163445;-9.396942e-05;0.17949806;1.8757379;-1.2598312;-0.2912852;-0.021110946;-3.5848427;2.3602498;2.566554;2.127274;-0.07854942;-0.030064689;0.012375607;-0.22732063;0.8593244;2.2625947;1.7919677;0.8643046;-1.8111793;3.0380616;-1.3636186;-0.061510395;0.036644153;-0.47979155;1.3633454;0.5319445;3.1341677;0.08998457;-1.3443053;3.3053417;0.19347866;0.008224996;1.2412521;-0.34006494;-0.37814653;-3.295813;4.756042;-0.013132076;-0.025105562;-0.0016579751;0.0015909558;-0.017781533;0.005239209;-10.984906;-0.20498435;-0.045590825;-1.1348786;0.025691528;1.2250104;0.0038397128;0.074849874;-3.0630004;-0.14499417;-0.0047585363;-0.33380207;-2.705247;-0.23691817;1.839917;0.0014366154;1.7625631;-5.44877;0.007978137;1.4873174;-0.42744854;0.7136878;-1.7259697;0.011211715;-2.1974585;0.031480517;-0.49724403;-1.6572051;1.0720391;0.40419635;0.075166464;-0.017035292;-0.0011308336;-0.015212042;-1.525784;0.014918073;-3.5535493;-5.0893354;1.4890593;-0.033365037;2.4992933;0.031002251;-1.0185547;2.2706714;0.09916977;-0.5864416;-2.75718;-0.0017388752;0.012370882;-2.7079375;-0.79792356;-0.7615313;-1.285422;-1.9728996;-0.032470666;1.1740787;-0.06498412;-4.694446;-3.5176735;1.0982974;-2.5056279;-0.052837126;0.13676849;-1.1467439;-0.013596345;-2.0457318;3.9206011;-0.6176808;0.034989554;0.41878024;-0.033754956;0.41788825;-2.1067812;-0.03812062;0.1442437;-1.458276;0.022174943;0.6287111;-0.16942638;0.41935676;-1.4564236;0.007622481;0.02856493;0.026289236;3.7807744;-1.5639633;1.3203979;-0.6608884;0.022329908;0.6946245;1.776311;-1.5213317;-0.8902876;0.49445674;-0.04542763;1.1730744;-1.2637701;0.013821576;0.014869737;1.8080221;-4.5587926;-0.02609636;0.9627985;-1.1390139;-2.2206957;-1.1554378;-0.8241254;-0.019341601;0.089344256;-1.3453377;-0.036069307;2.615986;-0.062257584;0.06666376;0.9895436;1.0288316;1.1744225;0.04044941;-0.116014585;0.0085609155;-1.423896;0.6416332;-1.8624457;-0.002819364;0.031133143;0.028432986;0.6597686;-0.029023271;0.89289826;-0.05489761;-0.31959036;0.045662597;-0.26090688;-2.4527426;-2.2670453;3.0780053;-3.3315675;-2.1995728;0.0019299447;-1.9743253;-0.0035604557;2.100266;0.056826487;-0.012394533;-0.037362825;-3.13912;-0.027216975;-0.99971944;-0.02828036;0.0052181636;0.09550237;-0.015514616;1.7327921;1.1524694;-1.4549384;-0.033784017;-0.73577857;-0.4267851;-0.753436;-1.9253697;0.2379176;0.7757238;0.36824718;-0.082996614;-0.015804786;0.92391264;-0.027963571;-0.049256187;0.40644997;-0.031504653;2.2016747;0.0031024553;1.800929;-0.0076142345;-0.0035066039;3.1285055;-0.03418062;1.0590802;1.1195681;0.79833317;-0.009629587;0.0036209903;-2.7810528;2.2921236;-3.3095925;-3.169421;0.0019184756;0.9832247;-0.009367654;-0.63986963;2.3400862;1.3144801;0.517724;-0.034323376;1.2444259;-3.1045868;1.5549965;1.8467749
-0.40983182;0.86114496;-0.5174662;0.8918496;-0.023722777;-0.045018926;0.050645497;0.11305072;-1.3938621;0.007403588;-0.4342017;0.78504413;0.05248143;2.6335115;0.39628804;2.4495876;0.018241666;1.5679594;-0.04692408;0.01058263;-4.25019;-1.2863595;-0.066046715;2.2320366;0.3405155;-0.36227494;-1.5705702;-3.0786445;-0.018361274;-0.0031516058;-1.1714804;1.2122838;-2.458048;-0.01133261;0.008706944;0.9230837;1.5919259;-7.308287;-1.245971;-1.4410021;3.7578197;0.017998498;-3.2852657;-1.0809032;3.3285894;-2.2597353;-0.073230416;0.8548578;0.24569678;-1.3821137;1.0040898;-0.035447706;1.5360819;-1.0285038;-0.0155356135;0.027103242;-0.6914023;0.052125752;-5.5329576;-1.6193107;0.16738346;-0.048574056;-0.055081137;-0.5744249;-0.823181;0.8245456;2.494612;0.35840136;-0.016498806;-0.64493585;-3.1542947;1.9014018;0.70105225;0.24284421;-0.016523944;-0.001129262;1.481569;-1.7923571;2.2024562;-0.02533526;-0.1772214;0.007333691;0.96179974;1.1793332;0.054236945;0.82918036;3.1842585;0.055189144;-0.017287012;1.9943575;0.9821073;-2.5426924;-0.048382208;0.6059839;0.0046418565;-0.3825515;0.023718232;-0.014312528;-1.3662834;3.2144053;-2.847733;-0.07049204;0.033213668;-0.28551975;-0.19268112;0.03576863;-3.2733016;-0.029641306;0.03996989;0.9299966;-0.31198654;-1.3329071;-4.2212505;-1.0775509;0.074954845;-2.2005277;-1.2565587;-1.2387354;-1.3722755;-0.4556631;2.2504647;0.016056301;-4.4437537;-1.0594605;-2.4653869;-0.36943576;-3.5369916;-4.3842564;2.1896386;0.0036631422;0.63696784;0.55555004;0.046357993;-1.8167348;-0.08180675;1.8802679;3.047716;2.9854605;-1.3327483;1.5863706;1.1939803;-0.0027269258;-0.06468927;2.5481248;1.0613666;0.04665103;0.010704066;0.49888355;-0.03490863;-2.6084428;-2.606024;-0.8493905;-0.45470908;-0.02329542;-0.57167053;-1.74144;-0.01965196;1.0971699;0.528973;0.7138811;-1.8346931;-1.612087;0.9026158;1.246597;0.5937502;0.025736684;-0.13894339;-0.91174734;-1.625498;-0.025084585;-0.0056468807;0.5372527;-0.07090126;0.069322415;0.010085665;1.0530357;-0.96429956;3.1164565;0.2504071;-1.4066216;-0.6837166;2.1432672;-0.9492246;-0.25005215;0.036642984;-0.28180242;0.010978279;-2.2342658;-2.9234755;-0.7553125;2.6723936;1.5199207;-2.586365;1.701013;-1.3391464;1.0813422;0.03083554;1.1042233;0.31356704;-0.5396332;-0.17949426;-0.013241765;-0.043946322;-0.006830775;-0.36893705;-2.570441;-1.0060786;-1.9431837;1.3864493;-0.007992728;0.16682996;2.147959;0.06865002;0.0032846387;1.0630664;1.9824747;-0.80339944;0.22399724;-6.0914187;0.16764495;4.2635984;-0.67070204;1.4826237;-5.0247293;-0.016090704;-2.5884404;0.2646841;-0.023895899;0.01913892;-0.19320272;-0.492842;-0.7607133;-0.098458424;0.021774162;2.241565;-0.82731557;-0.39591086;2.4894197;-0.040269803;-1.1716044;-1.1447791;1.5519085;-4.785816;-2.4829211;0.03097763;2.0159402;2.636036;-4.1797624;5.313607;-0.0633481;-1.373579;-0.0060209264;0.5202737;2.0083346;0.011267082;-5.8557944;-3.6058395;-0.031840418;3.4751403;-2.3545716;-1.9442216;2.0082016;-2.318065;-0.5947214;-0.05495078;1.7063118;0.021958465;-18.386345;-1.6743169;-0.00015554635;-0.019068277;1.7569875;-0.42996657;0.439284;0.017445797;-3.5171337;-1.4738919;0.07420696;1.6701418;-0.14056174;-0.8610171;0.46985543;2.6558626;-0.34788468;-4.859457e-05;-1.9676815;0.07547424;-0.60914916;2.5454721;-0.002209992;-1.1148752;1.225445;1.8634541;-0.81433505;-0.00043234203;0.95976603;-4.3959317;-0.673122;1.866504;1.5475551;1.4743136;0.009629956;-0.06685665;-0.008396106;-0.57604444;0.3430995;2.505413;0.024480771;2.6142545;1.259289;2.0064807;-0.38423517;0.038639735;-3.8921268;0.92141825;1.4521034;1.3720925;0.0042890455;-0.022006905;-2.3725479;3.171197;0.028680893;-1.8261707;2.1203454;-0.02128866;0.44268242;0.0103620095;-1.9197923;-0.16948283;0.43795764;1.4680247;0.01828853;-0.4693306;1.5446306;1.8745619;0.085857995;-0.45671907;1.4591849;1.1521742;-2.1079051;0.03302844;-0.92444175;1.2566215;2.5154583;1.2301806;-0.15401831;-0.0066804513;0.005952953;-0.07748572;-2.1324582;6.2064486;2.4166136;0.7316918;0.1335582;-0.026186759;0.046630267;-0.19814427;0.034870576;-1.0386335;3.6483958;1.2323227;3.9341512;-0.014910432;-0.3292419;1.5340879;2.604195;-0.035791542;-0.38967857;2.867512;-1.4438337;-1.0219405;3.1849096;-0.009967731;0.068509616;0.072466396;0.008085011;-0.016340906;-0.0031398097;-9.365724;-0.13569206;-0.11684179;1.7165186;-0.04740744;2.2044902;-0.010866103;0.07978477;2.2447984;0.10079189;0.56410617;-2.4936001;-2.5313563;0.72358155;1.5100219;0.012271544;2.221568;-3.969613;-0.009533604;1.7134511;2.1948032;-0.87497276;-3.4863095;0.022430623;0.37080315;-0.027261483;2.2440884;-0.5326437;0.5351354;-0.032268412;-0.389166;-0.02222416;-0.034944646;-0.0070286863;-1.9616967;0.04371166;-1.327127;-3.2537549;1.5184762;-0.018997574;0.9816867;-0.042088877;1.1776737;-2.7466977;-2.0069551;-1.0144746;-3.1070576;-0.021882571;0.028993806;-2.0291834;0.0960627;-0.06472846;-0.76519066;-2.5766838;3.9054153;-0.3109564;0.0024428873;-4.2160277;-1.821991;1.7463206;-1.5589643;-0.036564354;-0.087781556;-0.871203;0.009718469;1.6092747;-0.57914615;0.7309689;-0.018033708;1.3200399;-0.019110734;-1.4150287;-2.9202955;-0.020477178;-3.5247195;-0.14255542;-0.010393498;1.1790005;-0.0045795264;0.2732353;-0.6191652;0.0064140074;-0.068716384;0.00025771523;2.7389774;-1.3148633;1.9274706;-2.3562348;-0.010376438;-0.2800336;2.206911;-1.0523039;-2.9671898;-2.0726342;0.007809829;-1.1876659;0.45687014;-0.016886542;0.067059755;2.1705174;-1.5180773;-0.024670865;-1.6635789;-1.9075046;-2.5117283;-0.64883494;1.284885;-0.06214464;1.3909621;0.60100186;0.05631111;0.11083887;0.450982;-4.5015006;-0.25172642;0.50337934;-0.19520155;0.014287119;1.7515293;0.12664503;-0.5810174;3.3005307;-2.3636696;-0.024556927;-0.026414704;-0.13954766;1.059307;-0.0042939885;-1.34843;-0.031871058;1.858442;1.4375628;-3.0902956;2.178263;-2.1157353;1.5443256;-2.865214;-2.9924142;0.0013769458;-1.8012936;0.017413758;-2.2722223;-0.35952818;-0.021484897;-0.010642353;1.0860906;0.04581401;2.2149744;0.0136475805;-0.039248377;-0.6940924;0.022117324;0.7950333;-0.053349625;-4.118026;0.020715931;0.16760266;0.4190285;0.1275292;-0.2145638;0.0028132352;-1.943936;-0.28345102;2.4604812;-1.7979692e-05;-1.6271129;-0.03257033;0.036526926;-1.7588001;0.06875406;-0.44742084;0.033468086;0.9684658;-0.036608785;0.014259119;3.6963968;-0.024954172;-0.21590078;4.756734;-1.3034816;0.011809978;-0.017425388;-0.39093316;-1.9578571;-1.8842653;-3.3036017;-0.011402732;2.6043692;0.027008833;-1.958393;0.6435606;-0.96666044;0.8930155;0.014781008;-0.6231052;-0.76218015;2.9391615;-1.1648399
0.22643653;2.0018048;-1.7734658;2.168012;-0.46652257;-0.021270977;1.1040007;0.04817668;0.731509;0.010790656;-0.0007705427;2.2389977;-0.02730544;2.1155155;0.05208464;2.099835;-0.041900318;-1.3257407;0.012253993;-1.452294;-1.0441438;-5.8692617;-0.06194553;3.503266;1.2454344;0.032764006;-3.2270205;-0.21556835;-0.026787741;0.020716965;-0.5948503;-1.7151278;-0.5883628;6.347727e-06;-0.04293789;0.92090714;-1.0170743;-6.922841;-2.5759838;1.1390417;2.386396;-0.03651966;-3.1216736;1.9129553;3.0804482;-7.0492463;0.32888588;-0.9232475;-0.07618454;0.52755547;-1.927937;0.0028646532;2.2976243;-1.8362848;-0.028563492;-0.03754629;-1.6787319;-0.023587964;-3.5236578;-0.36267397;0.18844782;-0.92934793;-0.00796076;0.20946608;-3.1395464;1.5071799;3.828691;-2.442336;0.10476643;-0.41202268;-1.509071;-0.4779748;-2.6413877;-0.62386906;-2.6224988;-0.1124268;-1.7067072;-3.9552386;2.1908822;0.030891344;-0.07540593;-0.059284396;0.9661554;1.3752496;-0.097195;-0.9381652;1.0463309;-0.06100055;-0.04901843;2.142363;1.0192821;-3.3121862;0.05404535;-0.12459227;0.03598633;0.38078377;-0.0068678125;0.059993565;-3.318562;1.5919213;3.2327816;0.015873324;0.008909821;3.2868063;0.34585124;-0.006957054;-4.2134914;-0.03162777;0.02435345;0.06513136;-0.8001796;-2.8114548;-2.7759552;-7.480073;-0.02612894;-2.7219567;-1.1356674;-2.3188505;-1.0915151;-3.892956;0.07200156;0.023235861;-5.277222;-1.2593741;-1.4108714;0.012812054;-0.8151805;-4.509832;1.9642531;0.00284857;0.44936007;0.08972822;0.027569355;-2.7933211;0.8422438;-0.21761057;1.512896;3.5160728;-1.8506899;1.3913243;-0.17660135;0.027018012;-0.16793925;1.6340581;0.7306244;0.0005700067;0.0015907253;1.1106992;-0.042512808;-2.6241238;-2.3896496;-2.3213396;-0.60691905;0.0067507355;0.07178145;2.4888809;-0.0019604638;0.4215617;2.4771447;1.3073746;0.31964982;1.450837;-0.37731063;0.94419825;-0.9813834;-0.034925148;0.14714143;0.19143516;0.6766163;0.0049796468;-0.021696562;1.1454707;0.7089451;-0.07492203;0.010369953;-1.1359919;-0.9220696;4.797844;-1.4890721;-0.5714709;0.28199965;-0.53960085;-2.1866555;-0.7036646;0.015938697;-0.2792964;-0.018892204;0.9214752;-2.857426;0.88889486;1.8354198;-0.7230136;0.45289618;0.33672574;-2.7078507;2.2134027;0.032778658;0.66688204;0.13511206;0.040847845;-0.15903008;-0.011465773;-0.002513054;-0.016122611;0.10839594;-1.7105222;-1.7984216;0.60764116;-1.8231007;-0.0026997572;-1.3117467;5.8034687;0.035572607;-0.023263166;-3.0559053;2.367323;-0.057837155;1.9722285;-2.691488;-0.3116111;1.3755772;-1.0918843;-1.0245144;-1.765949;-0.013823701;-2.6877115;-1.9660225;0.014188927;-0.058180243;-0.27436155;0.29185206;-1.485089;0.034762695;-0.04556507;0.7896484;0.9178988;-0.4295904;1.05101;0.043798696;2.034575;-0.41144618;-5.2746835;-1.8968643;-0.8069936;0.021709243;-2.166634;-0.3338625;0.63056695;3.951748;-0.007246498;-1.0281363;-0.03453225;-0.6408549;1.4751356;-0.02408532;-4.7922373;-4.074898;0.052585687;3.411424;-3.606326;0.88437915;-0.06126079;-0.9930389;-0.24380182;-0.002823611;0.8800627;0.017764509;-18.919218;-0.70102954;-0.062438313;0.005451462;-1.3965478;-4.592303;0.47047326;-0.0068785897;-0.6521686;0.6776072;0.003074635;-1.3682411;-0.070594706;-0.5566157;2.364974;3.4740937;-0.40432253;-0.020041168;-0.09938047;-0.00023982947;1.152118;-2.1396484;0.016282478;-0.38958758;2.2061427;1.6124941;1.8877001;-0.0133624775;2.5167663;-4.469119;-1.7448385;-1.4576567;1.4011276;2.2153618;-0.020731043;0.059218857;0.007976955;3.0549421;0.5373677;1.6060082;0.05099533;2.084582;-0.75211364;-1.8973414;-2.6860292;-0.027166937;-3.0600023;1.5257862;0.35406825;-0.37002212;0.4060181;0.049571462;-2.7226202;2.3103323;-0.0057918453;-0.38926488;-3.8055005;0.010767259;3.3623915;0.04285899;-1.3502012;-0.40358216;1.6405059;0.3969693;0.01749307;-0.47314474;1.2260283;0.054242134;-0.08878087;2.9805572;0.24964096;2.5434146;-1.2983872;-0.00999283;3.4334362;5.0896034;2.7064269;3.7892773;0.96176237;-0.03063769;-0.021635972;-0.52826536;1.158522;5.4633856;2.6451576;1.2221355;0.4392344;3.488031;0.63291335;1.4012755;0.0003215088;-6.015323;2.0404475;1.5055112;1.8913375;0.016995149;-1.7584996;0.41451165;-0.114592195;-0.084911816;-1.6749166;1.2609631;-2.4021327;-0.7707024;0.45204207;0.042430177;-0.0837941;-0.017701237;0.0428603;0.020571584;0.058756787;-7.6373487;0.3744575;0.00517321;0.6697075;0.02700379;0.39825457;-0.02399915;-0.06851198;-0.16228336;-0.26266944;1.649818;-1.547139;-2.1483033;1.4167472;-0.6201051;0.04721386;4.053513;-3.6148264;-0.02523709;2.2550473;1.8139317;0.41201764;-3.0846791;-0.034941107;1.250813;0.032876242;1.7054459;-2.1527252;2.4293547;-0.07263924;-2.0882769;-0.01334085;0.01638958;0.030134628;-0.2330543;-0.036844775;-1.5801413;-1.940785;1.2492157;0.009031351;2.138952;-0.012644329;1.1700617;1.383298;0.19019653;-1.0456083;-2.2426505;-0.011351876;0.017655207;-1.8473823;1.151141;0.01814956;-5.6043553;-0.1279207;3.748793;-0.14440207;-0.021855578;-4.7294555;0.3796846;-1.469633;-2.3783572;-0.0004833729;-0.053110383;1.1373369;0.022128493;-4.5068088;-0.89985424;2.6308286;-0.05125565;2.7522492;0.015502196;-0.15900335;-1.026025;-0.027611226;-0.12847362;2.7322927;0.048717674;0.029499656;-0.03142813;-1.4612021;-1.0401105;-0.047455452;0.013586016;-0.016597647;4.1055856;1.894219;1.1882439;-1.8852311;0.074543044;-0.9168524;1.179941;2.0295238;-0.20373212;-1.1767128;-0.040337846;-1.9381298;-2.8259442;-0.011757653;-0.021875639;2.3651013;-4.382701;0.0063130055;-2.4037452;-2.0545864;-1.5322204;-1.2327819;1.5872016;0.029211026;1.7576191;0.32025674;0.025046363;2.2302163;-0.13251135;-4.22333;1.7021843;2.6911435;2.0849452;0.010290208;2.885969;0.030038018;-1.1114451;0.13267612;-2.6287413;-0.031103719;-0.011978861;0.7605037;0.40600604;-0.012875433;-1.3721261;-0.045394577;-0.83276564;-0.124786824;1.2628475;1.7521809;-2.6148713;3.65929;-2.3395836;0.54292387;0.14314474;-2.0219858;0.019002518;-2.7481067;-2.0350833;0.053730384;0.01227016;0.91692084;-0.004060652;0.41149044;-0.038114496;0.005586445;0.14929518;0.023097977;0.13093;0.8791209;-0.58330065;0.022913942;1.9121499;0.8016696;-1.5004463;0.78044665;-0.029746652;1.3262463;0.7611274;0.06282327;-0.038025938;1.2429932;0.028642856;-0.020346591;1.2342263;0.014621914;-1.1483698;-0.0519761;1.4426326;0.061412785;-0.006744138;2.9054828;-0.003587898;-2.613087;2.186858;-2.9058847;0.021411836;0.03970358;-1.104246;-1.547821;-0.4588907;-4.1820707;-0.03696564;-0.3336874;-0.0073720533;2.3178065;2.9895618;-0.20561613;3.593526;-0.010956432;-2.7690153;-1.6267322;2.856216;2.3934271
1.7263298;3.015744;-2.2878218;2.4712362;0.8121235;-0.0041569793;1.2830206;-0.10517226;1.971631;-0.0021889978;1.2531544;0.016272277;0.025229087;1.2160699;1.5881974;2.6317153;0.0014746084;-1.470271;-0.018812012;-0.111738816;1.2484576;-0.14979678;-0.35258287;2.9647949;-1.3165634;-0.8149351;-3.3642058;0.6184976;-0.022056036;-0.0012909891;-0.6653688;-4.2595253;2.8679512;-0.037577722;-0.0053648134;-0.8525773;-1.8640099;-0.6367284;-0.19719574;-0.0027088872;-1.392899;0.015857961;-1.6722586;0.87890124;0.88888127;-6.803101;-0.08826339;-0.05108326;0.06459207;2.2165291;-0.4126144;-0.0522356;3.8432834;-1.7563987;-0.01798928;0.04700037;-2.4599226;-0.0048341323;-4.2302036;-0.43674782;0.16327251;2.5058777;-0.0071633416;-1.1016619;4.9209104;1.6866621;0.1171828;2.7431574;-0.0641795;0.33216602;-0.9095736;0.02198784;-4.4353986;1.3310666;0.94375694;-3.1448953;-1.594856;-1.7278991;2.4292767;-0.08515756;-0.098219626;0.027810393;1.6139135;4.480815;0.08040149;-0.26187015;3.4519281;-0.04646042;-0.090269245;1.8343138;-1.1104102;-3.0422966;-0.058604375;-0.06526228;0.011758694;1.5032052;0.012420972;-0.041038018;3.661971;1.4633194;3.137506;-0.029024886;-0.020390967;3.5641239;2.8421018;-0.0009702275;-1.8586816;0.04496586;0.029520053;-0.18916325;0.8849559;-1.5012133;1.8289404;-1.302954;0.0019081025;-4.506289;-2.112442;-0.6022651;-2.0589616;-0.90784425;3.2396097;0.009009387;-4.452984;-0.49575585;-2.3859446;0.8678607;-3.0938272;-4.485146;2.4562957;-0.019565037;1.7769445;0.530619;-0.06806349;-2.9687743;-0.14988872;-2.7092187;0.05938314;0.8648687;-1.0151926;1.944791;1.2300421;-0.04668564;-0.31705025;-1.4913884;1.1412103;0.006636472;0.04273588;-0.06882639;0.00927259;-1.3955061;-2.6301255;0.10037196;0.25373423;-0.0007615382;3.6185458;-3.1844351;-0.031104429;-0.49501905;2.111216;-0.55453;0.19038;2.9033396;1.3790035;0.3052302;1.6352715;0.007157389;0.10838589;-1.2253143;-0.5973577;-0.0067269932;1.0798686;-0.087502204;0.12398295;0.1541265;-0.029913705;1.9861128;-2.2898033;5.3313785;-1.7751076;-2.9842424;1.6961699;1.3196324;1.0676711;-2.534638;-0.015291323;-1.3122691;-0.04891289;0.41393828;-2.5944912;2.115634;-1.3094729;0.21868853;3.203362;0.32148793;-2.3806586;0.57870114;0.0056795855;0.57155174;-0.23608463;-1.10896;-1.286807;-0.0015828849;0.0005656368;0.011264351;-3.5960042;0.69068515;-3.1274292;-1.525856;1.2059042;-0.024055732;-6.53679;4.00381;-0.028991776;0.05689144;0.010747837;2.1705794;-0.0681333;2.9462316;-3.058402;2.1844993;2.3591185;-0.042365406;-0.4327887;-0.45473075;0.04611854;-1.6210752;-3.156143;-0.01198579;-0.03661636;-0.30446768;0.27956682;0.012996876;-0.0031305014;-0.017652761;1.7237471;1.1471549;-3.316503;-1.9064604;-0.08762143;-0.1342485;4.319284;-6.508856;-3.8165307;0.20537671;-0.030466931;0.059304334;-1.3427798;-2.9074304;3.464518;0.012981795;2.4155972;-0.043162864;3.5537593;-0.8335728;-0.03917022;-4.721531;-4.076045;0.03499632;3.0358994;-2.3554013;1.2442962;0.9581357;0.25304088;-0.19194955;-0.027719356;0.35361153;-0.014512067;-19.337667;-2.288909;-0.02168357;0.052539494;1.4230468;-1.3939016;-0.68595123;-0.01009271;-0.37794688;-0.022231951;0.018588502;-2.970939;-0.020323982;0.53154963;0.9118496;1.8532208;0.8019596;-0.024488125;1.2228906;0.0012329593;-2.8718617;-0.9527166;0.012357037;-0.6156412;2.1718123;-1.1650653;0.4376366;-0.006862558;-1.873972;-1.4229273;-2.920945;-0.86980116;1.0408827;1.6382165;0.013011534;-0.049952686;-0.0826221;4.7342896;-3.2698483;1.1149361;-0.030899918;2.5266416;-0.67778546;-3.1247928;0.045902975;0.0133838225;-3.2647781;2.0751994;2.0221376;1.3743643;0.10960352;-0.040605616;-0.88866824;2.6124458;-0.009622079;-0.118250825;-0.38248467;-0.03970639;0.10689511;0.9714625;0.62336826;-0.69947344;-0.637357;0.27724975;-0.004681417;-1.0665227;1.7745116;0.47897983;-0.016451161;3.9549565;-0.3618937;-1.5907875;-1.2111912;-0.04827508;1.2720877;5.8118477;1.6705236;3.294501;-0.1091182;-0.08085644;0.002440455;-3.4879127;1.7323785;1.3897492;1.1017624;1.6349453;1.050183;0.8109258;0.7092209;2.2795577;0.06823807;-4.3580327;1.1733546;2.0745516;1.6723548;0.0021238725;2.4647331;1.8689247;0.78302157;1.1169753;1.0929469;1.5470936;-0.38700947;-4.12812;0.049789913;-0.013464387;0.07744737;-0.030896746;-0.016284747;-0.00638148;-0.010905254;-7.4129195;-0.079556786;0.019190464;-0.030763987;-0.06985442;2.2033458;-0.030649235;-0.049198393;-1.7762313;-0.29878736;-1.6043977;0.6923957;0.5306259;0.80081177;0.11903226;-0.0010780473;1.1245059;-2.040621;-0.049434673;2.1171234;-0.26759052;-0.05113592;-5.541183;-0.028923629;-1.720809;-0.02933846;-0.27102768;-4.0303783;-0.8900876;0.055683162;0.8761622;-0.061788704;-0.0040035485;0.024845634;0.61627537;-0.05188353;-1.7426745;-1.5031021;1.2815131;-0.031107817;1.9311824;-0.019687308;-0.3465092;-3.403431;1.1820085;-1.4566317;-1.2437263;-0.0044198423;-0.00018406508;-0.55413705;-6.456611;-0.1072839;-3.7435203;-0.0001762123;-1.4872159;-0.083384804;-0.008538772;-4.9241643;-0.3632648;-0.33898407;-2.5629985;-0.0011378402;-0.04334348;-0.86064863;-0.049775057;-7.6362977;-1.396304;0.33977625;0.061389558;0.14256774;0.017501937;-1.4081023;2.3758032;0.009143478;0.6972375;1.3833786;-0.022687709;0.14127663;-0.058956638;-3.2707996;-2.3060749;-0.005483308;-0.01859324;0.002617744;3.2118535;3.4256756;6.158195;-2.7395294;-0.030602185;-0.82777697;0.03831091;2.2775214;-0.07980113;-5.098551;-0.024717562;-3.8428037;0.102178454;0.01846245;-0.05960688;3.8891397;-3.6679184;-0.044360023;0.24853675;1.0229192;-2.4955676;-2.7882905;0.40957984;0.03837343;-2.1108572;2.048658;-0.012229447;-0.15917231;0.023131277;-4.871817;0.7804549;3.9027512;0.8856955;-0.051649045;3.3337245;-0.051663116;1.612111;0.9527933;-0.5621724;0.040295456;-0.01462068;-0.007895619;1.8707719;-0.034857187;-4.1716166;-0.23532566;0.37395385;2.1938627;-1.373917;-0.3795248;-1.6978103;3.7425337;-2.7821963;3.7778258;-0.052881673;-1.7608559;-0.0057400237;-2.5546515;-0.7786455;-0.022480274;-0.043780763;-0.6440455;0.009362195;-2.672167;0.040506333;0.00806888;-1.1084518;-0.040749926;0.6326716;1.100231;1.3510988;-0.012871715;-2.1308255;0.17373279;-1.7321575;3.8112009;-0.07010575;1.8139005;1.413055;-0.9213202;-0.032408047;-0.75234556;-0.02124503;0.029037872;-0.5913483;-0.11365096;-0.10329364;-0.020331692;-1.5857983;-0.05214904;-0.005086268;-0.12197254;-0.015818717;-2.6384218;1.2835377;-1.5800334;-0.051245224;0.006621343;-2.770979;3.2552645;-4.544069;-2.1334271;-0.022782065;0.8523668;-0.0006809798;0.8767122;0.67400545;1.7152239;-0.5119435;0.02595537;-1.181312;-3.2435474;3.0977595;0.1924419
1.2848;2.1607196;-1.9294022;5.3695498;1.7584994;-0.02029769;3.3593876;-0.014138386;0.58899486;0.04060915;3.698924;-0.5667438;-0.019268874;1.2785043;1.0914652;3.2662895;-0.019148149;-1.6485164;-0.0131083345;1.1593289;1.3819289;0.1996303;0.060230214;2.8068078;-0.59488773;-4.3499093;-3.739518;0.48939237;-0.043729585;-0.014321954;-0.59041756;-0.5894953;-0.4335035;-0.019969087;-0.011725091;1.7113069;-0.08956953;0.2586534;1.0779414;-2.15291;-0.1016273;0.026123662;-3.9015362;1.2566087;2.0643392;-2.6957245;-0.068107665;0.34180716;0.02302078;1.7304796;0.6491627;0.028727703;2.4088264;-1.4500462;-0.00014951629;-0.019738125;-0.91396415;-0.019692102;-2.913587;2.0432699;0.28759754;0.9970368;0.0042608124;1.8186742;1.8335837;-2.527654;-1.6767257;-1.2091931;0.040171646;0.93658096;2.4245207;1.2125362;0.13191457;-1.3731953;-0.91382223;-3.1046765;-1.0864646;-0.8807727;-2.3352153;0.031011127;-0.069242366;-0.008745486;0.78592813;2.9718914;0.14763224;1.028348;4.640324;-0.071836665;-0.06546051;1.4325037;-0.8317372;-1.4870911;-0.030767772;-0.20768376;0.009101921;-0.37174326;0.00938664;-0.11604831;0.77386117;1.5957028;1.7446339;0.011556606;-0.002524682;1.8469199;2.0635877;0.0129886335;0.7126806;-0.008431881;-0.031884003;-0.09491227;0.48115048;-3.6570897;-4.069751;1.8955015;0.02182615;-1.9139713;0.30400264;-0.8169395;0.15816788;0.0969823;-1.5476142;-0.028287156;-3.1737435;-0.76712024;-1.8353963;-0.4004792;-0.47629687;-2.5313075;2.5722384;-0.028776648;0.21348003;0.63070065;-0.0077217617;-3.0204954;-0.06772152;1.8052032;3.1204484;2.4683943;-1.0564352;1.65845;0.315808;-0.018970864;1.7308842;-2.1848056;0.57368886;0.0678711;0.04098637;0.68150336;-0.0012273297;1.907272;-0.66640246;-0.94418037;-0.68180305;-0.014138058;4.8813405;-2.1675591;0.050874166;-0.5441853;1.0687476;1.6358978;1.2470156;1.7529285;3.5808241;-0.14604038;-0.90331244;0.014921084;0.3388947;-4.1714506;0.09890522;0.011752332;-0.06983489;-1.9130962;-0.05592025;0.13850205;0.014285478;1.4292303;-0.8131974;3.8930554;1.6710066;-0.7779403;-1.9580677;1.7211992;-0.27741295;-4.011743;0.007815224;-5.0313377;0.025608808;0.8417047;-2.452972;-0.5759477;0.9190305;1.9406143;2.3701305;1.6429558;-3.7006013;-2.7866879;0.03767399;2.178373;1.936441;-2.8991084;-1.4322089;0.03772695;-0.036047302;-0.0056916764;-3.4112554;1.1102283;-0.96138436;-1.0065264;-1.6735978;-0.02464268;-1.2394423;2.4296389;0.060532782;0.011960261;-3.9970942;2.0833738;0.38569412;2.4109576;-0.056360066;0.9993277;-1.2103647;-0.24105678;2.6681023;0.467554;0.0458875;-1.2540357;-1.1963433;0.0068485434;0.029474054;0.80029684;0.5174182;1.0782207;0.011633632;0.030264255;3.0189717;4.21525;-5.9422317;-0.037649922;-0.091253124;-0.23742743;-0.9507793;-8.148042;-2.8947978;0.8125628;-0.0139584085;0.33852428;-0.8089036;-1.9708136;4.210565;-0.0042875274;0.21073306;0.020756004;3.4252117;0.39675677;0.056440957;-6.54106;-3.6678548;0.057780307;1.8177605;-3.291259;-0.6571102;-1.0433693;2.6593301;0.38852057;0.02703688;-1.6146532;0.022399332;-19.136255;-1.6743412;0.017921165;0.022831334;2.7669642;-2.3955286;-1.5277429;0.027027927;-1.2207181;1.366742;-0.0015213023;0.70780617;-0.042656142;0.2878432;-0.35446346;2.410922;1.1963793;-0.0076024886;-0.91635585;0.019247096;-1.6113666;-0.59923756;0.04195924;-0.37661895;0.5588605;-1.2860392;1.7912301;0.034295745;0.42709023;-5.6641207;-1.637732;0.68231106;3.3569722;0.7458188;0.067936875;0.010949292;-0.027867131;-0.95455194;-2.7882154;-0.098780386;0.016393948;-1.3168103;0.5671169;-1.3141392;-0.5334609;-0.0056433226;-2.8701763;1.9981052;1.3779762;2.4911344;-0.061714366;0.0681538;-2.5529244;3.3608358;0.015019001;-1.724445;3.613792;-0.051441163;3.9548273;-0.23262931;2.3223407;-2.3405962;2.4996014;0.23439966;0.010185948;-1.0581905;1.1160678;3.148397;0.061964966;-4.3333306;0.048363615;-0.38980934;2.694846;-0.023561463;0.6560555;4.1791925;-1.5792711;2.4658165;-0.12616548;-0.063100375;0.004254752;0.5398865;0.7693637;1.698217;-0.24587992;2.363616;-1.2839026;6.5061193;0.8575064;1.7285889;-0.014762527;-5.848627;1.2095789;1.0980842;0.02262813;-0.020665037;0.42205533;-0.6560249;-0.20270132;-0.11678959;-0.64905655;0.68265903;-2.1307883;-4.9659405;-4.9587398;-0.025201796;-0.20065609;0.009398224;0.0245191;-0.062114324;0.012424701;-5.137406;-0.05977224;0.054255616;-1.8771218;-0.019734079;1.0340182;-0.011887664;0.092686184;3.8663402;0.21511324;-1.4293824;0.6348876;0.7801065;1.9567122;1.1418376;-0.07648218;-0.4547957;-2.7510123;0.089714974;2.3562193;1.075808;-0.15152922;-6.6326675;0.019865049;-0.5758397;0.010590944;1.648329;-4.154037;-1.892135;0.029760884;-2.4985557;0.0070048124;0.011635645;-0.01013704;1.3719655;-0.02718621;-2.663224;-0.7136136;2.4711583;0.0016587864;2.4493206;0.075859845;-1.5373453;-0.28833398;1.4642645;-1.5740702;-1.3412836;0.021386703;0.07143191;1.9720314;-0.5168158;1.4705734;0.11529224;0.23548524;1.7812778;-0.0065766703;0.0085620545;-1.2903426;-0.9398861;1.7898191;0.3226276;0.018991351;0.38462543;-0.63326216;0.038988378;-5.823789;-0.8539597;0.8532939;-0.025955714;0.25108448;0.024527887;-2.8117332;3.2636845;-0.03555828;1.500875;2.214017;-0.014756244;-0.3626753;0.033537142;-1.3194451;-3.3318882;0.019264529;-0.026199736;0.004420877;0.3068758;2.3573823;3.8129513;-0.8868989;0.0030808663;3.3255699;1.6077332;2.638587;-3.2798862;-1.7859088;0.01439953;-3.3026671;-0.0471276;0.024177661;-0.001477454;4.4675026;-3.4326494;-0.09315018;-0.6541359;0.6633024;-2.1419218;0.4975494;1.6906612;0.008500322;1.7280324;0.72016776;-0.00019610026;0.9697489;0.048794862;-6.3113365;1.2137777;1.9890826;0.064121805;0.043585833;-0.54707426;0.020003192;2.8546453;2.9739695;-0.9920217;0.0055742394;0.0549192;-0.047737036;1.0425844;0.05618703;0.25625348;0.61804503;-2.132714;2.2144492;1.3314426;0.7841832;-1.9958801;3.4842858;-2.4849608;2.3086994;0.031416792;-1.244784;0.008311497;-0.6651324;-0.50205034;-0.018659074;-0.006704223;0.31055385;0.043114886;-3.875394;-0.033843566;-0.03540656;-0.0940255;0.029219871;0.7660955;-1.2659281;2.9537973;0.005939201;-1.7114053;1.0868814;-4.730052;1.4231145;0.06619332;2.652769;1.5450718;-0.12048478;0.0023600676;0.8323459;0.05643984;-0.04049843;-1.4247998;0.06253616;1.3154203;-0.004307655;2.8604872;-0.023223694;0.02067002;0.10394523;-0.012081949;-2.551738;5.135973;-1.210667;0.04062384;-0.04262118;0.5132142;1.3662367;0.26726308;-5.6278133;0.112418875;-0.009042838;-0.058775414;0.7679902;3.3566794;3.2513998;3.5646744;-0.010490587;-2.907188;0.28374642;2.5011957;-1.8170712
-0.44866145;1.6485265;-1.387326;2.5889816;1.8213735;0.07503883;0.07980666;-0.04093471;1.9479281;-0.012266559;2.2261019;1.1527685;0.017105902;2.394572;0.92211;3.0050988;0.051758047;-1.7773575;0.020499181;0.7367332;-0.72621965;-3.1565301;2.0837102;2.6530392;-1.2304188;-4.154582;-5.1175466;0.79165673;-0.029987754;-0.018110035;0.80513245;-3.2341793;0.76658624;0.0142023405;-0.023537101;1.8213145;-1.4404486;1.3479532;1.2440066;1.5970306;1.1094064;0.047674462;-4.0434036;-3.5390096;1.1518652;-0.7209531;0.040559273;0.48211217;0.0040753097;1.0408158;1.3412386;-0.02991378;3.029145;-1.0105128;-0.016780477;-0.020921139;-1.4106694;0.011015445;-2.8345573;0.6099466;-0.16165467;-0.023227246;0.025472179;0.42127174;0.013960622;1.2929815;-2.3420267;-5.3047004;0.060442973;0.6882822;-0.24913153;3.0854514;-0.64458895;-1.384687;-0.6421304;-1.4990984;-0.8629884;-1.6971539;-2.6313946;-0.024646178;0.029825827;-0.014836249;0.9387249;-2.7066138;-0.019639747;2.8855221;4.558297;-0.0028043452;0.012959632;1.2180614;-1.3867463;-3.9704463;-0.010177312;0.13798599;0.010317187;-0.021399777;0.014925407;0.7799723;-2.880651;2.6411324;2.2289906;0.03922308;0.009484249;2.435944;0.8744238;0.023578538;0.5198154;0.07730268;0.041119322;-0.04983209;-2.9262736;-0.6996479;-0.8521933;1.1754858;0.028411381;-1.0969958;1.9749322;-1.2310077;2.2035503;1.9322432;-5.4635463;-0.016747508;-3.3586676;-1.6664889;-2.2227645;-0.9482701;-2.1705484;-2.1405673;3.1313097;0.06539671;-1.6226423;-0.1801587;0.026875343;-2.3209643;-0.046259005;-0.93916184;-0.9028977;0.49831763;0.8592088;-0.6858895;3.568234;-0.019378968;1.8388665;-1.4769654;-1.2285929;0.010458619;0.06488497;0.8898917;0.012604661;2.3764167;-1.5825604;3.5501997;-0.027959105;-0.18322401;2.2743843;-6.186481;0.015629072;2.2092083;2.2086535;3.0868738;-0.46048337;3.2797327;2.351825;0.037976265;0.6540017;0.016907955;0.022042157;1.1018206;-1.0002576;-0.015522726;-0.16244529;-6.2208643;-0.0870449;-0.14256313;-0.058776677;0.09859972;0.35513392;3.0482066;-1.6750221;-3.201219;-1.3157722;-0.18996976;1.9594637;-4.706191;0.025618246;-8.864256;-0.020448308;-0.89263934;-2.5620847;-1.4189706;2.0608811;1.3610973;-1.2538053;0.4283005;0.37961945;-2.5835252;0.065633215;0.3607301;-1.1754535;1.189039;-0.21822283;0.015158397;-0.021288281;0.037551515;-2.2433913;3.186068;0.5199101;-3.1816683;-0.5300786;0.047967184;-0.33332697;1.38891;-0.010751873;-0.012629506;3.3966231;2.9587827;-1.209362;2.8755887;-0.73087424;2.8296053;2.1406355;-2.6022182;0.7338733;0.59964234;0.007962536;1.3570398;-2.1892042;0.007242946;-0.01904598;1.2791011;0.15745088;-0.3261287;-0.009505285;0.0014205695;2.6676095;-0.5793051;-4.7777047;1.6811056;0.2622514;1.2630757;2.025917;-7.5278616;-4.584287;2.1177068;0.028024571;0.73126584;0.05615408;-0.9147768;2.332829;0.008497032;1.5658985;-0.03404943;1.6665645;-0.40900156;0.031115975;-4.0428863;-2.2176185;0.010524442;0.78157055;-2.2950337;-0.2191137;-3.7603045;1.719133;0.73217285;-0.022173377;-2.7956574;0.05085223;-17.011032;-1.1997254;-0.0423543;0.013807236;0.48791406;-4.0479255;-1.6652411;0.010896995;-3.020503;0.50427747;0.014171571;0.660739;-0.020085633;0.4340014;0.15470722;1.2190334;2.894353;-0.017816912;0.44359216;0.008690926;0.39490432;-1.3581047;0.005897265;-0.41744557;2.0184748;-0.021432968;1.1790206;-0.011805631;1.3239911;-5.213758;-0.15005572;-0.732243;1.1150601;-0.18362646;0.103512;-0.037600327;-0.07088875;0.09613004;-2.726015;0.8322145;0.053347185;-0.88224787;1.2826998;0.51144;-0.62082404;0.04967324;-2.3036633;2.8887308;-0.02896391;2.320207;0.058475368;-0.027958605;-4.027888;3.2393055;0.014950419;-1.5862219;0.11192978;0.024322778;-0.11389487;0.16322948;2.8315718;-2.515065;0.029884966;1.6793954;-0.0035383673;-1.627405;1.1429379;1.4762396;-0.01006955;0.77870065;-0.2547346;-3.7801065;2.0894945;0.009745381;-1.0976139;0.3251172;0.17435049;1.3430431;-0.09039688;-0.05380418;-0.049110033;-4.491195;0.803388;0.7731278;-0.8080394;-0.14776513;-2.420099;3.2987134;0.31385455;0.9221397;-0.0012293468;-7.5016823;-1.7704854;-3.4131513;0.7069098;0.014025919;-0.1388036;1.8512074;1.1483921;-0.13171168;0.5085283;0.35408303;-1.0435957;-0.9807083;-0.778792;-0.0026513545;0.74350256;0.037041374;-0.009363273;-0.021363758;-0.00733343;0.38564005;-0.082353756;-0.012110386;-2.7832193;0.004753047;1.3719087;0.010761944;-0.011406168;2.9474196;-0.33955657;-0.95242155;0.9058053;2.8256407;3.332264;1.8973598;0.06938951;0.46370953;-4.5621443;-0.025404058;1.4009407;2.013652;0.14771576;-2.149902;0.00702469;0.070671186;-0.04335472;-0.3642809;-1.6092567;-0.17385246;-0.21234153;-0.994073;-0.020131705;0.0018085457;0.0020675422;-2.6291833;0.18383707;-2.8944197;-1.3979197;4.4492564;0.029399784;-0.68743646;-0.043336824;-3.0968764;-2.3616343;-1.7712882;0.116313554;-1.5728078;0.0047083423;0.020464253;0.6797675;-0.9791389;0.13384941;-4.782871;1.2593393;-0.23782581;-0.001683834;-0.02922579;-0.33811092;-0.7698542;1.1456416;0.40229988;-0.042828806;-0.082522675;0.64251983;-0.005334466;-5.588906;-1.0890936;2.0053427;0.0863165;-0.09632735;-0.032217287;-0.13663325;0.7227143;0.020571364;1.2630361;1.9756643;0.0054306868;1.126274;0.041324336;-2.676375;-2.6818862;0.047947537;0.016036162;-0.035311285;-3.8776488;2.7935333;2.0824637;-0.7947474;0.052011333;2.1791587;-0.045418706;0.9985742;-5.2335467;0.019581467;-0.01198126;-2.422;-0.975157;-0.008124624;0.070393234;5.5140204;-2.2079768;0.65283775;2.1324122;1.1442176;-1.8382215;-3.608836;2.5708978;-0.028967317;-0.091932416;-3.3510303;0.037121173;0.019437466;-0.08703022;-5.8613124;0.35283992;1.1424778;-0.51864934;0.0066224053;-0.6230336;0.06527087;0.24280313;4.536682;-1.9935347;0.009344793;0.029762626;-0.08847793;0.94797665;0.012586405;0.048813656;-0.2074038;-5.3361125;0.65898603;-0.73138094;2.4220445;-1.440606;2.7192714;-2.6239164;1.1716388;0.033788778;-1.6937804;0.008874598;1.8890427;-0.2505373;-0.0007428407;0.04105068;2.9471977;-0.017757738;-3.508689;0.06880094;0.003148396;0.5560262;-0.09509869;3.4073553;-3.2910764;1.0076451;-0.0056795543;-2.5244853;0.10651387;-2.0756128;0.28916457;0.01648436;2.1426039;0.21247523;0.61721206;-0.019145278;2.6761823;0.050759748;0.0719777;2.710444;-0.042258695;-1.0635351;-0.001098479;0.18018016;0.02479308;-0.012272885;1.4947029;-0.047518615;-3.8932118;6.3343916;-0.043656398;-0.057711706;0.036735404;4.414253;0.85070765;-2.2357357;-1.2930592;0.034485415;-3.6593268;0.0035540953;0.2638204;2.5604715;2.709609;-0.88841414;-0.005813857;-1.2487481;-1.4667383;1.90153;-1.6469853
0.26030692;0.73764735;-2.5018387;3.4576871;1.3697128;-0.051496528;-2.7159963;-0.0133600095;-1.0268061;0.07181339;-0.80151224;1.3792108;0.058139365;3.1615005;2.1972816;2.3769364;-0.014676314;-1.2078413;-0.01437525;0.79511493;-2.9378533;-0.7288821;-1.129876;2.307004;-0.92737067;-2.2766564;-0.27205408;-0.8570023;0.02418794;-0.0053185867;-0.9401491;-3.4165664;2.8936965;0.057384487;0.029962637;1.5612571;0.5715259;-0.028232584;3.7522335;1.4937347;2.0693204;0.08339933;-1.9750139;-0.31015226;1.2570225;-0.8880948;0.02192396;0.33554417;0.02893952;0.961558;0.63879067;0.010538915;1.2793833;-0.10205572;0.08212322;0.025613608;-1.8614751;-0.01688289;-0.3996438;0.69167566;-0.09939476;-0.31102443;0.01615993;-4.067509;0.076971516;1.9892157;-6.4572144;-7.4326696;0.07776789;-0.4775187;-2.5712082;2.1131895;-2.4786842;-6.270401;-0.7072223;0.19302587;3.7552912;-0.811942;-1.3278061;0.017858341;0.024782237;0.039642252;0.85748166;2.2638967;-0.0049315197;4.1260586;1.622082;0.0055414317;0.93929696;0.79674536;-0.31596568;-2.6312025;0.033583853;-0.1315304;0.051751383;2.531931;0.008620576;-0.15019615;0.31507504;3.9479518;0.93635327;-0.029104382;0.006768832;0.9336946;2.565232;0.03751952;0.58772546;0.007727978;0.014314824;0.033574093;2.8421304;2.170109;1.6857615;1.1513014;0.010996971;-0.51489794;1.6852921;-2.8070843;3.0658853;-2.1219077;-2.7699032;0.06923662;-2.846959;-1.1047107;-1.1816345;0.61604524;-1.5798149;-4.46373;2.2054663;0.008997769;-3.5980732;-0.7507124;0.05637496;-1.4497852;0.04812964;-0.81636536;-2.35772;1.1800759;-0.5065394;-0.21165021;-0.6213006;0.629913;-0.3261694;1.3169707;0.115409836;0.045020074;0.091932245;2.1019008;0.02380074;1.1524588;0.9509808;4.622549;-0.035574608;0.8874308;2.4171817;-2.8742046;0.015046352;3.108768;3.478488;2.176145;3.6732624;0.94353014;0.43692908;-0.12641136;-0.716324;0.06923194;0.054343633;-2.4160578;-1.2780688;0.024396092;0.012275737;-4.357766;-0.027739266;0.044112336;0.027904557;-1.074971;2.3202055;3.6096337;2.845273;-1.3673933;-2.4840682;1.2544823;-1.9417107;1.7197624;0.0065882658;-4.489232;-0.014720753;0.1694991;-2.2690067;-0.7662003;1.0912249;-2.4707644;-1.0952634;3.2370179;2.734938;-4.2903905;-0.026785476;-0.96290314;-1.2189726;3.5930986;-0.11972398;0.046010435;-0.018922843;-0.03868733;-2.1617107;3.762335;-0.94240427;-2.1578555;0.22070259;0.046487603;-2.4549832;-0.975581;0.0105485665;0.035207838;3.675749;1.7939398;-1.1055768;1.9073488;-0.06421223;-0.029171921;1.9723842;0.36218518;3.4314647;-2.193891;0.044891197;-0.12432662;-3.2829554;0.047629472;0.020289268;-1.834391;0.068649106;-1.3236632;0.01808501;-0.0076139276;2.878409;0.8807313;-0.8135711;-0.23528123;-0.07815983;2.8801959;-0.47625762;-5.2808714;-2.305145;-0.6705355;0.013420043;-0.4390538;2.7341228;-1.0316426;0.2844932;0.13693291;-1.2687162;0.053943574;0.51088166;-3.97347;-0.015076955;-6.309525;-3.3527613;0.04534265;0.77203995;1.0534587;0.21861292;0.23205172;0.10078147;1.3468962;-0.011664072;-3.731676;0.03072691;-16.976105;-1.1841873;-0.1356875;0.03301339;-0.70736164;-0.16710335;-2.709265;0.041126568;-2.6911132;-1.1377069;0.040739983;1.4394559;-0.04313821;-3.5479858;-1.9785274;2.489165;2.2290094;0.31866822;1.0667284;0.014607854;4.2339916;2.9427152;0.008028961;-0.1780428;2.248303;-0.5251818;-1.015598;0.026708463;2.5999563;-4.445208;2.8664756;1.7587547;0.021826511;-1.2296287;0.036343213;0.0046756137;0.7094686;-0.14482208;-1.4382176;0.88969314;-0.029331354;0.06620659;0.7337804;1.5465362;-0.24994151;0.01857217;-1.1867738;2.3594956;3.562971;1.1050845;0.034925986;-0.036539067;-5.4128227;3.7235625;0.024402335;-1.2105851;-0.5556442;0.65759945;1.7517059;-0.03571466;1.697394;-1.8091296;-2.5195925;0.65101576;-0.023935273;-2.482334;2.4110944;-0.5933187;0.008281291;2.8205285;-0.56851405;0.73212004;1.5242928;0.029909424;4.731504;-0.48189995;2.9676728;1.1673905;0.007272905;0.7633047;0.00672344;-4.437133;0.74040467;0.01695459;0.9590183;0.38329658;-0.16130303;0.21867181;0.32899463;1.6512114;-0.015584065;-4.996021;-1.4519151;0.32563463;2.3381886;0.021267368;-1.1057712;2.7506342;-1.0096747;0.04240968;-2.1869605;0.22383763;1.727186;-0.05202265;-4.726334;-0.0047480436;-0.10878378;-0.012936001;-0.023090849;0.010181695;0.040847156;0.66667247;-0.045346234;-0.03551782;-0.518315;0.048658773;-0.43403366;0.09935879;0.0060161417;4.42789;-0.031056073;-0.35166478;1.9775387;4.761964;0.7155564;3.3874884;0.0015464113;-0.6855116;-2.9522734;0.06626882;0.5291704;4.016572;1.967448;0.63993764;-0.023137493;-3.6189005;-0.002305538;-2.527813;-6.346619;-0.6669574;-0.14848706;1.237009;0.06015364;0.0066686803;0.0118269315;-4.188754;-0.085217535;-6.0769777;1.7009344;3.0820694;0.034665342;1.0462176;-0.1073504;-1.0705768;0.749158;0.16329849;-0.78978616;-0.88941234;0.052734613;0.06262515;0.18728946;-2.488806;-0.32017478;-4.1215205;-1.564779;-1.1631038;-0.043324254;0.053988736;-1.4204404;1.6858062;-1.4323807;-0.52663416;-0.011511353;0.06031735;1.7828771;0.035399143;-2.0571506;-2.4561577;-0.45883137;0.043432858;1.5793772;-0.0065754494;-1.4457188;0.8674345;-0.004428875;1.857608;0.37440887;0.038501434;-2.3316307;-0.03798331;-3.7749014;-3.4533274;0.0317529;0.067338884;0.080082364;0.5421807;3.5618842;-0.98665434;-0.55549914;0.064449616;-0.15389146;-0.38643157;-0.86245114;-5.7129264;-0.1684172;0.020895017;-0.2623632;-2.5013158;0.017530525;-0.016554436;5.103503;-1.267505;-0.1302491;-1.5018685;3.7915246;-1.4930533;-1.8696499;0.48529854;0.10429133;2.8322194;2.561823;0.09486959;-1.3605374;0.0586879;-4.4159985;1.7560412;-3.7894893;-0.8758373;-0.009882743;-1.4816924;0.038082328;0.7643788;3.777827;-3.0382345;0.02945331;0.07399875;0.061727345;-2.7208993;-0.006393911;1.4479264;-0.04009881;0.6276021;2.2404356;-1.9314309;0.873317;-0.7494408;2.2162516;-1.8817923;0.8544338;-0.014750905;-1.5633329;0.0080675045;1.1110877;-2.4747653;0.018431526;0.006619196;4.4704924;0.017102621;-0.49460202;0.007658929;0.051767327;0.968187;0.6746795;1.3309288;-1.5622857;2.376107;0.013984866;-1.1207166;-0.20244958;0.96530616;-0.95770943;0.0342277;3.8291566;1.5066639;-0.104256466;0.053475603;0.07818332;-0.030844951;-0.0047885114;-0.628041;-0.11334373;-1.188303;0.05152921;-1.3454579;-0.033593617;0.0037123868;0.7487281;0.0508727;-3.4683514;2.1082542;2.0175326;0.062583685;0.011854067;2.226099;1.1394325;-0.7449299;-3.5886075;0.006635931;0.35371992;0.018636877;-0.37470824;0.6182558;3.3100898;3.5590055;0.047334284;1.3623791;-2.170898;-1.6290742;3.9787745
1.6784163;1.3531694;-0.04449913;3.511999;1.2213616;-0.0033126262;0.5033523;-0.022089375;1.2058791;0.0010471751;-3.857506;1.2116635;0.007375075;2.1638653;2.369569;1.9889089;0.011751859;-1.1288441;0.02738022;-1.332635;-1.7572874;-2.3600516;-0.13095099;1.9678758;-2.4850454;-3.0315287;-2.2415671;-0.67775655;0.018069679;0.008746464;-0.818815;-2.315217;3.902599;0.039535835;0.016763173;1.2651848;-0.8883889;2.9257143;-4.2162337;2.0531092;1.8815076;0.008629759;-4.7283816;-3.2334847;-0.06243788;-0.93761724;0.04040341;-0.7899985;0.014082175;-0.25322044;1.5662465;-0.02404619;0.9061217;-1.1603912;-0.0141032515;-0.0033645085;-0.3381219;0.017203199;-1.5233516;-0.6042957;-0.06766724;-2.294858;0.00021235;-0.84923774;-2.4689841;2.5585902;-5.4402533;-6.1173368;-0.018037036;-3.3922246;2.858992;4.3389463;-0.016271671;-5.843184;-0.17076015;3.8592699;0.25966793;-1.8665609;-1.7573622;-0.016484473;-0.067041904;0.039561003;2.5149655;1.4674067;0.1009993;2.9771821;3.0128698;-0.026065659;-0.16169046;3.7839382;-0.3182894;-0.14686517;-0.021554684;-0.060347985;0.016619526;-1.9803281;0.0034975193;0.12961799;-2.794873;1.8152789;0.31238863;0.052078173;-0.002645235;3.4296222;-0.6040198;0.053173736;-1.9028068;-0.0064079347;-0.0032108878;-0.010534663;0.757979;3.8156512;-0.43753156;-3.3398216;0.027512442;-3.4591022;-0.6525138;-2.667529;1.0017612;-0.64656055;-4.701571;0.034724407;-4.65886;-1.3752604;-0.27193922;-0.10275799;1.6075357;-0.012057191;0.6005412;0.0014544713;0.63173926;0.9807015;-0.021081641;-2.3235514;-0.032315787;-0.18436997;-0.9342515;1.3283641;-1.516188;-1.5921469;-1.4347961;-0.13023423;-1.1841247;-1.64867;1.7964582;0.022914175;-0.018079663;-1.4055411;0.030240024;0.17502671;-1.3411621;0.71511376;0.12965813;-0.10215257;3.1573722;-1.7941463;-0.0048600785;0.7769314;3.6232007;2.0948062;0.43056482;1.7614625;1.8203243;0.6048789;-0.17559254;-0.009768014;0.06763267;-1.3132908;0.689114;0.004174847;-0.08054599;-2.8578126;-0.08569163;0.24836788;-0.033913642;-2.6315327;1.9452139;1.270871;4.0335045;-2.7084517;-2.477684;1.5174214;0.25336456;-1.5929449;-0.013265384;-5.558147;0.026394915;-1.4443268;-2.0533848;-1.8280097;-0.6393974;0.47635046;3.1096535;0.94355494;0.97029805;-3.5268989;-0.027322259;0.70831853;-1.6481074;0.96523124;0.11633849;0.017480599;0.04483692;0.038203903;-0.79960406;0.6071771;-0.22059643;-5.616144;0.22352816;-0.004644779;-1.1737152;0.012991805;-0.012592969;0.007516585;5.278566;1.0153996;-0.1688813;1.8271883;-0.94435644;1.4732587;3.2769141;-2.989295;4.0124574;-0.7499932;0.0031334304;0.61048996;-4.4437623;0.0013077828;0.026493536;-0.714552;0.2813281;-1.4504491;-0.03994475;-0.008352472;0.12402335;-2.9183512;-6.0352216;2.1214747;0.00531943;0.60011417;1.5999069;-5.286516;-0.13434379;-0.49292028;-0.0021223484;-1.5529568;0.066131026;0.8472618;0.04336052;-0.0068875793;-2.78014;-0.014750936;-0.35467473;-1.0608497;-0.0129211545;-4.631863;-2.9000812;-0.015649874;2.0383434;-2.0601077;-0.23264772;0.91125077;-0.634611;-3.1906524;0.003882437;-0.9391546;0.0072367666;-12.766217;-1.2779009;0.7399217;0.013471157;-0.0615684;0.5034972;-1.1143148;0.029657163;-1.4535756;0.70851743;-0.026964368;3.3130445;-0.03902934;0.10596029;2.1459033;2.016275;1.723751;-0.05040164;2.1902044;0.04910234;-0.28648868;3.969131;-0.03134731;-2.542713;2.1273863;1.800041;1.6740863;-0.0036856865;1.697838;-5.8581123;-0.4822058;1.4579374;-0.8738682;-1.7343106;0.07719089;-0.0056665516;-0.017264485;0.9531082;-2.1070921;2.9143922;-0.023085935;0.65319073;0.49574515;1.5916709;-0.92888045;0.016163269;-2.1131618;-0.5960208;4.2502494;1.8110057;-0.02736696;0.057549458;-5.815021;6.3198724;-0.0063025206;1.0959212;-1.5181297;-0.11871618;2.7286065;-0.0014783021;0.3991738;-4.914999;0.60633767;-0.640212;0.033269104;-0.6067433;2.002758;-2.017911;0.003686094;-4.1562114;-0.37066373;2.1616118;0.7848136;-0.016054573;5.7182126;-1.2207774;2.629778;-1.6199281;-0.023691088;-0.09055179;-0.023384295;-1.160304;-0.09608472;0.66494244;1.4351723;0.16970922;-3.4045997;-3.6095717;0.48619366;1.9399363;0.06829984;-3.5903788;0.0023890405;1.2725233;2.1919901;0.012177285;2.8372846;1.5295486;1.1110198;-0.08524996;1.5701518;1.3264048;-0.114856884;2.183292;-4.990984;0.005251317;-0.039337147;0.026374301;-0.020552231;0.028293842;0.013199783;0.4619239;0.02189115;-0.018999195;-1.0985754;0.019245688;0.17102695;-0.03151315;0.11939993;3.501418;-1.1381904;-2.295754;2.3382912;3.430182;0.09792645;2.8342955;0.031581227;-3.5730014;-2.12309;0.007780744;-2.2948155;1.5667465;-1.0292965;3.0350065;0.07777157;-3.7853901;-0.010514181;0.3868841;-5.22788;-0.11077034;0.2143016;2.3365932;0.015609172;-0.008156158;0.023558075;-6.1354613;0.0042690425;-5.356261;1.52698;1.6980938;-0.025638688;0.6211958;0.060494717;-2.2428427;-1.468613;2.0809283;-0.19426595;-0.8303211;0.010281087;0.005100008;0.7343999;-1.2691678;-1.1947857;-2.8303304;-2.180962;-2.2275882;-0.041930076;0.006097991;-0.03506451;3.208794;0.1841487;-1.6695337;-0.0047754752;-0.03784922;2.027679;0.0037048024;-1.5184686;-1.8149158;0.7511011;0.08295912;0.84969074;-0.017741654;-3.2954698;0.63829213;0.1615224;-0.19953726;1.3748666;-0.015468492;-0.5761282;0.025472345;-2.3031297;-5.61893;0.061924517;0.027258812;0.040192537;-0.25039852;3.61069;0.19141382;-3.0761423;-0.010544059;0.0076869223;-0.682595;-3.1442003;-4.190582;0.52203363;-3.4868026e-05;0.15479867;-0.71766007;-0.056580752;-0.04794355;2.7748435;-2.1991024;0.00028137298;0.37402812;2.1525092;-0.7290279;-3.8131514;3.025375;0.017476102;1.6188293;1.9754775;-0.017185338;1.0650494;0.24093874;-4.8843894;0.38905087;-5.0167837;-1.0386835;0.003568482;-1.4575471;0.060214013;0.5625379;0.0027957659;-4.0739613;0.0019810118;-0.017900335;-0.05558794;-5.448664;0.03196907;1.0259266;0.005906193;-1.8859599;1.8102481;0.033167146;2.3014803;1.1812618;0.5830765;-1.1309979;1.7628059;0.01085422;-1.2348828;0.026068592;-2.1493225;-3.29229;0.0254994;0.03465721;3.119488;0.01253758;-0.063525416;0.004518983;0.022506794;-0.26324093;-0.12474144;-0.3168735;-0.76742995;4.2248635;0.05094923;-0.70807654;0.021434357;1.9708532;0.41598797;0.06689966;1.3451712;2.253599;3.5266411;0.02787745;-0.4433617;0.05301808;0.04104131;0.30238083;0.6891998;0.09426854;0.024822073;-2.4209135;0.037929345;0.028481139;1.0520546;0.023471553;0.3271545;1.3651271;-0.44162992;-0.0011531434;-0.0033187468;1.705684;-1.5983472;-1.058382;-0.17270619;-0.006028091;-0.009621339;0.009408223;2.8259797;2.689004;2.0725775;1.7421273;0.06413958;0.5573678;-1.1877289;-2.0369413;4.4267416
Bias from input to hidden layer.
0.067576386;-0.7371935;-0.15732181;0.6097782;0.43219846;-0.006080761;0.60435784;-0.00716357;-0.35828474;-0.006956717;0.08292942;0.37037414;-0.004101161;0.0588557;-0.5296372;-0.05649736;-0.007571796;0.07858236;-0.008108869;-0.100928776;0.46761915;0.28836703;0.02747918;-0.15377684;-0.018657275;0.13494621;-0.15504937;0.35329536;-0.010820536;-0.003988386;0.010883681;-0.039398927;-0.048412465;-0.006249754;-0.0046248706;-1.1570164;-0.11978125;0.14623581;-0.37513173;-0.31238884;-0.31821886;-0.0049861353;-0.46531865;-0.23777167;0.3305978;-0.44511396;-0.003771845;0.0012372553;-0.0069564474;-0.3800247;0.020517372;-0.0066395374;-0.6396465;0.35035783;-0.004389039;-0.0077543748;0.48764557;-0.005796053;-0.009946478;0.2787631;0.059835058;0.50772965;-0.0060795355;-0.13222298;-0.35950077;-0.4475997;-0.035938866;0.4698033;-0.0060473583;-0.53578955;0.30200437;0.5989305;0.17539851;-0.6220323;-0.2655619;0.21716584;-0.08976769;0.0038320296;0.04811652;-0.007575227;-0.0077348496;-0.007707822;-0.43023026;-0.015276615;0.041478984;-0.24269877;-0.014189763;-0.0062698396;-0.007344882;0.31226993;-0.21484649;0.25394854;-0.0054026456;0.06741911;-0.009556212;-0.22803412;-0.007183274;0.04198092;-0.12022241;-0.285563;-0.33491635;-0.009619595;-0.005844732;-0.11432506;-0.18852378;-0.0075320615;0.23183982;-0.0064694616;-0.0066241203;-0.004000662;0.24684362;0.39586946;-0.0013430527;0.17497534;-0.006286404;-0.11967308;-0.07730655;0.11603789;0.2109228;0.19517781;-0.41969454;-0.0067385864;-0.49315917;-0.41187233;-0.25787562;0.14967932;-0.0017765162;0.23125407;0.14356317;-0.009508987;0.54461765;-0.95519257;-0.006206735;-0.20001724;-0.0023416416;0.057614412;-0.1394955;0.22194524;0.9711239;0.11365761;0.025628688;-0.005446778;0.33817697;0.63823664;-0.054599952;-0.00863645;-0.0034686767;-0.10840914;-0.0040198346;-0.21068498;-0.13614424;-0.07497239;-0.013745024;-0.009273354;0.25928402;0.13777961;-0.008919017;-0.06600722;-0.19693734;0.113397025;0.18312502;0.11351433;0.3829014;0.03848842;0.2839832;-0.007343918;0.103864364;-0.04796857;-0.6123887;-0.0062169167;-0.0067192465;0.042948242;-0.0024087597;0.047941554;-0.008275599;0.49405903;0.3111262;-0.41013485;-0.18416436;-0.06426079;-0.27102295;-0.8706664;0.23382829;-0.27867347;-0.0085966885;0.53727716;-0.008757013;-0.22655196;-0.20995896;-0.19469973;-0.12085614;-0.12854579;-0.004441694;-0.13112529;0.2213469;-0.30618563;-0.0068405676;-0.1308954;0.14683074;-0.0942874;0.08151786;-0.009274084;-0.007636512;-0.005004906;-0.06106579;0.13244736;0.2746337;0.27808562;-0.15180904;-0.0053585893;-0.380522;-0.7645609;-0.0057036886;-0.008195041;0.011026865;-0.72800577;-0.1485857;0.054360025;0.14260888;-0.38429913;0.5165204;0.2874607;-0.3116895;0.027251087;-0.007260859;0.3461102;-0.22715777;-0.009170806;-0.0035842063;-0.02266247;0.023544611;-0.4513974;-0.008497164;-0.0073224506;-0.13516037;0.03003728;-0.32379714;-0.21217683;-0.007337376;-0.006757636;0.23956226;0.43581662;0.24760497;0.03477394;-0.0065143607;-0.013267261;0.41797385;-0.26745644;0.28964296;-0.008329036;-0.36452502;-0.005119384;-0.010256259;0.27279833;-0.004264685;0.012350272;-0.118569724;-0.004899675;-0.051365558;0.52895296;-0.42003658;0.16372497;0.25992084;-0.15363683;-0.004843792;-0.29209563;-0.007564593;0.11218796;-0.026515704;-0.0035235386;-0.00504624;-0.30693737;0.24218513;0.1782652;-0.00820646;0.14993666;-0.4824212;-0.0051057;0.23103334;-0.007025014;-0.1652579;-0.5928072;-0.16117224;0.5695854;-0.005772427;0.017944224;-0.005333995;0.54147923;-0.35672426;-0.0067899874;0.13579857;-0.3181014;0.2015849;-0.81923634;-0.0017098921;0.19272485;-0.19183472;0.28573143;0.08559136;0.17773128;-0.005597355;-0.005017241;-0.00977422;-0.004513586;-0.08229119;0.35601494;0.35753274;-0.0028105932;-0.5128093;0.110061586;-0.5279125;-0.23400708;-0.005592453;-0.16510148;-0.25192177;-0.39272425;-0.031927824;-0.0062280223;-0.008899751;0.22859536;-0.3028855;-0.0070531;-0.14516528;-0.21495998;-0.007956736;-0.11767292;-0.0048216;0.39162296;0.11628369;-0.32803902;-0.28059378;-0.0069490043;-0.1439482;-0.5988333;0.3795252;-0.0055058724;0.44686422;0.4388552;-0.3640091;0.014443222;-0.008157256;-0.11281873;0.081960015;-0.25910407;-0.36396292;-0.002457448;-0.007897404;-0.00769161;-0.058038;0.037551098;-0.42524135;0.26892525;-0.4935109;0.4153313;0.4219583;0.035726834;-0.18404381;-0.00788026;-0.16730314;0.05456247;0.36771384;-0.2547938;-0.0021142273;-0.10009938;-0.15690063;0.12005991;-0.006142884;0.18265742;0.025512878;-0.25580236;-0.0073638;0.26243275;-0.005373642;-0.008385259;-0.0079247225;-0.0069901925;-0.0074923234;-0.008647142;0.057969864;-0.014716013;-0.006571658;0.05896079;-0.005864281;-0.07396203;-0.0068161082;-0.009626166;-0.12949732;0.036571674;-0.16174725;-0.074475884;0.27906153;-0.020618109;-0.52155894;-0.008156021;-0.11749717;-0.11513663;-0.008580313;-0.007045938;-0.16489045;-0.02504211;0.046894316;-0.007885943;-0.025023352;-0.006930994;-0.15839319;-0.009473816;0.31102026;0.05365024;0.3320619;-0.0077825743;-0.01030508;-0.0035667387;0.022531914;-0.0076389504;-0.23916082;0.06928536;-0.20449212;-0.0055362415;-0.14502627;-0.009307247;0.8365657;-0.15569878;-0.08235794;0.28317198;-0.09595352;-0.0056861658;-0.0071752863;0.054282855;-0.14975286;-0.08931441;0.069360025;-0.40666267;0.12602161;-0.0118492255;-0.0069238446;-0.1906298;-0.10077767;0.15720123;0.18571676;-0.009238702;-0.004464043;-0.34047985;-0.01086854;0.28325996;0.08825563;0.29523054;-0.004934076;0.7316765;-0.0082677165;-0.4902087;-0.044745997;-0.008801032;0.122493796;0.18241629;-0.008036159;0.060765952;-0.0034472225;-0.0060993517;0.2982266;-0.010265267;-0.0072513996;-0.0083345445;0.11513111;-0.037642464;0.0928761;0.96514416;-0.010641888;0.13694032;0.034425274;0.21494494;0.67342895;-0.39453477;-0.005535051;0.346718;-0.026843263;-0.0015893672;-0.007465026;0.23476516;0.047952607;-0.005705358;0.01133416;-0.33182916;-0.2228805;0.0056532584;0.3005484;-0.0070296014;0.5005294;0.12879762;-0.00940463;-0.07992016;0.055921696;0.112753235;0.25584048;-0.18669231;-0.21866044;-0.005369862;-0.05644049;-0.007766746;0.16066602;-0.45728716;-0.1093103;-0.004353135;-0.0052250517;-0.006702804;-0.21114187;-0.006933577;0.18877286;-0.008977735;0.021313913;0.16731122;0.23613168;-0.23206992;-0.18422528;-0.10950336;0.02720105;-0.2566219;-0.008268071;0.01571376;-0.0047976007;0.2688248;0.05006933;-0.008976597;-0.0070221447;-0.33850807;-0.0061332965;0.026247118;-0.005654948;-0.008325628;-0.0834995;-0.008426411;0.024476161;0.2174041;0.4281492;-0.0051392233;-0.5573018;0.051686525;0.10569349;-0.13961267;0.00038613717;0.088486046;-0.59217197;-0.7009284;-0.01029584;-0.12507087;-0.0061537144;-0.008470789;0.3154164;-0.011853619;-0.31911126;-0.006799153;0.09645911;-0.0075221984;-0.0036419297;0.04730458;-0.0075244484;0.020150661;-0.37377015;0.13774738;-0.004692884;-0.009835238;-0.75599563;0.1421501;0.3343033;0.005529712;-0.007468155;0.24815552;-0.0084407395;-0.4140246;0.36151883;-0.36430168;0.47452754;-0.0063966434;0.18206458;-0.047664106;0.46097606;-0.05913896
Weights from hidden to output layer.
1.5611733;-1.471889
1.6739327;-1.580264
1.2664266;-1.2970343
1.6442364;-1.577493
1.9420719;-1.8429364
0.0069352314;0.0068109017
1.8223455;-1.7760358
0.063562825;0.06311758
0.415057;-0.41827646
-0.00019941264;-0.00012822483
-1.0053765;0.9414531
1.5630997;-1.6127483
0.005678438;0.005756466
-3.7286317;3.802192
1.463688;-1.4476874
0.2698339;-0.21523976
0.037742544;0.03692026
1.9091805;-1.8279257
0.04269565;0.042864826
1.7167335;-1.8397837
1.6480522;-1.623833
1.3869445;-1.375046
-0.0056373714;-0.0075263353
3.3651035;-3.2571242
-1.8653903;1.8392692
-1.0898479;1.0403715
-2.8186123;2.7532954
1.8229291;-1.7033433
-0.05246009;-0.052004963
-0.00029111162;-0.00022003589
-0.40454334;0.31211412
-2.2521324;2.061397
-2.1550748;2.0795836
-0.061217576;-0.061282653
0.02093003;0.020906942
2.3827806;-2.3461623
1.3930362;-1.4217005
1.9111903;-2.0071437
0.9406927;-1.0140004
0.89368045;-0.992696
1.2390518;-1.2371364
-0.01265117;-0.012499799
-0.6705662;0.6265882
-2.09624;1.9298408
1.5421934;-1.7188866
0.7491008;-0.7456633
0.014299805;0.01423001
-0.049382262;-0.049625926
0.0037055272;0.0037153438
1.2148414;-1.3386745
1.0870191;-1.1144636
-0.06044897;-0.060850006
1.412092;-1.4393612
-0.6821391;0.57011056
-0.024002474;-0.023840088
-0.014441771;-0.014208343
-1.4466053;1.4407672
0.0067872647;0.009511843
1.2817647;-1.2483876
1.5603242;-1.6008711
7.0810738;-6.9771867
-1.0155843;0.95934993
0.027747195;0.027643215
1.1686703;-1.1487628
1.068269;-1.0859495
1.7885505;-1.8364801
1.4323301;-1.2606932
1.2341969;-1.2724564
0.0022877657;0.002107505
1.0271277;-0.99611104
1.6640017;-1.6239195
1.7426282;-1.6606675
1.824112;-1.9557439
-1.9261081;1.9637048
1.4969698;-1.5844454
-1.0511348;1.0441548
-2.3822944;2.4936893
-1.1576074;1.1223395
0.9401427;-0.89463276
0.008818565;0.008533611
0.023913113;0.02391792
-0.012550401;-0.012575106
0.78226;-0.8845088
0.6072904;-0.6624002
5.611933;-5.666692
-2.262059;2.4160664
-1.3520741;1.3523852
0.027892936;0.027483953
0.033481054;0.033653468
1.2473981;-1.3166901
1.2818967;-1.2300746
-2.0249858;1.92687
0.022645704;0.022677723
9.401671;-9.466432
-0.043497227;-0.04348581
0.93173075;-0.96855444
0.08547005;0.084936276
5.4677434;-5.486383
1.3429878;-1.3665677
1.1929666;-1.0836457
1.3743243;-1.3735437
0.038847916;0.039018773
-0.036544025;-0.036533684
-2.9153;2.7813928
2.4990382;-2.5967455
-0.046435848;-0.046129752
-1.282624;1.2987309
-0.0017878604;-0.001397082
-0.05975642;-0.05962994
-0.033585884;-0.033675574
-2.3001604;2.4745953
-1.4666551;1.5672419
1.321078;-1.2570845
1.7395074;-1.7343663
-0.0010731701;-0.0011014161
1.3631953;-1.2997888
1.7271107;-1.6648321
-0.4306797;0.40864
0.7955852;-0.7391402
1.4393836;-1.4703175
1.7709929;-1.576372
0.025704883;0.025680259
-0.54215324;0.64413583
-0.8629044;0.87401134
-1.1711543;1.1219324
4.485913;-4.5366254
0.80638385;-0.73749423
2.1321833;-2.0541053
1.9442376;-1.9481648
0.05759878;0.057992242
1.2881446;-1.2113146
2.3293865;-2.2590673
-0.063047186;-0.06295018
-1.0443728;1.215025
-0.014990754;-0.014808674
-0.028313141;-0.0239117
-2.4233503;2.3799675
2.0138342;-1.9896059
1.8070301;-1.8022794
-1.6037858;1.7019906
1.4524323;-1.3926923
-0.03801941;-0.037992045
1.3597716;-1.4272864
1.88192;-1.962844
1.234666;-1.2916838
-0.005640409;-0.0051835356
-0.0037446232;-0.0036848015
0.75825334;-0.93350303
0.038870823;0.039007142
-1.7346607;1.7473888
1.1175056;-1.0226986
0.991174;-0.96811914
-0.056365665;-0.056065843
-0.027128482;-0.026960097
-1.4115304;1.4521981
1.5865917;-1.5095139
-0.004340553;-0.00410321
1.6787139;-1.642644
0.7110679;-0.76831704
2.091581;-2.0584557
1.2112416;-1.178875
-1.8875908;1.9676902
-2.4126816;2.2505693
4.3792806;-4.379922
-2.391444;2.3933818
0.036322556;0.036317196
9.426613;-9.609455
0.70900637;-0.66815907
1.7948866;-1.7580764
0.05074758;0.050871797
-0.019495636;-0.019500554
-1.4980607;1.4697132
-0.009406195;-0.008877121
7.4668546;-7.437572
0.039415184;0.03967223
-1.854466;1.9082171
0.9206444;-0.8786118
0.7520632;-0.8274804
1.7069958;-1.6312628
-1.7111987;1.8756334
-1.7331165;1.7947508
1.8077945;-1.8231037
-2.4950182;2.5910811
1.754424;-1.9068483
0.018732978;0.018854639
1.7512394;-1.8122001
0.08035742;0.08037409
1.1408148;-1.2596548
-0.3026083;0.3618558
-0.44998753;0.45403925
-2.1213298;2.1394944
1.4927639;-1.5128978
1.6026748;-1.6030627
1.4521018;-1.5986893
-2.8452804;2.7449656
-0.5202961;0.44796914
-0.046823405;-0.046926443
1.711291;-1.5906341
1.027769;-1.167574
1.201164;-1.1800162
-1.3205541;1.4239501
-0.01946242;-0.019548045
0.013647937;0.012975213
0.029862;0.029437354
-2.126556;2.1443274
-3.2327392;3.1492074
-0.4090656;0.39497733
0.96969265;-1.1123517
1.3168069;-1.411774
-0.0016737905;-0.0039407276
0.61571586;-0.6117054
1.2581805;-1.3414412
0.041445944;0.040919058
0.054141566;0.054092288
-1.6601803;1.5803585
-2.6845744;2.7078538
1.1114631;-1.2634827
1.4491904;-1.4770037
-1.2061836;1.333378
1.0599962;-1.0045071
1.6462954;-1.7855908
1.7991697;-1.8268336
-0.69874537;0.8249911
-2.9267278;3.0227373
-0.045765728;-0.045735747
-3.1099384;3.1761906
-1.8956587;2.0085855
0.04906587;0.050346397
0.005563917;0.005523874
0.45742768;-0.4812118
2.8257334;-2.7177382
-0.78188354;0.82321554
-0.030476548;-0.03054379
0.055298954;0.05541955
0.96825254;-0.93879944
1.2976438;-1.2869983
1.1029781;-1.0175604
1.55497;-1.5245789
-0.08497117;-0.08467899
1.0118858;-0.9909167
0.6746931;-0.77652127
2.2837188;-2.2460608
-1.2664847;1.2046323
-1.2825485;1.2049031
0.05052174;0.05061457
0.8241861;-0.81747067
-2.1970398;2.2653892
-1.517306;1.5851749
1.0186114;-1.1296977
0.015623263;0.015677314
-1.6134087;1.696515
0.027530774;0.027492153
1.4192096;-1.4950894
0.5695325;-0.44607076
0.063089035;0.06295473
-2.5266368;2.5110261
0.7789238;-0.91737527
0.012056062;0.011976995
2.049604;-2.0482802
-1.0681579;1.0056903
-0.6516512;0.72697276
1.7916101;-1.8913879
-1.371899;1.2831855
1.4943315;-1.559816
-0.009189436;-0.0092497645
1.5652813;-1.5334256
-0.07094399;-0.07091749
16.456024;-16.552076
-1.4621285;1.3185904
-0.019688502;-0.019676104
0.011034675;0.011071862
0.8781794;-0.8619786
-2.380033;2.318279
-0.8857625;0.9503685
0.0051431675;0.0055108187
-0.8738645;0.85762197
1.7387059;-1.7076155
-0.06434116;-0.06489238
-1.2070937;1.1262927
-0.042935457;-0.043006327
0.9511208;-0.97753435
2.0174708;-1.8585986
-2.6490016;2.4994676
1.0421581;-1.0469384
0.041536998;0.04163053
1.5020489;-1.4654026
-0.067088746;-0.06699787
1.2211536;-1.3324469
2.1083078;-2.2071955
0.004344129;0.004422269
-1.4701205;1.648261
0.5094129;-0.524635
-2.6911569;2.7776048
-2.3239179;2.1386921
-0.03563653;-0.035883963
0.80291396;-0.6775338
-1.559814;1.6510811
2.2139268;-2.175249
-2.7747018;2.6543388
-2.3769555;2.443368
0.87160504;-0.81114185
0.059254006;0.05923153
-0.0334983;-0.033565413
-0.06586999;-0.06583877
2.1399574;-2.1733987
1.2100115;-1.2784393
-2.071193;2.0425463
0.057535693;0.056169726
1.0589089;-1.1036019
1.6121634;-1.5011398
-1.7589366;1.7933344
-0.5624554;0.71240044
-0.0021525207;-0.0022046103
-0.8210471;0.9136755
2.122913;-2.0830472
0.94509465;-0.7479646
1.2657036;-1.4378756
0.048483882;0.048428863
0.067622885;0.0677116
-1.0614964;0.96164787
0.90053684;-0.7626068
-0.0037550838;-0.003801978
-1.5015584;1.5256493
1.6089096;-1.468127
-0.011560993;-0.011613389
1.1604337;-1.1805412
0.01462028;0.014544418
1.6960989;-1.651904
-2.27374;2.1043582
1.1147004;-1.032552
2.2223558;-2.27981
-0.025984433;-0.025796825
-0.75260466;0.74393785
1.124056;-1.1446499
-1.1966822;1.3848121
0.04044385;0.040470716
1.6999042;-1.6959412
1.3196584;-1.3359874
1.2531499;-1.2846392
-1.3609223;1.4141788
0.0168289;0.016870514
-2.4970276;2.4348993
-1.1402792;1.0297701
1.0997734;-1.1638037
0.66162497;-0.500923
0.020832488;0.021143947
0.016869327;0.01696646
-0.022677796;-0.022718223
1.1752254;-1.1857215
1.7407455;-1.7987682
1.3208098;-1.2611275
-1.3526453;1.5080583
2.1068757;-2.1227686
1.3508147;-1.3613552
1.3858807;-1.3706405
1.8067424;-1.6854826
-1.3905914;1.3326969
-0.0607104;-0.06122597
1.727417;-1.7940598
-1.5394253;1.6116378
-2.602469;2.5674021
2.0405354;-2.0671108
0.08996284;0.08942651
-1.3780277;1.300356
-1.9901555;2.1014712
1.9293962;-2.0342188
0.022807691;0.022825679
1.251515;-1.0925199
1.303919;-1.1756922
-0.8151202;0.78999597
-1.0000253;1.1887782
-1.6893758;1.6207677
0.020185098;0.020310748
0.031298637;0.030567642
0.022376098;0.022404252
0.017102787;0.017090727
0.06711405;0.06727581
-0.06420366;-0.06410543
6.2856;-6.3633785
0.010957096;0.009683054
0.006350848;0.006314536
-1.1323237;1.0804538
-0.042791206;-0.042808965
1.5545328;-1.5762962
-0.006977763;-0.007043314
0.03301602;0.03343581
1.080174;-0.9658105
2.9719799;-2.9983704
-2.6644146;2.6386328
1.2323589;-1.0727084
-0.9716565;0.8110394
-1.5637435;1.4403603
2.3224616;-2.3340185
0.017983723;0.018147081
0.6106432;-0.5532132
-1.4893234;1.3639228
-0.024590192;-0.02449116
1.7582767;-1.7557858
-1.5038526;1.471335
1.7957648;-1.8045472
-1.13113;0.9421272
0.029990312;0.030010052
0.8692642;-0.979003
-0.02506797;-0.025022682
-1.0032442;1.007825
-2.3767736;2.232965
1.695294;-1.6983182
7.7914166;-7.8995795
1.7079272;-1.6203516
-0.04883455;-0.048397582
0.053890374;0.053911515
-0.08196532;-0.08188573
-1.1164635;1.1047237
0.018266888;0.018012736
1.6039677;-1.6092432
1.134141;-1.0194267
0.8039616;-0.6996472
0.07916178;0.07920495
1.7512305;-1.9019654
0.032913927;0.031731784
1.9918305;-2.014469
0.9030055;-0.9331113
1.6315812;-1.5823733
-0.94804114;0.9345055
-1.2449661;1.2901088
-0.024304362;-0.024112292
-0.0035515826;-0.0036256143
-2.6654851;2.6919372
1.1573075;-1.0172942
-1.0579209;0.9647194
1.7897193;-1.7611392
-1.3352964;1.3738724
-2.0242214;1.8655639
0.026498979;0.02678718
0.07447014;0.074716374
1.3135918;-1.216263
-2.0364132;2.0484023
1.9582647;-2.062078
-1.3692394;1.4491807
-0.05935281;-0.059365954
0.042822763;0.043010253
1.4376441;-1.5063555
-0.008654979;-0.0086765075
1.423802;-1.3330667
1.453711;-1.5237979
1.9973204;-2.0376713
-0.066112615;-0.066235185
1.9707692;-1.9466751
-0.013307955;-0.013277749
1.2245667;-1.20116
-1.3141888;1.1271065
0.033835843;0.03369005
1.2391288;-1.3351216
-1.239045;1.4117184
0.019667897;0.019990982
-2.5780847;2.519437
-0.023885949;-0.023835951
0.76044047;-0.5965641
-2.0911865;2.1333032
0.011909928;0.012005764
0.027115136;0.027485348
-0.02229536;-0.022263216
-2.2382565;2.2489846
-1.9822961;1.9112098
-1.5667336;1.5519514
-1.9672458;2.028436
-0.04809105;-0.047967326
1.3391935;-1.433363
-2.9924808;2.8251274
-2.0342088;1.9969721
2.108256;-2.0710251
1.2281116;-1.2437552
-0.041824646;-0.041995868
0.7721416;-0.758201
-2.6659424;2.773715
0.008929245;0.009308339
-0.020178886;-0.02029365
-1.2364033;1.2138666
1.8735042;-1.6917796
0.06353066;0.06311817
-2.92154;3.0869696
1.7080966;-1.799743
-0.64031154;0.6246132
-1.1033194;1.1036339
2.162616;-2.1338632
0.00022012927;0.00035843882
-1.1521381;1.194109
-1.7559569;1.6560633
-0.046221346;-0.046166006
2.1749382;-2.1238918
7.2746167;-7.3021045
2.695424;-2.759139
-1.2847557;1.2466693
-2.3863585;2.3537219
1.798006;-1.7634592
0.00851792;0.008608504
1.0884409;-1.2230408
0.056084268;0.056195512
0.84801245;-0.75298625
1.9785429;-1.9300534
1.3247561;-1.3067335
-0.01913046;-0.019106736
-0.02631917;-0.02626857
-0.039642043;-0.039180625
1.2498939;-1.360992
-0.0067183017;-0.0066320817
-0.7332826;0.5581314
0.017278293;0.017209342
-0.94789094;1.0530409
1.6036953;-1.5283931
0.90652585;-0.9305284
-1.4409754;1.3632149
-1.3653642;1.3078634
0.44203296;-0.3960685
-0.77583754;0.8081032
-1.713345;1.773849
-0.036014665;-0.035900407
-1.4717269;1.5408233
0.0113033885;0.011379606
-1.0994308;1.080853
-1.167153;1.2033228
0.0387875;0.038782608
0.01907921;0.01906872
0.9880332;-1.12453
-0.00616045;-0.0063359216
-1.1021409;0.91400856
0.030679239;0.030603105
-0.010873344;-0.010807396
2.5050733;-2.6438153
0.034241565;0.034307305
1.3081864;-1.3612939
1.5821207;-1.5750855
-1.9219112;2.0480957
0.011924323;0.011691597
-2.193767;2.296994
7.1033134;-7.249006
0.89897907;-0.94842345
1.196363;-1.2030793
-0.022371665;-0.022329949
1.3225805;-1.3705626
1.9611001;-1.9867938
1.9801799;-1.8555655
0.0033420336;0.0034023575
1.306793;-1.3982913
-0.009233349;-0.009170587
0.010206683;0.010451604
1.5794746;-1.6513526
0.07707328;0.07711673
1.2081456;-1.1774952
-0.0018405565;-0.0015994039
0.68321246;-0.7125661
-0.08138713;-0.081519574
-0.05593143;-0.055560637
1.647404;-1.5182141
-0.047404166;-0.04740598
1.79124;-1.7272707
-2.1265602;2.156388
1.3691674;-1.2642198
0.015768772;0.01622072
0.015163493;0.015166437
-1.4295377;1.3933794
-2.1646764;2.1922815
-2.077201;1.9984337
-0.78370845;0.81009865
0.033415083;0.033402056
-2.4249554;2.4705715
-0.00767459;-0.0076417946
1.4486343;-1.2714369
0.91117656;-1.0078105
1.166199;-1.0300703
-2.1895585;2.189073
0.05532979;0.05553475
1.8173203;-1.7644234
0.8371684;-0.7475026
1.6470151;-1.795014
-1.7147722;1.7914048
Bias from hidden to output layer.
0.2208861;-0.22086945
