Weights from input to hidden layer.
-0.4741795;-0.19060032;-0.36975202;-0.027552167;-0.12133264;-0.059510205;-0.0047645736;0.042073384;-0.19622158;-0.41023132;0.15267594;-0.26081258;0.021523504;0.20646162;0.46732336;-0.07907483;0.12050419;-0.29664636;0.055425055;0.3252339;0.24010204;-0.40352315;0.24150483;-0.17740318;0.1373239;-0.33819273;-0.06933248;-0.25848082;0.24287371;0.42437965;0.37092495;0.09028797;0.39302886;-0.009759712;0.02693347;0.22463544;-0.31293264;-0.14790061;0.3973427;-0.08311441;-0.09587882;0.18493481;-0.3020765;-0.11426523;-0.073248684;-0.1852685;0.13731316;0.10011772;0.25114486;-0.06609465;-0.13836586;-0.43098074;0.49693784;0.4862477;0.14421181;-0.09989531;-0.13448775;0.33713973;0.37801;-0.27743155;0.06889975;0.086130075;0.2455896;0.107310675;-0.33957615;-0.016867345;-0.22638623;-0.21867763;0.07318358;-0.3341652;-0.2612843;-0.037293814;-0.13657928;-0.41382283;-0.22280765;-0.05426415;0.09317885;-0.40839022;0.012532865;-0.3619678;-0.01789838;0.21817905;0.094613306;-0.051591676;-0.095835276;0.0045925174;-0.14985809;-0.0451997;-0.029353525;0.43830416;-0.39930394;0.027963702;-0.12192874;0.41091233;0.25794196;-0.5169903;-0.18813737;0.06554107;-0.22125354;0.23980139;0.029001465;0.2143259;-0.14105724;0.32429868;-0.10275456;0.3191574;-0.111677356;-0.018232262;0.3560437;0.002288165;-0.31216756;-0.12873895;-0.15603797;-0.44602025;0.07138728;0.04087448;-0.025836509;-0.17520654;-0.18909676;0.6072931;-0.09779753;-0.21632105;0.2932002;0.377363;-0.1721951;0.07053363;-0.05067439;-0.04462282;0.054723997;-0.06628858;0.1797619;0.37851086;0.1659759;-0.077133074;-0.19391103;-0.28240356;0.2430514;0.18658966;-0.07222976;0.37323225;-0.1379074;-0.47158754;0.45472604;0.24780235;-0.05472102;0.21924852;0.007983698;0.117044024;-0.40972552;-0.1872353;0.037199125;0.005523951;0.3200493;-0.19307595;0.13966782;0.012643315;0.34876025;0.056873772;-0.34308013;-0.17608678;0.13995567;-0.035688445;0.15912145;-0.3279049;0.10431637;0.026806753;0.28071353;0.20296314;-0.20715119;-0.11872949;0.21278438;0.39892226;0.0961186;-0.45673168;-0.3232538;0.16024625;0.17911698;-0.027961526;-0.19670722;-0.11429574;-0.14221986;-0.0043346216;0.515457;-0.17931813;-0.28526244;-0.2820729;0.08483008;-0.072968744;0.17279902;-0.29713503;-0.11686623;0.15524398;-0.1670288;-0.14402317;0.11436234;-0.5731848;0.13196369;-0.27432427;0.11742258;0.10635497;0.31487018;-0.2764708;0.09311982;-0.23457453;0.2749797;-0.27007017;0.028427402;-0.11492268;0.36294565;0.26739594;0.12223582;0.40199214;0.12404111;0.422915;0.15113221;-0.39682892;-0.26428458;0.69845945;0.15120226;-0.35452285;0.07846355;0.31631607;0.2494784;-0.022117872;0.18322048;0.41702753;0.15042102;-0.14344554;0.03107847;-0.18839803;0.038492024;-0.39251837;0.13730197;-0.29395425;-0.121081196;0.40205067;0.39377403;0.4572606;-0.07407833;-0.43179524;-0.010378609;-0.45509014;-0.4388364;-0.16695836;-0.18576364;0.022108257;-0.15691629;0.040374864;-0.0058013806;-0.29816094;-0.12312003;-0.034248646;0.5195013;0.32760996;-0.1634816;0.22157115;-0.12111756;-0.08464579;-0.16756538;-0.025651611;-0.016194854;-0.17727429;-0.5183677;-0.03854936;0.13976574;0.037086334;-0.10320879;-0.22706826;-0.06446912;-0.18323348;0.21338405;-0.16777855;0.27402794;-0.12493952;0.2743621;-0.37721533;-0.16673297;0.3153004;-0.071817376;0.11436795;-0.18869945;-0.25814903;-0.09590325;-0.1705336;0.39421353;0.1733479;-0.18184179;-0.16809088;-0.45954093;-0.24345239;-0.7285215;-0.19120531;0.24825007;0.6248472;0.40920258;0.43177563;-0.42760172;0.17546262;-0.27595946;0.32655323;0.5183533;0.041827366;-0.34803826;0.22928265;0.37650913;0.10212953;0.05018921;0.20070948;0.58768255;0.03720484;0.14064522;0.014480734;-0.16733734;0.04685742;0.13150546;0.036574237;0.09647284;0.09369632;-0.0799597;-0.5901545;0.30982774;0.006397088;-0.08691244;-0.20082808;0.26711294;0.17045419;0.15218154;-0.1520572;-0.2883706;0.40058595;0.34401688;-0.31653327;-0.3139422;-0.5318558;0.0014890188;0.02032895;0.20890127;-0.072017945;-0.24604207;0.039743796;-0.37875772;-0.039189458;0.26850334;-0.01975291;-0.1523923;-0.4025764;-0.16864395;0.014893681;-0.08975185;0.12701008;-0.06678958;-0.21642727;0.19031253;-0.21110594;0.41413206;0.13321754;-0.22460727;-0.08679521;-0.10317963;-0.39844254;-0.18171738;0.08764763;0.20190829;0.013164706;-0.4281713;0.10864898;-0.15529601;0.20527463;-0.5376903;-0.022219548;-0.14370811;0.14044894;0.08953947;0.4068345;-0.17600337;-0.4599446;-0.101842694;-0.0155273015;0.08410894;-0.15414676;-0.32700142;-0.2160473;0.07992052;-0.37947795;-0.5960596;-0.007903071;-0.40957174;-0.26974598;0.1604745;-0.18656377;0.13120076;-0.2373788;0.0021893298;0.49493057;0.18963997;0.1905261;0.022803904;0.13408418;0.13423873;-0.31661117;0.24469368;0.08822372;0.33032545;0.2853847;-0.20560393;0.13245167;0.05954853;0.41757023;0.04335096;-0.13097806;-0.07975386;-0.33568218;-0.20214988;-0.19536908;0.16609563;0.07878786;0.5000335;-0.35993153;0.20747742;-0.20314622;0.14866593;-0.14264125;-0.16162917;0.30117393;0.31942803;-0.14352097;-0.07122218;0.2730163;0.64918876;-0.19218278;0.20988023;-0.27917233;-0.22980681;-0.27386445;-0.1639152;-0.21002595;-0.0123556275;-0.16727374;0.46685737;-0.5412336;-0.15111575;-0.27027738;0.13277413;-0.4145544;-0.04029368;-0.26739177;0.40024883;0.03576184;-0.357339;0.22133815;0.1137103;0.20975451;-0.0041153682;0.23066473;-0.13665251;-0.15013069;-0.5455973;-0.14005856;-0.18274993;-0.07919898;-0.09043614;0.037190426;-0.5536943;-0.2763412;-0.056224637;0.09709906;0.06612837;-0.05720424;-0.18196306;0.17347112;0.4862362;-0.17697035;0.033262055;0.00060038397;-0.187201;0.19706857;0.21621326;0.12507398;0.17023245;-0.09739997;0.2071717;0.0063286577;0.031580612;0.46104813;-0.046890263;-0.18287075;0.09048198;-0.008469261;0.01990967;0.09860704;-0.13840295;-0.18371557;-0.468028;0.088054135;0.41033912;0.1694933;-0.36929968;0.3189945;-0.04393335;-0.48079193;-0.44063354;0.013458496;-0.35329872;0.18987015;-0.19597241;0.6195616;0.08666235;-0.31428653;-0.1868796;-0.1583527;-0.20171346;0.30277508;-0.62897474;-0.019602358;-0.3854792;-0.03720558;0.273016;0.075538695;-0.30844837;-0.63639575;-0.38615283;-0.1837159;0.07377284;0.5274692;0.31882843;-0.054276094;0.042106576;-0.2920071;0.08554178;-0.35688937;-0.05922708;-0.014692366;-0.3128163;0.29560903;0.1597344;0.6811225;0.3886925;0.020741194;0.11511583;-0.23089884;-0.07160825;0.06507584;-0.055982083;-0.057648934;-0.004663999;0.20926711;-0.3860475;-0.2345378;0.016082535;0.22332713;-0.39844564;-0.48775297;-0.21761873;-0.33095744;-0.2730394;-0.16093306;-0.33214384;-0.24335234;-0.09014302;-0.5341976;0.047312126;-0.3417461;0.035007007;0.3797774;-0.2273428;0.1662278;0.08305488;0.29527393;-0.16765863;0.45033482;-0.02442901;0.5408748;-0.27454174;-0.2981727;-0.096095614;0.0955625
-0.41813383;-0.19562234;-0.22739479;0.108567625;-0.09951251;-0.09645357;-0.14663039;-0.0014834013;-0.19082974;-0.42803937;0.15694161;-0.124962226;0.01565658;0.14979282;0.21709147;0.13525788;0.18073042;-0.27373078;0.122448295;-0.012227531;0.13720182;-0.3219107;0.18338746;-0.022828912;0.03295524;-0.25426495;0.04842597;-0.31907046;0.09193466;0.2517135;0.24114066;-0.11994577;0.25799572;-0.10225845;-0.053966846;-0.13128945;-0.13608074;-0.11523958;0.33885995;0.1851025;-0.019920966;0.1584206;-0.14736117;-0.11694585;-0.22417888;-0.057567913;0.11487867;0.21864821;0.05750519;-0.06771717;0.046813104;-0.2940908;0.2091578;0.4440702;0.17734656;-0.1988036;-0.13175407;0.35021606;0.1584466;-0.12027072;0.10285845;-0.086064585;0.30925626;0.02120712;-0.21208121;0.06898283;-0.030542964;-0.062173754;-0.018495789;-0.05688327;-0.21686342;0.07909106;-0.30512163;-0.29427996;-0.04598763;-0.045204308;-0.113064095;-0.386059;-0.07849495;-0.19582576;-0.14959817;0.24288909;-0.050872628;-0.024343893;-0.101476334;0.05246497;-0.006290078;-0.13071983;0.14679919;0.33796757;-0.21034206;-0.020926988;-0.18043403;0.4284447;0.2689383;-0.3289155;-0.011351989;0.104823224;-0.09884242;0.18902838;0.08374175;0.10456754;-0.113387205;0.14753777;-0.25072616;0.1108841;-0.020723542;-0.10522407;0.25157535;0.04948745;-0.21205114;-0.031197675;-0.32642555;-0.5577853;0.021431511;-0.021180673;0.26238504;0.003078795;-0.09462526;0.41052294;-0.21645494;-0.07542244;-0.090418175;0.3883393;-0.07753791;-0.0776343;0.08166363;0.022623088;-0.11088522;-0.15540725;0.00018570886;0.33992258;0.0662175;-0.02640555;-0.20319192;-0.2393127;0.12662758;0.23436415;-0.19129743;0.46189177;-0.007597001;-0.25181255;0.2116961;0.22341882;-0.18875396;0.07465548;-0.03507872;-0.09514201;-0.2509448;0.049011476;-0.027328426;0.114885665;0.20773397;-0.03709039;0.27593955;-0.06548679;0.21496952;0.017522836;-0.40602377;-0.06086724;0.16987492;0.215866;-0.005527334;-0.113042496;0.21904963;0.037390795;0.020710744;0.20478322;-0.089344494;-0.006780719;0.124097444;0.23000863;0.15109837;-0.17453615;-0.32961237;0.15319008;-0.0314578;0.01804209;-0.07273393;-0.026851691;-0.40477985;0.044594806;0.36388668;-0.21919388;-0.29006436;0.018099565;0.029736055;-0.22082609;0.16421413;-0.25418517;0.052639674;0.13601278;-0.16434991;-0.26672593;0.0002655725;-0.433239;0.26681596;-0.120697685;0.044564106;-0.14370456;0.07459179;-0.21150504;0.11344191;-0.01683228;0.20261896;-0.120108634;-0.13520057;-0.16428415;0.23842832;0.08388843;0.12350502;0.3344853;0.020492414;0.20605232;0.16303691;-0.23756833;-0.2152753;0.4425836;0.1328075;-0.094725735;0.080178216;0.26079443;0.17551774;-0.013639359;0.023219856;0.24984817;0.09849862;-0.2025961;0.019717123;-0.115004644;0.079339266;-0.110973604;0.24134244;-0.10765898;-0.12824921;0.27898878;0.16647673;0.3740484;-0.10083777;-0.29708874;-0.10723201;-0.37718934;-0.16932122;-0.09883026;-0.23352404;-0.058310077;-0.2678206;0.09525547;-0.08117896;-0.128076;-0.22974816;-0.105629705;0.3777857;0.20973124;-0.040886384;0.08287605;0.043919902;-0.27958405;-0.04248143;0.102376856;0.052029856;-0.091702655;-0.31654832;-0.0033036864;-0.07515108;-0.10223662;0.018255627;0.056265064;0.10382103;-0.030332534;0.25197983;-0.025048552;0.33411705;-0.23154023;0.29010528;-0.11002241;0.00066293887;0.18057989;-0.28486362;-0.042859353;-0.14780393;-0.10342072;-0.12176335;-0.06550043;0.2902395;-0.046555825;-0.20967291;-0.12452649;-0.25531593;0.0147392675;-0.57931966;-0.2718431;0.100348;0.3862565;0.22660778;0.44723174;-0.14710848;0.18454531;-0.16127028;0.1629363;0.33679742;0.16340905;-0.24483714;0.30711237;0.18025765;0.0911892;-0.04541438;0.22686872;0.3145326;-0.045035034;0.19352438;0.21403325;-0.08273049;0.10457526;0.09518845;0.009972329;0.20916659;0.10822911;-0.035435874;-0.6248748;0.16904913;-0.23476075;-0.10673177;-0.054794062;0.27397963;-0.0012088782;0.050278172;-0.14200066;-0.34022295;0.30136397;0.3630881;-0.13689403;-0.20263278;-0.42829084;0.029072963;-0.027267648;0.085462905;-0.017501423;-0.4010347;-0.1430226;-0.4211019;-0.10312111;0.1279089;0.012521321;-0.07854456;-0.3150418;-0.00054909225;-0.025007898;-0.030315615;0.17783745;-0.25145704;-0.10066779;0.22638872;-0.20696175;0.36064819;0.082323015;-0.14257951;0.08445992;0.040150832;-0.26966006;-0.014706973;0.053860493;0.10118112;0.00064400147;-0.38622388;0.075166054;-0.17429438;0.012529838;-0.34187943;-0.04945645;-0.100587405;0.09543584;0.08659306;0.14818299;-0.1409935;-0.4164731;0.11709086;0.044960078;0.2008447;-0.006558248;-0.2648826;-0.14600302;-0.036774326;-0.12331271;-0.5738518;-2.0045609e-05;-0.08314365;-0.42808577;-0.005854261;-0.08864144;-0.06562222;-0.021643823;0.096821316;0.40374008;-0.10012441;0.3442498;0.24539532;0.13263772;0.10800283;-0.41185272;0.19702682;0.09238271;0.075039536;0.038386703;-0.16973548;-0.005926979;-0.11120993;0.14213686;-0.028476195;-0.09828882;-0.0026870223;-0.3289496;-0.18537804;-0.0682113;0.1322929;0.23001356;0.32891256;-0.26928678;0.13465883;-0.33406878;0.11518376;-0.23944552;-0.18792713;0.031927552;0.26467082;-0.012645397;-0.10758459;0.15699105;0.49360353;-0.10940016;0.038628664;-0.24708453;0.10473226;-0.05864014;0.07024974;-0.17623164;-0.18977818;-0.1691301;0.30410892;-0.43623137;0.0007759883;-0.09933639;0.22311379;-0.24510828;-0.039795674;-0.14158931;0.43509835;0.07124114;-0.25886583;0.2031548;0.12636456;0.08680735;-0.039189134;0.09451036;-0.048909172;-0.20040949;-0.2847743;-0.08391368;-0.013668911;0.043143086;0.09018165;-0.15422274;-0.40552968;-0.14137247;0.11745953;0.23921634;0.017139232;0.015744314;-0.45353624;0.13090399;0.5887799;-0.17325965;0.08179925;-0.029298678;-0.2838513;0.16512032;0.18584406;0.2466814;0.20022409;0.06369534;0.21609326;-0.077477776;-0.085734144;0.3452044;0.038663387;-0.0043711057;0.17619167;-0.015929492;-0.046433657;0.188855;-0.08886219;-0.103374556;-0.44055462;0.09647485;0.3876247;0.2289766;-0.3410758;0.31002933;0.024540009;-0.60856414;-0.38009804;-0.07549171;-0.30210012;0.005901509;-0.09729921;0.4104992;-0.13874573;-0.3656993;-0.24537604;-0.11449015;-0.18455403;0.053051755;-0.4016887;0.06784939;-0.26135966;0.08553446;0.139476;0.009945191;-0.25722128;-0.52662003;-0.29409322;-0.33852544;-0.023364289;0.23257698;0.106313534;0.048470017;-0.077483185;-0.15355322;0.0059819785;-0.08442909;0.09362457;-0.022383055;-0.21925606;0.25688085;0.12989429;0.54215145;0.26798555;-0.12159655;-0.15045148;0.06064737;0.004395346;0.02738754;-0.13311638;-0.27703184;0.043033395;0.051384173;-0.21938324;-0.0761015;0.0019478169;0.16900685;-0.1275556;-0.6333818;-0.23960249;-0.2211693;-0.114295766;-0.056782518;-0.06394911;-0.022315674;-0.04682522;-0.30504066;-0.09268117;-0.21193509;-0.13494776;0.14730479;-0.18620613;0.22934671;-0.12859035;0.03206525;-0.09475175;0.44237107;0.09046074;0.46901184;-0.20780914;-0.20177543;0.028361449;0.20133476
-0.4291552;-0.15359701;-0.12859981;0.028082019;-0.12276432;0.20033479;-0.18739156;-0.061088126;-0.014495996;-0.32147175;0.14075282;-0.27266717;0.023636866;0.027486974;0.20198937;0.05110562;0.22388771;-0.111384146;0.21668687;0.05008279;0.24987449;-0.20383464;0.30946857;-0.09585688;0.08126383;-0.20820257;0.07355224;-0.116173774;-0.04769213;0.3796978;0.21660307;-0.13097404;0.28701305;0.05779294;0.12277074;-0.036817536;-0.16632764;-0.0046989527;0.30809355;0.2168774;0.019385738;-0.038033675;-0.051129706;-0.09387457;-0.31627148;-0.060138818;0.074101254;0.18768325;0.099623896;-0.04803017;-0.06317586;-0.26951146;0.20598537;0.36992103;0.3254305;-0.22194384;-0.11249922;0.30970347;0.14701988;-0.20519409;-0.03841764;-0.12790799;0.15777743;0.020659966;-0.1431371;-0.07023327;-0.08852865;-0.013211565;-0.0032147337;-0.056714825;-0.22306636;0.11929768;-0.18063566;-0.28760466;-0.038796913;0.028278874;-0.049168658;-0.36140755;-0.13917089;-0.11243166;-0.031142915;0.11242021;-0.11092991;-0.13927945;-0.07556205;0.13989992;0.0415218;-0.022520376;0.10997018;0.20054875;-0.17199993;0.047590945;-0.032132473;0.15011242;0.25821295;-0.23336932;0.003169248;0.20220307;-0.07825826;0.17290032;0.025371136;-0.04781933;-0.13104956;0.15527849;-0.098098546;0.009278487;-0.14535566;-0.21282133;0.27675897;0.07235821;-0.2157004;-0.06520866;-0.14990655;-0.38455498;-0.0017650581;-0.097997904;0.434384;0.058067355;-0.07494828;0.33347064;-0.23425674;-0.08051686;-0.10822514;0.31104037;-0.014050115;-0.052016728;-0.03907546;0.030138152;-0.1432793;-0.19068892;0.08114643;0.34334743;-0.027551062;0.055465024;-0.36660334;-0.1643223;0.11184662;0.21012048;-0.07752584;0.38343525;-0.083143935;-0.26453957;0.1838633;0.051733844;-0.18489516;-0.13210739;-0.18366879;-0.037464514;-0.17783172;0.12536524;0.11950715;-0.07124109;0.2109701;-0.09489613;0.35214508;-0.09145594;0.22463448;0.050084587;-0.31918678;-0.04060923;0.2460449;0.1537819;-0.07392967;-0.156564;0.25013423;-0.04472558;0.044845358;0.161077;-0.08233037;-0.027534412;0.019679297;0.19250591;0.06736254;-0.08919081;-0.24867576;0.29393914;-0.021506203;-0.13194832;-0.18033296;0.0013362865;-0.40018564;-0.0028262038;0.24135052;-0.058914606;-0.3649118;-0.014889729;-0.033001337;-0.14442244;0.28708145;-0.23286273;0.016611865;-0.030851603;-0.14629269;-0.3183806;-0.03399128;-0.20456193;0.24289864;0.014096727;0.11829843;-0.034102496;0.20529112;-0.176757;0.0278264;0.025207115;0.045008153;0.025248202;-0.11650113;-0.056941636;0.3080301;0.056346424;0.122260146;0.22429487;0.06839138;0.007185969;0.09094562;-0.27254674;-0.04738173;0.35136577;0.044780295;-0.18822096;0.17971031;0.2828928;0.11178959;-0.031033147;-0.03124306;0.2044658;0.19109079;-0.15248242;0.016568623;0.003432005;0.02138604;-0.0628687;0.17192733;0.0076397248;-0.17124842;0.21425544;0.1488825;0.3741875;-0.07781919;-0.25568497;-0.08399163;-0.45611304;-0.1919452;-0.08593085;-0.19794221;-0.116587974;-0.19993922;0.016290369;0.0023124062;-0.097654864;-0.25805706;0.01662466;0.31383938;0.1386345;0.10880136;0.08680069;0.012057494;-0.24085984;-0.0027178647;0.04196421;-0.11894154;-0.07588805;-0.09746947;0.14138551;-0.049357634;-0.019202951;0.10016208;0.07067171;0.08197722;-0.12895674;0.18655989;0.037658703;0.27339372;-0.074428044;0.13156871;-0.024271088;0.0058828183;0.09977512;-0.19549598;0.018028682;0.08262731;-0.026854511;0.004022339;-0.17459005;0.12072812;-0.07211242;-0.052759837;-0.00054044084;-0.22643916;0.082782894;-0.51381826;-0.2598606;0.1360748;0.34676623;0.22958319;0.40282553;-0.092680715;0.22868077;-0.107168734;0.19097655;0.19897963;0.08848587;-0.13696532;0.19496669;0.14600907;0.104704864;-0.087076955;0.083674885;0.2611626;0.021391658;0.22626103;0.1954727;0.01131599;0.0887635;0.0061350204;0.011618976;0.21244948;0.022651242;0.08002408;-0.46370706;0.021900304;-0.20146765;-0.16391732;-0.10195777;0.13245532;0.062213987;0.108320914;-0.021053644;-0.31519517;0.18177164;0.23037046;-0.18949987;-0.14256655;-0.32396722;-0.013615236;-0.09458758;-0.0053249346;0.031960934;-0.41234896;-0.19086596;-0.31469852;-0.011599399;0.12468567;0.00029293337;-0.09183249;-0.22169419;-0.023760818;-0.01984456;-0.030167518;-0.0023798458;-0.21474142;-0.19415334;0.23466456;-0.15024988;0.2700851;0.15697376;-0.049591754;0.12680636;0.0017152852;-0.36726904;-0.039182946;0.0895597;0.14066085;0.1079797;-0.3787249;0.030178364;0.039733797;-0.04973005;-0.23471007;-0.083715916;0.053076003;0.031988297;0.0949282;0.24607208;-0.016875353;-0.46443737;0.044884946;0.14387137;0.33663675;0.09530952;-0.115266845;-0.14458956;-0.020032326;-0.21821561;-0.5057418;0.031393006;-0.10373408;-0.47753316;0.008039304;-0.009338488;0.17366679;0.034359563;-0.011702378;0.3430543;-0.1044578;0.25538436;0.15999715;0.15381552;0.16841704;-0.43250006;0.09975049;-0.04919623;0.020479867;0.06806304;-0.021590713;0.029249527;-0.15738568;0.08245157;-0.0007418446;-0.13609184;0.16929656;-0.27041593;-0.11273355;0.005095522;0.047043353;0.112108886;0.18727419;-0.2099489;0.20128481;-0.2905523;0.050306123;-0.1227664;-0.14768714;0.13306737;0.0074225166;0.059499882;-0.07774601;0.093191646;0.35934594;-0.03727995;0.086197235;-0.26133823;0.115608;-0.15832628;-0.06432797;-0.09631526;-0.19190052;-0.045359466;0.21767554;-0.3618983;-0.042673074;0.11095357;0.10342519;-0.26079735;-0.068155594;0.039171927;0.30255318;-0.098565646;-0.32368746;0.11580551;0.060973924;0.09591337;0.072607756;0.015391467;-0.25495142;-0.119556166;-0.32779104;-0.15856996;0.114647605;0.0368769;-0.0022742734;-0.13928631;-0.2948067;-0.22362413;0.0030337;0.21879488;0.14632176;0.14062865;-0.40366253;0.07521548;0.40532747;-0.12984066;0.10729155;-0.017064795;-0.28163356;0.093020335;0.13770278;0.20910105;0.12991;0.10408991;0.31632015;-0.052152872;-0.10416992;0.36694586;-0.022742024;0.104389384;0.20151357;0.10566038;-0.09830845;0.14010525;-0.10666044;0.06768739;-0.2696061;0.03082102;0.40285212;0.13130194;-0.3009113;0.1581036;-0.022936964;-0.6388239;-0.30398428;0.007839558;-0.15156391;-0.083210476;-0.11726445;0.1537302;-0.10422209;-0.32938072;-0.18730229;-0.062328752;-0.14259538;0.11479853;-0.3265872;-0.08643544;-0.19001302;0.0835225;0.11230411;-0.044607896;-0.111184016;-0.43309;-0.32375196;-0.124685146;0.014959431;0.18282564;0.08954923;0.009555158;-0.1119141;-0.15386923;-0.048795994;-0.16420591;-0.0659372;0.043231122;-0.27494994;0.13386591;0.13659234;0.3964221;0.11827555;-0.065493286;0.010702424;0.044419076;0.02616718;0.04892284;-0.06282556;-0.22497673;0.21165378;-0.119458675;-0.17594852;0.013112166;-0.06746033;0.17718343;-0.10157636;-0.49594074;-0.22774717;-0.14032504;-0.048241533;0.1319224;-0.013586563;-0.028646177;0.0009880423;-0.293203;0.11596938;-0.022302063;-0.0060171466;0.07870616;-0.13244615;0.3204609;-0.10871562;0.17632872;-0.08209413;0.25117838;-0.041173715;0.4982424;-0.18196802;-0.13179119;-0.0122726755;0.18006049
-0.19465812;-0.12186519;-0.1540456;0.16761811;0.042378586;0.10810213;-0.13071577;-0.046437304;-0.010768842;-0.34692585;0.12678604;-0.2029263;0.07152723;0.025902605;0.13388464;-0.017488338;0.21714748;-0.16125208;0.17035788;0.17295855;0.13918406;-0.031930566;0.086385906;-0.0640564;0.17576185;-0.22167668;0.077976644;-0.020690043;0.0611022;0.22049175;0.23993646;0.03277334;0.021582102;0.005074337;0.13964011;-0.07382899;-0.22901812;0.013963675;0.2018866;0.14556098;-0.0679854;-0.10339537;-0.11980613;-0.05862503;-0.3177181;-0.023399994;0.08147997;0.17440112;-0.012242338;0.059481528;0.061715305;-0.13562682;0.065944485;0.3865438;0.26871383;-0.031208092;0.026744459;0.1718105;0.12892333;-0.20101354;-0.031939987;-0.09308708;0.1895491;0.06473137;-0.037541453;-0.11679112;-0.061388053;-0.02402893;0.03208092;-0.13144492;-0.3709978;-0.046742063;-0.033177674;-0.29092675;0.0034252424;0.12578602;0.10383938;-0.2883187;-0.11854052;-0.10550682;0.046821214;0.120881505;-0.016417399;-0.1863555;0.02186349;0.19316983;-0.051341258;-0.11257114;-0.047287825;0.11536989;-0.10770089;0.07026952;-0.110353015;-0.014450943;0.19711219;-0.3525424;0.06543676;0.0425554;-0.074850954;0.044537522;0.016241638;0.045830563;-0.17048366;0.25106895;-0.027474409;0.008905467;-0.071538724;-0.18496707;0.3210957;0.0766654;-0.25769046;0.014862967;-0.19054313;-0.3086439;-0.05487938;-0.08134064;0.4821948;0.030517831;-0.12668075;0.18564501;-0.15388551;-0.05781022;-0.092643425;0.22963478;0.009233968;0.12450243;-0.06468968;0.048466366;0.0015916867;-0.08382235;0.06717324;0.1955036;0.046933126;0.032508425;-0.31249377;-0.13355258;0.16373925;0.14281824;-0.15991487;0.29355907;-0.0019719305;-0.07611598;0.18192737;0.108673215;-0.19850896;-0.22531895;-0.15199767;-0.03239314;-0.17286736;0.008770426;0.10368204;-0.16934007;0.04446538;-0.023852581;0.21503805;-0.10030379;0.12391196;-0.030548463;-0.25669375;0.120440386;0.14694653;-0.004696135;-0.08030545;-0.19231074;0.39001462;-0.094892;0.14697437;0.11744322;-0.0074225357;-0.06731255;0.030633826;0.17294921;0.044752434;-0.23343465;-0.07680276;0.22162779;0.017247874;-0.16916041;-0.22195843;0.09070322;-0.22483492;0.03902008;0.21619335;0.03754993;-0.28147173;-0.17986743;-0.0008996335;-0.16799605;0.25046164;-0.1362264;0.048853073;0.0017556297;-0.10328074;-0.19331928;0.09880414;-0.11759167;0.3606951;-0.04133736;0.04615512;0.010715415;0.12982446;-0.39094353;-0.051801726;-0.042917695;0.09088027;-0.12551981;-0.039556716;0.06402891;0.20836353;0.1335996;0.06755932;0.23353417;0.042457685;0.061088674;0.040540412;-0.2722571;-0.113712825;0.3016029;0.008573045;-0.06354276;0.15646046;0.20510435;0.07255243;-0.030615523;0.03522866;0.010413586;-0.010204385;-0.10903987;-0.049756076;0.053004026;-0.084883004;-0.17445071;0.24172631;0.08678775;-0.14234139;-0.011440843;0.09027357;0.37313655;0.027771775;-0.10834456;-0.008195104;-0.47942787;-0.15501854;-0.00552075;-0.15099394;-0.13972285;-0.18193927;-0.07875357;-0.059243627;0.0027616352;-0.24646133;-0.039022513;0.09705144;0.25277987;0.13578211;0.08333936;0.0026601406;-0.1734585;-0.11758451;0.06847522;0.100703515;0.011443271;-0.06996503;0.04495184;-0.11698572;-0.14434105;0.12155296;0.0024469087;-0.01552831;-0.21352638;0.060059477;0.048664223;0.03695783;-0.1209726;0.16317359;-0.043063436;0.07873878;0.069598205;-0.22766379;-0.1697292;0.07601085;-0.007840411;-0.107466936;-0.20030275;0.05473591;0.029530259;0.071407974;0.15481882;-0.2608214;-0.037516546;-0.29373506;-0.25572586;0.10233361;0.18758304;0.24088193;0.25317696;0.048611913;0.21451737;-0.18265617;0.085568674;0.16676033;0.17859182;-0.13508978;0.14372025;0.22251481;0.13150437;0.018037839;0.16965638;0.11797229;-0.09720375;0.112924986;0.27572826;0.011834051;0.14764899;-0.13146299;0.012913181;0.107241265;0.03251375;0.10386641;-0.40705946;0.101220414;0.009970822;-0.086538345;0.030287404;0.17706004;0.10261991;0.08245693;-0.10337071;-0.2936202;0.055353567;0.23292573;0.06809078;-0.15926293;-0.2143157;-0.02869349;-0.17529657;-0.048946418;0.060681485;-0.24939711;-0.12730716;-0.2291043;0.012242139;0.012274774;-0.07707838;-0.13145864;-0.06300466;0.09785778;-0.0061559253;0.05211732;0.16243501;-0.22042711;-0.26992938;0.16494496;-0.2559624;0.33817774;0.11839729;0.0053729326;0.03915833;0.05001436;-0.28809533;0.0056944606;-0.012154157;0.14929561;0.041567493;-0.29660353;0.022816544;-0.026307855;0.006576415;-0.21544406;-0.09561125;0.026001858;-0.0391039;0.10060318;0.36963797;-0.08958113;-0.18532246;0.042152766;0.04849951;0.38445354;0.020866755;-0.20626584;0.049683053;-0.080096334;-0.11881409;-0.46576452;-0.14806773;-0.17276132;-0.23867297;0.088840246;-0.10953403;0.157894;0.0033556088;-0.10187593;0.2933279;-0.1749673;0.12258706;0.12745216;0.069270164;0.13883194;-0.37966526;0.0966324;-0.066287585;-0.08698686;0.01890984;-0.09421998;0.10540032;-0.014980187;0.048892625;-0.084259555;-0.09924503;0.19099948;-0.20391208;0.013477778;-0.07318024;0.078708105;0.034375396;0.1499563;-0.20194426;0.20596837;-0.3953627;0.006706661;-0.14690512;-0.15443711;0.21269462;-0.001432346;0.045319103;-0.15128456;0.014928555;0.2918198;-0.113554314;-0.0701428;-0.1262053;0.13375862;-0.057379764;-0.09968758;-0.072233714;-0.18438424;0.09329904;0.2004777;-0.22288787;-0.20458873;-0.0129563445;0.06685886;-0.26751274;-0.061205883;-0.027635237;0.15023065;-0.09716603;-0.27966756;0.060919918;-0.079051286;0.05291992;-0.028368682;-0.07225946;-0.07612125;-0.21849354;-0.24781427;-0.09108958;0.07439608;-0.022009892;0.07618373;-0.25551832;-0.31145474;-0.09167264;0.029861001;0.35620558;0.24331875;0.03697928;-0.41875055;-0.017519932;0.13716546;-0.119969964;0.03568513;-0.11652544;-0.18813334;-0.021147195;0.022588596;0.029482177;-0.02488025;-0.03183759;0.24806713;-0.013576838;-0.059103657;0.13423295;-0.09576214;0.047842465;0.056341402;0.16443855;-0.010117553;0.003739916;-0.033276323;0.052711237;-0.22787105;-0.069637716;0.30854627;0.1206645;-0.060036313;0.25222504;-0.0012584787;-0.541293;-0.14130062;0.085392796;-0.13082127;-0.1939993;-0.15027796;-0.0023425543;-0.049241167;-0.17783709;-0.24984017;0.050393376;-0.04669976;0.24460307;-0.30869538;-0.04019094;-0.19564298;0.044691917;0.095984064;-0.017532092;0.0027309183;-0.2654652;-0.23784426;-0.11472954;0.14769134;0.047000833;-0.056958664;-0.17354146;0.021427078;-0.10058416;-0.09512623;-0.1898109;-0.19580129;0.09950856;-0.31886998;0.07740442;-0.012492336;0.14823006;0.10746733;-0.04961792;0.084827095;0.014044854;0.115186;-0.051699325;0.11477331;-0.1250379;0.10862749;0.023447167;-0.06474973;0.002509629;-0.10157052;0.07468458;-0.20485486;-0.38474745;-0.18464866;-0.17770751;-0.13808757;0.09319464;-0.085794084;-0.09291219;0.011695211;-0.30309314;0.08533662;0.055102486;-0.13976505;0.1279337;-0.095278576;0.25036174;-0.016009912;0.18521522;-0.0791328;0.111686245;-0.13885559;0.36304867;-0.07934649;-0.08669088;-0.0053146407;-0.04339307
-0.16821115;-0.18609041;-0.10733369;0.0957564;0.04708271;0.039659876;-0.1348618;0.019169359;0.016648786;-0.25018927;0.1490382;-0.15010628;0.21435247;0.030828787;0.10702976;-0.011358792;0.16958578;-0.07071207;0.24087636;0.1591746;0.07950344;-0.10101765;-0.012435705;0.052616015;0.122925654;-0.14279866;0.011591737;0.03609223;-0.084268324;0.3153756;0.2353662;0.054173723;0.05967361;-0.015441435;-0.06551131;-0.14577465;-0.041177195;0.0398593;0.10475951;0.26684305;-0.13082917;0.022806084;-0.12847516;-0.01374154;-0.31010178;0.04000079;0.08457007;0.193866;0.07404065;0.12949951;0.05403011;-0.024820717;0.018405672;0.4068857;0.18052658;-0.12962104;0.008231685;0.12435339;0.10089793;-0.26931643;-0.034586515;-0.05769947;0.06930554;-0.03462184;-0.06746875;-0.0049944334;-0.03540421;0.0018221947;0.0999191;-0.06489155;-0.22728094;-0.10452826;-0.08271269;-0.20318142;0.025348349;0.07960886;0.0007381503;-0.23956406;-0.0122705465;-0.07605324;-0.057040915;0.09840337;-0.014731858;-0.060234983;0.05890689;0.18823294;0.012875023;-0.07060208;-0.09407437;-0.018745176;-0.028236417;-0.096215464;-0.08456699;0.08016732;0.17292476;-0.2553716;0.1505143;0.0051800734;0.04391435;0.026753992;0.012731842;-0.033599243;-0.24311341;0.094876185;-0.035716124;0.123869054;-0.064168096;-0.080001295;0.19092183;-0.042211257;-0.1710165;0.0771604;0.0054260115;-0.3320974;-0.039227657;-0.031094667;0.48538417;0.047031235;-0.10192613;0.22182877;-0.27570784;-0.04370792;-0.13381876;0.25766614;0.10299025;0.096604384;-0.08165191;-0.023331845;-0.12363717;-0.06692135;0.09593548;0.19183984;-0.08316671;0.14246076;-0.32200074;0.0021322977;0.16418311;0.020353835;-0.10324649;0.18301068;-0.059743352;-0.16813812;0.05207143;-0.04006932;-0.23214488;-0.21602702;-0.14062627;-0.17140922;-0.19072098;-0.03753665;0.039164715;-0.15754175;0.13108332;-0.09193235;0.18300493;-0.012566252;0.15397766;0.0126031665;-0.21831194;0.109001674;0.09761177;-0.025651308;0.025436688;-0.21638666;0.24699458;-0.16307057;0.05031581;0.18706578;-0.06486474;-0.12912212;-0.030046174;0.15408507;0.058557607;-0.2521892;-0.14421725;0.1455461;0.0500033;-0.13042794;-0.07694154;0.016853755;-0.080284506;0.06310721;0.2702542;0.08659517;-0.19729242;-0.08650026;0.005697056;-0.3505717;0.31358153;-0.033160064;0.16679926;0.072655946;-0.16147138;-0.15081196;0.14589517;-0.11709394;0.25269803;-0.028205369;0.06910523;0.09948736;0.09036613;-0.30036303;0.016227664;0.032299995;0.05619032;0.03108127;-0.12495869;-0.048093304;0.27584437;0.11444018;0.013637212;0.12253405;0.110212415;0.005494641;0.10713226;-0.18537922;-0.015056771;0.13055646;-0.058699075;-0.078011;0.14741229;0.14335434;0.14281212;0.01173695;0.12283594;0.019886188;0.14819418;-0.25781778;-0.029541388;0.09344125;-0.024641348;-0.19143754;0.28899628;0.030945104;-0.2418295;0.007218018;0.11942178;0.36884266;0.057088908;-0.104964785;0.07726409;-0.45270202;-0.15198421;-0.09479055;-0.30066442;-0.11157173;-0.17101318;-0.10956614;0.058046397;0.042077508;-0.19957821;-0.0364951;0.1347593;0.2280127;0.19699007;-0.012000622;0.032515135;-0.25702125;0.02600702;-0.076860085;-0.03490235;0.004270084;-0.12718476;0.1069666;-0.2118767;-0.108493045;0.04071503;0.121478505;-0.023420291;-0.16293654;0.17673004;-0.04067398;-0.057756245;-0.061457217;0.24238507;-0.02861957;0.11778825;-0.018991055;-0.18868688;-0.14446299;0.026895933;-0.18372695;-0.09214268;-0.22564659;0.123279564;-0.01836941;0.047578443;0.15001453;-0.13691546;-0.08338476;-0.3307085;-0.17107928;0.14052008;0.23952048;0.17109604;0.24498893;0.029478317;0.17720087;-0.12924446;0.12168922;0.0986018;0.16212405;-0.14806227;0.15045862;0.10450462;0.11259262;0.090539604;0.28831214;0.1755009;0.03114448;0.14372018;0.4034201;0.11579005;0.05481866;-0.06642529;0.07030762;0.20618843;0.00042835285;0.13670862;-0.4563472;0.038921934;-0.0004411193;-0.06777622;0.015121616;0.1518661;-0.019768009;0.09513111;0.013838128;-0.28365985;-0.038148075;0.27526194;-0.009513727;-0.22569494;-0.0253191;-0.10512693;-0.12912612;-0.04227589;0.10303693;-0.3297565;-0.15053767;-0.12658288;-0.15305477;-0.003824819;-0.059048224;-0.027022019;-0.19840889;0.041019436;-0.0034344117;0.0674945;0.1498117;-0.1704969;-0.15504713;0.17244224;-0.15368387;0.30641028;0.047134582;-0.01638787;-0.11227055;0.012449383;-0.18722476;0.032997116;0.03212905;0.058590684;0.08187415;-0.08921671;0.009667936;0.14718623;-0.053180583;-0.24524122;-0.11615318;0.057522893;0.0056353803;0.12780638;0.3132431;-0.053182326;-0.15397647;-0.06755025;0.06817606;0.25776914;0.16645198;-0.16217455;-0.039902702;-0.0059477133;-0.06533397;-0.29985338;-0.10367567;-0.025830416;-0.23298147;0.04043653;0.021155933;0.07388354;0.15364015;-0.13773058;0.32540888;-0.15815936;0.01645493;0.18636513;0.051320247;0.14599061;-0.36013213;0.088106036;0.02004259;-0.24118908;-0.025814489;0.039484397;0.026502794;-0.1212885;-0.005768865;-0.012246111;-0.09501134;0.08780469;-0.049392976;0.025638334;-0.06689569;0.06558403;0.09396309;0.2459932;-0.14032719;0.053363744;-0.29363766;0.024572972;-0.043706723;-0.1822161;0.10779485;0.0020834766;-0.012593561;-0.24062692;-0.10872988;0.09025196;-0.09234485;-0.1026084;-0.12629533;0.27778393;-0.14947313;-0.08011276;-0.00081732956;-0.0059889005;0.034112714;0.03832709;-0.20794155;-0.13940358;-0.0013296797;0.115905516;-0.23755658;-0.051789094;0.00047115114;0.09056983;-0.039979443;-0.31889313;0.0141808605;-0.07783127;-0.044136435;-0.09979589;-0.0885114;-0.0472013;-0.1400683;-0.15677568;-0.1662237;0.07382123;-0.14770062;0.08728715;-0.22621183;-0.29629868;-0.0627227;-0.021200245;0.42889205;0.2197212;0.034246996;-0.4176358;0.02686967;0.22087744;0.01884767;0.07650662;-0.18678991;-0.0163421;0.06427457;0.009133895;0.08609079;0.07522658;-0.04026327;0.16265872;-0.029730143;-0.11163625;0.052529786;-0.046337735;0.008750662;0.13986877;0.12850173;-0.005691249;0.08768415;-0.10322477;0.06656635;-0.19506139;-0.0021659553;0.295638;0.10917667;-0.04204925;0.23093383;-0.080175646;-0.42381617;-0.016216;0.013609066;-0.18709023;-0.18838134;-0.14894207;-0.029104037;-0.036439948;-0.0635861;-0.1581558;0.029832108;-0.064584665;0.3080788;-0.25552937;-0.15577613;-0.29244247;0.12322747;0.046551853;-0.088825114;-0.15188298;-0.18565395;-0.107515365;-0.0966527;0.081828125;0.041078463;0.023857184;-0.03185413;0.0023085177;-0.061347436;-0.115523435;-0.2357125;-0.104233906;0.16909483;-0.3280335;0.08323516;-0.104331724;0.10782805;0.12060885;-0.12674753;0.01463333;0.024716083;0.15859723;0.022229679;0.053029433;0.04590858;0.017684259;-0.048888806;-0.06631396;0.09495148;-0.10055283;-0.09725972;-0.22876407;-0.36616322;-0.05448385;0.032613825;-0.13959512;0.12418541;0.040737316;-0.05038878;0.070387885;-0.23583546;0.1110066;0.0006706221;-0.15791094;0.20102417;0.06087436;0.1420936;-0.16700348;0.007336425;-0.14255975;0.07374395;0.016613364;0.29748383;0.06210259;-0.0011177834;0.14210251;-0.10463763
-0.22321679;-0.06857736;-0.08745689;0.029880662;0.08153305;0.18947199;-0.22167109;-0.025858313;-0.019421017;-0.14833656;0.13876973;-0.15748882;0.17357604;0.025327578;0.06766346;0.07709717;0.21171345;-0.12591769;0.18293263;0.08404642;0.11157933;0.029813152;0.01670361;0.058432933;0.09166001;-0.14631945;0.1247781;-0.02537609;-0.06775505;0.29860878;0.2541799;-0.0573018;-0.05264685;0.058344577;0.10793634;-0.12692827;-0.141498;0.062456254;0.13269271;0.10725455;-0.20933641;-0.1228452;-0.028076941;-0.18072836;-0.22612865;0.011096984;0.13190302;0.08426702;-0.038862504;0.15859458;0.20503205;-0.10863575;0.02035527;0.3150975;0.24125434;-0.051398426;0.016731111;-0.103771806;0.12971696;-0.20558082;-0.04617857;-0.20150949;0.063206956;-0.0018820032;-0.13614924;-0.04878645;0.020184113;0.073857255;0.04712598;0.031465698;-0.26444548;-0.12599227;-0.053237464;-0.1953941;0.08158594;0.17373429;0.107453644;-0.21944238;-0.09872584;-0.13080609;-0.06734748;0.050468925;-0.05051992;-0.03287614;0.11833666;0.10027371;-0.044104204;-0.0051747137;-0.067458086;-0.009785692;0.018728554;0.06164056;-0.09622666;-0.053386312;0.121872775;-0.3777773;0.09607806;0.044636764;0.03084419;0.015198358;-0.08616474;0.0069638076;-0.15102606;0.115064286;-0.11227782;0.08083589;-0.23776029;-0.16769566;0.20523326;-0.027553609;-0.13624004;0.013945374;-0.057460085;-0.32045615;-0.01821875;-0.013738536;0.4561105;-0.0876447;-0.19875868;0.13968728;-0.27992734;-0.006445368;-0.15396674;0.12778442;-0.017231876;0.115265556;-0.103428066;0.03453263;-0.06316706;-0.026480371;0.2095819;0.1463831;0.022762736;0.092612416;-0.23324803;-0.004555408;0.15433745;-0.09790481;-0.054813746;0.1989868;-0.052279253;-0.1290577;0.11847273;-0.031204324;-0.25941318;-0.226139;-0.12567207;-0.17486574;-0.14451869;0.00084181293;0.15720229;-0.03281681;0.13721822;0.008200165;0.08315693;0.06414223;-0.004251718;0.048480492;-0.24769028;0.14042138;0.11077411;-0.08505489;-0.037287273;-0.1594491;0.21198516;-0.15350686;0.04956662;0.037980497;0.05555947;-0.08536847;-0.13259822;0.07557759;-0.0010788636;-0.22689603;-0.00023908156;0.20730275;-0.017339243;-0.012485892;-0.07061683;0.019271212;-0.25673336;0.10923636;0.14317164;-0.013068192;-0.09398835;-0.10350287;-0.07330465;-0.33821103;0.33714345;-0.05766942;0.19070396;-0.012350782;-0.048332997;-0.260751;0.11686841;-0.082041174;0.17195205;-0.020856876;0.098799646;0.030043101;0.10925858;-0.34621257;-0.19047819;0.06571362;-0.039446365;-0.037657738;-0.052652307;0.08289546;0.35543966;0.04551463;0.0207419;0.10431635;0.00083723327;-0.051066197;-0.022078855;-0.30582133;-0.028649367;0.12281926;-0.16180344;-0.04418351;0.2503672;-0.023113023;0.035249237;-0.015077025;0.019105267;-0.1517115;0.07055243;-0.17911354;0.02598574;-0.012534551;0.005233458;-0.10204225;0.14976268;0.052942455;-0.14099379;-0.028551308;0.15217657;0.24444939;0.094210625;-0.13294761;-0.025918046;-0.42301553;-0.16730116;0.013125561;-0.32227093;-0.14994554;-0.17432603;-0.028670138;-0.039919328;0.032037664;-0.2488698;-0.0035713417;0.06500789;0.29811442;0.13408569;-0.10605942;-0.029284375;-0.05981889;-0.021695878;0.042436223;-0.0853346;0.05055774;-0.026564837;0.07028222;-0.17065929;-0.08911815;0.07748374;0.08905816;-0.024993611;-0.088636845;0.22370392;0.072310045;-0.059238885;-0.053641707;0.23484384;0.067532435;0.11209695;0.0013911315;-0.18768223;-0.08108027;-0.037184816;-0.015158107;-0.033022873;-0.14347506;-0.04635645;0.15285167;0.17520761;0.12670082;-0.15190557;-0.04455326;-0.30073917;-0.19289865;0.09312702;0.2735532;0.27855128;0.122556135;0.07178398;0.16351481;-0.13135153;0.036318064;0.047845487;0.10690839;-0.14206913;0.20421836;0.25390658;0.035929266;0.16031198;0.2163896;0.1498766;-0.040316414;0.01945913;0.40201247;0.13911559;0.12875074;-0.14985617;-0.038304213;0.09413657;-0.06748303;0.19504459;-0.41714314;0.037273243;0.011583424;0.08047919;0.068045616;0.24634057;0.0753992;0.036117364;0.099759944;-0.34706628;-0.05040748;0.16927408;0.12413736;-0.25161356;0.033179596;-0.07191469;-0.08023364;-0.067674935;0.10240244;-0.27917817;0.003156568;-0.0067050857;-0.1583652;-0.05564273;-0.025255054;-0.05242739;-0.08206953;0.08493413;0.0348681;0.07564092;0.05912369;-0.29432118;-0.23774026;0.12369675;-0.22244434;0.3423561;0.119400226;-0.00415205;-0.14515267;-0.055805124;-0.14371924;-0.053964607;0.05525174;0.17382137;0.11596716;-0.1439714;-0.16196705;0.16790657;0.052685212;-0.18689562;-0.10398481;0.25950938;-0.10788829;0.1249887;0.23976481;-0.06944942;0.019888861;-0.15040942;-0.08987598;0.2337596;0.2096822;-0.020330783;0.15424569;-0.09698045;-0.1749133;-0.2668382;-0.16370563;-0.17904271;-0.091260016;0.058328964;0.051532157;0.14674295;0.07298777;-0.0850947;0.29258755;-0.052727412;0.07457938;0.01334056;0.009365813;0.12777525;-0.40512425;-0.032995746;-0.04990967;-0.23840326;-0.07687798;0.006915622;0.10387242;-0.13652982;0.11845926;-0.11810955;-0.07998779;0.14261836;-0.02743942;0.12103836;-0.17897837;0.048629574;-0.011968332;0.20464441;-0.103418455;0.1176638;-0.20942388;-0.007531383;-0.07416189;-0.1833677;0.108598754;-0.013853745;-0.032978304;-0.10967757;0.018280223;0.1347281;-0.09339541;-0.10640423;-0.05805723;0.28441915;0.032509077;-0.08259506;0.11264332;-0.065688826;0.051259313;-0.006556006;-0.092768915;-0.22700498;-0.050105743;0.18828726;-0.23011266;0.033779018;0.09238328;0.0349694;-0.05752615;-0.31134358;0.06463159;0.012810416;0.103095055;-0.02588176;-0.06017341;-0.05549115;-0.15044084;-0.034653395;-0.16083393;0.050982032;-0.12835753;-0.0042348197;-0.17822622;-0.2172938;-0.060630117;-0.017963998;0.46137202;0.28301692;-0.05520606;-0.43733057;0.026073396;0.14303985;0.042793814;0.12737599;-0.13369732;0.03477125;-0.07555298;-0.0045848745;0.032876793;0.036493838;-0.049323864;0.21462213;0.09593549;-0.1573234;0.13585238;-0.061302297;0.1494871;0.019404778;0.049921133;-0.017631771;0.15360111;0.011604607;-0.014192607;-0.057113722;-0.12752272;0.27212605;-0.037446816;-0.136213;0.21648695;-0.066595644;-0.31883404;-0.008120499;0.009191827;-0.15619794;-0.2637524;-0.09948269;-0.10332499;-0.13663632;-0.09651348;-0.12124836;0.0052790893;-0.10577366;0.16273138;-0.07410628;-0.08260824;-0.17399915;0.19493878;0.07398262;0.0023981445;-0.028694468;-0.06800174;-0.07459297;0.018819781;0.14471912;-0.028781457;-0.11150737;-0.142733;-0.14449745;-0.059279006;-0.119258456;-0.24979104;-0.14445691;0.265137;-0.3536027;0.09350274;-0.065192915;0.058290932;0.076779895;0.026390595;0.016236393;0.043565445;0.25003535;0.00064470846;0.0830818;0.003745238;-0.038107827;-0.0029534104;-0.033764623;0.09629502;-0.122507766;0.011156042;-0.2380766;-0.24418853;-0.044083625;0.018394677;-0.21689284;0.051459406;-0.0384588;-0.09085677;0.12677638;-0.18163052;0.1292502;0.13189979;-0.30269614;0.112847775;0.08397394;0.055428047;-0.10878265;0.10349392;-0.07173598;-0.020921972;-0.08204432;0.363494;0.14656341;-0.09610129;0.113621876;-0.030333653
0.023391373;-0.05905452;0.0036332947;0.057867665;0.031175755;0.18827212;-0.107460335;0.09819487;0.09191558;-0.15026215;0.13795726;-0.12532724;0.20547466;0.17400819;0.089433216;0.13346016;0.26678312;-0.10618373;0.12968814;0.030811291;0.073600255;-0.05603507;0.09616558;0.12629934;-0.053749662;-0.20196795;0.05701843;-0.13182695;-0.047474496;0.28899243;0.1404703;-0.004317193;0.015321443;-0.0039623664;-0.039983816;-0.123480245;-0.109786645;-0.08629669;0.18986507;0.20093596;-0.09017421;-0.13740319;-0.08917244;-0.14015424;-0.326817;-0.045332383;0.0707683;0.08241708;0.08788736;0.023214716;0.108057655;-0.058141552;-0.06897275;0.26230428;0.20792809;-0.16674785;-0.010567801;-0.12823805;0.083096504;-0.20804133;-0.062227506;-0.26509467;0.112097405;-0.090890616;-0.07341667;0.027267996;0.045226593;0.0940463;0.15440913;0.023070836;-0.24676387;-0.025533095;-0.15617989;-0.13673972;0.1556687;0.09660757;0.008132458;-0.23002009;-0.018569048;-0.01778478;0.046822645;0.11667437;-0.018363317;-0.11022603;0.0650569;0.098861374;0.08385127;-0.18471949;-0.0015429298;0.024416577;-0.03879854;-0.0669563;-0.119396605;-0.06158413;0.17155461;-0.2527418;0.13255568;0.10678265;0.10412401;0.054715;-0.094131246;-0.15075864;-0.14192605;0.06364782;-0.04853437;-0.0055183396;-0.1318783;-0.21156013;0.21049908;0.08202981;-0.06551917;0.03323661;-0.07190605;-0.30254585;0.059564322;-0.0087219225;0.4997678;0.017764524;-0.091213204;0.13196824;-0.28323266;0.022426968;-0.1728491;0.15998377;0.020942116;0.05504648;0.04497092;0.13326517;-0.116685465;-0.08206263;0.117790304;0.061524715;0.000625229;0.059347633;-0.14173861;0.008363035;-0.0073857415;-0.024650441;-0.07695183;0.16532111;0.14162886;0.03381697;-0.03769782;-0.108738616;-0.15713298;-0.26486054;-0.14446841;-0.23575446;-0.08607174;0.015863767;0.068816476;0.019273566;0.19155854;0.063035265;0.22152285;-0.061472047;0.17687681;-0.034604263;-0.22623728;0.30106935;0.12483087;-0.077187344;-0.062471434;-0.045416187;0.23877977;-0.112203576;0.067849085;0.08778576;0.0075837034;-0.034658786;-0.07267475;0.033453695;-0.14538363;-0.03815701;-0.10580853;0.20979418;-0.008356066;-0.01410423;-0.040554203;0.0013059216;-0.24243017;-0.00042124937;0.12997329;-0.07463833;-0.1491825;-0.04226581;-0.048412193;-0.15101467;0.22269803;-0.032147408;0.23347749;0.01369828;-0.0645865;-0.25920245;-0.043963373;-0.038395926;0.33102196;-0.11890692;0.03103364;-0.078433014;-0.013550181;-0.3606261;-0.13496655;0.043605804;-0.06421663;-0.05740433;-0.19190855;0.09171711;0.28274974;-0.06978822;0.039218426;0.061366484;-0.013650708;-0.0062385052;0.17425515;-0.19855067;0.05049762;0.096297555;-0.018324625;0.032467928;0.10827767;0.023868883;-0.16695708;0.21460114;0.014441516;-0.054054696;-0.00894837;-0.18566541;-0.073070474;0.0895769;-0.05967075;-0.054025188;0.22122309;0.0749758;-0.18681903;-0.090571925;0.12266896;0.3170685;-0.0010731586;-0.07523497;-0.007916051;-0.39149156;-0.11371762;0.04648758;-0.2126016;-0.055992983;-0.20078038;-0.015799304;-0.031630367;0.1469351;-0.2574056;-0.019562462;-0.04236489;0.11190733;0.121133044;-0.19593577;-0.095827006;-0.27919146;0.105027705;0.03777845;0.09828133;0.11847477;-0.0030126695;0.029709134;-0.230855;-0.10386712;0.0154311685;0.1200141;-0.041284636;-0.019713262;0.21316782;0.1306156;-0.113598235;-0.19852416;0.09958419;-0.037545826;0.05321048;-0.07869648;-0.09630927;-0.15187927;0.03833064;-0.031999413;-0.10700681;-0.10485981;-0.038358767;0.10126153;0.25193402;0.22356799;-0.12733918;0.020205967;-0.122217126;-0.2723978;0.09053773;0.12192428;0.15051332;0.08328343;0.030751353;0.06975049;-0.011623959;-0.0322169;0.09246261;0.06729689;-0.10257203;0.15828142;0.21094875;0.14984035;-0.065529026;0.080402225;0.11034258;-0.024997568;0.102075905;0.48136154;0.107499786;0.18012993;-0.12041444;-0.09116387;0.1460606;-0.007911075;0.10754468;-0.39663917;-0.12431469;-0.12428092;-0.074592285;0.033215202;0.008511811;0.016523467;0.07725888;0.106451996;-0.29875645;-0.11960021;0.2868322;0.12809454;-0.22806656;0.075660616;-0.08059464;-0.11795272;-0.09726188;-0.0036017173;-0.12234681;-0.024276504;-0.16114847;-0.16923113;-0.017265353;0.05478547;-0.109677404;-0.14737302;0.120750815;0.09161967;0.0053531663;0.12396987;-0.24727072;0.008346966;0.028849006;-0.07800942;0.15834635;0.08515379;0.028923314;0.002636922;-0.00096820336;-0.17787166;0.11815529;-0.04558858;0.11569956;0.1063734;-0.006283671;-0.0020631298;0.14186765;0.002484612;-0.09014208;-0.098743685;0.1774319;-0.0332964;0.12613183;0.054921504;-0.08016589;0.015819589;-0.004563003;-0.038052;0.26077783;0.1150956;-0.026346106;0.1533954;-0.12865996;-0.13002563;-0.118461296;0.012467681;-0.021335738;-0.06154772;0.01063697;-0.0028125953;0.12830934;0.11170387;-0.12146775;0.0996253;-0.020695986;0.08107525;0.05646036;-0.0023715151;0.03203614;-0.43718013;-0.023340734;0.046958003;-0.22105874;-0.019972017;0.11530453;-0.10104803;-0.15743431;0.075715296;-0.06506564;0.0144916875;0.21686149;0.02577471;0.0896227;-0.0632297;-0.030578107;0.166779;0.057317242;0.029680783;0.07015385;-0.27921137;0.112833194;-0.07156366;-0.26009703;0.02010407;-0.10548781;-0.08936859;-0.26864758;0.0050174594;-0.0022913222;-0.17707612;-0.06633888;-0.102492124;0.29284635;0.009858831;0.0667237;0.03348672;-0.11433103;-0.054774173;-0.0371891;0.035699915;-0.066431426;0.0041522174;0.21564335;-0.25363654;0.015768098;0.07425154;0.09348145;0.009737061;-0.25096297;0.040115062;0.002266117;-0.05270416;-0.1707384;-0.04855677;-0.17609249;-0.15795796;0.13311042;-0.035826847;0.09153399;-0.08327415;0.20801212;-0.323929;-0.27376324;-0.10039427;-0.05605719;0.34797645;0.19588533;0.022056723;-0.35758224;-0.07461269;0.09052173;0.080733135;0.019079303;-0.23299071;-0.026331399;0.11232275;-0.053724747;0.08834789;-0.05359776;0.01953787;0.28072923;0.07094125;-0.14295472;-0.050817825;-0.034347367;0.14908738;0.11234311;0.0815791;-0.07985149;0.15687911;-0.03195681;0.011104234;-0.0986913;-0.018272594;0.18388902;-0.0016381599;-0.07781018;0.23037474;-0.06462685;-0.442929;0.09511734;0.07518761;-0.20066224;-0.09452356;-0.2388516;0.029265461;-0.14884421;0.07228662;-0.06911671;-0.11077376;-0.04691304;0.12277902;-0.16230801;0.01634693;-0.18790269;0.18772541;-0.029518535;-0.089461215;-0.14476697;0.08131101;-0.08300224;-0.16009156;-0.0050716223;-0.0023012178;0.012397114;-0.09891991;-0.22043017;0.05289527;-0.17453188;-0.09482521;-0.12852943;0.14942096;-0.21648484;0.104461394;-0.05397587;0.052991975;-0.018130824;-0.10205432;-0.051235802;0.07924387;0.2217935;0.07119326;0.078228705;-0.024280889;-0.06814512;-0.10980249;0.07841101;0.05134748;-0.045968078;5.534264e-05;-0.21584798;-0.30264756;-0.077278234;0.13748397;-0.1351438;0.13126475;0.017611988;-0.06471294;0.12783654;-0.06885624;0.058479123;0.20236802;-0.3533165;0.10379319;0.09559552;0.14616796;-0.082657255;-0.035035644;0.00923705;0.019623635;-0.021333996;0.25478616;0.08512189;0.095852554;0.14615127;-0.15161721
-0.07517152;0.023167333;0.030311966;0.11345352;0.018023454;0.2155843;-0.23310953;0.1024111;0.038029235;0.026781444;0.033346176;-0.18955126;0.22956109;0.0671546;0.08168092;0.1527653;0.11575699;-0.10394206;0.07847949;0.038641002;0.21384388;0.06493093;0.064592816;-0.030312357;0.14134733;-0.12056129;0.080906995;-0.088610545;-0.12746526;0.1558377;0.21990311;-0.03514677;0.041421127;-0.041047007;0.05080058;-0.0057441476;-0.04075563;0.028299388;0.118812844;0.21047305;-0.0900801;-0.06776244;-0.20523135;-0.07739196;-0.3256202;0.052143585;0.07516351;0.123703554;-0.020794487;0.12169163;0.14741375;0.02083753;-0.0018585131;0.17120962;0.2858324;-0.017376423;0.105314046;-0.051771443;0.07419792;-0.1971422;0.021936415;-0.14185889;-0.060887445;-0.07794849;-0.15066148;-0.031429987;0.05860563;0.07587041;0.065144494;-0.06315725;-0.17718038;0.0266649;0.00904042;-0.22110377;0.15446797;0.09822998;0.13258357;-0.19391528;-0.0074763517;-0.06722191;0.020340158;0.17224477;0.040691733;-0.18452288;0.08183058;0.05964034;0.0070788013;-0.09077966;-0.06083297;-0.10119456;-0.015626816;-0.05893365;0.011652828;-0.16936995;0.23389833;-0.34254465;0.066794105;0.08246293;-0.00417855;0.18871099;-0.09616403;-0.12641369;-0.064941145;0.08354922;-0.053006295;0.07801306;-0.09950088;-0.06887186;0.17948245;0.030630752;-0.11434885;0.01206598;-0.09431486;-0.3080945;-0.009198611;0.02537122;0.42445236;-0.009643381;-0.045273516;-0.04133269;-0.14651087;-0.017041596;-0.1061618;0.09274575;0.09997526;0.12295169;0.048930068;0.08932001;-0.16428845;-0.20004168;0.10422728;0.06590389;0.02030748;0.21768151;-0.20764992;-0.10526595;0.15265177;0.08004198;-0.05808852;0.1325338;0.1338127;-0.013409876;0.08969087;-0.04275246;-0.20063208;-0.27823818;-0.20339032;-0.305616;-0.061675135;-0.04064554;-5.4877863e-05;-0.10281924;0.13519904;-0.011750638;0.13191254;-0.09717976;0.11672786;-0.07046403;-0.1955066;0.31380615;0.1351806;-0.13419183;-0.08329976;0.0022401847;0.1488724;-0.04796014;0.08407622;-0.016774088;-0.008576054;-0.13611582;-0.0038781478;0.18019965;0.05115172;-0.09232319;0.017939253;0.23877129;-0.011413545;0.036633417;0.015814863;-0.039756216;-0.20681825;-0.039840408;0.09610873;-0.019106895;-0.043193832;0.08754145;-0.15994646;-0.2625269;0.25038204;-0.034760553;0.16554426;0.06572776;0.04557677;-0.21583897;0.015229872;-0.04285772;0.26058522;0.0947755;0.022271197;0.034596607;0.035784148;-0.30764574;-0.14334135;0.023458546;0.0094478065;0.0027219842;-0.16666026;0.120845325;0.1726954;0.014526844;-0.09790855;0.08595716;-0.018087834;-0.12677129;0.123055734;-0.23895743;0.027904792;0.088388026;-0.10829989;-0.03642334;0.16599448;-0.043790385;-0.004548629;0.043265812;-0.04196785;-0.14103672;-0.070959814;-0.1378123;0.07110462;0.0739759;-0.0068236715;-0.044376694;0.20945035;0.11925049;-0.1953165;-0.01706228;0.067507096;0.3194367;-0.14024048;0.011072305;-0.060555514;-0.4008905;-0.21677388;-0.0032143402;-0.3175654;-0.052027743;-0.14879817;-0.11924152;-0.016340334;0.0875445;-0.1736161;-0.056896813;-0.07867219;0.15503752;0.23560447;-0.21161261;-0.1254352;-0.113752306;0.083461925;-0.008642577;0.017199751;0.1127596;0.016043924;0.068483904;-0.1748975;-0.023206066;0.15642181;0.06374837;-0.048087787;-0.06335187;0.16254303;0.07047153;-0.072909474;-0.16094197;1.0623189e-05;0.057396136;-0.0072394847;-0.07019602;0.030995103;-0.09582184;-0.00851626;-0.036082204;-0.14296038;-0.16550712;-0.06013676;-0.0092193615;0.26916087;0.23342966;-0.04380731;0.02584841;-0.12455885;-0.2088146;0.13482836;0.0903483;0.21375804;-0.047224227;0.13518333;0.13761115;-0.12023632;0.026046079;0.047190595;0.11014263;-0.09299204;0.056987848;0.14855535;0.056798156;0.059058785;0.10021952;-0.00015467024;-0.025385665;0.03223739;0.41365615;0.0067400173;0.05688541;-0.067261234;-0.05417321;0.17499949;-0.096727274;0.25515452;-0.41343608;-0.12067634;-0.14444388;0.016140025;-0.02070584;0.06406104;0.012834263;0.049999967;0.00898338;-0.27873385;-0.18847655;0.17463556;0.16881722;-0.17584404;0.09013055;0.10055332;-0.0023757345;-0.07667821;0.017530551;-0.17779471;-0.087656334;0.04401299;-0.08686481;-0.13254064;-0.067302026;-0.19230497;-0.14815708;0.1189125;0.040680707;0.122077666;0.08657389;-0.22941974;-0.116174296;0.13547574;-0.06503473;0.15533018;0.12279578;-0.06446716;-0.13006373;0.03317011;-0.1904241;0.045125313;0.052490328;0.15197821;0.12661672;-0.05587976;-0.17628665;0.16666153;-0.11173446;-0.08045994;0.03899489;0.21894786;-0.07016571;0.1456834;0.19752505;-0.18362305;0.07392581;-0.035117764;0.033875264;0.28824124;0.24473661;0.06300099;0.060580574;0.00041361456;-0.024631612;-0.26079005;-0.06994193;0.04970924;0.017859016;0.020590624;0.06233196;0.21510088;0.10977512;-0.04923213;0.18757188;-0.04422959;0.106138624;0.046931434;-0.022869136;0.117375545;-0.28256544;0.096456915;-0.04255264;-0.2279364;-0.14394681;-0.032643486;-0.024689259;-0.03731533;0.01647367;0.009841572;0.13543203;0.1279082;0.03442524;0.066530265;-0.17375101;-0.028229915;0.032541785;0.03660847;0.03792963;0.032594394;-0.15435457;0.08336012;-0.03297779;-0.14358088;0.13604262;-0.076048054;0.11447932;-0.153289;0.046981465;0.078982;-0.20147929;0.0154911;-0.124710105;0.2937896;-0.02119286;-0.080307975;0.089582674;-0.058299746;0.08385513;0.01902379;0.07613056;-0.15692373;-0.047008082;0.11617276;-0.2824198;0.008843078;0.12185215;0.021188436;-0.039709408;-0.10877858;0.033026308;-0.033679157;0.06443741;-0.017716426;-0.15904376;-0.14377128;-0.12846929;0.0010877704;-0.14030741;-0.031760063;-0.118296385;0.00031117577;-0.2856388;-0.20320214;-0.0464137;-0.09014932;0.41308817;0.12159763;0.11415477;-0.29585418;0.07411212;-0.021241317;0.08235604;-0.047684837;-0.21314676;0.06644989;-0.05654782;-0.03470817;0.10217233;-0.051858265;0.04463753;0.29672834;0.038228452;0.049615383;0.057114217;0.06802499;0.07994762;0.019788757;0.18621527;-0.03858524;0.13422707;-0.0012361109;-0.03515885;-0.1451538;-0.13982438;0.2354353;-0.0014817438;-0.14092252;0.10236506;-0.0325834;-0.24468932;0.037919912;0.08981495;-0.05936404;-0.15972018;-0.06895216;-0.07262868;-0.061206248;-0.0456118;-0.19020854;-0.040257376;-0.1977724;0.16542853;-0.14648333;0.009741546;-0.30091593;0.09776334;0.0004092508;-0.103465654;-0.05748816;0.008411474;-0.043211132;0.036303416;-0.02624234;-0.026340313;-0.016539035;-0.12304361;-0.11731919;0.013829773;-0.025351414;-0.08797363;-0.19128263;0.14311397;-0.23769109;0.07150878;0.015737832;0.076436;0.0026751747;-0.01824211;-0.09479046;0.044290446;0.23571366;-0.0133022135;0.050645754;-0.08421109;-0.0041114567;-0.038211733;0.03440345;0.06912802;0.0013931615;0.015480095;-0.24435578;-0.22609454;-0.06447747;0.09713245;-0.14347836;0.1963983;0.09426861;-0.022462683;-0.010079639;-0.15001373;-0.04427357;0.14334272;-0.31143832;0.048594836;0.2024789;0.25107518;-0.17411573;0.10406254;-0.014946819;-0.09362893;-0.05786457;0.19312218;0.08050161;0.004979833;0.15093407;-0.039107468
0.10835111;-0.09137587;0.13943438;0.05322831;0.011736534;0.1848691;-0.26057044;0.016974812;0.08038988;0.0071283365;0.05790598;-0.1988109;0.14039813;0.082196474;0.10474326;0.12706809;0.096494794;-0.019947827;0.17133425;0.08276771;0.18508703;-0.08985101;0.04740082;0.05770742;-0.020738728;-0.057477124;0.10670671;-0.083107725;-0.00417442;0.11113598;0.19759035;-0.01696018;0.06369276;-0.02508337;-0.04164054;-0.02245246;0.014384453;0.041866466;0.08763617;0.17540763;-0.15023188;-0.1486827;-0.21849923;-0.01696313;-0.20969325;0.091961816;-0.017369237;0.18851916;-0.02501487;0.087425806;0.16342536;-0.055930443;-0.09296799;0.21319304;0.22964415;-0.12892833;0.109060384;-0.17421138;0.19579744;-0.25989503;-0.046739694;-0.04841416;-0.06141717;-0.08163981;-0.05437685;0.008163674;0.015720708;-0.026154356;0.16934708;0.014854148;-0.12710166;-0.06833259;-0.06435158;-0.14367181;0.05107239;0.072764374;0.11048192;-0.109961815;-0.044004377;-0.10376916;-0.011703354;0.20455624;0.06360478;-0.041526016;0.09298202;0.05968605;0.08992566;-0.05490663;-0.08126275;0.007099393;0.013314854;-0.042953547;0.046445377;-0.06716826;0.16351783;-0.3326006;0.159108;0.17834572;0.09420464;0.13050869;-0.10702767;-0.08347725;-0.07179207;0.11347868;0.029159851;-0.0028514315;-0.20771448;-0.039199084;0.11065184;0.14699668;-0.057726614;-0.05407342;0.0051554847;-0.28859338;-0.094182216;0.047417015;0.41116884;0.09661127;-0.108873285;0.040846612;-0.28625974;0.013524937;-0.10356889;0.19430158;0.012302394;0.13203008;-0.051260035;0.24682711;-0.17120484;-0.08203525;0.11558202;0.011511115;0.056598052;0.21300311;-0.18897015;-0.095466144;0.11583646;-0.021149946;-0.123417296;0.067927755;0.11891961;-0.044437513;-0.015568651;-0.20241499;-0.17044762;-0.17663637;-0.14716502;-0.09981532;0.02572222;-0.0884118;0.085180014;0.011074079;0.06344182;0.025643427;0.11415446;-0.0022560742;0.12826772;-0.13606505;-0.08937107;0.19896989;0.08249555;0.011679203;-0.00724086;0.031811945;0.09360263;-0.20760043;0.120009586;-0.08636233;0.12646551;-0.099951826;-0.052855197;-0.0013831663;-0.06278749;-0.11368634;-0.14522515;0.10749148;0.005755606;-0.0022564982;0.036317978;-0.02151607;-0.21828252;0.0077338;0.20095132;0.012310254;-0.12068221;0.06965431;-0.23217277;-0.21381323;0.18443795;-0.025430145;0.22715418;0.03925105;0.1088807;-0.29959542;0.054148644;-0.013730661;0.08315033;0.041413005;0.06811584;0.0079059955;-0.0049556494;-0.4698871;-0.10725219;0.11479788;-0.03162049;-0.0097239;-0.20264837;-0.015243796;0.23714931;0.017806869;-0.089216314;0.08132529;-0.029446203;0.024459215;0.16397293;-0.16113183;-0.003607273;0.021343084;-0.19242258;0.030915756;0.0632095;-0.06879585;-0.075609215;0.05408371;-0.07293342;-0.11112381;-0.04258328;-0.18438508;0.07082337;0.042558253;-0.07017747;-0.041099273;0.22877567;0.061885826;-0.17461717;-0.05652509;0.022484114;0.19941872;-0.040122796;-0.047423445;0.037414204;-0.33329394;-0.3168914;-0.009168125;-0.287943;-0.024663566;-0.21881253;-0.095296934;-0.061475214;0.06352934;-0.19300988;0.016508373;-0.13150255;0.13163629;0.15501921;-0.22203699;-0.17710167;-0.18531413;0.07181147;0.030606307;0.05000412;0.09179806;-0.059543885;0.06528563;-0.16416134;-0.14257559;0.05165146;0.17593585;0.01684911;-0.017219435;0.21973297;0.066776864;-0.18874063;-0.16730842;0.044245094;-0.07544812;-0.00599929;0.027486905;-0.012575393;-0.14705688;-0.08239118;-0.090329275;-0.026026247;-0.053947896;0.012488343;-0.059150733;0.19657318;0.23359726;-0.020299928;-0.0266051;-0.15472801;-0.151211;0.017819248;0.09090116;0.063506514;0.0022422785;0.08791624;0.21755223;-0.04920927;0.057626195;0.05613814;0.04601239;-0.22022662;0.13550237;0.06326295;-0.057018217;0.017008096;0.030002655;0.033050325;0.06535139;0.04142588;0.36706087;0.04797036;0.13049741;-0.10493108;0.04065573;0.045222364;-0.051669948;0.16519147;-0.31411937;0.011433669;-0.075051494;-0.13311844;0.05073754;0.01831327;0.09438747;0.03025758;0.15895575;-0.26872775;-0.11221816;0.24573335;0.09085796;-0.15029556;0.09841397;0.05551118;-0.053589877;-0.034241352;0.022572363;-0.15810132;-0.0775558;-0.09339997;-0.105369605;0.014987221;-0.06881889;-0.13413641;-0.09367782;0.18447167;-0.13192026;0.12624632;0.17831175;-0.15260601;0.02773251;0.10364174;-0.13001372;0.22165804;0.21459751;-0.06688892;-0.077831596;0.025460694;-0.12936236;0.1030232;0.057226487;0.056128655;-0.050909303;0.09776694;-0.032723658;0.21321324;-0.09787975;-0.058055185;0.048998553;0.20657301;0.034771923;0.12951578;0.11523606;-0.082237214;0.05994955;-0.07260224;0.049925346;0.07862095;0.23624384;-0.012290309;0.030857053;-0.07020813;0.0103351185;-0.2065453;0.03384106;0.1142479;0.11445982;0.03654152;0.008777646;0.058786195;-0.008505284;-0.014186078;0.055786103;-0.053587765;-0.047275178;0.1165332;0.13058753;-0.017482664;-0.27240294;0.14208597;0.033321273;-0.21361013;-0.059435718;-0.031815767;-0.030280676;-0.08279654;0.0841652;-0.051433384;-0.015540441;0.13821724;-0.044498444;0.06234552;-0.09834113;-0.0841809;0.08316859;0.10121328;-0.035138704;0.18849483;-0.22868823;0.13632609;-0.07221188;-0.2410505;0.09672877;0.062074576;-0.035914164;-0.17494722;0.08321943;0.05028045;-0.20811434;-0.005173072;-0.078715004;0.2575874;0.01771719;-0.040585864;0.10126956;-0.05770924;-0.02199829;-0.121664695;0.07151515;-0.18618238;-0.13810758;0.048078153;-0.2516408;0.11157776;0.09375528;0.0822718;-0.034823097;-0.10620552;-0.0339937;-0.013671167;-0.017042259;-0.09048494;-0.14353438;-0.16160811;-0.1327382;0.10044924;-0.119080424;-0.054892365;0.006101067;0.100889295;-0.2670979;-0.21050109;-0.02625662;-0.10623044;0.4118344;0.13115874;-0.07353868;-0.28261173;0.013434767;0.0027724095;0.037652887;-0.040504843;-0.21442679;0.03503393;-0.03379331;0.013471782;0.1386603;-0.065189764;0.04296112;0.39105844;0.015177497;-0.06071801;0.03212457;0.04005871;0.014733988;0.09167934;0.20361258;0.030054703;0.20443544;0.06298629;-0.11322044;-0.07065571;-0.070467286;0.2630808;0.12845401;-0.02953485;0.10784661;-0.105323225;-0.25615466;0.07157615;-0.020984532;-0.17174068;-0.18771996;-0.11137815;-0.07534615;-0.14925742;0.052498713;-0.23202367;-0.045768797;-0.16664436;0.06643697;-0.12566192;-0.0021540357;-0.27570355;0.10908317;0.030181205;0.0077175233;-0.14314473;0.084207095;0.024512006;0.041685883;0.0075665894;0.062346276;0.053037163;-0.08658163;-0.028180188;0.009035181;-0.106138185;-0.01543851;-0.1325845;0.11105948;-0.25622144;0.032035474;0.008420237;0.062814;0.044332072;-0.13636811;-0.07910798;0.021480976;0.15827592;0.12748113;0.04922372;0.03265988;0.019513233;0.0071817273;0.10857322;0.0698166;-0.08893183;-0.007698022;-0.22534445;-0.31863075;0.016974172;0.25269765;-0.20707484;0.06624704;0.05171034;-0.031027177;0.057954423;-0.101929575;0.07842622;0.19532949;-0.30095932;0.102634005;0.19864263;0.20534545;-0.12857018;-0.023429824;-0.010028247;-0.040337052;0.069363125;0.12943567;0.053763468;-0.049970996;0.06361778;-0.060939834
-0.055954717;0.004063025;0.03538769;0.17091975;0.101789944;0.20983982;-0.19761473;0.00075779035;0.11473029;0.17309943;0.13896152;-0.09565429;0.121733785;0.117063984;0.11944459;0.11800758;0.1231618;-0.06888798;0.11846734;0.09642827;0.13374856;-0.018255232;0.14495082;-0.03762099;-0.054800246;-0.13699976;0.18160376;-0.10094939;-0.0668624;0.13719441;0.1817676;-0.12752372;-0.027062034;0.026400404;-0.004336318;-0.073770635;-0.069889374;0.076426886;0.11411818;0.24168132;-0.13184613;-0.02282089;-0.23450139;-0.05348583;-0.32125047;0.098579474;-0.08885773;0.19958623;-0.08728326;0.19299154;0.074497424;0.06583916;0.02211289;0.21632345;0.18497212;-0.12283812;0.14438142;-0.012774116;0.07243187;-0.2749778;0.0030131235;-0.051839966;-0.058277305;-0.04954435;-0.14344947;0.09584632;-0.11186431;0.014565327;0.31173894;0.0002612683;-0.021280373;-0.08400077;-0.13179536;-0.25531265;-0.0428252;0.032755222;0.012791755;-0.16456734;0.022737939;-0.06358953;-0.20845285;0.05846629;0.17280303;-0.04013273;-0.10301648;0.10782862;0.17981322;0.017595772;0.037812606;-0.08835977;-0.13613915;-0.11991412;-0.034647178;-0.1146746;0.09849351;-0.2810875;0.19352184;0.07749667;-0.007831475;0.29661825;-0.022321844;-0.034653988;-0.19825871;-0.0038790887;0.00028318126;-0.01893518;-0.007149195;-0.14219442;0.016467804;0.15382938;-0.06241438;-0.039151404;-0.11992087;-0.21341649;-0.12934904;-0.05322424;0.29106256;0.10846678;0.077941455;0.018016856;-0.18806708;-0.03278167;-0.160195;0.17354321;0.051750824;0.057434544;0.04635157;0.08543908;-0.16479154;-0.16411439;0.11579333;0.0066028507;0.099464126;0.15748736;-0.03958196;-0.12886684;-0.020590538;0.13559471;-0.26092365;0.08952325;0.16183229;-0.14146589;0.006314337;-0.12025471;-0.0082720425;-0.018576846;-0.25084397;-0.19077131;0.09588611;0.10199644;0.041351907;-0.04930669;-0.05234981;0.0366977;0.0997234;-0.18117714;0.10352826;-0.03867507;-0.11546697;0.22437902;0.1065986;0.059861533;-0.13213035;0.018716058;0.19662048;-0.17285305;0.087774;0.007960565;-0.0046421895;-0.22350761;-0.0395004;0.14725268;0.10975906;0.0017125388;-0.11785318;0.11112328;-0.03341691;-0.09964538;-0.012403975;-0.031582255;-0.24886325;-0.19318075;0.29430562;0.17316604;-0.03384457;-0.029658806;-0.22167279;-0.20939812;0.1822;-0.07183184;0.09215996;-0.059449106;0.1312207;-0.21648505;-0.029917203;-0.017295336;0.07346432;0.051425174;-0.058316436;-0.14325328;-0.032898564;-0.2911692;-0.054952748;0.11525708;-0.076238036;0.026961578;-0.05458219;-0.085134886;0.17452843;-0.1343281;-0.20875333;0.059611555;-0.09765701;-0.092851445;0.11189916;-0.030847875;-0.0054939887;0.1194882;-0.22648701;0.055321705;0.09414697;0.046242762;-0.1129772;0.15548815;-0.027166773;-0.0016868174;0.04926432;-0.20873664;0.15078169;0.027106041;0.0865343;-0.14745541;0.3084958;0.20333715;-0.16813608;-0.0045382036;0.17586333;0.27639318;-0.148185;-0.14358874;-0.11378301;-0.25002974;-0.37048146;-0.18708374;-0.25615245;-0.106852464;-0.17968845;-0.009484565;-0.005216753;-0.011320014;-0.034486126;-0.09821031;0.056766145;0.16642876;0.28979644;-0.13349777;-0.15269792;-0.2213436;-0.09234268;-0.09903041;-0.092241235;-0.04452903;-0.08363102;0.08892952;-0.32542077;-0.032733787;-0.052857324;0.17535713;-0.022987852;-0.04663022;0.2714411;0.109256916;-0.05244011;-0.121216245;0.04048685;-0.09388512;0.0013084724;-0.061742783;0.099700056;-0.1944219;-0.12068238;-0.08527263;-0.007950237;-0.06753475;0.028357415;-0.019916086;0.08584537;0.2003572;-0.02808995;0.07771725;-0.0939159;-0.20498757;0.08407808;0.07293144;0.11475358;0.021150656;0.11013656;0.16792117;-0.0032045478;-0.030905584;-0.009103632;0.014943751;-0.17377508;0.12524056;0.17796604;-0.013975766;-0.0020704966;0.17921956;0.1442721;-0.061481155;0.0077477484;0.31658652;-0.054441806;0.14865926;-0.10851919;-0.042705882;0.23723444;-0.038287994;0.04808276;-0.32626885;-0.1409898;-0.15920569;-0.07174234;0.09626958;0.10783996;-0.061168484;0.06150991;0.044495188;-0.06759461;-0.09218815;0.19507642;0.1603043;-0.003971352;0.19625582;0.055704605;-0.017719237;-0.025643537;-0.14450714;-0.18337968;-0.0029243045;-0.096215345;-0.068621695;0.0036315047;0.070137404;-0.18002178;-0.016445754;0.15543696;-0.07544236;0.14464368;0.006369667;-0.17395648;0.051150024;0.23641415;0.050252635;0.19086024;0.030661512;-0.12839462;-0.09093596;0.036513835;-0.22499356;-0.04406338;-0.01774008;0.0016305166;-0.017389162;0.07005347;-0.111625634;0.13150372;-0.17877045;-0.017457793;0.05105358;0.02463178;0.05056835;0.17776392;0.06850401;-0.16373453;-0.058748;-0.08219965;0.050774008;0.12992235;0.13727933;-0.07532563;0.054992117;0.005581372;-0.13192745;-0.2511493;-0.079285376;0.08643214;0.07915728;0.1896507;0.053369865;0.0061192885;0.090370275;-0.034840014;0.1851434;-0.0051908027;0.045042884;-0.051854525;0.016929781;-0.02604451;-0.21974577;0.1325695;-0.05006832;-0.26167804;-0.034081798;0.05755697;0.035902083;0.000937002;0.028342376;0.07142183;0.08909688;0.07062109;0.024845967;0.029051146;0.03804132;-0.036930464;0.108596824;0.07091216;-0.12055948;0.07568275;-0.15902889;0.13541281;-0.13719809;-0.18758439;-0.034986127;0.03625585;0.016459377;-0.0404893;-0.047481682;-0.058179274;-0.16489722;-0.12084155;-0.10239978;0.21430176;-0.045679443;0.070116095;0.08040125;-0.21365868;-0.029024286;-0.103692755;0.2110589;-0.07921139;-0.116066985;0.0953715;-0.22762552;0.15184918;0.025146322;0.10048424;-0.0251539;-0.2368968;-0.06155608;0.05316479;-0.00060833106;-0.12989251;-0.090595365;-0.20775087;-0.079884544;0.09999131;-0.10394498;-0.048421312;-0.08375096;0.031063989;-0.20142661;-0.1895646;-0.048315234;-0.082212664;0.2977086;0.14674462;-0.031560406;-0.19256234;0.025153365;0.07873002;0.0904781;-0.13579723;-0.09641751;0.15809979;0.13691784;0.16580057;0.1627052;0.084011376;0.1990179;0.3766051;-0.029813105;-0.04399679;0.029422877;-0.031729743;-0.15276207;0.17560034;0.13627125;-0.040754654;0.07354712;0.02915599;-0.08066299;-0.15193208;-0.06199007;0.16399361;0.18646617;-0.10956679;0.10764471;-0.03629057;-0.08054268;-0.030097753;0.05103437;-0.13047092;-0.062630236;0.008668382;-0.073786065;-0.10928181;0.118724674;-0.3159999;0.02125114;-0.22604868;0.12810355;-0.13313143;0.16277888;-0.28896007;0.0699779;-0.014414146;-0.08299936;-0.08026319;0.0967893;0.033194527;-0.12648016;-0.09614033;0.017115064;0.1430996;-0.07202584;-0.058564402;0.14117786;0.11935337;0.0023787206;-0.08362834;0.020767976;-0.23610143;0.15848261;0.057843655;0.13017364;0.022744829;-0.060088273;-0.082558945;0.17803667;0.28859437;0.078724496;0.029457359;0.024450524;0.055171847;0.026486248;0.06300014;0.03150446;-0.04247205;-0.038098384;-0.11863399;-0.18144882;0.08478934;0.15224141;-0.05305937;0.024465354;0.09575856;0.10445562;-0.04135748;-0.07859731;-0.0086049605;0.101971805;-0.17950974;0.075049706;0.20409948;0.12718014;-0.029869167;0.06023851;0.0042724963;0.11262491;-0.119579285;0.26022375;-0.05556211;-0.046139885;0.046024006;-0.086414315
-0.066474535;0.09646509;0.1439465;0.0070526362;0.15191382;0.1869288;-0.07325327;-0.053805787;0.06413146;0.29050332;0.14313748;-0.051676646;0.19921675;0.005091614;0.13613704;0.19770229;0.04171834;-0.07018931;0.09113932;0.1353836;0.16841194;-0.11337475;0.034776963;-0.027572429;0.022062475;-0.07599696;0.2355756;-0.05628624;-0.032102026;-0.13543259;0.15856673;-0.12977505;-0.035729904;-0.11573499;-0.05603743;-0.0482436;-0.028632062;0.109034315;0.1426027;0.14019419;-0.07451781;-0.07828501;-0.2812646;-0.07978807;-0.15801848;0.082319334;-0.009251316;0.17841883;-0.04351898;0.09639324;0.087771624;-0.0040221307;0.030555634;0.22540581;0.16280477;-0.12256863;0.110684335;-0.064650305;-0.03722245;-0.25955296;0.055150338;-0.11916285;-0.004216808;-0.10794054;-0.13723469;0.0703811;0.03430639;0.06927026;0.3858595;-0.008801077;0.083386436;0.016470691;-0.060923524;-0.17614162;-0.061368003;0.0046209837;0.015699636;-0.21129222;0.045252427;-0.20199856;-0.058881737;0.10072845;0.089340895;0.05932796;-0.09126992;-0.052403297;0.09906391;-0.13386682;0.04583215;-0.056458842;-0.038636338;-0.15212652;0.015421775;-0.09636987;0.09191257;-0.30985355;0.19639058;0.06292191;0.020529915;0.23158973;0.018705279;-0.049600694;-0.052811973;-0.027372709;-0.005435819;0.11860419;-0.09949465;-0.085568056;0.052245848;0.13829482;-0.08603589;-0.10351459;0.044149086;-0.30972716;-0.009574987;0.023468276;0.26828486;0.043863717;-0.06318648;-0.043123636;-0.18266939;-0.029086664;-0.11919261;0.026878562;-0.018677868;0.01409777;0.071396776;0.077082284;-0.10500696;-0.15163153;0.14191589;0.0044827675;0.111871764;0.1409232;0.057478968;-0.09802932;0.06278641;0.043935683;-0.10383414;0.09533388;0.11127946;-0.08381363;0.09871334;-0.18532991;-0.034350224;-0.016412342;-0.071356565;-0.104632355;0.12408396;0.031149838;0.0353562;0.038056288;-0.068102136;0.0426217;0.09614658;-0.1547818;0.24294432;-0.1515807;-0.025218252;0.27575213;0.12523971;-0.038020283;-0.008275709;-0.04959065;0.029235046;-0.1981614;-0.051614113;0.14862871;0.13255851;-0.2229965;0.15195596;-0.033268735;-0.029966054;-0.07889515;-0.2049335;0.039073355;-0.09118829;-0.047148414;0.12029432;0.080218315;-0.15529923;-0.006715716;0.24211384;0.063101925;0.0022941877;0.006844123;-0.20751092;-0.22277911;0.03183824;-0.15362088;0.1717927;0.066929005;0.11020594;-0.19140607;0.03187665;-0.14219084;0.012978986;0.03651162;-0.13504711;-0.06982199;0.07495773;-0.37560815;0.009044618;-0.028065791;0.023579104;-0.092439495;-0.013466077;-0.09806509;0.13241108;0.0039027531;-0.15432271;0.027147086;0.063063815;0.07049618;0.15120363;-0.12061596;0.107888654;0.03327404;-0.21706961;0.03260468;0.21237352;-0.019049508;0.020293042;0.124139644;0.076724;-0.1278373;-0.008270644;-0.050406054;0.18323529;-0.052183572;0.12897855;-0.14327976;0.2489783;0.1600282;-0.062259197;0.02253804;0.14490284;0.15918429;-0.17461395;-0.13061132;-0.059040986;-0.2677653;-0.3008065;-0.14872047;-0.20664097;0.023893688;-0.16894628;-0.035389848;0.023457509;0.032924514;-0.13992068;0.030988244;-0.07101012;0.1453877;0.20083569;-0.21995407;-0.07405668;-0.30388868;0.001378827;0.10089046;-0.074437484;-0.07762977;-0.053010844;-0.12768923;-0.22622108;-0.09959219;-0.11183411;0.12184913;-0.002925927;-0.036241636;0.15857892;0.10400232;-0.019997383;-0.12757243;-0.060250632;-0.070930965;-0.0064858696;0.035259053;0.072492756;-0.060009085;-0.14871159;-0.17166394;-0.12578419;-0.060416374;-0.031367615;-0.0801798;0.07027699;0.26303214;0.00762266;0.101495035;-0.1535404;-0.243071;0.124002926;0.08951299;-0.024419105;0.10867087;0.079588875;0.20878136;-0.04382403;-0.11348418;0.037692826;0.067733176;-0.1539424;0.11606954;0.10589126;0.044322878;0.0745783;0.16680843;0.13792756;-0.09081899;-0.011350965;0.19962206;0.00717733;0.06717923;-0.06570462;-0.010330457;0.13477014;-0.0081169065;0.084803656;-0.2668659;-0.011304112;-0.19212179;-0.1268938;0.15121026;0.045124117;-0.03453536;-0.0061691916;0.012160045;-0.03649757;-0.07357243;0.19151454;0.07473157;-0.04095369;0.26826036;0.1445773;0.0103853345;-0.077266715;-0.1300242;-0.07907516;-0.051573087;0.105103455;-0.043786883;0.009786653;-0.023588877;-0.23927164;-0.0260485;0.12700912;-0.07640256;0.12245665;0.19674185;-0.22833344;0.07385055;0.033694196;0.1332469;0.06823657;0.09687178;-0.14587212;-0.22292663;-0.011230053;-0.22622675;-0.086420424;0.1001948;0.07078349;-0.048828583;0.11555583;-0.14194266;0.027892489;-0.077277094;-0.019972328;-0.010164069;0.14285327;0.071666434;0.23788367;0.04915666;-0.07479011;-0.048589494;-0.010597332;0.08152;-0.07627697;0.13509806;-0.020765467;-0.04341924;0.047263548;-0.038178116;-0.07734503;-0.009454747;0.08885245;0.13308655;0.09962731;-0.03799312;0.08989448;-0.123957455;-0.030034037;0.1343246;0.05991976;0.10313933;0.07050327;0.024639104;0.07533368;-0.22827202;0.2028922;0.06918481;-0.18860872;-0.029765148;-0.073633835;0.03190885;-0.110728376;0.09365193;0.10370496;0.07560723;0.011144968;-0.16399047;0.042615924;0.034619518;-0.11967223;0.15418205;-0.016447144;0.017208846;0.27238473;-0.15319881;0.0954397;-0.17767063;-0.120196104;-0.05456812;-0.03455234;-0.08104605;-0.1097422;0.04130316;0.016478548;-0.2169308;0.030703085;0.010930786;0.22866093;-0.03392099;-0.034039926;0.031792838;-0.118552566;-0.045801215;-0.13697691;0.17428735;0.0027404693;-0.14745127;0.12388079;-0.121180125;0.09853223;-0.016036417;0.035357744;-0.059075356;-0.14133117;0.06481924;0.018001532;-0.022026148;-0.091986634;-0.16024531;-0.19486536;-0.11307069;-0.006708176;-0.010699457;-0.060282886;-0.016255204;0.08958227;-0.054716147;-0.14727186;0.05057461;-0.08301316;0.18999541;0.18790294;-0.018577352;-0.20585017;0.1055447;0.06424109;0.066253655;-0.0861529;-0.11715722;0.13217108;0.15673192;0.09411468;0.08850524;0.12698536;0.20521767;0.3408804;-0.023595104;-0.077859215;-0.052721664;-0.062284265;-0.15705302;0.24104245;0.09235702;-0.06406962;0.18795449;0.121765606;-0.098117776;-0.17711286;-0.020501135;0.011438329;0.08776216;-0.15967704;0.22575428;-0.0358471;-0.13071574;-0.1601662;-0.027188526;-0.11918549;-0.10097573;0.029161397;-0.03909326;-0.036288086;0.18703282;-0.18450685;-0.007335978;-0.19823025;0.09162762;-0.2683561;0.13170625;-0.3445158;0.25878787;0.027567133;-0.13978545;-0.16748378;0.18113668;0.09793335;-0.109789245;-0.01329107;-0.05202523;0.17793138;-0.025874063;-0.14438672;0.10229837;0.105335005;0.08929909;-0.18710801;0.0643375;-0.14501381;0.10444255;0.069181584;0.072999455;0.1704223;0.011012328;-0.013577326;0.12137994;0.15227018;0.0931505;0.047769442;0.030529477;0.0045360974;-0.07775319;0.036855064;-0.08228401;-0.073775314;0.02432637;-0.10614324;-0.18886045;0.03736054;0.037556708;-0.06064287;-0.06897381;0.15321635;-0.0019059898;-0.051609654;-0.12429557;-0.12518299;0.09940634;-0.24285203;0.0039929496;0.12940797;0.053291004;-0.0738981;0.023972368;-0.0020868601;0.06903765;-0.018388582;0.17444424;-0.114460036;-0.11849024;0.108555965;-0.06353097
-0.003440535;0.1362657;0.09389942;-0.18831669;0.17287219;0.08257274;-0.11820586;-0.13218981;0.056208692;0.13289733;0.041023638;-0.13661012;0.101209;0.04529445;0.10638904;0.123667106;0.084861554;-0.08229474;0.045707386;0.091070585;0.17616022;-0.09241045;-0.07163836;0.042051412;-0.05946069;-0.14464682;0.08931695;-0.033693384;-0.14695865;-0.12282979;0.24786897;-0.12839958;-0.13867767;-0.02566359;-0.0127558;-0.05774283;-0.12392593;0.050076563;0.08304719;0.14960678;-0.1697111;0.15363932;-0.22547233;-0.09729167;-0.20777553;0.16402537;-0.0180283;0.036345784;0.09157939;0.022826789;0.13331692;-0.14036816;0.086372085;0.23247164;0.20604603;0.02169403;-0.012692097;-0.039654583;0.1738608;-0.3757383;0.0073498203;-0.079386644;-0.06216648;0.02119511;-0.13042152;0.07958934;-0.021079093;0.16367508;0.25242794;0.05042801;0.09418818;-0.036979694;-0.0042277114;-0.2158838;0.054194834;0.005447038;-0.020020546;-0.18544151;-0.14235826;-0.11026565;-0.07986672;0.09017238;0.032983355;0.027593678;0.13070808;-0.07014827;0.16163309;-0.22966889;-0.009583278;-0.058472052;-0.005428804;-0.05923928;0.036348052;-0.07699866;0.073038705;-0.44322497;0.12837622;0.07736749;0.030406494;0.11901193;0.078271724;0.020801617;-0.063103065;0.025512323;0.03852683;0.010014181;-0.13014016;-0.009624014;0.0047158594;0.24577811;0.04069435;-0.24158803;-0.0009264968;-0.15360469;-0.122472115;-0.05163378;0.28057063;0.013057744;-0.09679994;0.08095101;-0.0616397;-0.059482448;0.07357343;0.08503751;0.07851596;-0.00035834062;0.06290186;0.1959406;-0.08486407;-0.17539893;0.07705712;0.14075881;0.13969418;0.24032816;0.07771888;-0.028210536;0.013394921;-0.04777035;0.08437235;0.05442402;0.19941682;-0.005302465;0.0021072938;-0.11883951;-0.06666642;-0.11299633;-0.07667715;-0.036963783;0.058586143;-0.032758676;0.12382468;0.054535683;0.015674207;0.07281564;0.045203548;-0.005761153;0.038027246;-0.07261346;-0.09260161;0.3397882;0.08245974;-0.1387664;-0.10232593;0.02629943;0.008694678;-0.14324942;0.049841374;-0.035365272;0.087350845;-0.15906641;-0.037649106;-0.028138446;-0.12792814;-0.08605264;-0.2182882;0.13233079;0.06413517;0.052584197;-0.016653247;-0.0151334945;-0.247607;-0.03511869;0.21362214;-0.13577156;0.063382946;0.08755493;-0.23235913;-0.11416299;0.09738829;0.0033492346;0.10867564;0.1251498;0.22706577;-0.28166264;0.12524667;-0.17518863;0.022173148;-0.120030835;-0.08538133;-0.037960526;-0.018026505;-0.26736188;-0.07351312;0.03755265;-0.06646629;-0.2156727;-0.024523258;0.018293433;0.17684843;-0.056093246;-0.06660691;0.034138214;0.116485186;0.043378726;0.10560123;-0.07466823;-0.08815204;0.02667485;-0.2369643;0.22474554;0.14093745;-0.111542486;-0.09101433;0.06681434;-0.02502742;-0.14237261;-0.07690811;-0.004599254;0.030650618;-0.13533713;-0.06215177;-0.10649778;0.21770546;0.03486997;-0.08020603;-0.05490452;0.10846716;0.09173535;-0.01854364;-0.033963896;-0.037131224;-0.2516393;-0.30807644;-0.081293024;-0.182941;0.0043550353;-0.19743358;-0.18611023;-0.104480386;-0.09172717;-0.04928907;0.12479277;-0.18544893;0.13421991;0.06812326;-0.18872653;-0.08326037;-0.18858084;-0.05416834;0.15932193;-0.041226614;-0.064883836;0.044658355;0.009948845;-0.14512879;-0.057877686;-0.11832814;0.049856737;0.04762623;0.0045564505;0.08485417;-0.009669475;-0.16274618;-0.2060225;0.05731607;-0.10650991;0.12256207;-0.08055659;0.08697;-0.040201448;-0.058893677;-0.13464324;-0.14391999;-0.08667252;-0.15322748;0.038689278;0.013735909;0.22287406;-0.04893417;-0.04520573;-0.024461312;-0.20941229;0.100266635;-0.034541182;-0.08568565;-0.056900915;0.052823287;0.20455098;-0.03042199;-0.121543035;-0.060691196;0.03157968;-0.07979761;0.15424547;0.07737367;0.023117857;0.02662689;0.05410146;0.10320055;-0.067874506;0.09223853;0.17470385;0.080910854;-0.0026661016;-0.12979649;-0.0133056315;-0.089110166;-0.08958663;0.12131291;-0.19526096;-0.0979851;-0.13550831;0.023060016;0.11300443;-0.008909623;0.016169261;-0.11531655;0.07884733;-0.122678675;-0.054483205;0.27053306;-0.01439671;-0.12104765;0.2136794;0.067786664;0.086523175;0.017620021;-0.11447208;-0.009794422;-0.08881996;-0.0021745546;-0.044487186;-0.11702449;-0.07227082;-0.0879292;-0.0148251755;0.15510379;-0.17157455;0.035288572;0.123246185;-0.15075217;0.03815819;0.010609929;-0.022619316;0.11186481;0.14779143;-0.022198597;-0.16420165;-0.12564895;-0.28360277;0.035469737;0.19938439;-0.042829048;-0.19054629;0.18200497;-0.11350171;0.2233194;-0.18127586;0.09983298;-0.17580114;0.13732706;0.1022677;0.16522504;0.074192345;-0.20928596;0.05557261;-0.07418235;-0.02531889;0.018807963;0.09636006;-0.039910916;0.17150284;0.1253954;0.04330457;-0.115559734;-0.06916336;0.065770805;0.055179276;0.110749155;0.042289663;0.111683816;-0.13493799;-0.075125866;0.10723268;0.0010740223;0.039239116;-0.053128455;0.16838294;-0.015721625;-0.010929208;0.06456584;0.089567356;-0.034741774;0.16205405;-0.13566571;0.053512413;-0.10790227;0.030586865;-0.059185416;-0.018197836;0.077152;-0.17574254;-0.08304565;-0.11579652;-0.13594945;0.010541529;0.049254872;0.058171954;0.25510117;-0.01715942;0.07361049;-0.101232536;-0.19926444;0.07069111;0.0039872206;0.017888248;-0.07666976;0.019294437;-0.020755738;-0.22407578;0.05115379;0.027383031;0.25439733;-0.043875586;0.023994206;0.15717252;-0.16077101;0.011571074;-0.034693316;0.16539931;-0.059489284;-0.17324303;0.2101907;-0.23867302;0.07051098;-0.030445466;0.08552498;-0.08321196;-0.044108767;-0.00092966494;-0.05098079;0.042767245;-0.061994158;-0.088434316;-0.15211174;-0.07826076;-0.119694635;-0.05779548;-0.10675149;0.005341157;0.038642306;-0.101770796;-0.043898433;-0.07308364;0.03727896;0.20035683;0.11063327;-0.04507043;-0.24618219;0.036004085;-0.028469369;0.021892933;0.053913053;-0.23380525;0.18459521;0.2210776;0.044181325;0.08177569;-0.0052086012;0.053726126;0.3368338;0.019462507;-0.07973983;-0.16261396;-0.050012745;-0.11445304;0.055707023;0.019871285;0.029196873;0.13032842;-0.0756318;-0.18810259;-0.016632123;-0.024648614;-0.026039258;0.051138036;-0.06706831;0.039962415;-0.1557638;-0.024988592;-0.1412703;-0.0035563582;-0.19288152;-0.101244904;-0.04389678;-0.0051353597;-0.06910336;0.16536632;-0.17914091;-0.088262916;-0.12316181;0.060847532;-0.124864094;0.010568375;-0.22901462;0.08246496;0.14610061;-0.10598144;-0.15560812;0.121304266;0.1489561;-0.028246254;0.10118385;0.118274644;-0.006231758;0.0361404;-0.0060195257;0.13645592;0.01020776;-0.08828479;-0.14929655;0.1476256;-0.070091195;0.007572886;0.0031429334;0.010661619;0.10959629;0.0111180935;-0.065095745;-0.075951606;0.12658268;0.08667601;0.16490193;0.093375005;-0.09290005;-0.022016656;0.003601564;-0.09661405;0.08787961;-0.098975934;-0.2321579;-0.16631652;0.14662617;0.051411126;-0.056886457;-0.07303027;0.019201078;-0.02989954;-0.0032595731;-0.08697173;0.040701125;0.0670215;-0.24577045;-0.018490372;0.02421968;0.158368;-0.06185765;0.018257491;-0.007910765;0.0047662826;-0.11039776;0.24136554;-0.0763277;-0.09489017;0.1027834;0.026846934
0.022606263;-0.020849032;-0.0015540672;-0.112870455;0.28019053;0.20664829;-0.08583683;-0.12801966;0.13415769;0.20061247;-0.03090486;-0.052244876;0.14035319;-0.05828351;-0.02088739;0.077337675;0.13608882;-0.034592785;0.041245535;0.14874005;0.20660484;0.06282848;-0.13487685;0.015355425;-0.030746503;-0.20970017;0.06125169;0.029462893;-0.061583;-0.094015166;0.19894357;-0.097793415;-0.017432483;0.027571844;-0.050020948;0.04313595;-0.07496198;0.03132721;0.007048422;0.1584526;-0.1792587;0.10626554;-0.18844059;-0.071194604;-0.0752573;0.12399874;0.10081426;0.12736894;0.0030806693;0.061404247;0.13799879;-0.0010575231;0.11370726;0.07194587;0.14550212;-0.07714485;-0.12306604;-0.14247894;0.10289296;-0.32431072;0.044376966;0.058116816;-0.1282302;0.054660376;-0.14731263;-0.09289334;0.009436578;0.06689155;0.110240966;-0.039009057;0.12872478;-0.17406286;-0.03977298;-0.23011358;0.039576616;-0.08987455;0.15267283;-0.0512868;-0.028247248;0.009272872;-0.08696544;0.067631476;0.113965474;-0.053473115;0.15417832;-0.05311948;0.10083506;-0.08407773;-0.11443937;-0.1178384;0.13036974;-0.024070583;0.0557457;-0.11152422;0.0037685218;-0.4770336;0.15397936;0.037375413;0.09576856;0.043094214;-0.06023295;0.024188004;-0.173935;0.05443847;0.072894506;0.10739211;-0.15551022;-0.09290964;0.12811713;0.024216162;0.009026924;-0.111619726;0.044381108;-0.10238855;-0.046139266;0.080678895;0.3209925;-0.083588324;-0.036220204;-0.117990576;-0.10487176;-0.015135268;0.15349592;-0.120430164;-0.003520344;0.008647726;0.08197979;0.036267217;-0.2104849;-0.14219917;0.18102928;-0.036155824;0.08057632;0.16996305;0.012393027;-0.06421429;0.11841498;-0.0673094;-0.049021814;0.09042089;0.088986434;0.04033668;-0.040872905;-0.17157955;-0.021073472;-0.14496036;0.00779031;-0.07384826;0.13522047;-0.08225973;0.17004232;-0.019747585;0.1185104;0.14654492;0.005184083;0.07557896;0.11611676;-0.07059881;-0.15665382;0.26033348;-0.029469617;-0.09806052;-0.06972032;-0.014033182;0.024437958;-0.16440235;-0.061824758;-0.06642956;0.015886044;-0.039116677;-0.005147462;-0.06304354;-0.09685266;-0.07689665;-0.20986769;0.19788186;0.04094219;0.006821504;-0.01636402;-0.036903482;-0.21951401;-0.08851364;0.16777223;-0.047780387;-0.017481055;-0.03743259;-0.19755654;-0.08672264;0.12638372;-0.1837079;0.07637943;0.1170162;0.019000262;-0.14639008;0.17417444;-0.058707252;0.018765995;0.016130513;-0.05118301;0.07144834;0.06964722;-0.25310782;-0.023439536;-0.01943348;-0.100788474;-0.09947827;-0.044197276;-0.06279146;0.22389755;0.082975924;-0.14496283;0.03816845;0.16199891;0.03558872;0.10171099;-0.053973157;0.0008404263;0.025728831;-0.14949343;0.10687482;0.13950281;-0.19738871;0.0044928337;0.10207936;0.088087514;-0.27760294;0.003789831;0.004822505;0.015548983;-0.2569814;-0.06402526;-0.055209477;0.17445087;0.14405276;-0.24041381;-0.010708721;0.13764685;0.16229329;0.023048017;0.10090705;-0.103277706;-0.32041132;-0.3265939;-0.04642169;-0.23564443;-0.02814903;-0.15655255;-0.15865871;-0.029668787;-0.024500914;-0.13655332;0.0038426144;-0.2811598;0.11319549;0.15167983;-0.11218468;-0.019506678;-0.33526757;-0.08769984;0.053155694;-0.095308475;-0.08437342;0.076599106;0.04384889;-0.10070385;-0.1699768;0.08615375;0.12914054;0.023743229;-0.06246058;0.056925427;0.033086076;-0.16148622;-0.20429914;0.012165899;-0.03768805;0.15614647;-0.12560679;0.00060374994;-0.046626702;-0.13671094;-0.09516344;-0.10380554;-0.017640827;-0.13702038;0.08493199;0.08819299;0.2725591;-0.11295856;0.038494334;0.020581009;-0.13381952;0.1000068;-0.021144886;-0.013445571;0.019095493;-0.044214915;0.27534774;-0.1953329;-0.098463446;-0.051724017;-0.011421982;-0.096036255;0.1351255;0.03262566;0.017392302;0.030851418;0.24343033;0.04910794;-0.14249276;0.028122557;0.15451837;0.02315269;0.175123;-0.16023126;0.11991471;0.017074138;0.07773564;0.18814757;-0.097048104;-0.12582755;-0.092042945;-0.026158076;0.11172246;0.14785676;0.15983142;-0.07086213;-0.032649282;-0.18928677;-0.09142173;0.13638714;0.03008844;0.020333305;0.12164666;0.012091851;0.09644482;0.022850277;-0.0008422811;-0.0001800224;0.09081155;0.2246741;-0.14715138;-0.021720104;-0.04930392;-0.14272337;0.045878798;0.12251743;-0.016856179;-0.10620373;0.13028812;-0.1457385;0.028997956;-0.0143456375;0.042817503;0.19268246;0.19752763;-0.16013832;-0.198769;-0.10340601;-0.11394788;0.13667071;0.039821837;0.07834477;-0.17869568;0.09940871;-0.20291118;0.18392429;-0.14731047;0.051316753;-0.04964759;0.12940252;0.1892633;0.2776273;-0.016546575;-0.2625926;-0.008257238;-0.06436793;-0.00063067983;-0.028578585;0.09520201;0.0999359;0.13136104;0.05183009;-0.040873922;0.040291764;-0.08854774;0.014702711;0.17114134;0.27593753;0.09470839;0.13407312;-0.16141099;-0.08619644;0.068094455;-0.07927073;-0.013900159;-0.026100624;0.1281169;0.09454351;-0.04538063;0.12772997;0.11547073;-0.18399775;0.048247874;-0.11567905;0.128646;0.056961037;0.18137288;-0.035048567;0.0069764694;0.04023163;-0.11791563;0.093021154;-0.0061174645;-0.07276067;0.089976504;0.042504232;-0.031965885;0.16276613;-0.0222626;0.062003285;-0.032266326;-0.2391398;-0.048036713;0.09721294;0.030821238;-0.02581328;-0.06739171;0.035029203;-0.22916342;0.027762372;-0.07734821;0.13605554;-0.054026328;0.007831268;0.15796494;-0.14746991;0.13390903;0.06395822;0.076743335;-0.0657037;-0.24467362;0.12307568;-0.11792913;0.048776973;-0.02112072;0.052568313;-0.072980516;-0.15620257;-0.06178162;-0.068725765;0.009770458;-0.07500408;-0.10331755;-0.17757063;-0.13104065;-0.16562353;-0.06925485;-0.117196895;-0.11241262;-0.029356938;-0.10362634;0.004356682;-0.024128295;-0.06874661;0.3197814;0.16896401;-0.0647778;-0.17495285;-0.030037334;0.011091441;0.22659512;-0.023943905;-0.24520676;0.10944305;0.11758848;-0.060299218;-0.048518147;-0.100482024;0.11904218;0.1659011;-0.02248095;-0.07467894;-0.17035143;-0.10357254;-0.18377596;0.01052934;0.11602283;0.054697335;0.13498302;-0.05033715;-0.14817886;0.023329312;-0.04539152;-0.14248273;0.0037698767;-0.016149743;-0.05887656;-0.09515736;0.011301803;-0.18701613;0.029988596;-0.11101209;-0.046412554;-0.08398671;-0.023751171;0.03604714;0.0994403;-0.20835513;-0.119420305;-0.1263975;0.11762054;-0.22173044;0.020022398;-0.16781837;-0.02543815;-0.017493837;0.12246689;-0.09055803;0.19897716;0.13671568;-0.085775204;0.10482037;-0.02889466;0.016826788;-0.15854128;0.048184723;-0.061344087;-0.07627468;-0.006013856;-0.23377626;0.19839597;-0.11388076;-0.08924431;-0.08259273;-0.05755217;0.22789533;0.044954736;0.042538423;0.08262018;0.19377477;0.04220683;0.040337488;0.09996819;0.0238065;0.031480875;-0.029619984;-0.06453093;-0.087118715;-0.024053778;-0.25921142;-0.08159194;0.03176757;0.16359247;-0.11733062;0.0308168;0.005724482;-0.101948164;-0.12937832;-0.108804196;-0.011826012;0.14271602;-0.28939754;-0.025423564;0.19291237;0.026598165;0.040000506;0.047969967;-0.07642749;-0.015469944;-0.14854433;0.21341726;-0.11976085;-0.085185684;0.16646957;-0.06658963
-0.09060713;0.0669198;0.14973322;-0.18986744;0.2623424;0.121957675;-0.14835176;-0.17975475;-0.059356507;0.22429483;-0.051458154;-0.07377167;0.19260567;-0.049809553;0.08607944;0.05935632;0.04218097;-0.07311861;0.053201538;0.018193513;0.1451577;-0.013587994;-0.06425829;-0.10288868;-0.10932301;-0.14384528;0.05042925;-0.07949032;-0.17543729;-0.22813863;0.17191282;-0.02211741;-0.12056322;-0.11878069;-0.087370805;-0.13620439;-0.043786187;-0.05203142;0.08521088;0.10902555;-0.015332672;0.09137486;-0.15504013;0.0032538169;-0.034228027;0.123472966;0.074148245;0.11025133;0.101726346;0.054570965;0.010044891;-0.014290289;0.14256245;0.027592044;0.08389246;0.029889004;-0.07867114;-0.16628437;0.14446597;-0.118429035;-0.0072506084;-0.10153075;-0.031824224;-0.0475367;-0.11631077;-0.049468532;-0.04438039;0.19759554;0.13282669;0.053590007;0.11973821;-0.010800097;-0.13375588;-0.21200909;-0.06904255;-0.045002345;0.0057085347;-0.021664547;-0.17116213;-0.095679134;-0.032605097;0.07854263;0.061819073;-0.06679521;0.13441071;-0.10210052;0.13155632;-0.0463221;-0.07564725;-0.101710655;0.054019436;-0.049132835;0.15065694;-0.027625453;0.114643954;-0.45025823;0.034394804;0.14661671;0.012344584;0.10307804;0.043730345;-0.093709715;-0.113698035;-0.0059768553;0.023741467;0.08812207;-0.16544512;-0.028648423;0.102268875;0.1738874;0.06476437;-0.0943076;-0.08910072;-0.13789369;0.014660032;0.07611488;0.25721732;0.06339038;0.024496533;-0.08195358;0.008150001;0.106540404;0.09779906;-0.056989606;0.14357994;-0.022507522;0.109845996;0.11687339;-0.15445256;-0.06344785;0.056684494;0.058880508;0.057669505;0.09095333;-0.09380748;-0.031149155;0.0061189844;-0.04296148;-0.020107409;0.007543418;0.20616071;0.07285161;-0.08998701;-0.25108778;-0.04179044;-0.06062468;-0.10164936;-0.11569994;0.03990987;0.0045359996;0.18950549;-0.03670005;0.07974647;0.0356832;-0.013158615;0.0022515997;0.1365104;-0.016741076;-0.19838274;0.2405098;-0.064026974;0.071485564;-0.0457952;-0.0102245;-0.063691124;-0.011637881;-0.08585901;0.04715488;0.094719924;-0.14979506;-0.028395543;-0.08988997;-0.0026520914;-0.118449956;-0.17378817;0.17074777;0.03353038;-0.045134846;0.12681343;0.05897123;-0.0968523;-0.038923696;0.25092873;-0.1441875;0.023003189;0.17236993;-0.14836407;-0.064951524;0.08947008;-0.16982827;0.086985074;-0.012016741;0.1838101;-0.06828974;0.18120651;-0.10307472;0.014524784;0.13795668;-0.04651068;-0.009087158;0.08617534;-0.26267275;-0.0614951;-0.03664848;-0.014579811;-0.12321833;-0.13809723;-0.020015983;0.121244125;-0.117791906;-0.17718662;-0.041575983;0.12731126;-0.052877314;0.21291307;-0.048745982;-0.005047856;0.05144649;-0.12267761;0.1290835;0.11466016;-0.13859402;-0.13253638;0.17346194;-0.06956329;-0.124880366;-0.0033655479;-0.13777938;-0.054893527;-0.22957717;0.124998145;-0.06606062;0.13897885;0.06250394;-0.16509219;0.047136977;-0.0045569423;0.1429394;-0.087741226;0.08882895;-0.14294569;-0.24182186;-0.27393758;-0.027731773;-0.20724136;-0.0042198966;-0.09902468;-0.09923006;-0.048182666;0.029694349;-0.04963821;0.09932583;-0.19583748;0.065614276;0.13259384;-0.11630951;-0.0014880534;-0.34912622;-0.061757233;0.058761425;-0.27866206;0.05916643;0.113931;0.003805292;-0.15235506;-0.160663;0.025719756;0.29709846;0.106467605;0.11400734;0.012190845;0.089641854;-0.15060103;-0.061200302;-0.051539112;-0.006762247;0.06936802;-0.12995748;-0.03634414;-0.04257578;-0.077719465;-0.20716763;-0.05859492;-0.07195022;-0.065071315;0.0039999974;0.056615777;0.15460072;-0.1012759;0.02400369;-0.016560417;-0.083046235;0.14677547;0.021494603;0.14427395;0.0032422624;-0.036352884;0.28955474;-0.18063973;-0.044744637;0.03295214;0.09317418;-0.120266974;0.1395166;-0.076239206;-0.08781966;-0.04315299;0.15918611;0.034570977;-0.059739843;0.09174853;0.24091431;0.10696988;0.1893707;-0.1934414;0.10730115;0.047945082;-0.0058223675;0.059132207;-0.035299145;-0.051440034;-0.06220296;-0.10985917;0.16325146;-0.005939108;0.0741582;-0.060549814;-0.07001658;-0.13979077;-0.14305054;0.19263346;0.14090918;0.031244954;0.09703142;-0.053570073;0.035135034;0.018693024;0.012919283;0.046275202;0.023024794;0.038002927;-0.025907613;-0.051853392;0.103220776;-0.28460798;0.046972513;0.15460707;-0.034491908;0.08811558;0.044988595;0.032851826;0.110559195;-0.022713434;0.07128197;0.09512447;0.23702171;-0.039317235;-0.0992791;-0.031256966;-0.20523036;0.16895877;0.13196634;-0.087074906;-0.05883226;0.10260148;-0.19480862;0.14556792;-0.19794239;0.15272574;-0.07181515;0.14263621;0.17200834;0.15930372;-0.05261975;-0.24984583;0.0073678587;-0.17731942;-0.07349108;0.07149686;0.14929076;0.16019091;0.053822942;-0.006158631;0.06269986;-0.05879934;-0.011451283;0.15275672;0.11975636;0.3193019;-0.037844185;0.12428487;-0.09979572;-0.13235645;0.061878003;-0.07120557;-0.061061636;-0.013760709;0.012529452;0.12544131;-0.19351032;0.070473045;0.13698113;-0.23810758;0.13312578;-0.03908492;0.0100988895;0.03730736;-0.016631408;-0.07705463;-0.022483889;0.10177276;-0.07730031;0.064526744;-0.13220055;-0.13811621;0.1011306;-0.0031020448;-0.09839426;0.2519759;0.0928113;-6.402763e-05;0.009604186;-0.26470342;-0.08272567;0.055748716;-0.0018196483;-0.097556286;-0.061256066;0.09246242;-0.15379855;-0.101930276;-0.09082638;0.26972443;-0.07464622;-0.07839311;0.13639116;-0.1836045;0.08954363;-0.04390214;0.13509269;-0.06236993;-0.13816354;0.06826844;-0.14139904;0.047155574;0.04332744;0.027450591;-0.060314372;-0.09004185;0.025491998;0.020876128;-0.06492308;-0.007903567;-0.15887997;-0.09908505;-0.028285824;-0.121080525;-0.05475919;-0.103525735;-0.088299185;-0.05253965;-0.18718524;-0.07031053;-0.084627934;-0.11275156;0.26858428;0.094005875;-0.011105789;-0.18431215;0.026211912;0.02158598;0.21835221;0.07370691;-0.09764059;0.124314114;0.088441245;-0.13078858;0.08802408;-0.08908212;0.108599946;0.16294989;-0.054442674;-0.0605442;-0.123440824;0.068060815;-0.12398262;-0.034761794;0.062724546;0.11424622;0.04017969;-0.085239455;-0.2141802;0.02671531;-0.046643697;-0.23044321;0.08585963;-0.06658553;0.063747756;-0.19899724;-0.053078387;-0.1488514;-0.035825778;-0.06975507;-0.025814548;-0.14658983;-0.10993768;-0.031996686;0.044999685;-0.15703835;-0.09214484;-0.068782195;0.033040285;-0.13924342;0.0020145394;-0.22167078;-0.008791481;0.06557115;0.061335493;-0.17886679;0.15495381;0.010872542;-0.19868618;-0.020911813;-0.023119304;0.0749341;0.025080571;-0.08605001;-0.03332241;-0.08146791;0.12689899;-0.16898268;0.15201312;-0.11600116;-0.091655165;-0.016915897;0.070423946;0.15885872;0.007514162;-0.116801135;0.19714804;0.22164616;0.075876474;0.039921343;0.11984715;0.086831965;-0.06147266;0.14923182;-0.13819394;-0.06765776;-0.09583218;-0.08109927;-0.056897145;0.08934246;0.15916295;0.00921251;-0.0143355355;0.11849122;0.08542495;0.0062092333;-0.0058302404;0.0489068;0.12716943;-0.2622545;-0.1697365;0.18292597;0.05489674;-0.12215787;0.014047607;-0.002706613;-0.059095435;-0.05739572;0.08240775;-0.16342014;-0.09219749;0.21342269;-0.07002316
-0.048401635;0.03171096;0.05529539;-0.14415962;0.23748612;0.18353365;-0.0504225;-0.028632559;-0.0791485;0.16875902;-0.12365417;-0.18655658;0.05987494;0.004630184;0.0011028439;0.043879505;-0.045262966;-0.17674907;-0.011126689;-0.022109538;0.013086545;-0.110498354;-0.0809172;-0.06457583;-0.018474136;-0.014084659;0.15129854;-0.080742456;-0.14699762;-0.27549955;0.07941331;-0.19098936;-0.12227748;-0.106540754;-0.18002567;-0.0671025;0.01538493;0.06319722;0.17438751;0.21256582;0.03201066;0.18731336;-0.19493683;-0.09846855;-0.05977011;0.10701471;-0.01864649;-0.0037245806;0.17684981;-0.11502109;-0.018116897;-0.021622874;0.10621837;0.15800227;0.13504772;-0.06436493;-0.036762185;-0.0076452917;-0.02353429;-0.21219246;0.07255257;-0.1365145;-0.0263538;-0.024557667;-0.031630356;0.06710536;0.0007328319;0.055926256;0.068987764;0.00017971845;0.053927142;0.00062963524;-0.15363422;-0.24086502;-0.11209948;-0.061273027;0.10435492;-0.097102456;-0.022869729;-0.13916743;-0.11080877;0.09208733;0.10665626;0.038227916;-0.06884454;-0.14826818;0.20924638;-0.12423241;0.025192164;-0.040651847;0.077548936;-0.07510673;-0.019199997;-0.12647302;-0.0014054193;-0.3585459;-0.018919246;0.19882041;0.079193234;0.08624003;0.220976;-7.403227e-05;-0.071854286;-0.04783081;0.15136744;0.035969537;-0.113350585;0.013441867;0.10064994;0.015244254;-0.014278566;-0.0064758062;-0.10234402;-0.056186453;-0.011116594;0.1727796;0.10669826;0.029019115;0.061295446;-0.2028683;0.07321614;0.095222205;0.19995682;0.04743269;-0.047516912;-0.04872572;0.16734216;0.09664607;-0.06936001;-0.22306335;0.056867007;0.17998354;0.17707378;0.15404592;0.010709591;-0.26248935;-0.030981341;0.054394554;-0.09357576;0.09807439;0.31343988;-0.049149584;-0.053431008;-0.12860909;0.05035378;-0.056591567;-0.023686832;-0.13320772;0.101781294;0.04319936;-0.040818766;0.087887235;0.0906764;0.1273702;0.049567744;-0.17021114;0.13632166;-0.06642731;-0.05729727;0.231467;0.13248803;0.03712769;-0.09657028;0.1400658;-0.0864957;-0.010348739;-0.12975493;0.08646551;0.041206144;-0.15186492;0.056518912;-0.17432861;0.048393387;-0.021436896;-0.18577261;0.09287058;-0.01846664;-0.06707363;0.047832206;-0.0025657867;-0.1396015;0.0030173464;0.20014787;-0.09959755;0.06711221;0.10822809;-0.18405117;0.026017288;-0.08884977;-0.2519267;0.13094455;0.027051616;0.19061969;-0.09059658;-0.058567118;-0.07592379;0.03864734;0.04097362;0.055716183;-0.02301757;-0.06843018;-0.24716695;-0.036589086;-0.12866908;-0.07042775;-0.09736255;-0.13528979;-0.03597601;0.14085168;-0.11098745;-0.18615997;-0.04701366;0.09634993;0.0366805;0.2628466;0.070163146;0.073078744;0.08777064;-0.03842231;0.06574595;0.117683515;0.08161746;-0.14012623;0.23084246;-0.05520021;-0.117780395;-0.02016511;-0.03269055;-0.045981545;-0.03404337;0.18489702;-0.051436245;0.08803429;-0.013921032;-0.1914316;-0.055917706;0.16246459;0.15632388;-0.1135725;-0.07824449;-0.1330131;-0.10664308;-0.31924686;-0.03902648;-0.18330784;0.02414552;-0.1841232;-0.09501354;-0.08303339;-0.100419745;-0.0142586455;0.12807502;-0.2175973;0.056571707;0.070170365;-0.07454852;0.015170634;-0.24507226;-0.011210821;0.077787235;-0.16738369;-0.008423164;0.09191299;-0.10055618;-0.24902967;0.045776732;-0.010222715;0.2981616;0.16332795;-0.029508075;0.16446218;-0.03150274;-0.10219119;-0.21577787;-0.048584998;-0.16601339;0.09158029;-0.053166367;0.11785257;0.18147251;-0.047196865;-0.21844096;-0.04658318;0.046863593;-0.0007294527;-0.05012596;0.015031374;0.25205332;0.050367754;0.10290853;-0.1000715;-0.20397444;0.12193115;0.016744155;0.15075442;0.004883717;0.06479132;0.19628887;-0.17262483;-0.09326765;0.07276393;-0.021240488;-0.2655147;0.13282543;-0.018777447;0.075013384;-0.05793856;0.14047328;0.016250663;-0.1662283;0.012778634;0.13427567;0.02888976;0.10859245;-0.12289128;-0.052045524;0.07531305;-0.16972293;-0.016673308;-0.2156423;-0.14693375;-0.07620319;-0.09715279;0.1669627;0.030177124;0.044894595;-0.106187075;0.06377537;-0.06673612;0.029777588;0.011584251;0.17233558;0.08235652;0.051321242;-0.029632775;0.064526424;-0.11697529;-0.02737256;0.07682946;0.14825492;0.1475948;-0.11772033;-0.06318927;0.012336822;-0.23479943;-0.049536787;0.14544249;-0.048350688;0.0812206;0.05209205;0.05517618;0.06895056;0.05126641;0.09180028;0.14644708;0.24710013;-0.152457;-0.08654557;-0.039644707;-0.21042824;0.06744308;0.15429407;-0.051121477;-0.044044133;-0.007289809;-0.12233995;-0.061609656;-0.07187185;0.092563406;0.098970175;0.04355067;0.20367369;0.23010862;-0.14362085;-0.26587152;0.014330832;-0.113615364;0.0007771628;0.04394129;-0.025097953;0.04289605;-0.036236957;0.034966525;-0.09657661;-0.1280329;-0.033539794;0.07020496;0.009427646;0.14003363;0.067969024;0.11786856;-0.123290956;0.0017650268;-0.011737513;0.0015533277;-0.026139356;-0.09897019;-0.0127287945;0.007465502;-0.14719531;-0.015912974;0.20419408;-0.068129785;0.12904947;-0.033751003;0.10845036;0.074595615;-0.06470878;-0.00051994453;-0.070869885;0.0015912928;-0.055888683;0.043122847;-0.09703349;-0.18420933;0.056138743;0.0050804513;-0.05021849;0.38580608;0.004521144;0.024032252;0.016177082;-0.17901362;-0.16021816;0.119150825;0.026260622;-0.09841989;-0.012104509;0.11680364;-0.22635895;0.030101286;-0.12093498;0.15212005;-0.089227065;-0.048566185;0.22084177;-0.13142714;0.012989446;-0.03415568;0.2743637;-0.20955111;-0.25365725;-0.020705754;-0.26189438;0.17635155;0.025404314;0.11802882;0.13430017;-0.17902955;0.0688702;0.13391642;-0.00017223913;0.038408272;-0.081382066;-0.25317302;0.0045613083;-0.06765986;-0.056763258;-0.20571895;-0.06603469;0.019879755;-0.0936491;-0.12740734;-0.03347433;0.047492426;0.030628925;0.086348966;0.020623358;-0.2773003;0.077638604;0.08240816;0.09647891;0.0021895412;-0.16852765;0.12467966;0.06542088;0.024048584;0.0936987;0.042595845;0.061627783;0.16425526;-0.071238294;-0.037751567;-0.16188507;0.084131375;-0.13704242;0.06593973;0.20841122;-0.041277364;0.061332744;-0.06166089;-0.23791581;-0.00293778;0.08381526;-0.115439005;0.16986738;-0.032053206;0.11774939;0.006910085;-0.021831451;-0.08227164;-0.015498673;-0.09210484;-0.03113367;-0.09249455;-0.049570415;-0.042183112;0.12769897;-0.21162932;-0.14235482;-0.11504578;-0.10540707;-0.19746365;-0.061537366;-0.19739701;0.005206771;-0.008619818;0.038397614;-0.22166732;0.22052938;0.09557879;-0.20343363;-0.06430409;0.10066212;0.0545704;-0.027435139;-0.074621275;0.044266794;-0.023380443;0.15571076;0.026890894;0.06528391;0.04865971;-0.09155473;0.018088605;0.14279418;0.14625907;-0.11851291;-0.15153083;0.20196244;0.251091;-0.02758505;0.17159593;0.061175592;0.07617486;0.0019095091;0.09445958;-0.20170529;-0.070619985;-0.10935902;-0.15546942;-0.01965016;-0.101656154;0.10689156;0.003941684;-0.14680324;0.14247888;0.07522458;0.043477036;-0.16767043;0.03717392;-0.0029054072;-0.215093;-0.26409677;0.06655841;0.06116581;-0.05366867;0.08691737;-0.05930403;0.038308833;-0.024410244;0.23417272;-0.17608707;-0.07463168;-0.02850873;-0.0065033045
-0.11901314;0.1433018;0.041346762;-0.1323758;0.2059501;0.10272702;-0.06342735;0.058137182;-0.065996625;0.2279871;-0.07526705;-0.06729573;0.08443042;-0.051039144;0.027076816;0.12658684;0.02694435;-0.14960615;0.015192144;-0.028265443;0.10060185;0.025926517;-0.1495908;-0.06139579;-0.05864683;-0.09298617;0.08700829;-0.081951685;-0.15659758;-0.18584393;0.15606864;-0.08255466;-0.0051792115;0.04206913;-0.012916329;-0.05852558;-0.1381681;-0.011693849;0.09788052;0.031111429;-0.10945535;-0.0072531556;-0.2524218;-0.116954185;-0.014336698;0.12675913;0.06650073;-0.051060133;0.109319545;-0.05167027;-0.09898978;-0.11426878;0.18872412;0.10692416;0.121339135;-0.09833929;-0.08022955;-0.009903308;0.006884224;-0.101479344;-0.022115525;-0.010918924;-0.023541609;-0.058461197;-0.094085865;-0.041531265;-0.094004974;0.114462875;0.024325324;0.019541614;0.05505823;-0.0439532;-0.007992957;-0.30676985;-0.1365786;-0.0883061;0.12446602;0.026713576;-0.013689171;-0.03452765;-0.06393538;0.07965563;-0.017277036;-0.032620925;0.062088262;-0.079616345;0.13015647;-0.109327346;0.04055202;-0.06030504;0.16157816;0.02937818;0.09066;-0.05340121;0.03447597;-0.37491992;0.02619282;0.09434427;0.08627919;0.15174714;0.11109554;-0.13162924;-0.11429559;0.15343122;0.1548049;0.018743407;-0.042839415;0.033718336;0.099929824;0.05213484;-0.018584777;-0.008769012;0.051488537;-0.11233612;-0.027555602;0.07781286;0.017776148;-0.033092283;-0.018077778;-0.20175764;-0.1174434;0.1000208;0.06695034;-0.17839716;0.058179002;0.11367604;0.11012405;0.10103208;-0.13558257;-0.08275849;0.07605968;0.092679605;0.04997548;0.17588031;0.03526109;-0.124746926;0.08154251;0.005955516;0.050549604;-0.064797826;0.33197254;-0.055144273;-0.03692616;-0.058245055;0.059171923;-0.17853653;-0.09523122;-0.054493833;0.03844968;-0.10226886;0.08895424;0.0044818297;0.014712836;0.0032724852;-0.011438555;-0.13023941;0.09596287;-0.1327303;-0.086560324;0.15033536;-0.007711581;0.027689375;-0.11263434;-0.05685052;-0.0532397;-0.01705573;-0.09405954;-0.014113719;0.05641048;-0.12817395;-0.016341837;-0.12682152;0.0026674082;-0.12059178;-0.2439001;0.100924924;0.06804165;-0.032434706;0.15559739;0.051254153;-0.09414377;0.052528705;0.04717449;-0.07260442;-0.079758786;0.01711703;-0.14830914;-0.08573168;0.051117107;-0.26925552;0.012333993;0.020737179;0.06076811;-0.16854237;0.06980791;-0.10295088;0.12809567;0.053604096;0.004753141;-0.008427927;-0.04935409;-0.2842978;-0.07836096;-0.10248027;0.057546765;-0.29013896;-0.0018671021;-0.046998255;0.054718416;-0.040886223;-0.057444833;-0.0077264453;0.13823071;-0.047651786;0.16804889;0.013432243;-0.1657891;0.09977724;-0.030126331;0.10198095;0.12368622;0.0893962;-0.17244102;0.13016365;0.0016078239;-0.19990696;-0.059901137;-0.06941514;0.029883342;-0.13801956;0.04499349;-0.051344454;0.17292409;-0.06434497;-0.079394765;0.005058002;0.031991005;0.12965913;0.006519061;0.014607438;-0.10601778;-0.14574586;-0.3107911;0.0005569709;-0.12109485;0.055536345;-0.162105;-0.1943706;-0.055981275;-0.044230733;-0.04484674;0.028221084;-0.2352872;0.06778355;0.15608335;-0.11033275;-0.17717025;-0.12956733;-0.18951191;0.016814908;-0.26771626;-0.09165967;0.057368696;0.03429553;-0.10096697;-0.035998367;0.10281166;0.26156312;0.13250592;0.049217243;0.09569888;-0.038867977;-0.11412748;-0.15296715;-0.017515412;-0.15299368;0.15515228;-0.015071199;0.20530881;0.06922253;-0.16152275;-0.063684076;-0.009594882;0.13387372;0.013621936;0.031342864;-0.024460876;0.094241455;-0.03804162;0.06809041;-0.060655896;-0.043228995;0.12823558;-0.00587861;0.14447115;-0.11449244;-0.032552812;0.24378513;-0.19428818;-0.025411852;0.08770862;0.003156605;-0.12165059;0.09895988;-0.043747876;0.065711945;0.010939085;0.17208594;-0.018724607;-0.15904485;0.11427506;0.15909988;0.023116572;0.18185715;-0.008348003;0.15145034;0.007125607;-0.1610079;0.027276997;-0.008902988;-0.09999275;-0.053737894;0.044040162;0.11447179;0.018818576;0.20396784;0.010549457;-0.14318238;-0.07036042;-0.076436125;0.026603166;0.08497554;0.20148383;-0.032476675;0.023489783;0.054335803;0.015261151;-0.0041050455;-0.084133774;0.03179165;0.13691337;-0.011786017;-0.05777653;-0.018459952;-0.11551061;0.11150994;-0.043293096;-0.08397859;-0.08405306;0.049777135;0.04303453;-0.0190684;-0.09071449;0.05405668;0.072634675;0.17129758;-0.10944115;-0.0050376146;-0.050627165;-0.14417748;0.12790643;0.14039108;0.02831378;0.024341185;0.011568463;-0.12768692;-0.048393093;-0.07849281;0.18448949;-0.07543148;0.049189452;0.22709408;0.19152354;-0.10845878;-0.04770237;-0.12019379;-0.08635847;0.039787374;-0.1267981;0.12031957;0.1290645;0.10870775;-0.021334253;-0.07157111;-0.040285934;0.036179073;0.108889766;0.10624691;0.24548863;-0.06435134;0.07262285;-0.12230089;0.0031794128;0.044753723;0.031094775;0.0652427;-0.10221245;0.22047259;0.006723721;-0.14974713;-0.017614799;0.1560149;-0.17456885;0.12863936;-0.10099755;0.08906589;-0.032737166;0.043877304;-0.024811817;-0.011208159;0.07609217;-0.08417466;-0.09440121;-0.036040124;-0.030840635;0.06147679;-0.00031884047;-0.053964425;0.34044743;-0.021926511;0.13030104;0.044072792;-0.08260268;0.015425356;0.04290833;0.05900424;-0.08192207;-0.13500981;0.13946515;-0.18659808;0.0029946647;0.016922928;0.09573328;-0.04430144;-0.008615571;0.22492678;-0.221724;0.09429957;0.029658858;0.1468491;-0.24315462;-0.33392984;0.023293337;-0.21665524;0.1390606;0.060348634;0.06628526;0.050378174;-0.1315951;-0.02298027;0.048223235;0.009510202;0.035988685;-0.19814214;-0.07228798;-0.0535377;-0.1507067;-0.0007380625;-0.19422466;0.01436182;-0.0349727;-0.042581722;-0.013409313;-0.15097934;-0.045713026;0.11674107;0.041205294;0.082432546;-0.28870517;0.12739466;0.021855503;0.108679906;0.053039245;-0.15525068;0.1660476;-0.05925909;-0.11560025;0.06765918;0.0060618776;0.009352259;0.17815407;-0.18216795;0.062466927;-0.12691957;0.11569518;-0.06614971;-0.15479283;0.064720705;0.056421723;0.020430487;-0.0143682975;-0.11931216;-0.10086727;0.10183718;-0.08213325;0.16128947;-0.085889034;0.100197904;-0.07412921;-0.087752916;-0.09979775;0.08830846;-0.11413335;-0.22568706;-0.15931666;-0.076218374;-0.06522125;0.0004769648;-0.1813304;-0.22402091;-0.051474437;-0.009661771;-0.1952756;-0.17321913;-0.21178468;-0.008240589;0.09647895;0.07975492;-0.09326019;0.07708172;0.09079171;-0.06883515;-0.078415416;-0.0019182337;0.08381968;-0.07356279;0.07126185;-0.0070078988;-0.06784017;0.16189443;-0.15646268;0.10310157;-0.06325723;-0.13764355;0.069230236;0.11423747;0.15761639;-0.037619695;-0.012768034;0.105091505;0.12845047;0.041433778;0.09339999;0.083171025;-0.012191304;0.03421863;0.013398763;-0.2505204;-0.029076638;-0.05698528;-0.050800677;-0.05778649;-0.0012037258;0.11060312;-0.023464743;-0.17321864;0.270832;0.012637558;-0.13172486;-0.15294202;0.07041961;0.031790853;-0.3314504;-0.2260564;0.09928866;0.01291345;0.08230902;0.06556385;-0.02998838;0.014123526;-0.092014775;0.14609443;-0.29671085;-0.04151463;0.06504813;0.042998992
-0.06018449;0.1383996;0.030033825;0.008020763;0.17247206;0.22390953;-0.046809103;0.09067009;-0.07298564;0.21414661;-0.19014455;-0.169143;0.19468476;0.07567907;0.006614733;0.005200467;0.026499404;-0.1765172;-0.07086642;0.008121223;-0.0048099565;0.040111296;-0.15495448;-0.13588929;-0.0908449;-0.119623356;0.063629635;-0.032469966;-0.14211734;-0.16361378;0.14258154;-0.028816976;-0.043482564;-0.03897145;-0.09384614;0.014001528;-0.0076362174;0.06804449;0.19050321;0.07450954;-0.09503152;0.120325744;-0.12770191;0.018490246;-0.18914755;0.2067247;0.045471735;0.043237105;0.20887999;-0.0897973;-0.082088426;-0.037801173;0.13546607;0.14439827;0.1297168;-0.05886723;0.023944514;0.003391787;0.087503314;-0.11840685;-0.02579401;-0.120776966;-0.050664883;-0.10780681;-0.12140964;0.08897628;0.03653715;0.23400567;-0.017642088;-0.04856289;0.020686096;-0.11511687;-0.051491667;-0.29616857;-0.10208444;-0.035190593;0.20487647;0.03198086;-0.11126687;0.003655867;-0.027367728;0.0741697;-0.022414157;-0.06638763;-0.042831995;-0.1354275;0.0676737;-0.08832244;0.13752413;0.03158836;0.047310155;-0.07977991;0.17522798;-0.08266415;0.09552136;-0.37362382;-0.090221405;0.11505692;0.0041985977;0.06575815;0.011942613;-0.13735123;-0.036113486;0.10491435;-0.01305554;-0.033207875;-0.056913543;-0.004117462;0.1337135;0.10598151;-0.009419161;-0.12497923;-0.008612956;0.07288414;0.04496732;0.12646623;0.09931421;0.052534897;0.07918959;-0.2652016;-0.0524501;0.12020899;0.12904996;-0.015334631;0.025311485;-0.02573252;0.12140809;0.1619492;-0.031656753;-0.12348654;0.11939995;0.02058287;0.054728083;0.10320002;0.18166234;-0.11823155;0.010330781;-0.02765872;-0.045196876;0.07380387;0.21980329;0.10908193;-0.022267822;-0.26198784;0.034654405;-0.08946407;-0.050170243;-0.16297083;-0.006756202;0.06478107;0.08852363;0.027648453;0.06077847;0.048940703;-0.055327486;-0.14068437;0.10996284;-0.10578898;-0.13185497;0.29194173;0.06835938;0.12978378;-0.014661348;0.11062983;-0.10619821;-0.022111569;-0.044479966;-0.0768497;0.00085169217;-0.07859086;0.077945955;0.036719643;0.013478809;-0.12805584;-0.20398118;0.116201684;0.13779654;-0.15360114;0.15212405;-0.046470087;-0.12176972;-0.030518023;0.13380224;-0.035140313;-0.07099472;0.13236207;-0.12101847;-0.10147262;0.08429979;-0.22772177;0.078971684;-0.011374776;0.1034191;-0.13820489;0.11343513;-0.14203054;0.12775116;0.016593251;-0.06075071;-0.038537033;0.00052599877;-0.28697774;0.021138819;-0.16644344;-0.04317463;-0.28553388;-0.042937536;-0.012180405;0.17659087;-0.11971068;-0.21331786;-0.15317911;-0.001375505;0.043103002;0.13752858;0.02818151;-0.07466552;0.13946421;-0.13467409;0.020556947;0.102403745;0.03547548;-0.103432536;0.15789402;-0.07444611;-0.116786405;-0.114072315;-0.15165466;-0.07270167;-0.16094998;0.09192496;-0.1152835;0.074589685;0.12411562;-0.14490427;-0.088986024;0.10153191;0.082203574;-0.0706101;-0.055884454;-0.20624405;-0.14244449;-0.1408829;-0.08054646;-0.1758012;-0.0161105;-0.07116132;-0.110743105;-0.05735089;-0.124753244;-0.051292196;0.15468013;-0.20973718;0.0047984826;0.01946012;-0.01382859;-0.08885889;-0.18528183;-0.08480598;0.0019638683;-0.20892884;-0.04631382;0.18574736;-0.066215545;-0.11260235;-0.08629648;0.023592655;0.24366648;0.0836104;0.038393736;0.14870895;-0.1046732;-0.16646841;-0.1345226;-0.17217846;-0.028329747;-0.002904166;-0.15398374;0.14311993;0.1166841;-0.11239544;-0.0075151618;-0.0147939455;0.05530178;-0.12789457;-0.030898286;0.0023820072;0.043085385;-0.011948702;0.09759893;0.058281925;-0.20027807;0.15538387;-0.00584188;0.13084437;-0.11734628;-0.02622697;0.15681712;-0.16584073;0.008173882;0.08489796;-0.069310814;-0.20389856;0.13292305;-0.07089905;0.07351271;0.011297495;0.09934892;-0.09424403;-0.08093173;0.09609018;0.07474576;-0.04423142;0.105710395;-0.045179002;0.08604549;0.062140122;-0.18323782;-0.1280266;-0.03396213;-0.13978411;-0.019653298;-0.12186019;0.026425987;-0.061685205;0.041376848;-0.029974325;-0.06611091;-0.15069172;-0.07909657;0.05976523;-0.0044279974;0.2358193;0.030838827;0.04546006;0.10077449;-0.09538584;-0.0057497825;-0.0623156;0.074765466;0.12248681;-0.008168843;-0.02521756;0.07203505;-0.079702854;0.044779494;0.05153048;-0.0817155;-0.005344638;0.09342153;0.051121265;0.019867936;0.07274908;0.05694448;0.11012004;0.18906999;-0.1939641;-0.14518684;0.029052777;-0.1837608;0.045527663;0.17777985;-0.05313953;0.04779867;-0.006997557;-0.011427469;0.080657534;-0.033382665;0.072340116;0.002040402;0.08075951;0.1572137;0.10191715;-0.1342937;-0.08928746;0.0075584794;-0.058933523;-0.04495144;-0.12067342;-0.0035460189;0.037894133;0.1045003;0.09531604;-0.040601503;0.028323798;-0.018285342;0.115400374;-0.018381635;0.1687529;-0.008089363;0.13247131;-0.06196913;0.044634745;-0.036646083;-0.15230297;-0.05448612;-0.123265594;0.20454143;0.07554042;-0.2465005;-0.123015895;0.10133603;-0.26857832;0.1081485;-0.06037249;0.047577955;0.086946376;0.043783534;0.013087697;-0.08399375;0.09530502;-0.07984039;0.04740629;-0.08027997;0.016784523;-0.025667118;0.080419585;0.024179826;0.29291537;-0.035340607;0.05761794;-0.017027954;-0.10939484;-0.048703495;-0.033735346;0.0056744115;-0.078329384;-0.047600348;0.17351812;-0.11339519;0.08572705;-0.115847394;0.14799954;-0.05139057;-0.008734626;0.1760035;-0.2498836;0.12312294;-0.091001935;0.13134196;-0.14274958;-0.3409026;0.04514211;-0.21718368;0.06134791;0.055355128;0.08573598;0.070573926;-0.12505138;0.00072985137;0.03828603;-0.037689734;0.07338525;-0.09550322;-0.013894953;-0.06351547;-0.19198813;-0.056811746;-0.16849783;-0.07555185;-0.014020485;-0.07741152;0.015687522;-0.07122244;-0.038662467;0.064866714;0.035492137;0.008938355;-0.36710185;-0.030718701;0.13241647;0.099471025;0.11930202;-0.14826061;0.10137575;0.014674304;-0.10505201;-0.042384587;-0.035586867;0.13831139;0.3264962;-0.14606848;0.029541783;-0.09912526;-0.00014743951;-0.03764923;0.06602857;-0.018395301;0.008327037;-0.027454278;-0.08412132;-0.08349228;0.05786701;0.09494192;-0.029947698;0.13257316;-0.069636;0.18480754;0.023065636;-0.19353363;-0.14545657;0.014240549;-0.10620816;-0.1727469;-0.004132389;0.028221617;-0.15705208;-0.020420164;-0.012656756;-0.15469123;-0.098455474;-0.09964255;-0.29186118;-0.19619243;-0.1995415;-0.14236152;-0.01588036;-0.0031427164;-0.19249007;0.066212945;0.058110494;0.0017432272;-0.11430389;0.009263373;0.050223168;-0.08561529;-0.0017956338;0.08780331;-0.08213337;0.078566;-0.14620055;0.08946611;0.032432996;-0.002715747;0.07665708;0.16366051;0.079824604;-0.14080088;-0.10767446;0.18057132;0.08551412;0.01491299;0.0116524305;-0.024706587;-1.0071473e-05;0.009182331;0.06797258;-0.22659214;-0.1348021;-0.1579204;-0.11414445;-0.12144532;-0.09354293;0.1327658;-0.12802875;-0.11373752;0.18262602;-0.024756288;0.012567262;-0.092753954;-0.09227796;0.074010275;-0.23745924;-0.17754585;0.10072792;-0.0011138032;-0.0030738583;0.0038801958;-0.094498076;-0.10326982;-0.06520606;0.2095705;-0.22658366;-0.101553194;-0.035434287;0.08958191
0.010392606;0.062487565;-0.003279521;-0.045119483;0.10987398;0.2614054;-0.061916735;-0.03761539;-0.014743834;0.20277771;-0.25872535;-0.1562649;0.17759527;0.009895252;0.10715575;0.019549824;0.03958366;-0.06186778;-0.026210004;0.051183414;-0.042868327;0.102768846;-0.1860841;-0.11176081;-0.046755448;-0.016878748;0.15786365;-0.13864012;-0.038210835;-0.05790253;0.037019055;0.047683593;-0.002914908;-0.08359321;-0.08533728;0.092946194;-0.10662468;0.0381384;0.15198077;0.012609018;-0.16754484;0.00684418;-0.059517946;-0.1355955;-0.09052068;0.16177018;0.018248385;0.1707503;0.17799555;-0.088310316;0.014800594;0.07125456;0.15578963;0.14686233;0.07950048;-0.058021285;0.060352635;-0.14525302;0.053252462;-0.21351154;-0.07156023;-0.122709654;-0.048396908;0.052237894;-0.17023167;0.07715071;0.020282218;0.27932036;-0.14700285;-0.07412568;0.06591848;-0.08844608;0.026014922;-0.22862953;-0.06546563;0.06871968;0.10044853;0.12551562;-0.10710326;-0.034407414;0.0212975;-0.032855846;-0.008369552;-0.030960085;0.07683064;-0.099831626;0.06783708;-0.09582093;0.08131256;-0.11247994;0.034056503;-0.013081335;0.10410247;-0.011143769;0.071915574;-0.36685476;0.018090356;4.282237e-05;0.037016217;0.116154015;-0.015389493;-0.06496364;-0.083965585;0.13313144;-0.016300097;-0.027979307;-0.03433796;-0.09145875;0.20088194;0.011537652;-0.03533419;-0.08591767;0.1140894;-0.025443269;0.027819771;0.07269201;0.09371399;0.07116156;0.038157642;-0.2458686;-0.02512917;0.18983895;-0.06687596;-0.03804165;0.17166118;0.1805549;0.20349757;0.11778383;-0.0439201;-0.16105014;-0.0047192466;0.05454793;0.091895685;0.17983997;0.1591537;-0.07554463;-0.004435761;0.054586075;-0.06109616;-0.002539379;0.16606621;0.10218524;0.026827285;-0.14911446;0.03802762;-0.08084968;-0.12885587;-0.06468807;-0.15282498;-0.053262908;0.18834503;-0.022098567;0.09802932;0.17740008;-0.021236673;-0.011880733;0.14430031;-0.08548655;-0.093675315;0.14780273;0.09933002;-0.019421011;-0.041556496;0.012880046;-0.10396626;-0.046903647;-0.12593523;0.00013867638;0.020667052;-0.07968126;-0.048856065;0.012594309;0.011613581;-0.039895575;-0.22967432;0.14663312;0.051848676;-0.14614773;0.05228861;0.0145968385;-0.14413418;-0.041405793;0.113248944;0.008248027;-0.029313656;0.10529643;-0.10091247;-0.086308256;0.1119344;-0.10094692;0.10030312;-0.03177819;0.058757223;0.03063618;0.015066051;-0.07160839;0.06599131;0.124460734;0.0062490464;0.06285412;0.030355813;-0.33265272;0.010540231;-0.2853631;-0.030256752;-0.25584546;-0.0102625545;0.12427969;0.11358106;-0.084374815;-0.23053145;-0.16733637;0.003165897;0.08316875;0.1429149;-0.027571626;-0.1978849;0.11859879;-0.18522587;-0.04259918;0.14092354;0.0127512105;-0.12978041;0.18472013;-0.031426646;-0.13969383;-0.18309376;-0.010356121;-0.10455562;-0.080098465;0.09864661;-0.13510238;0.14800698;0.110694;-0.11747885;-0.026799442;0.0077905613;0.16971421;-0.12063892;-0.008122595;-0.18121278;-0.12331433;-0.12786232;-0.19510666;-0.05796459;-0.038238633;-0.105134495;-0.054082908;0.015054914;-0.059832454;-0.14234658;0.11329452;-0.2458341;0.13096133;0.109057106;-0.08243686;-0.21454982;-0.18931279;-0.12372988;0.05384709;-0.29871774;-0.13473189;0.118331894;0.08248168;-0.079925865;-0.020704756;0.005220385;0.158173;0.13708867;-0.047278527;0.06518794;0.005426722;-0.1026026;-0.10763981;-0.07429175;-0.014667521;0.03318573;-0.053835984;0.1458937;0.210724;-0.12680249;0.0026935246;-0.10113148;0.0083280895;-0.07345584;-0.016944198;0.039673783;0.036184773;0.015623851;0.013545698;0.12132163;-0.19396012;0.093985826;-0.10169411;0.11860448;-0.11228968;0.05758427;0.17905472;-0.091814294;0.14978167;-0.027163312;0.009133434;-0.16925932;0.094952285;-0.05510315;0.061557997;0.022989659;0.13451505;-0.038210385;-0.0639181;0.104680315;0.070787795;0.083913095;-0.03875142;-0.06729744;-0.0063347975;0.06938535;-0.06839803;-0.0022758567;0.0048405123;-0.07503425;0.0041294596;-0.0009625739;0.060391277;-0.07119844;0.14588453;-0.024249736;-0.07576631;-0.1468577;-0.13567463;-0.033592988;-0.027413782;0.08129888;-0.07672803;-0.02528463;0.033473186;0.008459363;-0.03453253;-0.13157825;0.07627788;0.14250207;0.08784162;-0.10033376;0.08095416;-0.23195757;0.027521143;-0.00567823;0.009918949;-0.079660214;-0.04360845;-0.050423972;0.1301644;0.011545562;-0.057566807;0.0037016163;0.15366058;-0.19099699;-0.020242056;-0.07251674;-0.15111485;0.18225496;0.13807076;-0.030456912;-0.015857436;-0.038405813;-0.03898644;0.06391054;-0.12612964;0.15695356;0.033029873;0.12364615;0.2363027;0.13290517;-0.14298469;-0.05788756;-0.08208368;-0.036360465;0.089639075;0.04034973;0.08008096;0.10536475;0.1121449;-0.025712794;-0.15098293;-0.025765974;-0.11346837;-0.012314223;-0.023162955;0.17785266;-0.18697575;0.084242515;-0.09926118;-0.03385614;0.03803187;-0.14333414;-0.17282443;-0.13369673;0.27661082;0.14170827;-0.13331747;-0.17950691;0.21157005;-0.15355437;0.059206437;-0.15518223;0.0092759365;-0.0016803957;0.011814176;-0.054094292;-0.05580305;0.08406818;-0.032875955;0.08322488;-0.15224548;0.026159052;-0.024646344;0.052443694;-0.041110057;0.300624;0.0584651;0.083938815;0.004930194;0.024668455;-0.20351294;-0.081311986;-0.009668509;-0.12282796;-0.13739847;0.06856267;-0.0144538535;0.16183037;-0.10223584;0.085349426;0.045652244;-0.008195788;0.18273038;-0.21772367;0.1236556;0.00086140307;0.14404179;-0.23685871;-0.31540138;0.111995585;-0.2073832;0.0362098;0.04997154;0.081101425;0.014099648;-0.101169065;0.02772309;0.07073842;-0.023757847;-0.07318849;-0.1298178;-0.023125838;-0.064436994;-0.17145701;0.09357122;-0.1476498;-0.1490649;0.10247453;0.011609863;0.003263765;-0.12567714;-0.035777576;0.08497483;0.016514014;0.12064659;-0.21648572;-0.0037483347;0.11160883;0.12466997;0.1226;-0.12910295;0.05076162;-0.020256523;0.06600944;-0.065355316;-0.057014395;-0.00010758791;0.33362696;-0.21612869;0.14956157;-0.10573041;-0.093261465;-0.079154156;0.012383177;0.06948893;0.033719864;-0.08694586;-0.17835921;-0.03951436;0.098857306;-0.053292196;-0.055118065;0.016658707;-0.009164936;0.17522076;-0.090517476;-0.22953577;-0.13838099;-0.02635319;-0.1361974;-0.15484524;0.028271541;-0.052374985;-0.06220072;-0.077973105;-0.050179914;-0.10096254;-0.005089082;-0.10229792;-0.11938607;-0.22819641;-0.27093074;-0.036905397;0.034875363;-0.09165731;-0.17109607;-0.06715734;-0.031033339;0.051963974;0.07460344;-0.015133873;0.053280137;-0.06856996;0.08577107;0.025591752;0.035975352;0.11556493;-0.12576823;0.1002369;0.019329825;-0.042845424;0.019565877;0.16898258;0.13807413;-0.14535838;-0.1249531;0.22977658;-0.033348247;0.103918344;0.051339604;0.1322076;0.008195598;-0.0058322567;0.14262466;-0.12540828;-0.08479239;-0.16806675;-0.16287339;0.010758408;0.05011706;0.14369233;-0.050491735;-0.060820304;0.11393058;0.08590093;-0.078881145;-0.14509602;-0.093826555;0.14670806;-0.07629257;-0.23946744;0.003842241;0.070955366;-0.06298917;0.043845616;-0.13926741;-0.087249935;-0.01761647;0.074740894;-0.16255417;-0.12832344;-0.03655967;0.017362664
-0.03908549;0.04369532;-0.032001063;0.06516644;0.112950556;0.27057883;-0.044174448;0.0813324;-0.063276276;0.150379;-0.18997785;-0.16839358;0.09641374;-0.040532894;0.21060094;-0.024036745;-0.016680533;-0.18660611;0.116210625;0.14143948;0.021820018;0.07510922;-0.16480152;-0.12257041;-0.10185643;0.03767287;0.12528072;0.011557907;-0.14218217;0.037028495;0.14171344;0.02153765;0.015471598;-0.1515603;-0.090874396;0.0659034;-0.13303459;0.11889894;0.14143333;0.07876768;-0.19483115;0.0072073936;-0.034189623;-0.12404523;-0.16209401;0.15785721;-0.0084282765;0.047931883;0.097498275;-0.24219207;-0.09230084;-0.03154048;0.02467326;0.1913865;0.22057852;-0.04424704;0.07817271;-0.006898471;0.033645775;-0.17123146;0.06107771;-0.05041905;0.056715015;0.06693305;0.010336652;0.071961075;-0.084984034;0.27659753;-0.10091232;-0.055024415;0.0827745;-0.01851886;-0.044194054;-0.14955579;-0.14094707;0.1523957;0.10359196;0.10725745;0.039699916;0.10727096;0.03372826;0.123125;0.072451554;-0.16413753;-0.0027850282;-0.13286413;0.1305664;-0.07979425;0.00958926;-0.0938707;0.015905945;0.025603542;2.2775836e-05;0.03697741;0.10596481;-0.3647843;-0.08060268;0.122757964;-0.070869826;0.08846557;0.07113727;-0.05173681;0.07095015;0.13578449;0.04258862;-0.088586204;-0.02727204;0.010486955;0.08399782;0.16699897;-0.05290946;-0.16904518;0.115526795;-0.00046286592;-0.07869372;0.13608061;-0.011888547;0.07959905;0.1302514;-0.17840569;0.044719003;0.15514255;-0.043119352;-0.012020257;0.034244545;0.1804678;0.11975696;0.21901847;-0.15712531;-0.16068861;0.1328511;-0.03922145;0.12476067;0.1273892;0.22086324;-0.194103;0.12938859;-0.0053615537;-0.09188607;0.08077555;0.22728449;-0.035775784;0.12674873;-0.15071255;0.15122648;-0.12727332;-0.052497115;-0.23938791;-0.011961904;0.02698723;0.19517402;0.09810032;0.032430828;0.19232576;0.088034555;-0.04560886;0.07791695;-0.030445527;0.05361524;0.18336281;0.06531347;-0.0673606;0.0026340606;0.16479209;-0.12050685;0.10261129;-0.09867983;-0.011782772;0.016081588;-0.21156105;-0.07867759;-0.007121882;-0.10946679;0.03242139;-0.11653603;0.022546599;0.06954136;-0.000861316;0.03327431;-0.03320974;-0.18330188;-0.06319598;0.055733733;-0.02362354;-0.08719327;0.07913497;-0.055190958;-0.08934734;0.06700122;-0.1406972;0.01813062;0.056200206;-0.050695613;-0.11784829;-0.058668304;-0.022583598;0.1173495;0.06749768;0.07235425;0.062634006;0.0102898255;-0.16772884;0.002602192;-0.23241751;-0.07044678;-0.2558165;-0.1278065;-0.0074969134;-0.102611944;-0.051041495;-0.18183443;-0.09134454;0.031753972;0.10328635;0.20917317;0.02247098;-0.12399165;0.17148355;-0.2166978;-0.01942162;-0.03522379;-0.00038044126;-0.16711083;0.17101693;-0.1158251;-0.06850176;-0.12879951;-0.042844497;-0.002361699;-0.1010914;0.09133377;-0.16002354;0.07004217;0.04723917;-0.026891498;-0.08046667;0.09212447;0.05001504;-0.1152622;0.015104978;-0.22876501;-0.275161;-0.26895913;-0.0863298;0.07293257;-0.017201202;0.0048927823;-0.010334218;-0.10055724;0.009207398;-0.13290943;0.10891918;-0.13314298;0.048300765;-0.051823106;-0.043869898;-0.25768235;0.017823473;-0.20319627;0.02101389;-0.24951059;-0.06267368;0.15813562;0.010953206;-0.040239777;0.009932385;0.0490689;0.16351058;0.20378934;-0.13237652;0.0039018758;0.13288243;-0.006503417;-0.05873837;-0.14343923;-0.05868587;0.09786177;-0.09561993;0.13696368;0.19908926;-0.03564392;0.069715925;-0.03921679;-0.01241929;-0.008218403;-0.11392689;0.0037551362;0.14289396;-0.14077115;-0.115435235;0.10401982;-0.31914613;0.113562174;-0.028965216;0.19509906;-0.16986966;0.07513266;0.18465534;-0.22412185;0.10254301;-0.08850672;0.05614952;-0.14230457;0.041558363;0.041271787;0.05791297;-0.057813816;0.08754634;-0.021172399;-0.045417603;0.06419716;0.026999217;-0.014273924;-0.08374444;-0.052070018;-0.104414985;0.031463828;-0.12946248;-0.093110986;0.016287655;-0.16259709;0.014785862;-0.08655163;-0.010969555;-0.11177744;0.08613539;0.0064264783;0.09121;-0.03233502;-0.049814057;0.0541109;0.08283075;0.15329462;-0.00022347651;-0.06607309;0.15642388;-0.10111956;-0.020088151;-0.08422209;0.10777474;0.060174257;0.008589583;-0.12738326;0.02898889;-0.2250873;0.15956941;0.06886689;0.022079531;-0.06379517;-0.05000419;-0.09035517;0.0040862923;0.069608;-0.063987166;0.059606627;0.124181114;-0.055354375;-0.0060724933;-0.090592;-0.13107204;0.11301075;0.22631243;-0.12936777;-0.11700022;-0.0118882395;-0.06398381;0.06422999;-0.21587153;0.14274925;0.02610941;0.07346551;0.11557117;0.10359932;-0.028505335;0.017548108;0.0012789657;0.065292425;-0.0068987086;-0.03956781;-0.040434256;0.0402675;0.16128294;0.110317856;-0.10606549;0.06373955;-0.0866154;-0.094671346;-0.043965995;0.025856804;-0.26299965;0.17148809;-0.032171637;-0.040194854;0.05225467;-0.18504749;-0.1089226;-0.13582662;0.231452;0.1565206;-0.17819126;-0.12644686;0.20173602;-0.2715549;0.09071431;-0.042635657;0.14165318;-0.032223634;0.0528153;-0.12948501;-0.055672616;0.07857286;-0.06895043;0.082963444;-0.12301725;0.019287378;0.030677391;-0.0013397358;-0.044578973;0.27151135;0.072005145;0.258079;0.022469884;-0.05240627;-0.19936399;-0.010094568;0.04374705;-0.07397616;0.035582714;0.17786254;0.044668216;0.19932064;-0.094133094;0.055288408;-0.08834895;0.020789452;0.11320419;-0.22794735;0.11759886;-0.12241192;0.14591134;-0.28464043;-0.21683411;0.09544162;-0.29647592;-0.0064182794;0.012109592;0.041802704;0.0008738293;-0.111339495;0.09719192;0.07418253;0.08988967;0.006797022;-0.22200121;-0.07856481;0.04226402;-0.19000387;0.08729249;0.003555959;-0.05761813;0.09028397;-0.009739135;-0.07258025;-0.10175703;0.047096178;0.082701944;0.087980315;0.065512076;-0.16259964;0.004580568;0.03434998;0.15464912;0.085156076;-0.088599354;-0.027918736;0.03549661;0.040831134;-0.017424738;-0.18327942;0.07848529;0.29195476;-0.20789629;0.060541254;-0.09673671;-0.0043163775;-0.056859706;0.025452176;-0.038216922;0.01776878;-0.021306952;-0.029125014;-0.04707932;-0.04235735;-0.08877833;-0.06951138;0.04815644;0.021489419;0.21903034;0.027199816;-0.19815685;-0.22242984;0.09423114;-0.25868213;-0.1552713;0.092693016;0.01126426;-0.14198902;0.02241292;-0.023189615;-0.20760846;-0.024317894;-0.12726757;-0.17025465;-0.08419175;-0.24969262;-0.17823711;0.016547268;-0.045231033;-0.13547844;-0.02140273;0.02745568;0.11907522;-0.012357183;0.03462729;0.099381;-0.08519442;0.036061723;0.03334412;-0.07375413;0.028998896;-0.017552163;0.03169536;-0.026768567;-0.18918741;0.030281037;0.024143817;0.10997431;-0.15515423;0.0039792443;0.15861556;-0.019037459;0.017152352;0.0038047566;0.12491867;0.07037763;-0.025096267;0.07410642;-0.04642412;-0.105418876;-0.045224205;-0.14906675;-0.119003095;0.084300846;0.21019123;-0.05367085;-0.06951595;0.094971575;0.019192101;0.055894744;-0.11187811;-0.03359482;-0.00495689;-0.10516935;-0.20073609;0.0044265436;0.0909205;-0.012026077;0.17414242;-0.035468105;-0.12451018;-0.044562336;0.18257862;-0.24136826;-0.08096648;-0.0539224;0.043655325
0.11180226;-0.058985036;0.05064148;-0.08321665;0.084879585;0.14818077;0.15471762;0.115305364;-0.18133397;0.119787216;-0.12467819;-0.10213153;0.13982151;-0.049146876;0.23484226;-0.03847025;0.086552955;-0.17356266;0.054716572;0.078389324;0.12086431;0.009225358;-0.24128994;0.050335255;-0.14835672;-0.07182913;0.07697425;-0.09354904;0.086697534;0.007591125;0.19137481;0.10166331;-0.09262776;-0.042488392;-0.08403094;0.12580734;-0.04124636;-0.06538613;0.12195923;0.14254732;-0.08836384;0.1371263;-0.13647516;-0.1376886;-0.09226834;0.07039538;0.094363205;-0.003634767;0.070044644;-0.1507965;-0.017096037;-0.009216876;0.030343119;0.122285284;0.11183157;-0.06655154;-0.035918117;-0.021740392;0.07464979;-0.21420316;-0.047255617;-0.09905242;-0.057089783;-0.049052082;-0.19900914;-0.023689432;0.06272109;0.25686586;-0.13365732;0.09827372;0.100792356;-0.068189144;0.047754087;-0.2704847;-0.224082;0.1250319;0.04402192;0.01203677;-0.029236766;0.10160088;0.049431156;0.08885561;0.07348629;-0.11188953;0.093311675;-0.12305125;0.10475715;-0.02544958;-0.046649158;-0.035252076;0.050583355;0.025706835;0.04683126;0.0770611;0.14317566;-0.32939735;-0.08280794;0.019310446;0.13111256;0.016760116;0.06310997;0.026335442;0.02775912;0.05406396;0.21981682;-0.062358398;-0.013666355;0.064122185;0.058474336;0.02741025;-0.1405992;-0.101597816;0.10118007;0.09176406;-0.062292546;0.04141112;0.014525431;-0.062434446;0.14597164;-0.02671936;-0.066764005;0.045355923;0.19818787;-0.032316726;0.1444955;0.09227281;-0.06819226;0.079692654;-0.0529135;-0.13650009;0.1817714;-0.09826034;0.13258;0.12628293;0.21336858;-0.09469451;0.1936984;-0.15636508;-0.049960643;0.0019013485;0.09188762;0.023438733;0.0014250162;-0.25970316;-0.0092796525;-0.056564204;0.03390812;-0.10988603;-0.10968248;-0.0068855514;0.12404551;0.15303148;0.05168018;0.20102891;-0.014579718;0.03840666;0.20919177;-0.0051795347;0.0054252907;0.21872953;0.004347851;0.02525587;-0.037413567;0.11227651;-0.15685758;0.0068196664;0.076737;-0.0187886;0.055511124;-0.07942737;-0.00730374;0.08085398;-0.12029772;-0.06465685;-0.23996079;0.091072306;0.05750626;-0.045135524;0.014247188;-0.091740206;-0.017682686;0.12992765;0.05383763;-0.08324198;0.020714357;0.071117386;0.06391318;0.048605114;0.0737543;-0.16102588;0.034094244;-0.036893427;0.0027148856;-0.09268873;0.012955173;-0.17538452;-0.011016047;-0.044354863;-0.021329086;0.056396913;-0.018151559;-0.2713617;-0.12492114;-0.31529036;0.023586797;-0.25255668;-0.06887452;-0.034913342;0.03871172;0.03592637;-0.0818565;0.026889939;0.030335486;0.16780895;0.0919135;-0.07648389;-0.29884216;0.07311275;-0.11079718;0.011226713;0.026788982;0.0686302;-0.042359248;0.050092474;0.04282035;-0.03268732;-0.18888776;-0.13014086;-0.1709992;-0.20284055;0.0057967384;-0.12837954;0.07595837;-0.11790552;-0.053634804;-0.007007145;0.023047695;-0.015944114;-0.14569995;0.04596943;-0.09352778;-0.23176779;-0.26939234;0.0014287652;0.035950035;0.06521436;-0.0803122;-0.106105134;-0.11557129;-0.04064193;-0.13423228;0.21725275;-0.15131846;0.078151025;-0.021622892;0.14754152;-0.23311047;-0.07937235;-0.1634212;0.17131086;-0.1396538;0.016993558;0.095203854;-0.06525165;-0.048548948;-0.055398658;-0.033777285;0.18370208;0.048606616;-0.1326911;0.0026517273;0.07148355;-0.110298276;-0.13735805;-0.074868366;-0.046148084;0.020026186;-0.1027775;0.19179317;0.27390555;-0.0796385;0.03928894;-0.18317376;-0.11028582;-0.042954594;-0.03355705;0.04516693;0.1527579;-0.08474685;-0.15375634;-0.06940762;-0.28915012;0.042054065;-0.022970315;0.14488925;-0.095620744;0.040233493;0.14019597;-0.20358571;0.115222156;-0.09500777;-0.14360437;-0.14295234;0.11886047;-0.014508598;0.012122424;0.101483166;0.010483489;0.039906275;-0.07601117;-0.04789045;0.038564395;0.12600183;-0.14862227;-0.031382162;-0.0022428513;-0.034119662;-0.23293294;-0.09476244;0.02197756;-0.035524815;0.060309995;0.017631318;0.13205355;-0.04496909;0.09783512;-0.08563044;-0.04343751;-0.122853726;-0.10144684;0.07517942;-0.04709612;0.01069714;-0.107839;0.11910293;-0.021217713;0.024286708;0.044669222;0.01684776;-0.045458563;-0.0054344726;-0.056455895;-0.16537611;-0.11799157;-0.054952793;-0.009784715;0.14837596;-0.022101052;-0.228269;0.15099059;-0.03714784;0.018165523;-0.07334707;-0.010655664;0.10389633;0.26893297;-0.05722089;-0.0993102;-0.0041871723;-0.15977575;0.0038638818;0.2380244;-0.15086792;-0.020889446;-0.120274305;-0.046108767;0.13914649;-0.1044894;0.08838577;-0.0140833035;-0.0010738099;0.16555989;-0.004481917;0.012608715;0.060615703;0.06738955;0.09218193;-0.0280299;-0.035842903;0.013558782;-0.006967468;0.12681901;0.17669187;-0.20333692;0.05624131;0.02434439;-0.073827766;0.070201464;0.14883217;-0.131863;0.0705408;-0.09354074;-0.1290096;-0.020055408;-0.02788384;-0.13667892;-0.16441008;0.3509533;0.1570626;-0.21684009;-0.004369574;0.13527806;-0.10909795;0.24166615;-0.22552855;0.096353814;-0.024461316;0.07274313;-0.08085412;-0.15710247;-0.026267556;-0.11737243;0.08891732;-0.111843295;-0.042343367;-0.06831558;-0.034363747;-0.0138618685;0.2438627;0.084642574;0.29101986;-0.030660573;-0.024113974;-0.047722492;-0.061201673;-0.0009996562;-0.20791668;0.05174058;0.117542736;0.06212978;0.2482017;-0.009407806;0.08870823;-0.08134335;-0.029118193;0.040760193;-0.14772867;0.025871845;-0.07075722;0.07405649;-0.34626555;-0.16768566;0.11866663;-0.29876792;-0.056663536;-0.051736493;0.045103416;0.04799397;-0.008284174;-0.0070220083;-0.05708992;0.13288736;-0.09540085;-0.18402308;0.11995944;0.015192705;-0.22484136;0.1914684;-0.15087007;-0.03802744;0.09013477;-0.017062899;-0.02745511;-0.1246517;-0.016548578;-0.010761237;0.116943784;0.0327793;-0.10440186;0.038662024;0.1452144;0.02993828;0.1300999;-0.19221453;0.013109754;0.082041934;-0.086028345;-0.05974612;-0.19180977;-0.0004968124;0.2781306;-0.036437813;0.09667023;-0.09924814;-0.036433592;-0.0034703866;-0.067627564;-0.034150984;0.013336577;0.003667123;-0.13250019;-0.09838439;-0.015404012;-0.11827677;0.012155937;0.07426959;0.08621133;0.12484979;0.08329971;-0.011726084;-0.15325661;0.03449056;-0.31029767;-0.16249947;-0.05381512;0.0070203645;0.02187851;0.03258975;0.07935207;-0.16707978;0.10263096;-0.01856483;-0.23248889;-0.21976446;-0.29366452;-0.16349384;0.030512236;0.02839605;-0.16955969;-0.13460223;-0.017167035;-0.02489185;0.06716202;0.07249383;0.07731548;-0.01832551;-0.03218011;-0.08497682;-0.118822396;0.11098744;-0.05444556;0.1304369;-0.023275202;-0.14148681;0.046908528;0.21423914;0.15720993;-0.25229806;-0.0237308;0.14590584;-0.08178053;0.14657551;0.0063724667;0.04129738;0.056658912;-0.007462916;0.0020327168;-0.10516633;-0.052760325;-0.13714443;-0.13296267;-0.118696176;0.037274327;0.15251668;-0.23541294;-0.06918928;0.13727736;-0.035682295;0.029384978;-0.068644844;0.04570882;0.061660804;0.0044299774;-0.24813826;-0.07775357;-0.073218085;-0.047875904;0.10967113;-0.097018376;-0.07603542;0.08568112;0.025374586;-0.17374282;-0.15370329;-0.049866498;-0.05990116
0.0044569178;0.02689245;-0.032211512;0.15271297;0.07836386;0.07152506;0.15573916;0.17490785;-0.22390446;0.011711761;-0.21328568;-0.16467439;0.09963207;-0.016041912;0.19977316;0.03975278;-0.06425088;-0.17303729;-0.04289045;0.14450842;0.048246395;-0.021539785;-0.15885398;-0.054894987;-0.051694516;-0.07007196;0.06624527;-0.061777603;-0.0686872;-0.06214894;0.054743793;-0.05624483;0.06259624;-0.1559957;-0.19834824;0.123363055;-0.11818149;0.0022044796;0.266792;0.15226293;-0.11659858;0.07373371;-0.08716053;-0.050065566;-0.17304301;0.09538302;0.065412;0.14191662;0.15007457;-0.20491552;-0.0990471;-0.07404594;0.07352512;0.26166454;0.043529738;-0.092810646;-0.008333932;-0.016670868;0.002509122;-0.21097347;0.007910893;-0.206986;-0.08872641;-0.045633063;-0.055412736;0.010559359;-0.0968962;0.13075057;-0.25165933;-0.05979734;0.0061363145;-0.112247914;-0.0052434443;-0.2598262;-0.29241204;0.19278176;0.17352702;0.03578355;0.09624444;0.01833846;-0.02478541;0.11812055;0.06356093;-0.0033752127;-0.033337817;-0.10604355;0.19359161;-0.15255706;0.11432757;-0.08351751;0.07146151;0.06498792;0.064107716;0.072800525;0.06593277;-0.34359732;0.00028132493;0.050951254;0.06568177;0.025992855;0.027683794;0.043047555;-0.04375655;0.2200209;0.13373782;-0.038629964;-0.0035045643;-0.11588746;0.14637509;0.116170235;0.04011948;-0.06894182;0.024644056;0.04458637;-0.07472821;0.14159451;0.053033922;0.09003145;0.10129424;-0.1814243;-0.11678842;0.12403611;0.09023366;0.050783876;0.15925404;0.07159791;0.0201204;0.095974304;-0.20919651;-0.13969903;0.112910844;0.051977497;0.112666376;-0.026263079;0.24011515;-0.06799504;0.12940419;0.038297113;-0.22412553;0.060363136;0.15288015;0.016699377;0.10173577;-0.12671685;-0.017347839;-0.06477131;-0.054595634;-0.19698602;-0.10131508;-0.077283524;0.15736388;0.07499984;0.024399275;0.05065993;-0.13659132;-0.0430298;0.18932138;-0.03348806;0.059960842;0.015788497;0.008616052;0.097385414;0.036264677;0.09828601;-0.100863166;-0.015356194;-0.027756143;-0.032196667;0.080509335;-0.18823205;-0.0538334;-0.062129553;0.00209693;0.07165611;-0.16223;-0.13592574;0.1294389;-0.10274747;0.019466462;-0.0009810094;-0.16250339;-0.07321069;-0.03247464;-0.12966278;0.0060451427;0.012491924;0.0053794296;-0.012723669;0.046820372;-0.105615914;-0.0059661134;0.024207953;0.014343901;-0.048195396;-0.012661149;-0.05897335;0.09549778;0.08213755;-0.010051243;0.06106584;0.08018404;-0.11946859;-0.087301776;-0.19115342;-0.060502954;-0.25784633;-0.071709186;-0.046288554;0.024315998;0.13296507;-0.24127214;-0.004230792;0.08922827;0.15741254;0.21531217;0.009062251;-0.19786479;0.13876517;-0.18561375;0.06403042;-0.05618955;0.11373307;0.018700602;0.10811199;0.075813696;-0.044738453;-0.1455939;-0.21443819;0.0089420965;-0.13895875;0.19342382;-0.2762439;-0.05109144;-0.12137692;-0.059187476;0.10222698;0.14936014;0.123136215;-0.21544954;-0.0039015445;-0.096586466;-0.21838889;-0.13420057;-0.031197319;-0.07728372;0.06000782;0.10078876;-0.15262724;-0.042293333;-0.07714875;-0.06877185;-0.00537462;-0.075042084;0.0357299;0.03478554;0.16913627;-0.15623674;0.026034491;-0.15706295;0.14885266;-0.1337078;-0.11425908;0.04033199;-0.07300872;0.02151425;0.08355496;0.110280596;0.16355184;0.092772014;0.006148975;0.005055264;0.0035603605;-0.07929504;-0.08289625;-0.21223405;-0.039927494;0.008892387;0.01595473;0.098641194;0.26120216;-0.12252178;0.029700117;-0.044829078;0.052308016;0.030765077;-0.023765875;0.03283311;-0.009988253;0.006156217;-0.11166672;-0.08915594;-0.20561716;0.18032815;0.122337416;0.2695192;-0.085728414;0.028050872;0.14923161;-0.20031923;0.17242594;0.046341542;-0.07730138;-0.20677511;0.060387716;-0.040905267;0.096060544;-0.016822003;0.089711055;-0.031780247;-0.102214016;-0.058173217;0.01476643;-0.025228277;-0.09784761;-0.040849503;-0.0011845819;0.029675927;-0.21333247;-0.10747979;0.08847809;0.009773269;-0.04936461;-0.04674055;0.11315863;-0.10204023;0.18285652;0.066323735;-0.06712353;-0.07185039;0.06430166;0.0648238;-0.05303194;0.1922572;-0.062042195;-0.028586108;0.056069;0.016985085;0.07567098;0.009606713;0.040793788;-0.04617337;0.021552488;-0.04616791;0.09151395;-0.13699579;0.25796536;0.17157958;-0.020314688;-0.1658637;0.04812373;-0.008924095;0.17989194;-0.07747097;0.1115157;-0.012621314;0.24141173;-0.1823229;-0.014990729;0.02506071;-0.14954062;0.0048359274;0.24921946;-0.15318035;-0.048716787;0.006347247;-0.1640459;0.1223775;-0.13082878;0.15918893;0.087422706;-0.013189133;0.18739879;0.20533484;-0.07019135;-0.039474167;0.05310249;-0.0054992167;-0.048317157;-0.005633122;-0.03366508;-0.015288567;0.124104835;0.11033484;-0.0813629;-0.02427321;-0.033142436;0.07958117;0.056329306;0.18946558;-0.16664797;0.1306395;-0.08635037;-0.0019295334;0.015357279;-0.12931833;-0.058118206;-0.029933581;0.2743219;0.036881767;-0.21546704;-0.15971054;0.25077516;-0.14964797;0.13772586;-0.13985208;0.03675853;0.016843162;0.018442404;0.048154533;-0.12150577;0.036473706;0.02951499;0.13516699;-0.0049099266;0.017845128;-0.09344095;0.056713495;-0.056437336;0.1973837;0.13084984;0.20003702;-0.045696177;-0.04075046;-0.2129985;-0.030657085;0.08593818;-0.10221007;0.010878926;0.14892621;-0.06718953;0.27039886;-0.018935362;0.11177714;-0.12671609;-0.061127968;0.13175203;-0.21357928;0.021599893;-0.14797391;-0.0050198105;-0.31064576;-0.21964288;0.11858681;-0.16816877;-0.016010514;0.010059496;0.08538899;0.07804917;-0.033008702;0.099369116;0.08823212;0.013033557;0.04138399;-0.08073793;0.019584138;-0.14624041;-0.23163134;-0.014787767;-0.006416277;-0.10739478;0.040106617;0.003631228;-0.13799852;0.0055827396;-0.022348858;0.019726267;-0.06367938;-0.047535937;-0.13339524;0.053757403;0.09429573;-0.012219268;0.04080381;-0.107948616;0.062319677;0.021918397;0.034986228;-0.019456217;-0.087963685;0.0062170327;0.19556722;-0.030762432;0.059880126;-0.122640654;-0.010883686;-0.13872051;-0.09742918;0.007931123;0.10191653;0.041048963;-0.023306811;-0.14398997;-0.0060883197;-0.020224433;0.064066164;0.046082348;-0.0062183873;0.18723151;0.021286795;-0.011694333;-0.19112898;-0.077988885;-0.16127323;-0.16825876;0.02572012;0.03779884;0.00851438;-0.10806503;-0.11749968;-0.1388741;-0.014978195;-0.14992987;-0.22235543;-0.24923137;-0.22248833;-0.15167302;0.053726204;-0.034002583;-0.09489741;-0.21983908;-0.14307845;-0.056999605;-0.009477087;0.05034183;0.114357576;-0.09547738;-0.02756786;0.0050260304;-0.000109151035;0.20984499;-0.13066277;0.022454621;-0.16875127;-0.11093201;0.102231696;0.13361719;-0.021803161;-0.14298385;0.037190076;0.18969953;-0.07658388;-0.050179746;0.08778063;0.12838821;0.08903646;0.05929;0.075811826;-0.16447853;-0.06776447;-0.019904107;-0.15976043;0.0031793178;0.10824084;0.20416792;-0.17013434;0.0060092863;0.101573266;0.10220156;-0.07319285;-0.15757796;-0.050617866;-0.0367537;0.07491409;-0.14966887;0.09726424;-0.11423948;0.05856965;0.14576015;-0.07149913;-0.04685488;-0.038333178;0.20212317;-0.16781487;0.0058606216;-0.11548662;-0.072603576
0.018786753;-0.029573064;-0.044196002;0.109645896;0.117853515;0.10133472;0.018341208;0.0032110969;-0.21661888;0.056240644;-0.2777778;-0.10974945;0.083637685;0.047055528;0.19532591;0.060000297;0.08446177;-0.14681701;0.0012831987;0.046422016;-0.007940819;0.13225134;-0.12301695;-0.100987665;-0.096223906;0.0034215178;0.13873495;-0.024019644;-0.09688449;-0.24247333;0.083505094;0.04601794;0.099295795;-0.022566263;-0.12298462;0.1596322;-0.12270764;-0.06273782;0.17489408;0.012046899;-0.088674635;-0.05983125;-0.07072477;0.05540304;-0.20356598;-0.05337241;0.08643388;0.043299567;0.0040982505;-0.062012736;-0.15632308;-0.014850414;0.04039431;0.3849752;0.11116504;-0.05018687;-0.0682502;-0.07950943;-0.034142785;-0.19828278;-0.010905456;-0.09155231;-0.16753376;-0.00904772;-0.083137736;-0.029190065;-0.050019912;0.10163639;-0.24757145;-0.023540702;-0.021877414;0.0038058246;-0.025776645;-0.052607127;-0.25753152;0.259347;0.2302279;0.05079786;-0.05077224;0.030276738;-0.109878175;-0.01677258;0.03804984;0.008315131;0.012560397;0.019483237;0.120198235;-0.054253593;-0.08869296;-0.15482935;-0.05738135;0.09509969;0.043144573;-0.045696083;-0.10500386;-0.16313143;0.122358546;0.047437906;-0.041767523;-0.029487226;-0.049382415;0.074700765;0.090426125;0.10943759;0.08014701;-0.055814132;0.021342846;-0.06972099;0.14595766;0.0825627;-0.0036753332;-0.06217228;0.19398156;0.03029321;-0.0047621955;0.13869272;-0.02707519;-0.031112505;0.088526994;-0.15647733;-0.10035043;0.090490565;0.08452499;0.08064104;0.104881704;0.16270407;0.065485924;0.01744448;-0.11217611;-0.12345808;0.04180727;-0.009372593;0.059389405;0.09231274;0.1767735;-0.12878974;0.10885633;-0.05364195;-0.24023247;-0.022985276;0.13121921;0.007946319;0.11321544;-0.054453395;0.09627943;-0.23296458;0.082455054;-0.07437639;-0.08125923;0.09168219;-0.031316258;-0.0360187;0.032248154;0.17023793;-0.026434092;-0.04901277;0.122009024;0.01971615;0.012383641;0.020148406;0.019614063;0.04415714;-0.08395036;0.105346076;-0.12553532;0.0119995335;0.0047815247;0.119387485;-0.010069383;-0.1779512;-0.13228649;0.08108189;-0.03316301;0.07368801;-0.18730938;-0.01907136;0.05348452;-0.042176746;0.017559085;-0.007377502;-0.23703776;-0.05145121;-0.02936557;-0.049003273;-0.08877434;0.22945088;-0.019886723;-0.040150117;-0.0088883145;-0.12941164;-0.16192405;-0.10781935;-0.0563314;0.03925521;-0.032827966;-0.10560508;-0.018776182;0.17078346;0.105542794;0.08916976;0.07520552;-0.13544483;0.019328196;-0.054941148;-0.06658671;-0.072880335;-0.082309626;0.13462487;0.09104287;0.117154256;-0.086123906;-0.05314926;0.0633045;0.124117166;0.2113887;-0.020134784;-0.19766368;0.10639191;-0.25556868;-0.03982398;0.13170873;0.110633;-0.10429804;0.19945832;-0.0490065;-0.13004494;-0.16422978;-0.30944425;-0.17140955;-0.19842732;0.13161576;-0.18495734;-0.026393542;-0.0652896;-0.089507714;0.12251228;0.19909118;0.043347437;-0.22594698;-0.03900729;-0.20317331;-0.19795717;-0.2219691;-0.17039788;-0.11984404;0.038879734;0.060590606;-0.1941402;0.14361562;-0.15515362;0.0008129255;0.00052612135;-0.15464316;0.07252512;0.072426505;0.082526304;-0.009615391;0.037563335;-0.10646579;0.09828575;-0.18653132;0.033404473;0.110447444;-0.009131722;-0.010830648;0.076994516;0.07671009;0.07876332;0.14183307;0.03701633;0.01715285;0.1228505;0.015358808;-0.09932424;-0.07421568;-0.07636354;0.01217349;0.00026143956;0.11163999;0.17070106;-0.017232422;-0.010740516;-0.02603296;0.1494542;0.029360643;0.024076372;-0.04904838;-0.12547067;-0.035891086;-0.13507581;-0.051601652;-0.05820003;0.12306507;0.036642272;0.21173413;-0.0046575097;0.035145015;0.23318942;-0.1649146;0.06723185;0.16537191;0.087000564;-0.13651511;0.20650618;-0.049957942;0.0652149;0.011838759;-0.029717438;-0.07003823;-0.121749505;0.050653234;-0.054966755;-0.038018852;-0.033872828;-0.04850368;0.114826165;0.0143515365;-0.24906641;-0.11542838;0.14628437;-0.057097178;0.061611176;0.022853231;0.032668304;-0.064537875;0.25378028;0.1454319;-0.09666902;-0.0908373;-0.06700357;-0.015836412;0.10010651;0.11131186;-0.026002763;0.047910478;0.14764002;0.049815826;0.1361681;-0.122091524;0.12129832;-0.107848935;0.09889215;-0.11499799;0.1065333;-0.18026441;0.13091262;0.07833457;0.07417974;-0.168183;-0.09059267;0.07546032;0.0056946008;0.0442482;0.13933675;0.14327516;0.15805571;-0.15232334;-0.007410844;-0.041515313;-0.1716551;0.015079356;0.08821355;-0.11926028;-0.094769455;-0.073323034;-0.14597102;0.09297056;-0.1270441;0.09401263;0.05858083;-0.038918648;0.32972836;0.14161314;-0.06860531;-0.04347838;0.046331737;0.029957207;-0.048464295;-0.12630859;0.066596165;-0.047420554;0.1255686;0.068840116;-0.07679411;0.11971052;-0.10704926;-0.018791316;0.034184396;0.16605203;-0.18597133;0.1960799;-0.025399439;-0.018063463;-0.034962025;-0.12823567;-0.13556357;0.048679274;0.19769487;0.14163293;-0.18380256;-0.13287494;0.19826694;-0.21474792;0.13553317;-0.10956251;0.083161876;0.11446036;0.022219403;0.057249174;-0.082057804;0.14903636;0.04785791;0.14982812;0.009536194;0.013942361;-0.025584057;0.04292939;-0.19383523;0.23726562;0.085854195;0.12027584;0.033092227;-0.042420756;-0.17143586;0.0060777864;0.05885332;-0.1998853;0.0912522;0.039484292;0.04342758;0.27588075;-0.1621409;0.16286872;0.008393651;-0.005277092;0.15027006;-0.2401383;0.0060241804;-0.046308026;-0.04167358;-0.29936624;-0.17760886;-0.026937274;-0.1489558;0.11001825;-0.029734138;-0.061323415;0.15615274;-0.17568372;0.11108742;0.050432403;-0.14222911;0.113299884;-0.062419344;0.002711583;-0.15182522;-0.25725043;-0.018837554;-0.15570031;-0.12209066;0.11446707;0.109414496;-0.06896564;-0.09955709;-0.13266826;0.0058973613;0.03457286;0.13217607;-0.07573893;0.026928341;0.118430026;0.10256162;0.03827371;-0.10645731;0.077492505;-0.06032624;0.06383786;-0.0158552;-0.060101625;0.03346681;0.19341114;-0.18225473;0.1281948;-0.014667443;0.06175278;-0.060345802;-0.052143514;-0.021475263;0.166072;-0.023296148;-0.14312644;-0.09535194;0.02840556;-0.054996856;-0.051347263;0.02838668;-0.078979686;0.070254184;-0.09997932;-0.12079191;-0.1873189;-0.016256295;-0.081634514;-0.17234303;-0.048881076;0.07568611;0.037615202;-0.026266167;0.037485793;0.0201722;-0.030429414;-0.086567834;-0.16762626;-0.12987378;-0.1557808;-0.2174564;0.052199703;0.028205628;0.0067375577;-0.25267273;-0.110051215;0.007974578;0.09672957;-0.026883714;0.12756668;-0.0861297;0.0018621102;-0.105874896;0.0032398643;0.10619351;0.04627895;0.05153607;-0.18914202;-0.08111233;-0.029833391;0.19698986;-0.07544261;-0.20799112;0.033234637;0.08900011;0.00629631;0.058480285;0.016146857;-0.05085606;0.049073398;0.016402174;-0.04877395;-0.10295444;-0.09062;-0.0021124547;-0.12821905;-0.029159099;0.016391879;0.13490276;-0.13671978;-0.06310703;0.02046092;0.031133156;-0.0033843967;-0.11811751;-0.029080207;0.10442411;-0.039280016;-0.15670815;0.118995585;-0.050922934;0.110166125;0.12567179;-0.03233941;-0.044204187;-0.058722172;0.15493818;-0.29179734;0.04581685;-0.14533079;-0.1369086
0.0401454;-0.042981222;-0.09729681;0.03509275;0.1156802;0.021192048;0.026167784;0.15495995;-0.28096372;-0.022922967;-0.22299054;-0.11009394;0.062014136;-0.058233075;0.059516646;0.121448606;0.12294599;-0.12771536;0.04724523;-0.071736686;0.05915277;-0.024261279;-0.17963518;-0.014166064;-0.05640678;0.028047167;0.052233614;-0.03905361;-0.13272828;-0.10819914;0.24099065;0.0034687668;0.09494889;-0.09173883;-0.114571154;0.098779745;-0.17767964;-0.0014149357;0.2246013;-0.056428455;-0.037207346;-0.02557422;-0.10374224;0.020429403;-0.17594703;0.093389265;0.055714604;0.11526391;0.017193913;-0.06835158;-0.1414694;-0.122083165;0.08996379;0.18922088;0.115092605;0.0081363795;-0.0735159;-0.0026723251;-0.06315936;-0.17871547;0.055322852;-0.08697434;-0.13942003;0.000285846;-0.123634696;0.076794;-0.0048381463;0.07758648;-0.28168547;0.049560916;0.09840952;0.10083196;-0.022484753;0.030238144;-0.33062285;0.22016421;0.23816441;0.091954894;-0.018683624;0.07443186;0.01619728;0.17117281;0.118929334;-0.028683081;-0.100607015;-0.15745248;0.07899883;-0.087985665;-0.074632734;-0.09415364;-0.08429809;0.010160678;-0.03583846;0.07284894;-0.008926696;-0.2907464;0.08500987;-0.09869454;0.0050518056;-0.14475018;0.019600058;0.01110556;-0.043934397;0.036095124;0.026008423;-0.052637793;-0.020506255;-0.14147851;-0.07721817;0.1364712;-0.05458481;-0.14214474;0.12526879;-0.027510844;-0.01827075;0.015124326;0.031636614;0.029928137;0.113752574;-0.16013347;-0.06234194;0.051043864;0.042852495;-0.09959517;0.16992645;0.111053504;-0.0075806677;0.040812824;-0.10166022;-0.023250597;0.009632502;-0.101636164;0.06337566;0.026348924;0.23252311;-0.050543338;0.07667987;0.0020839775;-0.17130302;-0.17059113;0.1019623;0.02816279;0.022778334;-0.106448315;0.0036040226;-0.093268156;0.09786512;-0.09310728;-0.059889615;0.108429834;-0.055502485;-0.015111552;-0.07137234;0.12674162;0.028293524;-0.05928029;0.13917716;-0.06495679;0.11424515;0.14062585;-0.06048401;-0.051192213;-0.1988722;0.1571218;0.066838615;0.13297313;-0.00034635776;0.08517389;0.090393156;-0.15932134;-0.08756621;-0.05387265;-0.21039551;0.08034148;-0.14715856;0.008423111;-0.03272779;-0.04548469;-0.03782023;-0.017719569;-0.09885515;-0.047636356;-0.1124593;-0.17246763;-0.069668256;0.2208407;0.12531519;-0.011012648;-0.00038242084;-0.13402112;-0.07415529;0.062033944;0.05504674;-0.11020402;-0.024635471;0.02367791;-0.027099144;0.21572524;-0.0057900753;-0.06260642;0.0373325;-0.05932635;-0.09631688;-0.099080324;-0.12135342;-0.14610484;-0.1465812;0.030781124;0.02296503;0.19963232;-0.15079527;-0.16122898;0.03780493;0.07967852;0.105145946;-0.016773105;-0.22163925;0.19016908;-0.23355103;0.06688832;0.115585685;0.044747885;-0.074146785;0.20073904;-0.07832568;-0.0360835;-0.23860629;-0.15754695;-0.042818207;-0.23908657;0.08993859;-0.0874472;-0.148926;-0.10911011;-0.00024730054;-0.0018425367;0.06131843;-0.021916816;-0.20615816;-0.070099056;-0.1779291;-0.21048777;-0.10150625;-0.057057403;0.086580895;-0.082300775;0.029414417;-0.12120772;0.015694411;-0.07759841;-0.03310131;0.11391153;-0.16991931;0.104559824;0.097160056;0.14077419;-0.007656798;-0.09498785;-0.12694837;0.051712297;-0.05505423;0.12535916;0.16228995;-0.05088624;0.018652232;0.0930688;0.10026655;0.14481148;0.03716054;-0.09881392;0.025840437;0.05699044;-0.06251979;-0.108645186;-0.10417778;-0.057644542;0.19062164;0.050661124;0.062375236;0.1248918;-0.10966717;0.093805835;-0.083276734;0.12693475;0.09606016;-0.07187907;-0.10631022;-0.13936862;-0.109639555;0.036663767;-0.0049869055;-0.17362513;0.047971424;0.15751751;0.16674848;0.03625746;-0.005451229;0.09660661;-0.14244504;-0.00036815062;0.04844768;-0.0136217885;-0.11610285;0.119873986;0.052695766;-0.024822403;-0.1187875;0.015186651;0.01099207;-0.035186075;-0.0013108153;0.06009104;-0.003717768;-0.069335476;-0.06414399;-0.031287555;-0.04838211;-0.17835571;-0.12783824;0.116825506;-0.0014035247;0.06238175;-0.01496316;0.052915372;0.009156318;0.13811532;0.19284102;-0.034153923;-0.021558862;-0.08746614;0.003673767;-0.084880024;0.085198104;0.014434257;0.06538947;0.034804642;0.008653742;0.22054988;-0.037352115;0.22913687;-0.12613;-0.0031809255;-0.075920746;0.1417206;-0.09539037;0.17109306;0.12307481;-0.016933305;-0.2067054;0.045958705;-0.0760716;0.15130872;-0.056265313;0.07075346;0.13697733;0.091733634;-0.117587976;0.058642413;-0.03276137;0.029957248;0.08301502;0.18150997;-0.12660412;0.056841344;-0.14534338;-0.10752059;0.18887049;-0.008486058;0.114381835;0.033253394;0.062235173;0.20452738;0.11576147;-0.17008589;-0.089608684;-0.044718254;0.022035804;0.06830108;-0.05172772;-0.08905781;-0.023156455;0.10374632;0.09391326;-0.13658683;0.073631875;-0.026124388;0.033433203;0.004086868;0.05723581;-0.1751168;0.04314131;-0.10125405;0.026179183;0.02811509;-0.06306729;-0.15739611;-0.12230384;0.10753777;0.11013278;-0.18159032;-0.13228537;0.060529213;-0.072074756;0.16734824;-0.18861502;0.006898617;0.051649;-0.077032804;-0.008107264;-0.1398613;0.059408095;-0.04938488;0.10973623;-0.08431281;0.03185466;-0.004799422;0.101367146;-0.08115652;0.18784592;0.15448444;0.17196243;-0.07895871;0.059036057;-0.19455482;-0.104590796;0.035631876;-0.10495163;0.116152026;0.12094082;0.035835244;0.1824091;-0.107320905;0.14228006;-0.045340944;-0.008729808;0.16726458;-0.15764298;0.06998887;-0.03925061;-0.031065583;-0.20481177;-0.012912057;0.06529537;-0.11969389;-0.059598126;0.018218778;-0.0023816717;0.11527165;-0.11546028;0.10101909;0.006330726;-0.15338692;0.03443296;-0.18455234;0.054787133;-0.074574955;-0.17231283;0.038009223;-0.10286298;-0.036508262;0.005351119;0.09190691;-0.031040763;-0.112583205;-0.055636846;0.034242146;-0.08523209;0.13181165;-0.10187841;0.05579875;0.026299283;0.10475882;0.13345928;-0.28939834;0.044147834;0.041187946;-0.01589508;-0.075455755;-0.11682008;0.08836613;0.2190944;-0.16122313;0.07766876;-0.13410214;0.118349716;-0.043568626;-0.05578356;-0.026976349;-0.0276529;-0.033271283;-0.14016917;-0.16491008;0.082902156;-0.032733288;-0.07540708;0.009851886;-0.082856484;0.11914219;-0.027052615;-0.11320559;-0.04187353;0.04482492;-0.05873269;-0.21376018;-0.06882152;0.005981926;-0.025659729;-0.03383013;-0.011309061;0.0004623891;-0.050732195;-0.046466824;-0.08830162;-0.2674885;-0.12348638;-0.23838523;0.107833646;-0.028917843;-0.09671818;-0.23460379;-0.15399317;-0.10169215;0.100898474;0.076241635;0.11852586;-0.050243955;-0.02110286;-0.05480689;-0.05176718;0.07528374;0.022067957;0.03237872;-0.20891683;-0.12504523;-0.058489908;0.22764875;0.02341338;-0.24523717;0.04740369;0.22290075;-0.04051799;-0.07757864;0.05933797;0.17356163;-0.03174141;0.08525664;0.039052565;-0.19346991;-0.13848267;-0.14029548;-0.005881245;-0.036825217;-0.008897736;0.17780499;-0.08036862;-0.12914218;0.02633325;0.024219636;0.004320646;-0.12603654;0.056787893;0.06158497;0.0051008803;-0.2580054;-0.01330143;-0.16240193;-0.040858287;0.016849045;-0.11408506;0.01717636;0.09651312;0.10715982;-0.079265125;0.037033297;-0.041225128;-0.042070683
0.04446013;-0.048472278;-0.14560038;0.12279626;0.115835935;-0.021561287;0.055529837;0.06548572;-0.27993965;-0.04103145;-0.20126405;0.006494831;-0.074937925;-0.05570798;0.08166979;0.14855705;0.049182218;-0.07698389;0.0022342526;-0.07394374;0.12525488;-0.05479918;-0.07074123;0.05386255;-0.07824665;-0.0018767593;0.12038121;-0.12354639;-0.19007657;-0.14475532;0.17371477;0.05947839;-0.039013527;-0.14552131;-0.11449949;0.062887624;-0.044623613;-0.060967628;0.09532483;0.057996523;-0.05200392;0.15546405;-0.00218536;-0.10227477;-0.18827951;0.07039057;0.09320566;0.07337769;0.0010851985;-0.087900475;-0.06179502;-0.0389433;-0.018009838;0.18143208;0.04446023;0.044844076;0.0128781;-0.026248144;-0.13517287;-0.11286276;-0.054123458;-0.08923128;-0.042731818;-0.07219682;-0.07646711;0.068083;-0.06341909;0.061538797;-0.2615406;0.027900089;0.05631474;0.08870359;-0.029249523;0.035283208;-0.25462446;0.115076706;0.17493075;0.037311647;-0.023796715;0.13405865;-0.079491906;0.13407502;0.07887582;0.12028267;0.030715883;-0.14481308;0.04878484;-0.04687973;0.05745174;-0.016400112;-0.02969143;0.0906453;0.07430586;0.06570268;0.06760793;-0.21368966;0.0034857194;-0.1443623;-0.0067653516;-0.095984176;-0.03839635;0.030089328;0.07948665;0.09636579;0.088318124;-0.102242984;-0.028067749;0.019809632;-0.14274608;0.06989147;0.021228937;-0.0796217;0.21447562;-0.050776444;-0.08872603;0.0761599;-0.07765928;0.13636193;0.18410479;-0.13766922;-0.1564997;0.13782847;0.1880398;-0.045405474;0.18032129;0.10388861;0.06997623;-0.09023712;0.03288485;-0.19626793;0.07857658;-0.07863414;0.01716749;0.085198194;0.11351218;-0.13552047;0.19709694;-0.024436481;-0.06680901;-0.11781698;0.03887148;-0.016814295;0.10200914;-0.025760174;0.002421777;-0.064140595;-0.038239513;0.042832278;-0.042597134;0.08996992;-0.08383409;0.03880135;-0.0111828;0.107791536;-0.05392238;-0.08450363;0.16236112;0.027731864;0.09719275;-0.013854515;0.0356885;-0.053775497;-0.19432363;0.19542973;0.018216358;0.124584675;-0.12691985;0.0685798;-0.0074920612;-0.09294993;-0.107359335;-0.05372066;-0.060474586;0.102841586;-0.30195647;0.008249251;0.05916473;0.033275146;0.08564803;-0.10245406;-0.05407571;-0.046166454;-0.08031315;-0.11826961;-0.07280371;0.13447994;0.115528;-0.07199945;0.076428786;-0.17761019;-0.07141823;0.06953152;0.08022577;-0.061849885;-0.0364052;0.017085118;-0.043979228;0.07383352;-0.070950724;0.087696746;0.030090628;-0.18425229;-0.07540692;-0.12034079;-0.13489127;-0.21097016;-0.061761364;-0.029755075;-0.050241582;0.15589596;-0.0631775;-0.14394179;0.095086105;0.07828176;0.17780253;-0.15389207;-0.22572756;0.060058933;-0.19403507;0.08679729;0.06075774;-0.035484903;-0.008217491;0.11083949;-0.055417355;-0.09301522;-0.25177777;-0.21907005;-0.09747401;-0.24597834;0.08992975;-0.20610303;-0.024387572;-0.19404405;-0.08246002;0.12891153;0.035111304;-0.06035456;-0.2245701;-0.03120365;-0.07516404;-0.05448847;-0.10244332;0.0123592075;0.037985537;-0.06524512;0.09757114;-0.14890248;0.107219025;-0.09355107;-0.09965634;0.01292424;-0.033799715;0.14143622;0.030233262;0.13322805;-0.18875743;0.032950778;-0.09393775;0.1583168;0.026137708;0.0531643;-0.012234184;-0.013842751;-0.13255101;-0.018940814;0.054946695;0.14120825;-0.09604689;-0.06968842;-0.08167408;-0.02852226;-0.01338808;-0.18599729;-0.14856613;-0.11891822;0.010245634;-0.067939974;0.058045264;0.03297457;-0.10705921;0.06304969;-0.040066402;0.011961237;-0.01172234;-0.051956676;-0.014713484;-0.039933544;-0.08231123;-0.07282648;0.057231866;-0.070966706;0.03892152;0.06965807;0.1578438;0.093279004;0.06475761;0.18146737;-0.080818266;0.04742314;0.17973986;0.0032946437;-0.10420293;0.15334272;0.063503824;0.08472908;-0.041219413;-0.0047914353;0.023865657;0.058993544;-0.08024646;-0.08059862;-0.047956906;-0.0012690615;0.07489296;-0.05042024;-0.021239253;-0.32716373;-0.086294696;0.0013819354;0.09931081;-0.01690141;-0.06229451;0.11106463;-0.053599827;0.08722564;0.23043649;0.036832534;-0.023600075;-0.07565122;0.018833581;-0.083659686;0.16075364;0.038564414;0.10976408;-0.0533507;0.04109796;0.17893016;-0.052719664;0.18609543;-0.13025647;-0.09199843;-0.008213403;0.09028997;-0.07861323;0.10085021;0.09825602;0.029405858;-0.15420838;0.11992208;0.042890828;0.20369339;-0.092380434;0.0012597638;0.070569515;0.22379005;-0.14740731;-0.049174;-0.056727584;-0.047789007;0.043397866;0.12605305;-0.112633415;0.044454176;-0.03690077;-0.19322743;0.14208105;-0.08712133;0.13054426;-0.11377866;0.0472467;0.1829457;0.0768146;-0.16382524;0.009723374;0.10429134;0.030794133;-0.089647576;0.015575133;-0.11415267;-0.06486009;0.05548138;0.10043533;-0.062487558;-0.00894096;-0.009369716;-0.024028154;-0.021479351;0.08325649;-0.178872;0.05356735;-0.06848575;0.008079721;0.06479438;-0.0920925;-0.0979195;-0.038137916;0.17258078;0.09736278;-0.16879304;-0.07802119;0.08548876;-0.051499072;0.22485134;-0.1687914;0.15901773;0.044305246;-0.10940901;0.08583482;-0.069767006;0.04811244;-0.11545373;-0.006022977;0.034619197;0.024639437;-0.0037951483;0.051171772;0.0022175452;0.14739968;0.040301073;0.11755016;0.038786303;0.01273355;0.033786032;-0.1310802;-0.0019854212;-0.13679129;0.045216013;0.18597914;0.009882419;0.2813943;-0.06600325;0.16713053;0.039167095;-0.039278485;0.108039804;-0.17092644;-0.0077204285;-0.11985839;0.00853264;-0.32041615;-0.066302195;0.08350823;-0.18535583;0.011222125;0.011239384;-0.028199775;0.10466594;-0.0892704;0.2054153;0.032160483;-0.05123719;-0.031023545;-0.07178899;0.07047418;-0.028434321;-0.10450036;0.14867394;-0.02342009;0.014824818;0.14375146;0.058402315;0.000783309;-0.05748616;-0.038607404;-0.008650447;-0.1198722;0.14992543;-0.16542415;-0.00062372145;0.12490814;0.06367662;0.25348514;-0.28506416;0.021608753;0.0426661;-0.0021127958;0.08877541;-0.1622743;0.018885914;0.17005694;-0.11673971;0.046583418;-0.06714851;0.08206561;0.04442245;-0.151839;-0.07429068;-0.00043834408;0.05391172;-0.1473526;-0.056310754;0.055599067;0.081296235;-0.059201412;0.12101353;-0.16070446;0.13890605;0.0352999;-0.042485252;0.024001474;-0.0805273;-0.07294866;-0.14010651;-0.1730403;-0.0041369246;0.0015920921;-0.08821793;0.024438053;-0.10996772;0.06276113;-0.098671496;-0.17367373;-0.24782687;-0.02182852;-0.19663298;0.08013507;0.08691806;-0.05838619;-0.13036446;-0.09231144;-0.17305972;0.048343807;0.012496173;0.18371059;-0.023971442;-0.118771926;-0.12497907;-0.10169904;0.1073002;0.066597454;0.030212551;-0.085148245;-0.11138504;-0.036490943;0.19497313;0.018463604;-0.3030279;-0.09781875;0.19171916;-0.036683;-0.039856505;0.0022339404;0.021514429;-0.014805471;-0.052337512;0.018117774;-0.14359432;-0.04580219;-0.04466618;-0.07041099;-0.021996256;0.005365093;0.044732213;-0.06005154;-0.033661675;0.109512284;0.02651679;0.068540804;0.03729947;0.06800995;0.060447898;-0.025133273;-0.27260214;-0.12296091;-0.16723712;0.10439205;0.05080356;-0.11163416;0.06813603;0.11354525;-0.001323991;-0.06697832;-0.043165788;-0.00268629;0.013170954
0.12419685;0.029244596;-0.15318505;0.02964478;0.020387745;-0.122433126;0.051619157;0.053674184;-0.19284064;-0.051344518;-0.21208745;0.008115674;0.041403703;-0.046643857;0.105995014;0.06407867;0.0014799538;0.032743864;0.008793278;-0.105250195;0.18023573;-0.120935075;-0.11665293;-0.075013444;-0.20544127;-0.042585712;0.029623982;-0.30734497;-0.22658241;-0.11880091;0.11971553;-0.10825905;-0.03870694;-0.08890932;-0.12039502;-0.015733441;0.00889146;0.007365855;0.085150525;-0.043826584;0.08232994;0.108263925;-0.0961619;-0.13032322;-0.28229007;0.13950679;0.20400964;0.06560962;0.034022346;-0.04062588;-0.11574512;-0.02893129;0.082226895;0.087131836;0.07059094;-0.1622095;-0.024182836;-0.025648285;-0.16047786;0.05350431;-0.086247906;-0.099574625;0.069770806;-0.05423055;-0.08649088;0.10375916;-0.042396016;0.10423978;-0.26037592;-0.043030247;-0.007864171;-0.017842095;-0.036369327;-0.110467285;-0.27438593;0.15872434;0.2482269;-0.0033632645;-0.23166986;0.15562819;-0.10716187;0.1741104;0.16001484;0.017410751;-0.07812319;-0.18863691;0.068134;-0.087876596;0.13455932;-0.11305709;-0.1652765;-0.031016989;-0.09113945;0.106443904;0.06296784;-0.34249386;0.09076977;-0.020635508;0.03949798;-0.23978652;0.07315721;-0.058226045;0.120926104;0.053991012;0.15440953;-0.03860174;0.036270384;-0.0151097495;-0.10150718;0.024048742;0.08990825;-0.010363232;0.14279991;-0.11928691;-0.017485294;0.08448023;-0.17868014;0.17409953;0.24886496;-0.19453862;-0.1634197;0.07185468;0.0947716;-0.029770939;0.10311779;-0.013401715;0.12592104;0.07544531;-0.091591485;-0.08497821;-0.09190649;-0.15923369;0.15685764;-0.0029121803;0.2091881;-0.14352879;0.12167779;0.09488921;-0.17146036;-0.11161642;-0.01470756;0.1527016;-0.06372351;-0.011493157;0.02621853;-0.16976182;-0.040470116;0.008233126;-0.12415937;0.21593098;-0.15580566;-0.027545437;0.06447378;0.1954846;-0.026233606;-0.19036639;0.13971116;-0.029593825;0.1871933;-0.06915501;0.14500688;0.13619627;-0.06218955;0.17446171;0.035719704;0.027581763;-0.17184664;0.051385228;0.17454714;-0.16496456;-0.17405315;-0.11884442;-0.18837507;0.06253232;-0.24273112;-0.081008;0.007969908;-0.114023216;0.114361785;-0.042023253;-0.17129722;-0.100487106;0.027995743;-0.06515611;-0.016097622;0.06500493;0.11899372;-0.09634484;-0.04912272;-0.08639558;-0.057406783;-0.12645681;0.08756252;-0.15398483;-0.13176787;0.05027715;0.0047773384;0.23884147;-0.10676915;-0.11095587;-0.02586;-0.15008985;0.017070951;-0.12720585;-0.19021493;-0.2373983;-0.13630924;-0.13353682;-0.042548615;0.15260234;-0.08683654;-0.18846132;0.074189015;-0.024086544;0.118831985;-0.051443186;-0.30950338;0.10970907;-0.17170532;0.029100452;0.13735169;0.13650411;-0.088748135;0.14290509;-0.14531161;-0.00073936407;-0.25091705;-0.14244306;-0.013447091;-0.14089695;0.18878318;-0.038885064;0.0286958;-0.1371949;-0.0065035783;0.22138825;0.027794674;-0.021191169;-0.35247195;-0.09772369;-0.20237255;-0.09026279;-0.10569055;0.0034052178;0.035546765;-0.08295667;-0.04005805;-0.0675458;0.06955396;-0.1516446;-0.066292085;0.020506289;-0.078453444;0.11272391;-0.017916793;0.10250831;-0.04042485;-0.15351132;-0.004114203;0.098022476;0.04393497;0.13281536;0.06613882;-0.18175001;-0.04494484;-0.07562662;0.14431539;0.25223798;0.114908755;0.05699054;-0.06965295;0.07564071;-0.013686661;-0.09702909;-0.16108046;0.009487115;-0.021643376;-0.062442143;0.050706666;0.043428626;-0.12302155;0.115690276;-0.049641598;0.15252167;0.041466817;-0.17126843;-0.067162134;-0.067066275;0.051828627;0.037480675;0.046654135;-0.105180435;0.1384574;0.10319997;0.18770498;0.20364217;-0.048925634;0.119829185;0.062444054;0.1093217;0.16804084;0.053792093;-0.0982854;0.13460597;-0.027383244;0.08694448;-0.08161725;-0.07559032;0.016803501;-0.04644229;-0.12675163;0.0020609528;-0.13555141;-0.041380193;0.013197093;0.03868779;0.2177235;-0.16142102;-0.21363464;0.015979948;0.03869133;-0.065325454;-0.1594964;0.1733149;-0.052312206;0.06488133;0.24731202;0.03439579;-0.14560363;0.10287891;0.023617022;-0.11379392;0.21166822;-0.039453894;0.08692317;-0.029246846;-0.049697176;0.16868463;-0.052130315;0.22007842;-0.11893966;-0.1906332;-0.14266104;0.15585347;-0.14188245;0.13050018;0.09776283;0.049878873;-0.15650688;0.08517439;0.03966201;0.34634733;-0.051500116;0.12346593;0.021915304;0.12433278;-0.14583826;0.055326257;0.0815044;0.05771439;0.054889776;0.21372136;-0.048174154;0.0991543;-0.090258695;-0.12406408;0.1442311;-0.12775777;0.05555931;0.047615882;0.019472308;0.2694497;0.008968328;-0.27443907;-0.112655364;0.10453555;-0.038876053;-0.034080476;0.010212262;-0.17160246;0.00047623055;-0.059230767;0.007620572;0.058962874;0.13952768;0.09564815;0.16118768;-0.07338236;0.07065931;-0.08350256;-0.15309994;-0.07815253;0.02453902;0.03409362;-0.017382178;0.020841718;-0.08766837;0.14655437;0.107565165;-0.12058567;-0.04844558;0.06455722;0.0024716647;0.17119282;-0.2018083;0.11366921;0.14255776;-0.11506368;0.16022325;-0.14439261;0.15460147;-0.19043516;-0.030863108;0.041336365;-0.048614223;-0.077177934;0.04972095;0.011259339;0.022475528;-0.05064907;0.19343235;-0.14090274;0.043271787;-0.15174973;-0.002010765;-0.08209941;-0.13073567;0.1101915;0.17520434;-0.10663858;0.08809707;0.009356817;0.03048801;-0.064525045;0.070282824;0.04873736;-0.13436303;-0.043304183;-0.063713335;-0.03823953;-0.29945645;-0.11267328;0.07091543;-0.043742176;-0.108504996;0.03568929;0.058914375;0.043016165;-0.1739981;0.15128888;0.026840307;-0.13204317;-0.011278258;-0.065524265;-0.045090027;-0.04351401;-0.115107805;-0.01576301;-0.11242333;0.10527133;0.0878672;0.020633329;-0.053670146;-0.17360643;0.0139464205;-0.07193474;-0.2411648;0.07040615;-0.21310435;-0.015758678;0.20358653;-0.035528652;0.23486814;-0.3050516;-0.066285186;0.13577889;0.066203624;0.1695273;-0.11709068;0.11616903;0.13931383;-0.17633054;-0.047821384;-0.1067846;0.19716015;-0.06043928;-0.053494047;-0.0016065807;0.037326947;-0.015715295;-0.2148597;-0.11310812;0.019269463;0.05154965;-0.0008440558;0.18816033;-0.10141337;0.077183194;0.074316494;0.006419699;-0.055470295;-0.048815694;-0.096146576;-0.168895;-0.19485123;0.11024863;0.063053764;0.009543029;-0.07424294;0.012193692;0.040311974;-0.19666481;-0.15764879;-0.18327047;-0.013376478;-0.21868078;0.020230288;0.014481938;-0.11731025;-0.2092373;-0.04617548;-0.19885227;-0.07813016;1.15756375e-05;0.26587996;0.072880104;-0.09433581;-0.019255124;-0.023048885;0.18060833;0.015912343;-0.03734791;-0.0741001;-0.03922701;0.102057025;0.3222849;-0.04660352;-0.29195336;-0.1824105;0.34631282;-0.06330735;-0.061079342;0.114715435;-0.13364518;0.03239873;0.038545616;0.13256085;0.01063035;-0.07638746;-0.06558711;0.03741257;0.0059699994;-0.039025128;0.18386742;0.022727968;-0.05326515;0.16479212;0.20964657;0.0452413;0.040137958;-0.034325514;-0.03708349;0.050911408;-0.2942631;-0.08118774;-0.056504954;-0.020129606;-0.035267405;-0.11511905;0.033279963;0.007930143;-0.023796631;-0.058429185;-0.06851281;-0.0015275351;0.096200876
0.03566719;-0.1281132;-0.11994115;0.005752741;0.06586973;-0.014007546;-0.0012108563;-0.0098468745;-0.3331749;-0.099414416;-0.09801853;0.047262195;0.025870392;0.0030653337;0.11928799;0.06739225;0.019096006;0.1346566;0.018228285;-0.044312034;0.1560371;-0.027824884;-0.053623762;-0.006292752;-0.19122998;0.06371022;-0.043966733;-0.24435301;-0.11384539;-0.07723151;0.1285009;0.023357153;0.008832414;-0.09894685;-0.21086757;0.050645065;-0.044115443;-0.11641448;0.0839115;-0.12044035;-0.009369765;-0.042200617;-0.102524355;-0.0107989395;-0.0806472;0.07991953;0.20152786;0.021262528;-0.026663892;-0.008313221;0.053936325;-0.070470475;-0.01319181;0.20867243;0.05266775;-0.09800577;-0.035964362;-0.04101233;-0.18050073;0.060379483;0.0616885;-0.060363002;-0.06504399;-0.049488023;-0.11591852;0.015424282;-0.0850979;-0.0070867566;-0.20224637;0.071934566;-0.008127358;-0.018469114;0.04013725;-0.07475289;-0.3100256;0.12107633;0.14710622;0.14425467;-0.2234005;0.16345778;-0.05025979;0.05469564;0.16366528;0.18213157;0.0391281;-0.18623525;-0.0016044243;-0.017917817;-0.02868125;-0.008438786;-0.019709526;0.15675183;-0.060240116;-0.035256676;0.009916531;-0.26865834;0.12960884;-0.16288039;-0.07289952;-0.2422058;-0.004184566;-0.03689006;0.017152702;0.12197454;0.0995496;-0.13200234;-0.06841344;-0.060343973;-0.07775095;-0.014158145;0.04506924;-0.11493155;0.2212843;0.0100148115;-0.033105616;0.12483738;-0.038635626;0.05067193;0.09323715;-0.1269501;-0.07400862;0.15266106;0.19223447;-0.13261698;0.039394718;0.09088993;0.10794723;-0.016580986;-0.038565196;-0.023888426;-0.081021845;-0.07535232;0.11061923;0.076491855;0.1670921;-0.038273443;0.100713365;0.075035736;-0.10751142;-0.10057442;-0.07653124;0.1913742;0.07740137;0.046312034;-0.08536166;-0.074607134;-0.040022805;-0.05829154;-0.07950619;0.13705654;-0.092138134;-0.0056175445;-0.045472626;0.10751056;-0.017033817;-0.12040673;0.22338386;0.1300928;0.14508688;0.012178805;0.04976922;0.09407812;-0.07637766;0.27720988;0.020091351;0.05458529;-0.1644418;0.0031454328;0.07095588;-0.017439127;-0.15925276;-0.008395749;-0.16810282;0.10834302;-0.2587031;0.021928735;0.10186096;-0.100975834;0.06122748;-0.0065014544;-0.0754442;-0.04684926;-0.069253266;-0.101802856;-0.11500641;0.10882498;0.13298453;0.0073961783;0.047656856;-0.08765182;-0.115479745;0.009705773;0.09817972;-0.0398091;-0.11321802;0.07407907;0.010178035;0.16814297;-0.14949647;-0.014746285;-0.04202933;-0.20377368;-0.13231197;-0.17088854;-0.044867847;-0.11223003;-0.18756445;-0.026732763;-0.025931781;0.19940366;-0.17656112;-0.0881896;0.090975314;0.038071103;0.0147317;-0.08928051;-0.23034926;0.023004727;-0.22456306;-0.10002749;0.16876385;0.09911762;0.03394867;0.122462675;-0.07572818;-0.0051448513;-0.2821639;-0.16149017;-0.14647768;-0.17193441;0.14122564;-0.14833483;-0.068089776;-0.23605435;-0.10695195;0.116391964;-0.019978954;0.07752465;-0.33834243;-0.021591885;-0.21550563;-0.05850311;-0.037328374;-0.010796497;0.0087973485;0.043965902;0.012392736;-0.15568125;-0.0053691384;-0.14988172;-0.068190366;0.1826689;-0.01498312;0.073972024;0.0087315375;0.17584321;-0.1795033;-0.23003942;-0.082936436;0.050612286;0.12169208;0.07454502;-0.0041369917;-0.11373951;-0.036671594;0.027975569;0.19216573;0.30201057;-0.09534129;0.014068975;-0.014478444;0.07805654;-0.116990626;-0.118870586;-0.15879229;-0.07728185;0.04095715;-0.027444711;-0.03515415;-0.05113913;-0.05224164;0.039900392;-0.07921681;0.16253616;0.056171536;-0.16945545;-0.08145874;-0.04732412;-0.054297328;-0.016202763;0.09899302;-0.12731099;0.17756976;-0.0062559783;0.2677794;0.17912124;-0.10686289;0.025569636;-0.038049255;0.09541663;0.085702136;0.026276123;-0.037594907;0.04554906;-0.010812724;0.11431302;-0.2179344;0.08188407;-0.050861876;0.106562085;0.005187166;-0.113682896;-0.1415611;-0.08935333;0.09240856;-0.007820944;0.12261596;-0.2469473;-0.10714686;0.06999762;-0.059205934;-0.12123938;-0.099333845;0.18374318;-0.10558592;0.05210115;0.18320209;-0.08981564;-0.17317235;0.061602876;-0.0051492834;-0.070843756;0.19774929;-0.072351076;0.11574859;0.02986583;-0.11817476;0.20107624;-0.07761989;0.17791495;-0.17783263;-0.059326198;-0.10914977;0.06414336;-0.15515414;0.13025159;0.118352115;-0.026729144;-0.3207333;0.03670002;0.018209811;0.31214312;-0.1291503;-0.037547816;0.101136886;0.102700174;-0.18531899;-0.087312825;0.09602557;-0.061655942;-0.0063405866;0.2129579;-0.027260458;-0.00451268;-0.063221365;-0.12100048;0.17543909;-0.112018034;0.020123363;-0.0395005;0.016406732;0.2345864;0.12664652;-0.30228263;0.075549;-0.017139055;-0.022831224;0.0070709772;0.032037996;-0.015674418;0.026361875;-0.004086757;0.07043924;0.057945915;0.020211192;0.024587238;0.13895759;-0.034934223;0.13380457;-0.15185161;-0.01899745;-0.0002696167;-0.026683811;-0.0083115455;-0.11856229;-0.0746454;-0.02901575;0.16437264;0.099090196;-0.23566142;0.02547894;0.11046298;0.063519396;0.14434841;-0.20850585;0.03615748;0.062259693;-0.116703786;0.022752117;-0.12693869;0.029661546;-0.12925659;-0.006935754;0.035898052;0.0034178707;-0.04901303;0.100530416;-0.022518648;-0.031883866;0.02786744;0.04786543;-0.024352942;0.05726146;-0.17366299;-0.08483678;-0.04016087;-0.16741264;0.17394812;0.09351895;-0.031189429;0.17940584;0.06486325;0.1643871;-0.0653857;0.08923442;0.10272222;-0.17443578;0.038775004;-0.08485172;-0.0200421;-0.29247484;0.0039604204;0.117183186;0.018340046;-0.022455301;0.12429118;0.08407706;-0.014984658;-0.17884845;0.11028398;-0.05975749;-0.104073286;0.009219773;-0.18699323;0.05932285;-0.026323356;-0.17575356;-0.030283889;-0.102111235;0.04672313;0.063735835;-0.027399752;0.124707684;-0.06832156;-0.009805602;-0.103051096;-0.1851029;0.15968981;-0.24874978;0.09545569;0.099634394;0.071201734;0.16109462;-0.15853848;-0.018796938;0.07882531;0.05727082;0.094941944;-0.11414767;0.072804995;0.19256644;-0.24370159;-0.05971847;-0.061407223;0.037405808;-0.003846916;-0.11446641;-0.023893865;0.07270134;0.04847431;-0.11786199;0.021126045;0.03881668;-0.0025548723;0.031142263;0.17762336;-0.110487975;0.08445177;0.15969083;0.047745798;-0.03519325;0.085845;-0.1960275;-0.20696655;-0.09143526;0.015535531;0.15243322;0.029404871;0.011142627;0.067132376;0.082366586;-0.17402409;-0.16029431;-0.22395514;-0.09848808;-0.255736;-0.007996096;0.027192941;-0.028379485;-0.14094651;-0.16614841;-0.18547927;-0.13061264;0.029017778;0.17574944;0.013781116;-0.121131755;-0.041502133;-0.040489346;0.22608183;-0.0034737913;0.041349728;-0.17922162;-0.10072901;-0.08917367;0.24682519;-0.048795637;-0.15829387;-0.14704058;0.24804555;-0.08188946;-0.05694474;0.10849929;-0.011159811;0.0752898;0.011970423;0.007434116;-0.031556133;-0.11337036;-0.19593774;-0.02807202;0.039277967;-0.019131651;0.13197772;0.026589405;-0.029680835;0.18268448;0.089033544;0.05231102;-0.0034743892;-0.030491387;0.113975495;0.039508283;-0.1734379;-0.050288513;-0.0818063;0.072960325;-0.074961305;-0.035211477;0.055063356;0.11597484;-0.039453782;-0.053063825;0.013199647;0.0065943985;0.040709328
0.07677274;-0.079014994;-0.05154712;0.056055073;0.119444;-0.12101106;-0.008509855;0.034200013;-0.23176871;-0.14337705;-0.10847499;0.10213677;-0.020412257;-0.116394706;0.037405964;0.16674711;-0.0058175516;0.08399004;-0.064870104;-0.066789895;0.007098378;-0.102989934;0.037228435;0.04454254;-0.12601592;-0.0018118549;0.031819504;-0.28660774;-0.13455936;-0.15821;0.1138742;-0.0945655;0.14213115;-0.11803911;-0.3218892;0.00059168035;-0.019673867;0.021091113;0.0709001;0.014702201;0.09758428;0.10321444;0.0074937646;-0.019903926;-0.1400387;0.09271484;0.15126035;0.031386144;-0.08112643;-0.063062064;-0.06470962;-0.025637226;0.007213141;0.026477039;-0.08355249;-0.027526146;-0.0011241297;0.08668881;-0.19544028;0.11987738;-0.036056906;-0.081651494;-0.056836184;-0.017486839;-0.1007035;-0.07222709;-0.052016024;0.06353083;-0.09088979;-0.08075607;0.05482948;0.044068016;-0.13971968;-0.17771935;-0.24285871;0.0815016;0.1363861;0.024780892;-0.19255233;0.17845069;0.010104364;0.033087544;0.09354468;0.061139703;-0.051504742;-0.08820053;-0.009852959;-0.14376846;0.16287677;0.012868732;-0.070013925;0.06932736;-0.050562687;0.028329952;-0.003495795;-0.2607655;0.1175435;-0.056282625;-0.026374398;-0.19848673;0.05693899;-0.004648037;0.043879703;0.008728515;0.00841559;-0.1494446;0.0332159;-0.12410818;-0.21528359;-0.1725213;0.075817935;0.013311025;0.10344747;-0.05944499;-0.14949253;0.107737616;-0.12959577;0.0810189;0.2313663;-0.072251365;-0.0840063;0.22787301;0.17912857;0.05284249;0.057123184;-0.036972918;0.11091246;-0.012166955;-0.038823813;-0.12563889;-0.04591236;-0.13996154;0.17483823;0.10714082;0.22009939;-0.16901657;0.062215906;0.13236037;-0.19840007;-0.15304857;-0.016941054;0.10930179;-0.005296091;0.100182965;0.042874854;-0.1245606;0.07800436;-0.12507506;0.0140594095;0.1528869;-0.18315941;-0.070232145;0.02413598;0.19071941;-0.0060028024;-0.1892331;0.10685156;-0.06379437;0.17371288;0.022886906;0.14098331;0.10092683;-0.10389911;0.22099185;-0.09423488;0.036115672;-0.1545078;0.09759538;0.18819496;-0.07953024;-0.026008857;-0.054995377;-0.07586211;-0.032065585;-0.31387487;-0.031375438;0.04259129;-0.07996226;0.22894374;-0.015060948;-0.097885974;-0.24929298;-0.12462918;-0.12241351;-0.20131795;0.09037693;0.02565803;-0.023579264;0.0029705483;-0.17704718;-0.028088802;-0.09484356;0.12282538;0.059711885;-0.16058688;0.08708674;0.12615524;0.34232235;-0.15346411;-0.21229932;0.017832348;-0.11977063;-0.037951607;-0.107738376;-0.1407801;-0.14165986;-0.08925111;-0.04858057;0.10859636;0.22355449;-0.20413381;-0.15555312;0.08742683;-0.006928238;0.12922467;0.040826797;-0.18070112;-0.022394167;-0.21185194;-0.13273019;0.07624632;0.17106456;-0.03688096;0.1025085;-0.15093991;0.05590731;-0.14788489;-0.20304538;-0.12136774;-0.023827389;0.25168604;-0.02436188;-0.018027313;-0.2368331;-0.036376674;0.18120638;-0.024946466;0.08268332;-0.4007794;-0.08390218;-0.24884596;0.0019404395;-0.07665658;-0.04731411;-0.060545094;-0.00046746657;0.12129748;-0.05495742;0.08732191;-0.12920018;-0.045971267;0.08629863;-0.03740067;0.028621279;0.16583104;0.24812657;-0.09216315;-0.13018292;-0.1701071;-0.020900901;0.014716663;-0.03099606;0.023720842;-0.12778683;-0.092331015;-0.0021779074;0.14886639;0.3221143;-0.11155094;-0.038583618;-0.017308671;-0.02883022;0.027166717;-0.14300781;-0.16296695;-0.12653616;0.062455863;0.06852849;0.03810469;-0.0042395773;-0.14858592;0.08064155;0.06889368;0.14730014;0.1742188;-0.19590597;-0.06668304;-0.1189143;0.020694194;0.05238046;0.21174341;-0.05712995;0.10040953;-0.071091816;0.24428393;0.1370231;-0.03326804;0.1399145;-0.029137304;0.13290036;0.18762788;0.0009575226;-0.12912457;0.005306696;0.02683446;0.0009009402;-0.18817616;0.112251155;-0.08769905;0.07434017;-0.09677965;-0.053684626;-0.10629506;0.08748843;0.16406699;-0.019823149;0.19280301;-0.20658201;-0.044234395;-0.06637987;-0.014998337;-0.28238976;-0.10496324;0.22949019;-0.09413897;-0.0011473986;0.20571521;-0.010268095;-0.13595337;0.010855916;-0.015473547;-0.0046137874;0.25867578;-0.022004312;-0.02763307;-0.056119576;-0.07223883;0.17168596;-0.067960374;0.21832962;-0.049777158;-0.058642622;-0.03270982;0.20253317;-0.12355354;0.14880697;0.24614982;0.03355061;-0.25131583;-0.040104084;0.2140627;0.2995789;0.061739244;0.074516036;0.096297406;0.07939937;-0.14123163;0.1378076;-0.027227787;-0.09544333;0.106683336;0.04884947;-0.032853633;-0.039594654;-0.10559644;-0.13790749;0.21467961;-0.19873439;0.098814085;0.0007384064;0.12166633;0.28811163;0.06521279;-0.24031313;0.05659593;-0.0062418045;-0.12574558;0.013889106;-0.1060591;-0.050261166;-0.04459687;-0.0405051;-0.030613089;-0.009713591;0.07031026;0.06024642;0.1892194;-0.16857855;0.07422951;-0.14242229;-0.11689157;-0.019525511;0.054586105;0.014571737;0.0193705;-0.1146083;-0.094927624;0.06561992;0.023788128;-0.09133732;-0.14293207;0.156705;0.07339506;0.08244898;-0.15761378;0.12445384;0.032018118;-0.037474383;0.026820827;-0.10692092;0.0904864;-0.03172321;0.11983949;0.17630607;-0.073993035;-0.095060445;0.009295427;0.012824532;0.11774407;-0.0696929;-0.04006951;-0.09442842;-0.038231585;-0.21908247;-0.024489503;0.03790524;-0.04962234;0.059373878;0.1561196;-0.05980396;0.03339833;-0.012459669;0.12917589;-0.12046826;0.063881606;-0.01865835;-0.25267226;-0.05965733;-0.11679271;-0.03983132;-0.09600007;-0.035501644;0.14838004;0.04150397;-0.06982655;0.124034025;0.14238442;-0.0964804;-0.1809803;0.20366512;-0.0018349983;-0.13657981;0.06375563;0.0022574812;-0.03649625;-0.099060416;0.0016260924;0.024316601;-0.1345652;0.01740539;0.093795724;-0.12636127;0.13113843;-0.053213973;0.012014229;-0.1763114;-0.23265904;0.07371718;-0.23586302;0.09118149;0.16650589;-0.033679046;0.1927451;-0.20300122;0.0634886;0.005970927;0.12571044;0.10594276;-0.030360527;0.21498397;0.16793872;-0.2833775;-0.073482856;-0.051038608;0.1366529;-0.04708059;-0.04185483;0.09169885;0.0682719;-0.080641806;-0.028808529;0.016496656;0.09088135;0.15431073;-0.09496952;0.16463785;-0.21093847;0.10880643;0.055680156;-0.0012813272;0.04648703;0.022988796;-0.057694305;-0.07859951;-0.1712485;-0.015547483;0.16946015;-0.01381498;-0.077862024;0.030425698;0.032145824;-0.20048471;-0.21756563;-0.1333587;-0.16191724;-0.23508668;0.0331684;-0.02939652;0.01695966;-0.17729455;-0.1203024;-0.21420896;-0.16299255;-0.0040875343;0.17159057;0.019758815;-0.10880881;-0.091969654;0.060600743;0.18593311;0.03782576;-0.050160915;-0.03917457;-0.017069072;0.08015939;0.21280244;-0.011385475;-0.16157012;-0.08818733;0.30495223;-0.050240453;0.023664461;0.040293615;-0.19824891;0.053313833;-0.09651798;0.13380359;0.020951683;-0.17131598;-0.058526333;-0.035845898;0.0738618;-0.05556029;0.14035152;0.066771984;-0.020194953;0.25147036;0.13280901;0.12128453;-0.030921431;0.035414472;0.063337706;0.06514025;-0.10253882;0.085808545;-0.0654636;0.026220782;-0.09612597;-0.026133966;0.09829152;-0.011744628;-0.021354275;-0.073548846;0.01739864;0.01002396;-0.09692136
0.12749904;0.005193065;-0.053195428;0.058886502;0.14096409;-0.15698594;0.05385683;0.09723035;-0.33375797;-0.16349973;0.0024148002;0.08535388;-0.035883013;-0.05461706;0.04332137;-0.0135594355;-0.042940542;0.07555496;0.03087123;0.03334873;0.10892594;-0.048338775;0.04100198;0.0094085755;-0.12525725;-0.055189017;0.010200782;-0.2725737;-0.12634268;-0.16345516;0.20092708;-0.061621808;0.018213855;0.041966878;-0.22794327;0.067820184;-0.12028915;0.020196708;0.037182476;-0.1224461;-0.05912882;0.115621306;-0.13331881;0.0102243805;-0.14543636;0.11981726;0.21047431;-0.03732158;0.10368419;-0.05422589;-0.016007135;-0.038397387;-0.037445378;0.033627354;0.0041309665;-0.02548582;-0.015133323;0.025063224;-0.12708429;-0.00062386954;-0.064636126;-0.11078078;0.078306355;-0.03814911;-0.10488685;-0.07777685;-0.042802714;0.059214875;-0.09741989;-0.06546815;0.108320095;0.05063456;0.05733948;-0.120590545;-0.2142788;0.08576213;0.07647122;-0.013036861;-0.23170292;0.029787336;-0.004921949;0.07658634;0.19003941;0.20810607;0.049421933;-0.100921944;-0.21422312;-0.15781415;-0.028647287;-0.076148406;-0.046033483;0.16837984;-0.13508265;0.06788949;0.047809124;-0.31718507;-0.048256747;-0.22487448;0.07703328;-0.14861293;-0.06195194;0.089849666;0.1052818;0.0933023;0.1396106;0.03627213;-0.028338568;0.0023034383;-0.11359953;-0.06760646;0.06702919;0.031779215;0.15536529;0.011011148;-0.12057885;0.011512355;-0.16134869;0.013329897;0.10918198;-0.11389621;-0.062316574;0.2119333;0.14571273;0.0044852737;0.02019783;0.04432683;0.024772897;-0.10305747;-0.057193458;-0.0089640785;-0.025748884;-0.16693294;0.17099293;0.09230305;0.22696017;-0.110448964;-0.016734157;0.046219084;-0.07622223;-0.1630938;-0.05301907;0.064312905;0.0062211715;0.020322174;-0.0803608;-0.056194443;-0.014039329;-0.07591664;-0.073646165;0.14880684;-0.12306279;0.12100285;0.12622866;0.1562606;-0.07280013;-0.2670963;0.1119047;0.0632928;0.16768108;0.043259002;0.0940834;0.02410605;0.009991994;0.1459515;-0.19475749;0.048354167;-0.10057115;0.0018063538;0.087447725;-0.048367523;-0.053407565;-0.05139006;-0.010960923;-0.06560517;-0.2477234;-0.030753044;0.16562201;-0.11927258;0.16036555;0.018655248;-0.04279449;-0.17381938;-0.076282;-0.11916714;-0.21653871;0.09037508;0.16855648;-0.068051755;0.11041623;-0.031782046;-0.025672566;-0.023617256;0.12554625;0.030935867;-0.1998678;0.0041543767;0.17249356;0.271278;-0.04046808;-0.15695304;0.067676745;-0.10269556;-0.12842672;-0.14625926;-0.09906887;-0.21881478;-0.14661749;0.025731744;0.07725784;0.26877397;-0.13807079;-0.1189534;0.116509356;-0.07186484;0.12611958;-0.15833521;-0.22681278;0.09795493;-0.14789276;-0.14931674;0.06430349;0.121308655;0.044286013;0.13711311;-0.1279984;0.082189485;-0.26552615;-0.056708496;-0.021641621;-0.09306306;0.040499307;-0.0628022;-0.035959095;-0.24845576;-0.109874845;0.07746978;-0.003921908;0.0077531245;-0.395746;0.0051050107;-0.117936365;-0.13661894;-0.068483725;-0.015988136;0.016544724;0.035661843;0.06267927;-0.033901017;0.032353174;-0.12558767;0.028157664;0.09935825;-0.1167879;0.120594166;0.07485063;0.28473893;-0.1725648;-0.1805479;-0.18757008;0.0741672;0.1009212;0.06380848;0.08735763;-0.08050715;0.026624348;-0.0069734924;0.21792966;0.19639145;-0.045717295;0.00034226253;-0.11925966;-0.061674528;0.014702819;-0.008310502;-0.24593885;-0.041228555;0.041730583;0.056254037;0.008452225;0.059756283;-0.11723635;0.054043952;-0.018206099;0.1265385;0.03990657;-0.13690874;0.005191621;-0.11446977;0.077203184;0.006773631;0.21701628;-0.046580438;0.080570035;0.013811988;0.2612631;0.16448474;-0.11875079;-0.014954853;-0.015193191;0.05870203;0.005414054;0.089478694;-0.017625138;-0.017631765;0.01912634;-0.08930545;-0.110272616;-0.024083523;-0.007833412;0.15592813;-0.17883855;-0.055673555;-0.14734714;0.078878514;0.12403141;-0.062236913;0.13024898;-0.22918113;0.0061025927;0.08086491;0.11165729;-0.08655607;-0.097759135;0.10192145;-0.13777307;0.13846415;0.22531274;-0.09601384;-0.12694347;0.052190866;0.091741845;-0.09041506;0.14977828;-0.043864485;0.13262759;0.05081736;0.015580495;0.2334719;-0.013014886;0.12463533;0.027504437;-0.090726644;-0.13216336;0.11242342;-0.015994072;0.27435705;0.09975175;0.090947956;-0.18524379;0.012475416;0.093554914;0.23222114;-0.1336444;0.038124118;0.10387874;0.073300965;-0.21323843;0.08319916;-0.09003905;-0.11698208;0.05679135;0.13785009;0.021822436;-0.08190471;-0.08215101;-0.082478024;0.15529837;-0.12060223;0.02698059;-0.059415903;0.09570642;0.22432366;0.02674058;-0.22842446;-0.018686295;0.023298277;-0.036438506;-0.015038632;0.024411825;0.025907945;0.05325566;0.016340226;-0.017257677;-0.1028498;0.042067695;0.03610139;0.028938822;-0.099384144;0.06559799;-0.16147241;-0.03541316;-0.07048232;0.039618675;0.037169073;-0.096009955;-0.029770976;-0.03338066;0.192768;0.14755781;-0.13472162;0.05358749;0.064102404;0.03693552;0.010559142;-0.13911335;0.16238686;0.07356201;-0.0047371746;0.028508859;-0.026401214;0.08871779;-0.02143644;0.039867423;-0.014926581;0.019754646;-0.046899606;0.18899296;0.10061974;0.0010836107;-0.012809617;0.16910613;-0.065644994;-0.01388228;-0.009691381;-0.014751063;-0.04983498;-0.09223811;0.14197303;0.110812366;-0.15027413;0.07743385;-0.07508776;0.050729606;-0.04210829;0.02269486;-0.06327504;-0.09805573;0.054011025;-0.06094019;-0.09325969;-0.3133023;-0.067647316;0.06399657;-0.013684323;-0.078113034;0.13172986;0.03879587;-0.15039018;-0.11624665;0.07223154;-0.005907833;0.011305551;0.029198224;-0.159847;0.08520657;0.038257454;-0.1261226;0.13918075;-0.014111645;0.024279939;0.094725356;-0.054810166;0.06188325;-0.106393896;-0.14443;-0.032710895;-0.24491613;-0.030190276;-0.16204035;0.1062487;0.015462246;-0.11377374;0.14350493;-0.18037842;-0.008100598;0.0097988155;0.08401337;0.082441546;-0.04501769;0.13344534;0.10761699;-0.19004013;-0.119618624;-0.070529625;0.06753824;0.046000503;-0.19906539;-0.10107075;0.1846476;-0.04210875;-0.1589176;-0.09957705;0.091037676;0.026477905;0.021914018;0.18367618;-0.019636039;0.11836434;0.08438887;0.13629727;0.057009403;0.0057368865;-0.10112565;-0.13206801;-0.062023535;0.1032988;0.1044152;0.08826175;0.0161928;0.106660046;0.14053054;0.0036832045;-0.10023734;-0.14446999;-0.10622601;-0.23844787;-0.006200488;0.09410083;-0.008518582;-0.120542616;-0.23052706;-0.20659874;-0.0607173;0.16946407;0.21474843;0.031654686;-0.068966314;-0.090918556;-0.07698321;0.2564613;0.051248398;0.024649562;0.013288705;-0.096439704;-0.08643271;0.1755476;-0.16791165;-0.07146799;-0.16605875;0.30861747;-0.00014236596;0.009136341;0.08916723;-0.07719005;0.17051205;0.08681367;0.046317253;-0.011082537;-0.055604666;-0.035343666;0.04363359;0.13560963;0.0085083805;0.13552505;0.062115464;-0.06353426;0.14329642;0.19154173;0.09025015;-0.015957976;0.03632832;0.056509413;-0.013347234;0.02695481;0.032206204;-0.1495029;-0.013560622;0.04903042;-0.030284535;0.013945021;0.07260545;-0.11170736;-0.008262986;-0.03899855;0.009505623;0.0636151
0.14770369;-0.021051725;0.04119899;0.13441952;0.0326776;-0.16353431;0.06825418;-0.0049134674;-0.26642272;-0.12798868;0.13741834;0.017456548;-0.09884905;-0.0007995092;-0.0002908192;-0.025479008;-0.0034420895;0.06320953;0.008090474;0.028802374;0.022255715;-0.044496004;0.085256495;0.07583155;-0.10873153;0.007147156;0.0057228343;-0.249821;-0.10422119;-0.10287709;0.16626824;-0.01487949;0.09666068;-0.03182528;-0.19014838;0.014131372;-0.1089902;-0.08399809;0.025180105;-0.15416063;-0.030116405;0.0056567444;0.00327887;-0.026612662;0.007667693;0.028700097;0.33053887;-0.05915299;-0.0027557698;-0.105633095;0.10537697;-0.08155072;0.023668112;0.19149187;-0.10220642;-0.018309237;-0.026797436;0.09816009;-0.11165238;0.0834966;0.05364622;-0.04399614;0.021374855;-0.029602764;-0.10195153;0.062170785;-0.12224965;0.063227594;-0.09088112;-0.03876601;0.17168556;-0.0047774105;0.09155379;-0.02590305;-0.16287398;-0.0023161164;0.16848189;-0.0011337107;-0.17010511;0.10573954;0.05927009;0.14478707;0.15778315;0.1495173;0.06815015;-0.0476197;-0.24532123;-0.06447378;0.09757377;-0.080202855;-0.117754295;0.11517552;-0.24164858;0.07351865;0.033800717;-0.36662835;-0.05733105;-0.1107909;0.051496856;-0.15770948;0.010726031;-0.0039691804;0.100690015;0.13184813;0.21804106;0.02528498;0.035731226;-0.05856898;-0.15227953;-0.16584805;-0.03270975;-0.13453142;0.17188494;0.031970818;-0.054622993;0.009549632;-0.06981998;0.02347445;0.13348883;-0.07361642;-0.029054739;0.13756914;0.23057212;-0.02927344;0.09294164;0.008306773;-0.021260265;-0.06737244;-0.09605132;-0.14072564;0.029628258;-0.23035681;0.19692524;0.14797369;0.27478078;-0.21041295;0.133197;0.01886714;-0.10438617;-0.17050137;-0.10727437;-0.08690193;0.022564879;0.03201134;-0.05177964;0.018219579;0.0051858462;0.050526563;-0.123297274;0.07479898;-0.10074932;0.08130229;0.087663114;0.12276257;0.015137554;-0.14262897;0.14568475;0.1349848;0.29567358;0.028158847;0.014095269;-0.0025103043;0.034908827;0.28058484;-0.09601706;-0.013441285;-0.027876545;0.050715294;0.14748357;-0.1324833;-0.04035951;0.03969811;-0.04667717;-0.05845331;-0.29109225;-0.082032576;0.15528707;0.04155215;0.11523766;0.019508122;0.02575018;-0.0040824274;0.013036765;-0.23095769;-0.14617243;0.11991302;-0.0011910142;-0.017308649;0.07130232;-0.035231255;0.004140336;-0.06360929;0.101065986;-0.031142687;-0.122679874;-0.1178046;0.16054668;0.16087388;-0.12040049;-0.14312553;-0.07309265;-0.053113565;-0.033685975;-0.15576407;-0.0071093566;-0.2574772;-0.046976652;-0.11289715;0.11475945;0.2506116;-0.15144303;-0.11133993;0.15189505;-0.040562835;0.06533928;0.0072034663;-0.15276374;0.0045053908;-0.15481217;-0.17652586;0.22432363;0.045432612;0.10158558;0.12613332;-0.060646962;0.019644313;-0.15772097;-0.0043436266;0.025153758;0.020164251;0.08021089;-0.06390635;0.06983229;-0.29538357;0.026106035;0.083207645;0.018720958;-0.06725586;-0.30010873;-0.022810185;0.0110532595;-0.07801473;-0.18906519;0.0038674173;0.11283153;-0.10665201;0.054520957;-0.0031124488;0.0660316;-0.04177782;0.0781627;0.08959653;-0.09099774;0.15938757;0.0207948;0.24338682;-0.18139754;-0.12031071;-0.19811694;0.1401902;0.16974641;0.0076909754;-0.06175184;-0.15588325;-0.09562082;-0.09119506;0.13370526;0.12566698;-0.02614898;-0.0162158;-0.020910969;-0.034656446;0.07639214;-0.051363204;-0.22011623;0.00012137141;0.09963999;-0.06519219;0.09417534;0.018657656;-0.22320879;0.116163336;-0.07283028;0.016187843;0.09176242;-0.22182529;0.0503189;0.04579519;-0.07840944;-0.068144485;0.032600224;-0.12495115;0.116598696;-0.011702424;0.22412008;0.004552291;0.01735759;0.058542103;-0.03402503;0.10367075;0.09182131;-0.05403226;-0.1961902;0.08219162;0.037857234;-0.09085045;-0.103919774;0.0003689922;-0.04882683;0.13604783;-0.08690024;-0.052485604;-0.101310074;-0.09781406;0.25789806;0.033315722;0.17031914;-0.10914007;0.0004130022;-0.07521492;0.09950021;-0.22097373;-0.087229826;0.19960448;-0.20368762;0.058055777;0.13495187;0.02785093;-0.08212753;-0.024553824;0.050090887;-0.10039843;0.10019804;-0.038251992;0.035009086;-0.028225686;0.053695697;0.108721666;-0.010431288;0.2275789;-0.06613161;-0.14125846;-0.0727343;0.08350345;0.019257026;0.2425237;0.017568972;0.008328312;-0.21987359;-0.10596644;0.17511596;0.24963185;-0.12173137;0.047100876;0.06423763;-0.058746293;-0.12175158;0.061373968;-0.0637264;-0.066808805;0.06698509;0.20556015;-0.022209667;-0.056765765;0.030082729;-0.18346825;0.19989651;-0.23847038;0.042258434;-0.094917424;0.021060789;0.2686144;0.0034250666;-0.10927613;0.06280206;-0.044295628;-0.048863698;0.12155257;-0.14929608;0.0108763715;-0.06408854;-0.0060518174;0.038934942;-0.044714306;0.052359518;0.095519416;-0.079502374;-0.12890334;0.06360302;-0.20095108;-0.08247649;-0.1330195;0.043706313;0.025121126;0.024213918;-0.12438836;-0.10862698;0.18540275;0.11582939;-0.21400744;0.022332951;0.13312824;0.1153939;0.05683956;-0.18467982;0.1234109;0.05945416;0.04022732;0.038485285;-0.11819173;0.046396736;-0.018815583;0.03672489;-0.016396895;-0.02604061;-0.0566937;0.18924251;-0.024810307;-0.023313781;-0.14666887;0.15423025;-0.03787544;-0.049290366;-0.09310974;-0.12373395;-0.08547652;0.0054717674;0.2217299;0.2175322;-0.20403078;0.12611225;-0.0071367295;0.043629542;-0.047346033;0.035605144;-0.085370734;-0.12631755;0.027452301;-0.08656162;-0.029748512;-0.22703074;-0.074666075;0.040244006;0.028267847;-0.18800783;0.02229156;0.042212646;-0.1170265;-0.10000479;0.09181849;-0.02188702;-0.052969947;0.048135947;-0.15946566;-0.0971604;0.067406364;-0.16140972;0.107397236;-0.10030773;-0.051036302;0.0231686;-0.02840223;0.09111053;0.012640141;-0.027090728;-0.053947616;-0.22104934;0.024880117;-0.1387059;0.1542305;-0.023683738;-0.096519515;0.19729303;-0.324376;-0.0044709267;0.054752823;0.13739738;0.0030843394;0.0057807784;0.09299801;0.10358402;-0.13079016;-0.092611045;-0.0022375928;0.035513412;-0.09697114;-0.16287932;0.0035427706;-0.02680688;-0.1260134;-0.079861045;-0.13268295;0.13729177;0.0062264297;0.017290862;0.16053234;0.014331708;0.06588894;0.015633697;0.18390128;-0.019954244;0.025298344;-0.18894869;-0.10771101;-0.22095183;0.014349758;0.11320469;-0.036728147;0.043740578;-0.04675733;0.0011952182;-0.0035618602;-0.06878595;-0.14397408;-0.066423394;-0.2027887;0.02698934;0.04069917;-0.15884534;-0.1782657;-0.20283036;-0.09526937;-0.047671996;0.13182342;0.20230721;-0.068323545;0.08123256;-0.17437904;0.025536675;0.15372093;0.09284084;-0.016050208;0.037469447;-0.11685126;0.0101355435;0.2376841;-0.12980047;-0.05105901;0.037332714;0.15115693;-0.0386334;0.06358374;0.10069154;-0.03917021;0.06735052;0.0522229;-0.03440785;-0.11231235;-0.012201146;-0.077580675;-0.03422913;-0.043664347;0.0067969207;0.06814612;0.0010002216;-0.068588845;0.16129938;0.18199827;0.042512152;-0.057708338;0.022498822;0.061190553;0.052260533;-0.06996569;0.017158346;-0.0905415;0.07408995;0.05723263;-0.19572955;0.086141504;0.15807152;0.01205831;-0.03372483;-0.19022492;0.03120114;0.112382345
0.14675908;0.054121993;-0.103188656;0.091225356;0.109381676;-0.03402988;-0.013388164;0.014163699;-0.31161535;-0.023767775;0.061975956;-0.04555778;0.07745234;-0.13977036;0.046897884;-0.004598218;0.011470644;0.10518605;0.030278781;0.059592955;0.11935231;0.01723493;0.029997192;0.065090634;-0.11968486;0.061336458;-0.03284172;-0.23507427;-0.05137896;-0.14064331;0.1985441;-0.019006874;0.18517458;0.03221379;-0.20350756;0.09851408;-0.06342111;0.04942293;0.06795075;-0.16396807;-0.083863236;-0.07533131;0.017062863;-0.116664626;-0.10818635;0.0036859654;0.25384977;0.11530269;0.06411156;-0.06957589;-0.015297414;-0.041615166;-0.10217017;0.18272917;-0.045739952;-0.16289225;0.028521545;-0.003529164;-0.12698075;-0.013288581;-0.017344456;-0.24241263;0.019566271;-0.036054187;-0.12271614;-0.026596673;-0.04828619;0.05605808;-0.07157511;0.028669696;0.09876052;0.021385273;0.037175238;-0.1459881;-0.108997434;0.060809176;0.23106363;-0.0039968495;0.039551523;0.10531631;0.026411377;-0.089901395;0.25352502;0.037195984;0.029463885;-0.11828488;-0.11721554;-0.02883549;0.11409795;-0.0331086;-0.07483351;0.09418023;-0.2527864;0.13327429;-0.075136244;-0.33885062;-0.03557012;-0.07719083;-0.008104352;-0.020635702;-0.01724696;0.09485065;0.17728214;0.019217795;0.19190025;0.05442861;0.12767152;-0.047504906;-0.013229203;-0.28290498;-0.02362501;-0.069366455;0.12354142;0.0033610072;-0.15368792;0.12517452;-0.11351981;-0.07839038;0.17675966;-0.16281053;0.056642678;0.04587918;0.17449433;0.032897163;0.11481545;0.13145907;0.08807506;-0.056670085;-0.043260273;-0.037649874;0.14324021;-0.25323167;0.045065798;0.12156864;0.25891492;-0.061955404;0.13618886;0.11174461;-0.16879956;-0.12956148;-0.0049350555;-0.10411889;0.15788163;0.061063863;-0.046172377;0.07265078;0.0030454842;-0.013384221;-0.006553552;0.112686634;-0.079636335;0.07362886;0.054550856;0.0659374;-0.055645;-0.23082148;0.06257743;-0.006231185;0.31347892;0.09265919;0.021637406;-0.057450663;0.120960586;0.2795139;-0.08078869;0.07195686;0.061885506;0.0790156;0.037147216;-0.04587367;-0.07250123;0.17882764;0.07151967;-0.052261624;-0.14625522;-0.1265883;0.08406023;-0.018471925;0.11286572;0.13854103;-0.012878209;-0.13117956;-0.08854075;-0.15063712;-0.10908863;0.14139377;0.035932377;-0.011479341;-0.025534594;-0.062347304;-0.11789352;0.009297062;0.10380362;0.060548324;-0.11953967;-0.08555273;0.13177967;0.17730191;0.008470678;0.0028689;0.12057577;-0.07058331;-0.21997605;-0.012917448;-0.12720545;-0.22162004;-0.092948206;-0.051924065;-0.015265297;0.22459026;-0.1437694;-0.08575526;0.07969135;-0.029158065;-0.035779778;-0.10253842;-0.23461603;0.049947426;-0.08013358;-0.23290735;0.23980841;0.11889338;0.08964573;0.09734528;0.001698562;0.06561669;-0.24067277;-0.09568077;-0.06309775;0.036140498;0.120769665;-0.18696445;0.0698524;-0.2014607;-0.15162255;0.09500862;0.009723475;0.13112043;-0.3532194;-0.07080713;-0.18494883;0.037398748;-0.1066177;0.058488477;-0.014481768;-0.1491683;0.0577149;-0.006410921;0.020992354;-0.11024598;0.15024802;0.13258366;0.005645229;0.07275271;0.032100275;0.2952378;-0.07120828;-0.11055529;-0.18356547;0.003658326;0.14597534;-0.056237884;0.022241738;-0.117986694;-0.009457525;-0.025212301;0.20152956;0.03806048;-0.16446579;0.109024085;0.009773229;-0.022497337;0.08201398;-0.0050098835;-0.13771932;-0.048770834;0.002091581;0.002236329;0.025616705;-0.061030786;-0.07462077;0.13964894;-0.046696097;0.1312519;0.089002244;-0.22306244;0.036797572;-0.071503624;-0.00438066;0.034076422;0.08438388;-0.017161462;0.044400394;-0.04898208;0.20814449;-0.05379871;-0.023994783;-0.012879007;-0.081852846;0.15807071;0.11531269;0.14679226;-0.10106743;0.019870289;-0.03059833;-0.10530179;-0.09455034;0.027010484;-0.041113585;-0.044078402;-0.15215503;-0.020069102;-0.013636944;0.04092818;0.23331426;0.005687118;0.0372121;-0.10807866;-0.011804355;-0.095337;0.10470129;-0.182466;0.035736144;0.1208645;-0.19876762;0.060507797;0.06981651;-0.06730972;0.04446927;-0.00042947129;-0.05879908;-0.14255619;0.0937098;-0.011044267;-0.05473443;0.035286494;-0.01796753;0.0375021;0.042686075;0.15923978;0.027377065;-0.037981134;-0.024964929;0.1886386;-0.091646455;0.16753191;0.00467597;0.09045948;-0.22794554;-0.057895392;0.23949148;0.09601371;0.017002765;0.017215796;0.12345456;-0.026387572;-0.23647647;0.11323651;0.02172793;-0.12596384;0.046728887;0.105271615;0.020671144;-0.13497321;0.010366606;-0.20023368;0.19487715;-0.10616686;0.091653034;0.040381353;0.11495096;0.20429587;0.0009742394;-0.15613402;0.014689791;-0.0605187;-0.008925222;0.059417896;-0.0277824;-0.060242902;0.080717735;0.08463766;0.092809185;-0.06662389;0.0488399;0.018801067;0.025476677;-0.15389375;0.07971646;-0.24927723;-0.0501155;0.024527714;-0.033352215;0.033183213;0.074317805;-0.01126012;0.020836007;0.10488958;0.073033065;-0.09661005;-0.03206374;-0.038840618;-0.016187144;0.032826334;-0.15497817;-0.004055138;-0.027872011;-0.0136871785;0.10241118;-0.14556657;0.018007442;-0.012876965;0.07954148;-0.056396767;0.08683685;-0.06636761;0.12607104;0.08195787;0.013108566;-0.16933553;0.046568237;-0.16861436;0.042955637;-0.11565124;-0.15660499;-0.040002484;-0.07042304;0.056952246;0.09834215;-0.20566632;0.047043685;-0.027095664;-0.0068098744;-0.08822404;-0.088039584;-0.007144642;-0.16646595;-0.094349064;-0.11833827;-0.042108405;-0.23399885;-0.0054677436;0.09765196;-0.1329924;-0.13879211;0.1238563;-0.057169802;-0.043599308;-0.036502846;0.12946919;0.05920128;-0.13465327;0.048827443;-0.085303016;0.027000489;-0.010593372;-0.09001636;0.10936427;-0.12882663;-0.034481376;0.12219697;0.051153846;0.033124533;-0.089478135;0.030937104;-0.07183443;-0.18694112;0.061427884;-0.018560909;0.057799835;0.07200489;0.019464329;0.2597384;-0.20783867;-0.01756084;-0.025228795;0.13382085;0.0017774613;0.10041527;-0.010786461;0.09144834;-0.083873205;0.03180149;-0.15164837;0.17464177;-0.07036686;-0.13124122;0.0397631;0.097832926;-0.20160937;-0.042558216;-0.049659777;0.15852085;0.014329876;-0.068467125;0.036096826;-0.010269271;0.0073180376;-0.022613967;0.03450637;-0.0385692;0.042100653;0.012160274;-0.106414884;-0.14398347;0.08836403;0.10928323;-0.030965297;-4.418625e-05;0.016620286;0.06494268;-0.08014134;-0.09535111;-0.2586366;-0.07614856;-0.16276333;0.029361628;0.07742708;-0.1467658;-0.18701959;-0.25364766;-0.05756972;0.049305346;0.105914325;0.017134577;-0.008708538;0.077349946;-0.16147888;-0.028446091;0.18516807;0.040676598;0.09590711;-0.06503253;-0.1005811;0.045685753;0.12896878;-0.083731934;-0.055152398;0.054721512;0.10666771;-0.092947304;-0.032581456;-0.020895503;-0.023051322;0.11117271;0.0030590442;-0.095147535;-0.004234641;0.030851103;-0.113670595;-0.066926464;-0.0038013957;-0.018397657;-0.06603251;-0.101470605;0.0753863;0.16737519;0.17563592;0.015729984;-0.16806695;-0.008196109;0.12828353;0.17844376;-0.002346235;0.13662873;-0.05240992;0.06254197;0.13928056;-0.13579434;0.02974391;0.056862887;-0.09997878;-0.059321128;-0.16068986;-0.08591499;0.11712628
0.22128017;-0.011892563;-0.02342447;0.012124033;0.12037233;-0.112987734;-0.06887478;0.09031482;-0.35705528;0.0019125505;0.099374354;-0.04948584;0.08958573;-0.030264236;-0.007989201;0.09384191;-0.046517473;0.056509223;0.1422413;-0.031308725;0.03894564;0.002600031;0.1394357;0.15586488;-0.11621602;0.017010985;-0.10826503;-0.17386803;-0.036290526;-0.026507664;0.0856642;-0.09582841;-0.0043389117;0.041859444;-0.09892654;-0.006009202;0.013923347;0.09907817;0.07114767;-0.19034295;-0.046381928;-0.03710587;-0.04929699;-0.10147137;-0.00059640844;0.16605501;0.16049178;0.052828092;0.03486668;0.025548548;0.08329538;0.0574684;-0.15263933;0.13728766;0.051555753;-0.11866532;0.111235045;0.0059239725;-0.0054367636;0.03121056;0.00032340956;-0.1748355;0.020552855;0.049296975;-0.19311543;-0.09802552;0.049771983;0.06987822;0.06617199;-0.039598066;0.09565999;0.048806157;0.098298304;-0.021025036;-0.14014888;0.046113484;0.10779522;0.03676888;-0.02223732;0.039973717;0.077671535;0.07493642;0.24025874;0.11550306;-0.046948556;-0.07303789;-0.13654982;-0.092134014;-0.012815139;-0.05777928;-0.15831013;0.05192037;-0.2087714;0.1013079;-0.013096478;-0.39849845;0.024454031;-0.25661898;0.011507202;-0.11981322;-0.03180253;0.10924518;0.078336895;0.110691555;0.059763774;0.08063556;0.039513014;0.04106659;-0.045819074;-0.23499775;0.028648183;0.057668444;0.1520785;0.057804707;-0.040392112;0.10970978;-0.19573526;-0.051042616;0.049198374;-0.15491076;0.0027064243;0.07549131;0.0901944;0.050588284;0.11181285;0.15525295;0.027445232;-0.061811287;-0.114030376;-0.013804183;0.11003019;-0.21031891;0.0071192933;0.09607682;0.2403674;-0.088599585;0.112279765;0.09356439;-0.16083227;-0.0869068;-0.12295305;-0.044316206;0.10468879;-0.020490898;-0.14489824;-0.051788103;-0.013965264;0.030711148;-0.006682597;0.0999128;-0.022406362;0.061533485;0.17048214;0.171739;-0.038367786;-0.22545175;0.12439462;0.0704488;0.20599818;0.10692857;0.06375379;0.0061982195;0.121889085;0.24231143;-0.10881763;0.095222905;-0.026905207;0.074693836;0.031126462;-0.1666453;-0.10071641;0.102431454;-0.09398181;-0.0046181185;-0.12011215;-0.19499393;0.120611295;-0.046403926;0.06789135;0.06769215;0.107445836;-0.11527809;-0.13839675;-0.16896422;-0.18576355;0.04633656;-0.04443167;0.018891472;0.10185702;-0.0049343714;-0.045813907;0.05334607;0.08426088;-0.048216168;-0.1833776;-0.124765195;0.16089444;0.1826153;0.07998477;-0.067991674;-0.04082329;0.02193385;-0.08446587;-0.07002584;-0.02935458;-0.15758128;-0.105368875;-0.09150351;0.034060743;0.24774085;-0.1142945;-0.099401265;-0.0034310536;0.07100084;-0.040275197;0.02366493;-0.1511724;-0.09055974;-0.047464244;-0.07869217;0.2260178;0.11718328;-0.024050314;0.1100479;-0.023855591;0.12557061;-0.16303198;-0.022408271;-0.10870403;-0.086959735;0.03073256;-0.10771298;0.039755996;-0.20563497;-0.1449143;0.012548193;-0.087855406;0.036528274;-0.26204622;0.055548873;-0.042254854;-0.1002498;-0.16164088;-0.06170624;0.12980334;-0.20659512;0.1005514;-0.06509379;0.013406509;0.039005052;0.009520132;0.07002794;-0.10398763;0.15837653;0.07556039;0.27652735;-0.07454327;-0.043519076;-0.17684397;0.09352306;0.09788113;-0.0132713625;0.055679034;-0.051317926;0.04243748;0.10467777;0.22376554;0.13191454;-0.040656485;0.06330021;-0.083549626;0.07607048;0.063026816;-0.060712393;-0.06769085;-0.045261722;0.017958738;-0.039081525;0.019736161;0.04046571;-0.15447502;0.20993802;0.04955032;0.08631347;0.097244695;-0.17746963;-0.0376456;0.040677756;-0.030439915;-0.063367516;0.02472129;-0.0861128;0.083486326;0.0534445;0.23292601;0.12482303;-0.097455256;-0.052861847;-0.035955224;0.13988559;0.046551928;-0.0057673;-0.103545696;-0.08616841;0.05342167;-0.05844804;-0.14536645;0.005410339;-0.038888477;0.06722803;-0.16512002;0.10091132;-0.11702026;-0.019329254;0.3189411;0.0036778394;0.09530545;-0.21317525;0.1690053;-0.03834823;0.069471166;-0.08204863;0.05658243;0.0619875;-0.20747325;-0.049838286;0.0589368;0.016705738;-0.09615852;-0.045308046;-0.08306485;-0.04731149;0.042742297;-0.07559406;0.07410315;0.026036123;-0.0030817294;0.11816104;0.09635567;0.20165372;-0.07748332;-0.053866103;-0.016575739;0.030839553;0.021946618;0.123359494;0.05299828;0.11771187;-0.18767057;-0.12830989;0.23584837;0.11487879;-0.029643647;0.112685144;0.038557135;-0.08961778;-0.14580895;0.109028116;0.0064241956;-0.0045744786;0.15539213;0.0598452;-0.008419653;-0.1489883;-0.022535188;-0.26791698;0.13091326;-0.075757556;0.10566722;-0.014591517;0.08728778;0.20276827;-0.03989761;-0.17686027;0.052321237;-0.04022186;-0.0032487842;0.15370464;-0.046650637;0.04491526;0.016960263;0.032556336;-0.083730415;-0.039416254;0.16267623;0.09668674;0.023415843;-0.03898904;0.005439716;-0.27002877;-0.015646897;0.0017405764;-0.114378415;0.024658311;0.09198497;0.051003303;0.15663904;0.084789045;0.17608091;-0.10540587;0.059316415;-0.06399838;0.018731477;-0.010565821;-0.08883402;0.07756151;0.064415626;0.018250884;-0.015404345;-0.074460745;0.014423507;-0.0059341304;0.09726312;-0.008003588;-0.058358714;0.0337142;0.16297373;0.04518646;0.031999607;-0.1198335;0.10719085;-0.098376;0.028476808;-0.027213886;-0.08506405;0.0033502372;-0.1330958;0.15855815;0.033121098;-0.16720761;-0.10282001;0.069299236;-0.065594755;0.041486613;0.02158435;-0.05441958;-0.11045831;-0.11965851;-0.027574653;-0.116111964;-0.13188429;-0.021533338;0.10029294;-0.070390396;-0.16923992;0.032213874;-0.07484945;-0.10242342;-0.04833512;0.10968164;0.05265238;-0.10678133;-0.05159498;-0.16214916;-0.06331218;-0.052956633;-0.07423835;0.151558;-0.06340577;-0.0013976614;0.1277041;0.046904385;0.044551194;-0.011321323;0.00287035;-0.070052795;-0.13952851;-0.05512156;-0.11341191;0.012430878;-0.050913464;0.051247153;0.25087312;-0.17031437;0.08423654;-0.07520183;0.13377213;0.040986203;0.008910867;-0.031733498;-0.043502502;-0.08684847;0.008172562;-0.0793134;0.039069533;-0.23675083;-0.069420174;0.03560954;0.09997155;-0.05685778;-0.0454633;-0.110137254;0.122443;-0.04444817;-0.01598125;0.09862058;0.03393369;0.05607589;-0.0012072854;0.02380544;0.019209841;0.16629046;-0.050547257;-0.09244796;-0.072651565;0.054375872;0.0047965045;-0.058406517;0.049996763;-0.016003938;0.111417815;0.0087032495;-0.012443268;-0.18277112;-0.108679205;-0.24394868;-0.010114477;-0.052755594;-0.10134809;-0.06646432;-0.24951471;-0.07627642;0.09831493;-0.0005891484;0.011242381;-0.07639841;-0.0024004169;-0.14218375;-0.09432837;0.16242224;0.013253055;0.087653205;-0.00799727;-0.13485081;0.039734837;0.1301872;-0.09952154;-0.13419892;-0.027577955;0.1710289;-0.1419576;-0.08518535;0.04620955;-0.009223683;0.03986965;-0.03685338;-0.052727703;-0.055809703;0.065095544;-0.1774572;-0.05453223;0.09040119;-0.06731726;-0.031391356;-0.010295614;0.0080627175;-0.016989721;0.12082413;0.010295054;-0.14180034;-0.04898028;0.1062141;0.21789849;-0.073829465;0.010303209;-0.012143459;0.09603606;0.025162768;-0.15412065;-0.016661206;0.17320958;-0.15275165;0.0857653;-0.081556365;0.012864797;0.1458578
0.09841674;-0.124803334;0.02442028;0.12184989;0.09818383;-0.07229209;-0.041040234;0.07077188;-0.25465208;-0.11881797;0.18973;0.018307813;0.0315341;-0.123832114;-0.024370663;-0.026257327;0.073543586;0.16001432;0.05485875;0.021576943;0.14091896;-0.00112003;0.017587183;0.07488458;-0.05124116;-0.062770665;-0.0554767;-0.034762867;0.07049764;-0.08856454;0.08874499;0.039864235;0.0076133925;0.037436996;-0.079373956;0.12822463;-0.118173726;-0.026498461;-0.013599711;-0.10087887;0.01712641;-0.13476537;-0.039781637;-0.019176727;0.06462601;0.14678088;0.15098724;-0.008098072;-0.04984479;0.11217342;0.043594327;-0.078434646;-0.0806598;0.20918216;0.033538375;-0.04565778;0.07063255;-0.050532155;0.049436837;-8.9156e-05;0.061856337;-0.11186845;0.070932865;0.08221671;-0.2182828;-0.12059507;-0.03597804;0.1032159;-0.048151717;0.09691351;0.07942747;-0.122806974;0.14944398;-0.17113213;-0.099766545;0.08842287;0.20540765;0.045281433;-0.008936762;0.09471205;0.07751891;0.02111596;0.16878664;0.17238942;0.085045435;-0.08996519;-0.092972465;-0.16002476;-0.012806075;-0.07809742;-0.1573258;0.017781602;-0.062052842;0.09581312;0.08941932;-0.4775176;0.08937068;-0.2484784;0.06396904;-0.12894368;-0.14696984;0.06914015;0.2340374;0.09698662;0.21121576;0.08525107;-0.05545231;-0.020257311;-0.050118677;-0.2098389;0.023797883;0.06595334;0.08422007;-0.0076093674;-0.044925675;0.10200781;-0.17545485;0.020252742;0.041978594;-0.10247616;0.00047898138;0.077207096;0.11225547;0.06359021;0.12554991;0.14905186;0.04622792;0.00043238295;-0.105794154;-0.05293175;0.13195528;-0.23405796;0.06993089;0.018915337;0.19706571;-0.15419443;0.23181349;0.057917666;-0.14655206;-0.16832939;-0.0836056;-0.025348496;0.24753718;-0.14042577;-0.14053619;0.09162478;-0.037521467;0.099308304;-0.059240554;0.021731233;0.006176041;0.019795166;0.056925777;0.089949764;0.0024565575;-0.15521014;0.12930445;0.027748898;0.21494767;0.09995544;0.02752775;-0.0762339;0.05353199;0.19448702;-0.06285716;0.09991009;0.009362476;0.10114903;0.071990564;-0.030351287;-0.12598068;0.13733187;-0.16798063;-0.10832057;-0.09887944;-0.16103931;0.10817967;0.007157584;-0.021094555;0.009486768;0.0660211;-0.053293932;-0.13775808;-0.17048524;-0.09238947;0.028999614;0.024278061;-0.05233585;0.12873225;0.037274975;-0.090374514;0.07663919;0.06532138;0.014761214;-0.10141038;-0.03832382;0.15790175;0.26827627;0.05933625;-0.039615735;0.07879803;-0.14070453;-0.16947591;0.0050784666;-0.033563994;-0.113310955;-0.16581279;0.1064143;-0.066713795;0.15719184;-0.08907887;-0.053387776;0.047259115;0.0659488;0.0017998044;-0.038185373;-0.24697109;-0.1308937;-0.074064;-0.04580166;0.26622954;0.086421;0.027968036;0.16120027;0.07153769;-0.021623932;-0.20509705;0.04438683;-0.120644376;-0.06648029;-0.024195008;-0.22360274;0.08766807;-0.2389568;-0.034845416;0.08569734;-0.10638039;0.0025029993;-0.29792213;0.015357971;-0.081371136;0.0007229828;-0.19834946;0.045547374;0.047403656;-0.18389119;0.0831286;0.012336199;-0.1129855;0.10621635;-0.011424936;0.09717801;-0.13111287;0.08147788;0.0043834834;0.18765742;-0.13618927;0.10132274;-0.3058892;0.13853905;0.1639928;0.053995565;0.11956815;-0.06726915;0.02063472;-0.0155993635;0.11565076;-0.052802715;-0.109181724;0.057869583;-0.10711169;-0.12663956;0.06875104;-0.04655511;-0.07974864;0.0036776252;0.17307118;-0.09793178;0.016407654;0.092851534;-0.14146408;0.2752964;-0.118596405;0.07607745;-0.023187721;-0.11768671;0.023492206;0.08267156;-0.08767403;-0.05434622;0.08666044;-0.079963766;0.06656853;0.035965517;0.17320512;0.015067162;0.014149033;0.028156275;-0.093013264;0.1403457;0.08037357;0.10797477;-0.042891897;-0.025484575;-0.0017925892;-0.14722514;0.024665851;-0.1597591;0.056546118;0.04295733;-0.20183691;0.12668371;-0.11132203;-0.045393538;0.32678196;0.10487834;-0.002629676;-0.21523066;0.18714818;-0.049643714;0.087236926;-0.064357854;0.06596862;0.1070906;-0.19876663;-0.007761225;0.072139084;-0.07862723;-0.025847139;-0.10387506;-0.042300716;-0.06277944;0.05995179;-0.08584435;0.07674129;-0.055219207;0.10513623;0.21036787;0.02460605;0.052044053;-0.0151754785;-0.027652724;-0.18318817;0.043735925;-0.007593127;0.16845019;0.03518575;0.0056338515;-0.11383326;-0.09314185;0.13688505;0.048768762;-0.03346229;0.11150079;0.06514789;-0.022036139;-0.16493593;-0.06837603;0.01571416;-0.028738;0.08562437;0.16772702;-0.054838605;-0.16192651;0.03850169;-0.12392051;0.24541114;-0.17274927;0.05526492;-0.055099066;0.226241;0.13192222;-0.08940201;0.03831738;0.10645096;0.048335053;-0.020054137;0.18420058;-0.13912325;0.0947663;-0.077529274;0.15554135;-0.031049185;-0.14322498;0.0123163145;0.055259235;-0.16086808;0.04775943;0.08761787;-0.30275238;-0.031450674;-0.0018738983;-0.124820165;0.050826505;0.033470005;0.056997538;0.042661637;0.15512836;0.17096569;-0.019456813;-0.111194246;-0.07398921;0.09811028;0.0649841;-0.07943135;0.0011259769;0.000104475126;0.05719046;-0.040968426;-0.15306029;0.033765156;0.051717155;0.17380002;0.0022423235;0.0013810891;-0.025285546;0.14422816;0.08574038;-0.011156511;-0.095173165;0.061625227;-0.038840644;0.028234567;-0.015539114;-0.042428367;0.012085044;-0.10539408;0.20162372;0.09275409;-0.18663608;0.059519373;-0.023426004;0.021757679;0.024202839;-0.07252709;-0.14752631;-0.19215772;-0.08727173;-0.075194016;-0.083737776;-0.18115424;0.01368624;0.12484769;-0.1443181;-0.20648836;0.07257637;-0.070685424;-0.036486544;-0.11935578;0.17165805;0.018063417;-0.026055126;0.059441622;-0.040495563;0.008677646;-0.12339354;-0.081811376;0.10002165;-0.021444442;0.08690938;0.06625965;0.12373733;0.13966402;-0.11786837;0.09089265;0.05112075;-0.1568706;-0.030329859;0.019756386;0.057892658;-0.05747928;0.012019334;0.12109122;-0.17672908;0.08444095;0.0017697352;0.16558021;-0.030170823;0.038254634;-0.08410776;0.038957015;-0.100457445;0.014204792;-0.20315519;0.04023085;-0.25833583;-0.11626065;0.027446697;0.0034509227;-0.16300718;-0.024555273;-0.061839078;0.10395363;-0.12879509;-0.08977234;0.055814616;0.052903287;-0.06723228;-0.1316263;0.016407263;0.11325361;0.08233761;0.053613488;-0.12143058;-0.09285417;0.024264233;0.07376549;0.016431253;0.11358631;0.045590017;0.025835391;0.068756334;-0.0033699246;-0.278027;-0.12310989;-0.08563727;0.055837292;-0.06622874;-0.082084864;-0.12572229;-0.09099666;0.060654577;0.19726641;0.089886054;0.08345629;-0.097749546;0.025346491;-0.08146697;-0.026743595;0.043530572;-0.11438214;0.12972686;-0.04778068;-0.2671177;-0.010277692;0.19832532;-0.19929376;-0.19604735;-0.0064744516;0.1343927;-0.086777486;-0.09417212;-0.023230754;-0.09513034;0.009655424;0.11153554;-0.04679008;-0.04751247;0.15412813;-0.19132096;-0.005571539;0.0331039;0.08752412;0.014112492;-0.11124882;0.13454321;-0.042436197;0.12516414;-0.028085157;-0.17384434;0.04303714;0.07366261;0.10389391;0.03027327;0.103926286;-0.013180122;0.054459162;0.07603824;-0.15434757;-0.088983364;0.10900662;-0.13244346;0.10306501;-0.15792039;0.03287151;0.10252379
0.14527874;0.05033207;0.08206816;0.09791473;0.13541345;-0.09346593;-0.15291457;0.046554882;-0.16399075;-0.16199961;0.23398924;0.08455535;0.07382135;0.0154056605;-0.0005747986;0.055889506;0.010043809;0.24179065;0.0016903768;-0.08872214;-0.1153498;0.06546509;0.12051454;0.10176805;-0.03548943;-0.0098539395;0.071573034;-0.117138326;-0.03878952;-0.021844083;0.1370972;-0.14033563;-0.01201824;-0.025860924;-0.1010849;-0.027165318;-0.027432151;0.0761141;0.028521217;-0.029289724;-0.02180411;-0.16544878;0.051938538;-0.064225525;-0.0036420608;0.20950422;0.061913155;0.0050453483;-0.054381344;0.12850077;0.029881414;0.1236939;-0.18147919;0.18187568;0.06844736;-0.17866307;0.05556031;0.047343045;0.076210715;-0.006471162;0.03325227;-0.19103052;0.13181236;0.090971805;-0.061852407;-0.02752132;0.06379647;0.035420056;-0.0006524008;0.07346554;0.020837918;0.015099887;0.06760962;-0.03334473;-0.022897048;-0.00627748;0.10579254;0.023820087;-0.13184677;0.09928793;0.010109742;0.07864688;0.17516817;0.12087819;0.049217187;-0.06224545;-0.008272778;-0.021114063;0.0890928;-0.04800527;-0.080172345;-0.049212933;-0.11056432;0.02306701;-0.04661448;-0.33894497;0.08852261;-0.1477878;-0.003721241;-0.032597113;-0.13764212;-0.011894404;0.14250399;-0.070084214;0.0948956;-0.060623076;-0.10047251;-0.03476593;-0.0907969;-0.08971788;-0.0022846253;-0.07806145;0.118994586;-0.106277265;0.012262332;0.015510516;-0.15652898;0.11526947;0.10785936;-0.12890615;0.09501412;0.093962245;-0.0060640136;0.06963201;0.198881;0.08303268;-0.03457043;0.048852425;-0.099141784;0.023375597;0.073637605;-0.33051437;0.07916793;0.032125797;0.05831077;-0.084184326;0.19644156;0.1607249;-0.12011517;-0.094298795;-0.00073223596;-0.09194882;0.07474072;-0.098160245;-0.14160268;0.0009313458;-0.07613906;-0.051080123;-0.13254733;0.13178265;-0.07776623;-0.08391963;0.10378357;0.24963254;0.10910434;-0.119260564;0.10297322;0.07503687;0.13102421;-0.034770265;0.062698424;-0.09251415;-0.026558787;0.15982349;-0.03226296;0.11330986;-0.0020948122;0.11989188;0.071810536;-0.1747854;-0.075951;0.1827422;-0.07428133;0.056469284;-0.16533984;-0.067184284;0.048085615;-0.0757258;0.11182604;0.09914748;-0.0778692;-0.096982345;-0.021017192;-0.13907057;-0.15855971;0.010258792;-0.06810982;0.021162258;0.030546213;-0.049145684;0.0081247315;0.040927842;0.09630039;-0.04675872;-0.18496093;-0.012974419;0.14628386;0.19386359;-0.044748433;0.00987699;0.03103987;-0.07989216;-0.16478425;0.034321908;-0.104392506;-0.110120095;-0.17142457;-0.07148609;-0.06924782;0.13101366;-0.17805475;-0.09940013;0.022361936;-0.054086212;0.018724976;-0.09747026;-0.08489888;-0.10820189;-0.20780523;-0.07479493;0.24935211;0.01638903;0.00912007;0.23690788;-0.019483505;0.021617262;-0.16656673;-0.1591892;-0.008570577;-0.050813816;0.06170838;-0.08591677;0.057025645;-0.21978743;-0.04549891;0.13083932;-0.14046536;-0.06493956;-0.20161302;0.16786148;-0.07813999;0.08379075;-0.1670961;0.13414723;0.15878302;-0.21350779;0.08289833;-0.04041925;-0.06580559;0.14161216;0.06905385;0.0068710097;-0.03143912;0.042760056;8.6698434e-05;0.22723018;-0.062575705;-0.10500301;-0.16967559;0.05284402;0.2029555;-0.008278883;0.023224652;-0.056292538;-0.1033413;-0.045703664;0.1313069;0.0760342;-0.09167874;0.06712274;0.07979563;-0.05791567;-0.05666745;-0.1698836;-0.044076953;-0.00649099;0.1593046;0.013673442;-0.117763884;-0.009556596;-0.06323004;0.21890679;-0.13655986;0.019329423;-0.07314918;-0.11696273;0.108959116;0.07370834;0.030659769;-0.06901369;0.12049719;-0.108342096;-0.02140195;-0.0034399382;0.027785925;0.07705667;-0.08071255;-0.032184377;-0.0007054212;0.15365455;0.08289623;0.057992678;-0.025200488;0.0038474547;-0.109874204;-0.13365346;-0.04395381;-0.028464038;-0.10741125;0.060836505;-0.0835194;0.07152074;-0.08904509;-0.087741554;0.18358621;0.11553356;0.14462414;-0.15488361;0.13268836;-0.010648347;0.037475016;-0.028534938;-0.06398299;0.2300044;-0.12719457;-0.10128621;0.017864205;-0.038941838;-0.09099997;-0.07662351;-0.044367623;-0.018130708;0.0331492;0.043165077;0.027983202;-0.0065463507;0.0715311;0.18945855;0.11693959;-0.0058441726;-0.089430556;0.026448857;-0.16286625;0.06290513;-0.016476745;0.24716155;0.02000546;-0.002058081;-0.052304003;-0.13843645;0.07484971;0.21614087;-0.030440442;0.11783525;0.12892723;-0.16448224;-0.1253725;0.0527381;-0.020961404;-0.03735518;0.25219995;0.062197424;-0.1312489;-0.23905858;0.09705853;-0.13704184;0.21627049;-0.15989156;0.021988405;0.030856824;0.22587691;0.0172472;0.05795844;-0.06826804;0.1349165;0.043776795;0.013772326;0.12052395;0.068521455;0.048599675;-0.039287347;0.07359874;-0.12777522;-0.05846083;0.0020020627;0.15648031;-0.10411826;0.07189153;-0.018039959;-0.23184608;-0.14948508;0.12488653;0.0054632565;0.07472831;0.026220309;0.07666484;0.110223375;0.119059294;0.106563404;0.06781082;-0.06411547;-0.072604276;0.06258146;-0.06339081;0.01443554;-0.02286029;0.009744106;0.08418736;0.050976466;0.011851923;-0.022663709;0.09024441;0.17763275;0.020550711;-0.054383762;0.05205637;-0.027938584;0.18802375;-0.11644092;-0.098184876;0.071013406;-0.0028822077;0.03806466;-0.08276773;-0.18638505;0.030623224;-0.12775451;0.07722322;-0.023861155;-0.0872733;-0.016864814;-0.042020362;-0.091174655;-0.015277936;0.08452093;-0.031098912;-0.21264419;-0.054822944;-0.09519445;-0.11820878;-0.11003223;-0.04039849;0.12338059;0.018103989;-0.07629962;0.006859487;-0.043975446;-0.10999425;-0.04089499;0.21353821;0.08534964;-0.1889977;0.1048848;-0.054983355;0.02665804;-0.039754007;-0.058295365;-0.033986297;-0.08299208;0.0051678773;0.16972463;0.110141836;0.1275857;-0.022409188;-0.0037568577;-0.023034511;-0.06494186;0.018168662;-0.054044902;-0.03705744;-0.023185274;-0.007567944;0.1631164;-0.08023928;-0.13256542;0.0060192863;0.111344784;0.0042677023;0.077377595;0.0741348;0.18761161;-0.13438609;0.006795602;-0.18044668;0.08402691;-0.08992655;-0.031029537;0.06254479;0.1758521;-0.033553608;-0.10047831;0.014804204;0.26394308;-0.09612397;0.05499906;0.076847546;-0.019579962;0.0015392054;-0.13640176;-0.041883487;0.103942804;-0.015150367;0.07910391;-0.20297024;-0.08578088;0.028868819;-0.0377204;-0.090154245;0.08926151;-0.059143636;0.12474037;-0.075370446;-0.0017876027;-0.13150673;-0.16390459;-0.14010963;-0.0063726082;-0.032717515;-0.008221488;-0.025315324;-0.053671826;-0.029748106;0.1929432;0.059884954;0.09765549;-0.096751735;-0.014090826;-0.043542285;-0.019790003;0.08929068;-0.08253914;0.10466425;0.00010756763;-0.27332947;0.072333924;0.041572142;-0.14713527;-0.03566401;-0.060828663;0.13201246;-0.02730029;-0.07469308;-0.06890862;-0.08732964;0.05429322;-0.053922504;0.107449934;0.08016465;0.091232695;-0.11083272;-0.057611942;0.035852265;-0.029030733;0.08457077;0.008962816;0.20696373;0.018889004;0.22037305;0.114186704;-0.042127118;0.014076617;0.10022106;0.16299698;-0.07576026;0.023512585;-0.04012172;-0.03970915;0.100810125;0.0055295946;-0.15540828;0.20409591;-0.221748;0.13112314;-0.07360699;-0.060402002;0.21681802
0.20940503;-0.017448181;0.085493065;0.16006409;0.07562986;-0.1499552;-0.0164079;-0.14420271;-0.060048815;0.03533228;0.13801852;0.10299397;0.06827442;-0.09132144;-0.04054035;0.022188617;-0.04829223;0.099491954;0.06422566;-0.06970112;-0.05987754;0.10265335;0.10279094;0.10547205;-0.07122077;0.0046008895;0.03985802;-0.06697797;-0.08431551;-0.05364372;-0.031232473;-0.04360396;0.16764773;-0.030148344;-0.15091304;0.107347295;-0.11708898;0.13033809;0.04396295;-0.046906814;0.028836176;-0.056802325;-0.050466135;-0.028943907;-0.07406522;0.08624646;0.07537843;0.08106647;-0.02470276;0.03198452;0.032214254;-0.0010264481;-0.19471452;0.12289369;-0.09956223;-0.2140432;0.14428069;0.034926817;0.03791218;0.008982257;0.07433152;-0.18465224;0.14412916;0.054766316;-0.10596627;-0.10326719;0.013326536;-0.06405212;0.10814865;-0.006658666;0.15556173;-0.08216442;0.028687015;-0.14728285;-0.08291445;0.07945411;0.1687151;-0.14247769;-0.071853094;0.14382644;0.054450564;-0.031130388;0.19953729;0.1265468;0.021665093;-0.113869205;-0.055229962;0.06214764;-0.018392952;-0.07768072;-0.2857789;-9.505637e-05;-0.2163063;0.04804938;-0.07365771;-0.21129738;0.012193516;-0.114533395;-0.051047895;-0.05439674;-0.10236963;-0.0110591175;0.10612716;-0.0014167733;0.054347638;0.05525361;-0.054518618;-0.16246906;-0.1282203;-0.10426161;-0.00061600027;0.055993985;0.19751878;-0.017652813;-0.026674094;0.08142813;-0.22390503;0.0643568;0.10955102;-0.11409407;0.08972508;0.15158844;0.030407;0.14698152;0.03110915;0.16574426;0.06668414;-0.009127729;-0.12630343;-0.029879808;0.12876207;-0.15758556;0.15895543;-0.101696864;0.20540638;-0.105373226;0.11246158;0.13009287;-0.12912317;-0.06828269;-0.018011127;-0.028079037;0.15439728;0.05388238;-0.09970529;-0.014212615;-0.03581434;0.034589607;-0.08864007;0.0680794;-0.07858013;-0.017587615;0.004418241;0.18913002;0.04771545;-0.22938061;0.0674046;0.079410255;0.17656118;-0.06296712;0.12587659;-0.073878124;0.12751889;0.2647772;-0.044354204;-0.010917757;0.007056309;0.06523899;0.0328194;-0.20863372;0.02553973;0.07048989;-0.035189316;-0.12871571;-0.13810621;-0.24107836;-0.021862734;0.007227017;0.08286007;0.20134087;0.082130246;-0.09508043;-0.053493813;-0.09397147;-0.1194113;-0.054703802;-0.049339987;0.004825789;-0.07834797;0.05253947;0.018555844;0.027632093;0.07136022;-0.11729562;-0.13634506;-0.1664644;0.1205194;0.30120015;0.081660934;0.04539983;-0.011236018;-0.03676668;-0.13923766;0.036622904;-0.12615214;-0.019063579;-0.20336711;0.025224827;-0.11067826;0.16725253;-0.15454635;0.014624809;0.031632524;-0.009678954;0.04340077;0.017782526;-0.053980365;-0.006327117;-0.15434368;-0.111252114;0.13389936;0.1824075;-0.030952977;0.18004856;-0.08789373;0.17388844;-0.14198877;-0.06873834;0.03667678;-0.066045806;0.08880328;-0.20992672;0.13514057;-0.19846173;-0.071722105;0.16224374;0.023865752;-0.04734879;-0.3125388;0.13249286;-0.18122993;-0.033663232;-0.26324043;0.06626861;0.1585978;-0.10198899;-0.024298327;0.04590486;-0.02476151;0.044086535;0.0738399;-0.011638069;0.13270786;0.09707992;0.018654004;0.20313612;-0.08005941;-0.030753564;-0.29284865;0.09811868;0.0965605;-0.03941642;-0.013237026;-0.04453962;-0.05520143;0.0010301195;0.089938715;0.09895417;-0.058076896;0.15357992;0.052529432;-0.03538991;0.077835165;-0.15769981;-0.16037805;0.009871229;0.08353996;0.044592146;0.031648505;-0.024143508;-0.07038858;0.18713392;-0.16301939;-0.017571464;-0.018496158;-0.15587191;0.016957313;-0.0024110395;0.008029922;0.016475825;0.21230724;-0.20392133;0.101766996;-0.028009523;0.15046132;0.11240256;-0.10306548;0.032042246;-0.10747842;0.08029376;0.046231702;0.028922632;-0.11169297;-0.0059285644;0.022417279;-0.11727118;0.033275656;-0.060506392;0.050139792;-0.08381893;-0.15879728;0.027333055;0.013722971;-0.032166675;0.33064264;0.03422487;0.21089642;-0.17297518;0.047763195;-0.021914963;0.14122142;-0.11988837;-0.046840157;0.13894784;-0.16820316;-0.05638296;0.09955003;-0.044481784;0.0539035;0.059682973;0.07399319;-0.0914971;0.10300939;0.10795359;0.072845705;0.020697858;0.04857948;0.023244435;0.025671106;0.10737206;-0.06797356;-0.042389207;-0.11039804;0.08478065;-0.15127733;0.22164269;0.07001429;0.12633859;-0.062691025;-0.1428149;0.12016935;0.23546466;0.056365084;0.04619998;0.042586293;-0.073563516;-0.12194024;-0.055055562;0.035523433;-0.07870154;0.17882684;-0.06057133;0.0059839333;-0.24560171;0.122749336;-0.10178031;0.108008094;-0.109527394;0.12682322;0.050248694;0.18131612;0.12792423;-0.0037048066;0.034343116;0.1360973;0.09648278;-0.022785189;0.21176608;-0.091203004;-0.047365848;-0.010730817;-0.017134948;-0.08436426;-0.17873125;0.10062875;0.13727671;-0.016868394;0.11774149;0.012795308;-0.35644853;-0.05853731;0.015707865;-0.01427036;-0.00063054427;0.0761805;0.16171068;0.06699295;-0.01339333;0.015748123;0.029787315;0.041423265;-0.038721822;0.033499587;0.07393157;-0.09574426;0.041128986;0.03327701;0.072321914;0.10901997;0.09438227;-0.104986615;-0.024330746;0.2523487;0.08517556;0.09598185;0.070941314;0.06305635;0.048981354;0.020527273;-0.09669884;-0.027517436;-0.035583895;-0.031935215;-0.16636667;-0.1724752;-0.008626275;-0.013038218;0.10979566;-0.04990434;-0.22529846;-0.040058866;0.004363199;-0.10739262;-0.044717498;0.0023015607;-0.008395246;-0.15986265;-0.13043968;-0.10700626;-0.030516094;0.045300193;-0.06188105;-0.015637064;-0.10311222;-0.15990427;0.028474307;-0.06823842;0.03180922;-0.074577585;0.16702072;0.12427841;-0.06647785;-0.061806906;-0.09249935;-0.05469877;-0.01214522;0.05281424;0.057870094;-0.10038131;0.09444307;0.1369983;0.0661263;0.20668277;-0.025698302;-0.009982335;0.013151783;-0.22628608;-0.09188969;0.12687302;-0.024769042;0.0038302215;0.073724195;0.21601151;-0.07286841;-0.109468035;-0.099888824;0.15513068;-0.07640851;0.085861616;0.00041862394;0.032164328;-0.12549838;0.06460288;-0.12750068;0.17633781;-0.23704052;0.07212907;0.024166815;0.08459232;-0.10116168;0.063525535;-0.056479126;0.12246915;-0.121641375;-0.02717025;0.19317383;-0.020716077;0.015751708;-0.09756936;0.12861912;-0.0011784921;0.010692207;-0.0019373421;-0.06914079;-0.043792624;0.11203346;0.12955615;-0.01622103;-0.069775485;-0.021361753;-0.057681896;-0.03293028;0.04504278;-0.04782235;-0.060065467;-0.07382227;0.04457596;-0.0977218;-0.16531268;-0.0006007571;-0.06262939;0.020061718;0.06835834;0.014495078;0.06442072;-0.041432656;-0.05089956;0.018617902;0.059737053;0.13946237;0.03455451;-0.08860697;-0.028461853;-0.0944704;0.08394528;0.22231638;-0.12810296;-0.059229694;-0.08662281;0.14380355;0.019004187;-0.07501071;0.017660063;-0.26930347;0.036533386;0.067953534;-0.06923647;0.0684061;0.15485317;-0.15223382;-0.14375485;0.014258961;0.018140987;0.09374263;0.03053154;0.08739287;0.065759614;0.2404987;-0.032910556;-0.15103486;-0.011120719;0.005868588;0.23611519;-0.044016458;0.12008142;0.05063846;0.1357517;0.087033436;-0.18659787;-0.021894045;0.13198338;-0.044620223;0.068199165;-0.11989208;0.041856904;0.14610223
0.18434681;-0.021525897;-0.031013988;0.18389097;0.19126101;-0.06869315;-0.044763844;-0.033761684;-0.10820047;0.04027433;0.12426285;0.13809626;0.10733167;-0.13075867;0.050205346;0.03282054;0.09260603;0.13998903;0.0784209;-0.07089725;-0.0066344785;0.044234566;-0.0033085037;0.15931389;-0.056611795;0.02922606;-0.10985439;-0.043899145;-0.095935695;-0.06490993;0.07698965;-0.112536035;0.058760654;0.015332359;-0.06658813;0.1500921;-0.0013668633;0.10350359;-0.087442726;-0.010943145;0.0853617;-0.054328963;0.09013484;-0.036697313;0.0014563339;0.09898644;0.042705067;0.049098607;-0.07434783;0.15820561;0.10782112;0.005107183;-0.10632134;0.1465712;0.032527074;-0.053484205;0.06821995;-0.06795442;0.11314174;0.012181555;0.037871737;-0.11070142;0.07662882;0.089642;-0.15319675;-0.09513335;-0.028927438;-0.08746987;-0.026189163;0.06616773;0.069288775;0.016556287;0.07801079;-0.1016057;-0.11521955;0.09717215;0.16012077;-0.14793852;-0.042440996;0.21704973;0.12414507;-0.004819886;0.1267895;0.12984972;0.014218313;-0.039950334;-0.0887;0.04711662;-0.03204868;-0.023301203;-0.19947365;-0.13687123;-0.20553087;0.045959465;0.03279675;-0.23249616;0.0015231812;-0.10505605;0.020234631;0.0025479498;-0.044522457;-0.06421903;0.17177089;-0.0054807183;0.027476074;0.023092076;-0.08975222;-0.15405646;-0.10376688;-0.06398042;0.11631981;-0.055483505;0.16585712;-0.02197373;-0.07315749;0.0155401705;-0.08582565;0.037462153;0.11519001;-0.07244339;0.012337118;0.014280743;-0.0099003045;0.17643195;0.11998803;0.18282999;-0.030586721;-0.08724302;-0.12711552;0.025499012;0.00074195914;-0.23416546;0.14930364;-0.04750465;0.15710245;-0.029422475;0.22752428;0.061743375;-0.13527821;-0.03211538;0.10884749;-0.111460574;0.15537801;-0.052245345;-0.109359786;-0.012333935;-0.121345825;0.09151714;0.023663182;-0.01998058;-0.116271466;-0.05833808;0.048273813;0.089114174;0.05313121;-0.09826173;-0.049913015;0.0061911987;0.28666896;-0.05015148;0.044831898;-0.009180203;0.09507358;0.2143189;-0.13071372;0.045507234;0.06465018;-0.030585885;-0.0065215128;-0.03709953;-0.07499079;0.28034753;-0.065232344;0.027920747;-0.022014294;-0.054279674;0.028014738;-0.14209214;0.09094662;0.2578208;0.010910249;0.018423935;-0.067451134;-0.13668613;-0.17472853;-0.121702224;-0.067588225;-0.060083847;0.040595457;-0.023283945;-0.05560631;0.069215514;0.120355494;-0.14466767;-0.18511675;-0.07016012;0.15083446;0.32919753;0.14264429;0.04545915;0.031182531;-0.092457816;-0.19890243;0.01626463;-0.17349815;-0.099803746;-0.050959524;-0.014028109;-0.09056003;0.23016773;-0.064148344;0.010494222;0.05391957;0.04202259;-0.060170222;-0.051055815;-0.16550069;-0.030547775;-0.05552583;-0.17936717;0.23009561;0.017560048;0.07311211;0.26628205;-0.07436449;0.005357331;-0.10691125;-0.05723913;-0.01099805;-0.008901621;0.111892045;-0.27131945;0.00074439467;-0.18065237;-0.026273526;0.13658673;-0.11454789;0.018115483;-0.35684896;0.18333271;-0.12105348;0.049102608;-0.2162646;0.035175864;0.11404884;-0.097170234;-0.04567015;-0.021784138;0.040266868;0.056806978;-0.019891175;0.0123762125;0.084041215;-0.025625456;-0.033293616;0.23102893;-0.022214679;-0.06109949;-0.2947673;0.071146235;0.120722376;-0.06413352;0.06704486;-0.027060863;-0.03388394;-0.014519526;0.111718275;0.037913077;0.0017689228;0.13549164;-0.056703024;-0.09710168;0.020416358;-0.23124063;0.018920105;0.08817653;0.051616136;-0.096481316;-0.12136421;0.037426006;-0.09377721;0.08440007;-0.121995986;-0.06701056;-0.050627515;-0.1706731;0.038025;0.009729028;-0.12413602;-0.122908175;0.20036133;-0.13130814;0.11314882;0.024493987;0.05601705;0.0493475;0.005760026;0.019043032;-0.08695661;0.046855908;-0.019830516;-0.00540823;-0.11671171;-0.1053189;-0.04818678;-0.058877062;0.08191411;-0.019584728;0.06769679;-0.06390799;-0.110203;0.14561027;-0.10240811;-0.05839242;0.27801493;0.15534191;-0.010883258;-0.24187756;0.17081302;-0.10141555;0.028927717;0.025442166;-0.042755045;0.0673545;-0.06849932;-0.09766724;0.13398267;-0.04983143;-0.040954214;-0.0071138274;0.10854182;0.017238064;0.20437421;-0.033545975;-0.04970649;0.036042344;0.1434341;0.19989581;0.05443526;0.06977291;-0.00791318;-0.019695051;-0.07959505;0.138624;-0.07206785;0.21380562;0.043664694;0.027715042;-0.09096758;-0.1295745;0.07262525;0.08832402;-0.012052822;0.041705698;-0.0020271877;-0.022870822;-0.038901392;0.008590113;0.04638308;-0.16726905;0.16016367;-0.049790513;-0.10900408;-0.27320266;0.26327804;-0.15894835;0.16591969;-0.10355918;0.10953777;0.0044629904;0.23271272;0.22074284;0.033503294;0.053952932;0.011985583;0.023804514;0.082646966;0.19011334;-0.038429614;0.06395885;-0.06530874;-0.041584503;-0.054314446;-0.059913054;0.0902554;0.12503538;0.0087699145;0.08000418;-0.06911255;-0.32423654;-0.07428452;0.043535724;-0.10218057;0.022979088;0.13206181;0.10519096;-0.0022552328;0.0018295352;0.018901657;0.07722902;-0.03807116;-0.08603742;0.16379589;-0.048146807;-0.11585001;0.012812756;-0.065099634;0.09469666;-0.043650206;-0.00905353;-0.021926273;-0.042426094;0.13570142;-0.021937786;0.009920818;0.08908451;0.08688663;0.07055917;0.017642198;-0.04924375;-0.11484081;-0.09606393;0.11750457;-0.25910902;-0.1462852;-0.096923;-0.10550267;0.22243984;0.0054736426;-0.087780185;-0.11846014;-0.021006128;-0.095285386;0.056933507;0.022100868;0.07842031;-0.10839174;-0.10787759;-0.06702566;-0.09697332;-0.005117225;-0.025522517;0.08669729;-0.044284075;-0.10468071;0.022465196;0.024790125;0.017598253;-0.13362074;0.12318972;0.06723149;-0.060599044;0.04296838;-0.00836716;-0.05065878;-0.1385024;-0.05304841;0.04732354;-0.058172483;0.03221677;0.037115436;0.06550085;0.14704598;0.06771138;0.001157881;-0.061343655;-0.08728298;-0.11242684;0.08230081;-0.12212598;-0.014672378;0.092943005;0.040754836;-0.036368698;-0.14681359;0.012160952;0.0850543;0.063999385;0.061614268;-0.03822982;0.16866915;-0.11640411;-0.016119467;-0.17822823;-0.030856587;-0.22417927;-0.10648865;-0.020902447;0.16986233;-0.05383378;-0.0120826075;-0.025177795;0.14164284;-0.19963504;-0.088831685;0.15436654;-0.1313758;-0.0038207574;-0.18418561;0.19219926;-0.033316102;-0.045187756;0.05720268;-0.026957592;-0.05740009;0.058808114;0.09971034;-0.007784144;-0.03766651;0.07518431;0.13181777;0.06922915;-0.03218786;-0.08453381;-0.17451915;0.014157911;0.046392564;-0.022963988;-0.10831312;-0.063928485;-0.10586878;0.05956661;0.2613837;0.060168378;0.05931089;-0.09010295;0.018671168;-0.030414725;-0.07719271;0.11040377;-0.09671462;-0.029362902;-0.06770746;-0.31968257;0.08239035;0.07806781;-0.25936684;-0.06050666;0.0023334322;0.10723781;-0.11989184;0.0032546532;0.019072;-0.22442676;0.08430462;0.062438916;-0.038618356;0.04272113;0.05215692;-0.22974457;-0.15158278;0.13682207;0.07329456;0.10152599;0.0016249736;0.1857888;0.10348729;0.1468946;-0.04600434;-0.18304802;-0.031987835;0.11624621;0.28959683;0.091141336;0.012676366;0.04735142;0.07859327;0.036220085;-0.1319487;-0.029801937;0.19356263;-0.10585478;0.16592486;-0.13163486;0.08886243;0.13337518
0.14332494;0.08779255;-0.020171318;0.12980624;0.01715161;-0.05185526;-0.10762278;-0.06741521;-0.007499959;0.00037465378;0.023203997;0.049722202;-0.009666125;-0.054317474;0.04647711;0.096621394;0.06412105;0.069342785;0.044878498;-0.0040886723;-0.093613535;0.10806048;0.019351048;0.17698373;0.036572855;0.04562726;-0.10111726;-0.073825195;-0.108264275;-0.112794906;0.05057805;0.023979882;0.10072778;0.00394564;-0.14244483;0.10506226;-0.0240436;0.07561756;-0.1279607;-0.11698933;-0.0002210761;-0.020568816;-0.03806108;-0.010099898;-0.01991666;0.10252175;0.10028628;0.069755614;-0.14476809;0.18488851;0.022264792;0.07428045;-0.20057665;0.11469124;-0.0066651334;-0.03529176;0.014805593;0.054952655;0.05391767;-0.1497378;-0.083397865;-0.14359127;0.016805543;0.07634781;-0.043793697;-0.036632553;-0.0046586357;0.040576205;-0.0047393497;0.0023990618;0.059392802;-0.10479852;0.14146471;-0.14159343;-0.02670787;0.006642931;0.20248237;-0.16831279;-0.10522274;0.1044086;0.07844917;-0.07518875;0.0729512;0.14340888;0.10497491;-0.14468654;0.005972486;-0.052947704;0.07083056;-0.05661937;-0.23319297;-0.10019854;-0.15658906;-0.047484647;-0.0061831013;-0.25877243;0.11794863;-0.11870274;0.083246894;-0.088946015;-0.16230397;-0.020409757;0.111260556;-0.078007154;0.16495539;0.09932902;-0.11215331;-0.13565257;0.049025107;-0.06286056;0.11952605;-0.11957838;0.20110969;-0.01583685;-0.025426794;0.080448024;-0.22352092;-0.03640068;0.17158695;-0.11131515;0.08087583;0.07288676;0.04176053;0.11869069;0.15148011;0.06529261;-0.014272756;-0.051196195;-0.23155326;0.11779627;-0.014555506;-0.28850546;0.029337538;-0.08013761;0.18566002;-0.053419154;0.29255146;0.00011110319;-0.15181604;-0.111184284;0.14963645;0.0069439486;0.15530896;0.019080246;-0.101941526;-0.034430306;-0.03027669;0.09635418;-0.13120632;-0.0029349942;-0.04210295;-0.13981655;0.08311714;0.16336505;0.14580669;-0.08892257;-0.09502667;0.09016924;0.2648778;0.0075490233;-0.099193946;-0.07271217;0.12407259;0.07223302;0.017070051;-0.087246895;-0.07077139;-0.10146951;0.019305736;-0.061854552;-0.071327776;0.271848;-0.042564727;0.010969837;-0.041177187;-0.15259634;0.050980855;-0.056946706;0.0022753782;0.21572274;0.023246188;0.04398543;-0.08201942;-0.04795557;-0.21743564;-0.041418828;0.08497376;-0.11998586;0.09586355;0.0026204076;-0.0767865;-0.012239852;0.12409702;-0.13545382;-0.1328715;-0.07113888;0.11499555;0.14982189;0.03336596;0.025130639;0.044973083;0.00045575385;-0.15602413;0.12757783;-0.13027684;-0.009223737;-0.086853884;0.013764197;-0.088622294;0.14970618;-0.01433303;-0.026378542;0.085535735;0.051613525;-0.03403528;-0.051895317;-0.17182349;-0.16448297;-0.14612547;-0.027113171;0.15136114;-0.013842279;0.052376155;0.13396573;-0.07205669;0.1107284;-0.008773852;-0.08235151;0.03452792;-0.18376757;0.08476868;-0.21580549;0.08814033;-0.1770805;-0.06563443;0.10291186;-0.09497725;-0.036452595;-0.29838133;0.03264406;-0.08827625;-0.004718406;-0.20761718;0.036687195;0.1474918;0.051278796;-0.014757043;-0.008380811;-0.046505857;0.18678132;0.02748252;0.14369017;0.0409529;0.0540704;-0.049762975;0.27879545;-0.015052937;-0.04273792;-0.25955763;0.08582127;0.097945586;-0.04965012;0.11307614;-0.114209324;-0.06473681;-0.10613722;0.15378906;-0.08799807;-0.024596334;0.10951598;0.07014133;-0.022799842;-0.0088079255;-0.17177635;-0.11886871;0.05078806;0.11997732;-0.08857374;0.0050846078;-0.059716843;-0.007502574;0.14956836;-0.11885198;0.037719674;-0.07677198;-0.12863389;0.062189125;0.031975947;-0.09530314;0.009736839;0.17708927;-0.0028476287;0.16946739;-0.018736143;0.006508189;0.1661511;0.057198193;0.1022047;-0.17714195;-0.0052009374;-0.055124454;0.08212336;-0.006647205;-0.065154046;-0.043592803;-0.101348154;-0.055533335;-0.057658974;-0.034066506;-0.025841102;-0.28074124;0.17814644;-0.08756583;-0.036579695;0.15623246;0.16264893;-0.009900608;-0.25288355;0.08382482;-0.018191615;0.07298036;-0.07249325;-0.028368007;0.1324468;-0.101519965;-0.056081578;0.028695395;0.0033564325;-0.087202795;-0.044405024;0.21171553;-0.07401271;0.106054835;-0.018934691;-0.017023213;0.02698446;0.09139986;0.09108359;0.056506608;0.08241773;-0.03145792;-0.1345866;-0.20161977;0.012366317;-0.05643187;0.13247555;0.1195801;0.095966525;-0.0009826474;-0.119001895;0.113308564;0.09528532;-0.020325672;0.057655953;0.049329493;-0.05688382;0.012019791;-0.03354224;0.03422964;-0.20023605;0.21449731;0.057141393;-0.17551503;-0.17248368;0.30938557;-0.14926225;0.17019075;-0.07727498;0.06419446;0.02529712;0.11799007;0.15356573;-0.03751756;0.07081197;0.07995894;0.07810507;-0.0154094845;0.08310614;-0.005870061;0.16005276;0.0057448396;0.03814338;0.0078005623;-0.07303995;0.013216256;0.15809596;-0.040877342;0.17555611;-0.107661486;-0.33086133;-0.0056254165;0.026324917;-0.045058127;-0.0065522776;0.11662417;0.120355174;-0.07173015;0.04729103;0.058223248;0.19303617;-0.06232769;-0.048786983;0.06203346;0.01938945;-0.12959169;0.043190744;-0.042272523;0.048249237;0.026947249;-0.06662754;-0.14367275;0.007672441;0.14235775;-0.10937917;0.10947975;0.08321239;0.056303065;0.08631565;-0.054439906;-0.04315052;-0.010870647;0.0069341413;0.106924824;-0.2821214;-0.11220861;-0.07744161;-0.017515097;0.18339881;-0.102879494;-0.06959976;-0.03558015;0.048515987;-0.20120157;0.017449772;0.029767426;0.022113482;-0.25324523;-0.119947605;-0.11423512;-0.11157947;-0.04270704;-0.056422323;0.13303842;-0.0802029;-0.14602375;-0.067289814;-0.058231317;-0.083595596;-0.16402894;0.19545867;-0.027631173;-0.14479738;0.07831332;-0.0031394402;-0.09839718;-0.045051992;-0.07961485;-2.2489843e-05;-0.065993264;0.06391777;0.09832911;0.07537552;0.13516738;0.032008696;0.07319041;-0.00860762;-0.022187937;-0.034270145;0.08027805;-0.16011521;-0.15230002;-0.0200097;0.14057425;-0.022358837;-0.0283061;0.04872993;0.087388635;-0.07756839;-0.059174247;0.03101455;0.1858519;-0.11881081;0.020382978;-0.19895071;0.07135549;-0.21545051;-0.10762748;-0.050892547;0.22098894;-0.12611847;-0.021894496;0.031456593;0.22997189;-0.17472611;0.0021854842;0.08241244;-0.10627604;-0.04586203;-0.20822857;0.20442697;0.081150524;0.028678615;0.06199949;-0.08009737;-0.042502098;0.012508396;0.06530167;0.059759557;-0.03248382;0.07577439;0.09808891;-0.020134397;0.083466515;-0.0706334;-0.024249636;0.059927892;-0.07592056;-0.0590932;-0.11888412;-0.03679912;-0.022530783;0.13099238;0.22428818;-0.0658646;0.019955229;0.041911647;-0.055870365;0.09158518;-0.09323522;0.09284854;-0.10713384;-0.01861932;-0.053859252;-0.18691315;0.13680333;0.14954622;-0.17391567;0.09042812;0.0067379954;0.09417128;-0.10176443;-0.008364591;0.043964446;-0.25512853;0.004267408;0.08870064;-0.004616305;-0.14505796;0.15187441;-0.1227557;-0.045229282;0.05085341;0.0388193;-0.041937154;0.024477564;0.076207705;0.054317597;0.15361908;-0.01401942;-0.075925335;0.044924844;0.052105274;0.21194313;0.093586504;0.18982269;-0.04610153;0.10134925;0.054803737;-0.15115537;-0.05857074;0.16477492;-0.20522536;0.05857541;-0.09833876;0.088911906;0.26075548
0.19410665;0.037813783;0.036513478;0.15698268;0.19512711;-0.12537722;0.028497592;-0.02057414;-0.0017048306;-0.017394856;-0.0015632391;0.062486842;0.016547259;-0.16150051;0.016525635;-0.023778146;-0.047152698;0.14512277;-0.04764987;0.08690856;-0.09435276;0.008165531;0.08002609;0.17201552;0.11219533;0.027499067;-0.13151209;0.12021112;-0.10634203;-0.08785946;0.040958058;0.036104966;0.061874367;0.024549058;-0.13368124;0.12881052;0.0066710357;-0.01619674;-0.056977145;-0.056305025;-0.033119213;-0.093954206;0.0065969136;0.063067324;0.036988944;0.1862248;0.025734719;0.047428295;-0.17647249;0.15755334;-0.03571475;0.085895956;-0.27216163;0.1516915;-0.10929726;-0.004091405;0.11141377;0.057002623;0.04254438;-0.14581585;0.005372368;-0.20492022;0.1779059;0.03504949;0.007832608;-0.03720565;-0.04998811;0.090072766;-0.05177215;0.044610687;-0.03032263;0.029653335;0.22623931;0.010819192;-0.09438947;0.07648978;0.19707614;-0.20471616;-0.009945414;0.15349562;0.18976988;-0.009632141;0.030852886;0.098082624;0.18251641;-0.05079829;0.048483353;0.09035327;-0.0249315;-0.053103793;-0.03656653;-0.10453881;-0.19367273;0.04913789;0.07543627;-0.13907132;-0.007399489;-0.09225875;0.097263284;-0.17171463;-0.14421314;-0.09676984;0.11250276;-0.00896047;0.11697151;0.03306972;-0.0011503219;-0.06393733;0.045986306;-0.05709857;0.10521964;0.086572684;0.10080956;0.03290369;-0.011918206;0.051072426;-0.16250782;0.05514572;0.04585085;-0.00536561;0.09493778;0.074891485;0.085785456;0.07249146;0.057513647;0.1723632;0.09842367;-0.090183504;-0.1563616;0.08452657;0.11021878;-0.20220211;-0.07409997;-0.0076608537;0.14640173;0.049667053;0.2641374;0.055531304;-0.048947513;-0.12100358;0.063031755;-0.12884669;0.14487265;-0.027474878;-0.034390327;-0.05219326;-0.033509634;-0.011501978;-0.036705747;-0.014216533;-0.14698753;-0.16066165;0.036139842;0.19963469;0.09515512;0.012837571;-7.9778976e-05;0.08849479;0.23410255;-0.010103701;-0.012839805;-0.010755355;0.13916656;0.0791846;-0.05958566;0.01849032;0.043496568;-0.095002204;0.04270195;-0.015584803;-0.17905651;0.32531875;-0.08314416;0.05138417;0.0013120291;-0.098371305;0.04015871;-0.09494343;0.07327283;0.19955711;0.13563932;-0.020558136;-0.15726501;-0.05575188;-0.14991009;-0.18488154;-0.0062493253;-0.17852528;0.07342153;0.0549664;-0.02854714;0.001771573;-0.016452001;0.020519985;-0.14701746;-0.10531251;0.11032981;0.22599299;0.11220924;0.010288417;0.058472425;-0.03783141;-0.05846984;0.060634904;-0.08374106;-0.08091686;-0.13793331;0.0030095747;-0.07404444;0.23194504;0.026508369;0.07117597;0.10496084;0.05356929;0.090022154;-0.052351974;-0.102950774;-0.1860737;-0.10393075;-0.11537571;0.26913303;0.0060891225;0.121116996;0.19935547;0.060478903;-0.0478987;0.085222684;-0.10765935;-0.03200425;-0.09364887;0.12493438;-0.32569343;-0.037117887;-0.09476212;-0.13163003;0.047698747;-0.16808185;-0.012726357;-0.16339302;0.06295482;-0.09856847;-0.08191759;-0.12218112;0.033847637;0.07065086;-0.045499627;-0.015104118;-0.11842508;0.08259571;0.054747887;-0.031763475;0.10191016;-0.013763059;0.08345802;-0.008533002;0.24871008;0.0665879;0.060972;-0.25660643;0.03189986;0.28340644;-0.010461052;0.14095664;0.010110139;0.028555147;-0.101753324;0.12770377;-0.0038182274;0.11672865;0.15240617;-0.012990619;-0.07472768;-0.033281635;-0.0507645;-0.12959976;0.10100902;0.11526028;-0.032183837;0.010874999;-0.08887787;-0.11585259;0.10378535;-0.1796627;0.0026020203;-0.016800905;-0.22955985;0.07390428;-0.0681119;-0.07221124;-0.11070837;0.3161052;-0.03406779;0.07836528;-0.00921616;0.0746139;0.011357847;0.046033733;0.16152456;-0.15183255;0.13770996;-0.028233921;0.14273366;-0.084213234;0.02521074;-0.16333044;-0.096700944;-0.0023279346;-0.08131807;-0.02947882;-0.046389278;-0.16959594;0.16499133;-0.021343272;-0.05111762;0.15835218;0.15231416;-0.02150605;-0.095584325;0.15120757;0.02199645;0.1310801;0.100586176;0.03278633;0.038667586;-0.01120601;-0.01574062;0.12581061;0.018845798;-0.1057339;-0.056216598;0.24905072;-0.08555581;0.107388824;0.07367396;-0.039099175;0.14668396;0.17711733;0.13001104;0.016891228;0.086751446;0.048075784;-0.049034495;-0.25924775;0.11777935;-0.05577227;0.20412846;0.05927196;0.114879504;0.016144706;-0.105936565;0.065485455;0.030452961;0.018414726;0.14213187;0.0483531;-0.02856354;-0.084229596;-0.17885983;0.034724824;-0.16410539;0.23738319;0.06852405;0.00175691;-0.34161356;0.20714109;-0.20140877;0.13314442;-0.18156986;0.051991027;0.09150197;0.232406;0.1520243;0.06221876;0.102951646;-0.09029959;0.0053757117;0.10569065;0.17739087;0.0011354662;0.057270315;0.023670938;-0.011819734;-0.004286885;-0.099333346;0.09771785;0.11643356;-0.09653621;0.104430854;-0.05866341;-0.26317462;0.014446504;0.021032885;-0.17664951;0.07566536;0.122315064;0.017863277;-0.012637303;-0.046616558;0.041245766;0.25147521;-0.06314393;-0.024630977;-0.02538735;-0.059654143;-0.0070312377;-0.1079129;-0.005412553;0.14460455;0.07487022;0.10154388;-0.018203752;0.029811136;0.2603618;-0.1637383;0.04356018;0.08401632;-0.02418638;0.07112878;0.10356131;-0.039462306;-0.19414617;0.058784965;0.043094054;-0.30835503;-0.16769658;-0.14477104;-0.10275297;0.114939176;-0.020487245;0.1160662;-0.045005113;0.010918934;-0.3228696;0.02991521;0.060093917;0.0348706;-0.16498506;-0.20603721;-0.15570171;0.026715096;-0.06980251;0.021920376;0.15651204;-0.1081284;-0.18151066;-0.093749724;-0.1357634;-0.09621592;-0.16111006;0.27262434;0.12363932;-0.1642411;-0.01834182;-0.08143283;-0.005741618;-0.09775695;-0.07241696;0.0779655;-0.039241757;-0.0129337385;0.16452342;0.06580283;0.25483087;-0.019655384;-0.024351753;0.0635253;-0.13341221;0.04757689;0.11518933;-0.072535336;-0.12664546;0.076423906;0.052920472;0.014279074;-0.21049216;-0.14032772;0.10109164;-0.028358318;-0.115800574;-0.038290165;0.13664444;-0.07487378;0.0042312383;-0.1574295;0.022011124;-0.22717278;-0.15612152;0.07676197;0.26548034;-0.14393874;0.028215785;0.069567434;0.24082427;-0.2321563;0.05243208;0.051727407;0.0028558369;0.04251912;-0.08396153;0.06215019;-0.013651311;0.07154851;0.044193782;-0.12739675;-0.10694009;0.036425427;0.054483384;0.055536103;-0.030916668;0.07039943;0.10582406;0.16830233;0.083631426;-0.032538537;0.021616584;-0.015739862;0.074789;-0.0726603;-0.08568123;0.07830282;-0.07499853;0.09952355;0.1699161;-0.07053909;-0.035521973;-0.070748314;0.09555308;-0.036015227;-0.12530982;0.03150022;-0.17002703;0.1643779;-0.11910024;-0.20477207;0.066146195;0.045474842;-0.20158057;0.026607146;-0.024080833;0.09788899;-0.07789085;0.06043047;-0.07471669;-0.20600966;0.13863422;0.019801607;0.07101697;0.037245743;0.088091075;-0.2448098;-0.026327997;0.10706898;-0.04522288;0.0008152592;-0.07298325;0.101836815;0.007264804;0.1510838;-0.00075805036;-0.13666095;-0.047522224;0.1419462;0.2930587;0.0937644;0.08381031;0.0053971205;0.07885715;0.10305575;-0.09100202;-0.17996345;0.12824158;-0.16866733;0.093222514;-0.09812919;0.13133445;0.095249705
0.09445669;0.031242238;0.118703604;0.11275192;0.12013671;-0.09936516;-0.13852003;-0.12304585;0.0060146875;-0.08907082;0.08661102;0.16909276;0.04266431;-0.14732125;-0.079627156;0.061320595;-0.003663112;0.15393047;0.055136465;0.046906523;-0.14268413;0.047960274;0.048309486;0.14314288;-0.026269129;0.08809696;-0.15410526;0.029598143;0.002267366;-0.19689007;0.043030914;-0.052463394;-0.014757039;-0.083957136;-0.102041714;0.12565519;-0.047827017;0.029687766;-0.055175073;-0.036510438;0.07319314;-0.18054013;0.08229329;0.0258014;0.0012082643;0.12871273;0.15052193;-0.0016863373;-0.15754701;0.11375282;-0.08597702;0.008816918;-0.17209303;0.08600131;-0.130543;-0.06260638;0.18293582;-0.024631683;0.07092652;-0.09891263;0.03317513;-0.07047202;0.06982212;0.11941393;0.05709607;-0.13817641;-0.042326197;0.055128604;-0.15660644;0.10637589;-0.041015893;-0.098249316;0.06841468;0.010264609;-0.13751516;0.025413461;0.12901966;-0.12828101;-0.062158592;0.23104167;0.110261485;0.0023423596;0.07278624;0.2124772;0.09469856;-0.11492277;-0.030884596;-0.011423499;-0.0358385;-0.06291256;-0.07384185;-0.12990963;-0.17396706;-0.030731903;0.061564326;-0.17856206;0.10892342;-0.11426353;0.06939556;-0.1303353;-0.21000108;-0.15444249;0.26691604;0.013279778;0.09434222;0.17175867;-0.081046626;-0.16044247;0.04711374;-0.10151328;0.011946366;0.037031464;0.05708638;0.009338817;-0.017952893;0.0653695;-0.2681162;0.06523699;0.0794418;-0.05619668;0.049449876;0.052142505;-0.007444608;0.12503551;0.07927103;0.0063662073;0.039313648;-0.055038944;-0.18361917;0.102673694;0.07290311;-0.15544063;-0.010543675;-0.0015518686;0.04641565;-0.05948174;0.27333564;-0.044536725;-0.12342506;-0.15732703;0.13146913;-0.07823738;0.14618525;-0.092599556;-0.104519255;-0.13433196;-0.01979041;-0.025001934;-0.06721656;0.0599793;-0.20732611;-0.17584376;-0.009283113;0.24126169;0.12339506;-0.02950928;-0.047757875;0.09051062;0.27982292;0.056322668;-0.1105856;-0.15387096;0.10572021;0.1802303;-0.08327329;0.048027184;-0.04252083;0.014008109;-0.006095788;-0.12801364;-0.114159;0.15551016;-0.06397625;0.084835835;0.018041015;-0.05561758;0.054198965;-0.16845532;-0.021079326;0.26773837;0.1192773;-0.027627872;-0.10001789;-0.07820725;-0.15582453;-0.1054895;0.029605163;-0.16494009;-0.005469786;-0.07299546;0.05271502;0.080571786;0.0013712456;0.023104941;-0.008286635;-0.13281167;0.12669258;0.19494963;0.09332161;0.005216933;0.09685374;-0.028740225;-0.05736372;0.159879;-0.072978124;0.009541651;-0.20726024;-0.03707867;-0.017445538;0.23733284;-0.09394839;0.034085147;-0.0060099475;-0.12098837;-0.054334234;-0.002814486;-0.16761908;-0.18008637;-0.24494587;-0.10760884;0.25357112;0.07278108;0.06654163;0.08295094;0.015351681;-0.031863533;-0.005361588;-0.15235478;0.036637887;-0.054473817;0.11034873;-0.2088635;0.07536894;-0.1272168;-0.06845169;0.085078955;-0.09833255;-0.064308055;-0.21864091;0.11859118;-0.11620496;0.016069211;-0.10242484;0.13844106;0.07816512;0.007322355;0.090199694;-0.06782555;0.024538845;0.07710132;0.054552466;0.07020436;-0.013944494;0.03557713;0.06421228;0.09601355;0.0071193757;-0.06582098;-0.20801759;0.03435135;0.24814071;-0.013004066;-0.0040405714;-0.054274447;0.08137521;-0.03907334;0.18384273;-0.027058776;0.055805333;0.07473034;0.0742391;-0.036439896;-0.04230839;-0.10368431;-0.09272832;0.11995838;0.02222675;-0.025009772;-0.12396468;-0.03933137;-0.04358759;0.036755394;-0.12822998;0.011545378;-0.09122173;-0.23836313;-0.0012121763;0.059795797;-0.0025140073;-0.024916116;0.27252927;0.0044407095;0.19392169;-0.0133670205;0.0681967;0.04294799;0.0575322;0.17079107;-0.09486729;0.08193746;0.01880644;0.124676;-0.06287549;-0.07274394;-0.14605278;-0.15768802;-0.037847262;0.03014844;0.05946454;-0.066883296;-0.30117553;0.11388383;-0.087595455;-0.050318073;0.17450336;0.014741265;-0.016248688;-0.16617858;0.09090392;-0.011536877;0.00074092956;0.027139297;-0.018023547;0.036115285;-0.043620475;-0.024389856;0.033876102;-0.045948505;-0.039318703;0.048594438;0.19490498;-0.090993024;0.08183606;0.034207057;-0.07391944;0.04207504;0.18806751;0.15730438;0.00984571;0.0061187786;0.006453876;-0.05270797;-0.12512158;0.053368904;-0.03763629;0.2672177;0.015226413;0.054226276;0.030054452;-0.051031;0.13681024;0.02892184;0.000531009;0.1537505;0.04352394;-0.06713685;0.017678775;-0.13950326;-0.054807365;-0.08453328;0.10465718;0.01774758;-0.036448535;-0.32701784;0.20703393;-0.05710199;0.06909943;-0.1803396;0.006424519;0.1163313;0.15402725;0.0801516;-0.12635161;-0.0063457456;-0.10541216;-0.025878932;-0.07031516;0.12819898;0.08933957;0.1146725;-0.08411155;-0.0007341454;-0.18186909;-0.057825956;0.08361302;0.049322736;-0.03459106;0.02035922;-0.017148737;-0.27265933;0.109530576;-0.0006976543;-0.1987626;0.10461445;0.07951952;0.0903068;-0.1157061;-0.08872103;-0.057848442;0.11424063;-0.05478307;-0.0645269;-0.028910823;-0.059894018;-0.01748093;-0.002183843;-0.077388346;0.09570968;-0.009436397;0.0702283;0.056931816;0.022839606;0.28940535;-0.17036194;0.022001805;0.037982397;-0.03956189;0.1456217;-0.05242579;-0.18379796;-0.061743263;0.055693943;0.18076986;-0.38380224;-0.11555294;-0.20150483;-0.11151735;0.12662375;-0.14932398;0.06317236;-0.023200117;0.036199227;-0.2713804;-0.046249222;0.06495486;0.12692608;-0.19577198;-0.14549212;-0.13216116;-0.030236714;-0.03865899;0.051526878;0.15008779;0.015712874;-0.0397432;-0.13093823;-0.14995442;-0.055391002;-0.16673416;0.12762953;0.063912846;-0.20600487;0.004389869;0.008691218;-0.06539452;-0.12680261;-0.03177499;0.024499383;-0.03703152;0.021902652;0.15356177;0.12744352;0.185456;-0.029871218;-0.061654568;0.05530115;-0.09315081;-0.016731787;0.06682288;-0.06782726;-0.1847524;-0.04487564;0.049846306;0.1216019;-0.18082328;-0.027036874;0.1022798;0.02364027;-0.09408732;0.0011391881;0.16598038;-0.017271467;0.069327526;-0.073689125;0.12302254;-0.13587831;-0.17406747;-0.07428802;0.18418245;-0.018647162;0.097971365;0.08593729;0.14856175;-0.15694503;-0.033163033;0.12404721;-0.030987099;-0.05579711;-0.078181185;0.017592076;0.11596384;-0.10682065;0.024106214;-0.04365631;0.020539423;-0.03869291;-0.00317016;0.045211952;0.02025602;-0.045134496;0.030276243;0.00081664784;-0.026863314;-0.14925797;-0.002946726;0.11262802;-0.0040973932;0.042933602;-0.0075710868;0.03165929;-0.031211844;0.10911739;0.17190064;0.064540096;-0.018254347;-0.010737589;0.01492836;-0.01640097;-0.16308372;0.019584905;-0.084586285;0.059236646;-0.17856388;-0.2119935;0.102173895;-0.0012737004;-0.18494561;0.119896114;0.013550326;-0.027407132;-0.07735116;0.06050526;-0.04191629;-0.27853018;0.11851106;0.038567763;0.11807643;-0.050482307;0.02505525;-0.17481576;-0.085906744;0.15937772;0.09712589;0.007979734;-0.05253815;0.07170611;-0.017129282;0.24570428;0.07937685;-0.09999208;-0.024207784;0.10571339;0.29097512;0.121478975;0.077701256;0.0316251;0.04825033;0.14821725;-0.09575323;-0.15728927;-0.026210679;-0.13125373;0.14609514;-0.11826715;0.16999197;0.1328937
0.1264013;-0.02409296;0.052756056;0.04409301;0.015557259;-0.10634501;0.061575815;0.0020351766;-0.041663967;-0.03171563;0.04816253;0.16572915;0.043359853;-0.040131576;0.047475684;-0.08769692;0.025342124;0.23803602;-0.02970224;-0.02019973;-0.122522965;0.07173872;-0.030515425;0.12109409;0.09319482;0.04100592;-0.09209773;0.16069598;0.090809815;-0.06755529;0.048038393;-0.028838854;0.028976489;-0.11391565;-0.04452167;0.18971454;-0.097220406;0.016703777;-0.08044686;-0.05973712;0.03871031;-0.116044156;-0.05715667;-0.10790318;-0.012740001;0.11831615;0.14490132;-0.0924857;-0.14800695;0.21417277;0.036453426;0.06838613;-0.14500588;0.20848052;0.040631343;-0.025379967;0.09490014;0.057376813;0.05635721;-0.08575476;0.033460815;-0.18868744;0.09061873;0.010179364;-0.09330927;0.056460377;0.017576104;0.02771495;-0.05419838;0.095971696;0.058686495;-0.18165705;0.24924764;-0.103664026;-0.024424572;0.05978277;0.13514142;-0.11453197;-0.045012966;0.16372856;0.102235965;0.10606567;0.09490559;0.19249965;0.10321215;-0.18472461;0.0011938205;-0.007293891;-0.07842272;-0.04432785;-0.05013885;-0.022811871;-0.12710679;0.019121408;0.114623055;-0.13366206;-0.047889426;-0.10058052;0.1514875;-0.19176799;-0.26960528;-0.013425911;0.12315021;-0.06754682;0.033248823;0.13524215;-0.18323103;-0.06419947;-0.10130414;-0.1498886;0.041880198;-0.08857509;0.1999808;0.08841743;-0.07854132;-0.053638134;-0.15836412;-0.055590786;0.11260401;-0.013302309;0.04442048;-0.07426981;0.0977543;0.028528856;0.07857266;0.111749224;-0.09240749;-0.15331085;-0.25590605;0.07829955;0.08163055;-0.18182331;-0.06917211;0.06850352;0.1040113;-0.015130874;0.22361872;-0.05098962;-0.008232306;-0.250674;0.10440433;-0.08586519;0.249869;-0.10968403;-0.08550589;-0.08811382;-0.12400334;0.16504009;-0.12558186;-0.14405413;0.0032577182;-0.14182207;0.07898409;0.21203594;0.053683657;-0.04974159;-0.06889109;0.13134764;0.17671987;0.020937277;-0.105446294;-0.1563913;0.046896763;0.2252904;-0.101297185;-0.0072977617;0.053739;-0.138055;-0.12346862;-0.016820425;-0.005080529;0.3111191;-0.16446275;-0.04511965;0.046713453;0.059432562;0.12080503;-0.105040476;0.09210308;0.11517117;0.17442614;0.06787419;-0.21803153;-0.18406911;-0.15720806;-0.24378078;-0.0016057824;-0.086330086;0.017943716;0.037717916;-0.023228567;0.09663334;-0.01963874;0.03117432;0.0059210677;-0.11121787;0.10530883;0.18042263;0.106348306;0.083127536;-0.052345783;-0.0028180128;-0.10084508;-0.031522144;0.029006148;-0.10225247;-0.14442565;-0.039759867;-0.094447434;0.28759342;0.13842332;0.06110049;0.039852496;0.10109034;-0.036750745;-0.04999822;-0.17291409;-0.10899299;-0.21910743;0.010637162;0.17683361;-0.097873986;0.13633958;0.03502794;-0.043118753;0.0019168153;0.024451572;-0.18589427;-0.019794432;-0.13560194;-0.038581926;-0.35876927;0.003058227;-0.10830616;-0.044829693;0.05030847;-0.14942788;-0.0863389;-0.047093898;0.13291387;-0.04722581;-0.01915472;-0.111627184;0.19282448;0.040531587;0.012160881;-0.061508134;-0.262846;-0.03357204;0.07488144;0.07407023;0.20786832;-0.09956601;-0.090309896;-0.013093546;0.25615966;0.019280102;0.006405809;-0.26614058;0.168393;0.21135657;-0.049122106;0.041096255;-0.14296678;0.11129066;-0.11772576;0.18880486;-0.06680144;-0.0049622604;0.11101386;-0.0126586715;-0.09251351;-0.02917887;-0.13878013;-0.06629005;0.06921609;0.14476644;-0.04957349;-0.093494765;-0.020476483;-0.054030105;0.20265551;-0.14581859;-0.17972063;-0.1388178;-0.058093905;0.13391957;0.06425802;-0.07041816;-0.067988686;0.16920087;-0.03267649;0.13288566;-0.12540586;0.020507663;-0.06470039;0.039288715;0.070974745;-0.088625744;-0.033840884;-0.06271315;0.09406146;-0.035555836;-0.06358674;-0.110591836;-0.12337429;0.16643192;-0.04190646;-0.02026293;0.0986131;-0.355504;0.1066898;0.0608074;-0.032729257;0.21272852;0.1770807;-0.036317486;-0.1288805;0.21160123;0.12237159;0.12155017;0.13977996;0.07896728;0.025780112;-0.047547832;-0.11618892;-0.015409839;0.016922524;-0.1409241;-0.053511728;0.11642861;-0.16158591;0.05082485;-0.090646036;0.06067397;0.10412316;0.26575217;0.0774153;0.034418337;0.051988948;0.062129796;-0.07491872;-0.28921247;0.09496221;-0.10963947;0.02513073;0.12345001;-0.05386152;-0.032108944;-0.11571859;0.16072895;0.028601827;-0.05387922;0.06429113;0.085778154;0.012746798;0.0030283204;-0.21497485;-0.044447653;-0.031817205;0.103363924;0.095085084;-0.18439628;-0.27588823;0.1419768;-0.07063326;0.08923821;-0.113220505;-0.074883886;0.060335595;0.10573595;0.028267164;-0.105519764;-0.001052057;0.023166543;0.1296254;0.012687253;0.13054699;0.06625014;0.037803367;0.043017764;0.0673446;-0.0066924226;0.0024214375;0.13936998;0.00973204;-0.091870196;0.09024766;0.03446199;-0.23371756;0.08735271;0.016541796;-0.08588202;0.0408653;0.11923091;0.08926764;-0.1174125;0.079612814;-0.1186139;0.20476764;0.023864537;-0.004324699;0.0654913;-0.05557751;-0.0892406;-0.089905255;-0.08957736;0.14264414;-0.06591675;-0.06937241;0.010361805;0.061804492;0.23449516;-0.19985186;0.022446474;0.032806136;0.01638128;0.09461598;0.054943502;0.00820673;-0.11192372;0.27490103;0.24610092;-0.417027;-0.19714406;-0.1462814;-0.10679045;0.20395145;-0.03706809;-0.041587837;0.029954452;0.05974409;-0.4116253;-0.038251434;0.06101174;0.09048984;-0.2031805;-0.19976;-0.03926581;0.1452352;-0.008882072;0.013053382;0.12349003;-0.18620431;-0.18999235;-0.1132121;-0.116004;-0.104487464;-0.09525084;0.12072771;0.035122983;-0.025138102;0.04288468;-0.1263875;-0.057812605;0.014463802;-0.15354103;0.045464322;-0.004827554;0.10892803;0.024256459;0.14920665;0.19583245;-0.12461445;0.07993112;0.11143131;0.07752408;-0.014238591;0.06416441;-0.063583426;-0.078226134;0.027256519;0.12640458;0.045387767;-0.3192301;0.005182157;-0.036167014;-0.11150338;-0.075303294;-0.0342535;0.020607557;-0.08927741;-0.05567394;-0.15641849;0.06540831;-0.18703474;-0.20100603;-0.15282981;0.036164567;-0.08859476;-0.03941628;-0.03256723;0.24691373;-0.2148007;0.044866104;0.043623943;0.095970094;-0.047696814;-0.015356638;0.18558264;0.11494705;-0.04162895;-0.0791294;-0.09320316;-0.055469204;-0.013801381;0.048970234;0.043625098;0.15215096;-0.111297294;0.19161929;0.1012027;0.07831199;-0.087393716;0.016247083;0.01291052;-0.024944754;-0.117088616;0.00669811;0.12261445;-0.009595694;0.079742305;0.2977647;0.04239216;0.06979318;0.004240439;0.02309683;0.031672474;-0.026525684;-0.0047395388;-0.061647702;0.086622365;-0.12877776;-0.17296441;0.018287057;-0.060258135;-0.234286;0.12701507;-0.037336145;-0.039555434;-0.074811175;-0.015079474;0.016491167;-0.3398582;0.04084166;0.054014195;0.121026866;-0.010768914;0.091653965;-0.32020414;-0.026023638;0.13928975;0.004687158;0.075481996;-0.15621614;0.12974298;-0.11611029;0.07810754;0.13047358;-0.1566386;-0.051244486;0.01972913;0.21883847;0.10868362;-0.027449504;-0.06903539;0.03858037;0.048194256;-0.15771434;-0.13093135;-0.0032436964;-0.1865454;0.13085343;-0.05658199;0.048225366;0.24571
0.081319965;0.072322905;0.17927177;0.11461232;0.15197489;-0.047108427;0.041304257;-0.049514398;-0.024351254;0.011815943;0.03090566;-0.011296853;0.051733427;-0.025642475;-0.033125848;0.04011516;-0.035679866;0.15814368;-0.019170035;0.021814203;-0.057100154;0.03088771;-0.058610834;0.008191401;0.042970125;0.05856162;-0.05407201;0.048801415;0.099587284;-0.12777027;-0.01495758;-0.118344754;-0.10767339;-0.08537558;-0.01290187;0.043777548;0.028555116;0.12966031;0.0036906211;-0.11465744;0.16342923;-0.13968481;0.089411005;-0.14683701;0.044726413;0.27830622;0.031059293;-0.14574693;-0.0877898;0.21776633;-0.010909663;-0.09594599;-0.13035673;0.066999115;-0.0629658;0.0029916095;0.07210269;-0.019132582;0.017907966;-0.012354878;-0.010534676;-0.12412909;0.020099107;0.0048343036;-0.07887817;-0.034624454;0.11262122;0.15193872;-0.09587452;0.12066453;0.0327354;-0.12206518;0.08555411;-0.054557204;-0.040328458;0.029352956;0.047512855;-0.1393328;-0.18824938;0.14368403;0.045302268;0.030341016;0.0076894136;0.18071407;0.08038221;-0.09057257;-0.005549506;-0.09888329;-0.037077405;0.062708884;0.008698811;-0.07514918;-0.21194547;0.052495554;0.0781193;-0.16133085;0.048162248;-0.081656866;0.1240855;-0.13966435;-0.1446772;-0.15628275;0.2243846;-0.07768793;0.15931374;0.1957896;-0.081772216;-0.06888253;-0.16444859;-0.0507014;0.12033266;-0.053547066;0.1415148;0.06010058;-0.01750052;0.080445826;-0.18867314;0.0980487;0.19624953;0.037515663;0.0765825;0.13055728;0.07770802;0.08879297;0.19052362;0.07402023;-0.05397883;-0.016878325;-0.06695721;0.11747657;-0.047020435;-0.27541202;-0.14409941;0.045845225;0.18927155;0.092555635;0.2484406;-0.0670489;-0.09599293;-0.1882773;0.1339497;-0.04578387;0.14685218;-0.03377091;-0.042644713;-0.03239362;-0.11212312;0.101579785;-0.06809827;0.032853477;-0.08751437;-0.05188238;-0.009510059;0.19709606;0.05292119;-0.068489045;-0.11748664;0.10155774;0.2354252;0.11138257;0.0025774534;-0.13488123;0.064646035;0.22674248;-0.121898204;0.083022036;-0.05686867;-0.19053929;-0.025482738;0.00654592;-0.084397204;0.11533574;-0.15632832;0.0013431304;0.059105285;0.016553862;-0.0682344;-0.097391106;0.104311235;0.15689686;0.046352297;0.14472854;-0.24517748;-0.16968557;-0.11477212;-0.28574216;0.0023731904;-0.049124513;-0.021398759;0.109810024;-0.016150523;0.15455139;-0.030655997;-0.023299754;-0.0018717806;-0.05575732;0.15067671;0.14892742;0.052250165;-0.13247134;-0.008585622;-0.021371692;0.042792104;0.0659169;-0.0693435;0.02749649;-0.14881092;-0.008966106;-0.09988944;0.24747078;0.0015930189;0.089852735;0.09027374;-0.0031779876;0.007898645;-0.02344316;-0.22658677;-0.14569657;-0.18425441;0.07701092;0.10923999;0.08695459;0.042274408;0.05502366;-0.11039552;-0.06962214;-0.027875194;-0.04480943;-0.010617162;-0.11175217;0.11157852;-0.20660268;0.043557778;0.012380336;0.0016202937;-0.0775099;-0.06026244;-0.04233268;-0.08942151;0.20277907;0.014515385;-0.030928673;-0.10188432;0.16652264;0.06525999;0.050200976;-0.067135155;-0.14553723;-0.058218762;0.23167491;0.09747537;0.24654013;-0.032231133;-0.048727557;-0.044417452;0.13434204;-0.050524406;0.06715653;-0.23330893;0.11444132;0.15038154;-0.047227044;-0.025822831;-0.15413353;0.03337073;-0.13572267;0.10092218;0.008227191;-0.026253816;0.055562068;-0.023742048;-0.042686984;-0.017373312;-0.18595324;-0.10956011;0.1342938;0.12661396;-0.023679428;-0.10949284;0.0020753609;-0.018734826;0.12778199;-0.15490806;-0.16163349;-0.055002667;-0.12143765;0.0508715;0.018970689;0.039370924;-0.021712948;0.1537181;-0.040609296;0.13336647;-0.046407983;0.054941874;0.0039539197;0.0073487954;-0.025887568;-0.06536302;0.00018865387;-0.047750704;0.039685957;-0.029913375;-0.12534441;-0.12946124;-0.21845695;-0.0018187508;-0.048256982;0.015075672;0.047509763;-0.36344668;0.09942059;0.07234734;-0.006826833;0.21888044;0.16663149;0.0016881325;-0.19570091;0.18700156;0.099912316;0.13545927;0.04388473;0.07064055;0.06918803;-0.037135914;-0.032715686;0.004811732;0.017669627;-0.10065015;-0.04735229;0.122959554;-0.06901668;0.11420608;-0.08269451;-0.074928634;0.027075114;0.07639842;-0.043778494;0.04711901;-0.089898534;-0.056468796;-0.005200485;-0.14358893;-0.039555892;0.025375431;0.12170999;0.07243978;0.0066532376;0.02402433;-0.0094257835;0.0673669;0.19739579;-0.0328734;0.11457509;0.013514631;0.008859472;0.016653538;-0.15117158;0.07752548;-0.08451206;0.09043983;0.10918746;-0.19000427;-0.1870251;0.07494419;-0.04577095;0.13518922;-0.196777;-0.03314349;0.0933719;0.11381221;0.00770841;-0.10538348;-0.08530101;0.052865483;0.046757583;-0.030535283;0.22002766;0.04141358;0.19616085;0.072289854;0.03464865;-0.049672548;-0.06775885;0.059757236;0.050341688;-0.12225843;-0.008634972;-0.082576506;-0.1987079;0.04377541;-0.020248186;-0.080214776;0.017303219;0.19905952;0.016481185;-0.007001402;-0.0200508;-0.04221446;0.11533556;-0.028461456;-0.03242726;0.014936457;-0.0044649895;-0.074893594;-0.12464116;0.01888804;0.0431199;0.01620068;-0.03778914;-0.014484788;0.10333672;0.2102236;-0.11584319;0.10446156;0.088993534;-0.11917493;0.21711586;-0.036791917;-0.08740438;-0.12039804;0.22786394;0.18491626;-0.42348763;-0.2321417;-0.13398677;-0.044007536;0.1394241;-0.13523413;-0.02046145;0.044338424;0.00948402;-0.37967455;0.09955885;0.1477991;0.20100829;-0.10423253;-0.08151283;-0.13154206;0.080187075;-0.06734468;0.033847436;0.064655334;0.04877739;-0.17850272;-0.15770914;-0.21831577;-0.1513748;0.03329362;0.17782818;0.080849186;-0.09744862;0.119379;-0.10487426;-0.008173278;-0.031301405;-0.07937163;0.017368529;0.14576662;0.13946442;0.09491163;0.087561116;0.13192983;-0.075833075;0.0037128453;0.16354938;-0.022417856;-0.14132927;0.07838507;-0.066189475;-0.03897834;0.04925227;0.11816724;-0.014310028;-0.29419863;-0.084396;-0.0023029358;-0.06544837;-0.13369575;-0.13450982;0.02607956;-0.08065678;-0.030716194;-0.19752693;0.025202164;-0.01819665;-0.0871852;-0.14184402;0.12909405;-0.041652974;-0.07126558;0.08492591;0.12395725;-0.16414468;0.043046262;0.13587667;-0.06502188;-0.08700726;-0.11478717;0.05457265;0.11269226;-0.06331188;0.013428594;-0.15640773;-0.057318546;0.020503605;0.008128035;0.108796634;0.08916308;-0.03248829;0.049174156;0.03403804;-0.013944295;-0.032788116;-0.025475157;0.0027720565;-0.15466408;-0.02636549;-0.052979294;-0.022697648;-0.020580377;-0.028734477;0.19874428;0.07366592;0.011379352;-0.07077854;0.03807608;0.13793236;-0.11255987;0.13674878;-0.07839473;0.06473157;-0.061180692;-0.2190255;0.034737702;0.061794296;-0.31932896;-0.015367985;-0.049433473;-0.013323601;-0.036517765;0.056925558;-0.042087883;-0.300067;0.11836029;0.023087611;0.14463437;-0.0137740895;0.11579551;-0.29620442;-0.12950914;0.162063;0.10506833;0.004898931;-0.08627041;-0.012413046;-0.019929152;0.12259751;0.043368552;-0.06030136;-0.11271059;0.043670252;0.17277585;0.14449406;0.03676811;0.08439342;0.058293585;0.039180268;-0.014732306;-0.1157283;0.034244884;-0.15110572;0.2270061;-0.031797644;0.037465453;0.13081007
0.19050075;0.065827064;0.112771824;0.17356002;0.025665684;-0.020105373;0.087119095;-0.052153323;-0.085963085;-0.052699827;0.1122783;-0.03326333;-0.0325478;0.010144542;-0.037067514;0.004364888;-0.04086978;0.15479498;0.026535142;0.08471843;-0.028464701;0.07694763;0.090955846;0.074861795;0.0050926073;0.0009417584;-0.07309201;0.1207664;0.14861423;0.01307974;-0.096115075;0.020938862;-0.071606964;-0.15391347;0.00861004;0.13623866;-0.10132956;0.12432253;-0.10180336;-0.09475541;0.07987734;-0.003313499;-0.010708955;-0.07940356;0.017483065;0.20665446;0.11628804;-0.026917588;-0.05108001;0.0815527;0.019207502;0.035949696;-0.12010012;0.15334989;-0.07435847;-0.1496349;0.13171905;0.12296704;0.04495824;-0.04825793;-0.056077972;-0.12965463;0.05320908;-0.020388184;-0.03156158;0.118241295;0.0479316;0.073819496;0.010521951;0.13809219;-0.038546115;-0.12025247;0.14978515;-0.16979852;-0.10858959;-0.06909077;0.033425562;-0.116667636;-0.07608265;0.0958425;0.16818182;0.05474358;0.0041815825;0.25247338;0.12353151;-0.13193974;-0.08632666;0.04319028;0.09303678;0.044365697;-0.065014444;-0.057079732;-0.26992366;-0.02887403;0.09619281;-0.116235204;-0.077529766;0.06892015;0.06600858;-0.12091672;-0.15940547;-0.11557664;0.29288298;-0.10886508;0.03878835;0.11398019;0.044493124;0.025498064;0.0011937446;-0.19710451;0.10107222;-0.05186473;0.10881692;0.098457396;0.087777175;-0.010472879;-0.2961315;0.033473395;0.15749107;0.068337925;0.07620245;-0.00857818;-0.00092209975;0.109438404;0.07221569;0.005441065;0.008383645;-0.06978622;-0.03720821;-0.027698219;0.10675817;-0.24441971;0.051046908;-0.045304578;0.21458608;0.06457662;0.20658264;-0.046271607;-0.029963825;-0.110982396;0.10670054;-0.15303466;0.13273352;-0.09619586;-0.034124408;0.075623915;-0.10242868;0.1721879;0.0076187965;-0.024301972;-0.020909563;-0.07265323;0.10785796;0.14746286;0.06956165;-0.045175727;0.0025786872;0.08988996;0.27612868;0.061395057;-0.077718996;-0.13467042;0.06713626;0.20966065;-0.19504204;0.017094996;0.028265638;-0.18357702;-0.076429054;-0.08784365;0.017963368;0.2217366;-0.06341783;0.08603534;0.055767916;-0.107332096;0.06737938;-0.13397679;0.16818741;0.20930801;0.11672906;0.07647646;-0.15350692;-0.035521332;-0.08051787;-0.19127725;0.015534634;-0.060374342;-0.17539471;0.081228055;-0.00603076;0.007397248;-0.014586154;-0.059923753;-0.017577622;-0.20916498;0.13342895;0.18433304;0.0805347;-0.14078319;-0.08440794;-0.056153335;-0.059219204;0.060617857;-0.07079126;-0.017522754;-0.13464585;-0.059798643;-0.23537597;0.28056598;-0.044064887;0.00408763;0.044238046;0.06378536;-0.005957261;-0.11327362;-0.15316354;-0.13635726;-0.12710679;-0.014716271;0.1184132;0.071594395;-0.00088768575;0.13085616;-0.012246569;-0.048116468;-0.081796326;0.011036706;0.059586387;-0.11968761;-0.0025288279;-0.31550086;0.0009366918;0.022787109;-0.038944423;-0.10804956;-0.1326474;-0.027297778;-0.13640386;0.107135125;0.06639034;0.03082552;-0.13555203;0.05169434;0.14275916;0.03828969;-0.009603009;-0.005043346;-0.084328026;0.22716995;0.0763461;0.16530038;-0.0048322473;-0.03132973;-0.00863101;0.11704565;-0.063451074;0.1367695;-0.3277927;0.012083058;0.2899534;-0.08795537;-0.0009862594;-0.05308996;-0.047584806;-0.09279857;0.05943851;0.064333715;0.08951885;0.094147705;0.05327435;-0.18020295;0.09522681;-0.2170344;-0.05301674;0.044472367;0.04273345;0.0040089646;-0.054271836;0.012636062;-0.07966549;0.16143416;-0.14335959;-0.033575993;-0.0030571457;-0.036104873;0.0861016;0.034058522;-0.06394292;-0.16026707;0.046502948;-0.05940385;0.232029;-0.07816819;0.06553679;0.002026432;0.087250024;-0.04741178;-0.15703784;0.072946474;-0.033856746;-0.074291155;0.0061859475;-0.023192111;0.01546407;-0.25487617;0.02855001;-0.010952907;0.09286728;0.12179146;-0.24144198;0.064421736;0.059222814;-0.048157245;0.29396847;0.15287338;-0.069394365;-0.17460965;0.08083705;0.13643202;0.07392447;-0.0015459916;-0.03844397;0.08247102;-0.008753083;-0.069970734;-0.06358142;-0.039275516;-0.010659425;-0.050845426;0.18946643;-0.021533411;0.046719324;0.001148675;0.006068885;-0.06315031;0.15417023;-0.024847126;0.11476919;-0.07857488;0.02836518;0.009427364;-0.13505657;0.008684283;-0.036485348;0.08904803;0.0544149;0.06738264;-0.058062468;-0.1569411;0.08672589;0.19897148;-0.026692359;0.04838694;-0.051136933;-0.06736092;-0.04799898;-0.07502588;-0.03361154;-0.12059176;0.18745077;0.055228516;-0.15237232;-0.23064263;0.048781876;-0.12029494;0.16941722;-0.11830728;-0.07540553;0.2221648;0.024662517;-0.032827437;-0.18273392;0.106112696;0.056529723;0.032817416;0.038388956;0.11089576;-0.047475707;0.15518281;-0.040488943;0.07001545;-0.08796028;-0.09070252;0.06934945;0.15056545;-0.10835652;0.12797612;0.03797298;-0.23250663;0.10530122;-0.06313386;-0.05232053;0.11796212;0.16455546;0.08811005;-0.14474396;0.078057304;-0.15870439;0.21988243;0.02526256;-0.03520437;0.052094303;0.0019912121;-0.07018136;-0.04488749;-0.020966629;0.123910084;-0.012922404;0.059046127;-0.06210969;0.0016622675;0.20163411;-0.11320005;0.0036446727;0.15812336;-0.0715309;0.16034742;0.15859094;-0.020033168;-0.09319026;0.18248148;0.13854687;-0.42385682;-0.09310682;-0.18058893;0.009492312;0.19730984;0.010411746;0.06792168;0.035331387;0.020692382;-0.482709;0.0700282;0.044536922;0.14380437;-0.17376432;-0.16029397;-0.032559;0.08555753;-0.056380294;-0.017751515;0.18648559;-0.0043589217;-0.17904067;-0.10966729;-0.17450535;-0.13150835;0.053652197;0.21625686;0.028897941;-0.010550822;0.079022735;-0.050731394;0.07153982;-0.0889944;0.037599172;-0.013281531;0.03142832;0.07180154;0.035356514;0.108441405;0.20118952;-0.14671728;0.034505975;0.17568;0.057389203;-0.1539428;0.13131793;-0.13427612;-0.10625007;0.11515178;0.07122478;0.02053314;-0.22519603;-0.075299986;-0.0646526;-0.023444861;-0.079091676;-0.0007642521;0.0041842386;-0.04026208;-0.04587186;-0.106293;-0.00096618;-0.19209005;-0.10990216;-0.04602398;0.0534576;-0.06688788;0.016504098;0.13852368;0.14616202;-0.09671176;0.05425818;0.23261464;0.014556844;0.027636062;-0.06996569;0.03175975;0.090861544;0.027759755;-0.05968544;-0.11838497;-0.03687772;0.01712554;-0.017947031;0.100484274;0.05753635;-0.15216759;0.020082865;0.09386836;0.054213013;0.031058108;-0.007981893;0.1376884;-0.020316713;-0.060333133;-0.0849259;0.1290077;-0.08569794;0.07916118;0.12223694;0.12653308;0.1569591;-0.028366383;-0.025046552;0.113394864;0.016995251;0.1478067;-0.09429887;0.155564;0.029831622;-0.14330168;-0.04029815;0.03244605;-0.33025458;-0.08812568;-0.07087367;0.05088815;-0.01726717;0.0466217;0.040924232;-0.37587208;0.09887256;0.095617786;0.16142227;-0.049670473;0.099450424;-0.16498691;0.007449648;0.10211379;0.10828056;-0.046645507;-0.0077945585;0.052631304;-0.0358655;0.19678682;0.16960256;-0.07380563;3.939838e-05;0.046067946;0.25258702;0.0023325398;0.0438268;-0.06841936;-0.039312765;0.1703217;-0.17533115;-0.14599146;0.05341714;-0.13298996;0.05277799;-0.04741099;-0.0070283613;0.12467674
0.15739834;-0.012764255;0.14862481;0.21538109;0.00047498048;-0.06828495;-0.005847412;-0.12334557;0.014002761;-0.04157835;0.115017645;-0.06415636;-0.049037535;-0.004361676;-0.12156687;0.028259506;-0.009441918;0.06709477;-0.11723027;0.04592618;-0.21145765;0.11360179;0.116966486;0.06896601;0.041567147;-0.0022985248;-0.031173019;0.009008873;0.12951526;-0.118737526;-0.106377214;-0.09677608;0.11952046;-0.12666687;0.055902664;0.038189754;-0.072751135;0.22863784;-0.092277065;-0.021889089;0.042076774;-0.102485314;0.004975763;-0.074176565;-0.10636572;0.09850354;0.026505299;-0.02145017;-0.089384474;0.16603957;-0.0383373;-0.035354175;-0.12904845;0.022046225;-0.12480662;-0.22467208;0.14219633;0.050984826;-0.057483315;0.0022322424;-0.021745993;-0.19906482;0.16725251;-0.045095436;-0.018195977;0.038199645;0.04128671;0.039170302;0.10071536;0.08506928;0.016372768;0.054617357;0.06988823;-0.045984652;-0.118386;-0.10012854;0.012558194;-0.16641809;0.0025864446;0.06936527;0.12962523;-0.13431512;0.11849091;0.07679489;0.052785;-0.14468452;-0.031760935;0.09959521;0.10119821;0.08095958;-0.084520206;-0.1122942;-0.34504372;0.034211274;-0.11758301;-0.14247267;0.04790341;0.0013978438;0.029812127;-0.05993782;-0.06661115;-0.09153032;0.2572092;-0.07306994;-0.012472931;0.12420627;0.09631032;-0.15046555;-0.14317565;-0.023284484;0.05350556;0.026986102;0.10326153;-0.0061987797;0.010168465;0.041363046;-0.17933346;-0.0015559857;0.17160448;0.0025604903;0.23969;0.06271703;0.0610064;0.07511476;0.051177252;0.013243852;-0.016607517;-0.011220021;-0.20420489;0.022451494;-0.053433582;-0.120054744;0.01813991;-0.10443821;0.11844227;-0.09003099;0.15781945;0.04363679;-0.07611671;-0.093363516;0.26807597;-0.1384834;0.08488139;0.10782402;-0.08391629;-0.05522233;-0.022510989;0.12948051;0.008563236;0.045972638;-0.12684831;-0.1959398;0.1354296;0.058931097;0.023672437;-0.04121835;-0.16258785;0.055459265;0.36205995;-0.0780633;0.114040576;0.025727296;0.17692128;0.15437293;-0.19367541;-0.12100849;-0.062301524;-0.09030406;0.04621833;-0.17439176;0.06626567;0.207483;-0.043924995;-0.018394135;0.08046134;-0.14844236;0.044745635;-0.19236985;0.087356694;0.19930844;-0.012410001;-0.04484313;-0.13206168;-0.12194427;-0.1306901;-0.18361643;-0.030565659;-0.0011520537;-0.12730484;-0.0032853428;-0.1352492;0.09548146;0.0516;0.0060110716;-0.16151689;-0.06739353;0.06761199;0.12149395;0.033016246;-0.1969746;-0.04337974;-0.03039046;0.10268851;0.20037615;-0.13916962;-0.020402173;-0.21822123;-0.05230349;-0.14359865;0.1856065;0.006654968;-0.040611774;-0.07115449;0.058073103;0.01851679;-0.013710717;-0.086234234;0.011288254;-0.20520017;-0.030307567;0.2126513;0.11838169;-0.01951493;0.18267675;-0.11927026;0.024132922;0.09472057;-0.044337925;0.025701957;-0.012087603;0.118994236;-0.11873356;0.08473781;0.04087114;-0.07190839;-0.015202135;-0.031935267;-0.04204936;-0.19107774;0.146261;-0.08734451;-0.02436992;-0.14233938;-0.04860179;0.038795114;0.083836265;0.04877305;0.022146747;-0.1716555;0.10117511;0.10793669;0.15754205;-0.020350873;-0.15648013;0.112663105;0.047490064;0.14263992;0.068842925;-0.29957864;0.002543496;0.12407197;-0.024523815;0.07626755;-0.13718289;0.025668677;0.034428127;0.118929245;0.044319816;0.09699326;0.22309427;-0.057203196;-0.061801504;0.15265453;-0.2208516;-0.18962081;-0.0043399157;0.08524617;0.040264204;-0.116109736;0.051892005;-0.0714642;0.09422426;-0.13267733;-0.113811344;0.06259227;-0.24319865;0.08140023;0.08505852;-0.071294814;0.04349941;0.03978468;-0.044719607;0.19769943;-0.111968376;0.023823138;0.022032518;-0.07348455;0.013806123;-0.07239502;0.17113383;-0.033337623;0.10616816;0.005686586;-0.022468533;-0.05600365;-0.06755916;-0.07963885;-0.00034796627;-0.0354377;0.023216771;-0.33529624;0.044543367;0.092551626;0.016205769;0.17576961;0.19179578;-0.08117722;-0.1271147;-0.02632628;0.14347363;0.032562595;-0.05367819;-0.0139981555;0.16558108;-0.06306122;-0.040983826;-0.007420698;0.049956426;-0.08607565;-0.013519398;0.12541108;-0.024704536;0.0479075;-0.034555543;0.02944023;0.019456089;0.06540498;-0.18934612;0.042245597;-0.002493578;0.06547821;0.025284784;-0.08514018;0.019013759;-0.067289494;0.13736674;0.016595822;0.07528371;0.07690581;-0.17101982;0.111998685;0.190046;0.11965238;0.1018052;-0.11524503;-0.090995885;-0.041484736;-0.04725046;2.119623e-05;-0.20480081;0.07490703;-0.034435783;-0.15211321;-0.22093292;0.11528556;-0.0893953;0.16903871;-0.16719;-0.08405838;0.24983522;0.11349791;-0.010241462;-0.04053902;-0.027653866;-0.039122123;0.041202005;-0.049506657;0.23771428;0.034782045;0.026897619;-0.01602777;-0.07952357;-0.07500893;-0.01547666;0.1542413;0.09658245;-0.022576556;-0.030773865;-0.069812305;-0.14583997;0.06640077;0.07819148;-0.048913997;-0.023802662;0.10511527;0.1535618;-0.061964855;0.10309996;-0.1974282;0.09537799;-0.073801175;0.06583453;0.043396194;-0.028662367;-0.10189797;-0.16416842;0.08154424;0.106548734;-0.029515311;0.13837245;-0.06481504;0.13713235;0.22381958;-0.19860329;0.1032477;0.10845214;-0.080709375;0.12852113;0.075968385;-0.1493452;-0.20241442;0.048205726;0.09543733;-0.4716563;-0.116527304;-0.07357971;-0.0013713492;0.053848237;-0.013387157;0.08954985;0.027492441;-0.06676348;-0.2656953;0.10436186;0.07440636;0.09415934;-0.23895226;-0.22479269;-0.036487333;-0.00360419;0.036467075;-0.027078386;0.16206151;0.0055044102;-0.023361081;-0.11905287;-0.14321862;-0.14803109;0.050179202;0.3352512;0.1436818;-0.16636519;0.10875695;-0.1604096;0.020164227;-0.14601505;0.016056927;0.050433252;0.103826955;0.07521061;0.04316606;0.22349371;0.18310001;-0.07338647;-0.031865153;0.11860766;0.04101442;-0.10945857;0.17355824;-0.13811901;-0.13690855;0.07698578;0.035369493;0.08128301;-0.24094851;-0.05416794;-0.058580562;0.09021435;-0.012179772;-0.006364961;-0.011741792;-0.120643556;0.011879426;-0.053729787;0.1843024;-0.112132855;-0.03838096;0.056181703;0.06559079;0.01235001;0.015272179;0.11961433;0.004056618;-0.06739961;-0.041929327;0.22071937;-0.102487616;0.12126862;-0.17122118;0.022484776;0.15747641;-0.011976274;0.023522684;0.041178137;0.0071771573;0.09073603;-0.11972448;0.06397393;0.017887203;-0.1166463;0.03327743;0.07153457;0.088385426;0.015005044;0.024441155;0.036974944;-0.2039761;-0.06329831;-0.13247772;-0.049235605;-0.09112807;0.045851603;0.16279572;0.09705057;0.024674134;0.012194089;-0.050092973;0.06453696;0.026566338;0.13635392;-0.09204091;0.019228624;-0.045425676;-0.094168276;0.043313574;0.085985795;-0.2737644;-0.018434014;-0.14378716;0.21291032;-0.06688881;-0.027881784;-0.09632093;-0.36388072;0.14670762;0.023103788;0.0386017;0.06229641;0.16914485;-0.051114112;-0.036661383;0.07389784;-0.1074181;0.051078834;-0.02532143;0.03719024;0.14461452;0.19681492;0.12981622;-0.015262102;-0.11892552;0.027563576;0.24962361;0.11698027;-0.028454809;-0.013312492;-0.06394846;0.10608151;-0.16957821;-0.083578065;0.15266201;-0.053487692;0.16478917;-0.073975116;-0.0072364463;0.13945837
0.12803705;0.11296084;0.15082854;0.18364488;0.046548925;0.008261419;-0.11829449;-0.1776204;0.058549166;-0.0009481958;0.06883791;0.08996702;-0.028040217;-3.276794e-05;-0.03371516;-0.012562291;0.09289362;0.19655745;-0.08167947;-0.015133805;-0.23345967;0.115022495;0.09339128;-0.024680618;0.08440706;0.04945987;-0.035786845;0.0282964;0.02571785;0.06400657;-0.12105049;-0.11479103;0.059620935;0.025014745;0.0048725493;0.07568503;-0.03463941;0.086021885;0.005042543;-0.10862275;0.19053684;-0.13081914;0.018461863;-0.0832389;-0.011108495;0.19091684;-0.008593119;-0.09720607;-0.16387172;0.14470083;-0.104492076;0.07219133;-0.15377647;0.04283766;-0.04002649;-0.10594445;0.04428217;0.050063107;0.020345714;-0.017930852;-0.09460716;-0.10025574;0.12288413;-0.060946435;-0.033034593;0.05019184;0.06428476;0.048617292;0.07030078;0.08610127;-0.017470589;-0.087683275;0.05315472;-0.16457136;-0.0063145;-0.02190073;0.10345864;-0.063266926;-0.114699356;0.2049647;0.101656884;-0.049858347;0.019127162;0.16800919;-0.0019183671;-0.09164548;0.08245591;-0.041757036;0.117552914;0.09509487;0.02172057;-0.148069;-0.26076207;0.022356195;-0.04606351;-0.0053653712;-0.04079654;0.083428144;0.0062823338;0.0062533696;-0.075445406;-0.09622007;0.31363314;-0.13760671;-0.05330211;0.055491712;0.0754606;-0.22288068;-0.09318616;-0.14123914;0.21344696;0.12488097;0.061063994;-0.021506038;0.16126308;0.0883169;-0.078744605;0.11962619;0.21038808;-0.016340502;0.1052665;0.1022493;-0.07452873;0.13334729;0.09422862;0.0641759;0.012681834;0.006501533;-0.10355876;0.1611387;0.029278452;-0.24485971;-0.08771186;0.0117232455;0.11334418;-0.057137836;0.17265375;0.06247151;-0.12376482;0.039990906;0.25729325;-0.015537688;0.1505903;0.07176661;-0.019660354;-0.047627665;-0.17847455;0.07305072;0.038307324;-0.059854455;-0.15657504;-0.17556156;0.030969942;0.11809717;-0.04808862;-0.09670792;-0.14712231;0.18682641;0.3186261;-0.02432533;-0.052535325;-0.093114644;0.09295253;0.06795068;-0.11858254;-0.12494659;-0.074860185;-0.0791871;0.013940618;-0.028158423;-0.06760928;0.2136943;0.06858438;0.10766269;0.0039335294;-0.12180612;-0.05061518;-0.08986245;0.08210365;0.26142126;-0.06764238;-0.04266788;-0.12705924;-0.02577978;-0.15530872;-0.21909878;-0.08427214;-0.04295496;-0.094723985;0.06264603;-0.14999163;0.03717201;-0.022976084;-0.069402725;-0.06740319;-0.09550841;0.13772884;0.12390941;0.008578864;-0.2320938;-0.115279764;0.08537027;0.0074210046;0.20742649;-0.07837951;0.03791706;-0.24448146;0.04186433;-0.121882275;0.28080055;-0.03960496;-0.046086214;0.097375244;0.03944539;0.13640732;-0.06000538;-0.0946914;-0.11525302;-0.17029276;-0.005751427;0.21046558;0.19897395;0.07257337;0.13175113;-0.16395625;-0.011663433;0.1216263;-0.092032045;0.041650254;0.11651087;0.16371176;-0.11088031;0.06135924;0.067881696;-0.1377571;-0.106596954;-0.078737624;-0.0011091701;-0.11229225;0.1546603;-0.22295175;-0.008043907;0.01711057;-0.031173315;0.1189372;0.041039612;-0.0075568287;0.044548534;-0.15561606;0.28327557;0.14358246;0.21394096;0.09859064;-0.10363465;0.15040866;0.11004836;0.10294222;0.026841098;-0.21037158;0.042981625;0.1387737;-0.13121235;0.057632312;-0.058572296;-0.09005928;0.055073686;0.050632916;0.005771764;0.004150319;0.15046826;-0.063510165;-0.109456375;0.17935008;-0.15666302;-0.06142728;-0.060660675;0.112784706;-0.05050832;-0.07037372;0.11818225;-0.07832873;0.099352844;-0.05411447;-0.059102803;0.037176676;-0.22469194;-0.05688483;-0.08052515;0.044291545;-0.06915391;0.03633146;0.027001053;0.22817542;-0.07552495;-0.030911755;0.022016536;-0.05086514;0.018318921;-0.06843075;0.03678903;-0.1739828;0.06964917;0.003092391;0.0043572253;-0.16867106;-0.2107262;-0.18290114;-0.08916861;-0.038476475;-0.029961273;-0.2933514;0.18004094;0.060422044;0.028127804;0.17464037;0.12551093;-0.094839245;-0.14391968;-0.017041394;0.059318688;0.06510182;0.029943774;-0.040756244;0.13838114;-0.1391877;-0.108755544;-0.10258739;0.09939264;-0.08343251;0.08680416;0.08616536;0.04251192;0.008629816;-0.14206526;0.016399777;0.020889984;0.050267775;-0.11004866;0.1402503;-0.09186817;0.0003946;-0.065083355;-0.015158671;0.04721689;-0.18373065;0.09047757;0.1754177;0.11480877;0.053780604;-0.13469537;0.0642249;0.19193824;0.05287752;0.04938733;-0.20691071;-0.005999162;-0.07347916;-0.0689254;0.058510873;-0.26099756;0.1876582;-0.08432854;-0.16333352;-0.26613626;-0.047426134;-0.115403526;0.109380774;-0.20264101;-0.010360567;0.18015875;-0.007903859;0.020612817;-0.056038704;-0.035041966;-0.122199655;-0.031700406;-0.09639092;0.13161537;0.0944334;0.1438861;0.034387097;-0.009552331;-0.1275042;-0.015396309;0.13306022;-0.037420068;0.03828328;0.060918942;0.059753824;-0.1688094;0.07862194;0.17925572;-0.091941915;0.010306338;0.10328053;0.09738773;-0.11742263;0.086253785;-0.13480686;0.16843466;0.07031282;0.07488289;-0.09661619;-0.097881906;-0.06019997;-0.017618345;0.06262931;0.039717034;-0.03160498;0.14495514;0.062019296;0.15965901;0.10646427;-0.119691625;0.096279964;0.13506454;-0.1957181;0.15363275;0.041021332;-0.12407814;-0.18701854;0.21902719;0.104213156;-0.46043095;-0.058306254;-0.04433486;0.07868875;0.08736699;-0.10109797;-0.030888116;0.057254206;0.0007695535;-0.20962383;0.1241035;0.062667705;0.14910825;-0.124515474;-0.13412745;-0.16166748;0.062525295;-0.04064361;0.036635015;0.1873492;0.012250387;-0.08396835;0.014933192;-0.09282163;-0.14206377;-0.05529775;0.3222574;0.07212815;-0.092921175;0.19451252;-0.028363042;0.14862621;-0.09153743;0.060550068;0.027994893;0.16506387;0.21217261;-0.007128118;0.14949213;0.15173478;-0.054444145;0.003399028;0.2247456;0.050877854;-0.01270989;0.15157422;-0.17894503;-0.14175588;0.058278587;0.08938215;0.13403444;-0.27326298;-0.14115709;0.027127763;0.019883232;0.13799407;0.01620098;-0.038994305;-0.2803544;-0.029512854;-0.12660255;0.22622024;-0.11896605;-0.10307198;0.04546502;-0.028842542;-0.037498422;0.03189106;0.22412911;0.065625146;-0.056371488;0.01771556;0.095051974;0.017354041;0.065599285;-0.1726214;0.1369188;0.09349394;-0.08913587;0.06936212;0.08077618;-0.04190075;0.15720604;-0.047512047;-0.0055830483;0.04790965;-0.058156446;-0.016966524;0.14612369;0.06414444;-0.005195608;-0.00655254;0.1369639;-0.13936143;-0.11932968;-0.11145583;0.058442824;-0.020409023;-0.023869416;0.014542859;0.04269871;-0.02271072;0.044207785;-0.027949577;0.11896133;0.005874346;0.22940509;-0.06862241;0.16280776;0.02170261;-0.084668376;0.0622279;0.02039575;-0.2661527;0.07195735;-0.08109306;0.09728787;0.11442979;0.027946776;-0.026317585;-0.3613019;0.19212076;0.055613875;0.06530601;0.105378196;0.21968594;-0.021770768;-0.0504657;0.03999049;-0.031463906;0.026815148;0.0769198;0.013440573;0.11671418;0.26411167;0.11329322;-0.07814312;-0.13136381;0.082199104;0.17459683;0.023107512;-0.02186999;0.014655989;0.024039496;0.0994995;-0.13751952;-0.19381522;0.1627276;0.012430356;0.13124456;0.016745333;-0.03377515;0.11721979
0.108663484;0.0415799;0.14247373;0.13393286;0.00017312325;-0.048306976;-0.09515519;-0.10855648;0.037160996;0.0602203;0.117325656;0.033130933;0.004776581;-0.09214052;-0.17650674;0.08510295;0.088163584;0.20769008;-0.0866644;0.044014264;-0.09521265;0.106854364;0.00346079;0.09525722;-0.035549115;0.039416295;-0.117408104;0.084310435;0.016671516;-0.051778458;-0.015421604;-0.051850297;0.05742989;0.03991681;0.04164572;0.03938147;0.078665495;0.19134067;-0.10972306;-0.10085008;0.1042243;-0.087721154;0.067953624;-0.15030502;-0.058649614;0.26690173;0.109550685;-0.012881292;-0.21767768;0.013665643;-0.08957171;-0.038025644;-0.15161629;0.10381099;-0.032897886;-0.16656318;0.019920593;0.06013593;0.08556279;0.03197679;0.025598474;-0.13428271;0.08242955;0.08117219;-0.1497986;0.15040208;0.13238844;0.012154046;0.022228131;0.092259705;-0.035368104;-0.07101778;0.102229826;-0.13668531;0.032813016;-0.05652267;0.09864897;-0.04010147;-0.05777794;0.12772204;0.07718849;-0.02295139;0.06995001;0.07660393;0.123322114;-0.12089843;0.04328887;-0.060120285;-0.01955776;-3.9609477e-05;-0.086661056;-0.12299617;-0.09719916;0.08706627;0.034710255;-0.027845865;-0.08694409;0.16567981;0.030213358;-0.07723016;-0.18980724;-0.067593426;0.3039707;0.0062894104;-0.02383117;0.23457184;-0.04081832;-0.12735857;-0.14398049;-0.09779338;0.23192967;0.10470061;0.12789118;0.11287701;0.17406736;0.008327303;-0.059971813;-0.01175395;0.119609855;0.01061896;0.16551512;0.11586482;-0.042122524;-0.048776403;0.14047606;0.007521835;0.011109939;0.059722636;-0.16550599;0.09897146;0.008432476;-0.21659891;-0.045035966;-0.04684051;0.23704623;-0.04574742;0.09497564;0.079031244;-0.04241932;-0.07171167;0.30063117;-0.096308425;0.116192624;0.02149778;-0.14832306;-0.026201896;-0.10584382;0.08905987;0.04224033;-0.06257482;-0.10765812;-0.14853656;0.038322277;0.20036444;-0.045833554;-0.15502517;-0.048390437;0.22458278;0.28093317;-0.1702022;-0.018650047;-0.023124596;0.1965268;0.096658394;-0.2410854;-0.1015344;-0.09032742;-0.024522197;0.07978283;0.004537169;0.0816286;0.17196015;-0.1001374;0.024002744;0.039214674;-0.15362942;0.051528208;-0.1620176;0.19086875;0.16879247;-0.1330591;-0.012051433;-0.12227331;-0.14338148;-0.1345741;-0.121325955;-0.1458003;0.061821755;-0.18304381;0.057553347;-0.081268445;-0.024938282;-0.1026278;-0.15303992;-0.19781466;-0.18111841;0.04916472;0.13040951;-0.11753302;-0.22509716;-0.12523986;0.06331622;0.0636034;0.23302403;0.017319584;-0.04871858;-0.19574742;-0.11495631;-0.22275749;0.17338632;0.035639994;-0.04445406;-0.027278736;0.008907625;-0.011908927;0.024168428;-0.049456544;-0.0041875853;-0.059762854;0.14444633;0.061001785;0.17078473;0.015422192;0.09072682;-0.11420089;-0.09061932;0.03198525;-0.15630344;-0.001649552;0.13326198;0.15912355;-0.1247635;0.17739706;-0.0137806265;-0.08591846;-0.18902734;-0.04816075;-0.107367106;-0.102568306;0.084174275;-0.07215364;-0.10552738;-0.04447025;0.0025455533;0.12044201;0.08291381;-0.051324185;0.047664538;-0.104122564;0.30627546;0.09230939;0.2237225;0.0673548;-0.14845654;0.029645262;0.08812282;0.10800748;-0.043266684;-0.24792513;0.11354436;0.12748727;-0.049759205;-0.004218247;-0.09308773;-0.08800894;-0.07173487;0.14186668;-0.0018136677;0.013013928;0.1382305;-0.0803095;-0.14871271;0.14406201;-0.20925416;-0.06576831;-0.040935934;0.07682275;-0.044102564;-0.09748309;0.08577727;-0.019251196;0.10212567;-0.17136541;-0.026006151;0.026520593;-0.118622094;0.06665405;-0.018019369;0.11230138;0.08965914;0.15471177;-0.006062067;0.2694459;-0.08450435;-0.031440396;0.029850136;0.07304447;-0.13288434;-0.031977486;0.03642392;-0.08020471;0.0057158605;-0.09248489;0.0008026245;0.015444722;-0.23123111;-0.06491437;-0.07732668;0.08183954;0.03840415;-0.24886613;0.110690095;0.019147782;-0.03182022;0.21757536;0.1464898;0.028308032;-0.0419026;-0.12198031;0.20841825;0.11705258;0.03490242;0.057839956;0.12138107;-0.16294901;-0.011436082;-0.027553633;0.008004371;-0.076055974;0.03413631;0.19018684;-0.024031803;0.043510515;-0.07791801;0.062499773;0.013835604;0.154386;-0.10415272;0.16292794;-0.18493892;-0.017877102;-0.048302684;0.009867462;0.0493479;-0.061894536;0.11732548;0.103557535;0.02528691;0.04219212;-0.11054791;-0.068434805;0.20353869;0.0380503;-0.052126657;-0.112089954;-0.1441397;-0.009420497;0.022146216;-0.034653194;-0.21584162;0.06322813;-0.054720312;-0.11633668;-0.3000921;-0.0043012113;-0.08105281;0.17474483;-0.19330563;0.014768874;0.25628594;0.028454158;-0.06323881;-0.15049422;0.0038887004;-0.027512386;0.083283104;0.056592785;0.19542019;0.03487493;-0.041313674;0.06024286;-0.07030237;0.007810472;-0.052100793;0.1968517;0.002108643;-0.030309545;-0.017041333;-0.07498162;-0.08141156;0.12283089;0.114856414;-0.08252897;0.047180183;0.18141674;0.07077874;-0.13943173;0.17891537;-0.041642513;0.04241485;-0.062360827;0.098061964;0.038036224;-0.05886667;-0.039766714;-0.13669091;-0.006852151;0.060746;-0.031036172;-0.03202887;0.037498064;0.0013930339;0.13883938;-0.06264737;-0.010093287;0.05357451;-0.07591089;0.22472695;0.0705533;-0.08544035;-0.04716821;0.10956781;0.22751275;-0.49809176;-0.1593713;-0.12213644;-0.04027091;0.10484637;-0.11516403;0.09169862;0.061841376;-0.009017758;-0.108382165;0.13601768;0.085742004;0.106014796;-0.0631902;-0.26583102;-0.20177174;0.019588618;0.0152074415;0.0005057088;0.19562338;0.11554329;-0.026263436;-0.045765232;-0.104467124;-0.22472008;-0.023113674;0.2580531;0.07454126;-0.07151146;0.0426392;-0.16271329;0.114662796;-0.0883685;-0.04222509;-0.07538923;0.21461979;0.2236731;-0.115701556;-0.006480499;0.13420022;-0.09413084;0.011554484;0.15250607;0.15081353;0.0750382;-0.00777312;-0.17247488;-0.10306272;0.069824435;0.004244566;0.063384905;-0.2695948;-0.08958063;-0.006036724;0.11863753;0.030876352;0.08143538;-0.047932774;-0.23081048;0.09150063;-0.15080328;0.15173905;-0.016947294;0.04292386;0.021688733;0.047304623;0.034727186;-0.039017983;0.22906092;0.030656783;-0.04665873;-0.023393812;0.23026474;-0.044492263;-0.008851546;-0.10298957;0.026539296;0.08756484;-0.038207605;0.014698692;-0.008739007;-0.012317883;0.0853912;-0.051794175;-0.010607933;0.04956924;-0.13572094;-0.0059294836;-0.044224598;-0.0173595;-0.0008094142;-0.06777618;0.104379475;-0.24488981;-0.097938746;0.031427473;-0.0675559;0.084295906;-0.03024442;0.033738706;0.05819688;0.015734542;0.043971706;0.058120966;0.08824457;-0.04674534;0.19029433;0.044704545;0.10995501;-0.077600524;-0.14730887;0.10850109;0.051608298;-0.32948086;-0.073020056;-0.18101081;0.16459225;-0.07405548;0.020968156;-0.06904837;-0.4309307;0.20777248;0.060611118;0.06549995;-0.009882246;0.13947113;-0.016635753;-0.032874092;0.0364199;-0.018622618;0.039900046;-0.0014355074;-0.017384518;0.024090935;0.102427766;0.12673712;0.06867236;-0.096300766;0.13528447;0.25366175;0.047687683;0.05281051;-0.06271056;0.012627148;0.14962712;-0.09700182;-0.110351816;0.039370332;0.08653144;0.18671192;0.022756584;0.057230107;0.046477158
0.09656343;0.0065887584;0.12388267;-0.04055325;0.09822594;-0.019499872;0.001902481;-0.17021851;0.092451565;0.06576177;0.12962188;-0.033289626;-0.038374454;-0.07441558;-0.035415504;0.04509166;-0.041447736;0.17586835;-0.10880487;0.08589213;-0.21983966;0.12546486;0.060752142;0.028877765;0.072552755;0.0140619;-0.18357012;0.089345515;0.07855206;-0.09018158;0.040312987;0.034422196;0.053855583;0.012773517;-0.05994892;0.05671934;-0.08661789;0.0855423;-0.031243952;-0.09236129;0.10057807;-0.011882562;0.067577034;0.005974124;0.06440482;0.19667293;0.14394094;-0.004923471;-0.1943883;0.20507894;-0.19722721;-0.053556327;0.0039800173;0.09540199;-0.044708736;-0.061986353;-0.016641984;-0.10118879;0.12821439;-0.08717783;0.08601207;-0.08428666;0.039205834;0.10046531;-0.11847863;0.014950245;0.01254523;0.017975206;-0.066207804;0.12040337;-0.0021218485;-0.106083535;0.08448729;-0.024279928;0.0493939;-0.08857969;0.125119;0.032267787;-0.07407628;0.2068849;-0.024031902;-0.088842295;-0.012260172;-0.0035122072;0.07603095;-0.12059639;-0.043236595;-0.010869489;0.033021286;0.114538394;0.0061394055;-0.09791472;-0.07755384;0.013775081;-0.029437546;-0.06944242;-0.1534472;0.049450524;0.11281196;-0.054252166;-0.15159187;-0.10993407;0.3040684;-0.07499721;-0.020661218;0.11846346;-0.049571555;-0.14943111;-0.09132514;-0.12439501;0.21080983;0.12306053;0.047349032;0.14444172;0.17394745;0.022824954;0.09075544;0.003854974;0.08747992;-0.011619639;0.10815807;0.1610967;0.062328707;0.004223088;0.03458936;0.043363854;-0.009760585;-0.026904939;-0.101037815;0.049425248;-0.020220235;-0.21872653;-0.053474814;0.03364172;0.13044612;0.03172887;0.0867368;-0.038382284;-0.0008522644;-0.08322334;0.26776662;-0.110749885;0.13414179;0.032191537;-0.08899739;-0.11057406;-0.10289447;0.0903428;0.047225095;-0.14303659;-0.1049806;-0.1284855;0.10743911;0.121695034;-0.04096549;0.06440303;-0.0741646;0.19986683;0.2245967;-0.17209238;0.037273042;-0.00949023;0.1341434;0.029372623;-0.21557246;-0.111379445;0.13779242;-0.14379056;-0.06918161;0.047026332;0.09303915;0.18576802;0.046937257;-0.06394763;0.06582704;-0.064790696;0.20924737;-0.052269503;0.15826312;0.17295405;-0.06444238;-0.025296696;-0.21444137;-0.14631738;-0.0036597408;-0.32834104;0.03839784;0.058617756;-0.14085677;0.09223366;-0.18847078;0.12716709;-0.1290316;-0.06284811;-0.15775844;-0.03738356;0.1530583;0.1701384;-0.056090157;-0.19107372;-0.07179562;0.096350156;-0.03094496;0.121768035;0.10037434;-0.09836824;-0.059074666;-0.079527095;-0.009563341;0.27810213;0.046081726;-0.11630513;0.100197434;-0.07566914;0.08969195;-0.077837974;-0.06439385;-0.06757439;-0.23511569;0.062274322;0.0745808;0.18225242;0.095019996;-0.0010857554;-0.07316647;-0.13869411;-0.018860258;-0.12835939;-0.0490361;0.012106713;0.115577824;-0.09090499;0.04522144;0.010668041;-0.10827643;-0.17658024;-0.079240926;0.028300315;-0.10044393;0.09037686;-0.091160916;-0.052806724;-0.0028769616;-0.07269709;0.10917256;0.017550943;0.060722563;-0.07607403;-0.07576173;0.2210766;0.03514297;0.14360343;0.04792902;-0.00795356;0.09767857;0.103173845;0.024138244;0.035362095;-0.22016907;0.009163642;0.092191756;-0.18162715;0.028040856;-0.040903576;0.13597764;-0.0044600824;-0.007374909;-0.15595154;0.06680617;0.27425843;-0.10285714;-0.1933724;0.033030957;-0.24951898;0.021569734;0.108268335;0.24171856;0.07905817;-0.07921003;0.05701377;-0.014996916;0.02026399;-0.048638023;-0.06969421;0.031200934;-0.08918592;0.012166873;-0.07289569;-0.052265164;-0.053089757;0.11632288;0.032689616;0.28400776;-0.00267487;0.0466792;-0.09733371;0.03683387;-0.014634805;-0.18207854;0.14387494;-0.13348632;0.055410158;-0.057142507;-0.09257148;-0.002622078;-0.12969323;-0.16334301;-0.08623482;0.012223888;-0.08603183;-0.31701806;0.17340453;0.017025808;0.024062535;0.16171746;0.13107486;-0.12362634;-0.069048025;-0.001934329;0.06559478;0.05319694;0.1230247;-0.00500676;-0.04470434;-0.08940018;0.07582302;0.05984938;0.05458901;-0.14251168;0.06685024;0.104815975;-0.07769455;0.04145266;-0.013885255;0.065935135;-0.08982839;0.21366796;-0.14591672;0.15309562;-0.043764554;-0.11557347;0.067234635;-0.008659387;0.03459337;-0.08967867;0.14657842;0.0994746;0.083841205;-0.006753364;-0.1857204;-0.06724969;0.091602966;0.12147605;-0.02726952;-0.0131268855;-0.09161112;-0.11940729;-0.1820787;-0.059445046;-0.25544444;0.07306618;-0.08334976;-0.21490023;-0.292014;0.11333248;-0.06644129;0.11831672;-0.09716807;-0.026555197;0.23122543;0.056506235;0.074600115;-0.14374097;0.07674875;0.035403408;8.874363e-05;0.01675471;0.08837707;0.05639898;-0.03452886;-0.025932992;0.073811576;0.118413;-0.09154007;0.14826278;0.02954503;-0.08089929;0.046136152;-0.017149793;-0.13428222;0.12412601;0.16022556;-0.047082912;0.057202764;0.08625692;0.0678189;-0.1741348;0.11723791;-0.11253502;0.009529051;-0.054428704;0.08317963;0.062103536;-0.12462633;-0.10483754;-0.0970821;0.021265287;0.0739917;0.057669275;-0.036472168;-0.054380942;0.14970863;0.068620875;-0.15552934;0.06562318;0.015958399;-0.08034312;0.061619543;0.12574624;-0.097695634;-0.103006594;0.12882897;0.18022002;-0.3658823;-0.12631206;-0.03405448;0.063738234;0.12540846;0.010058101;0.14023672;0.02081274;-0.19710581;-0.2004589;0.094235234;0.11701985;0.16585858;-0.1613788;-0.30585846;-0.03458211;0.001523117;-0.034284256;-0.028686825;0.06657739;0.08008661;-0.0403377;0.035531588;-0.20419775;-0.14148772;-0.0070106;0.09966109;0.017419279;-0.12518488;0.051348913;-0.096727155;0.12934132;-0.010435405;-0.059142984;0.049466174;0.019707488;0.24502857;-0.19734512;0.13087967;0.09715765;-0.11022898;-0.10620575;0.17160515;0.04469406;0.118455894;0.049835723;-0.00871359;-0.096705094;-0.014843045;-0.013063877;-0.017224573;-0.12038581;-0.10876402;-0.03754705;0.0688419;0.10349637;0.023848498;-0.12929626;-0.17565271;0.037147336;-0.061835613;0.025233196;-0.12636656;-0.15347314;-0.13780636;-0.01846459;-0.07344506;-0.050439507;0.10414221;-0.015087888;-0.07473856;0.061583217;0.0051159547;0.029512037;0.026711939;-0.052965242;0.028005641;0.053168155;-0.05886596;0.03089184;-0.0046765315;-0.044992063;0.16380611;-0.055006713;0.04404756;-0.046087768;0.045430098;-0.01769054;0.035869222;0.004231954;-0.086216904;-0.04322155;0.02895447;-0.09029582;-0.018141447;-0.092040606;-0.02656305;-0.05285327;0.0008121164;0.06627219;0.09155379;-0.057288427;0.044665545;0.07807355;0.0400573;0.06740581;0.1737581;-0.1264711;0.11053343;-0.02306221;-0.09454436;0.12283449;0.04325764;-0.26449838;-0.052970525;-0.11429918;0.11944535;0.019887218;0.022092808;0.02290056;-0.26583353;0.05628134;0.0070702536;0.105796665;-0.07591931;0.065593205;-0.059291992;-0.072881356;0.10691487;0.06757069;0.0332068;0.054373413;-0.058322407;0.13871153;0.14285325;-0.013928013;-0.044289794;-0.04190546;0.14717256;0.2084951;0.11641511;0.06466689;-0.019237675;0.010697938;0.18531047;-0.167181;-0.26594985;0.08013267;0.045246907;0.20008518;0.045738593;0.044244688;0.049055725
-0.041148156;-0.037158646;0.095183484;0.08593005;0.120486766;0.09873889;-0.15110782;-0.16173351;0.00697535;0.030672884;0.023941102;-0.034465358;-0.044637647;0.019669874;-0.079380915;0.020440523;0.11187064;0.21593505;-0.056592144;-0.016490199;-0.22470836;0.05366258;-0.009717871;0.031304885;0.10199018;0.109657265;-0.15756091;-0.05067833;0.08895503;0.05815861;-0.06360449;-0.012295088;0.10698773;-0.07224052;-0.05480464;0.13621652;-0.038760655;0.11563319;-0.06500312;-0.045374025;0.038031798;-0.09342836;0.008310113;-0.12322593;0.028032538;0.036014482;0.0037448222;0.014189517;-0.08506413;0.056358453;-0.13452493;-0.046150286;0.047043845;0.09213502;-0.14156693;-0.14457643;0.10839897;0.007728503;0.1289625;-0.09474886;-0.023296421;-0.11908513;0.05088761;0.073497914;-0.08714474;0.08921165;0.056085095;0.024251172;-0.060450517;0.0143920835;-0.057946313;-0.124586016;0.030903133;-0.09907387;0.0757894;-0.06500385;0.1527926;-0.024110427;-0.0051812488;0.23346524;-0.055237804;-0.098473735;-0.06274708;0.10022221;0.007612842;-0.10390608;0.03325367;-0.012673731;0.08711294;0.09624037;0.008099575;-0.0740723;-0.09417749;0.025410028;-0.024699744;-0.18533671;-0.11501912;0.018600613;0.10317014;-0.13472526;-0.22508149;-0.16248052;0.30958626;0.004539677;-0.024381943;0.17048927;0.08934062;-0.11622003;-0.044200122;0.045225576;0.15499973;0.2759094;-0.050328147;-0.016176352;0.1582657;0.15664974;-0.025868524;-0.021802057;0.15899022;0.0053192093;0.11430424;0.15914817;0.002088967;-0.03525028;0.13099171;0.010937964;-0.029571649;0.04896087;-0.1076622;0.11035512;-0.026749251;-0.27213582;-0.11550175;-0.0020281186;0.082993574;0.07555282;0.1233575;0.13755916;-0.094594285;-0.15430677;0.20557755;0.050458904;0.12113937;0.0021940165;-0.054098424;-0.11029171;0.0059247855;0.13856149;0.080669194;-0.06882743;-0.05415518;-0.1539824;0.0712934;-0.007548012;0.08257702;0.026212702;-0.18482845;0.088441186;0.30044237;-0.07851131;0.0071039237;-0.070386134;0.14164723;0.07326412;-0.0935194;-0.12657258;0.15240636;-0.18017456;-0.04509053;-0.041566968;0.16922581;0.081783235;-0.050990645;0.08748848;0.18140665;-0.13299292;0.04604098;-0.15166602;0.07105045;0.26864767;-0.042118985;-0.10263091;-0.23605263;-0.059817158;0.023517288;-0.25336838;0.061649166;0.05633172;-0.14062645;-0.07363483;-0.24773186;0.06438086;0.00809348;-0.09581589;-0.21932548;-0.1423012;0.14191845;0.05740193;0.0683787;-0.2142096;0.045958456;0.13164927;-0.026499702;0.30956194;0.06601871;-0.050066326;-0.03594578;-0.0054712268;-0.106247395;0.15514351;-0.055334263;-0.034833837;-0.058990467;-0.08684387;0.06396104;-0.0061705178;-0.012572323;-0.019070648;-0.120356016;-0.051112752;0.07205428;0.07058081;-0.0103519615;-0.02477616;-0.13738169;-0.09611063;0.069500074;-0.15220094;-0.037710965;0.11603939;0.13596812;-0.049589965;0.010766199;0.08559117;-0.09680432;-0.16136403;0.054321192;0.009717046;-0.011802156;0.13221347;-0.2090795;-0.14875466;-0.11971517;-0.010555991;0.17293526;-0.096334316;0.091251805;-0.07663876;-0.08917523;0.16844827;0.09603422;0.13254589;0.11052979;-0.026120871;0.03906397;0.07353395;0.01741535;0.04153555;-0.2197807;0.01441542;0.16047882;-0.08176721;-0.05367892;0.06568807;0.08486382;0.09297934;-0.063761614;-0.09621252;0.108448274;0.21843335;-0.11247974;-0.22331217;0.114452705;-0.21489803;-0.061865773;0.0020915114;0.1852239;0.12469868;0.016505593;0.004922607;-0.0064403946;0.10266589;0.024725657;-0.0069206636;-0.019680515;-0.15600324;0.026735945;-0.1333707;0.0001615447;-0.0399789;0.0863166;0.04604672;0.18748981;0.052594077;0.04855364;-0.0829702;0.034281906;-0.060223836;-0.20280023;0.11923347;-0.087336846;0.12947996;0.06135996;0.02799543;-0.010803229;-0.22323471;-0.23830734;-0.06623971;0.10033763;-0.07050583;-0.28054702;0.105211586;0.089694105;-0.1191897;0.10246444;0.11440421;-0.06798155;-0.1057191;-0.11717899;0.18469718;-0.016007328;0.03827807;0.00409973;0.08187284;-0.12615032;0.025797935;-0.041915502;0.048679046;-0.07958399;0.052990217;0.09396889;0.009644423;0.11381767;-0.028950745;0.08491417;-0.06487704;0.10786301;-0.115480475;0.019331293;-0.12315335;0.019263605;0.11275442;0.14898396;0.03795401;-0.1703174;0.11549277;0.08836389;-0.027840748;0.0670217;-0.17208476;0.03017293;0.23319162;0.173286;0.008742311;-0.038709085;-0.16789842;-0.038734965;-0.07489567;0.05560537;-0.17814717;0.11657837;-0.09826164;-0.08306174;-0.21226084;-0.02332162;-0.17575558;0.11249332;-0.054618604;-0.003167629;0.33955926;0.009256109;0.008733292;-0.10627444;-0.013352444;0.072974354;-0.015709968;0.0018147602;0.18602853;0.025069576;0.03871505;0.005377602;0.07907794;0.07914438;-0.08614148;0.033542555;-0.033172823;0.07787269;0.0068328124;-0.06272286;-0.19861883;0.17764038;0.17659687;-0.040733535;0.12433003;0.121583596;0.07093869;-0.09211447;0.0950618;0.003897637;-0.05506927;0.022367748;-0.00014651901;-0.051122464;-0.039732646;-0.16827615;-0.08584377;0.11283665;0.15222152;0.14223036;0.013975955;-0.06078426;0.04354305;0.14919464;-0.19342731;0.14987564;-0.035699856;-0.004622168;0.0031529474;0.01596199;-0.17361324;-0.13107957;0.1178742;0.14574106;-0.30949557;-0.12137505;-0.12877841;0.09395148;0.05377892;0.014853293;0.10529906;0.027795251;-0.11739862;-0.069019206;-0.015804838;0.07685092;0.17567557;-0.10224781;-0.22463134;-0.031604253;-0.014029228;-0.061075862;-0.03000623;0.04751324;0.049444746;-0.04836206;-0.046123248;-0.12589715;-0.1485338;0.040444124;0.17664963;0.07555837;-0.1068277;0.19285668;-0.10231153;0.047789298;-0.029762499;0.063691385;0.039685894;0.026662031;0.20197554;-0.11403796;0.099975735;0.06518526;-0.059987873;-0.012222034;0.052640986;0.09246399;0.050878707;0.12827039;-0.0021246502;-0.13108087;0.04687251;0.056488436;0.10835451;-0.16698891;-0.22000702;-0.058039363;0.020294731;0.08112195;-0.062296066;-0.09703553;-0.27288458;0.10854999;-0.07257806;0.14377391;-0.18970405;-0.16491333;-0.13134961;0.0501856;-0.014045367;0.0036465814;0.20292227;0.071439266;-0.0031503197;-0.037591066;0.10343847;-0.05295742;-0.088078454;0.02174816;0.0006645863;0.07242895;0.009186579;0.030481072;0.15853737;0.0009519371;0.1055231;-0.051373027;0.0056050746;-0.052368585;-0.0016920257;0.016410628;0.071123265;0.07504733;0.021217456;-0.026878692;0.16389802;-0.11437515;0.065167226;-0.07880326;0.039044507;0.05201326;0.0010553165;0.11887647;0.11273194;-0.056375436;-0.06878801;0.027800392;0.085736826;0.09545217;0.15042746;-0.027135588;0.123871684;-0.045742635;-0.04699169;0.108877726;-0.077208236;-0.2656363;-0.081222706;-0.16243298;0.030334871;0.065869756;0.067216456;0.02184518;-0.30022544;0.115722425;-0.011689605;0.1387997;-0.06651312;0.02407489;0.04481022;-0.04707505;0.15399142;-0.013537843;-0.11190728;0.022950513;-0.007577898;0.20313488;0.13243783;-0.061188173;0.09813739;-0.17269617;-0.0023939407;0.15740176;0.016682332;0.061256982;0.03577525;0.09299745;0.13609134;-0.17319876;-0.17974652;0.11435966;-0.07678039;0.19777673;-0.0055864006;-0.05108325;0.07313723
0.12865785;-0.01983557;0.01744572;0.027525559;-0.025280092;-0.037368193;0.036441203;-0.106660366;-0.008736055;0.037068937;0.13405383;-0.051695913;-0.088635296;-0.109363005;-0.16282074;0.038121413;0.10780187;0.15659127;-0.049529005;-0.030951506;-0.18220739;0.03493821;-0.06420937;0.027950928;-0.15257394;-0.013687573;-0.0979114;0.09216248;0.06540355;0.015108928;0.10092615;-0.0420861;-0.03832873;0.016730847;0.07636918;0.07565442;0.05612248;-0.023978114;-0.013884392;-0.05728448;0.14403449;0.0076712915;0.009375082;-0.033597834;0.10372838;0.14958833;0.086727485;-0.07389316;-0.10244421;0.1327786;-0.07699516;-0.015337057;0.046046007;0.19223274;-0.044870764;-0.08773914;-0.0133701535;-0.012186647;0.19496867;0.009615249;-0.0018301904;-0.10192651;0.18693902;0.0559641;-0.08733993;0.11095574;0.14809297;0.14678147;-0.16519065;0.10247121;0.15677299;-0.14667116;0.13530995;-0.08565555;0.041451503;-0.07295649;0.1343273;-0.08315893;-0.18626681;0.093487546;0.14254363;-0.058121547;0.079320304;0.07122646;0.048188943;-0.11951849;0.004494953;-0.14525436;-0.03959707;0.021774733;-0.06468768;-0.017004754;-0.007862191;0.008599868;0.019783728;-0.20978196;-0.052779607;-0.0015420767;0.16532254;-0.17407507;-0.101269506;-0.102251284;0.2233021;-0.014067815;0.050130226;0.22501877;-0.099307634;-0.09329303;-0.0783709;0.07345768;0.30741742;0.056940813;0.06936044;0.08380933;0.19184929;0.052204113;-0.049399044;-0.032454893;0.19769193;0.13524577;0.080059364;0.13234565;0.06711372;-0.06440856;0.022877386;-0.06289102;-0.12898533;-0.01623118;-0.013933077;-0.067773506;-0.008087792;-0.22617179;-0.025413964;-0.024258852;0.004691495;0.11364171;0.11984724;-0.011065449;-0.05790046;-0.178625;0.107276954;-0.011638803;0.12168836;-0.06501929;-0.11535021;-0.11184943;-0.11027711;0.1853423;0.0009209798;-0.08591841;0.014339445;-0.018721946;0.07512267;0.029313173;0.011965029;-0.047374576;-0.14100865;0.27792513;0.17122415;-0.0690552;-0.08868982;-0.116794914;0.15661357;0.07085943;-0.16802938;-0.1513672;0.11569552;-0.09756527;-0.08009516;0.15668143;0.14267005;0.08298197;-0.13268408;-0.04559212;0.09708792;-0.11976841;0.21035309;-0.03791691;0.16822428;0.06004765;0.005478983;-0.021457665;-0.10354185;-0.13375343;0.12631786;-0.30869374;0.09927794;0.12117141;-0.13488811;-0.0508937;-0.14568177;0.12894212;-0.04708855;-0.026172578;-0.0407379;-0.15712793;0.17464088;-0.0031417636;-0.0015006314;-0.098191194;-0.13904692;0.036354855;-0.08978906;0.12622805;0.10085008;0.018331625;-0.024246316;-0.05760103;-0.14920402;0.27084982;0.10663149;-0.11780508;0.10826101;0.11809379;-0.042044945;-0.07242063;-0.15274067;-0.026974812;-0.1058903;0.13601713;0.14966486;0.11318717;0.0047977506;-0.10048442;-0.19130746;-0.04765184;0.055205565;-0.017385287;-0.123665735;-0.07240302;0.059294708;-0.077700175;0.09557908;-0.011463633;0.043005627;-0.07274111;-0.06750337;-0.08863963;0.08988946;0.09626242;-0.065308735;-0.1402002;-0.088799864;0.025698192;0.21516062;0.010445589;-0.016963793;-0.05755211;-0.037765406;0.13166158;0.044119634;0.21732356;-0.008697945;-0.0075367345;-0.0014734776;-0.0059187785;-0.005791279;-0.08454923;-0.27180663;0.09517481;0.12998137;0.036464024;0.06769188;0.055300638;0.031126868;-0.0107382685;-0.049652036;-0.09432396;0.122039944;0.17549692;-0.035462912;-0.3317473;0.13616386;-0.26678112;0.0020025538;0.0005935817;0.16254611;-0.07764127;-0.095773876;0.006804589;0.032891426;0.17186378;-0.14998531;-0.023437405;0.054487746;-0.12350335;0.0061976016;-0.08225551;0.055623163;0.069863826;0.110769264;0.11085908;0.23978081;-0.02842812;-0.03268674;0.021624267;-0.07348581;-0.1033486;-0.11710336;0.04679475;-0.1359953;-0.030117499;-0.038645785;-0.11198499;-0.012519289;-0.23602656;-0.21111277;-0.20228384;0.032811508;0.007915617;-0.2673476;0.105926484;0.13328707;-0.19591314;0.02098172;0.075914405;-0.10435323;0.0040306426;-0.05569948;0.16347995;0.060996715;0.061472036;-0.019741287;-0.00818573;-0.093527034;0.090574324;-0.012733427;0.07864531;-0.15085126;0.13102053;0.24247973;-0.13522592;0.06744372;0.01772334;0.1810097;-0.105866574;0.076812826;-0.04717852;0.071302526;-0.044989333;-0.10552077;0.039668716;0.058375314;0.018379902;-0.111536875;0.10111459;0.2429102;-0.07229716;-0.04010248;-0.2417542;-0.015477365;0.24002723;0.012822584;0.059887245;-0.017109474;-0.0985402;-0.014074166;-0.11531871;-0.0040615103;-0.21532322;0.024900546;-0.060694195;-0.10806464;-0.08298272;-0.04851459;-0.1318366;0.18857798;-0.020243881;0.026210286;0.2424869;0.11077812;-0.08388576;-0.1944921;-0.058955226;-0.018914733;0.07322887;0.00379657;0.1999416;0.08126283;-0.033168845;-0.041157965;-0.020518484;0.07884927;0.101560764;0.11269255;0.06836315;0.07963946;0.018072417;0.0071792384;-0.1382722;0.051579345;0.022798361;-0.027203577;0.16600762;0.074351594;0.116383255;-0.18041268;0.10971665;-0.12986213;0.05682806;-0.0097459145;0.08920368;0.06867267;0.021582505;-0.27229363;-0.06368796;0.05351281;0.1838792;0.11574673;0.020872867;-0.11230197;0.014152694;-0.012968128;-0.21841136;0.0208401;-0.0334987;-0.07470265;0.15912615;-0.051635507;0.03582515;0.034464654;0.08293586;0.29464313;-0.31060132;-0.024882913;-0.12940568;-0.05775232;0.09839156;-0.031887997;0.006187995;0.094322845;-0.06920385;-0.059970893;0.08604178;0.017352734;0.1997781;-0.014756601;-0.21737257;-0.06907714;0.055749573;-0.0054760543;-0.01658681;0.048447564;0.011268436;0.053739663;-0.07065216;-0.11065061;-0.043652765;0.18526691;0.021887004;0.07475373;-0.06055839;0.10893304;-0.16010039;0.16541961;0.060880616;-0.05120713;-0.018105514;-0.016874611;0.25104675;-0.16724174;0.02823976;0.03038775;-0.07218377;-0.03752239;0.037480164;0.19144249;0.09346507;0.11245803;-0.034246564;-0.14608033;-0.023132067;0.063465185;0.020441305;-0.09095517;-0.12539627;-0.14717095;0.018183578;0.14489537;-0.042063676;-0.09229274;-0.08333123;-0.03633503;-0.12578921;0.15104523;-0.12659723;-0.2173091;-0.17154156;-0.14303243;0.040684577;-0.049690887;0.036499448;-0.0055154264;-0.14237383;0.04231686;-0.031340808;0.12018045;-0.0047955858;0.011680041;0.11470401;0.21157673;-0.101053715;0.015944973;0.07214885;-0.16256149;0.17759298;-0.00085639197;0.09700101;0.08393367;-0.033177957;-0.06602847;0.076386146;-0.02788706;-0.042003013;-0.06975163;0.006653139;-0.040186185;-0.016373815;-0.034812815;0.02922385;0.0059639416;-0.043395657;0.12398658;0.123594336;0.099953175;0.011938095;-0.03806073;0.055465203;0.035300925;0.15723647;-0.18382554;0.052775305;-0.0017421849;-0.14732246;0.09232416;-0.03177045;-0.22682013;-0.12603751;-0.23272578;0.071415864;-0.07207384;0.09511454;0.05892298;-0.40016264;0.091883145;0.064192735;0.14153422;-0.15989822;0.18033198;-0.070201784;-0.04090494;0.10435511;-0.024197219;-0.06584052;0.17134361;-0.017087061;0.06844586;0.13959816;0.0025067069;0.15800418;-0.117151126;0.056961406;0.15223391;0.037070803;-0.007178217;-0.07292539;-0.02497441;0.10268954;-0.08214775;-0.11313598;0.12029705;-0.04375274;0.2521075;-0.0163893;0.00784599;0.0755812
0.0075155213;0.061353482;0.03511109;0.004194043;0.058690384;-0.0714614;-0.06722089;-0.15670487;0.07624213;-0.044395458;0.11532156;0.027489651;-0.04540414;-0.08044036;-0.09301284;-0.048493467;0.0413864;0.2474973;-0.08356633;-0.03750065;-0.052052397;0.13336495;0.028930146;-0.06921075;-0.05083125;0.026259558;-0.109555885;-0.057862267;0.03473402;-0.00407201;0.04187204;-0.083728924;0.08500176;-0.054179534;-0.049781904;0.052961838;-0.053688243;0.09643008;-0.07628935;-0.098062545;0.06564931;-0.07907627;0.027415644;-0.07495604;0.014595224;0.1874753;-0.0013509273;-0.14558348;-0.15594234;0.17469458;-0.02534953;0.017100386;0.14423805;0.19703138;-0.11814033;-0.1950528;0.096628234;0.0016886139;0.11832296;-0.088221096;0.019519381;-0.008046895;-0.017751066;0.14372855;0.026904142;0.1090186;0.10265666;0.088777326;-0.1301118;0.011058307;0.12582509;0.003345122;0.1357377;0.0013061652;0.14101237;-0.10135141;0.09492985;-0.04190985;-0.08262249;0.25187275;0.059361298;0.00830626;0.03514224;0.14741889;-0.037960306;-0.10232214;0.085878834;-0.042307958;0.0012860558;-0.020483017;0.12068217;-0.09957083;-0.10207752;0.058145143;0.028767228;-0.13268618;-0.0061305985;-0.072960675;0.027216509;-0.11971007;-0.07098145;-0.16176091;0.2315001;0.023846105;0.061388396;0.05672709;-0.00066387636;-0.1102392;-0.10669683;-0.03880809;0.18345486;0.22324125;0.057262942;-0.032896455;0.15430777;0.045466784;0.037459332;0.0064209537;0.16322356;-0.018349778;0.02381569;0.19395289;0.06724659;0.0031452053;0.021120396;-0.0062006814;-0.043180257;-0.0071421275;-0.003109499;0.06583273;-0.020944152;-0.25777707;-0.07689799;0.020488806;0.04432526;0.047529228;0.11361651;0.054710172;-0.10730308;-0.11237795;0.121990494;0.12253241;0.0685995;0.04203353;0.04097189;-0.01092673;-0.08949296;0.17574835;0.018231358;-0.04023617;-0.14750633;-0.1267685;-0.0324239;0.02353655;0.014179324;-0.054532297;-0.21794611;0.24526347;0.24383628;-0.021255052;0.0027527309;0.014020886;0.044723142;0.07193368;-0.09621029;-0.05657874;0.05854963;-0.18677008;0.023046961;0.0494268;0.13967511;0.17594336;-0.009208616;0.011831848;0.06660445;0.04506908;0.11053482;0.02179245;0.15345708;0.12712285;-0.05815421;0.062245894;-0.1890922;-0.07925265;-0.017891217;-0.2161736;0.019995524;0.050616354;-0.112767145;-0.019723153;-0.23728958;0.12467487;-0.10608979;0.00544607;-0.03523106;-0.1421766;0.16360348;0.1254465;-0.024534708;-0.08787472;0.04384016;0.12807755;-0.14235483;0.24978064;0.12544888;-0.08335181;-0.06802301;-0.0069164266;-0.1347814;0.121950954;-0.018069515;-0.2309958;0.0675789;-0.04897076;0.029452829;-0.07093514;-0.097978644;-0.06041858;-0.072793454;0.03546076;0.07033561;0.008905793;-0.008233251;-0.06530115;-0.11226824;0.015394583;0.116134256;-0.14959793;-0.027099451;-0.06216666;0.086424544;-0.09734676;0.114431426;0.082583226;0.118171744;-0.18323632;0.0030430101;0.015236569;-0.1035875;0.14213079;-0.18558969;-0.04354091;-0.0946364;-0.0796028;0.16461325;0.005071459;0.09344262;-0.0068671354;-0.105655;0.25589705;0.10546275;0.2459861;0.097902976;-0.03372339;0.029498976;0.15719606;0.091576524;-0.10653433;-0.23915355;0.12714748;0.11080787;0.053567868;0.045466527;0.11633198;0.11453189;-0.07453371;0.041246336;-0.057015978;0.09472949;0.16767888;-0.081383206;-0.24522783;0.094359435;-0.23848136;-0.02813593;-0.00789105;0.2137896;-0.04664493;-0.039661;-0.022998935;-0.03773469;0.06055018;-0.049128402;0.012324721;0.07317315;-0.16978396;0.11986478;-0.16832519;0.009864666;-0.006542546;0.047172442;0.13904603;0.21687067;-0.025137747;0.0546953;0.058572922;-0.035803795;-0.18216647;-0.11116629;-0.056190945;-0.14056249;0.029105479;0.07781649;-0.046504457;0.040789314;-0.21060862;-0.16283976;-0.15773146;0.10613412;-0.12474353;-0.20943287;0.114152215;0.05958566;-0.1341019;0.09086478;0.15658464;-0.044995178;0.08733503;-0.17056204;0.118561424;0.16840543;0.13117704;0.043107983;0.12541874;-0.17359181;-0.0729702;-0.119291596;-0.016547259;-0.067697786;0.0620885;0.13008167;-0.13999332;-0.052664142;-0.06860912;0.13274786;0.0043447786;0.08814344;0.06779037;0.14527062;-0.085574836;-0.032431986;0.096183345;0.0034142435;0.073579825;-0.056507893;0.05833316;0.26131216;-0.014148901;0.08642684;-0.16312622;-0.044324953;0.13162628;0.09445489;0.044563275;-0.075686224;-0.16659275;0.019973904;-0.09638271;0.07083031;-0.333178;-0.029331818;-0.13290143;-0.021200942;-0.17949037;-0.024442552;-0.11235498;0.19875208;0.06393217;0.04290105;0.21422578;0.010208933;0.005100428;-0.118104;-0.064916275;0.038864963;0.061318025;0.02490082;0.075746834;0.052296005;-0.007472173;-0.08710977;-0.049907483;0.062682875;0.088729136;0.031515576;-0.018353896;0.08548192;0.13339955;-0.08180661;-0.2073202;0.11817167;-0.048942316;-0.074601755;0.060549006;0.04177415;0.14737032;-0.28642967;0.12976792;-0.011839031;0.029444383;-0.0626905;-0.03764327;0.009426884;-0.018243782;-0.26892257;-0.06656084;0.03810625;0.15045862;0.14931566;-0.1442645;-0.013607696;0.1299536;0.088198006;-0.12387145;0.13610643;0.0004977997;-0.06209596;0.1237764;0.005139436;-0.00060403865;-0.086805575;0.11387207;0.2531017;-0.26807132;-0.09627724;-0.056100134;0.010387575;0.02031086;-0.07237447;0.08117741;0.09591765;-0.06133621;-0.10336973;0.048541274;0.14122725;0.18679015;-0.13671434;-0.21960449;-0.040999845;0.08340497;0.02665194;0.040551186;0.10207905;0.011260295;0.06529843;0.07612512;-0.23030049;-0.20783396;0.07031134;0.15666245;0.09994233;-0.09315904;0.11465946;-0.12892613;0.21055533;0.06673237;-0.054077104;0.017070506;0.03140182;0.19291764;-0.074727416;0.09921128;0.16377307;0.002743499;-0.11464681;0.034136023;0.045272134;0.11788411;0.055860788;-0.022746379;-0.12371944;0.073447846;0.013580899;0.093167074;-0.18466513;-0.17094886;-0.143348;0.038826086;0.13521284;0.047284584;-0.1858031;-0.17305382;0.05217417;-0.056886334;0.1349365;-0.026981875;-0.11127843;-0.060314447;0.011749989;-0.09004684;-0.025387494;0.06101706;0.10380918;-0.18398336;-0.009682852;-0.003136803;0.07755498;0.027056286;0.0031146612;-0.042343426;0.17832476;-0.025224818;0.087955564;0.046366915;-0.05130864;0.11340689;-0.079886265;0.061642956;-0.039137635;-0.027600445;0.0073807472;0.018674014;0.04758324;0.036050092;-0.14156821;0.09224507;-0.032449268;-0.10973142;-0.086194634;0.033362504;0.11780492;-0.094077006;0.111383244;0.039554175;0.011067078;-0.010858922;-0.02234184;0.07488466;0.054236352;0.2125671;-0.16615775;0.066032276;-0.014412712;-0.24523865;0.0010993095;-0.08219794;-0.1964632;-0.108308904;-0.12598912;0.06325985;-0.031976145;0.037958074;0.10984687;-0.37584656;0.092787735;-0.030385226;0.04991483;-0.012858512;0.057677288;-0.054806504;-0.04218383;0.06313373;-0.010592821;-0.003970462;0.11900018;-0.035275873;0.09960583;0.19326463;-0.033700626;0.09933264;-0.089041024;0.118432395;0.099985875;-0.003944456;0.010604111;-0.039325636;-0.00539273;0.11778229;-0.12390881;-0.24533956;0.06501016;-0.06239411;0.18880703;-0.01026865;-0.018149389;0.195388
-0.05010114;-0.029693058;0.121157;0.13647556;0.071922176;-0.041409377;-0.17653787;-0.24343483;0.041430123;0.05046053;0.089249365;-0.025270084;-0.0602654;-0.023707043;-0.1190941;0.022610046;-0.041356076;0.13284294;-0.041665755;-0.102881886;-0.24812248;0.15183772;-0.0033549133;-0.00963829;0.038630035;0.048396833;-0.14268646;0.008062525;0.00063975755;-0.045969915;-0.008246474;0.0029009562;0.024589943;-0.014063082;0.008429895;0.0475769;0.06773461;0.0944978;-0.08486297;-0.018773984;0.18209751;-0.120391406;0.05831916;0.03050603;-0.047560122;0.14616448;-0.061471526;-0.16407055;-0.2058596;0.14939305;-0.062577;0.051893603;0.12095066;0.12962748;-0.1300136;-0.2381756;0.02698555;0.056499265;0.0868551;-0.049344867;-0.07963348;-0.058654513;-0.007760134;0.109000474;0.03797271;0.13810585;0.075697325;-0.05467337;-0.15466516;-0.02333048;-0.046120834;0.053510256;-0.003411454;-0.002697619;0.04046307;-0.06323706;0.14854509;-0.05939049;-0.09370175;0.28803113;-0.0666583;-0.07757578;-0.064635575;-0.00951478;-4.007974e-05;-0.115036145;0.10479103;-0.15103438;0.14147541;0.003351534;0.001770913;-0.13175087;-0.121457115;0.031365417;-0.030023258;-0.186485;-0.021988917;0.08444553;0.08841118;-0.18271226;-0.16653791;-0.15706791;0.19586031;0.13093132;-0.035424847;0.019019153;-0.0487862;-0.18535829;-0.066444606;0.038939483;0.30379456;0.1012855;-0.018776756;-0.04071255;0.097615115;0.17073426;-0.043360002;-0.007687338;0.25937593;8.5679585e-06;-0.039504994;0.23023382;0.03592269;0.026525939;-0.0143384095;-0.01032173;-0.011280918;-0.07950188;0.0943052;0.033907916;-0.2145445;-0.16528696;-0.12098358;0.06724086;-0.013396759;-0.030404743;0.092131436;0.08504574;-0.19168858;-0.18636607;0.26227683;0.1466617;0.20745033;0.0028358062;-0.08688444;-0.011548627;-0.0019718688;0.0986263;0.07201026;-0.006340896;-0.23207873;-0.08856252;-0.1390368;0.0088506;0.012019087;-0.07301055;-0.12624288;0.20217729;0.32163393;-0.15873782;-0.0012229236;0.0023327877;0.09613168;0.13264365;-0.1738615;-0.16955385;0.08427244;-0.048217595;0.024863012;0.046538454;0.10847806;0.07012161;0.13255627;0.088642;0.12302986;0.00084572943;0.13765635;-0.08951328;0.28635052;0.092018835;-0.11545498;-0.069339745;-0.1167597;0.024442285;-0.037810747;-0.14653856;0.092447154;-0.022243217;-0.2202072;-0.11192735;-0.23660922;0.10296242;-0.042173635;0.028503768;-0.13622016;-0.06395127;0.2652383;0.14074555;-0.013357534;-0.21011399;-0.09756758;0.07130932;-0.07667611;0.19696636;-0.01976719;0.044540606;0.045213502;-0.11748404;-0.092193216;0.19088517;-0.037240323;-0.1332984;0.08862356;-0.027939541;0.10397085;0.011739192;-0.019264389;-0.062540464;-0.019378347;0.07707174;0.028346252;0.026547786;0.0011104192;-0.06561201;-0.15812188;-0.053011958;-0.031756885;-0.0913998;-0.02527809;-0.010329655;0.09112129;-0.04010364;0.069354944;0.1585826;0.03762764;-0.12970155;-0.051396634;0.043211855;-0.13716245;0.086289205;-0.09215945;-0.13335408;-0.04921153;-0.034130957;0.14655137;0.0048135906;-0.040306967;0.056226842;-0.027814303;0.24232714;0.05320219;0.17955443;0.11716519;-0.05671753;0.12684406;-0.035813045;0.012922732;-0.12821104;-0.14693628;0.11913367;0.08276205;0.0793164;-0.030701755;0.16750836;0.09225199;0.108118124;-0.088612795;0.045441806;0.029177612;0.212549;-0.18739876;-0.21461158;0.03465875;-0.26103917;-0.1960655;0.116099454;0.091881916;0.12978823;0.032653075;-0.0008982542;0.04148509;0.03878295;-0.020392863;0.09817734;0.094193466;-0.17695092;0.08338593;-0.29585123;0.009935992;0.102939904;0.15213084;0.103348605;0.16957802;-0.13860853;0.040393457;-0.00052230514;-0.02598349;-0.21664813;-0.05063306;-0.016489863;-0.037887126;0.058154494;0.009201538;-0.066222996;-0.06310153;-0.11055056;-0.2546207;-0.11501349;0.07242497;-0.027885685;-0.21147482;0.003336219;0.07085069;-0.014043371;-0.07677353;0.13913134;-0.040181052;-0.00053515856;-0.17047553;0.20227183;0.002553177;-0.015625877;-0.017290749;0.0485502;-0.020357464;-0.08246623;0.048211355;0.037190374;-0.07216571;0.006542776;0.12618445;-0.14099552;0.09910619;0.010095407;0.026031971;-0.086332045;-0.049371056;-0.025077788;0.12676297;-0.044932503;-0.09665228;-0.009857403;0.08847284;0.13238093;-0.18241717;0.09325603;0.2752829;-0.040390152;0.054441378;-0.20249245;-0.1656573;0.29395118;0.075665146;0.012125993;-0.12219206;-0.14260305;0.05014048;-0.10706251;0.016275292;-0.33181858;0.18763973;-0.028993037;-0.0025814949;-0.14808694;-0.08124387;-0.104234435;0.22131847;-0.08832317;-0.010451771;0.19840923;-0.02527458;0.003563743;-0.12379928;-0.06413019;0.039549083;-0.08382455;-0.109274045;0.18482934;-0.041967522;0.007828911;-0.05103484;-0.07987586;0.123834886;0.01689898;0.022375232;-0.1423095;0.10731236;-0.055918477;-0.008934154;-0.06562778;-0.009762557;0.004646044;-0.054514006;0.0865071;0.061165612;0.15985651;-0.21937653;0.0913717;-0.05081902;0.06559984;-0.1496583;0.05840263;-0.08662669;-0.038320005;-0.19859529;-0.1338978;0.03362605;-0.035902567;0.052365772;0.012263303;0.012515884;-0.08547293;0.16230394;-0.049787797;0.12881404;-0.057647135;-0.12599349;0.09349258;-0.041011237;-0.12672551;-0.07285679;0.011431514;0.17268446;-0.27672932;-0.08678116;0.041795865;0.02607274;-0.14223628;-0.09236895;0.037064817;0.07249119;-0.11211155;-0.06147932;0.05029552;0.15501735;0.22797684;-0.027021931;-0.18345903;-0.095930606;-0.055646036;-0.0381591;0.054613214;0.12374005;0.10089302;0.014218099;0.08488591;-0.09706784;-0.09453005;0.14038189;0.12856622;0.1715674;-0.10140627;0.12413299;-0.14352457;0.13453512;0.058645055;0.07051494;0.030932503;0.09336327;0.10433637;-0.17606612;-0.02724162;0.25895962;0.107173316;-0.010188566;0.06975148;0.04750716;0.074039385;0.06878447;-0.06857814;0.0007651103;0.07724433;-0.0101168165;0.07435862;-0.15406327;-0.16932699;-0.12804337;0.011534046;0.18332165;0.08342389;-0.16215858;-0.24050118;0.063689224;0.014960304;0.24340148;-0.18591103;-0.13580272;-0.031157164;-0.045877457;-0.076290965;-0.028207123;0.20210345;0.059592165;-0.0019987032;0.106280796;0.03295959;0.001839937;0.032648206;-0.0089668;-0.017901339;0.23772463;-0.03621115;0.1014725;0.09141096;-0.04236974;0.022270672;-0.032244973;0.13292746;0.08956425;-0.017022595;0.0015051805;-0.098909944;-0.018409042;0.10285532;-0.117534086;0.12567216;-0.12186453;-0.1262722;-7.958008e-05;0.022121388;0.1361465;-0.1723076;0.10066335;0.010705056;0.048722412;0.03822574;-0.05406545;0.12250962;0.06916109;0.19017717;-0.11376264;0.061203077;-0.0029500155;-0.07609535;0.07122277;0.056714825;-0.15925545;-0.016236605;-0.19846301;0.100961655;0.12118117;-0.0057227337;0.099406295;-0.44868246;0.13563196;0.081215836;0.02019177;-0.0025953155;0.10955221;0.13249712;-0.08944287;0.015125272;-0.0700443;0.044539165;0.16517465;-0.005833832;0.1529493;0.24263996;0.072488725;0.043019935;-0.120692246;0.14040712;0.16379647;0.059771404;0.08671866;0.02428931;0.077004455;0.24075848;-0.13922763;-0.071599096;-0.0017723693;-0.00202796;0.10785981;0.008238695;-0.0034998793;0.09270481
0.041713785;-0.008297182;-0.013201227;-0.05511675;0.008155216;0.05324659;-0.16620052;-0.14156897;-0.007221272;0.060814537;0.074139446;-0.014963996;-0.21855058;-0.08060526;-0.02754855;0.030605031;0.026994826;0.28807205;0.099153385;-0.021190869;-0.085625075;-0.0068008197;-0.02128026;-0.089192204;-0.010548401;0.032500137;-0.14918715;0.09424615;-0.02334271;-0.1298227;0.0914695;0.105343;-0.03247003;0.033920404;0.07323981;0.114506826;-0.017879935;0.0495438;-0.1809892;-0.08630586;0.120992586;0.0009772246;0.044285886;0.08684599;-0.036736388;0.090741724;0.09632423;-0.09831445;-0.2781749;0.09928494;0.060793664;-0.013572351;0.10016764;0.25255305;-0.27294448;-0.22962408;0.074089065;0.03415354;0.19631948;-0.015390805;-0.08146898;-0.101871006;0.09001841;0.06382193;0.018702;0.12002772;0.098460495;0.09039657;-0.1231537;0.030315707;0.002716824;-0.1028689;0.07665065;-0.14185633;-0.005916443;-0.13970827;0.2128075;-0.0055375835;0.113509454;0.14331377;-0.08719196;0.025488365;-0.1117343;0.037506025;-0.042056307;-0.10202342;0.014279525;-0.13457693;-0.004345167;-0.056384034;0.08018788;-0.03530788;-0.13893357;-0.050885938;0.08423904;-0.18709677;-0.10707853;0.016073786;0.09071268;-0.034972582;-0.23940033;-0.10419689;0.03829682;0.12838662;0.0904196;0.10389277;-0.017329099;-0.114379354;-0.07167181;-0.14852808;0.15160936;0.1555141;-0.0039917915;0.090753235;0.088338435;0.063026294;0.07945826;0.052761197;0.20832478;-0.08046001;-0.0019069321;0.017693507;0.08297;-0.024025744;0.060629107;-0.049810242;-0.026177533;-0.039711673;0.09659701;0.054079223;0.0700687;-0.2924918;-0.2016641;0.03096996;0.047669098;-0.03104104;0.22749881;0.10434976;-0.110658534;-0.27961984;0.13665244;0.052721903;0.28951705;0.07673172;0.0103968335;0.04492958;0.012477946;0.15370575;0.034363683;-0.11589056;-0.018622272;-0.031161848;-0.121816136;-0.019061098;0.08824094;-0.073816806;-0.14772679;0.25654274;0.1854004;-0.07207312;-0.07664994;-0.09830123;0.1232232;0.017558146;-0.04818437;-0.15927848;0.16082284;-0.038638353;-0.09472122;0.060644973;0.2083983;0.12993027;0.04409504;-0.076644845;0.13279164;0.079665415;0.1550922;-0.11964062;0.15615803;0.02762127;-0.006884371;-0.054353308;-0.07899566;0.08318578;0.07561728;-0.22108908;0.11435925;-0.048511717;-0.21501255;-0.0932122;-0.2004933;0.015087642;0.0048176595;-0.0014526962;-0.22308432;-0.026039714;0.15077563;0.15698381;0.02579525;-0.17983788;0.060341574;-0.0122050475;-0.10883449;0.21092054;0.15262634;0.024680052;0.070048474;0.06732614;-0.034605686;0.25883764;-0.17662093;-0.16024406;0.10554911;-0.08277844;-0.006330394;-0.1243964;-0.08179755;-0.008830006;-0.121474676;0.05355067;0.10054172;0.07207092;0.051388625;0.032489207;-0.08918628;-0.04351828;-0.043083254;0.017143657;0.008522274;-0.009305915;0.098661505;-0.11223212;0.07481136;0.12337511;0.0010129326;-0.07853875;0.013593579;-0.0053818184;-0.0799045;-0.020560978;-0.050379287;-0.22744134;-0.18824512;-0.17877442;0.224806;-0.01645644;0.04453445;-0.15000539;-0.05303153;0.14081627;0.084237464;0.24550183;0.1230071;-0.08592847;-0.016680961;0.019468004;-0.03271334;-0.043479867;-0.3117598;0.07957616;0.082599334;-0.05346757;0.07141579;0.057784267;0.0778205;0.14264296;-0.046099305;-0.11562346;-0.042852025;0.11440422;-0.15343751;-0.26299092;0.06836639;-0.16166462;-0.1332742;0.08908433;0.14834803;0.054987725;0.05111602;-0.11697173;0.09203277;0.19850537;0.021409933;-0.069824;-0.002899925;-0.19164544;0.12278928;-0.08737466;0.014807027;-0.089486614;0.05153839;0.08500788;0.17639439;0.020669078;0.07312834;-0.10157573;-0.009218118;-0.19489951;-0.12535784;0.12830904;-0.09294435;-0.0032695888;0.05019801;-0.19944048;0.059276816;-0.16011922;-0.03378708;-0.0833598;0.042877045;-0.023924641;-0.21570408;0.12730813;0.06479064;-0.072520554;0.030718809;0.19273001;-0.07992006;0.1226828;-0.0805661;0.18097854;0.08604946;0.164231;0.03219668;0.039294858;-0.110811435;-0.023719361;-0.08829554;0.012618874;-0.07599115;0.05631356;0.13357572;-0.04282632;-0.09490738;-0.036456328;0.17714171;-0.05871566;0.17360398;0.0183386;0.10965517;-0.13573405;-0.0441815;0.12436119;0.016054468;0.05193078;-0.20091681;0.084823;0.15615791;-0.094725356;-0.044357993;-0.1899454;-0.04102167;0.17836979;0.077505946;0.044815775;-0.14228041;-0.028169282;0.103890456;-0.1283173;-0.01704067;-0.35596368;0.06712531;0.037234835;-0.021458786;-0.13779572;-0.003904856;-0.07708335;0.2521656;0.032910522;-0.07280909;0.21723045;0.04911026;-0.040802628;-0.13925622;-0.0011109483;0.080246456;0.026640289;-0.053167373;0.16681127;-0.018769268;-0.033826917;-0.012894864;0.110683136;0.15022743;-0.091226675;0.08483837;-0.1628055;-0.030593477;0.09926194;0.003791812;-0.20086688;0.12337422;-0.0026726327;-0.032392662;-0.021278994;0.046424326;-0.09908195;-0.20600832;0.08069388;0.089237064;0.022941653;-0.04776843;-0.07427626;-0.0724334;-0.07599037;-0.2517634;-0.03548686;-0.08310721;0.18633027;-0.051684696;-0.046768494;-0.06300403;-0.03565445;0.07801345;-0.07577566;0.10107856;-0.12938556;-0.070653364;-0.056457426;-0.019186268;-0.13139167;-0.12947693;-0.045183044;0.2848894;-0.25515643;-0.03253794;0.047831755;0.11517452;-0.1585308;-0.0105640935;0.16037604;0.06324682;-0.23084372;0.0047077932;-0.011673258;0.006748662;0.11983074;-0.090093054;-0.14981104;-0.09420815;0.0027935922;-0.032734532;0.042662147;0.037425086;-0.06135906;-0.08775882;-0.009802631;-0.13388215;-0.25356036;0.1352025;-0.030457417;-0.0019113076;-0.113482796;0.04436091;-0.046730697;0.21119808;-0.07652633;-0.013522188;-0.014397445;-0.033335134;0.14058864;-0.11318415;0.09592378;0.11042455;0.043854266;-0.04637993;-0.0008952278;0.04448667;0.14405377;-0.017198112;0.08039656;-0.0646842;0.12975243;-0.0018252067;-0.049445074;-0.10046733;-0.14020157;-0.14353536;0.035594363;0.05946482;-0.022994662;-0.086013004;-0.1339445;0.04212107;0.036168195;0.038512573;-0.16538535;-0.18780376;-0.010207927;-0.082777776;0.024530718;0.0016151806;0.1088632;0.017827937;-0.116056025;-0.019100469;-0.02172544;0.05774446;-0.13412471;0.21561727;0.04885901;0.18708664;-0.0024058376;0.013846112;0.09025351;-0.06340735;-0.007611343;-0.008874282;0.12916307;0.16678903;-0.034044173;0.009182065;0.018166563;-0.016731303;-0.005575494;-0.22021013;0.03182774;0.02801983;-0.020536197;0.10533774;-0.00064908003;0.09412592;-0.026005102;0.16764668;0.054141715;-0.030127333;-0.042060412;-0.04647376;0.095477626;0.060911503;0.046637904;-0.07988073;0.08781443;-0.08748304;-0.13871682;-0.031708527;-0.049177118;-0.23671919;0.00712888;-0.08842936;-0.0139587885;-0.05368823;-0.075440235;0.13327082;-0.36863178;0.060328346;0.04460627;0.15434407;-0.0722536;0.01013663;0.07177868;-0.028895224;0.088483475;-0.045549892;0.018038072;0.112502955;-0.06082626;0.053113323;0.16280103;-0.068793006;-0.059348382;-0.06927757;0.07893624;0.122071415;0.0061233486;0.0039216;0.041625954;0.0136828255;0.30082473;-0.14958167;-0.24959198;-0.032083023;-0.14757976;0.19194162;-0.036742955;0.022124274;0.18895888
0.07545432;0.085708015;0.066082716;0.044110183;-0.06869571;-0.066551544;-0.07956288;-0.18492933;-0.007749347;0.037291963;0.1546396;0.12742135;-0.2214586;-0.16058403;-0.065281786;0.023838421;0.10025759;0.20774436;0.041716553;-0.0052167666;-0.07465763;0.114582926;0.08222449;-0.09283881;0.04727876;0.07568185;-0.18253481;-0.009461133;-0.007094632;-0.16449766;-0.03667901;-0.1065597;-0.10474612;-0.08476116;0.056132406;-0.060659274;0.0216539;-0.03540877;-0.08709419;0.029862775;0.2070033;-0.108615756;0.09671316;0.015599801;-0.02477026;0.1742327;0.03712553;-0.20889033;-0.22961594;0.12144723;0.06057491;0.012966243;0.15028507;0.06589693;-0.2589661;-0.24846926;0.100806676;0.07906464;0.0074989125;0.10615354;-0.012516522;-0.123724736;-0.0061875475;0.0035392786;-0.015037469;0.017243074;0.06679282;-0.07477029;0.0016199875;0.044777226;-0.051326934;-0.14336774;0.13091967;-0.078818426;0.09291251;-0.19324753;0.13801253;-0.00013349741;-0.066582054;0.120782055;0.016358694;-0.020672146;0.005789901;0.1753236;-0.02218004;0.0006494999;0.025117189;-0.15359469;0.11990357;0.09188805;0.088462375;-0.00293833;-0.21685159;-0.0098653;0.013394315;-0.1671888;0.059009746;-0.0894566;0.018815884;-0.035870604;-0.16995296;-0.08811884;0.10113058;0.010136103;-0.053791467;0.06000519;-0.012832444;-0.04513987;0.025441473;-0.0062093833;0.25174657;0.26656532;-0.041193236;0.023871528;0.023036446;0.107872814;-0.02571205;0.079846926;0.10744277;-0.11711903;0.009121104;0.11461226;-0.02653926;-0.102246;0.08608614;-0.16109489;-0.044776116;0.004902895;0.015665354;0.12203922;-0.033065036;-0.17553844;-0.17418966;0.063289486;0.11867972;-0.070511736;0.09403049;0.12727787;-0.051472846;-0.16341025;0.23563433;0.019489802;0.1915413;0.085821405;-0.046785265;-0.012421725;-0.13410698;0.21487087;0.0038138828;-0.00515015;-0.10108135;-0.05952353;-0.08451652;-0.013910736;-0.049453188;-0.03306563;-0.0969645;0.2046167;0.26180238;-0.10381204;0.033702716;0.04923559;0.03629231;0.09437133;-0.057763603;-0.07445013;0.103321;-0.10540968;-0.009038661;0.107011035;0.14373554;0.17270234;0.09087667;-0.05565803;0.040105388;-0.014884552;0.14370146;-0.20235364;0.27322242;0.049615797;-0.086034976;0.030800033;-0.06807506;-0.009724656;0.05221382;-0.18071984;0.14079376;-0.015327048;-0.14674911;-0.06578512;-0.11900213;-0.03709291;0.08539116;-0.025279809;-0.15572181;0.02162852;0.1872342;0.14207833;-0.037067194;-0.23247936;0.08281619;-0.038146887;-0.114501275;0.27493343;0.019966966;0.09797589;0.052398704;0.0069930507;0.033938643;0.14084327;-0.14967838;-0.21496205;0.03836218;0.0002688715;0.04488428;-0.0898866;0.013840901;-0.1504305;-0.12406401;0.06220256;0.087475985;0.14121233;0.076012574;0.07201098;0.004899928;0.020860879;0.011367873;-0.13380304;-0.046129547;0.05431605;0.06263848;0.0059966194;0.053006765;0.003480092;0.05564777;-0.08509889;-0.04913743;0.040803865;-0.10114117;0.027928839;-0.02183257;-0.09289018;-0.13169181;-0.2409613;0.10952881;-0.09663666;0.12248073;-0.03876026;0.0052803345;0.13061163;0.015837828;0.27267513;0.119387954;-0.022226961;0.08046203;-0.025767954;0.005193244;-0.042957492;-0.24426258;-0.00073311524;0.12339937;0.07556745;0.03809633;0.100254625;0.011790185;-0.038418565;-0.0340736;-0.014679998;0.10838179;0.10846308;0.0017345909;-0.2574316;0.008952021;-0.29151273;-0.11220966;0.16777214;0.15380588;-0.0509792;0.051143516;-0.031072365;0.0383584;0.14070596;0.040191505;0.00036577557;0.03033985;-0.13344157;-0.015343423;-0.18708248;-0.0034619998;0.009863644;0.08645731;0.05032397;0.11627366;-0.092461035;0.13833436;0.012538943;0.009453658;-0.23512256;-0.052044254;0.04045787;-0.1034904;0.09164219;0.06516322;-0.098700024;-0.07773068;-0.1530624;-0.2646978;-0.18580537;0.069409706;-0.024714977;-0.25395343;0.040434726;-0.05537212;0.1208085;0.15243445;0.10531497;-0.0061708344;0.13547707;-0.106865875;0.13806595;0.10433538;0.07130613;-0.05628343;-0.015884675;-0.107262984;-0.016523872;-0.023601288;0.055936314;-0.0434273;-0.01875755;0.09418761;-0.083178796;0.0021090568;0.007004093;0.08219119;-0.11949761;0.059439752;0.007936158;0.16225353;-0.047143318;-0.06898799;0.03715243;-0.015880622;0.1125904;-0.16231418;0.10817811;0.22508346;-0.03981058;0.04576589;-0.14791508;-0.088919856;0.17700535;0.031603217;0.006378913;-0.049887836;-0.17985266;0.10571388;-0.116950214;0.0060544205;-0.42031208;-0.051328048;-0.093501896;0.030329347;-0.13492686;-0.017406046;-0.13241091;0.21991277;-0.111107185;-0.04616207;0.20780626;0.022704832;-0.07850698;-0.18520068;-0.042880952;0.048053678;-0.014782751;-0.08231275;0.20770107;-0.019572904;-0.08634915;-0.013624043;-0.043122105;0.15349841;-0.01668113;0.12143123;-0.02547428;0.1902994;0.017374305;-0.12588608;-0.14294676;0.07829925;-0.07493544;-0.06842922;0.020310096;0.13028726;-0.037486583;-0.0966771;0.11517435;0.06698495;-0.033456944;-0.1756927;0.036095902;-0.13075545;-0.0675071;-0.32852015;0.025670167;0.039997607;0.07295262;-0.023940068;-0.038200032;-0.05838367;0.03225001;0.009383426;-0.15903255;0.020317351;0.03769393;-0.12944607;0.07256048;-0.015730806;-0.16737062;-0.05876683;-0.10730491;0.3127911;-0.16672373;-0.14887926;0.0063079637;0.20168622;-0.17258227;-0.076358885;0.048911493;-0.08341458;-0.11029896;0.0441192;0.08597563;0.15951627;0.11612607;-0.12142951;-0.16466478;-0.029184964;0.1501421;-0.027580211;0.115433715;0.16421457;0.043910816;-0.09098309;0.06722019;-0.22122104;-0.27225578;0.06644866;0.08198459;0.06964279;-0.042762846;0.17246838;-0.025406439;0.1597478;0.023462541;0.058096938;-0.08727076;0.062099338;0.05364235;-0.1506281;-0.023259856;0.061194856;0.047546394;-0.018545685;-0.14973718;0.14776391;0.15609194;-0.062143605;0.051084977;-0.0662616;0.025580585;-0.08428414;0.04031836;-0.07800936;-0.22482675;-0.0884875;0.08856552;0.08100971;0.023843093;-0.12210012;-0.21653949;0.039440848;0.06515572;0.18535249;-0.12065269;-0.20878595;0.036549166;-0.040734198;-0.031709116;0.007452438;0.15841416;0.04114599;-0.1295559;0.075088106;-0.008632108;-0.042486545;0.040420488;0.10583284;-0.011300242;0.14750949;-0.06597774;0.16006365;0.0018307896;-0.090608284;0.027019165;-0.026102146;0.07056088;0.09211717;-0.035198446;0.10920669;0.012207378;0.11401856;0.13888027;-0.1645357;0.047673997;-0.065831155;-0.15360393;-0.016088607;-0.03729096;0.12410269;-0.15717457;0.13051616;-0.025714608;0.09620581;-0.06601764;-0.039298046;0.076881506;0.102062955;0.08641761;-0.12201;0.0019415943;-0.003096788;-0.09721133;-0.0473291;-0.10684461;-0.14157231;-0.115668714;-0.086940765;0.0579127;-0.033717334;0.049056374;0.16258413;-0.29838207;0.19888578;-0.023569781;0.04349676;-0.15592416;-0.012912869;0.08948049;-0.016289169;0.085108615;-0.10178938;-0.02213363;0.24156782;-0.1401704;0.20434117;0.14286843;-0.024856174;0.13547084;-0.14974578;0.0265439;0.001243636;0.040352058;0.09286892;0.00292159;0.059106957;0.19923405;-0.110692404;-0.09207605;-0.17280321;-0.09772115;0.1966381;-0.03694892;-0.046015408;0.15648416
0.080240555;0.007578167;0.07815314;0.028471034;-0.11236566;-0.042518973;-0.24450903;-0.12369254;-0.05739465;0.020106236;0.205833;0.036709547;-0.129466;-0.09392166;-0.09010199;0.1174791;0.12537241;0.034964252;0.0058828243;0.0024596883;-0.14249033;0.08924387;0.08009834;-0.011136392;0.10087845;0.03353621;-0.06846673;-0.026589341;0.102145836;-0.08116608;0.008344644;0.0146582415;-0.11824474;-0.010159096;0.05686547;-0.073914535;-0.027705215;-0.008626419;-0.034308314;0.05277356;0.115599975;-0.013495838;0.015237593;-0.024588853;-0.036345787;0.13222183;-0.00592142;-0.10192089;-0.14714937;-0.022179265;0.062841654;-0.08262665;0.09428325;0.06195535;-0.29947424;-0.21374184;0.042267617;0.020829577;0.078992374;0.19144468;-0.027679792;-0.13092251;0.036215708;-0.045688443;0.1052392;0.039227247;0.015310741;0.081384175;0.046012532;0.06513417;-0.025943853;-0.03131233;0.017431395;-0.064941704;-0.047252502;-0.3041894;0.042046845;-0.087197766;-0.10169068;0.2717516;-0.071792975;0.03114848;0.017035088;0.028093575;0.056713484;-0.09038103;-0.107608594;-0.2598745;0.19367944;0.076289825;0.122685365;-0.117973484;-0.22634618;0.010524472;-0.025958613;-0.109990805;-0.0139841065;-0.03976989;0.04556267;-0.116751455;-0.091812015;-0.23284285;0.053953514;0.066355854;0.085864455;0.032863528;0.17914303;0.0011476193;-0.009575976;-0.09443006;0.22975859;0.22717376;-0.058410157;-0.031843882;0.032889534;0.0018304155;-0.06391874;0.03502277;0.18332508;-0.037818555;-0.0822466;0.16339293;-0.03531335;0.0662948;0.0409143;-0.09889014;0.03152503;-0.0037616685;-0.01388574;0.0049843946;-0.17851113;-0.15126902;-0.14526312;0.020442657;0.10546463;-0.04742486;0.10436559;0.06284098;-0.06024558;-0.10811872;0.22421625;0.13289332;0.24042225;0.080772616;0.02287487;0.07531978;-0.11460152;0.18916036;0.11449863;-0.049906217;-0.13775113;-0.13357967;0.023850968;-0.012523234;0.0794478;-0.16661161;-0.015234762;0.29465184;0.277616;0.0011901127;0.10355855;0.04187176;0.15479234;0.10579077;-0.06243027;-0.09385751;-0.0068780696;-0.07922951;0.05566964;0.14617227;0.09638185;0.12499989;0.08007655;0.08656001;-0.0344968;-0.026618212;0.047206778;-0.14133035;0.16709691;0.05815684;0.018568628;-0.07618839;-0.17859605;-0.034414914;-0.048441917;-0.17640333;-0.010676797;0.02707474;-0.17348996;-0.070534065;-0.19151025;-0.040336307;0.07090015;0.042753585;-0.23287348;-0.037494577;0.121856436;0.11511516;-0.07554481;-0.3023652;0.018880649;0.03878507;-0.07972281;0.31726912;0.059247836;0.060615636;-0.090211295;0.049927644;0.009019475;0.16654791;-0.12701401;-0.16380802;0.052221265;-0.06861319;0.083572276;-0.014221103;-0.0027220424;-0.09529245;0.025176873;0.028405571;-0.040864546;0.11763552;-0.010663605;0.09387197;0.008333429;-0.04287518;-0.1392287;-0.018385204;-0.096524164;0.060464412;0.1701112;0.076488025;0.012674428;0.010153662;-0.055375528;-0.20095849;-0.10757426;-0.07395672;-0.0874433;-0.0374299;-0.07645069;-0.085738875;-0.12454853;-0.21135743;0.19630538;-0.11421597;0.031294737;0.109040566;-0.025985347;0.2555181;-0.075415455;0.24814793;0.050266676;-0.20647363;0.11031819;-0.0070222532;-0.014164861;-0.063281804;-0.17170493;-0.030566974;0.051828444;0.02149467;0.14185679;0.0051090736;0.1034591;0.049160145;-0.036360763;0.04992113;0.01164458;0.2064492;0.04750787;-0.12840182;0.082669735;-0.28678837;-0.22253627;0.15422994;0.14486869;0.02023995;0.107200705;0.0043002623;0.13140233;0.111926235;0.0366293;-0.042356823;0.051390782;-0.19225024;0.074091084;-0.060771756;0.09179895;0.0037447785;-0.00075610523;0.0065225153;0.18868542;-0.094193295;0.036941513;-0.017629977;0.064696066;-0.30870467;-0.026617892;-0.042053875;-0.10690737;0.033010572;0.042392466;-0.00047881532;-0.0653353;-0.12625597;-0.30323344;-0.09207325;-0.027163116;-0.005326899;-0.09214687;0.0077903587;-0.04591961;0.0031476875;0.052071743;0.109980725;0.0915932;0.0090537425;-0.10709467;0.123965316;-0.0610568;0.02957968;-0.06179795;0.063665;-0.10570538;-0.06714256;-0.09403448;0.08495955;-0.119315274;0.07318262;0.12835509;-0.158528;-0.06669919;0.0006789303;0.05950064;-0.22931968;-0.012295243;0.05521738;0.14520657;-0.093838885;-0.03466273;-0.027803164;-0.0700497;0.0235097;-0.16985203;0.08156239;0.27189964;-0.07455555;0.058711004;-0.22870108;-0.08217776;0.20155932;0.12329391;-0.05098888;-0.08744041;-0.21767652;0.07347719;-0.058991604;0.010544001;-0.41639227;-0.011119265;0.008318295;0.018052517;-0.04980731;0.0070507503;-0.021269178;0.15977;-0.029491065;-0.15538482;0.10694067;0.08906726;-0.12437754;-0.18461081;-0.08025554;0.09522429;0.09452847;-0.018048763;0.14978084;-0.051501244;-0.1013648;0.06811995;0.0539357;0.019035488;-0.012153373;0.14029372;0.007851416;0.12751329;-0.055648908;-0.16681853;-0.13987152;0.1229429;-0.03769484;0.039138496;0.0014868258;-0.03601582;0.006489033;-0.16802396;0.08565984;-0.020606106;-0.07025945;-0.09720081;-0.029753763;-0.14739631;-0.05991471;-0.3438044;-0.028899135;-0.046615165;0.007464885;-0.022839492;-0.02355638;-0.09826395;-0.023400404;0.018671287;-0.1267994;0.10606396;0.042151105;-0.07278644;0.07929293;0.030612877;-0.1302372;-0.12510258;0.007766075;0.20922248;-0.14173234;-0.055261705;0.022016896;0.1293316;-0.12478487;-0.11082939;0.09599088;-0.10442762;-0.2033939;0.015034427;0.026168343;0.086296394;-0.028149266;-0.015218492;-0.2516934;-0.06228708;0.1520139;0.019709814;0.031583987;-0.00037711617;0.07066879;-0.015882203;0.033704337;-0.107584104;-0.22091788;0.17796887;0.028082632;0.038647477;-0.10050686;0.018438647;-0.041645773;0.1144089;-0.04741311;0.12774067;0.08860624;0.06050068;0.056004193;-0.14194587;-0.036330905;0.101587124;0.08886774;-0.032978117;-0.14075325;0.0049264785;0.13195261;0.061396964;0.10638549;0.07041511;-0.04764908;-0.07809388;0.087793104;-0.12032871;-0.114511244;-0.12790811;0.0052643516;0.0012066306;0.10214295;-0.18657194;-0.19179454;-0.012611019;0.00042244542;0.1814164;-0.13857324;-0.15567371;0.06467346;-0.05291841;-0.013904357;0.037508585;0.27608445;0.08366944;-0.09520721;0.04226502;0.09199319;0.025345163;0.0060184384;0.06756203;-0.03998055;0.1473304;0.037220918;0.06637497;0.06288975;-0.01855037;0.1240463;-0.059531733;0.17182209;0.12602055;0.007616133;0.010528747;0.0038290205;0.055676926;0.22187994;-0.21676686;0.0052603944;-0.0060560354;-0.115038365;0.0152990045;0.028910866;0.07060318;-0.1557357;0.037172005;-0.026839927;-0.027795099;-0.011066587;-0.084462546;0.05091428;0.115286306;0.104004055;-0.06984033;0.025702087;0.050099358;-0.15307045;0.06832624;-0.0024904998;-0.054205973;-0.091649145;-0.12833257;0.038023558;-0.002385188;0.10492838;-0.009265039;-0.28863865;0.12229668;-0.10259542;0.10077646;-0.1523578;0.001487106;0.1718192;-0.041975517;0.039440643;-0.10568936;0.02676181;0.13569227;-0.13992321;0.22219945;0.23352844;-0.055990066;0.116757035;-0.14544645;0.09402907;0.07151547;0.021862788;0.03906642;0.0639868;0.07661062;0.10777985;-0.11815595;-0.17432524;-0.0773071;-0.14055146;0.15934499;0.021407573;0.023707949;0.14526445
0.07335644;0.13620101;-0.020983655;-0.0025347474;0.076800354;-0.12654345;-0.16851176;-0.14252889;0.07138139;0.055186603;0.15814064;0.053541455;-0.2492217;0.0056061577;0.04556734;-0.026822552;0.09560775;0.1398784;0.004088155;-0.018312545;-0.12359629;-0.059359085;0.0030978685;-0.0992495;0.011585247;-0.1054345;-0.1551153;0.058025356;0.13778223;-0.1294935;-0.02538802;0.055824872;-0.020249102;-0.0004311886;0.020186648;0.07350787;-0.045618083;-0.05930636;-0.044478204;-0.09238894;0.17006557;-0.022869272;-0.032839067;0.0575937;0.05205201;0.06999819;-0.035427444;-0.19416773;-0.20870417;0.013737495;-0.077509195;-0.00839865;0.105925724;0.23407517;-0.35582322;-0.20900956;0.16720803;-0.049959626;0.11060223;0.07401505;0.002373763;-0.035888407;0.076358385;0.05987895;0.014497794;0.140233;0.013589619;-0.10024428;-0.012952725;0.05975991;0.08675;-0.039608113;0.14908871;-0.07857626;-0.049271233;-0.29159608;0.12327169;-0.009825326;-0.008768957;0.108999;-0.081754416;-0.017886955;-0.009871644;0.026514102;0.020036114;0.029333036;-0.09351598;-0.2573593;0.028214877;0.12727232;-0.013913823;-0.116590545;-0.17149945;-0.06549578;-0.0063470546;-0.065123156;-0.044253696;-0.093079574;0.08170034;0.09654725;-0.16885614;-0.14914803;0.075149804;0.014217661;-0.014200386;0.0026861723;0.21513653;-0.0072340663;-0.06287229;-0.01206327;0.11677867;0.1412868;-0.014311159;-0.029306076;-0.0579648;0.1899807;-0.00028027705;0.039219365;0.18427977;-0.049808227;0.050482027;-0.030115692;0.011214374;-0.047611754;-0.020776754;-0.07019806;0.030270157;0.018591223;-0.009951761;0.04700172;-0.043680005;-0.17630723;-0.061449073;0.0820646;0.20435199;-0.105309956;0.07892295;0.1422719;-0.067071415;-0.08266385;0.24481463;-0.0120904995;0.24096638;0.09584156;0.06947396;-0.025778295;-0.04066856;0.117467105;0.10652349;-0.040999237;-0.0926039;-0.15117766;-0.064376466;-0.06447191;0.03940563;-0.024590032;-0.14871575;0.21723965;0.29865003;-0.10398479;0.0050793504;-0.017440911;0.16860983;0.1381228;-0.16787998;-0.026223095;0.16248056;-0.086168036;-0.025142042;0.058110684;0.17139596;0.21842834;0.098477535;-0.08237135;-0.021991389;0.09612629;0.16539487;-0.23024549;0.19921283;0.0644129;-0.070094936;-0.08324986;-0.17806703;0.096049316;0.04289726;-0.15949053;-0.040171426;0.10479286;-0.115998;-0.09820998;-0.18324548;0.045070194;0.13449968;0.13139628;-0.09876111;-0.032923367;0.1829953;0.046950914;-0.104731314;-0.12704371;0.016725395;0.021351967;-0.03933666;0.2959247;-0.043487996;0.1396379;-0.088586986;-0.053161036;0.09612391;0.23250341;-0.19523096;-0.1382443;-0.0038877272;0.066766724;0.081839666;-0.15400891;0.033401653;-0.08620506;-0.11378244;0.0780156;-0.06608015;0.19936416;-0.07701882;-0.011098084;0.03495111;0.024948822;-0.10201651;-0.13863215;-0.025995666;0.119261526;-0.0076518706;-0.059818186;0.025005387;-0.049092498;-0.009956465;-0.049969573;0.080041625;0.019837959;-0.039372496;0.023026442;0.046692878;-0.03199969;-0.04166284;-0.23601614;0.12826118;-0.06670562;0.08661995;-0.06299677;0.006815796;0.097181424;0.04040662;0.13701624;0.062174093;-0.11772749;-0.04851869;-0.0918705;-0.079911284;-0.12763488;-0.16514838;0.0019202713;0.113708615;0.07198131;-0.026206493;-0.05289987;0.14010079;0.12798981;-0.05883264;-0.11254319;-0.0943491;0.17732535;-0.082279235;-0.22006038;0.051146492;-0.26341966;-0.092827335;-0.035742953;0.096145585;-0.03304582;0.04757094;0.011099249;-0.004725801;0.13921736;-0.020921398;0.042836115;0.13541146;-0.13243861;0.035266273;-0.12399754;0.09039829;-0.07575825;-0.07164693;0.03260696;0.19777137;0.022109624;0.16204514;-0.08057801;-0.07352725;-0.2895967;-0.10173172;-0.04118831;-0.09198739;0.06938415;0.004061979;-0.103715256;0.052821193;-0.15413773;-0.15339519;-0.14325479;0.10796389;-0.052543584;-0.21453843;0.013480359;0.03169463;-0.04439291;0.08692703;0.040265504;0.08942945;-0.0033330107;-0.09555354;0.071899354;0.07513116;0.093226865;-0.087493554;0.05495335;-0.07057094;-0.034799732;-0.019610371;-0.019836558;0.0109488815;0.012239321;-0.007973355;-0.094346404;-0.049338493;0.029746396;0.07794596;-0.2328848;-0.00807643;0.028753433;0.06666052;-0.00011264748;-0.04288054;0.036616392;0.033812117;0.08010959;-0.11643159;0.10715732;0.1971844;-0.068389826;-0.07308687;-0.062492207;-0.03934101;0.11807391;-0.031377733;0.019181097;-0.11616178;-0.16279316;0.021516228;-0.053415198;-0.07733942;-0.32848698;-0.071356684;-0.101970375;0.120530844;0.033399455;0.10011029;-0.21070568;0.2379248;0.09090393;-0.10193387;0.18355075;0.031788394;-0.019677162;-0.1683159;-0.053742956;-0.0051598926;-0.038688235;-0.045700744;0.14194873;-0.086522706;-0.116651095;-0.009572958;0.0111582605;0.046726737;-0.049593013;0.056712262;-0.15212129;0.048562523;-0.010098944;-0.1131957;-0.124874115;0.041279294;-0.085199565;-0.009913415;0.059312355;-0.027993863;0.0033098608;-0.11261182;0.056661915;-0.0354558;-0.09266235;0.002437272;-0.02529905;-0.07870407;-0.12825109;-0.37228328;0.06602192;0.004930603;0.044168897;0.047081955;-0.18188728;0.020220704;0.06387354;0.04423412;-0.21437685;0.084476076;-0.02505493;0.04458806;-0.09696135;-0.010728894;-0.0054069236;-0.07983419;-0.028709138;0.32857135;-0.05111594;0.018591512;0.10253992;0.15195638;-0.047156982;0.042191274;0.07969903;-0.03940108;-0.15343495;0.06879803;0.06898854;-0.021252673;-0.031358864;-0.14259711;-0.26643;-0.16816057;0.20644175;-0.042543903;0.07202204;0.063026175;0.020693805;0.045730855;0.14898475;-0.16380909;-0.25029117;0.10656449;0.08869335;0.009858599;-0.09143428;0.10041133;-0.032700665;0.03691746;0.020510666;0.023842262;0.064882524;-0.10856152;0.16589367;-0.04801239;0.12718605;0.0767485;0.080310024;-0.10590719;-0.06397502;0.0694722;0.2623367;0.0082942825;0.08442946;-0.004694546;-0.047058586;-0.18802486;0.032506213;-0.036924697;-0.08358324;-0.0111482525;0.049118303;0.086666636;0.043263886;-0.12865505;-0.18747371;-0.0077496246;-0.022511674;0.18404828;-0.23908496;-0.16213512;-0.0047298875;-0.05192335;-0.13978599;0.035982344;0.12871003;0.021408182;-0.14455435;0.11557402;-2.1292832e-05;-0.02607741;-0.02003738;0.104151875;0.093041964;0.21384877;0.06863606;0.11174481;0.014679784;-0.10388608;0.15991654;-0.09461071;0.20070948;0.091867015;0.03977235;0.03812765;0.062066406;-0.030847179;0.08750258;-0.11236391;-0.009123445;-0.051419165;-0.09920562;0.09186848;-0.06884918;0.07106521;-0.06668992;0.16118614;-0.105827235;-0.0007455123;-0.15329096;0.0961655;-0.08331376;0.10439794;0.1079715;-0.10808554;0.064704955;0.097182065;-0.13000754;0.068933114;-0.022700932;-0.08811222;-0.08355442;-0.08294915;0.05779171;0.020172339;0.15783097;0.13021146;-0.17925088;0.18048461;-0.06453016;0.010162824;-0.14104798;0.08650468;0.082886204;-0.12450408;0.07690647;0.05487209;0.024142731;0.12822361;-0.17147848;0.1237335;0.22895975;0.016410967;0.06619957;-0.13750006;0.0470299;0.040670823;0.006167438;0.07107821;0.02815332;0.12797478;0.33118704;-0.2865043;-0.033036742;-0.020808093;-0.09660942;0.08693278;-0.031236041;0.028817104;0.20755893
0.018787002;0.032513108;0.026417738;0.05441009;0.033283032;-0.10788853;-0.022208251;0.036289103;0.03587577;-0.08665003;0.23559552;-0.014582857;-0.29161108;0.0043106363;0.08917081;-0.040528264;-0.03402969;0.1959164;0.06524574;0.030495454;-0.09291782;0.06509115;-0.17900744;-0.023678983;0.07403917;-0.05744145;-0.026657468;0.06316761;0.16636956;-0.026367415;0.050805375;-0.0074992934;-0.21553215;-0.007614321;-0.038380746;0.13066576;0.055122335;-0.06570589;-0.026043355;-0.08967452;0.10051395;-0.013244149;-0.0105509;0.11565525;-0.021641752;0.24426816;0.029084686;-0.19805077;-0.056863338;-0.04206017;0.1417619;0.017100167;0.18280615;0.23287775;-0.24482524;-0.119844064;0.08188355;0.00085265824;0.17781642;-0.07939838;0.018692931;-0.1282306;0.05773731;0.09467532;-0.10922604;0.050557114;0.07229806;-0.05300548;-0.004111995;0.13977747;0.11587362;-0.12362864;0.2319592;-0.14620867;-0.031374663;-0.1638413;0.11864888;-0.15967837;0.0024561356;0.1335863;0.038110048;-0.0007671162;0.1779204;0.13323478;0.12522045;-0.13330556;-0.08279081;-0.32363743;0.07786181;0.06032987;0.080744274;0.005790194;-0.13045003;-0.002804502;0.030374086;-0.17724484;-0.053435583;-0.18871774;0.05765917;-0.06181645;-0.07447997;-0.023986308;0.033601828;0.0045403377;0.008070561;0.10379649;0.17134291;0.06726838;-0.021166276;-0.0944001;0.06922213;0.11227792;-0.052273832;0.16675583;-0.11728489;0.15127945;0.061952226;-0.011277835;0.11487114;-0.099377386;-0.07315426;-0.1636893;0.13909976;0.012000694;-0.11671525;-0.060591854;-0.11208494;-0.026321484;0.1489872;0.056908075;0.058486734;-0.24608028;-0.121168725;0.035350624;0.23125598;-0.017103285;0.1580509;-0.067882374;0.09717005;-0.21907538;0.25268373;-0.034933846;0.29791358;0.019309552;0.05733585;0.0829074;-0.050186705;0.22735327;0.09642134;-0.21960664;0.0006603094;0.033806384;-0.05561826;-0.023233118;-0.04407008;0.012255951;-0.07682199;0.28748176;0.2228978;0.021816494;-0.0133309355;-0.033937372;0.21286194;0.12162832;-0.11961155;-0.121213466;0.14952199;0.007138543;-0.02787529;0.10575378;0.114057794;0.28237605;-0.025329852;-0.050062705;0.17380525;-0.007259329;0.13379139;-0.070637226;0.049247313;0.13247256;0.02356442;0.02387766;-0.12579711;0.008416335;0.031793185;-0.25266334;-0.03733871;0.0738594;-0.050508052;-0.018842528;-0.26859546;0.09513425;0.040094618;0.055140644;-0.041605618;-0.079486385;0.060331315;-0.07171903;-0.0765128;-0.13244978;0.12504159;0.021491721;-0.20399228;0.25562024;-0.05845934;0.09215785;0.009158516;-0.078663744;0.00092878216;0.2248186;0.04039139;-0.08353032;0.057166606;0.051033497;-0.05771045;-0.25527775;-0.07664991;-0.005662359;-0.029824987;0.026387244;-0.025622407;0.07569202;-0.023645315;-0.1273117;0.13298148;-0.02734935;-0.13174713;-0.09915728;-0.1685712;-0.02476759;-0.055912297;-0.13428068;-0.042830963;-0.09790019;-0.01957848;-0.1305223;0.03630075;-0.1090843;-0.08147598;-0.029434957;-0.03775412;-0.1761275;-0.12544098;-0.061439246;0.12872534;-0.15044919;0.14146404;-0.11580677;0.05477908;0.15353134;0.046496335;0.14514661;0.05045369;-0.00014384049;-0.05409418;-0.12632251;-0.034029774;0.05104741;-0.22112328;-0.045364376;0.20176917;0.106920995;0.08431678;0.055612694;0.049087554;-0.036856778;-0.14418481;-0.0010238037;-0.072144724;0.16970271;-0.0032258914;-0.21258518;-0.03342683;-0.23586532;-0.077497214;0.06888953;-0.024278127;-0.057192676;0.010870994;-0.01629655;0.105942585;0.1006572;-0.018826535;-0.15926307;0.0062599364;-0.011784394;-0.10687748;0.035291396;0.03213556;-0.09864192;0.07187552;0.089683495;0.15816288;0.027971193;-0.014558673;-0.09650718;0.03244933;-0.35242036;-0.031980526;-0.013405521;-0.17362332;0.08180664;0.07182477;-0.059042856;-0.075579986;-0.3271744;-0.10806351;-0.06440037;0.0444782;0.09247886;-0.27537423;0.06479071;-0.027055211;-0.059675656;-0.057373077;0.1435009;-0.17468472;0.19025084;-0.099764034;0.04944319;0.16241588;0.100470975;0.063711286;0.07516159;-0.041365102;0.19441606;-0.17101322;0.07101778;-0.03675435;-0.13079228;0.18318145;-0.1196662;0.023483891;0.015820013;-0.008612698;-0.28756237;0.14767088;0.052485377;0.1519566;-0.0022939104;0.031889245;-0.09467842;-0.044404164;0.08542616;-0.032369707;-0.01907219;0.19280834;-0.07893689;-0.046346925;-0.077831656;0.009580789;-0.033688065;-0.10044692;-0.083679564;-0.01179823;-0.15085194;0.022520617;-0.107993536;-0.0026172316;-0.36507097;0.011710939;-0.05726527;0.020013476;0.074931405;0.07637034;-0.07999338;0.29813817;0.1328887;-0.08376884;0.04171499;0.13306601;-0.113864;-0.24020256;0.0553478;0.1446532;0.054564208;0.0018876021;0.21822569;-0.050500542;-0.027936144;-0.00893119;0.098834574;0.1888219;-0.14642274;0.13348167;-0.066160135;0.0048994618;0.117715865;-0.0976001;-0.15876932;0.19707853;-0.116959155;0.07391541;0.101735845;0.14823377;-0.007597711;-0.2503002;0.04966182;0.020979563;-0.105279535;0.0040287846;0.0072383545;-0.08794543;0.01640167;-0.3923051;0.04031484;0.020634128;0.059783794;-0.04537453;-0.07191843;-0.14775398;0.13758373;0.052744333;-0.21850248;0.027955966;0.017424291;0.06204825;-0.019559119;-0.16941614;0.061705522;0.061552312;0.06723437;0.31335664;-0.0067812097;-0.025547018;-0.18225306;0.083342;-0.02778124;-0.035584647;0.043303445;-0.038161356;-0.12396009;0.049736187;0.08967392;0.051368028;-0.15804286;0.026330352;-0.15189904;-0.02335896;0.23006928;-0.2166664;-0.017508429;0.09699278;-0.049756493;0.01625873;0.034531176;-0.18332069;-0.20546834;0.065833695;-0.07460754;-0.025534952;0.061404347;0.1390386;0.05728479;0.083583266;0.10898989;0.12374019;0.0067959917;-0.11784997;0.20142116;-0.09406029;0.06731682;0.051251013;0.010305739;0.014671432;-0.14825249;0.010381108;0.2140762;0.09103445;0.11300238;-0.07013858;-0.020535482;0.006383537;-0.007694777;0.01247804;-0.10754789;-0.088531636;-0.1339113;0.009964176;-0.036225107;-0.1283196;-0.12945205;-0.06373432;-0.09375814;0.052836616;-0.076946825;-0.3073211;0.07430876;-0.0047976873;0.077094816;-0.033177875;0.046108983;0.08959491;-0.14164667;0.014016696;-0.035360143;0.16670074;-0.006117126;0.16732879;0.012416479;0.21093082;0.012756756;-0.05540947;0.02952375;-0.07005165;0.080906406;0.010776406;0.18688339;0.2663223;-0.04646945;0.14674982;0.11934621;-0.011302116;0.17145018;-0.12696268;0.048183322;0.014905261;-0.21087393;-0.061046313;0.012709602;0.10939673;0.029743198;0.2295801;-0.046710417;0.08396287;-0.109128155;0.006388898;0.014912883;0.1269672;0.09422515;-0.17204574;0.07616069;-0.010766343;-0.1717373;-0.013167554;-0.095399015;-0.0459433;-0.024635345;0.057638295;-0.0933232;-0.03589081;0.20404793;0.13438632;-0.116404876;0.047181997;0.041835435;0.13095962;-0.13505992;0.025968844;-0.10974356;-0.088757604;-0.02490581;0.042015363;0.080419876;-0.02743761;-0.17521714;-0.118770435;0.034311954;-0.08886652;0.1141753;0.03034591;-0.050852645;-0.008299605;0.05230293;0.029612476;-0.10633533;0.11449763;0.3650853;-0.25044608;-0.08391393;-0.108302444;-0.14333597;0.24781454;-0.07412446;0.0052726264;0.20808432
0.13276663;0.13194148;0.028272301;-0.011600725;-0.17005546;-0.19451502;-0.1690745;-0.011451422;-0.07495056;-0.026537498;0.13996206;0.11652246;-0.1583814;-0.009770964;0.03771437;-0.039156947;0.14259014;0.17767203;0.07911278;0.009451706;-0.09091542;0.08008453;-0.06693127;-0.07030183;0.13457468;-0.08642403;-0.03564313;0.06177491;0.012381436;-0.18532456;0.110672995;0.06337105;-0.113818705;0.021118043;-0.010331285;0.043165438;0.09386642;-0.05108867;0.031647857;0.059927955;0.17286079;-0.1544749;0.029286183;0.086221;-0.02963079;0.1599963;-0.08813401;-0.2819462;-0.13434328;0.024938395;0.06256018;-0.012439879;0.18852295;0.26318002;-0.2746477;-0.04866273;0.003386481;0.0031404425;0.13871779;0.012256293;0.05231855;-0.09129985;0.08754639;0.049981542;0.0091841;0.032482363;0.061620057;-0.07093412;0.043808695;0.01661162;0.017839644;-0.11408782;0.104562916;-0.05003316;-0.02776908;-0.2616891;0.03745323;-0.020805111;-0.019937906;0.21494958;-0.02876459;-0.07104271;0.022967912;0.057784814;-0.05048898;0.045412242;-0.075692184;-0.28139606;0.18503584;0.105144665;0.042913616;0.015266197;-0.238185;0.11500672;0.037861343;-0.05818519;-0.040317807;-0.17272177;0.0034614408;-0.0921675;-0.06695677;0.13089356;-0.09284073;0.09617963;-0.025740666;0.07316773;0.07611996;-0.08864823;-0.117007084;0.044802994;0.14024352;0.10182911;-0.11167297;-0.014174416;-0.14615786;0.082220614;0.03984263;0.037896022;0.066662334;-0.010323464;-0.07121842;-0.015434004;-0.017863734;-0.00046697832;0.05465575;-0.15436216;-0.08525699;0.08242232;0.046197034;0.0026456772;-0.11867989;-0.13949901;-0.20076078;0.11792376;0.17666213;-0.0024617068;0.055003908;0.08118651;0.05489388;-0.09903482;0.14145291;0.08068338;0.21170126;0.2181795;0.008015066;0.08597845;-0.18187685;0.19540988;0.025421059;-0.09444852;-0.10522985;-0.078599334;-0.06702329;-0.14254616;0.08374342;-0.082265414;-0.12970272;0.1954839;0.2197752;-0.07497286;0.010244138;0.011658795;0.07561135;0.14758825;-0.09344862;-0.03409243;0.07329516;-0.018842239;-0.07918289;-0.012455697;0.04995584;0.09247185;0.107620925;-0.069970116;0.05049905;-0.045429643;0.053304065;-0.23714772;0.24305849;0.14311345;-0.055414245;0.035506736;-0.21861745;0.011878319;-0.015085038;-0.20687202;-0.033272702;-0.017064359;-0.13776013;-0.016679324;-0.31602898;0.105180666;0.13203676;0.20081925;-0.20387779;-0.010028751;0.18375747;-0.08752159;0.011480304;-0.1657532;0.027099518;0.008395847;-0.15162708;0.30640608;0.01856924;0.012036823;-0.053792395;-0.09087786;-0.019704126;0.031375967;-0.0286422;-0.1594706;-0.011979399;-0.01805615;-0.013416566;-0.22446874;-0.050773744;-0.16318649;-0.053082563;0.04944463;-0.11115877;-0.004282081;-0.120196864;-0.03587811;0.0050542103;0.027538685;-0.08732906;-0.09387933;-0.10048364;0.03786077;0.01434871;0.016778888;0.056705244;-0.04790802;-0.0499339;-0.08802674;0.038927555;0.006993063;-0.0032449523;-0.02987964;-0.061139606;-0.14380461;-0.15722272;-0.16427748;0.16949663;-0.06608947;0.10656207;-0.059873287;0.017772019;0.07485501;0.042186823;0.15225255;-0.0042659743;-0.16718712;-0.10145926;-0.026267286;0.048271883;0.0025311457;-0.2540091;-0.07729948;0.119922765;0.051234595;0.07030141;0.09698682;0.012909448;-0.019229067;-0.07071824;0.0071015647;-0.035126355;0.115763955;-0.02596092;-0.2242571;-0.015671952;-0.22515687;-0.09069841;0.08632389;0.062099826;-0.15562107;-0.0070234747;-0.08925545;0.058265477;0.22681169;0.008924345;0.02043004;0.0797483;-0.098304935;0.0279197;-0.09627637;0.07505857;0.005121176;-0.0003064901;0.016515352;0.16491792;0.03926649;0.12020385;-0.03848761;-0.07994026;-0.24682128;-0.11022527;0.04032737;-0.14763534;0.04515841;0.013611852;-0.112530485;-0.038245954;-0.27605256;-0.22300921;-0.07674199;0.12060754;-0.043359656;-0.25049245;0.019814301;0.079701625;-0.02147435;0.016807945;0.09911688;-0.03453682;0.10190924;-0.08086996;0.18107465;0.06754605;0.0068977447;-0.07956922;0.09362311;-0.1797614;0.05479995;-0.126352;0.0861613;-0.042544972;-0.025061602;0.016598603;-0.051328115;-0.034695365;0.09540496;0.08372959;-0.21554685;0.002494257;0.071735084;0.16813669;-0.018626466;-0.008638396;-0.06272948;-0.09236203;0.07419786;-0.13387747;0.0064121163;0.19998159;-0.054807093;-0.044441666;-0.10459285;0.008289046;0.106708616;-0.044006728;0.0046527754;-0.05055704;-0.18966992;0.02182007;-0.022756726;-0.057983063;-0.26571545;0.041969508;-0.042545408;0.04981363;-0.015012865;-0.077766925;-0.13114664;0.16239548;0.14427693;-0.16326958;0.06921627;0.056898545;-0.11197515;-0.099087015;0.066035226;0.021559663;0.0775581;-0.046178956;0.19555824;-0.02046886;0.05545895;0.056605056;0.04453523;0.029387124;-0.07171378;0.042989586;-0.09623374;0.09518774;0.02544217;-0.21097589;-0.13804442;0.08437415;-0.1051582;0.10784021;0.11276953;-0.05653116;0.05540021;-0.09597611;0.09468806;-0.030181384;0.0036280693;-0.13437092;-0.07649032;-0.09845948;-0.12922357;-0.44546753;0.010687707;-0.041647427;0.05625013;-0.025078945;-0.044391472;-0.16451682;-0.056077622;0.058784653;-0.26296744;0.04050079;0.016387956;-0.09086738;-0.041874703;-0.10929399;0.07219959;-0.04942644;-0.088910274;0.23956703;0.017521627;-0.016043905;-0.062200073;0.07235866;0.069935136;0.114511184;-0.03334032;0.02721959;-0.19692522;0.1802948;0.111563094;0.07422522;-0.0872155;-0.08991237;-0.2332048;0.043433025;0.07125504;-0.076825954;0.12401479;-0.006128593;-0.02960509;0.06751242;0.11213252;-0.14624082;-0.24601683;0.07874121;-0.053321898;-0.0005759857;-0.061881047;0.15660475;0.10270969;0.101748005;-0.049109153;0.17191666;0.0041078217;-0.001685778;0.07826494;-0.028265024;0.016138544;0.17158985;-0.016009796;-0.039860826;-0.10761467;-0.039681226;0.15700936;0.10600654;0.029138427;0.021620758;0.044806674;-0.07653014;0.0573285;-0.07921162;-0.110089295;-0.15257657;0.00860516;-0.0103933755;0.09198897;-0.22445714;-0.052628707;0.014844906;-0.02972072;0.0068974807;-0.05217903;-0.12105549;0.08396307;-0.05427577;0.016515147;-0.042706225;0.14576809;0.081652775;-0.027800867;0.071811266;-0.041218743;-0.03798822;0.04315333;0.07070895;0.05019578;0.106722504;-0.03400416;0.051717293;0.033818007;-0.15991803;0.12740865;-0.055891108;0.050126556;0.1082067;-0.077034734;0.08170032;-0.03572909;-0.017888121;0.15109606;-0.20557676;-0.065806456;-0.09202006;-0.14788352;-0.018842548;-0.019809831;-0.065571114;-0.022940317;0.1888959;0.015257973;0.10270672;-0.0796223;-0.055478275;0.046355102;0.13857597;0.12935276;-0.12455981;-0.051603734;0.13686214;-0.21524143;-0.010633163;0.027369408;-0.07218211;0.043112192;0.006809966;0.008002993;-0.06094023;0.1980792;0.07909026;-0.12652294;0.060491264;-0.027356211;0.06900797;-0.046711426;0.08700366;0.09041281;-0.04155329;0.00034412465;0.12070397;0.027680464;0.0880506;-0.21657827;-0.008345467;0.18717651;-0.065902844;0.09485286;-0.063121684;-0.051485743;-0.034164745;-0.01312534;-0.010100729;-0.00653521;0.08650401;0.28050002;-0.22483173;-0.14598292;-0.11439852;-0.15331985;0.18008609;-0.046402294;-0.012295402;0.058580387
-0.015337454;0.031265173;0.07444387;0.06530967;-0.08415762;-0.14108692;-0.10191579;0.022601394;-0.08217105;0.07682399;0.12664983;0.010538645;-0.129786;-0.0019203265;-0.03371166;-0.04128482;0.14559233;0.04501904;-0.04977989;-0.00945168;-0.16207927;0.094558984;0.07054484;-0.13335551;-0.0046793693;-0.07348955;0.035946384;0.03744159;0.0016941382;-0.22184229;0.11977219;0.055302724;-0.0030501124;-0.043035645;0.013576488;0.05904628;0.015525251;-0.0050039627;-0.007403618;0.053890757;0.16844326;-0.19432531;-0.03668072;0.013490479;-0.032019638;0.13305278;-0.111503206;-0.17514038;-0.03149959;0.011044137;0.14279987;0.13449593;0.16566333;0.16010557;-0.095829956;-0.020919954;0.10270145;-0.050923847;0.027076762;-0.002852163;0.03577817;-0.26228306;0.07076607;0.005181123;-0.07965709;0.061917152;-0.020016478;0.010261533;0.07787485;0.10733468;0.013201164;0.021622233;0.0644972;0.0052449442;-0.029724114;-0.26899707;-0.006287693;-0.11248328;-0.035270963;0.1945769;-0.031584267;-0.080956705;-0.03387956;-0.038132664;-0.10244948;0.07385398;-0.1926669;-0.12487956;0.24077824;-0.011947031;0.033283416;-0.110141866;-0.31491724;-0.0065799137;-0.10158821;-0.035329398;-0.025887745;-0.19175503;0.105294876;-0.011148261;-0.041561842;0.13920109;-0.0047823195;0.021214738;-0.060067855;0.007391593;0.16472192;-0.11381886;-0.078462794;0.13224973;0.19426918;0.15662262;-0.037956517;0.030709106;-0.13921115;0.2213818;-0.013566037;-4.09936e-05;0.1387613;0.056541555;-0.014687226;0.008017978;-0.081332766;-0.0076673846;-0.015187543;-0.017226323;-0.022017712;0.12470018;0.071218595;0.016500235;-0.06698931;-0.045396816;-0.23829915;0.06783273;0.17769259;-0.069280475;0.046143632;0.048219763;0.06282289;-0.11773145;0.1307296;0.15770812;0.24263509;0.24309008;0.06399253;0.14240822;-0.0904377;0.10786849;0.11666815;-0.0052346317;0.00896709;-0.041562177;-0.03336225;-0.14857467;0.08223292;-0.09800065;-0.10061444;0.1867669;0.2806872;0.036977306;0.14901488;0.079067156;0.07279927;0.073165245;-0.14385332;-0.18350993;0.122959934;-0.045483094;0.12856811;-0.008076468;0.17227173;0.12144216;0.09456195;-0.046681903;0.080187336;0.066914685;0.03517543;-0.24762909;0.20551102;-0.014725367;-0.047254562;-0.0749718;-0.22052066;0.0066271285;-0.07231458;-0.077024676;0.009786755;0.063578606;-0.19391689;-0.024034506;-0.23787095;0.06475657;-0.03903711;0.2103231;-0.09222655;0.013591585;0.23615259;-0.017528348;-0.023834001;-0.18335333;0.1821043;-0.006472082;-0.12672569;0.21229206;-0.098693684;0.12166673;-0.10380947;-0.14675915;0.0920981;0.17984262;-0.19425775;-0.14289327;-0.07441735;-0.037320048;-0.03870786;-0.11395757;-0.019924486;-0.015834257;-0.047064923;0.03614264;-0.13714539;-0.0037344405;-0.041762084;-0.13173375;0.046666283;0.043355674;0.0067597996;0.007897333;-0.062335838;-0.015439176;0.05105086;0.13416494;-0.09019062;-0.07480453;-0.053249694;0.021787478;0.052639265;-0.06867717;-0.08324569;-0.03552409;-0.09451326;-0.16973333;-0.15862983;-0.17521308;0.090543866;-0.06077026;0.09977623;0.056858175;0.08466494;0.13381764;0.026593106;0.087952375;0.02109866;-0.17251785;0.049628835;-0.16233979;0.017141633;-0.008259962;-0.21284297;-0.0010043827;0.12819839;-0.042872515;0.072562985;0.09860849;0.028631361;0.113612056;-0.17129211;0.010363037;0.042985663;0.24994606;0.18057688;-0.23030147;0.026103297;-0.18945457;-0.19435486;0.06513163;0.08716786;-0.07060549;0.061484605;-0.082641825;0.16584398;0.22347793;0.085243694;-0.02116919;0.12018959;-0.2115244;-0.010740466;-0.09730538;-0.00456883;-0.04924396;0.093420856;0.06641458;0.14112668;-0.06624054;0.046981025;0.035005763;0.025856087;-0.2366998;-0.1251362;0.018396018;-0.09769304;0.15462963;-0.012795941;-0.032088682;-0.089338414;-0.16833104;-0.2545882;-0.13397239;-0.039942015;-0.028951332;-0.16906974;-0.08982259;-0.026345942;-0.008341458;-0.05708597;0.02355656;-0.059264414;-0.004761591;-0.011018993;0.14123863;-0.04908617;-0.02714682;-0.09327908;0.09916791;-0.099414356;0.0052675838;-0.03110122;0.08826221;0.005032755;-0.027711157;0.05253499;-0.13862264;0.15963648;-0.0045573944;-0.050634302;-0.2333057;-0.062419087;-0.03308187;0.11021463;0.0062556;-0.14447168;0.017660381;-0.10741181;0.0762372;-0.056846973;-0.12296398;0.10696858;-0.023891399;0.08895674;-0.052138396;-0.01093275;0.2116559;0.053824518;-0.013786178;-0.10535254;-0.18750247;0.014333148;0.02921548;-0.020671621;-0.26833436;0.018250179;-0.016522575;-0.07375454;-0.0013232395;-0.09210328;-0.10318908;0.18185793;0.10491924;0.033737566;0.13712974;-0.0098564755;0.016889447;-0.09818946;-0.02959323;0.046286937;-0.005757202;-0.06098468;0.18091486;-0.05059718;0.06559695;-0.10415256;-0.03431158;0.0050580096;-0.031837773;0.09577828;-0.02767825;0.072820745;-0.032691054;-0.18255682;-0.08335909;0.008576048;0.0021057907;0.032915182;0.082463905;-0.019703591;0.08460686;0.020085601;0.029376993;-0.02801989;-0.06080334;-0.1587086;0.073081344;0.0024871735;-0.14188288;-0.34618884;0.018400315;-0.027540315;0.052777655;0.12467013;-0.007082216;-0.17660475;0.0028530578;0.029264169;-0.13040876;0.10989767;-0.042526595;-0.030805651;0.017423078;-0.08348315;0.00115152;-0.00021698973;-0.13006356;0.23866317;-0.037803438;-0.0412161;-0.031422466;0.10200348;-0.054902855;0.063533984;-0.10395483;0.04658376;-0.18193759;0.12138794;0.09785524;0.11496219;-0.10615067;-0.10140524;-0.29785404;0.007139266;0.011969315;-0.0011447521;0.018279802;0.093760245;-0.0068294364;0.09625305;0.025133237;-0.18272337;-0.1570089;0.10495137;-0.034234386;0.02404574;-0.14399189;0.06000691;0.05579512;0.08306559;-0.072459236;0.18429178;-0.099120446;0.012878853;0.11740294;-0.0079612285;0.16825987;0.09934729;0.066835724;0.026120901;-0.1025876;-0.027239885;0.29437718;-0.032632504;0.07096654;0.06462011;0.004671708;-0.103967346;0.030248405;0.03302926;-0.04449239;-0.107813664;-0.0018381113;0.1059926;0.22309668;-0.1617511;-0.18057753;-0.11781474;0.07072903;0.0071618822;-0.15270588;-0.17858654;0.052171562;0.008648933;-0.0140242735;-0.1115759;0.16950299;-0.002957878;-0.0814878;0.116127886;0.089001;-0.026249819;0.024492735;0.028428193;-0.070468165;0.22004533;-0.068265066;0.12367771;-0.0070811813;-0.16796903;0.09963705;-0.08489774;0.07369144;0.07334928;0.0513452;0.04087278;-0.026429372;0.15758403;0.04043801;-0.21393465;-0.009635964;0.007958905;-0.24578859;0.051937602;-0.06737761;-0.00036489966;-0.1675533;0.040888578;-0.046471257;0.06727227;-0.016607415;-0.010518924;0.07451345;0.16428459;0.26634103;-0.22482698;0.057707507;-0.03199349;-0.039874073;0.014649855;-0.03182889;-0.036847476;-0.01298039;-0.04334923;-0.07296581;-0.03213272;0.15730631;0.018246036;-0.113191836;0.1465601;0.007375515;0.020520698;-0.01661567;0.06641128;0.14370161;0.01500688;0.046784688;0.0012512443;0.0579182;0.1368108;-0.16358784;0.07500238;0.17647782;-0.0261304;0.20929055;-0.013940374;0.05809248;0.02104572;0.053341497;0.099281095;0.075539105;0.02527373;0.18845439;-0.077947274;-0.09405161;-0.024570502;-0.07114066;0.095306955;0.0018292984;-0.09711097;0.092158966
0.0595407;-0.07591779;0.07248722;0.0026732069;-0.1175107;-0.03222056;-0.16024624;-0.0662354;0.0051769246;0.027107166;0.11736384;0.12103979;-0.08839722;-0.09212833;-0.046882;0.08475064;0.031888694;0.06876349;-0.034237966;0.052008554;-0.083853014;0.009798413;-0.08832649;-0.071673244;0.07041077;0.018699927;-0.062493358;0.0013661868;0.110995606;-0.13347913;0.01644057;-0.029967748;-0.08218944;-0.064928316;-0.063423865;0.09814328;-0.0014755328;-0.02312004;0.009774688;0.011507243;0.11983601;-0.09820726;-0.019252555;0.10439247;-0.15158774;0.12280353;-0.06500026;-0.12047597;-0.14947626;-0.05007172;0.20099692;0.10821803;0.19642697;0.28533164;-0.18790366;-0.10649205;0.033808015;0.06617313;0.117065035;0.058338724;-0.050140876;-0.21861589;-0.071696416;0.09879109;-0.06824792;0.06639017;0.100092515;0.047732834;-0.02579823;-0.0075109787;0.06658034;-0.05015785;0.022360668;-0.11675141;0.040261663;-0.1612868;-0.00031748466;-0.07558946;-0.022481345;0.115720116;-0.0085850395;0.0032495777;0.032657873;-0.07439456;-0.07339794;-0.018529845;-0.098008744;-0.22635984;0.063505575;0.0013049721;-0.009442244;-0.06840342;-0.24204305;0.12550405;-0.00037188717;-0.03712509;-0.02806997;-0.22730419;-0.022834582;0.08728783;-0.13181229;0.08401373;-0.08335696;0.07724104;-0.041249577;0.059398375;0.18669243;0.017594751;-0.060499504;0.028208017;0.16063696;0.1653432;-0.14153071;-0.06055905;-0.07526637;0.090132706;0.02101584;0.022818005;0.024191901;0.07980169;-0.02822367;-0.053914458;-0.027736723;0.023374151;-0.07639137;-0.014443421;-0.06320403;0.068344906;0.09107448;0.010332103;0.002665685;-0.14313884;-0.18036991;-0.08037718;0.14758167;-0.008634841;0.03289898;0.022785123;0.12854248;-0.046922483;0.2151226;0.10084079;0.22935326;0.10822889;0.06627477;-0.043933682;-0.24226247;0.07858642;0.1713278;0.004502138;-0.032313764;0.061377387;-0.12553447;-0.028665606;0.13905475;-0.02098363;0.015996931;0.20895475;0.29838595;-0.09768829;0.059110243;-0.09649191;0.036488425;0.20501699;-0.082633495;-0.084768236;0.14533526;-0.009641339;-0.026965449;-0.06490892;0.072306156;0.08880359;0.15779117;0.10219581;0.11297077;0.08373989;-0.018849734;-0.16213459;0.029706482;0.12956412;-0.1414104;-0.07204209;-0.3216004;0.06521515;-0.025544448;-0.112880945;0.013516214;-0.04720293;-0.15201667;-0.102840334;-0.3018225;0.07335002;0.12475906;0.19401953;-0.12997049;-0.055755943;0.16750944;0.059983693;-0.02746024;-0.035115615;0.05762443;0.011315128;-0.11839259;0.2015486;-0.123228006;0.17961587;-0.12861595;0.022116637;0.045754667;0.1466116;-0.09393388;-0.18905708;-0.03030292;0.05486356;0.0721913;-0.2532815;-0.015825616;-0.008647809;0.059665166;0.042158578;-0.1151713;0.051120214;-0.033231158;-0.13685904;-0.014101088;0.035821583;-0.011170575;0.0005656493;0.036953315;0.072937086;0.12794459;0.008483114;-0.15415916;0.06704689;-0.009711689;-0.011130294;0.005475945;-0.022939747;-0.060173742;0.06616842;-0.06744414;-0.22618733;-0.08530485;-0.12497701;0.1672773;-0.20287918;0.09143871;0.1388898;-0.010967482;0.14638197;0.027660495;-0.023367623;0.033895127;-0.16032746;-0.01094648;-0.060365807;-0.040245485;-0.0489001;-0.2353894;-0.040779464;0.13136286;0.012654201;0.04305925;0.09988281;0.009917227;-0.018404508;-0.074643224;-0.0400635;0.11278564;0.2699446;0.13255581;-0.110017;0.102199174;-0.17334044;-0.0627611;0.13319224;0.00048581953;-0.03257866;-0.009571374;-0.031135542;0.09306811;0.20315796;0.11338745;0.028958231;0.025188893;-0.043274786;0.008835866;-0.08496004;-0.0419232;0.004221465;0.10913016;0.123467214;0.19282632;0.024127489;-0.014845096;-0.014064173;0.050754026;-0.24285834;-0.07652778;-0.18172222;-0.0030360906;0.114715196;0.059958447;-0.10861606;-0.0498008;-0.174113;-0.14547805;-0.13410778;0.11042779;0.049877886;-0.13879272;-0.0650963;-0.004735398;-0.027736736;0.03940296;0.0643679;-0.04433645;0.06829885;-0.017153215;0.14093764;-0.09367891;0.019081997;-0.15007459;0.0037773116;-0.16701801;0.22028306;0.02494719;0.084813945;-0.0827797;0.00062895863;0.060165368;-0.047625862;-0.0003334282;0.079098314;-0.034268625;-0.21176174;-0.003107585;0.047938935;0.080086485;-0.025456008;-0.1117984;-0.07360187;-0.06424546;0.11434324;-0.04507342;-0.15845902;0.24133122;-0.04053089;-0.103812814;-0.11254409;-0.06210048;0.14379402;-0.009006925;0.054134347;-0.11974814;-0.27907875;0.06309868;0.030225335;-0.04855699;-0.18455027;0.08585279;-0.06797237;-0.08645745;0.05913592;-0.0051613157;-0.09087806;0.15112951;0.07347382;-0.036936495;0.08500965;0.058943283;0.10138424;-0.036545843;-0.06289199;0.03516872;-0.04848519;0.013365934;0.11947508;-0.058511995;0.11330803;-0.053384446;0.016544025;0.09166585;-0.04181913;0.043540906;-0.033282124;0.010247659;-0.13946626;-0.027965056;-0.029477581;0.120688885;-0.12047134;0.02166523;0.12074468;-0.14623398;-0.035326056;0.010559548;-0.0076168543;0.07510807;0.043142606;-0.047244266;0.029740384;-0.069760956;-0.023050856;-0.3701656;-0.08081348;0.03175877;0.008864475;0.14543071;-0.07490857;-0.1361675;0.0128588565;-0.07723808;-0.16523583;0.004058017;-0.038554057;-0.07059427;0.06383351;-0.16091587;0.06931417;-0.093216114;-0.06643223;0.20358062;-0.03749596;0.09132081;0.0035825132;0.09847077;0.08849576;0.009527262;-0.07502189;-0.02556063;-0.12294147;0.19037169;0.03472838;0.04494688;0.0641578;-0.038118776;-0.2851988;-0.08028957;0.12092263;0.012987024;0.10289032;-0.050098237;-0.074014746;0.069517344;0.09388224;-0.18332256;-0.08370192;0.08929643;-0.05920344;0.002101196;-0.03257611;0.13503315;0.06083789;0.22298658;0.017350357;0.21148464;-0.040340457;-0.015938263;0.19062243;0.021640489;0.09563761;0.13696484;0.058176484;-0.04152566;-0.127278;-0.03152869;0.24424572;0.10455665;0.13638888;0.015133281;0.035485566;-0.15020114;0.049212545;-0.11175524;-0.04936537;-0.10098219;-0.06945092;0.025929699;0.18136962;-0.19508085;-0.016121978;-0.028541718;-0.042219765;0.05997944;-0.20688385;-0.09003594;0.029591022;0.01759899;0.0149073;-0.07666293;0.22521797;0.075991295;-0.08231441;0.13831173;-0.106349975;0.029220145;-0.109622866;-0.0011491115;-0.0057138363;0.14270867;0.0760105;0.1205537;-0.049766198;-0.018352691;0.098498866;0.02204936;0.0012193233;0.100384876;-0.00351643;0.048014313;-0.044379268;0.17401586;0.11759863;-0.20657825;0.019563304;0.07552131;-0.07794849;0.12023888;0.05517467;0.019947996;-0.048702046;0.1747184;0.012733625;0.09746459;-0.08952246;0.07382886;0.054952722;0.03438925;0.20507589;-0.12723933;0.011671617;-0.036878064;-0.11096729;0.0990373;0.023614032;-0.03783968;-0.07083461;0.04981167;-0.074891575;0.066190146;0.099547334;0.014556288;-0.15201993;0.1931792;-0.024075782;-0.030307792;-0.08557237;0.0051285354;0.04254796;-0.06665435;0.014415138;-0.04229455;-0.008767725;-0.017241715;-0.15296331;0.09634819;0.20574895;0.0040275925;0.12483;0.02417548;0.044754215;-0.047598645;0.081065;0.040221743;0.043892514;0.17045417;0.29892805;-0.19048196;-0.06848441;-0.0831315;-0.09579661;0.14324951;0.067966804;-0.045014817;0.059628244
0.019202879;0.043695133;0.05278075;0.07940838;0.03281974;-0.0894867;-0.19300422;-0.0985372;-0.064238325;0.055445436;-0.03794283;0.107709534;-0.15689224;-0.012333525;-0.091287196;0.0102193095;0.1733099;0.0640307;0.017082883;-0.011833562;-0.020921826;0.11310847;-0.022331053;-0.16164912;0.11577169;-0.1563153;-0.0721687;0.12375358;0.08556572;-0.12061108;0.025690489;0.08653492;-0.07025085;0.031045824;-0.0019743077;0.02497607;0.025109068;0.0825588;-0.0058339788;-0.0619387;0.15060638;-0.059875917;-0.0027134598;0.09556108;-0.04551728;0.09336273;-0.0027155026;-0.03861167;-0.11060786;-0.019297231;0.1674926;0.083794855;0.12895308;0.25818923;-0.19452132;-0.112800345;0.016712321;-0.017887847;-0.01406074;0.041983403;0.06958765;-0.21977669;-0.08659721;0.06044613;0.10532847;0.044926472;-0.06769219;0.07025371;0.052096497;0.11055498;0.021188961;-0.023393271;0.10672591;-0.11353282;-0.084156655;-0.24200466;0.0024290718;0.08712579;0.12546533;0.08397798;-0.07651891;0.009251572;0.07993657;-0.070423484;-0.02709504;0.09429511;-0.1523971;-0.02272906;0.14452256;0.039355647;0.087387495;0.011234786;-0.11600373;-0.04382379;-0.023211483;-0.056909587;-0.010598504;-0.28560758;0.10377791;0.07520954;-0.0063944245;0.14049818;-0.094463125;-0.0023430488;0.016387768;0.049388655;0.067514904;0.0066324775;0.034668837;0.1358675;0.06517914;0.15228216;-0.0045396294;-0.07883602;-0.26203752;0.15489894;-0.019437667;-0.018130988;0.030479196;-0.0118351765;0.05005418;0.01359698;0.026204817;-0.049465433;0.06426176;0.011737092;-0.152971;0.083755106;0.07417032;0.10523584;-0.14215356;-0.13883601;-0.09358769;-0.035427876;0.21651219;-0.016922217;0.13710707;-0.022205643;0.11154454;-0.13581276;0.16793364;0.14294103;0.19632004;0.1428694;0.15310301;0.04933055;-0.093132235;0.16623272;0.034298703;-0.108293645;-0.022841057;-0.09335866;-0.048079208;-0.028148348;0.035009224;-0.043871596;0.075580515;0.24798742;0.26323783;-0.015317886;0.099596575;0.03449478;0.057504945;0.17237017;-0.09597245;-0.068937756;0.082311;-0.0219278;0.07357251;-0.06298234;0.045956504;0.17607704;0.1845159;-0.043725878;0.14429702;0.05079774;0.13108258;-0.20745943;0.139831;-0.008775888;-0.13568111;-0.062563226;-0.17705607;0.06348213;-0.048573196;-0.09559252;0.0017490478;-0.012665706;-0.12357692;-0.1616286;-0.25037712;0.023355534;0.053146202;0.20375343;-0.07548901;-0.03246475;0.107646726;-0.07647794;0.033161487;-0.011424804;0.1678102;0.056774445;-0.09455349;0.23417881;-0.1107608;0.099363156;-0.0681438;-0.020197561;0.18726169;0.19856866;-0.17803214;-0.098766275;-0.0067269607;-0.08188796;0.05307583;-0.11468942;-0.00012354794;-0.019880202;0.042713974;0.05980038;-0.008857237;-0.03715991;0.02553965;-0.041714694;0.07683748;0.094506405;0.0043028765;-0.061875578;0.07380463;0.08540693;0.07531346;0.031463012;-0.1523324;0.06583121;-0.115700446;-0.13840635;-0.0210034;-0.06927481;-0.04021982;0.0070809387;-0.07127111;-0.24681146;-0.14762309;-0.13847001;0.028012848;-0.027514983;0.11227051;0.0064732274;0.044961695;0.095733926;-0.09435983;0.006623666;-0.020425212;-0.12179697;0.031443115;-0.045346223;-0.02421621;-0.040115565;-0.23731817;-0.12967367;0.13219103;-0.019179804;0.1163505;0.21537092;0.12174857;-0.014191817;0.015936797;-0.027067238;0.120950885;0.24234273;0.11583174;-0.09782811;0.014644371;-0.1630444;-0.11118562;0.10728151;0.1251308;-0.06802087;-0.13273187;-0.0012943452;0.13775147;0.13349056;0.15372987;-0.086333066;-0.03918236;-0.11161691;-0.039763894;0.1005113;0.029606152;0.07742997;0.0700939;0.13943283;0.258492;-0.03481528;0.0755417;-0.06420431;-0.0024573898;-0.22389998;-0.02636873;-0.12977545;0.024324248;0.07192716;0.07975432;-0.17075461;0.02793622;-0.2568042;-0.23905592;-0.12887844;0.04927427;0.056366637;-0.13269493;0.013614544;0.0055513196;0.037848033;-0.007676879;0.0333686;-0.0653318;0.066345505;-0.07268279;0.13627335;0.029629907;-0.026030382;-0.14124498;0.018202582;-0.08773557;0.15870263;-0.05454769;0.124972686;-0.11582138;0.038249247;0.12070541;-0.1271028;0.06648122;0.051282704;0.05684367;-0.13360964;-0.025908269;-0.043815453;-0.025671702;0.0571532;-0.0013034439;-0.009580943;-0.030854505;0.16111785;-0.13494301;-0.016362075;0.04503285;-0.03047712;-0.06845803;-0.038148962;-0.07757143;-0.0060854377;0.02928202;-0.0028392216;-0.0549076;-0.17488758;0.06815957;0.020631919;-0.15386526;-0.14094307;-0.0004621487;-0.0068038637;-0.013223084;-0.0056131757;-0.06347438;-0.14534901;0.060380932;0.17551528;-0.061011426;-0.017094387;0.015020186;-0.03221746;-0.08936867;0.075561605;0.036860056;0.041202582;0.010100485;0.16936772;-0.11623413;0.021194113;-0.0396622;-0.0576052;0.03625618;-0.12498131;0.14290701;-0.032848477;-0.010247209;-0.074844986;-0.06748166;-0.09863746;0.017966792;-0.09792285;0.0923666;0.056389082;-0.09162364;0.091829516;-0.09738478;-0.029254848;0.06089558;0.00022861516;-0.05125067;0.0038284454;0.016942367;-0.14917558;-0.24901439;0.07815658;0.08551788;0.14870942;0.14148708;-0.14868528;-0.12642893;0.0010177938;-0.0008559276;-0.1112269;0.06690502;-0.02555016;0.06728031;-0.06538736;-0.14432384;0.029707769;-0.040161934;-0.028600488;0.13086262;0.008287065;0.0029802073;-0.11006973;0.012717189;0.0701618;0.11286825;0.07049296;-0.07455336;-0.21356158;0.12300151;-0.053494204;-0.06335418;0.08193572;-0.029370291;-0.21021372;0.0020440917;0.080427974;-0.003049659;0.13410243;0.05636762;-0.07255522;-0.026663363;0.03439335;-0.2137285;-0.10913857;0.038381193;0.022552345;0.08534084;-0.051492736;0.062265787;0.18586281;0.04887026;-0.0558271;0.15515743;-0.08359886;-0.065936014;0.08735904;-0.034976546;0.22972928;0.121532276;-0.052760582;-0.003122626;-0.14472601;-0.057434063;0.11398345;0.18149999;0.008693483;-0.029737264;-0.08580574;-0.05494537;0.022156538;-0.074048914;-0.1742413;-0.20752773;-0.008404521;0.041374452;0.13618238;-0.21251279;-0.1455769;-0.10106522;0.082238585;0.050813943;-0.21044852;-0.118071504;0.10961961;-0.04954374;-0.13185059;0.07937706;0.2749056;0.10601371;-0.113875344;0.18910974;-0.09901085;0.0041454863;-0.0029571508;0.051809788;0.055217717;0.0650235;0.0698509;0.07825948;0.036000278;-0.08556137;0.088991165;0.057474993;0.03636539;0.038863;-0.020929938;0.0809358;-0.05240307;0.18260539;0.003378052;-0.08055785;-0.06575329;0.0640532;-0.147559;0.010822158;0.001982661;-0.05716806;-0.04075156;0.06830959;-0.06259486;0.027119823;-0.042232443;0.03745773;-0.029276827;0.03170101;0.18459862;-0.18050608;0.04419842;-0.076584764;-0.13756043;0.075415105;-0.11088246;-0.04604976;-0.016803186;0.10611989;-0.02447396;-0.042506356;0.18955061;-0.029979397;-0.089630574;0.15764119;-0.0016616429;-0.033837643;-0.028858008;-0.093588606;0.14511454;-0.0016588946;0.10421127;0.0012128995;-0.059054684;-0.03386592;-0.208722;0.12182163;0.12945877;-0.05233161;0.077068985;0.025798429;0.04076309;-0.005491206;0.011431131;0.108406134;0.0018222753;0.17521314;0.17780669;-0.24221967;-0.1571744;-0.2193464;-0.1695243;0.0485258;-0.0055813156;-0.08039079;-0.027570123
-0.043243427;0.044047758;-0.0025195852;0.0333156;-0.05234664;-0.14183718;-0.12080839;-0.104824215;-0.0038895847;-0.072897546;0.032607425;0.10308532;-0.2291139;-0.12666942;-0.114450894;0.039913688;0.1471793;0.018528495;0.09592166;-0.0041070324;-0.08761547;0.12184224;-0.024837924;-0.102294296;0.16638602;-0.07536374;-0.0023469161;-0.018150412;0.04786522;-0.18269992;0.06995471;-0.05616163;-0.077405065;0.011993231;-0.021515572;0.04274116;-0.01425175;-0.023182519;0.00536448;0.01885208;0.07454232;-0.18055387;0.022546833;-0.01902707;-0.062679484;0.07472469;0.02632096;-0.17821425;-0.05990139;-0.073635474;0.12188735;0.16716507;0.18778537;0.2678118;-0.09176972;-0.017332327;-0.015735418;-0.074537665;0.120951064;0.019648686;0.03374407;-0.22784811;0.09759433;-0.00755529;-0.02326444;0.048476767;0.09016089;-0.0033398876;0.1322018;0.05124733;0.057267405;-0.034568667;0.069389656;-0.034332886;0.055477515;-0.3151217;-0.08399369;-0.03600971;-0.034735095;0.03684376;-0.030779988;0.06703029;-0.041155193;0.03311589;0.046142776;0.055844996;-0.19135958;-0.1478387;0.04004052;0.06132878;0.1015615;0.0035754964;-0.16473456;0.0949365;0.07838473;-0.018032389;-0.07553472;-0.16612586;0.057444174;-0.07605779;-0.030051509;0.1403518;-0.035837837;-0.032546096;0.100907125;-0.05338347;0.081234954;0.0113267545;0.007954083;0.070538335;0.10028352;0.15716068;-0.20144731;-0.07810355;-0.21892598;0.037438273;0.099416554;0.055073716;0.14371121;0.075871825;-0.0038477294;-0.036527514;0.0072856257;0.07529415;-0.023335455;-0.12642978;-0.13254562;0.14422217;-0.043976966;0.052186307;-0.06255168;-0.13011296;-0.17703411;-0.09592784;0.22905879;-0.053511333;0.079989366;-0.15918896;0.04442017;0.021323;0.21093524;0.20835932;0.09832814;0.20373759;0.012789342;0.08513619;-0.19589579;0.19350407;0.12967978;-0.06618616;-0.043779254;0.022985635;-0.07994851;-0.028094996;0.09967905;0.054218117;0.07936227;0.09835584;0.2040246;-0.10244736;0.114705056;0.06704177;0.06208378;0.12414427;-0.15924567;-0.16669007;0.008465504;-0.032906853;-0.025802776;-0.078514375;0.11327644;0.10395843;0.15853117;-0.0119247865;0.1974088;-0.017962692;-0.0041047297;-0.06791336;0.049351238;0.09004296;-0.13333723;0.0831177;-0.2225659;-0.00920391;0.072902404;-0.13225387;0.034000356;-0.00074084994;-0.12193106;-0.021068977;-0.10914831;0.08856627;0.12160217;0.12957662;-0.0055781333;-0.15451208;0.16301724;-0.07043329;-0.083169095;0.015105356;0.061930668;0.09704611;-0.15914716;0.16461843;-0.045283582;0.06331194;-0.109181195;-0.07595672;0.032109875;0.13357602;0.0062747737;-0.18438478;0.027337825;-0.08174678;-0.014107206;-0.106566004;-0.046907064;-0.13015549;0.058754936;0.036454774;-0.09968892;0.026430774;0.060519923;-0.017214913;0.046675585;-0.05008221;-0.051926147;-0.1177615;0.016368052;-0.08883961;0.05393658;0.16670851;-0.036960043;0.04116424;0.019757695;0.038663708;0.06343311;-0.10401393;-0.057213515;-0.028740864;-0.13138118;-0.17795053;-0.06239096;-0.09107101;0.0458052;-0.092237264;0.09403982;0.15162876;-0.00806514;0.0019694567;-0.004490265;-0.080098316;0.028234512;-0.02652562;-0.05482361;-0.078054324;0.061158735;-0.05847595;-0.1191145;-0.08297794;0.09415489;-0.0035428077;0.07144686;0.20258631;-0.04225052;-0.08678195;0.00031109614;0.04636554;0.097321115;0.21984504;0.2065055;-0.16715026;-0.05145388;-0.14660707;-0.17121118;0.10578997;0.1253002;-0.2153939;-0.042348195;-0.05677618;0.13097745;0.17861883;0.078350805;0.01763056;0.041353352;-0.13597792;-0.15621446;0.074906975;0.050726604;0.12433896;0.1439117;0.0029342906;0.150001;-0.14025664;0.028546352;0.07323057;0.034737308;-0.29142362;0.0065291678;-0.1838957;-0.10586617;0.17393655;0.19919229;-0.04373147;-0.022905339;-0.09560145;-0.1286508;-0.051443055;0.0013220698;0.15859804;-0.040841676;-0.07407821;0.039100245;0.010692781;-0.15114433;0.04248813;-0.039281745;0.026387556;-0.07752444;0.13253663;-0.12740555;-0.03166886;-0.0057452307;-0.047595363;-0.11031071;0.23248385;-0.1079901;0.02889203;-0.11401485;-0.029498417;0.12505977;-0.0016016947;0.18129374;0.03872968;0.062985145;-0.1702541;-0.087488174;0.07180929;-0.01219579;-0.035652943;-0.06201954;-0.095242985;-0.058623035;0.0254567;-0.06852716;-0.093412615;0.055737123;0.02103163;-0.014882227;0.003704775;0.008743848;0.13634185;0.033321343;0.09641907;0.019105954;-0.2122439;0.14181727;-0.08520747;-0.017345592;-0.2292924;0.054163568;0.055474296;-0.10813984;0.07949121;-0.055336677;-0.13580209;0.17565525;0.08656346;0.0520215;0.027209152;-0.013665096;-0.05203094;-0.13710372;-0.02531334;-0.08085239;-0.009886705;-0.08005117;0.10082061;-0.0138138;-0.018626438;0.0043608863;-0.028367478;0.017214186;-0.05455296;-0.0020953324;0.02163236;0.030770676;-0.13107711;-0.12821794;-0.0013224744;-0.010728995;-0.13556023;0.052821916;0.027869245;-0.18749812;-0.049653117;-0.08521391;0.048636105;0.0071939286;-0.048445866;0.007400276;0.0025492157;0.05146935;-0.113753095;-0.28328136;0.019541822;-0.007656035;0.103340335;0.12447957;-0.08591532;-0.032444272;0.04092268;-0.012524364;-0.09603421;-0.08501963;0.018502606;0.023987105;-0.04439587;-0.11109123;-0.01002518;-0.0149584925;-0.086496696;0.16313542;0.002749698;0.117388494;-0.09223825;-0.023611587;0.039041262;0.03879103;0.0015222382;-0.08631531;-0.13437423;0.16360636;0.026521005;0.07809731;0.09561792;0.047206983;-0.27757886;0.057845876;0.17311195;-0.1148383;0.05336841;0.01013419;-0.064192444;-0.02154561;-0.023423888;-0.19692478;-0.1355403;0.09625901;-0.0885208;-0.07969976;-0.115979224;0.15481736;0.05670115;0.10159843;0.006718747;0.19079798;-0.072382785;-0.012054668;0.10819947;-0.09612749;0.1100707;0.179396;0.08566248;-0.055508114;-0.14790966;-0.05287121;0.12552607;0.15915306;0.012721469;0.014695043;-0.07107323;-0.018732848;-0.02446983;-0.039476965;-0.04736116;-0.2399739;-0.032063182;-0.02827861;0.075364806;-0.29427752;-0.045989532;0.009171226;0.040435202;0.09561668;-0.123059444;-0.14808998;-0.0021555226;0.035650343;-0.0041088127;0.018747041;0.30333546;0.20993291;-0.19754577;0.23404352;-0.0007491469;0.10985174;0.03202969;0.07612228;-0.060537323;0.15593217;0.07573749;0.0071767117;0.061963245;-0.13719301;0.02299671;-0.05042332;-0.005068139;0.12796763;0.06136392;0.0201683;-0.026606329;0.18348004;0.14774984;-0.102382414;-0.026764663;0.004828333;-0.14098719;0.108849406;-0.018544912;0.05245422;-0.14913797;-0.0292957;-0.12624414;-0.01603921;-0.10922467;-0.019475391;0.00927027;0.11450017;0.12984237;-0.20678777;-0.030332325;-0.04501845;-0.09472251;0.12777527;0.0051213573;-0.019821681;0.0032908649;0.050301213;-0.03427319;-0.06459496;0.22339597;0.037090905;-0.10507983;0.14673299;-0.11290148;0.09841416;-0.04453803;-0.029955368;-0.013971171;-0.0042452468;0.055511598;-0.11635736;-0.08983853;0.050449055;-0.078394294;0.11421903;0.23719093;-0.08209176;0.11144275;-0.12792224;0.08730669;0.052844703;-0.01047609;0.0040670047;0.08121694;0.081699476;0.2880168;-0.06390861;-0.11042492;-0.1314016;-0.21035486;0.06587288;0.11594254;0.07380694;-0.0049496186
-0.079374604;-0.031305216;0.07724529;0.031083683;0.019530067;-0.070448086;-0.24922314;-0.07129336;0.053642787;-0.0013873875;0.10044897;0.18272747;-0.23363641;-0.09006449;-0.13413842;0.056503024;0.10701335;0.009695661;-0.009967228;-0.09017055;-0.08662944;-0.0149921775;-0.15232891;-0.072029985;0.031789433;-0.09083624;-0.010911602;0.032379225;-0.009180929;-0.24095389;0.056842387;-0.026517738;-0.1727466;-0.057528257;-0.0048656105;0.10429762;0.006329451;-0.039217975;0.12115377;-0.09028642;0.10279154;-0.20948777;0.03802378;0.057819705;-0.19133548;0.044868987;0.09920634;-0.13355482;-0.17564328;-0.0893801;0.1641519;0.17024109;0.20501179;0.2897602;-0.08909219;-0.06291936;0.025904367;-0.058228903;0.015792452;-0.02365119;-0.031087153;-0.27762115;0.013749463;-0.0052990327;0.052489266;-0.015917761;0.062416755;-0.01146849;0.051815186;-0.0025936025;0.062483106;-0.02110756;0.13759333;-0.0844193;0.048160776;-0.3192303;-0.08889059;0.0067704814;0.043192428;0.061551936;-0.0064272555;-0.05074176;0.12107998;0.022408752;0.02349187;0.098332435;-0.1373908;-0.1996763;0.021455258;-0.0048859827;0.032420687;-0.079398446;-0.18144865;0.04706396;-0.036058865;0.017311284;-0.022689857;-0.21762456;0.084313825;-0.043950927;0.014544661;0.17670941;-0.057889897;-0.0513341;-0.008503794;-0.048282035;0.102229476;-0.028224068;0.018166175;0.127115;0.13428693;0.103953466;-0.08247898;-0.069554046;-0.2115568;0.050013453;0.0011173264;0.052345462;0.047632832;0.012399668;0.070827946;-0.08101279;-0.04477173;-0.0050953696;0.03489735;0.007036983;-0.050157953;-0.006987934;-0.039741725;0.07027762;-0.04994181;-0.022646382;-0.052693013;-0.019476581;0.30214903;-0.111645214;0.11091452;-0.084202655;0.14507164;-0.053246927;0.096109815;0.18397191;0.09346929;0.17662561;0.1733522;-0.045084447;-0.09654354;0.10362248;0.035111997;-0.018956987;-0.07627717;0.043969817;-0.0951814;-0.10038911;0.19175524;-0.052090816;0.1510419;0.0905527;0.26588884;-0.040786404;0.07847059;-0.07605001;0.09112355;0.10940591;-0.14938244;-0.26504353;0.07036553;0.008057882;0.058662377;-0.02323999;0.053785443;0.124848664;0.08376747;0.03002173;0.17286077;0.09543075;0.06722314;-0.078132756;0.06633878;0.101044185;-0.14828478;0.055338692;-0.30132505;-0.026944486;0.03969588;-0.057139825;-0.048542716;-0.06579144;-0.045893643;0.0034485438;-0.016986618;0.060779866;0.10848744;0.24891996;-0.11515106;-0.14753763;0.10718127;-0.013890146;-0.16447145;-0.008038772;0.18391484;0.11196797;-0.13272606;0.17828289;-0.04289515;0.21086423;-0.072056055;-0.06288524;0.14930849;0.08738356;-0.010994158;-0.14721844;0.008517279;-0.058538653;0.0959052;-0.14893411;0.027147638;0.054688264;-0.020995822;0.07870073;-0.043461036;0.010416763;-0.057183057;-0.017614884;0.13660577;-0.0073920987;-0.09739214;-0.04318821;0.04594454;-0.012835281;0.044826936;0.08956491;-0.071146056;0.0029012384;-0.14435644;-0.053770337;0.0070745624;0.017804077;-0.011050157;0.008392081;-0.14570192;-0.21357945;-0.07294422;-0.11373552;0.016857857;-0.03579582;0.034156606;0.14631628;0.06325307;-0.013580416;-0.08915439;-0.05374813;0.004338953;-0.02505582;0.13559775;-0.103858806;0.03293007;0.0106076;-0.16396348;-0.05839333;0.20688863;-0.05960861;0.12529545;0.1492513;-0.051913347;0.014075038;-0.033729844;-0.051264916;0.14412549;0.11955645;0.15243216;-0.04297034;0.013395026;-0.07041195;-0.14469776;0.0784584;-0.025188368;-0.021580668;-0.0016490602;0.08039661;0.15121885;0.193798;0.08903649;-0.040648583;0.0064899605;-0.0921651;-0.0326869;0.13144492;0.066041775;0.014663075;0.018616816;-0.028316662;0.2591816;-0.08758383;-0.06922792;0.010634618;0.043628197;-0.15523785;-0.009247502;-0.16674052;0.0037717912;0.12938657;0.14458317;-0.15066896;-0.014440408;-0.22759262;-0.23775542;-0.0038292173;0.0030625935;0.13245703;-0.15350987;-0.008693654;0.02334656;0.05007821;0.043549545;0.0028491647;-0.03683732;-0.056280147;0.015777044;0.16878745;-0.060631063;-0.06492472;-0.14195424;0.0052864635;-0.06712627;0.16893756;-0.027040824;0.08218512;-0.048560627;0.020054895;0.1765475;-0.028004486;0.06296325;0.05249319;-0.042031992;-0.06330928;-0.08049136;0.040900942;-0.1486491;0.038677525;-0.028770294;-0.21896395;-0.034241173;-0.009056937;-0.17488219;-0.0347617;0.09682708;-0.0732043;0.029750703;-0.010499024;-0.109606855;0.04220659;-0.08887169;0.11894767;-0.07417134;-0.1563174;0.09109427;-0.0289031;-0.14769155;-0.22291763;-0.02478045;-0.071760274;-0.02238874;-0.05410938;-0.05630124;-0.21842308;0.09253923;0.11352836;-0.00445403;-0.008153699;0.03155496;-0.07881117;-0.06490964;0.08688402;-0.15300053;0.1987333;0.017392589;0.010297448;-0.008253238;-0.016509168;-0.07500988;-0.06603717;0.09033139;-0.03148254;0.07709315;-0.017036945;0.079230495;-0.07940545;-0.18565236;-0.17179798;-0.037342563;-0.06452537;0.11577375;0.052133735;-0.19283141;0.021965386;0.009774837;-0.021060182;0.13450505;-0.03149975;0.018431177;0.0615484;0.10057522;-0.08004854;-0.18917206;-0.020065874;0.048640087;0.043177698;0.068216905;-0.03768787;-0.011193643;0.049766656;-0.04905501;-0.17064066;-0.05527072;-0.016969552;0.04020925;-0.02977965;-0.082884274;0.07771862;-0.03083944;-0.10878111;0.109352134;-0.018434664;0.10343421;-0.11309033;-0.011864233;0.16491455;0.0592909;-0.07981626;-0.016487459;-0.067846075;0.22960763;-0.029371945;-0.022369077;0.10283059;-0.05300708;-0.16659358;-0.084896564;0.09322718;-0.057731606;0.16134146;0.16764474;-0.044037033;0.14360404;-0.001201157;-0.18715751;-0.1558336;0.02715641;0.014418798;0.08793633;-0.13993385;0.13537803;0.13899718;0.12437527;-0.08868163;0.1968234;-0.055581912;0.07659172;0.14760424;-0.08443197;0.16104522;0.1217252;0.05857291;-0.004735075;-0.11276521;-0.08230246;0.11981806;0.13711047;0.13795741;-0.042802196;-0.08272619;-0.16830409;0.02539168;-0.011255449;-0.08771691;-0.277347;0.027465299;-0.06613628;0.16092831;-0.2355284;-0.09172448;-0.082666814;0.027155783;0.009862701;-0.0154782655;0.0055124885;0.0026740038;-0.020278215;-0.076607116;-0.031134576;0.28903854;0.13944253;-0.11268236;0.03898994;-0.00043466742;0.018102093;-0.07004603;0.0043416875;-0.07506353;0.15447545;0.03772007;0.07680661;0.03359377;0.043899797;0.044593535;-0.0550203;0.032028694;0.03532731;0.07897929;0.048399515;-0.111108065;0.08506551;0.19137466;-0.059665747;0.088669315;0.017658504;0.001438635;0.03821024;0.031059086;-0.006937868;-0.2183319;0.033828992;-0.2182754;0.063598424;-0.070366174;0.09911621;0.047170285;0.05303284;0.110006556;-0.17433234;0.061119225;-0.14548723;-0.06498071;0.15651077;-0.014186922;0.11626651;0.12379738;0.12380805;-0.09438281;-0.013051531;0.16017328;-0.11417424;-0.1486648;0.06310376;-0.08608153;0.1464376;-0.008767203;-0.058110792;0.07369344;-0.053698603;0.08030109;-0.15888831;-0.008268619;0.08880133;-0.16893825;-0.030464757;0.24098414;0.062073708;0.09549923;-0.017332658;-0.051243696;-0.021682415;-0.15728989;0.07917385;0.042958308;0.06293492;0.20058417;-0.13883184;-0.12235368;-0.07892213;-0.14697894;0.20061648;0.1258206;-0.068819225;0.039791144
0.016586553;-0.061078876;-0.012784126;0.0819853;-0.019631634;-0.08994229;-0.23390785;-0.052482042;-0.08475808;-0.04106391;0.0191366;0.15067737;-0.2202011;0.007741006;-0.018067807;0.076540194;0.07353149;0.05449402;0.07437402;-0.07002512;-0.055454157;0.11445373;-0.08145975;-0.17293432;0.14508052;-0.013863303;-0.04432556;0.01751249;0.014834353;-0.25419146;0.0048706955;-0.0015267206;-0.08172294;-0.097210646;-0.06913755;0.07579463;0.040331796;-0.041713625;0.13045168;-0.016908666;0.112865664;-0.15075879;-0.0031719385;0.13762371;-0.22479077;0.099943824;0.018049737;-0.04263517;-0.12644553;-0.065456495;0.23984766;0.09875458;0.17069218;0.2559529;-0.16311596;-0.015505497;0.030117795;-0.04463814;0.026034722;0.12455083;0.01674603;-0.3231696;0.053392764;-0.020653639;0.049788836;0.03745221;-0.055378985;-0.042864013;0.15044133;0.028340394;0.061611842;0.064952016;-0.014504799;0.00749217;-0.054789376;-0.17029737;-0.1654143;0.045142338;-0.094088934;0.019318547;0.100101404;-0.06270193;0.124308325;0.07719427;-0.07807037;0.00026819133;-0.1759798;-0.13598478;0.19362874;0.038731772;-0.023097849;-0.13403745;-0.19152087;-0.06826796;-0.06437351;0.025034511;0.06274548;-0.17649578;0.0520702;-0.09183484;0.018054493;0.19486411;0.016633771;-0.012278804;0.03079363;-0.114298604;0.12597723;-0.17464735;-0.08144046;0.19410303;0.13984811;0.02670064;-0.04262877;-0.034511827;-0.29022267;0.01554508;0.03135519;0.16043603;0.15778007;0.12355026;-0.02779606;-0.0031453955;-0.10069835;-0.059675843;-0.014564953;-0.10265318;-0.015626546;0.076014586;-0.107342444;0.08328814;-0.19598964;-0.09287869;-0.13898394;-0.1337166;0.33475918;-0.10431704;0.07270536;-0.079625614;0.06724974;-0.046027496;0.2653749;0.14376399;0.055516887;0.16934794;0.1535154;-0.047973555;-0.1789797;0.09526393;0.07478962;-0.006494473;0.01028996;-0.00055376004;-0.052827332;-0.026039582;0.14558569;-0.059624545;0.1301392;0.10493215;0.26957777;0.003785054;0.061574183;0.11046698;-0.004052405;0.20408842;-0.034764472;-0.20913123;0.052048586;-0.0459523;0.013945271;-0.0336825;-0.02778688;0.049800497;0.12288336;0.07879429;0.10140565;-0.06733015;0.09086378;-0.11030081;0.16499436;0.11493814;-0.1079393;-0.111888684;-0.24697617;-0.039253697;0.053417232;-0.13717252;0.09621423;-0.07318408;-0.073187836;0.018360974;-0.0392979;0.05922356;0.013707891;0.21647856;-0.14462656;-0.17726454;0.0747524;-0.040883645;-0.12752452;-0.0822122;0.20728956;0.03686554;-0.00058755337;0.1890582;-0.07004385;0.16816041;-0.19032809;-0.06360084;0.12369456;0.101407856;-0.0515883;-0.19810888;-0.11093702;-0.1922145;0.020227771;0.011605549;0.09439201;0.045890845;-0.027123969;0.08908372;-0.15232155;-0.017436419;-0.08270305;0.069770634;0.06442406;0.08111065;-0.013833598;-0.1511477;0.023174115;-0.023719534;0.08068464;0.11847193;0.016114525;0.118467085;-0.040654857;-0.0039673587;-0.08607974;-0.09245611;-0.08844091;-0.023743875;-0.10308711;-0.12198066;-0.11071148;-0.094619825;0.040975675;-0.023461193;0.08121666;0.15962593;0.1418416;0.14029509;-0.030668564;0.005123859;-0.01943025;-0.062369224;0.11115143;-0.13247195;0.02521658;-0.08489791;-0.113614686;-0.041922178;0.22791477;0.019856593;0.1707625;0.12253499;-0.053685576;0.017477054;-0.038267426;-0.03895347;0.19547667;0.23720086;0.115622535;-0.022480587;-0.031322587;-0.06980046;-0.1398802;0.074181624;-0.07894955;-0.19024071;-0.052053057;0.10940913;0.0789748;0.11675272;0.16668099;0.11468666;0.10037134;-0.085760415;0.03324525;0.044561796;0.075520046;0.063512936;0.11378444;0.09410219;0.21860518;-0.051754363;-0.025908872;0.025762;-0.0024801344;-0.21837291;0.054685306;-0.14131853;-0.04240748;0.1928434;0.12307517;0.01677966;-0.044875577;-0.035767857;-0.1894357;-0.10723666;0.0019425298;0.063281514;-0.090800345;-0.005945623;0.060644742;-0.023306174;-0.03630351;-0.090022825;0.12329472;-0.098822296;-0.059318334;0.04775319;-0.0958285;-0.06969125;-0.024104713;-0.0063319877;-0.03851036;0.1981067;-0.0059451177;0.15177982;-0.1346679;0.042487327;0.27437833;0.059534978;0.22773151;0.054988757;-0.08199554;-0.09584761;-0.0053894618;-0.03162866;-0.09701953;0.08846375;0.045043543;-0.14238787;0.013190612;0.05054742;-0.0769849;0.009961778;0.02202932;0.051776424;-0.036371004;-0.03139166;-0.103392415;0.114788294;0.044185907;0.07331221;-0.05190098;-0.36785585;0.17792785;0.07772005;-0.01578294;-0.35255557;0.0113628525;-0.14304808;-0.047898702;0.0036329532;-0.023411993;-0.15464976;0.07006631;0.14282623;0.0673637;0.09945745;0.103769474;0.034581773;-0.029791623;-0.029875528;-0.08651313;0.22405024;0.0207798;0.16403425;-0.09202391;0.017038612;0.056677513;0.03485567;-0.07315602;0.02988505;0.03583398;-0.014898335;0.14905071;-0.058671914;-0.18957908;-0.14726713;-0.07387558;-0.0843506;0.04492284;0.12161802;-0.08541039;0.1016519;-0.036026325;-0.14489472;0.12073683;-0.1800895;0.057879377;0.041749988;0.046149302;0.017493272;-0.18064168;-0.061611567;0.114924505;0.06728831;0.12981671;-0.009105519;-0.11669726;0.032041855;-0.08952335;-0.003847988;-0.012877251;0.09702728;0.0034155748;-0.05002072;-0.053128205;-0.050866734;-0.07341115;-0.08210609;0.1075584;0.041845173;0.04379573;-0.11269036;0.044880915;0.052097622;-0.007439529;-0.11717842;-0.050961982;-0.13039924;0.04183464;0.1393036;0.08402168;0.11014907;-0.06553769;-0.29757422;-0.11602222;0.14911778;-0.05916992;0.08935153;0.11505372;-0.03688512;0.19238083;0.0723161;-0.13588212;-0.0073994636;0.003668453;-0.06463714;0.047825627;-0.034242153;0.105192065;0.2200462;0.12617502;-0.122094885;0.2407731;-0.14883618;0.025560256;0.1531573;0.05317525;0.17446968;0.097735144;0.067517206;-0.10769811;-0.12877451;-0.04441635;0.22125205;0.056464884;0.021357547;-0.02476069;-0.024073076;-0.23449351;0.045560714;0.0026482267;-0.048958156;-0.22596554;-0.09792977;0.001283615;0.17766815;-0.26144657;-0.17360926;-0.10489672;-0.03538659;0.07151944;-0.12577905;-0.08624878;0.10434865;0.083307534;-0.08771171;0.03836245;0.33672184;0.11398127;-0.14203066;0.15028562;-0.11886699;-0.0017468928;-0.022884285;-0.02730228;-0.034590255;0.10072836;0.013336786;0.12244911;-0.068997815;-0.016238464;-0.09217884;-0.015455331;-0.059473824;0.13566038;-0.040811494;0.024375165;-0.08660119;0.17128582;0.18635035;-0.19686662;-0.03549692;-0.0059208237;-0.15859374;0.04295213;0.20149925;0.022937631;-0.14207101;-0.02345927;-0.2151435;-0.0112056285;-0.09084338;-0.03439486;0.057525814;-0.0038875137;0.20524846;-0.13874948;-0.046201892;-0.10733403;-0.09849392;0.06642996;-0.07600164;0.08965217;0.17672178;0.08332071;-0.08034431;0.05974288;0.19156592;-0.014365059;-0.1970013;0.025652139;-0.058886357;0.080474995;-0.03689838;-0.080882505;-0.01121037;-0.013334744;0.0015052393;-0.16958475;-0.00209911;0.07471127;-0.1794524;0.0614035;0.2375449;0.070381425;0.08920447;-0.060291957;0.03454461;0.074814335;-0.116459236;0.08995791;0.018804222;0.16894114;0.16690618;-0.06864684;-0.05228666;-0.09567146;-0.06733774;0.035162773;0.05434896;-0.022694483;-0.012168198
0.0030993258;0.014001745;0.06835656;-0.022739794;-0.047095425;-0.2106211;-0.22603093;-0.105007514;-0.060369294;-0.13265191;0.0391643;0.08797512;-0.18546753;-0.013416368;-0.012768923;-0.06913737;0.006531654;0.14509314;0.059204657;0.005582319;-0.096968636;0.17448157;-0.2529649;-0.048847117;0.04912921;-0.17370376;-0.048141982;0.09345723;0.11477578;-0.07694445;-0.06733331;-0.026273595;-0.072794706;-0.041596673;0.04068978;0.056553755;0.11965533;-0.022939237;-0.012240581;-0.042512234;0.20473583;-0.2628014;-0.03271528;0.069449864;-0.21332163;0.09155476;-0.045817293;-0.076206766;-0.18044272;-0.079802565;0.26459828;0.22939345;0.1206637;0.17452405;-0.08014134;0.023649113;0.04028281;0.035029013;0.03403125;0.01783038;-0.03742803;-0.2588648;-0.017605245;0.07336209;0.042856857;0.07178402;0.046929374;0.066100135;0.123216935;0.1252377;-0.017281238;0.06478766;0.12002324;-0.0017821565;-0.041711163;-0.2500385;-0.06240752;0.04381432;-0.13162717;0.15511562;0.13873667;-0.05864999;-0.00608762;0.012608408;-0.06990645;0.010217831;-0.21173866;-0.24998027;0.05407965;-0.15263316;0.0018972091;-0.033551086;-0.10596408;0.041561134;-0.049310897;0.10452094;-0.12489327;-0.2603295;0.155478;-0.09407995;-6.842517e-05;0.14703546;-0.121456355;0.02131347;0.025883656;-0.0326718;0.18809117;-0.0798046;0.057607085;0.22201781;0.14981718;0.10634989;-0.06516034;-0.059677884;-0.28174183;0.005657785;0.04999496;0.053693015;0.10776151;0.11956717;-0.1255672;0.024402466;-0.03649671;-0.101542346;-0.0029479712;-0.07613194;-0.16771899;0.076660864;-0.050802477;0.10172481;-0.22140802;-0.089781694;-0.079153836;0.024849048;0.31901494;0.03731636;0.07274075;-0.16041695;0.2706968;-0.07515107;0.11389167;0.24414015;0.058269653;0.15802625;0.012354638;-0.015598231;-0.2923538;0.07409761;-0.01821371;-0.17103733;0.04930679;0.08752628;-0.115376815;-0.1433413;0.24477237;-0.010048932;0.12127262;0.12180128;0.12601429;0.14007862;0.030367676;-0.093752906;-0.032857593;0.059084594;-0.000922348;-0.16434015;-0.024613554;-0.14561968;0.104732215;0.009038858;0.037391223;0.11424689;0.10825132;0.08975964;0.19509056;0.09110188;0.04352747;-0.13516277;0.22536783;-0.09401933;-0.08738932;-0.016535982;-0.2467933;0.018726358;0.116052955;-0.20995487;0.17982844;0.033699755;-0.0758311;0.030364642;-0.14173332;0.068138376;-0.033251047;0.20578319;-0.082906514;-0.19387512;0.11777;-0.000105862724;-0.19043602;-0.00953486;0.22986133;-0.010416684;-0.060567755;0.08415688;0.012784849;0.07485245;-0.14345776;0.021167569;0.12296847;0.032411296;-0.0018583911;-0.1224067;-0.05119086;-0.17145047;0.018509792;-0.14098829;-0.022829227;-0.04808719;-0.0048408154;0.050408147;-0.09731439;0.057567764;0.0871779;-0.1266092;0.0658693;-0.07144424;-0.09512396;-0.07460428;-0.0028584243;0.04594152;-0.015232777;0.06089906;-0.1923045;-0.042857096;-0.11848698;-0.11386626;-0.15534331;-0.113654636;-0.13114737;0.0024795367;-0.08746304;-0.07008313;-0.04821802;-0.14008355;0.03823664;-0.091529235;0.004703731;0.05574104;0.08996386;0.16300455;-0.12552407;-0.058370627;-0.03868408;-0.09351763;0.012074193;-0.11887693;-0.010314317;-0.0843332;-0.19268012;0.0032513961;0.15874937;0.04191904;0.14636387;0.2011489;0.006667431;-0.04093949;0.09747246;0.050387315;0.18044074;0.18421715;0.21268821;-0.22192343;0.02247298;-0.06955397;-0.17414229;0.1825369;-0.0144306645;-0.2161599;-0.040688924;0.09858352;0.21585256;0.30937725;0.111512184;0.0049175434;0.002092276;-0.1023013;-0.020650841;0.13436309;0.07065446;0.11429533;0.09630628;0.061855573;0.08754625;-0.13148277;0.041417256;0.08707927;0.11624121;-0.219991;-0.08129397;-0.08403268;-0.14186409;0.21496661;0.19871128;-0.19432653;-0.06181162;-0.22365214;-0.11424164;-0.09917809;-0.11164944;0.21046343;-0.086988725;-0.09611385;0.012778981;-0.07120535;-0.1036388;0.02268368;-0.015652984;-0.01231981;0.03105188;0.19131401;-0.17985122;0.054935463;-0.0031577859;0.102772675;-0.13472824;0.16138935;0.061046388;0.16917719;-0.18709621;-0.06380158;0.1873476;-0.09736775;0.08807395;0.084939264;-0.03862839;-0.18482487;0.0363603;-0.037794963;-0.16072859;0.13628566;-0.028584482;-0.29055044;-0.030289827;0.057798393;-0.043299425;-0.011632467;0.017564682;0.043306153;-0.04855097;-0.030407853;-0.053153113;0.0052324254;-0.04330216;-0.0738784;-0.069704495;-0.2641169;0.22516394;0.105294324;-0.08274356;-0.2616562;-0.03652393;-0.091228895;-0.019386968;-0.005179592;-0.016097076;-0.21510784;0.16814382;0.082722336;0.040957652;-0.06296217;0.18383467;0.072610945;0.05150848;0.0116713485;-0.049896862;0.22930512;0.013178566;0.11590116;-0.025642885;0.13121279;0.06982801;0.031337798;-0.055781063;0.007108486;0.011451511;0.048544724;0.061522737;-0.11103421;-0.16817716;-0.12999012;-0.04639341;-0.05141814;0.0566688;0.12544893;-0.16245468;-0.043764867;-0.1376129;-0.052341543;0.11908694;-0.12741268;0.17398773;-0.08714727;-0.03309221;-0.02074537;-0.12185403;-0.08169076;0.030073559;0.041459177;-0.079486415;-0.047046624;-0.16733474;-0.032243777;-0.10392602;-0.07820793;0.038201813;0.033547714;-0.0292926;0.03589613;-0.21734926;-0.0020870655;0.14066829;0.0630974;0.096573494;0.07478527;0.095705815;-0.10222811;0.022229409;0.053692993;0.08218705;-0.047231857;-0.092282936;-0.027152639;0.03452985;0.16680758;0.08596608;0.01966867;0.104508236;-0.21373478;0.06641346;0.158584;-0.12227575;0.06358549;0.21099328;0.040232904;0.023748755;0.029971475;-0.2740117;-0.016112171;0.013503745;-0.06655995;-0.020488365;-0.06389182;0.07676777;0.18921468;0.1352075;-0.15422785;0.1762221;-0.14554265;-0.025253499;0.1813068;-0.023201432;0.22786528;0.09900216;-0.09099838;-0.022967696;-0.031187113;-0.08257813;0.123358764;0.013544137;-0.06253561;0.044198174;-0.12868679;-0.12833475;0.10280444;-0.15176369;-0.091541454;-0.28940892;0.037385363;-0.007369391;0.101072855;-0.17555661;-0.01519681;-0.22301677;-0.02550805;0.06318021;-0.1100046;-0.060982987;-0.020279419;-0.06546465;-0.112735495;-0.15663616;0.19574429;0.2011308;-0.139201;0.17189248;-0.07201841;0.025728233;-0.21234041;0.10178094;-0.031394284;0.059806798;-0.034909558;0.10873451;0.020855369;-0.11855473;0.008446336;0.07073303;-0.135391;0.07066092;-0.010371776;0.024911582;-0.16007963;0.19482544;0.14612395;-0.090123095;-0.15729518;0.09213684;-0.06609233;0.16205485;0.1511902;0.058623984;-0.225939;0.06468381;-0.1451222;0.01326962;-0.074326776;0.09236866;0.10152377;-0.0033544744;0.09886935;-0.27780026;0.0138896;-0.09737982;-0.11004268;0.10685551;-0.174368;-0.035627004;0.072899945;0.12304061;-0.08649954;-0.0063178176;0.14772765;-0.12524666;-0.09505618;0.03748954;-0.05768477;0.17972049;-0.10954045;-0.054297067;-0.038518287;0.028834423;0.09013605;-0.03507287;0.09180497;0.023547273;-0.08098715;0.12767984;0.17069654;-0.030958576;0.09091807;-0.12390211;0.1448006;0.016938636;-0.10641701;0.0435225;0.02921334;0.028541517;0.16604531;-0.061504252;-0.11722996;-0.13486071;0.013703481;0.20839089;0.10889963;0.031855993;0.18440327
-0.107626006;0.042566545;0.08327302;-0.086833805;-0.041681293;-0.13669622;-0.15194865;-0.111697204;-0.023716994;-0.026143746;0.10341251;0.09893745;-0.07623998;0.048939854;-0.03402025;0.017620767;0.049476765;0.04839784;0.08528133;-0.08617867;-0.058294408;0.010184246;-0.19979838;-0.03333239;0.0035156978;-0.062350724;-0.025259405;0.07692771;0.12922797;-0.07008876;-0.061581194;-0.029869912;-0.12331551;-0.17629397;-0.121553324;0.023957059;0.076242365;-0.059993345;-0.016639994;0.00086784706;0.15020645;-0.13373202;0.03691847;0.13642503;-0.17796959;0.01911467;0.046797708;-0.045989677;-0.15240386;-0.06375668;0.10015046;0.15078756;0.047790773;0.21792012;-0.17606735;0.033358026;0.024640985;-0.0027239646;0.07949967;-0.049931586;-0.019237082;-0.2704721;-0.13602;-0.03203799;-0.040565073;0.033674557;-0.00891667;-0.029002713;0.28583527;0.037362028;-0.024138335;0.052746437;0.0213742;0.029242557;-0.14837444;-0.15134309;-0.18977956;-0.07008089;0.04383344;0.18619744;0.04257145;-0.14880152;0.0014493451;0.020077825;-0.16325177;0.00492389;-0.09409508;-0.20088722;0.22258076;-0.00022332891;-0.061553918;0.047935504;-0.23350017;-0.0758406;0.004689944;0.05754007;-0.10193377;-0.29455072;-0.019274564;-0.030012662;-0.04582035;0.26578587;-0.08104807;-0.085022494;0.053855933;-0.11303373;0.26281112;-0.13254999;-0.024694288;0.110696524;0.24204305;0.06274583;-0.123696186;0.0631459;-0.24331933;0.05177829;-0.09540162;0.12650217;0.12222465;0.034956183;-0.0916226;0.08582147;-0.038675603;-0.08232542;0.09526565;0.0161898;0.0607892;0.054289658;-0.15951897;0.18796359;-0.08586711;-0.083294645;-0.16997415;-0.13914941;0.25730675;-0.062860385;-0.020704122;-0.052636124;0.22155747;-0.05106409;0.16442151;0.27223516;0.1839769;0.18571447;0.047552593;0.031944335;-0.14050442;0.033827912;0.08025869;-0.10697428;-0.06832805;0.09046285;-0.054638114;-0.040459465;0.25952634;-0.111923456;0.12471858;0.20810561;0.20225109;0.107534386;0.07431333;-0.013406787;0.007608539;0.061972834;0.029283142;-0.1967706;0.07565762;-0.0044835703;0.07551137;-0.14665155;0.036895648;-0.012395537;0.10585484;-0.012324723;0.17440648;-0.01212793;0.08680788;-0.032814883;0.21096838;0.09495656;-0.21094242;-0.084116474;-0.3760742;0.08072446;0.0012958125;-0.19268571;0.04999614;-0.021550577;-0.039259285;-0.058761794;-0.095425956;-0.043999992;0.03757153;0.10595529;-0.11035895;-0.17529875;0.051242918;-0.0901618;-0.1382041;-0.015838029;0.22450721;0.025158461;-0.030881153;0.20576519;-0.0580465;0.13818663;-0.12026257;-0.048695065;0.18436322;-0.043547105;-0.0062845172;-0.16352648;-0.14836632;-0.087295555;-0.039694965;-0.015490124;0.13136598;-0.10428159;0.021804994;0.050149374;-0.076935075;0.045305643;0.054812163;-0.054827876;0.096416526;-0.076363824;-0.12793152;-0.09547553;-0.046711292;0.05785777;0.08752282;0.12776774;-0.18822646;0.02115626;-0.03627236;-0.006382512;-0.021839105;-0.060474444;-0.14909098;-0.019205399;-0.07280824;-0.034874674;-0.06577963;-0.08993168;0.12688854;-0.0627915;0.029199708;0.038413826;0.16976658;0.13314912;-0.10332564;-0.082662955;0.089194715;-0.12383881;0.040661477;-0.17838997;0.038132563;0.003671406;-0.18530802;-0.11621236;0.15957545;-0.020686591;0.07545191;0.20907621;-0.0124255745;-0.05030192;0.012770461;0.12315044;0.13692035;0.17277882;0.19368756;-0.00048637192;0.17433195;-0.058890395;-0.23437877;0.07468317;-0.10123874;-0.03672734;-0.11020887;0.06394113;0.11720848;0.18802148;0.10437873;-0.02190813;0.013549077;-0.21509944;0.012284335;0.06722414;-0.05933473;0.13363647;0.016429137;0.025165178;0.10746089;-0.19148941;0.06381422;0.06269124;0.017676778;-0.1989896;-0.085865885;-0.046282522;-0.1426297;0.24631983;0.16981609;-0.1642546;0.05482219;-0.086722225;-0.23791511;-0.0017530834;-0.03377152;0.14074598;-0.123815514;-0.13319173;0.059205472;0.13011698;0.013043975;-0.10512743;0.026460001;-0.06250449;0.06957484;0.019391898;-0.21214916;-0.02235586;-0.1341285;0.01556998;-0.08671726;0.09903087;0.08615422;0.068777226;-0.12558773;-0.062114567;0.10209958;-0.011148161;0.124363065;0.17228411;-0.1336231;-0.14948118;-0.08178601;0.018261487;-0.2213938;0.16462983;0.13090971;-0.22484063;-0.054894373;0.19577813;-0.035826392;-0.14427641;0.1304656;-0.035440985;0.03416645;-0.13733761;0.03712203;0.042253572;-0.08356058;-0.00038168623;-0.06396142;-0.23599638;0.17398037;0.16375226;-0.20080951;-0.30119044;-0.12497849;-0.08309845;-0.0010503323;-0.06906838;-0.09591215;-0.1576396;0.008878318;-0.05071565;0.11938353;0.03596819;0.17009716;0.023017807;0.04311662;0.039702278;-0.026187232;0.109368585;-0.087837294;0.027486542;-0.08061115;0.14279002;0.060680725;-0.027663628;-0.070118606;-0.0023071086;0.08188261;-0.027974946;0.0020250946;-0.074395135;-0.08388567;-0.16932802;-0.048918992;-0.09317962;0.06145872;0.004006646;-0.20977256;0.010560775;-0.09201146;-0.006956427;0.08796986;-0.03683474;0.06534828;0.040122535;0.067036256;-0.13337256;-0.116651885;0.02434505;0.0044637527;-0.03400539;-0.056272037;-0.063091494;-0.029060319;-0.0132655995;0.0057574506;-0.028994342;0.045417055;-0.09309892;-0.012896682;0.0022118345;-0.1376334;-0.038975794;0.112179354;-0.06445793;0.028700097;0.13518378;0.04639862;-0.018727785;-0.0017372242;0.026852021;0.05062569;-0.04561222;-0.09654575;-0.028937016;0.07851749;0.1340217;0.10350858;0.1477887;-0.04258656;-0.13914046;-0.03588993;0.040923133;-0.095724665;0.076480135;0.15734194;-0.079002514;0.09683924;-0.019933512;-0.10422815;-0.04095684;-0.060089964;-0.1305025;-0.027875673;0.00765848;0.1459241;0.17729312;-0.019826429;-0.2390557;0.14512077;-0.015739197;0.049114194;0.14162189;-0.0091271335;0.26303557;-0.029575244;0.010989512;-0.027202196;-0.17039749;-0.03425157;0.10081625;0.031610567;-0.0017653926;0.010123435;-0.10664479;-0.28593227;0.028175088;-0.023967281;-0.05974517;-0.22548816;-0.034525987;-0.016691564;0.09257442;-0.1094111;-0.053032767;-0.14977673;0.018061751;-0.066415906;-0.17149287;-0.020679489;0.08737851;0.023687173;-0.14020579;-0.021351723;0.2859312;0.15484676;-0.0046813753;0.15584858;-0.027654853;-0.07672563;-0.21812308;0.049003173;-0.060746204;0.059375484;-0.044936456;-0.032319948;-0.041560918;-0.07798169;-0.02129169;0.01895489;-0.1513813;0.046329338;0.14780036;-0.077190734;-0.052488454;0.06670464;0.0873622;-0.030172879;-0.112070136;-0.000302959;-0.04855163;0.10112185;0.215204;0.011998908;-0.21728218;0.024508031;-0.12900774;0.034298632;-0.18770851;0.058582813;0.0710459;-0.03290567;0.09906834;-0.1668954;-0.062070448;-0.14127736;-0.02232769;0.090974815;-0.123951115;0.0020967287;0.2112952;0.117146604;0.02786491;-0.0824325;0.2188318;-0.0710525;-0.23103252;0.049873564;0.022146486;0.13693829;0.056665994;-0.09961688;0.028730499;0.10660488;0.01183367;-0.0358718;-0.00932051;0.067296214;-0.021896662;0.085196026;0.26797533;0.08409404;0.060885325;0.015999803;0.02547304;0.042818867;-0.14545096;-0.029339409;0.13888486;0.055563387;0.252669;-0.09457234;-0.12651427;-0.10550974;-0.11397559;0.116983965;0.06791364;-0.11247043;0.13736086
-0.019322196;-0.037928656;0.011821446;-0.14037995;-0.1197891;0.029775333;-0.25481582;-0.04975946;-0.121571034;-0.10075688;0.13007918;0.019874172;0.061987605;-0.0159617;-0.03673117;0.04923569;0.024458032;0.122458555;0.1421356;0.07534603;0.0028332209;0.12725417;-0.25407934;-0.04929085;0.050939906;-0.21572714;-0.05414843;0.14530595;0.12767576;-0.018263774;0.012196711;-0.022584302;-0.12617332;-0.025316626;0.025533982;0.081815206;0.04610808;-0.13654271;-0.057549495;-0.11421366;0.019330623;-0.22134209;0.06272469;0.17747831;-0.12726738;0.10792563;0.107695624;0.0061556357;-0.11669299;-0.044037815;0.12203366;0.15412383;0.011825811;0.32723376;-0.05508612;0.20400879;0.050353836;0.05065541;0.10727858;-0.0060064024;-0.017708916;-0.18764658;-0.11845198;-0.008775195;0.020147352;-0.12738822;0.032791;0.072640285;0.2776182;0.07270802;0.042159352;-0.010949143;0.13547033;0.03589682;-0.003875118;-0.18577893;-0.20667121;0.08100182;0.009866199;0.12741587;0.14406241;-0.024235692;0.031977158;-0.11342476;-0.0679413;0.076218665;-0.23528709;-0.10346698;-0.006985411;-0.148332;0.041032758;0.11654983;-0.102018036;-0.08249554;-0.052303772;0.17838441;-0.07432957;-0.41067937;0.035034902;-0.04222122;-0.08470006;0.37438315;-0.111697055;-0.09467977;-0.030230625;0.0027281716;0.1664427;-0.08026298;0.023849111;0.045283522;0.088335;0.04042263;0.014600048;0.08623207;-0.38312036;0.07550884;-0.0744473;-0.018151052;-0.13541754;0.1569399;0.013592036;-0.071714796;0.002186688;-0.15374145;0.0010439889;0.044713095;-0.0420952;-0.030023662;-0.018048419;0.1501275;-0.08544412;-0.042470176;-0.23061639;-0.08037044;0.35330346;0.08031126;0.03135725;-0.14166294;0.2596957;-0.23193863;0.07168626;0.25168726;0.15004097;0.24239632;0.020260254;-0.051403932;-0.1986627;-0.057366874;0.045589946;-0.18564029;0.037637446;-0.02756546;0.04255118;-0.07471215;0.21039878;0.045220375;0.11464307;0.07841118;0.009277706;0.020838048;0.012365196;0.05644835;-0.029412186;0.11893381;-0.01276838;-0.07640499;0.041688394;-0.1084213;-0.028110703;-0.15668091;0.03837064;0.16742533;0.089538224;0.018173076;0.23553586;0.028265515;0.08104161;-0.09167937;0.13391545;0.05571515;-0.052344024;0.010487709;-0.42211047;0.122300506;0.12857872;-0.17875233;0.14770845;-0.06926884;-0.04928111;0.09632095;-0.13420603;-0.0052109403;-0.0077460427;0.19321851;-0.014303961;-0.14148661;0.18070906;0.0147365285;-0.05194434;0.020411223;0.12759048;-0.09705209;-0.17361999;0.11993867;-0.029665628;-0.034616716;-0.12352561;-0.022043975;0.1332292;0.17114447;0.09816596;-0.16582337;-0.066881046;-0.12698658;0.011717278;0.031176453;0.00024054026;-0.09194649;-0.026587198;0.12214293;0.10040968;0.08136965;0.0015672189;-0.15210712;0.23638053;-0.114354424;-0.025919275;-0.06833115;-0.018947924;0.009533867;-0.081456564;0.07834483;-0.12226107;-0.005514226;-0.13824905;-0.06279274;-0.07827346;-0.0028462433;-0.110565454;0.13197975;0.04037382;-0.16576757;-0.1545499;-0.10164655;0.14694144;-0.1482544;0.15151188;0.06290944;0.1097392;0.13199404;-0.08354902;0.06835533;0.042976968;-0.023909323;0.13164465;-0.115569055;0.037607726;-0.011761491;-0.16420673;-0.084658094;0.15205917;-0.09070334;0.059719786;0.24133508;0.08802267;-0.07050871;0.08390364;-0.06821436;-0.024563663;0.055713754;0.054317508;-0.06871086;-0.0021339557;0.0099893855;-0.08557321;0.14536269;-0.1952924;-0.24666552;-0.11640365;0.05951656;0.13278764;0.28128907;0.2119526;-0.06289143;-0.06741119;-0.046295095;0.10896502;0.0071622264;-0.024081316;-0.00789832;0.17531002;-0.014112071;0.16266091;-0.12548439;0.093266726;0.0467565;-0.003879517;-0.10310972;-0.08146806;-0.13708329;-0.13219151;0.17346746;0.20340501;-0.22040266;0.10170959;-0.091817304;-0.08649344;-0.056153443;-0.09921996;0.18498084;-0.1493685;-0.11701094;0.06536288;0.088924065;-0.06680933;0.06664178;0.07492924;-0.0040123817;0.10013155;0.06604225;-0.117608495;0.041054226;0.031000553;-0.023382345;-0.028302632;0.025590666;-0.0038248538;0.14282094;-0.17843838;-0.17261864;0.15216741;-0.07551355;0.10373459;0.089684434;0.05066061;-0.18011667;-0.08587641;0.074239165;-0.29486582;0.11150757;0.19347522;-0.23859249;-0.026420617;0.15459067;-0.05714096;-0.040794276;0.0039666896;-0.041451428;-0.06582328;-0.09703611;0.0064766794;-0.103667915;0.00014470595;-0.09428167;0.03474597;-0.26936835;0.14356337;0.10409561;-0.15239884;-0.3268794;-0.09867934;-0.04729338;0.049200874;-0.035148952;-0.03377254;-0.21022369;0.18171495;-0.008107671;0.109212734;0.021324422;0.110341355;0.055923264;0.055481978;0.0994989;0.014509773;0.14274566;0.00034476657;0.075003594;-0.12365091;0.04536439;0.15400748;0.030543288;-0.016862866;0.06837169;0.04968285;-0.0039917924;0.022573257;-0.006685934;-0.10189135;-0.07639678;0.015157349;-0.005159436;-0.08833559;8.090462e-06;-0.12735729;0.0585126;-0.032970723;-0.05447923;0.08081698;0.013405495;0.18496604;-0.0008939282;-0.07034172;-0.17318319;-0.07091464;-0.096228145;0.012824272;0.028482787;-0.11487704;-0.06824158;0.012859187;-0.032594852;-0.0619748;-0.0069782073;0.041884486;-0.028436238;-0.08311405;0.040256806;-0.2310757;0.030109307;0.09230934;-0.016431179;0.13012;0.032746993;0.17813234;-0.006202586;0.070706174;0.1760261;-0.08005778;-0.05558302;-0.03501082;-0.10952745;-0.054461192;0.06771629;-0.041389175;0.15963362;0.043825965;-0.089382894;0.069283746;0.12463127;-0.2380287;0.13071023;0.121406265;-0.07509295;0.0015988784;0.104169905;-0.25785938;-0.0287562;0.035553277;-0.04533511;-0.15905985;-0.052356604;0.05112414;0.23533674;0.05013725;-0.15467557;0.08215862;-0.01787389;0.0018050733;-0.027803887;0.08688819;0.24881795;0.10844437;-0.11827335;-0.11418244;-0.13308717;-0.020538406;0.08904249;0.18701546;-0.048605204;-0.03653123;-0.09600723;-0.19780576;0.08896135;-0.19938418;-0.20470174;-0.29104027;-0.16290359;-0.1383005;-0.0054628234;-0.18689656;0.009902207;-0.034877446;0.09792244;-0.15995322;-0.1228007;-0.20760985;0.047373448;-0.024107285;-0.13461182;-0.16567525;0.20589975;0.12755834;-0.17425972;0.10607534;-0.115343556;0.07856242;-0.1534205;0.023794433;0.01925689;0.17481795;-0.10103889;0.031297036;-0.029220117;-0.004838354;-0.10922588;0.0033149682;-0.23175982;0.09722222;0.0767813;0.122165605;-0.06541241;0.041983023;0.018246578;-0.12738787;-0.14920221;0.06632408;-0.030524563;0.20980689;0.19425356;0.11751728;-0.11394435;0.11735608;-0.16289979;-0.0034724558;-0.20839222;0.0067123836;-0.031373844;-0.009631204;0.016070304;-0.25009665;0.057308152;-0.13225543;-0.18243678;0.09253834;-0.1396501;-0.002755475;0.17133284;0.24845631;-0.14727984;0.024353616;0.23534171;-0.12351611;-0.035144664;0.0026500768;0.00842176;-0.05580825;0.040431924;-0.084998466;-0.12648846;0.0771377;0.08985083;-0.074380174;-0.05575167;0.05038453;-0.037736986;0.11219842;0.20493256;-0.026599146;0.092583746;-0.022441458;0.0657271;-0.025790976;-0.20333056;0.028322704;0.1283539;0.06923884;0.26614264;-0.13576372;-0.15527196;-0.07746673;-0.11467837;0.11312319;0.06979635;0.09335586;-0.057235617
0.06710745;0.07097565;0.086209886;-0.09704254;-0.05131559;-0.035061426;-0.2612135;-0.20730932;-0.12247697;-0.17402782;0.13274544;0.036108166;-0.120749824;-0.084258765;-0.14794602;0.0074754898;-0.09082922;0.0676126;0.068325;0.016075006;0.026563304;-0.004120212;-0.210489;-0.095047355;0.13622014;-0.20083188;-0.12650491;0.113356;0.23904718;-0.036419276;-0.086448506;0.017108511;0.046474654;-0.10096053;0.043741316;0.037924822;0.05888262;-0.12493651;0.040375352;0.07614292;0.08009191;-0.23128866;0.045057237;0.14290696;-0.13020757;0.061793115;0.03362368;-0.0738525;-0.2090945;-0.017967248;0.20918022;0.19927701;-0.029486515;0.21632047;-0.04314146;0.15158115;0.051185615;0.039863467;0.027380155;0.01582547;-0.014684916;-0.24964677;-0.037172478;0.05340931;-0.032579996;0.0041551953;-0.037022453;-0.024502432;0.27854723;-0.00070464285;-0.019881869;-0.068964526;0.14416286;0.01833497;0.0621289;-0.19553559;-0.18774875;0.02680225;-0.11246423;0.05223579;-0.0030596543;-0.122057386;-0.009588727;-0.06833139;-0.0008722632;0.012044653;-0.34746918;-0.2715758;0.1716596;-0.08369215;0.09278593;0.12822463;-0.023304807;-0.08117525;-0.009644172;0.10314371;-0.0061217;-0.37862712;0.02425855;0.044679753;-0.0703433;0.36129543;-0.1480754;-0.036505263;0.0843381;-0.17222926;0.2337354;-0.0693285;0.022960622;0.11387642;0.17551707;-0.05576049;-0.063273765;0.07049725;-0.16835195;0.109081626;-0.1257415;0.09529477;-0.024999103;0.024686052;-0.029556187;-0.07932816;0.03459261;-0.1514896;-0.0355815;-0.041090336;0.03487947;0.07004652;-0.03270285;0.1573893;-0.05516621;-0.07477421;-0.19166145;-0.065933935;0.2851041;0.02987211;0.131478;-0.13882616;0.05940401;-0.061550215;0.13815942;0.22481547;0.11573185;0.32368585;0.07302186;-0.16699521;-0.0668663;-0.077014826;0.04829145;-0.035439942;0.042373892;0.012205252;-0.029160883;-0.07248344;0.10657824;0.03231696;0.0948169;0.13009574;-0.003855251;0.13788438;0.040281482;0.020064132;-0.053596865;0.06495358;0.026947863;-0.0929231;0.02973977;-0.11027311;-0.030426817;-0.14877431;-0.087283015;0.007835905;0.1309391;0.07826182;0.1373393;0.11845357;0.06713284;-0.0418804;0.16165115;-0.040124923;-0.061343797;-0.046809938;-0.33306453;0.033429917;0.0023317165;-0.20793714;0.072736;-0.07772832;0.017545711;0.026078764;-0.11191074;0.01819031;0.06403933;0.06527688;-0.05845277;-0.08924816;0.07339854;-0.09445926;-0.14964804;-0.08572744;0.22947155;-0.16028838;-0.0014205727;0.15442833;-0.06632648;-0.015682997;-0.19454145;-0.06546157;0.041002076;0.11443516;0.053926475;-0.15270054;-0.047427706;-0.27152994;-0.0359143;0.010534642;0.055310946;-0.19298646;-0.09553026;0.17664531;0.027230786;0.020484168;0.069841206;-0.14373252;0.10773317;-0.03174721;-0.045229558;-0.047907554;0.012441269;0.17123784;0.06902699;0.07525133;-0.12916502;-0.0233081;-0.15958962;0.025503103;0.009749282;0.040829506;-0.094396636;-0.014410387;0.07221551;-0.031310204;-0.20821708;-0.25344115;0.07843238;-0.11775819;-0.016544987;0.110356934;-0.015097281;0.20440717;-0.21786451;0.017770935;-0.027173357;-0.09292553;-0.042498454;-0.18565209;0.067646846;0.10043303;-0.08675127;-0.04488721;0.22029047;-0.1596488;0.09885161;0.12365734;0.07091011;-0.021043792;0.19900769;-0.018364405;0.10885464;0.11332199;0.13733064;-0.089392684;0.13379338;-0.07842259;-0.10374643;0.08944183;-0.093738414;-0.22661339;-0.098343164;-0.001209684;0.13087651;0.24816638;0.06273149;-0.04969215;0.06402322;-0.017986335;-0.05124013;0.096039526;-0.12219265;0.070513785;-0.008705104;-0.022579048;0.100072354;-0.08388963;0.10726116;0.07180778;0.122771256;-0.21818791;-0.09272483;-0.02730641;-0.21743654;0.22028686;0.13730158;-0.17220733;-0.009467694;0.047370996;0.012504625;-0.045583576;-0.1457441;0.090716414;-0.07709118;-0.0698584;0.090431415;0.12624046;0.041362084;-0.035162594;0.07978092;-0.017710473;0.020346167;0.11972746;-0.08346325;0.13874911;0.05170832;-0.0057552718;-0.028832775;0.005872653;0.14866471;0.18633813;-0.032684952;-0.04493108;0.074218385;-0.051527914;0.13294834;0.11891805;0.026344663;-0.20737137;-0.04391824;0.027737478;-0.301196;0.03783978;0.1866588;-0.23511094;-0.0293176;0.16974178;-0.039017625;-0.042268142;0.08228045;-0.069929466;-0.0411121;-0.13946311;0.009269702;0.00515758;-0.0042434214;-0.10492387;-0.04803352;-0.26108763;0.21408899;0.16642086;-0.28058845;-0.30717224;-0.08820862;-0.097553484;-0.04547247;-0.007231659;-0.03506799;-0.12647559;0.13699701;-0.0094934;0.07917486;0.028896874;0.08442812;0.053540785;0.052591354;0.09032685;-0.059421368;0.15945055;0.04096117;-0.032571655;-0.02553839;0.074796066;0.12878366;-0.07552774;-0.055595275;0.004324787;0.13744861;-0.0006674796;0.05443515;-0.042364363;-0.04610998;-0.054182034;-0.013659197;-0.06840913;-0.033903453;0.006430091;-0.17674561;0.08148218;0.011618928;-0.035051372;0.14115483;-0.10601078;0.20248558;-0.10595658;-0.08500698;-0.057173513;-0.066663764;-0.056483112;-0.124133416;0.13674487;-0.1530778;-0.0057294792;-0.002088526;0.14501584;-0.06852189;-0.03812528;-0.03939545;-0.02063845;0.0018081147;0.010021373;-0.17433879;-0.019585766;0.10181687;-0.058923345;0.044667035;0.14831005;0.20594727;-0.087243766;0.008130636;0.11757581;0.015874457;-0.04650293;-0.060179017;-0.11932666;-0.032504246;0.15005882;0.089574575;0.13851357;0.05686132;-0.14078392;-0.0024947864;0.15520822;-0.16334113;0.15288435;0.10502894;-0.13558303;-0.067919225;0.11080243;-0.18085909;0.026672216;0.15380922;-0.19207339;-0.17948881;0.100634366;0.11439525;0.28551713;0.065031804;-0.15785472;0.14858857;0.020873671;0.09661753;0.13408759;0.121320486;0.16291283;-0.044865694;-0.10458574;0.023070836;-0.121373326;-0.033883996;0.042378783;0.07230877;0.037133656;-0.052994657;-0.05441595;-0.16736953;0.026401224;-0.15775083;-0.07467927;-0.13327028;-0.13377637;0.045931883;0.027263874;-0.1367944;-0.1406517;-0.091896385;0.05764221;-0.17958239;-0.21162765;-0.12857702;-0.023158858;0.032888863;-0.11028968;-0.057008836;0.17123924;0.13520022;-0.12644118;0.035521694;-0.07936854;0.08180953;-0.15125479;0.0046024676;0.011486374;0.1747991;-0.06013913;-0.07066199;-0.02916422;-0.02415598;-0.034353446;0.0028495633;-0.16445683;0.22496115;0.056506533;0.117076084;-0.07293856;0.0050453655;0.07758265;-0.100535125;-0.15941979;0.15245914;0.045004364;0.0983292;0.0988185;0.09242007;-0.15133569;0.04792502;-0.16462934;0.06645197;-0.20209101;0.0348635;-0.05186984;-0.06633874;0.052328285;-0.2377088;-0.014716559;-0.11123208;-0.07568459;0.08770224;-0.068687014;0.07792546;0.07184311;0.19215459;-0.09353435;-0.08896017;0.19602329;-0.04735317;0.010004594;0.013016235;-0.03337518;0.023388898;0.051664572;-0.0021677888;-0.013451618;0.084981866;-0.02850823;-0.04154958;-0.09260299;-0.024483217;-0.045433145;0.19427599;0.07245448;0.012546653;-0.0072574266;0.0032942442;0.033741176;-0.08379267;-0.06872409;0.03965013;0.012909574;0.090727985;0.37044546;-0.062297605;-0.065096855;-0.060106225;-0.1326735;-0.017451212;-0.0070849946;-0.030745056;-0.036088962
0.0836399;-0.012687545;-0.08119596;-0.17764841;-0.18524328;0.01982736;-0.10777634;-0.18468496;-0.13870879;-0.17237833;0.12495683;0.059359595;-0.039481677;-0.038285296;-0.08180178;-0.10007978;-0.1160487;0.11366066;0.11030792;0.15045363;0.19156742;0.08374116;-0.1402117;0.04442856;0.15437439;-0.100783266;-0.1008218;0.2241465;0.1566474;-0.058152672;0.07524456;0.07155686;-0.006580352;0.07355934;0.04237674;0.046138644;0.05685717;-0.054236755;-0.0421413;-0.067484275;0.095227964;-0.085000224;0.026626486;0.20307693;-0.034125973;-0.06721572;0.19461294;-0.11225561;-0.2858605;-0.019371292;0.11516429;0.17335676;0.037181918;0.31919423;-0.14770715;0.12234892;-0.11211739;-0.012047763;0.049485832;-0.16602269;0.052503373;-0.21760014;-0.15107524;0.12337766;-0.08476227;-0.08273574;0.041159347;-0.007002746;0.3878017;-0.014636768;-0.03572882;-0.07764491;0.015299339;-0.035702348;-0.024216799;-0.15803233;-0.24750565;-0.029086418;0.0020071047;0.06251726;0.07086752;-0.12481437;-0.02823546;-0.13985273;-0.15017687;-0.052175563;-0.22937918;-0.18553053;-0.015447223;-0.102226146;0.03560239;0.04654863;-0.13843669;0.021081654;0.017978936;0.08254902;-0.07878202;-0.38559306;0.02285616;-0.028719662;-0.01743818;0.3601194;-0.12258375;0.08142178;-0.028535832;-0.10950697;0.09475381;-0.08435175;0.0197253;0.11752198;0.1294152;0.045036513;0.05954745;0.100346036;-0.26815385;0.01721121;-0.10200141;-0.06888392;-0.1345568;0.17216468;0.09615581;-0.06685062;0.07062673;-0.044756327;0.035889294;0.078015395;-0.028664785;0.026651612;-0.08189356;0.14491983;0.050023466;0.008801977;-0.1659407;0.052703146;0.45409805;0.042842183;0.12091768;-0.10818747;0.1722851;-0.07680534;0.099427365;0.11054342;0.21527874;0.29910377;0.016805701;-0.035649784;-0.13155761;-0.047408145;-0.03351636;-0.13741833;0.0155626945;0.18272084;0.100881554;-0.22453567;0.0515847;0.17464103;-0.01852751;0.15886071;-0.083090395;-0.037920564;-0.044369243;-0.053995915;-0.07541941;0.1277427;0.030936785;0.007773918;0.17705636;-0.1451285;-0.052721206;-0.117066294;-0.02757505;0.042099405;0.072990015;0.044686537;0.14010532;0.02382746;0.053049073;-0.007901976;-0.009112592;-0.0029796886;-0.033404343;0.05512892;-0.32522354;0.012738188;0.14630625;-0.22384425;0.10519658;-0.027928546;0.07643837;0.10569886;-0.16388233;0.08522545;0.082333736;0.11934406;-0.0642654;-0.03767985;0.03663544;-0.17617083;0.018624937;-0.06005404;0.1428615;-0.10766618;-0.20970902;0.13139856;-0.05690056;-0.037095837;0.008110643;0.020080693;0.1835714;0.07251778;0.05784272;-0.033702567;-0.02295863;-0.18899748;-0.07992601;0.036596496;0.034588255;-0.08986491;-0.061808366;0.10405642;0.112265304;-0.050271638;0.03577716;-0.06183226;0.15645008;-0.09851763;-0.08893448;-0.021888802;0.0059053767;0.17487985;-0.08188387;0.008317035;-0.20712245;-0.11370002;-0.049468286;0.119941376;0.0636245;0.07180409;-0.12594841;-0.00881038;0.059541352;-0.08226666;-0.2365972;-0.16249557;0.06576009;0.07149769;0.036638547;0.029322654;-0.029578518;0.083117165;-0.20170309;0.05599916;0.042543635;0.07322977;-0.005769371;-0.035260715;-0.043986257;0.23564401;-0.11745357;0.02421302;0.20260637;-0.1668938;0.07058517;0.13096032;-0.007144743;0.0023688127;0.23319203;-0.035483588;0.012654118;0.013265046;0.100851856;-0.07465778;0.1798795;0.046436038;-0.20975034;0.021501884;-0.23359331;-0.18547925;-0.0844992;0.057639956;0.04405816;0.1853678;0.09812288;-0.061183315;-0.06592618;0.01465583;-0.07167726;-0.057840776;-0.17533928;-0.0840832;0.014038809;-0.080183275;0.13650611;-0.18020886;0.15616298;-0.051915117;0.04997777;-0.1857125;0.00086945156;0.057667222;-0.20035343;0.25305468;0.10417581;-0.056442216;-0.014117019;-0.04095378;0.04308696;-0.05279675;-0.08267559;0.17157573;-0.044122644;-0.1279503;-0.030914467;0.15485252;0.10134579;-0.04149233;-0.05303867;0.0024738556;-0.024650775;0.08068736;-0.057918858;0.22941838;0.06992131;0.061966673;-0.107334666;0.13695541;0.01958887;0.17591168;-0.057291478;0.020379186;0.15728992;-0.0690847;0.20987219;0.062921025;0.043987487;-0.20884317;-0.04185738;-0.08774835;-0.21257496;0.11864962;0.095255464;-0.13263261;-0.06452578;0.031185187;-0.04298236;-0.063357234;0.046375994;-0.03616462;-0.0906974;-0.066147715;0.08001745;-0.017335592;-0.06101623;-0.045181427;-0.04812655;-0.26758942;0.1427607;0.085593514;-0.25831327;-0.27398142;-0.0038890995;0.005255865;-0.047815483;-0.12067462;-0.08119378;-0.20962897;0.12476177;0.036350086;0.0413637;-0.10142419;0.023488231;0.08746711;-0.061742723;0.078848146;-0.069063775;0.12333625;-0.041791346;-0.009205529;-0.048914243;0.114081934;0.24074292;0.018625673;-0.08915862;-0.043670595;0.08736053;-0.07673099;-0.032740142;-0.059709758;0.03298831;-0.16129689;0.041500907;-0.09307375;0.010979728;0.11649842;-0.27006847;-0.03941808;-0.077174775;0.14174718;0.061519466;-0.03326305;0.15212472;-0.03336665;0.062305275;-0.06252648;-0.10701736;0.031849448;-0.014546722;0.031448267;-0.13252427;-0.09219563;-0.1390585;0.12619573;0.047222633;-0.022201955;0.035305995;-0.034758627;0.048329074;-0.0015660449;-0.19795267;0.06797745;0.06061895;-0.02798139;0.022168683;0.07908032;0.23086408;-0.077965714;0.051828735;0.129122;0.09371888;0.04269986;0.01920553;-0.13269517;-0.06895151;0.11061141;-0.03545125;0.13734202;0.0641127;-0.11975806;0.11243558;0.030257337;-0.2044493;0.17045243;0.06177895;-0.23169336;0.017509913;0.072126456;-0.14013271;0.0296763;0.026328042;-0.13508388;-0.030624952;0.12900737;0.049118336;0.22868526;0.05001047;-0.1246977;0.094639465;-0.04866156;-0.053811233;0.10004352;0.15909241;0.24446256;0.01136382;0.009787484;-0.16005605;-0.18677665;-0.051140696;0.06587743;0.24436566;-0.012967082;-0.12387154;-0.088774614;-0.18869777;0.15900874;-0.0031954309;-0.15264381;-0.18703558;-0.15770845;0.06559691;0.0117610935;-0.23373696;-0.066102296;0.0031822906;0.12694654;-0.1497498;-0.31544542;-0.08040716;0.073775485;-0.00021133556;-0.06363291;-0.157198;0.13806807;0.10217286;-0.0013237249;0.021255467;-0.19425471;0.028492246;-0.27519622;0.025375234;-0.10344856;0.12691376;0.034936886;-0.011260233;0.11103243;-0.06390486;-0.10660448;0.18589853;-0.099819854;0.21436459;0.045342255;-0.038955662;-0.18214487;0.09685916;0.025174543;-0.16272692;-0.21785875;0.1425918;0.064823665;0.18577316;0.22186337;0.11642336;-0.077983834;0.03807862;-0.25353223;-0.018260524;-0.0860147;0.13357878;0.039941415;-0.0707862;0.06543612;-0.22289339;0.07037674;-0.0058290744;-0.14188762;0.09754264;-0.119816124;0.11939496;0.1904765;0.22410934;-0.13625088;0.020527123;0.28675863;-0.033257507;0.08729232;0.038352225;0.07347648;-0.047866456;-0.16048816;-0.06420015;0.08985967;0.15668283;-0.054946292;0.007955706;-0.011347959;-0.017164784;-0.05412973;0.11189674;0.061671235;-0.0118358545;0.06522028;0.0953022;0.007918034;0.048099484;-0.14866486;0.14413315;0.04414913;0.044585124;0.4275581;-0.23386127;-0.09976665;-0.116228506;-0.096210435;-0.023970714;0.042081915;-0.005148979;-0.073001415
0.095976576;0.088793606;-0.039598938;-0.11387173;-0.23407678;-0.02885394;-0.15015388;-0.18696214;-0.12411329;-0.14418055;0.15557979;0.00033327943;-0.038820487;0.08087345;-0.020154795;0.018110117;-0.12899533;0.17401709;0.11959085;0.06343601;0.14664687;-0.025899;-0.025760029;0.034839604;0.04145731;-0.07451471;-0.12360376;0.017069602;0.2765806;-0.11687814;0.022278694;-0.04469292;0.09061409;0.028422622;0.0011909944;0.10610704;0.071703926;-0.033932056;-0.04472145;-0.01239398;0.08893261;-0.09386181;0.04780865;0.15836076;-0.17075485;0.08414251;0.17512378;-0.1098109;-0.17666635;-0.10232981;0.12528682;0.07193697;0.1057637;0.27278346;-0.1456472;0.09166163;-0.0075306436;0.05220228;0.08995873;-0.13552313;-0.03777402;-0.22403942;-0.12644769;-0.04541915;-0.1328418;-0.019156558;0.075389065;-0.15364899;0.47208124;0.094574444;-0.057487793;-0.022416987;0.021967351;0.011668202;0.016048303;-0.15589194;-0.14283492;-0.031883128;-0.09026275;0.07542892;0.013572989;-0.09944506;0.08116859;-0.13630447;-0.107829265;-0.009326938;-0.26796478;-0.07944744;0.20608024;0.06338581;-0.005300652;0.006343915;-0.10555095;0.00065733807;-0.07317225;0.13091029;-0.06818183;-0.3187643;-0.018732015;-0.02766078;0.04664097;0.32792142;-0.107883655;-0.07017087;0.017486531;0.019469546;0.17849302;0.01674293;-0.010156208;0.15624051;0.22101428;-0.051787157;-0.018032981;-0.013210445;-0.30969486;0.15846696;-0.08133004;0.0592538;-0.036457635;0.14560638;-0.042522784;-0.17992453;0.052754767;-0.04812183;0.091297925;0.092145376;-0.011671988;-0.048314232;-0.109695636;-0.011583411;-0.124416426;0.047822427;0.004018868;0.038152825;0.41001657;-0.030807856;0.10716053;-0.13025239;0.16722205;-0.18060558;0.24920803;0.22067437;0.09230135;0.31315058;0.104150586;-0.072921984;-0.058890827;-0.05930741;0.09016842;-0.18863013;0.00915434;0.18356833;0.0091334665;-0.08799099;0.08418975;0.106127605;0.081210695;0.1765197;-0.052127447;-0.022266174;0.06206684;0.010642721;0.0024047024;0.12435322;-0.0500382;-0.13032402;0.004143745;-0.13805543;0.05541146;-0.13270766;-0.052685782;0.015236335;0.112041324;-0.053450357;0.02148845;-0.08908169;0.073486954;-0.06618579;0.19906284;-0.069076635;-0.12162208;0.05265316;-0.25939322;-0.072224885;0.10112684;-0.18789226;0.11299792;0.022605203;0.008412625;0.16597289;0.06562781;0.06558948;0.09047737;0.022074796;0.07509072;-0.19065188;0.21133664;-0.1663892;-0.13907102;-0.1257634;0.19489756;-0.09800425;-0.045739744;0.23330007;0.0439451;-0.08914917;-0.115611285;-0.04228684;0.22684902;0.1678345;0.043899927;-0.07192965;-0.02042953;-0.21792024;0.08836589;0.036006298;0.0027715892;-0.21801966;-0.004389758;0.19084796;0.05740825;-0.1048777;0.0068751127;-0.088819906;0.09613935;-0.0899536;-0.118125774;-0.15811493;-0.104002915;0.08958535;0.023735475;0.030217713;-0.18656144;-0.13660954;-0.08756561;0.20259146;0.10730234;0.082194105;-0.10939049;0.014239441;0.022717845;0.11603816;-0.17516372;-0.14818457;0.12710112;0.050892483;0.0049991403;0.14476168;0.05182627;0.06429313;-0.1097908;0.028431507;0.019574419;0.11650968;-0.051218357;-0.095757835;-0.0020511907;0.0899894;-0.10483882;0.050661247;0.24705511;-0.13507584;0.112654254;0.160077;-0.005264481;-0.06320969;0.17024265;0.04728606;0.06974721;0.055563804;0.18269086;-0.059106983;0.22774404;-0.06787542;-0.06683056;0.088452;-0.14192142;-0.22823302;-0.017343033;0.011136411;0.061966773;0.19875483;0.14898004;0.052245934;0.0679226;0.07943859;-0.052386105;-0.07251338;-0.034798037;0.0769549;0.04348462;-0.1698533;0.14320658;-0.2317238;0.038606703;0.006173133;0.015435076;-0.174821;0.015120971;0.08321357;-0.050418857;0.12241791;0.06877249;0.00064098486;-0.0069428054;0.11171086;-0.07189603;-0.0675385;-0.11031273;0.116984256;-0.03503084;-0.16948943;-0.052103464;0.052317765;0.02337996;0.013673489;2.9269288e-05;-0.088168465;-0.01092861;0.06823226;-0.1173974;0.15098116;-0.07258468;0.052530974;-0.084475525;0.108230084;0.004734285;0.090997115;0.0014100618;0.08016917;0.15465453;-0.009172783;0.20669626;0.08383132;-0.040958323;-0.067763165;-0.01730381;0.016640889;-0.20402822;0.06999827;0.13922614;-0.3616982;-0.049381252;0.13859518;-0.016829776;-0.08416655;-0.0628105;-0.089367226;0.08974786;-0.17843647;-0.00579835;-0.05921549;-0.013201196;-0.089652374;-0.09792065;-0.33882737;0.12747294;0.03337909;-0.2568316;-0.38735524;-0.15493077;-0.055633876;0.018312743;-0.067592226;-0.033138007;-0.10658161;0.026474854;-0.009423402;0.08758859;-0.11623577;-0.046679314;0.2748415;0.02739237;0.12449337;-0.01640132;0.053181816;-0.111939855;-0.09673048;0.016364135;-0.013867851;0.05308204;-0.0626708;0.014101286;0.09603257;0.19905084;-0.0041073267;0.021807052;0.1049423;-0.046540517;-0.0984997;-0.02028413;-0.12836966;0.059035335;-0.007449242;-0.18139657;-0.018608956;-0.04986874;0.15209797;0.08867192;-0.16847232;0.1522487;0.033058878;-0.009569078;-0.0020514184;-0.16717461;-0.006380015;0.044231992;0.1131314;-0.1434579;-0.02181591;-0.04008377;0.09192477;-0.1438201;0.0027567868;-0.10532761;-0.108357355;-0.009175354;0.057259742;-0.2408588;-0.08050522;0.14890528;-0.015943618;-0.03536451;0.057648055;0.25834543;-0.19097327;-0.023393419;0.30125785;-0.01248932;-0.15170294;0.09119803;0.004978742;-0.15907505;0.12745997;0.11364154;0.16963401;-0.0036560565;-0.17319518;0.040518288;0.1327872;-0.15802623;0.14109541;0.09857581;-0.15881108;-0.08916547;0.062369894;-0.14217326;0.015688775;0.1359816;-0.11623508;-0.024603054;0.09650088;0.07768063;0.20097657;-0.058408536;-0.007749621;0.15916365;0.010618077;0.11763671;0.17485602;0.009125808;0.27151793;-0.034036748;-0.08213337;-0.11363676;-0.22714135;0.00078387675;0.15342909;0.10535658;0.009948658;-0.022282451;-0.032788657;-0.22096203;0.14898755;-0.028986076;-0.03965018;-0.0018520115;0.011629898;0.07347788;0.1748355;-0.17488436;-0.13967068;-0.109182335;0.09900893;-0.031769235;-0.246471;0.16092053;0.055603605;-0.060635947;-0.13273598;-0.042863466;0.16591716;-0.04321666;-0.03173737;0.07815099;-0.11224322;0.013194868;-0.24175186;0.01697127;0.012908333;0.10922631;0.010934691;0.037584797;0.13994813;0.04113892;-0.029707978;0.02437408;-0.085129425;0.15371406;-0.036653306;-0.11932102;-0.26760605;-0.07694227;0.1402898;-0.1036125;-0.09144134;0.10543623;0.02180387;0.103181854;0.1815528;0.12651433;-0.27188468;0.032889787;-0.22851066;0.08069025;-0.13303351;0.07216474;0.054537952;0.06349997;0.1438035;-0.073876515;-0.037539646;-0.07829907;-0.013686388;0.026886525;-0.03213511;0.10019746;0.14381377;0.13281092;-0.13583027;-0.15207392;0.2292192;-0.035822187;-0.019234309;0.009243831;-0.06433045;0.076961294;-0.0026562791;0.15019588;0.052972015;0.06417246;-0.16183794;-0.16512544;-0.03403956;-0.038883578;-0.11734281;-0.0032987506;0.16960268;-0.009497846;0.028572867;0.076118425;0.04820214;-0.019775713;-0.26949877;0.18090762;-0.0071384045;0.0038105336;0.29692453;-0.12545535;-0.032869626;0.0017189069;-0.11775123;-0.0567697;0.046150386;-0.08656538;-0.0039529544
0.019051958;0.003013847;-0.08177598;-0.11387231;-0.20134145;-0.06896467;-0.12993284;-0.08337721;-0.1926904;-0.11930648;0.015525234;0.064808555;0.013654174;0.047656912;-0.001690977;0.02881549;-0.20661439;0.2079109;0.008345216;0.032085907;0.16457373;0.055963088;-0.01373589;0.027153699;0.01887461;-0.035708696;-0.11909356;0.019764714;0.29527023;-0.16797568;0.09964347;-0.074667886;0.14468455;-0.02085474;-0.09729447;0.11889995;0.032454494;-0.13533801;0.049623925;-0.034003876;0.07769025;-0.18491834;0.08806795;0.19261427;-0.14543496;-0.001074776;0.07628935;-0.014869133;-0.25477958;-0.097202234;0.07062194;0.21597694;0.014405706;0.3295398;-0.07727265;0.21990538;-0.118796416;0.12778986;0.06572663;-0.14153236;0.033470716;-0.33027527;-0.16266975;0.07855119;-0.083278194;0.035251245;-0.03873995;-0.19303778;0.3769985;0.06722647;-0.045857657;-0.044869695;-0.05653434;0.18365367;0.02529633;-0.08851224;-0.2692089;0.0058529074;0.01927048;0.2094196;0.047194835;-0.08340488;0.044434853;-0.24324937;-0.1430423;0.04899966;-0.28182274;-0.13615964;0.15627082;-0.08704332;-0.039850574;0.04255673;-0.10633845;0.06744798;0.03899458;0.17643481;-0.09653999;-0.36898747;0.009418713;-0.0008400293;-0.041682165;0.44499907;-0.026688183;-0.05700687;0.027241886;0.015221111;0.077889495;0.02094049;0.03696764;0.06501726;0.2019263;0.06691714;0.0031775706;-0.057341944;-0.23802415;0.21185708;-0.049504675;0.075913705;-0.13156407;0.27611285;-0.05006169;-0.12348914;0.15540417;-0.08662167;-0.024196351;0.15353592;-0.030797528;-0.042562988;-0.12173482;0.10086716;0.079000086;0.0494876;-0.079291806;-0.05619365;0.29997998;0.053917672;0.023618164;-0.15127108;0.071016885;0.018888282;0.1887992;0.17215027;-0.0068645645;0.38413835;0.031263787;-0.19592553;-0.023637414;-0.17575824;-0.006888102;-0.096572824;0.008235127;0.19982463;0.1102529;-0.16308002;0.05800732;0.10672843;-0.07635771;0.13006501;-0.012025537;-0.03265833;0.11783118;0.022878762;-0.07101741;-0.01966125;-0.07679498;-0.01930666;-0.016092401;-0.14511496;0.12144327;-0.18811595;-0.065938406;0.06479718;0.054477576;-0.027275033;0.16363138;0.030686656;0.0045047086;-0.09562773;0.15850489;-0.0948116;-0.10419766;0.096335806;-0.27608955;0.009472291;0.19413485;-0.17761636;0.060686536;-0.031171242;-0.07592661;0.21092393;-0.11537273;0.05683485;0.0463409;0.010660732;-0.0663399;-0.131324;0.097343184;-0.17415713;-0.12926872;-0.06544472;0.24505827;-0.16918732;0.027669938;0.17839104;-0.04096882;-0.06167287;-0.19692451;-0.1258442;0.22474127;0.117966786;0.09498987;-0.14088623;0.014474821;-0.20078768;0.008165266;0.15870652;-0.07398863;-0.12952416;0.025950616;0.112003565;0.10859209;-0.10621896;-0.033399757;-0.18506248;0.08693179;-0.19570611;-0.09337539;-0.1947187;0.048515547;0.06676229;0.02039185;0.1460657;-0.29451555;-0.054736596;-0.067474075;0.20689552;0.1233539;0.117772214;-0.035566393;0.10030365;-0.08185126;0.120309904;-0.21155809;-0.2707153;0.1365379;-0.047147065;-0.04164094;0.115521;-0.0018053061;0.19206148;-0.10587219;-0.04671547;0.037604872;0.11443275;0.03728812;-0.07661781;-0.07104651;0.04702026;-0.07529378;0.058785774;0.2340199;-0.16371384;0.0049504885;0.18639429;-0.04456094;-0.07964152;0.17796232;0.020834463;0.031551663;0.09349565;0.026899317;-0.10419787;0.3063901;-0.1027461;-0.14165229;0.06617823;-0.027335122;-0.12781367;-0.034465082;0.1394339;0.04518544;0.053803332;0.19029061;-0.066465035;0.09045551;-0.02418099;-0.07922597;-0.017627338;-0.026605384;0.084949255;0.042861696;-0.1303557;0.11951288;-0.24508642;0.06399901;-0.04864611;0.013234347;-0.08403468;-0.0011184695;-0.0023586692;-0.016469209;0.20793967;0.20809516;-0.13828535;0.032832075;0.11386416;-0.1335891;-0.04096474;-0.08431114;0.025430268;-0.029881377;-0.19461356;-0.07690245;0.10738307;0.00011708337;-0.05185676;0.036351927;-0.17122886;-0.033722464;-0.020244036;-0.21881637;0.26819402;-0.11873149;0.009050437;-0.119647466;0.15788405;0.1316335;0.16906355;-0.12956029;0.067296825;0.07305895;0.015862823;0.14514057;0.038357627;-0.051035658;-0.08087105;-0.13146727;-0.061947767;-0.31903556;0.17265444;0.10811954;-0.14548923;0.011899379;0.14712714;-0.041355666;0.015525012;-0.017318645;0.025432667;-0.05615837;-0.18365131;0.05135596;0.06417611;-0.1210443;-0.16408905;-0.10375407;-0.22827622;0.19007982;0.029284462;-0.276434;-0.27172288;-0.08628959;0.00909513;-0.1221174;-0.13500412;0.050711673;-0.1843337;-0.0138181085;-0.03882002;0.105937645;-0.058392227;0.14079237;0.27210286;-0.07912897;0.1302725;-0.03692516;0.06607351;-0.14267138;-0.06903486;-0.028849699;0.032373566;0.18932533;-0.1194669;-0.09690985;-0.06026336;0.02683518;0.0011274999;-0.015658312;-0.03161715;-0.04540246;-0.043937456;-0.13045727;-0.13193679;-0.05068778;-0.024303507;-0.161163;0.01317364;-0.022319345;0.1588497;0.0023565951;-0.10340089;0.21336019;-0.034741458;-0.0782585;-0.099644914;0.007611861;-0.0024381476;0.043733403;0.09919383;-0.04911015;-0.13415003;-0.12307322;0.16026936;-0.05756526;0.017771205;-0.111270934;-0.056470197;0.04243655;-0.014185109;-0.15419675;0.06733592;0.07029597;-0.11077772;-0.08372291;0.11965203;0.20986137;-0.0046673873;-0.021065012;0.29772505;0.057237163;-0.12520884;0.06413349;-0.052760817;-0.095139205;0.13067596;-0.016014455;0.18642892;0.032711357;-0.2194842;0.089815974;-0.016498564;-0.22644;0.15380377;0.060581174;-0.07106455;0.084847465;0.020914119;-0.050648384;0.1456196;0.1460269;-0.24804223;-0.057693414;-0.020657837;0.13516502;0.29110932;-0.12897156;-0.14348295;0.110625535;-0.038165383;0.12243094;0.056495856;0.08334128;0.30683777;-0.12285259;0.008242359;-0.123864375;-0.2819426;0.020593753;0.10810453;0.19857843;0.013049308;0.040596265;-0.010223559;-0.20133007;0.22113164;-0.1919537;0.0229436;-0.12199775;0.006227887;0.14243694;0.14492948;-0.11288991;-0.1721139;-0.099224694;0.06688497;-0.060506415;-0.32800058;0.18866873;0.120064385;-0.021272661;-0.0059052366;0.018772991;0.1836562;0.07591373;-0.061908357;0.13877825;-0.04047608;-0.10681701;-0.16645692;0.034237444;-0.07801042;0.062621884;0.007974858;-0.06971355;0.09159961;0.05242964;-0.07486022;0.09833899;-0.16463624;0.06050345;0.075739294;-0.16411106;-0.29964685;0.07995607;0.114915416;-0.19720662;-0.0075753457;0.041915532;-0.085162915;0.07622794;0.24107958;0.044638585;-0.26791212;-0.013168516;-0.2004054;0.039967675;-0.06551541;0.07104897;-0.021235833;-0.052097134;0.07996957;-0.13009459;0.0058125965;-0.107439354;-0.10270601;0.14954881;-0.08028989;0.10749519;0.16476744;0.10014726;-0.15423465;-0.11124817;0.20948564;-0.05370509;0.09640273;0.016272906;-0.03564453;0.04222767;-0.060470115;0.07308818;0.03793755;0.22658938;-0.00851155;-0.2024455;0.0065471;0.06347109;-0.18255104;0.13179925;0.1670316;0.101884544;0.12429381;-0.015281385;0.15014902;0.02684412;-0.20949467;0.07948001;0.04016879;0.039993033;0.4101993;-0.060265407;-0.08100135;-0.011122796;-0.0032498052;-0.108076446;0.10766022;0.047604006;-0.08070809
0.014047823;0.094859615;0.028074333;-0.11073316;-0.039196532;0.05232485;-0.03272612;-0.17768183;-0.07462902;-0.1993567;0.06546518;0.028095897;0.02426691;0.10533498;-0.037510302;-0.06079293;-0.1755167;0.17683598;0.10845605;0.12834422;0.29008865;0.040817875;-0.12622319;0.06228177;-0.070612185;-0.12435855;-0.13489342;0.13361657;0.25131196;-0.01712496;0.08255539;-0.072643794;0.06555228;-0.0487002;-0.025093675;0.14375041;0.0066808476;-0.12375878;0.012513696;-0.054698132;0.024355154;-0.14778447;-0.03412435;0.25981656;0.02227713;-0.050936494;0.119404346;0.035879582;-0.1581787;-0.09472786;-0.091936015;0.05794582;0.12050922;0.5149092;-0.10335452;0.2820256;-0.13321875;0.015535363;0.21107672;-0.12550434;0.005324572;-0.22003114;-0.13068633;-0.049027532;-0.17583917;0.048628945;0.06976131;-0.20462096;0.37293836;0.047868144;0.12830208;-0.045498345;0.077790596;0.10951926;0.19821355;-0.19196746;-0.1971673;-0.055458855;-0.05875894;0.121514715;-0.013307001;-0.048879944;0.022740722;-0.20477727;-0.024109833;0.036179606;-0.2724146;-0.1851274;-0.011688694;-0.012183092;-0.08022274;0.0042966856;0.08763245;0.008712916;-0.018297406;0.048378725;-0.051616725;-0.2791946;-0.032259002;-0.001902846;0.024930703;0.45691153;-0.034498706;-0.023236321;0.05235431;-0.034753036;0.08546838;-0.07222713;0.073542014;0.08514103;0.12873174;-0.033492077;-0.09014979;-0.033387605;-0.12191198;0.11437834;-0.04759918;-0.08043099;-0.14217128;0.22019371;-0.106595576;-0.13743652;0.25839567;-0.14789893;0.09213132;0.1537887;-0.08030182;0.069295146;-0.016909113;-0.03718289;0.13874666;0.10199907;0.03656731;0.017252343;0.35715574;-0.0006341722;0.11748861;-0.122049354;0.068366125;-0.11404479;0.122804716;0.08247743;0.084484115;0.25778764;0.072534926;-0.0967745;0.10469808;-0.10141585;-0.0488723;-0.09943893;0.12838115;0.2398919;-0.021679461;-0.07309813;0.11751287;0.25498846;-0.04064827;0.15559177;-0.010175478;-0.15099888;0.0030036427;0.0726649;0.010862364;0.13048264;-0.12955734;-0.05643826;0.018748363;-0.14147153;0.1033143;-0.13227051;0.012072357;0.10120889;0.15757416;0.044196103;0.061513845;-0.020644406;0.06555002;-0.07681836;0.059326332;-0.15918307;0.017135534;0.18427135;-0.23671487;-0.101157874;0.1973267;-0.29651365;0.123008296;0.09391239;-0.055430263;0.19264638;-0.08442119;0.087113656;0.023573702;0.0716234;0.015328736;-0.17490293;0.123361915;-0.23167387;0.0032253535;-0.0362126;0.24803391;-0.095519274;0.024450365;0.14539611;-0.03590844;-0.11773035;-0.06851272;-0.12443077;0.22989832;0.17148241;0.11943836;-0.05146094;0.045084625;-0.23997846;0.048444178;0.042174585;-0.03806885;-0.2117093;-0.030098973;0.21670942;0.13182986;-0.14839627;-0.013946048;-0.18263832;0.12437278;-0.15151608;-0.15575016;-0.1333359;-0.13073863;0.1287896;-0.015872179;-0.027220909;-0.23922892;-0.114036694;0.030655058;0.14154251;0.19151129;0.1176041;0.09061098;0.11691831;0.12028766;0.030436337;-0.13081229;-0.20353876;0.1295048;0.019801216;-0.006134912;0.1272607;0.08940279;0.04045456;-0.1626715;-0.01383153;0.0632492;0.111874186;-0.006216276;-0.098184146;-0.07401543;0.1995631;-0.10031784;0.08261342;0.22109544;-0.10517543;-0.05670322;0.045395758;0.029198177;-0.038476534;0.21702066;-0.11559733;-0.032425206;0.09349908;0.15904711;-0.27338544;0.1656344;-0.0809495;-0.1317986;-0.050856467;-0.16724238;-0.2502209;-0.09748355;0.019773452;-0.007942975;0.12225387;0.2111369;0.017113836;0.026968895;0.018477142;-0.17555451;-0.039512265;-0.041172057;-0.01909832;-0.0719224;-0.14927271;0.13428314;-0.11464128;0.07393474;-0.04006204;-0.04301511;0.00039169684;0.016749755;0.15538763;0.022733457;0.14360955;0.14030072;0.0054338076;0.05536588;0.05258395;-0.0050334902;-0.08008241;-0.054718953;0.026435697;-0.0968558;-0.1573762;-0.026326453;0.06449241;0.03115931;0.061842766;0.017767882;-0.07919321;0.006499973;0.030206475;-0.13544315;0.2827482;0.0057456344;0.05457972;-0.14294115;0.042498346;0.03541131;0.1202145;-0.017338896;0.016360532;0.10597088;-0.026098555;0.26313496;0.042522017;0.04393587;-0.12247485;0.021094264;-0.09983869;-0.17661713;0.14528483;0.095834956;-0.22840929;0.08689266;0.18676671;0.023690315;-0.053671695;-0.16903423;0.016068626;0.0037486493;-0.05692494;0.00032667353;-0.041936927;-0.15139987;-0.12445778;-0.04681828;-0.27353263;0.08887155;0.023170853;-0.2829947;-0.33500618;-0.112611994;-0.11302659;-0.009408207;-0.21505849;0.07453458;-0.17275016;-0.06386079;0.044572372;0.07452621;-0.15504141;-0.04249728;0.18957928;-0.004109917;0.08893054;-0.118113555;0.11358376;-0.16845231;-0.12426798;-0.0009217813;-0.015821744;0.16262491;0.08626232;0.0058573973;-0.015751226;0.095226325;0.055588752;-0.093869075;0.18759312;0.0022029488;-0.07423289;0.01327743;-0.10440727;-0.004108185;0.1003181;-0.18293126;0.02406147;0.025907952;0.27108535;-0.087343305;-0.25187695;0.26845852;-0.02920858;0.08661412;-0.0015197676;-0.04705013;0.106043816;-0.08657055;0.13338901;-0.1677008;-0.10201052;-0.025064752;0.14025657;-0.087474406;-0.060868166;-0.08883804;-0.07796283;0.12476116;-0.014599743;-0.18973808;0.1151621;0.10808132;-0.035596512;-0.008543425;0.09662802;0.17601566;-0.06744716;-0.022312706;0.24691883;0.057839125;-0.122251235;0.1089343;0.020011783;-0.041291833;0.024841873;-0.038724147;0.09965725;0.10946405;-0.20034845;0.0699082;-0.0073247077;-0.23859444;0.1306692;0.16697443;-0.083385;0.042746738;0.073059544;-0.04599579;0.09307001;0.16897912;-0.18305963;-0.104366966;0.06766911;0.037331227;0.18520822;-0.07744233;-0.08236451;0.08516541;0.009834106;-0.016975192;0.13857765;0.16533837;0.2818588;-0.17456533;-0.0507395;-0.063687965;-0.14118984;-0.060602102;0.017798005;0.22429277;0.051944166;-0.12695654;-0.008902146;-0.102186315;0.22816975;-0.034177553;0.03594818;-0.04372388;-0.069315396;0.063558444;0.011528324;-0.25852323;-0.12593876;-0.014842418;0.030716065;-0.16563612;-0.4328935;0.12572594;0.09943842;-0.018425383;-0.008304401;0.010442636;0.13150056;0.05480649;-0.10355046;0.17677385;-0.21795987;-0.06244569;-0.2029986;0.030602954;-0.0069339518;0.088302;0.110821314;-0.10409544;0.18179058;-0.058322463;-0.035044633;0.10429486;-0.13528804;0.20760442;0.02114899;-0.08307709;-0.23867467;0.030175917;0.09048209;-0.09445753;-0.08262605;0.10516039;-0.008395736;0.045703344;0.19522858;0.04278938;-0.14227268;0.13408597;-0.15948397;-0.068108335;-0.04600131;0.16201134;-0.03898912;-0.0407244;0.08013869;-0.27155134;-0.083050594;0.12022067;-0.15944184;0.13699093;-0.026683945;0.15477827;0.17641665;0.1530634;-0.096857525;-0.128796;0.22248502;-0.13996233;0.13219826;-0.08307431;0.0754096;-0.0469283;-0.20723791;0.051905088;-0.022082506;0.21307974;-0.14338571;-0.13413645;-0.05749186;-0.03597623;-0.14718738;0.051692646;0.068916425;0.09116198;0.1517372;0.08206943;0.09969634;-0.03917777;-0.043944582;0.1925518;0.06645693;0.08524183;0.40452048;-0.114691205;-0.03394037;-0.102275684;-0.109972976;-0.104567565;-0.0037389663;-0.0040864637;-0.09409279
-0.046811063;0.047750685;-0.04173041;-0.18591972;-0.17319007;-0.07287067;-0.019524282;-0.13344705;-0.06212797;-0.0805444;0.067222394;-0.012454247;0.15937994;0.1282836;-0.08932156;-0.061161473;-0.16272809;0.18428095;-0.007919194;0.035587687;0.18312688;0.036691245;-0.09195703;0.05512193;-0.031391736;-0.08580572;-0.09036353;0.05247354;0.25128418;-0.19013423;0.034441974;-0.06835211;0.12254852;-0.011739194;-0.124782026;0.08757137;0.020685975;-0.21908543;0.021482332;0.034810673;0.101429254;-0.04769643;-0.0614623;0.19013996;-0.12434484;0.013786878;0.1124067;-0.12866142;-0.14193748;-0.13329482;-0.06707697;0.17989123;0.11632113;0.5301374;-0.075325795;0.13830888;-0.07266243;0.031676564;0.041724145;-0.060085185;-0.006995598;-0.19334649;-0.053461466;-0.05192912;-0.18012781;0.020299224;0.025762718;-0.26648507;0.3856291;-0.00136024;0.008340439;-0.061084263;-0.091149285;0.20161103;0.19943987;-0.1814978;-0.17048533;-0.082794465;-0.06816581;0.15741931;-0.055990677;-0.23891716;0.09139023;-0.16876674;-0.1313637;-0.013658005;-0.18266287;-0.14676456;0.07608133;0.04552132;-0.1057806;0.11920393;-0.08968529;-0.07759301;0.035415597;0.12623368;0.08022453;-0.43507385;-0.108191684;-0.08454659;0.12962851;0.40702048;-0.06317815;0.039194196;-0.022958951;0.06780274;0.057458524;-0.08393251;0.079267524;0.09101436;0.1760807;0.08826193;0.0032765272;-0.1310505;-0.15690537;0.09295931;-0.13520546;0.08452894;-0.102447234;0.38257542;-0.04429718;-0.09203613;0.20336026;-0.16806097;0.07094761;0.12645178;0.07296094;-0.06536851;-0.047440473;0.039126463;-0.05089613;0.11843374;-0.082136534;-0.10610481;0.39327163;0.10836978;0.018577015;0.004922854;0.068478785;-0.17859979;0.22336978;0.065514155;0.15321435;0.39185405;0.1359248;-0.06939754;0.036789034;-0.12472227;-0.07986122;-0.08482373;-0.04733785;0.34666544;0.08889371;-0.20889068;0.15239282;0.12370709;-0.054066513;0.09378946;0.012033406;-0.15741673;0.102458954;0.028380744;0.07854312;0.036567036;-0.056741193;-0.0027856482;0.0125969015;-0.066041335;0.08889708;-0.108565465;0.008101011;0.06362949;0.06392982;0.086431235;0.044680852;-0.049961936;0.09241021;-0.045973904;0.019605493;-0.048032645;-0.011789321;0.07195029;-0.19648497;-0.06835755;0.19202642;-0.24867776;0.10488917;0.049466796;0.045871466;0.13676332;-0.060735136;-0.105311394;-0.011061689;0.049632665;0.04396376;-0.20441084;0.028334904;-0.1331534;-0.102343865;-0.08153967;0.28606194;-0.1162413;0.07586689;0.13054334;-0.05895335;-0.017598417;-0.14986166;-0.15757942;0.34658208;0.0352844;0.11129578;-0.03653911;0.009473772;-0.20878759;-0.021858713;0.14627779;-0.023246776;-0.1813803;0.045226045;0.104441695;0.11262185;-0.07082164;0.030347034;-0.18411133;0.1184366;-0.17858168;-0.05392448;-0.22260861;-0.010384061;-0.02090777;0.12321984;0.046136092;-0.31315783;-0.18728186;0.081237;0.24830192;0.16591182;0.1341645;-0.047560938;0.060497608;0.023696711;0.10732242;-0.15119085;-0.1991155;0.23307142;0.078233406;-0.107366;0.04362255;0.011406337;0.08803348;-0.15335782;-0.12058238;-0.0023392148;0.0033768998;0.049519617;-0.114036374;0.041883886;0.13403085;-0.13608047;-0.048889317;0.05114873;-0.19650239;0.019605646;0.077732526;-0.052144088;-0.18077356;0.23798943;-0.04317433;-0.004141047;0.2290078;0.10446793;-0.27135214;0.2128307;0.021347722;-0.1655397;0.016714538;-0.123650834;-0.11402062;-0.023950592;0.052381486;0.0211652;-0.0061560133;0.30909652;0.06573392;0.098912;0.009874317;-0.043612216;-0.11087267;-0.09451623;0.07902068;0.016442321;-0.047424782;0.060712017;-0.100185245;0.049096145;0.0908829;-0.0050847097;-0.021815564;-0.035846904;0.073276386;0.0028397164;0.17921472;0.077220835;0.0904347;0.130084;0.033472236;-0.0484092;-0.073587336;-0.09439987;-0.08262782;-0.15299207;-0.1706961;-0.05361217;0.16606185;0.05212477;0.017789459;0.0018119735;-0.20568706;-0.044393126;-0.11024865;-0.2203064;0.22845025;-0.16601256;0.13351685;0.00090707466;0.076663814;0.21422543;0.22376336;-0.14691943;0.18474224;0.09936606;0.05002963;0.24091694;0.12353327;0.074007146;-0.04327707;-0.15679252;0.02073965;-0.2771958;0.1482435;-0.08184489;-0.3203871;0.039143477;0.2644663;0.019431677;-0.020536933;-0.18648297;0.05915519;0.05781899;-0.035488393;0.043449685;-0.041408088;-0.032845702;-0.08158547;-0.076799065;-0.18796211;0.05331174;0.0667582;-0.18940774;-0.32830912;-0.271183;-0.012415963;-0.056798328;-0.20992137;0.0502673;-0.0415988;-0.07623523;0.07416914;0.01141399;-0.14592272;0.067294925;0.39239687;0.01824745;0.089184545;-0.17375779;-0.038729675;-0.15948707;-0.12360502;0.041331805;0.01982366;0.11628115;-0.119368024;-0.016907565;0.10525494;0.07897746;0.01309488;-0.05155057;0.05742961;0.02861886;0.02900771;-0.086194105;-0.066164315;0.006988432;0.05964682;-0.096071124;0.05481766;0.025787322;0.16389479;-0.106397785;-0.1531542;0.25081554;0.13331187;0.14455166;0.0045087766;-0.13420674;0.047423787;0.097457364;0.018468501;-0.12691128;-0.11898476;-0.034508713;0.12484738;0.044383507;0.1367908;-0.09656785;0.059324756;0.07127421;-0.07595711;-0.14759466;0.07253488;-0.017074166;0.050746635;-0.118272625;0.16414143;0.32780078;-0.12884894;-0.052857906;0.33252352;0.08891207;-0.17360914;0.14144546;0.060069118;-0.17787439;0.050847135;0.060752835;0.2681613;0.089097634;-0.08163997;0.054526832;0.07595059;-0.1961694;0.08194452;-0.011168238;-0.15732104;0.15966213;0.025897285;0.026862731;0.16121103;0.17489561;-0.16471818;-0.12954658;0.1561129;0.09055473;0.2962506;-0.017441746;-0.030638902;0.07944833;-0.108016536;0.09518661;0.07855131;0.051685907;0.22062653;-0.20808162;0.01202488;-0.0007737288;-0.21755487;-0.19880621;0.16264816;0.11967736;0.041784614;0.036900356;0.031513833;-0.21562466;0.06751747;-0.17412664;0.054112345;-0.13000783;0.037113354;0.15381512;0.055435237;-0.15973154;-0.10474116;-0.06751765;0.15683903;0.006857534;-0.4686671;0.14355643;0.16024487;0.1504775;-0.025078591;-0.0031289156;0.16193669;0.008629676;-0.03568426;0.039385453;-0.18323027;-0.13233733;-0.28826052;-0.016219456;-0.0037312743;0.16515116;0.10822563;0.03296756;0.088568866;-0.1025762;-0.05349833;0.13602838;-0.085530065;0.1471124;-0.10514927;-0.22537526;-0.16625558;0.0066652363;0.15826522;-0.13994947;-0.07181229;0.15625922;0.0655799;0.1175331;0.22293502;0.086421706;-0.21988516;0.13613221;-0.20032498;-0.08327515;-0.11430492;0.124518454;-0.020255966;-0.070243046;0.07067042;-0.23915377;-0.12610956;-0.04116145;-0.03520187;0.08638263;-0.08600614;0.058322795;0.18637437;0.19883563;-0.15931746;-0.18830745;0.1717202;-0.17884408;0.14277233;-0.02396324;0.044537082;-0.11328799;-0.18724509;0.071278386;0.006828583;0.057365905;-0.121740066;-0.20087448;-0.09729719;0.12903574;-0.24858469;0.080976136;0.0994221;0.09386008;0.16108112;-0.021039959;0.011539734;0.043997444;-0.18409699;0.18304253;0.079786986;-0.003924477;0.44505265;-0.045796834;0.09317436;-0.054533556;-0.034750186;-0.07626684;0.11487421;0.039331406;-0.16346611
-0.0028304253;0.12950078;-0.046742592;-0.1094095;-0.13318086;0.0033517443;0.11453427;-0.05818351;-0.063743755;-0.2620498;-0.027198035;0.11202125;0.14059712;0.09983154;-0.124573946;0.10547696;-0.26288968;0.2464926;-0.04353272;-0.043627728;0.16554047;0.06906815;-0.1821091;0.045918826;-0.07965885;-0.021796303;-0.070723586;0.1749198;0.24196443;-0.21849757;-0.026053468;-0.13512327;0.20376264;-0.09700475;-0.11258162;0.009975609;0.12562463;-0.21317524;0.10098919;0.038299657;0.07626908;-0.056541644;-0.13120085;0.30261454;-0.18843387;0.022201577;0.08892396;-0.062172145;-0.16587561;-0.038367707;-0.10843237;0.26755226;0.055305365;0.43361786;-0.0049192854;0.13085097;-0.03438922;0.16762799;0.054743845;0.053069875;0.049038343;-0.20109299;-0.11235271;-0.018847415;-0.1787772;0.10686724;0.10554569;-0.26442277;0.37373373;0.021238232;0.055064265;0.09289492;-0.08466035;0.14351451;0.1857499;0.027455764;-0.16146709;-0.029812371;-0.16181947;0.23057657;-0.084624484;-0.17882092;-0.038608745;-0.2104287;-0.09678077;-0.023296313;-0.13704534;-0.16837618;0.15168153;-0.05868609;-0.1046737;0.095908396;0.06141007;-0.013894785;-0.05766968;0.17011932;0.0931596;-0.36238837;0.025947547;-0.039012164;0.16150713;0.32052884;-0.02942234;-0.092926025;-0.029268684;-0.021577783;0.08356064;-0.06635393;-0.018425208;0.21902569;0.21898176;-0.05157478;-0.0500167;-0.06712926;-0.2030029;0.13120663;-0.023611568;0.19235818;-0.02804031;0.40412822;-0.21448877;0.009958647;0.11776701;-0.14581628;0.1319259;0.14949846;0.0053897304;-0.0008652016;-0.13084485;0.10292202;-0.073886104;0.11264872;-0.05642128;-0.20975392;0.3200751;0.17148551;0.017277665;-0.06382687;0.13130756;-0.12243285;0.2187349;0.18294309;0.05073881;0.36746955;0.10712168;-0.2249199;0.09735979;-0.19106854;0.05138376;-0.050365597;0.052759197;0.24357873;-0.098951265;-0.024138765;0.07738586;0.079919055;-0.09492613;0.05456319;-0.09050077;-0.060947586;0.09787649;0.045682475;-0.09002268;0.082609616;-0.04005823;0.0015973139;-0.10946829;-0.056851216;0.102840364;-0.035655264;-0.10350252;-0.007592872;0.0007067812;0.13067673;0.17535476;-0.06529471;0.05919359;-0.08200112;0.10639104;0.052638132;-0.07763695;0.04008131;-0.27810612;-0.03487605;0.17531545;-0.24376372;0.10034357;-0.024734635;-0.061391793;0.2468453;-0.046857804;0.022495853;-0.067970596;-0.055935614;0.09548803;-0.17783695;0.06962533;-0.040269185;-0.21573909;-0.19831756;0.21920899;-0.20111726;0.0043010456;0.2099792;-0.08495999;0.0765698;-0.23715708;-0.20881428;0.14989075;0.10248895;0.15339823;-0.032435186;-0.060563736;-0.1957581;0.032720152;0.14449951;-0.092686065;-0.19889776;-0.0146370595;0.20517364;0.17742646;-0.11636911;-0.020405395;-0.11408563;0.11985559;-0.17579685;-0.20676802;-0.2213474;-0.111673914;-0.028534139;0.09317323;0.17258213;-0.28067878;-0.065743044;0.014097949;0.10737013;0.16705625;0.050238017;0.06855726;0.07573621;-0.05541121;0.10439848;-0.10180127;-0.2606279;0.2296216;0.113884084;-0.13808882;0.020903436;-0.04876;0.18899266;-0.09003522;-0.14388503;0.017991962;-0.017809344;0.062317964;-0.2062676;0.058919683;0.058403946;0.042993754;-0.05230659;0.053153407;-0.06173841;0.046085663;0.04576119;-0.11597311;-0.15398917;0.25521868;0.1308134;0.0667113;0.2565156;0.06049897;-0.25487757;0.37717763;-0.06321909;-0.12776473;0.12121329;-0.0042200936;-0.18789151;-0.11930053;-4.641895e-05;0.14050631;0.035738952;0.23647748;0.13401477;0.04537038;0.0611763;-0.14641333;-0.2215845;-0.00837254;0.05448393;-0.060992803;-0.15470639;0.08134817;-0.22878021;-0.0019393783;0.068092056;0.06445991;0.09429918;0.06651651;-0.052231796;0.028207645;0.28708595;0.15894818;0.117032915;0.01212389;0.08464135;-0.11537958;-0.044611454;-0.18652798;-0.04582849;-0.121092044;-0.15479463;0.06095268;0.192584;-0.040036757;0.02983059;0.01801632;-0.07905857;0.030033495;-0.042037886;-0.29292807;0.25717503;-0.08147132;0.15427017;-0.039192617;-0.022561874;0.09173375;0.28561407;-0.210854;0.035547588;0.09004907;0.08421697;0.3312792;0.08258933;0.06022923;-0.1378752;-0.10782317;-0.0018472667;-0.2239405;0.18892267;-0.037356984;-0.31939423;0.036276706;0.2056687;-0.09407245;-0.012037598;-0.14962073;-0.06889681;-0.045749106;-0.060538422;-0.004222254;0.09058846;-0.09674479;0.00072192244;-0.16397509;-0.17887387;0.24749053;0.047751516;-0.23500405;-0.25558913;-0.20288321;0.009857725;-0.11558836;-0.1888654;-0.06379658;-0.12769626;-0.033466745;0.017769758;0.16413929;-0.07886655;-0.04138788;0.3964877;-0.027450264;0.023002354;-0.24747089;-0.0034872692;-0.07883249;-0.07077531;0.043080382;0.06542137;0.11123609;-0.09783539;-0.011384195;0.14744055;0.035728443;-0.013819911;0.105936944;0.032765515;-0.054385237;0.040622164;-0.08503268;-0.039957855;-0.021111896;-0.05487927;-0.21099326;0.02046888;0.037405152;0.2105226;-0.078732304;-0.21021892;0.18633375;0.033069924;0.041459683;-0.06029031;-0.12243287;-0.050824314;0.0784843;0.026844459;-0.07646808;-0.08771989;-0.010561876;0.06195387;-0.07857566;0.045336906;-0.08664427;0.006729114;0.074416265;0.044134345;-0.2700526;0.014724033;-0.052532688;-0.024088671;-0.10262918;0.1257774;0.19832967;-0.09582167;-0.12166502;0.2556981;-0.045676284;-0.08860477;0.1768163;0.10997528;-0.0058202306;0.11123918;0.16363163;0.28070483;0.10552896;-0.07152665;-0.013927194;0.027043426;-0.19934508;0.20933098;0.072527416;-0.006226665;0.009306348;-0.054376088;-0.08953046;0.26359883;0.15983485;-0.086989306;-0.12993743;0.0072028823;0.14680563;0.31627473;-0.06421142;-0.09107513;0.08267242;-0.18300964;0.07641812;0.03439665;0.18342093;0.30540055;-0.040198144;0.014233063;-0.011351806;-0.1877623;-0.14003313;0.091117844;0.1691062;-0.030243019;-0.05296219;-0.011733816;-0.15463462;0.21847582;-0.25158527;0.15753546;-0.14482406;0.12918256;0.047486532;0.14461584;-0.11116807;-0.07032852;-0.0054882374;-0.0023587293;0.024246672;-0.39235634;0.13791072;0.24269429;0.041362558;0.061232705;-0.006638703;0.120502256;-0.034381445;0.08158675;0.1808836;-0.17241265;-0.1619887;-0.29959238;-0.06387833;-0.06622308;0.1168141;0.00804641;0.07326582;0.009235684;0.02364519;-0.08761971;0.10977403;-0.219173;0.17891733;-0.034598358;-0.23530956;-0.2309753;0.00855711;0.15506944;-0.07191179;-0.090115465;0.064860106;-0.05065167;0.11522264;0.16802087;-0.04010106;-0.35986644;0.025227504;-0.27752033;-0.00951476;-0.12420039;0.019440845;0.1541707;-0.028109068;0.21035612;-0.11836443;-0.12281206;0.03208665;-0.009711049;0.11647331;-0.07563247;0.084301576;0.13138929;0.039237745;-0.053521536;-0.123393595;0.029372614;-0.19808008;0.18852822;0.07169662;-0.17590962;0.07638297;-0.071037196;0.10645081;-0.14307234;0.28019357;-0.104101695;-0.23622188;-0.04853005;0.1351413;-0.16459921;0.1362301;0.15299031;0.12995552;0.16745868;0.11712782;0.13528448;-0.1484208;-0.17558186;0.13041702;0.042918343;0.038570423;0.36969694;0.075263076;0.03687011;-0.10460355;0.049127027;-0.032898918;0.123220444;0.086576626;-0.05202942
-0.005675023;0.027454073;-0.08547591;-0.12214941;-0.06362495;0.018694922;0.045574278;-0.20723222;-0.116715975;-0.1285157;-0.030176634;0.118907675;0.10211371;0.022220766;-0.07367322;-0.029912228;-0.27092806;0.33709145;0.07438254;-0.016010296;0.32813683;0.10052591;-0.18784733;0.12319852;-0.057972837;-0.050244052;-0.068587385;0.12886356;0.19537786;-0.022637263;-0.0040263864;-0.07788093;0.21042466;0.06547566;0.014870518;-0.0917211;0.13825245;-0.25346234;0.016251363;-0.0461259;0.06680833;-0.060522906;-0.046642687;0.2040307;-0.06305982;0.12295833;0.22464584;-0.0504426;-0.20628451;-0.011241946;-0.09126144;0.2588907;0.09636111;0.4996249;-0.052424844;0.16512428;-0.075025685;0.078556396;0.17330538;-0.015240894;-0.023216411;-0.22641319;-0.032712;0.035543595;-0.16076082;-0.013594885;0.06883472;-0.14150265;0.34966856;0.07970165;0.12421333;-0.017288882;-0.14392531;0.0807027;0.24297652;-0.094782576;-0.1764909;0.055753417;-0.18089052;0.15660176;0.007999661;-0.096468754;-0.068222664;-0.28494573;-0.04285832;0.08749459;-0.20346978;-0.029224489;0.18234123;-0.028874608;-0.10316378;0.098233454;0.044827048;-0.015264326;-0.046666566;0.14699835;-0.0318273;-0.42454082;-0.0777736;-0.054587685;0.10080936;0.40228385;-0.1702038;0.052895475;0.0120959;-0.12913805;0.10898261;0.017757306;0.07752305;0.17550604;0.20940019;-0.10546511;0.011011297;-0.043824837;-0.28982213;0.103990264;-0.053345796;0.039504893;-0.08155747;0.41014874;-0.15015303;0.05814977;0.16663171;-0.1374315;0.07049203;0.09776044;0.05173971;-0.010380201;-0.095632695;-0.029881643;-0.029921917;-0.012714557;0.0014216106;-0.008686851;0.32523367;0.0859493;-0.007956445;-0.056832574;0.03703454;-0.07575006;0.18027161;0.06692182;0.04195691;0.30886468;0.025587713;-0.3158183;0.110444464;-0.15939645;-0.15357971;-0.04160869;-0.042445824;0.22616865;0.01762875;-0.06550075;0.23445632;0.22619791;-0.123783626;0.19912414;-0.006082356;-0.09970957;0.051320404;0.06402318;0.057530638;0.019284464;-0.08735815;0.1290324;0.020597722;-0.13348983;0.10499583;0.073483035;-0.19466904;-0.028627852;-0.045698002;0.14516445;0.08490596;0.029983217;0.15009901;-0.17029317;0.116804555;-0.109511524;-0.17586754;0.11700895;-0.21819241;-0.18400487;0.24659917;-0.19771005;0.10842828;-0.0608141;-0.10220669;0.11795147;-0.01305366;-0.027014853;-0.101492584;-0.111624375;0.11023513;-0.16926187;0.14575237;-0.02711889;-0.23392195;-0.239347;0.16681415;-0.1627757;-0.0371892;0.2122108;-0.016341379;0.049853146;-0.07824772;-0.24181677;0.24743225;0.046637867;0.23151585;-0.121015534;-0.01498481;-0.187275;-0.073892124;0.13094203;-0.075008236;-0.26705393;0.04598902;0.24964553;0.20569995;-0.05436555;0.03942688;-0.04469059;0.0050344598;-0.22086602;-0.24521728;-0.18787424;-0.15844272;0.010179577;-0.03473247;0.0745543;-0.33754066;-0.043292325;0.013228466;0.25408432;0.014067437;0.0016860536;0.0125659695;0.023735281;0.04612778;0.12421008;-0.100828834;-0.26970005;0.13336158;0.24936609;-0.06618074;-0.013110772;0.08975987;0.0940979;-0.14590432;-0.022919929;-0.05114064;0.1280348;-0.016618438;-0.18191852;-0.07656654;-0.014237933;-0.08023584;0.026390143;-0.016244069;-0.048399247;0.073674016;0.11718783;-0.13780263;-0.14480725;0.31141514;0.064835705;0.087235875;0.0990679;0.08345686;-0.33738306;0.30131897;-0.066725574;-0.095443375;0.017771438;0.016197147;-0.21297525;-0.09232977;-0.017963246;0.09358131;0.12176354;0.2961191;-0.03510362;-0.057782143;0.024436597;-0.047732715;-0.08156939;-0.038494512;0.22139587;0.104506284;-0.07854509;0.12777539;-0.26569116;0.019549523;0.07908814;-0.045046754;-0.049791116;0.09017275;0.033822443;-0.089250006;0.23310068;0.1822836;0.020690959;0.12320359;0.051216688;-0.11513571;-0.022675125;-0.0695579;-0.07095091;-0.025391301;0.022970809;-0.030709906;0.13229723;-0.06878729;0.13480747;-0.034229465;-0.07184635;0.008419027;-0.0021141518;-0.2514769;0.3928287;-0.014735446;0.09782249;-0.12886108;0.019481482;0.22079988;0.18146607;-0.116172805;0.032309074;0.06981931;0.018641625;0.26659772;0.099319704;0.02874562;-0.05201602;-0.15376063;0.010810534;-0.26179743;0.0972972;-0.0345533;-0.1709956;-0.04559826;0.23067352;-0.09535137;0.103600234;-0.09633449;-0.019313654;-0.019065019;-0.100855745;0.073292196;0.031975504;-0.038780376;-0.019654248;-0.06770552;-0.1411002;0.22736761;-0.06677022;-0.25770873;-0.33563745;-0.19449915;-0.08370849;-0.02632069;-0.28087425;-0.059667386;-0.082408644;-0.04657275;0.07504409;0.18172017;-0.21658796;0.074676;0.30130664;0.048245672;-0.045514084;-0.20550321;-0.02981656;-0.1706245;-0.17077793;0.0023905549;0.041771766;0.14974211;-0.109564416;0.13233694;0.122156136;0.018684682;0.0073990384;0.09808023;0.21445175;-0.07089899;0.13606189;0.046615172;-0.20723057;-0.07815967;0.029339744;-0.19222356;-0.06882794;0.0040351325;0.21184558;-0.12861352;-0.2325832;0.03676429;0.11971731;0.028996607;-0.14701906;-0.17050347;0.090017244;-0.062183764;0.032146174;-0.21882515;-0.14602207;0.05204913;0.08771492;-0.12814972;0.0012745297;-0.12663935;0.020450596;0.14260226;0.10991578;-0.24887384;0.07627602;0.12213167;0.051221516;-0.08446199;0.14352117;0.15305638;-0.09405243;-0.101250574;0.21725763;-0.08165289;-0.08784614;0.18112686;0.019521695;-0.05165609;0.14634703;0.15305524;0.30506706;0.029099818;-0.039599605;0.063343324;-0.0800343;-0.17294425;0.030333139;-0.026576776;0.021851208;-0.026428143;0.09061073;-0.12301509;0.24746308;0.08408761;-0.14929317;-0.07496662;0.027598422;0.050591335;0.3268234;-0.02580038;0.010433307;-0.0005697839;-0.10955678;0.17323104;0.09848887;0.082468964;0.3603305;-0.12545826;-0.16229786;-0.07653709;-0.09328858;-0.08257925;0.09135828;0.056091513;-0.12401273;-0.09833281;0.08454637;-0.1908111;0.17399721;-0.18305065;0.1424927;-0.07559703;0.08269167;0.042152032;0.17067873;-0.07170174;-0.079611294;0.01270308;0.07697739;-0.061307024;-0.4270454;-4.765093e-05;0.02534163;0.14103499;0.049454123;-0.08590746;0.13912731;0.0311294;0.054069024;0.10700068;-0.2258783;-0.04748601;-0.30537856;-0.08621179;-0.040507294;0.23589918;0.0980855;0.024996715;0.068504594;-0.038357396;-0.16143128;0.11114261;-0.16377488;0.18086718;0.014065923;-0.21735242;-0.23558986;0.009521572;0.10404542;-0.06943934;-0.2036922;0.0701957;0.13346212;0.20966533;0.085808046;-0.08941804;-0.41210523;0.1751395;-0.33942613;-0.05542953;-0.06328798;-0.06294268;0.11775575;-0.11717207;0.11638703;-0.15171318;-0.0015071542;0.08819317;-0.12952073;0.070705;-0.075252466;0.082829855;0.2245209;-0.04314441;0.01134491;-0.15377265;0.14103034;0.031843755;0.14898372;-0.052630458;-0.037893083;7.9511454e-05;-0.03147654;0.13475733;-0.17336777;0.28220934;0.05402746;-0.21748409;-0.13279612;0.27588978;-0.123155415;0.047785006;0.18017112;0.17537281;0.1923308;0.056961183;0.12263032;-0.13193536;-0.27373925;0.17494366;-0.00062726834;-0.006465236;0.3393361;-0.10324486;0.052965328;-0.19545612;-0.06279198;-0.0691007;0.16080263;0.087748714;-0.066166416
0.06592569;0.28385517;0.16885617;0.21056251;-0.013782381;-0.0680954;0.09941556;-0.096505016;0.08764303;-0.1740751;-0.11927858;-0.14407024;-0.0112495115;0.26777178;-0.16145542;0.20930271;0.08196871;0.10986642;-0.123463534;-0.16319065;0.13324825;-0.039982263;-0.15024556;0.13290337;-0.22020292;0.22922511;0.3221298;0.16859342;-0.23403576;-0.22466773;-0.09405299;-0.105643466;-0.09538515;-0.1514126;-0.08614278;-0.24424815;-0.023326054;0.04056672;-0.0011230349;0.13807505;-0.11897557;-0.12664522;0.15105267;-0.24017182;-0.18908241;0.18318197;-0.23707417;-0.20588417;0.13244282;-0.3256891;-0.12821244;0.054868724;-0.18535352;-0.20996776;0.030975526;0.04872019;0.07821788;-0.07208709;-0.3278779;0.068894446;-0.02505918;-0.061628766;0.13825005;-0.21714045;0.14180526;0.24619725;0.1914566;0.034757845;-0.12261462;0.18111716;-0.07512083;0.12352872;-0.21137084;0.2219914;0.21562181;0.1601489;-0.02359766;-0.056273665;-0.1820529;-0.18060794;-0.11835422;0.0011307547;-0.32712394;-0.411444;-0.13528164;0.072896205;0.077783726;0.03324934;-0.09277949;-0.08862493;-0.06329293;0.059047744;0.016867088;-0.09359893;0.14743719;-0.0020844326;0.03222013;0.07790776;-0.09908145;-0.18118297;0.24001724;-0.15116078;-0.10868472;-0.25122002;0.09807256;-0.28518543;0.050623547;-0.123489656;-0.09529526;-0.11506095;0.03178994;-0.22055218;0.19259833;0.12348501;0.04272922;-0.30935287;-0.00038225774;0.28082204;-0.032721486;-0.042973;0.09826365;-0.04914194;-0.12998411;0.030764427;0.23434061;-0.13728604;-0.0076661347;0.079307705;-0.05742189;0.0044233864;-0.29962376;-0.16735712;0.10177085;-0.1895021;-0.24050143;0.008729533;-0.06962867;-0.06604844;-0.013450467;0.09144417;0.00647742;-0.06739471;-0.27889606;-0.29045048;0.040571865;-0.43428805;-0.09916342;-0.31035358;0.09494216;0.20264114;-0.020593155;-0.08917103;-0.0779157;0.19852838;-0.029416228;0.022221498;-0.11484965;-0.31763843;-0.05508835;0.10920487;-0.13834576;0.2513008;-0.32228705;0.32790253;0.020480005;-0.26730934;-0.15729173;0.0771735;0.1683546;-0.170741;-0.21620122;-0.3586107;-0.30691054;0.16328236;-0.20556585;-0.12724377;0.0035579272;-0.06782058;-0.07381195;-0.28196627;-0.15632865;0.11165524;-0.32801202;-0.09050681;-0.15338975;0.13314372;-0.12679882;0.22555828;-0.17126502;0.4281646;0.23015663;-0.11244091;0.054420818;-0.048833232;-0.23609142;-0.11988334;-0.21045806;0.20628564;-0.21593532;0.16409129;-0.13641642;0.05721964;0.04282633;0.3178703;-0.15828523;0.069439195;-0.13366657;-0.21451268;-0.06765053;-0.08120406;-0.1223913;-0.25502476;-0.062225617;-0.19286343;-0.12379912;-0.014098824;0.030992331;-0.12801583;-0.1085273;0.17579919;-0.0860418;0.007930779;-0.26983815;0.23023705;-0.09042576;-0.041364208;-0.0126347635;-0.25695026;0.12109189;-0.12148515;-0.024053572;0.14540361;-0.0012259362;0.022683615;0.20537736;-0.230983;0.010009561;0.04489564;0.021324936;-0.015032238;-0.18424031;-0.05141726;-0.08209589;-0.16540347;0.11323651;0.059887227;-0.13410386;-0.035284076;0.005720092;0.19341654;0.25769633;-0.0475941;-0.10513121;-0.026886713;0.052787006;-0.11300912;0.21981512;-0.029427718;0.18459214;0.17028946;-0.4944311;0.088883966;0.35999352;0.07169435;-0.270727;-0.11202337;-0.18103158;0.32168826;-0.0036729123;-0.06743022;-0.22941616;-0.06878792;-0.26205438;-0.2546856;-0.31835338;-0.013824074;0.3407876;0.023369111;-0.23281364;0.13480155;0.17789516;0.031903684;-0.07673484;0.23769507;-0.32155555;-0.003943918;-0.24043804;-0.16246206;0.10507476;0.027678497;0.16734123;0.017595984;-0.016391462;0.05814776;-0.27327636;-0.26980656;0.21026942;-0.19658922;0.24787885;-0.101090975;0.051414642;-0.14974138;0.106298864;0.21097423;-0.11610331;-0.015863633;-0.069741674;0.024658144;-0.044300027;-0.25819975;0.17997777;0.12400222;0.093874685;0.15254338;-0.15015934;0.1525316;0.13772926;-0.1195657;0.2038492;0.1743734;-0.17315397;0.025700556;-0.16925497;0.19530585;-0.31690252;-0.098708004;0.09762774;0.27897593;-0.18931626;-0.16391703;-0.25003657;0.068281785;0.01556364;0.22970587;-0.03412415;0.15037146;-0.33196372;-0.17657633;-0.071205385;-0.19564275;-0.23334347;-0.07387845;0.094283015;0.028825855;0.07581797;0.1367733;0.071748495;-0.095699176;-0.0008255414;-0.04885411;-0.1382652;-0.13367487;-0.07738951;0.02252952;-0.055721637;-0.10172466;0.19976482;0.00308556;0.27203494;0.099343605;-0.049963467;-0.2615523;-0.028235441;-0.06309776;0.11064745;0.05007818;-0.33128965;-0.12152002;0.11821004;0.00822153;-0.06525366;-0.028890476;-0.07345223;-0.30953702;0.016312988;-0.23669344;0.06451026;0.3292977;0.038144194;0.11918478;0.10425568;-0.16536586;-0.3530195;0.081972025;0.3045425;0.069377966;0.023197852;-0.25074092;-0.09068375;0.21580178;-0.074156255;0.06293625;0.048289064;-0.22569244;-0.37943485;-0.10324799;0.061396785;0.07277181;-0.15191415;-0.09633615;-0.2143015;0.24576561;0.078175806;0.020522138;0.1920873;-0.3450859;0.025362829;-0.38928562;0.025156138;0.23694716;0.10130993;-0.09378879;0.15884295;-0.005499812;-0.22542144;0.25897694;-0.20999688;-0.5117087;0.06432177;0.005200464;0.08289404;-0.06473281;-0.006049508;0.014093779;0.022437654;-0.12791488;-0.26858506;-0.37199795;-0.022739694;-0.07112198;-0.03586815;0.17282686;0.17704058;0.24563566;0.2354247;-0.0039258427;0.13684836;0.120313324;-0.303147;-0.18627925;0.12983823;0.34344932;-0.30761877;0.014721872;0.061383396;0.12222595;0.2181213;0.213637;0.3192953;0.039196458;-0.0031806992;0.1683394;0.05261387;-0.3291009;0.14891781;0.24438706;0.18535578;0.24175012;-0.03781824;-0.050231427;0.31172317;-0.09679235;0.26272562;0.17191148;0.1077123;0.004184217;-0.13374525;0.061983507;-0.14927508;-0.048066515;-0.10370668;0.07886483;-0.0811612;-0.27645233;-0.21645819;-0.2731348;-0.24090633;0.05834323;0.13432395;0.15684716;0.23740576;-0.004489427;-0.040992964;0.06746529;0.060048394;0.106932566;-0.09626249;0.20751119;-0.077819586;0.3824543;-0.24295563;0.060984023;0.22670391;0.13154574;-0.017471002;0.14557576;0.1765867;0.23171681;-0.13198145;-0.05725232;0.09613572;-0.21915478;0.16704667;0.193533;-0.06565433;-0.0529283;-0.063437074;0.29032788;-0.0019040593;-0.01674322;-0.13447893;-0.18933728;-0.030152814;0.22621328;0.11165441;0.2601491;-0.11976588;-0.13238794;0.105264544;-0.08860741;-0.17356658;-0.36384517;-0.19178492;-0.22448368;-0.080476195;0.120678164;-0.10769097;0.41830593;-0.17623736;0.04875113;0.19849859;-0.043188423;0.16047487;-0.15432708;-0.121362194;0.13385467;0.11393702;-0.22149079;-0.03764341;0.2433087;-0.0058324966;0.03277243;0.25265485;-0.34716094;-0.008525621;-0.16876337;-0.016701669;0.13850802;-0.07415454;-0.12250185;0.30617782;0.2808466;-0.13727331;0.21375306;-0.19807899;-0.039723136;0.1953043;0.10899781;-0.07200213;0.2887269;-0.027178222;0.092852294;-0.124748744;-0.3094549;-0.11454809;-0.04316017;-0.024163976;-0.18594332;0.1931357;0.19000992;0.0030466546;-0.01612993;-0.16507271;0.2070568;-0.0015857558;-0.23013775
0.035959363;0.028304769;0.07686905;0.028154053;0.14656416;0.038640916;0.35956866;-0.019206753;-0.0051126806;-0.18088111;-0.112159915;-0.08483941;-0.017363908;-0.018747503;-0.08300328;-0.10229889;-0.021909948;0.19683534;-0.040994752;0.03403419;0.16857858;-0.16947027;-0.19999915;0.0871907;-0.14728451;0.013570923;0.13610913;0.22932762;-0.1242757;-0.029124003;0.04449208;0.10300702;-0.25913706;-0.0075052497;-0.011638112;0.02598288;-0.14788274;0.022781778;-0.07518381;0.065572746;-0.25414655;-0.00030399734;0.22346848;-0.18490174;-0.091888055;0.078210875;-0.19638449;-0.25210354;0.21887271;-0.035189737;-0.035427887;0.009005518;0.04135602;-0.052891534;-0.14526919;0.08824522;0.034252446;-0.11640354;-0.09727392;-0.0683393;-0.025540415;0.03871773;0.030204086;-0.012808031;0.1864731;0.11942178;0.10504852;0.1582496;-0.25011778;0.12060939;0.022512555;-0.039243393;-0.30642107;0.13633278;0.056024373;0.030239519;0.2533277;0.07606342;-0.15648289;-0.22253385;-0.06071347;-0.040231746;-0.3018534;-0.04530628;0.025600847;-0.038439266;-0.023232698;-0.044390287;-0.23773868;-0.22244133;0.04977596;-0.10039767;0.1507452;-0.01455461;0.10474474;-0.14473961;0.022797866;-0.1623493;0.0069731134;-0.11955935;-0.003095051;-0.13705151;-0.166874;-0.06304945;0.3407389;-0.13580349;0.07097126;0.08811035;-0.01266828;0.041653633;-0.14506373;-0.0006623931;0.17081296;0.24258712;-0.23280376;-0.28007668;-0.17283788;0.09057694;-0.21209249;-0.0007557652;0.016148075;-0.31471995;0.1622996;-0.14335202;0.06726195;-0.008953653;-0.025387058;0.20720692;0.11249465;0.10637148;-0.054339807;-0.05649183;0.08927878;-0.072290406;-0.27300084;-0.042826407;0.045478698;-0.29371446;-0.009336546;-0.08441575;-0.22275604;-0.10611784;-0.037014473;-0.3024872;-0.0010716498;-0.4164593;-0.014940038;-0.14304914;-0.1293798;-0.088276595;0.22110051;-0.2503091;-0.021822635;0.14724103;-0.03616223;-0.036282502;-0.11005478;-0.11866372;-0.11167544;0.1778297;-0.17246364;0.01137181;-0.16272186;0.07792265;0.03159808;-0.11400518;-0.12284392;-0.13224146;0.09716276;-0.006784105;-0.053620514;-0.1297918;-0.16275969;0.021399477;-0.07260641;-0.0034520538;0.17436518;-0.030647732;-0.20416744;-0.07922155;0.10558633;0.28674048;-0.19556256;-0.031242887;-0.05665925;-0.1567378;0.050339777;0.11839264;-0.11009282;0.24508533;0.19582376;-0.013214307;-0.055761717;0.10868863;-0.007402386;-0.08733429;-0.39694828;0.020373585;-0.03269377;0.24067234;-0.08384168;-0.0023957796;-0.061524037;0.03127967;0.023529619;-0.06399344;0.023333712;-0.15422978;0.0588356;-0.026696444;0.057937574;-0.02887649;-0.12165834;0.11283328;-0.1794855;0.0542128;-0.06898436;0.029637182;-0.05297231;0.1811412;0.0027028748;-0.11843709;-0.07709882;0.03162255;0.0447068;-0.13924351;-0.16159634;0.009177796;0.0698847;-0.24463041;-0.053168327;-0.11758761;-0.02730396;-0.019327924;0.11256226;-0.11275045;-0.0036308193;0.13196127;0.0010948806;0.16379274;-0.039669227;-0.23380591;-0.0985395;0.016468322;-0.0059644775;0.085391276;-0.13569528;-0.17584768;0.02629675;0.11374064;0.055975888;-0.07860235;-0.16264574;0.15271747;-0.0029259545;0.16752103;0.13682267;0.06170682;0.04730686;0.040418845;-0.25414422;-0.062386647;0.13430053;-0.017574092;-0.14127995;-0.22772081;0.021494662;0.13579744;-0.04642251;-0.16759233;-0.37622765;-0.07906019;-0.25437483;-0.22189692;-0.13718337;0.06611945;0.2895085;0.10366894;-0.041467514;0.1084483;0.14171319;0.09637604;-0.0071183904;-0.013760396;-0.21797812;0.11396492;-0.12225592;0.10202819;0.0540479;-0.092981964;0.111689754;0.2898506;0.12804842;0.059698675;-0.19575863;-0.35325116;0.08472109;0.025172662;-0.0023994432;0.009994754;0.006369755;-0.16096035;0.06221456;0.012589918;0.25869116;0.027054904;-0.022489212;0.10349842;-0.07528978;-0.12551285;0.18597038;0.026196344;0.12341195;0.017786605;-0.110922515;0.21970707;-0.081001624;-0.12914912;0.0651215;0.005361054;0.039008096;0.07096656;0.04827081;-0.04643529;-0.1334558;-0.07750362;0.059228163;-0.122334614;-0.23684219;-0.13611993;-0.21708049;0.05902761;-0.01907933;0.023537084;-0.033923525;0.17687683;0.03892074;-0.10944065;0.14062178;-0.20743312;-0.13778888;-0.047741573;-0.06037411;-0.09597327;0.28980714;-0.03643206;-0.048628677;0.01212589;-0.05319007;0.043293506;0.03656286;-0.11485748;-0.12353114;-0.12853411;0.21501401;-0.30923936;0.011994575;-0.0007298152;0.14732097;0.20462498;-0.25535908;-0.12013783;-0.04485508;-0.090148866;0.19879606;0.027389431;-0.19434802;0.019660633;-0.0013262655;0.13460837;0.10447886;0.02888614;0.030756405;-0.124057256;-0.10769968;0.01154425;-0.036836036;0.04257964;-0.2095979;0.13453616;0.12116932;-0.059314996;-0.14972112;0.058062892;0.32207045;0.109933004;0.038678937;0.0013423914;0.04924308;0.082365915;0.09622014;-0.053722065;-0.058896862;-0.06358127;-0.27307954;-0.20943093;-0.011032257;-0.08413426;-0.122476935;0.052882954;0.03373092;0.23255503;-0.07772403;0.06854177;0.10774193;-0.1889807;0.033284917;-0.13577749;-0.10165079;0.2010702;-0.0026802584;0.01762652;0.049995653;0.016970525;-0.16154161;0.07333278;-0.039579123;-0.4559603;-0.03020663;-0.03031549;0.08763245;0.1135019;-0.067339405;0.12675062;-0.04587462;-0.18917878;-0.0816762;-0.32514673;0.0762484;0.05832004;-0.118371844;0.088667154;-0.05936051;0.0749653;0.06484006;-0.030894117;0.24739388;0.16884749;0.012954301;-0.13902745;-0.13009825;0.14077999;-0.3962832;-0.1403026;-0.008705638;-0.05665849;0.12072149;0.10274767;0.22157332;-0.14872746;-0.08135724;0.20588204;-0.06532554;-0.22192676;0.25773618;0.065918386;0.180808;0.17700347;-0.11768366;-0.06828856;0.11530117;-0.009998339;0.17824896;0.15551989;0.14232202;-0.040130436;-0.0010657728;-0.120770775;-0.08589171;-0.01518288;-0.23976773;-0.13604306;-0.013537106;-0.28574005;-0.19733447;-0.24144702;-0.1758887;-0.14815493;0.00976334;-0.044349253;0.19519801;0.014649866;-0.04249063;-0.04829051;-0.14302528;0.003323402;-0.1115228;0.05105815;-0.0116706295;0.15814577;-0.20449087;-0.03950037;0.069689386;-0.146465;-0.0441178;-0.11042157;0.10711281;-0.070586845;-0.010719217;0.15167458;-0.11572599;-0.08157557;0.11419903;0.050808776;0.037424468;-0.13110706;-0.09133669;0.24118958;-0.09604309;0.06544811;-0.07267991;-0.0934249;-0.10728921;0.03352978;0.08911897;0.11047795;-0.020637592;-0.15963909;0.083062254;-0.008199526;-0.23745567;-0.1307096;-0.090944;-0.18292746;-0.028676545;-0.027155994;0.039238755;0.3426792;-0.33804995;-0.2135827;0.07108774;0.11211184;0.12141146;-0.13370553;-0.18063875;0.1544348;0.061352134;-0.06340284;-0.0090412;-0.0023141238;-0.0101399375;-0.009050231;0.3326373;-0.07163515;-0.19401532;0.13203669;-0.08391811;0.0066796234;-0.07239284;-0.15108773;0.19802734;0.23861863;0.05034764;-0.0332136;-0.34723803;0.14628406;-0.05520494;-0.11220962;-0.19867852;0.02275446;0.2237459;0.22938246;-0.036577728;-0.1597568;-0.13458504;-0.26646417;0.07603747;-0.04546729;0.08065001;0.061388098;0.05214011;-0.07953396;-0.25789297;0.094716206;0.013553695;-0.21985777
0.1749979;0.11147832;0.053193636;0.063613825;0.14512981;-0.011078296;0.29980415;-0.034245692;-0.016571011;-0.081161745;-0.12425154;0.121121645;0.0680226;-0.103269376;-0.04621184;0.08858076;0.04948415;0.08940719;-0.09974607;0.020250885;0.07881092;-0.073317036;-0.042425722;-0.028899642;-0.054435026;0.050207328;0.07526795;0.017866597;-0.16813542;-0.0070521794;0.019533018;0.11992987;-0.046976577;-0.13514802;-0.15178277;0.18649532;-0.09432496;-0.01832831;-0.10686288;0.08137046;-0.3314193;0.087486036;0.12266775;-0.043246154;-0.13424492;0.07350013;-0.08751088;-0.32591495;0.13143511;-0.15795575;-0.10773978;0.068579875;0.10178971;-0.052920792;-0.09889728;0.11323246;0.09204942;0.01587447;-0.1510502;-0.010695942;0.030986907;0.057817962;0.014076676;0.09650287;0.17929856;-0.023080004;0.06382442;0.035603646;-0.011741305;0.04542509;-0.03244384;-0.18664269;-0.3093328;0.12953104;0.04967578;-0.117201895;0.051373497;-0.095606335;-0.07001049;-0.14804302;-0.042862613;-0.11316083;-0.08213757;-0.16286549;-0.16117893;0.06866131;-0.008773202;-0.12755704;-0.10853018;-0.20604326;-0.12243429;0.018289179;0.07443035;0.04682491;0.09972707;-0.03768713;-0.06964086;-0.16444464;-0.12253602;-0.061020613;0.040979773;-0.08835701;-0.26918897;-0.05432585;0.15282324;-0.062081505;0.023301441;-0.03833743;-0.088489175;-0.059192482;-0.02340314;-0.01734748;0.106072724;0.116647504;-0.20646748;-0.12753497;-0.30861187;-0.035994347;0.06638287;-0.10562904;0.22147;-0.19118243;0.043008402;-0.1812491;0.064697;0.054724183;0.007269594;0.034552403;0.053771757;0.23521428;-0.2621872;-0.1417599;0.1704266;0.034960084;-0.1781576;-0.15801789;0.07847127;-0.1255174;-0.019393118;-0.061170436;-0.13715726;-0.09983561;-0.14973879;-0.1048189;0.013812504;-0.30833066;0.13603425;-0.059518065;-0.0015311992;0.024865372;0.22526033;-0.1623524;0.085614614;0.072640516;-0.15813074;-0.030637488;-0.12697858;-0.0025423088;0.003925002;-0.008336927;-0.12741132;-0.021340244;-0.058850255;0.09078043;0.03612444;-0.16136654;-0.16808058;0.0048369;-0.017127492;-0.07242578;-0.12948334;-0.021851208;-0.15549509;0.096451536;-0.13902266;-0.03902702;0.09225069;-0.016117554;-0.17047;0.049742065;0.03653017;0.072698295;-0.2365282;0.004646589;-0.021856852;-0.088330284;-0.14942445;0.18066907;0.007238688;0.257535;0.19844346;-0.055644944;-0.052562118;0.21231009;-0.0075569805;-0.1892266;-0.44885278;0.07733025;-0.034193113;0.12475363;0.044024408;-0.031547703;0.09199681;0.00989096;0.07764137;0.02525968;0.097506896;-0.31362152;0.13743111;-0.10954378;-0.052823234;-0.047319632;-0.050613377;0.14004137;-0.28966528;-0.10438593;-0.055851966;0.06230033;-0.079344064;0.18775944;0.06333072;-0.075726;-0.09509899;-0.13746092;0.070284985;0.0025782122;-0.024768038;0.0053901756;0.16811357;-0.19087012;-0.013070925;0.018983193;-0.021125853;-0.10685887;-0.029391676;-0.11939205;0.07612902;-0.013745599;0.093097076;0.13087253;-0.008118089;-0.1397662;0.024908543;0.033865135;-0.09028165;0.0884862;-0.07773908;-0.014985084;0.15703607;0.06094591;0.032690488;-0.023343707;-0.0057536135;0.2937191;0.07253527;0.11708462;0.14268968;-0.06360376;0.12219444;0.068088405;-0.19558671;-0.045837563;0.117926665;-0.025080923;-0.1853712;-0.12271923;-0.080602996;0.1887198;-0.052818794;-0.06649795;-0.24941748;-0.09887434;-0.20622334;-0.07969983;-0.1667377;0.04153892;0.22988765;0.032754835;-0.07333434;0.059879135;0.103662185;-0.008775547;-0.07522312;0.09663101;0.0027688297;0.18084745;-0.008819978;0.03720702;0.13740572;0.06655026;0.08417277;0.41140705;0.05065113;0.08138213;-0.0711835;-0.13420992;-0.05060551;-0.032984387;0.043843057;-0.005458123;-0.022526992;0.014844461;0.009552988;0.02120313;0.17697302;-0.14158602;-0.08684901;0.08345916;-0.003983066;-0.19178282;0.09034019;-0.04685382;0.077877015;0.061289154;-0.091675244;0.09119985;0.040700987;-0.072553955;-0.05908392;-0.08980151;0.10028659;-0.11134201;-0.101725705;0.094268;-0.048333716;-0.0011003854;0.008620323;-0.01255739;-0.08351457;-0.19431297;-0.03974217;0.06193804;0.030143319;0.07332104;-0.18810184;0.25023004;-0.061197177;-0.18975614;0.07406451;-0.3059718;0.043400366;-0.13934427;0.021082658;-0.0053660097;0.19878408;0.043932125;-0.065829925;-0.06837804;-0.20397183;0.13639466;0.09118862;-0.053194076;-0.30444914;-0.08678017;0.0793517;-0.08834979;0.049568333;-0.016010975;0.088345796;0.14013115;-0.29339302;-0.09268404;0.0046439194;-0.1126475;0.0761383;-0.037861522;-0.18845433;0.03238882;0.10450255;-0.021239674;0.20400877;0.028890334;0.066682205;-0.21626079;-0.0027151823;-0.10117531;-0.07066816;0.057614807;-0.24488768;0.008839939;0.11797234;-0.08298345;-0.024987789;0.19613394;0.18905626;0.06190345;0.16483352;-0.10604013;0.0016641457;0.14271714;-0.18629019;-0.05513144;-0.030919587;0.0044279234;-0.14452359;-0.06536018;-0.11832325;0.08912851;0.051583894;0.23799744;0.025630977;0.14193387;0.17354201;0.024346767;0.23086403;-0.034516104;0.07443579;-0.18599659;-0.061175995;0.18560867;-0.067697674;0.0695227;0.12373967;0.0624292;-0.15000215;0.021409055;0.026200157;-0.4486667;-0.07093682;-0.038803637;0.1493799;0.030665478;-0.022141576;0.090195574;0.09631835;-0.12999262;-0.31425804;-0.25800067;-0.017068187;-0.04228285;-0.23888764;0.12213537;-0.12933269;-0.012655289;0.037222166;-0.007857643;0.1823998;0.11454283;0.07167981;-0.07589007;0.028618708;0.06545576;-0.26740253;-0.099344134;0.008541986;0.057274297;0.11824792;-0.007113696;0.09435445;-0.054006808;-0.08052512;0.27633798;0.038499333;-0.065841146;0.08693306;0.10811964;0.10061037;0.15439716;-0.14502314;-0.16265471;-0.04144393;-0.08140277;-0.04987851;-0.027754633;0.09618462;-0.20392495;0.0070490236;-0.19180012;-0.07832342;-0.01630593;-0.2956652;-0.07537845;-0.089467086;-0.11961524;-0.092641674;-0.16692632;-0.06310986;-0.033664662;0.12799431;0.0513582;0.03776701;0.08328064;-0.12736371;0.1101223;-0.06880553;0.087585464;-0.014908043;0.0528837;0.2410968;0.07141417;-0.1737472;0.074654564;-0.06860699;0.056674793;-0.14743178;0.10029112;0.16167895;-0.018014878;-0.14050506;0.15554689;-0.13797109;-0.037843253;-0.10232892;0.07911015;0.070673145;0.13159002;-0.090035446;0.30091053;-0.15725683;0.007500673;-0.12209475;-0.06382832;-0.042041484;0.031086273;-0.0050462475;0.102798186;0.018645603;-0.067650914;0.05585226;0.055445578;-0.10462208;-0.38922304;-0.11128378;-0.1657629;0.022207841;-0.06700051;0.03185867;0.22791198;-0.13223152;-0.093614265;0.10925429;-0.11245499;-0.0922599;-0.0074611325;-0.17539723;0.14298785;0.19185014;0.095591664;-0.18627284;0.022754263;-0.045505185;0.10645951;0.22245929;0.10642977;-0.09311923;0.19311081;-0.19072898;-0.07143742;-0.06993666;-0.10892588;0.14375764;0.29529965;0.19919507;-0.09058834;-0.2758382;0.1487914;-0.0022492984;-0.16825987;-0.1275223;0.09865145;0.11273357;0.105182976;-0.22264563;-0.06735147;0.00553998;-0.43057606;0.17684159;-0.12152598;0.042405665;0.07788058;0.09156986;0.011084257;-0.2801048;-0.05097767;-0.010194889;-0.278206
0.14602496;0.09242232;0.119040705;-0.10510811;0.042764664;-0.15598606;0.21804722;-0.11712139;-0.044318296;0.0034802165;-0.14681846;0.11043764;0.09230103;0.017208174;-0.16201015;0.14560391;-0.072955385;-0.05772991;-0.1016842;0.038491435;0.03810922;-0.15759645;0.0032097816;-0.04206134;-0.20195799;0.17115594;0.16477808;-0.045221858;-0.186285;-0.12188424;-0.13342607;0.08063129;0.10627213;-0.11890164;-0.14747806;0.16797028;-0.15098205;-0.018317372;0.011044321;0.05231351;-0.2893493;0.10665458;0.03237335;-0.02242359;0.005985889;0.010236457;-0.049214553;-0.13521369;0.13172057;-0.19696102;-0.10970151;-0.085436635;0.021188233;-0.1295491;-0.09164312;0.23461303;0.11027164;0.137443;-0.19406743;-0.058509417;-0.024160909;0.17947447;0.09606963;0.12562501;0.19253676;-0.024181195;-0.059893887;0.089007236;0.005244155;0.06987794;-0.016597468;-0.13531168;-0.3307619;0.064070806;0.05579854;0.044663318;0.09168655;-0.04551345;-0.07653804;-0.261269;-0.048104104;0.08063079;-0.07678044;-0.051732622;-0.16333136;0.027164452;0.17890461;-0.2118969;0.011972812;-0.08913937;-0.19252484;0.018484479;0.17280115;-0.073551126;0.08654458;-0.080304064;-0.11852269;-0.010867565;-0.12114874;0.038072024;0.11664453;-0.031900868;-0.16950563;0.018667001;0.0750585;-0.023145925;0.15954089;0.008824327;-0.11516105;0.09335461;-0.0682454;-0.065422244;0.013742474;0.14574352;-0.16684653;-0.13048173;-0.26708066;0.02910267;0.056211457;-0.03080413;0.1244394;-0.01096399;0.03214372;-0.19780615;0.04879558;-0.014544599;-0.037993617;0.14370005;0.14836392;0.060342852;-0.28042394;-0.11540349;0.19349748;-0.06386809;-0.11006199;-0.21152413;-0.051874667;-0.11830553;0.16084152;-0.07628463;-0.05927705;-0.16307446;0.09658123;-0.07692414;0.0160966;-0.26221606;0.09313268;-0.15168259;-0.04922508;-0.059122328;0.10739448;0.037849285;0.08329234;0.014278268;-0.20930322;0.07458477;-0.21994819;-0.13876346;-0.05116834;-0.055522904;-0.061853074;0.041652814;-0.02264944;0.07315593;0.016441835;-0.1885726;-0.19404908;0.13502763;-0.004993233;-0.20691614;-0.09165065;0.062309124;-0.023233064;0.027056098;-0.10736775;-0.19165066;0.10401117;0.05122993;-0.089499705;0.05645245;-0.004076505;0.1705793;-0.17710528;0.019637665;-0.17613114;-0.014821956;-0.15601753;0.10290539;0.004762737;0.13844657;0.22079626;-0.12722802;0.04168607;0.21306111;-0.037995677;-0.13286313;-0.46665707;0.08038806;-0.07704202;0.13657385;0.004576108;0.041512765;0.17727189;0.030307632;0.012502194;0.08542524;0.110123776;-0.15541208;0.003952876;-0.007966655;-0.11427494;-0.19908921;-0.08648774;0.04575713;-0.14953017;-0.026429188;-0.039801374;0.11881824;-0.17528367;0.02735066;0.059354566;0.18016492;-0.19252737;0.035542488;-0.004826847;-0.043169226;-0.14042184;-0.020648204;0.08477381;-0.12791397;0.1313716;-0.14208874;-0.057090405;0.012570217;0.049164135;-0.02694102;0.13552909;0.12922941;0.09149465;0.004556044;-0.0052190754;-0.22234175;0.07894043;0.006519701;-0.011761563;-0.043924764;0.0060910424;-0.23975524;0.15512888;-0.031205919;0.124932684;-0.12697905;-0.030788481;0.28891072;0.07951509;0.25158164;0.02691766;-0.10387263;-0.12028805;0.12686133;-0.1473918;-0.12342228;0.12906538;-0.1606389;-0.103698425;-0.001961802;-0.16386558;0.010694235;0.028947497;-0.072923906;-0.26714212;-0.15134583;-0.24052379;0.01374095;-0.2084547;-0.020609133;0.1156852;-0.13520783;0.07104009;0.18260616;-0.0022843387;-0.06994243;0.11391777;0.12529454;-0.046029706;-0.0092273215;-0.04297765;-0.16476496;-0.010375687;-0.104076356;-0.075209506;0.19856234;0.18661295;0.056348592;-0.10231837;-0.085733496;-0.006354177;0.05066751;0.032747563;0.12652272;0.059846908;-0.10024736;0.04170428;0.12730157;0.09255707;-0.11498125;-0.12103124;0.15544613;0.050505202;-0.23271805;0.025945991;-0.17025869;-0.06263053;0.0067192432;0.07133397;0.014805388;-0.06884701;-0.026268745;-0.058555588;-0.039946403;-0.02424004;0.027197322;-0.078414924;-0.026536724;-0.14655916;-0.0008794123;-0.0011645551;-0.022401527;-0.19771995;0.014188216;-0.1792956;-0.08631296;0.14682753;0.048384286;-0.13484053;0.2880704;-0.0041880477;-0.15416504;0.013377541;-0.23600678;-0.027641946;-0.02718018;-0.05179648;-0.021661073;0.1374295;0.052725326;-0.052041676;-0.04790774;-0.20033582;-0.025274511;0.09970432;0.010478791;-0.24910673;-0.0052785166;0.14582983;-0.037454333;0.030615564;-0.002498644;0.12159854;0.090795785;-0.3552802;-0.028024767;-0.055773545;0.15962224;0.105204456;0.04072941;-0.25973356;-0.11368295;-0.053391777;-0.03399418;0.13655064;0.14272732;-0.061514914;-0.2036248;-0.042127714;-0.0659256;0.031113856;0.23473191;-0.17935191;0.113233894;0.09521292;-0.12354406;-0.053731456;0.12917437;-0.06854914;0.007338489;0.113968916;-0.23052967;0.00096557743;-0.070006125;-0.07924324;-0.0049337936;0.053288728;0.113555014;-0.19566722;0.1671388;0.018717779;0.11589275;-0.1285795;0.10497749;0.0061952304;0.23365718;0.0534568;0.04887204;0.088180535;-0.13311204;0.18154426;-0.09611223;0.19659075;0.14805616;-0.08278408;-0.1941297;-0.03211752;0.09332505;-0.005333245;0.08243621;0.034882285;-0.38916382;-0.03657214;0.053915914;0.11986467;-0.015954107;-0.12183754;0.11083242;0.14585723;-0.14685512;-0.17826213;-0.15432192;0.19507094;-0.105068974;-0.15798913;-0.0067379116;-0.105458856;0.0699414;0.044247977;-0.18889625;0.14468609;-0.03990226;-0.04046213;-0.12350248;0.022258341;0.04331602;-0.2399808;0.05124946;0.053388115;-0.07259512;0.041425873;0.02178797;0.01523105;0.052379478;0.1113657;0.32476684;0.07493995;0.04164879;0.069303565;0.022199307;0.086490884;0.106050126;-0.14713466;0.0093670385;-0.07767484;0.031779565;-0.17058778;0.07330326;-0.0059541976;-0.27334633;-0.08062545;-0.19036596;-0.16754791;0.037027266;-0.22351414;-0.13296333;-0.015054638;-0.22480299;-0.08665414;-0.07455244;0.0012723404;-0.10031633;-0.014394783;-0.15755264;-0.1013754;0.08262306;-0.025334245;0.097516716;-0.001151679;0.07745838;-0.105531044;0.033465806;0.110064544;-0.03159436;-0.17530628;0.042493816;-0.25711635;0.0697506;-0.00813949;0.0899956;-0.008304907;-0.1442162;0.061843887;-0.0035343003;-0.23064674;-0.26670533;0.06347376;0.035758864;-0.12260912;0.12845159;-0.07344237;0.14131458;-0.19127646;-0.019406637;-0.030012734;-0.062237095;0.058998875;0.0078015034;0.039603826;0.04997779;-0.05181657;0.05856495;0.06446345;0.03890629;-0.03213643;-0.34604478;-0.06656293;0.094260365;0.011123434;0.004040886;0.049676143;0.11313926;-0.16510518;0.00021117047;-0.053530112;-0.06443221;-0.026297543;-0.056403857;-0.09102726;0.1650789;0.22682513;0.07972487;-0.1687196;0.100917;-0.037869267;0.10131324;0.14584659;0.022090815;0.09050675;0.25578266;-0.108686104;0.0010373298;-0.03351433;-0.17755158;0.16348688;0.11099454;0.14028622;-0.07800919;-0.045500077;0.22149093;-0.015723819;-0.17278151;-0.16777708;-0.059956852;-0.036970142;0.014936054;-0.07462988;-0.101548895;0.07929526;-0.36668396;0.27301168;-0.16432746;0.10542119;0.010168491;0.07540821;0.06550611;-0.30555865;0.011757985;0.0009977241;-0.21758088
0.041092794;0.011218501;0.2259706;-0.014940818;0.03329977;-0.077355094;0.26424515;0.05763018;-0.1320451;0.07255319;-0.16621141;0.10158695;0.13036197;0.054474767;-0.14554623;-0.00079030945;-0.0076407003;-0.038565252;0.009515228;0.017192341;0.16066204;-0.13245475;-0.115275696;-0.043891754;-0.04048543;0.13091245;0.109946005;-0.040010456;-0.11984052;-0.091141224;0.050748173;0.031049153;0.022134012;-0.05547337;0.079061896;0.047363866;0.04696074;0.10625711;-0.001777769;-0.12152164;-0.19492197;0.08859071;0.003422862;-0.0252332;-0.03127176;-0.11432368;-0.11094879;-0.01779598;-0.01588805;-0.10285419;-0.17220682;-0.05749816;0.1347291;0.002339853;-0.111665785;0.057969004;0.14213079;0.1495626;0.010505524;-0.020568637;-0.025996985;0.065725505;0.14420897;0.07029978;0.09827766;-0.023194363;-0.08231852;-0.0039986568;-0.10422641;-0.012986043;-0.07066137;-0.09694734;-0.24448605;0.02359123;0.01011584;0.09648678;0.10887983;0.050802693;-0.16478857;-0.22818005;0.04917349;-0.069150425;-0.11049972;-0.060711805;-0.17196313;-0.026549239;0.0114786755;-0.11257634;0.06238867;-0.02878563;-0.15914036;-0.039474025;0.06740162;0.08828972;0.16039199;-0.03703435;-0.092542365;0.07010858;-0.15132435;-0.030356113;0.08784397;-0.0055573345;-0.09422168;0.026139168;0.0325129;0.06738215;0.120473646;0.05823581;-0.045690425;0.04063611;-0.061627205;-0.021365577;0.031247808;0.14253587;-0.05829103;-0.05652826;-0.12236405;0.05462997;-0.046928097;-0.07561957;0.08813936;-0.17378841;-0.06144121;-0.1375017;0.030223362;0.016388377;-0.010244979;0.23694456;0.13267659;0.020920932;-0.029589392;-0.043359753;0.017214814;-0.12823933;-0.20388171;-0.15808035;0.054977883;-0.10123204;-0.009410283;-0.16665033;-0.031191537;-0.07305844;0.14997943;-0.015104287;-0.028194152;-0.22320555;0.10374793;-0.10540139;-0.07168998;0.055776376;0.038266394;-0.02619986;0.025336692;-0.0037165594;-0.15027153;-0.092892684;-0.24022064;-0.14571467;-0.18424903;-0.06804073;-0.22722253;0.041845754;-0.017408406;-0.016639953;0.087537505;-0.09860697;-0.06520764;0.068380415;-0.0531499;-0.2200925;-0.0058786543;0.04118159;-0.07330822;0.072900206;-0.2061411;-0.14763685;0.15324399;-0.008798042;-0.32029063;-0.12234362;-0.04975276;0.101055905;-0.3094209;-0.035247616;-0.13383533;0.007716486;-0.060440164;0.1371219;-0.052069105;0.12507334;0.04525312;-0.04124404;-0.102612846;0.020275712;0.005461173;-0.0654127;-0.38928175;0.020205704;-0.019884795;0.03915894;0.059834503;-0.0006682361;0.26171952;0.13859227;0.0264794;-0.051694475;0.06281536;-0.24719639;-0.011004528;-0.14821267;0.030256873;-0.10796359;0.031609744;0.0037334044;-0.12469246;-0.018562965;-0.16521992;0.018596962;-0.11825654;0.04215625;0.0021971122;0.13717051;0.010083343;-0.014783385;-0.023099676;-0.11077401;-0.11986293;0.052097782;0.05391921;-0.2603454;0.08985115;-0.1372444;0.08420882;0.09237319;0.15363967;-0.110371575;-0.011361109;0.071729004;-0.04030304;0.057974964;-0.1536045;-0.13642801;-0.027417379;-0.055557538;0.06039471;-0.17466125;-0.029092409;-0.08156038;-0.039741136;-0.058513552;0.06663459;-0.30299795;-0.0338352;0.04962732;0.064397074;0.17962188;0.066861875;-0.051577058;-0.0077073434;0.08989422;-0.18799159;-0.20233521;0.12844655;-0.12613036;-0.09070699;0.052714586;-0.066955425;-0.050469305;0.040066216;0.11802005;-0.19309758;0.016427925;-0.23455095;0.010895428;-0.123431936;-0.01960606;0.12056641;-0.0889192;-0.021819176;0.108229354;0.10947272;0.008718506;0.031179931;0.10751724;-0.030273654;0.022930674;-0.024169615;-0.10566481;-0.037593305;-0.12809186;-0.056429006;0.08435714;0.109415;0.113770016;0.06462075;-0.2589394;-0.12025685;0.049920216;-0.021106934;0.04988972;0.032722156;-0.019139089;0.01199763;-0.012511879;0.24527352;-0.11477096;-0.005087481;0.18749657;0.09671973;-0.08040381;0.09541817;-0.17827831;-0.012633685;-0.03322339;0.16025236;-0.037325192;-0.19322863;0.09273517;-0.15792152;-0.0507281;0.055921018;-0.03128067;-0.01430168;-0.08755378;-0.10430262;0.071164414;0.23353358;0.0045670136;-0.18163976;-0.061741173;-0.17104961;-0.25585875;0.27124083;-0.06822268;-0.043581944;0.107191056;0.008359614;-0.11433813;0.07749123;-0.19878025;0.010884096;-0.04823104;0.0080922805;0.10076119;0.13204911;-0.008852523;-0.015079422;0.009310877;-0.19538397;0.015308528;0.10625704;-0.037782513;-0.13511361;-0.104248196;0.106761195;0.012167693;0.065457135;-0.06541428;0.011881881;0.10178165;-0.38911325;0.067012295;0.0035123995;0.0369169;0.03811566;-0.032925714;-0.23977852;-0.034532387;-0.015186617;0.08733575;0.012795468;0.10353266;-0.0362449;0.030062344;0.18756145;-0.06977775;0.12045983;0.1259411;-0.14237668;0.033172384;0.031364992;-0.19018574;0.04997261;0.005460083;0.024590667;0.12589987;0.025193246;-0.2291941;0.040807437;0.055129085;-0.027887523;-0.0620876;0.060136706;0.07932082;-0.045965277;0.062071115;0.07941038;0.22643125;0.05753866;0.0711569;0.08780459;0.20752987;0.09627538;0.0058730245;0.17406796;0.011339498;0.07270135;-0.0130760195;0.18374522;-0.033806656;-0.023042085;-0.02521485;0.08220389;-0.02447532;-0.036850903;0.019446403;0.092268445;-0.25397378;-0.02431225;-0.08021421;0.20798014;-0.031489205;-0.054254312;0.020990698;-0.024449559;-0.16546777;-0.060775146;-0.12736847;0.0995443;-0.07907302;-0.052455977;0.014942027;0.06436158;0.07920019;0.118990324;0.07938227;0.20749477;0.084940076;0.031247122;-0.17143956;-0.012096373;0.19060425;-0.274105;0.014294884;0.0077268896;-0.044714324;0.09613004;-0.03043626;0.1393203;0.10291898;-0.061755273;0.23863742;-0.061166655;-0.038908962;0.053491488;0.1791585;-0.02414978;0.026421845;-0.23376048;0.0042590466;-0.15081555;0.096955664;-0.07109371;-0.031140704;-0.031366054;-0.37499017;-0.031948898;0.04913703;-0.14300147;0.016710125;-0.22358249;0.020586343;-0.03249863;-0.22575688;-0.07366641;-0.1479155;-0.058164395;-0.08871613;0.123628564;-0.043461554;-0.007034936;-0.050450683;-0.07405295;0.023658106;-0.0056849513;0.21045336;0.04577004;0.026041897;0.06674278;-0.060748294;-0.098544724;0.099912;-0.20791794;-0.010602025;0.061262496;-0.016696222;0.039217483;-0.0455183;0.1373912;0.06675947;0.005155558;-0.08290132;0.06259669;0.03324673;-0.07529528;0.14843462;-0.047319118;-0.0050962516;-0.28612792;-0.10372022;-0.09024752;-0.030232307;0.0014557007;0.032242723;0.08143907;0.015245582;-0.067003116;-0.056098003;0.0031447397;-0.112333834;-0.098009974;-0.22204228;-0.048430465;0.14941306;0.06149406;0.045618102;0.055491433;0.21924916;-0.1082134;-0.12212789;0.07856565;-0.048935894;0.1442847;0.09815061;0.08554511;0.22489154;0.14487633;-0.12632562;0.021069845;-0.029324405;-0.11653838;0.0009891767;-0.014522632;-0.04150999;-0.04830711;0.14542228;-0.0509663;-0.13426478;-0.040483158;-0.14374615;0.246812;-0.048344187;0.14920495;0.035608493;-0.16181251;0.22479354;-0.17864016;-0.060010944;-0.06339718;-0.14934309;-0.027143287;-0.02347138;-0.01769894;-0.010768761;0.0086854445;-0.33942658;0.09226495;0.028292144;0.005212837;0.086528845;-0.04622661;-0.13754277;-0.35950175;0.07571288;-0.08173178;-0.15592316
0.09077537;0.07501078;0.23591791;0.055532593;-0.0096841;-0.16654083;0.13208142;-0.009775871;-0.11588284;0.048030537;-0.1381525;0.03981303;0.052015774;0.14939559;-0.03445973;0.08137563;0.111890495;-0.009501014;-0.0017102503;0.04765473;0.091044076;-0.018332815;-0.031020937;0.0106306095;-0.09924277;0.2242853;0.22854216;-0.01872423;-0.17391159;-0.29312143;-0.05238266;-0.005587131;-0.004371091;-0.21799308;0.00842524;-0.07099697;-0.014243786;0.008711941;0.0234754;0.13919517;0.035859566;0.12862821;0.038575068;-0.0528139;-0.117033936;0.0012547607;-0.11435667;0.016392775;0.08261783;-0.24812916;-0.0900606;0.025132222;0.01801346;0.039292384;-0.0218966;0.048399158;0.17929995;0.0048377346;-0.061820574;-0.04762588;-0.054601092;0.028488016;0.0814379;0.020259773;0.044242885;0.05963426;-0.024624044;-0.037448004;-0.155587;0.13234605;-0.2528253;0.028307699;-0.13472107;0.051333446;-0.013696544;0.023980662;-0.057261854;-0.009877142;-0.0442144;-0.19061482;0.051153712;0.04794554;-0.14182982;0.12476246;-0.092913605;-0.052429132;0.19648874;-0.06931647;0.05068869;0.09437669;-0.18474963;-0.10198902;0.08657078;-0.049623277;0.005896062;-0.05246026;0.086613275;0.17990947;-0.094138026;0.17460477;0.05867686;0.030999668;-0.029826662;-0.0757515;0.07262296;-0.008058384;0.18783991;0.08618695;-0.13591239;0.039091684;0.047811586;0.106942385;0.06425395;0.04896889;-0.023871722;-0.11602054;-0.13311292;0.086132936;-0.044159427;-0.05891374;0.023395339;-0.26460394;-0.0075492756;-0.06639795;-0.01260219;-0.070770256;0.029776568;0.12969622;0.15179196;0.09266858;-0.0350381;0.096202455;0.06435455;-0.036747552;-0.043209;-0.15410668;0.055093106;0.114432484;-0.06794098;-0.09663613;-0.04477749;0.023607535;0.008583266;0.004172332;-0.03959979;-0.072279245;-0.019703772;-0.1331442;0.054503355;0.06623121;0.076531895;-0.055876542;0.07399093;0.10317313;-0.02241031;-0.04365398;-0.1787557;-0.12187866;0.0073769274;-0.060738586;-0.22877634;0.04280079;0.017754339;0.052984472;0.050747786;-0.16283312;-0.062557325;0.18911497;-0.078046836;-0.2282423;0.043074805;0.021008216;-0.09724152;0.15049593;-0.26890272;-0.104056545;0.037878007;0.08582677;-0.25252545;-0.12461201;0.035152093;0.048850432;-0.22389205;0.03418779;-0.16591041;0.08053338;-0.14306387;0.09511166;0.13486847;0.025191315;-0.032616526;-0.086305276;-0.046321947;0.0105592115;0.061281573;-0.1744848;-0.39731196;0.013511749;-0.079307884;0.023731455;0.06656644;0.009796803;0.39661536;0.056695957;-0.13955323;0.031721905;-0.011112571;-0.2527541;-0.014343852;-0.0014858346;-0.12825082;-0.0939921;-0.09961466;-0.10138703;-0.044116117;0.0680664;-0.03214433;0.088689744;0.036096044;0.076136306;0.03623768;0.17134248;0.08168208;0.10269986;-0.034631677;-0.05003672;0.0019184405;0.08844431;0.13735339;-0.09329534;0.07313791;0.043661434;0.06812482;0.054457024;0.010393952;-0.09665535;-0.02662832;0.058677725;-0.10991395;0.20545915;-0.08209059;-0.21268055;-0.10332064;-0.04130149;-0.06389034;-0.08869986;0.07405243;-0.015230946;0.032198913;0.06368561;0.32304767;-0.05754213;-0.051450856;0.0038572531;-0.040417187;0.19853361;0.06664233;0.017393587;0.07364623;-0.063878275;0.024776362;-0.24978222;0.10072378;-0.18310772;-0.17952222;0.016484527;-0.050967578;-0.09436099;0.15062393;0.0052902335;-0.254307;0.0068763043;-0.15052514;0.018839316;-0.021593835;-0.060689542;-0.04144397;-0.002191521;-0.0036111998;0.14423072;0.15115392;-0.053918827;0.05742604;0.16059826;0.06441826;0.087893106;0.020176914;0.047327306;-0.06919254;-0.07228402;-0.18546608;0.0007518979;0.028229909;0.08644949;-0.105717346;-0.0792641;0.045291793;-0.0005990027;0.11047546;0.04245846;-0.051488254;-0.18668921;0.02032512;0.05837985;0.122364126;-0.017445471;-0.054785676;0.11480789;0.019606756;0.0027248755;0.12654614;-0.02496828;0.10433632;-0.15474491;0.21128066;-0.16243121;-0.09058881;-0.060357876;-0.24746424;-0.14130373;0.10443719;-0.18312036;-0.16390498;-0.05083976;-0.04596039;-0.04247925;0.2737342;0.02873031;-0.26640174;-0.0912179;-0.18641657;-0.16693325;0.070163876;-0.20193483;-0.10766742;0.13088144;-0.11285308;-0.12382877;0.10601579;-0.15544128;-0.092751354;-0.11793972;0.03436323;0.011394129;0.11242338;0.047827672;0.067679726;-0.11376994;-0.11661866;-0.050953984;-0.054575797;-0.009778035;-0.15795393;-0.10170045;0.013512056;-0.19204976;0.049729325;0.013513188;0.08492306;0.003044911;-0.47083884;0.08736009;-0.07273394;0.01751475;-0.065956704;0.17804947;-0.07115357;-0.11113169;-0.1469382;0.17760694;0.08097632;0.071795054;0.042587;0.008669055;0.11873178;0.114020124;0.15835516;0.30295566;-0.2488091;0.118183605;0.039418854;-0.11251686;-0.04848091;0.049876034;0.0063340813;0.14080267;0.034573123;-0.22511497;0.05421341;0.19076307;-0.18930124;0.069377825;-0.01773533;0.03971691;-0.11391218;0.047255587;0.0759042;0.21027862;0.08625876;-0.060353834;0.05924156;0.08647624;0.07144608;0.044205602;0.13747473;-0.03191155;-0.031332895;-0.1455231;0.077688836;0.10626622;0.014933371;-0.11745513;0.055036534;-0.034643795;-0.028537612;0.07572441;0.035179988;-0.13464582;0.08478701;-0.05770105;0.035290986;-0.12712154;-0.066751495;0.04660808;0.0020041661;-0.18784687;-0.027714698;-0.06654872;0.14077185;-0.083816126;-0.12892808;-0.105696306;0.11517996;0.09614942;0.18748386;-0.018844686;0.12141105;-0.015496967;-0.11043906;-0.01595479;0.1383691;0.25313026;-0.19527814;-0.08731104;0.18381123;-0.11509099;0.088772565;-0.029474402;0.10338255;0.09825669;0.0029480937;0.08796676;-0.0653386;-0.066067286;-0.054466147;0.19198349;0.10612531;0.025735935;-0.18654607;-0.04883814;0.07904779;-0.03083188;-0.25101268;-0.0060347724;0.014452682;-0.18359195;-0.12336383;-0.1003461;-0.20212048;-0.08019904;0.15039004;0.0034045863;0.021654673;-0.195551;-0.2006553;-0.2285463;-0.0324591;-0.0025492627;0.06510097;-0.10747428;0.13134734;-0.022316666;-0.16886647;-0.121762134;-0.11479868;0.13211432;0.030403186;0.072394185;0.034751683;0.007756138;-0.15623885;0.15647799;-0.37670732;0.09308829;0.094804525;0.048724588;0.02752218;-0.08601742;0.20952724;0.03429947;-0.14192735;-0.035715587;0.052953877;0.05497502;0.116909735;0.024284136;-0.14826334;0.026742032;-0.1505673;-0.21520826;0.01783075;0.07114352;0.087684594;3.592631e-05;-0.007819297;0.13116261;-0.07008166;-0.11700443;0.04009288;-0.09015891;0.090717584;-0.20358151;-0.12150703;-0.018893914;-0.055087417;0.10253104;-0.102405496;0.30812228;-0.11640717;-0.03584861;0.17710528;-0.115949765;0.010729571;-0.029608715;0.16566795;0.095571145;-0.06324676;-0.08938499;0.0053481967;-0.08895971;-0.07327163;-0.14753179;0.01949266;0.010767633;-0.060590357;0.11891138;-0.043213073;-0.013795626;0.0039738556;-0.25675657;0.22570777;-0.02452067;-0.050242398;0.108478755;-0.13271989;0.1580656;-0.08384583;0.005401319;-0.019234361;-0.035076153;-0.1162251;0.047471378;-0.116434574;0.05810634;-0.07467854;-0.38871533;0.02395912;-0.06625183;0.026186747;-0.029921507;0.047436055;-0.07707426;-0.4413632;-0.0039404486;-0.018712044;-0.06501677
0.002304798;0.026830936;0.16591252;0.15204453;-0.07153117;-0.02386993;0.045297027;0.050452523;-0.1462025;0.04934871;-0.28243807;0.0040157996;0.09435953;0.085114926;-0.10231287;0.033519663;0.11206277;0.014819027;0.020975754;-0.031110523;-0.07435609;-0.054150496;-0.0030227134;-0.08654192;-0.053728387;0.18719685;0.21585755;-0.0031019805;-0.08609773;-0.3155743;-0.191386;0.050550986;-0.08471728;-0.109221;-0.043473788;0.0056045135;-0.012319977;0.12150273;-0.015334831;0.056799207;-0.023032434;0.17059502;0.0942209;-0.1516534;-0.090965495;0.022420797;0.02278081;0.042515814;-0.12204522;-0.13607848;-0.08640568;0.04024097;0.020691598;-0.045082893;0.06416172;0.23869085;0.19389828;0.12323829;-0.18100846;-0.047822393;0.008016006;-0.17919728;-0.09475908;-0.05514997;-0.09098198;-0.030809244;-0.056241594;0.0053191525;-0.18456972;0.1201175;-0.19886898;-0.05761384;-0.12806785;0.05308238;0.07115726;0.17161906;-0.05844987;0.047417317;-0.222914;-0.08848355;-0.03743241;0.029569635;-0.09143456;-0.011131521;0.0027101191;-0.0034807543;0.06696564;-0.01910463;-0.052390814;0.040316887;-0.2041321;-0.115712434;-0.016929757;0.019197324;-0.035463043;-0.10680823;-0.05876081;-0.06716672;-0.1691111;0.028209906;0.14039613;0.021242505;-0.13415329;0.025475599;-0.066616766;-0.021177126;0.18503751;-0.06441453;-0.059588574;0.06618083;0.050887972;-0.013897374;-0.06767464;0.04054773;0.015604037;-0.13809258;0.12685448;0.1567035;-0.0726948;-0.18921457;0.10208145;-0.01634705;-0.09474696;0.017032616;0.19183649;0.079088606;0.069085516;0.09639314;-0.05737016;0.08777518;-0.14279644;0.13021487;-0.06863619;-0.20925926;-0.1126499;-0.11972895;0.010155436;0.04057475;-0.066100076;-0.115709536;-0.049445853;-0.0756653;0.06197964;0.09664312;-0.17069745;-0.10417294;0.19827658;-0.061023045;-0.0068656914;-0.053048383;-0.029721746;0.042346634;0.05585697;0.009900259;-0.06302618;-0.056583848;-0.15980652;-0.0046390668;0.05114051;0.040770564;-0.13051778;0.0724097;-0.019218279;0.061810397;0.1939144;-0.046208292;-0.14539672;0.08733606;-0.12166395;-0.17057781;-0.103880934;0.010674817;0.05066869;0.122127704;-0.18598539;-0.044294186;-0.029773278;-0.06713904;-0.22053207;-0.009330596;0.091316156;0.012929417;-0.26697004;0.10035455;-0.112267956;0.11687306;-0.06667529;0.15092473;0.14139058;0.046314597;-0.13383812;-0.08888625;0.052849203;0.1919425;0.07174245;-0.06344715;-0.19396533;-0.03629684;-0.09428203;0.15463005;0.10484124;-0.05562787;0.32142466;0.119798794;-0.06915059;0.0022595546;-0.021172838;-0.23711683;0.09840965;-0.025156923;-0.13196176;-0.08331193;-0.07550097;-0.11105173;-0.049199376;0.11385787;0.04965838;0.048404384;0.019150022;-0.039984852;0.22083375;0.106281154;0.082006276;0.13172257;-0.05768766;0.025473813;-0.0839608;0.1601531;0.2160683;-0.063115254;0.026460597;0.014153942;-0.030412627;-0.09229314;0.07514435;-0.005160537;0.010630205;0.10527576;-0.12165094;0.15641141;-0.08341939;-0.11831109;-0.023892589;0.014879892;-0.12562999;-0.06914805;0.012628421;-0.05780315;0.038859583;0.05072601;0.28594598;-0.15058471;0.09728013;0.14500926;-0.03825194;0.26347858;0.17440762;0.06983743;-0.024415595;-0.056411713;-0.11491909;-0.10346815;0.3008817;-0.13341083;-0.20530055;0.08603284;-0.12825066;-0.18970335;0.15273508;0.04276872;-0.2342235;0.06551066;-0.26177168;-0.07330461;-0.036829818;-0.04605753;0.054370392;-0.1285382;-0.016051764;0.05131304;0.14416736;-0.06636399;-0.003078851;-0.028489443;-0.114176765;-0.08619219;-0.12886827;-0.039066233;0.025722561;-0.05746041;-0.01348216;0.16682796;-0.055680063;0.04710213;0.048895266;-0.0077707535;0.04307395;-0.06298334;0.053329825;0.04815216;0.00780845;-0.13583946;0.113962136;-0.06493797;0.03975464;0.039331943;-0.13874319;0.14251734;0.015519109;0.068196744;0.1315449;-0.002377201;0.052231334;-0.12848592;0.006112039;0.027797371;0.0021652132;-0.0648278;0.04197106;-0.12866253;0.043105803;-0.16017473;0.07716044;-0.06324533;-0.057302963;-0.0372808;0.25207454;-0.12510875;-0.2251894;-0.013867601;-0.28377807;-0.07567995;0.08345909;-0.17358454;0.013452091;0.12083441;-0.17265742;-0.20934182;-0.08504109;-0.113841;-0.04669979;-0.05380771;-0.051307946;0.049622722;0.21325238;-0.009227062;0.22306797;-0.09426328;-0.047619894;0.02789266;-0.012161162;-0.11715638;-0.07343227;-0.004672734;0.022087738;-0.095288426;0.008442549;-0.022059262;0.039511982;-0.04739232;-0.25693664;-0.12764359;-0.1580983;-0.0046378993;-0.17902029;0.046514418;-0.14151661;-0.03808373;0.06538476;0.11758833;0.12935393;0.1698055;-0.047324046;-0.15607065;0.16946326;-0.09102349;0.12971786;0.30345735;-0.2359738;0.07981491;-0.08871096;-0.14126356;0.027759563;0.012850292;-0.11044301;0.11486765;0.058156285;-0.15136893;0.02263126;0.132651;-0.2547871;-0.056662038;0.051616;0.05240149;-0.10250177;0.098614626;0.06178464;0.25488868;0.13533407;0.12385988;-0.07323759;0.14986773;0.10964483;-0.027559789;0.04432109;0.015975317;0.013454322;-0.23029684;-0.0021176392;0.079372495;0.09754283;-0.061165728;-0.018446486;0.11893898;-0.13179061;0.21490848;0.078037664;-0.22030616;0.06613083;-0.081434295;0.09499838;-0.01647189;-0.0746041;0.0713381;-0.078217946;0.033689994;0.044194855;-0.17397524;0.017805737;0.121303126;-0.13827293;-0.14736588;0.34840593;0.004101955;0.19622535;0.11430495;0.068109885;-0.12197388;-0.106309675;0.04117516;0.16135783;0.2052282;-0.27508825;0.038093593;0.113450095;-0.09601985;0.043370478;-0.012062953;0.115519;0.117373675;-0.012834416;0.14503331;-0.031831395;0.09466444;-0.13410546;0.17419656;0.014797845;-0.0008239088;-0.16572353;-0.018492753;0.031043008;-0.048089005;-0.12598942;0.04640893;0.121167384;-0.10286572;-0.19370988;-0.04584995;-0.07671428;-0.10440113;0.13397372;-0.034891993;0.0337918;-0.02074382;-0.12326467;-0.28198552;0.06136292;0.054884326;-0.0994818;-0.11017659;0.04381702;0.06021338;0.07448005;-0.070257634;-0.08457588;0.19452901;0.039749347;0.11260096;0.03181148;-0.033154123;-0.08629915;0.12822717;-0.20510477;-0.028280545;-0.054806534;0.07757748;0.14566758;-0.105261266;0.13699259;-0.0809013;-0.09902304;-0.036028773;0.026080139;0.024304073;0.07092658;0.057302088;-0.14172749;0.061058898;-0.27165106;-0.18522438;-0.009228421;-0.10391253;0.21214345;-0.0032319396;-0.025107715;-0.012159897;-0.10522467;0.08295831;0.09781289;-0.06817178;0.027345559;-0.28544804;-0.016878935;0.06949673;-0.003100501;-0.021276314;-0.060447384;0.2205913;-0.06698365;-0.04417043;-0.04258747;-0.02142897;0.1338979;0.039755233;0.043982465;0.027261594;0.09058574;-0.10585637;0.11438473;-0.10407106;-0.08873459;-0.11100177;-0.038746607;0.0904598;-0.036855996;0.14617714;-0.19041155;-0.0625365;-0.11227883;-0.21102718;0.28178465;-0.01321265;0.0025682226;0.11254683;-0.08211192;0.095965594;-0.17812733;-0.030518992;-0.12009776;-0.076792285;-0.2255968;0.0052793613;-0.06809724;0.04750434;0.08975737;-0.34899598;-0.047438007;-0.12352255;0.13723782;-0.15036432;-0.06303415;-0.038968254;-0.23552018;0.03744522;-0.0022521832;-0.2020737
-0.10642511;-0.065591596;0.11872164;0.07135679;0.17897657;-0.102871016;0.18294805;0.09976076;-0.057571705;0.057370033;-0.09308506;-0.12921135;0.113443464;-0.029548662;-0.022297375;-0.11603804;-0.042337433;0.119170025;0.1478958;-0.07889441;0.16951813;-0.009956457;0.06027485;-0.049330086;-0.07125255;0.030848788;0.09184756;-0.059772886;-0.100733936;-0.17254607;-0.04303752;0.16187117;-0.0797189;-0.053995777;0.08312063;0.07953226;-0.09114919;0.04417469;-0.04964578;0.025808;0.02541888;0.24193838;0.096097656;-0.10000107;-0.027261965;-0.034107;0.14132045;-0.071897745;-0.100364506;-0.17155397;-0.043296818;-0.0330404;0.22766174;0.051071048;-0.06280377;0.09795255;0.2614637;0.025773274;-0.015087514;-0.06531002;0.01890025;-0.08826945;-0.09969294;0.105494864;-0.06013665;-0.03015895;-0.08113848;-0.024015848;-0.22469552;-0.0010276715;0.055538215;-0.06099381;-0.12348466;0.031266075;0.04684715;0.009614683;0.0996665;0.028051917;-0.18958779;-0.21394628;-0.03180512;0.08843422;-0.16821119;0.104865216;0.04125226;-0.10798686;-0.010118446;-0.10719913;0.04198095;0.1418072;-0.20150182;0.015678203;-0.0043851263;-0.040960047;-0.052901786;-0.032324217;-0.104016766;0.07026514;-0.073702194;0.01246895;0.002786685;0.05052975;-0.1416233;-0.10919939;0.07861679;0.091717936;0.19564506;0.094083;-0.09614666;-0.13398421;0.015882125;0.10614348;0.07676778;0.112958096;0.049353953;-0.15216891;-0.0409804;0.11764365;-0.18872857;-0.11288427;0.16850403;-0.070679426;0.012750619;0.050061613;0.052386664;0.072219506;0.052940927;0.047080245;0.0012631785;-0.06965701;-0.06993455;0.23782821;-0.024795892;-0.1992275;-0.08535607;-0.036976323;0.10715539;-0.14876503;-0.010859279;-0.16374207;-0.1466187;-0.24687018;-0.0037334333;-0.0050204406;-0.01876057;0.008411856;0.16990866;0.06957447;-0.096102156;-0.069944374;-0.038749702;0.19126745;0.23033261;-0.07634972;-0.14675711;0.07555348;-0.004324768;-0.07924686;-0.08150693;-0.0700414;-0.24380235;-0.035689503;0.1046813;-0.045367967;0.13935293;-0.17258331;-0.05836871;-0.041165918;-0.19738345;-0.15241392;-0.117931865;-0.044721425;0.01997528;-0.031544264;-0.1755215;-0.015474627;0.061983127;-0.019484252;-0.307791;-0.11744137;0.11127027;0.03775983;-0.09791059;0.14551188;-0.012570488;-0.10563509;0.021724237;0.17135306;0.20768009;0.057666995;-0.0625059;-0.030150268;-0.14668134;0.26956955;-0.114930645;-0.16388349;-0.40994626;0.065183654;0.030263908;0.10333565;0.0848622;-0.24346699;0.30651087;0.05679898;0.15157133;-0.13430387;-0.023704518;-0.23262827;0.08075457;0.24978386;-0.21117844;-0.050303373;0.0059890607;-0.0053403443;-0.017514864;-0.08057424;-0.0677358;0.13915633;0.056258455;-0.090916716;0.315495;0.17771542;0.00054557074;-0.13721596;0.0692168;0.09734019;-0.077883996;0.31883195;0.09781631;-0.1493506;-0.0709779;-0.07328511;-0.15358625;-0.047659494;0.041349888;-0.018133897;-0.07143474;0.019845987;-0.049334724;0.19308712;0.051587563;-0.18470493;-0.15165572;0.10963829;0.062362023;-0.16059735;-0.052141994;-0.100105345;0.056838397;-0.019726641;0.14373632;-0.0098056095;-0.0045551504;0.23131329;-0.12111722;0.1785699;0.19825222;0.020507772;-0.064545274;-0.033488393;-0.17595258;-0.13410091;0.19482107;-0.22700055;-0.13214111;0.14961663;-0.12921818;-0.25949028;0.084168546;-0.062165316;-0.33601993;-0.045313966;-0.2542751;0.010287719;-0.10132826;-0.070007704;0.0721201;-0.13146596;0.12215637;0.17936876;-0.05189781;0.07221525;0.04736316;0.060490854;-0.085040756;-0.0929577;-0.06274003;-0.03577153;-0.18508863;-0.007212028;-0.06406767;0.13436733;0.025857491;0.07038515;0.041938905;-0.06150431;-0.15215376;0.10546607;0.04342557;-0.040823493;-0.089661;-0.20105775;-0.00461952;-0.041653346;0.11910252;-0.11778304;-0.055947542;0.10463459;0.019946191;0.08384966;0.042214982;-0.08711663;0.09728514;0.027041806;0.10151315;-0.07242598;0.018296542;0.13377947;0.008765669;-0.13549848;0.05357973;-0.028709684;0.028987931;-0.17614512;-0.057611063;0.008801158;0.21470842;-0.14972782;-0.07479238;-0.050352547;-0.24852437;-0.13950677;0.10443125;-0.08818801;0.1780349;0.016507719;-0.07848778;-0.15938553;0.0688514;-0.0061355024;-0.1651277;-0.06988445;0.03215947;-0.10954118;0.17272802;-0.025955848;0.054485735;-0.15529142;-0.14044492;0.103528716;0.021897504;-0.18760549;0.03836439;-0.14444639;0.18208931;0.026503066;-0.026583254;-0.10733646;-0.10036043;0.057736322;-0.3175868;0.013963906;-0.060914285;0.009446977;-0.08382927;0.24083222;-0.15820232;-0.0063070534;-0.03676878;0.15612705;0.08634583;0.026024647;-0.08795368;0.02276487;0.28868625;-0.19883142;0.13640735;0.14846104;-0.2578023;-0.03956045;0.03160622;-0.19518755;-0.010049993;0.0013773477;-0.10972894;0.26222256;-0.05033179;0.06711596;0.1055992;0.0016179319;-0.15080953;-0.17386737;0.06549515;0.05869178;-0.059166566;0.08361988;-0.090769686;0.049501386;0.041979086;0.07625139;0.07861567;0.029745206;0.0746827;0.08669011;-0.00016877569;0.006246207;-0.010428985;-0.036781274;-0.0019567746;-0.1457376;0.046016708;-0.11128754;-0.0019365941;0.11903684;-0.14406067;0.177572;0.041894138;-0.2702747;0.06761523;-0.16085888;-0.021654997;-0.06140316;-0.0119582955;0.21634881;0.08803076;-0.14065139;0.04253861;-0.118220404;0.09573333;-0.05047489;-0.05694712;-0.065390475;0.15955906;0.09507167;0.16560571;0.11503999;0.063249834;-0.044027466;-0.035979263;0.061827954;-0.045673825;0.19228327;-0.4648564;-0.07035918;-0.11283478;-0.1769021;0.07165755;-0.030162396;0.17101538;0.05007162;-0.08231214;0.15688463;-0.03330235;0.0050373585;-0.22345133;0.13802636;-0.03471814;-0.043346252;-0.22000615;-0.0013552986;-0.1972837;0.102767184;-0.14219843;-0.017215637;0.12809353;-0.20598118;-0.05922734;-0.14735532;0.15823805;-0.04020108;0.13129355;-0.0013809784;-0.041988175;-0.20813338;-0.11421826;-0.28401658;-0.08048831;0.0070342813;-0.09802872;-0.1834603;-0.009733223;0.11734051;-0.013054238;0.0033467994;-0.22754805;0.071060345;-0.051614482;-0.09004827;-0.060736246;0.04307574;-0.26972768;-0.064259216;-0.11900856;-0.03893835;-0.083924435;0.08871289;0.21910621;-0.22723211;0.07274721;0.20917799;-0.17725927;0.04993681;-0.038652178;0.008081142;0.114106715;0.13234115;-0.047954407;0.058226693;-0.25224847;-0.2593683;0.028009117;-0.058646638;0.09747487;-0.022376774;0.026517268;-0.025488041;0.03524572;0.23502512;-0.056295063;-0.10651936;-0.13576677;-0.12174944;0.1332437;0.07590224;-0.12042818;0.04686705;-0.046541207;0.26287094;-0.025330042;-0.18641677;0.07702869;-0.046629395;0.16694973;0.0045123277;0.0023482104;0.08248001;0.0788819;-0.11670074;0.07535045;-0.083184786;-0.107174106;-0.06452835;0.11284419;0.16981763;-0.052469812;0.13851665;-0.1702385;-0.100928366;0.04533977;-0.17638527;0.17322741;0.076268636;0.005090147;-0.056440912;-0.22593904;0.09808588;-0.09792988;-0.010050516;-0.11412451;-0.123957895;0.03771051;-0.015925173;0.08646776;0.06401768;0.071376085;-0.3137715;0.12894769;-0.17774804;-0.09704859;0.057804737;-0.07993003;-0.09017091;-0.36936405;0.04243442;-0.08643143;-0.055014018
0.08502923;0.103236675;0.23293914;0.010333903;-0.015814641;-0.12062923;0.15295827;-0.15729019;0.029142924;-0.12453211;-0.24224047;-0.17256951;-0.1257765;0.09546917;-0.07964495;-0.015066611;-0.08545459;0.22285423;-0.050913796;-0.13437755;0.12964717;0.15527102;-0.17195122;-0.10480856;-0.15373005;0.17677465;0.14045084;0.020580485;-0.11984159;-0.04973086;-0.006484428;0.10370669;-0.105402574;-0.12708285;0.034742106;0.020576874;0.032839995;0.017399916;0.0058176164;0.056186587;0.07029648;0.11389202;0.10251675;-0.034679513;-0.06687915;0.024941921;0.028095784;-0.058901563;-0.12487702;-0.11651998;0.016734913;0.12511732;0.17975971;-0.24443899;-0.012312013;-0.05925303;0.076140665;0.09407993;-0.119853966;0.06512541;0.017964035;-0.016340014;-0.015094334;-0.092471346;0.07103758;0.0721271;0.052390385;-0.056768667;-0.32217246;0.067406036;0.08908211;0.038799867;0.02637515;-0.05970489;0.2559067;0.08420362;0.021270145;0.042193387;-0.4404077;-0.11645118;0.0045548226;0.08132082;-0.22045378;0.10065264;-0.051339485;-0.017485883;0.09506983;-0.103838034;-0.0854154;-0.009919156;-0.12273881;0.029943148;0.10753553;-0.0016978391;-0.028301636;-0.088310115;-0.045634672;0.0068263495;-0.115570895;-0.10270586;0.16680038;-0.112360775;-0.075743064;-0.09339807;0.06142228;-0.171174;-0.04978718;-0.05446398;-0.13024655;0.0077013383;0.10619355;-0.063151024;-0.09525373;0.022784369;-0.0826657;-0.15457876;0.019911326;0.07320265;-0.07015541;-0.15827249;0.023980297;0.15683098;-0.074054465;0.17652103;0.075898245;0.063984685;0.11277904;0.09046923;0.049542;0.0013712065;-0.24916396;0.14649728;0.0076793153;-0.16374253;-0.23203309;0.016248353;-0.124419846;-0.13158108;-0.16773038;-0.030567033;-0.12482156;-0.07395154;0.03278916;-0.30213162;-0.11327816;-0.072015464;0.1634364;-0.061690252;0.05016156;0.018674763;0.016918879;0.15344352;0.19057107;-0.030060563;-0.18397488;-0.07523666;0.023725802;-0.058099274;0.03694649;-0.16673054;-0.17088377;0.010263216;0.09593998;-0.15386793;0.05168623;-0.0579757;-0.07992952;0.06452572;-0.012943657;-0.12167006;-0.24542001;-0.05423544;0.038433284;-0.024585214;-0.02601734;-0.15470049;0.0639061;-0.012794944;0.027308522;-0.05201656;0.04460679;0.12440663;-0.07206106;0.08748761;0.057052486;0.07158514;-0.051289313;0.13704775;0.20096865;0.20691325;0.0265631;0.06526256;-0.05655256;0.18339029;-0.121040136;-0.002939407;-0.16865382;0.05418656;-0.24076946;0.0038938657;0.07449193;-0.06609276;0.11205647;0.13148046;0.10999158;-0.090931706;-0.0073457565;-0.12599319;0.20465495;0.01570368;-0.12503676;-0.121376;-0.10301561;0.0948992;0.013399431;0.0960031;-0.11532067;0.14673382;-0.064783625;-0.105666734;0.21134953;0.09548766;0.11771882;-0.043213636;-0.11752011;-0.17449717;-0.11882907;0.0799551;0.12113942;-0.20726712;-0.005940089;0.001986355;-0.09196914;-0.049131945;-0.016712766;-0.13545305;-0.1649418;0.118396975;-0.13103169;0.119215414;-0.07315397;-0.17093211;0.08836337;-0.06293875;-0.06365507;-0.08598674;-0.08665712;0.0013843807;0.04569847;-0.060938768;0.0870739;-0.008886977;-0.023763899;0.23804888;-0.11849853;0.08307328;0.19910756;-0.14615633;-0.074045494;0.0523507;-0.11555955;-0.1824881;0.09640666;-0.19490142;-0.084654845;0.12415294;-0.05015934;-0.034753364;0.1176863;0.01767029;-0.4181235;-0.047994845;-0.3552188;-0.077462964;-0.0597825;0.09149127;-0.029058216;-0.16395222;0.023946095;0.21758068;0.11817736;0.045839127;0.112980336;0.11913492;-0.05368279;0.018237466;-0.09795915;-0.15180309;-0.15291922;0.11459677;0.06877964;0.0983131;0.08897223;-0.14204063;0.03178133;0.11889341;0.0033217305;0.13604833;0.006419079;-0.06156735;-0.048731375;-0.05597631;0.09351019;0.05822184;0.029124878;0.0021723646;-0.19749407;0.3200909;-0.08081502;0.009298686;0.17681454;0.051181037;-0.015893556;0.12116275;-0.18225065;-0.034492396;-0.019458296;-0.03832252;0.05113629;-0.05871205;0.039393447;-0.22841725;0.07417079;-0.09551468;-0.10070818;-0.03631398;0.017610561;-0.19970044;-0.28104714;-0.023912601;-0.10976302;-0.17264815;0.19957699;-0.022641003;0.03576504;0.07947304;-0.008615828;-0.0035017424;0.110121526;0.014879387;-0.18690021;-0.14768566;-0.034300346;-0.0094143;0.115055986;-0.055719055;0.08779386;0.077446684;-0.029590804;0.0503127;-0.05297086;0.017017948;-0.20067398;-0.03238524;0.124510996;0.07440238;0.10272362;-0.04272967;0.05021443;-0.033635754;-0.23999128;-0.06775515;0.04059844;-0.03001631;0.012267596;0.15281637;-0.14834775;-0.053604357;-0.01864647;0.06957376;0.14612952;0.08100831;0.0024349035;-0.2595907;0.1664535;0.01009658;0.13141766;0.10997316;-0.20950845;-0.072915114;-0.050331544;-0.068923034;0.04624034;0.18681896;-0.003191179;0.28404444;0.14078459;0.100555;-0.06530794;0.100659974;-0.2257089;-0.12754036;-0.04889728;0.08530563;-0.22708227;0.20407243;0.0063904207;0.12974642;0.027488636;0.03786469;-0.0048235306;0.22286877;0.035343304;-0.04220278;0.102059886;-0.0010358591;-0.11195246;-0.2507426;0.06565589;-0.14545587;-0.02736154;-0.043049026;0.08866635;0.24913757;-0.20628382;0.14471273;0.08352746;0.031304374;0.027348889;-0.015537296;-0.012423591;-0.008674091;-0.08195028;0.02301375;0.10516031;-0.18902305;-0.09998626;-0.050397974;0.06074625;-0.033638455;-0.11459073;0.07070353;-0.0041971807;0.0046702544;0.18946792;0.16505542;0.15871382;0.12500124;-0.010481717;0.0892149;0.18988253;0.15630652;-0.32703337;0.09862217;-0.041914243;-0.13468067;-0.009112142;-0.028318036;-0.036754314;0.12472441;0.013458066;0.15640683;-0.14073758;-0.04206635;0.14050628;0.056064654;-0.057107177;0.051945418;0.061044086;0.13158512;-0.1575551;-0.05940575;0.08148448;0.21675111;0.12767555;-0.06539554;0.028615383;-0.16956455;-0.09807914;-0.020063818;0.105298884;0.059316717;-0.047714707;0.043246195;-0.08993045;-0.11270625;-0.04948561;0.11621315;-0.10275048;-0.15418433;-0.021748977;-0.01056686;-0.16534656;-0.14355747;-0.1135086;0.18535148;0.028640538;0.09690435;0.18838972;0.18876258;-0.065782696;0.06764637;-0.08154025;-0.07622019;0.016744805;0.047978118;0.15984856;-0.16766958;0.0118242735;0.2341542;-0.051998213;-0.029522995;0.011912537;0.08872551;0.18886043;0.06596892;-0.15567148;0.037240606;-0.16998625;-0.18779188;0.05994275;-0.17707321;0.11011751;0.13529669;-0.13504143;0.13695037;-0.05851806;0.09092388;-0.08211281;0.11633578;-0.055986978;-0.34550524;0.08031302;-0.034125455;-0.19685581;-0.024034273;0.045502365;0.2601796;-0.058388326;-0.056874923;-0.04323986;-0.0025937562;0.16578825;0.089142166;0.17088714;0.036750767;0.08822372;-0.18681508;0.041441437;0.044388752;-0.096174955;-0.009616304;0.008855451;-0.08086981;-0.13103534;0.13059552;-0.033626877;-0.063567616;-0.040680557;-0.23578754;0.033201627;0.15050758;-0.149942;-0.1064652;0.041980173;0.02191397;-0.17220612;0.03274413;0.11835997;-0.10403177;-0.023574976;-0.10884921;-0.10524415;-0.12483885;0.04445839;-0.29459637;-0.026642105;-0.27601033;0.06387133;0.013082813;-0.04879078;0.040293157;-0.138693;0.08180904;0.0555925;-0.07649864
0.13779391;0.12666689;0.15274034;0.009353197;0.048818387;-0.14367516;-0.025220739;-0.20959437;0.065586984;-0.007103285;-0.16116236;-0.023186866;-0.018123543;0.1066808;-0.14756966;-0.12216291;-0.09863361;0.047464363;-0.069389164;-0.117983595;0.31587058;0.060516465;-0.18309778;-0.13213544;-0.0086623505;0.11324071;-0.014951841;0.12172524;0.0030310212;-0.009683166;0.022241354;0.1073344;-0.065188065;-0.06293602;-0.089717455;0.070946164;-0.026091062;0.029891191;-0.114085644;-0.104143694;0.022220649;0.21804747;0.08400061;-0.017249517;0.051771738;-0.11036576;0.13986208;-0.022941872;0.029039113;-0.11639855;0.0063218833;0.15100937;0.19889866;-0.1237585;-0.08654033;-0.09129371;0.15456305;-0.060719687;-0.053430326;-0.0580978;0.017698333;0.02127684;-0.070716;-0.08403769;0.20944676;-0.04824594;-0.0027554266;-0.124759614;-0.29135075;0.0064987615;-0.028901828;0.038976394;-0.058896165;0.109656125;0.23220569;0.025625104;0.028506115;-0.12311462;-0.13124774;-0.074545726;0.046534114;0.027777737;-0.07685445;0.054057576;-0.17699681;0.056237713;0.15310286;0.034557924;0.03588233;0.0072308728;-0.02033653;0.07393834;0.12382898;-0.07295625;-0.033326432;-0.04277296;0.07716652;-0.08740277;-0.047554392;-0.14636236;-0.070680544;-0.05176113;-0.08505624;-0.025112579;0.07138954;-0.003853572;0.059582904;0.004787257;0.04161623;-0.060724933;-0.058758322;-0.025708005;-0.013651197;-0.056192312;-0.2228435;-0.09873575;0.028327387;0.08197482;0.053733353;-0.10371521;0.12002475;-0.02196366;0.04594031;0.11653025;0.043882623;-0.03253527;0.048006244;-0.029006245;-0.020511376;0.11343184;-0.14851025;0.008575115;-0.082440555;-0.030094886;-0.15410234;-0.0022812418;-0.087985426;-0.061778106;-0.006534149;-0.22923669;-0.1115915;0.03726142;0.013443312;-0.27623212;-0.087632746;-0.07995337;0.22874689;-0.091072395;-0.029461747;0.00040080393;-0.06502056;0.11352889;0.33840066;0.061353903;-0.30778638;0.05578436;-0.07167503;-0.097248904;0.21034472;-0.16008775;-0.12807497;-0.029270554;0.028649045;-0.052677877;-0.025994055;-0.12741753;-0.1220256;-0.01459704;-0.053548396;-0.16758898;-0.18552876;-0.026677493;0.0036848781;-0.066770606;0.05655588;-0.23598811;0.059228;0.019973766;-0.1907421;-0.009384753;-0.0033383064;0.16989131;-0.14335781;-0.018745529;0.1428022;-0.02366579;-0.04977812;0.030497357;0.18203847;0.11069722;0.047389373;0.011770355;0.114710666;0.15731268;-0.06120445;-0.025175434;-0.087760136;-0.044003103;-0.10249079;0.13549902;0.0754992;-0.05384051;0.19847819;-0.009537148;0.040415432;-0.059860006;0.061969917;-0.095125556;0.2431962;0.2288508;-0.010817686;-0.056471504;-0.21296108;0.06193874;-0.23646213;0.06076182;-0.066821;0.059448015;-0.13051349;-0.07557258;0.013312628;0.09093554;0.17107217;-0.057916276;-0.0046342392;-0.027734283;0.03695252;0.14970429;0.03075542;-0.23866384;0.011862935;-0.077309646;-0.08792647;0.017318293;-0.048807904;-0.10487817;-0.089482814;0.09245563;-0.10496724;0.0020222005;-0.044220716;-0.026161397;0.026888475;0.057519734;0.10593781;-0.119058385;-0.1520684;-0.23441699;0.017293135;-0.043280404;0.21578267;0.070079885;0.001301757;0.11483353;-0.070891395;0.09175199;0.027199104;0.014922736;0.079488486;0.0013629954;0.016929196;-0.09139354;0.099531114;-0.087483004;-0.042693596;0.14132938;-0.035928693;-0.045000512;0.15549846;-0.035144296;-0.22021289;0.10455033;-0.39861798;-0.00041456494;-0.096203096;-0.047078066;-0.035635304;-0.043001886;-0.00017175823;0.16095321;-0.015737813;0.026526872;-0.012312067;-0.013991223;0.055474658;-0.108730614;0.021295363;-0.12268539;-0.20617886;-0.06157621;-0.04371564;0.17316769;0.17599301;-0.07257943;0.17011936;-0.21759552;-0.0073648975;-0.07605532;0.045556206;-0.08120259;0.059448898;-0.056423146;-0.0144982;-0.06055454;0.08013319;-0.023740893;-0.14662372;0.33248925;-0.038734127;0.08612343;0.104722194;0.10199644;0.060031526;-0.07064103;-0.11005239;0.027170584;-0.02400573;0.09365594;0.114311695;-0.0057620327;-0.056088395;-0.015136678;0.085078575;-0.056050245;-0.0117344735;-0.029457498;0.08428472;-0.040287685;-0.20285569;0.07762212;-0.035557862;-0.18970942;0.085982546;0.031000976;-0.08379903;-0.012294088;-0.083248846;-0.057707045;-0.014430114;0.059523072;0.07326732;-0.055731066;0.06716569;0.026321433;0.12141439;-0.09198358;-0.06832288;0.07437102;0.007695956;0.023634763;0.1306811;0.002425851;-0.07591624;-0.07017077;0.10627594;0.08844451;0.017337915;-0.06660225;-0.041672267;-0.08051347;-0.2688821;-0.08935598;0.037999347;-0.0215935;0.012722525;0.20945072;-0.28964755;0.013675469;0.03566797;-0.015398576;0.067491926;0.042147163;0.109181285;-0.033813924;0.014809496;-0.020436186;0.11034309;-0.01279577;-0.06381006;-0.16179079;-0.075187676;-0.04574264;0.06657155;0.15940814;0.16620754;0.14783695;-0.04065846;0.13840474;-0.07606352;0.01176986;-0.23033161;-0.10455777;-0.06500472;-0.01595608;-0.2026807;0.049039625;-0.0039144484;0.068334304;0.054784972;0.12316168;0.031497065;0.20615032;0.101245865;-0.07358135;-0.043238916;0.12164218;-0.064947315;-0.20090282;0.056327727;-0.1467852;-0.036213063;0.0534776;0.11502153;0.05374275;-0.12911068;0.07584486;0.080680564;0.00031909006;0.0144416215;-0.06035448;0.016117705;0.10451744;-0.19269986;-0.0041797548;-0.04459829;-0.15403055;-0.13575058;0.04604852;0.057093833;-0.062449798;-0.17339674;0.04469042;0.12995864;-0.062371217;0.100364834;-0.10391993;0.13565698;0.09008843;-0.03929966;0.009384902;-0.018424008;0.079911955;-0.26749074;-0.04929557;0.030158825;-0.12785745;-0.014952636;0.050061736;0.056808986;0.08713153;0.11054294;0.27129978;-0.12058144;-0.0072819707;0.13328925;0.04383402;0.066685624;0.06128119;0.0661166;0.09260163;-0.100530826;-0.17120954;-0.116834976;0.15458451;0.12452517;0.11858347;-0.031810887;-0.18928789;0.0049144984;0.03379627;-0.005951686;0.110546045;-0.021343207;-0.0713747;-0.062298067;-0.14318514;-0.028979372;-0.006860369;-0.18281913;-0.18971178;-0.065794416;0.03804296;0.08417072;-0.08736507;-0.05592549;0.16611889;0.046325274;-0.0092185605;0.1887398;0.15953398;0.083519325;0.03501492;-0.16854565;-0.03765481;-0.0990017;0.0028294798;0.11246462;-0.1840374;0.058385942;0.25636685;-0.03995711;-0.04762756;-0.09238505;0.11048461;0.13608083;0.10740665;-0.13990693;-0.1515971;-0.047223125;-0.12157266;-0.12542607;-0.040350217;0.14169009;-0.053979423;-0.05580954;0.05695633;-0.09815894;0.091653794;-0.008615889;0.11383759;0.049505115;-0.20816574;0.055140186;0.08006566;-0.06815193;-0.04603338;0.21639085;0.086056225;-0.21164891;-0.11492882;-0.064506136;-0.08583495;0.05935417;0.025422359;0.1452868;0.059103362;0.081667095;0.038265347;0.10062384;0.023339761;-0.034267627;-0.061461315;0.14402524;-0.18463218;-0.11353061;0.101573914;-0.19487536;-0.13156343;0.045138333;-0.07960184;-0.021869285;0.08157833;-0.1390148;-0.11959189;-0.09199856;0.16862811;-0.12353201;0.01117061;0.043638527;-0.13623255;0.16266182;-0.06788695;-0.12992255;-0.08915637;-0.1308882;-0.42231324;0.042669404;-0.10248738;-0.039746497;-0.12958717;0.08757119;0.09150458;-0.047498513;-0.05824318;-0.0063879834;-0.07133104
-0.011033108;-0.07773911;0.20123409;0.16607152;-0.005370954;-0.058272097;-0.037212078;-0.20096748;-0.025115995;-0.01980785;-0.2012577;-0.20120363;0.021589808;0.027880305;-0.1325642;-0.13127755;-0.24244599;-0.09321851;-0.081929274;-0.18788208;0.22914203;0.10098423;-0.07325073;-0.0878931;0.012813902;0.043937154;-0.012379162;-0.08952959;-0.043410305;-0.019243471;-0.13517763;0.027100286;0.040654626;-0.13393995;0.008455181;0.07549545;0.008520095;-0.17993459;-0.06160629;-0.03482429;-0.052151673;0.17930543;0.096096195;-0.15603898;-0.1063708;0.007871483;0.076180965;-0.12830828;0.058770858;-0.1392108;-0.033077188;0.08674817;0.15431255;-0.13959298;-0.006224787;-0.15345342;0.09169677;-0.0793074;-0.12117188;0.07986362;-0.009602467;0.013707006;-0.045588896;0.09436096;0.15207583;0.042055286;0.08616733;-0.033873636;-0.23972213;-0.07883391;0.08386759;0.13594489;-0.16231444;0.14934695;0.27599397;-0.057847455;-0.030398404;0.07339627;-0.24459499;0.052060008;-0.1553005;0.22725509;-0.13508786;-0.09666567;-0.11032831;-0.061443176;0.0957147;-0.06947719;0.039620034;0.1278514;-0.003156881;-0.035518155;0.055310115;-0.07762169;-0.034399882;0.04831294;0.123469606;0.07664959;-0.1030376;-0.1535661;-0.05469829;-0.21711254;-0.093473986;-0.12534252;0.07469135;0.191656;0.17263831;0.036710206;-0.119231015;0.049818512;0.10210908;-0.10684885;-0.19210546;-0.029666828;-0.030888332;-0.15175393;0.0044821003;0.116516754;0.15062849;-0.18443267;0.12295073;0.1470669;-0.049944244;0.31662288;0.017167412;-0.06545144;0.06770674;0.098760806;0.013906848;0.090437695;-0.20377879;0.142845;-0.15567887;0.020549417;-0.09339473;-0.09119351;-0.17698118;0.14705142;-0.10885452;-0.14577039;-0.08101704;-0.03966686;-0.10893634;-0.12255406;0.024442617;0.01284132;0.08270971;-0.055054307;-0.03752118;0.02665184;-0.07405855;0.09625252;0.10917842;-0.015139057;-0.1945646;-0.0015108166;0.09299449;-0.017348232;0.11542536;-0.057100683;-0.0077025974;-0.017337449;0.061399624;-0.022969626;0.044405807;-0.24696106;-0.118486315;0.17352287;-0.009669699;-0.110370316;-0.054477002;-0.032929055;0.007307796;-0.008311157;-0.022276305;-0.14033487;0.049905114;0.09180813;-0.14153185;-0.0039511994;-0.053825777;-0.02539096;0.000938663;-0.008190062;-0.009487333;-0.041630022;-0.14790481;0.15262641;0.14298521;0.19549973;0.12146791;0.043854825;0.056772072;0.2052936;-0.1326767;-0.1079349;0.049061794;-0.045662977;-0.1584985;0.1804286;0.019881617;-0.025627289;0.33211267;0.09296199;0.16600849;0.041743558;-0.08910298;-0.16977967;0.042013742;-0.01433087;-0.06749733;-0.21422724;-0.12858899;0.054883607;-0.12587792;-0.035326533;-0.064442396;0.06958157;-0.14345463;-0.044245854;-0.011409631;0.13052411;-0.007582359;-0.13644925;-0.16825184;-0.020710373;0.03157124;0.037950754;-0.10754307;-0.08443877;0.06798525;-0.015994396;-0.059506502;-0.0653337;-0.02286306;-0.025860531;-0.17223823;0.09078747;-0.14154552;-0.0060731843;-0.00723128;-0.032193642;-0.05283731;-0.05307509;0.18826059;-0.20803162;-0.052759755;-0.017128147;0.017971972;0.009702745;0.1787884;0.0027065377;0.06428015;0.16221145;-0.029513123;0.083171025;-0.016903216;-0.07358308;0.13437602;-0.043039702;-0.14429952;-0.03302029;-0.00084184716;0.049917758;-0.06570721;0.0070856786;-0.14211081;0.037064254;0.14078325;0.115678325;-0.018702613;0.11761512;-0.24065031;-0.12654011;-0.118955135;-0.0022093852;-0.016178012;-0.04730529;-0.0022329204;0.06472135;0.010047228;-0.06576117;-0.01649358;0.16137041;-0.03233287;-0.110119075;-0.07272427;0.09129271;-0.12078704;0.009323407;-0.03376679;0.033250943;-0.021987868;-0.05142963;-0.04732991;-0.15009567;0.115021974;-0.006226457;0.05183571;-0.025457032;0.006191137;-0.066548504;0.012589087;-0.043095782;-0.05683744;-0.02905625;-0.21924391;0.11293158;-0.09099065;0.03816089;0.15230504;0.108877175;0.12710363;0.116462715;-0.14937276;-0.0983637;0.027555773;-0.03249063;0.0935555;-0.014231799;-0.1365234;-0.22171411;-0.011125961;0.0578593;-0.026239302;0.018404128;0.0058317566;0.09352944;-0.14971699;-0.030980097;-0.08647381;-0.033437345;0.12984294;-0.017183762;-0.1271272;0.03296504;-0.057509065;-0.20989087;0.06394325;-0.036801104;0.0789221;0.025727343;0.0660632;0.122246884;0.25388873;-0.119539425;0.05321536;-0.06561324;-0.024464251;-0.09197567;-0.094648205;0.10515112;0.08455693;0.038835417;0.080045134;0.01925568;-0.010434639;-0.10164408;-0.005957596;0.040795453;-0.07970038;0.09859889;-0.050377607;-0.030629683;-0.058288675;0.23981492;-0.22505523;-0.13560173;0.003439514;-0.10228194;0.1345299;-0.13583176;-0.020474786;-0.27289593;0.08819913;-0.054365393;0.09946159;0.07885275;-0.13220532;0.014502845;-0.18279548;-0.22833462;-0.018771337;0.0012126752;0.058516193;0.15293486;-0.04993588;0.04955262;-0.23892643;0.1265532;-0.34258333;-0.06647475;-0.17409249;-0.028348962;-0.18061425;0.19989668;-0.041541815;-0.0090635745;0.10530423;-0.024508622;-0.021138534;0.16050828;0.16432194;0.039923396;-0.02902668;0.010676673;0.06452649;-0.23173386;-0.04684937;0.04250222;0.08684096;-0.058327742;0.11465211;0.18617667;-0.06827579;0.14771575;-0.094124556;0.07270338;0.024350991;-0.038678292;-0.10603018;-0.02673877;-0.046868287;0.014781683;-0.028279116;-0.10265159;0.016350137;0.089203134;-0.08067047;0.044793356;-0.10432981;-0.038493674;0.05175373;-0.034755312;0.17762554;0.109381735;-0.0322043;-0.053443156;-0.07073724;-0.08308297;0.08009482;0.06387626;-0.17233896;-0.0954393;0.07446466;-0.048602156;-0.08246103;-0.0057493243;0.0919768;0.028910376;0.029511094;0.080067486;-0.030383715;0.05760532;0.06734615;0.10759332;-0.054907236;0.002764526;0.1475467;0.11718621;0.012250876;-0.24809438;-0.05279118;0.19479936;0.23544677;0.121420294;-0.050963577;-0.10642045;-0.07451508;-0.044128712;0.01167336;0.2215416;-0.13334893;-0.14417571;-0.05910334;-0.056231204;0.05381565;0.096018;-0.27218083;-0.06534869;0.1113272;-0.031599455;-0.07784586;0.055247616;-0.010847726;0.22396614;0.056696307;0.017036226;0.020096764;0.10035016;0.016459474;0.07178276;-0.056003287;-0.16395116;0.04387585;0.012303261;0.18543191;-0.12217664;0.08140503;0.10095419;0.03283513;0.00070757105;0.023532333;0.24532907;0.09608479;0.026249113;-0.10984424;-0.056260858;0.07504955;-0.13834468;-0.09474681;0.07571419;0.22444823;-0.0554936;-0.052012566;0.21164511;-0.14779882;0.020502655;-0.10460887;0.07979239;0.08673011;-0.22919378;0.03856468;0.11003804;-0.1315155;0.11766775;0.03244912;0.18277946;-0.052796114;0.005335899;0.06919246;-0.100132905;0.14622074;0.11516114;0.2299394;0.07750849;0.08196164;-0.053755153;-0.032542963;0.042060558;-0.0038951666;-0.1714732;0.12993334;-0.2948566;-0.1402753;0.0374152;0.040485762;0.07246973;-0.014359031;-0.054017223;0.008044771;-0.062646315;-0.033816297;-0.044078138;0.026704766;0.06287947;0.031099709;0.0055945213;0.09038065;-0.22893824;0.0867853;0.0034342322;-0.17508145;-0.035526365;0.0018409349;-0.2665665;-0.057549287;-0.1296947;-0.07528924;0.05152361;0.001522546;-0.10504093;-0.006158719;0.040911116;-0.00083323254;0.050895732
-0.037280038;-0.08751399;0.13907927;0.025076082;0.0387037;0.010682102;-0.07227381;-0.08082348;-0.018293332;-0.0014230352;-0.1500656;-0.082787454;-0.0032937415;-0.085069336;-0.0771562;-0.19963907;-0.24634323;0.091967784;-0.07749133;-0.11138761;0.21579614;0.1903814;0.11280363;-0.061685663;0.0495441;-0.09638133;-0.081214905;-0.086472996;-0.043171022;-0.06445896;-0.06863007;0.10845502;0.06617123;-0.06836917;0.108884886;0.08356067;-0.091496326;-0.20769385;-0.16098744;0.081070974;-0.04257987;0.12877585;0.14968522;-0.060281973;-0.10591434;0.041252505;0.10578307;-0.13431281;0.026623053;-0.23413567;-0.18146887;0.21726908;0.12785667;0.025137035;0.03123641;-0.21776485;0.15794626;-0.12157991;-0.13161838;0.02965692;0.021775747;-0.035489656;-0.076825514;0.114118114;0.0613603;-0.11824306;0.009772322;0.10573533;-0.12354929;0.006083762;-0.042999726;0.0048213913;-0.11035285;-0.037277192;0.18386783;-0.10036707;-0.015963566;0.0818038;-0.10555541;0.04997697;0.0742069;0.15035217;-0.13412905;-0.08099348;-0.07265137;-0.010102009;-0.03847275;-0.041556425;-0.058507483;0.11163484;0.007362032;0.18692987;0.12050841;-0.058445174;0.093459904;-0.07948297;-0.011271374;-0.03827975;-0.065091394;0.07966563;-0.19506957;-0.08378793;-0.044333853;-0.10111468;0.0070536756;0.06718723;0.30433574;0.11195445;0.011642193;-0.14881602;-0.15824161;0.042815655;-0.069728315;0.077542886;-0.29276478;-0.10258038;-0.050672174;0.09837992;0.055053864;-0.23848982;-0.062421832;-0.0697057;0.046108313;0.22202227;-0.039330263;0.031531386;0.090754606;0.12847908;-0.046716195;0.10297634;-0.18499926;0.056082617;-0.17047155;0.108782545;-0.23088105;-0.047839336;-0.13608435;0.06731962;-0.15907061;-0.087877624;-0.109115735;-0.00068265985;-0.06735588;-0.03553935;-0.042112015;-0.058405492;0.023242049;-0.023403093;0.06781012;-0.059612054;0.034721527;0.05796786;0.27952397;0.028038334;-0.2494405;-0.055125564;0.10132878;0.10239598;0.1169188;0.03548846;-0.11348831;-0.16735595;0.005543831;-0.017410694;0.1091194;-0.2002767;-0.057418086;-0.00046532074;0.011428376;-0.1747478;-0.0066292007;-0.1332353;0.07755297;0.038058672;-0.09348438;-0.08222611;0.11386997;0.10576296;-0.1641636;-0.0817562;0.13414562;0.12386848;-0.06571615;-0.036141984;0.060312618;0.026304279;0.01887497;8.4180094e-05;0.24067327;0.18486944;0.01674404;-0.0042677703;0.017926453;0.33467272;-0.018858623;0.002591243;-0.09475313;-0.023728492;-0.03131417;0.15983936;0.029249754;0.10207439;0.25466636;0.006690797;0.13547045;0.021636974;0.07085727;0.00023924731;0.13539766;0.012878123;-0.047891658;-0.077506654;0.011263713;0.06738291;-0.22527437;-0.16471939;-0.11448441;-0.054871712;-0.10382091;0.19297677;0.16857637;0.09137783;0.18767188;-0.2698984;-0.14184731;-0.03757956;0.012151106;0.22194701;0.023074344;-0.15274492;-0.058680445;-0.06925964;-0.08085952;-0.087388866;0.058894012;-0.1100168;-0.09561182;-0.030815262;0.019852577;0.18782856;0.081116974;-0.071258426;-0.097726256;0.15755183;0.15771607;-0.22433202;0.017797539;0.03456427;0.07680881;-0.023599597;-0.0055849943;0.0013126142;-0.027480701;0.17285696;-0.018740358;0.17748453;0.053565737;0.05821786;0.04876039;0.0032854234;-0.2810314;-0.13120937;-0.05367323;0.23799612;-0.08664773;0.008597081;-0.05964969;-0.019134369;0.10803754;0.2137112;0.11999023;-0.024485411;-0.2706847;0.05133672;-0.12817687;0.12905253;-0.034719657;0.103297174;0.04608786;-0.06402234;0.03980632;0.07717412;-0.004834649;0.07647981;0.15295394;-0.046041682;0.016335817;0.107027195;-0.06897655;-0.04573331;-0.13034894;0.22153564;0.0466192;0.07351208;-0.009031945;-0.22071311;0.028119994;0.008941438;-0.17762965;0.020299667;0.008440237;0.15320298;0.027142301;-0.025176281;0.109041795;-0.15304315;-0.04926216;0.24325204;-0.17661135;-0.0159438;0.081381835;-0.0056261523;0.15989126;0.072013915;-0.17706528;-0.12481109;-0.022790946;0.024352865;0.22717722;-0.071106136;-0.05449269;-0.2558659;0.11680604;0.008662858;0.015484784;-0.06611695;0.024751043;0.07782706;0.009173626;0.014737245;-0.28419903;-0.15981896;-0.038512025;-1.3393673e-05;-0.0359;-0.0044717533;-0.10954079;-0.3335794;0.054930456;0.018850328;0.092498265;0.008703727;0.15904853;0.14262246;0.3161379;-0.17755245;-0.10313227;-0.003061029;-0.009151893;0.14293942;0.11609374;-0.06549237;-0.028900169;0.09126541;0.0934002;0.18454573;0.05121118;-0.14679453;0.021684723;-0.08825248;-0.11910533;0.07425278;0.057944164;0.023889521;0.10452333;0.32926136;-0.32777196;-0.1826603;0.025001131;-0.045714978;0.16023906;-0.33222327;0.19562611;-0.11599405;0.22544193;-0.20038982;-0.10106825;-0.03751398;-0.067610405;0.07192231;-0.071364366;-0.1974323;0.04567551;-0.055656604;0.105319954;0.07403513;0.03276965;0.017681656;-0.22421642;-0.087852016;-0.26709598;-0.029685142;-0.021900188;-0.029842775;-0.035636175;-0.073676996;0.01708457;0.18226296;0.19682327;0.18665189;0.08511094;0.037119307;-0.04825146;0.0024135315;-0.07023154;0.054326452;-0.13812664;-0.073291264;-0.060699094;-0.066914156;0.009150433;0.034401033;0.28752375;-0.030201335;-0.07008776;0.02885708;-0.031240746;-0.12954947;0.0028546061;-0.025634477;-0.00094060466;0.08661834;-0.073658116;0.00053387776;-0.042639457;0.05342689;0.0844065;-0.017434781;-0.04982451;0.03998415;-0.122933015;0.06727668;0.0736623;-0.0040559755;-0.028038898;0.07049938;-0.09674396;0.10445749;0.05028152;0.048935086;0.14059931;0.04589416;-0.26269206;-0.017878477;-0.07316258;-0.16464138;-0.0006088934;-0.029074887;0.11033578;0.07624998;-0.1330065;0.07977622;-0.0346211;0.22665711;0.034458622;0.077825226;-0.04235355;0.15679212;0.00878712;-0.028991846;0.02173517;-0.10085728;-0.10894849;0.12357541;0.035415146;0.035494495;0.16842784;-0.07163899;0.06622034;0.005741881;-0.14222258;0.14411414;-0.15204298;0.06987497;-0.13250203;-0.016268665;-0.051865816;-0.056945316;-0.20645335;-0.10558552;0.11532919;0.12363132;-0.055006173;-0.001031558;-0.009222753;-0.016725011;-0.11139531;-0.0132131195;0.06095002;0.22659262;0.11562479;0.16039816;-0.1737764;-0.18486257;0.2201109;-0.05032429;0.14335635;-0.029202316;0.08355366;-0.015541183;-0.16605055;0.064105615;-0.14131168;-0.0042569865;0.1334248;-0.10122656;0.0062466627;-0.14667805;0.047313556;0.08383282;-0.01553231;0.06396259;0.23590165;-0.15874813;-0.17019293;0.19841638;-0.16624492;0.052669745;-0.022289675;-0.01688849;-0.022100458;-0.25028977;-0.06012825;0.115583055;-0.038810268;0.017635746;-8.650714e-05;0.04237359;-0.01479074;-0.08172538;-0.14299457;-0.15736315;-0.085957885;-0.15043595;0.1476093;-0.015082636;0.09735672;0.16912907;0.07305806;-0.036698375;0.15854998;-0.18653667;0.16537139;-0.23287477;-0.15104192;0.14954261;-0.080064125;0.033449;0.0008168077;0.019101245;0.020875499;0.09298541;0.00035979023;-0.25155574;-0.030322094;0.15109071;0.04547236;0.11116234;0.01919954;-0.16923341;0.18565427;-0.13108774;-0.11147974;0.11867433;0.1013449;-0.2672415;0.013127754;-0.06013498;-0.105761446;-0.005475975;-0.020833952;-0.17276426;-0.033805273;0.033811875;-0.13153814;-0.008441345
0.11696856;0.039598417;0.17280813;0.052663386;0.10023518;0.11244422;-0.059838247;-0.06937927;0.03770295;0.08830969;-0.11398921;-0.16071504;-0.013355258;0.13342366;-0.11360656;-0.16163804;-0.15703095;0.18305197;-0.080120474;0.0049641044;0.2217817;0.15302084;0.07126172;0.009486638;-0.072498284;0.032990806;0.033066683;-0.0113590555;0.05264655;0.05572646;-0.21811974;-0.010623631;-0.16435084;-0.07012609;0.056827083;0.025810841;0.017579837;-0.067531;-0.013583499;0.0534841;0.011070756;0.12256776;0.22142449;-0.07305262;-0.046265617;0.08216994;0.014692253;0.008537267;0.043968465;-0.30713034;0.042610653;0.10549439;0.13967289;-0.0130878175;-0.06989651;-0.13481353;0.11870993;0.018259121;0.031834524;-0.03430054;0.008734454;0.13025557;-0.04963337;0.035897497;0.046237614;0.031332612;0.0024145336;-0.054089822;-0.2561559;0.11037796;0.042771492;-0.047649715;-0.06283767;-0.025795655;0.21017918;-0.12887841;0.20842844;0.046052624;-0.13591431;-0.04595893;-0.062847644;0.08858439;-0.05061521;0.10577575;-0.05172733;-0.024301827;-0.07081664;0.12195602;0.018899558;0.053897295;0.05515575;-0.033965815;0.05105522;0.046797562;0.07954919;-0.047188282;0.13074826;0.033370446;0.0030099822;-0.07205656;-0.14751925;-0.051414978;-0.13325705;0.0053613433;0.010389645;0.18397087;0.16904974;0.091988556;0.044978715;-0.13691494;-0.013494397;-0.23476896;-0.14913507;-0.04897876;-0.075085066;-0.12756234;-0.15352015;0.06679878;-0.10967503;-0.08719391;-0.115444034;-0.12615742;-0.00806287;0.19179244;-0.077262685;0.004663603;0.027634839;-0.0091151865;0.048153304;0.17387623;-0.08697477;-0.066150345;-0.13198508;0.021377556;-0.123132825;0.012841489;-0.038202655;0.016193032;-0.0003969715;-0.1786534;-0.034662668;0.08047584;-0.16383544;-0.09378786;-0.09946743;-0.16226988;0.118598804;-0.098655276;-0.076568134;-0.0069944244;-0.031583115;0.12226595;0.10996466;0.036019135;-0.18843962;0.039040662;0.07920233;0.08574528;0.026218861;0.08104762;-0.1538648;-0.0070253024;-0.16764691;-0.0019276262;0.03300069;-0.08410574;-0.02606508;0.10394162;-0.06653106;0.0004961795;-0.044295542;-0.03782013;0.08159644;0.06038535;0.035474647;0.030132763;0.06728453;0.061148018;-0.17611219;-0.16011088;0.10288418;0.10109355;-0.05408837;-0.01139065;-0.039482668;0.057313845;0.00853602;0.045073617;0.12706138;0.16879125;-0.04952164;-0.010782402;0.10859342;0.12634046;0.0003874058;0.0019462974;-0.10590109;-0.08123809;0.11155874;0.1298535;-0.13259189;0.04460614;0.12842673;0.056484014;0.059558704;-0.048992302;0.04871137;0.0029617595;0.006489756;-0.0153537765;0.027383326;-0.07928437;0.02123274;0.076570675;-0.035594404;-0.11098613;-0.042156193;0.05501229;-0.15578419;0.076987006;0.245515;-0.05445559;0.07034058;-0.08402159;-0.13716646;-0.102196276;-0.0016437381;0.06765796;-0.10750369;-0.15970409;-0.117595516;-0.100148864;-0.0013450899;-0.019916212;0.06356484;0.06885337;-0.012849259;-0.022482265;-0.016576149;0.017456172;0.10236763;-0.05296529;0.02690419;0.18044157;0.10808895;-0.14717397;0.07486082;0.014943691;0.027039088;0.06567272;-0.04421106;-0.076320104;-0.15342842;0.04750266;-0.13864902;0.02568935;0.16382203;0.00880075;-0.07846118;-0.04956467;-0.10181628;-0.09250378;0.0063593304;0.15704164;-0.0025671544;-0.020505212;-0.04096176;0.03260663;0.032875832;0.12001728;0.06263145;-0.10504761;-0.30313286;0.03565108;-0.1404113;0.11189787;-0.05311473;0.06319465;-0.010494086;0.026209898;-0.02162361;0.06776696;-0.00085816265;0.066456944;-0.03887599;0.03391534;-0.04825401;0.011877466;-0.08463934;-0.16200896;0.07003701;0.19448005;-0.026228191;0.15434882;-0.12440851;-0.28053838;-0.036479;0.025541719;-0.08117345;-0.07478389;0.049079355;0.00021751573;0.05754599;-0.043626357;0.0013538221;-0.24016775;-0.05794611;0.12016183;-0.05971961;0.015660571;0.083866715;0.0049961545;0.040355988;-0.010260789;0.027631614;-0.076170936;-0.10285496;0.09683091;0.2696017;0.027218757;-0.031971343;-0.16263926;0.027811367;-0.02474378;0.020082362;-0.055366896;0.026132088;0.032496363;0.15454248;0.018112268;-0.08150667;-0.08308675;0.10339655;-0.0535906;0.04231667;-0.015105451;-0.09948089;-0.2565056;0.17830996;0.06452101;0.114876404;-0.04378925;-0.014143664;0.061606277;0.21397196;-0.17154945;-0.14408635;0.103739135;0.08297719;0.12738255;0.111881785;-0.12258816;-0.04718174;0.0336347;-0.05452948;0.15633678;0.03662715;-0.1274284;0.16150479;-0.09412628;-0.14854094;-0.03459504;0.056285847;-0.011006255;0.19902502;0.22300903;-0.12343411;0.02427545;-0.17037581;-0.15411767;0.06957191;-0.2916344;0.21842147;-0.11397682;0.13301058;0.02199708;0.19198073;0.05141353;-0.08188395;0.008279832;-0.054989167;-0.020846816;0.03897701;-0.077452585;0.11409099;0.012684611;-0.09582629;0.0014462781;-0.039929453;-0.0663086;-0.06257367;0.1504885;0.000892648;-0.078823626;-0.10402395;0.09806463;-0.25490576;0.20709193;0.10901922;0.1291172;0.09526563;0.061667792;0.18580803;-0.15269117;-0.07736194;0.015193157;-0.19906135;-0.14508222;-0.13717201;0.014923737;0.13527083;-0.10495942;0.16229284;0.05849069;0.014763539;-0.050239876;-0.0034806214;-0.14133479;-0.0041611027;0.10146976;-0.026615648;0.13634884;-0.025296263;-0.016400341;0.002387271;-0.06311979;0.0334262;0.008114895;-0.02148563;0.05721379;-0.16244516;-0.067813896;-0.16638437;0.012947945;0.03237556;-0.2583579;-0.055171274;0.09092114;-0.045646418;0.20104042;0.0149755785;0.1419848;-0.041248027;-0.10655349;-0.18183069;-0.17917415;-0.03246129;-0.19973953;0.18486702;0.09798329;-0.030623725;0.090058714;-0.042763293;0.06928023;0.090353474;0.20825826;0.05711306;0.011413365;0.06703204;0.04043119;0.0980969;-0.055202045;-0.06705781;0.17507045;0.059541166;0.014306505;0.13644;-0.2409092;0.0034698732;-0.052505817;-0.1696019;0.10837187;0.028494187;-0.013481546;-0.05644976;-0.12895235;0.012518956;-0.03638434;-0.16795719;-0.14807814;0.10572282;0.17680494;-0.040413313;0.030718183;0.10436814;-0.066940136;-0.22503169;-0.048894417;0.05529261;0.1894532;0.08895372;0.05610028;-0.13101856;-0.058796037;0.1336891;-0.1322882;0.1825873;-0.08505687;0.048866358;0.0042429124;-0.014631658;0.09413141;-0.04034712;0.034160256;0.12284697;-0.034133967;0.023983177;-0.09501246;0.04984454;-0.060029626;-0.006496738;0.11492527;0.09351261;0.070699304;-0.082837746;0.08198482;-0.086596355;0.04450748;-0.024511833;0.041681763;-0.06610615;-0.08288296;-0.102591954;0.00052424794;0.031095918;0.07098269;-0.011229511;0.18924873;-0.06460409;-0.07160475;0.09361189;0.063490406;0.117033266;-0.16081639;0.10610159;0.039115194;0.08953687;-0.042474538;-0.06853119;-0.088614516;-0.035239384;-0.08347709;0.11584662;-0.20163047;-0.22995247;-0.07680794;0.04426803;0.041347466;0.08345841;-0.10406355;0.09841992;0.088728875;0.097102284;-0.14298587;-0.21250147;0.084372014;-0.059554297;-0.08076654;0.08735655;-0.15103453;0.16223624;-0.032743618;-0.06654322;0.14366569;-0.025553832;-0.28326246;-0.14604825;-0.11785814;-0.072677776;0.070156865;-0.073920205;-0.2007729;0.058819972;0.025235804;-0.04299062;0.1398467
0.04113464;0.084706485;0.15476431;0.087740175;0.00016066033;0.1484328;-0.16670342;-0.13154958;0.1516678;0.05399895;-0.10083571;-0.1803547;-0.043163154;0.03201146;-0.017518645;-0.1373963;-0.09813593;0.22665325;-0.07707296;-0.16110371;0.08787938;0.089949645;0.16614641;-0.08309725;-0.044991918;0.09892023;0.05739138;0.018304326;-0.05869643;-0.007696423;-0.12818074;-0.020820344;-0.0011746682;0.044611193;0.08183327;-0.015791332;-0.020850934;-0.1344227;0.0300641;0.12537497;0.026119538;0.08429054;0.13883714;-0.080344036;-0.04636904;-0.112234645;0.15963054;0.0107635055;-0.07718191;-0.25629744;0.0018989972;0.17337099;0.17159651;-0.095034294;-0.03617458;-0.19988027;0.13527606;0.074287154;-0.09593583;0.20715162;0.052186523;0.039810754;-0.14472328;0.041900564;0.08774169;0.044598076;0.013509371;-0.14148252;-0.27034208;-0.0038712334;-0.024158893;0.04963735;-0.1629527;0.02003456;0.292235;-0.12757026;0.2514686;0.1306374;-0.0075473194;0.012201275;0.061922163;0.15224119;-0.075929396;-0.035757534;-0.00045147722;0.026260735;-0.008505818;0.19695911;0.038609855;0.09819628;-0.11810705;0.1636866;0.055497296;0.07953414;-0.0047401832;-0.06536085;-0.034674443;0.024352876;0.026293302;0.12533751;-0.174883;0.10737166;-0.08111757;-0.051329266;-0.060067903;0.06791043;0.24243024;-0.0060477685;0.16218045;-0.12633404;-0.010659045;-0.06438135;-0.09837472;-0.03850576;-0.12612979;-0.07449195;-0.24460045;-0.027943367;-0.08178472;0.01640728;-0.092645824;-0.054108784;0.02125006;0.25486618;-0.06685135;-0.0063971775;0.0579122;-0.0005033152;0.0426841;-0.00038431678;-0.29062656;0.05800714;-0.23581037;-0.14476226;-0.026181377;0.088301286;-0.07639965;-0.06607498;-0.09115977;-0.08038676;-0.15024844;0.019667339;-0.19827233;0.104894355;-0.1181509;-0.06426028;-0.030614553;-0.06356594;0.0021786145;-0.0886312;-0.08693913;-0.001371282;0.103651956;0.007234032;-0.07014882;0.13407597;-0.01133978;0.11471577;-0.013740925;-0.12859155;-0.07270573;0.000111632144;-0.035526466;0.05136285;0.10537741;-0.10418081;0.120708235;-0.06922325;-0.022943202;-0.07611271;-0.0077242246;-0.112598814;0.016162306;0.033816658;-0.026438888;-0.04821597;-0.026009355;0.04677374;-0.22412735;-0.01847302;-0.010307049;0.030460654;-0.14010035;-0.049555477;0.063985616;0.057865515;0.13087359;0.08030566;0.20266962;0.092540726;0.03468376;-0.074090935;0.028820375;0.20779788;-0.12673518;0.13929215;0.018520536;-0.11809323;0.16513775;0.07327249;-0.13959727;0.004375846;0.15130183;0.014213419;0.30474862;-0.0962755;0.22910368;-0.10633407;-0.06033148;0.1547815;-0.022618786;-0.045576483;-0.020011611;0.0461214;-0.019998662;-0.07815576;-0.015624562;-0.0049952324;-0.109412685;0.16309531;0.18640527;0.10036785;0.19509043;-0.13510393;-0.15422267;-0.15718101;-0.05157354;0.0015762787;0.0088482825;0.033968147;-0.038912673;-0.019142712;0.039515354;0.11659738;0.22333756;0.02985171;0.014427105;0.0034874703;-0.06512411;0.086349204;0.04907;-0.12045068;0.023074502;-0.10565514;0.22914208;-0.10101728;0.14273721;0.00025694998;0.050818365;0.041218787;-0.04811408;-0.07278839;-0.04170251;0.05944369;-0.105610766;-0.019595634;0.13699567;-0.025374396;-0.0047985264;0.012319398;-0.097168565;-0.07321374;-0.017085271;0.17346966;0.02679574;0.07297729;-0.18637311;-0.08161613;-0.023346538;0.13664176;-0.043228995;0.038391378;-0.29216033;0.15721986;-0.13779455;0.14620887;-0.0037417824;0.19584572;0.061767876;-0.05797713;0.059027098;0.09752436;-0.19271256;0.036854822;0.010357157;-0.047826502;0.13349405;-0.14216699;-0.06720769;0.0983439;-0.042880036;0.17843801;-0.106288835;0.1265164;0.005273361;-0.16949743;-0.039040968;0.030424556;0.0711454;0.019332564;0.0565895;0.08597423;-0.027277768;-0.028364554;0.056534406;-0.002427815;-0.0921431;0.07449999;0.013930841;0.14320852;0.0069807274;-0.02342872;0.119535945;0.045738876;0.01644648;0.07827591;-0.043550692;0.14548564;0.18318594;-0.021224698;0.036322724;-0.21373847;0.03964584;0.011320821;0.11160808;0.07084205;0.0034493236;0.049205143;0.22550315;0.050525073;-0.0012782128;-0.046786346;-0.012849532;0.12904227;0.111104;-0.017352294;-0.104322195;-0.23544243;0.24855968;0.15841193;0.16539374;-0.04310888;0.03573487;0.01184506;0.10395099;-0.17962888;-0.0199144;-0.0014345727;0.08419293;0.14270939;0.2503692;0.026369378;0.07096167;-0.04830878;-0.03881782;0.1127921;-0.01683321;0.053267498;0.1373781;-0.061871957;-0.08878343;-0.09476221;0.034350194;-0.023694059;0.1790575;0.25110978;-0.012465858;-0.053473268;-0.13674714;-0.022406982;0.11066383;-0.18803139;0.0066142958;-0.1834117;0.23617162;0.010094069;0.095468126;0.06415988;-0.14338097;-0.060299397;0.003901447;0.026069578;0.092347965;-0.1959439;-0.0053374455;0.079306625;-0.08341674;0.0411534;-0.032679677;0.053677343;-0.06604773;0.19277474;-0.012962262;0.040367797;-0.07611485;0.12776357;-0.0957502;0.08604418;0.07131969;-0.06099782;-0.09676208;-0.06938908;0.02409829;-0.11796008;0.07428824;0.051841956;-0.082354404;-0.111794785;-0.058408372;0.075927556;0.119469635;-0.052839756;0.23041314;0.1389151;-0.07284198;-0.09803584;-0.012118074;-0.09294455;0.045614358;0.049147617;0.074180245;0.07274237;0.028675124;0.03900549;0.014063542;0.13611937;0.16440342;0.15126453;-0.023618218;0.038813412;0.05298217;-0.10286768;-0.2775752;-0.04753232;-0.032645985;-0.17182697;-0.015288069;0.19119349;0.07474492;0.15080082;-0.023026774;0.107913606;-0.04336341;-0.038273577;-0.0786788;-0.2578477;-0.066430815;-0.076195866;0.09754717;-0.052367114;-0.12652329;0.20361052;-0.104919024;0.005406288;0.096214496;0.17387328;0.0674944;0.1532096;-0.0406118;-0.0712959;0.09713604;-0.09984714;-0.041460674;0.0057136444;-0.026816737;0.09504421;0.0555136;-0.2443933;-0.05420296;0.082168326;-0.09209354;0.14465241;-0.08388313;-0.10931694;-0.09020862;-0.2601108;0.07715441;-0.107134886;-0.15701768;-0.010342064;-0.01693076;0.084559344;-0.08524279;0.055851255;0.02905189;0.024690097;-0.044699535;-0.086120486;0.015042394;0.26051468;-0.03792317;0.016840665;-0.012983355;0.002346492;0.11909832;0.117944635;0.08261354;0.027913198;0.0053488063;0.14046478;0.077564605;-0.07890711;-0.10333763;-0.0172727;0.01517873;0.02973343;-0.12790182;-0.22013506;-0.07640712;-0.094290085;0.033714186;-0.12716822;0.09900299;-0.18068428;-0.15790804;-0.03353795;-0.23378953;0.1975051;-0.12414694;-0.070823096;-0.016130313;-0.12755185;-0.18839827;0.09809538;0.06456663;0.04836582;0.013295999;0.054590005;-0.04853711;0.0022440075;-0.024263468;-0.096726134;0.21890064;-0.09599269;0.10233143;-0.05002922;-0.017702246;0.0054053627;-0.15510206;0.10997693;-0.075989224;0.0020305165;-0.07513071;-0.2964313;-0.082541294;-0.07054611;-0.0937764;0.08820948;-0.0423963;-0.024816498;-0.054889027;0.048109584;0.026117694;-0.17633264;-0.10209181;0.0901505;0.07398768;0.12540711;0.10527084;-0.17887628;0.18203077;-0.20530048;-0.09410217;0.20575026;-0.035248313;-0.29401034;-0.096768394;-0.069079;-0.038469553;0.12824915;-0.17921087;-0.21298632;-0.02291714;-0.0053559826;-0.0337334;0.15133661
-0.04163062;0.09869641;-0.048139114;0.071273364;-0.07295589;0.15052399;-0.09047209;-0.13748334;0.13663304;-0.02284228;-0.007183868;-0.15564607;0.05682799;-0.01814961;-0.14513785;-0.14005315;-0.16236953;0.059547313;-0.048851665;-0.12020877;0.09094701;-0.027590152;0.13003825;0.044653855;0.06549645;0.19137052;-0.06295044;-0.102934495;0.017666483;-0.0038803085;-0.107816584;0.013916833;-0.08349962;-0.01394786;-0.049261555;0.10947625;0.10876575;-0.11764725;0.036732666;0.020587556;-0.00028845953;-0.06561857;0.16026105;-0.12269261;-0.15563144;-0.012971007;0.038999874;0.014282046;-0.1053431;-0.07078771;-0.10859764;0.10053085;0.020839922;-0.1134057;-0.0009038981;-0.24229434;0.1460421;-0.027722307;0.032207925;0.17538208;-0.050042577;0.087135285;-0.13516107;-0.062292017;0.009321678;0.018850515;0.070617296;0.07749279;-0.18095422;0.09259345;0.0537553;0.020383555;-0.0048905453;0.081317104;0.22001228;-0.12444019;0.23122431;0.15416828;-0.08998635;-0.12609743;-0.06345308;0.035385713;-0.08538497;-0.045875337;-0.16455525;0.109662466;0.023595328;0.27091268;0.037847996;0.06003146;-0.013306479;0.2472526;0.16127075;0.12911263;-0.16145208;-0.069033794;0.122081965;0.11159299;-0.094784446;0.02914015;0.026813399;0.1618714;-0.05074201;-0.25469643;-0.05590411;0.054329284;0.26851788;-0.120109074;0.08879297;-0.05057398;-0.010075183;0.060311425;-0.17062917;0.0620951;0.024597766;0.095836245;-0.16976357;0.013006947;-0.06412992;-0.06854681;0.0904546;0.035514284;-0.1238392;0.23665711;-0.0464874;-0.096014075;0.07144899;-0.09367966;0.015307632;0.15947017;-0.081763834;0.07291026;-0.13759209;-0.13865194;-0.1040335;0.0071244645;-0.11661283;0.12268141;-0.027562628;-0.17210633;-0.091783985;-0.10844766;-0.1451966;0.089449815;-0.087939024;-0.105651155;0.07666085;-0.15308383;-0.15968268;0.05065545;-0.06379207;-0.01083769;0.08699424;0.0045715924;-0.18011004;0.009347493;-0.026119094;0.07056923;0.078436516;-0.033722185;0.022711145;0.031009277;-0.0011367103;0.01691204;-0.009002399;-0.18788703;0.12498748;-0.021194085;0.09032901;-0.1541269;-0.08073992;-0.1264093;-0.061611153;0.094222866;-0.07188113;-0.023088276;0.08498752;-0.028309545;-0.1914323;-0.07390226;-0.07365241;0.012325737;-0.19131505;0.07633978;-0.08840726;-0.12675832;-0.12617218;0.10246358;0.010413889;0.080845945;0.05793642;-0.071344115;0.05432274;0.12120604;-0.0042629964;0.036748946;0.08789916;-0.04226238;0.20501922;-0.0075711836;0.029915655;0.078974016;0.14361213;0.105258316;0.20182931;-0.02479132;0.117075525;-0.011685074;-0.045469657;0.13479432;-0.021557702;-0.069198035;-0.1329887;-0.0011128304;-0.046434376;-0.04699271;0.07614192;0.041779306;0.03820416;0.2404838;0.1371633;0.006652991;-0.074112095;-0.1890339;-0.2493705;-0.023428844;0.07520493;-0.062429015;-0.009974086;0.07366018;-0.13609976;0.042374227;0.13735744;0.21624912;0.11359728;0.08132859;0.110626236;0.015486574;-0.059448577;0.05139519;-0.08823072;-0.014598431;0.03332418;0.0381913;0.017991554;0.059605528;0.15638448;0.084707126;0.024512433;0.061552793;0.16245346;0.003130554;0.02476315;0.07936381;-0.10745279;-0.16159981;0.10584908;-0.15004167;0.083662465;0.0872322;-0.08019818;-0.036948625;0.09198137;0.14870442;-0.031867594;0.045351315;-0.060002834;-0.1601763;-0.1216073;0.16065608;-0.105765715;0.10667667;-0.09339778;0.1731056;-0.05979242;-0.03609957;0.079015516;0.042582385;-0.08039553;-0.10163048;0.0044185626;-0.08719584;-0.011143022;0.073227055;0.098123334;0.054937843;-0.06294226;0.12547967;0.1028565;-0.018431759;-0.0382354;0.19664209;-0.04584887;0.14211527;-0.038982477;-0.12692268;-0.13739218;-0.04427552;0.08850816;-0.051162355;-0.023358088;0.079133265;-0.043794308;0.015939472;0.10690464;-0.1362366;-0.040613353;0.16818996;0.05653369;-0.07429036;0.09433186;-0.1494123;0.05915012;-0.08341656;0.07608576;0.0065602395;-0.05959594;0.13934025;0.19961457;-0.05087122;0.030073848;-0.1314664;-0.14721134;-0.0046392856;0.06599601;0.055964593;-0.02714334;0.06485835;0.19769095;-0.06303998;-0.039668895;-0.17310356;-0.029621784;0.05542375;-0.10682853;-0.1048823;-0.027456101;-0.1898779;-0.029439587;0.21697643;0.17099737;-0.008392304;0.13306439;0.017252048;0.057378396;-0.19986254;0.07359009;0.061679997;0.22764361;0.042293727;0.09213584;0.103323035;0.07994872;0.13629813;0.027802475;-0.110743605;0.09548004;0.057805553;0.035352185;-0.05265614;-0.19755302;-0.16194828;-0.012385923;-0.2321527;0.120634444;0.071122095;-0.055372823;0.068665996;-0.043154012;-0.08687226;0.05478657;-0.132406;0.21847843;-0.13891244;-0.01457345;0.012034174;-0.060037993;0.102450155;0.06768207;-0.16029797;-0.03565131;-0.029012157;0.06001151;-0.12739255;-0.0982902;0.08445058;0.04874767;-0.103040345;-0.10965114;0.025127832;0.023702197;0.26555264;0.14275369;-0.04381651;0.05967601;0.05945513;-0.07376275;0.17607225;0.09052255;0.035974186;-0.14427483;0.051791742;0.12835623;-0.23862725;0.0069487765;-0.10997392;-0.07957872;0.007832156;-0.14887148;0.22090021;0.16211228;-0.013398519;0.27754673;0.18009548;-0.07570848;-0.04050687;-0.0312728;0.03307963;-0.12029558;0.03205033;0.08020265;0.15984094;-0.23212902;-0.09055246;0.05071678;-0.00078792084;0.20996442;0.1290215;-0.14518245;0.15040937;0.005920019;-0.052377813;-0.22324502;-0.04051115;0.07467951;-0.32468462;-0.015209273;-0.026151946;-0.074713655;-0.062013812;0.024074035;0.07722381;0.13397777;-0.14434919;-0.17963819;-0.17215674;-0.044020142;-0.21942642;0.10564108;-0.04969745;-0.050799605;0.064742655;0.06835013;-0.012085824;-0.10955285;0.1103356;0.03032319;-0.050819885;0.17065695;-0.08478815;0.028446434;-0.0675393;-0.05513203;-0.03262389;-0.02797153;0.08546497;0.12588225;-0.27688414;0.1256983;-0.0579635;0.04875696;-0.021045446;-0.019126957;0.0007328708;-0.0480147;-0.108019866;0.020955542;-0.027909841;-0.024284374;-0.015605806;-0.12010877;-0.0044488288;0.0375661;0.072050594;-0.013030854;0.044314194;-0.020694828;0.08661061;0.028164454;0.16848718;0.12020982;0.121096864;-0.1756172;-0.019336365;0.20856968;0.03755083;0.035844877;0.04924927;-0.19458596;0.09977507;0.111537196;0.09262127;-0.12732363;0.15957794;0.11781551;0.029228773;-0.15458177;-0.04601823;-0.07001089;-0.06701453;-0.16431223;-0.084967814;0.08879368;0.011031519;-0.22025557;0.01224768;-0.17304848;0.25523755;-0.04279647;-0.05351344;-0.050497796;-0.08063386;-0.2018682;-0.026849423;0.08380274;0.107398584;0.06802543;0.14253144;-0.10324579;0.05282216;0.15767054;-0.1273543;0.053101666;0.10752824;0.2595618;0.10778537;-0.039215352;0.05393044;-0.16264977;0.003806669;-0.08406817;-0.09064209;-0.14101778;-0.34495482;-0.12314645;0.10125949;-0.045139384;0.014974731;-0.0022225052;0.09887557;0.0152680315;0.06661617;-0.04962807;-0.12262953;0.13550383;-0.008735984;-0.11539728;0.10223053;0.14489326;-0.051214222;-0.0036513738;-0.05725262;0.15514003;0.17215003;-0.046291284;-0.2494898;0.06273266;-0.031539436;-0.01649257;0.1475569;-0.07516794;-0.070524834;-0.07050889;0.10934342;-0.058935527;0.013277214
-0.017783897;0.045086816;-0.044796474;0.27592573;0.021867419;-0.027577002;-0.21509057;-0.0024133604;0.021720631;-0.07283637;-0.015233683;-0.11606159;-0.12465993;0.13473499;0.03247906;0.0527369;-0.14008161;0.19193439;0.019085027;-0.11177101;0.009534023;0.034072496;-0.05946486;0.009697012;-0.07281524;0.1403064;-0.036880236;-0.07061266;0.13141823;-0.101958275;-0.06500556;-0.024227047;-0.10322732;0.09728097;-0.04198172;0.04266117;0.069179565;0.112546526;-0.00026616297;0.12945001;0.16338897;0.08655579;0.21755567;-0.05310678;-0.18804166;-0.014635009;-0.0071295835;0.1633444;-0.06726604;-0.18536319;-0.11349608;0.039376352;-0.128814;-0.26443627;-0.018937642;-0.33862513;0.087898806;-0.039702963;-0.16054046;0.114963695;0.040368523;0.056892276;-0.1436685;-0.04267243;0.09458785;0.07875379;0.057949543;0.07616379;-0.111351274;-0.034036245;-0.054035496;0.028297374;-0.22115123;0.15556408;0.061179683;-0.06616626;0.08743509;0.08784485;-0.008346368;-0.109091304;-0.12299058;0.17888825;0.025125014;-0.02891333;-0.1449112;-0.067858286;-0.062934555;0.22544159;0.048529744;0.25279015;-0.056152236;0.19760747;-0.024300402;0.08041352;0.03381224;-0.026262749;0.07508523;0.11700437;0.02865123;0.06586903;-0.012814687;0.07440354;0.10724924;-0.22406387;-0.014807424;0.082199074;0.27282536;-0.07766988;-0.15587455;-0.09423933;0.057484746;0.02570157;-0.008184595;-0.0034926175;0.12461699;0.068649545;-0.09508076;-0.07714057;0.006801625;-0.09526172;-0.0052015055;-0.05872104;-0.12712184;0.15171608;-0.119073786;-0.11586076;0.10449253;-0.11380954;0.07634253;0.080251925;-0.16850823;-0.055554423;-0.08415514;-0.015272429;-0.03473777;-0.019203026;-0.09423664;0.21344629;-0.2666313;-0.04922341;0.07197673;-0.09765772;-0.20565778;0.11440387;-0.011623894;0.08412437;0.14968146;-0.28803447;-0.07205296;0.24194735;-0.15882476;-0.08339251;0.117462255;-0.032528196;-0.23033519;0.08012352;-0.101854004;-0.050058756;0.22502469;-0.122263685;0.01962305;0.018496942;-0.13563049;0.06030098;-0.121648;-0.2850235;-0.030102842;0.19464818;0.017365713;-0.13040896;-1.595033e-05;-0.23916267;0.058549475;0.10954882;-0.117326975;-0.07467417;-0.10673856;0.122345805;-0.13008606;-0.12137864;0.017301576;0.0727299;-0.12876636;0.18855359;0.030476905;-0.011129674;-0.17008288;0.06668097;-0.16866213;0.0378525;0.11039356;-0.02299851;0.21177492;0.122226015;-0.147949;-0.035029642;0.0327366;0.034609627;0.08056641;-0.03832184;-0.0597137;0.178035;0.018189302;0.15359962;0.09259451;0.12142972;0.118607804;-0.19639921;-0.10705223;0.0874534;-0.086448886;0.09847912;-0.1171407;-0.026405223;0.008855764;-0.037696943;0.1594687;0.048163246;0.14497524;0.1478016;0.13746561;0.08932821;-0.1798407;0.081823334;-0.12753728;0.0072397944;0.050040737;-0.066618755;0.11733919;0.17447232;-0.08215003;0.032869224;-0.007423891;0.008095421;0.20403749;0.091722965;0.0051609403;-0.0894658;-0.10527596;-0.054390166;-0.050257094;0.07181959;0.022730626;-0.20716156;0.07320821;0.040345002;0.12269763;0.1777548;0.0620905;0.02457678;0.0921724;-0.008650149;0.06112916;0.031338897;0.13438731;-0.19512413;0.23727389;-0.18104117;0.0693889;0.07278313;0.039906826;-0.1681744;0.070207916;0.087386824;0.02264777;-0.04667165;-0.102055825;-0.09551652;-0.19631769;0.16878013;-0.05489963;0.085562006;-0.044173975;0.087634645;0.033128895;-0.03861299;0.080044754;0.28457275;0.03029292;0.043776993;0.027805516;-0.12817305;-0.027089054;0.04997546;0.07949565;0.024141915;-0.06981798;0.096842654;-0.057984933;0.037520874;-0.14128332;0.06778213;-0.101646185;0.15162304;-0.07216475;0.019523483;0.053448923;-0.0028860806;0.1648307;-0.0057696467;0.019612104;0.021713251;-0.036028814;0.14545189;-0.076589465;-0.2474339;-0.14058055;0.044888686;-0.10588164;-0.026208725;0.1611689;-0.0994458;-0.023505628;0.059435725;0.12912272;0.02405718;-0.034621384;0.08724316;0.06261064;-0.16099073;-0.08379222;-0.20034158;-0.043308742;0.108173415;0.15288854;-0.16314057;-0.070437126;0.13026471;0.23154585;0.112986945;-0.03214938;-0.022999078;-0.09678845;0.04488144;-0.0755026;-0.0054043788;-0.2444286;-0.25190195;0.1732514;0.11715373;0.03628996;-0.002729998;0.077347465;-0.05641669;0.11135264;-0.20590402;0.16808422;-0.09733761;0.19826937;0.077408105;0.1947275;0.016835887;0.041952603;0.10483962;-0.07539329;-0.13324425;0.020710886;-0.008786534;0.14421931;-0.035731036;-0.15687418;-0.15062043;-0.02020903;-0.15820952;0.044394664;-0.008047216;-0.14900416;0.09616702;-0.090505995;-0.013032895;0.11544969;-0.07946254;0.05935256;-0.120630436;-0.0023832438;0.07090234;0.07200187;-0.005249609;0.16697262;-0.147643;-0.11075807;-0.072056316;-0.122875504;0.017782899;-0.019630179;0.026518421;-0.06541723;0.07018287;-0.03484688;0.11431574;-0.17531621;0.3118155;0.119688824;-0.040621396;0.081457876;0.061387897;-0.02829114;0.11818679;-0.008382309;-0.16223066;0.003332106;0.09621601;-0.05604559;-0.21417041;-0.031007955;-0.15732539;-0.1490552;-0.21089917;-0.15149;0.29627496;0.15420316;0.10026258;0.10850164;0.07681046;-0.16682008;0.06364784;-0.17098203;0.12634692;0.050206415;0.032408692;-0.014930906;-0.050841726;0.0036647045;0.071241125;-0.03651373;-0.03168964;0.26281554;0.17155066;-0.069160275;0.014978394;0.036474884;0.15353635;-0.2400001;0.06795357;0.046734497;-0.44161955;-0.04298495;0.08722308;-0.08784084;0.04071854;0.14000563;0.12068926;0.1631656;-0.11919168;-0.14779443;-0.31037885;-0.05939706;-0.20821133;0.15017205;0.044295266;-0.07989348;-0.0056934874;0.048785493;-0.1447792;-0.12671219;0.087071806;0.054590307;-0.050634164;0.12026942;0.060574774;0.1739585;-0.14707588;-0.2689643;0.074286826;-0.017848248;-0.06490637;0.11196862;-0.19865339;0.029002022;0.044534285;0.201296;0.059606522;-0.096251;-0.18751098;-0.048935696;-0.008282716;0.13277218;0.0058544124;-0.037069708;0.025801484;-0.17961046;0.013482969;-0.159732;0.07855603;0.17716144;0.025348188;-0.0062953318;0.14543942;0.0474706;0.014051681;-0.019356385;0.23473732;-0.3059792;-0.08665044;0.1475053;0.11793174;-0.028563527;0.038977265;0.052958127;0.18943344;-0.002088724;0.06754389;0.052616008;0.15651338;0.017616693;-0.08141964;-0.114094354;-0.031662297;0.06239025;0.012789265;-0.17131513;-0.008067397;0.012518602;0.06706418;0.028744422;0.13739368;-0.16294971;0.16827022;-0.0045953556;-0.0517113;-0.057219446;-0.019816684;-0.39344087;-0.00408846;-0.027707262;0.16561252;-0.075748965;0.19183314;-0.07961124;0.14801691;0.24408391;-0.1743812;0.06570199;0.19271146;0.19135624;-0.026156357;-0.09113684;-0.0897027;-0.13954489;-0.014625222;-0.13024218;-0.0816709;-0.12533863;-0.33557624;-0.09256675;-0.051350623;-0.009422844;0.018802308;0.015102242;0.08100687;-0.07136459;0.019504145;0.06287499;-0.12046939;0.08316478;0.04833973;-0.11444235;0.06646924;0.20946823;0.016719734;-0.08984723;-0.1773749;0.031609446;0.1483425;-0.069262534;-0.18810093;-0.09712578;-0.061050974;-0.012265586;0.057389818;-0.06976884;0.057496913;-0.17037135;0.1577602;-0.025456594;0.12752934
0.16446108;0.06935833;0.0042057363;0.11371046;0.047852967;-0.09760892;-0.1751063;-0.075051375;-0.004905658;-0.08909928;-0.0999933;-0.09069443;0.031084009;0.20249154;-0.07835891;-0.032335676;-0.026368052;0.18752559;-0.0014065672;0.03266743;-0.019587517;0.021576323;-0.034461338;-0.048877515;-0.13254832;0.0946033;0.10150939;-0.042467777;0.20126492;-0.08650856;-0.10424464;0.087083146;-0.18144673;-0.012984985;0.16598563;-0.021444203;0.048032295;-0.0021028444;-0.031266123;0.1445383;-0.064149834;-0.058212664;0.23818941;0.015494108;-0.13215198;0.13246723;-0.16007857;0.16110523;-0.05464732;-0.10070221;0.048551008;0.12486568;-0.12871456;-0.25173295;0.0020640097;-0.015730899;0.022132179;0.0181653;-0.014666756;-0.05198497;0.026935805;0.05593842;-0.19657704;-0.12229362;0.08075888;0.09683483;-0.0035540464;-0.08764817;-0.23746654;0.11058962;-0.024241727;0.018201254;-0.11637662;0.13090049;0.20691158;0.00014340293;0.13765495;0.120865904;-0.15628554;0.033312894;-0.036865745;0.06819619;-0.10576861;-0.08151128;-0.021856857;0.033801362;-0.0628836;0.30269593;-0.10687209;0.020569349;-0.025711237;-0.05941901;0.020509304;-0.07689629;-0.052163962;0.09049364;0.05742901;-0.00090668636;0.08954222;-0.064296804;-0.08897082;0.07028574;-0.0022080839;-0.3368353;0.06497113;0.013708279;0.032902885;-0.10709445;-0.15079421;-0.11254692;-0.0019270584;0.040120058;-0.022643555;0.08981258;-0.06633967;0.031549696;0.016683044;0.02483413;0.015261603;-0.012177094;0.047427762;-0.25908336;0.045258522;0.13363175;0.010613312;-0.19790144;-0.04728811;0.051108826;0.023811072;0.07146668;-0.120801255;-0.02194918;0.017197719;0.053728785;-0.07448619;0.13108827;-0.010814436;-0.025355238;-0.17204374;-0.072542295;-0.010379431;-0.08426066;-0.25694454;-0.06398399;0.02973762;-0.1409465;0.13312866;-0.08034605;-0.006078113;0.0068715494;0.0043630106;0.074797325;-0.039330136;0.06795138;-0.124827676;0.11179595;-0.20222706;0.020048756;0.1181846;0.12734766;0.09601324;-0.09136734;-0.064350404;0.08307044;0.11780454;-0.1241913;-0.038586125;0.11958717;-0.05234879;-0.16038482;-0.21849763;-0.18474782;-0.033930205;0.087836854;0.0053070695;-0.09301047;-0.066841416;0.07202187;-0.22442509;-0.078126654;0.049207527;0.010077947;-0.13926023;0.024365494;-0.003769792;0.0026750586;0.111145765;-0.017402094;-0.08246077;0.12757562;0.019203937;0.030676669;0.19178987;0.12739478;-3.909222e-05;0.011645927;0.10574605;-0.0063076722;0.011611129;-0.025085527;-0.12083404;0.018541716;-0.065948844;0.11372518;0.17100497;0.08121844;0.24687934;-0.019037643;-0.15160997;0.009140062;-0.036907982;0.22957599;-0.06885868;0.086247645;-0.023088153;-0.07519795;0.09433592;-0.22073263;-0.11915452;0.29491505;0.13667867;-0.20670718;-0.1703191;0.09161309;-0.14866845;-0.18649538;0.0012511398;0.029316569;0.065487094;-0.05939938;-0.1978158;-0.14295503;-0.0076216883;0.0867257;0.14807321;-0.013746963;-0.10069175;-0.03917032;0.009227065;0.023713456;0.05087275;-0.166419;0.035395153;-0.03904509;0.09807066;-0.054181114;-0.0331653;-0.17298739;-0.08957912;0.071147844;0.15208478;0.026096584;0.06262272;-0.1446603;0.04330774;-0.15711932;0.22527902;-0.12031608;0.060497433;0.15051755;0.03424235;-0.12022635;0.13248125;0.10924631;0.06462358;-0.1991482;-0.047663767;-0.13045672;-0.13687927;0.1447846;-0.030068275;-0.014939845;-0.23334244;0.052221164;0.08546075;0.015315554;0.2644981;0.04217017;-0.13218114;-0.04860202;-0.02536687;-0.04858305;-0.09212941;0.014291753;-0.026456138;0.09470911;0.044020012;0.16573837;-0.11406805;0.03141483;-0.090985164;0.13072307;-0.101579726;-0.060678575;-0.04969396;-0.15179889;-0.0851245;-0.033381876;0.07288646;-0.2503055;0.01278725;-0.012334456;-0.047370695;0.014624825;0.058401052;-0.12313355;0.021554474;0.11985058;-0.1454857;0.0052564624;0.027683469;0.11069488;0.05628306;0.020295981;-0.2095766;0.1104597;-0.17279118;0.12614444;0.1368496;0.024707517;0.034841463;-0.12330992;0.022451188;-0.022184055;0.17953008;-0.046391606;-0.06680712;0.15723571;0.033132285;-0.110359184;-0.009546849;0.019014334;-0.15694189;0.084395915;-0.11363652;-0.12607959;-0.04733404;-0.097563766;0.18703143;0.07191695;-0.044247117;0.006198302;0.03772948;-0.06544512;0.0450438;-0.39554164;0.21675363;-0.14450413;0.12040109;0.06262094;0.15462892;-0.03362951;0.03657428;-0.044214208;-0.044396814;0.064863615;0.20463632;-0.11910358;0.014696044;0.07564608;-0.11000503;-0.17694226;-0.096726075;-0.1356346;0.05470072;0.0499355;-0.07114904;0.104477786;-0.08848129;-0.024216333;0.14280654;-0.15615034;0.076354206;-0.016213177;-0.04597017;0.17948234;0.056894753;0.011454834;0.28149506;-0.11208505;-0.051743634;0.14395039;-0.096456096;-0.07699798;0.07589402;0.0009345824;-0.044174433;0.09942371;-0.07188049;0.08086296;-0.02043709;0.34477437;-0.08347711;-0.10345962;-0.05508056;0.030290967;-0.16188703;0.24184042;0.0668167;0.065095976;-0.08964732;-0.07972986;-0.08683864;-0.19721273;0.007743515;-0.29962888;-0.20068632;-0.067430824;-0.15770009;0.11675002;0.05495219;0.052063845;0.17804208;-0.013125224;-0.15416953;0.06849437;-0.06746685;0.19412807;0.015321167;0.14282201;0.015294093;0.08880056;0.054577485;0.040607966;0.092909105;-0.09180799;0.19188419;0.20380129;-0.13784157;0.046353254;-0.044045493;-0.025045667;-0.16591947;-0.012004067;0.058643732;-0.22534312;0.088847354;0.012017442;-0.098803185;0.047933698;0.083816424;0.07004345;0.19736068;-0.15148063;-0.221862;-0.19632436;-0.13149436;-0.30663517;0.26562724;-0.0010406266;-0.07344769;0.014905038;-0.11825301;-0.039602134;-0.12734689;0.16715552;0.049191646;-0.022151506;0.11765263;0.048391476;0.08275077;-0.027075753;0.017275756;0.11696041;-0.051708076;-0.012128173;0.12285488;-0.2010274;-0.0682679;-0.07439392;-0.009364074;0.080180965;-0.01639937;-0.074537955;-0.07366939;-0.06326237;-0.13409996;0.07498553;-0.022481395;-0.02789756;-0.11077088;-0.027875666;-0.08154199;-0.009294699;-0.08274904;-0.10206223;-0.028092403;0.14013688;0.11390443;0.10674465;-0.10563068;0.029092481;-0.052121684;-0.21827562;0.10379874;0.037296135;0.12562151;0.09089045;-0.018728126;0.08220925;-0.015047785;0.009491811;0.013613317;0.15845855;0.025674585;-0.08724221;-0.15630883;-0.13374785;-0.0501581;-0.027060853;0.07742848;0.027776808;0.038226403;0.013353586;-0.059406772;-0.007763952;-0.07282537;0.063168846;0.03435311;0.04489711;0.018038647;-0.048372023;-0.12713629;-0.10117497;-0.049894523;0.13072614;0.0075470055;0.1769804;-0.2429593;-0.027787607;-0.079273544;-0.10632432;0.20323826;0.08246736;-0.016516559;-0.034329515;-0.10425247;-0.062285826;-0.06658167;-0.09089419;-0.12282819;-0.007999575;0.0024412188;-0.17175335;-0.1550411;-0.09410865;-0.042660236;0.047943074;0.14238065;0.0933975;0.0030355284;0.12250522;0.0514096;0.056284707;0.066196755;0.06593859;-0.07487514;0.121000215;0.11409695;-0.0036137125;0.057285886;-0.030740982;0.061322134;-0.020689057;-0.15833506;-0.1656215;-0.083705895;-0.099311404;0.14179167;-0.0810442;0.013281475;0.011205056;0.05979544;0.13961585;-0.013458967;0.11685641
0.02159276;0.013872715;-0.019189851;0.19103862;0.18524474;-0.08130511;-0.14343987;-0.13175729;0.12608914;0.04621763;-0.24411447;0.030939931;-0.0015388572;0.06778032;-0.105015785;-0.052073065;-0.06157393;0.19551983;-0.10736658;0.111608125;0.06752161;0.09326013;-0.028143082;-0.024464043;-0.023104053;-0.032306146;0.017568884;-0.04176454;0.12212614;-0.032746557;-0.042161267;0.008964088;-0.031181024;0.14011218;0.18381155;0.13760851;-0.01712721;-0.0430776;-0.11062753;0.18925332;-0.0579665;0.0048207976;0.1923079;-0.03718634;-0.17739555;-0.07573082;-0.06379004;0.055958647;-0.12411227;0.18252274;-0.12074309;0.21818934;0.070208505;-0.14298154;0.10565806;0.050493162;-0.03959623;-0.051994134;-0.09805154;-0.1514748;-0.02784374;-0.0043680184;-0.110340975;-0.042390432;0.11758829;0.09318497;-0.09406634;0.0760066;-0.34458727;-0.0073517105;-0.04600579;-0.06516254;-0.08007255;-0.022114182;0.106172994;0.13557021;0.19091542;0.09870302;0.04776559;0.034479782;0.056075882;0.02407566;-0.2642196;-0.14295866;-0.060867894;0.058263455;-0.16128664;0.062468637;-0.14891666;-0.108637765;0.047331944;0.03647388;0.026302932;-0.022761695;-0.13513611;0.072748534;0.13816138;-0.06917148;6.9062953e-06;-0.04159213;-0.18238151;0.14675283;-0.12743649;-0.07794433;0.15379827;0.124410145;0.15045956;-0.112403825;-0.05954072;-0.15053667;-0.09352692;0.021901494;0.08961062;-0.06306124;0.099900045;0.036592443;0.21684586;0.024206603;-0.17538752;0.046289463;0.05218384;-0.17694198;0.077800676;0.1539529;0.041739013;-0.093271464;0.028917242;-0.023389813;-0.103823155;0.15620711;0.0763754;-0.03159458;-0.041898858;0.0005685923;-0.15927315;0.013136125;0.16570505;-0.02412961;-0.09647439;-0.33949682;-0.10154083;-0.2588262;0.07187333;0.04139305;0.13394018;-0.08264157;0.23583668;0.023907965;0.06002853;0.024791593;-0.04644145;-0.06862104;-0.054700866;-0.0005522012;-0.09260853;0.22747266;-0.17876421;0.109761775;0.15326455;0.04033755;-0.0032824364;-0.1490157;-0.16957733;0.14504656;0.07005264;-0.16322638;0.011388888;0.03722308;-0.14287528;-0.08897118;-0.11346676;-0.039469425;-0.052234434;0.10316354;0.09263931;0.08097538;0.044478923;0.087588936;-0.3842876;-0.010747162;0.03218753;0.15996286;-0.08002319;0.10463343;0.008758315;0.11328584;0.1260207;0.006639417;-0.025667645;0.00098954;-0.15251607;-0.04407259;0.06905278;0.042676143;-0.0017782019;0.14721216;0.1456386;-0.023212159;0.16636121;0.04585834;-0.10873916;0.1486043;0.06715223;0.1657011;0.09405403;0.17337057;0.13796346;0.010486866;-0.053182494;0.21713093;0.16721256;0.16757365;-0.0125279585;0.12863341;0.050157826;-0.045317296;0.05378383;-0.04405248;0.024308216;0.27539226;0.22872634;-0.17910501;0.0073986147;0.011505368;0.031549867;-0.22906153;0.060539275;0.0678723;0.025858;-0.020418415;-0.19019254;-0.1766656;0.11332862;-0.031342253;0.15678015;-0.039241485;0.037900448;0.021379689;-0.015907915;0.007163458;-0.060801316;-0.0753683;-0.1920203;-0.043388568;-0.06857876;0.07031641;-0.07251486;-0.11353755;0.17267303;0.031602398;-0.007333658;-0.042446267;-0.08560918;0.029920544;0.10003849;0.019938678;0.32156283;-0.05381364;-0.043642387;0.044461112;-0.07933632;0.03001754;-0.03315733;0.09107371;0.10721846;-0.10156471;0.0014439245;-0.30226457;-0.3215016;0.17196943;-0.15902945;0.00011873052;-0.2862704;-0.08475595;0.026376896;0.14582579;0.26458615;0.013560403;-0.087787904;-0.039546125;0.038208786;-0.18488713;0.009926807;0.037429783;-0.08626244;0.21368161;0.15331525;0.07997001;-0.18166932;-0.11607325;-0.07773292;0.12332608;-0.12695067;-0.039964374;-0.09604439;-0.257962;-0.03782505;0.023120832;0.018600699;-0.10725116;-0.07099569;-0.09332536;0.07847475;0.08746577;0.1667009;-0.108645074;0.027026681;0.14199789;-0.08699938;-0.10733478;0.10484875;-0.08104863;-0.048775904;0.11666006;-0.18231365;0.1612416;-0.24929118;0.09718236;0.12200712;0.024404433;0.06425328;-0.03495856;-0.004808508;-0.19294631;0.13254376;0.0074360906;-0.095081784;-0.118452854;0.14120114;-0.15368113;0.06604496;0.09512071;-0.09180283;0.14840484;-0.2077225;-0.10355133;0.005878231;-0.07711883;0.13430527;0.06798552;0.028688215;-0.0043856953;0.03527179;0.062341448;0.0024629054;-0.25425205;0.07697924;-0.05716957;0.15458874;-0.051714707;0.14124186;-0.16403481;-0.08800022;0.21629743;-0.049605444;0.100870594;0.18056726;-0.118176185;0.11444556;-0.0643896;-0.10885679;-0.17641944;0.06404255;-0.10776815;0.031918127;-0.057691522;-0.12480778;0.2114592;-0.090167835;-0.07580581;0.16718113;0.0019026712;0.17207615;0.07465247;-0.04272941;0.12252156;0.004056697;0.124524474;0.14772087;-0.11031028;-0.054345075;0.1922158;-0.060754485;-0.06687251;0.034719545;-0.1046536;-0.33252686;0.14273395;0.020817574;-0.0544539;0.1700142;0.18225005;-0.13882932;-0.053385805;-0.16512309;-0.07606192;-0.037650112;0.123235516;-0.06409189;0.011724232;-0.0839855;-0.015089032;-0.08940952;-0.17705101;-0.059641205;-0.19109343;-0.0023524312;-0.01223302;-0.14865614;0.19518499;0.08541327;0.06293416;0.23554032;-0.11723039;0.02471637;0.053227663;-0.022723226;0.110262364;0.07536546;0.1452348;0.039051306;0.19557863;-0.019964611;0.061302662;0.09752502;-0.08227459;0.33381918;-0.022928646;-0.2646252;0.108106196;-0.10712215;-0.024537439;-0.10732783;0.014137703;0.049235772;-0.1458635;0.16896582;0.054474488;0.013222662;-0.06807299;0.05329302;0.103795566;0.013395338;-0.23380946;-0.04919067;-0.13794097;-0.17263465;-0.20224941;0.08480155;0.03521285;-0.14986122;0.051679112;0.11150194;0.0050963094;0.098610654;0.09553838;0.07858769;0.060374025;-0.08004642;-0.007885278;0.09068037;0.007459112;-0.070297696;0.0041971174;-0.050785378;-0.099528015;0.21571177;-0.21496515;0.10991379;-0.036445826;-0.04098695;-0.026699197;-0.20448874;-0.11557529;-0.03912664;0.02263185;-0.14367186;-0.06182337;-0.14969625;-0.18460423;-0.1637011;0.15069753;-0.08277805;-0.07387672;-0.021828499;-0.06898271;0.0023211988;0.06986307;0.084587455;0.15877245;0.030945607;0.03295673;-0.12403719;-0.23376593;0.09049677;-0.11097492;0.0552662;0.09584696;-0.056404017;0.17974621;-0.025755027;-0.050321054;0.17500004;0.010726509;-0.06632485;-0.052187715;-0.1520902;-0.08894858;-0.094039895;0.061576873;-0.014191961;0.002588698;0.078638926;0.027408978;-0.019044757;-0.015252635;0.03068567;0.20006566;0.10226322;-0.01008185;0.00015816586;0.04276408;-0.08000359;-0.111921564;-0.2172478;0.014617714;0.020124866;0.157338;-0.18626381;-0.15725437;-0.054362908;0.019045928;0.12212436;-0.026524536;-0.07281257;-0.05884266;0.054184433;0.048576515;0.12009075;-0.18666847;-0.0016315765;-0.2124457;-0.07020309;-0.07012804;-0.03084574;0.08063562;-0.1318939;0.0152054345;-0.024090016;0.13194218;0.052341685;0.039762598;0.10089581;-0.15508372;-0.06488347;0.104314566;-0.26129237;-0.042170808;-0.0051089474;-0.03971127;0.2226212;-0.037983604;0.09408225;-0.038161296;0.0069247377;-0.2583327;-0.017949691;0.067160964;0.17203195;-0.030056745;-0.089743085;-0.0023831741;-0.052714422;0.15485418;0.023747317;0.07437851
0.067084245;0.104364194;-0.057648327;0.14473182;0.11918224;-0.13991795;-0.0374884;-0.0038824752;0.09626794;-0.007369765;-0.24856709;0.00718555;-0.059726782;0.16054478;-0.1260172;0.01203843;-0.047497433;0.23624061;-0.02558009;-0.014504523;0.18446265;-0.018101124;-0.15299483;0.018017009;-0.027848728;0.079358704;0.05537492;0.044155255;0.112512715;0.17392984;0.05998368;0.005488237;-0.12644428;0.11244503;0.11391345;0.13700864;0.17283143;-0.04494836;-0.06769571;0.25221643;0.018738193;0.08492333;0.12394246;-0.019682694;0.013350509;0.0048933947;0.060302537;-0.09700635;0.04461808;0.009542117;0.011746558;0.073793195;0.006634395;-0.026633618;-0.01223402;0.012935894;0.07609084;0.13779947;0.010932162;-0.0055579506;-0.0015424014;-0.07231678;0.035204187;-0.08451867;-0.038513362;0.12525891;0.017980488;-0.06333679;-0.16296643;0.067904525;0.056502815;-0.08803618;-0.1418764;0.08001883;0.090734765;-0.02446238;0.041857734;-0.18491545;-0.04429113;-0.13527566;0.030541135;0.038016394;-0.19405061;-0.025588553;-0.017523985;0.054686476;-0.15736364;0.12117751;0.006197515;-0.014861148;-0.07952041;-0.08898553;0.047276516;0.0018931254;-0.055572208;-0.069147155;0.13886845;0.100488916;-0.025929138;0.00034979053;-0.078842856;0.11048133;-0.043646775;-0.15859698;0.21702561;0.099544495;-0.022895692;-0.004506561;-0.13771452;-0.10562724;-0.07538317;0.10240031;0.041388933;-0.091790095;0.029335955;0.07383048;0.06702328;-0.079828985;0.01128071;0.07956402;0.028866297;-0.40743673;0.2873542;0.17209074;-0.019519066;-0.08941716;-0.027474677;0.15947351;-0.0011527453;0.112725146;0.021342613;0.15732944;-0.018847434;-0.033777013;-0.0023880799;0.08843644;0.10110399;-0.040057916;0.13105792;-0.36299062;-0.078567006;-0.14022234;0.0678863;-0.13506868;0.14069633;-0.08367439;0.1742479;0.11076144;-0.029250592;0.091578126;-0.09965997;-0.027685158;-0.11364046;-0.01490095;-0.12078187;0.06039374;-0.24749424;0.10689833;0.26251316;-0.079026766;-0.09762063;-0.1322628;-0.032573372;0.16161579;0.040613204;-0.2381279;-0.0071228966;0.032580413;-0.02040054;0.00015754602;0.016761726;-0.04371601;-0.13594061;0.13882808;0.11595824;-0.06815786;0.039164156;0.09504712;-0.43520185;0.03854303;0.15959285;0.016856052;-0.14535771;0.09538929;0.10532815;0.12863879;0.09334059;0.059893053;-0.02799029;0.014525268;-0.10258186;-0.038202524;0.11420852;-0.11694216;0.089518026;0.02865635;0.006551381;0.018339703;0.07155155;0.0773571;-0.03621703;0.14822105;0.14907885;0.10873889;0.1819087;0.060955536;0.022974981;-0.2093148;-0.07176798;-0.0012210774;0.03020361;0.23705263;0.05059106;0.03674776;0.063676305;0.0056260554;0.01119194;-0.16114286;0.19765127;0.077050604;-0.0064096637;-0.15342064;0.05199151;0.029372476;-0.021827072;-0.1166872;-0.09213196;0.108614735;0.10404586;-0.1726531;-0.16648015;0.04589472;0.10104399;-0.15485318;0.13944045;0.08689142;-0.11548542;0.06695107;0.008272833;-0.011023649;0.06584906;0.06495089;-0.103264235;-0.0656084;-0.06252005;0.0033342158;-0.15719205;-0.19288446;-0.05032216;-0.07856428;-0.09195045;0.017223852;-0.037448347;-0.009848156;0.003286825;-0.15652712;0.17367531;-0.016978316;0.071481004;0.054484073;-0.011281421;-0.020865945;-0.07130498;-0.1602364;0.07093474;-0.08226339;-0.0045071146;-0.1508822;-0.12536448;-0.05493809;-0.0061255996;0.15658131;-0.3440765;-0.080088735;0.10657625;0.029483939;0.13696614;0.033321377;-0.15929015;-0.008261406;-0.021363141;-0.18603605;-0.14510871;-0.020578058;0.081293814;0.13961467;-0.12817948;0.11967659;-0.10708646;-0.122385405;-0.010533158;0.148246;-0.01981434;-0.04567662;-0.16635089;-0.09844155;-0.07868497;0.049692594;0.06839121;-0.11030667;0.14189458;-0.24558206;-0.030490983;0.15982513;0.074015595;-0.028689489;0.1766826;-0.0047399695;-0.009861243;-0.0019048302;-0.10587387;-0.14529952;-0.076368056;-0.012689993;-0.21290617;0.1545491;-0.11424324;0.030121898;-0.019495582;0.081109904;0.06253644;-0.045138504;-0.05156899;-0.11786561;0.1492807;-0.034905195;-0.12547624;0.041879207;0.011243843;-0.037004873;0.12583067;-0.01846465;-0.20225354;0.054632597;0.0022527587;-0.16254483;-0.08639859;0.114808716;0.24712443;0.079925455;-0.026166638;-0.005249906;0.14236498;-0.0067636217;-0.02084065;-0.39623567;0.16079192;-0.07787699;0.07092531;0.10531567;-0.020372575;-0.18866287;-0.02444828;0.078458175;-0.07064783;-0.07408614;0.08372505;-0.084209375;0.080955885;-0.03643374;-0.25425607;-0.077986225;-0.0850927;-0.06768005;0.085970946;0.1291246;0.02119017;0.14879844;-0.08792756;0.08627392;0.15638895;-0.0704637;-0.020963145;-0.02723597;-0.09961934;0.14759338;0.14018533;0.066418216;0.16536136;-0.15333003;-0.0724076;0.021437693;-0.18583615;0.052334443;0.052317053;-0.046589013;-0.03149794;0.050966978;-0.022692459;-0.048830364;0.08130679;0.12433177;-0.008862647;-0.015562526;-0.1331355;0.017242398;-0.0049338923;0.1005027;-0.05615656;0.015448467;0.10922728;0.014424277;0.14683497;-0.07552226;-0.28256124;-0.0018126207;-0.0183317;0.10909416;-0.18915702;0.1604718;0.03720281;-0.009474303;-0.049708035;0.003902175;-0.120826855;0.13853705;0.021654567;0.31573173;-8.920528e-05;-0.08140677;0.02313422;-0.01511468;-0.015490756;0.01117187;0.08681218;-0.19416898;0.15859509;0.03136348;0.044647384;0.06291942;0.10698322;-0.123661794;-0.13867229;-0.07527558;-0.0024197032;-0.2462655;0.14939414;-0.0010727762;-0.050521716;-5.430226e-05;0.0036456222;0.14038311;0.0788196;-0.14415182;-0.13439587;-0.1408029;0.07504924;-0.22647943;0.11847385;0.117485024;0.07621453;0.1309937;-0.09724993;-0.11892629;-0.10188217;0.13039142;0.06996291;0.13016166;-0.06478899;0.118975736;0.11772185;0.044164754;0.068233304;0.024062904;-0.03601213;-0.24540529;0.11024663;-0.15803868;-0.09442857;0.08796023;-0.14653163;-0.05909854;-0.15102957;-0.0982803;0.13805525;-0.026816193;-0.17193383;-0.088249125;-0.05957575;-0.13812482;-0.17004491;0.029652357;-0.09569099;-0.06541393;0.071334474;-0.2282431;-0.036915474;0.16980289;0.033131704;0.15093423;-0.11034795;-0.05209496;-0.07314932;-0.18756394;0.027502747;0.06139366;0.09245553;-0.087056614;-0.022749364;0.14547062;-0.027718777;-0.14036652;0.07083065;0.10325412;-0.12332092;0.0004695163;-0.1319652;-0.07782386;-0.12426806;0.10077715;0.07272653;0.06752266;-0.19014835;0.1605768;-0.016370075;-0.049090717;-0.082922086;-0.014612827;0.031569872;-0.038793046;0.13902403;-0.15416028;-0.13229367;-0.024788158;0.093178146;0.19083463;0.14669397;0.12188243;-0.10261691;-0.22021507;-0.0313137;-0.0618494;0.18710323;0.074650586;-0.13502167;-0.0038308215;0.060854033;0.043817617;-0.11837548;-0.08434377;-0.02079665;0.009798971;0.04261638;0.0012446631;-0.08263574;0.080741554;-0.15765801;0.091155335;-0.067272924;-0.04350449;0.0886258;-0.18024576;-0.19685285;0.069895886;0.1354148;0.12693971;-0.21621813;-0.011428457;-0.015139998;0.06095308;0.32724592;-0.102686435;-0.07741813;-0.043184232;-0.020910826;-0.330024;0.037316456;0.0956566;0.04501313;0.15387075;-0.04443041;-0.014356841;-0.058123574;0.019216087;-0.097954884;0.1788392
0.11317954;0.108495176;-0.051000398;0.1343742;-9.964743e-05;0.036388706;-0.1719035;-0.2006418;0.05443586;0.008146831;-0.22957832;0.038759157;0.093376674;0.17350318;-0.058285918;0.1068381;-0.095255874;0.15859014;-0.0020810699;0.075057;0.19657588;-0.09765157;0.015844574;-0.13282356;0.052774463;-0.0015933001;0.080830716;0.056623355;0.08183734;-0.027816579;-0.09601343;-0.081138805;-0.01837472;-0.11499957;-0.05391074;0.13439487;0.17540725;-0.09958972;-0.17474116;0.30954918;0.040643618;0.11558129;0.21975315;-0.13256921;-0.10076718;-0.053549416;0.0046682116;0.034713723;-0.009175159;0.104833804;-0.041171707;0.036165528;-0.11718118;-0.09969468;-0.04060879;0.042973176;0.026633855;0.02492161;0.0038706458;0.025372839;-0.031642813;-0.014211703;0.17881854;-0.10432878;-0.017841581;0.20715389;0.10629918;-0.081498966;-0.0028710454;0.076844566;-0.05531205;0.049487412;-0.09513649;0.09757348;0.10608938;0.06618335;0.123730384;-0.14591463;-0.092712976;-0.026836162;-0.07161578;0.17645727;-0.2783289;-0.2010478;-0.12933858;0.091448724;-0.05444613;0.16081783;0.028853698;0.011697088;-0.30543238;-0.096705474;-0.15187697;-0.022816999;-0.037808508;0.09879322;0.03496626;0.14001974;-0.016620062;-0.050325975;-0.10947927;0.14250614;-0.079948835;-0.2074296;0.023418695;0.02200346;0.05953643;-0.100671925;-0.109469794;0.0028425634;-0.1453562;0.045846216;-0.023209732;-0.0060674297;-0.013040558;0.02648347;0.14039646;-0.032336704;-0.07405715;-0.026071355;0.14816919;-0.2383297;0.18425034;0.10107447;-0.08405475;-0.1803259;0.15038142;0.25954598;-0.17489053;0.022634571;-0.09801577;-0.15726365;-0.027318366;-0.07548982;-0.10555753;-0.031923175;0.020818215;0.16481872;-0.08997697;-0.16266888;-0.027532587;0.121193565;-0.08886173;0.031122468;0.18128838;-0.072433814;0.08607525;0.022215849;-0.034045093;0.06168731;-0.10092445;0.028172618;-0.04323733;0.056192704;-0.028291572;-0.0008213463;-0.27518284;0.041656952;-0.044704482;0.0014944217;0.044046946;-0.040672444;-0.093401395;0.12481875;0.17661099;-0.22386105;0.006210341;0.012371005;-0.021391744;-0.16560905;0.03564375;-0.028107332;-0.016151762;0.08043126;-0.014454824;-0.15205625;-0.03137216;-0.008026729;-0.27688074;0.05591671;0.041365992;-0.111869246;-0.09101817;0.1560956;-0.07760968;0.09932647;0.115406245;0.102492735;-0.087933384;-0.121327855;-0.04279861;-0.0036848183;0.080495924;-0.22827287;-0.03718841;0.036189087;0.06699321;0.05285123;0.05129285;0.044399556;-0.017890032;0.27286497;0.14527367;0.087527186;0.1810249;0.11573893;0.044184025;-0.08620548;0.03233364;-0.1547873;0.061022174;0.15151468;-0.07725874;-0.025118822;0.035617255;-0.07158072;-0.06397002;-0.11681234;-0.04767327;0.0872198;0.10595808;0.03188564;-0.16160306;-0.04266885;-0.1570538;-0.017292295;0.028044282;0.1978984;0.13693842;-0.06870617;0.03390966;0.08828809;0.11869519;0.046609234;0.21045883;0.03394154;-0.00031571597;-0.07587227;0.05838759;-0.050903074;-0.06465299;-0.008105539;0.07060469;-0.028795112;0.09278047;-0.0620873;-0.16596854;-0.082450464;-0.029634645;-0.12753765;-0.029948754;-0.27213004;0.052897807;-0.16566144;0.0907031;0.0017082874;0.17461401;-0.18117088;0.09960919;0.15975524;-0.03460133;-0.03385319;-0.013469589;0.16452557;-0.04380254;-0.08177813;-0.14514638;0.04322158;-0.053346984;0.16450828;-0.13406211;0.14430626;-0.32466698;0.0039350265;0.0699962;0.0053554703;0.054290768;-0.03549667;-0.08516655;-0.08317826;-0.071028255;-0.14452739;0.05579896;-0.06848201;0.0004229166;0.06255176;-0.17931597;0.030577792;-0.08123032;0.0030984508;-0.05460712;0.08029531;0.122194946;-0.03738161;-0.1825723;-0.20518884;0.053585846;0.038924307;0.08186168;-0.09793117;0.12748726;-0.028879203;0.03227518;0.048203856;0.0074966736;-0.11531224;-0.010661881;-0.10740532;-0.0607135;-0.18830983;-0.035220277;-0.21131945;-0.0743565;0.014129916;-0.2492097;0.03498388;0.05426364;0.0029122713;0.0025815854;0.054432902;-0.060083713;-0.05326719;-0.06439905;-0.073774114;0.074491285;-0.12932137;-0.033893056;0.099642;0.057927135;-0.0808317;-0.10249109;0.00013740604;-0.09167147;0.1112152;0.13097093;-0.13753529;-0.067588896;-0.021122076;0.10130946;0.112111144;-0.106035575;-0.061183542;0.03656118;0.12973101;-0.026582766;-0.267173;0.11052989;-0.09730641;0.110254824;-0.08151131;-0.0646697;-0.03979245;0.122756414;0.051717997;0.041318994;-0.10908557;0.085746676;0.006295264;0.16022107;0.07474679;-0.18163157;-0.06605624;-0.044251665;-0.110824816;-0.016239699;0.10746677;-0.13814445;-0.15185817;0.021068059;-0.023331316;0.06912113;0.0114897145;-0.059158437;-0.0985949;-0.09806631;0.117502175;0.14846821;0.14533193;0.15111987;-0.11366809;-0.17231461;-0.030740414;-0.13065048;-0.0018143983;-0.21133837;-0.023540374;0.016762998;-0.03532011;-0.13587694;-0.14615573;-0.13104568;-0.0684408;-0.06638017;-0.057245743;-0.107489154;-0.047268547;0.14172988;0.03373143;-0.01931078;0.060473025;0.0122799305;0.046658624;-0.027709872;-0.032050356;-0.06941878;-0.09425225;0.017184999;0.0023620494;-0.03085864;0.13338938;0.012346512;-0.17351224;-0.17138846;0.10670738;-0.04376608;0.16754603;-0.14003235;0.23491967;-0.022689832;-0.10271434;0.21541797;-0.13973707;-0.05852513;-0.12914383;0.20654763;-0.1398163;0.08978004;-0.00892894;-0.03307521;0.030501992;0.035166584;-0.30228353;-0.021854607;0.014984522;-0.10263883;-0.13260978;0.0064213877;-0.037882928;-0.047006026;-0.14782147;0.09715805;0.17171451;0.11550404;-0.11554293;-0.20279607;0.038185813;0.01840582;-0.13322279;0.1750536;0.013939455;0.054806214;0.15868239;-0.0657083;0.023050088;-0.15161954;0.07923015;0.2504233;0.00076642266;-0.098402895;0.10976635;0.20595995;-0.052575324;0.15899262;0.019193895;-0.080007315;-0.20568626;-0.04125096;-0.052970983;-0.0063921935;0.054592967;-0.076568395;-0.0076496573;0.003593189;-0.02430249;0.034788158;0.0072345403;-0.09720028;0.012497537;-0.060511574;-0.05338937;-0.18389146;-0.059090048;-0.12661384;0.16950423;0.12458572;-0.13191703;0.15303025;0.0772192;-0.15244031;0.21677662;0.02915603;0.04912773;0.06352257;-0.1191664;0.15953782;0.12634784;0.056815308;0.02728675;0.093852915;0.07938249;0.006022628;-0.0217707;0.01573786;0.118534684;-0.11912992;0.05016171;-0.12504147;-0.10089776;-0.095051125;0.16822176;-0.018447733;-0.03985705;-0.06531068;0.18582596;-0.21424493;0.07489496;0.04225165;0.07513096;0.10947872;0.010939141;0.20039646;-0.08283352;-0.14077736;0.0811968;0.04206425;0.16992928;-0.014297777;0.14832605;-0.115805775;-0.18984614;0.14701055;-0.15618835;0.018932514;0.20252122;0.056738;0.026601879;0.15624884;0.1495551;-0.028805565;-0.042327177;-0.03505445;-0.042694557;-0.09317985;-0.053882223;0.050906077;0.08092733;-0.1528135;0.02964481;-0.062802285;0.0802778;0.0890271;-0.10896959;-0.1250539;0.0024902166;0.119678855;0.0977062;-0.0154057015;0.0105022425;0.18865809;-0.054124534;0.11657347;-0.037923742;-0.037931014;-0.20403244;0.03425912;-0.29242903;0.019465128;-0.12397984;0.1394301;0.15820038;-0.07986178;0.04501706;0.08758505;0.1059869;-0.24853556;0.088128105
0.09807249;-0.012251966;-0.15936905;-0.0118232835;-0.02426141;0.037486795;-0.17929354;-0.14830998;-0.086560845;0.22991273;-0.24967569;0.08040366;0.030321836;0.15341653;-0.016463688;0.07115973;-0.07670788;-0.07526392;-0.036252305;0.032857895;0.17061163;-0.16208777;-0.13037188;-0.06944545;0.019070847;0.0037800202;-0.106606156;0.04655619;0.043134935;-0.09157737;-0.022256803;-0.0040980945;0.04836378;0.025342425;-0.06980107;0.14984956;0.020924622;-0.118836194;-0.16289856;0.14653333;0.13135687;0.1837861;0.063070185;0.07944214;0.044315785;-0.13750914;0.098827094;-0.001696533;0.10794584;0.17754444;-0.055628512;0.15614654;-0.006220147;-0.016850075;-0.051396687;0.13798465;0.010378948;0.11950646;-0.024698727;-0.15091027;-0.017022036;0.008785433;0.06953826;0.014085984;-0.038682353;0.11742928;0.049823806;-0.13662304;-0.06563044;-0.0649424;0.017965525;-0.11260135;-0.096394725;0.06253862;-0.0037130883;-0.13073593;0.12203206;-0.15605171;-0.0048146807;-0.0709991;-0.038929526;0.034532648;-0.2745868;-0.19737254;-0.092557885;0.08201311;-0.05588955;0.12957907;0.07135317;-0.0022039108;-0.26695892;-0.05515619;0.07949225;-0.096886665;-0.101423286;0.080130935;-0.02592322;0.012916857;-0.037796125;-0.07011049;-0.08705456;0.06655179;-0.025207767;-0.12826528;0.06712435;0.14453289;0.06399039;-0.14043592;-0.11572583;-0.034793958;-0.23434384;0.034379657;-0.04103204;-0.11756591;-0.08536165;0.091008276;-0.049301796;-0.19888085;-0.03523476;0.06638598;0.12077288;-0.17887922;0.06843224;0.191665;-0.21977343;-0.110791296;0.13186589;0.19314905;-0.18766744;0.07076267;-0.12205948;0.007934177;-0.09680858;-0.014522412;-0.03496897;-0.11336121;0.06355157;0.08410011;0.047689296;-0.21603954;0.101445585;0.18310472;0.16849466;-0.019703172;0.1466807;-0.16614418;0.24922158;-0.11434918;-0.0250195;-0.010433821;0.06419323;-0.03912831;-0.01946706;0.011622499;0.004408992;0.027892936;-0.25140324;0.048246346;0.047373913;-0.24629016;-0.008002379;-0.07325647;-0.05214616;0.09309227;0.18160965;-0.17560464;-0.04167305;0.009144526;-0.21981291;-0.15774737;0.0101572685;0.089844316;0.08275854;0.07606911;-0.080749474;0.041350886;-0.030232929;-0.060379513;-0.27928573;-0.050438322;-0.06337891;-0.08884693;-0.116904244;0.09922673;-0.18029611;-0.0052374084;0.15364799;0.07982823;0.034262594;0.0036444375;-0.15037392;-0.12380569;0.1741015;-0.13251488;0.16215913;0.1543827;-0.00075775146;-0.007662525;0.05411559;0.09309414;-0.048271284;0.13030943;0.17767031;0.134597;0.21590576;0.15159059;0.22016554;-0.20223524;-0.01815964;-0.1028448;0.047792535;0.08863873;0.028102875;-0.0061333347;-0.1981144;0.096482605;-0.05976653;0.13994306;-0.1340294;0.05429863;0.10723635;-0.09381809;-0.049342;0.058431663;-0.043386225;-0.093968876;0.124724425;-0.011070159;-0.079350986;0.04104416;-0.07926683;-0.029405212;0.05039072;0.12513395;0.106610246;0.0009226179;0.04343022;0.05971522;-0.14289674;0.092833385;-0.086246476;-0.018466674;0.11269043;0.10834206;-0.056779925;-0.011108226;-0.052140716;-0.039095778;0.009870091;-0.066824675;-0.008057717;-0.10918191;0.052333314;-0.07378713;-0.04813257;-0.0037136031;0.13892305;-0.07741096;0.026514594;0.13424711;0.02714763;-0.02342024;-0.07501656;0.15836704;0.011183643;-0.08143402;0.05981228;-0.0141383335;-0.15284133;0.15174009;0.07779288;0.08493393;-0.2676721;-0.070089765;0.078981176;0.14617564;0.13344036;-0.06276728;0.0366476;-0.05281361;0.06060664;0.018208534;0.009357945;-0.07690258;0.05719906;0.00086695066;0.04353458;-0.08847601;-0.07077749;-0.15079032;-0.115941584;0.12407218;0.08476657;0.16728605;-0.15911324;-0.2646306;0.057079803;0.0109060565;0.08099448;-0.07703684;0.11326467;-0.15917522;0.027658066;-0.017252194;0.09201386;-0.16811325;0.019285213;0.042713583;0.03960923;-0.13788332;-0.14328387;-0.22453877;-0.024552723;0.041775394;-0.34094188;-0.043710284;-0.022445576;-0.020576365;0.04327801;-0.087933734;0.11186652;0.045610223;-0.14493431;-0.104010165;0.11632531;-0.06258206;0.013623494;0.092737444;0.06789664;0.009394044;-0.038695488;-0.09837783;-0.12520972;0.086330466;0.020846482;0.079445586;0.004665407;-0.046311617;0.042268645;0.102564655;-0.09364907;-0.08014211;0.06556813;0.07422919;-0.23295572;-0.13249117;0.09925131;-0.081656046;0.13006356;-0.09179171;0.08592498;-0.10670628;-0.018438186;-0.0696691;0.09059379;-0.24474058;0.06629327;0.026002895;0.024577925;0.040016092;-0.18426892;-0.2346544;-0.15259635;-0.10998637;-0.036225226;0.11187679;-0.014751702;-0.14530614;0.14611714;-0.051153302;0.028783996;-0.14468929;0.02224279;-0.09620988;-0.09982962;0.11278391;0.027685525;0.10715282;0.17798848;-0.09206341;-0.20647211;0.044434234;-0.085933864;0.05719099;-0.19525065;-0.12191736;-0.07855382;-0.18259005;-0.08655168;-0.10090773;-0.06573;-0.028727042;-0.029033255;0.024163812;-0.17753567;-0.0754785;0.09505073;-0.06408575;-0.037997432;0.14250883;-0.13623527;0.0540806;-0.06743036;-0.09382158;0.024533378;0.023541486;0.021081865;0.12252269;-0.02777782;0.07625274;-0.028474148;-0.11782941;-0.04547705;0.09285503;0.025344312;0.090196736;-0.22245756;0.2798411;0.039034028;-0.10955619;0.14591078;0.09820999;-0.12973161;0.018365541;0.16251832;-0.057594955;0.1691622;0.059375722;0.017282654;0.1712266;-0.06197063;-0.38276285;-0.2116247;-0.1392659;-0.15697724;-0.029526178;0.02511751;-0.06365311;0.17014512;-0.18237574;0.016016789;0.12674335;0.28044823;-0.11109838;0.042770658;-0.072573476;-0.026069317;-0.22437796;0.15720075;0.055659518;0.14762263;-0.004407932;0.029945783;0.028297296;-0.26365244;0.08538147;0.20235248;0.12760687;-0.16640209;-0.08895049;0.10051022;-0.0100123845;0.12123188;0.0075125266;-0.08110292;-0.3664809;-0.010181682;-0.104651295;-0.029176462;0.12029074;0.0011054104;-0.21405998;0.024148425;0.11588713;-0.0048478097;-0.10295408;-0.17915088;0.043249477;0.012851908;-0.06814677;-0.13939491;-0.05946882;0.0017100099;0.015139002;-0.030470556;-0.08064763;0.08711897;0.12716329;-0.05287426;0.21424946;-0.06628819;0.11394281;-0.053545177;-0.19109744;0.11844137;0.026758859;-0.0109030865;-0.06656041;0.065948546;0.117301755;0.0014549835;-0.22715214;0.057448696;0.12458997;0.050348453;-0.016962945;-0.14674376;-0.096676245;-0.053049773;0.20200995;-0.10045217;-0.014991482;-0.02475559;0.05981035;-0.21923776;0.06545773;0.07535059;0.14450032;0.11236799;-0.019675568;0.020343773;-0.023399152;-0.028907752;-0.07746239;0.093435384;0.07988505;0.03789572;0.032899342;-0.060640417;-0.24927413;0.1161273;-0.18670624;-0.060445283;0.005698453;0.008372917;-0.04073925;0.06864856;0.27033666;-0.011530709;-0.22458398;0.033388063;-0.05643953;-0.1285936;0.115175664;-0.021124203;-0.026912007;-0.10362033;0.06578422;0.023923734;-0.0022287557;-0.03167103;-0.17263933;0.08916834;-0.041783705;0.12884976;0.054315224;-0.06536349;-0.05754729;0.12663455;-0.101652965;0.24437965;-0.23647211;0.105155386;-0.06341254;0.05229741;-0.3668886;0.06262123;-0.008980235;0.10327992;0.07074022;-0.13864353;0.17078508;0.058553323;0.0131707555;-0.2630121;-0.06301183
0.17283994;-0.09393131;-0.1244093;0.16109177;-0.15885243;0.07396962;-0.122962266;-0.16428193;0.04359173;0.13591279;-0.31872922;0.057271052;-0.13119075;0.14306699;-0.06556509;0.104278535;0.08269297;-0.017636744;0.04192625;0.043584518;0.14291808;0.021141274;-0.04139632;-0.103962235;0.07668872;-0.089462325;0.07972569;-0.0873978;0.052717075;0.062063728;-0.22851208;-0.1409857;-0.0119081745;-0.06982481;-0.058800694;-0.043126542;0.07363203;0.051898763;-0.12943052;0.25481597;0.10815648;0.08866292;0.12578483;-0.050445195;0.03885102;0.017607873;-0.021452826;-0.09765022;0.19113801;0.09638947;0.08364213;0.04831568;0.11029487;-0.094500795;0.028592018;0.1606004;0.0014302403;0.09671554;0.08473716;-0.12541266;0.0010043283;0.051590536;0.20712672;-0.10873949;-0.058502298;0.13188618;0.14091259;-0.06569917;-0.05837043;0.11070828;-0.027266374;0.010116772;-0.042772286;0.14555803;0.09209452;-0.14868517;-0.07361259;-0.028324883;-0.028688155;0.013255051;0.019849239;0.118968286;-0.34960452;-0.27787954;-0.14677404;0.053349886;-0.02810827;0.12327131;0.13783847;0.040833086;-0.06679134;-0.1901734;0.07758681;-0.08790058;-0.03263453;0.17274347;0.08289954;-0.05075149;-0.07608523;-0.0451963;-0.11129161;-0.05155789;0.039949495;-0.28647473;0.1613089;-0.09042133;-0.01006675;-0.2036568;-0.07152655;0.039293908;-0.20719008;0.092629194;-0.22973646;-0.038886283;-0.16080564;-0.04371106;0.04332779;-0.16596614;0.07224504;0.20546201;-0.09133541;-0.15540667;-0.05885321;0.19859937;-0.104591504;-0.1674878;0.05242018;0.17403914;-0.26502794;0.08104443;-0.2595954;-0.12809505;-0.11866507;-0.17925742;-0.21300964;0.005979182;-0.069810934;-0.0074828235;0.14575262;-0.1872873;0.11761895;0.16939498;0.032241136;-0.052944187;0.034395646;-0.1467441;0.12590481;0.047614407;-0.13486852;0.10572066;0.1719408;0.027833277;-0.113435484;-0.03713858;0.259028;-0.017324498;-0.10751057;0.032932114;-0.06377552;0.002203127;-0.08126478;0.012706868;-0.10260056;0.20707454;0.20511651;-0.10691975;-0.13495028;0.023028668;-0.069762655;-0.26170132;0.060313564;0.07461422;-0.06175611;0.06499827;-0.031210113;-0.03252424;-0.065241285;-0.05692732;-0.23801765;-0.1707901;-0.1539237;-0.107279524;-0.15775104;-0.04594391;0.0060674795;-0.05403058;0.12490488;0.12253718;-0.09932653;0.047036853;-0.169904;0.0072197453;0.15510292;-0.23488827;0.21640576;0.24009958;0.16251124;-0.075385235;0.018828727;-0.015404601;-0.11666032;0.090486996;0.08200278;0.09380761;0.30975908;0.16551755;0.086641684;-0.13745663;-0.17025341;-0.11035666;-0.034908358;0.12337003;-0.09566686;-0.019526374;-0.15011752;0.07090698;-0.04860818;-0.061608866;-0.050009284;0.1598232;-0.0024025252;-0.2115345;-0.026560696;0.07860196;-0.051884167;-0.028137319;0.01765529;0.12545992;-0.04451409;0.03115071;-0.0050347107;-0.08480272;0.094887435;0.040735573;0.14562197;-0.049785197;0.025175042;-0.054485846;-0.10306096;0.1251905;-0.037394706;0.015474395;0.07716164;0.11419157;0.03557709;0.06362452;-0.26665536;0.031365868;-0.19219369;0.03002642;0.0698133;-0.16336384;0.021760695;-0.23771417;-0.022214307;-0.13233358;0.02276753;-0.08249635;0.026649633;0.13681693;-0.08401259;0.038439073;0.0035696265;0.2135309;0.0326563;-0.014445729;0.08370392;-0.075451344;-0.02883785;0.13142301;-0.089781985;0.026153376;-0.34716368;-0.026018286;0.20463197;0.119414315;0.1528569;-0.16791168;0.053178106;-0.053391635;0.13227592;0.028001068;0.06404269;-0.11306292;0.028466968;-0.10097935;-0.019671323;-0.030582778;0.015280674;-0.10545772;-0.11537593;0.06309972;-0.045140844;0.02899056;-0.1549453;-0.17521341;-0.0031090605;-0.11041326;0.085389696;-0.032217618;0.03871283;0.01268747;0.20259912;-0.091502644;0.072530605;-0.23109865;0.14362507;-0.13897496;-0.0629905;-0.100853376;-0.018895328;-0.2633522;0.097773746;-0.042950805;-0.37692216;-0.14515212;-0.06943707;0.04628727;0.057179756;-0.15237072;0.06544307;-0.0753102;-0.0973748;-0.17153071;0.09802763;-0.071679674;-0.17679372;0.1281147;0.08256802;-0.04868352;-0.15593222;-0.1455873;-0.07695853;0.02813288;-0.030327458;-0.022101736;0.09773595;-0.04378822;-0.099465996;-0.08099289;0.03608996;-0.08030943;0.06930802;0.09627793;-0.10784225;-0.2140099;0.05561125;-0.096554264;-0.004304427;0.0127580315;0.030195806;-0.07233371;0.102453135;-0.045948405;0.109038174;-0.2655866;0.17235966;0.014399237;0.18478811;-0.070860974;-0.18933916;-0.182801;-0.13129483;-0.07844204;-0.031020254;-0.015089562;-0.035518717;-0.032255474;0.10373937;0.07702744;0.11864125;-0.06762099;-0.016789159;-0.11380563;-0.049422726;0.13635214;0.27492923;0.25460866;0.18812138;0.061250992;-0.1448563;-0.04607452;-0.1214949;0.13511027;-0.17030624;-0.039444283;-0.072508946;-0.11102824;-0.10971062;-0.084945016;-0.13823594;0.0004315702;-0.012409739;-0.09683097;-0.035573445;-0.04458402;0.24021846;0.11706707;0.055481944;0.20029488;-0.15640183;0.019338736;-0.13806306;-0.049710996;-0.030760758;-0.049730327;-0.0929795;0.016973285;-0.1347431;0.07215151;-0.063094735;-0.032234423;-0.09749458;0.033293482;0.017142573;0.11892295;-0.19456689;0.19843067;-0.17347293;0.04954601;0.20646906;-0.055823233;-0.22835389;-0.11479052;0.023915857;-0.25444305;0.17220965;-0.018087402;0.09279654;0.1441565;0.018617637;-0.4457899;-0.26734602;0.07815768;0.038520314;0.09605545;0.036843367;0.0722239;0.15392622;0.021174757;0.008878062;0.1563104;0.17584515;-0.005066763;-0.08704107;0.037558723;0.013009816;-0.11932853;0.22590487;-0.025745815;-0.031815022;0.20610547;-0.018872412;-0.09862696;-0.30761528;0.16938066;0.207993;0.14478213;0.013841674;-0.06713913;0.19961698;-0.028714396;0.074987225;-0.14254276;-0.0072162654;-0.33082482;0.067213506;0.011241254;-0.00059118285;-0.011292155;-0.04044013;-0.17244542;-0.015608123;0.19899702;-0.06256486;-0.023378694;-0.18467532;-0.06716601;0.06458903;-0.030302146;-0.1136262;-0.1027658;-0.11028905;0.0031296;0.060362287;-0.15374714;0.07994398;0.14214869;-0.25450578;0.2527365;0.004765527;0.07169012;-0.08544308;0.023960762;0.13777484;0.15908156;-0.081340834;-0.0034408844;-0.048288412;0.08447109;-0.0027834836;0.021655956;-0.07455795;0.045996044;0.061360512;0.024751665;-0.29740527;-0.06459164;-0.16086641;0.13033944;-0.14157622;-0.038457032;-0.04739084;0.008259943;-0.14803465;-0.023299081;0.024821807;-0.041996602;0.12384851;-0.14160387;0.11480451;-0.058343183;-0.021197638;-0.06846824;0.008874836;0.024576345;-0.18941917;0.17164432;-0.10776152;-0.09407937;0.13789436;-0.1614856;0.0073980377;0.15375823;0.08924447;-0.0406615;0.09160802;0.18513025;-0.028849384;-0.15880021;-0.008372285;-0.09876421;-0.056192983;0.03351083;-0.037598975;-0.03183511;-0.1445394;-0.025812646;-0.0828159;-0.060519665;0.07641333;-0.17729181;0.0119026145;0.03691781;0.053394344;0.20140488;-0.04252728;0.017761849;0.3362604;0.04704027;0.30127648;-0.1706734;0.13014059;0.014594748;-0.022384545;-0.18421113;0.0072769765;-0.15475345;0.16786286;-0.06341759;0.03732743;0.11568111;0.019050354;-0.04399401;-0.18500765;-0.005745169
0.07734992;-0.15031049;-0.020180976;0.20023279;-0.01457644;-0.091730505;-0.27175224;-0.1456062;-0.05620438;0.23930557;-0.23897722;0.16032535;-0.1917519;-0.07789459;-0.037185293;0.06754862;0.024085699;-0.02564629;0.13151607;0.049948014;0.05382957;-0.19266759;0.0061225262;-0.18565923;0.011238063;-0.045643188;-0.011400266;0.06230926;0.12755796;0.1791823;-0.15756455;-0.082893275;0.02824174;0.10284393;0.057567786;-0.036872923;0.0362143;0.08388197;-0.18578443;0.09036683;0.12190593;-5.0838426e-05;-0.06306596;0.029181728;0.040943936;-0.09920312;0.00455908;-0.077456355;0.022700569;0.08403382;-0.0051695947;0.12381454;0.06122934;-0.2243986;0.0027105648;-0.14379367;-0.044214025;0.1836798;0.037704665;-0.04535669;-0.040276464;0.22181761;-0.016924458;-0.13102584;-0.10956152;0.16826351;0.08972801;-0.031191558;-0.16600496;0.062460944;-0.042451486;-0.14423794;0.023386959;0.19117904;0.06215401;0.054926265;-0.16450354;-0.13786498;-0.10808547;-0.10673468;0.15506734;0.06919878;-0.30023685;-0.18263747;-0.05205791;0.09229855;-0.042013545;0.13854249;0.044741556;0.01797911;-0.068193495;-0.023810906;0.036299206;-0.23145692;-0.06212569;0.20028475;0.02373364;-0.0035049787;-0.06191178;0.036203947;-0.10849027;-0.0011284951;-0.15370864;-0.064913936;0.06065447;-0.075653605;0.067413375;-0.22103402;-0.11760232;-0.0948515;-0.1752374;0.0077135353;-0.088896915;-0.0636791;-0.1511858;-0.040416338;-0.12331113;-0.0944909;0.027936729;0.14314596;-0.20321791;-0.27402267;0.06374981;0.013624832;-0.25538337;0.028537966;0.18224607;-0.10361625;-0.06548071;0.0049256026;-0.11039992;-0.051043414;-0.19518681;-0.0014490549;-0.26633823;0.012607706;-0.10521151;-0.042052973;0.14697361;-0.1622463;0.10230962;-0.05506354;0.07451014;0.100475915;0.103957064;-0.054377757;0.09555464;-0.08270695;0.017232686;0.045558706;0.08899267;-0.20219173;-0.14822164;-0.0778738;-0.073359266;0.0108147375;-0.06969056;0.153073;-0.038257405;-0.27479202;-0.1024387;-0.09325984;0.124863915;-0.052749537;0.08328257;-0.20022078;-0.012622772;0.069636405;-0.1657661;-0.14436704;0.019267958;0.10224838;0.09959467;-0.010802831;-0.10548508;0.12783483;0.10157777;-0.057458334;-0.089669466;-0.15576212;-0.03374587;-0.01000436;-0.0018337955;0.05830921;-0.039187223;-0.06722526;0.093020365;0.13920163;0.046146642;0.11753181;-0.2731658;0.06362633;0.11259959;0.0012570898;-0.0020143553;0.07928566;0.11250586;-0.027568646;-0.01371588;-0.025444979;0.015136344;0.08712834;0.102785714;0.11766844;0.21239682;0.1116714;0.23915683;-0.22991134;-0.11537176;-0.011939942;0.046774115;0.17573492;0.011565807;-0.07628159;-0.17216307;-0.02511762;-0.13731907;0.119142614;-0.12215452;0.058326095;0.06930266;-0.18007633;-0.3261352;0.047540877;0.03105603;-0.008205651;0.090481654;0.010805611;-0.04853385;0.13753349;0.07191037;-0.06843417;-0.12871943;0.022336518;0.05834455;0.033680227;-0.08741451;0.018192124;-0.10987148;-0.056470856;0.093942605;-0.02381463;-0.07508557;0.12837297;0.07391112;0.105949104;-0.15242727;0.026590874;0.025617316;0.042748194;-0.059703305;-0.068939276;0.010772819;-0.095720395;0.098299645;-0.07889577;0.054541655;-0.073365666;-0.13062893;0.08529105;-0.11977758;0.123215385;-0.15903121;0.15729882;0.08906775;-0.16911784;0.08748128;0.024828436;-0.21447717;-0.029143369;-0.023308162;-0.06524904;-0.05796248;-0.009563385;0.081729226;0.04633577;0.15665941;-0.17573948;-0.002186382;-0.05953751;-0.011138047;-0.003764813;0.11955768;-0.12983814;-0.06362464;-0.1022628;0.15718;-0.10307882;0.0031216743;-0.17413719;-0.05947498;0.16580948;0.11703099;0.06112587;0.051889252;-0.14301813;0.0065082326;0.06174765;0.080010355;0.06299012;0.039297003;-0.05760584;0.13071314;-0.13430972;0.056090247;-0.11476858;0.03948653;0.045712348;-0.02403189;-0.1087332;0.015545692;-0.35457072;-0.03119926;-0.119686104;-0.23414598;-0.020369723;-0.18612655;0.041877024;0.11422687;-0.24376577;0.13132614;-0.060144197;-0.10733576;-0.15820208;0.14453039;-0.07320173;-0.025379498;0.1677642;0.101271614;0.04904355;-0.10891903;0.012405217;-0.065789595;-0.049571868;-0.08862217;-0.030321524;0.12272359;-0.060874376;0.027001925;0.087214656;0.11272078;-0.1516354;0.04256108;0.119401366;-0.05751822;-0.103439756;0.036432963;-0.019848228;0.021403415;-0.010745981;0.15510836;-0.06300138;-0.076862276;0.060078125;0.23792572;-0.03961149;0.09559837;-0.023355138;0.22387445;0.028844556;-0.065462545;-0.19106501;0.0986546;0.025418844;0.101455525;-0.16480444;-0.14801842;-0.08959697;0.108933486;-0.064740255;0.034999087;-0.068331376;0.17252685;-0.049132712;-0.0043124324;0.117041126;0.04464138;0.1905435;0.12312582;0.11331271;0.026602754;-0.060914703;-0.06728575;0.16535805;-0.018789686;-0.10042197;-0.12439535;-0.06660287;0.02039725;-0.009181989;-0.16077246;-0.18943386;-0.14951551;-0.030216701;-0.061441608;-0.040645104;0.064432554;-0.0051125223;0.084172785;0.055605814;-0.02868596;0.01731729;0.06815283;-0.14514653;-0.028100949;-0.16601175;0.0034863986;0.05390716;-0.06711306;0.20000611;-0.11426551;0.16216354;0.05243265;-0.011892527;0.03238643;0.051613525;-0.13108543;0.2055567;-0.09327621;-0.1737298;0.17107303;-0.03616652;-0.16453625;-0.02109858;0.16717733;-0.10373099;0.06353498;-0.11504152;0.011698329;0.10581324;0.04684664;-0.2925291;-0.21798529;-0.08570524;-0.06888164;0.052643623;0.15896218;0.05136604;0.30279654;-0.06724304;0.02697504;0.14528963;0.1366234;-0.00089082244;-0.014148003;-0.01687571;0.07275206;-0.19264205;0.101465136;-0.059553675;-0.012418313;-0.014759504;-0.079086214;0.01265148;-0.27050674;0.007052568;-0.030070897;0.12089105;-0.08256141;-0.19966449;-0.03182766;-0.014264521;0.016581003;-0.0148954475;-0.1294112;-0.49091274;-0.02509143;-0.11051113;0.07497514;-0.05716244;0.092803285;-0.18781565;0.09234688;0.116011396;0.012608922;-0.058736548;-0.058745854;-0.044113807;0.07420433;-0.008857228;-0.2670641;-0.117535554;-0.17228344;0.043785952;0.06033816;0.033540692;0.03765802;0.053005088;-0.08567853;0.18139568;-0.079116605;0.11485334;-0.03752728;0.015000319;-0.12628642;0.015486158;0.030426973;-0.040865127;-0.056763466;0.1435704;0.010446025;0.09059017;0.048285615;0.017958103;-0.01928976;0.033194665;-0.058501814;0.011877111;-0.054992124;0.2056896;-0.080540486;0.03714768;0.014467468;-0.0626475;-0.1488324;0.041048054;0.08570075;0.047320493;0.0950643;-0.07280394;0.12015879;-0.0047931494;-0.19515714;-0.14795326;-0.02016539;-0.011592066;0.00041482438;0.1032932;-0.032618675;-0.08503204;0.014426702;-0.13003887;0.0575665;0.10197677;0.13684621;0.05527661;0.12773778;0.15430154;0.027488662;-0.018917361;0.03945395;-0.034806374;-0.033625558;-0.22251537;-0.1139105;0.001661539;-0.10325028;-0.21146682;-0.1294803;-0.05754153;0.133496;-0.046255726;-0.016217126;-0.015540901;0.028873466;0.0154210115;-0.057524905;-0.18723112;0.27554506;-0.044663537;0.09201674;-0.13261315;0.030708913;0.15478817;0.099406965;-0.07839094;0.17097493;-0.17610009;-0.11712812;0.0153659;0.07379497;0.09274009;-0.14500646;-0.04824667;-0.31344798;-0.071583636
0.20334874;-0.19647297;-0.03142688;0.2276526;-0.01766789;0.107237585;-0.12999062;-0.2763327;0.101565786;0.17355768;-0.16622609;0.050234642;0.0233592;-0.08481559;-0.12079759;-0.00031322017;-0.020246118;-0.09718611;0.09525171;-0.093186006;0.15360008;-0.09356558;0.044103917;-0.064829506;-0.02466931;-0.015371559;-0.004660135;-0.034356847;-0.037729613;0.2249384;-0.01701303;0.04431922;-0.06814324;0.17662865;-0.092864305;0.04258594;0.1322871;0.015386951;-0.1904833;0.098646656;0.0723375;0.0051021283;0.0029897399;-0.04525811;0.14856741;-0.09861776;-0.06541628;0.050663132;0.008161962;0.032924183;0.07861761;0.13961923;0.1637719;-0.28285232;0.04984082;-0.010112319;-0.17404006;0.14515342;0.028473718;0.037780356;0.10569087;0.17130755;0.10375447;-0.10613508;0.05003453;-0.0026798425;0.067581825;0.11285931;-0.08909926;0.030347534;0.069981225;-0.06646256;-0.010544759;0.038387332;-0.11322607;0.04387395;-0.27646875;-0.10337071;-0.14153068;-0.009242885;-0.016541619;0.13350372;-0.33759603;-0.2972871;-0.107455075;0.096144125;-0.14313936;0.03915398;-0.026288636;-0.10974006;-0.16101417;-2.0199426e-05;-0.09583826;0.047726326;-0.013344165;0.1865142;0.035552762;-0.0021872115;-0.030718463;-0.047948077;-0.044144966;-0.006985734;-0.20797358;0.024573173;0.05846675;-0.005244406;0.015574632;-0.049268592;-0.023914823;-0.1998251;-0.08199606;0.24436271;-0.050754327;-0.06696032;0.012219538;0.03749517;-0.23399207;-0.18736203;-0.11036685;-0.057074916;-0.1446575;-0.21308883;-0.026570112;-0.093921974;-0.23755106;-0.029130755;0.15095496;-0.11691761;-0.1412799;0.100498065;-0.17075026;-0.12868164;0.04938735;-0.06417358;-0.19933616;0.047300257;-0.09335974;0.15360074;-0.14896747;-0.14134087;0.022927975;-0.05571534;-0.123355456;0.09019745;0.1438938;0.106420614;0.100886665;-0.0210183;0.086240076;0.09785633;0.0439549;-0.13708465;-0.09610105;-0.112326935;0.08430383;-0.006233041;-0.11812853;0.09782106;-0.0021743304;-0.11482824;-0.08704223;-0.11477191;0.011307156;-0.057182174;0.03708456;-0.04666875;-0.11652294;0.071921386;-0.18812545;-0.108908854;0.0742763;-0.0024260296;0.06684441;-0.13398953;-0.10381299;0.017468648;0.11881885;-0.011041298;-0.09328858;-0.103243805;-0.07603667;0.055608027;-0.04518373;0.1619965;-0.13322572;-0.050583765;0.15773667;0.037492536;0.017708914;0.016704516;-0.25246304;0.019235328;0.02490723;0.10684161;-0.0004076542;0.08674334;0.022121323;-0.050614644;-0.23450533;-0.06372775;0.01193561;0.042052392;0.086129375;0.20358443;0.17012794;0.10959891;0.19469447;-0.15424293;0.1033399;0.08485319;-0.08282927;0.10484402;-0.10349401;0.028731676;-0.18660267;0.14289881;0.109375365;-0.12751298;0.028182035;0.019121068;0.036364775;-0.041026138;-0.17168657;0.11607222;-0.082399674;-0.066212736;0.08814393;0.050633445;-0.07070779;0.0056887013;0.07536326;0.09996365;-0.18501396;0.047244534;0.045975804;-0.053976595;-0.11096263;0.037781537;-0.1166279;0.011527004;-0.039788906;0.101470694;-0.045168824;-0.036835875;0.0851095;-0.06003727;-0.14291927;0.16526209;0.08634564;0.058104232;-0.013058887;0.057707775;-0.025039608;-0.022615192;0.20360741;-0.0853923;0.14074992;-0.18319204;-0.068675235;-0.03170929;-0.16744286;0.25622886;-0.037435368;0.08800596;0.14596182;-0.16656752;-0.02733886;-0.040589046;-0.1517624;-0.019577175;-0.010673327;0.04165973;0.027069917;-0.05554178;-0.07687134;-0.028326951;0.09781324;-0.18220118;0.07995125;-0.031896267;-0.021563334;0.020527894;0.19051522;0.022037826;-0.025494935;-0.109293856;0.10718196;-0.11451967;-0.103367634;-0.0065094847;-0.06258296;0.22104122;-0.09260644;-0.025319569;0.004154384;-0.124206364;0.017503724;-0.14301789;-0.03252213;-0.014438566;-0.0030976513;0.009841864;0.05889618;-0.036859423;-0.023572074;-0.15197651;-0.005944243;0.023265567;-0.09659575;-0.19393061;-0.13511086;-0.17074148;-0.126096;-0.07589051;-0.25352913;-0.110983714;-0.11308726;0.16355985;0.01316337;-0.15156443;0.022222305;-0.20217767;-0.08307613;-0.04146714;0.2688422;-0.0053286767;0.02972158;0.0330458;0.0059720385;0.06341472;-0.053409345;0.09729302;-0.14170645;0.022755137;0.012700934;0.07889727;0.068417594;-0.17580758;-0.041087884;-0.053902358;0.08928203;-0.15313797;0.023166308;-0.019948525;0.0134136;-0.13742965;0.055635136;0.03597972;-0.04333547;0.117979914;-0.02266995;-0.0046792324;0.03490209;0.07870184;0.1915161;-0.18010859;0.092742264;-0.037856393;0.13687322;-0.17581129;0.055557348;-0.18084864;0.17934193;0.05900646;0.043193433;-0.25117227;-0.114317715;-0.21565948;0.12270366;-0.19373946;0.22055593;-0.15503478;0.13945846;-0.11305779;0.14565068;0.10392531;0.08507614;0.13779426;0.13409263;0.024700552;-0.021902317;-0.10293478;-0.11760187;-0.060822424;-0.026576366;-0.26780304;-0.13101298;-0.021164443;0.11959668;0.05233938;-0.20452808;-0.030165482;-0.07523011;-0.087771155;-0.05870972;-0.03205669;0.019313186;-0.033676628;-0.04805607;0.025853558;-0.02096699;0.052847937;0.14926495;-0.15895034;-0.0004967392;-0.15200295;0.076317176;0.07363342;0.03648431;0.08386228;-0.098162614;0.13338843;0.060223036;-0.050987534;0.039802622;0.07365865;-0.118516706;0.18866283;0.036889195;-0.10085727;0.1914427;0.10750178;-0.17102419;-0.14597403;0.18261;-0.24784277;-0.07503818;-0.0756525;-0.13169771;0.08046938;-0.013842019;-0.36731815;-0.38350523;-0.116447434;-0.23463045;-0.103818625;0.1278479;0.058152158;0.16700204;-0.13600735;0.20908827;0.046986304;-0.008120142;-0.13214858;-0.018634941;0.12113863;-0.1103864;-0.16953205;0.14432582;-0.047668375;0.07183323;0.06653179;-0.039136402;0.04455502;-0.2183978;-0.06760449;0.06402259;0.2659164;0.07380156;-0.20230514;-0.0797449;-0.026816828;0.03126362;0.133793;-0.16593854;-0.46202064;-0.17021239;-0.17291453;0.04608589;0.016362699;0.07205053;-0.13851747;-0.05695083;0.18448281;-0.14410558;0.00093959604;-0.020601425;-0.06419782;0.0861194;-0.02198637;-0.108244225;-0.02477881;-0.16414663;-0.010269875;0.08788263;-0.03821616;0.11545308;0.009635185;-0.037989724;0.19058913;0.083126;0.20114096;0.06419752;0.014951979;-0.02053384;-0.075842164;0.067860834;-0.055719346;-0.017271603;0.116429;0.07509742;0.028425029;-0.12846024;-0.055521093;0.15175007;0.02227429;-0.062838316;0.10316102;-0.050499234;0.26498988;-0.12563236;0.08814004;-0.004451521;-0.09587705;-0.20003286;0.09915716;0.055788368;0.12744166;0.043069147;-0.03207675;0.272051;-0.11232187;-0.1801658;-0.11099703;-0.0212774;4.7194186e-05;0.033926766;-0.06904247;0.06792191;-0.13355584;0.033356424;-0.1350306;0.027980026;0.18679185;0.15092286;0.12119623;0.085139595;0.27648303;0.05618529;-0.046283327;-0.095415644;0.086339206;-0.09102182;-0.0692946;-0.103576005;0.015479641;-0.21522735;-0.090815976;-0.0046027363;-0.014469837;0.08387685;0.24212319;0.046588372;-0.0683773;0.02318735;0.08281588;-0.053292077;-0.04075736;0.09364712;-0.039558258;0.10529963;-0.13518727;-0.039304223;0.056056753;0.16062987;-0.011957155;0.11226308;-0.22363771;-0.023432903;0.03495789;0.062758595;0.027289946;-0.083729945;-0.007571306;-0.2118766;0.057930563
0.03466442;-0.066388614;0.11993136;0.16074224;0.13718466;-0.0054905247;-0.19615406;-0.06507112;0.070477284;0.19235876;-0.14881769;0.03766107;-0.046290386;-0.021078218;-0.19978894;0.07680402;-0.083370045;-0.06671371;-0.038126666;0.012482029;0.051729247;-0.08792182;0.13542356;0.014230212;-0.044073775;0.098501615;-0.05639919;0.116507076;-0.067181714;0.24806434;-0.18648402;0.11272956;-0.048348084;0.07586443;-0.0011929076;0.0193205;0.09319839;0.11261029;-0.06787573;-0.023762254;-0.016163044;0.048079997;-0.074672066;-0.18486387;0.055613153;-0.15766929;-0.039301705;0.053574074;0.047488365;-0.04819859;0.0972743;-0.052980147;0.09375067;-0.325575;-0.004606651;0.17018227;-0.121553585;0.081840485;-0.0050641564;-0.04956878;-0.06568454;0.11914278;0.11273112;-0.013598704;0.09686871;0.08420696;0.052992597;0.121286675;-0.15824926;0.145987;-0.08572248;-0.07056659;0.11029684;0.11435601;-0.13543165;0.025932362;-0.27193296;0.08845591;-0.19396813;-0.052487645;0.0523338;0.22190467;-0.33227226;-0.2648866;0.017630901;0.17613341;-0.05461409;0.04433596;-0.21936753;-0.10163602;-0.06262448;-0.1184169;-0.20695394;0.084858105;0.12797248;0.16278867;-0.019677477;-0.021117529;-0.03309795;-0.05520346;-0.084992394;-0.066008896;-0.12693286;0.11994769;0.08359408;-0.08150449;0.008543613;0.021182016;-0.06591612;-0.0040297774;-0.10638711;-0.024187168;-0.13329673;0.03778789;0.052831598;-0.18828532;-0.0166412;-0.1596232;-0.25872505;0.051340498;-0.029993182;-0.2100409;-0.15854207;0.08126295;-0.1397681;-0.024257202;0.12270733;0.15844055;-0.08736191;0.071153186;0.016272822;-0.04655939;-0.16721652;0.08214572;-0.2075341;0.08217556;-0.16949521;0.015223838;-0.07256499;-0.19248895;0.071372695;0.032301806;0.09243002;-0.21078025;0.012907562;0.0074700774;-0.04725;0.06857407;0.101179406;-0.03922793;-0.0027210736;0.054747313;-0.073001735;-0.065031886;0.1222247;0.08621492;-0.054194868;0.17887819;-0.08620052;0.0009047105;-0.09449303;-0.035629883;0.19260289;0.092534244;0.12816459;-0.14493658;-0.13839684;0.11200857;-0.11973015;-0.22976333;0.16437075;0.12681259;0.12928906;-0.05582152;0.011717048;0.15049712;0.03704784;-0.114365205;-0.23062974;-0.14285927;0.031974427;0.21451549;-0.12292073;-0.0027159618;-0.007872604;0.09744928;0.10130932;0.04854578;-0.009759962;-0.10270517;-0.34385812;0.07093527;0.061689064;0.06560717;-0.021290442;0.108954586;0.076528884;-0.14374977;-0.1985142;-0.074147455;0.024372887;-0.018839514;0.08320709;0.09884618;0.21519962;0.111648746;0.077354655;-0.05828408;0.037477996;0.09166593;0.05946184;-0.0043462995;-0.027522262;-0.0062368438;-0.03650569;-0.08272181;0.08349471;0.015428042;-0.0057581672;0.09843506;0.01396771;-0.09044877;-0.06950934;0.052832123;0.0021357662;-0.21865842;0.109291226;0.25792202;-0.005797242;-0.09918382;-0.06546546;-0.01597538;-0.018756425;0.072534226;0.10434029;-0.013878388;0.009484155;-0.04901606;-0.1492308;0.05572333;-0.11920084;0.02193647;-0.10868838;-0.034141753;0.18210861;-0.11328243;-0.28211117;0.013832438;0.060895562;0.15198895;-0.07001038;0.11741368;-0.037006572;-0.10486067;0.079026386;-0.20425236;0.09820165;-0.090016335;-0.10451073;0.0472671;-0.26586396;0.17444037;-0.02348863;0.17566197;-0.0042155394;-0.17661998;0.03623112;-0.16643625;-0.22308233;-0.033570576;-0.14484079;0.062237054;-0.08391754;-0.0045942566;0.075622484;0.017439036;0.11671947;-0.33960703;-0.020292483;-0.0408251;-0.038782824;0.062429298;0.24271536;-0.06632358;0.029374162;-0.070617065;0.050328508;-0.22369193;-0.0015111718;0.034098558;0.05627119;0.15596245;-0.11765516;0.00599192;0.03456685;-0.23729691;0.07611678;-0.030413184;0.030258717;-0.04827916;-0.050482027;-0.056313477;0.083091654;-0.0058855503;0.054213863;-0.17113662;-0.0048716646;-0.06587284;-0.101161115;-0.2288241;-0.1053018;-0.17026027;-0.0038822673;0.01708732;-0.29918432;-0.09589014;-0.18989657;0.17907506;0.08440558;-0.24111806;-0.031526513;-0.06209729;-0.09754183;-0.23436329;0.058172688;0.07273207;0.060672853;-0.0047122957;-0.012955304;-0.123665385;-0.19824012;0.106041856;-0.07708754;-0.08185118;-0.057159472;-0.06334793;0.042374946;-0.08473084;-0.07934504;-0.21869689;0.0680254;-0.15745975;-0.061833374;-0.061946273;-0.092450686;-0.007168136;0.020185826;-0.049903803;-0.0058636065;-0.0323877;-0.049965728;-0.18517765;0.04102581;-0.123490624;0.16182588;-0.12657401;0.16889381;-0.19415446;0.1272054;-0.050878335;-0.02393287;-0.04605537;0.18133266;0.08072763;0.0074146152;-0.04299675;0.11480591;-0.12975308;-0.09669396;-0.21382827;0.17922078;-0.36222523;-0.050954487;0.07107862;0.14201199;0.038884383;0.1624055;0.11653163;-0.0323834;0.030545933;-0.11145976;-0.13816832;-0.026441354;-0.103480436;-0.0068042236;-0.21884081;-0.20933022;0.06870071;-0.12228573;0.0670603;-0.16643938;-0.09368673;0.09065468;-0.12805733;-0.008853476;-0.052221604;0.0519331;-0.02056069;-0.11491877;0.063395604;0.022856632;0.122673966;-0.015840592;-0.06835598;0.022498129;-0.20383896;-0.050626032;-0.09212466;-0.062374674;0.15910745;-0.23080502;0.061377198;-0.017333873;-0.17950994;0.017088976;0.10395655;-0.07838846;0.25584516;0.038892634;-0.08597364;0.062301602;0.042344395;0.008847191;-0.077226825;0.049869984;-0.13840011;-0.052818656;0.0520714;0.016921256;0.21887454;0.11795778;-0.34063876;-0.35017464;-0.014737411;-0.09494398;-0.13620877;0.122210555;0.059762634;0.097233266;-0.07809763;0.22110975;-0.070632465;-0.1034843;-0.05248909;0.114384174;0.091594845;-0.15815288;-0.14863324;0.19790332;-0.10758743;0.02835902;0.13231403;0.016480004;0.0134450635;-0.09973007;0.11564275;0.08417934;0.23636422;0.008166346;-0.11979654;0.10822441;-0.040069513;0.26205844;0.023401732;-0.01104241;-0.3516825;-0.06973582;-0.14572461;-0.011498477;0.08783173;0.0044634794;-0.08869832;0.06963408;0.20675994;-0.038255844;-0.03490765;-0.14225696;-0.093927555;0.091326855;-0.12546435;0.1117118;-0.13619909;-0.2251697;-0.13181338;0.14101039;0.017529888;0.0753016;0.005189415;-0.2261649;0.1206377;-0.10193673;0.018686704;0.19038513;-0.09104189;-0.023344534;-0.09493134;0.087596625;-0.051334217;0.025544938;0.075144224;-0.0030572454;-0.004992825;-0.11606093;-0.17986871;0.11579159;0.09644824;-0.033123743;0.12089505;0.07595586;0.2309454;-0.14484634;0.055659693;0.10481517;0.13454011;-0.12631959;0.06416929;-0.039257895;0.058896415;0.01863336;0.01821425;0.26023114;-0.095388316;-0.16479361;0.055290557;-0.09814298;-0.010317019;-0.040509813;0.04334614;0.045659542;-0.26985395;-0.03506388;0.042804632;-0.004823686;0.220585;-0.051525377;-0.027398331;0.1684402;0.23625079;0.121500425;-0.06195817;-0.14902844;0.07736077;-0.18625182;-0.0137404315;0.024986919;-0.0038789853;-0.12582374;-0.27808404;-0.028151277;-0.08993923;0.1625207;0.028996201;0.10222793;0.049280707;0.07648733;-0.0015459709;-0.1926249;-0.10247475;0.033627387;-0.028753458;0.011375158;-0.016864974;-0.16912797;0.21879472;0.15871972;0.015060442;0.0110937515;-0.15273114;-0.03644441;-0.16625969;0.027700938;0.12671696;0.061522663;-0.10090585;-0.20508663;0.16650486
0.122640155;-0.072971605;0.028107896;0.14218396;0.12885672;-0.12892906;-0.20816466;0.036177643;0.07643538;0.013388288;0.059963703;0.035466142;-0.20789663;0.0077372957;-0.38941324;0.1064935;-0.05843065;0.039936766;-0.045890506;-0.050571006;0.13870865;-0.29248887;-0.08112001;0.015864784;-0.10044905;-0.051004615;0.04617909;-0.049853466;0.0967463;0.18727504;-0.20569852;0.0032885508;-0.15960555;0.07991814;-0.039612446;-0.09852427;0.21430439;-0.005521453;0.06492605;-0.033975724;0.060026377;0.08164898;-0.04504645;-0.024196673;-0.0071812146;-0.0059903404;-0.035373505;-0.0037222095;-0.054869078;-0.10790246;0.085634425;0.056842137;-0.0068601766;-0.30465415;0.12359691;-0.07416465;0.10406682;0.022526884;-0.10882504;0.18038327;-0.039821498;0.09956656;0.12859319;-0.16791639;-0.031711806;0.14586738;0.120489545;0.13737835;-0.105114385;0.09643168;-0.0870087;-0.07943498;-0.049157493;0.14361043;0.06523952;-0.13654074;-0.314146;-0.20381653;-0.1998641;-0.18760264;-0.033235766;0.19093205;-0.21332547;-0.11779486;0.03907105;0.056573957;-0.08597757;-0.16092603;-0.078815304;-0.101037435;-0.0064594415;-0.09731674;0.010090897;0.10233838;0.017588314;0.061829086;-0.059194975;0.2466424;-0.053823598;-7.5558266e-05;0.027424928;0.02207713;-0.07882124;0.094990976;0.13557515;-0.15970838;-0.13859709;-0.030405946;-0.018314274;0.032790907;-0.05060624;0.0063690916;-0.13731042;0.06821464;-0.012008603;-0.04666605;-0.10838647;-0.10852863;-0.03550852;-0.07640882;-0.02454143;-0.17515676;0.007492482;0.021935355;-0.13864732;-0.10471406;0.07854262;0.088381715;0.02147485;0.082594514;-0.16192634;-0.19025597;-0.054973632;0.12884532;-0.034833625;-0.025561275;-0.2526716;0.11810544;-0.07647199;-0.13013367;0.03952614;-0.06869716;-0.109545805;-0.16396023;-0.048234355;0.07526076;0.037182588;0.081033655;0.21918374;0.020001788;0.04492712;-0.065774955;-0.05423422;-0.061095018;-0.063927725;0.09809391;0.12649736;0.19207793;-0.09264789;-0.09596069;0.06751619;-0.0547128;0.12538938;-0.07101746;0.036574036;-0.14478752;-0.2118432;0.14086108;-0.120699555;-0.24105583;0.1132084;-0.057743087;0.17370167;-0.115540266;0.025358096;0.15112828;-0.050769214;-0.11089575;-0.08766017;0.10766354;0.0147758275;0.22766979;-0.15662079;0.08453605;0.0895071;0.09658523;0.20038222;0.054939408;0.07494452;0.053486723;-0.04425527;-0.06349034;0.020282056;-0.03134585;-0.063185856;0.096707076;0.062484205;-0.14452821;-0.23506787;-0.32630196;0.013441029;-0.17819878;0.08873316;0.22857374;0.187686;0.06551645;0.12325633;-0.18497582;0.079731576;0.01758304;0.0845389;0.1221078;0.06203133;-0.07388036;-0.024197806;0.1047071;0.15662901;0.08439536;0.2201012;0.046786897;0.029339178;0.03198501;0.062706344;0.13340876;-0.02924009;-0.1140159;-0.059078705;0.1292914;0.088578284;-0.05127929;0.09450688;0.14196667;0.042610332;0.016895846;0.11874331;0.0569461;-0.19693094;0.0431931;-0.107952885;-0.012618663;0.083305344;0.15690579;0.059083756;-0.09619703;0.12437364;-0.0580839;-0.16710708;0.1387141;0.10110173;0.15050955;0.07294698;0.044647753;-0.16811378;0.04121897;0.10870429;-0.17942353;0.079217725;-0.15848865;-0.041439485;-0.011515378;-0.04276301;0.10942177;0.11645105;0.039870825;-0.09720155;-0.2506346;-0.044139136;-0.03869194;-0.07389721;-0.10505136;-0.023642248;-0.10162405;0.14421788;-0.23423272;0.031660866;-0.060774166;-0.056631945;-0.26280028;-0.09105599;-0.1347119;0.0542836;-0.017201439;0.1863257;0.070922524;-0.056659847;-0.047422748;-0.06384918;-0.06385488;0.017345155;0.08273053;-0.15025151;0.08701745;-0.015834816;-0.023698976;0.05015986;-0.07736789;-0.068606175;-0.09387712;0.08525072;-0.07463986;-0.042825606;-0.08436936;0.03708947;0.014693678;0.009109371;-0.2657091;-0.038230196;-0.021943247;0.1320208;-0.071618445;-0.13350381;-0.17248167;-0.027386455;0.078141056;-0.16384333;0.012474282;-0.008695893;0.04030849;-0.10401095;-0.20881227;0.039514996;-0.057085473;-0.18255761;-0.06605969;0.03386883;0.06763221;0.023386534;-0.16858412;0.004884518;-0.04390516;-0.17093979;-0.011637376;-0.1751982;0.005327078;0.061195824;-0.0343344;-0.06638417;-0.10603723;0.025436008;-0.0057239686;-0.002302092;-0.25057074;0.072031185;0.052127965;-0.008122022;-0.018838467;-0.14197212;0.056360215;0.06485617;0.043495722;-0.094484024;0.10606427;-0.14316174;0.03979045;-0.083913535;-0.027402606;0.1279612;-0.1605594;0.13915378;0.12956858;-0.036322612;-0.052775897;0.025212105;0.19415016;0.02620904;-0.023253316;0.07859512;-0.05353081;-0.22932354;-0.114724964;-0.00457561;-0.33539575;0.11976519;-0.10896062;0.009665266;0.11372886;0.15762103;0.25837797;-0.017094372;-0.085363485;-0.24849233;-0.21610457;-0.16288152;0.14050415;0.02628718;-0.005227259;-0.072002776;0.12072115;-0.09038056;0.2879214;-0.21193737;-0.17249383;0.19232552;-0.011999784;-0.039345063;0.19084194;0.16520445;-0.008753076;-0.084722675;-0.03340685;0.08355561;0.13348901;0.06524539;-0.07319005;0.05055892;-0.098781936;0.066544205;-0.034030154;0.092684716;0.12671141;-0.027410684;-0.045873314;-0.15356319;-0.0935832;-0.16686483;0.11140796;-0.17497092;0.25053635;0.114626385;-0.056949865;0.08423568;-0.0518082;-0.04776864;0.10143546;0.14290091;-0.37211272;-0.19196807;-0.03696852;0.104279004;0.033385158;-0.0070635583;0.0002835157;-0.29695025;0.047675353;-0.037142478;-0.24052513;0.19979408;0.08562313;0.08844781;-0.0028569384;0.15546526;-0.07436473;-0.11406944;0.029190056;0.16791874;0.28322262;-0.04168254;-0.13234533;0.13758041;-0.095314585;0.017798726;0.048568353;0.00854137;-0.035019528;0.021986676;0.029933907;0.21244277;0.25672954;0.1267316;-0.04089494;0.03101621;0.040326674;-0.09243946;0.030047646;0.06517432;-0.32174024;-0.12119608;-0.16827224;-0.26763412;0.14008817;0.12903495;-0.064457364;-0.012855049;0.049621366;0.06984003;0.09050947;-0.19140299;0.0355378;-0.029539853;-0.01597163;-0.01894871;0.04542296;-0.35879678;-0.09860416;0.14000656;0.03184718;0.20131673;0.09175611;-0.10428815;0.054447856;-0.015619247;-0.012158214;0.018931344;0.12592825;0.014086325;-0.12837678;0.1228422;0.05603967;-0.01853289;0.024456976;-0.012362791;-0.108836174;0.0057492075;-0.07661695;-0.03463737;0.13204652;-0.10047867;0.12756406;-0.005150533;0.14403316;-0.023982808;-0.04579369;-0.02455226;0.07623823;-0.06775332;0.0441723;-0.11964477;0.06830179;-0.019056275;-0.04115588;0.23215841;-0.2333568;-0.27428025;-0.04478379;0.06589866;0.16822666;-0.05156886;-0.0669083;0.06920669;0.0018974429;0.07619802;-0.09248509;0.11363868;0.17181037;-0.03670467;-0.008624385;0.043877803;0.18695939;-0.10417352;-0.038063116;0.023669794;0.114281125;-0.13189477;0.027659459;-0.00044370993;-0.12730914;-0.010596455;-0.112453036;-0.101692006;-0.27065313;0.041880142;-0.018688427;-0.098621294;0.1139906;0.0230781;-0.025791401;-0.14879861;0.05282585;-0.0244741;-0.014164405;-0.030611705;-0.118953705;-0.11364703;0.046928983;0.06357414;-0.17860645;0.076268256;-0.07483616;0.031036535;-0.030358613;-0.056259166;0.2337514;-0.10061247;-0.031689867;0.01063266;0.046968933
0.051402107;-0.009540122;0.041780468;-0.07557993;0.0022824777;-0.03864542;-0.1128651;0.040659595;-0.12810725;-0.042958613;0.08996239;0.06892262;-0.12554625;0.004340037;-0.13353646;-0.072069235;-0.13892817;0.19810395;-0.057730023;-0.04496742;0.030315073;-0.12889387;0.034401268;-0.027828643;0.021278081;-0.014398953;0.06972347;0.0041596927;-0.027053744;0.1651541;0.021585438;0.054803487;-0.0037892077;-0.091806285;0.10434611;0.06458355;0.10751395;-0.0017606558;-0.054361615;-0.010925338;0.0653982;-0.026709342;0.05603858;0.009796054;0.06369989;0.018600613;-0.010679352;0.0334129;0.04092641;0.051993236;0.046700116;0.01196999;0.11790955;-0.17819497;0.1433424;-0.1120139;-0.12916252;-0.012620759;-0.08810064;0.13076486;-0.0003834168;0.12957765;-0.00807177;-0.099486224;0.028123347;0.11911424;0.057059217;0.16084184;0.035180654;0.101082556;-0.058751106;-0.15609886;0.09192338;-0.042083897;0.111628294;0.012049864;-0.20656402;-0.016946437;-0.22621608;-0.15851143;-0.008724399;0.13562845;-0.1487246;-0.052106053;-0.03873032;0.07628173;-0.08085313;-0.2113045;-0.2441023;-0.10938691;0.076334275;-0.040028926;-0.034090243;-0.02708189;0.24831177;0.015069278;0.020561034;-0.011312866;0.009654676;-0.034068845;-0.04408768;-0.04592106;0.081853576;0.13009939;0.04034453;-0.09348878;-0.2503955;0.010137591;0.102304086;-0.0029254218;-0.22291298;0.040662035;0.058760103;0.073810145;-0.006645967;0.0036122324;-0.15372148;-0.08846764;-0.22536431;-0.24554563;-0.10157818;-0.08775682;0.07324622;0.020532895;-0.19402117;-0.03769105;0.05227986;0.10435089;-0.01000341;0.14685966;-0.03335154;-0.27370924;0.014655873;0.15666173;-0.12179157;-0.016246323;-0.0346893;0.0005712416;0.013787529;-0.12758772;0.14218098;0.079901114;-0.16972505;-0.1234857;-0.10313035;-0.092683405;-0.08945586;0.065029144;0.068889685;-0.08757332;0.1553436;-0.06375155;-0.032655105;-0.12700206;0.12578379;0.14674452;0.012564816;0.19177839;-0.20065834;-0.03298641;-0.093938656;0.007029838;0.12789993;-0.003685673;0.17129984;-0.015928224;-0.16411975;0.11520287;-0.14773874;-0.2439311;0.107428744;-0.10256119;0.07022627;-0.10613751;0.087571986;0.1679595;0.020609222;-0.085326694;-0.04556255;0.079252094;0.03777888;0.18489474;-0.07027528;-0.06643644;0.08766933;-0.027951887;0.16431266;0.1264241;0.1211731;0.16071403;-0.046902165;0.035029553;-0.081760205;0.15384433;-0.041184813;0.18344195;-0.014673818;-0.107964374;-0.2519178;-0.09605059;0.112263374;-0.10075722;-0.03619505;0.138748;0.14397645;0.15469664;0.16310006;-0.05181842;-0.002348758;0.035388198;0.10581333;0.03921506;0.15897535;-0.051091332;0.11735731;-0.068688855;-0.023414593;0.08330944;0.13384268;0.15568914;0.06008658;-0.15996735;0.24680129;0.017749237;0.011700909;-0.11116682;-0.122212306;0.18300605;-0.04799443;0.02629357;0.04414578;0.10109167;0.09469103;-0.09156972;0.14551292;-0.0902872;-0.026765756;0.13021751;0.23156258;-0.01707198;0.1518343;-0.0803084;-0.006270291;0.11326501;0.19544809;-0.02100558;-0.010953582;-0.023952957;0.015180845;0.19082053;-0.036273595;-0.0040124;-0.17136131;0.097444326;0.0582801;-0.038388472;0.0906676;-0.13925116;-0.014743729;0.15482324;0.030029045;0.20347749;0.010230972;-0.005158351;-0.060962323;-0.32917768;0.03184269;-0.068882205;-0.10346518;-0.10802964;-0.18121134;-0.1527936;0.025562204;-0.098547846;0.0591572;0.06422312;0.011564795;-0.29072702;0.09312081;-0.017863423;-0.04530364;-0.07618204;0.11467699;0.005026417;0.035819903;-0.06962882;0.07557815;0.10358074;-0.12555835;-0.03012167;-0.14640526;0.074366845;-0.14302649;0.03667485;0.00564177;0.00412575;-0.08836002;-0.039882906;-0.0033529694;-0.012644052;0.009937192;0.0016189043;-0.014300482;-0.01978692;-0.023946142;-0.2366628;-0.07042919;0.020232877;0.040306572;-0.18856236;-0.020266667;-0.06694292;0.10192753;-0.04039117;-0.20093341;0.014346783;-0.11792013;0.09711887;0.08322726;-0.09626235;0.06714948;-0.13552427;-0.058564063;-0.078697555;0.13366134;0.038740713;-0.017123718;-0.076398686;-0.0869501;-0.060173895;-0.04640631;-0.030573247;-0.25935033;0.021696374;0.09025727;0.051506624;-0.025193837;0.088289276;0.14310251;-0.09212017;-0.09623757;-0.32458943;-0.06386941;0.1575334;-0.05779671;-0.035757057;-0.2580248;0.031069921;-0.058452994;0.12047533;-0.028241586;-0.075567156;-0.119789176;-0.051687367;-0.032866865;-0.057421774;0.102102615;-0.06209507;0.028534811;0.075368024;-0.02704711;0.04769894;0.02899151;0.1327358;-0.13813046;0.077059984;0.032329567;-0.015059859;-0.1425547;-0.21226041;0.19251484;-0.2822437;0.13718444;-0.045799907;0.044966094;0.003791058;0.24870059;0.16190743;0.008939967;0.11062788;-0.2193933;-0.038199775;0.021634981;-0.08773152;-0.06663112;-0.08117438;-0.19353314;-0.0166437;-0.069913715;0.07129064;-0.08817268;-0.115509726;0.15404546;0.062118262;-0.01575061;0.17470068;0.20414649;-0.04933698;0.054607883;-0.020270048;0.062649705;0.03431308;-0.050189126;-0.09454203;0.024696585;-0.098202005;-0.046137907;0.085085414;-0.05110728;0.13970537;-0.17054442;0.18777181;-0.09827664;-0.12339641;-0.042173788;-0.0026594908;-0.0023103883;0.2083404;0.24263313;0.110391915;0.09300114;-0.029628005;-0.050101582;0.15380992;-0.023594478;-0.19249816;-0.13886689;-0.2109363;0.07200754;0.06111053;-0.05780978;-0.17246418;-0.3100991;0.053220548;-0.13929562;-0.19336869;0.15205379;0.24636659;0.051452324;-0.107584104;0.061069887;0.03567178;-0.14280537;-0.0110116545;0.048409767;0.16260065;-0.20830615;-0.20388517;0.08524021;-0.13621081;0.037037563;0.13556767;-0.15298596;0.09870086;-0.15972932;0.08992742;0.1433951;0.2744285;0.16645272;-0.14402896;0.015737893;0.006741561;-0.20800343;0.053365648;-0.04316172;-0.26628032;0.02238459;-0.2536924;-0.25097305;0.14072096;0.077700995;0.031657085;0.0893613;0.20103446;0.04432342;-0.115463436;-0.24115586;-0.12358755;-0.105200574;0.0023959246;0.07869135;0.11686699;-0.44097352;-0.03720957;0.03693363;-0.048541475;0.066226065;0.08682913;-0.066472575;0.12858203;-0.052404594;0.011484065;-0.10358996;-0.095839515;-0.00035355522;-0.2685637;0.13685718;-0.0051902537;-0.04418974;-0.12752189;0.09763465;-0.11684171;-0.0044738846;-0.043970667;0.10790517;0.1421829;-0.11924124;-0.027534803;0.08371107;0.18198434;-0.2039388;0.029685972;0.04128791;0.14828466;0.04035832;0.15434435;-0.13361926;-0.006412069;0.08225994;-0.012356211;0.22446574;-0.04162576;-0.011969028;0.050193198;-0.055112828;-0.06151969;0.11018611;-0.12983379;0.032882933;-0.13730915;-0.040518522;0.0045548114;0.17812009;0.21412379;-0.06439104;-0.09199832;0.10327443;0.15937234;-0.068557;-0.07992705;-0.047487702;-0.15364519;0.0040118992;0.09834869;0.022184903;0.08839251;-0.08171221;-0.18807459;0.08369301;-0.25579807;-0.0035884946;0.011752099;0.045768518;-0.12023724;0.04365586;-0.11698678;-0.03985842;-0.17521955;-0.052952264;-0.15823832;0.10512482;-0.052643403;-0.053165816;0.022951426;0.17003632;-0.085170984;0.102158025;-0.1381165;0.08896763;-0.12580761;-0.0036413127;0.091370784;-0.0349137;-0.0862142;-0.056558274;0.03472361
-0.042301234;-0.09029536;-0.12115651;-0.028051758;-0.08759803;-0.0035531104;-0.1788688;0.054385155;-0.06089447;0.10759202;0.12779634;0.12407805;-0.15824161;-0.014376648;-0.15417935;-0.046786778;-0.16605768;0.0090625;0.07142743;0.060895324;0.08731225;-0.07431535;-0.023449432;-0.079240486;0.066116184;0.08971974;-0.07913672;-0.09287316;-0.06816902;0.16216528;0.009544801;-0.008892347;0.0012463379;-0.013779114;-0.024419744;0.041900538;0.116677284;0.049193133;-0.10984325;-0.09511978;0.07968234;0.0008076711;0.07894682;-0.089396015;0.057261202;-0.1508225;0.020094842;0.076774925;-0.2167806;-0.12951985;0.00708417;-0.023441758;0.039841592;-0.17017038;0.13131548;-0.07417493;0.016732382;0.13681467;0.058149297;0.21755649;0.031875953;0.07055132;-0.113251686;-0.03662437;-0.018062418;0.18092014;0.07232517;0.04872744;-0.044503298;0.086751685;0.020827502;0.013302698;-0.007410807;-0.037103567;-0.018003203;-0.028380327;-0.07901686;0.05744869;-0.09096741;-0.24351682;0.16045658;0.1682208;-0.19253968;-0.16804531;0.068116084;0.020731319;0.0738128;-0.14751926;-0.059231907;-0.07231093;0.059560765;0.056596737;0.01323843;-0.07247008;0.15260977;0.116205886;0.05070673;0.09327821;-0.0064911917;0.085955344;0.08521129;0.02040989;0.07292283;0.018342935;-0.04669449;0.08044555;-0.17270842;0.112392254;-0.062423274;0.18804057;-0.009193636;0.0329097;0.18546745;0.081473716;0.05209615;-0.015491644;-0.061429452;0.01935556;-0.09812136;-0.1685296;-0.09705727;-0.008974498;-0.13607913;0.011554566;-0.19118355;-0.16381584;-0.040722433;-0.038222376;0.04809381;0.068130486;-0.20144509;-0.056004323;-0.046098087;-0.026851984;-0.099642634;-0.07065286;-0.023390613;-0.0185307;-0.1397568;-0.007566474;0.10491246;0.040253244;-0.056222785;-0.015645975;-0.060010664;0.0003060277;-0.077201486;0.09433087;0.12504812;0.035523638;0.092425115;-0.096529074;0.087214865;-0.19771512;-0.012592329;0.055135287;-0.0014778075;0.08411729;-0.14412554;-0.0029052664;-0.12607387;-0.012728958;0.12264752;-0.1217149;-0.030232102;0.03422752;-0.048160687;0.087936476;-0.26830488;-0.11978818;0.07264651;-0.03789621;0.18592295;-0.096729815;0.0804505;0.17196134;0.14076753;-0.08394045;-0.20988698;0.02772912;-0.113063;0.017700145;-0.039405882;0.031933665;0.08079327;0.13674039;0.17364547;0.10337821;0.11641149;0.07419844;-0.18129848;0.014081754;-0.14686653;0.064072944;-0.009057753;0.18148026;0.055735193;0.0007871908;-0.13892326;-0.05495274;-0.025582656;-0.13240339;-0.13675396;0.16179754;0.22967464;0.12948287;0.21606803;-0.031511977;-0.05828581;-0.04731964;-0.042499907;0.092679776;0.039492372;-0.08128926;0.027247818;0.07908672;-0.011909279;0.25586668;0.19426546;0.058022253;-0.07400014;-0.13483627;0.19120754;-0.044019684;0.0012003534;-0.123614475;-0.11541715;0.17437577;0.0734045;0.09107599;-0.019356197;-0.038542423;-0.06294282;-0.01435722;0.049733546;0.0024349117;-0.087600954;0.09761774;0.11906111;-0.056860827;0.009827473;0.066495165;-0.02989249;-0.18371204;0.17613634;-0.016292162;-0.002705985;0.08868128;-0.013268578;0.1705299;0.06564487;-0.11914641;-0.05099049;0.13679588;-0.03802362;-0.111689106;0.035738576;-0.081136666;-0.10624741;0.0238022;-0.08394946;0.09040835;0.06438432;-0.028644167;-0.08180481;-0.110274866;0.0040053423;-0.052211493;-0.18268806;-0.024267793;-0.048896197;-0.027274344;0.066232115;-0.11998145;0.031384327;0.1054349;-0.06898874;-0.1902624;0.061792966;0.0583123;-0.018807912;-0.09905386;0.022542562;0.023064874;0.014883569;-0.02795174;0.03599657;0.020435903;0.14829436;-0.036945283;-0.26536238;0.18746449;-0.08634334;-0.016346915;-0.11784344;0.07671363;0.067702875;-0.08894496;-0.024689067;0.06678226;0.071771026;-0.112569;0.085387245;0.03401489;0.17135976;-0.17536749;-0.110944875;0.0676799;0.18887238;-0.22759794;-0.064207695;-0.092909336;-0.04838118;-0.0064220373;-0.11210893;0.0345327;-0.029012159;0.13052654;0.045239996;0.024950998;0.09563511;-0.13654952;-0.17642516;-0.23329136;0.056365423;0.10531005;-0.071641035;0.0015542718;0.056588158;-0.055211954;-0.06558767;-0.09482547;0.0063070497;-0.11399859;0.09005248;-0.097316906;0.10509185;0.023271222;0.19166104;-0.080288686;-0.045771442;-0.20965847;0.032297943;0.154517;0.040866245;-0.059607517;-0.14029388;0.14948922;-0.072297506;0.06437162;0.02476538;-0.06497083;0.03376747;0.01593648;-0.06893886;-0.19133128;-0.014207544;-0.13729462;0.02247342;0.054566387;-0.05968231;0.0424115;0.08901463;0.0816098;-0.09032977;-0.18438807;0.07595193;-0.035116687;-0.19562629;-0.14267294;0.08948975;-0.2865109;0.16540323;-0.10952442;0.080813244;-0.037302937;0.18655834;0.1583001;-0.10495544;-0.03815197;-0.04257917;-0.112301864;0.11031367;-0.032277998;-0.11190825;0.031293638;-0.15537763;0.031737376;-0.12789401;0.052313313;-0.11004875;-0.07062752;0.13759306;-0.025493067;-0.13330626;0.17726414;0.10165705;-0.039564583;-0.052095897;0.047444623;-0.06294756;0.09073881;0.064262554;-0.16764444;-0.01979431;-0.042062998;0.075854786;0.08500482;-0.061215673;0.1358298;-0.094371326;0.05989044;0.014087669;-0.0968474;0.013776371;-0.18361689;0.048200272;-0.087875016;0.23323025;0.04212107;0.06627518;-0.11322357;-0.10589889;0.12156282;0.1309155;-0.023961822;0.07199426;-0.015496086;0.16038641;0.12700245;-0.013538054;-0.15063874;-0.33243343;0.058906503;0.039637487;-0.30110997;0.04393953;0.08266128;0.05579953;-0.100935094;0.0718088;-0.04084302;-0.12826988;0.016426316;-0.002352384;0.16453972;-0.077581584;0.01983613;0.09474318;-0.115715034;0.0140961455;0.16694526;-0.099082686;0.096755736;-0.1585445;0.16110682;0.115827605;0.21078262;0.12864226;0.045956574;-0.1922039;-0.05127247;-0.22478245;0.019201512;0.044156;-0.22678894;0.11467489;-0.064160205;-0.096131;0.15762772;0.16200362;-0.0013882023;0.05541804;0.05129578;-0.037212476;-0.11478606;-0.25230357;-0.16707925;0.009997277;-0.08414574;0.10076734;-0.057121042;-0.1626536;-0.09790725;0.05910988;-0.0055138674;0.21736264;-0.03442304;-0.0585327;-0.067655034;0.021605404;-0.114312;-0.21103124;0.04503734;0.016159782;-0.110002324;0.031197157;-0.08545006;-0.17652978;-0.049255397;0.10209292;-0.15407385;-0.071734756;-0.11603057;0.10562337;0.10366305;0.008117061;0.00720637;0.025857277;0.0780457;-0.30108374;-0.066810146;0.08794597;0.15407735;0.06072401;0.20547625;-0.22974947;-0.0026391337;0.003635323;-0.08822807;0.094568454;-0.09354347;-0.07194978;0.003620865;0.019987578;0.08418575;0.06040119;-0.13507554;0.07543313;-0.0056450716;-0.058220595;-0.084289;0.21793923;0.24007732;-0.058612056;0.043940134;0.1310605;0.093260854;-0.13215269;-0.15408765;-0.03512039;-0.061549842;-0.114510916;-0.019481594;-0.050813667;-0.011066417;-0.045432962;-0.27033126;-0.055757586;-0.07808172;0.07311498;0.010411786;0.10588474;0.008339478;0.011122769;-0.22770168;0.04439871;-0.23266917;-0.076082505;-0.08523514;-0.092823125;-0.15178299;-0.032968167;-0.036594525;0.08916559;-0.10094758;0.040532056;-0.12912372;0.0091126915;0.012092232;0.080685586;0.039597955;-0.109949455;0.003633049;-0.12936532;-0.024810454
-0.030261721;-0.1169672;-0.19724938;-0.052797284;-0.09644371;0.048633996;-0.061324727;0.08534141;0.001761763;-0.027161893;-0.0881857;0.11118241;-0.1070567;0.06868748;-0.13918592;0.039393395;-0.12576649;0.015285661;0.0067121494;-0.0028230904;0.14188339;-0.22564003;0.070074685;0.08359775;-0.020811083;-0.025407307;0.024576861;0.066326685;-0.09842354;-0.060649958;-0.12884139;0.04070719;-0.024077896;0.06795418;-0.013660773;-0.043455712;0.16528296;0.17241229;-0.11908403;-0.1859813;0.20749083;0.021088729;0.07366823;0.063513555;0.054453876;-0.18028215;0.029138274;-0.022582633;-0.16398248;-0.26051268;-0.051813327;0.16724868;0.042029753;0.012823746;0.023113538;-0.039632864;0.0021550248;0.122735865;-0.060013697;0.13358925;0.019958487;0.18453987;-0.19268121;-0.10156345;0.018724615;0.1694325;0.023819966;0.088839136;-0.08350432;0.06511857;0.020860542;-0.07410297;0.04171624;-0.02457563;-0.07395643;0.10227703;-0.28738713;-0.08543957;0.039797813;-0.0963304;-0.0013264302;-0.009766807;-0.1808365;-0.27957517;-0.042641427;0.14659922;0.1496313;-0.04813696;0.037396647;-0.1611083;-0.08633548;-0.051830843;0.06279716;-0.044610877;0.06370243;-0.049680762;0.14116997;-0.07501166;-0.10506447;0.01457145;0.009278742;0.04488524;0.010384439;0.06613039;-0.09027812;-0.03801751;-0.017771678;-0.044146452;-0.023294423;-0.024187753;-0.018576013;0.01746947;0.08872724;-0.03243679;0.023282588;0.11628515;-0.1275266;-0.022416055;-0.13397323;-0.14222658;-0.07645808;-0.1458591;-0.12361927;-0.0796361;-0.2444984;0.038620733;-0.048233338;0.06424781;-0.10623395;0.080899656;-0.21437956;-0.10154316;-0.010058094;0.14704053;-0.159808;-0.0538252;-0.096896924;0.042754877;0.013437954;-0.07425622;0.25584078;-0.044156518;-0.15966332;0.04847294;0.026969707;0.1725268;-0.0014853084;0.12742312;0.16923843;-0.08591752;0.12019893;-0.13973078;0.18338408;-0.15996778;0.06890961;0.15980521;0.072845854;0.045291033;-0.111339934;0.08282755;-0.0023598622;0.060596846;0.13623598;-0.19766253;0.11556744;-0.14197333;-0.015039938;0.060169388;-0.19226596;-0.17923154;0.01669967;-0.09174853;0.19521318;-0.03674939;0.025081404;0.13899183;0.032698136;-0.071610965;-0.1621124;0.113109335;0.06965126;0.09979197;-0.07893915;-0.102577195;0.0039319308;0.08829865;0.09120045;0.065888725;0.069103785;0.03687338;-0.20790227;-0.08947451;-0.15259248;0.22379665;-0.024143938;0.14401756;0.100789666;-0.0410203;-0.062354855;-0.027794754;0.1238075;-0.007681926;-0.16885558;0.12853187;0.08312084;0.15766968;0.08794675;-0.11913902;0.1164342;-0.03827556;-0.14845583;0.054152407;0.043769278;-0.053569205;0.049339324;-0.070057444;0.07475279;0.073785804;0.19825304;0.015875034;-0.1546019;-0.13806514;0.123910286;0.08105632;0.05003656;-0.10519097;-0.21147744;0.06606991;0.0153167555;0.0035476028;0.06746737;-0.024359895;-0.21227752;-0.17286815;0.03954298;0.18367077;0.07869381;0.15743789;0.15367928;-0.058810465;0.034080133;0.0755485;-0.051103797;-0.1278305;-0.024126656;-0.030141195;0.09436032;-0.006416986;-0.08541785;0.11581105;0.19759788;-0.20476906;-0.031361505;0.015173151;0.009380323;-0.10191588;0.11020564;-0.0035507195;-0.06209794;-0.072089374;-0.27405834;0.07058634;0.06948404;-0.02016704;0.07374303;0.030293053;0.022341838;-0.059291407;-0.100652166;0.1590808;-0.014763796;-0.06577646;0.07153613;-0.077611245;-0.030888677;-0.057203077;-0.1749295;-0.059771784;-0.086632326;-0.1230685;-0.023622895;-0.1551963;0.03884409;0.03401408;0.011783276;-0.0150497835;0.08646993;-0.039789867;-0.0034996818;-0.04399247;-0.15078783;0.28376603;-0.0039326167;0.0655952;-0.051584583;-0.078014575;-0.027542135;-0.1371407;-0.10187839;0.04139926;0.06435963;-0.013991437;0.03228091;0.088409826;0.10143582;-0.08826419;-0.045202445;0.21511813;0.1189644;-0.28291586;-0.10724291;-0.17346139;-0.07496807;-0.045145232;-0.14993319;0.08495101;0.047464553;0.08878154;0.046313472;0.16429767;0.12109103;-0.10431253;-0.2426016;-0.15898076;0.1831629;0.16715087;0.10751276;-0.010402988;0.18156001;-0.014236814;-0.12970942;-0.10792554;0.028843725;0.09910476;0.0014102863;0.069898084;0.003945566;0.07766357;-0.0338232;-0.008181259;0.11300704;-0.1102511;-0.08760542;0.17611618;-0.16618042;0.05456611;-0.0019342817;0.17801367;0.1258294;0.0798179;0.06973427;-0.03336017;0.03468692;0.12762447;-0.068668164;-0.03940863;0.02485341;-0.080857724;-0.0055367784;0.022752637;-0.1094319;0.0101908995;0.014296724;0.07670401;-0.0040061614;-0.14107704;-0.042051017;0.014988647;-0.045921538;0.041122474;0.13103642;-0.09212152;0.20854092;0.020503769;-0.121485345;-0.19648609;0.12477658;0.14400099;0.057021145;0.08064983;0.060830817;-0.14508244;-0.033888534;-0.18997769;-0.15898672;-0.090159185;-0.010565943;0.101115905;-0.109811515;0.058556493;-0.25020579;-0.10160057;0.032206114;0.00846972;-0.16272402;0.0701589;0.100926794;-0.101827435;-0.08144259;0.07952713;-0.20742474;0.12998134;-0.08367212;-0.07750434;-0.103603266;-0.06058205;0.093841724;-0.007132298;-0.051844984;0.027152034;0.057587642;0.0822994;-0.012365915;-0.104724176;-0.07848427;-0.041917708;-0.06531782;-0.07360513;0.15943424;0.09518206;0.08411018;-0.13148652;-0.1772793;0.15121166;0.0713677;-0.13374883;0.08084025;-0.06396086;0.046743143;-0.021975929;0.072360605;-0.29221994;-0.23101264;-0.036585305;-0.086521976;-0.094987944;-0.007406721;0.23969586;0.064110704;0.06832226;0.055768676;-0.17148657;0.05563092;-0.023590649;0.18484713;0.22485015;-0.055791587;-0.033343643;0.12216069;0.0548292;0.2128831;0.010174942;0.0018066306;0.1587199;-0.13597849;0.022092134;0.1627072;0.03483546;0.03978686;-0.060823098;-0.1275677;-0.09985633;-0.29293713;0.07191369;0.017378367;-0.16728857;0.011701879;0.04698299;-0.05736405;0.13371438;0.08370422;0.20613736;0.043759573;0.16202754;0.1450994;-0.1271748;-0.12730715;-0.1128975;0.033996873;-0.013961221;-0.06973577;0.055875696;-0.05100746;0.02167588;-0.033731602;-0.0141577935;0.07123179;0.23810418;0.10450949;-0.17469136;0.043881502;-0.14620458;-0.27602902;0.075794116;-0.00022631048;-0.042635232;-0.020947196;-0.01556648;-0.15157548;-0.19501239;0.23225796;-0.040298633;-0.07909482;-0.13784136;0.10318836;0.10034026;0.12306203;0.045237664;-0.11248956;0.06680044;-0.24264038;0.04311857;0.052860662;0.024566645;-0.06864566;0.06867916;-0.076153435;0.054919302;-0.07556034;-0.05920117;0.098525785;-0.1154165;0.01924279;-0.01836334;0.01118924;0.094991855;-0.041851368;-0.21231122;0.09179554;0.03444845;-0.079588905;-0.13394804;0.09712797;0.1573352;0.05141557;0.06575916;0.17331497;0.1938546;-0.18535611;-0.08791918;0.0967058;-0.2741907;-0.33775252;0.14490052;0.049471397;0.021957327;0.01513027;-0.289134;-0.011988903;-0.11005641;-0.014509933;-0.019756116;-0.14659971;0.01645083;0.07039409;-0.15389371;-0.077361;-0.080407664;0.09150404;-0.031452138;0.06715732;-0.25521645;-0.052573938;0.069127314;0.04873334;-0.12869322;-0.006831506;-0.103172496;-0.16999824;-0.081013836;-0.048093773;-0.04201111;-0.06684754;0.051375333;-0.18866032;-0.1398583
-0.26557967;-0.107326545;-0.112679355;-0.058462173;-0.028466135;-0.023222733;-0.14414093;-0.11697586;-0.011453303;0.012031509;-0.0651811;-0.06807489;-0.07367619;0.15808503;-0.19533269;-0.045623824;-0.07501234;0.033202473;0.04073728;-0.04904269;0.13112742;-0.14928491;-0.077561304;0.011296046;-0.12491723;-0.017457632;-0.038567036;-0.04067692;0.02896244;0.07030215;0.03763294;0.021365631;-0.06581484;0.097608656;-0.13458808;0.00043908306;0.123040944;0.10124213;-0.0076471698;-0.18538448;0.20996334;0.041633025;0.05017896;-0.061097596;0.08007089;-0.17731148;0.04962538;-0.01030301;-0.24618769;-0.13040993;0.17973657;0.08517156;0.07816936;-0.09245892;-0.040397093;0.055604964;0.011566495;0.16735145;-0.013483073;0.098784685;-0.0010020753;0.10192914;-0.21345407;-0.17547174;-0.025164459;0.096066914;0.09876902;0.071144;-0.2143341;0.06762711;-0.06823847;0.054177113;0.046248652;-0.06498247;0.03630461;0.095938265;-0.2721034;-0.24729794;-0.123835325;-0.077529855;-0.11102579;0.071633354;-0.21037167;0.00047178828;-0.017806469;0.09046773;-0.05931091;-0.17913188;0.031749696;-0.15119164;-0.064839125;-0.11138027;0.088105954;0.08315615;-0.0661245;0.10403886;0.13414763;0.025497844;-0.09499653;-0.0047945413;0.23494236;0.061565995;0.058472883;0.035842113;-0.246112;0.14262918;-0.19181673;0.03003929;0.027268896;0.06787628;0.009782549;0.006590434;0.038635332;0.004363088;0.07635897;-0.061263125;-0.2057416;-0.110570766;-0.05881873;0.06943171;0.09000896;-0.20171936;-0.13709517;0.04658208;-0.11154614;-0.021431452;-0.16771595;0.11401167;-0.03403838;0.21704093;-0.16227266;0.121137;0.0468316;-0.041860066;-0.23385349;0.0004428718;-0.023125852;0.008329856;0.037485193;-0.062874965;0.15715986;-0.01723464;-0.07514261;0.01007381;0.010141056;0.17228214;0.101449996;0.12889914;0.035187274;-0.036943994;-0.0017812365;-0.21241756;0.049697034;-0.2413023;-0.13624091;0.07704582;0.32397413;0.017519629;-0.279084;0.0051664603;0.08626014;0.10044128;-0.060176965;-0.14950682;0.17653611;0.0015012376;-0.066396885;0.12636152;-0.29481664;-0.043685645;0.19653924;-0.25480738;-0.015295447;-0.01280918;0.032665133;0.1565386;-0.01508717;-0.07632654;-0.17289889;0.16712174;0.12648758;-0.053860046;-0.031044044;-0.15715408;0.11427164;0.07561004;0.10967981;0.12316442;-0.019265119;0.067998305;-0.08992607;0.013104733;-0.013813967;0.031029953;0.12672459;-0.055849787;0.15958844;-0.052323572;-0.13579293;0.02436373;0.090522416;-0.13046905;-0.062070742;0.21106298;0.15431324;0.07002977;0.10917492;-0.23028544;0.045543965;0.0072783753;-0.14437936;0.09088341;0.006371621;-0.03572567;0.18494503;-0.009343706;0.00037430436;0.20935397;0.3524676;0.15693341;-0.07317499;-0.22788967;-0.083888955;-0.00972591;0.05494411;0.11110426;-0.2285238;0.080120094;-0.105033234;-0.0562716;0.13180219;-0.08988744;-0.055000085;-0.12885153;-0.03285934;0.12407612;0.04117082;0.11922489;0.085289784;-0.12187744;0.13243124;-0.034106065;-0.17463318;-0.20186731;-0.03558982;-0.13104862;0.15288118;-0.087521225;-0.106265455;0.09711729;0.18437842;-0.32784155;0.044203512;-0.06938546;-0.013463;-0.1741282;0.03282599;-0.11648468;-0.091068625;0.06425376;-0.16074073;0.1851929;0.13513455;-0.06350076;-0.037758157;-0.19840612;0.003914131;0.0477757;0.100296564;0.010492142;-0.08568125;-0.13459332;0.043065403;-0.041432835;0.16868615;-0.121928096;-0.10941924;-0.26148844;-0.036349114;-0.02595705;-0.080587454;-0.13461076;-0.12167582;0.104952246;0.031650778;0.048281822;-0.033632662;0.087382555;0.17058085;0.0196345;-0.25202295;0.21148363;-0.012897838;0.038267966;-0.038548023;0.06005168;0.058089096;0.032295585;-0.08044986;0.059070628;0.14407265;0.03444315;-0.045100793;0.16101201;0.010885086;0.103060216;0.09222558;0.017453277;0.06206578;-0.0016756462;-0.07927461;-0.15826176;0.0034358974;0.0975742;-0.1505089;0.10136087;-0.0020412544;-0.094715685;0.07409354;0.16221513;0.077317744;-0.0032922206;-0.19754575;-0.122431554;0.024485165;0.017015977;0.019708987;0.035935484;-0.007598729;-0.07248994;0.00015480143;-0.0378628;0.15221599;0.044490468;0.14513376;-0.12267148;-0.055608604;0.053466015;0.13072255;-0.0043149656;-0.089624316;-0.16110313;-0.10485648;0.15108676;-0.09269175;-0.09069534;0.0028308963;0.17138036;0.039544113;0.11123449;-0.07935231;0.039436813;-0.117391735;-0.004851576;-0.16015427;-0.035739;0.06779374;-0.0840715;0.01156563;0.07023866;0.019075014;0.0404362;0.13490488;0.14578024;-0.072883025;-0.004364199;0.048030593;0.092299305;-0.17695168;-0.046928786;0.004974942;0.14570683;0.22532628;0.01836888;0.019874485;-0.043960683;0.14585333;0.0579766;0.006552983;-0.052063882;-0.116438515;-0.25840336;-0.20310663;-0.09362273;-0.062219836;-0.098597355;0.00708462;0.1427913;0.008752417;0.08350493;-0.32186684;-0.06357577;0.07061671;0.077561066;-0.22723623;0.082615234;0.0533608;-0.23691455;-0.15767904;-0.009344592;-0.21794014;0.07299935;-0.063182086;0.022531543;-0.0047715167;-0.0153372865;0.17902695;-0.066859834;0.09149027;0.100151725;-0.028703457;-0.039192766;-0.03262832;0.09426239;-0.077538796;0.0857411;-0.124075636;0.115397476;0.12520468;0.10780016;-0.024003858;-0.21016215;-0.15303603;0.065024726;0.22095102;-0.25655037;-0.15096745;-0.021947363;0.13888735;-0.002422687;0.018913114;-0.29253682;-0.24992377;0.06735916;0.052756764;-0.20457873;0.15322362;0.16902883;0.06890383;0.06941376;0.054537673;-0.033874597;0.073636174;-0.13586253;-0.048038013;0.16600282;0.10841341;0.16124606;0.06141415;-0.047853336;0.20297116;-0.041219402;-0.11170237;0.12590124;-0.12558495;0.15695147;0.1180722;0.13580646;0.11152038;0.13225754;-0.041490916;0.00025816148;-0.33085936;-0.06071869;-0.020799993;-0.24107732;-0.0012526715;0.09832422;-0.01366243;0.14912908;0.039485857;0.13026676;-0.031014904;0.078604445;0.12259864;-0.095188156;-0.22170617;-0.13214305;-0.028034426;0.07892472;-0.05270272;-0.044391576;-0.15626395;0.050257273;-0.034370955;-0.02405397;0.02002808;0.12283165;0.06687835;-0.21634428;-0.07209202;-0.053288054;-0.24408366;0.12934954;-0.0845094;0.007700351;0.0016192857;-0.023481352;0.05054779;-0.003995125;0.18913744;-0.12664822;0.018527564;-0.00033914283;0.015908895;0.04645126;0.06157315;0.027547719;-0.11580507;-0.009267884;-0.04131003;0.012344334;0.024557227;-0.02572263;0.0800687;-0.04635814;0.043579273;0.08167684;0.053173233;-0.045767475;0.07695642;-0.013518481;-0.0050083594;-0.014062697;0.023859411;0.18829289;-0.081087045;-0.09085962;0.1467701;0.07378609;-0.034721192;-0.27245286;0.13773334;0.14892401;-0.05391802;0.16247752;0.10136529;0.11655255;-0.04929254;0.033132106;0.098430246;-0.29564026;-0.14212523;0.013379163;-0.0082272;-0.06266749;-0.030992184;-0.311531;-0.08949723;-0.111320294;-0.09159644;0.12668638;-0.19303691;0.03791612;-0.02863763;-0.12847295;-0.054161906;-0.14953811;0.054106496;0.014430788;-0.027184092;-0.32946044;0.0073013124;-0.081568524;0.023690434;-0.13380902;-0.046220575;-0.062099475;0.014250899;0.04429273;-0.036902357;0.10845381;0.027904337;0.012198191;-0.17923047;-0.04004683
0.03982239;-0.23357444;0.020140441;-0.2126805;-0.16510314;-0.009869043;-0.14510037;0.023501027;-0.024639761;-0.028639335;-0.11852973;0.009022831;-0.041847948;0.0822191;-0.035128597;0.028375378;0.015291644;0.056629695;-0.00075985666;0.06366836;0.005948589;-0.05175173;-0.050585866;0.07500322;-0.057912365;-0.06777954;0.10529895;0.16637163;0.062478554;-0.16542812;-0.09676746;0.0382415;-0.061027028;0.001155939;0.028256327;-0.012996023;0.024381328;-0.008868782;0.046006855;-0.07667033;0.073241554;0.0634853;-0.019795462;0.08709071;0.024770575;-0.07555966;-0.034031454;0.020717908;-0.1891893;-0.118398584;0.13901003;0.044747144;0.056216925;-0.059237342;0.023046263;0.038294587;-0.066886365;0.011655376;-0.048147324;0.06788312;-0.050004024;0.07834325;-0.20991561;-0.018832462;-0.15487115;0.14893635;0.04031544;0.16220425;-0.3940039;0.0916472;0.032844692;0.013131186;0.1334908;0.054957815;0.09321846;0.26155192;-0.23126808;-0.14120497;-0.1848688;-0.036321893;0.017525928;0.01878609;-0.2224654;-0.04073164;-0.0032027077;0.04908703;0.19578888;-0.07854543;-0.11934392;-0.11699104;0.14414465;-0.121923566;0.02232977;0.0442535;-0.039536797;0.06587038;-0.022009581;0.10830959;0.0054333676;-0.18771476;0.16564669;0.03458774;-0.011385424;0.15781753;-0.22520223;-0.03327593;-0.39312002;-0.029119782;-0.027702734;0.11464499;-0.016360706;-0.0860617;0.038239874;0.027355816;-0.14151278;0.06727332;-0.071502015;0.06893866;-0.19729319;-0.17162664;-0.03740155;-0.09587294;-0.11480114;-0.02096084;-0.12173079;0.009270696;-0.06337046;0.19655636;-0.03697797;0.21612383;-0.113469675;0.06567855;0.13216506;0.03555419;-0.20610379;0.06461247;0.04031664;-0.1020955;-0.0209963;-0.04495384;0.0930597;-0.04851417;-0.16100715;-0.08078133;0.012081445;-0.07041525;0.109432;0.007873024;0.026827393;-0.102571175;0.014444129;-0.11675939;0.12316129;-0.15197402;-0.092408046;0.1627416;0.1451273;-0.0017471877;-0.2365088;0.1785286;0.05296529;0.07930242;-0.08905864;-0.11202481;0.083886914;0.19464101;-0.10671898;0.007197617;-0.26119143;-0.010032844;0.13006608;-0.20234829;0.06080179;0.06863356;0.15246487;0.16903478;-0.13159487;-0.061953668;-0.11428552;0.13863358;0.068402916;0.09929445;-0.030265369;0.026748117;0.15276876;0.08221953;0.05428203;-0.032075405;0.07272537;0.070185155;-0.20769688;0.069322884;-0.00844044;0.011586225;0.08791123;0.026549716;0.13938957;-0.053805765;-0.20942603;0.07706742;0.12544027;-0.12705393;-0.048440833;0.011229392;0.06728784;0.050890695;0.018364167;-0.055100203;-0.087624036;-0.071817815;-0.14819123;0.0018708721;0.14732793;-0.10253503;0.2448343;-0.054567315;0.0834813;-0.016156342;0.09289127;0.15415934;-0.092945315;-0.3172579;-0.14910023;0.06548778;0.09856234;0.028698785;-0.15265341;0.026279798;-0.06298968;-0.059425246;0.0889712;-0.11264227;0.057062294;-0.13671887;0.05686197;0.1113286;-0.020608414;0.088253714;0.28062966;-0.07262893;-0.026401147;0.04477625;-0.111483015;-0.07767795;0.017717019;-0.06364477;0.080583274;-0.25728038;-0.08034802;0.16544771;0.083512925;-0.05593356;-0.13956456;-0.10673578;0.084887736;-0.22659463;0.050967947;-0.13567482;-0.05235897;0.114689484;-0.05977189;0.21141016;0.04917143;-0.12674974;-0.05698021;-0.116631106;0.014609172;-0.05552919;0.04995095;-0.05206464;-0.18609683;-0.06283677;0.0035418477;0.020066358;-0.06391562;0.050737806;-0.11002598;-0.09580098;-0.15741593;-0.07563725;-0.12923472;-0.1339146;-0.10692068;0.074831665;-0.016042653;0.023182902;-0.06861121;-0.026062483;-0.012780367;-0.0360249;-0.10264591;0.1775398;-0.04837384;-0.044654045;0.10795242;0.027496193;-0.016462727;-0.06119799;-0.087131225;-0.074089564;0.14150353;0.11050354;0.12033974;0.064432904;-0.021825824;0.031646818;0.12786019;0.069695145;0.083681226;0.016873553;-0.050133366;-0.12442323;-0.12917936;0.00892541;-0.28242695;0.0697893;0.029602712;0.002807238;0.089678794;0.18457118;-0.059200384;0.088712595;-0.07358125;-0.20591088;0.0057095634;-0.045152724;-0.071705945;-0.044356808;-0.057269957;-0.026954258;0.23059897;-0.024537059;0.11671937;0.058623213;0.054353777;0.07653481;-0.12501222;0.2231999;0.14523064;-0.0860328;0.06241324;-0.13752258;-0.15463513;0.12932068;-0.08034909;-0.12353178;0.052985284;0.22174792;0.15843584;0.1317991;-0.10100848;-0.08055629;-0.16166137;0.1259101;-0.12899949;0.104397185;0.090779245;-0.09599858;0.14093485;0.03000212;-0.08263481;0.097210705;0.16011877;0.14170453;-0.0110546965;-0.034301676;0.2750709;0.0012170613;-0.01548335;-0.061992697;-0.054994054;-0.053104784;0.17690311;0.021938382;0.025480418;0.12939323;0.18496181;0.115472466;0.046581443;-0.018337123;0.03261615;-0.15009876;-0.15760756;-0.14631356;0.08409873;-0.124738514;-0.13509037;0.036354654;0.10724125;0.1139576;-0.15133992;-0.12592089;0.021303821;-0.036661282;-0.32196948;-0.09883042;-0.040387284;-0.060795013;-0.08412634;-0.074362725;-0.21358584;-0.060049992;0.046885736;-0.14542109;0.007773803;0.06904879;0.1495566;0.031921335;-0.029398993;0.10805168;0.05993297;0.08002683;0.067448966;-0.0039525605;-0.008709932;0.08203963;-0.11060693;0.077172406;0.10426855;0.077002324;0.06181661;0.02593148;0.04421683;0.064152464;0.12351725;-0.11323985;-0.039560683;-0.037838455;0.032319017;0.11749245;0.10767534;-0.17105392;-0.22115532;0.017016966;-0.004095916;0.045914587;0.11197275;0.016265871;0.020843452;-0.022251204;-0.0041144197;-0.09848495;0.11882554;-0.03330578;0.08680393;0.13453512;-0.08061598;0.11919227;0.102678;-0.022238558;0.16034319;-0.0025738608;-0.09609387;0.034878314;-0.089353055;0.05539875;0.07107354;0.06874882;0.04214059;0.085123494;-0.07947681;-0.12182746;-0.16752833;0.12532084;0.028474212;-0.049232237;0.0076828976;0.08905977;-0.094360314;0.080757566;0.04078611;0.078699246;-0.22946447;0.06340407;0.104316264;-0.11342982;-0.15286744;-0.16674988;-0.09375421;-0.12475839;-0.012825777;0.10931194;-0.14394608;-0.15548564;-0.18689592;0.16426705;-0.106760934;0.20072684;-0.031140633;-0.20670499;0.031687755;-0.034256414;-0.112288676;0.005630113;-0.0046475558;-0.1630954;0.13610451;-0.06743453;0.16750956;-0.04028169;0.15318832;0.038996;0.060128585;-0.063900955;0.0021673632;0.08048519;-0.04530643;0.093405396;-0.022410985;0.0122314235;-0.088662304;-0.0099526765;-0.024096498;-0.06929098;-0.0828843;0.036928553;0.05538538;0.0792238;0.05823986;-0.15732719;-0.072078556;-0.036439855;0.018755268;-0.047059145;-0.1429826;0.021996109;-0.104368165;-0.061657496;0.06764592;-0.100004345;-0.0018707471;-0.0882344;0.13056847;0.0979585;-0.08030123;0.087950066;0.17956167;0.12310615;-0.09543507;-0.16679454;-0.03863532;-0.37685233;-0.16798325;-0.04465204;-0.0811761;-0.027930286;0.111677594;-0.22249216;-0.08090091;-0.123302855;-0.0033417754;-0.041923054;-0.026689507;0.0612338;-0.009688221;-0.07617333;-0.17288344;-0.009236694;0.10953829;0.021733461;-0.10783126;-0.21159257;-0.024284266;0.095981345;-0.045730133;0.07826144;-0.069818154;-0.14425248;0.041466486;-0.07343258;-0.03702053;0.005971358;0.21290664;0.12408459;0.024989521;0.15602376
-0.11074891;-0.16811721;-0.011853936;-0.06819698;-0.16956893;-0.09915947;-0.13975987;-0.028995896;-0.03315625;-0.01166726;-0.021837711;-0.008308232;0.0915562;0.17356496;-0.044830553;0.033188827;-0.0451333;-0.17941973;0.029272025;0.112035595;0.07744108;-0.09493771;0.032289576;-0.17115027;-0.023179261;0.13383214;0.14046623;-0.009770921;0.059314534;-0.03885104;-0.031454712;0.011902541;-0.028504068;-0.067749955;0.032867145;-0.026578115;-0.09488423;0.13014542;-0.022938032;-0.12739749;0.06050401;-0.06499207;-0.07682332;-0.00042186584;0.011772759;-0.19827299;0.06790537;-0.019243168;-0.23301545;-0.14798114;0.051704533;0.08850411;-0.13943212;-0.047127403;-0.016798386;0.08382767;0.043622006;-0.0533651;-0.14385854;-0.10339814;0.05734052;0.04798947;-0.291235;-0.05410935;-0.061929204;0.22100177;-0.00038173608;0.17548832;-0.22217701;-0.018593399;0.008225567;0.035450112;-0.041739333;0.020551015;-0.018554516;0.16788559;-0.34888572;-0.17907456;0.076082066;-0.10812639;0.022222543;0.07634619;-0.24177414;0.06335557;-0.010210792;-0.031797472;0.025532845;0.04488746;-0.048113808;-0.0037028145;-0.05509564;-0.11588362;0.12817834;-0.115196936;0.008636473;0.15434949;0.050873578;0.13914119;-0.0149159655;-0.10925899;0.0716135;-0.018911982;0.037203163;0.1257825;-0.21881373;-0.12655362;-0.24507576;-0.015579275;-0.082142636;0.1246497;-0.21542257;-0.13114911;-0.031284783;-0.042806007;-0.016109115;0.099820495;-0.04425896;0.02317654;-0.11767698;-0.028786529;-0.06745298;-0.12551086;-0.1265039;0.052126486;-0.16681665;-0.007716996;-0.15193497;0.21926689;-0.05565214;0.10032;-0.103241004;0.10944671;0.123594925;0.042211045;-0.23422912;-0.11664548;-0.11938966;0.10039022;0.042489346;-0.030666385;-0.039066028;-0.16477638;-0.1089419;-0.121579416;0.08294025;0.16955447;0.027915178;0.015208517;-0.03855096;-0.08504602;-0.087910816;-0.12526745;0.12670751;-0.1790517;-0.05302546;-0.07477669;0.19270507;-0.09853806;-0.1726014;0.24330652;0.10634475;-0.018452268;0.040831685;-0.084102385;0.13029362;0.055005927;-0.1205581;-0.08371323;-0.18708965;-0.060428966;0.13037147;-0.25774273;0.10305246;0.03151437;0.05224719;-0.035634562;-0.12721618;-0.1608748;-0.16416532;-0.032672025;0.118126296;0.021845521;-0.04319721;-0.03292335;0.2248505;0.029738734;0.076405704;0.078470774;0.022554995;0.058198016;-0.2656609;-0.07180728;0.055246904;0.07088839;-0.042812493;-0.012301894;0.3436256;-0.13944146;-0.16418685;-0.09374748;0.036672194;-0.006990636;-0.010165713;0.09179609;0.13982742;-0.027083103;0.09910391;-0.16696098;-0.09530433;0.011234742;-0.12655993;0.059954077;0.12924792;-0.08083584;0.1252861;0.04166652;0.14217032;0.05865557;0.056260813;0.009455127;-0.079080865;-0.2591344;-0.010981642;-0.034490876;0.20228319;0.057373904;-0.046127994;0.17342162;-0.03008501;-0.048947804;-0.058296647;-0.20067959;-0.09708397;-0.18228266;0.1260864;0.058590792;0.062419973;0.04345504;0.011834951;-0.09525078;0.10974758;0.037773952;-0.25497958;-0.0351071;0.0718358;-0.10005879;0.06058768;-0.17772534;-0.023085756;0.075759366;0.120896816;-0.091165096;0.06418691;0.10600588;-0.0501612;-0.16816774;-0.012382449;-0.19008154;-0.08381072;0.15608963;-0.029077904;0.10854126;0.0045386166;-0.10669991;0.060373753;0.023570267;-0.048668303;-0.061245974;-0.06373787;-0.08818634;0.031533927;0.042728145;-0.073704444;0.013920585;-0.2012467;-0.05417638;-0.01782058;-0.003153574;-0.07152295;-0.1061045;-0.14360361;-0.041250106;-0.011983979;0.034449097;0.007266497;-0.19656676;0.009044331;-0.035411846;-0.0718512;-0.1873922;-0.15699759;0.030283462;0.023603758;-0.01861895;0.004416558;0.05133046;-0.0026803284;0.20139544;-0.09030208;-0.08621239;0.099000834;0.11658506;0.033936065;0.10461207;-0.13317277;0.16601565;0.0077301944;0.008756117;-0.042563096;0.1765194;-0.056971062;-0.0740927;0.0070840046;-0.25581703;-0.2663865;0.049947374;0.043496087;-0.005808888;-0.0109709045;0.043870404;-0.028079268;0.035503875;-0.15859945;-0.1566484;0.11813332;-0.14833044;0.036078233;-0.11337179;0.16505334;0.020290153;0.10634791;-0.10242687;-0.0680313;0.06543382;0.021347964;0.0951299;-0.118345104;0.16078454;0.098555714;-0.120181255;-0.0037346901;-0.002301888;-0.03754739;0.119137995;-0.16461161;-0.109099045;0.044200227;0.029218625;0.16733244;0.105479375;-0.11479962;-0.06557848;0.00783777;0.12761976;-0.1424714;0.014893418;0.0023239015;-0.05506912;-0.054902174;0.0896438;-0.05667683;0.20220299;0.13646992;0.12852633;-0.07442615;-0.02741098;0.109741844;-0.0030369598;0.1444419;-0.0029077062;0.051663797;-0.040382855;0.12270204;0.11033476;0.20769072;-0.08271184;0.22471566;-0.045436382;0.09044036;-0.023995228;0.10791223;-0.18285353;-0.26666212;-0.05377911;-0.004788971;-0.026491992;-0.03984712;0.03688666;0.010843056;0.019368097;-0.099045634;-0.039946657;-0.1622611;-0.061160076;-0.21847884;-0.18186562;0.00033557854;-0.15672198;-0.037427057;0.097905494;0.0067929365;0.00826766;-0.067396484;0.034554828;-0.013265208;-0.017523205;0.07347965;0.04340663;0.21521848;0.083549835;0.04844924;0.1281283;-0.012902845;0.0021674105;-0.003950444;0.12639132;-0.20741872;-0.031464275;-0.051923275;-0.05317832;0.016785389;-0.12156388;0.17706782;-0.00059943326;0.17154688;-0.14516002;-0.102499105;0.14326642;-0.06796164;0.019903308;0.19026135;-0.20066449;-0.18511665;-0.052673295;0.122047015;0.06916636;0.05785306;0.11830815;0.007839703;0.09954381;0.11406925;0.052732714;-0.10340955;-0.0014786163;-0.111334644;0.14237438;0.0228572;0.11165998;-0.023982212;-0.027191753;0.071883634;0.034558743;-0.12717685;0.08880479;-0.11013061;0.0592209;-0.04923069;0.1445999;0.04554203;0.24011055;0.045523386;-0.10030074;-0.3466392;0.11849533;0.04721739;-0.0017619575;0.0055456366;0.026268251;0.097860314;-0.01638568;-0.022829618;0.08499517;-0.3133595;-0.05927759;0.0283143;-0.012019829;-0.15307114;-0.027981834;0.051785972;0.021184398;0.025375284;-0.00484825;0.0018323559;0.069655955;-0.004906929;0.16374712;0.017210072;0.071121715;0.0038199848;-0.14392667;0.059879154;0.055929426;-0.21780926;0.1412125;0.04009161;-0.17160678;0.047560763;-0.0067562643;0.1445008;0.064343914;0.055295095;-0.08902503;0.019099819;0.13189599;-0.0035624767;0.027575538;-0.031851575;-0.0048844814;0.05794882;-0.036637872;-0.03664945;-0.1291178;-0.0005416058;0.023954755;0.051197633;-0.16104557;0.18986872;-0.069485955;-0.12252862;-0.07141666;0.027221674;-0.105536066;-0.08755776;0.0027729364;-0.058250636;0.029161982;-0.14150621;-0.09584037;0.14044307;-0.06766791;0.017997371;-0.11508057;0.03274452;0.17165084;-0.11084046;0.013681245;0.08853589;-0.023306083;0.021914814;-0.15561292;-0.045428697;-0.2931257;-0.1678094;-0.019516317;-0.04846735;0.13395716;-0.09989596;-0.075144924;-0.10581459;-0.033349812;-0.09486193;-0.17257325;-0.05365556;-0.057495862;0.007001189;-0.13821775;-0.1650795;-0.058167398;0.23386335;-0.14992975;0.026928857;-0.2639141;0.027146854;0.046930794;-0.05881281;-0.1435733;0.0587048;-0.1483345;0.0597761;-0.044934064;0.13233778;-0.0068360623;-0.05868508;0.0985344;-0.03695986;0.201999
-0.1732976;-0.08272062;-0.038638223;-0.05850316;0.017906707;0.17696252;0.0011195618;-0.09919714;-0.040068705;-0.061296783;-0.14365293;0.057255916;0.13456123;0.17129374;0.009807677;-0.12777284;-0.07989165;-0.19866924;-0.06782538;0.07012237;0.052887924;-0.07906376;0.104260504;-0.1132892;0.06717188;0.021498252;-0.03536173;-0.00020884759;0.10402583;0.035462394;-0.011849647;0.06992972;-0.0041462267;0.0664575;0.015280854;-0.053902254;-0.15856095;0.018975943;-0.09563869;-0.15514424;0.0011400243;-0.11535899;-0.062657565;0.18305022;-0.08901233;-0.294447;0.056684695;0.2426814;-0.16321589;-0.063017674;0.040193386;0.025067499;-0.049768187;0.015362299;0.02097768;0.046058923;0.11221165;-0.202947;-0.14469554;0.00077546324;0.045536045;-0.042349063;-0.3693444;-0.061676823;0.07463189;0.12001466;-0.039429817;0.017225869;-0.06509611;-0.108965054;-0.034476977;0.06463811;0.015517447;-0.10563077;-0.09126198;0.20202373;-0.07819155;-0.22896487;0.20235036;-0.24000427;-0.042283088;0.12361462;-0.27733746;0.067124195;-0.091219835;0.12929149;0.15776451;0.048299517;-0.050703056;-0.08019133;0.002950132;-0.12036155;0.20974942;-0.08103427;0.006622779;0.15446185;0.16187873;-0.09246172;-0.08347782;0.0825246;0.07530126;0.20229255;0.06875643;0.1369207;-0.21571371;0.03024276;-0.049003717;-0.08013428;-0.07395346;0.09651838;-0.25377765;0.046725657;-0.025170607;0.048906174;-0.007934943;0.099217094;-0.14531465;0.05354969;-0.2082497;0.0043812115;-0.022912268;-0.043472424;0.036435235;0.017858258;-0.16900674;0.22338212;0.001877878;0.16935967;-0.10033147;0.23273519;-0.17438422;0.095650166;0.13934459;0.08712507;-0.1296641;-0.06933768;-0.10687989;0.118613996;0.092711836;-0.11348729;-0.03443179;-0.1780325;-0.053995542;-0.010837834;-0.015409367;0.22344746;0.04685541;0.010469068;-0.17200005;-0.11010671;-0.063175544;-0.08882285;0.15086682;-0.20890115;-0.013369551;-0.0266359;0.084553406;-0.008342296;-0.17167006;0.15562236;-0.042820785;-0.013227383;0.14503402;-0.105100565;0.18783656;0.10954899;0.10011464;-0.10369231;-0.25285935;-0.07653164;0.07631667;-0.10578213;0.11416823;-0.0057223565;0.008360806;0.07023115;0.0987233;-0.033483773;-0.25946066;0.1886447;-0.024234055;0.06699775;-0.006909812;-0.015088456;0.12575094;-0.0261711;0.05841919;0.07687353;0.04971794;0.0033484865;-0.24428071;-0.0539281;-0.08253716;0.097943515;-0.21694319;-0.17806336;0.20920113;0.09117128;-0.063023895;-0.012919987;0.112259164;-0.10546704;0.006644066;0.047707792;-0.048201956;0.054569986;0.08010815;-0.032096017;0.00627371;-0.0020694647;-0.13126884;-0.09356109;-0.061748035;0.069534145;0.09495357;0.051498033;0.061850093;0.08422474;0.07065397;-0.0061058053;-0.11736086;-0.10643747;0.006505175;0.018315712;0.19304058;0.10231895;0.05072389;0.19156088;-0.06748699;0.06818066;0.05102749;-0.12615894;-0.18924785;-0.17489791;0.09648361;0.12339765;0.11243945;0.12299352;-0.037917327;0.017967943;0.13670349;0.08161226;-0.16969733;0.04467533;0.04113053;-0.05349913;0.15271194;-0.25731474;-0.03419154;-0.02499146;0.13039762;-0.22000043;-0.10161676;0.075463615;0.011214832;0.014750311;0.026002306;-0.10313129;-0.05498043;-0.08661578;-0.068505086;0.10532217;-0.06083487;-0.16771665;0.08891056;0.1190436;0.0623772;-0.20015854;0.073733434;0.06720415;-0.01417277;0.21298055;-0.06030128;0.13755105;-0.102560945;-0.047370963;-0.12853327;0.12568106;0.01757621;-0.14449349;-0.06238307;-0.017874915;0.1816229;-0.07558032;0.05003828;-0.18037522;0.021451185;-0.023845594;-0.08943487;-0.15892808;-0.23751919;0.16946056;-0.04503538;0.05337322;0.018662246;0.0009145698;-0.067187265;0.15204912;-0.14145134;0.015739346;0.09159663;0.19218035;0.020803457;-0.0040916204;-0.28034315;0.016526647;0.034091786;0.20542419;0.023283536;0.1695543;-0.017733013;-0.16180815;-0.17459199;-0.0729318;-0.20928362;-0.019625846;0.037601665;-0.094446965;-0.026959129;0.15194309;-0.0035475742;-0.033756617;-0.057568528;-0.3512445;0.106802344;-0.06016914;0.10505906;-0.21908602;0.1476657;0.045596637;0.019425815;0.06295809;-0.10922172;0.11697979;0.07288459;0.117065236;0.03737515;0.03799291;-0.09861154;0.14157265;-0.05753464;0.11025861;0.04205948;0.20895772;-0.04704167;-0.054670144;-0.10113701;0.1487184;0.15180685;-0.099573515;0.11498915;-0.12548107;0.15784791;0.039132133;0.049356423;-0.12837233;-0.01368702;0.012148722;0.0077303643;0.13538226;-0.23267114;0.20736358;0.11236173;0.20610002;-0.09858867;-0.026130658;0.06657551;0.051353067;0.012113963;-0.062354997;0.07842188;0.019225543;0.054808207;-0.020942438;0.150114;-0.073888235;0.17110725;-0.089505196;-0.10830033;0.06981876;-0.054180693;-0.11663201;-0.13430648;-0.07463931;-0.058370687;-0.10213224;-0.027742429;-0.1042255;0.07171755;-0.08953229;-0.11067872;-0.1696505;-0.20834333;0.0948329;-0.1693616;-0.13604139;0.0038444898;-0.2977241;0.12335572;-0.0046057906;0.004725413;0.032585092;-0.022821609;0.009069918;-0.011099996;0.0597128;0.026377713;0.030733747;0.082673006;0.02985528;0.052387785;0.21265271;0.10496686;0.03608712;0.043950453;0.016662546;-0.028923202;-0.14942175;-0.05585307;0.07869462;-0.20164596;-0.04642642;0.05646593;0.10767524;-0.022746472;-0.010296621;-0.08542268;-0.014394321;-0.07818293;0.041026857;-0.056782067;-0.1784751;-0.1911277;-0.03393814;-0.01213947;0.0145075545;0.054964356;0.08598233;0.18094188;-0.08918211;-0.016728563;-0.00045302344;-0.046692055;0.0024370656;0.038864844;0.03855305;0.06264756;0.055715118;-0.031329244;0.15585084;0.023205342;-0.08584229;-0.00180554;0.1649355;-0.14152369;-0.0051754136;-0.16664411;-0.040969785;-0.018992014;0.13339752;-0.12562074;-0.05719055;-0.30461082;-0.016389072;-0.1591374;-0.002110751;-0.020645548;-0.04732658;0.11605531;0.077062994;-0.043402996;0.092280425;-0.12072676;0.0203792;0.03776548;-0.021140894;-0.019794384;-0.16757374;0.052719075;-0.16024032;-0.114115946;0.03526936;0.1526229;0.03760834;-0.061892703;0.17243637;0.18898572;0.19452906;0.059684686;-0.15756665;0.18151538;0.037818648;-0.36083558;0.06629871;-0.04794398;-0.15907836;-0.00812556;0.013904326;0.13990197;-0.09964171;0.07815954;-0.003466371;0.038512785;-0.06561711;0.06989766;0.014803009;0.10347979;-0.08341115;0.061849654;0.09041727;0.052716855;-0.04288192;-0.08417337;-0.088023156;0.265199;-0.10983043;0.19766524;-0.030628359;-0.011033507;0.015541252;0.04766618;0.040449724;0.0090127885;0.014039468;-0.16423008;0.037969843;-0.06322901;-0.007870714;0.12917241;-0.1857178;0.117012106;-0.20299028;-0.04584582;-0.023422543;-0.08029086;-0.01055783;0.03783969;0.11682347;-0.017500563;-0.13493554;-0.0016225266;-0.19643517;-0.0634316;-0.02250491;0.013542927;0.031703882;-0.13993803;-0.15999262;-0.2530738;0.11880298;-0.118343726;-0.063889444;0.012609647;-0.1665027;0.0037044208;0.017499158;-0.21651669;-0.16599736;0.081040256;-0.10607742;0.01261736;-0.31367874;0.07497904;-0.025052974;0.031548508;-0.1952909;0.17723572;-0.066287264;-0.080703616;0.105846666;0.004095021;0.04017688;-0.10721025;-0.019812962;-0.03551337;0.048124686
-0.09619128;0.004954081;0.02740579;-0.068597615;-0.08471621;0.23014666;-0.04763588;0.06590733;-0.0031495262;-0.11214467;-0.08184733;-0.12805662;0.11515719;0.25672913;0.023326356;0.0015679983;-0.0613766;-0.18866019;-0.07377021;0.15639919;0.09905023;0.039224107;-0.14515027;-0.09596162;-0.042511377;0.17822656;-0.02228885;-0.044615686;0.13175906;0.093305394;0.14489874;0.13415843;-0.0072810766;-0.014803893;0.073232226;-0.10668797;-0.15806787;-0.061305366;-0.09267689;-0.1723711;0.00019110559;-0.0018820562;-0.14263478;0.04591886;-0.06689534;-0.27441895;-0.044487312;0.11800718;-0.012090619;-0.013369444;0.16351587;-0.015298288;0.07836169;-0.08787143;-0.013287698;0.14954183;-0.018051263;-0.13600864;-0.057360124;0.023929236;-0.0026391994;0.04197806;-0.23733474;-0.047943987;0.014829587;0.20595776;-0.013092135;0.0824907;0.037872747;-0.01117596;-0.04286947;0.08564059;0.030280527;-0.011978285;-0.08013629;0.20275675;-0.10111768;-0.2725724;0.026256649;-0.24235259;-0.04080118;0.049041625;-0.17841515;0.011286723;-0.05119058;-0.07847728;0.12409785;0.11513089;-0.05800355;0.055233825;-0.06387556;-0.050670993;0.006932628;-0.020442031;0.0015219521;0.047172;0.13203032;0.053230915;-0.08212704;0.0058148056;0.07596955;0.02407549;0.10728073;0.09522391;-0.16296987;0.0034853441;-0.1797119;0.01766861;0.043812905;0.13603222;-0.19451673;0.047481634;0.098244;-0.05594347;0.05079568;-0.03768501;-0.06878832;0.012642602;-0.0820615;0.006851746;0.044925958;-0.18164243;0.06851459;0.094488524;-0.09862483;0.16088243;-0.15227716;0.15900327;-0.12227011;0.062823035;-0.081778646;0.022473853;0.18143305;-0.0070361807;-0.097695954;0.010835654;-0.110803105;0.10074171;0.106346674;0.022613738;0.1421562;-0.09865517;0.018573947;-0.09232242;0.00829878;0.25583768;0.18819773;0.024623128;-0.27667457;-0.09717399;-0.045707624;-0.05501576;0.16089672;-0.16361631;-0.057861716;-0.0008238472;0.13504085;0.066137135;-0.072488725;0.356662;0.13952386;0.026695017;0.07689063;-0.045852;0.18052857;0.09939198;0.09832831;-0.14571555;-0.21518047;-0.12018494;0.11048787;-0.19398119;0.029106403;0.10856567;0.11528626;-0.095054135;0.038263135;-0.091865465;-0.05136222;-0.10230136;0.018771151;-0.103854336;0.11694808;-0.005277108;0.05389932;-0.013696937;0.0015519459;0.06005196;-0.028118424;-0.1360837;-0.15556994;-0.042520266;0.15772858;-0.030284232;-0.13406397;-0.115983866;0.2855152;-0.13727318;-0.16545801;-0.020149916;0.16423202;-0.059334822;0.17445128;0.0084146755;0.003800089;-0.032638695;0.10493912;-0.030806955;0.05824488;-0.06804748;-0.052945964;-0.03449323;-0.12882742;0.16318752;-0.0145339165;-0.026121939;0.13720874;0.021894693;0.07384372;-0.124410175;-0.26565295;-0.23696019;-0.101104155;-0.020777509;0.19962834;0.0063710767;0.052039716;0.0070544714;-0.048465334;0.0094914045;0.06624558;-0.10215083;-0.045371298;-0.1243313;0.078623936;0.10128141;0.14827763;0.112427466;0.081131116;-0.083462924;0.0130801555;0.069988474;0.005429133;-0.08111809;0.1182034;-0.1300059;0.08329469;-0.16147552;0.06612194;-0.04444074;0.1855646;-0.046268594;-0.12728743;-0.028096754;0.062110927;-0.004677664;0.029235762;-0.07129231;-0.07966923;-0.03393995;-0.033310167;-0.036999304;-0.08355142;-0.059794217;0.20268315;0.06068159;0.027770108;-0.16179757;0.07146361;-0.07617307;-0.015445959;0.15455617;-0.26526222;0.09793552;-0.19833867;-0.0923548;-0.004260195;-0.059678536;-0.049370587;0.010708022;-0.081695125;0.14852999;-0.004945341;-0.044832386;0.09111552;-0.20262906;0.12790012;-0.10966512;-0.03154643;-0.20694107;-0.16334179;0.22881456;0.1065076;0.11745068;0.05658365;0.005580133;0.010005396;0.071657434;0.00604113;-0.12611414;0.07142455;0.1211896;0.033978686;-0.036295637;-0.28492066;0.013800707;-0.076211974;0.056192935;-0.07638809;0.14189602;-0.10302084;0.025418602;-0.081323415;-0.26188338;-0.21326181;-0.12820564;0.040330186;-0.15981504;-0.042058304;0.0325674;-0.081926234;-0.045054752;-0.029829869;-0.26848283;0.17217226;0.00026948765;0.014226167;-0.24067603;0.027463624;-0.08801742;0.08640317;-0.085324496;-0.046800192;0.12494418;0.012083604;0.0686908;0.09705089;0.06507477;0.0054022777;-0.050492123;-0.09276816;-0.023132076;0.005708895;0.08203116;-0.07280308;-0.08086099;-0.029066492;0.13697629;0.11271418;-0.042092025;0.11409987;-0.008317934;0.048652302;0.1594902;0.0025641343;-0.021674847;-0.11140551;-0.039731648;0.03716789;-0.023592442;-0.07809049;0.1263032;-0.009601801;0.22119382;-0.10755439;-0.10118185;-0.054871276;0.07868385;-0.036412664;-0.065057576;-0.0069464715;-0.06050963;0.0015861695;0.07678745;0.13876742;-0.056202978;0.23130456;-0.065450005;-0.07689895;0.077291705;0.03281435;-0.14525215;-0.06913719;-0.068958774;0.098248646;0.0069214287;-0.03706246;-0.06599674;0.14592795;-0.05864304;0.015193673;-0.17719449;-0.057960995;0.10025452;-0.12584971;-0.043424584;0.024503626;-0.17666756;0.12695897;-0.045726795;0.18799675;0.033038672;-0.14377786;0.029711498;-0.14224483;-0.0615114;0.14390591;0.08050548;0.015054332;-0.01908159;0.13478047;0.12776974;-0.05174989;0.0888754;-0.024701823;0.10080672;0.019590184;0.03739;0.046030786;-0.0064725294;-0.18195364;0.0011614008;0.10067109;0.090355396;0.09524019;-0.15059662;-0.27787918;0.117000446;-0.0017493132;0.0016189213;-0.0305859;0.017376864;-0.056225225;0.0054054097;0.124833725;-0.007967368;0.101715006;0.10738303;0.10403474;-0.04944989;-0.01302655;-0.04713415;-0.05321173;-0.002041011;0.004681971;0.022955365;0.12457469;-0.008820716;0.07724672;0.07181008;0.05027511;0.06642606;0.034308597;-0.078669146;-0.023374042;-0.06977308;-0.12661779;-0.024603441;0.123558275;0.1180793;-0.064566605;-0.13531646;-0.23065077;0.09063661;-0.042989235;0.0886978;0.029959686;-0.14705147;-0.18235363;0.1163957;0.0460499;-0.044683866;-0.19400671;-0.049594663;0.016450912;0.034255132;-0.065109484;-0.016211715;0.01557346;-0.1960748;-0.10260968;0.00336079;0.053768095;0.013123183;0.04206905;0.22074461;0.15397055;0.080178946;0.08888302;-0.15656322;0.011799834;0.17947146;-0.38871592;0.05375767;-0.059369445;-0.2557709;0.04363895;-0.023966663;0.12828845;0.008363691;0.17452379;0.013821202;-0.006922462;0.1370602;-0.043872595;0.1393086;-0.12720895;-0.083776705;0.13111386;-0.005506828;-0.059999134;0.03718884;-0.108970374;-0.13445415;0.07886811;-0.025778692;0.18299435;-0.049877286;0.002689308;0.1028326;0.0022643178;-0.011495483;-0.078195825;0.11793795;-0.10887719;0.009822666;-0.0050323885;0.024533968;0.067615345;-0.11687531;0.1434498;-0.18922481;0.05807084;0.06289325;-0.10577943;0.041810013;0.16848774;-0.039962407;-0.005046852;-0.11861537;-0.17538157;-0.098860934;-0.077374615;-0.08330485;-0.04715507;0.0059906337;-0.017468141;-0.15313083;-0.10554394;0.17842516;-0.036241464;-0.073873945;-0.0811641;-0.26611912;-0.078647815;0.051972046;-0.33960247;-0.02575306;0.07960842;-0.10159915;0.061080217;-0.20886399;-0.009764828;0.040448297;-0.0784636;-0.30812216;0.07246642;-0.2120146;0.07744532;0.06685332;0.13358669;0.0627502;-0.004546389;-0.014262402;-0.07871989;0.04062715
-0.02605174;0.061017077;-0.045503937;-0.0425436;-0.14119889;0.042126074;-0.049382526;0.052363038;-0.16811194;-0.18206225;-0.04266302;-0.10113519;0.1081504;0.19479097;-0.09808822;-0.00049241754;-0.03566717;-0.125977;-0.005517969;-0.028229302;0.14538966;-0.07009718;-0.05769446;0.056733582;-0.085974105;0.11196679;0.048360553;-0.19620906;0.22790766;-0.038697995;0.18315284;-0.12349942;0.1305208;-0.09265829;-0.06255786;-0.007556782;-0.17434455;-0.049537934;0.095721655;-0.07641347;-0.056892302;-0.02600522;-0.16994694;0.008728685;0.072826006;-0.16525051;0.24920979;0.049612284;-0.17440258;0.0048264223;0.17015918;-0.073259726;0.09848795;0.06854007;-0.02416768;-0.017148469;-0.08676273;-0.0054755947;-0.067062326;0.025530068;0.04051027;0.0009845507;-0.17303675;-0.07541198;0.0283555;0.10145989;-0.004187002;0.17108384;0.039505746;0.018804219;0.09863748;0.056096833;-0.12673591;-0.0973503;-0.04785536;0.22299196;-0.1162973;-0.1826293;0.056695092;-0.22713338;-0.020325009;0.02248507;-0.0979684;0.058611415;-0.090329684;-0.08739368;0.19105984;-0.01278435;-0.0017015964;0.09601324;0.049405783;0.09132041;0.04607947;-0.048545256;0.14691405;0.040235918;0.09540339;-0.012590149;-0.121061176;-0.13889386;0.08991946;0.15791956;0.24166855;0.028785273;-0.12231935;0.08382901;-0.16768627;0.06573821;-0.02155036;0.15024355;-0.3030843;0.024409654;0.008628469;-0.10020745;0.1017162;0.066294715;-0.265288;0.06732472;-0.08759755;0.0442925;0.06834397;-0.041334424;0.12615016;0.11921933;-0.13981299;0.057389367;-0.12481428;0.16339561;-0.068308406;0.10461821;-0.17923786;0.053778224;-0.015433448;-0.03804796;0.050878588;0.05247884;-0.1534896;0.014564286;0.2121573;0.1663817;0.06644968;-0.21598402;-0.07359108;-0.020054312;0.028405614;0.21866147;0.09293776;0.01987917;-0.095788665;0.004956684;-0.022583002;0.07944439;0.18677108;-0.15831476;0.021984588;-0.13564676;0.19378039;-0.019099807;0.063243784;0.13830902;0.12082969;-0.025824754;0.13364735;0.19147052;0.08028853;0.042835183;-0.14477487;-0.0769213;-0.15720083;-0.2145372;0.1564637;-0.23058432;0.040422343;0.06001539;-0.0826509;-0.13731126;0.10120737;-0.11048635;-0.03279505;-0.3447612;-0.18873154;-0.05914146;0.028131092;0.034298252;0.08482875;0.19533484;-0.022538558;0.20423381;-0.002938322;-0.06630181;-0.015554263;-0.082328156;0.057716064;-0.065765485;-0.0924272;-0.22526708;0.15424551;-0.25546548;-0.2930419;0.028611423;0.041480776;0.08727743;0.10096005;-0.081718095;0.1886563;0.03309108;0.08528566;-0.07971516;-0.006314803;-0.027888667;0.11195081;-0.13211629;0.18943655;0.051414117;0.18250486;-0.03936951;0.033484414;0.09560074;0.18824573;-0.07755551;-0.3514011;-0.14399976;-0.031486128;-0.13289016;0.06934908;-0.022898246;0.101368524;0.04644915;0.027058333;-0.0068550645;0.07198479;-0.1894906;-0.051189244;-0.09324944;0.23225307;0.16607732;0.044773057;0.046680186;0.13446224;-0.1748878;0.032985963;0.11926794;0.0155226635;0.11211101;0.13056573;0.0041290103;-0.031299524;-0.09956286;-0.0027511006;-0.09622556;0.030528102;-0.2316484;0.031239554;0.017946688;-0.0126414;0.07696204;-0.015742142;-0.0017249753;-0.112383634;0.041930888;0.116123736;0.017963627;-0.14099729;-0.08552006;-0.026181122;-0.080267265;0.09671914;-0.18393332;0.09775146;0.072945185;0.014482808;0.24106199;-0.10139647;0.04986246;-0.12601946;-0.09026811;-0.06673475;0.07460231;-0.057987314;0.008024253;-0.09894126;-0.0029354738;0.0027904867;-0.022909442;0.11043587;-0.19756962;0.07442363;0.011075075;0.021807274;-0.099678904;-0.120946586;0.21165888;0.055043757;0.10201061;-0.010589551;-0.0033577823;-0.008738188;0.016159883;-0.06684035;-0.19068538;0.12801091;0.12123873;-0.1210683;0.039413385;-0.2346548;-0.11751895;-0.08158011;-0.03321049;-0.05188925;0.12749824;-0.09043943;-0.07735676;-0.004506828;-0.22545184;-0.17480664;-0.014304952;0.08028868;-0.085320435;-0.057315916;0.15047862;-0.06425485;-0.12152971;-0.027774097;-0.24311066;0.09279899;-0.07846025;-0.039500367;-0.084454775;0.04771714;0.20658052;0.05210406;0.086283766;0.048610892;0.1048084;-0.20697409;0.017689845;0.027775742;-0.14556418;-0.04746902;0.013261937;-0.119086444;0.012502378;0.19133274;0.048359577;0.08146773;-0.052523512;0.05966177;0.040010158;0.01757416;-0.09235793;0.08549688;0.11104685;-0.007733256;0.082783565;0.010370803;0.03959453;-0.10310184;-0.059553888;0.09365573;-0.0039154575;-0.20728655;0.24389997;-0.040244084;0.22703409;-0.18135446;0.073774256;-0.060890235;0.048586566;-0.030254792;-0.1095137;-0.17217861;-0.11262776;-0.031726126;-0.17952064;0.13039769;0.10938224;0.2481426;-0.13847257;-0.044022754;-0.08042137;0.029999364;-0.26437017;0.015239412;-0.06448839;0.122000165;0.05427828;0.064945534;-0.0371093;-0.032303568;0.05799238;-0.16937895;-0.1836568;0.029672295;-0.076167315;-0.112841815;0.12542954;0.037088037;-0.20342185;0.07477227;-0.22188817;0.17375766;0.01110027;-0.16249962;0.12859455;-0.18175106;-0.068086386;0.08326177;0.0030732183;0.15459986;0.15029399;0.11040007;0.0664389;-0.0030741312;-0.02718603;0.06070625;0.019337416;0.00045523376;0.04579752;-0.041298848;-0.064751215;-0.13701022;0.016111542;-0.03614612;-0.01771584;0.17887598;-0.13709848;-0.24579227;0.05994482;0.14169762;0.022579556;-0.026873607;0.060517393;0.003739779;-0.045113403;0.04387456;0.068579555;-0.046300605;-0.06020845;0.10804134;-0.12620726;-0.12961708;-0.060347285;0.022151697;0.13397597;-0.05028685;-0.06494958;0.17072006;0.11392652;0.047665104;-0.00061467144;0.0051112426;0.095384076;0.008825251;0.06809743;-0.07888328;0.15092522;-0.046870135;0.0197537;-0.09580131;0.15391508;-0.041697334;-0.059775244;-0.33092898;0.059750788;0.10306778;0.10474407;-0.060325112;-0.13162175;-0.07850738;0.1904321;0.094159245;-0.07152278;0.011897439;-0.11528731;0.04749047;0.21542211;0.022254433;0.026330352;0.07041883;-0.1201704;-0.22742717;-0.021203782;0.022667635;-0.040078558;0.14917749;0.13892561;0.036749568;0.013893051;-0.0074330275;-0.12627295;-0.00856322;0.05457336;-0.37503645;0.1662014;-0.063357174;-0.19441457;-0.14800046;-0.043692388;0.07661046;-0.009249021;0.12022363;0.014147673;-0.1324083;0.018357897;-0.009548569;0.19908209;-0.06458948;-0.051034704;0.1199941;-0.10993526;-0.024218963;0.06849532;-0.2248461;-0.052379694;0.30654788;0.09778122;0.06518271;0.14734562;0.002426364;0.18226255;-0.04409535;-0.066925846;-0.20456184;0.12731744;-0.011861764;0.18291266;0.019009592;0.030053709;0.08750063;-0.09573153;0.18526214;-0.0965394;0.02475634;0.16608642;-0.18023184;0.0207619;0.20144354;0.044570085;-0.15485516;-0.07547426;-0.22862065;-0.1421619;0.023718745;-0.22784925;0.07158128;-0.051732354;-0.10865155;0.103639826;-0.113605745;0.14402086;0.009613856;-0.12631103;-0.13724247;-0.24181707;0.13310184;-0.07989625;-0.08932952;-0.10369074;-0.10864004;-0.075551786;-0.018950744;-0.17022358;-0.087009616;-0.03172692;-0.17617705;-0.12595898;0.009245897;-0.23665951;0.09834101;-0.0065714926;-0.01586756;-0.01567605;0.14030096;-0.11315709;-0.1560009;0.04005731
0.07297555;0.056934774;0.040816505;0.0054722847;-0.032669015;0.1531117;-0.06817404;0.0554199;-0.18099652;-0.045188352;-0.084772676;-0.05237933;0.1277339;0.09453756;-0.09871389;-0.19148347;-0.056553926;-0.016396;-0.1037941;0.16068459;0.08136403;0.09359275;0.030410634;-0.09941568;0.03234068;0.075822026;-0.10995649;-0.112478346;0.17191894;-0.13707763;0.15868783;0.08205403;-0.004592928;-0.05555996;0.12191812;-0.10579755;-0.21357045;-0.04694658;-0.0046962844;0.02184923;-0.024594506;-0.005094557;-0.06426681;0.027574161;0.12678993;-0.034589767;0.1265792;-0.0075667477;0.012047507;-0.07262991;0.063653395;0.0027823355;0.027209193;-0.076526426;-0.068291575;-0.1582911;-0.03835582;-0.053828582;-0.14990035;-0.029813334;0.016660104;-0.10763097;-0.060102075;-0.050987076;0.013095036;0.05055173;-0.08199031;0.11110996;0.023827212;-0.08433676;-0.013591571;0.103721574;0.022301566;-0.12299045;0.05306503;0.07388645;-0.011073324;-0.025935635;0.08657468;-0.23476012;0.012595931;-0.04389391;-0.07588371;0.18346563;0.022693086;-0.0037496772;0.1303407;0.14743859;-0.08245146;0.13106106;0.07782439;0.098793715;0.11195208;0.13861993;0.08962589;-0.038848758;0.12024684;-0.1440726;-0.001973284;-0.14739206;-0.06969033;0.08770121;0.16842839;0.11102787;-0.10269809;0.035355538;-0.07377771;0.071535185;-0.0016441566;0.17610556;-0.39960274;0.06460756;-0.008947565;0.002188658;-0.11992915;0.065055;-0.25126734;0.12782237;-0.053426158;-0.035523113;0.046641063;-0.08414818;0.053238224;0.09656109;-0.06872867;0.018990342;-0.07072547;0.06164154;-0.03751967;0.015340219;-0.06889219;0.07484176;0.09777494;0.060860857;-0.030833447;-0.007418077;-0.18294533;0.09713978;0.20655455;0.134117;0.13369875;-0.24580373;-0.091369964;0.039633162;0.11386831;0.032555938;0.095930256;0.047261227;-0.050667137;0.035610046;-0.07651334;0.012576026;0.2643248;-0.18361539;0.04364378;-0.06725205;0.055269968;-0.13596226;0.12491957;0.17383012;0.07392384;-0.05814976;0.13523234;0.14590403;0.009616482;0.1480948;-0.10354287;-0.19612822;-0.11704936;-0.25705254;0.1326367;-0.17583336;-0.020735705;0.019123284;0.025970973;-0.0038611637;0.0034078015;-0.24395588;-0.13602665;-0.11409588;0.010770194;0.069066875;0.11077207;-0.0137978615;0.04716997;0.002090759;0.032389473;0.12160458;-0.14457661;-0.13071123;0.027582128;-0.06274794;0.020358862;0.08357794;-0.13932025;-0.17730056;0.15656032;-0.12532559;-0.1751366;0.17666803;0.065384485;-0.124042004;0.011704811;-0.104215175;0.03813978;-0.047616817;0.057008762;0.03589864;0.16833873;0.11927955;0.024457613;0.04913307;0.109800406;-0.1013557;0.27223027;-0.083725184;0.22486693;0.17535122;0.18551971;-0.1443433;-0.1728936;-0.088650234;-0.025665991;-0.085411206;0.09223075;0.09355166;-0.0107784495;-0.010386893;-0.050318528;0.1321741;0.056563262;-0.07759085;-0.026437353;0.027955232;0.20451295;-0.004265797;0.084841974;-0.048415225;0.12748855;-0.016192375;0.083931126;0.075614266;0.07163409;0.14262167;0.09181832;-0.036994446;0.07512193;0.09866744;0.039790347;-0.051882315;0.052276686;-0.045438886;-0.1173589;0.019329006;0.0042816103;0.057982698;-0.10950303;0.10762566;-0.13663201;0.07972289;0.042538233;-0.14061232;-0.21381885;0.15815954;0.105519906;-0.040763468;-0.17498407;-0.1867585;0.008431183;0.08185382;0.055189285;0.17695071;0.017441973;0.21068776;-0.14692582;-0.060803182;-0.11655867;0.030645689;0.16010867;-0.13318962;-0.14993344;-0.039711047;-0.13501549;-0.17951752;0.07253355;-0.03895725;0.087985784;0.12544793;-0.13563533;-0.13233814;-0.12787695;0.2482019;0.07980531;0.1269124;0.17493878;0.09022104;-0.11391262;-0.014816906;-0.08456199;0.028284688;0.16554925;0.26733285;-0.09076073;0.015936233;-0.11106265;0.044943642;-0.012048482;-0.030012801;-0.02068108;0.12780358;-0.017882768;-0.0093284985;0.018519793;-0.13892487;-0.005287478;-0.1218719;0.03992362;-0.07322854;0.05919479;0.0051339907;0.029725898;-0.019775063;-0.008192868;-0.1413913;0.16747867;0.02677732;0.13515757;-0.1252592;-0.095561154;0.12465866;0.049452804;0.0029569708;-0.0017922467;0.08245243;-0.1504183;-0.09660053;0.04411937;-0.17230663;0.025917767;0.07705126;-0.018976158;0.14539537;0.076611176;0.030077254;0.026436342;-0.07078001;-0.1145405;0.0772852;-0.057810057;-0.07113403;0.08692517;-0.0046879547;-0.0455115;-0.06497765;0.014433271;-0.043527577;-0.062148858;0.12357116;-0.13711634;0.008105892;-0.11317437;0.07028884;0.02296867;0.032641046;-0.19363393;-0.0475422;-0.14186327;0.06232571;-0.041126788;0.0209506;0.0053488007;-0.0054430333;-0.074806936;-0.03565833;0.11778321;0.1500112;0.040638424;-0.2905883;-0.060776014;-0.0919825;-0.035821848;-0.19076289;-0.17281538;0.02782786;-0.02376899;-0.09147681;-0.052908372;-0.17587803;-0.09816282;-0.081296824;-0.09842293;-0.17663822;-0.027436841;0.0148545;-0.16309668;-0.079479605;-0.011694394;-0.062124517;0.030691054;-0.16018455;0.1615398;0.06880977;-0.2014246;0.046723578;-0.07706064;0.06440533;0.17361754;-0.041215748;0.10483717;-0.006528308;0.2745508;-0.12363244;-0.062941246;0.018706411;0.0902313;0.07687244;0.02483973;-0.044815972;-0.0061823037;-0.032405216;-0.14599913;0.045322455;-0.047216605;0.09061974;0.0033622063;-0.013827079;0.032299556;-0.0046938;0.19436118;0.17649035;-0.23197229;0.1418855;0.092681326;-0.029872753;0.080439344;-0.021182273;-0.06305085;-0.050532542;0.061224293;-0.02537724;-0.028086316;-0.092793435;-0.1395064;-0.012147946;-0.015866257;-0.13119595;0.018575573;-0.11761098;-0.008695365;-0.039820865;0.11600769;-0.10599556;-0.060341947;0.07766178;-0.047228724;0.107211605;-0.1308998;0.09810397;-0.012409937;0.10201575;-0.015199594;0.023720462;-0.17173794;0.0669076;-0.03986192;0.07919372;0.028493304;-0.05759676;-0.09401751;0.08971148;-0.039644208;0.06811587;-0.15821964;-0.07412064;0.05064348;-0.031057337;-0.021279814;0.04607919;0.06215859;-0.18314113;-0.17665042;0.23455559;0.10538329;0.07084774;0.007876523;0.17681032;-0.041888192;0.1347599;-0.037738793;-0.23700945;0.108017035;0.015209423;-0.3744599;0.053328242;0.12504534;-0.17906702;-0.06363564;-0.03365726;-0.025193721;-0.1617236;0.08181939;0.010975758;-0.012837132;0.015284321;-0.08608651;0.06599841;-0.008965388;0.02840917;0.08763446;-0.13532259;0.060728386;-0.07074268;-0.09442263;-0.009764652;0.19134589;0.04398095;0.006580201;0.1013729;-0.087534316;0.0030461014;-0.07311106;0.16087417;-0.15722317;0.12542479;-0.13991858;0.091660224;0.011952328;0.057945356;0.009717059;-0.035756215;-0.06764975;-0.09922193;0.060017694;0.2110127;-0.19617815;0.086055875;0.09649175;0.011635621;0.0021909694;-0.118213356;-0.024129657;-0.08464468;-0.029854992;-0.012138642;0.040426463;0.014802192;-0.08192452;0.18620612;-0.14361098;0.12912633;-0.079513595;-0.06917856;0.031156626;-0.2621509;0.090744585;-0.01131877;0.020194095;-0.14892699;-0.04884997;0.008912509;-0.007337275;-0.10156944;-0.05895135;-0.084511645;-0.20667732;-0.26115468;0.18084091;0.048149902;0.0349456;0.014170278;-0.16598682;0.009391158;0.026192293;-0.09131494;-0.14167285;0.09930637
0.058354452;-0.03398682;0.022730058;0.021150375;-0.090557866;0.03683247;0.09206119;0.0024570953;-0.12586826;-0.23041403;-0.019357774;-0.12061319;0.07963826;0.29484335;-0.07572265;-0.07622648;0.118225396;-0.10295222;0.045289814;0.19927737;0.11609226;0.12697339;0.04659283;0.074504405;0.05419497;-0.067982785;0.014965715;0.025124295;0.044932593;-0.013317216;0.0031573114;0.021468276;-0.02590969;-0.10935758;0.09685797;0.01046847;-0.19852225;-0.15515482;0.12995435;0.0537077;0.06595661;-0.052821934;-0.07097055;0.085058115;-0.05557529;-0.10456848;0.05511697;-0.061571404;-0.04615829;-0.051552463;0.0011169362;-0.09427148;0.056700442;-0.21792883;0.008089428;-0.075651154;-0.08231344;-0.074833065;-0.11624122;0.020992778;-0.04724729;-0.009558549;-0.11219823;-0.04005995;0.047699887;0.071460724;0.049898874;0.17398152;-0.06104678;-0.007850869;0.13683936;0.055471275;-0.12375497;0.010537675;0.031319883;-0.11878829;-0.12071803;0.1450326;0.017578192;0.039716344;-0.16226436;0.0025599352;-0.090278044;0.047980618;-0.04492765;0.0250443;0.025435345;-0.11850481;0.027905168;0.05357544;0.12292633;-0.036873806;0.11751547;0.02867765;0.0658247;0.11582054;0.022742368;0.034406193;-0.07083478;-0.20304923;-0.1083136;0.030983284;0.08504603;0.032942742;-0.19207017;0.013504186;0.0083310595;0.14046286;-0.0022305725;0.13962014;-0.40909767;0.08206249;0.013278949;0.02638288;-0.022874692;-0.049788862;-0.095226645;0.025680806;-0.14547783;0.048849866;-0.07109228;0.06673575;0.029790947;0.18760215;0.013419669;-0.09599438;-0.08229754;0.1278127;0.21420534;0.052989036;-0.10592856;0.16798596;0.06240617;0.0818535;-0.09591003;-0.016263414;-0.26630694;0.14363576;0.046533223;0.010531132;0.26274127;-0.21457554;0.0019323721;-0.047512367;-0.002192686;-0.027413258;-0.14373124;0.048009094;-0.012991534;-0.0445158;0.066751584;-0.013332276;0.006323203;0.0055363937;0.26680687;0.08587519;0.006030251;-0.011918582;0.054884262;0.06843437;0.14358903;-0.074106134;0.028263943;0.14127877;0.11053576;0.20188174;-0.010703445;-0.13743848;0.008512816;0.006749314;-0.018551862;-0.13413727;0.015588475;0.2279824;0.061542414;0.15489241;-0.09713935;-0.0823753;-0.040897314;-0.16878249;0.04593083;0.061359085;-0.056838386;0.11538441;0.0026951109;0.010517926;0.008319654;0.13879545;-0.052807305;-0.0012787083;-0.062756516;0.01979304;0.057697933;0.16080108;-0.037298802;-0.10856056;0.24343929;-0.14123891;0.036981236;0.14437659;-0.020401215;-0.06163984;-0.050275512;-0.16768412;0.13600826;-0.060641516;0.045057155;0.02808167;-0.0023933188;-0.09679115;-0.022599004;0.13362797;0.04415415;0.011511555;0.2237683;-0.25802514;0.066389896;0.16982351;-0.08667713;-0.005933181;-0.12755607;-0.017391615;-0.06726347;-0.03349802;0.10064283;-0.052727144;-0.063632585;0.009703278;-0.06492161;-0.0068114027;0.042335678;-0.033882834;0.14052084;-0.2009462;0.29383257;0.10089914;-0.0041497126;-0.05624592;0.21058342;-0.008051211;0.06426424;0.14639087;0.12672193;0.27400807;0.13895303;-0.03883738;0.08826807;0.022130467;-0.018154178;-0.058078244;0.03929477;-0.10232851;0.041390765;0.02531266;-0.038950946;0.032672256;0.009823159;0.0035889265;-0.000598182;0.046332154;-0.23007084;-0.2794608;-0.21718967;0.16761422;0.07102338;0.062185265;0.0006978487;-0.06148677;0.14072677;0.16867885;0.1651096;0.07643847;-0.0193282;0.22778103;0.00944712;0.06987056;-0.17577398;0.05194023;0.08703533;-0.112874284;0.03966172;0.09507049;-0.11661898;-0.1140609;-0.03892664;-0.102368526;0.0103672985;0.15034677;-0.07202978;-0.10476489;-0.13168421;0.12455018;0.02099895;0.010216688;0.043473974;0.046734616;-0.042056613;0.06815647;-0.1289238;-0.06627017;-0.032811865;0.17266835;-0.012667338;-0.034358177;-0.07095743;-0.055349153;-0.055166148;-0.027951103;-0.13090062;0.053578455;0.06814381;-0.18320675;0.038727604;0.007708026;-0.20394199;-0.12957032;0.065554425;-0.11571277;0.021982068;0.0557262;-0.079781026;0.045494433;0.066934496;-0.16575971;0.2075215;0.037869927;-0.043324433;-0.08491309;-0.0025363297;0.039666906;-0.14743909;0.030207418;-0.05892448;0.09895565;-0.062355537;-0.21504955;-0.014403911;-0.18352309;0.018136218;0.099732466;-0.012475059;0.09951675;0.03425656;-0.0401236;0.07707861;0.08896617;-0.04161913;0.05669017;-0.07549395;-0.00841285;0.012746495;-0.075248756;0.09520093;-0.037020303;-0.012938798;-0.12128021;0.0777257;-0.06212296;-0.13091098;0.048894607;-0.23484379;0.21414632;0.034094907;0.2568667;-0.15621789;0.23627959;-0.067027025;0.033021975;-0.095304064;-0.028320957;-0.08580469;-0.025452808;-0.21564047;-0.16189362;0.21912062;-0.00077997067;0.1636989;-0.1782048;-0.018974306;0.0041789487;0.04992319;-0.069392964;0.07914285;0.013215785;0.12248369;-0.16239776;-0.07531118;-0.14426231;-0.029890273;-0.088679105;-0.029337069;-0.024320284;-0.08127293;-0.035313193;-0.2713664;0.11704451;-0.0468361;-0.013735686;-0.08179731;-0.013845797;0.07947949;-0.024258588;-0.10667829;0.10386095;-0.02935125;0.034485377;0.043399494;0.061423462;0.072874375;0.081683114;0.27629408;-0.16839854;-0.06260224;-0.16998065;0.08417532;0.14199749;-0.03942087;-0.12745771;0.05472122;-0.10983317;-0.07538117;0.0014479993;0.015077434;0.12725131;0.10775172;0.07064777;0.08948883;-0.15152837;0.176301;-0.07487822;-0.26156202;0.15297364;-0.02575632;0.01832169;0.096713826;0.039848134;-0.08757252;-0.123763114;-0.044658113;-0.06928883;-0.16376075;-0.024553256;-0.14446187;-0.0599872;-0.05842019;-0.20216966;0.01657434;0.0115796095;0.16030283;0.025462806;-0.083031155;-0.025997333;0.040104922;-0.10616719;0.13260499;-0.0027282261;0.048230805;0.1783799;0.057856556;0.21845733;0.10746271;0.019994184;-0.07825176;0.023740314;-0.027316343;0.056406137;0.039134804;0.067176685;-0.2648172;0.17018506;-0.07831244;-0.007943459;0.006692853;-0.026867552;0.08155175;0.12157496;-0.05093575;0.041862972;0.020711746;-0.18263492;0.04866255;0.25705594;0.1678464;0.058555674;-0.097653456;0.13072032;-0.18836819;0.04803298;-0.17098863;-0.09193735;-0.09169841;0.13693318;-0.3423284;-0.029568123;0.10521848;-0.098498195;-0.052269887;-0.008924045;0.020563079;-0.046190385;0.0973223;0.09837937;-0.01746129;-0.034003783;-0.09218072;0.049812183;-0.26424888;-0.050188135;0.11816448;-0.070219934;0.051182874;-0.044739075;0.012980608;-0.047326855;0.07295156;-0.1929462;-0.015194974;-0.034476947;-0.033316333;0.0470182;-0.19601282;0.061504636;-0.19385262;0.10938088;-0.027349388;0.028593037;-0.040433876;0.0041475687;0.048912708;-0.051786855;-0.015927294;-0.047560733;0.018903997;0.11105554;-0.072829425;-0.028637532;0.08153518;-0.19882141;0.043153107;-0.0028094947;-0.048497956;-0.03519113;-0.012245888;0.0968711;-0.033867657;0.014353756;0.08123687;0.12713906;-0.017675357;0.06230296;0.023653364;-0.089266494;0.08855809;-0.09018273;-0.017849697;-0.08472254;-0.11568881;-0.15195139;-0.0281487;-0.05986748;0.028015831;-0.026411628;-0.15361404;-0.10252933;-0.16063999;-0.12898615;0.043183483;-0.03825939;0.19198506;-0.11476868;-0.05269713;-0.04400353;-0.080557935;-0.03189336;-0.18771544;0.23133886
-0.12027063;-0.040277634;-0.04971122;-0.037247993;0.004346886;0.13666208;0.054629777;0.05727306;-0.058755394;-0.030585958;0.008458023;-0.04582065;0.10869846;0.28922066;-0.053232186;-0.121249735;0.08546419;-0.13433056;-0.02416556;-0.008316077;0.08282852;-0.01729087;-0.014583818;-0.06885672;0.07748983;0.12618478;0.037456937;-0.0700059;-0.043017577;-0.11249133;0.034797482;0.015359494;0.16178752;0.08739434;0.041695364;0.056018032;-0.2665648;-0.04829797;-0.02590859;0.021251656;0.10961418;0.028503371;-0.19328353;0.17693493;-0.12838376;-0.13315165;0.0516944;0.027864533;-0.18239374;0.074032746;-0.14718467;-0.10802077;0.03557403;-0.20945963;0.08577729;-0.052067686;0.072071664;0.023235967;-0.17622666;-0.04594571;0.037262417;-0.08191828;-0.21003179;0.047827795;0.07800922;0.008328308;-0.10932476;0.06603927;0.03356181;-0.119516425;0.04481201;0.19575307;-0.15770747;0.23986085;0.097288735;-0.0558165;0.068014994;0.16076949;0.09458532;-0.09595225;0.014853348;-0.07148508;0.014837537;-0.08417392;-0.03570679;0.039925985;0.1153182;-0.076167874;-0.07400477;0.033748;0.08780157;0.121314466;0.133203;-0.13343722;0.021534694;0.21133353;0.07199784;0.02522581;-0.04634396;-0.1234878;0.013757282;0.12042771;0.06979215;0.052942265;-0.16767102;-0.033203766;0.03304942;-0.05383641;0.09227414;0.10134054;-0.39125237;0.06626727;-0.016151063;-0.076851174;-0.054365207;0.14494185;-0.24846269;0.12412406;-0.110056505;0.009876754;0.050119895;0.06739804;0.0041071344;0.07400682;0.018788598;-0.036179774;0.116386466;0.12612742;0.018766036;0.08258328;-0.098035425;0.11871005;-0.054158565;0.021521939;-0.24344322;0.012506319;-0.17155574;0.09453817;-0.1358182;-0.07692626;0.28003842;-0.20552817;0.048112962;0.039998997;-0.059095148;0.060133703;-0.067554116;-0.0076202443;0.10999905;8.6937e-05;-0.046061307;0.08341127;0.06676101;-0.11674325;0.05075087;0.017167568;-0.0034833925;-0.004181551;0.068599984;0.040812045;0.2690386;0.07726619;-0.14203727;0.16989069;0.058565315;0.1779029;0.027706161;-0.09689865;0.029362451;0.015993362;0.0072378023;-0.18836728;0.06267053;0.10917203;-0.010646196;0.10044709;0.07054509;-0.17550237;-0.059407815;0.00077980274;-0.1030809;0.08075352;-0.10833567;0.17821588;-0.0088247135;0.005920759;0.10858299;0.021717902;-0.113767855;-0.061786737;-0.04924019;-0.06141099;0.07887041;0.08684166;-0.046379533;-0.061443854;0.06882871;-0.033236694;0.10674311;0.05673219;0.091310985;-0.06585367;0.020067757;-0.040634096;0.04958838;0.08506009;0.04908357;0.12361075;-0.042559672;-0.1087486;-0.04273524;0.05797956;0.12606268;-0.09763848;0.21713535;-0.039194055;0.08820682;0.2603129;-0.14702576;0.022916153;-0.15666647;-0.07620773;-0.045071628;-0.03755861;0.07941497;0.078632005;0.13519284;-0.19193235;-0.16369104;0.12737843;-0.002681151;-0.056130406;-0.0044780704;0.06002067;0.26405823;-0.021129657;0.07298974;-0.010777467;0.1162936;-0.03309207;0.008646689;0.09062329;0.12136339;0.22902887;0.15074821;-0.17040236;0.18173023;0.09603645;0.031220159;0.0033136075;0.008443999;-0.06864024;-0.022258697;-0.01869491;0.06690467;0.17963408;0.044521272;0.088051505;-0.14757496;0.025088904;-0.30639488;-0.3303574;-0.16070308;0.0217404;0.08635442;0.14603278;0.04138877;-0.011088689;0.09176081;0.15986107;0.019099927;0.30288815;0.090802655;0.22040436;-0.15140845;0.03220213;-0.05231659;0.057535283;0.029634159;-0.115925945;0.024300538;-0.009086038;-0.043808058;-0.1477819;0.08837969;0.08683558;0.11445555;-0.02571926;-0.104066014;-0.06645817;-0.11496686;0.06363557;-0.03310242;-0.027525896;0.050527573;0.015994266;-0.041682176;0.14284292;-0.1537619;0.07439605;0.118882366;0.15196851;0.017676657;0.010668469;0.026138658;-0.153289;0.0031821537;0.11720341;-0.0713415;-0.14963312;0.14793207;-0.09466369;0.058407176;-0.052988436;-0.13326427;0.062952265;0.071679145;-0.10112128;-0.012465992;0.035199188;-0.081133984;-0.019344905;0.062329274;-0.19402914;0.20051658;0.10007022;0.032380663;-0.075684056;0.040965527;0.03879072;0.012206399;0.038613234;0.07538018;-0.07262186;-0.14701046;-0.23050703;0.00064450514;-0.1453082;0.0728156;0.13337927;0.06712217;0.18012895;0.11651156;-0.056601197;-0.032242883;0.14403021;-0.04529458;0.015881207;0.07826317;0.07292292;-0.02537269;-0.13108408;0.054194007;-0.07410968;-0.012497518;-0.03475962;0.033545416;0.026656043;-0.12666017;-0.09776622;-0.056714125;-0.10382814;-0.0098078055;0.06720172;-0.17663337;0.04813286;-0.29401383;-0.05535372;0.016520608;0.09717352;-0.07996187;0.12881963;0.047367513;-0.11229045;0.10981859;-0.12707128;0.041730534;-0.23232782;0.068158716;-0.17575365;-0.09736971;-0.10518825;0.0674559;-0.14910889;0.067141846;-0.1462559;-0.06694377;0.046079263;0.034276493;-0.0010302104;0.07039071;-0.0330307;0.009747836;-0.13383783;-0.37987515;-0.000767898;0.058561556;0.05490248;-0.018077603;-0.024770385;0.122882865;-0.0003519236;-0.20820312;-0.11799757;-0.0007124887;-0.0297572;0.13510773;0.019349126;0.014504476;0.10265487;0.30720496;0.063591525;-0.0009820677;-0.14728805;-0.0060947514;0.034957502;-0.10668186;-0.005325894;0.080306835;-0.06666086;-0.05630377;0.016215954;-0.08145315;0.1528525;-0.031103687;0.15651199;0.060131572;-0.14335212;0.04717827;0.098787904;-0.093236156;0.08791369;0.05305;-0.059825785;0.06747075;-0.11253325;-0.046078272;0.0022281292;-0.14551835;0.020743627;-0.025697622;0.015334905;-0.11040829;-0.030810272;-0.0876069;-0.17074624;0.038092103;0.0724658;0.12261388;-0.032033753;-0.012783548;-0.13668174;-0.028457496;-0.016208053;0.003979625;-0.06297848;-0.13229796;0.080412365;-0.077085316;0.079140544;0.045724925;0.1582338;-0.20413332;-0.050912946;-0.1560573;0.02939758;0.13855581;0.1938616;-0.23292129;0.0718598;-0.13861422;-0.074347846;0.029644966;0.029427692;0.18685283;-0.01234567;0.18164706;-0.099460475;0.026466155;-0.2398492;-0.05324272;0.08464622;0.20870978;0.060833152;-0.041651443;0.16486198;-0.08334835;0.16443029;0.06197374;-0.17403035;0.025424572;0.016185822;-0.32977867;-0.017954683;-0.09610993;-0.082761586;-0.1146775;-0.10088354;-0.03730684;0.0076574306;-0.020322561;0.1455789;0.0022206018;-0.024723785;0.038193807;-0.014092717;-0.12902391;-0.16574074;0.11330679;0.045140177;-0.10328652;-0.06891389;-0.026887376;0.012978047;0.08214959;-0.07537072;0.08108654;0.06811645;0.020560412;-0.028510382;-0.10187559;0.104020685;-0.10769427;0.05855949;-0.06106414;-0.07584284;0.15022215;0.010855031;0.059992928;-0.0443249;0.12226024;0.031278193;-0.098001994;0.22490415;0.080664486;0.04909378;0.02642092;-0.032172747;-0.04567436;-0.084665015;-0.033018015;-0.057296224;-0.019056182;-0.06376255;0.0798735;-0.027796814;0.06198549;0.07191008;-0.19870222;0.22560015;-0.030599866;-0.13843888;0.15827169;-0.14939097;-0.12326609;-0.08209206;0.029345058;-0.22224714;0.0014343451;-0.063374326;0.0623765;-0.08359746;-0.10510011;-0.14285062;-0.11391225;-0.22016835;0.062042665;0.0925684;0.07612214;-0.106708676;-0.13217902;0.09797009;0.046755362;0.06745187;-0.21512225;0.053025257
0.025683345;-0.10602879;0.08094332;0.07607578;0.060384363;0.02279549;0.04163219;-0.03347444;0.03312126;-0.16469476;0.013063871;0.045474023;0.012288781;0.19644609;-0.12525259;-0.1298201;0.25152823;-0.1255401;0.0009549887;-0.059030667;0.13023819;0.08567289;-0.12252372;-0.08492356;-0.118144706;0.09244712;-0.027401648;-0.08814766;-0.072423086;-0.028307544;-0.006647297;-0.11296746;-0.048343148;0.13558842;0.036728792;-0.075285465;-0.09766441;-0.05441329;-0.002847422;0.060139764;0.16100854;0.018073635;-0.031864632;-0.0026784625;0.014482359;-0.0890229;-0.0063293967;0.076903656;-0.07187468;-0.108005255;-0.013223618;0.032482926;0.11974794;-0.1123679;0.08636258;-0.12887721;0.0073439004;0.026053831;0.031090349;0.020622918;-0.03538356;0.0032038642;-0.039417055;-0.07420468;0.12833281;0.064815685;0.089136004;0.30041397;-0.060197093;0.027313473;0.10100858;0.17704685;-0.00091487635;0.11129169;0.0026068985;-0.045402654;0.029395113;0.17511617;0.105713256;-0.037385356;0.07564293;-0.032372195;-0.14537679;-0.02199135;0.07081062;0.10831466;-0.12894115;0.034414455;-0.030530086;0.018127702;0.0680769;0.09355789;0.19844861;-0.060456093;-0.008083491;0.18888636;-0.02122451;0.036583085;0.07413274;-0.069591306;-0.024761694;0.13040249;-0.036362574;0.021985378;-0.10342391;-0.09833502;-0.060127508;-0.013247798;-0.033705078;0.19669259;-0.3327019;0.019435583;0.028244019;-0.0690617;-0.12798303;-0.010928118;-0.1720884;0.097875334;-0.08718381;0.09861413;0.052265033;0.04015614;0.048651956;0.10042311;-0.025972513;-0.09454671;-0.09038359;0.054215726;0.07222517;-0.036460932;-0.043347627;0.23180507;0.063286;0.12142385;-0.20917496;-0.024470119;-0.14064524;0.09683526;0.11317138;0.1350635;0.0073012044;0.006119442;-0.031759582;-0.053659596;0.019948866;-0.051682048;-0.15963668;0.019298773;0.12710835;-0.060054593;0.03868212;0.014523455;-0.0272293;-0.047994796;0.2101248;0.036571234;-0.13562004;-0.032798827;0.08834594;0.043782577;0.20565125;-0.07656999;-0.094989866;0.07994868;-0.021801138;0.025520789;-0.1183676;-0.18125251;-0.004983488;0.060436767;-0.054398824;-0.14148608;-0.09716199;0.1161729;0.0002798957;0.21068962;-0.017776504;-0.122445844;0.075606324;-0.1308769;-0.003588327;0.17742418;0.072258145;0.10109135;-0.058956087;-0.04949395;0.1154636;-0.09128018;-0.11846993;0.08017742;-0.05525939;0.06735123;0.05094701;0.020863704;0.055318557;-0.0853184;0.08181723;-0.05731219;-0.035497274;0.015208085;0.019643888;-0.011081999;0.023222433;-0.03392946;0.06461988;-0.05216197;0.016542409;0.070850186;0.0018678881;0.009230213;0.0026662494;-0.008955779;0.11004172;-0.02965789;0.04618286;-0.14883792;0.17992105;0.115933105;-0.10094266;0.025248004;-0.083935305;-0.049052067;-0.06445082;-0.14728644;0.032420978;0.09424271;0.20880179;-0.04409397;-0.10425518;0.12626567;0.056046907;0.080351286;-0.015542202;0.041083504;0.21168281;-0.0054981583;-0.053468097;0.04480602;0.1682215;0.12528767;0.054898236;0.22879156;0.23347948;0.1484548;0.14572549;-0.14268321;0.08633772;-0.032808736;-0.01997661;-0.0061712796;0.13631415;0.020701395;0.04721385;0.1766366;0.12533605;0.076257445;0.046904042;0.10842619;-0.004606648;0.061235253;-0.1528265;-0.1448281;-0.098833434;0.104058675;0.03138712;0.065026894;-0.008678908;-0.092033476;0.019034773;0.006306643;0.07010992;0.16251971;0.14543197;0.094437845;-0.041396745;-0.044342753;0.014988188;0.06950965;0.03610922;-0.10341618;0.015114224;-0.06148569;-0.06474299;-0.122643225;0.14498456;0.05135945;-0.012659844;0.057863917;-0.090691395;0.019293724;-0.27080336;0.18025851;0.02638306;-0.13855125;-0.09201983;-0.02107671;-0.0057707652;0.14524175;-0.06396081;0.05648411;-0.0067102667;0.16281167;0.023792757;-0.08652154;0.10092476;-0.06898886;-0.18504821;0.012520858;-0.15024544;-0.104431696;0.10502227;-0.09896966;-0.023000391;-0.073901646;-0.07387446;-0.08393789;0.10221105;-0.052603174;-0.18313304;0.004888668;-0.03284421;0.00081851456;0.08232914;-0.10342174;0.06628551;-0.04991992;0.021842783;-0.11271259;0.066333964;0.03691482;-0.062308177;0.13662839;0.081146374;0.12778434;0.005947848;-0.27617848;0.029741673;-0.05395154;0.036267996;-0.06711926;0.051363975;0.11919242;0.12905762;-0.038431052;0.056773737;0.07345662;-0.1531178;0.0635674;-0.018390138;0.041904986;-0.07924667;-0.1376239;0.11502257;-0.04736991;-0.01374622;-0.0012947229;0.050077457;-0.011978507;-0.16192465;-0.065007664;-0.06387028;-0.005663032;-0.0018092806;0.108835615;-0.049430393;0.07507668;-0.16974184;0.0625757;0.006737926;-0.14010015;-0.10037863;0.007361016;0.01673204;-0.17437774;-0.002334484;-0.10670958;0.021441929;-0.19856314;0.03789205;-0.15820985;-0.13285431;0.0071749277;-0.09949403;-0.06161946;-0.020286897;-0.081248656;0.027697498;-0.067820475;0.033612505;0.10662155;-0.10048309;-0.068177804;-0.05936366;-0.044237;-0.36483377;-0.0049840533;0.00853744;0.058393873;-0.0058039366;-0.124310054;0.002807042;-0.08720555;-0.04509392;0.010242419;-0.0119056795;0.007933036;0.030314956;0.051850475;-0.039905064;0.10220883;0.2486831;-0.020917958;-0.14214629;-0.086857505;-0.021045566;0.0021050512;-0.055285826;0.112921596;-0.052936982;-0.1666918;-0.037044015;0.01488552;0.050886218;0.1490971;0.06222075;0.15622649;0.114681855;-0.07477232;0.13882346;-0.032064337;-0.17563055;0.105642565;0.029458221;0.07551302;0.14325966;-0.075449765;-0.10785445;0.108145885;-0.06472497;0.089667335;-0.026882356;0.005372561;-0.037316363;0.0740552;-0.05761899;-0.16424952;-0.05800323;0.0085157985;0.14428097;-0.051262073;-0.024875725;-0.13419515;-0.067253016;0.035404127;0.18217514;-0.032992348;-0.10518411;0.047030944;0.09196006;0.08925359;0.04443239;0.14200991;-0.11660142;0.08500254;-0.016674157;0.18855256;0.15614043;0.015905598;-0.23694888;0.06993497;0.05838753;-0.022337643;0.0816601;-0.104665175;0.1896311;0.042717177;0.18106066;-0.030230602;-0.028252825;-0.10059873;0.09011512;0.19905053;0.07514144;0.024830086;-0.14348605;0.020905418;0.13074306;0.0789551;0.1584166;-0.033363692;-0.11014362;0.0019145318;-0.3139787;0.0174184;-0.09661399;-0.13870394;0.058251996;-0.01288246;-0.006070752;-0.006870555;-0.010633502;0.04224681;-0.008325771;-0.089153655;0.0020851085;-0.11156893;-0.14060995;-0.009925074;0.069609866;0.17236458;0.0054546366;-0.08637297;0.04432187;-0.09104608;0.10489133;-0.17647813;-0.002902231;0.0062263072;0.11261099;-0.009083175;-0.06732423;0.080416456;-0.007320302;-0.08662606;-0.04995388;-0.06591313;-0.043360397;0.16470462;-0.0461216;-0.11320735;0.10637083;0.047937177;0.0054720393;0.18755217;-0.14864314;-0.022393702;-0.06660264;-0.08882726;-0.048887536;-0.10382022;-0.028983902;-0.14188015;-0.041362066;-0.18186449;-0.0411768;0.026865926;0.124640204;0.06896289;-0.05889033;0.12968265;-0.08119292;0.042537026;0.101381324;-0.208375;0.02357322;-0.20043668;0.005248029;-0.17138487;-0.077406146;0.09355616;-0.015694076;-0.090305366;0.039874565;-0.2494917;-0.19980124;-0.2791353;0.049006745;-0.046710525;0.110236235;0.0011075897;-0.14006497;0.09576591;0.020133212;0.12137481;-0.058227982;0.051715884
0.025591474;-0.110986866;-0.018037615;-0.09844828;0.13522686;0.1464678;-0.044447843;-0.08796413;0.06588207;-0.1896484;-0.119394995;-0.05653843;-0.014895091;0.15315188;0.010960079;-0.1493612;0.2300389;-0.1431074;0.16460542;-0.11088805;0.14960122;0.18906675;-0.05792999;0.061859097;0.09348841;0.055435594;0.04972332;-0.011114162;0.02221139;-0.06684805;0.14496596;-0.09653752;-0.099556245;0.12105701;0.027079174;-0.017528202;-0.105448425;0.04284854;-0.012827952;-0.05294778;0.11884129;0.0007577952;-0.07444448;0.11408502;0.07542022;-0.15475783;0.15926129;0.043491043;-0.10215566;-0.1410742;-0.017347123;-0.06726186;-0.052183285;-0.15440343;0.04830112;-0.14905551;0.009526577;-0.016539117;-0.029369598;0.010518126;0.06713032;-0.14950983;-0.01217248;-0.05790966;0.06309913;0.09096203;-0.03994595;0.12223777;-0.2818197;-0.02542326;-0.08182794;0.05735676;0.04194346;0.19952513;-0.02032834;-0.067183755;-0.12555727;0.04538453;0.16774188;0.024919003;-0.015234436;-0.016048389;-0.13982722;-0.00017834757;-0.06845345;0.005935864;-0.21115398;0.037948;-0.11726259;0.047550153;0.032891795;0.037339643;0.14193356;-0.04890169;-0.01668264;0.14736958;-0.040110387;0.018753821;0.039474715;0.08870823;-0.032817833;0.010970225;0.10279503;-0.061595425;-0.008164098;0.09275687;0.005642901;0.06544868;-0.031238759;0.071551114;-0.27390856;0.022992715;0.0013790384;0.016771257;-0.03567073;0.15666421;5.1522584e-06;-0.061572466;-0.055785555;0.106598966;-0.028593348;-0.0007721416;0.14838736;0.07823434;-0.05326664;-0.013483602;-0.08316448;-0.0073153693;-0.0029324421;0.12970676;-0.07557044;0.105291255;0.06161411;0.082947776;-0.18419471;0.011373446;-0.043364234;0.06671862;0.020587401;-0.05136148;-0.06442683;0.03777424;-0.13381658;0.04615706;-0.028260645;0.07973783;-0.061909862;0.117002524;0.03309651;-0.018557815;0.09615108;-0.080062635;0.01639498;-0.04573265;-0.026338067;0.026720762;-0.26285383;-0.07185141;0.013004164;-0.0034174805;0.0045647924;-0.095844604;-0.13146397;0.011865315;0.029040989;0.10706374;0.053162187;-0.039309144;0.13220581;0.020055752;-0.048190575;-0.004797897;-0.04874675;0.13980973;0.013430273;-0.013069136;0.050090414;0.0073843473;-0.0160377;-0.11757277;0.012941175;-0.016646605;0.029598279;0.063802026;-0.011844273;-0.012816761;0.05718399;-0.03966566;-0.037511006;0.0712287;-0.05065366;-0.05928005;-0.14858732;0.05920046;0.045985505;-0.05764767;0.025922338;0.04841621;0.114371605;-0.09917043;0.08369313;0.02397804;-0.08766753;-0.030498244;0.18228424;0.020847254;0.16961072;0.031120434;-0.06926221;0.14220539;-0.0029394785;-0.12425182;0.18425938;0.07552547;0.12445497;-0.07531483;0.07188224;0.07603942;-0.039389055;0.1360867;-0.06773809;0.019573627;-0.046391994;-0.040215056;0.040156335;0.14173414;0.17087951;-0.14057714;-0.021014627;0.14048053;-0.05603552;-0.0497476;0.10385274;-0.09786237;0.17567109;0.13153814;-0.078561135;0.022211034;0.12112204;0.068081304;0.031718954;0.29385895;0.24448699;0.09032201;0.106337145;-0.048090797;0.1665094;-0.08283759;-0.04146705;-0.012551812;0.17414589;-0.15555723;-0.05259371;0.12807515;-0.025565697;0.067805536;0.042163733;0.09064627;-0.05878832;0.028083185;-0.20527607;-0.11006758;-0.19585013;0.031029321;0.23293532;0.13397515;-0.102888875;-0.047577552;-0.0070062126;-0.053634945;-0.0046111927;0.18682945;0.08156063;0.015133797;0.043950237;0.049524166;-0.011405125;0.030002544;0.07612733;-0.11136097;0.07345963;0.07619761;-0.08098307;-0.1210351;0.0020004367;-0.05483745;-0.11979097;-0.016050508;-0.06896171;0.047671646;-0.24259274;0.1393105;-0.13128039;-0.15977392;-0.05416752;-0.01667984;-0.0024382418;0.11642764;-0.11436308;0.008593949;0.11401581;0.06562039;0.08423068;-0.014712025;-0.0020897035;-0.08787393;-0.14268811;-0.067434296;-0.099808626;-0.045086253;0.09761994;-0.21551557;0.06902901;-0.08296452;0.09596402;-0.058797523;0.1463283;-0.011558179;-0.03111237;-0.027896868;-0.05994993;0.0037323188;-0.009491656;-0.07332273;0.18863627;-0.105205774;-0.1300263;-0.15871361;0.0013296497;-0.050632946;-0.16712795;0.19754618;-0.057457753;0.10187914;-0.032158963;-0.24105357;-0.12812074;-0.1856468;-0.018177439;0.11594191;0.045671925;0.14360097;0.0313297;-0.048768327;-0.0063674934;0.053233743;-0.13709752;0.08129649;0.0138884215;-0.051399756;0.10590991;0.00822643;0.20284648;-0.22853823;-0.12334908;0.030150387;0.11442396;0.02119324;-0.22628403;0.02125877;-0.10847069;0.086749546;0.046553116;-0.0038478724;0.07349502;-0.02343057;-0.2065088;0.041580845;0.13543282;0.015514714;-0.07887215;-0.12842426;-0.10941349;-0.2013902;0.052666787;-0.16906044;-0.02985587;-0.23538522;0.008892897;-0.25490582;-0.055562157;-0.033442117;-0.01703593;0.058755;0.104069166;-0.04552095;-0.022384176;0.16425101;0.06888808;-0.019495275;-0.033702135;-0.20436075;0.064169474;-0.063907295;-0.09038098;-0.11297855;0.075059116;-0.09737768;-0.04056241;-0.10905521;0.0065257302;0.030217843;0.023738721;-0.1247669;-0.10830974;0.09115363;0.121035405;0.061523482;0.046264917;0.09685415;0.115994915;-0.011378378;-0.043074176;-0.13984506;-0.039380267;-0.0007612114;0.012954173;-0.016872142;-0.062969625;-0.16170052;0.10281969;-0.041103058;0.110362425;0.09386058;0.0070048566;-0.09159383;-0.022722999;-0.105696455;0.040558856;0.06575773;-0.10435485;-0.0029353104;0.118393645;-0.009750734;0.02164265;-0.033851743;0.008272789;0.08151883;0.016314972;0.014616736;-0.13778102;-0.03539746;-0.010736507;0.09312684;-0.02376017;-0.13531289;-0.039304994;-0.12790482;0.112811305;0.13224773;-0.047710713;-0.031218654;0.09774816;-0.07211464;0.08806414;-0.05812581;0.018605875;0.14296918;-0.16790165;0.03901893;-6.4028674e-05;-0.01579901;-0.24341339;0.03302616;0.050345737;0.014312893;-0.051743947;0.07284449;-0.13482864;-0.05156301;-0.11813017;-0.07465369;0.08834687;-0.01047282;0.059599224;0.14630356;-0.02174277;-0.0060571292;-0.01921156;-0.16479227;0.008888678;0.073471956;0.1912892;-0.053162057;-0.14467087;0.06615603;0.0678331;0.12999058;0.09098001;-0.06499955;-0.043629386;-0.105929226;-0.32278207;0.02171107;-0.07856352;-0.13197426;-0.03456997;-0.008492898;-0.01353988;-0.09807656;0.054290112;-0.00046691153;0.05933061;0.025249127;0.11052579;0.02290363;-0.08806715;-0.12212839;-0.030164702;0.08369237;0.119250864;-0.033931833;-0.005096656;0.062119905;0.0742393;-0.15113181;-0.06409612;0.2147988;0.09328227;0.0585982;-0.011453662;0.011190658;-0.068433255;0.10413189;-0.1684482;0.079212904;0.024462609;0.031443;-0.03513939;-0.024330053;0.05931486;-0.10281477;-0.10525941;0.18746856;-0.08960598;-0.047590833;-0.050154377;-0.1560131;-0.013197153;-0.14486863;0.15767236;-0.13686523;0.031738173;-0.02341136;0.0430834;0.04365409;0.044665445;0.06847176;-0.078362174;-0.021043712;-0.10968592;-0.07036987;-0.047129463;-0.12717232;-0.14317364;-0.010387357;-0.07682515;-0.12535441;-0.073320754;0.071345404;-0.005025556;-0.010939648;-0.07106358;-0.10783517;0.022344554;-0.120995104;-0.010527181;0.026197664;0.041973524;-0.08026018;0.025516057;0.0796513;-0.056346826;0.0064719236;-0.1682194;0.1468204
0.11591944;-0.20748828;-0.032586653;-0.078361444;0.11804802;0.07134651;-0.0029051492;0.17034744;-0.026172563;-0.17749389;-0.11966566;0.036073238;-0.04765722;0.0009713399;-0.07410575;-0.048650563;0.285917;0.0393933;0.13293064;-0.13252854;0.11341051;0.1373537;-0.123471506;-0.036171988;-0.026970424;0.08177778;0.007297365;-0.11903491;-0.038208358;-0.048213273;0.2180085;-0.011546947;-0.1048324;0.25395072;0.11023807;-0.13628194;-0.15275912;-0.021798966;-0.10550008;-0.17740217;0.082006104;0.03564666;-0.057227284;-0.048083536;0.13569921;0.029973978;0.20082536;0.13148992;-0.025345434;-0.0025809659;-0.11445641;-0.1008311;0.009101332;-0.01748808;0.20225304;-0.03322817;-0.13019764;-0.018528646;0.10522268;-0.10925119;-0.04985146;-0.12318736;-0.089858145;0.06443665;-0.01926081;0.012611629;0.093735345;0.1296095;-0.229041;0.044252433;-0.0006291443;0.030700017;-0.114026524;0.20718247;0.11847009;-0.071860656;0.12614201;-0.050689515;0.101849474;-0.03047683;-0.0547049;0.11926272;-0.1309841;-0.0050865104;0.061542016;0.087863825;-0.17149863;-0.13769725;-0.11677614;-0.07740364;0.12774152;-0.050265845;0.29129586;-0.1635447;0.12480438;-0.026708344;-0.09517239;0.07111615;-0.04423607;0.09858465;-0.041008465;-0.027634945;0.09553456;0.060474377;0.078927025;0.030286564;0.043609012;0.046083644;-0.082849964;0.16007425;-0.2428038;0.010048897;-0.020337556;0.05231424;-0.05302717;0.03396522;0.123573296;0.07711545;-0.025408462;0.03248227;-0.052462924;-0.040444553;0.1289632;-0.07646013;0.031021647;-0.016012821;-0.030021835;-0.082953125;-0.062047277;0.07123544;-0.022900347;0.13144323;0.011410984;0.15612893;-0.38840157;0.04334582;-0.09337461;-0.056515448;0.08757408;-0.09211809;0.0064602215;-0.031616673;-0.059935097;-0.16595231;-0.049348872;0.16289234;0.020025684;0.1809817;-0.09940818;-0.052577563;-0.022174025;0.060071584;0.011735795;0.10386184;0.23537832;0.16786161;-0.100220025;-0.042377565;-0.004443782;0.06012359;0.036174513;-0.058965378;-0.017265905;0.05163387;-0.13298541;0.12841003;-0.058554493;-0.05824036;-0.007970751;0.2111619;-0.0006515801;0.007832402;-0.11308574;0.09238759;-0.0016079083;0.17625558;0.10459001;-0.08352636;-0.10474891;-0.10117849;0.013932845;0.050541684;0.2501372;0.072953455;-0.052017804;-0.13190827;0.03717589;-0.105559476;0.0557954;0.10630399;-0.026511155;-0.08829607;-0.2031436;-0.011178433;0.1053246;-0.048790928;-0.020911079;0.022655966;0.03471538;0.00016239633;0.02808985;-0.032938417;-0.07961346;-0.13967294;0.21959297;-0.11340278;0.17537412;0.11254477;-0.020756517;0.111469164;0.003634451;0.07219998;0.29386613;0.16808562;0.14457099;-0.06890644;0.014196464;0.13488461;0.06641423;0.11672694;-0.038389437;-0.10405526;0.02841439;0.025500294;-0.07787859;-0.03481962;0.122088306;-0.14569013;-0.1869299;0.25391698;-0.025406662;-0.0733084;-0.06839564;-0.11137857;0.07334368;0.08758045;-0.10575172;-0.07807895;0.1353552;0.07334438;-0.12275112;0.21600273;0.20399514;-0.021946302;0.17024364;-0.107179016;0.092043184;0.025578663;0.08680206;0.055406447;-0.011254271;-0.045572367;0.03875275;0.08486996;-0.06298862;-0.029578777;-0.081859894;-0.07457416;-0.037049305;0.14883153;-0.20778064;-0.24468353;-0.1158861;-0.05713045;0.14170937;0.04970789;0.03185233;-0.25889817;-0.079540506;-0.123185225;0.09530006;0.10165121;0.014261637;-0.06744111;0.1429294;0.090175025;0.14741866;-0.027262772;-0.05318509;-0.22924696;0.007730352;0.040691104;0.03988401;-0.089099996;0.10880921;0.07917651;-0.080671914;0.014126014;-0.100898474;-0.033337675;-0.24939361;0.10944902;-0.08501821;0.0006905662;-0.11637291;0.043273803;-0.029501427;0.17638971;-0.026673516;-0.02692309;-0.0197725;-0.11955138;-0.039712414;-0.081576765;0.16395713;0.05502743;-0.12854843;-0.2082879;-0.13720138;-0.15949889;0.037623204;-0.060257234;0.07958395;-0.13768835;0.014276169;0.12604722;0.01506647;0.16766715;-0.12244243;0.05425241;-0.1104256;-0.12971573;0.030166434;-0.0809061;0.07648038;0.007553385;-0.064889215;-0.22776206;0.05170141;0.09841769;0.03826477;0.12920026;-0.040554624;-0.021153789;-0.115024865;-0.19342074;-0.18669425;-0.06478933;0.06435118;0.08996998;0.008847071;-0.026087657;0.069587134;-0.06831602;0.07241816;0.038215265;-0.3308137;-0.022938106;-0.1836974;-0.03530306;-0.07529888;-0.01097659;0.001451258;-0.27684435;0.044771448;0.029255949;-0.05057387;0.047881924;-0.10268036;-0.08738281;-0.20327324;0.12817866;-0.08918727;-0.057711437;0.0970888;0.009900346;0.034874853;0.03883753;-0.043703184;-0.1174043;0.05945143;-0.19537714;-0.06785195;-0.26957777;0.00016853886;-0.15398464;0.073531;-0.16588478;0.118696995;-0.07339628;-0.06802025;0.15519504;0.015324166;0.053361196;0.14830725;-0.036621578;-0.024740268;0.08236354;0.03817704;-0.0336332;-0.044663604;-0.115573816;-0.118962996;-0.16725428;-0.044667948;-0.007360616;0.14266793;0.04917682;0.03568212;-0.2606863;-0.022030348;-0.17639683;0.021469934;-0.05560137;-0.0749642;0.06614766;-0.008657956;0.15111655;-0.019851733;0.15400054;0.18284619;-0.043165464;-0.088356294;-0.24399345;-0.045597736;0.028457344;0.067234956;0.09367523;-0.11581758;-0.06006713;0.060496405;-0.011805846;0.17868523;0.048546687;-0.06477017;-0.028549211;-0.025688149;-0.17607972;-0.07375795;0.004422005;0.08393278;-0.053402454;0.067550495;0.056137826;-0.012701864;-0.002124988;-0.0017472166;0.18479082;-0.011475274;-0.06980543;-0.097748786;-0.072661474;0.060305744;0.056163758;-0.011054346;-0.21821646;-0.032006174;-0.008611979;0.10275249;0.07936239;-0.12292667;0.1093204;0.03939837;-0.11587501;0.09270021;-0.032247256;0.028611574;0.040554818;-0.050517336;0.09924807;0.10558536;0.13145167;-0.23048434;0.046974856;-0.03245744;0.19164172;0.20094688;0.09448621;-0.09424462;-0.066756755;0.014533404;-0.23272288;0.10428267;-0.08142587;0.21293354;0.044294387;0.10636075;0.0153281735;-0.13356332;-0.10655713;0.09990514;0.119944066;0.021856487;-0.1141966;-0.012902069;-0.11498232;0.11637582;0.07529656;0.09570389;-0.10953163;-0.10312241;-0.2600337;-0.27398574;0.018397063;0.19130409;-0.13590139;-0.0779694;0.0118807955;-0.0051775984;-0.04429173;-0.064624205;0.03333996;0.07960805;-0.03809;-0.07933941;-0.013350437;-0.28843144;-0.049789306;-0.042267554;0.13063198;-0.10502517;0.05125392;0.005949133;0.017229434;-0.031127704;-0.13932577;-0.0015415554;0.20069721;0.0070824814;0.15801926;0.07751819;0.009731202;-0.19721274;0.07898305;-0.12892571;0.056387983;0.07348146;0.12437141;-0.020046841;-0.19661643;-0.029619083;0.022394842;-0.03428751;-0.03522911;-0.16796534;0.013319621;-0.03908994;-0.21650651;-0.0039034062;-0.10352954;-0.0014185869;-0.19203979;0.0039347666;-0.06668297;0.026709033;0.06476845;0.0059492225;0.045351658;0.00016116213;-0.05882892;-0.13862066;-0.104933225;0.06906877;-0.15802747;-0.047678366;-0.1046604;-0.18185502;-0.1369352;-0.16993928;-0.14616503;0.078935795;0.050314892;-0.061948914;-0.18646437;-0.1499617;-0.23150413;0.071424395;-0.07416828;0.045662094;-0.06862191;-0.01739045;0.06583003;-0.01804574;0.031235326;-0.042236038;0.123949
0.108355366;-0.21429813;-0.046717975;-0.026072828;0.07021673;-0.040989447;-0.008359442;0.12646687;0.048524685;-0.22898108;0.08543448;0.031320497;-0.18618923;0.14153914;-0.05130902;0.07189057;0.12380412;0.0005251974;0.14148885;0.040938985;0.08462981;0.15858625;-0.09644967;0.07418751;-0.01655737;0.062389404;0.08166262;-0.16577433;-0.027599145;0.051052105;0.0967697;-0.012422087;-0.044276457;0.18101539;0.119928434;-0.08598345;-0.042568684;0.022599641;-0.0010912246;0.096552886;0.078433014;-0.12530999;0.043057516;-0.06095315;-0.1130652;0.06000819;0.12283504;-0.0039406153;0.023532975;-0.016596831;-0.1247774;-0.1389913;-0.14014454;-0.01849622;0.1696225;0.043535553;-0.009548821;-0.015623678;0.096406035;-0.27800438;-0.04342723;-0.1277385;-0.07973915;-0.06742569;0.06189892;0.0949713;-0.06881052;0.10320998;-0.018607788;-0.042310733;-0.093207315;0.11921597;0.025230229;0.21408936;0.069972746;-0.0461017;0.04540895;-0.0039332444;0.03333497;-0.01913271;-0.15010497;0.009753503;-0.046633173;-0.017043633;-0.00042741263;0.099497125;-0.06592636;-0.13715452;-0.03498209;-0.0898463;0.10358949;-0.17698504;0.14280853;0.019105375;0.13754682;0.0739132;0.08508154;-0.07431287;-0.10490981;0.029181885;0.013636815;-0.0992974;0.019356152;0.12669744;0.12767081;0.15316701;-0.11058753;0.07827199;-0.0020527449;0.3071911;-0.16538832;-0.065934755;-0.17293751;-0.119828865;-0.047530748;0.032796443;0.13665543;-0.0084796995;-0.11575685;0.14840126;0.0010320207;-0.20820339;0.17413008;0.104249276;0.06421388;0.11186433;-0.09307285;-0.05608547;0.032644577;0.08841013;0.040865947;0.08760021;0.118189186;0.10938208;-0.14058518;0.014268059;-0.09114392;-0.0059260805;-0.09518291;-0.16651514;-0.07492347;-0.17649232;-0.14142899;-0.09237415;-0.093882166;0.06281046;-0.017199123;0.007424286;0.054834;0.04879379;0.0553263;0.094491936;0.10141207;0.16394472;0.2045653;-0.039991133;-0.13039699;-0.1886331;-0.07359183;-0.0757971;0.019418653;-0.023308713;0.034185953;0.11054351;0.024336182;0.0404304;-0.05559384;0.036610167;0.13708302;0.03083473;0.121472806;-0.06848392;0.0060758935;0.16393372;0.023844598;0.06640601;0.0634133;-0.026524546;0.061760087;-0.0076058023;-0.03167947;0.016766598;0.14120746;0.0504058;0.020395683;-0.07217735;0.0041767266;-0.10368419;0.086551465;-0.04953755;0.008022814;-0.0812578;-0.09897746;0.055709433;0.009530488;-0.02619175;0.038731296;0.006375192;-0.05277433;-0.06378343;0.06920039;-0.08778645;-0.028773896;-0.01961971;-0.01492598;0.014098304;0.032303855;0.12795152;0.060326494;0.07202337;0.025156297;0.01627886;0.092669636;0.048229013;0.0037146579;0.026347715;0.06958704;-0.012753232;-0.019470723;0.16799402;-0.20193957;0.0039052854;-0.010230478;0.14048418;0.004662248;0.008206804;0.050647836;0.022388317;0.014067535;0.15692045;0.040729944;0.110762894;0.026117219;-0.27264512;0.25752866;0.056474436;-0.118938416;-0.04756369;0.17813392;-0.016995035;0.07172652;0.10726285;0.16639464;-0.0019508175;0.10460769;0.114434674;-0.0013281481;-0.059449002;0.017825665;0.002179145;-0.0809616;-0.07616542;0.090131775;0.05318062;0.015417961;-0.067752816;0.11200686;-0.104458734;0.025836444;0.09367525;-0.08033938;-0.33412725;-0.12751313;-0.18671392;0.17757727;-0.1257665;-0.14933337;-0.091312915;-0.06006169;-0.17723845;0.13018276;0.16370039;-0.032364585;-0.096618555;0.060672622;0.0009769198;0.009083237;-0.16504724;0.035679583;-0.045935567;0.04709125;-0.04026101;0.054197427;0.032269448;-0.013948338;0.0636697;-0.012763673;0.055074614;-0.04480087;0.018809233;-0.25774994;0.20169322;-0.03291187;-0.08955004;-0.19670042;0.023090245;-0.013437825;0.19700116;0.08142383;-0.0037439358;0.040331878;-0.17515372;0.02200479;-0.010467182;-0.011397313;0.018726148;0.03474418;-0.08559561;0.023929877;-0.18370648;0.0888285;-0.1153401;-0.043295756;0.010050616;0.006918202;-0.10050721;0.093800105;0.0073203314;-0.089716956;0.059856575;-0.07351395;-0.093651846;-0.08318891;0.06639743;0.18430987;-0.09645539;0.049062002;-0.08459466;-0.09470859;-9.063198e-05;0.20856556;0.20695679;-0.020452606;0.024072057;-0.052458283;-0.008556329;-0.03367401;-0.08280681;-0.103049554;0.14988208;0.018989496;-0.048905358;0.00081490655;0.11178124;-0.110363066;0.008966967;-0.19159803;0.038203515;-0.050391912;-0.10666073;-0.033800166;-0.15007831;0.021383865;-0.24681365;-0.14818004;0.011605472;0.029792253;-0.026853707;-0.19640188;0.05835869;-0.12913018;0.14129034;-0.09796718;-0.0663126;0.13674892;0.058713038;-0.07352026;-0.041137885;0.09499486;-0.16813979;0.0218775;-0.07857937;0.035642177;-0.13873236;-0.15053102;-0.10604605;-0.029813707;-0.20238413;0.085117124;-0.14985538;-0.14568047;-0.056508183;0.13540794;0.09945618;0.111143015;-0.07748557;0.05172425;-0.011968135;-0.055427186;0.07766048;-0.15170667;-0.11822926;-0.08212171;-0.0039064074;0.035941437;-0.013360489;0.13674136;0.009627758;-0.002179842;-0.1591155;0.13407643;-0.07810841;0.043418765;0.021795386;-0.06235409;0.0456005;0.06586016;0.11415494;0.08847527;0.30506277;0.048544895;-0.018462563;-0.10657263;-0.32641777;-0.047890842;0.019459052;-0.09614141;0.26333994;-0.00036726735;-0.08105143;-0.07089127;0.08695855;0.048909668;0.09565345;-0.020022105;-0.053705912;-0.12683474;-0.18620344;-0.073459424;-0.15745874;0.054655124;0.054462444;0.0007534293;0.004449199;0.021759728;0.032900214;-0.052964382;0.088535465;-0.14091676;0.010691156;-0.12295886;0.0748982;0.0064536897;0.11145961;0.09670741;-0.23487492;-0.05297615;0.0947649;0.04993791;0.17132677;-0.017421613;-0.010884502;-0.016795674;0.016607856;0.13571273;-0.024024645;-0.06326571;0.046891574;-0.038124576;0.019463813;0.23662405;-0.1765449;-0.18339555;0.13455816;0.038464446;0.04647885;0.017139073;-0.04802754;-0.082411185;-0.062141515;-0.15734793;0.009338566;0.14220876;-0.09712439;0.18390198;0.23840863;0.06474366;-0.04985104;-0.08592265;-0.053891923;0.024953019;0.12625296;-0.13207628;0.008538261;0.056987975;0.022414885;-0.033109225;0.14578995;0.12549035;0.045857042;-0.047425635;-0.08728953;-0.30619118;-0.03994403;0.038880352;-0.16942547;0.043543648;0.05599141;0.1182107;-0.24233648;-0.13849267;-0.1578258;0.13817798;-0.035236206;0.03675038;-0.017711828;-0.22268046;-0.05342064;0.08644808;0.13871069;-0.08633708;0.026626049;-0.07060436;0.15897268;-0.006202585;-0.13071097;0.03156019;0.099335626;-0.011747439;0.10066569;-0.08704911;-0.100508444;-0.16461946;0.06783103;-0.18508488;0.10311664;0.12546444;0.021757204;-0.029816749;-0.07776835;-0.04044365;-0.02738487;0.094016194;0.053935442;-0.19131498;0.10482968;0.10347098;-0.05428641;-0.0786095;-0.15372147;0.08205203;-0.16511995;0.010293241;0.09275829;-0.08738528;0.012895602;-0.035670344;0.028571285;0.06531907;-0.14518201;-0.05966114;-0.15464553;0.081563406;-0.12715411;-0.20289628;0.08678899;-0.022968045;-0.016753832;-0.11069362;0.04934779;0.17015009;0.049034253;0.009405319;-0.033381358;-0.007618066;-0.245889;0.051488906;-0.16248558;0.054188322;-0.10890649;0.05526965;0.13934802;0.05004558;0.089923926;-0.06081017;0.118543476
0.06796875;-0.043514352;0.046371646;0.044120077;-0.036540084;0.08621968;-0.058593612;0.03310639;-0.053442307;-0.09949941;0.022755885;0.08358504;-0.24816442;0.10634046;-0.07714095;0.102223516;0.05458427;-0.04184509;0.15539028;-0.043914523;0.13733922;0.0067643006;0.0017002791;-0.07513928;-0.04284674;0.09781679;-0.06709927;-0.26602364;0.08490369;-0.060243055;0.09915188;0.073874354;0.01701168;0.16983208;-0.0029196246;0.018005697;-0.06427346;-0.039876755;-0.09917711;0.019372696;0.095339574;-0.026089564;-0.1432039;-0.086555526;0.03985166;-0.15495493;0.19172871;0.18141142;-0.09907334;0.06634156;-0.15144421;-0.014103801;-0.0775978;-0.04279816;0.039474566;0.044664472;0.0030387603;0.021607237;0.015511573;-0.24266134;0.050713576;-0.0077317627;0.0016487471;0.106747255;0.24042977;0.10449876;-0.13339348;0.15159196;-0.011521528;-0.08939076;-0.081705615;0.095686935;0.009755151;0.18721293;0.011726768;0.08922919;-0.06365651;0.12086576;0.26025376;0.14107059;-0.17243026;0.025661457;0.06666676;-0.13846514;-0.11760808;0.14947186;0.0023059724;-0.11288259;0.032430205;-0.025173409;0.11560575;-0.2172431;0.112987965;0.005760494;0.12235899;0.19573773;0.033953138;0.027538665;-0.19772354;0.055558056;0.08684096;0.004075961;-0.00090359524;0.10465827;0.05813215;0.13868055;-0.011719529;0.011140275;0.061599225;0.15267386;-0.31189546;0.034763727;0.021777013;0.016016318;0.0259057;0.03060885;0.0031806699;0.05059367;-0.051724665;0.110054165;-0.016621763;-0.16731812;0.15655169;0.0027711983;0.060156006;0.053433474;0.09328764;-0.058007795;0.016791714;0.00028998053;0.1079182;0.1527548;0.10636375;0.08137102;-0.13278855;-0.06951712;-0.00016884654;0.18305106;-0.21520647;-0.092019856;-0.14290722;-0.039949294;-0.034801066;-0.11567042;-0.053463224;0.02379033;0.08477255;0.059033357;0.038031843;0.08440633;-0.030623121;0.22906666;-0.044610735;0.069510065;0.1398334;0.042624425;-0.15496188;-0.12634902;-0.048112854;-0.10709243;-0.105664685;-0.0379588;-0.08008714;0.025336972;-0.009610713;0.07974981;-0.0016270184;0.10400907;0.10353391;-0.0023322026;0.18621138;-0.13436772;0.12569124;-0.0046238354;0.004761792;-0.062505215;0.005553469;-0.090489365;-0.054521177;-0.04742035;-0.0019466461;-0.13912317;0.28667694;0.11160473;-0.057844274;-0.11304591;0.13922958;-0.044494707;0.020791123;-0.08236399;-0.06166212;-0.2395059;-0.0068354164;0.019056763;-0.05626327;-0.027063202;-0.089088224;0.057675116;0.08970402;0.0752973;0.15776743;0.036768403;0.028541317;-0.068868615;0.08178946;0.12091937;0.10424139;0.043434367;0.15925984;-0.09478006;-0.09232607;-0.06514155;0.060357776;-0.09217306;-0.063888006;0.041486803;0.054421537;0.012852561;-0.038830165;0.10609007;-0.3141677;0.037916176;-0.03692157;0.084198356;0.007020169;0.12785533;0.058497008;0.07500939;0.09902237;0.19548143;-0.014848971;0.15088369;0.030056134;-0.14384185;0.28164157;0.183829;-0.0026015623;0.0631131;0.06450327;0.058730274;-0.120971896;0.14817998;0.03602472;-0.06167381;0.02412912;-0.05469521;-0.06800057;0.051793948;0.14173041;-0.08898417;0.04905037;-0.20286217;0.17361982;-0.079402156;-0.053856812;-0.05932861;0.1074764;-0.2211823;0.0015526311;0.04488712;-0.29234767;-0.20511311;-0.1317371;-0.22204266;0.15102305;-0.068475805;0.012263975;0.09857732;-0.09077308;-0.19867638;0.18350439;0.13820577;0.03038498;0.10488708;-0.06696381;-0.054143406;0.032912884;-0.012955648;-0.059099745;-0.09665169;-0.05859117;0.0048727575;0.08924754;0.059160575;0.03021622;0.019755883;-0.112460725;-0.062013928;-0.21712878;-0.016569303;-0.23230301;0.1988013;-0.09095013;-0.06565263;0.013902404;-0.09542406;0.032107055;0.25520816;0.04505333;0.00744791;0.13695936;-0.1452942;0.06499288;-0.04954589;-0.14075117;0.03437323;-0.08419273;0.044890705;0.05225247;-0.16421422;0.10292184;-0.12222112;0.048973825;0.008024159;-0.13174964;-0.11617511;0.25489315;-0.077688046;-0.25894573;-0.06529888;-0.01744764;-0.26664194;-0.0053286855;0.0070239627;0.19942436;0.028947322;0.07445514;-0.05722267;-0.030846076;0.061686102;0.06178084;0.09258376;0.039335653;0.12297258;0.0857898;-0.018915845;-0.009540598;-0.12578669;-0.10543636;0.19850914;0.05069782;0.046449374;0.14065202;0.0015828654;-0.20775959;0.0636877;-0.20066722;0.08806499;-0.009020289;-0.22995487;0.016509902;-0.092389405;0.1410264;-0.22004732;-0.16334014;-0.0033106853;-0.015268351;-0.03126963;-0.06770202;-0.13913603;-0.068205334;-0.0012839861;0.030730769;-0.23888443;0.07662892;0.08452558;-0.075540885;-0.09476119;0.091442645;-0.07290499;-0.19069916;-0.027018096;-0.09556016;-0.11080854;-0.1017904;-0.35717905;-0.047627;-0.113078706;0.14372157;-0.15196851;-0.041758765;-0.033176657;0.04598037;0.035189386;-0.06831079;-0.036451876;0.0027928532;0.002448147;0.014775911;-0.04323267;-0.02665723;0.008795333;-0.09660371;-0.014784655;0.026256608;-0.028780045;0.19686902;0.05909978;-0.0074782497;-0.1321015;-0.018399913;-0.01146512;-0.027645217;0.1040024;0.11100795;0.10861464;0.16889183;0.047015596;0.11281419;0.24011;0.07861257;-0.050850656;-0.2079959;-0.2112242;0.015973108;0.041264314;0.044939294;0.056517657;-0.0076238816;-0.16102658;-0.024105968;-0.16608182;0.016838515;0.007056246;-0.047009006;0.007342563;0.06436381;-0.17048103;-0.07880557;-0.110348806;0.09044573;0.10795481;0.039610665;-0.10205785;0.04525709;0.13745151;-0.11106174;-0.018372355;-0.119104035;-0.10618292;0.050206035;0.073450275;-0.12989677;0.018600082;0.12677467;-0.121572636;0.046041537;0.10387044;0.06549752;0.18268713;0.038723417;0.022864211;0.17193866;0.044802282;0.022152333;-0.028668536;0.028586002;0.010217882;-0.07050128;0.08453671;0.1901637;-0.07383929;-0.18113187;-0.060618274;-0.020514661;-0.0816594;0.13540687;0.16051993;0.052044705;-0.011662753;0.032417588;-0.006211621;-0.06888816;-0.070583485;0.09765548;0.12938681;0.13660571;0.03909109;-0.12553371;0.12265132;-0.010135662;0.04319284;-0.02488675;0.10998675;0.1251415;0.11311252;0.06445034;0.16716321;0.10101378;-0.0019910042;-0.064151585;-0.03211333;-0.11139992;0.033967927;-0.015734296;-0.061853677;-0.11358517;0.0041120737;0.117814004;-0.1271572;-0.08929789;-0.12791486;0.11438756;0.04646977;0.019012963;0.014765451;-0.14610092;-0.091727994;0.034402333;0.15330471;-0.10034893;-0.028158547;0.005523352;0.13996945;-0.051211253;-0.0601195;0.08380386;0.122149654;0.11906277;0.103992596;-0.10173961;0.020174572;-0.16673644;0.170328;-0.12315551;0.040335067;0.14548874;-0.048314136;0.06456943;-0.17601465;0.021878347;-0.18738429;0.054199427;0.036103696;-0.019841297;0.012237597;0.066263035;-0.0077651334;0.024211936;-0.14048624;-0.00506229;-0.02710128;-0.08307784;0.08871832;0.07030142;-0.0042971475;-0.16191973;0.05221038;0.061582714;-0.04200541;-0.1263234;-0.08846126;-0.018771177;-0.034096796;-0.117702335;-0.06648146;-0.0107042445;0.06844669;-0.024041222;-0.037087794;0.123886205;-0.1937982;-0.05860995;-0.06409409;0.11565838;-0.111890845;0.13689609;-0.06991974;0.14324017;-0.14586261;0.006005905;0.14663114;-0.08386499;0.099596456;-0.18541402;-0.020739255
0.046246585;-0.08477165;-0.05089374;0.047574714;0.037811212;0.024358476;0.05088769;0.0037278077;-0.0664064;-0.19525123;0.06387072;0.07815972;-0.26275352;0.026529048;-0.057541247;0.06882761;0.0051791123;0.001507804;0.085622616;-0.036093038;0.11359041;0.052821077;-0.08795733;-0.06123618;-0.098912515;0.013616866;0.050763175;-0.222835;0.05565657;0.056158617;0.16001399;-0.01756639;0.0036808306;0.24659073;0.11495667;0.06688842;-0.05254306;-0.09687314;-0.10466606;0.22422732;0.1325629;0.053710185;0.031687036;0.06461294;0.09474998;-0.2089258;0.15373309;0.055768393;0.08640121;0.04020814;-0.07792231;0.057854924;-0.031100646;-0.16778482;0.07201151;0.009116978;0.04722687;-0.13320091;0.13871318;-0.18532068;-0.044574987;0.10772785;0.05623751;0.050542995;0.18193556;0.04314507;-0.01309778;0.038199373;0.10630069;-0.10392559;0.01692015;0.0124697825;0.104255676;0.23045374;-0.051623106;-0.096488245;-0.056674734;-0.022463838;0.19818978;0.13778694;-0.031604595;0.0555681;0.03193997;-0.07034053;-0.0786624;0.13340159;-0.1444421;-0.08130252;0.013008035;-0.039054096;-0.026002882;-0.20117745;0.22141255;0.1436061;0.07552726;-0.017122086;0.11884886;-0.19180484;-0.10300772;-0.107747264;0.070707254;-0.04300725;0.1229839;0.06769305;0.16937856;-0.08517068;0.045155857;0.027922861;0.09530959;0.24620806;-0.2786391;-0.055529095;-0.004723787;0.035480283;-0.011269636;0.08409328;0.0035612003;0.06381658;-0.21380424;0.08004466;-0.072369106;-0.27647397;0.12191645;0.09153105;0.16230848;-0.05612622;0.02066315;-0.053483445;0.08312954;-0.028565971;0.06559539;0.04556969;0.1724177;0.11029068;-0.11280219;-0.012616602;-0.10881197;0.057064805;-0.08192298;-0.29689208;-0.12641907;-0.0005888302;0.046519414;-0.11252894;-0.06948699;0.13639572;0.11148067;0.13255832;0.020786818;-0.07244004;0.054144092;0.077278435;-0.054902565;0.036008216;0.14457084;-0.030534845;-0.057939317;-0.05608143;-0.19207984;-0.020146545;-0.06100063;-0.13077466;0.024996407;0.08642618;0.14038137;0.07924604;-0.0140066;-0.04962615;0.004326789;-0.103182785;0.1324904;-0.07294137;0.04615889;0.07278905;-0.029436722;-0.08614837;0.061283987;-0.026746197;-0.07562811;0.008209752;0.09658587;-0.1160895;0.34735215;-0.11074715;0.061401032;-0.09974715;0.1752192;-0.12052597;-0.04613766;-0.07092614;-0.20362046;-0.17452657;-0.09231842;-0.0024878222;0.039368965;-0.009315703;-0.13671948;-0.070990756;0.027611014;0.14230601;0.032896094;0.023252841;-0.046335094;-0.20686767;0.13238756;0.0033788243;0.0074356305;0.1693006;0.029604103;-0.042912565;0.05473512;0.10771397;-0.0152298175;0.026983222;-0.08903644;0.04263208;-0.011974313;-0.0922904;0.010690566;0.10495676;-0.085088305;0.07135644;0.018455727;0.10830584;0.095896095;0.12808672;-0.021303134;0.16701102;-0.04483971;0.012017221;-0.0014249422;-0.04962623;-0.13176118;0.09669614;0.19369346;0.20350873;-0.1089244;0.026965853;0.14408666;0.03839942;0.0852219;0.035713095;-0.19512127;0.018365985;0.0031559884;0.07640596;-0.055134982;-0.0748255;0.10621884;-0.015159051;-0.07564926;-0.0748398;0.0234676;0.06257;-0.08487566;-0.1683167;-0.06044169;-0.16725102;0.021135654;0.14459863;-0.19834928;-0.18170434;-0.011953246;-0.43311054;0.3372454;-0.10633554;0.044245172;0.065627724;0.07683399;-0.12051431;0.14120471;-0.0072605396;-0.008318537;0.17302345;-0.013258319;0.043546915;-0.0056879944;-0.016596198;0.057938866;-0.07023737;0.027293053;-0.035491787;0.05121932;-0.01820614;-0.03572755;0.04266458;-0.1015221;0.027287884;-0.19151126;-0.08677804;-0.111684754;0.1678762;-0.12046343;-0.13596104;0.047989354;0.10080536;0.074008636;0.12095596;0.010078991;0.12079464;0.11834222;-0.07009678;0.10090093;-0.048885383;0.0123008285;-0.018037533;-0.0026696722;-0.13620946;0.032163627;0.13017279;-0.045455202;0.06934332;0.049185652;-0.17372808;-0.116414055;-0.079046614;-0.05654433;0.16500272;-0.18150231;0.033606507;-0.11980239;-0.17390737;-0.00284085;-0.0417572;0.25407833;-0.07508064;-0.25760248;-0.15524445;0.06752734;-0.09147353;0.1541164;0.069168776;0.037119485;0.036000617;-0.023017736;-0.14667308;-0.012509873;-0.05874542;-0.08206325;0.12404084;0.0416779;-0.16379467;-0.08263989;0.03644012;0.021303106;-0.07426154;-0.22558686;-0.12609945;0.022495672;-0.14947186;-0.074309714;-0.24444406;0.13457252;-0.1643611;0.025483647;-0.023759209;-0.04329073;-0.111475796;-0.013620523;-0.14447938;-0.13754497;0.08055156;0.03283574;-0.10896003;0.022532364;-0.037458036;-0.117942885;0.0077101393;0.10407256;-0.047570385;-0.13489439;-0.093275174;-0.040075995;0.041188966;-0.07002575;-0.20257579;-0.07840492;-0.103170455;0.050051905;-0.12035683;-0.1442495;-0.039819676;0.08587517;-0.060040686;0.09544309;-0.0062970184;-0.036566567;0.091796696;-0.049941197;-0.19887064;-0.07248236;-0.013216116;-0.020340212;-0.10822908;0.011353105;-0.0013591386;0.12172202;0.068365104;0.038229816;0.12618731;-0.0073282975;-0.14804348;-0.08147896;0.12871666;-0.010400251;0.14838302;0.046644554;0.23628098;-0.16708346;-0.0601142;0.047600135;-0.13337497;-0.093865365;-0.22701955;0.111499034;0.12413346;-0.11053177;0.110900916;-0.14854035;0.002429472;0.076303944;-0.008446424;-0.16170119;-0.043216646;0.08715023;-0.05413124;0.14802705;-0.12941977;-0.0031919358;-0.020282414;0.08261255;-0.036593977;-0.052861728;-0.047209222;-0.039085444;0.22471404;-0.100867376;0.12985079;-0.07860757;-0.016734712;0.0028758592;0.07836766;-0.06905143;-0.19936854;0.066681236;-0.057787385;0.11336549;0.13756539;-0.038092267;0.18466072;0.07182231;0.15660657;-0.0385277;0.0065784566;-0.029933648;-0.1160166;0.007438422;-0.02308147;-0.13816343;-0.09156848;0.15135032;-0.18112032;-0.0302173;-0.07250149;0.100451;-0.18592346;0.2257671;0.12514596;0.07640383;0.024624307;-0.061268058;0.04354735;0.06390123;-0.16023934;0.15486534;0.039053965;0.1503346;-0.08691885;-0.12700471;-0.0565637;0.03183964;0.023273649;-0.16884008;0.023009242;0.05235496;0.0017343138;0.025765471;0.09329898;0.10949643;-0.01387213;-0.046966337;-0.08644187;-0.1942934;-0.18168035;0.12800993;-0.1055345;0.03427246;0.06846373;0.045176595;-0.16250773;-0.15835513;-0.15239507;0.07131878;-0.0784678;0.008884474;0.02378963;-0.12118549;-0.09739511;0.023325535;0.23463753;-0.09177898;0.10932875;-0.047887515;0.065475576;-0.12816307;-0.17540705;0.22426097;0.1798867;0.18010943;0.07823967;0.0128579;-0.0006864941;-0.16903655;0.080130085;0.013423943;-0.050747205;0.061870333;0.03423844;0.079675555;-0.18041314;-0.09078966;-0.11803022;-0.02078012;-0.086661294;-0.19175595;-0.01014569;0.08027096;-0.029927205;0.01701758;-0.18094504;-0.025250401;-0.032942183;0.013922244;0.11906002;0.050528668;0.043486234;-0.09945265;0.09636249;0.012766375;-0.17444852;-0.0898469;-0.014741661;-0.104444824;0.090878725;-0.20173712;-0.004764122;-0.16560268;-0.103249475;-0.11816212;-0.15731095;0.22457638;-0.18568027;-0.026481152;0.07411345;0.025714712;-0.1459867;0.08332969;-0.096967444;-0.0029207466;-0.05054591;0.060478017;-0.06949983;-0.078077845;-0.0940918;-0.13543397;-0.05622188
0.05617625;0.016488029;0.029475313;-0.029342668;-0.1686396;0.0066876854;-0.016855083;-0.04305064;-0.018851893;-0.14052977;0.05553873;0.14487013;-0.2981646;0.115158826;0.018535184;-0.103329405;0.011837375;0.034650795;0.1967245;0.001559777;0.24676034;0.019766314;-0.048333928;-0.022097703;-0.03853546;0.075198926;-0.011393844;-0.11028722;0.051616784;0.059104383;0.1312631;-0.051152725;-0.10605285;0.24227948;0.12697469;0.058003586;0.03515925;-0.121799864;-0.2055314;0.23557316;0.044510122;0.057855096;-0.070500724;0.07477895;0.13637716;-0.1579661;0.2674256;0.0037520272;-0.016697206;0.05549979;0.08431831;0.004107815;-0.018669825;-0.01876756;-0.08113532;0.16488636;0.012901467;-0.023956524;0.12910354;-0.08337532;0.094394386;0.10593725;0.048793443;0.02535548;0.1604395;0.03327772;-0.09752735;-0.1587797;0.060741812;0.033008236;-0.015971808;-0.07845354;0.1663387;0.11346295;0.08748165;0.075688906;-0.04202966;-0.0020854608;0.20688373;0.15564948;-0.03242409;0.16124561;-0.058898233;0.049720682;-0.0037359823;0.03866345;-0.11554771;-0.1504818;-0.0078105642;0.0033500283;-0.057294957;-0.17259958;0.1537014;0.1073418;-0.024002643;0.013597789;-0.027938886;-0.16709118;-0.11869011;-0.079408415;-0.07498474;-0.10992862;0.0019832237;0.089337155;0.22755295;0.08576859;0.008995324;0.044792503;-0.022660688;0.2134024;-0.2388623;0.07364434;0.07764556;0.07362099;0.0481354;0.05363267;-0.057403553;0.019089168;-0.19572258;0.10712157;-0.045590796;-0.15286055;0.24648307;0.012619229;0.19879046;-0.045204513;-0.011465168;-0.09434746;0.049999654;0.025482107;0.19041531;0.17269087;0.11581784;0.013845692;-0.24479893;0.116645254;-0.011794928;-0.065815486;0.091109976;-0.074602224;-0.32223162;0.05205551;-0.021233952;-0.1183131;0.03844549;0.12138383;0.055339828;0.047231063;0.10878346;-0.06542769;0.006788839;0.033034265;-0.0609391;0.13572778;-0.041776676;-0.003452766;0.024432389;0.01035768;-0.17177428;-0.02290172;-0.08839863;-0.15869479;0.10492801;0.15299106;0.042854715;-0.013455331;-0.09930838;0.026984058;0.114572644;0.028339034;0.22524555;-0.101370834;-0.009777263;-0.053836342;0.085775055;-0.01866947;0.062054627;0.02112631;-0.13454454;-0.030062191;0.067927934;-0.08979127;0.2938711;-0.09484742;-0.0020018432;-0.046308294;0.23205334;0.031056417;-0.000118335556;-0.030073445;-0.2265414;-0.12630317;-0.031926136;-0.19807996;0.14866357;-1.7364109e-06;-0.17910701;0.047185816;0.11239578;0.08877842;0.06721604;-0.06793756;0.041066077;-0.25486383;0.023470055;-0.0222964;0.04152727;0.12349446;0.052070074;0.08931957;-0.06872836;0.011931593;0.01523172;0.12993388;0.011976343;0.038563684;0.009966689;-0.057750814;-0.12655886;0.01304533;0.054143514;-0.06387132;0.1624312;-0.11783686;0.07261526;0.046542678;0.038900677;0.056482118;-0.13458891;-0.06594912;-0.0018826814;-0.050982203;-0.09404835;0.063056186;0.20613307;0.1723095;-0.0046481397;-0.050123684;0.12306663;0.044343974;0.008199111;-0.062322285;-0.0914815;0.014182704;-0.03176366;0.17587577;0.11506723;-0.074503876;0.07953249;-0.18476029;-0.03560405;-0.08903339;0.020447208;-0.012378691;0.020319842;-0.0022001595;-0.089359544;-0.18414794;0.072461054;0.17347202;-0.2752247;-0.14798437;-0.12350526;-0.30891407;0.21303429;-0.11282593;0.08698698;0.084277995;-0.1148539;-0.23861295;0.08122011;-0.0059805247;-0.06682076;0.117729224;0.077723034;0.07276374;-0.12604289;-0.034037173;-0.06830272;-0.10078175;0.037899267;0.062466387;-0.05568393;-0.08798445;-0.064163536;0.115699075;-0.009426675;-0.041367795;-0.22708833;-0.097262695;0.08149445;0.06730962;-0.043882545;0.033292867;0.023429604;0.03207237;0.08951273;0.14109461;0.1267205;0.18308093;0.029428348;0.010801637;0.022219772;0.027074086;0.11969289;-0.095121965;8.803862e-05;-0.04944678;0.031167565;0.17231332;0.04805451;0.061726112;-0.007037235;-0.21334513;-0.16590647;-0.019641697;-0.115123205;0.055833045;-0.038449816;0.094588794;-0.05063752;-0.12961106;-0.08160435;-0.043889888;0.16129759;-0.09025834;-0.22053266;-0.123083085;0.10019443;-0.08482154;0.06263372;0.08471773;-0.06829662;0.10796715;0.2140429;-0.11519435;-0.026772523;0.12655559;0.025936244;0.047959916;0.07774493;-0.2147069;-0.14396697;0.046931904;-0.11086832;-0.0807042;-0.08266024;0.024408847;0.00020918944;-0.11537205;-0.18262395;-0.20336567;0.08342558;-0.063599795;-0.063650206;0.18528019;-0.063348874;-0.019265108;-0.042014923;-0.047381267;0.011604543;-0.021619301;0.12218461;-0.07228078;0.037488896;0.04442081;0.027434086;0.058107413;0.099775836;-0.14387044;-0.046559155;-0.20006646;0.13968578;0.0044504753;-0.11191879;-0.22449602;-0.06897524;-0.12594834;0.016952312;-0.064992614;-0.058761593;-0.021061154;-0.07546092;0.118702956;-0.03399993;-0.048538603;0.051094856;0.07724809;-0.18474144;-0.032570545;0.007404763;-0.094207674;0.07776383;0.03343667;-0.05433438;-0.09735646;0.02261022;-0.051399067;0.12667368;0.1286535;0.04456391;-0.12858707;-0.11500794;0.13785946;0.015054159;0.23423292;-0.020820443;0.17176807;-0.09944331;-0.00058671465;0.11056313;-0.023819733;-0.21669172;-0.22251889;0.0010439144;0.0838963;0.086724885;-0.046486825;-0.1749248;0.13391495;0.27109823;-0.08112482;-0.21673119;0.021964613;0.07216094;-0.05880593;0.04351023;-0.10572359;-0.095870584;0.053214323;0.001516958;-0.02339076;0.054902297;0.02969618;-0.088734254;0.17428002;-0.0848915;0.25128657;-0.024254091;-0.008122763;0.01919007;0.039679654;-0.072169825;-0.2780901;-0.03357484;0.01260323;0.08217944;-0.02209295;-0.03480317;0.049036626;0.018569691;0.1312935;-0.13192932;0.014382083;-0.11270643;-0.050472334;0.08262922;0.09059419;-0.1944777;-0.17366855;0.13135621;-0.17653199;0.046492927;-0.10875235;0.075485356;-0.12258199;0.20239046;0.16136101;0.140021;-0.017691081;-0.08457067;-0.0108270515;-0.009521831;-0.057199493;0.19326034;0.13666612;0.16703926;0.038172867;-0.33434623;-0.060694892;0.09974046;-0.038604707;-0.19671384;-0.019691966;-0.16517027;0.10010816;0.0040774005;0.026665116;0.106808916;0.056998454;-0.05237656;-0.120329216;-0.05129713;-0.03658053;0.064711414;-0.07804944;0.01885211;-0.035567645;0.096208386;-0.12903114;-0.15150014;-0.10109709;-0.17479636;-0.14438573;-0.0069764303;-0.02609202;-0.15846466;0.023150558;0.08707604;0.22860827;-0.08760468;-0.028986301;-0.08264266;-0.06410624;-0.13360329;-0.09487106;0.10194835;0.1856349;0.18892755;-0.013557342;0.06280855;0.11144723;-0.050359957;0.16296655;-0.09321241;0.067003235;0.102935456;-0.124474175;-0.077228695;-0.2251744;-0.033906136;-0.08576395;0.06446292;0.01032666;-0.11784136;-0.029810056;0.056165863;-0.013646562;0.015399685;-0.04622819;0.07911612;-0.072890535;0.17995481;0.22065079;0.014751827;0.026419384;-0.05925522;0.19432327;-0.0074103624;-0.1078741;0.047965694;-0.074487306;-0.07482941;0.10163827;-0.15737458;0.038891323;-0.28225383;-0.079118185;-0.03563877;-0.03760807;0.39333305;-0.15216523;-0.081096545;0.033729706;-0.025004143;-0.16083029;0.18800452;-0.019410096;0.08464265;-0.065400645;0.026959915;0.065670624;-0.09162361;-0.09504501;-0.15963607;-0.014952182
-0.079080194;-0.0368496;-0.066597395;0.07108668;-0.08161498;-0.017673519;-0.03730052;-0.10513907;-0.0909034;-0.30471742;0.14104913;0.16475539;-0.34807953;0.118044384;-0.23170173;0.08059549;-0.0021617317;-0.082642965;0.060517866;-0.07464472;-0.041524123;-0.07611214;0.064163856;0.010897667;0.032579415;0.07229;0.110800356;-0.12511164;-0.11141471;0.020429373;-0.091782935;-0.16643822;-0.17291409;0.218888;-0.008956642;-0.07916023;0.073656194;0.061509565;-0.028236067;0.14740062;0.22463721;0.070261694;0.03225549;0.108597726;-0.02683073;-0.06451265;0.04133778;0.030455513;-0.03242403;0.17293343;-0.0988763;0.06539171;-0.17713195;-0.28701603;-0.053101193;0.034989677;0.1425219;-0.07621153;-0.13706778;0.0048149596;0.015181916;0.06137901;-0.008305899;-0.09161241;0.11634295;0.07644976;0.006573713;-0.14984193;0.09792957;-0.07676113;-0.0026426131;0.13600163;0.04067659;0.0933555;0.029590348;0.085718386;-0.019622527;0.08799829;0.08665639;0.14244562;0.0108783655;-0.007625079;-0.080016315;0.0099356845;-0.14430374;0.16689569;0.011458124;-0.12941048;0.098260716;0.051115066;0.07886454;-0.15856655;0.09631061;0.08229889;-0.14629716;0.14458536;0.24269456;-0.07227596;-0.08555488;-0.059917606;-0.025859201;-0.124984436;0.12919639;-0.05434323;-0.016167466;-0.028765386;0.017793018;-0.102622926;0.05881802;0.11672215;-0.03286027;0.040591054;-0.10190108;-0.0068480824;0.1448315;0.0017359687;-0.044196486;-0.020403776;-0.13848399;0.04050462;-0.09331279;-0.09962441;0.057996824;0.03401854;0.18947612;-0.0519252;0.07142952;-0.22014298;-0.08810992;0.07994642;0.13911591;0.21669945;0.21415886;0.05800037;-0.08926668;0.11623632;-0.26648533;-0.000843919;-0.0057336194;0.051563457;0.04783878;0.080111906;0.0029414755;-0.12391132;0.024892287;0.023834731;-0.058785114;-0.07745489;0.08267009;0.09063499;-0.07179396;-0.069663934;0.03653016;0.11532255;0.011770082;-0.07601813;0.15136008;-0.075124115;0.011668827;-0.16388649;-0.004500161;0.031614855;0.023870397;0.10803103;0.11600698;0.052340347;-0.128534;0.18067099;0.16167742;-0.23523267;0.10501061;-0.19891025;-0.010606822;0.03627004;-0.034223437;-0.0309573;-0.014076443;0.024327178;-0.049700253;0.030292556;-0.2694774;-0.14044195;0.27406326;-0.019787204;-0.09322086;0.034887273;0.07274885;-0.12684488;-0.14442031;0.02227465;-0.22874679;-0.118992;0.045675017;-0.23841274;0.04346189;0.022977674;-0.10701102;0.063072346;-0.09659285;-0.0061930227;-0.01688689;0.030032365;0.046143822;-0.063612655;0.010304998;0.16018386;0.046134416;0.040181886;-0.031735394;-0.14769709;-0.056875158;-0.0066582602;0.061092377;-0.050801314;0.005620477;0.11521265;0.04798135;-0.18832673;0.0030525383;-0.0946605;-0.049538165;-0.095090784;0.12132615;0.20579092;-0.08839947;-0.070282504;0.070940636;-0.07712603;-0.20180193;0.115905516;0.1597024;0.05097701;-0.013516591;0.09651693;0.0076133856;0.11090474;-0.009398063;-0.06487961;0.06607625;-0.08049818;-0.02724412;-0.12151404;-0.08331855;0.006708335;-0.07455585;0.14558563;0.20363839;-0.052968726;0.017703213;-0.11836208;-0.10345147;-0.15420577;-0.028104294;-0.03545764;0.26653507;-0.11288678;0.0023879174;-0.29641348;0.15239312;-0.022350086;-0.06332417;-0.0014068494;-0.11056357;-0.22037315;0.095147975;-0.12408412;0.15449086;0.2889749;0.004954036;-0.13252161;0.09347539;0.027836153;0.03844779;0.0746316;0.02654118;0.1314621;-0.118936695;-0.271978;0.0070262933;-0.14093186;0.054957256;-0.15479302;0.057419926;0.09858164;0.006518014;0.10551239;-0.018366005;-0.08445542;-0.12083399;0.040188145;-0.09968499;0.018941272;-0.16208343;-0.043630317;0.037756912;-0.07177225;0.0513794;0.2102886;0.16558206;0.034779508;0.06633617;0.06559562;0.1259813;0.03839344;-0.045223814;0.059299324;-0.19109799;0.035519756;-0.053415563;0.121970125;0.15168665;-0.0635284;-0.10590217;0.08350537;-0.07303748;-0.13235265;-0.11641908;0.123465486;-0.07853857;0.2523187;-0.20490654;-0.11438507;-0.044647887;0.02722594;0.20210834;0.0019243512;-0.08177613;-0.0601696;0.06439033;-0.031000681;-0.0004382701;0.10015053;0.057972685;0.11409353;0.031839956;0.08330357;-0.18932006;0.09009686;-0.06616384;-0.028509486;0.01734744;-0.14850499;-0.061891235;0.028394807;-0.14177714;-0.02921832;-0.14578304;-0.029652137;0.007932594;-0.13693182;-0.084091015;-0.14724249;0.051754516;0.040722474;-0.22118086;-0.014459799;-0.031175973;0.052589994;0.0747492;0.058273826;-0.057525836;-0.08445487;0.16192012;-0.12245465;0.0566142;-0.040860064;-0.13729437;0.0673339;-0.09827315;0.0059242663;-0.22225413;-0.020662298;0.22635214;-0.011955785;-0.08543052;-0.31354702;-0.15261726;-0.0698647;0.12695812;0.0032529996;-0.15407845;-0.06780246;-0.046383098;0.1157782;-0.08951753;0.025213279;-0.02629366;-0.066096455;0.04483225;-0.040939033;-0.016861413;0.10228671;0.035848767;-0.015233274;-0.0698728;0.06939019;0.074024014;-0.06568024;0.14254995;0.15395312;0.017619643;-0.028911168;-0.12689288;0.1340816;0.13774057;0.056178138;0.065796174;0.039859094;-0.05058157;0.16909812;0.20042686;-0.06632089;-0.1652442;-0.1447189;0.09732923;0.15632549;0.04207719;-0.17216417;0.05462431;0.11500288;-0.09897276;-0.20710576;-0.17895271;-0.049599946;-0.031937778;0.0019233197;0.018308815;-0.21181874;-0.08242172;0.06655309;-0.1286595;-0.07500662;0.15817182;-0.020579591;0.048005722;0.029280577;-0.08046416;0.19567175;-0.16373824;0.06398155;0.0058212024;-0.022142364;-0.06809259;-0.16073589;0.22887084;-0.009555747;-0.015125404;0.10884388;0.068492465;-0.011832062;0.09279042;0.072565384;0.052431036;-0.09797778;0.11026637;-0.00993408;0.13677903;-0.08166913;-0.12540884;-0.0991869;0.1372732;0.0021701453;0.06984124;-0.013433195;0.07818962;-0.049542263;0.01806759;0.124171905;0.07873193;-0.07273055;-0.042776644;0.104395986;-0.13966171;0.015464308;0.0189197;0.08865431;0.062153902;-0.022307115;-0.23788671;0.030632796;-0.029975418;-0.062845945;-0.16183443;-0.022693768;0.12990835;0.14002216;-0.1473512;0.11581752;0.10415196;-0.00083972735;0.036495257;0.107530974;-0.12156456;-0.06800934;-0.07417225;-0.0026947295;-0.07936937;0.08236579;-0.010916147;-0.11695646;0.035760142;-0.089627504;0.028759172;-0.2111158;0.020560253;-0.13381569;-0.105619974;0.060600653;0.025004817;0.0068544704;-0.00027883003;-0.05612576;-0.0011805827;0.007699309;-0.12864223;0.05766078;-0.0729504;0.059589837;0.22661997;0.036779325;0.16969018;-0.020150678;-0.17435542;-0.081905834;-0.05174746;0.011752462;0.04349301;-0.018265992;-0.028662445;-0.046727583;-0.10239787;0.00058910955;-0.00012590352;0.053052384;0.06427714;-0.054505706;-0.019393519;-0.04572238;0.021517314;0.12305896;0.12383395;0.023515237;0.056153238;0.025030525;0.087633334;-0.138352;0.07090233;0.16362198;0.10102068;-0.20363277;0.066076495;0.094709635;-0.16196832;0.12392664;-0.1864668;0.035423677;-0.13803908;0.027658386;0.09700741;0.062844455;0.21849301;0.038227633;0.03153858;-0.10586813;0.11982834;-0.05396176;0.13665506;-0.11471042;0.113864;0.001446312;0.047137912;0.04117353;-0.22658722;-0.009585032;-0.20010574;-0.054291453
-0.055798;-0.094389215;-0.14387201;-0.0872033;-0.16007784;0.11929859;-0.12728287;-0.041588876;-0.011017907;-0.10656929;0.14766544;0.0076576103;-0.2862919;0.058017276;-0.16899823;-0.0067297826;0.114155225;-0.14680156;0.085046835;-0.023088668;0.019240223;-0.03911293;0.16293986;0.023877446;-0.011571536;0.078349136;0.047405005;-0.22603582;-0.12870455;0.071821325;0.006283061;-0.15569782;-0.062427074;0.10586677;0.02640558;0.012779205;-0.0012508347;-0.16936803;0.025292529;0.09828181;0.21406588;-0.055316474;-0.09497734;0.03472979;0.017115356;-0.12625423;0.05309876;0.052052543;-0.05417194;0.013009172;-0.08212813;-0.0092034675;-0.050858885;-0.11116944;-0.10334003;0.023789756;-0.06509727;-0.10062164;0.035188623;-0.045493286;-0.01591885;-0.029725868;0.07623377;0.004738209;-0.0006304701;0.09759399;0.05817218;-0.07923812;0.24393205;0.07126839;0.03327035;0.0061676013;-0.04373426;0.14223352;-0.09296549;-0.0076967003;-0.0011420249;-0.100075565;-0.02492766;0.13659368;-0.09834799;-0.11674104;-0.11766346;-0.08556227;0.008579911;0.113286115;-0.051249325;-0.03491093;-0.010654403;0.0039972295;-0.010833028;0.024611497;-0.00819496;-0.052235793;0.007602907;0.32442948;0.09468628;0.056075554;-0.14066929;-0.17284451;0.06871746;-0.041517776;0.014483082;0.002045117;-0.032961205;0.02918991;-0.036660675;0.012191442;0.059819363;0.092869245;0.008084331;0.11086488;0.06757471;-0.012908976;0.07679424;0.042346828;-0.024886347;-0.025938652;-0.20338947;0.15895697;-0.022814287;-0.0039470196;0.20496346;0.09644299;0.060262717;-0.04170378;0.07784352;-0.22364058;-0.019573525;-0.022976004;0.05638343;0.07536174;0.22240421;-0.033558708;-0.019879082;0.01892556;-0.17153057;-0.08017274;-0.06742666;0.11738094;-0.13590659;0.021389311;0.0682274;0.12627326;0.08232876;0.032484774;0.079354025;-0.029600836;0.110678874;0.06340725;-0.04002812;0.102392405;0.09280916;0.08798795;-0.105859876;0.008922919;0.10445419;-0.103502646;0.0036321487;-0.14125372;0.12156679;0.0034841828;0.0037316415;0.19565514;0.083839916;-0.047351215;-0.19483782;0.096555196;0.04187188;-0.30417177;-0.01173401;-0.085325554;0.10226916;0.08490172;-0.04151154;0.038514454;0.062622145;0.035716377;-0.063019276;0.06501177;-0.1611475;-0.13967614;0.087180726;-0.016590549;0.010820278;0.13811086;-0.020923058;0.036059357;-0.14911747;0.122270085;-0.30286676;-0.18696545;-0.046654478;-0.15696213;0.053638157;-0.038140602;-0.12982173;0.20087819;-0.054275565;0.015349526;-0.023811154;-0.13980408;-0.20102432;0.04450414;-0.015223344;0.023896275;0.059164215;0.13278197;0.038367663;-0.08814207;-0.015887283;-0.12756094;-0.03775954;0.14593157;0.17705034;-0.03251157;0.14341456;-0.10861315;-0.035907153;-0.09500163;-0.02455672;0.067611486;0.14389148;0.14190182;0.01904853;-0.07006333;-0.016207034;-0.062601626;-0.08036492;0.17744406;0.017241765;0.002116215;-0.0678738;0.106187634;0.10762869;0.101169765;0.11727604;0.02690366;0.018424254;-0.10105323;-0.039688576;-0.13618304;0.031188535;-0.016569927;-0.017841935;0.2326377;0.17513213;0.026569791;-0.073060974;-0.14551562;-0.046034142;0.03156024;-0.062000655;-0.12023871;0.2551862;-0.1129455;0.0113433525;-0.22223409;0.075809024;-0.06386551;-0.20549889;-0.18751137;-0.104526535;-0.15030709;0.08651499;-0.03709854;0.09850882;0.16830808;0.0012281801;-0.028068356;0.034229126;-0.07695502;0.1362674;0.09413163;-0.05643674;-0.008820409;0.006261379;-0.0015635674;-0.035388883;-0.0027543262;0.02044641;0.011718137;-0.0060219583;0.19522941;0.015587947;-0.031382564;-0.05902306;-0.13527873;-0.13462122;-0.075515285;-0.048729714;0.07467568;-0.11583809;-0.12878014;0.035199083;-0.05896168;0.08750595;0.120866835;0.065908365;0.109878466;0.055449985;0.09999641;0.090890296;0.022698771;-0.018682748;0.12201475;-0.07367121;0.021315275;-0.106529325;0.019603506;-0.018490313;-0.08949648;0.064098425;0.08388291;-0.1907364;-0.0862903;-0.083682686;0.12602286;-0.06440461;0.17658377;-0.16876908;-0.2492622;-0.1030944;0.06643583;0.09307555;-0.037462622;-0.12249498;-0.0005580702;0.06510145;0.1862818;-0.24748865;0.15338317;-0.06731062;0.025381995;-0.12706499;-0.11807419;-0.14073287;-0.013972145;-0.14610092;0.0230227;-0.007038231;-0.11332655;-0.1527818;0.06034262;-0.15396346;0.08537879;-0.09243215;0.0037103533;-0.12044761;-0.008529888;-0.047668815;-0.14318444;-0.06465608;0.042928394;-0.11575234;0.15231432;0.034841314;0.15013221;-0.040530894;0.056130365;-0.15023936;-0.10184509;0.12310504;-0.037352577;0.046786148;0.10880872;0.034600526;-0.126782;-0.21937834;-0.11519665;-0.13959135;0.032770246;-0.031243086;-0.026828945;-0.076519005;-0.46749985;-0.013365847;0.12294778;0.12401546;-0.037741333;-0.10539936;-0.087650396;-0.031160492;0.16384745;-0.21365853;0.018719941;-0.09668532;-0.19236642;-0.02423835;-0.06650577;-0.022502737;0.06019693;0.041795406;-0.032814786;-0.12751235;-0.0635957;-0.06291214;-0.13060215;-0.0027542796;-0.0007419589;-0.09691482;0.04999806;-0.069871426;0.067964815;0.16610357;0.044618912;0.094053164;0.048510257;-0.029005451;0.03296131;0.16119517;-0.009349139;-0.12447395;-0.10439474;0.06910045;0.02062662;0.0034341034;-0.20684516;0.059517015;-0.06298104;0.008926715;-0.19909169;-0.011640372;-0.12958828;-0.08503984;0.0019136177;0.059518084;-0.22089237;-0.016600046;-0.061969295;-0.0010949988;-0.15180802;0.24483775;0.00666244;-0.07013174;0.024546884;0.009754031;0.10347247;-0.10311984;-0.024244929;-0.034300182;-0.035802543;-0.175718;-0.083027706;0.16780375;0.11396426;0.028376285;0.06620399;0.083372734;0.0014183858;0.124048665;0.031782355;0.04796618;-0.0077298805;-0.031904526;0.0067811497;0.023856075;0.08804812;0.0447697;-0.19502774;0.15497173;-0.06047071;0.0026243273;-0.075375415;0.12872009;-0.13244496;0.03142719;0.18477748;-0.06261481;0.08171514;-0.0056877974;-0.025435658;-0.26889732;-0.015876884;-0.0012621094;0.015630528;0.14864714;0.05147748;-0.21558034;0.014549138;0.0047109835;-0.04171039;-0.1670211;0.14714046;0.047031276;0.1726391;-0.16837507;-0.017953778;0.020280117;0.120820835;0.12580627;0.04395354;-0.12544896;0.02846573;0.023602467;-0.047273893;-0.089239456;0.0059668887;-0.0033767752;-0.11257358;-0.033804365;-0.01697899;0.15744127;-0.15227334;0.0775436;-0.048796494;-0.11101193;0.12484309;-0.058950074;-0.094560325;-0.15488638;-0.13285692;0.012336868;-0.0073332367;-0.011652936;-0.05951164;-0.007371257;0.074020654;0.21344909;0.03490382;-0.06163845;0.04798995;-0.2485448;-0.033726357;-0.18146159;0.051430717;-0.07592745;-0.14227684;-0.16249044;-0.020518646;0.040323857;0.016615173;0.16274685;0.012893683;-0.045800842;0.060193755;0.017323706;0.14493172;0.011574347;0.12303307;0.13414623;-0.03609885;0.118501045;-0.027787836;0.17762624;-0.1299461;0.0072279167;0.05401764;0.14312945;-0.07549741;0.026005814;0.062337;-0.031244177;0.05479449;0.044520132;-0.11611704;-0.09524913;0.044082962;0.058161613;-0.025473105;0.2180253;-0.049157362;-0.03104206;0.007097879;-0.015998328;-0.07003813;0.021156348;-0.16924044;-0.057549678;-0.04517489;-0.044241816;0.027212651;-0.252554;-0.09287133;-0.10607545;-0.15241545
-0.108207814;-0.038691048;0.026388783;-0.04104535;-0.011661569;-0.011819565;-0.01538169;0.14831024;0.13503529;0.041660227;0.21265543;0.13575041;-0.26451537;0.093144566;-0.005296631;0.045362115;0.05037997;-0.0800285;0.1613485;-0.12696542;0.019312445;-0.12534787;0.053086713;0.12207657;-0.019681575;0.09841523;0.05867564;-0.103792444;-0.09945126;0.16262574;0.055251166;-0.25417098;0.013983705;0.2592142;-0.015107494;-0.0070425062;-0.16112466;0.08686033;-0.060622714;0.0094958395;0.20243743;-0.0013873857;-0.091343395;0.050098702;0.10811015;-0.09225682;0.057340465;0.11398304;0.031093465;0.069846466;0.00745541;0.16158621;-0.08041801;-0.18047301;-0.059364658;-0.023727609;0.019321505;0.09130005;-0.0286551;0.117046714;-0.0032634703;-0.0008403564;-0.02453519;-0.033839468;0.04462134;0.15539487;0.065829895;-0.10370103;0.20316301;0.020253312;0.16536067;-0.008250138;0.017095359;0.109175645;-0.2742035;-0.0026906426;0.090304025;-0.08238592;-0.12943104;-0.07727256;0.05674607;-0.03820011;-0.098945856;0.02863339;-0.119563684;0.10641948;-0.16157538;-0.07179228;-0.016828002;0.0003668377;-0.15715152;-0.07035737;-0.045237277;0.01045056;-0.0510256;0.2929433;0.104886755;0.10302414;-0.055715997;-0.18274605;0.104404844;0.020595754;0.050895423;-0.0077594845;0.055916417;0.036424242;0.09200193;0.013199526;-0.053685505;0.08696374;-0.016396254;-0.04196817;-0.030720629;0.0066548167;0.05520477;0.05086073;-0.08600011;0.10265505;-0.17839424;0.03180261;-0.018182727;0.044180375;0.11175483;0.03709145;0.009892412;0.019339541;0.061700176;-0.06120155;0.106641114;0.060275152;-0.01976794;0.14005803;0.16844107;0.014507021;-0.011247584;-0.06820156;-0.20129548;-0.16742352;-0.0261405;0.11575651;-0.13035151;-0.09568892;-0.066120364;0.19692557;0.06959226;0.020679438;0.034361675;-0.021571783;0.13522173;0.032429524;0.060465787;0.100527585;-0.108861424;0.10163154;-0.19554617;-0.07963174;0.055324033;0.08431084;0.017048921;-0.16883472;-0.05361677;0.034615904;0.11583126;-0.0011182979;0.11164526;0.08679237;-0.086200565;0.062755235;-0.017791884;-0.2855239;0.12363938;-0.18939088;0.076443456;-0.017534655;0.0010389588;-0.044026002;0.029624104;-0.015221593;-0.024547769;0.05918678;-0.00024073753;-0.2160822;0.0392574;0.04526242;0.035714548;0.09317835;-0.10717948;0.01625455;-0.13834947;-0.01147573;-0.20061247;-0.12319152;-0.0011515353;-0.12116932;-0.11571422;0.07781513;-0.17194432;0.1585282;-0.05224214;-0.059466742;0.009123194;-0.11697515;-0.052445453;0.019914124;0.08658479;0.13207175;0.07651744;0.056595985;-0.0071455245;0.0018775075;-0.07973644;-0.03952394;0.1144962;0.041363847;0.12826091;-0.03288002;0.087670006;-0.07285319;0.0721825;-0.15049317;-0.10273203;0.052622426;0.06861226;0.13430634;-0.08792105;-0.11589402;-0.08721775;-0.14315242;0.054036357;0.13368374;0.14055724;0.14968377;0.053863782;0.044233065;-0.058897603;0.06271286;-0.035304725;-0.03177753;-0.033369314;-0.14803463;0.1210974;0.025842734;-0.011796869;-0.00033462644;0.13626465;-0.06720255;0.12511042;0.11136982;0.049225014;-0.1587934;0.043551836;-0.13972332;-0.017897377;-0.12221811;0.20949806;-0.14467523;-0.07210498;-0.26976675;-0.019180913;-0.07441161;-0.13900907;0.02482081;0.10081964;-0.20527196;-0.02144808;-0.165637;0.04310627;0.09589552;0.065571524;-0.02137507;0.015921041;-0.0006606713;0.09423322;-0.06379572;-0.046040826;0.090824895;-0.04199769;-0.1194576;-0.09738413;0.16961727;0.038229045;0.14286144;-0.12281646;0.0004451611;-0.02218141;0.040359337;-0.05602681;0.03956302;-0.13760246;0.031061271;-0.14516027;0.10797404;-0.15138496;-0.07114365;0.07055786;-0.10461434;0.13105652;-0.046143916;0.06874893;-0.016370645;0.078842245;-0.05054415;0.0017610627;-0.012862656;0.09930896;0.18346289;-0.06303745;0.035324268;-0.1260166;0.12636669;-0.018809047;-0.11366754;-0.10242972;0.11790921;-0.0807684;0.0030765312;-0.023859562;0.041365802;-0.15987262;0.11883833;-0.10042474;-0.25591367;-0.09820303;0.0732692;0.075775445;0.08428415;0.11330735;-0.10043047;-0.027466472;0.09315373;-0.09016169;0.26183775;0.039463785;0.04455316;-0.04505334;-0.12024475;-0.020053256;-0.017855337;-0.002653962;-0.19065982;0.037719686;-0.2738024;-0.03367335;0.093073614;-0.0082561495;0.17202778;-0.01178534;-0.049745295;-0.07766652;0.05611717;0.11175336;-0.15267004;-0.04762357;-0.056793135;-0.16386119;-0.124692336;-0.061093915;-0.08666276;0.022631677;0.11794735;-0.17262039;-0.15654394;0.050346363;-0.0490825;-0.0038793366;-0.05430147;-0.0066337287;-0.11663548;-0.2863746;-0.05471203;-0.19056237;0.16285236;0.18900986;-0.03655191;0.13218582;-0.4100139;0.08109967;0.035456557;0.08393162;-0.040075354;-0.069416896;-0.012507355;-0.04955551;-0.056710597;-0.111642405;0.16267508;-0.09263611;-0.04092902;0.08768678;-0.015798967;-0.11571676;-0.04959941;0.16076948;-0.03551079;-0.117219165;0.085765876;-0.13984196;-0.09818908;0.02450942;-0.1580287;0.021549078;0.055223886;-0.04453226;0.019827973;0.07416374;-0.0066013345;0.084919594;0.07577344;0.004799204;0.043156404;0.08383839;0.08720902;-0.06437775;-0.18581253;0.07555348;0.13190901;0.0457068;-0.26135048;-0.025537644;-0.12173653;0.099161714;-0.23866813;-0.038919;-0.06703618;0.03530231;0.04414275;-0.02186396;-0.23053925;-0.15356861;-0.10366578;-0.05706097;-0.004219851;-0.054451734;0.103336826;0.09007878;0.04065248;0.00033265335;0.34869114;-0.07468476;-0.082550324;-0.08265052;0.01244361;-0.120989226;-0.11339306;0.033648163;0.15841658;0.097226165;0.10775192;-0.001209366;-0.029853798;0.131631;0.004588597;0.039886683;-0.044309467;-0.027679382;0.039247442;0.070870765;-0.041110408;-0.09357518;-0.108769275;0.14999953;0.058173444;-0.050775647;0.044085708;0.11182757;-0.10670246;0.0074360413;0.15833764;-0.019638801;0.054510612;0.09803287;-0.085776836;-0.1938618;-0.17645963;-0.09491751;0.07117304;0.055672277;0.019492744;-0.2035344;-0.0611455;0.12991507;-0.08743362;-0.076179765;0.06346509;-0.0046390695;0.143143;-0.22381093;0.09497336;0.057860833;-0.022016944;0.04705451;-0.014257915;-0.14972492;0.11952744;-0.21548778;0.049022447;-0.15544257;0.06318161;0.031070294;0.006608688;0.049156547;-0.14580356;-0.028986188;0.022016764;-0.16993538;-0.14466223;0.00054088037;0.10445635;-0.100336924;-0.17198005;0.050252397;-0.021626715;-0.008547345;0.05002464;0.20915551;-0.04665605;-0.052256003;-0.026921483;0.16692011;0.19638659;0.1005815;0.025866736;-0.12965274;0.0326817;-0.08336749;0.13750085;-0.13449675;-0.06981803;-0.08622177;-0.06396729;-0.021717988;-0.057682484;0.14445242;0.15098728;-0.06907533;0.081025;0.026054012;0.074715674;0.04509814;0.12579176;0.15684493;0.109552644;0.09202943;0.04052996;0.08465038;-0.006203828;-0.07066531;-0.09971324;0.007867891;-0.10169649;0.113205925;0.064144686;-0.32399955;0.1063838;-0.20261244;0.07470276;-0.071694925;0.028284226;0.0507502;-0.07537261;0.2465666;-0.08424473;0.041621495;0.027268317;-0.001307633;-0.08445904;-0.0028403157;-0.072178945;0.09411804;0.09512727;0.16750346;0.170848;-0.35743567;0.03958577;-0.21670772;0.06436512
-0.06791159;0.0342998;-0.03946058;0.09088348;-0.10744682;-0.10459325;0.06972852;0.22215663;0.0491815;-0.018535903;0.008917129;0.06901909;-0.07367568;0.10578346;-0.06865477;0.020351281;0.10505049;-0.09433799;0.31714052;-0.108909324;0.07999369;-0.0043199095;0.060830083;0.19105023;0.011954436;0.013026907;0.120005265;-0.11420266;-0.04108645;0.26195213;-0.0112851355;-0.020109236;-0.10198746;0.13152808;0.10642111;-0.11484594;-0.083046876;-0.054203615;-0.10789691;0.14344133;0.055542257;-0.08842325;-0.078847945;0.095745;-0.08235239;0.028469903;-0.022054497;0.044126898;0.08817205;0.08084343;-0.048772417;0.04035699;-0.15196131;-0.23466852;0.053902797;0.20913914;0.021980638;-0.03479726;-0.027674587;0.057376415;-0.046451025;0.09538474;-0.052952338;-0.06139408;0.12617444;0.12228757;0.030011775;0.062945046;0.24055924;0.1276877;0.019870343;0.10413319;0.039219625;0.17563246;-0.073212124;-0.053660437;0.018031644;-0.11909826;-0.0865692;-0.08112281;0.03278358;-0.0010975957;0.019486519;-0.011167731;-0.035109345;0.105928086;-0.043200985;0.034488678;-0.009313698;-0.11311614;-0.08897769;-0.11335996;0.09976055;-0.014929563;0.039118946;0.09444549;0.07788338;-0.13247728;-0.081557505;-0.32894722;0.12777847;-0.06873099;-0.1562833;-0.18229677;0.08787412;-0.008734537;-0.11806822;0.025163367;-0.043564405;0.2232095;-0.15637387;-0.0845567;0.049838446;0.042778075;-0.00621558;-0.15054075;-0.06136192;0.14706421;-0.28510284;0.08701411;-0.16104929;0.023301896;-0.0099906195;-0.014034991;0.1558552;-0.044179186;-0.06329978;-0.074600205;0.18174806;0.046293274;0.10214987;0.06775556;0.07297298;0.07992878;0.023552617;0.1153768;-0.14374205;-0.13793844;-0.09128098;0.08464046;-0.17190215;-0.10377813;-0.13071413;0.124556445;0.08378628;-0.109605;-0.09507204;-0.07992884;0.052329168;0.031988233;0.08905482;0.18888442;-0.050642595;0.12409116;0.074175194;-0.085559025;0.13829501;0.13993044;-0.024771756;-0.052566823;-0.019941078;-0.02701101;0.029358922;0.14758304;0.21642217;0.22310075;-0.22846892;0.037152544;0.03527742;-0.070035696;-0.10279111;-0.052429862;0.020881323;0.08630271;0.089971565;0.09830038;-0.1581389;-0.07390769;0.024830116;-0.1738704;0.10728162;-0.07328605;0.005058295;0.07732868;0.02058508;-0.018871333;0.10334342;-0.038750805;0.0343421;0.038352527;-0.20124376;0.009012961;0.085645236;-0.17052841;-0.036479354;0.095991574;-0.09466444;0.093092516;-0.12763207;-0.009200666;0.061047282;-0.040171117;-0.13979985;-0.044477805;-0.052633744;0.03908404;0.008376451;0.05063273;-0.13224418;-0.090308376;-0.10960405;0.05446474;-0.07440987;0.093166776;0.123370014;-0.12826493;0.030902153;-0.21191043;-0.060730014;0.011178217;-0.1171147;0.021937074;0.021283474;0.05286411;-0.12391587;-0.099120975;-0.028478822;0.02762591;-0.11268421;-0.02051349;-0.016221821;0.05073348;0.045444816;0.10694549;-0.06540368;-0.0389928;-0.024218138;-0.17343512;0.031200236;-0.18541631;0.15815401;-0.08256381;-0.05189624;0.08798678;0.16218978;-0.11035511;0.115845546;0.014537647;0.022676434;0.0832898;0.03758575;0.055486914;-0.1502679;0.022457227;0.1936408;-0.028050551;-0.024502298;-0.222931;-0.020003116;-0.10173556;-0.045417454;0.031282857;0.09909844;-0.084144734;-0.10629693;-0.20074353;0.12671472;0.13606925;0.04267708;-0.061121173;0.114264406;-0.0386477;0.07772402;0.05243516;-0.026161784;0.12899187;0.03344077;-0.14760081;0.07453277;-0.00026589903;0.09120597;0.167888;-0.11384528;-0.05268;-0.08646179;-0.0053049335;-0.11538392;0.17132866;-0.073076636;0.042825896;0.008066278;0.06409218;-0.08993408;-0.17813277;0.019100398;-0.13587084;0.1395985;0.070051566;0.04016216;-0.06423033;-0.1014939;0.007731423;0.14613472;0.061234802;0.11644348;0.088176034;-0.03354614;0.05760586;-0.16283701;0.03261619;0.01761325;-0.09146266;0.073169656;-0.0060531585;-0.025858862;-0.058855355;0.050885096;0.1594815;0.008155692;0.051563833;-0.1577154;-0.21752867;-0.09305969;0.24113187;0.039869443;-0.011518052;-0.010710272;0.035722826;-0.03986253;-0.014375163;-0.16755295;0.20153473;-0.15303737;0.0043233726;-0.031156076;-0.16300249;0.0053587332;0.12100716;-0.12681055;-0.3075678;0.013253741;-0.22766411;-0.12976462;0.008177717;0.093275085;-0.061499413;-0.0036690154;-0.06404149;0.030881992;-0.008598562;-0.04125095;-0.09504558;-0.21842705;0.033332247;-0.09823385;-0.049948353;0.13372116;-0.089317046;-0.09993856;0.11997533;-0.07464329;0.026932444;0.17933588;0.05914376;0.021042489;-0.027261816;-0.06544392;0.07458746;-0.19449666;-0.23778307;-0.07743498;-0.20517896;0.14724559;-0.1063351;0.19455671;-0.32077006;-0.030063292;-0.13395602;0.012749435;0.033805665;-0.01151157;0.004929081;-0.071455486;-0.12511727;-0.017982285;0.024868505;-0.10598656;0.006504216;0.09640566;-0.07275293;-0.063635334;-0.12639391;0.17220569;-0.05409558;-0.15277012;0.020533254;-0.116829574;-0.098569274;-0.016277183;0.10684604;0.10372474;-0.077703856;-0.02515038;0.08288334;0.09485687;0.019505555;-0.11563969;-0.0021466743;-0.06423109;-0.14502837;0.003256223;0.051815394;-0.2043572;-0.14409725;-0.0049648727;0.13481744;-0.12456093;-0.2514003;-0.1518264;-0.22826426;0.079855956;-0.07028172;0.16995926;-0.053443428;-0.10875639;-0.005690208;0.06545646;-0.15850557;-0.059758253;-0.11085504;-0.055089146;0.029908104;-0.01778881;0.048104282;0.03571091;-0.05302568;-0.1451548;0.34193859;-0.07057356;-0.10558746;0.014745175;0.06617937;-0.10352091;-0.23975039;-0.023998259;0.1197983;0.048157986;-0.00061223697;0.14047025;-0.08514449;-0.009961478;-0.047168512;-0.05107061;0.08668474;0.12687077;-0.0035994637;0.12407142;-0.05516358;0.121768385;-0.20546865;0.25277498;0.033945743;0.06179268;-0.0070388913;0.07899271;-0.051011436;0.1381776;0.09562696;-0.057848476;-0.012583792;-0.07512307;-0.107315235;-0.12722595;-0.024194248;-0.10287833;0.15844826;0.062365457;0.011415161;-0.26007265;0.027617509;0.11820664;-0.10660705;-0.081167646;-0.042325184;-0.100898474;0.20071322;-0.13863973;-0.10372326;0.034035012;-0.06406503;0.06623704;0.009082653;0.010374701;-0.03318977;-0.020325724;-0.046445385;-0.05680735;-0.0060637407;-0.051204763;0.022499137;-0.05760755;0.021788789;-0.06604975;-0.17003761;-0.1001502;-0.18789464;-0.15874438;0.038733628;-0.005193302;-0.029413667;0.10164303;0.060168136;0.06914447;-0.05946648;0.17494287;-0.091556765;-0.0782083;-0.03813659;0.2058455;-0.027435625;0.11232773;0.055492744;-0.05812396;-0.012553075;-0.03291876;-0.044882733;-0.050962824;-0.105551586;-0.08693933;-0.027778141;0.03292923;-0.04534742;0.017040662;-0.0135431625;-0.08002523;-0.012572235;-0.1333728;0.09661427;0.18481328;0.13466962;0.08392175;0.11321026;-0.017711326;0.0867792;-0.036970526;-0.15484133;0.030716103;0.04451141;0.06493755;-0.15797533;0.1770801;0.036286555;-0.14572929;-0.0140401935;-0.13287705;0.05360823;0.026344456;0.029038902;0.15728454;0.028214246;0.17501697;-0.039231583;-0.087083176;0.0072232876;0.061541732;-0.22127503;-0.13454498;-0.27479634;0.00016084904;-0.087659664;0.061047517;0.037166834;-0.27663335;0.023236055;-0.20440087;0.15560815
0.07075268;0.1051905;0.011503958;0.058021326;-0.064691566;0.14200695;0.011370511;0.048690233;0.017869376;-0.06699979;0.08611118;0.15672062;-0.14364226;0.09302374;-0.02171451;0.09613074;0.041368954;-0.018669832;0.1120084;-0.06015304;0.08118754;-0.04843725;0.114404164;0.2518262;0.003229926;-0.022565197;-0.009840737;-0.020363206;-0.13507459;0.17198831;0.09835124;-0.0959504;0.059278402;0.046029102;0.12624303;-0.10711857;-0.1541908;-0.03973452;-0.11342324;0.08848501;-0.14379269;-0.04224404;-0.0141714;0.10639537;0.0063597583;-0.016534625;-0.07565254;0.009194768;0.024107955;0.13711901;-0.0944051;0.07334082;-0.076550595;-0.22871782;0.01913547;0.06353923;-0.016185462;-0.13341402;0.10817118;0.034697834;0.021724215;0.14709169;0.04348938;0.013352228;-0.060946245;0.14387059;0.005591592;-0.07951593;0.061024692;0.11995782;0.07457483;-0.06426691;0.026611352;0.011508108;-0.22282945;-0.10814471;-0.15951227;-0.15669833;-0.03629316;0.010272783;-0.020158226;-0.11744294;-0.1198519;-0.034286056;0.06802912;0.14714733;-0.13938618;-0.059680995;-0.036363527;0.092256665;-0.005859373;0.04966653;-0.08938337;-0.0031207635;0.026952744;0.11321777;0.036257595;-0.047861658;-0.0454752;-0.14823873;0.039563827;-0.11642071;-0.04349037;-0.046487093;-0.0066954046;-0.16605237;-0.12199348;0.10656132;-0.02380013;0.15180147;-0.12519012;0.020564796;0.10409958;-0.049964637;-0.095213786;0.008447014;0.041848123;0.039018568;-0.21702445;0.041143607;0.100968674;0.18902269;-0.013607918;0.0032376107;0.16095674;0.027599726;0.075166725;0.13255766;0.0895591;-0.012183782;0.07886234;0.13501348;0.04206535;0.10383967;-0.09514514;0.09362109;-0.024626685;-0.16465825;-0.13471971;0.054066148;-0.017419865;0.07019666;-0.15035506;0.18939742;0.022404207;-0.11901041;-0.028179105;-0.13434006;0.13115789;-0.020369621;0.06455022;0.16896668;-0.057660706;0.056855798;-0.019215621;-0.14294878;0.14759246;0.01858291;0.0393284;-0.013538227;0.14349763;0.01075599;0.014057992;0.090674035;0.14241493;0.22465174;-0.10819846;-0.120234646;0.10594185;-0.058270592;-0.115774564;0.024732657;-0.01893612;0.1282578;0.18372864;0.100998916;-0.06437739;-0.06500989;-0.052009832;0.06976385;-0.012682621;-0.2734343;0.07369419;0.070187785;0.122157834;-0.03505199;0.030567134;0.0048969905;-0.0447592;0.17416388;-0.21687512;0.0015485765;-0.09602157;-0.1777503;0.0065788208;0.14023638;-0.15706441;0.12383696;-0.13859311;-0.011974248;-0.040872913;0.023131879;-0.07915146;0.002384296;-0.027407454;0.17779927;0.019913884;0.12732156;-0.0866349;-0.14100875;-0.0064445967;-0.03330045;0.06573058;-0.020814374;0.021168564;-0.11594603;0.07159499;-0.22812891;-0.011955512;-0.028115697;-0.20599194;-0.11951001;0.12232152;-0.09733989;-0.024440974;-0.05747093;-0.09343469;0.09243381;-0.23067833;0.06741016;0.051736332;0.02332212;0.07341633;0.087528534;-0.09409686;-0.001701186;0.06412807;-0.11792091;-0.011865816;-0.14591004;0.038888004;0.050878;-0.08675605;0.17646752;0.12992682;0.06371558;0.22475886;0.08700699;-0.0634631;0.045856807;0.02923472;0.21113734;-0.22684848;-0.015497939;0.1346004;-0.07165183;0.09988823;-0.08347568;-0.015299124;-0.13538858;-0.2204061;0.10567675;0.07810999;-0.033742327;-0.02226236;-0.103950635;0.06995453;0.09106342;0.16150317;0.08747122;0.08509099;-0.16262665;0.09726196;-0.0359921;-0.030382028;0.05670252;-0.01046092;-0.028252417;0.00067124335;0.04124387;0.13463439;0.19456056;-0.1891052;-0.041995987;0.013064781;-0.1447079;-0.07936148;0.10880492;-0.10873618;0.077815235;-0.051924545;-0.009976851;-0.11366374;-0.17460193;0.095825136;-0.06161918;-0.034052808;0.058399875;-0.09784549;-0.028643247;-0.01855487;0.12984;0.015107262;0.04897114;0.111179814;0.22135693;-0.10330343;-0.06247011;-0.1762203;0.08871712;-0.14740857;0.0038395913;0.0851364;0.10872387;-0.107066706;-0.1806142;-0.0064048115;0.079368666;-0.12919693;0.10307657;-0.15878145;-0.24714866;0.069536775;0.057618737;-0.03448134;-0.12629369;0.12501939;-0.005327528;-0.045206245;0.028149087;-0.06669133;0.09605352;-0.1355849;-0.113457024;-0.16311722;-0.058027446;-0.04600052;-0.08343024;-0.09358534;-0.15067418;-0.09218073;-0.06562672;-0.053262506;0.019008912;0.061381932;0.055853814;-0.014144438;-0.03861575;-0.13480812;0.0055387346;0.112814516;-0.053006962;-0.18837097;0.019936388;-0.14815114;0.01986815;0.0316225;0.029744372;0.11484104;0.09040713;-0.16628355;0.05805479;0.124849886;-0.05720571;0.04197043;0.06756056;0.083065316;-0.086098395;-0.29080686;-0.213714;-0.00077586813;-0.04369278;-0.030034896;0.06681983;0.12794226;-0.30701762;0.0012563589;-0.11553392;0.1748578;0.05942623;-0.15112881;-0.0056871492;-0.18187797;-0.21846338;-0.02704521;-0.022449907;-0.13016461;-0.044071402;-0.15130039;-0.12744345;0.05070776;-0.16779034;-0.0031273684;-0.14443372;-0.022994405;-0.102353945;0.027002089;-0.031103324;0.017104533;0.11992062;-0.08047323;-0.012923158;-0.08880616;0.14429194;0.04433161;-0.10286937;-0.092336096;0.046781957;0.038869724;-0.04919624;0.040482536;0.094367005;-0.26206294;0.0017384114;0.039157767;0.1113035;0.045360282;-0.28717867;-0.09998353;-0.21964954;0.031114621;-0.14556639;0.03123683;-0.16336635;-0.13817134;0.09608342;0.07062023;-0.25200447;-0.03420497;-0.0023312913;-0.09887636;-0.105313875;0.1739519;0.14427687;-0.0131735075;0.13696621;-0.14097396;0.28949994;-0.081012;0.04891215;-0.07468577;0.058189597;-0.059776496;-0.22411768;-0.00077608414;0.16213357;-0.02358496;0.11100283;0.14118548;-0.19417821;0.06484568;-0.1113269;-0.004790751;0.0841518;0.1840253;0.028431935;0.12414695;-0.18294401;0.073119506;-0.18278009;0.15159027;-0.10644931;0.0054572816;-0.11529799;0.1681212;-0.008828044;0.0024068595;0.2336556;-0.03187087;-0.1515376;-0.04725552;-0.124726966;-0.04291083;0.08783699;0.043522794;0.055577204;0.046553373;0.048111364;-0.22876443;-0.14167269;0.18667106;-0.14037295;-0.12918672;0.034181975;-0.049014967;0.09143839;-0.11879646;-0.09040419;-0.061157323;0.06396342;0.21787307;-0.014620956;0.05016268;0.08109029;0.12252401;-0.0294455;-0.109176844;0.038901594;-0.10080553;-0.08662898;-0.03706097;-0.06292485;0.051969446;-0.026183303;-0.02943368;-0.11761645;-0.155714;-0.07103045;0.057942726;-0.082621284;-0.020042976;0.08130109;0.06358918;-0.060801446;0.14607795;-0.048448388;-0.08001465;-0.02301345;0.19663832;-0.046559162;0.05074263;0.12890217;0.04614076;0.07963314;-0.16793987;-0.049031503;-0.025936993;-0.059764855;-0.072803654;-0.19020922;0.0032840858;0.07898276;-0.016598323;0.0926917;-0.15700254;-0.0732673;-0.11825728;0.1507633;0.12077549;0.15026057;0.09652554;0.020586658;-0.018613676;0.1918458;0.041025728;-0.3080365;-0.0725961;-0.05485008;0.18823424;0.017726535;0.06484736;-0.03207309;-0.118747644;0.0067511727;-0.08693594;0.019714026;-0.064006336;-0.10126358;-0.014751858;0.003124085;0.20392154;0.10032193;-0.104781605;0.14204971;0.05135454;-0.24386726;-0.08842979;-0.30045426;0.035178516;0.019782411;-0.13805872;0.07176113;-0.11219258;0.051436152;-0.20894647;-0.027777467
0.1318581;0.019849675;0.069987625;-0.034004465;-0.07358674;0.008953435;0.1475792;0.25632146;-0.094980314;-0.026715165;0.0077561843;0.08875598;-0.076003164;0.02315072;-0.005326192;0.04393025;0.0056012203;0.010525839;0.085042186;-0.0042862785;0.0545684;-0.02651518;0.018011685;0.18267451;-0.061567735;-0.070580654;0.037833735;-0.10859958;-0.03963425;0.13481605;0.01060708;-0.038408663;-0.102319114;0.20196779;0.0057794657;-0.11306193;-0.09136438;-0.09065726;0.15707317;0.0048388415;-0.054113466;0.021000393;-0.014488028;0.2542915;0.16467577;-0.12451398;0.02107952;0.013030416;-0.008886199;0.004087133;-0.053038087;0.036939755;-0.014801028;-0.13152617;-0.032673895;0.1320543;-0.19571099;-0.20165187;0.03282943;0.014607582;-0.047719773;0.05687944;-0.026387177;0.09265561;0.01610231;0.0979401;-0.013103538;-0.04515332;0.018602585;-0.028261576;0.103593424;0.022821696;0.037236277;0.008276545;-0.18295227;-0.1352348;-0.05168913;-0.047364138;0.06370173;-0.08929711;0.15090449;-0.12482555;0.04639511;0.077316895;0.044547074;0.059209313;-0.03223684;0.0033124483;-0.0013950123;0.016491566;-0.08574392;-0.0687703;0.048523437;-0.058477663;-0.05554903;0.16565278;-0.023043016;-0.043815527;0.002149746;-0.08930171;0.025763554;0.019465052;0.033295155;0.060019642;0.11181719;-0.0825512;-0.15933202;0.15392852;-0.101637274;0.12958059;-0.071935505;0.004509988;0.10447354;0.1015525;-0.17707546;0.12042093;-0.11813677;-0.0027773005;-0.3861695;0.1232546;0.15602835;-0.046762135;0.12901996;-0.02529763;-0.035374343;-0.017829243;-0.14677714;-0.016977087;0.12658168;0.07242518;0.17988871;0.16788822;0.15262313;0.036847435;-0.056703232;-0.07494481;-0.020475533;-0.14112477;-0.011812042;-0.13242419;-0.09770979;-0.11196726;-0.111646004;0.052360594;0.029500967;-0.047628872;0.029518403;-0.119897135;0.1403833;-0.1647563;0.13959049;0.15816642;-0.11926801;-0.071265474;0.025654517;-0.11787931;0.21737646;0.131132;-0.19775258;-0.07951497;0.064778894;0.11572366;0.13537563;-0.01668221;-0.051197734;0.19443356;-0.08449298;-0.23096967;0.052839067;-0.042150255;-0.07660473;-0.015264358;0.18451005;-0.013846349;0.088193916;0.055462178;-0.039246775;-0.03423024;-0.14846607;-0.014996097;-0.012277862;-0.20850922;0.059974235;0.015649835;0.22728334;-0.0597543;-0.107516564;0.011495851;-0.13443695;0.06475815;-0.14915557;-0.043611214;-0.08344155;-0.15301247;-0.04162901;0.11346344;-0.16133767;0.035317473;-0.065039136;-0.048774496;0.05740463;-0.03836947;-0.109658584;-0.007955791;0.006761029;0.018503323;0.079164766;0.032780487;-0.07927479;0.007605893;-0.030835327;0.0013739817;0.095451094;0.06239361;0.09121152;-0.14653501;0.07611534;-0.10673358;-0.062275365;-0.16497234;-0.06259114;-0.05542185;0.106673285;-0.100565314;0.052516118;-0.039908655;-0.034786146;0.07436487;-0.024421811;0.16127151;0.05032539;-0.09334313;-0.028599687;0.076847665;-0.05334548;0.032391746;-0.05837397;-0.14054558;-0.009414963;-0.17538826;0.036497846;0.039231535;-0.0904903;0.023188168;0.056322247;0.108158685;0.25538203;-0.06030589;-0.14995761;0.071619295;0.068842456;0.08682914;-0.11074482;0.121827066;0.105000466;-0.02606474;-0.008991252;-0.05940013;-0.09731373;-0.11278616;0.032143835;-0.05770034;-0.0015756352;-0.14009517;0.009950655;-0.07287371;0.11903848;-0.04881477;0.06554441;0.01949194;0.044786137;-0.014444841;-0.015363713;0.012016291;-0.05644516;-0.023721267;-0.10834144;-0.0032787917;0.12343946;0.2233481;0.08273435;0.022357281;-0.14903803;-0.087009594;-0.076864764;-0.1843812;0.079906575;0.26883122;-0.092807986;0.08467376;-0.042688273;0.077470295;-0.03466567;-0.14732793;0.06417368;-0.09146953;0.053528145;0.0001048851;0.019226447;0.031892613;0.051709436;-0.03940826;-0.026188131;0.057776034;0.19772731;0.2459177;0.06547011;-0.059317105;-0.074014015;0.15430768;-0.11511923;0.061983507;0.01079767;-0.02783187;-0.087559804;-0.119762644;-0.074295454;0.22002019;-0.17613739;0.04911522;0.03908403;-0.0770202;0.04573753;0.15385911;0.036303706;-0.018515138;-0.046806723;-0.036678746;0.073005475;-0.01666965;-0.18663353;0.22430953;-0.16641037;-0.2332098;0.017076299;-0.08380994;0.03499293;0.076296575;0.030746646;-0.064967535;-0.02298253;-0.100371234;0.05401266;-0.044278212;0.018513946;0.10697341;-0.15589462;0.0029394308;-0.08577514;0.13223022;0.23111962;-0.15210009;-0.012946551;-0.12349511;-0.11343844;0.021944162;-0.010278239;-0.116421334;0.07565821;-0.015145757;-0.2844304;0.037095815;-0.044178594;-0.0474293;-0.00890435;-0.0027527367;0.11661928;-0.020567002;-0.26396444;0.007091637;-0.13062863;-0.013023613;0.06722905;0.09374206;0.063646644;-0.18599494;-0.066048674;-0.022236226;-0.038099773;-0.077111624;-0.1514358;-0.075780556;-0.04197105;-0.2868672;-0.06467345;0.16591573;-0.20478527;0.039576255;-0.04119407;-0.15001899;0.033938956;-0.17860378;0.024003766;0.04826391;0.16093265;-0.05013625;-0.15254249;-0.088580795;-0.060877047;0.0026521604;-0.08439999;0.012436834;0.04737516;0.1653156;0.031063087;0.088438876;-0.07924454;0.06610151;0.017474424;-0.06772612;-0.021948453;0.024095586;-0.22624287;-0.020076983;0.032874122;-0.093715206;0.1278219;-0.29022267;0.12536363;-0.17370607;0.15097831;-0.06228897;0.014868811;-0.06341284;0.010277567;0.049858935;0.107733056;-0.058816664;0.02943696;0.041245297;-0.040301282;-0.0037935232;-0.07873259;-0.005154085;-0.02475889;-0.110104755;-0.12180147;0.19345254;0.08688751;0.0042330604;-0.13352631;-0.07068609;-0.054301422;-0.3832649;0.046000745;0.090540215;-0.021289788;0.22415969;0.112487555;-0.07240019;0.07903725;-0.049406234;-0.1396411;0.085996956;0.08452875;0.0913954;-0.100331075;-0.08678679;-0.0009260097;-0.014772711;0.083507426;0.18009013;-0.016572956;-0.17085353;0.07082741;0.034476444;0.024684321;0.05487987;-0.11094926;-0.12916878;-0.027035646;-0.121292755;-0.062491946;0.12869318;0.19421028;0.13714842;0.1593416;-0.14856392;-0.13284774;-0.0647875;0.106360205;-0.051208694;0.011897538;0.016532479;-0.15222012;0.13431612;-0.03690773;0.052806765;-0.08836583;-0.07380485;0.14542986;-0.14783792;-0.15621519;-0.016880082;0.035058152;-0.11369913;0.022126555;0.06661182;0.010168191;-0.08181936;0.0016531567;0.025387807;-0.099032104;0.025357414;-0.07327701;0.04115307;-0.14984266;0.06614166;0.0333655;-0.012616878;0.014116419;0.120903924;-0.11603849;-0.15137178;0.14919585;0.07106675;-0.015583017;0.08238954;0.07364779;-0.096807145;0.08961281;0.25292444;-0.045903195;0.15381905;-0.049151313;0.0787622;0.1402646;-0.09391188;-0.13858207;-0.050713655;-0.122176945;0.043443177;0.13034855;0.13682371;-0.21324363;0.051733233;0.10887162;0.09787879;0.037547674;-0.06508726;0.121023744;0.023402255;0.008899424;0.12357877;-0.06488027;-0.13136253;-0.028102178;-0.12360118;0.039404966;-0.032463264;-0.06493332;0.022818828;-0.119280465;-0.0071165613;-0.13581082;0.02298961;0.011835615;-0.11842023;0.009130364;-0.09095282;0.249498;0.011452736;-0.19993284;0.072127275;-0.08497627;-0.32086593;-0.07695017;-0.1442061;0.0028691718;-0.04062956;0.0077140364;-0.041017152;0.008444792;-0.037692588;-0.25371096;0.028711885
-0.048497144;-0.09182038;0.058620036;-0.114276975;-0.068376385;-0.028827013;0.030731281;0.11175336;0.04299663;-0.0945561;-0.16738506;0.097631045;-0.16284999;0.08476993;0.07150585;0.06629552;0.00885748;0.013917547;0.050085895;0.1155466;0.042704444;-0.09492216;-0.031469814;0.053364404;0.01949262;-0.050169617;-0.038515154;-0.047674254;0.014316801;-0.027087748;0.08488022;0.123627;-0.02927914;0.10374673;0.112802334;-0.0053222207;-0.17660876;0.07205666;0.03033095;0.029603451;-0.051003087;-0.025927352;0.05461544;0.23535271;0.028606651;-0.095368296;-0.14588031;-0.12452908;0.10554488;0.094994985;-0.049127582;0.15597601;-0.08274892;-0.14040756;0.007667046;0.058025558;-0.11789884;-0.013156491;0.011395934;-0.23069972;-0.014680715;0.04357848;0.12026872;0.05425379;-0.073217824;0.049262434;-0.007487659;0.053170625;0.013285111;0.038491108;0.075811826;0.033958863;-0.03523551;-0.011369228;-0.22004236;-0.05742039;0.03552612;-0.029464405;0.01467277;0.021952748;0.13913874;0.0071297395;-0.052357346;-0.10871066;0.041714836;0.12884888;0.099894516;-0.08306335;-0.04227659;-0.025176676;0.07377314;-0.0842501;-0.10584405;-0.016743274;0.14655833;0.1590476;0.054939657;-0.16142634;-0.029322086;-0.05664167;0.025960745;-0.02331437;0.075861044;0.06311618;-0.02024019;0.009822988;-0.17285816;0.17190427;0.04861963;0.16825798;-0.13555473;0.07598454;0.1754852;0.065967895;-0.08853535;0.06436571;-0.08660579;-0.12882094;-0.3411367;-0.004430106;0.025278434;0.03213298;-0.14613925;0.030018795;0.06054813;0.12569867;0.024940424;-0.023647087;0.08794218;0.13797353;0.19746704;0.1210067;-0.0014967175;0.037239593;-0.1856479;-0.0069626886;0.006096237;-0.17445293;-0.02893929;-0.08300623;0.003658503;-0.051715385;0.06105004;0.01057193;0.058289673;-0.13487935;0.0615093;-0.13686645;0.022693649;-0.16221306;0.09817265;0.21070585;-0.16457354;-0.06781762;0.10583455;-0.043141905;0.1822932;0.013191213;-0.017877998;-0.113258235;0.14896674;0.06899029;-0.008405024;-0.116062365;0.097185895;0.16972685;-0.13598041;-0.10553203;-0.072730586;-0.03254775;0.11007286;0.103147246;0.035585452;0.05595882;-0.006991929;0.020313736;-0.08341873;0.0054557277;-0.14386703;0.15665254;-0.029211964;-0.06675476;0.097078964;-0.0933166;0.16388583;-0.058193907;-0.012348863;-0.07417194;-0.06588931;0.10294094;-0.19379942;-0.030769274;-0.08696566;-0.17450568;-0.019971201;-0.006378815;-0.14596198;-0.0046515567;-0.026013508;0.054625574;-0.025296183;-0.015978783;-0.21146911;-0.09376912;-0.09118041;0.03416903;0.038166527;0.07857774;-0.040844083;0.059330553;-0.18834019;-0.07223906;-0.12237723;0.047966693;0.034513276;-0.002383336;0.003631572;-0.07902374;-0.08039329;-0.14816138;-0.1492196;0.010717758;0.10565352;-0.151817;-0.10385082;-0.11806951;-0.134053;-0.04363418;-0.06501981;0.06395558;-0.027268847;-0.023925267;-0.159847;0.027216438;0.06557591;-0.021561591;0.07413461;-0.102728255;-0.03189476;0.04995253;-0.10943282;0.018274862;-0.15714683;-0.10935871;0.064475425;0.16450755;0.105877906;0.037128855;0.014980381;0.095109925;-0.054578878;0.1262116;-0.22468837;0.08368334;0.056613207;-0.016525602;0.095235005;0.0044241063;-0.0971218;-0.037396945;-0.13345891;4.3917506e-05;0.14055999;0.05154026;-0.0004056711;0.0036220448;0.16774301;0.018952247;0.17648782;0.009851214;-0.025748137;-0.054968614;-0.06154714;0.0123427715;-0.008245434;0.019492399;-0.19964346;0.013299877;0.06712755;0.065854885;0.10026157;-0.009775981;-0.10062004;0.022666385;0.00045065628;-0.1376557;0.073304795;0.15738903;-0.13993962;-0.16398375;0.06180333;0.06860148;-0.026958851;-0.15664427;-0.078560166;-0.038607325;-0.051741064;0.15655334;-0.066023685;-0.03940985;0.035721157;0.0270988;0.026806653;0.12715308;0.2346365;0.19295138;0.07050664;0.079398684;-0.1764932;0.10352967;-0.035000507;-0.034183804;-0.07889828;0.05113918;-0.07001891;-0.13321507;-0.21547844;0.074231155;-0.012816597;0.015152078;-0.040445372;-0.10999796;-0.0068157944;0.12224071;0.030762494;-0.046623807;-0.21341649;0.19514221;0.035273712;0.038982928;-0.10527951;0.073849626;-0.008444486;-0.27814695;0.032833803;0.10792379;0.106712826;-0.062930286;0.0887538;0.040893942;0.05593956;0.053924087;0.056687165;0.02460661;0.09281027;0.13301212;-0.35173315;-0.0019367638;0.03264192;0.0790825;0.16187625;-0.23496227;-0.087854914;-0.05614948;-0.13156037;0.068062805;0.051956438;-0.14156717;0.0072495798;0.005106955;-0.20390746;0.09543504;-0.11845687;0.072203405;-0.004720162;-0.0593713;0.09049408;-0.02073212;-0.1934699;-0.013220882;-0.08275437;-0.09358602;0.0009893825;0.07310721;0.10789847;-0.23718043;-0.09022296;-0.08671321;-0.08957249;0.048910566;-0.10077568;0.011151776;-0.09418551;-0.25459865;-0.05099445;0.055493157;-0.21587734;-0.043621507;-0.1501595;-0.119877435;0.19005415;-0.1671718;-0.040257707;0.047295026;0.012012171;0.042641796;-0.015363137;-0.04025341;0.05045816;0.15236254;-0.0802846;0.0012952568;0.12959674;0.2556325;0.013714156;0.15021233;-0.029971262;0.15325716;0.10824772;-0.12336563;0.040327802;0.09501613;-0.1872108;-0.030601226;0.031117331;-0.0262466;0.08157734;-0.3037375;0.034707032;-0.09146505;0.14111508;-0.10166651;0.07234743;-0.14263153;0.043500274;0.11664706;0.12817925;-0.027582258;0.06902654;-0.05600263;0.15082702;0.064062476;-0.0060501215;-0.00844185;-0.02938711;-0.032960076;-0.08166622;0.364371;-0.048039;-0.1123647;-0.21494673;-0.092959456;-0.15547891;-0.35492882;0.070364065;0.050352503;-0.068021044;0.2352266;0.007912447;-0.031736806;-0.062001515;0.063807935;0.0058770175;0.13336018;0.08677491;0.11882369;-0.17978266;-0.22986446;-0.03574517;-0.0782532;0.02854452;0.08455976;0.064746544;-0.0127176605;0.13618901;0.09932539;0.14493766;0.15932146;0.004852698;-0.06593447;-0.13601315;-0.09062757;-0.019079458;0.11357435;0.049288668;-0.0026939504;0.21945393;-0.12609307;-0.13829745;-0.20274818;0.113108166;0.06361915;0.07161395;-0.07148885;-0.120724425;0.118984796;-0.081315055;-0.0074963025;-0.054123603;0.049061496;0.13285993;-0.11188792;-0.012220935;0.006149568;0.22501305;-0.09248112;-0.099644646;0.0254197;0.038290348;-0.0047804005;0.01652001;0.1300648;0.12027593;-0.005877531;-0.24984698;-0.04429165;-0.10464933;-0.024778068;-0.03279407;0.020483349;-0.05932542;0.06765608;0.07058831;-0.24929373;0.15067467;0.026369017;-0.1274008;-0.0347612;0.005625895;-0.18899408;0.11095853;0.27887398;-0.045497738;0.16927846;0.029051702;0.05653393;0.25856188;-0.18977883;-0.21210238;-0.09021758;-0.046614204;-0.0057862927;-0.07164932;0.09841544;-0.0686477;0.05638782;0.011824988;0.08103676;-0.07094235;0.02688385;0.17900084;-0.032683473;0.013529584;0.047149483;-0.016379718;0.006225868;-0.06206011;-0.028870348;0.13897562;-0.03510711;-0.13349074;0.045761988;-0.059081435;0.03407963;-0.19997308;0.09923835;-0.07538065;-0.09821671;-0.11352268;-0.1149337;0.16946402;-0.1156117;0.08127079;0.124874756;-0.03780836;-0.12975244;0.087301135;-0.0879085;-0.002500201;-0.055018652;0.0072939484;0.09116958;-0.093654;-0.11547956;-0.24885122;-0.050579626
-0.014586652;0.09536546;0.15668327;-0.09515625;-0.15338421;-0.0506099;0.020541677;0.14037082;-0.06442949;-0.117953904;-0.1986574;0.19540256;-0.02848231;0.10622434;-0.12234655;0.11733583;0.12346124;-0.023700481;0.024107035;-0.01049241;-0.12408326;-0.09716268;-0.11594716;0.16100447;-0.07454911;-0.13357908;0.006312042;0.028446307;-0.04549538;0.01491516;-0.034415472;-0.040862974;0.12234825;0.10459939;0.034595653;-0.074420415;-0.09312535;-0.09724227;-0.040651623;-0.008880713;0.010435715;0.075250365;-0.11618274;0.0967674;0.1438948;-0.048921518;-0.12851968;-0.05588075;0.16425331;0.041340377;-0.07268234;0.14528784;-0.120167166;-0.14114612;0.016462991;0.020289423;-0.21421425;0.013290701;0.09657774;0.035355244;-0.017547227;0.10526451;0.122619756;0.039839625;-0.21096726;0.08064111;0.08362833;0.05953163;0.13772942;0.010400294;0.0904098;0.10346095;-0.025252312;0.06184338;-0.057622153;0.0124363415;-0.19688609;0.05047147;-0.07398844;0.06141642;-0.067191735;-0.060294833;-0.10727458;-0.07461871;0.040440086;-0.0046446435;0.06970392;0.020515503;0.029285517;-0.05189792;-0.015839629;0.020753289;0.05775847;0.01722018;0.10738453;0.18054073;-0.08199437;-0.15085825;-0.0587086;-0.12303202;0.009794899;-0.07778032;0.08937411;0.21316436;0.003290927;-0.09311934;-0.4444615;0.16505463;0.05143213;0.18827243;-0.13802777;-0.0790247;-0.14271693;-0.041524522;0.012473567;0.07181662;0.00962428;0.09795403;-0.2380273;-0.010819003;-0.103864804;0.0043302476;-0.1307475;0.058723822;0.08929543;0.124546275;-0.040397875;0.04458753;0.23427926;0.09404791;0.30008492;0.1440649;0.025653984;-0.0018836553;-0.07111388;-0.014183764;-0.17349799;-0.17400388;0.117206424;0.09770822;-0.07325261;0.087346256;-0.26405472;-0.079195924;-0.090406984;-0.0586832;-0.004440667;-0.18729842;-0.052915636;0.015306104;-0.019066384;0.26198235;-0.13317484;-0.07148374;0.13622287;0.11783341;0.16361563;-0.06989029;-0.01416578;-0.041961953;-0.00850654;0.07026364;0.07605636;-0.08743782;0.035269372;0.19653082;-0.15065546;-0.022840006;-0.017772106;0.07529508;-0.03299034;-0.0927028;0.032068096;0.03806859;-0.06056614;0.15472057;-0.10840304;0.17547677;-0.22673823;0.13545026;-0.09044224;-0.0076648197;0.06418759;-0.03820793;0.13459852;0.09213782;-0.08462314;0.13928074;-0.028203065;0.1732009;-0.05712211;-0.03565515;-0.12470566;-0.15571482;-0.05808647;0.0668146;-0.11452838;0.030456293;-0.014131822;0.016505653;-0.032496218;0.07681238;-0.14697498;-0.056796152;-0.05540759;0.04397965;-0.051699415;1.3301444e-05;0.07944202;0.008489434;-0.038200866;-0.02084172;-0.12207492;-0.029004298;0.012957453;-0.013135407;-0.007778214;-0.2795061;0.17712417;-0.28107086;-0.12044764;-0.12946737;0.022167612;-0.0804654;-0.1520061;-0.12728468;-0.15635768;0.006483193;0.0012485076;-0.1735907;0.10078814;-0.019999376;-0.03592144;-0.093897805;-0.04077893;0.019376738;0.026021576;-0.041793358;0.16514984;-0.12378112;-0.14821877;0.024766276;-0.08394823;0.056705978;0.067176536;0.24068777;-0.014193244;-0.069675565;-0.109223746;0.14284277;-0.13510562;0.16934091;-0.0421641;-0.012023928;0.0010150454;-0.09012349;0.088383384;-0.09792846;-0.07093571;-0.020852435;-0.11157195;0.042736005;0.11739559;0.09663195;-0.03848723;0.040710922;0.039423764;0.044415846;0.07807627;0.044432327;0.059551023;-0.10014814;-0.16868566;0.015771005;-0.01906112;-0.04510169;-0.3290942;0.025835514;0.030401472;0.09386832;0.10964092;0.11492778;-0.13698791;0.055132385;0.031218484;-0.049114525;-0.0010014437;0.0812463;-0.031265337;0.008551266;-0.04907212;0.10593284;-0.043084275;-0.03759476;-0.005295779;0.036922548;0.0010654227;0.15612264;0.008540258;-0.07790036;0.021841556;-0.005585504;0.0019581062;0.22180857;0.1636508;0.22699285;0.1575552;-0.012087317;-0.059909824;-0.11142381;0.017752515;-0.06521903;-0.09685689;0.03049438;-0.20576592;-0.1574119;-0.19608113;0.11524245;0.07030375;0.1001525;-0.07670148;-0.080344506;0.018063493;0.00045067508;-0.12599759;-0.04607519;-0.24170019;0.19988921;-0.025605213;-0.061101504;-0.08272394;0.13450214;-0.022850856;-0.08571574;0.110150166;0.012402258;-0.0510229;0.06422778;-0.0133578135;0.114677474;0.06955884;0.024395421;0.02948386;0.057022;0.113487385;0.12461598;-0.26759854;0.15546161;-0.06085861;0.12349508;0.11244168;-0.197259;-0.15600786;-0.15863551;-0.11473689;0.104085885;0.044311296;0.044037994;-0.061399795;0.16962065;-0.26846793;0.105401665;-0.0878382;0.10507727;0.018301485;0.12566383;0.2308829;-7.490887e-05;-0.069106735;-0.12953632;-0.019314924;-0.07332663;-0.042964164;-0.028895201;0.23286135;0.009660012;-0.07704892;-0.020900138;-0.24280407;0.15337032;-0.052507676;0.05743687;0.083873644;-0.1977822;0.0792944;0.093149945;-0.1336752;-0.0023110146;-0.06336702;0.048768897;0.009718741;-0.22057863;0.08179926;0.015000032;0.035995323;-0.07368489;0.037785836;0.004845398;-0.11612756;-0.034018528;0.029144846;0.03585293;0.04669042;0.25809854;0.16440447;0.06401907;0.05288768;-0.03569448;0.0056726923;-0.11779306;0.10717728;-0.09130785;-0.21419136;0.016386716;0.09496754;-0.109102555;0.063813515;-0.1509969;-0.023319082;0.022193376;0.081548735;0.05391392;0.031726662;-0.18111078;-0.023711335;0.09461919;-0.09742274;0.21155667;0.0155326715;-0.088015966;0.22173937;-0.022593824;0.10132914;0.019333836;0.036809616;0.022113897;-0.111381166;0.26878345;-0.048518375;-0.05466036;-0.22035113;0.031340208;0.025768276;-0.26943222;0.029147321;0.083636604;-0.104973376;0.38124812;0.0447569;-0.1627657;-0.04508274;-0.07572934;-0.011163827;0.17499605;0.14548567;0.15200317;0.05879051;-0.08686107;-0.09543975;0.1115891;0.092437685;0.15691333;0.01249614;-0.045705386;0.03009398;0.045318585;0.13548122;0.0073398775;-0.017378803;-0.11219877;-0.046570275;-0.28161928;0.000471897;0.058422945;-0.002059699;0.087448664;0.15182942;-0.014684124;-0.06480297;-0.055830743;0.14642942;0.06328514;0.08274995;-0.0038553579;0.010273009;0.015010815;-0.08232464;0.02025088;-0.09382015;0.04545282;-0.021445528;0.045552492;0.07786635;0.062197875;0.17466825;-0.14616306;-0.033636462;0.12488604;-0.0060207723;0.15305814;0.11990939;0.22411934;0.054009173;0.05697835;-0.23152386;-0.10624882;0.004923236;-0.065347634;-0.010315923;0.04293741;0.069598995;-0.03812086;0.059128515;0.021738164;0.32378417;-0.058378965;-0.09362806;0.03179962;0.053012528;0.003519842;0.2023862;0.26086736;0.014777617;0.061831214;-0.11669828;0.0024818706;0.1295461;-0.1687691;-0.21204607;-0.15146193;-0.004217839;-0.03716809;0.09087748;0.12680155;0.04590575;-0.0081204;0.007005846;-0.003945127;-0.10983344;0.08318673;0.07979478;0.1303318;-0.059310853;0.15719323;0.019652963;-0.07053591;-0.04412111;-0.019925399;0.22813298;-0.1169084;-0.066923134;0.06834912;-0.022850782;0.14099315;0.011927387;0.098003976;-0.13816833;-0.08909607;-0.085527405;-0.015601187;0.21450472;0.0063702385;-0.09408661;0.08941209;-0.09043824;-0.1087507;-0.103896104;-0.271313;-0.048544977;-0.07079087;0.016490234;0.051615853;0.09330718;0.008135968;-0.09885654;0.10255455
-0.020797636;0.15447247;-0.054145627;0.07283532;-0.123899475;0.045469325;-0.10272978;-0.06928547;0.07843061;-0.055308163;0.002341753;0.0440384;0.07144028;0.03756199;-0.013348088;0.14509234;0.031985994;-0.10243416;-0.17422347;-0.05236354;-0.011559557;-0.062261514;0.17548457;0.1658762;0.044689488;0.01458798;0.10217232;-0.08731968;0.025903804;-0.0241485;-0.041387614;-0.07053779;0.19098756;-0.026048083;-0.097941846;0.0036505389;-0.18660802;0.0032538278;-0.016248174;0.013455267;0.1143795;-0.028637623;-0.16448298;0.12728243;0.07029639;-0.26391074;-0.13026612;0.011213821;-0.06668681;0.06611432;0.013406175;0.06115843;-0.15611964;-0.11378195;0.055694804;-0.10710043;-0.0855027;0.06105801;0.05432734;-0.098030455;-0.0023245157;0.03302864;0.17905354;0.07593903;0.011371355;0.049137298;0.0071415543;-0.11235007;0.14504784;0.045627486;0.13382456;0.03487221;0.012344389;-0.06937562;-0.21871649;-0.16689542;-0.20071375;0.023024946;-0.056778345;0.008472004;-0.15913229;-0.072774604;0.05732791;-0.10281175;-0.10098902;0.071962155;0.07680642;0.13599414;0.09550002;0.07901337;-0.05961341;0.045243163;0.00237428;0.10650472;0.10270026;0.17464791;0.052770037;0.0054709762;-0.10848017;0.117774166;0.104228765;-0.080736555;0.030245837;0.20169763;-0.031249467;-0.011807847;-0.2956188;0.12877974;0.21012563;0.26961836;-0.14748526;-0.052887216;-0.18662292;-0.16298415;0.030791711;0.13198884;-0.057246193;0.06663878;-0.11238609;-0.14920798;-0.04706431;0.1192989;-0.04043086;-0.028865159;0.008894833;-0.06264143;0.031028965;0.1337416;0.09289919;0.01573345;0.16550411;0.055045143;0.0038729995;0.022552038;-0.06951041;-0.16276151;-0.113528445;-0.1707115;0.043596398;0.082289934;-0.06440888;-0.073916346;-0.18875945;0.13519393;-0.1340942;0.1095362;-0.06312565;-0.11013689;0.026980072;-0.033362243;-0.10759789;0.20887321;-0.010960324;-0.02205736;0.23746984;-0.074773535;0.061611257;-0.0056164158;0.051035725;-0.19540343;0.12276784;0.19241956;0.03350115;0.12264701;0.037136618;0.046088353;0.10830496;-0.027828598;0.089141734;-0.051385596;0.107166305;-0.055019904;0.15289165;-0.02486446;-0.17282492;0.021499788;-0.10318596;0.17238869;-0.21548411;0.16594063;-0.075939834;-0.20545977;0.1273649;-0.0008086134;0.029801603;0.08469085;-0.15398459;0.11911858;-0.11700223;0.024608169;0.11638513;-0.17698509;-0.03182698;-0.13146995;-0.23750252;0.009721664;-0.10779588;-0.020564903;-0.044536415;-0.059591193;0.051635727;0.13617685;-0.1748849;0.0026846267;-0.017222077;0.022284158;0.061515864;-0.102810316;0.020281639;0.05562423;-0.19277956;-0.15266916;-0.030857079;-0.072127;0.20919918;-0.021575041;0.07923462;-0.22121955;0.11054297;-0.3947392;-0.014052306;-0.118218824;-0.038641542;0.13825667;-0.12130893;-0.017168034;0.025651291;0.12651348;-0.05006982;0.043192614;0.12810275;-0.036468025;-0.033084586;0.00043975108;-0.0676083;0.16278246;0.04348716;-0.09290225;-0.02461643;-0.15851669;-0.16491315;-0.015899327;-0.054267477;-0.13554141;0.06849207;0.14166681;0.026915753;0.043595724;0.124693304;0.10601091;0.01625031;0.0065033925;0.08809176;-0.035991192;-0.026498917;-0.10545366;-0.08628258;0.0028464478;-0.11486964;0.10390076;-0.12888746;0.13463154;0.21105288;0.10377737;0.020946741;0.043990426;0.0258181;-0.036164995;0.29151043;0.06355841;-0.028458659;0.09811034;-0.006052087;0.098926105;-0.07810556;-0.021750987;-0.24149382;0.06958023;0.24351557;0.12917775;-0.012969361;0.13331723;-0.22584161;0.107840925;-0.011634308;-0.05809329;-0.01169357;-0.07192603;0.05764853;-0.0723185;0.07869804;0.013286514;-0.041219205;-0.058955785;0.05182558;-0.018692179;-0.14601693;0.09986198;0.061637025;0.15579675;0.08697366;0.024677517;-0.09346242;0.21650405;0.021712577;0.30241078;-0.074739166;-0.027683347;-0.06488909;0.08562891;-0.10398754;0.0793827;-0.14455557;0.11291358;-0.12177724;-0.030750507;-0.059880603;0.18963416;-0.112280734;0.050175343;-0.11446644;-0.32372886;-0.01160083;0.0058712014;-0.15764506;-0.07910357;-0.19653568;0.10396346;0.114646345;0.07111414;-0.097595975;0.036723994;0.21194455;-0.1553743;0.069284074;0.008374957;-0.12226557;-0.06031846;-0.12977989;-0.005732075;0.10726972;0.06268251;0.002264942;-0.03245485;-0.1393104;0.2368925;-0.1609214;0.017855836;-0.10336153;-0.018539319;0.084743835;-0.12750272;0.04839155;-0.10536924;-0.1793296;0.113303326;-0.09600756;0.057351798;-0.087548584;0.033742655;-0.21286306;0.20557837;0.032398053;0.014272124;0.067354895;0.16710912;0.16031304;-0.08972708;0.058235824;0.06314296;-0.1655828;0.080760494;-0.08500964;-0.03644627;0.24939238;-0.008877604;0.0481961;-0.012175229;-0.27054325;-0.10764846;0.056922074;0.0057330565;-0.08347421;-0.16911006;-0.13254724;0.12249863;-0.22094563;-0.09110266;-0.021065395;-0.053300127;0.061698265;-0.056105785;0.15459377;-0.10316637;0.014797044;0.049288575;0.08013034;0.035977628;-0.041961215;-0.07735828;-0.055181038;0.049523763;0.02243819;0.14983994;0.19758113;0.022249548;0.09452989;0.025685215;0.05866731;-0.02704279;0.079088636;-0.21015815;-0.19844057;0.3402601;-0.06298192;-0.08508341;0.006445716;-0.37478802;0.03655259;-0.06915496;0.14660817;-0.1485025;0.12499193;-0.08276246;0.2039429;0.22330345;0.18249361;0.0888972;0.086807005;-0.018194104;0.17112428;0.0015789977;0.14332347;0.0027711552;0.059195552;-0.016053237;-0.034063786;0.0801522;-0.03578537;-0.072708294;-0.00811295;-0.12903485;-0.011543159;-0.17313766;0.10861253;0.06253429;0.061720565;0.27094102;0.09771912;-0.16755347;0.06401048;-0.026268234;-0.05535479;0.11753254;0.014920003;0.08935141;-0.01393202;0.0075475285;-0.060888354;0.1534312;0.14021003;0.18100157;-0.040921453;-0.1556607;0.08547371;-0.009598282;0.016619062;0.008504466;0.006765445;0.034470074;-0.09954194;-0.15869066;-0.080836624;0.10353823;-0.0035536024;-0.058180943;0.25431025;-0.019649899;0.054581337;-0.05146108;0.11067022;-0.07512344;0.043796033;0.01619977;-0.05889145;-0.12876262;-0.059507653;-0.085408226;-0.05431881;0.20538701;0.099503;-0.010308744;-0.031866346;0.10554058;0.13778679;0.056288853;-0.06908571;-0.026990177;-0.008522186;0.007578932;0.102737986;0.11162381;0.19009136;0.1424977;-0.15714559;0.061252214;-0.017411683;0.046706364;-0.0749064;-0.058665317;-0.06759387;0.004111588;-0.06814729;0.10440432;0.14196153;-0.065919146;-0.03429584;0.1280943;-0.00036503686;-0.08500273;0.20121264;0.22257212;-0.14906377;0.1367996;-0.07713474;0.13204813;-0.025076125;-0.19463986;-0.06093539;-0.09229716;0.14452092;-0.2595241;0.051288307;0.060378462;-0.07049336;-0.05347635;0.072754465;0.050675415;-0.13900593;0.07104741;-0.051433545;0.029630693;-0.22210856;0.083886996;0.11040546;-0.012164002;-0.15215103;0.058525346;0.044773128;0.0785445;-0.054708883;-0.05193962;-0.2596931;-0.0323418;0.075829215;-0.01878567;0.083130285;-0.007728187;-0.126583;-0.03558303;0.13250619;-0.2289883;0.2123421;0.04563328;-0.050803673;-0.077646345;0.08076819;-0.18469237;0.035993014;-0.0005718865;0.0065749576;0.06647055;0.09857562;-0.10518951;-0.123190366;0.035059314
-0.107121676;0.08298701;0.16715609;0.07120651;-0.2712882;0.10367337;0.074894406;0.049162257;0.21203119;-0.028958734;-0.18465397;0.12612039;0.07307598;0.09462457;-0.09967401;0.14014097;0.042137727;-0.21483885;0.009792139;-0.00663465;-0.042743083;0.091240294;0.08984406;0.001716621;0.06243855;-0.10316688;0.15642907;-0.005821782;-0.003301989;-0.086548775;-0.12824398;-0.05428115;0.14758188;0.08964695;-0.100783005;-0.13877146;-0.2112095;0.039011583;0.00546725;0.07772882;0.016082022;-0.10119313;-0.100408204;0.1350091;0.18631914;0.007791493;-0.111482605;-0.020768063;0.0355334;0.147353;0.02386283;0.09865394;-0.14348806;-0.037199855;0.059447333;-0.008976886;-0.1731914;-0.109251484;0.039323922;-0.13254276;0.0136352;0.054117575;-0.027619354;0.10109442;-0.17549013;0.07635394;-0.07612796;-0.21473773;0.23037824;0.035155;0.021049932;0.09540406;0.050521217;-0.14139687;-0.13308635;-0.06264435;-0.25808427;0.1299163;-0.093918584;-0.05860088;-0.09375145;0.08189674;0.07552728;-0.11498872;0.022202186;-0.0205493;0.005684126;0.11010536;-0.017229805;-0.032345902;0.054861117;0.048100095;0.14133218;0.045019746;0.034329243;0.08590449;0.087781444;-0.06379486;0.05847955;0.06689682;0.104803376;-0.08441235;0.13362607;0.111927725;-0.07124566;0.10428406;-0.32198784;0.15702505;0.04598803;0.1992364;-0.030879047;-0.08781175;-0.080109246;0.11553558;0.17623231;0.16219026;-0.0039522424;0.11985881;-0.13625273;-0.122057825;0.022081543;-0.012183601;-0.13212687;0.04322366;0.08064784;0.040955804;0.042038802;0.11025072;0.08099025;-0.05490877;0.26112515;0.013920313;0.09751966;-0.08746594;0.0062649897;0.013459978;-0.07515241;-0.19497642;0.010176867;0.078660265;-0.012654559;-0.123532906;-0.18804677;0.1533357;-0.16467033;-0.030128177;-0.06864752;-0.13183373;-0.08627473;0.07284012;-0.022733767;0.24184553;-0.053747587;-0.06550803;0.19305669;0.04088546;0.16953994;-0.07519738;0.033070233;0.06029524;0.15071414;0.04312686;-0.05265226;0.08044452;-0.02006543;0.20781492;0.008869479;-0.109037735;0.0025627047;-0.09845221;0.038066912;-0.08212857;-0.053000603;-0.018521836;-0.052495256;0.06254129;-0.06197268;0.17075697;-0.1929262;0.041991152;0.001124998;-0.101327166;0.14857498;-0.021418175;0.034709364;-0.00046187665;-0.05868904;0.119826645;-0.032035924;0.00095211377;0.00438973;-0.04802329;-0.0056265094;-0.07170178;-0.2401978;0.0887284;-0.12524839;0.05115408;-0.0009112764;0.050193105;0.06905854;-0.06131485;-0.16132185;0.043515805;-0.050234266;0.038331907;-0.20393583;-0.03592189;0.0047118715;0.18400933;-0.16611123;-0.0060261483;-0.15671967;-0.08669757;0.18599992;-0.0067077014;0.034381986;-0.17734197;-0.008764917;-0.3681882;-0.022920627;-0.15676363;-0.08800174;0.21822268;-0.08652557;0.10185735;-0.14824739;0.03228126;0.03215123;-0.03680528;-0.0069620344;-0.11466047;0.027400333;0.16994041;-0.11616207;0.09975119;-0.1328355;-0.04857485;0.14575627;-0.10932249;-0.10502539;-0.039909795;-0.20752922;-0.073838934;0.072025955;-0.008425563;0.068191186;0.025765236;-0.073540546;0.1425476;-0.13449839;0.051879764;0.1077757;-0.12512772;-0.11106413;-0.18968792;0.11210674;-0.12413347;-0.018009538;0.07905997;-0.09657338;0.09645885;0.12247872;0.1615416;0.021185786;-0.0044745808;-0.052637305;-0.040468607;0.14988063;0.06790127;-0.18861419;-0.052774984;-0.19800943;0.150669;-0.052916124;-0.03854439;-0.28926566;0.05483884;0.126113;0.14309706;0.061931808;0.06088999;-0.083093084;0.11635309;-0.15670861;-0.007944876;0.09101704;0.023010962;-0.084710844;-0.20934798;0.04726612;0.004398952;-0.1488046;-0.08251545;0.008372482;0.09094066;-0.02865626;0.12937458;0.046161808;0.030901032;0.04035357;-0.05330799;-0.057537444;0.11075486;-0.027058622;0.19857232;0.02599899;0.1644135;-0.04699787;0.14463606;0.02433477;0.036144298;-0.066311404;0.28326738;-0.13350378;-0.10147468;-0.15135267;0.20567031;0.0024320006;0.10344845;-0.08870967;-0.15843353;-0.06969373;-0.02090809;-0.13461736;-0.15633103;-0.07132508;0.18614075;0.02644301;-0.01877353;-0.0012823124;0.22422656;0.12567447;-0.067810535;0.17422119;0.01287374;-0.1053851;-0.046512824;0.022476438;-0.019970533;0.11053028;0.077397965;-0.031284045;0.054476663;-0.009912448;0.08165657;-0.16677201;0.12418653;0.063590124;0.112496294;0.042795286;-0.08905035;0.10398145;-0.07691161;-0.3172451;0.01367713;0.023323555;0.04595813;-0.06954751;-0.06472972;-0.15924646;0.18610924;-0.06907404;-0.0017167504;0.09494648;-0.015072257;0.17239241;-0.0022432993;-0.12186637;0.045234777;-0.13889231;0.06327283;0.0038921256;0.10418057;0.31346923;-0.004819839;-0.016864385;-0.00096612476;-0.18439877;0.05443495;0.01713711;-0.012010911;0.10184175;-0.1415859;-0.027096093;0.061842024;-0.14524476;-0.032926124;-0.025583412;-0.1281179;-0.031199759;-0.047158428;-0.020886881;-0.10007894;0.074369036;-0.09439763;-0.0026895986;0.10318428;-0.015309622;-0.06442824;-0.07219375;0.0043236786;0.045980003;0.13255818;0.026061662;0.14590019;0.02739244;-0.05774;0.14924113;0.16901018;0.09407036;0.09212464;-0.12064094;0.15163636;-0.19054157;0.0004895208;-0.009358158;-0.28316227;0.04928625;-0.09271479;-0.016495688;-0.0898651;0.12919147;-0.1265609;0.115587875;0.046819203;-0.019071594;0.15871248;-0.010889507;0.124169506;0.17251076;-0.057603657;0.11649031;0.049184952;0.027381383;-0.083057486;-0.038246743;0.09826792;-0.11314388;0.077484734;-0.21253236;-0.01773581;-0.14044565;-0.09889408;0.18070787;0.07793622;-0.030081661;0.19652891;0.063493185;-0.055753414;-0.026769606;-0.033977978;-0.007397652;0.09252841;-0.0013498495;0.1525775;-0.12024419;0.010111514;-0.0060621165;0.070997015;0.21801832;0.007133037;-0.011644413;0.0088907005;0.12679805;0.00052825414;0.057099354;-0.077634364;0.07025977;0.037331708;-0.12796214;-0.24499676;-0.100754835;0.17949991;0.122588605;-0.032398295;0.17855866;-0.0064757043;0.062210586;-0.05672601;0.054755893;-0.066388056;0.055579238;-0.03130636;-0.07301292;-0.06962358;0.0044947993;0.0807833;0.008304713;0.111915156;0.13577516;0.02483677;-0.071136124;0.0679509;0.07337361;-0.066392876;0.007090786;-0.010207659;0.077825435;0.03477263;0.15619557;0.2896853;0.27543592;0.06892792;-0.06066929;-0.08066663;-0.03413322;-0.118004054;-0.008723784;0.06617096;0.048755325;0.11193797;0.0122130355;0.13292502;0.15729754;-0.08677871;-0.16752554;0.13355303;-0.039315697;0.12087162;0.13968877;0.24951316;-0.06409674;-0.0026556663;-0.13033389;0.14766474;0.074838646;-0.15732904;-0.10038501;-0.16519019;0.03308407;-0.01344717;0.061029878;0.12337967;-0.19727887;0.040881842;0.004550234;-0.047429293;-0.12635455;0.16431248;-0.03724795;-0.11048009;-0.05124342;0.09838273;0.021107342;0.032460276;-0.05165686;0.09667051;0.063291594;-0.059432015;0.025343545;0.07400955;-0.17138742;0.3009769;-0.058654904;0.08964627;0.0056260126;-0.0049955104;-0.05561986;-0.055303376;-0.009597369;0.0041554226;0.20273276;0.039611544;0.034511942;-0.09446373;-0.07960173;-0.12900841;0.0016183798;0.041344125;0.13215142;0.008628621;-0.009151704;-0.02362568;-0.13662392;-0.026937578
-0.17625575;-0.028160362;0.019124068;-0.01421601;-0.16713494;0.12380402;0.056108486;0.030242398;0.31751114;0.0404541;-0.11856857;0.1222725;-0.036303535;-0.0033992908;-0.027848423;-0.08196949;0.18403383;-0.19132964;0.17543639;0.05429464;0.07330604;0.015158351;0.055810202;0.09159395;-0.06883381;-0.09205919;0.17467466;0.049751375;-0.018186828;-0.07480852;0.074953794;0.01666107;0.10421943;0.23085032;0.008903192;-0.117592566;-0.270298;-0.064287536;0.06073833;-0.06640531;-0.18274201;-0.057143815;0.031799946;0.13375737;0.2073236;-0.058056068;-0.045929197;0.013416396;-0.12861009;0.06970034;0.12221993;0.10462473;0.014055389;-0.027636051;0.052927226;-0.08950525;-0.036707107;-0.07051095;0.06195697;-0.096606776;0.02714322;0.031725865;0.062973335;0.15725595;-0.11480026;0.08380175;0.061127175;-0.14537844;0.1189809;0.010010666;-0.027580103;0.043274686;0.08344868;-0.04800265;-0.16143663;-0.03762949;-0.09636447;-0.026757691;-0.033785757;-0.17066188;0.06716958;0.10206448;0.21860063;-0.14960459;0.044773836;-0.012487346;0.015214994;0.15273462;-0.11334468;-0.10292713;-0.0662895;-0.025346419;0.1434791;-0.14928973;0.09593837;0.034972634;0.014824883;-0.02343026;0.046164636;-0.05137962;0.025812456;-0.0447838;0.091693856;0.109042495;-0.08953693;0.12700409;-0.19260895;0.05998419;0.19832817;0.19886042;-0.06675638;-0.10289896;-0.11466371;-0.004273143;-0.066917114;0.16010822;0.028246727;0.10205661;-0.21272244;-0.02145663;0.003144959;-0.08628077;-0.12126139;-0.05508731;-0.0016091024;0.025317289;-0.004381939;0.19775884;0.07745191;-0.02556407;0.24592258;0.024722323;0.09970225;0.037350077;-0.18508664;-0.041616768;-0.011180494;-0.15273632;0.05443512;0.1497431;-0.1321101;-0.12868546;-0.12514049;0.0065165344;-0.07289451;0.07523229;-0.22083575;-0.119018644;-0.116251394;-0.15177527;0.06994995;0.15738004;-0.09454849;-0.0405495;0.12299023;0.020654773;-0.0126321735;0.028556349;0.01877717;0.024726285;0.085619316;0.087237075;-0.044686113;0.096412785;0.21961935;0.15050879;0.07350562;-0.20781691;-0.07377084;0.17292373;0.041797698;-0.054761786;0.009069605;0.09288927;-0.021657787;0.046774216;-0.051871367;0.08769283;-0.26018992;0.073214896;-0.04906856;-0.109777145;0.15903111;0.040593844;0.016784491;-0.049192075;-0.04596247;0.0898296;-0.025377769;-0.033125103;0.07934376;0.039036397;0.092074275;-0.077239774;-0.06304263;0.061202556;-0.1557873;0.083897956;0.079624966;0.19574533;-0.04343954;0.07632795;-0.31319574;-0.19798915;-0.18002734;0.07819675;-0.12684476;0.019737551;-0.15076602;0.008616944;-0.048090816;0.055706218;-0.08416059;-0.17156695;0.099334106;-0.08898779;0.05482725;-0.105755106;0.00058750756;-0.28160596;0.03030222;-0.20059408;-0.09736764;0.10560665;-0.07113582;0.011322928;-0.014084896;0.22990848;-0.03783231;-0.058647737;-0.0329422;-0.2028992;0.09105086;-0.08917628;-0.18925594;-0.07282747;-0.064335495;-0.1275281;0.15470105;0.053562373;-0.088558555;-0.21497816;-0.14605671;-0.13318089;0.024202187;0.07161093;0.012419211;-0.09572637;-0.10075953;0.03145358;-0.17803551;0.048112262;0.13556576;-0.07182063;-0.20611553;-0.1534291;0.11721522;0.0012657343;-0.13826951;0.06553644;-0.026888512;0.2726879;0.16816837;0.06934766;0.14554718;-0.06824024;0.0139332395;-0.08719371;0.23416933;-0.16269068;-0.142713;-0.0653558;-0.25446612;0.22469813;0.079423755;0.042895403;-0.024421321;0.1460546;0.14108863;0.17021519;0.041078757;0.23425096;0.014075691;-0.097649194;-0.0817992;-0.13830292;0.17522898;0.13741852;-0.14698283;-0.20868132;-0.12868275;-0.12629096;-0.03826576;0.023203347;0.049833063;0.12883931;0.0032832713;0.0003031599;0.012157344;0.047660206;-0.087966055;-0.036056984;0.0070368648;0.039968193;-0.070300005;0.07060978;0.21421741;0.010773016;-0.015643993;0.21575835;-0.046086874;0.07683182;0.045832876;0.18777679;-0.14766315;0.11387405;-0.24672665;0.17397228;0.041473348;0.057929616;0.0022053453;-0.041003652;0.07883496;0.049537215;-0.09327468;-0.008313088;-0.09465806;-0.059808493;-0.007988901;0.12129892;-0.10907409;0.0028011475;-0.09622031;0.037683975;0.09774073;0.0785438;-0.09015073;0.0570035;-0.032637518;0.061642822;0.19114202;0.014864337;-0.08581694;-0.12180357;-0.061984554;0.17630449;-0.25609097;0.045122683;-0.10443357;-0.04896279;0.08434176;-0.1918078;0.056508757;-0.24487339;-0.09606946;0.04368527;0.022375857;0.078672014;-0.116764046;0.042155758;-0.23886561;0.340305;0.070447974;0.0061149006;0.06217018;0.12899525;0.08485559;-0.08311312;-0.014821703;-0.015902178;-0.00040004696;0.101124495;0.076133415;0.15728243;0.22637069;0.013264088;-0.04621672;0.053763907;-0.13037309;-0.06047092;0.15171881;-0.020254357;0.2562088;-0.15303247;-0.18796594;0.023676421;-0.16637631;-0.023453841;-0.01979643;-0.08135205;0.007093947;-0.052227356;-0.081160374;0.0211354;0.20548932;-0.08025316;-0.08802579;0.03363149;0.1258837;-0.10019343;-0.14216664;-0.06272322;0.07265111;0.0070104683;0.092242986;0.18132892;-0.13608171;0.119988576;0.14559725;0.19044617;0.037032265;0.22344218;-0.07991233;0.050785035;-0.01876939;-0.07063953;-0.034717336;-0.33070248;-0.08054926;-0.10892499;0.13654964;-0.018826481;0.14523704;-0.13277188;-0.038436245;0.13089179;-0.012647137;0.100270495;0.050501913;0.111106284;0.14920013;0.07401597;0.1953993;-0.038253836;0.020480808;-0.02269629;0.014781496;0.21807489;0.018532388;0.051275495;-0.1949335;0.028565245;-0.22629349;-0.15363492;0.040698823;-0.025974939;-0.07197805;-0.035222657;-0.0014169343;-0.241524;-0.061110213;0.087242536;-0.116287984;0.14485593;0.06822258;0.045170914;-0.123166494;0.14676142;-0.03135604;0.15760836;0.007657057;0.12751663;0.043338448;0.045487892;0.085112005;0.022918573;0.120766565;-0.1817338;0.080804616;-0.13802826;-0.0764321;-0.31537083;0.055469755;0.11987064;0.116876215;-0.020115882;0.14698096;0.047883708;0.115601435;-0.2907166;0.1425685;0.08469968;-0.009155098;-0.102441825;-0.015324183;-0.121826604;-0.0026235813;-0.071631245;-0.084277794;0.019224212;0.1359859;-0.16524272;-0.14207684;-0.14084896;-0.048015334;-0.104580574;-0.061171975;-0.044893753;0.11114814;0.06538387;0.07584776;0.19730808;0.18322277;-0.06407228;-0.03198767;-0.037107367;0.14066017;-0.041160967;-0.019564638;-0.029206064;0.1155197;0.05457933;0.07671596;0.08186206;0.13437591;-0.10171385;0.067915544;0.19899566;0.031033395;0.035350926;0.057058655;0.20997375;0.16324875;-0.018640712;-0.13077217;-0.044579506;-0.064228795;-0.055961795;-0.23950617;-0.123731375;-0.0008060793;-0.08696636;0.07236175;0.0047863056;-0.07484682;-0.107267104;-0.028730595;-0.02709093;-0.033443;-0.102328435;0.009772032;-0.12989804;-0.054172065;0.07164482;-0.09316534;-0.051348362;-0.15784283;-0.015696833;-0.042092036;-0.08978127;0.003292136;0.10307093;-0.069958925;0.13065107;0.057494536;-0.062356465;-0.0509228;0.012690496;-0.093553446;-0.02370609;0.09617356;-0.112895004;0.22772579;0.05590174;-0.08289439;-0.24630815;-0.17746235;-0.14047928;0.11242827;-0.09364816;0.15498827;0.054698527;0.08528999;-0.06687399;-0.101453945;0.2231335
-0.17178108;-0.06872749;0.08212613;0.0022066117;-0.22254428;0.010595559;-0.035529565;0.046580847;0.18696895;0.09186448;0.042866353;0.11936189;-0.015626865;0.012154335;-0.088545434;-0.012147154;0.17838185;-0.28240332;0.07940136;-0.16924442;0.037911516;0.0012982344;-0.20777544;0.14565654;-0.040778898;-0.07010215;0.020843517;-0.13238074;-0.20020656;0.08423762;0.06580545;-0.003108216;0.15170065;0.26617184;0.08783048;-0.24544542;-0.10427378;0.018997682;0.01672037;-0.0062392442;-0.085328184;-0.015714154;-0.16245726;0.21753949;0.21704888;-0.024346825;-0.05310998;-0.01557817;-0.16263181;0.061643608;-0.052574694;0.08807337;-0.1892739;-0.12688056;0.061122775;-0.1324098;-0.04825407;0.13594532;0.06553625;-0.017564798;-0.00967682;0.048205584;0.18202084;0.117185436;-0.07902577;0.07674026;0.009650015;-0.061241843;0.028366914;-0.03216202;0.08503924;0.036559854;0.13114104;-0.13661803;-0.1001889;-0.088382125;-0.16667354;-0.046599977;0.043199454;-0.10321861;0.14884254;-0.0018695322;0.30197144;-0.1351954;-0.052924708;0.0140715595;0.16183692;0.066088565;0.0026470344;0.010035245;-0.05840464;0.012653598;0.123582184;0.06760604;-0.056864593;0.16498762;0.1243917;0.055824265;0.07919141;0.009119129;-0.056977563;-0.06021157;0.07273993;0.14707212;-0.017449288;0.04098419;-0.3409185;0.008576159;-0.017838642;0.18144295;-0.019271635;0.028878884;0.083899304;-0.0024224913;0.16463804;0.12734352;-0.0005955008;0.028836899;-0.09674529;-0.04844396;-0.014196931;-0.13434254;-0.12625608;0.036197424;0.03405425;0.115848035;0.0068786307;-0.013438321;0.0825874;0.12472889;0.10163771;0.04452375;0.122198805;-0.03979006;-0.036861703;0.010111132;-0.21901776;-0.19007027;0.02168974;0.21881358;-0.06732969;-0.054603085;-0.31683588;-0.03744057;-0.15431243;0.12734474;-0.0075914417;-0.06852955;0.035952065;-0.14667037;-0.010455581;0.2132432;-0.11341058;-0.029318612;-0.008650969;-0.22109112;-0.07860213;-0.07589804;0.055883422;-0.08747318;0.11300079;0.08168213;-0.13017216;0.097197846;0.20207334;0.1837362;-0.09445808;-0.0929334;0.08509456;0.1632257;-0.10865837;-0.25426236;0.08947473;-0.017433256;0.0212702;-0.018266998;0.0025584986;0.003627363;-0.06222948;0.070037946;-0.04113454;-0.16723064;0.1378433;0.18731304;0.0030948534;-0.14612146;-0.024431061;0.0036696212;0.018703043;-0.16965085;0.0008511957;0.028620267;0.0045856596;-0.094220154;-0.20955168;0.21917896;0.04005641;-0.015056583;0.069651045;0.10933092;0.021832986;0.013757983;-0.19914453;-0.0055294405;-0.29427895;0.040680014;-0.21513751;-0.013822798;-0.026428092;0.060269404;-0.1238169;-0.021349285;-0.008071111;-0.16311511;0.013818173;0.068733566;-0.048971243;-0.30206412;-0.0021656032;-0.25575638;-0.031426173;-0.03171701;-0.13823088;0.15172893;-0.047366012;-0.069681;-0.04005087;0.04427269;0.062023245;-0.14204705;-0.10525358;-0.14164925;-0.13778937;0.14960548;-0.11673282;0.062950976;-0.07274165;-0.08628361;0.15716943;0.007964183;-0.061776493;-0.07302742;-0.11333539;-0.11538014;0.055583674;0.21328032;-0.015116646;0.010194566;-0.084208414;0.12590234;-0.053233575;0.007286156;-0.029872669;-0.10980644;-0.0005929658;-0.17817222;0.14615889;0.08169321;-0.077043846;-0.09808291;-0.12209549;0.21783589;0.13910246;-0.043459766;-0.1212142;-0.03291996;0.079390086;-0.029902892;0.2793517;0.028174896;-0.071252845;0.0474601;-0.16728707;0.16480349;0.018316954;0.006805536;-0.16271058;0.0774504;-0.049193647;0.045608103;0.074979715;0.23769346;0.17226973;-0.074498504;0.048858285;-0.09077362;0.17233571;-0.045673847;-0.09408221;-0.17470057;-0.12995905;0.039276373;-0.028836109;-0.022655372;0.018283572;0.050017387;-0.013519309;0.046362277;-0.032709416;0.035419777;0.010148603;0.14688042;0.081056945;0.07102509;-0.046360932;0.10332035;0.14506991;0.1358527;-0.12652367;0.04360881;0.025105767;-0.03135991;-0.10964637;-0.00042592696;-0.126338;-0.007773473;-0.103458084;-0.09267651;-0.06204397;-0.051589396;-0.103611626;-0.09965997;0.05602192;0.104125604;0.045633268;-0.07832953;-0.070754714;-0.08048479;0.06333523;-0.0042588008;-0.10996347;0.17847805;0.0012344158;-0.11238652;-0.08776207;0.09268943;-0.076386094;-0.043106426;-0.0989447;0.013678073;0.15560742;-0.15530768;-0.0142630525;0.040408235;-0.1340508;0.19823527;-0.2493676;0.04153498;-0.030854862;-0.032897975;0.06032145;0.042240173;-0.06265784;0.06055428;-0.21578158;0.1845867;0.062759176;-0.1670069;-0.111798115;-0.03545221;-0.2374357;0.04981873;-0.04346655;0.024358997;-0.07097852;-0.03709906;0.1898771;-0.14795297;0.026540363;-0.07988417;-0.09757748;0.09554065;0.24139225;0.034560345;0.21413979;-0.14829057;-0.078976125;0.01609022;-0.22167878;-0.03944333;0.15714052;-0.084387474;0.1567918;-0.09872141;-0.15828685;0.06024643;-0.08278024;-0.03969748;0.11914492;0.011073505;-0.00065961544;0.015924128;-0.02685538;-0.013324312;0.17409;-0.037842833;0.022264155;-0.07927627;0.21361214;-0.10890145;-0.15389189;-0.043031603;0.047930375;0.069915056;-0.040044237;0.28799582;-0.10662819;-0.009621493;0.18923514;0.08715204;0.04638702;0.12788498;0.0047705914;0.13736539;-0.15078348;-0.14476305;0.023021953;-0.3112341;0.06290832;0.016852267;-0.12182949;-0.121803306;0.07995076;-0.023203019;-0.1383014;0.02188977;-0.16728736;0.026721457;-0.17569868;0.016908936;0.15538724;0.05079955;0.16508128;0.032397676;-0.010689701;-0.13872842;-0.071232826;0.24430896;-0.13840513;-0.0425973;-0.16126424;0.107582144;-0.15598378;-0.06859821;0.05276439;0.046385814;-0.08307658;0.008398193;-0.0057313717;-0.08969098;-0.063684836;-0.13174202;0.122986495;0.05317219;-0.136637;-0.10386318;-0.039687794;-0.10162326;0.014806335;0.027504828;0.09282445;-0.025680423;-0.11525915;0.021042367;0.08600233;-0.06357025;0.050122622;-0.117476225;-0.01316859;-0.12927647;-0.024339182;-0.14450549;-0.004284266;0.11117284;0.08234689;0.008970961;0.05367519;-0.037560236;0.09164344;-0.24665253;0.17501734;0.028554495;-0.038067494;-0.068151824;-0.061811782;-0.23438339;-0.043045834;0.03785403;0.040345225;0.04975419;0.14048685;-0.0319505;-0.11679072;0.023035847;-0.1301842;0.07703746;-0.0973483;-0.07791273;0.0070424564;0.08396907;0.017955378;0.09054019;0.06413687;0.018914878;-0.110884875;-0.14908068;0.1589502;-0.026036356;0.11968469;-0.034426823;-0.046908617;0.004530249;0.12065394;0.084699705;0.19527115;-0.05061792;0.042608492;0.16710381;0.10096877;0.17238916;0.14079915;0.055675782;0.06107576;-0.1439966;-0.20362513;-0.06009512;0.008816778;-0.08502817;-0.1706263;-0.106327064;-0.0039440086;-0.041162014;0.024092201;0.18564656;-0.045816794;-0.13356608;-0.03720789;-0.11225803;-0.18586668;0.061656453;-0.04098152;-0.13012545;0.04713514;0.075579055;-0.040520158;-0.1263648;-0.074166864;0.060956996;0.041756935;0.001731202;0.04997945;0.04442441;0.07418901;0.24387647;-0.0019258948;0.014050921;0.06573767;0.018306872;-0.17316936;0.11594076;-0.004317374;0.07865439;0.20658855;0.14114314;0.06329186;-0.13115077;-0.21875027;-0.13914254;0.112221345;-0.032123525;0.26841262;0.07486136;-0.039764035;-0.056391086;-0.14351887;0.09715837
-0.113855004;0.11476242;-0.055436797;0.121089555;-0.24590015;-0.12336058;0.008511807;0.14673072;0.18185031;0.17075776;0.12796915;0.07531285;-0.16962385;0.09899377;0.01045201;0.004594567;0.03086476;-0.13944486;0.0087375175;-0.17603016;-0.074288815;-0.06556181;-0.13552877;0.13353047;0.060058624;-0.05223332;0.040908955;0.031458054;-0.14635457;0.08079092;0.01194936;0.07289301;0.023598915;0.19903074;0.027413327;-0.16906242;-0.115117684;-0.015967304;0.018433161;0.09081661;-0.104761474;-0.0908536;0.014995874;0.0657217;0.145165;-0.054518834;-0.14812861;-0.16933937;-0.059014264;0.012914686;-0.024520347;0.18088703;-0.17931448;-0.03933649;0.03012465;-0.28666866;-0.057399634;-0.077057414;0.09524152;-0.09865543;0.004567534;-0.04792015;0.22490555;0.06407541;-0.063342266;0.08801951;0.058902346;-0.0099579245;0.028589554;-0.024092581;0.04058382;0.034097813;0.19427627;-0.0008422421;-0.07704274;-0.100640155;-0.04046416;-0.108142704;-0.12530486;-0.16025823;0.102948874;-0.022794256;0.20138246;-0.07713552;-0.047004305;-0.058395833;0.048981715;0.04961258;-0.08789954;-0.043767303;-0.055976257;0.079933435;0.06364285;-0.08408958;0.059306595;0.043139175;0.09005394;-0.015781805;0.09112829;-0.13931239;-0.02764292;-0.11091431;0.0790156;-0.10196926;-0.05257578;0.103370145;-0.20782538;0.06275481;-0.09549327;0.2724794;-0.15034467;-0.011787616;0.08744065;0.0072400407;0.16645418;-0.031713262;-0.006622439;0.15195185;-0.11679336;0.008075018;0.10754749;-0.107060224;-0.100661136;0.107973605;-0.005050657;0.17639123;0.022608316;0.023501711;0.06467492;-0.05214237;0.12559743;0.1426946;0.07296566;0.056976058;-0.13747644;-0.022539526;-0.05195338;-0.04447986;0.09863869;0.07421706;-0.07466772;0.017291129;-0.24995337;0.01372584;-0.15411203;0.028729964;0.034902796;0.043419484;-0.029274173;0.042114902;-0.008037723;0.24563166;-0.013238724;-0.091020465;0.0911181;-0.28042012;-0.100708745;0.021003457;-0.046249457;-0.13942839;0.078706086;0.051611964;-0.10840867;0.059530687;0.21211973;0.14984576;-0.061284237;-0.0035809162;0.12157643;0.17630482;-0.07904803;-0.1908768;-0.032365408;0.0265289;0.012820631;0.08569893;-0.091859214;-0.020844365;0.04477245;0.06727049;0.08850451;-0.25579593;0.08728351;0.16427778;0.07574726;-0.053741418;-0.08757453;-0.026724406;-0.08211972;-0.13589132;0.042035684;-0.032890353;-0.12000955;-0.05199807;-0.1369977;0.20136634;-0.03578777;-0.10784732;-0.07036625;-0.03157785;0.07670141;0.13438872;-0.16780014;-0.04375202;-0.18899569;0.07189569;-0.14400533;-0.14403403;0.0014989366;-0.0040430953;0.112500474;-0.015491256;-0.05968078;-0.12023462;-0.042202257;0.11644276;-0.07004412;-0.2914621;-0.007271575;-0.20079982;-0.16309111;-0.024340818;-0.12820646;0.03167607;0.058387667;-0.0750695;-0.029448096;0.05927318;-0.03382875;-0.12376277;-0.024003966;-0.12359897;0.11349434;-0.009602126;-0.05141692;0.037543572;-0.11771695;-0.066608086;0.09751875;-0.010386735;-0.018893408;-0.16407558;-0.08578848;-0.0512134;0.029749576;0.22739924;0.010975719;-0.15229273;-0.07785187;0.0874682;-0.14518955;0.111981064;0.13557975;-0.07358773;-0.100249186;-0.06698849;0.2668855;0.0638169;0.11279898;0.013028347;0.063261874;0.106745884;0.10991163;-0.035945654;-0.09568253;-0.116022825;0.14144817;-0.026691247;0.29238704;0.0067019383;0.022049433;0.13962278;-0.21507382;0.18428738;-0.017466241;0.07101628;-0.07508038;0.080144525;-0.20711195;0.035172;0.10537806;0.24893774;-0.024389882;-0.10413206;0.050049167;-0.1999812;0.050105684;-0.026716366;-0.013408604;-0.089069545;0.043720577;0.12440276;-0.009430696;0.06863265;0.12549731;0.16434716;-0.048508618;0.0062936135;-0.037630025;-0.02566006;-0.030100556;-0.040215317;0.10412596;0.13260138;-0.15326095;0.20026222;0.066246845;0.12103416;-0.023035223;0.044349834;0.079266615;0.03494276;0.05801764;-0.054498587;-0.053955264;0.015361115;-0.03780432;-0.21887949;-0.038515456;0.03800646;0.023220021;-0.10358405;0.09881208;0.07089896;0.10479343;-0.07326972;-0.081978135;-0.025861839;-0.054754965;0.0015577633;-0.09244462;0.21625672;-0.014558263;-0.017459746;0.022455873;0.18477069;0.06106204;0.03775959;-0.23122066;0.14061667;0.087600864;-0.18496798;-0.019572511;0.030679788;-0.15257834;0.21917202;-0.1969237;-0.030984519;0.15475886;-0.08575359;0.19579664;-0.10841856;-0.087498724;0.02267324;-0.083149105;0.19193959;0.03177188;-0.054181363;-0.112424314;0.11815145;-0.1972643;0.1183224;-0.21543823;0.02014529;0.043789834;-0.048346646;0.07694319;-0.1728759;-0.07948196;-0.023116369;-0.087263934;-0.029919341;0.1516146;-0.017008847;0.12786776;-0.07835698;-0.06468822;-0.102292374;-0.19336605;-0.13824566;0.08081196;0.0022773847;0.15072174;0.035445258;-0.09168522;0.08714869;-0.06564247;-0.0010582;0.12115395;-0.013875816;-0.15122943;-0.06923718;0.08304161;-0.021711256;0.17779922;-0.040820938;-0.12227804;-0.0479899;0.11436235;-0.19431634;-0.107563734;0.008087362;0.11667401;0.16993752;0.017566383;0.1840462;-0.0064720497;0.06444026;0.112081185;0.015951065;0.09582548;0.17200384;0.12483004;0.28967854;-0.09527105;-0.045926265;-0.029190803;-0.2587707;0.032978777;-0.046818107;-0.12879877;-0.07464634;0.12695047;-0.18755732;-0.03473954;0.088033855;-0.40686202;0.08250675;-0.09016609;-0.031705864;0.12032044;0.22341578;0.16178259;-0.011694139;0.08743901;-0.16160169;-0.002099061;0.083936006;-0.13158907;-0.045103006;-0.050021496;0.10372371;0.0023213786;0.017680272;0.024999108;0.06670822;-0.059392802;0.13809966;-0.07270256;0.0061179046;-0.12593262;-0.091550834;0.09936808;0.029150045;-0.06956507;-0.15022153;-0.13581921;-0.036845043;0.0032816518;-0.009248115;0.15591665;0.001993805;-0.030931415;-0.08517115;0.14841613;-0.055923842;0.02718052;-0.25823542;0.09214101;-0.17238687;0.015969517;-0.28615683;0.11148726;0.04680346;0.0743195;0.14865504;-0.08782879;-0.022908732;0.059649;-0.2107289;0.24445674;0.12969318;-0.020125246;-0.1351032;-0.03322902;-0.12175764;-0.025231833;-0.050556663;0.080700845;-0.0272254;0.0046445075;-0.16051956;-0.15906353;-0.13446261;-0.008450788;0.028826285;-0.04082714;-0.0048358934;-0.002298365;-0.024215592;-0.07049117;-0.05814261;0.15324987;-0.14844367;-0.09229021;-0.1281989;0.07351324;0.025580937;0.052913826;0.10561818;0.14806743;0.08313235;0.14033906;0.10245144;0.058108896;-0.0060708947;0.020867335;0.079583675;0.15068012;0.073946096;0.14227676;0.056193892;0.12895493;-0.1378131;-0.078187615;0.016065897;0.069860265;-0.026672475;-0.07179281;-0.09131753;-0.069282554;-0.05345724;0.06814402;0.13438378;-0.12394353;-0.036698688;-0.04852757;-0.023471178;-0.18360034;0.068502866;-0.08557164;-0.07070375;0.0038650904;0.008393555;-0.030752094;-0.06723455;-0.055952024;0.01569668;0.08453265;-0.19735539;0.07546298;0.14760794;0.050493214;0.17416735;0.12832202;0.061832927;0.08960909;0.090020925;-0.16383152;0.008042904;-0.0147079555;-0.014142849;0.041422725;0.011324092;-0.1410536;-0.17922722;-0.14662245;-0.18872857;0.08710444;0.03584142;0.18459667;0.09529989;-0.10352783;-0.056286957;-0.12672114;-0.015220226
-0.15426469;0.15671353;-0.07694273;0.17320816;-0.18624455;0.050556757;-0.015152489;-0.084183104;0.028747845;0.1325901;0.1516218;0.12877207;-0.05060888;0.08789872;-0.024925089;-0.023471918;0.02586809;0.02131554;0.055615775;-0.04001803;-0.0031187576;-0.05997404;-0.1772215;-0.018429143;-0.06354706;-0.10716847;-0.034609817;0.0042742803;-0.0030780763;0.10881388;-0.053508732;0.08268018;0.04674757;0.19542286;0.1714414;-0.15482832;-0.09643441;0.039926857;0.07569109;0.0754185;-0.14734073;-0.096753486;-0.009696787;0.035454057;0.14646405;0.00014936696;0.021269877;-0.058721796;-0.0031658004;-0.05866058;0.122618325;0.061886027;-0.11608399;0.15466973;0.10018009;-0.11236262;-0.1399459;-0.09687882;0.06475515;-0.079764694;-0.015695551;-0.064180374;0.2949402;-0.02498582;-0.06907008;0.03648083;-0.07028254;-0.10567337;0.21450357;-0.09242882;0.1669338;0.1147157;0.11469876;0.0061083795;-0.099888735;-0.2158401;-0.2565485;-0.18862982;0.0010291145;-0.28494594;0.092288986;0.044350106;0.24035151;0.07880695;0.1098463;-0.05454619;0.11267111;0.08556744;0.011620652;0.07303773;-0.06526406;0.106929824;-0.11213982;-0.01337735;0.106919095;0.2173459;-0.0378755;-0.055965662;0.040105224;-0.15058881;-0.07841482;0.06789995;-0.058666173;0.09929165;-0.101537496;0.07412843;-0.21064916;0.04460495;-0.13601282;0.37169647;-0.013878331;-0.027420525;0.2297985;-0.06768016;0.003534531;-0.13784628;0.0010154408;0.013043989;-0.070796184;0.108205676;0.19046904;-0.14545439;0.009088117;0.086002685;-0.07178699;0.12794606;-0.021231163;0.019342102;0.09822148;-0.041800495;0.17822847;0.14553894;0.07183441;-0.00797604;-0.09778438;0.117519885;0.07617766;-0.09938156;0.12644951;0.060385533;-0.14891008;0.1029769;-0.29131016;-0.1112393;-0.11582393;0.009942766;0.051895242;0.09503922;0.0678788;-0.035846766;-0.0099274;0.23751967;-0.028386902;-0.09928739;0.033227537;-0.09126086;-0.10702921;-0.020919666;0.0009381875;-0.1229728;0.06555978;-0.097669795;0.022140726;0.0039448943;0.05618273;0.19610702;-0.108457305;-0.0808424;0.029590858;0.17035985;0.024648363;-0.2515676;-0.22787283;0.026813747;-0.08105076;0.14548135;-0.012655045;-0.06194919;0.08097653;0.11465119;-0.019340841;-0.19019398;-0.055869468;0.09701075;0.021218475;-0.04422439;-0.035264757;-0.0065129395;-0.09850698;-0.31834972;0.12630515;0.11935558;-0.045115873;-0.17653807;-0.10870187;0.16711713;-0.013761961;-0.10263139;0.008823406;0.084755994;-0.04222588;-0.014436117;-0.11805289;-0.021522151;-0.04527614;-0.011792955;-0.12323881;-0.1232586;-0.013282634;0.11362699;0.11709205;0.0034597386;-0.06592924;-0.06419353;0.08971988;0.18165109;0.08603061;-0.23834443;0.07441768;-0.16845892;0.009047803;-0.028884437;-0.026569525;-0.009669239;0.07235451;-0.08085852;0.15953876;-0.024644222;-0.051621344;-0.112902634;-0.15448767;-0.065918066;-0.06897334;0.013562226;-0.055862732;0.10478239;-0.1615887;-0.07172294;0.04793989;-0.01468831;-0.052629326;-0.0008791682;-0.026941095;0.11527811;0.07327817;0.38405684;-0.06333245;-0.1064891;-0.03640048;-0.05885841;-0.1559001;0.13795237;-0.008656431;0.122657865;-0.18329832;0.036828764;0.084648885;0.039065775;0.031628642;0.08360737;0.060395792;0.001165886;0.02600876;-0.13418813;-0.040138047;-0.06674573;-0.03466437;-0.05970185;0.09173636;-0.099432126;-0.024342591;0.03043619;-0.3286863;0.06509136;0.03771954;0.07237239;-0.27919784;0.014316928;-0.09114515;0.00565784;0.07698219;0.043790802;-0.051911376;-0.13494629;0.011489946;0.020561423;-0.050277907;-0.014890858;-0.11556334;-0.024144663;-0.26345402;0.06736939;0.16451363;0.03197282;-0.01797734;0.25606206;-0.021383513;0.05747921;0.046886507;-0.098835185;-0.15993235;-0.004744718;0.026300665;0.0933285;-0.09380029;0.138973;0.043847155;0.09801989;-0.07099217;0.1247237;0.11886098;-0.15199818;0.047165774;-0.014150213;-0.14719445;-0.1330827;-0.007685694;-0.30327627;-0.05632968;-0.07402442;0.09363803;-0.12538111;0.13396174;0.10915778;0.13157086;0.0150727825;-0.07716836;-0.052109715;-0.12212562;0.04881667;-0.078839794;0.26153952;-0.011408964;-0.106979474;0.014521392;0.27285567;0.15734974;-0.03179873;-0.043832496;0.07171464;0.06114576;-0.08512645;0.07695526;-0.14576991;0.0023407233;0.02188476;-0.15503332;0.053295657;0.089915425;-0.06401431;0.07127189;-0.09374102;-0.14599794;0.026099823;0.02038417;0.1083145;-0.048162214;0.11079349;0.05444126;0.22081609;-0.16878033;0.001921478;-0.2580911;0.06481716;-0.08894885;0.016279101;0.15136966;-0.11009674;-0.2387893;-0.07102035;-0.07646688;-0.013692438;0.1279273;-0.04870564;0.07049909;-0.09539063;-0.111667;-0.22526658;-0.15990102;-0.1481891;0.10232148;-0.053771984;0.1415883;-0.037621573;-0.03288845;0.03173982;-0.1476384;-0.074257605;0.009301752;-0.019776724;-0.14956625;0.035708714;0.06937416;0.19823712;0.062148478;-0.016343081;-0.009021424;0.009487704;0.06915846;-0.057279427;-0.08251848;-0.008802494;-0.05799909;0.12721962;0.067623265;0.20203352;0.06867375;-0.059467945;-0.06112152;0.03926876;0.049077906;0.12052317;-0.05974393;0.10249286;-0.10804323;0.03268943;0.09755086;-0.14408131;0.04638197;0.09783837;-0.020154195;-0.0667108;0.114163816;-0.0014726577;0.10405207;0.106499;-0.38545367;0.21688765;-0.0099485135;0.033535;0.20754535;0.20629176;0.12376386;-0.03468841;-0.06802706;-0.12515992;0.02091584;0.08903227;-0.03731151;0.0098436875;-0.17257535;-0.054835267;0.13946676;0.051835205;0.06448706;-0.00014539123;-0.16063517;0.1686836;0.01972857;-0.00010350432;-0.024363901;-0.045334842;0.0367047;0.10207535;-0.100378074;-0.023869287;-0.20258465;0.115500055;-0.032926396;0.2104466;0.10122752;-0.052643094;-0.13835941;-0.066260315;0.082333475;-0.043873124;0.0236473;-0.27793694;-0.05556898;-0.00770044;0.003403158;-0.1826427;0.07481353;0.08847682;0.05620732;0.16938426;-0.034882143;-0.058919095;0.11158168;-0.27331924;0.12627307;0.15036711;-0.1726506;-0.021502074;0.018064218;-0.17255965;-0.047238585;-0.17750327;0.17430522;0.035084184;0.02577913;-0.15525256;-0.3427744;-0.10683264;-0.025119353;-0.082697466;0.040263202;-0.09741244;-0.070526615;0.11664944;-0.12728289;-0.1355223;-0.020721244;-0.024249123;-0.005075238;-0.027341055;0.21462446;0.15555683;0.07967067;0.09418138;0.22140291;-0.0029877324;0.073771775;0.06037853;0.058746625;-0.12587346;0.19495556;0.20153566;0.1369412;0.08191889;-0.03424578;0.0530849;0.13372965;-0.026005846;-0.01297318;0.07660945;-0.013216429;-0.12496953;-0.18651895;-0.15325372;-0.1007191;0.02747285;0.047111843;0.25261784;0.0006154903;0.055675186;-0.0124380505;-0.031345487;-0.090935335;0.06684631;0.06086804;0.07500534;0.00039255124;0.04343538;-0.1569082;-0.07702231;-0.13914469;-0.053669106;0.1292565;-0.01382;-0.03884371;0.013767561;0.2670436;0.036395576;0.062382802;0.056643996;0.07194871;-0.0806827;-0.09067956;0.103789456;0.048161816;0.08411578;-0.04430994;0.10952987;-0.1361507;-0.2560335;-0.22076118;-0.12209042;-0.07331314;-0.01194062;0.051986035;0.16040744;-0.1390213;-0.15373974;-0.10769416;0.07881989
-0.10428899;-0.099954866;-0.17129609;0.12447123;0.050402787;-0.004203464;-0.26084253;-0.1674022;0.11678352;0.14387241;0.16343427;0.17508282;0.054123614;-0.023030078;-0.0770304;-0.0452016;0.014477361;0.05255463;-0.07232407;0.047342803;-0.017059669;0.03170245;-0.29023263;-0.06502869;0.071161024;0.024925426;-0.07656602;-0.0106808385;-0.056343954;0.11464527;0.023314316;0.058307536;0.11424699;0.1872001;0.18166997;-0.03835036;-0.038740598;0.10468464;0.06959426;0.17062871;-0.24909048;-0.11266857;0.13037103;0.20475313;0.20032692;0.11618132;-0.045481924;-0.03296283;-0.0035661247;0.15310174;-0.12168545;-0.00051994727;-0.062457237;-0.018180935;0.021220118;-0.13113911;-0.122657105;0.04668049;0.056022435;0.07488162;0.016604347;-0.05933602;0.10056914;-0.014979457;-0.15486178;-0.10207524;-0.0032583494;-0.13616525;0.18015058;-0.08351204;0.008695851;-0.05167083;0.13669293;-0.01599937;-0.19942787;-0.16530725;-0.14481756;-0.13106315;-0.056084625;-0.06602877;-0.02734304;0.0018658309;0.19416277;-0.08071939;0.047316864;-0.047183536;-0.012718427;0.13938278;-0.08271867;0.004889676;0.11823829;0.19078603;-0.13022286;-0.014778706;0.117902994;0.25841784;0.026362138;-0.093834855;-0.015656712;-0.11783354;0.04681732;-0.089157246;-0.087105215;0.08047095;0.050629716;0.07452016;-0.117180504;-0.00981152;0.068957984;0.32777587;-0.10769001;-0.06280036;0.22986524;-0.038501833;0.04517602;-0.14311771;-0.03769078;-0.026820375;-0.14041151;-0.100933924;0.17116164;-0.055007488;0.04521076;0.11574221;-0.0915455;0.20453003;0.16248022;-0.03124862;0.15690434;0.11175875;0.15466656;0.15301396;0.075188644;0.09853057;-0.06961253;-0.036146346;0.013937766;-0.06178379;0.08019574;0.0020002192;-0.08713107;0.03038915;-0.20868286;0.06971918;0.05639973;-0.119255334;0.062139537;-0.054823354;0.09545685;-0.062872134;0.101308435;0.012607388;0.047837023;-0.026402818;-0.05838225;-0.1256697;-0.24479555;-0.11218697;0.04777617;-0.207056;0.022017373;-0.090354666;0.0004622326;0.017032392;0.049552973;0.08906378;-0.050212473;0.012731159;0.12880869;0.12542588;-0.032489896;-0.27591652;-0.12490305;0.037041824;-0.12769842;0.0730995;0.08807069;0.15518135;-0.030129133;0.03060038;-0.024098735;-0.19579269;0.046797607;0.20635682;-0.06813373;0.060678355;0.02034706;-0.08270612;-0.056301333;-0.3190113;-0.0016571804;-0.0059124744;-0.09075069;0.061819956;-0.066373244;0.17413783;-0.17098083;-0.07603066;-0.009104869;0.020251533;0.07931344;0.0841422;-0.16800888;-0.012824505;-0.15731788;-0.025931045;-0.00855477;0.0037449724;0.08530325;0.11573272;0.19235152;0.003778646;0.05773127;0.006544136;0.056197103;0.17063159;0.038782816;-0.23034504;-0.0054963655;-0.19849204;-0.026093831;-0.058362875;0.008785812;-0.1823695;0.018172063;0.025561452;0.08841672;0.01717916;0.03430649;-0.26188362;-0.06227974;-0.12452773;-0.08893712;-0.11788388;0.041494634;0.054800197;0.090729915;0.113875;0.08596505;0.043936525;-0.030704703;-0.03525018;-0.028383197;0.10803751;0.0640214;0.3569452;0.04837504;-0.113982856;-0.09426538;-0.0828153;-0.18108538;0.176399;0.045454502;0.00044608998;-0.046009857;0.06234321;0.01485877;0.033327665;-0.04028465;0.06184386;-0.08193661;0.010107287;-0.021129366;-0.13872996;-0.11772261;-0.022686303;0.035229973;-0.072672345;0.1700619;0.09355123;-0.07573985;0.13002604;-0.29241958;0.06452901;0.17019618;0.10215094;-0.29583082;-0.03334325;-0.087336786;-0.03624101;-0.026732469;0.082495645;0.13294734;-0.11935962;-0.008520381;0.05445905;0.025269132;-0.19508335;-0.0044726827;-0.041147213;-0.19382723;0.2240288;0.23640816;0.003976933;0.16662098;0.15063111;-0.009470888;0.094412185;-0.08511513;-0.08812851;-0.14846534;-0.06416522;-0.07285638;-0.032533552;-0.05997482;0.05716932;0.05269907;0.27519417;0.10183881;-0.04182168;-0.019073704;-0.16508323;-0.06455174;0.04438419;-0.25152695;-0.030459514;0.058644265;-0.22230086;0.036269378;-0.086064875;0.004776407;-0.085720934;0.043753654;0.077495046;0.081716634;-0.023322104;0.036257476;-0.04336616;-0.091556996;0.0028778343;-0.13230942;0.20984654;-0.0562795;0.029083602;-0.00095183763;0.27939;0.13359009;-0.092513554;-0.16432777;0.056590572;0.13697745;-0.23736124;0.049930844;-0.06834488;-0.12364102;-0.020498183;-0.110688314;0.066890344;0.110359214;-0.077266596;0.26171237;0.042769734;0.0014879411;-0.01670289;-0.071946315;0.24302387;-0.09807644;0.15139875;-0.083222225;0.14197488;-0.17948101;0.07495241;-0.22701292;0.014869259;-0.08242118;0.1092853;0.02424768;-0.044110917;-0.10026243;-0.05785583;0.026725924;0.019883621;0.11197489;-0.07278632;0.037955977;-0.17349096;-0.2536485;-0.07327123;-0.102864526;-0.07423716;0.06645573;-0.036602255;0.18286493;0.11865068;-0.07075129;-0.101116896;-0.092562966;0.14304762;0.20153643;0.08138623;-0.05592984;-0.02681218;-0.01871504;0.05611405;0.1660967;0.05676955;-0.0011871445;-0.042377822;-0.055710934;-0.057650935;0.12358758;0.09121323;-0.09810606;0.069861285;-0.065894485;0.16967054;0.11688708;-0.07842202;0.010272361;-0.03642237;0.04831427;0.22292641;0.21411163;-0.0053630127;-0.12003148;-0.052197687;0.11772131;-0.004698868;-0.011261947;0.12965186;-0.15116057;-0.10046172;-0.012386094;0.03599586;0.07195036;0.087005116;-0.33159468;0.11078133;-0.12769356;-0.18174407;0.05171292;0.20270015;0.08751252;-0.12156589;-0.022906851;0.053419467;-0.017826688;0.13958885;-0.030591471;0.024672475;-0.12611906;-0.1018473;-0.08448813;0.0988943;0.004953293;-0.018199226;-0.038417097;0.15436532;-0.165295;0.04844355;0.11953124;-0.022497589;0.13967116;0.13098936;0.08341288;-0.09422916;-0.034179896;-0.028783018;-0.08379124;-0.022041611;0.048501857;0.03615105;-0.10591254;-0.010902452;-0.06699514;-0.10316219;0.03665494;-0.23387155;0.17346609;0.06216453;-0.088754356;-0.14873603;-0.032719564;0.08210706;0.046267476;0.14034128;-0.121275246;0.090831585;0.049743984;-0.17185174;0.098616675;0.0039189733;-0.26655075;0.024164649;-0.07627435;-0.21486525;0.062151436;-0.04065918;0.058794286;-0.021275386;-0.03141879;-0.20580827;-0.30006;-0.1031817;-0.054063857;0.08785397;-0.077002846;-0.087131664;-0.05065349;0.10388341;-0.11798791;0.022582931;-0.1801543;0.010745349;-0.16890189;0.06083804;0.28279272;0.1432756;0.109844886;0.06905191;0.09914745;0.025943113;0.058913965;-0.041172825;-0.090912536;-0.08593705;-0.012644866;0.2289342;0.03195262;-0.006950592;-0.06514989;0.020454802;0.079472154;-0.021267727;-0.03891761;0.0383925;-0.032996807;-0.13807036;-0.21568085;-0.028169334;-0.11638802;0.12083935;-0.18644243;0.18642187;-0.070814654;-0.028370678;0.009258812;0.20085946;-0.094943814;0.14565471;0.17671214;-0.019966543;0.0067549557;0.0077952393;-0.10416129;-0.08805403;-0.13035035;-0.04406473;0.033334933;-0.117298365;-0.012511006;0.2209424;0.27331877;0.013662362;-0.053542946;-0.093283884;0.090930656;-0.024869101;-0.09703561;0.09051002;-0.021937674;-0.032364927;0.14198343;0.10126638;-0.06542428;-0.045062464;-0.17169003;-0.1458516;0.050637953;-0.03355923;-0.04984684;0.052940827;-0.155163;-0.15194133;0.011812527;0.033335567
-0.1431082;0.18263698;-0.0890329;0.25220582;-0.10763607;0.054193657;-0.23971514;-0.012339333;-0.15004969;0.20345014;0.043422714;-0.037730798;-0.070792936;0.058197763;-0.051927626;0.0028341592;0.011372624;-0.15209043;-0.07935448;-0.02350681;-0.111971095;0.11156472;-0.18570407;-0.09082017;0.008346364;0.00455251;-0.020711934;-0.124618925;0.024096409;-0.0131658;-0.057453;-0.1453765;-0.0466413;0.24468952;0.092108674;-0.087434836;0.12992322;0.09377132;0.2392676;0.19778451;-0.22770493;-0.01413047;-0.01070052;0.15007062;0.17768182;0.021863064;0.09067164;0.05170873;0.030621868;0.0647557;0.11916771;-0.123741776;-0.16886747;-0.111000344;0.012241261;-0.15076527;0.006943913;-0.07995799;-0.029293315;0.09885972;-0.024033956;0.035516474;0.04460287;-0.058199838;-0.2294606;-0.08534471;6.5916334e-05;-0.23829234;0.18006535;-0.043223858;0.008016736;0.035565596;0.160408;-0.12598345;-0.11923198;-0.21490249;-0.24358466;-0.0355713;-0.040328283;-0.040480945;-0.024263382;-0.09905702;0.113366485;-0.1788134;-0.02023359;-0.16296789;-0.14053133;0.17495649;-0.06903421;0.06408307;0.14217229;0.11212806;-0.21319394;0.039636564;-0.17602734;0.36235416;2.5953272e-05;0.06728019;0.094035245;-0.08575588;0.02026724;-0.10776506;0.07338627;-0.039022263;-0.04093358;-0.08205788;0.056983918;0.06643951;-0.054312255;0.2540504;0.014474491;0.004408634;-0.05654999;0.018435733;0.060730185;-0.022681465;0.09184487;-0.10730787;-0.026231593;-0.04458942;0.09635356;-0.055866275;-0.0053645433;0.027322344;-0.010259437;0.011908735;0.13993946;-0.11072574;0.037835933;0.003288084;0.13938577;0.121164426;-0.05829929;-0.13450009;-0.1303521;-0.0372965;-0.06325307;-0.01771237;-0.083406456;0.13879175;0.09782427;0.096915536;-0.21218635;-0.06777912;0.027385091;0.10800958;0.02637624;0.08134627;0.052659813;0.0047692778;0.03710537;-0.011048031;0.13007872;-0.03504962;-0.105811596;-0.05876469;-0.1113297;-0.06238708;0.10028099;0.040634654;0.03315454;0.039310116;0.02259959;-0.059970196;0.07501264;-0.07098251;-0.06369755;-0.055018898;0.055071466;0.16542375;-0.11975351;-0.25600797;-0.078836486;0.009663434;-0.09858328;0.042184975;-9.034527e-05;0.028713781;0.046004616;0.16621013;-0.04196399;-0.09404299;-0.018844914;0.2169712;0.0030171871;0.0641084;0.0037700743;-0.07106492;-0.075519085;-0.13048977;0.20003459;-0.026800247;-0.014657579;-0.030122338;-0.09333354;0.040168155;-0.049896292;-0.03471469;-0.13870288;-0.05743489;-0.024483526;0.040245794;-0.012492533;-0.14594278;-0.05920523;0.045565233;0.0032490296;-0.05486555;-0.0026180889;0.1421232;0.05083242;-0.13560016;-0.1115528;-0.101067685;0.23734032;0.1971151;0.25969467;-0.123856954;0.058061674;-0.20770457;0.110204734;-0.0049855434;0.042336192;-0.044635855;0.06174028;-0.050229166;0.051081687;-0.14615297;0.09938464;-0.06331928;-0.06536806;-0.00075902394;-0.08116668;-0.015503864;0.0035189635;0.10606141;0.054773785;0.0032017669;-0.0048731305;-0.004801425;0.02222984;0.047873534;0.1414796;0.022558767;-0.009757899;0.2886252;0.013342168;-0.0055545615;-0.06390769;-0.060349386;-0.12638076;0.08032042;-0.0154398475;0.020871177;-0.118815206;-0.104654886;0.07472184;0.0105411885;-0.077310115;0.04962865;-0.013144162;0.0029196297;0.023334196;-0.055524528;-0.13435742;-0.055712026;0.007738032;-0.052339777;0.05545439;0.08531857;-0.09290852;0.09671637;-0.20957416;0.1544276;0.08083139;-0.020386178;-0.17886892;-0.040514275;0.052924268;-0.027483027;0.06582505;0.045034558;0.0024372782;-0.014304715;-0.06824935;-0.10461007;0.10087623;-0.12247801;0.0702309;0.09539906;-0.103186324;0.044309486;0.102712676;0.013692407;0.1666756;0.17348813;-0.021006674;0.035984363;-0.011465272;0.02615661;0.03357761;0.057559773;-0.007823671;0.046123937;-0.09477073;0.10389726;-0.09240825;0.11696325;0.061814986;-0.06629858;0.07372635;-0.10501713;0.10450008;0.05373181;-0.19284558;-0.07097837;-0.03866536;-0.3464818;0.016982097;-0.044736803;0.021360295;-0.14305206;-0.000233606;0.06561812;0.14119615;0.068363786;0.054153457;0.057055857;0.026287744;-0.029954238;-0.149526;0.26347575;-0.040281415;0.025952639;0.009096006;0.035993446;0.071375094;-0.21518423;-0.0027101955;-0.007233391;0.075803995;-0.1393005;0.09362191;-0.035776444;-0.076625116;-0.035357896;-0.04931548;0.09409483;0.06647602;0.05585009;0.2470911;0.13745251;-0.015963612;0.051351245;0.011316716;0.21575008;-0.13027686;0.05070628;0.1107153;0.20483232;0.015504301;-0.070771955;-0.06261837;0.092077404;-0.11527035;-0.046906598;-0.020520896;-0.06312804;-0.1713293;0.17393418;-0.05754958;0.0576615;0.13933094;-0.12572467;0.022667427;-0.086772434;-0.13887373;0.014533641;-0.014903865;-0.12398882;0.104708865;-0.18306783;0.050002553;0.13243428;0.027252842;0.07818661;0.020047875;0.024353595;0.2182868;0.23383832;-0.1806081;0.10924617;0.06381042;0.1665371;0.0051358673;-0.032834902;-0.004909759;-0.05032183;-0.057323124;-0.1353342;-0.07243399;0.054711763;-0.0013568491;0.11861108;-0.0129250055;0.041486353;0.16305596;-0.09085216;-0.10613086;-0.02218622;0.03926774;-0.0023456486;0.14896527;0.12623434;-0.15979804;0.038008135;0.028454578;0.07847268;0.026418108;0.037439965;-0.11251893;-0.0059277336;0.049767297;0.088122934;0.10624456;0.03307908;-0.13325559;-0.01874744;-0.06671832;0.024175335;0.038050175;0.18845224;0.07985065;0.043365054;0.0057722903;-0.026053058;-0.032592416;0.084422;-0.11069912;0.1049664;-0.08886702;-0.11161729;0.08758601;0.1822595;0.06420294;0.019288788;0.048119333;0.23158196;-0.076467864;0.022299735;0.1465315;-0.251751;-0.088120036;-0.015630718;-0.06236796;-0.0744396;0.0023231823;-0.047500823;-0.090538226;0.015387347;0.0052755256;-0.0349052;-0.013223213;-0.10422707;0.0045113745;0.0034099442;0.01222516;-0.100022875;0.09119194;-0.03504269;0.0061883214;0.006473295;-0.059297405;0.027108645;-0.004406889;0.10939557;-0.005451997;-0.00214613;0.10248621;-0.10994325;0.15175603;0.07164641;-0.16289714;-0.12307957;0.032097686;-0.2269267;0.0045870943;-0.025816323;0.057030942;-0.01594717;0.04477697;-0.049868613;-0.18105559;-0.09402885;-0.0358227;0.121883236;-0.011498714;0.0043264977;-0.12745747;0.039452393;0.11639839;0.03031097;-0.14934793;-0.021280183;0.09758685;-0.033947263;0.21040182;0.07847998;0.11509134;-0.036306385;0.16136725;-0.0072805826;-0.021223657;0.028296579;0.09773303;-0.11312286;-0.029102284;0.18183678;0.026818004;0.036700368;-0.11574937;0.034454916;-0.057852786;0.029379467;-0.06673383;0.047040876;-0.08752941;-0.1626619;-0.09354893;0.06164199;0.09521148;0.041116856;-0.07642521;0.16603996;0.01545454;0.021282721;0.1296171;0.03841271;-0.21774359;0.19904897;0.030233908;-0.062478416;-0.011822382;-0.008652054;-0.027193537;-0.030525157;-0.07773971;0.05613522;0.16099124;-0.018452737;-0.06486944;0.20341852;0.09499764;0.022622162;-0.04588506;-0.03322267;0.14082764;-0.0008144789;-0.17675036;0.15581115;0.011978349;0.060366977;0.04264658;0.061359286;-0.038952574;0.00806874;-0.08041941;-0.14709017;-0.07001627;0.00021576097;-0.009668685;0.009675652;-0.0023363563;-0.14365683;-0.08162369;-0.04239965
-0.003340557;0.122878;0.045220908;-0.006100331;-0.047899805;0.15416454;-0.17333803;-0.053490303;0.033094503;0.16254818;0.042441532;-0.08976265;-0.04404043;0.12925485;-0.07487062;-0.017748725;-0.029425772;-0.115949355;-0.054861527;-0.019267526;0.007037728;0.033687137;-0.15741777;-0.07225722;-0.009286522;-0.15142606;0.072411664;-0.041070953;0.15248553;0.052689362;0.023534335;-0.0797019;-0.06444657;0.19886698;0.18916042;-0.17550783;0.20319408;0.08928297;0.1903175;0.17889217;-0.20055974;0.022121783;0.027913077;0.099495135;0.17527309;0.039837796;0.06367018;0.005919038;0.18859193;0.015405376;0.03338547;-0.036918152;-0.12864202;-0.1655468;-0.05446491;-0.070392735;0.029696442;0.07245205;-0.07277291;0.010707096;-0.07042956;0.028789058;0.11775329;-0.05695097;-0.26761585;0.08259439;0.049100712;-0.031921927;0.10817532;0.0195757;0.069459975;-0.03427074;0.15058637;-0.0384011;-0.048506565;-0.10930176;-0.27250123;-0.0661769;-0.019788679;0.060765404;0.026770273;-0.035611853;0.05967323;-0.1822676;0.11654422;-0.12242697;-0.14409561;0.12004754;-0.039062005;0.07915387;0.20033887;0.08370562;-0.22590554;0.18879436;0.13459156;0.4089314;-0.037353612;-0.013352291;0.038827922;-0.04072964;-0.072620235;-0.11918378;0.11531313;-0.12191274;0.03705554;-0.016444141;-0.20917313;0.13505271;-0.044966277;0.107890815;-0.110077694;-0.18851487;-0.21113513;0.06579253;0.19924474;-0.17128909;0.09772645;-0.10594909;-0.09350804;-0.04802451;-0.040973276;-0.17570005;0.13793126;0.0959884;0.025916668;0.08618169;0.082482286;0.14274286;0.08108295;-0.08002418;0.09355541;0.1408704;-0.20782384;-0.048795797;-0.20096007;-0.02778493;-0.13916084;-0.14481203;0.030218342;0.04342823;0.023626594;0.08739409;-0.11801484;-0.11471034;0.11134529;-0.014492776;-0.1572718;0.18157497;-0.057604767;-0.029213663;0.049985565;0.05757574;-0.04994179;0.10703834;0.061558608;-0.022905035;-0.17132223;-0.12450749;0.032638326;-0.063007616;-0.07255035;-0.057128906;0.017870653;0.18192275;0.1388267;-0.11363088;-0.00044594213;-0.02825962;0.0997971;0.07188193;-0.044978898;-0.09327194;-0.123699725;0.033263307;-0.11974001;0.1825275;0.13807738;0.22028917;0.0060000415;-0.11866481;-0.07823112;-0.05608558;-0.14541967;0.16212633;-0.036369972;0.039850496;0.052097775;0.14553323;-0.058100473;0.0070116045;0.03957685;0.06814104;0.10386559;-0.093623854;0.07362171;-0.046549335;-0.17073993;-0.09632715;-0.14280726;-0.14974278;-0.038981076;0.008795089;0.13956508;-0.24441923;0.051509038;-0.1745806;-0.0074543436;0.027541786;0.025109088;0.12320716;0.25816226;-0.029138902;0.05703383;-0.042772327;0.19473436;0.008555619;0.14406572;-0.060490716;-0.038889978;-0.085240245;-0.08553482;-0.056523092;0.10844695;-0.049763825;-0.012105813;0.13381907;0.11680381;-0.13733114;0.12499133;-0.14423649;-0.16917618;-0.12154546;0.027012324;-0.16163401;0.19684836;0.12601921;0.003721323;-0.006580606;-0.046656493;0.12247628;0.15208203;0.0617289;0.02928765;0.115412645;0.12583129;0.16851792;-0.0060225422;-0.10860024;-0.16516571;0.102097034;-0.23150851;0.14862388;-0.0070438893;0.02518613;-0.27637506;-0.14883526;0.027182477;-0.0675706;-0.03228512;0.15504558;0.043659903;-0.039028034;-0.08081286;-0.11507029;-0.19259717;-0.07236664;0.06029367;0.051184505;0.103599995;-0.18966757;-0.16106884;-0.03643914;-0.39459318;0.07270641;-0.022842415;0.030831946;-0.042735875;-0.06624213;0.06033746;-0.03502614;0.059990935;0.029870978;-0.031367123;-0.073237576;-0.12541448;0.15045427;0.067755505;-0.05481697;-0.012031838;0.014940904;-0.08688792;-0.051290944;0.081375815;-0.05317846;-0.07288978;0.08347803;0.053278074;-0.1583628;0.05881449;-0.10492389;-0.13645396;-0.18825234;0.01587209;0.07273605;-0.05030397;0.18828173;0.043783907;0.048618115;0.124447845;-0.06996371;0.04717788;-0.03230595;0.15642671;0.033308513;-0.2130635;-0.1692675;-0.04969571;-0.21054456;-0.1454872;0.013687586;-0.01955259;-0.052738965;-0.07762771;0.012372741;0.006764866;-0.014119394;-0.09117628;0.105107576;-0.108826205;-0.0021586015;0.015164883;0.10952329;-0.02503647;-0.044927638;0.14820823;0.074160285;0.1455948;-0.10436564;-0.15784952;-0.07373192;0.07081964;-0.06567478;-0.109612815;-0.21602306;0.06043892;-0.22931327;-0.06608746;-0.031928215;-0.010295135;-0.01893527;0.15235429;-0.114571646;-0.014584687;-0.08549551;-0.008721459;0.22093987;-0.009842737;0.19819553;0.034816153;0.0023797234;0.014079549;0.17603992;-0.003337854;0.025679456;-0.1577439;0.22080931;0.022501256;-0.034953676;-0.0681845;0.0655565;-0.03174134;0.0056438935;-0.018320767;0.03849748;0.17594135;-0.08162434;0.02654834;0.038556017;-0.16957268;-0.13500568;-0.020353533;-0.1065696;0.16482358;-0.092997156;0.065421835;0.08025428;-0.03652468;0.08501971;0.0986412;-0.012479736;-0.12619747;0.15284568;-0.04708055;0.072621435;0.10447472;-0.07143541;-0.08004089;0.058293514;-0.009208506;-0.10043084;-0.053770304;0.06419422;0.022506734;0.11703584;0.011147651;0.03950298;-0.0036395255;-0.08364973;0.052317873;-0.12700127;-0.051083915;-0.117593;-0.023202306;0.15961759;-0.074929014;-0.15500282;0.11898595;0.15697072;0.029621253;0.041900825;0.09013709;-0.013745893;0.20390938;-0.024797829;0.14118338;0.117235705;-0.23149447;0.0029645378;0.07645935;-0.12750426;0.12129194;0.24505521;0.05974059;0.054769155;-0.08447647;0.04046395;-0.058170095;0.045654662;-0.09537503;0.097939916;0.04995096;-0.008638048;0.29174262;0.13804072;-0.003370633;0.069190584;0.053074997;0.08310526;0.07794543;-0.10590465;0.0028601277;-0.13602163;-0.18426113;0.024856031;0.14953806;0.12861603;-0.100389384;0.20041564;-0.040807713;-0.036212165;0.10401976;-0.12736674;-0.10484241;-0.1118204;0.06198696;0.09507479;-0.054198343;-0.11307433;0.09588049;-0.027569504;-0.09180648;-0.1658534;0.17796776;0.13693912;0.07503376;0.22169904;-0.0936877;-0.04769579;-0.010265999;-0.026966525;0.13797031;0.016175613;-0.13707034;-0.11758317;-0.057795167;-0.22730038;0.05007765;-0.034406837;-0.07385379;0.054632593;0.03987577;-0.09921122;-0.0538293;-0.080876574;0.06468883;0.10669622;0.06204568;0.064895205;-0.024385545;0.05487959;0.029257668;-0.14704053;-0.09845773;-0.041190613;0.067587;0.028566252;0.14072712;0.08129933;0.26580536;0.091294214;0.22016263;0.026824547;0.03295781;0.12903236;-0.03398276;-0.30018348;-0.009743295;0.07881025;0.053287856;0.018104175;-0.24472257;0.077144995;0.006590839;0.13944054;-0.11312069;0.14253356;-0.12859958;-0.023248058;-0.08805287;-0.10942524;0.11808713;0.053864554;0.06442751;0.08324304;-0.08828196;0.07554126;0.029475003;-0.0055508795;-0.056729395;-0.03537382;0.039138462;-0.111044176;0.094857305;-0.03852256;-0.06190847;0.026372917;-0.053992115;0.17928806;0.28265604;-0.08135378;-0.012367702;0.08031466;0.20157294;-0.04284744;-0.0572911;-0.1238385;0.046270408;-0.063842215;-0.026026892;0.06803982;-0.11570064;0.037698906;-0.14649488;0.115370385;-0.04942251;-0.032250993;-0.14398563;-0.19542044;-0.054610994;0.001250554;0.040798955;-0.08398744;-0.03522569;-0.11355955;-0.114831306;-0.022023216
-0.05026891;0.12449639;0.05828452;0.056687053;0.02173041;-0.09490794;-0.15588392;-0.14070246;0.10084839;0.17777903;-0.044969358;0.0047411225;-0.14123291;0.005533231;0.13765858;0.0500141;0.02677843;-0.24208136;-0.22088253;0.0016429543;0.03549689;0.07688918;0.07096224;-0.18260331;0.05596658;-0.14660439;-0.0335375;-0.13024184;-0.041560166;-0.19670598;0.07170322;-0.006138965;-0.032377478;0.20510054;0.2058336;-0.16021636;0.10465847;-0.1151732;0.24497962;0.14584206;-0.26087317;-0.15576719;0.026797261;0.022368584;0.10368215;0.10817419;0.04921739;0.07770102;-0.09121319;0.123797804;-0.15892173;0.040872183;-0.1527608;0.08038649;0.0140574565;-0.19439231;-0.015223317;-0.14321096;0.001960718;-0.0944103;0.12017371;0.19081683;0.035142966;-0.004473394;0.006915308;-0.06301466;-0.09733622;0.043083027;-0.0070789163;0.04474676;0.06510086;0.05153;0.17160273;-0.053156372;0.006237272;0.044450127;-0.09078142;-0.020149121;0.119814284;0.041906018;0.039655942;-0.14501832;0.04559595;-0.17922214;0.051050916;-0.022029256;-0.05900929;0.17401433;-0.08152468;-0.030052762;0.17141376;0.10275271;-0.056613944;-0.0042865137;0.08432527;0.34104195;-0.0068376;0.15754768;-0.0014090603;0.026062751;-0.042116176;-0.10105732;0.12699795;0.032500908;0.053779896;-0.009360679;-0.17026909;0.16717732;0.072006844;0.21969238;-0.24300346;-0.10949038;-0.08388076;0.18519899;0.07112547;-0.109407015;-0.0072639207;-0.08886804;-0.15886816;-0.13082509;0.027883774;-0.24356066;0.09977346;0.10247724;0.09961697;0.05094846;0.12249265;-0.035042398;0.03800083;0.09727136;0.23838213;0.17769185;-0.06719738;-0.09839231;-0.18811531;0.044248864;-0.07916487;-0.094519325;-0.1179457;-0.020862889;-0.010351943;-0.120616026;-0.11067101;0.026743272;0.17653856;-0.071416795;-0.004391874;0.17202032;0.19433282;-0.10168229;0.041687984;0.016993081;-0.05596995;0.11951905;0.037739404;0.117763095;-0.26371416;-0.12734617;0.16810258;0.0011811416;-0.064821295;0.06682551;-3.506686e-05;-0.06869935;0.019546246;0.022655107;-0.012108556;0.045425802;0.047822453;0.031699214;-0.122136004;-0.10664635;-0.03990416;-0.09891837;-0.16093467;0.13296075;0.033504546;0.12920181;-0.059370916;0.10616247;-0.06176088;0.053615928;-0.15723607;0.011681427;-0.012435739;0.12756804;0.17558856;-0.030092817;0.049626756;-0.12764679;0.037899226;0.008916716;0.15565975;-0.039852984;-0.074925765;0.04430034;-0.084440224;0.0669138;-0.06205824;-0.035947055;0.033555627;0.09616008;-0.14187089;-0.104001716;-0.10537785;0.11470866;0.021169584;0.020399047;-0.055934094;0.2550691;0.20143239;0.056759965;-0.0366541;-0.17114922;0.045206774;-0.1316814;0.120871834;-0.11175062;-0.17710176;-0.10441861;0.060083743;0.039833795;0.028030626;-0.1909197;0.010941752;0.042174432;0.2182351;-0.025198141;-0.029000726;-0.19549774;-0.06508186;0.04689772;-0.032392006;0.10547389;0.08265641;0.08067323;0.072610974;-0.01746061;-0.007023981;0.097367786;-0.0039989497;-0.047459185;-0.111609414;-0.111731194;0.06419946;0.20736063;0.104133464;-0.09823902;-0.076630384;-0.004258283;-0.0808272;0.116736636;0.10678919;-0.040618315;0.005604501;-0.060351036;-0.0056634736;0.11194405;-0.059608445;0.10121;-0.0267001;-0.2094077;-0.06610596;-0.16913664;-0.064536035;-0.09395435;0.19992903;-0.06890627;0.07420315;-0.056620624;-0.13083468;-0.019125216;-0.15466508;0.13239905;-0.002895324;0.047572445;0.022055706;-0.16682577;0.03969096;-0.052861635;0.024301453;0.034867574;-0.023891775;-0.1507598;-0.12512076;0.2762328;0.05608856;-0.07548066;-0.00080136093;-0.12425378;-0.16355377;0.11933294;0.042971782;0.07877375;-0.046454567;0.049036153;0.082899876;-0.17630558;0.011353423;0.019931255;-0.14682938;-0.14522518;0.004492832;0.11792196;-0.036259457;0.23898628;0.06808139;-0.0972331;0.13506338;-0.099902116;0.10747359;0.030313272;0.023458706;0.02408225;-0.05768333;0.008007915;-0.09123497;-0.11647573;0.062323876;-0.014432996;0.10342515;-0.11796341;-0.00041968678;0.09213857;0.1151929;-0.028633373;-0.022779426;0.07267328;-0.06648383;0.011248765;-0.1352184;0.07512122;-0.11735738;0.026287729;0.02734739;0.0101399915;0.10813337;-0.23438837;-0.0574214;-0.16168003;0.031189881;0.01331752;-0.12458278;-0.087014936;0.03342258;-0.15060045;0.06251892;-0.031284433;0.08680721;0.026256377;0.16230065;-0.17067023;-0.057812743;0.15945987;0.113591105;0.32201684;0.020724397;-0.050325952;-0.045160506;-0.08828984;-0.00016483385;0.109197006;0.16845836;-0.2066104;0.001642782;0.06636928;-0.08103245;-0.12267281;-0.17392224;0.13851812;-0.046955638;0.039559267;0.16750813;0.06780632;0.051759183;0.017886689;-0.12934388;-0.059974317;0.060264844;-0.11195734;0.20306887;0.0020677114;0.046153497;-0.13419321;-0.01610787;0.033247013;-0.07901781;0.1592224;0.24563901;-0.029015841;-0.007285802;0.10770571;-0.048965793;0.06295964;0.01830538;-0.09379239;-0.15359867;0.08787386;0.12525529;0.008867051;-0.18051183;-0.028406441;-0.08273327;0.09315471;-0.042205736;-0.04196957;0.013323103;-0.044910286;-0.15405467;-0.1567708;0.041720975;0.080297604;0.036257714;-0.08313248;0.071844086;-0.06453961;0.07591353;0.13601841;-0.06928676;0.24016154;-0.12835982;0.057073954;0.09067764;0.07294094;-0.025285842;0.15462188;0.008497793;-0.07901785;0.06003582;-0.15536137;0.14168197;0.21600008;0.10560571;-0.021262335;-0.11624806;0.085679896;-0.09406692;0.15235646;0.013542566;-0.018237347;-0.14103127;-0.0070563373;0.09202416;0.031134522;-0.113587625;0.12381977;-0.019018866;0.034835093;-0.12239371;0.004431926;0.038117766;-0.17171615;-0.07031817;-0.024974892;0.28353944;-0.021000322;-0.11246487;0.14133307;0.04326478;0.031311534;0.02184383;-0.04354423;-0.14716618;-0.0010741615;0.03383382;0.10144825;0.08379406;-0.0605666;0.18412192;-0.028768571;-0.08859889;0.1355749;0.031912807;0.031880256;-0.08614402;0.111786716;-0.010928874;0.029533098;0.103072;-0.103423156;0.10584088;0.0016011539;-0.13456698;0.120570235;-0.11568379;-0.24856928;0.0904856;-0.054255866;-0.1418764;0.023024615;0.028364861;0.0051956032;-0.17838855;-0.124730885;-0.07495496;-0.032028735;0.014671499;0.07125546;-0.21727905;0.08517527;-0.109730385;0.071782954;0.077656865;0.0760673;0.027487466;0.0010229431;0.25434342;0.07142984;0.26568526;0.069610514;0.008510863;-0.05539655;0.049755972;-0.039944068;-0.078970835;-0.19275;0.119382605;0.054134063;0.13769978;0.007005722;-0.17112426;0.20778307;-0.090634696;0.02490004;-0.14400232;0.057969302;0.002092505;-0.041699387;-0.0023068094;-0.22882788;0.09421591;0.12482481;-0.17897232;0.13475205;-0.08057306;0.0060673994;0.05636524;-0.025379311;0.006959232;-0.09284333;0.22296728;-0.087043986;0.039348364;-0.06582546;-0.036512826;-0.04620692;-0.06298072;0.09064188;0.24009514;0.022738418;0.04184839;0.11750702;0.19693238;-0.15880933;-0.042448733;-0.09839924;0.032767843;-0.14445725;-0.12839174;0.03448556;-0.118632875;0.14717752;-0.107715026;0.11645123;0.10788857;0.03822442;-0.10061025;-0.13160978;0.018356202;-0.074295536;0.008681262;-0.037962526;-0.03276966;-0.052412424;-0.06302473;-0.13166857
0.03008793;0.106785536;-0.06347436;0.031705253;0.037078105;0.054829642;-0.1081135;-0.05244213;0.08938446;0.18753366;-0.071419984;0.113830276;-0.09794426;0.052100345;0.049601305;0.063157074;0.18398555;-0.121628396;-0.08416159;0.046937432;0.001964368;0.1073858;0.03641754;-0.120587595;0.010023527;-0.039115705;-0.020698424;-0.17066813;0.02551521;0.03511763;-0.096156284;0.038715124;0.095549636;0.1978434;0.18502788;-0.050012216;0.13757819;0.120570995;0.03474515;0.03409087;-0.21205401;-0.22611237;0.002809629;0.018839793;0.024573732;0.06478973;0.0744812;-0.07749077;0.070733644;-0.06579075;-0.17192301;0.041980073;-0.17591742;0.059619844;0.15516657;-0.29219353;-0.05899959;0.016727876;-0.0744083;-0.04552791;-0.0544532;-0.049103785;0.10880303;0.02081178;-0.06597516;0.07399518;-0.023479026;-0.072371624;-0.14222363;0.0013238187;0.0025866379;0.12386448;0.10864285;0.04512575;-0.06619472;-0.04602693;-0.034315288;0.11725121;0.075976446;0.021664154;0.016219907;-0.14781027;0.17145605;-0.014565336;0.08172134;-0.03167813;-0.022290431;0.1264275;-0.010599341;-0.0044284984;0.118041754;0.18951848;-0.06616333;-0.13845414;-0.10086994;0.283169;-0.090510644;0.19970399;-0.016875288;0.11944022;-0.16732545;-0.12951945;0.018781047;-0.19872436;0.11510891;-0.1662182;-0.21554591;0.11885452;-0.022966323;0.023158038;-0.16986738;-0.076312415;-0.2308206;0.17003682;0.14030649;-0.1454745;-0.0077326032;-0.09145886;0.014896399;-0.08075856;0.1221674;-0.079596035;0.17707768;0.12756465;0.1410803;0.18704437;0.0031083587;-0.07472516;-0.122481726;-0.037809256;0.21418679;-0.009409674;-0.1859449;0.08764166;-0.28448758;-0.01655327;-0.20689586;0.109858416;-0.055429563;-0.0875227;-0.10582132;0.054732136;-0.07471552;0.11425264;-0.020673823;-0.046017446;-0.12833476;0.27180097;0.08238031;0.061481487;0.10551409;0.09385891;-0.044298735;0.12939073;0.0052453894;-0.10661369;-0.26068845;0.056245953;0.07037557;0.022672107;-0.077384055;0.04800646;-0.20139477;0.0396715;0.027337734;-0.063411325;-0.034357544;0.03427282;0.017151197;0.12770754;-0.07543925;0.039411567;-0.043507036;-0.07194649;-0.03299387;0.073259905;0.101591684;0.08637427;-0.15000856;0.14627022;-0.14394312;-0.090808265;-0.02000619;-0.05795297;-0.049929693;0.06387198;0.12464471;0.03599126;0.030359078;-0.12155927;-0.05260941;0.08012758;-0.118780576;0.11191845;-0.014760868;-0.022363981;-0.19985287;-0.054939054;0.027683333;-0.1595023;-0.10970525;0.1457604;-0.0034383875;-0.034432244;-0.051070012;-0.075634435;-0.08415705;0.14752047;0.10276628;0.23911774;0.15193371;-0.13732687;-0.021396868;-0.14948417;-0.025173632;-0.03072225;0.014946531;-0.14345899;-0.12810059;-0.079010576;-0.11211127;0.09969818;0.022730326;-0.13510479;-0.071368545;-0.09036577;0.24540387;0.08642126;-0.08815248;-0.16898577;-0.044708174;0.13224259;0.01603548;0.058962855;0.10319692;0.01970868;0.09160867;0.05503935;0.031320043;-0.020651057;-0.05514022;-0.031115023;-0.087262064;0.1791614;0.08708353;0.040494278;0.10765446;-0.1281696;-0.10474513;0.0076044183;-0.028487032;0.014339571;0.045399345;-0.15496443;-0.11147005;-0.06408523;-0.019745307;-0.023401361;-0.056627907;0.062113553;0.021886474;-0.2566654;-0.08642075;-0.12705971;-0.091333285;0.06385545;0.15767562;-0.08788351;0.09109074;-0.15725149;-0.05030529;0.06830808;-0.21734302;0.031723376;0.17337994;0.14886503;0.07801657;-0.06592113;-0.00024204244;-0.038486518;0.083893135;-0.04003609;0.03968899;-0.1393984;-0.07794414;0.16742064;-0.07445126;-0.15692905;-0.061385535;-0.0967406;-0.2789141;-0.053216986;0.0033719991;0.040692165;-0.082222626;-0.10143326;-0.005027481;-0.20491916;-0.03410349;0.049488135;-0.15147752;-0.123185955;0.030791063;0.069859795;-0.067889005;0.16106223;-0.10147341;-0.025044043;0.047689326;-0.10317843;0.22738907;-0.020981478;0.027997287;-0.013599131;-0.13821949;-0.03970497;-0.11869297;-0.26510635;0.00052979257;0.11475264;-0.0054035485;-0.10921031;-0.016542839;0.01951721;0.01069285;-0.21306117;0.00090473576;0.12711479;-0.06265938;0.067413874;-0.19338831;0.09326881;0.13805358;-0.13025494;0.0800993;0.024260966;0.0012841258;-0.25258934;-0.1477172;-0.027789783;-0.08153754;-0.017229816;-0.16373593;-0.1331585;-0.012830408;-0.16043323;-0.015805308;-0.06751216;0.12715656;0.012149887;0.23366298;-0.005446942;0.12783581;-0.034908697;0.14177844;0.3714025;0.10063794;0.0053245667;0.062336665;0.14510778;0.021745285;0.071893245;0.07156084;-0.06268806;0.03893289;0.06784091;-0.29199207;-0.05682887;-0.037376672;0.11571163;-0.114616655;0.30531874;0.036769513;0.021805502;0.102725595;-0.011658391;0.03949731;-0.10324693;-0.059777495;-0.11792295;0.1908785;0.008111712;0.010765453;-0.15580694;0.002960754;-0.020884132;-0.10933667;0.12775712;0.16372195;-0.0053089503;-0.058835685;0.087719575;-0.047624413;0.043850344;0.033015113;-0.1049127;-0.21792282;0.11607059;0.1315578;0.008701678;-0.057105243;-0.0391609;-0.04387359;0.15289146;-0.041884903;0.1073663;-0.087520145;-0.15561302;-0.1864849;-0.073237926;0.0764048;0.11625115;0.08681357;-0.0059508327;0.09606747;0.044764068;0.11405554;-0.027732156;-0.072980955;0.18475014;-0.022467725;-0.01530158;-0.025978474;-0.02020135;0.0140538;0.11897628;-0.11221687;-0.12367437;-0.05228112;-0.05185776;0.06996974;0.18506713;0.033373736;-0.044211537;-0.016710311;0.04564049;0.118161246;0.034168884;0.066011384;0.041976128;0.06047762;0.07015447;0.16853328;-0.063154325;-0.05275432;0.03802517;-0.00020704286;0.033431463;-0.01522951;0.020279033;-0.051825795;-0.13092782;-0.089602806;-0.10805249;0.039293446;-0.09114411;-0.09774444;0.035220325;0.10948241;0.017957874;0.043584213;-0.022886015;-0.2692763;-0.15922019;0.017667228;0.016353419;0.10413203;0.04415046;0.22788976;0.010959666;-0.13765651;0.11534002;0.2238182;0.12515642;-0.0052136765;0.15016365;-0.014843321;0.03711503;0.12459396;-0.05720698;0.124207415;-0.0040505277;-0.06259567;0.06192032;-0.06454473;-0.12640616;0.051891167;0.010939193;-0.05078008;-0.054342873;-0.05565583;-0.093192175;-0.18815956;-0.11947341;0.044867627;0.0011426242;-0.16556561;0.030851671;-0.30916086;0.10759187;-0.23070201;0.12196471;0.017433887;0.08983566;0.012249114;-0.17725414;0.18311228;0.045967124;0.16809754;0.12032016;-0.07466322;-0.015755707;-0.03363605;0.031932473;0.075893335;-0.1600408;-0.06700622;-0.054645494;0.034274545;0.04724416;-0.23409252;0.22134042;-0.24481903;0.10786068;0.0014084042;0.054848388;0.012113702;0.00534802;0.07444777;-0.13386269;0.13280459;0.11133745;-0.062074978;-0.002623119;-0.09853409;-0.09283794;-0.034976304;-0.015638078;0.08267765;0.030250525;0.09241523;-0.11579602;0.018112244;-0.0369941;0.014370609;-0.14206088;-0.050182335;-0.028116368;0.08411066;0.081107736;0.12969829;0.07319984;0.1302612;-0.036339283;0.06496103;-0.15215059;-0.04615839;-0.15631303;-0.028170936;0.14030589;-0.011783542;0.1430427;0.0021544807;0.13026817;-0.016568964;0.04954314;-0.23167609;-0.056979135;-0.040821142;-0.07908847;0.058982477;-0.16431184;-0.10177346;0.119496405;-0.19767876;-0.26322618
-0.08588866;0.02394776;-0.011206252;-0.012536108;0.10201579;-0.17995575;-0.023408279;0.16068429;0.1352213;0.087006725;0.05585391;-0.08612382;-0.1584666;-0.11522049;-0.081371784;-0.025955332;0.13868399;-0.21367145;0.016589034;0.03495746;-0.05877217;0.16335851;-0.011131136;-0.0152769415;-0.005609529;0.034024615;-0.11246935;-0.26430666;0.1591252;0.123090416;0.012400792;-0.103654206;-0.103043385;0.22673415;0.08653105;-0.1271644;0.15887052;0.101031095;0.17113085;-0.0414042;-0.24406768;-0.112012364;0.11742873;0.062278386;0.17823717;0.09485432;-0.023223568;0.071275145;0.14103363;0.02439402;-0.17519192;-0.15847416;-0.062567726;-0.096110865;0.092741765;-0.18680808;0.048778582;-0.022879917;0.06598389;-0.049753126;0.11052709;0.038059015;0.27768955;0.006269685;-0.0122741;0.09662109;-0.07354516;-0.2133124;-0.06341439;-0.10198294;0.0319441;0.046773653;0.047784265;-0.044675592;-0.2740709;-0.061257247;-0.11623674;0.014191148;-0.061529912;0.034445524;0.008207216;-0.18754163;0.38205943;-0.09109878;0.15512314;-0.071772575;-0.14672688;0.2119205;0.029568803;-0.083689526;0.052318208;-0.047209825;-0.020129563;-0.034281038;-0.055433862;0.09163139;-0.0485985;0.08661366;0.019708656;0.15152724;0.017125502;-0.20522714;0.1266835;-0.05184083;0.20603476;-0.21471055;-0.293739;0.16579564;-0.08345909;0.12968619;0.09209898;-0.057017356;-0.121372476;-0.03454719;0.03867052;0.039553545;0.048124097;-0.08110261;0.058484133;0.052189752;0.15318292;-0.1414765;0.26865375;0.2011702;0.13821296;-0.004277786;-0.077786215;-0.062452503;-0.11230355;-0.14819492;0.223211;0.24202318;0.055392005;0.06972172;-0.0629496;0.1063396;-0.07115954;0.015898256;-0.094009645;-0.1282814;0.12836614;0.093353696;-0.047790907;0.09680614;0.08989791;0.024105007;-0.066913426;0.10781485;0.02478257;-0.096508406;0.19499844;0.046794247;-0.116657265;0.09675393;0.17047806;-0.11484984;-0.15656044;-0.04425084;-0.03140063;-0.045829263;-0.038080547;0.033429258;-0.05593958;-0.08727509;-0.014355027;-0.12715569;0.012214244;0.058269646;0.076871805;0.06519498;0.05981035;0.10407007;-0.14097932;-0.04547421;-0.04063144;-0.042221982;0.15348811;0.24442793;-0.14089863;0.17463392;0.0529832;-0.1578824;0.000739685;-0.05172065;0.04040256;-0.013206627;-0.053427283;0.0564151;-0.05599043;-0.09312276;0.0575299;0.071208574;-0.119627945;-0.030687975;0.14669229;-0.22411522;-0.14975803;-0.10433057;0.0020092607;-0.1748408;-0.03260091;0.048331395;-0.11865859;0.034832843;-0.08944649;-0.08021715;0.03678852;-0.0021861459;-0.045929294;0.11743077;0.19492437;0.063030705;0.05139874;-0.03397615;0.10319577;0.08196138;-0.013925032;-0.113274865;-0.013988781;-0.17586373;-0.012457594;0.0035439448;0.10850653;-0.21070255;0.011130909;0.07883887;0.2682256;0.031519964;0.052436154;-0.12641285;-0.110566944;0.016293427;0.16297725;-0.011085672;0.035369392;0.12261669;-0.121902645;-0.08515221;0.026179709;-0.031698707;0.08811358;0.14220485;-0.067474894;0.16935845;-0.002315152;0.062164634;0.034700032;0.047073796;0.08045781;0.060616713;0.052113194;0.02591571;0.12579979;-0.013455666;0.028786488;0.03819651;0.008922471;-0.024148362;-0.062086258;0.03515768;0.04529256;-0.1802754;-0.19571912;-0.2281169;-0.15058628;0.0017119214;0.23239452;-0.28146428;0.15859967;-0.09926235;0.0006279278;-0.1620128;-0.14769085;-0.08173716;0.29501727;0.023070756;0.10928483;-0.014766744;-0.026299713;0.009406355;-0.082137816;-0.19947854;-0.109006174;-0.046099808;-0.004282133;0.11159309;-0.1890827;-0.10210965;0.059373856;0.11947974;-0.35724354;0.051667277;0.07272269;0.029474193;-0.16935492;-0.1689529;0.10178899;-0.14872132;-0.09937654;-0.01772588;-0.11137421;-0.2609622;-0.09132262;0.028806647;0.08027962;0.13638295;-0.12118639;-0.034353573;0.07507464;-0.016825376;0.18343748;-0.008502073;0.043650486;0.0036752345;-0.038081285;-0.12361545;-0.02611228;-0.010406022;-0.16560668;0.03802101;0.09251546;-0.27329183;-0.009432501;0.018632054;-0.006268347;-0.14816597;-0.105604105;-0.098985024;-0.20120777;0.060137887;-0.04367762;-0.04949477;0.12220175;0.042321898;-0.03755943;0.059176017;0.1280311;-0.32907334;-0.10896061;-0.085036874;-0.028859762;-0.105856664;-0.04819192;-0.03837397;-0.05448425;-0.17640455;-0.026474627;-0.1389423;0.15107982;-0.025559813;0.052463636;0.024174133;0.047826216;0.11236709;-0.005854714;0.14625618;-0.036147255;0.09327485;0.056404013;0.05684816;-0.15952766;0.02656089;0.06915579;-0.07281492;0.107445545;0.04424219;-0.24976963;-0.14364436;-0.18182652;0.08464385;-0.11617413;0.14319165;-0.009190748;-0.07901367;0.03484611;0.17796253;0.028539272;-0.08650069;-0.1631205;-0.22846548;0.04276964;0.090884745;0.09803902;-0.107442036;0.10170174;-0.009675595;-0.036054157;0.17996308;0.17498225;0.0058459775;-0.08473766;0.18713668;-0.006446347;0.09078536;0.075764626;-0.048559647;-0.19580173;0.02780401;0.039958533;-0.04079096;0.04481396;-0.045565534;-0.09022061;0.16217132;-0.08938912;0.12759973;-0.0019170337;-0.062285237;0.042123638;-0.041419197;0.04411409;0.14036973;-0.072704904;0.013312251;-0.0024960472;0.0044353316;0.23389482;0.11909128;0.039765093;0.08535167;-0.16036172;-0.115916245;-0.1797578;0.10874463;0.01993993;-0.016290717;-0.020977134;-0.09336392;-0.053865466;-0.17179644;0.044326168;0.17605318;0.0040249475;0.027680306;-0.003724758;-0.035076693;-0.0021904893;-0.03416357;0.08969496;0.0618834;-0.10066484;-0.21122713;0.18397366;0.06345123;0.020727212;-0.042013533;0.00037787823;-0.026219081;0.007701654;-0.0355843;0.06629796;-0.10215789;0.027536416;0.02273284;0.05757559;0.10542142;-0.062150348;-0.043725908;0.25826085;0.15934427;-0.07181245;-0.07154544;-0.33609566;-0.034909673;0.06526471;0.042643003;-0.03445274;-0.098771155;0.18361568;0.05874683;-0.082661115;0.13238417;0.18916894;0.035195604;0.017936954;0.1565287;-0.1180242;0.08867291;0.13406882;-0.15119167;0.1271888;-0.1659687;-0.17873165;0.057498418;-0.12012445;-0.11774345;0.09561185;0.023822645;0.074990936;-0.0032053066;-0.044695783;-0.09749207;-0.36379442;-0.037409756;-0.0013090618;0.10426839;-0.027886393;0.10636029;-0.14786808;-0.0053711054;-0.3854971;6.32557e-06;0.07678493;0.1004501;0.010932207;-0.08564315;0.09148204;0.17584589;0.009203015;0.050214328;-0.08558703;-0.0330723;-0.11129343;0.022494432;0.001920199;-0.14153208;-0.12684426;-0.08731871;0.08026391;-0.074569546;-0.017610235;0.16082898;-0.22111681;0.13203481;0.03526104;-0.037213434;0.07836723;-0.14505418;0.23798396;-0.037464444;-0.052517265;0.17222147;-0.024010519;0.07474069;-0.10250481;0.050909605;0.024654489;-0.041814517;0.04068551;-0.08340565;0.16740462;-0.0032920763;-0.11397111;0.01614472;-0.052350976;-0.14617395;-0.088934325;0.06477813;0.19132091;0.15323038;0.098175324;0.042925723;0.054564256;-0.015101023;-0.053689774;-0.04755443;0.054839298;-0.17100778;-0.11704347;-0.09877683;-0.13290195;0.17049347;0.010760338;0.0047760517;0.076497;-0.076407254;-0.036167715;-0.19402595;-0.115708664;0.06862116;0.15638533;-0.052482434;0.0075196074;0.080468856;-0.09320734;-0.15328814
-0.04973123;0.084567115;-0.045847457;0.055832494;0.20419328;-0.27545488;-0.048022494;0.13562828;0.10378256;0.11070332;0.07721755;-0.04310954;0.0037645658;-0.05036014;-0.036863673;-0.021653492;0.0001983313;-0.09527701;-0.13050015;-0.112041876;-0.07857195;-0.011381734;0.16828683;-0.08775631;-0.041371606;-0.06382827;0.07430593;-0.18335453;0.153515;0.051081285;0.017219298;-0.17322911;-0.14073887;0.18052308;0.11653577;-0.22888704;0.2547156;-0.040063616;0.004854469;-0.097355746;-0.40615946;-0.061120965;0.0190951;0.0018916918;0.14684893;0.054504152;0.07044809;-0.059857845;0.17081733;-0.15025109;-0.083520934;-0.10998407;-0.17010704;-0.056552604;-0.044695616;-0.011965065;-0.13440846;-0.110062435;0.116344914;0.12144191;-0.065095164;0.19540101;0.12278068;0.020738004;0.03926703;0.047674537;0.032710545;-0.25263798;-0.1604763;-0.03847199;0.057600573;0.06274329;0.1108491;-0.01791831;-0.20626955;0.1259306;0.0162723;0.029119782;0.013912827;0.1118108;0.034289982;-0.035404406;0.1493635;-0.14570972;0.11800909;-0.104053795;-0.0041246116;0.11313776;-0.06583934;-0.21103458;0.12947948;-0.11734077;-0.015896922;-0.071936496;-0.1498545;0.124423705;-0.10149527;-0.030650694;0.11156135;0.15037945;0.0037830232;-0.2634136;0.007687907;0.05293958;0.20005283;-0.2132431;-0.34983847;0.20369071;-0.040745653;0.10177107;0.051792454;0.06421792;-0.09004464;-0.0011727551;0.10982023;-0.0893694;0.03890828;0.031091468;0.08529299;-0.054142293;0.048375677;-0.0459598;0.2514959;-0.08433357;0.10224337;0.07845882;-0.16550152;0.028362205;0.010523921;-0.088139355;0.1879545;0.07566343;-0.026647316;0.1401296;-0.18971248;0.12348558;-0.02684764;0.14961776;0.027031424;0.008825194;0.09227065;0.03363707;-0.14729118;-0.12120865;0.054911524;0.1194875;-0.21856727;0.1773808;0.017587962;0.0697676;0.11176433;-0.0034308413;-0.046599984;0.22627406;0.035186447;-0.072627395;-0.27275157;0.0069945394;-0.0728212;0.053614125;0.043781575;-0.0012047775;-0.021669384;-0.22635211;-0.065230146;0.028249687;-0.04689418;-0.010006359;0.02665761;0.28020918;-0.02748584;0.013395561;-0.024724279;-0.08979344;-0.069641165;-0.017238338;0.013245998;0.27881172;-0.09610727;0.16568892;-0.10732216;-0.11880841;0.09136522;-0.183883;0.07905072;0.03709945;0.04593734;0.037545204;0.10601459;-0.106681675;0.115269594;-0.025264334;-0.112656966;-0.137957;0.123463236;-0.2653728;-0.1118024;0.115992896;-0.16207835;-0.21547014;-0.075143404;0.063557334;-0.10541088;-0.02872499;-0.036614776;0.029356582;-0.025147257;-0.009498366;0.011822932;0.13655718;0.16213574;0.11641827;-0.05079346;0.01342004;0.006785115;-0.07018002;0.1468471;-0.22841676;-0.036924787;0.022965701;0.012932411;-0.010442026;0.11864435;-0.11846068;-0.0927717;0.0397078;0.1328439;0.18765044;0.0397812;-0.11548947;-0.014552651;0.11232535;-0.003846225;0.02988605;0.10874501;-0.011094472;-0.17740911;-0.072671324;-0.03749398;0.06940167;-0.14893521;0.106392086;-0.045869537;0.10520933;0.045313142;0.11367369;-0.021199357;-0.090599865;-0.08549362;-0.009608817;0.05731437;0.0032562814;-0.016201278;-0.108646065;0.081857905;-0.033607833;0.09787584;-0.21875587;0.050928723;-0.03423491;-0.020008713;-0.20609438;-0.23239891;-0.24389681;-0.17948216;-0.03112403;0.17541;-0.16401754;0.081376664;-0.20357645;0.063429035;-0.039787967;-0.26045448;-0.20241979;0.1508842;-0.0903392;0.046503916;-0.009316405;-0.15650977;-0.06106312;0.045130935;-0.16342436;-0.07924962;-0.13740155;-0.08737;-0.03173088;-0.12280236;-0.14510237;0.0811514;0.11489069;-0.221569;0.15431555;0.079477854;-0.050674297;-0.16482948;-0.07743629;0.014407683;-0.011677251;0.0003175139;-0.118238054;-0.010873116;-0.13387893;0.0465048;0.10901023;0.038320486;0.069679245;-0.15359706;0.111410856;0.13568597;0.015077616;0.15159637;-0.020256625;0.1343847;-0.037387095;-0.06324888;-0.034781452;-0.02117162;-0.0392456;-0.11085538;0.11017139;-0.014119874;-0.31021312;0.060540874;0.11744569;-0.018490596;-0.15477878;-0.21984616;-0.07330659;-0.06952889;0.102582835;-0.15896383;0.007982375;-0.022034932;-0.03948186;0.015972529;0.06492606;-0.0038509173;-0.20636828;-0.24476004;-0.13494928;-0.22245164;0.036894914;0.020861717;-0.117566526;-0.0809376;-0.13616699;-0.060467053;-0.12114276;0.0847898;-0.0076243593;-0.08314649;-0.030199263;0.115089595;0.19761068;0.02933937;0.1295892;-0.0009731328;-0.08171527;-0.051600926;0.081174865;-0.117209844;0.053592365;-0.06281698;-0.11613385;-0.045526966;0.036659393;-0.2882242;-0.033380996;-0.10193712;0.040974412;-0.09483915;0.055204228;0.016198792;-0.14308065;-0.10398854;0.19050886;-0.0672831;0.0018454845;-0.0602554;-0.078165196;0.03534213;0.022596003;0.039334964;0.004961346;0.17012383;0.08642622;0.024057725;0.124096274;0.10121003;0.13048239;0.02386422;0.072843395;-0.06747775;0.14291248;-0.05086372;-0.0063193333;-0.22204745;0.062455773;0.082790315;-0.05301888;-0.041637693;-0.09521185;-0.018017178;0.16148809;-0.20436387;0.16467026;0.10451521;-0.019135151;-0.13662273;-0.14323698;0.02623801;0.09633844;-0.2047985;-0.034074433;-0.0025564497;0.034850378;0.14960526;0.066907264;-0.1161239;0.17167689;-0.23096104;0.023990102;-0.105624326;0.13883054;0.059842624;-0.006627339;-0.13790911;-0.08398871;-0.0067960373;-0.2593108;0.028093478;0.19627622;0.09469574;-0.12748054;0.037733044;0.16090944;0.07169727;0.01964656;0.09784185;0.07472225;-0.05665705;-0.001304391;0.12166311;0.17280726;0.041486423;-0.17634936;-0.021105126;-0.07129511;0.16735308;0.0180871;0.12035048;-0.055006545;0.056139525;-0.08801092;0.044164617;0.0106093325;-0.14773956;-0.08601299;0.18803467;-0.017413456;-0.13734306;-0.10029806;-0.26278165;-0.10188578;-0.08566763;0.106636755;-0.056714933;0.06882647;0.034816768;0.038848083;-0.21305242;0.3034944;-0.02181244;-0.012017642;0.12767644;0.2451416;-0.02036801;0.22046532;0.041675996;-0.06179922;-0.0047529205;0.008749107;-0.17769049;-0.03854673;-0.048561443;0.009680389;0.018184287;-0.053456444;0.022789348;-0.1091211;0.043525144;-0.03216592;-0.11166005;-0.0782815;0.032600548;-0.045851562;-0.0050508715;0.0047420794;-0.095125094;-0.14137548;-0.15853125;0.082133405;0.048213843;0.16850136;-0.014657871;-0.01980482;-0.019608162;0.13305143;0.1281172;0.025818266;-0.100489356;0.01890892;-0.1393632;0.08135083;-0.0992701;-0.17782684;-0.15118699;-0.039004773;-0.049236562;-0.0023871616;-0.13204071;0.027451178;-0.20882635;0.05565263;-0.114657454;0.1146149;-0.018187564;0.00897654;0.0817824;0.031138897;0.11513174;0.12590994;-0.13570137;-0.19212455;0.08664579;0.0808469;-0.06404297;0.022498108;-0.088922516;0.032039996;0.1915435;-0.04861498;0.0031818664;-0.041714143;0.12886387;-0.06356171;-0.050881956;-0.034680218;0.1527634;0.067580074;0.18074179;0.10443438;0.039808247;-0.025376374;0.03883945;-0.01388261;0.071434684;-0.1316987;-0.07627589;0.19177203;0.089554906;0.24702014;0.05353558;0.08919492;0.16246684;-0.031333882;-0.208943;-0.1934287;0.09746778;-0.038560435;0.10871705;-0.025323074;0.0005079827;-0.005864007;-0.045274008;-0.1738205
-0.069704235;0.033049304;-0.11984851;0.18137017;0.24439788;-0.38945064;-0.076932654;-0.022449972;0.1215407;0.15996423;-0.09513;-0.08310453;-0.074380785;0.050229978;-0.035969105;0.20202106;-0.0060743033;-0.067468345;-0.17515488;-0.12773518;-0.08484212;0.05290923;0.13134791;-0.12537925;-0.05507167;-0.13147652;0.10011001;-0.25913423;0.02594341;0.07495279;0.03209933;-0.14127403;-0.07296596;0.12772383;0.019132132;-0.21944435;0.14181137;0.14732096;0.20394364;0.0023886256;-0.43950045;-0.17381269;-0.11824576;-0.00820159;0.09086082;-0.043238677;-0.09413457;0.10274133;0.1740178;-0.21882407;-0.043240607;-0.08716556;-0.23632394;-0.017723788;0.105546;-0.12279483;0.08708499;-0.22959821;0.042719934;-0.03623257;0.020274427;0.13956934;0.013867255;-0.056927253;-0.034121446;0.13309942;0.06031393;-0.18877839;-0.14741729;-0.0023800372;-0.057590038;-0.004810923;0.060548197;-0.10779926;-0.24396248;0.13048652;-0.10060868;0.017668523;-0.08893149;0.21712643;-0.0041829147;-0.11079361;-0.07162937;-0.2633143;0.101190016;-0.10607452;0.14577034;0.17670105;-0.13763632;0.030809589;0.046619527;-0.071306564;-0.053040475;0.024839748;-0.20054027;0.09307842;-0.063951336;0.036008082;0.0939135;0.08205616;0.023478856;-0.15365914;0.116790935;-0.09497067;0.1603561;-0.21003473;-0.27064252;0.1125766;-0.15414736;0.321573;-0.017697718;0.047747266;-0.006574664;-0.034550708;0.18327735;0.07035662;0.21583278;0.016680315;-0.010170579;0.099561885;0.05531198;0.009709808;0.15793027;0.05846016;0.1031979;0.0908003;-0.0029923392;0.20706017;-0.10759713;-0.100864254;0.07357403;0.13608024;-0.017216042;-0.10159093;-0.10785117;0.08697396;-0.0565263;0.14229524;-0.08588359;0.0035650632;0.07949096;0.07201656;-0.15572904;-0.13385412;-0.024914088;0.21181352;-0.2592075;-0.0044945586;0.04914392;-0.026177151;-0.057777017;0.08423825;-0.18662882;0.15798101;0.13565086;-0.10976917;-0.16280618;-0.1566853;-0.04415597;0.07230077;0.19561113;0.05149263;0.059327662;-0.115127936;-0.033993647;-0.047720537;-0.05430139;0.044043396;0.049939673;0.21616684;-0.015730577;-0.08304315;-0.124657124;-0.08717867;0.08964077;-0.18151006;0.053136166;0.18636626;-0.07037695;0.22590752;-0.056136616;-0.2935196;0.095310755;-0.10107117;-0.096649855;-0.06448617;-0.057160087;0.049123283;0.008530419;-0.244445;0.037067305;0.07767585;-0.24174038;0.048222404;0.10628475;-0.32257855;-0.01936943;0.17594337;-0.023896322;-0.19717029;-0.033542696;0.059123047;0.039777096;0.07482765;-0.12870878;0.012467223;-0.0677009;-0.06859231;0.12788564;-0.12922503;-0.02862284;-0.07998335;-0.24060234;-0.1138514;0.07833026;0.1509842;0.19028269;-0.15864004;0.027296012;0.035636157;0.122216284;0.054419648;-0.025592513;-0.07908291;-0.2957148;0.005542653;0.11227831;-0.011922532;-0.09406074;-0.055795357;0.067089915;0.2071185;-0.014882776;-0.05867214;0.16541716;0.031383306;-0.068094894;0.029213112;0.004893898;0.14314309;-0.10117838;-0.01173256;0.11273964;0.1303967;-0.074149996;0.08511678;0.01416426;0.0063256496;-0.02956757;0.112748794;0.1511268;0.03612316;0.028979562;-0.2166678;0.09858254;-0.008522724;0.04697092;-0.17592221;0.051316746;-0.04795147;-0.10478468;0.0035041077;-0.08117292;-0.20778006;-0.07456288;0.12583472;0.2215357;-0.06934406;0.21704808;-0.23903477;0.08974553;0.03939969;-0.12910154;-0.15787002;0.080044195;0.030003155;0.04223249;0.15227988;-0.020653142;-0.06644049;0.07282555;-0.0013445939;0.2789604;0.010776498;0.0072114286;0.021094864;-0.056137554;-0.15039887;0.07021464;0.03965034;-0.03731944;0.029102465;0.05458199;-0.06504942;-0.10287109;-0.14797623;0.07327346;-0.06063091;-0.035207808;-0.08482938;-0.024447283;-0.23504995;0.04961851;0.10381791;-0.15402159;0.16958867;-0.24353349;0.0094541935;0.15972522;-0.012528954;0.07533337;-0.092706025;0.05064283;0.082559764;-0.1215016;0.059201222;0.103754774;-0.14144744;-0.0016033731;0.11082422;-0.08830554;-0.31491056;-0.014224906;0.14260155;0.09896964;-0.15828717;0.11879331;-0.024895288;-0.046178102;-0.06917502;-0.16417524;0.08706234;0.083302625;-0.15857622;0.033021662;0.13007301;-0.008380536;-0.10678484;-0.15583342;-0.07378436;-0.19868788;-0.0041967076;-0.024971463;-0.13869676;-0.16157319;-0.034443956;0.10968419;-0.14575611;0.25743955;-0.04131015;-0.15620916;-0.17679153;0.13598411;0.17583832;-0.04012508;0.070546836;-0.032914847;0.012614339;-0.00046528544;-0.0070028133;0.010245922;-0.09298381;-0.1600949;-0.07706983;-0.117894255;0.028236978;-0.11723157;-0.11945815;0.04044;0.19459608;-0.10815642;0.08853741;0.18065292;-0.21898262;-0.0973622;-0.06749412;0.079406545;-0.04194654;0.012300276;0.09788327;0.12398476;-0.07373344;0.007129866;0.024499314;0.05323879;0.016184216;-0.04651973;0.04406676;0.15062705;0.016464094;-0.026553797;0.15244775;0.06520487;-0.051474143;0.066520415;-0.13247041;-0.0057636867;0.07603673;-0.034658477;-0.013711953;-0.2510775;-0.081212126;0.06769211;0.16877532;-0.053088862;0.011610326;0.1255331;-0.07747297;0.004117755;-0.067789756;-0.05331313;0.13695432;-0.028618434;-0.071300805;-0.05127394;0.080958664;0.093091995;-0.12437618;0.045368202;0.15630746;-0.17638233;-0.010457831;-0.03989757;0.15996468;-0.010571997;0.24164663;-0.16567156;-0.079461224;-0.16716623;-0.31338292;0.11582753;-0.026415229;0.0980491;-0.05205644;-0.01717599;0.1385085;-0.0035514594;-0.06920395;0.14620031;-0.18479376;-0.034097947;0.017847762;-0.0274265;0.1208947;-0.041590795;-0.13665223;0.02543073;0.07591482;0.13233307;0.029723944;0.10959099;-0.106089056;0.14827701;-0.09624815;-0.04876384;0.017148461;-0.2303473;-0.19508451;0.22005723;0.049854305;0.039526224;-0.123371996;-0.03229178;-0.06759608;0.033375524;0.10330817;-0.118737616;0.029086074;0.10550618;-0.027535142;-0.11033623;0.27929378;-0.0030280217;-0.11001941;-0.005435294;0.21458168;-0.060201053;0.16062886;0.07628651;0.012108852;0.05919869;-0.18931228;-0.1439416;-0.086999215;0.056903355;-0.011760161;0.08875077;-0.10053251;-0.019486085;-0.10878612;0.07143982;0.053319395;-0.09014613;-0.13655245;0.03883733;-0.06996181;-0.08297553;0.21809244;-0.14433426;-0.19623058;-0.07436792;0.059418254;0.003047526;0.16017698;-0.051411048;0.03578396;-0.14371032;0.057866074;0.04306823;-0.011494081;-0.07500347;-0.060978983;-0.11635165;0.06080796;0.022272952;0.010146652;-0.036487862;-0.11018223;0.015515976;-0.046153445;-0.083658196;0.044490907;-0.15420058;0.11571538;-0.19541058;0.048855197;-0.13360181;0.03475624;0.107765436;-0.16330154;0.019135049;-0.0012274237;-0.042822722;-0.0042705303;0.0561587;0.029252723;0.03420449;-0.0850287;-0.06575267;-0.032414936;0.22965802;-0.07181737;0.07476639;-0.00815192;0.01757742;-0.018717628;-0.041075557;-0.037628226;0.04853782;0.09116948;0.1752995;0.12012728;0.048156396;0.09498324;-0.05821171;-0.1399986;-0.07422276;-0.086104736;0.014206962;0.15147708;0.08807674;0.076596655;0.22535509;0.09440922;-0.020679982;0.09613978;-0.15391307;-0.16498895;0.022074535;-0.075059146;0.03258309;-0.027082877;-0.033867333;0.1298727;-0.07265594;-0.2756083
-0.12938026;-0.040846515;-0.15769567;0.12286271;0.2954959;-0.3288457;-0.00232119;0.08523943;0.02602817;0.043584425;0.16835043;-0.095363095;-0.044033047;-0.07234421;-0.0025179232;0.11350868;0.062325954;-0.056380156;0.043899424;-0.0405645;-0.13765433;-0.151405;-0.013420262;-0.020808233;-0.032423947;-0.15133372;0.07787723;-0.19992732;0.049597505;0.0066605103;0.12097059;-0.07259706;-0.3075856;0.15683088;0.068972334;-0.18380132;0.12178285;0.0147985825;0.16480789;-0.066275455;-0.36024517;-0.0008001132;-0.12533048;0.0011815005;0.1724204;-0.07943542;0.029859519;0.07393313;0.034151755;-0.16266452;0.031274047;-0.1478994;0.11873378;0.026330875;0.031197196;0.05240233;0.004941205;-0.2453515;0.039951757;-0.0026191259;-0.023496233;0.2547626;0.060321163;-0.13327824;0.11030069;0.104920216;0.0546316;-0.1400035;-0.15143226;0.062147517;-0.04499767;-0.07398312;0.00698839;-0.14259884;-0.28959477;0.088201545;0.09656161;0.004244074;-0.06565189;0.06742352;0.009742263;-0.10135367;0.023629285;0.036347825;0.22460246;-0.13396834;0.043638863;0.26061547;-0.09851752;-0.02967673;-0.090509176;0.08701664;-0.05886946;-0.05101249;-0.075654894;-0.043339208;-0.15689853;0.13979708;0.030137744;0.04814804;-0.027202811;-0.16526245;0.12859517;-0.03628393;0.28026432;-0.072516836;-0.1318669;0.12549233;0.050511643;0.28709123;0.018181968;0.033151805;0.046394583;-0.17669617;0.098025054;0.01620936;0.040488385;0.04879453;0.0030553034;0.083645955;-0.16046952;-0.15425889;0.3486078;-0.09566684;0.10446277;-0.07075774;-0.160076;0.19449636;-0.008988486;-0.24696383;-0.022211457;0.0944716;-0.020957632;0.005362451;-0.11476776;0.11238382;-0.1186854;0.028784066;0.20624353;-0.083419316;-0.0635351;0.14552492;-0.033205267;-0.13048637;0.04550809;0.13099;-0.26722157;0.22227487;-0.049015004;-0.11770505;-0.0024756924;0.09394158;-0.20971577;0.112449296;0.06319495;0.039051726;0.0179525;0.034269914;0.032773416;0.020752246;-0.030145004;0.110720865;0.11139718;-0.10734138;0.056536354;0.0667461;0.032730937;-0.12732643;0.05990152;0.18928573;0.057036594;-0.13696955;-0.13923046;-0.14903381;0.061938;-0.19890495;0.11922749;0.20767002;-0.20826013;0.19231528;0.03639702;-0.152633;0.12133851;-0.20614704;0.060536806;0.06716326;0.12758216;0.010463903;0.027778322;-0.24791533;-0.14603047;0.041017406;-0.1266005;0.011474079;0.22439578;-0.3488683;-0.003143437;0.030360091;-0.07077247;-0.12618788;-0.046685416;0.031133968;-0.060004972;0.019228734;-0.16095524;0.01867881;-0.01705435;0.0013541294;-0.028884407;-0.24222375;0.09757318;0.04823412;0.04045704;-0.09333218;0.01863923;0.10248756;0.06632778;0.0047386438;-0.031492468;-0.098217815;-0.101375885;0.16972536;0.013178995;-0.12269557;-0.13533273;0.03606721;0.16378495;-0.012255572;-0.121895656;0.08360009;-0.007947746;0.08782263;0.10631334;-0.19226937;0.10036019;0.043726515;-0.21621788;0.058254786;-0.07516431;-0.04618022;0.097301885;0.074406326;0.045027018;0.016618898;0.08108142;0.03545443;-0.048683956;-0.10223211;0.16727646;0.0442562;-0.06544509;-0.05384489;0.023300773;-0.12347309;0.19183215;-0.024596775;0.037502408;-0.3061323;-0.046839155;-0.021486042;0.013674073;0.035172436;-0.023586413;-0.44885752;0.03164578;0.07328874;0.19781487;-0.16287905;0.19517261;-0.39753586;0.10888743;-0.11573614;-0.17955774;-0.14142196;0.22989535;-0.14109005;-0.009199929;0.13117291;-0.10609407;-0.033172596;-0.030500846;-0.09384917;0.21978217;0.05539437;-0.11626028;0.07092154;0.032043647;-0.032468494;0.031664565;0.059747558;-0.16694166;0.17853962;0.05670946;-0.002350496;-0.033608634;-0.038384818;-0.06376043;-0.2606972;0.026298763;-0.21336375;-0.047599584;-0.30817482;-0.06667174;0.12207279;0.07411754;0.20360012;-0.17131372;-0.08091516;0.1060622;0.20388696;-0.05697603;0.04201448;0.054088157;-0.082247674;-0.039415937;0.117596455;0.013577153;-0.088464305;-0.08700163;-0.16879234;0.06573281;-0.24878685;0.066332154;0.021998221;-0.013361116;0.1160031;0.052134294;-0.12777919;0.082336426;-0.15256381;-0.080168806;0.11663167;-0.07256143;-0.1944401;-0.011048292;0.117222175;0.13717023;-0.23067412;-0.14837176;-0.16358183;-0.026528701;-0.07379225;-0.050963387;-0.09480994;0.01905563;-0.24291892;-0.012663636;-0.21460956;0.12212431;-0.005216925;-0.24590704;-0.08005103;0.0544719;0.14287885;0.027416635;0.26321295;0.08224622;-0.03389956;0.15860912;0.035102323;0.008987601;-0.08104839;0.020526752;0.025091492;0.05832189;0.0760374;-0.3059213;0.018553259;-0.16198395;0.1281212;-0.046381306;-0.11069579;0.11852064;-0.05154972;-0.08465205;0.0331743;-0.025029436;-0.026554802;-0.10458044;-0.016612923;0.015830122;0.0729504;0.17274179;-0.08096517;-0.02577715;0.09180603;0.0007874786;-0.01777596;0.20422815;-0.043958757;-0.0009022393;0.053880177;-0.030418754;0.124789745;0.31632933;-0.2014877;-0.031231945;-0.08467756;-0.061147336;0.047782212;-0.012514037;-0.13781944;0.21829878;0.1889504;-0.060055327;-0.107799366;0.036171094;-0.027148943;0.013685086;0.043228704;-0.16350695;0.005089721;-0.18961461;-0.087581284;0.003721181;0.02272001;0.0870011;-0.06503952;-0.060142253;0.1610423;-0.18470387;-0.119840935;0.14972119;0.067192495;0.101562075;0.11400491;-0.06682214;0.046474326;0.07888446;-0.2922091;0.007499012;0.050251137;-0.04824;-0.017360726;0.0038741243;0.018930243;-0.07383014;-0.05883852;0.26005787;-0.025245575;-0.06564476;-0.09817881;0.019481884;0.13375673;-0.044989455;-0.18192959;0.044834603;0.06621776;0.13617079;-0.076855615;0.028786596;0.02142321;0.030961629;-0.08261838;-0.14833425;0.14727207;-0.09201828;-0.08928829;0.054323602;0.13807331;0.034428004;-0.052511692;-0.14590552;-0.08797031;0.008346884;-0.029385222;-0.15130632;0.057639454;0.22617911;0.09974794;-0.11461117;0.16789292;0.1514724;-0.033942703;0.099466294;0.17593002;-0.0707003;0.15530002;-0.034246627;0.014790365;-0.020380424;-0.03055809;-0.26748082;0.0010422985;0.016948096;-0.1935874;-0.15191948;-0.16469029;-0.13512342;-0.27762157;0.027813401;0.03793452;-0.1853187;0.016685732;0.07318435;-0.052738097;-0.12098123;0.07402132;0.07123072;-0.073744155;-0.085029334;0.2112303;0.012155134;0.1932194;-0.111126356;0.06467381;0.064592846;0.055707376;0.06207318;0.033607587;0.02150413;0.014249237;-0.15733916;0.062229853;0.14367236;-0.109069176;-0.055360492;-0.007928046;-0.054958116;0.03389783;-0.15379749;0.008749652;-0.11440707;0.06933355;-0.059021834;0.041050706;-0.047270436;-0.08159665;0.13577749;-0.17347954;0.016804677;-0.012734456;0.049450155;0.0115222605;-0.015079993;-0.011611392;0.08454072;-0.23739137;-0.0183733;-0.18171772;0.24982505;-0.02910982;0.11364633;0.08976425;-0.033191893;-0.028507477;-0.072666526;-0.09223594;0.018125735;0.093848236;0.11484198;0.06469711;0.06797166;-0.032569736;-0.09127406;-0.06250892;-0.16260156;-0.06518371;-0.12810552;-0.019040078;0.12122757;0.07222286;0.19309941;0.0076613426;0.016092649;0.044964645;-0.12617832;-0.23087148;-0.0049965195;0.08138812;0.0052066925;-0.135913;-0.1203103;-0.008025978;-0.06982974;-0.07354177
-0.08694217;-0.016185576;-0.18112798;-0.0357036;0.23169978;-0.38601032;0.043735612;0.0059589976;0.046409138;-0.02410949;0.0044403737;0.10410217;-0.09655793;-0.19052847;0.019811656;0.040409975;0.15910237;-0.10248731;-0.05219475;-0.1607389;-0.07196352;-0.057723727;-0.06408907;-0.07720031;0.13896829;-0.06410517;0.03838801;-0.18970387;0.016823556;-0.19311406;0.19051407;-0.11501349;-0.154239;0.18327561;-0.03710122;-0.13391505;0.032805633;0.056470845;0.09420823;-0.07630096;-0.3046392;0.01594229;-0.20696144;0.118125185;0.19528219;-0.14556211;0.18197706;0.03596953;0.20284231;0.029144865;-0.10595879;-0.20588715;0.110932566;0.035693392;0.12780401;-0.18436152;0.038352005;-0.07438481;0.12831599;0.13790509;-0.007796234;0.22168468;0.09701307;-0.07986034;0.19826674;-0.051440503;-0.027119296;-0.019268565;-0.1465368;-0.08193376;-0.053742778;-0.11408788;-0.036760397;-0.096084386;-0.32649484;0.16241422;-0.007818948;-0.08347729;-0.08862274;-0.08000141;-0.006376794;-0.16180122;-0.026271937;-0.026284996;-0.023090262;-0.0984;0.022435196;0.29068276;-0.08880243;0.011604316;-0.13194972;0.022320379;0.033336353;0.07700199;-0.050560582;0.009586139;-0.15698008;0.1987284;-0.00304974;0.11874013;-0.037200343;0.030875105;-0.026208062;-0.050742224;0.25052974;-0.008152583;0.002378791;0.061692923;0.02083846;0.2365045;0.061300006;0.07560799;0.14125392;-0.089779034;0.010602068;0.05749872;0.05155849;0.038307384;0.023444196;0.12437296;-0.18363829;-0.18532248;0.15687913;-0.1581238;0.16420525;-0.04547452;-0.04031576;0.10096208;0.05455038;-0.033045936;0.018575072;0.024145471;-0.021802433;0.02545816;-0.005926865;-0.03017761;-0.16602476;0.081289135;0.15026648;0.04286713;-0.17764533;0.22637697;-0.0022030354;-0.047956496;0.13442922;0.08844153;-0.15922375;0.21110164;-0.15995191;0.05553561;-8.6705055e-05;-0.036907855;-0.05124281;-0.054327283;0.21067771;-0.045637965;-0.16196114;0.13369156;-0.10567012;0.023641242;-0.034830958;0.05288924;0.027124034;-0.1786538;-0.012055941;0.12770912;0.12848532;-0.116266325;0.10355066;0.19192865;-0.10417677;-0.09802703;-0.18566294;-0.21009937;0.017880647;-0.08312929;0.16204922;0.23327157;-0.09310201;0.11968789;-0.07856177;-0.18654254;0.0437567;-0.11665417;0.048853476;0.026605235;0.20991024;0.036141086;0.16653165;-0.27734327;0.044298884;0.10112326;-0.14917907;-0.005274132;0.18935099;-0.19102567;-0.1458694;0.09780203;-0.09043669;-0.22595397;-0.09796789;0.101887725;-0.10717214;-0.12782028;-0.039699055;-0.0179343;0.030737955;-0.11414241;0.052865796;-0.14010726;-0.06815653;-0.08708111;0.04142194;0.041903112;-0.18907465;0.10823606;0.15665248;-0.12575153;-0.095355086;-0.18663685;0.08723609;0.031261377;0.020858942;-0.14215852;-0.1719542;-0.040257495;0.1577766;-0.06477291;0.07652289;0.111786105;-0.064146884;0.07968905;0.0744086;-0.10462404;-0.08969716;0.106655054;-0.07903564;-0.027952997;-0.017520217;0.010503831;-0.1620984;0.09922117;0.05062449;0.1001556;-0.10143779;0.043916356;0.07999719;-0.12282586;0.11869223;-0.18252286;-0.08066338;0.049027916;0.046758607;-0.09329251;0.08366845;0.030748406;-0.033084698;-0.25557214;-0.03518256;0.018174533;-0.13558598;0.10525359;-0.11468326;-0.2923279;-0.027184017;-0.0055178255;0.19686548;-0.15870023;-0.051875554;-0.383072;0.11018576;-0.05017223;-0.15675598;-0.11810824;0.09568335;-0.16301195;-0.13983172;0.22479306;-0.11755423;-0.17773846;-0.0031642402;0.060101725;0.08685533;0.0309915;0.055217814;-0.051377255;0.059401553;-0.03374416;0.047947176;0.15595607;-0.2259786;0.30968958;0.091936946;0.113388486;-0.11001696;-0.07175927;0.0001190312;-0.2964368;-0.008788939;-0.26348543;0.05625964;-0.25303337;0.004263991;0.0133605795;0.15276487;0.22825648;-0.21470675;0.024455627;0.28438297;0.097712174;0.07470963;-0.042760625;0.15816619;-0.04774975;-0.01586068;0.1155692;0.029576724;-0.0025707716;-0.060292386;-0.04328151;0.10165123;-0.30759287;-0.041480765;0.13823113;0.17254983;0.0739747;0.0144057665;-0.08152298;-0.12948269;-0.10277139;-0.124408394;0.04409965;-0.004291486;-0.12260188;0.07151703;0.25414154;0.07211812;-0.22950101;-0.1410142;0.025149863;-0.17042571;0.0145370215;0.14124478;-0.13233857;-0.07381042;-0.12740205;-0.09038969;-0.1623982;0.11365919;-0.06771127;-0.27900127;-0.168684;-0.007675696;0.21820958;0.16420898;0.09105876;0.114571966;-0.017859355;0.1198887;0.124767244;-0.028408524;0.056260955;0.018150551;-0.005343141;-0.04067665;-0.011933535;-0.35295302;-0.09359253;-0.12529913;0.12039551;-0.10750539;0.10200554;0.03935644;-0.14014213;-0.05488465;-0.1646114;-0.16906431;-0.10131709;-0.111266375;-0.044476416;0.14324439;0.002678517;-0.035845436;0.024375832;-0.021580411;-0.057983328;0.019888049;-0.15594818;0.3126254;-0.14278239;-0.031390876;0.08034598;-0.08940472;0.180135;0.16061163;-0.15363131;-0.036988724;-0.16227224;0.06516718;0.19085704;-0.13813286;-0.22938965;0.10655245;0.13604909;-0.047477238;0.07068142;-0.013812889;0.07642639;0.066347346;-0.07464365;-0.14147884;0.04436397;-0.09438382;-0.06464536;0.1078932;0.025182743;0.27547938;-0.09342799;-0.18660495;0.09534168;-0.07454118;-0.2873751;0.22786427;0.009163672;-0.05983703;0.17761403;-0.12580264;0.1769777;-0.028343234;-0.27608478;-0.051758084;-0.08593317;-0.19803986;-0.07241183;0.047367193;0.02802301;-0.09398002;0.1419702;0.28986308;-0.048257098;0.08413296;0.017994339;-0.14170425;0.037950117;-0.080714405;-0.0626444;-0.06496867;0.112676226;0.14613223;0.076317884;0.1663957;-0.06483808;0.13075623;0.004147304;-0.24113852;0.041192695;-0.2191218;-0.09329647;0.00456791;-0.14700736;0.027808158;-0.00074917136;-0.27600276;0.077483445;0.028594716;0.01654604;-0.089446425;-0.004474945;0.104789324;0.07134189;0.024615021;0.16126011;0.14306697;0.09955308;-0.060057152;0.12250805;-0.051375505;0.062482227;-0.003841865;0.09069671;-0.0945471;-0.14408714;-0.24080826;0.018436657;-0.04614036;0.0061162524;0.07095201;-0.29160467;-0.12846854;-0.1266936;0.110552505;0.07703327;-0.25821275;0.10689099;-0.039039847;0.010209704;-0.18744358;-0.0028865447;0.075032614;-0.039479267;-0.18981244;0.1984107;0.105814196;0.10131736;-0.035886083;-0.08533397;0.06688728;-0.040210117;0.013259106;0.029186584;-0.074583754;-0.05950978;-0.109708555;0.049035713;0.24813908;0.014445862;-0.023036899;-0.071949184;-0.019348823;-0.03833105;-0.11737502;-0.096064635;-0.12715018;0.113532886;0.040143996;-0.027701389;-0.010606197;-0.12097305;0.12738548;-0.05181091;0.07675433;-0.083456784;-0.12108814;-0.02761731;-0.099217206;0.07454319;0.04208453;-0.06611976;0.014487405;-0.099499665;0.23343965;0.018622093;0.17571707;0.035047915;-0.0647343;0.013918453;-0.037007436;-0.0064643095;0.024962973;0.06937672;0.22263272;0.17871033;-0.06278149;-0.05829049;-0.16097742;-0.09598012;-0.047161702;-0.032924462;-0.057019643;-0.028977439;0.20938872;0.07873662;0.036260128;-0.04452968;0.10759973;0.09316862;0.016998176;-0.10905456;-0.089092255;0.021233318;0.042529542;-0.10808698;-0.15207055;-0.089445144;-0.1126625;-0.05792276
-0.041284494;-0.10103265;-0.16948268;-0.08926152;0.090847224;-0.33200312;0.12180394;0.09144486;-0.10012465;-0.07936466;-0.034130245;0.07859928;-0.23934688;-0.1728966;0.047873516;0.074213594;0.13003582;-0.056301083;0.11015057;-0.12845552;-0.091787666;-0.22149642;-0.063464016;0.10231687;0.1471936;-0.20992719;0.12206236;-0.0020014653;0.036280464;-0.040246077;0.09830748;-0.13989319;-0.19343609;0.03181339;-0.04971844;-0.109777786;-0.006840035;-0.046345975;0.19713764;-0.0981624;-0.2604906;-0.119841315;-0.077139534;0.115781404;0.20861533;-0.13006134;0.07919156;-0.13894755;0.2047084;0.06267399;-0.014950756;-0.18425514;-0.001798063;0.016479567;0.0146676665;-0.11729385;-0.065824844;-0.1578499;0.071961164;-0.049027696;-0.07976078;0.23493262;0.11438372;-0.047102034;0.13933533;-0.022454662;0.13359234;-0.03744721;-0.100406416;-0.010778519;0.04696484;-0.069729924;0.05021734;-0.035562936;-0.20586632;0.02065357;0.005551667;0.12083476;-0.15309557;-0.2469224;-0.02073863;-0.107974514;-0.15274936;-0.16601633;0.15809546;-0.12531376;0.091464765;-6.226024e-06;-0.10274501;0.16414094;0.05633467;-0.03263433;-0.017856084;0.086741894;-0.056890212;0.036192615;-0.096413575;0.09067689;0.18600042;-0.0759223;-0.18762909;-0.045187313;-0.049957484;-0.116406076;0.2650966;-0.11038548;-0.13312793;0.15762147;0.0070705325;0.16145535;0.02628649;0.0597491;0.06855189;0.05345796;0.17056398;-0.080230035;0.043592144;0.10660555;-0.04618847;0.12270549;-0.08041436;-0.012455579;0.18551917;-0.03621682;0.23338176;-0.0941696;-0.22238894;0.0804341;-0.06753687;-0.15702295;-0.031690832;0.18433122;0.0054184133;0.070734546;-0.009529124;0.05002645;-0.04527127;0.040372014;0.13848619;-0.01784802;-0.11856034;0.14878152;-0.08636255;-0.033712987;0.17049482;-0.05792861;-0.17080933;0.14978474;-0.058931444;-0.004059551;0.15398522;0.022118067;-0.23291448;0.1970424;0.23269889;-0.1608464;-0.2241098;0.20955785;-0.01759366;-0.06294889;0.044874363;-0.02871369;0.056340236;-0.035297226;0.11618702;0.18843918;0.030970136;-0.21288206;0.03564537;0.17072138;-0.16788782;-0.08254224;-0.17462839;-0.044241264;-0.02328557;-0.004267908;0.08265911;0.063510366;-0.07726538;0.11347903;-0.0619424;-0.24089548;-0.020262219;-0.15050472;0.12111371;-0.0047482294;0.15974997;0.053281754;0.104017675;-0.085005544;0.020638622;0.18661675;-0.051030874;-0.09075085;0.20750919;-0.1584214;-0.100696474;-0.10646112;-0.17549355;-0.2893849;-0.049024966;-0.13822965;-0.06666115;-0.10847243;-0.19716719;0.020394146;-0.06722604;-0.075081155;-0.0837397;0.020590333;-0.010935282;-0.08509342;0.0643179;0.07615186;-0.14404762;0.16677126;0.1217049;-0.11410047;-0.01885711;-0.11554693;-0.04432003;-0.028018896;-0.0111966655;-0.049532257;-0.1277886;0.058850866;0.22502531;-0.08015987;-0.014924879;0.04234977;-0.17006549;-0.054830488;0.21383265;0.038942613;-0.0050356444;-0.02415597;-0.016241092;-0.06967984;-0.14886582;0.029030439;-0.027439093;0.090670876;0.13649236;0.3447404;0.07321847;-0.07155231;0.10340889;-0.14220849;-0.13250962;-0.122775726;-0.18466644;0.014342904;0.018646946;-0.27715957;0.041753083;0.09513775;-0.0056657167;-0.25251576;0.010696623;0.06498058;-0.11514027;0.14797261;-0.13908754;-0.21416698;-0.11037277;0.1490902;0.12741439;-0.22466269;-0.049035314;-0.22057094;0.1323946;0.002297484;-0.18175234;-0.12797327;0.13556777;-0.037740972;-0.054963302;-0.018994763;-0.10333616;-0.009607945;0.12283877;0.07600042;0.03625349;-0.11331916;0.050465897;-0.1254205;0.1751648;-0.02512076;0.0018508125;0.09088197;-0.22571513;0.23138173;0.05721714;-0.06330167;-0.042754494;-0.19241938;-0.05978119;-0.34866774;0.023710854;-0.15683247;-0.06918568;-0.15269408;0.17009321;-0.1140093;0.119059816;0.3452015;-0.20228809;0.042261496;0.027393082;-0.045617502;0.12907693;-0.13851102;0.088295326;-0.01173893;0.03196335;-0.038513698;-0.11540968;0.029640177;0.026075851;0.0992448;0.17414261;-0.3070977;0.08015575;-0.010980933;0.017453056;-0.13641372;-0.013889043;-0.16941775;-0.17040539;-0.1208339;-0.2777424;0.07015886;-0.072167985;-0.13345286;0.1096785;-0.010046145;0.14250316;-0.117696606;-0.07247154;-0.0675529;-0.16883753;-0.023451779;-0.03359797;-0.22659746;0.1254034;-0.14999597;-0.008335098;-0.12509972;0.246846;0.0064453725;-0.31627947;-0.24009411;-0.031917285;0.08742078;0.18351033;0.12847374;0.15646142;-0.11785079;-0.08063277;0.25670853;0.041606937;0.035344016;-0.060964033;0.17648396;-0.04311408;-0.033283584;-0.38908082;0.07679013;-0.13631557;0.1640405;-0.0077341674;0.042536344;0.08768847;-0.14109647;0.0058438824;-0.17448616;-0.1024316;-0.11635016;-0.15300336;0.04649946;0.12543327;-0.12544551;0.047226824;0.1839228;-0.060884573;-0.017696895;0.031231893;-0.020689486;0.13102873;-0.18541606;0.082294665;-0.01692184;-0.009805147;0.15657172;0.03899425;-0.24150535;0.17286599;-0.1742841;0.10685011;0.06271878;-0.045651995;-0.20425853;0.08663351;0.032241315;0.011693419;-0.06138423;-0.08424077;-0.034986593;-0.1158479;-0.056277975;-0.111764416;-0.09979001;-0.14804655;-0.044911373;0.07947803;-0.05859096;0.20095925;-0.23795295;-0.1346189;0.0340741;-0.15799914;-0.14759238;0.24815442;-0.10991032;-0.045268092;0.15322469;0.06621665;0.21952721;0.05929451;-0.24532266;0.03884967;-0.09469573;-0.2373302;-0.03881955;0.073739536;-0.010144129;-0.0021359196;0.11807354;0.110181995;0.07645518;0.10877961;-0.03636391;-0.0973114;0.19020571;0.045671098;-0.1587607;-0.19833042;0.07510721;0.122558184;-0.042222198;0.08019773;-0.1528386;0.050926715;-0.06266718;-0.10340034;0.21555033;-0.13165106;-0.048523754;0.11543304;-0.2067331;-0.057377838;-0.07684468;-0.14610165;0.20953381;0.14451057;0.012154989;-0.038627308;-0.020829618;-0.07633445;0.0932401;0.016123187;0.14778802;0.21934268;0.08521871;-0.14659731;0.045103196;-0.09318136;0.17131954;-0.017835751;0.062183462;0.039767288;-0.062126864;-0.24010117;-0.08583446;-0.2592439;0.051007405;0.040128097;-0.1830501;-0.22779514;-0.13597961;0.19765557;0.07357856;-0.18086213;0.057867885;0.0330586;-0.18382168;-0.09591375;-0.0643312;0.07794853;-0.13488525;-0.11536508;0.21249703;0.050491836;-0.01850914;0.030521628;-0.053957827;0.01230357;-0.008309129;-0.0017387836;0.011571596;0.00897637;-0.054166585;-0.14610407;0.021289488;0.2263821;-0.08733028;-0.039930757;-0.051715225;0.05528829;-0.12189091;-0.2022422;-0.008369961;-0.09013081;0.14726281;-0.00485934;-0.096654564;-0.14418884;0.0135419;0.06845501;-0.11302885;0.015104698;-0.059243064;-0.02121055;-0.01828897;-0.032627035;-0.06522935;-0.07797974;-0.008004764;-0.022484079;-0.288462;0.287765;0.016499428;0.19957432;0.036187064;-0.19081388;-0.0048028296;-0.052476425;0.07192258;0.09636976;0.0706746;0.21747865;0.10270292;0.07205291;-0.20982428;-0.12774855;-0.10472337;-0.12980978;0.041343097;-0.092345946;0.0059941723;0.18066584;0.11136618;-0.09184683;-0.18606211;-0.106979184;0.2118957;-0.16105674;-0.15496716;0.18141852;-0.022973642;-0.16803364;-0.14775015;-0.14465056;0.016302178;-0.16056195;0.10224574
-0.13039441;0.05749797;-0.14804518;0.018627996;0.081202544;-0.059077617;0.0011154137;0.13005862;0.02692255;-0.056934796;-0.047735382;0.06772599;-0.19255641;-0.14235124;-0.03430272;0.120414585;0.115577556;-0.033616986;0.11359801;-0.009699847;-0.06432328;-0.05996233;0.014193565;0.044457458;0.13302757;-0.18510847;0.00025597427;-0.07591937;0.12537463;-0.057725415;0.27200493;-0.021166502;-0.25685802;0.14904144;0.019987937;-0.0064087207;0.0754982;0.105280094;0.11717286;-0.117290005;-0.3039126;-0.0625744;-0.21756169;0.11540014;0.22992818;-0.06463571;0.102168806;-0.11771088;0.14713563;-0.084539264;-0.1242082;-0.02299047;-0.024365112;0.17088951;-0.013041381;-0.107761145;0.13165459;0.06186222;0.09230412;0.0212103;0.05245046;0.06555835;0.10236076;-0.05489822;0.031820897;0.009687691;0.033263464;-0.039101884;-0.11107348;0.03756958;-0.1414096;0.07484865;-0.010829979;-0.080135904;-0.03518996;0.015145408;0.021415392;0.07936849;-0.2538927;-0.21961197;0.058689736;-0.09612742;-0.18393786;-0.21145286;-0.0036907461;-0.083246194;-0.059630617;0.15573156;-0.19329739;0.18902877;0.061413996;0.1700143;0.048359074;0.11232968;0.12715615;-0.043762933;-0.17491408;0.19312996;0.15759067;-0.18618555;-0.089324206;-0.07070738;-0.18633717;-0.017304197;0.31549233;-0.07886041;-0.103644595;0.18998663;-0.07095331;0.16679323;0.01668615;0.14962915;0.10059322;0.09664291;0.11463292;-0.034012;-0.038288835;0.04298263;-0.017578114;0.1615897;0.0044772183;-0.101495385;0.22084478;-0.039614603;0.12671195;-0.0039327973;-0.018853707;0.0867298;-0.026488395;-0.09087879;-0.05723139;0.21714532;-0.07128032;0.046709687;0.12059508;-0.084615394;0.009660081;0.09094043;0.023532104;0.085765384;-0.20469159;0.009034924;-0.14316316;0.06290337;0.17405164;-0.08328536;-0.30160818;0.19409177;-0.07785869;0.032869153;0.06429913;0.027603943;-0.12975693;-0.05212667;0.2664411;-0.063108906;-0.20688897;0.18879868;0.048575707;-0.084440164;-0.09133111;-0.044369385;0.104437545;-0.009584236;0.016204523;0.093535215;0.0077927923;-0.075734325;0.081615336;0.20509808;-0.06781429;-0.06455061;-0.033032358;-0.17849268;0.023583984;-0.0046638893;0.060191583;0.18389404;-0.035164528;0.03804443;-0.045025792;-0.25173318;-0.080089316;-0.18555836;0.13582982;0.1388308;0.15636055;-0.014387164;0.18717934;-0.19184083;-0.10031939;0.04197769;-0.0032474168;-0.15181234;0.22150362;-0.24736273;-0.058125954;0.018104795;-0.2534032;-0.25802004;-0.06743143;-0.009354302;0.099087544;-0.18562797;-0.20645969;0.07330837;0.14339446;-0.119925514;0.07185121;0.041656047;-0.029999506;-0.06827874;0.16599467;0.12920429;0.010466908;0.20767353;0.08815351;-0.08057257;-0.008346001;-0.16073598;-0.15677576;0.09115802;0.055803318;-0.13465446;-0.09168415;0.07956973;0.08332566;0.15220441;-0.016868673;-0.07764494;0.011196574;0.023758039;0.10562049;0.03623565;-0.14197242;-0.026106758;-0.12449297;-0.06961554;-0.103812754;0.08415204;-0.032456897;-0.14896604;0.13792214;0.24137482;-0.075296186;-0.16110775;0.033534247;-0.2016244;-0.0017358984;-0.05447244;-0.23434813;0.11810536;0.074010834;-0.2554488;0.054379012;0.078983426;-0.1430739;-0.17157051;-0.023290582;0.083550334;-0.11233114;0.021809893;-0.1274277;-0.114960395;0.0670835;0.06895239;0.14864679;-0.19118112;-0.0076125115;-0.27355796;0.15577586;-0.10148407;-0.094610855;-0.15441155;0.05259239;0.007616193;-0.047736157;-0.019730188;-0.09783573;0.08067965;0.02409523;0.1387609;-0.0081070475;-0.0023363475;-0.04068159;-0.2297396;0.1611285;-0.022854658;-0.028425265;0.041098025;-0.0025259606;0.15312727;-0.044580337;-0.09450803;-0.012440921;-0.22169602;-0.072534576;-0.36832005;-0.08208614;-0.0434535;-0.05758215;-0.045740508;0.023745187;-0.15589103;0.04242299;0.31412378;-0.0961981;0.032444153;0.17381151;-0.10312297;0.035997983;-0.12303315;0.19579569;0.03765638;0.07493989;0.054243937;-0.050463777;-0.04488485;-0.043570116;0.04713995;0.16079657;-0.3523451;-0.024574844;-0.17409153;0.03678484;-0.051220894;-0.07451759;-0.11425484;-0.33911952;-0.053520992;-0.25530997;-0.10010375;-0.08768733;-0.1097863;0.22107115;-0.10136873;0.07614724;-0.14463645;-0.045149863;-0.086158164;-0.004101322;-0.09569975;-0.04018702;-0.22288483;0.080261335;-0.14096545;0.06410204;-0.088656165;0.12637092;-0.075601265;-0.2567329;-0.20585333;0.1650587;0.24567333;0.1855938;0.22122903;0.122952424;-0.09388986;-0.007844454;0.21021809;0.1394431;0.09529907;-0.047975093;0.105964854;0.06413891;0.09925538;-0.30890992;-0.09938768;0.023284804;0.006925852;-0.14626235;0.19424613;0.023086276;-0.061358377;-0.014903748;-0.32039085;-0.036869712;-0.066165805;-0.10630439;0.039670326;0.09894627;-0.11514022;-0.110805884;0.13530849;-0.08681564;-0.04691416;-0.047102038;0.13504519;0.12440407;-0.22020693;0.024807632;-0.15385033;-0.16555463;0.07186344;0.010249216;-0.3318288;0.08875244;-0.22363687;0.057781734;0.18400635;-0.18395664;-0.12058905;0.027695898;0.18585646;0.097416125;0.123319395;-0.010976165;-0.010585152;-0.029990742;-0.10759829;-0.06760675;-0.17652826;0.010266907;-0.08621506;0.018832486;-0.119472556;0.16658358;-0.18072726;0.01265558;0.04742463;-0.02446057;-0.07378828;0.32912728;-0.06821171;-0.029449074;0.092635944;-0.038909353;0.14566006;0.15610735;-0.22873698;0.020718772;-0.1884412;-0.22408478;-0.004977345;0.040337414;0.035246596;0.048176188;0.06131535;0.13384137;0.083071955;0.08397728;-0.1753563;-0.24645124;0.028475903;-0.037956994;-0.15786228;-0.013431083;0.08164601;0.06823148;-0.076021306;0.10021269;-0.1910076;-0.045017533;-0.1051262;-0.085007735;0.14489813;-0.13569634;0.12338885;0.10897553;-0.22730358;-0.11419257;-0.0767731;-0.0150244795;-0.015630212;0.033441283;-0.0017793417;-0.09804319;-0.086320296;0.059624698;0.11565497;-0.07004745;0.073160335;0.16086888;0.15551452;0.037750185;-0.21617;-0.18943073;0.053972144;-0.08424362;0.037867863;0.035800107;-0.11069342;-0.04929521;-0.03745055;-0.24610981;-0.08787335;0.1019475;-0.26864988;-0.058511093;-0.17870447;0.1425864;0.16369472;0.0018021262;-0.0649335;-0.02382204;-0.23550713;-0.17854403;0.017087944;-0.110680565;-0.30647856;-0.034372006;0.047530632;-0.12457376;0.14775072;-0.011969564;0.15579009;-0.07117611;0.009996562;0.10106619;-0.14312628;-0.051192727;0.03386951;-0.13244472;0.12732649;0.27167663;-0.12827758;-0.09397045;-0.1063496;0.015585438;0.00431146;-0.25589225;0.056380812;0.039014116;0.2020802;0.03221231;0.025086315;0.041706216;0.07408139;-0.13008991;-0.27475747;-0.13659093;-0.07891069;0.0065066977;-0.08890835;-0.01578181;0.14093503;-0.0036714699;-0.009436095;0.08535507;-0.2769462;0.29355496;0.03654573;0.1563207;-0.00345361;-0.07163114;-0.040479388;-0.03483955;-0.017846787;0.12927862;0.13148047;0.20977221;0.09668261;0.07014119;-0.20508994;-0.13618228;-0.17593287;-0.14911641;0.009414406;-0.0422856;-0.018724868;0.25390765;-0.07458971;-0.1376537;-0.13216831;3.8278024e-05;0.2074949;-0.08595301;-0.1774488;0.12095313;-0.016135145;-0.22551604;-0.032566797;-0.24399269;-0.085845135;-0.06249048;0.031126933
-0.2974911;0.08673528;-0.07517834;0.008311793;0.005529691;-0.04165297;-0.047400773;0.06221257;-0.029448118;0.03332775;0.08505342;0.09706312;0.09713757;-0.13904475;0.16882122;0.10484382;-0.10503104;-0.08369083;0.067428365;0.11219672;-0.17268434;-0.21490492;0.06858325;-0.04717114;0.24891247;-0.1316058;0.0017976054;-0.121718474;0.04128163;-0.06705572;0.24201326;0.07429312;-0.2113987;0.17993331;0.008367819;0.013905094;0.11887028;0.18212008;0.15024342;-0.11560676;-0.2837005;0.0014665736;-0.2854578;0.16114575;0.1324568;-0.18909203;-0.006084584;-0.07834034;0.19079688;-0.07397579;-0.09599813;-0.16917494;-0.045449026;0.17519747;-0.13359305;-0.0031766698;0.09547726;0.10553458;0.029463414;-0.06930775;0.03403102;0.16737603;-0.017033363;0.07259021;0.12225274;-0.0026068788;-0.013609675;-0.14806817;-0.16676126;0.05980734;-0.27211386;-0.11778675;0.14187656;-0.08997248;-0.16497624;-0.083254054;-0.039356466;0.1742383;-0.10936541;-0.25595784;-0.047844782;-0.0914791;-0.22260724;-0.2799635;-0.077572264;-0.019505851;0.03596354;0.1437655;-0.09301487;0.15381904;0.09626045;0.12520021;-0.013114685;-0.037557762;0.019551922;0.12797725;-0.1412196;0.14582823;0.10672677;-0.2964168;-0.2623551;0.17526853;-0.11708888;0.07938081;0.19342412;0.034569204;-0.009140893;0.22029005;0.10764702;0.13945977;-0.028561682;0.01354357;0.19429737;0.05931718;0.06673844;0.20286117;-0.06406989;-0.014538599;-0.14353143;0.03542504;-0.077014156;0.028763155;0.124907024;-0.040947165;0.0020484342;0.07979783;-0.027200675;-0.0322215;-0.11908876;-0.07502735;-0.107571796;0.28351468;-0.06840226;0.12877539;0.13508415;-0.029220805;0.074995615;0.042666305;-0.041607983;-0.12511675;-0.083594106;0.21357894;-0.14781491;0.10890492;0.20405689;-0.21426581;-0.21827596;0.16856486;-0.072162524;0.013359562;-0.023044534;0.045424964;-0.06929849;-0.14513344;0.102809116;-0.045102526;-0.18261343;0.13576388;0.23339787;-0.10473182;-0.07334161;-0.021755168;0.086747125;-0.015374461;0.07274129;0.08255353;0.14942044;0.08027403;-0.0839528;0.08082351;-0.046353336;-0.054168247;-0.009330021;-0.2859039;0.19691096;-0.17806788;0.14545377;0.110090904;-0.07550862;0.12497196;0.025467103;-0.21378152;-0.11326692;0.0064917584;-0.017679246;0.03137625;-0.0632321;0.071825154;0.16798581;-0.12601548;-0.14858289;0.066537574;-0.113236874;-0.05103806;0.052682385;-0.27231756;0.032040153;-0.05528829;-0.15414456;-0.09632806;-0.051135156;-0.07795344;-0.05776078;-0.014368129;-0.19618875;0.09241411;0.08857377;-0.093577504;0.023608161;0.016119557;0.0033374166;-0.12550318;0.023114989;0.11690879;0.053673267;0.2519522;-0.0059501897;0.06415228;-0.07604005;-0.21406755;-0.15642813;0.04099835;0.009826265;-0.078003705;-0.0294283;-0.16787694;0.13311343;0.22768849;-0.023893375;0.1072535;-0.07124301;-0.19769493;0.15312113;0.057335123;-0.21594414;0.0578524;0.08951837;-0.009627339;-0.14055291;-0.12082381;-0.1582815;-0.15425588;0.05168981;0.28815374;0.042998318;-0.1771212;0.16208017;-0.16721456;-0.21059579;-0.21639657;-0.14853573;0.006173184;0.025096413;-0.13779908;0.009811862;0.035208233;-0.03661762;-0.109269306;-0.16914746;-0.011870326;-0.22905183;-0.025602972;-0.17471679;-0.1784175;0.12664807;0.06660647;0.04609765;-0.22316101;0.04015763;-0.15214077;0.15515006;0.06118473;0.13320023;-0.07711743;0.0909288;-0.089426324;-0.18176906;0.10029784;0.047686867;0.023713475;-0.03182972;-0.09226633;-0.04511937;-0.016175242;0.3131619;-0.13628905;0.20183209;0.05670104;0.008627562;0.07120309;-0.25634253;0.2423463;0.09456208;-0.02989821;0.11653231;-0.12560305;-0.13678662;-0.14217143;-0.10672008;0.097727485;0.09334428;-0.03499679;0.081154004;-0.07864332;-0.010393419;0.22991303;-0.15792209;0.11220643;0.10923961;-0.093621045;-0.07638001;-0.32581922;0.05101028;0.04022635;-3.8618855e-05;-0.1785463;-0.12511782;0.045358114;-0.10794512;-0.07525172;0.21782914;-0.20314296;-0.013027251;-0.1630465;0.092138045;-0.12034376;-0.14824231;0.13218558;-0.30236918;-0.010525702;-0.30193713;-0.08577663;0.030362401;-0.13079387;-0.030554747;-0.03540848;0.17009903;-0.18826807;-0.15690166;-0.085096925;0.004160931;-0.03806268;-0.02859696;-0.14643757;0.057297744;-0.056152526;-0.029849958;0.13957103;0.19110274;-0.08407025;-0.0013249103;-0.13492823;0.03813331;0.23760816;0.102469355;0.15933675;0.00848743;-0.01550439;-0.110900946;0.30479512;0.14896488;-0.029361911;0.033215016;0.04907886;0.032045804;-0.079109915;-0.3938121;-0.2096892;-0.05779572;0.14748758;-0.11160739;0.035826918;-0.026696894;0.043524295;-0.13523106;-0.31765512;0.0010266451;-0.054763895;0.0531706;0.02919602;0.117160074;-0.021680733;0.054065604;-0.027067069;-0.18370062;-0.1622516;-0.087874755;-6.868494e-05;0.12407744;-0.26390558;0.021190217;0.0060040923;-0.040372822;0.16406183;-0.042666413;-0.27672297;0.061956067;-0.19669428;-0.057511456;0.18051079;-0.070847556;0.12998147;-0.029034797;0.28814697;0.101012684;-0.0379331;0.07291423;0.092864804;0.083185665;-0.17215626;-0.16770947;-0.07327532;-0.008441669;0.070227854;0.13770838;-0.14125378;0.26112995;-0.1626089;0.11693609;0.004229622;-0.20785515;-0.06552073;0.28500143;-0.16861841;-0.066124395;0.048794083;-0.012455858;0.12041165;0.17838772;-0.101433925;0.009847048;-0.29181367;-0.18129721;-0.16786018;0.06121537;-0.067174196;-0.017165808;0.15259424;0.15144822;0.07846109;0.17930938;-0.13943702;-0.2694604;-0.024571996;0.12169056;-0.12486659;-0.18675016;0.03059571;0.098280214;0.04095404;0.17150989;-0.06820691;0.2329011;-0.07062128;-0.14017154;0.11191051;0.030552017;0.052824505;0.10306269;-0.20485148;-0.053290725;-0.074582666;-0.15844405;0.11070617;0.018742086;-0.07680735;0.0075490763;-0.11249579;0.16432288;0.17249162;-0.0051035658;0.19037378;0.06258061;-0.0034837069;0.16321848;-0.17452252;-0.16827989;0.09257908;-0.026068393;0.014952825;-0.07266915;0.05998423;-0.17887822;0.040643845;-0.1674593;-0.109742746;0.010621606;-0.2054557;-0.06153533;-0.15605406;0.2631758;0.30448702;-0.14865865;-0.1096666;-0.049077865;-0.06578791;-0.16149941;0.09175754;-0.07394773;-0.2613458;-0.041560594;-0.050435364;0.06862374;0.068332806;0.06555809;0.23400813;-0.0075913183;-0.024218187;-0.048337054;-0.11374304;-0.10092027;0.0087061385;-0.19047323;0.13328753;0.28258166;-0.14393146;0.12512572;0.011945819;0.06587891;-0.019051444;-0.14645743;0.033114355;-0.0634466;0.1984048;0.04981326;-0.106341615;0.011953194;-0.08544731;-0.0821546;-0.25681427;-0.0043348446;-0.08190756;-0.08277978;-0.019464565;-0.039203737;0.030036023;0.08859326;-0.031595625;-0.006237175;-0.23630626;0.23948637;0.036093436;-0.06486362;0.15007414;-0.0110728415;0.13034251;-0.025974013;-0.13619639;0.076586336;0.03870337;0.1471598;0.096106805;0.2159884;-0.21870208;-0.019813811;-0.10267977;-0.15225437;-0.06385124;0.108382955;-0.048591033;0.13465264;-0.047358193;-0.023667969;-0.09671142;-0.003362962;0.14354606;-0.11095673;-0.08549029;-0.08815301;-0.09282185;-0.19734634;0.006540057;-0.4311147;-0.055441324;-0.21420577;-0.02631904
-0.03483789;-0.16611414;-0.15301494;-0.2904887;-0.093841754;0.0271743;-0.13390817;-0.30711436;0.059918385;0.1128537;-0.17901807;0.0033849967;-0.1196199;-0.095895775;0.013100807;-0.05934398;0.14802125;0.027099468;-0.09804192;-0.16267024;-0.5783438;0.24427144;0.11684275;0.07904238;0.24684063;-0.020868074;0.18914248;0.0076910276;-0.029962445;0.105004266;-0.13321689;-0.14257434;0.009081384;-0.14724983;-0.09099918;0.26421288;0.22443178;0.15554419;0.111642614;0.17619404;-0.011272759;-0.052291527;-0.16137584;0.072067864;0.042774066;-0.1298478;-0.17592795;-0.080044396;0.09167279;0.41330644;0.06734434;0.15760416;0.34464496;0.104030855;0.3847198;-0.1567358;-0.064164646;0.22896391;0.07807286;-0.048361357;-0.054908503;-0.24478328;-0.37174568;0.20009781;-0.059042726;-0.08792319;-0.11124862;-0.18211207;-0.048170302;0.05712664;-0.43153083;0.26371345;0.16457714;-0.24679066;0.3747305;-0.07630173;0.10610519;0.16913041;-0.0607792;-0.019018315;0.13023815;0.051547736;-0.014542781;0.120203204;0.013954007;-0.23047252;0.23735753;-0.179017;0.32067782;-0.1251539;-0.22488739;0.039607648;-0.100436404;-0.009397367;0.03915893;-0.042712938;-0.17382851;-0.043999325;0.22542691;0.2695527;-0.042950857;0.2157307;-0.025727164;-0.0059805294;-0.23055504;0.30609;0.10215953;-0.03356514;0.20046511;0.5365199;0.31111428;0.06642837;-0.27273864;-0.07827604;-0.35489962;0.14207132;0.045735877;0.12620012;0.32109785;0.34913087;-0.18460844;0.2018551;-0.2728855;0.15596221;0.029596403;-0.2863274;0.08855046;0.15777007;0.26925686;-0.14488187;0.064803384;0.15514892;0.1038814;0.02334063;0.4648592;0.1909183;-0.16655609;0.060963083;-0.1786872;-0.36275914;0.094493195;0.5287917;0.2296183;0.1352053;-0.30754644;0.02221034;-0.059876762;0.096371874;0.2166064;0.20869356;-0.114655405;0.3444932;-0.032288287;-0.008524739;-0.34608993;-0.17516743;0.016551344;0.35666996;0.1620298;-0.38913628;0.11492517;-0.07400017;0.06338449;-0.06348879;0.08845057;0.22965296;-0.08974193;0.5276936;-0.034450807;0.11804052;-0.16244757;0.2778171;-0.31335083;0.052989893;0.27337587;0.11391444;-0.032903478;0.18543723;0.3176784;0.030231623;0.19903639;0.2573499;-0.10023743;0.28749844;0.25451156;-0.1587197;-0.30168274;-0.0814971;0.07796947;-0.2589924;0.021235168;0.15851656;-0.42924675;0.07182501;0.22621469;0.30626297;0.2012616;-0.07844941;0.1757448;-0.3406273;0.027842568;-0.048220705;0.15578552;-0.38831222;0.14255267;-0.00574384;-0.18451567;0.17236717;-0.2147119;-0.61688524;-0.06104866;-0.223605;-0.23553766;0.14223233;-0.121084854;-0.02717698;0.28335205;0.031188244;-0.053704157;0.021693213;-0.05895162;-0.027200298;-0.14541335;-0.41001153;-0.21177997;-0.011636723;-0.008092586;-0.022937587;-0.08778859;0.15771787;0.19584852;0.18916985;-0.10625111;0.39220318;-0.20109876;0.03281896;-0.06575541;-0.3170939;0.13245656;-0.11685604;-0.017219465;0.24432555;0.36379895;0.16700836;-0.050485108;-0.19247635;0.29056185;-0.029408334;-0.27338725;-0.022374097;-0.07785054;-0.22443245;-0.05750918;-0.21455158;0.20821156;-0.3211319;-0.08654505;-0.038386866;0.27422023;-0.229651;0.01573536;-0.10958252;-0.24098377;0.14487955;-0.058847617;0.1491744;0.014085313;-0.14173187;0.28935993;0.16996051;0.13937353;0.20188549;-0.020941144;0.1792438;0.32620785;0.09149032;0.030585721;0.016472284;0.07620151;0.04394297;0.23812689;-0.07261568;-0.03457221;-0.034685336;0.23700145;-0.025680367;0.1195036;-0.1688198;0.26791126;0.02224947;-0.20464693;-0.15004294;-0.27426285;0.17996517;0.14133677;0.050959427;0.09846436;0.23750906;0.15899216;-0.04133657;-0.13948955;0.010058264;0.077307746;0.105758004;-0.24621022;-0.06701367;-0.07849993;0.28978297;-0.09091981;0.0360631;-0.074692585;-0.08594119;0.17110914;-0.2227064;0.20122313;0.08628882;-0.08945611;0.34597564;-0.1943669;-0.1286505;-0.027942352;0.007458859;0.14002517;0.10074406;-0.04562242;0.09225574;0.4577523;0.022112869;0.027806584;0.0910114;0.037943166;-0.050274752;0.16030355;-0.19845678;-0.36406034;0.07624388;0.17445052;0.2595857;0.44581124;-0.002782217;0.22140883;0.18261799;-0.19003497;-0.1892953;0.20995355;-0.24196684;0.15884675;0.11101946;0.1520622;-0.34232163;0.10761181;0.25373346;-0.14524606;-0.020073878;-0.07010833;0.20933822;0.2284869;-0.067319505;-0.27090362;0.34745798;0.098091975;0.25930342;-0.1180725;0.13156787;-0.41684347;0.2304716;0.05611114;0.25209355;-0.16315812;0.05555009;0.0523955;-0.16702516;-0.035256803;0.22697581;0.39375892;-0.18459037;0.15326923;-0.37787518;-0.15536621;-0.2408225;-0.024204245;0.0015563392;0.30296502;0.13783354;-0.21910076;0.13295402;0.3339583;0.2780185;-0.0684587;0.28196254;0.106418505;-0.058184247;-0.026128054;-0.0444854;0.25252476;0.20107071;-0.029284654;0.13209139;0.1986348;0.17157157;0.17750883;0.027555032;-0.081474595;0.14573865;-0.13828571;0.33289433;-0.039230384;0.100403905;-0.10413271;0.084654056;0.28002098;0.50909287;0.01986772;0.2555698;-0.011673558;-0.3594159;0.114244714;0.35250828;-0.08973236;-0.080125734;-0.1913053;0.023434946;0.17653969;0.01904617;-0.18475796;0.19495937;0.09462948;0.22413155;0.2045856;-0.07270287;0.042226322;0.21028699;0.116381176;-0.0002555524;0.044646833;-0.052912183;-0.03731302;-0.5363135;0.08947034;0.010994442;0.057166506;0.03517043;0.0146241505;0.29014277;0.30652004;0.12726164;-0.11016292;0.17123982;-0.006538684;0.29921705;0.020639932;0.34690633;0.10598615;-0.012327268;0.04756641;0.05204278;-0.19330305;-0.5366119;0.30409092;0.063136786;-0.2349287;0.22457224;-0.17242187;-0.09526574;0.179675;-0.3798025;-0.13732854;0.13133329;0.2009744;-0.050971184;0.08502195;-0.17645736;0.14421503;-0.06872615;0.06302782;0.29596725;0.08052139;0.10185373;0.009277856;-0.028015016;-0.35813558;-0.19456169;0.12290882;-0.21651925;-0.011631914;-0.029896969;0.17437178;-0.021382114;0.16420397;-0.08649352;-0.038860388;0.25241607;-0.060682733;0.15145274;-0.06862691;0.0037519555;-0.121776685;-0.21936357;0.3187853;0.096840635;0.065518506;0.12572426;-0.32505625;-0.31619194;0.054282747;-0.20517819;0.23437336;-0.31476268;-0.14162242;-0.24176054;-0.17369466;0.078394875;0.20433082;0.15280151;0.15127736;-0.1703024;-0.2707978;-0.14309523;0.35129666;0.31672448;-0.098695725;0.16105418;-0.14949097;0.09739846;0.014787437;0.24899578;-0.06555593;-0.055635538;0.032984145;0.08651637;-0.096530415;-0.11453531;0.11748745;0.30908486;0.107795484;-0.060047653;-0.11088616;0.07417882;-0.00094911497;-0.0831987;-0.5023961;0.27321732;0.2386924;0.10611881;0.074350655;0.29610765;0.1529552;0.06614601;0.12273137;0.14133671;0.22353147;0.114740245;0.013783242;-0.41217542;0.5522189;0.38863346;-0.09458728;0.12168554;0.50402445;0.078858174;-0.48755574;-0.2029957;-0.03263509;0.010627729;-0.04291359;0.20761272;-0.26337007;0.2805025;0.066539384;-0.117461495;0.13172348;0.38836613;-0.11921848;0.4401412;0.026081344;0.11903332
-0.15659148;-0.15613984;0.020841025;-0.19968784;0.05759249;0.038580757;-0.22158101;-0.33031446;0.24429038;0.11602062;-0.23684606;0.112352066;0.15662314;0.13411695;-0.031928096;0.03587099;0.33696154;0.18407239;-0.12682116;-0.19834848;-0.11574877;0.16256897;0.07667764;0.19398536;0.22659145;-0.27024937;0.011097896;0.07218665;-0.13214207;-0.0070143067;-0.35430852;0.043599144;0.04516386;0.08569332;-0.050310805;0.13187887;0.06349277;-0.07860316;0.080278546;-0.14524135;0.015791971;-0.020432062;-0.25058052;0.061787535;0.39346045;-0.14600566;0.27861917;0.113177285;-0.1334595;0.1748153;0.14365084;0.3831724;0.05230814;0.14775781;0.28733993;-0.058478124;0.09353057;0.23886926;-0.041574895;-0.3043927;0.06187678;-0.1377422;-0.18550791;-0.019296428;-0.1533434;-0.11008099;-0.18470043;-0.20482022;0.0030479673;-0.026773045;0.038861368;0.2552597;0.32165802;-0.32197115;0.32285747;-0.09479811;-0.0046607433;-0.040195722;-0.06797371;-0.16350779;0.21314561;0.11511713;-0.25614277;-0.01758442;-0.12787409;-0.04117745;0.28713062;-0.07622244;0.0798162;-0.14704093;-0.2735576;0.384827;0.007370992;0.17460853;-0.08994833;-0.24470738;-0.17610198;0.008323813;-0.052623745;0.23788856;-0.047423646;0.27846032;0.019195296;-0.020030335;-0.28093594;0.060985975;0.25003713;-0.024129922;-0.053538043;-0.1299388;0.0193425;0.123129345;-0.1663591;-0.19346957;-0.15328568;0.21278477;0.24923643;0.1518489;0.32324663;0.082109876;-0.029853825;0.19492747;-0.18779032;0.07335406;-0.009277364;-0.002517361;-0.13510768;-0.2534081;0.12425669;-0.067023985;-0.06481121;0.11485358;-0.19286916;0.2383554;0.62833685;0.32417834;0.09407818;0.28215843;0.16553134;0.106338374;0.1580754;0.27139783;0.18369772;0.1138009;-0.15148434;0.0076324674;0.0125185335;-0.044104423;0.14760336;0.10358573;-0.2209125;0.20493871;0.2592611;-0.17481624;0.090406984;0.24459091;0.11252443;0.19413567;0.14693643;-0.3281423;0.31539574;-0.032309927;0.032163523;-0.10733931;0.050586376;0.1594749;0.02343977;0.16268939;-0.014895113;0.11610454;-0.040299207;0.13104545;-0.23785086;0.07916141;0.3171746;0.15356643;0.056472242;0.2880725;0.2879869;-0.43513948;-0.015797032;0.2069976;0.045840945;0.07696783;-0.06616789;0.06215648;0.029224182;-0.05064858;0.29392204;-0.056341276;-0.04804024;0.02074765;-0.065623455;0.03254751;-0.021960247;0.22085369;0.31851593;-0.091873184;0.15370749;-0.23943901;0.09193296;-0.19866852;-0.0104964115;-0.092802286;0.30562297;0.13313855;-0.2764329;-0.030014545;-0.16647619;-0.557349;-0.25621957;-0.024432713;0.07431786;-0.1611062;-0.052422553;0.18487053;0.5246814;0.0766443;0.04545865;0.11197516;0.19152713;0.28049213;0.15139769;-0.18111251;-0.0668479;0.13891605;-0.026587257;-0.03958633;0.1620479;0.23117253;0.15378907;0.08445589;-0.30529907;0.28426984;-0.108815104;-0.15980317;-0.24986947;-0.11615426;0.070649356;-0.11838778;-0.10213764;0.24789894;0.25512448;-0.22576728;-0.17848109;-0.24305166;0.15941986;0.11445434;0.063391276;-0.072305016;0.19264495;-0.21334817;-0.08668832;-0.12656567;0.19453666;-0.21982196;0.029739825;-0.1723404;-0.02960461;-0.03483325;-0.06516337;0.054899137;-0.12564537;0.03746617;-0.063525036;0.07461901;-0.41589722;-0.22134279;-0.10836286;0.08935059;0.00027784728;0.10486694;-0.010110943;0.2786959;0.11288573;0.088682376;0.07741205;-0.01734585;0.14416423;0.10471448;0.18440014;0.120662965;0.110012025;-0.022641815;0.20604609;0.112943836;0.008682281;-0.19632217;0.09601087;-0.051211618;-0.10056525;-0.12903818;-0.20676747;0.038167983;-0.007050459;-0.024853278;-0.022509398;0.041800816;0.29376313;-0.11360713;-0.12895827;-0.04660843;0.0077210693;-0.10828914;-0.34119964;0.012162852;-0.07493822;0.37463883;0.07132783;-0.01435877;0.00760194;-0.16897355;0.01308515;0.006527608;-0.102576084;0.07752951;0.036310744;0.6513374;-0.008084963;0.040723905;0.06521511;0.17433293;-0.17936401;0.17167722;-0.030615557;-0.02005171;0.31916958;0.12740286;-0.15001626;-0.008575086;0.09842277;-0.36976096;-0.1115064;-0.25976473;-0.020053564;-0.075317524;-0.017753914;0.22245437;0.45981222;-0.05403563;0.35548514;-0.009871932;-0.061933357;-0.0245795;0.10708315;-0.16498311;-0.003619713;0.025836973;0.15833011;-0.2638919;0.34058368;-0.052724946;-0.2005344;0.2567995;-0.09106655;0.30770224;0.121991046;-0.23079705;-0.502632;0.03956628;0.21244104;0.13866979;0.014832525;0.04104588;-0.11788383;-0.07541759;-0.23945364;0.32109678;-0.21784753;0.002412574;-0.08409095;-0.06269806;-0.031819906;0.2422951;0.6346842;-0.17928141;-0.04402154;0.04750954;-0.23222843;-0.35689387;-0.016181735;-0.10065179;0.13401629;0.13336213;-0.15122174;0.18958685;-0.009081765;0.16187231;-0.23557875;-0.2551891;-0.05280268;0.014213361;-0.06811687;0.015423282;0.13373858;0.47941712;0.022180697;0.29443675;0.26567972;0.1846724;0.0071811364;0.04437146;0.1714455;0.04356603;0.11326768;-0.06622439;-0.15543854;-0.078708336;0.11220633;-0.33359045;0.09894069;0.08611659;0.13648592;-0.06033948;-0.017370073;-0.08984297;0.15588327;0.20159365;-0.11395087;0.24152943;-0.021235853;0.031183226;0.2322981;-0.073460445;0.044436924;0.03163207;0.27520877;0.050298337;-0.09037045;0.0574069;0.41832033;0.14632839;0.38124084;-0.054529108;-0.02492501;-0.1200855;-0.06962281;-0.011710882;0.05681729;-0.056127153;0.1356805;0.06090175;0.07592335;0.2649615;0.23398575;0.097547196;-0.024846453;-0.021666197;-0.000403026;0.17491235;0.013150606;0.36138663;-0.04017104;0.09390542;-0.012076981;0.17946027;-0.292143;-0.124793105;0.15808302;0.09827472;-0.09442893;0.1621037;-0.17374428;-0.11644739;0.12995943;-0.18363859;-0.25092098;0.19573788;0.10346291;-0.13539225;0.44396257;-0.053000256;0.15999605;-0.023235047;0.057519034;0.091989785;0.04997059;0.19459267;-0.0054249535;0.14314786;-0.55055875;-0.3196098;0.028082818;-0.049363334;0.18265069;0.07656501;0.17953914;-0.13764414;-0.21641858;-0.028563641;0.25545976;0.26358587;-0.13316138;0.24988504;-0.05031429;0.036699727;-0.03251848;0.024840033;0.2020771;0.047532048;0.16091211;-0.17407925;-0.13472068;-0.2176612;-0.15345524;-0.13586758;0.15947542;-0.31192175;0.08222481;-0.4010398;0.12475089;0.089243926;0.2664723;-0.07879619;-0.13496675;-0.0025128217;-0.030360501;0.28417543;0.18286498;0.102667935;0.061989263;0.106835;0.07349569;0.20058133;0.17698266;0.24045308;-0.1629005;0.03574153;0.02955419;-0.06979293;-0.14713933;-0.16768599;0.20406592;-0.08829984;0.052307233;-0.083180934;-0.023924334;0.036546346;-0.020198395;-0.02957745;-0.43094057;0.2551521;0.1054543;0.16280201;0.10204425;0.109883286;0.16952084;0.018420735;-0.11650674;-0.1527129;-0.02387307;0.30122232;0.033721;-0.010979518;0.50442505;0.41137955;-0.30328137;0.3432728;0.31902146;0.24964575;-0.3925226;-0.33283883;0.017834654;-0.039326876;0.27875194;0.2911875;-0.29539675;-0.06592061;-0.004642842;-0.11712204;-0.23100303;-0.057568494;-0.04866549;0.4091598;0.2675289;0.20378785
-0.23154235;-0.03168149;-0.06616713;-0.045686644;0.10508437;0.13967833;-0.136644;-0.16207176;0.16701595;-0.13455632;0.014800966;-0.08210455;0.14994076;0.03340398;-0.019777732;-0.24521576;-0.047711384;-0.11426818;-0.061099023;-0.08651266;0.021078864;0.10335979;-0.03945472;-0.086276904;0.1047393;0.053848926;-0.009150496;0.14298843;0.080560334;-0.053749505;-0.16997844;-0.09791276;-0.016357904;0.33113945;0.17930327;0.060660988;0.22996937;0.072916485;0.16253366;-0.038105015;0.10611477;-0.042133324;-0.22750425;0.13588366;0.329351;-0.102047764;0.07655569;0.2486025;0.010794303;0.0368652;0.036544554;0.2154207;-0.08267534;0.30125925;0.0932444;0.033231612;0.28286022;0.02823324;0.16706237;-0.2215837;-0.054819986;0.08242227;0.0032278986;0.13421862;-0.17485267;-0.12280354;-0.15048638;-0.1070374;0.0670356;-0.094609484;0.085605524;0.31997195;0.27672994;-0.17727955;0.24567941;0.056272224;0.44578618;0.10136902;-0.10809617;-0.19187579;-0.046242394;0.015732698;-0.31901374;0.15786679;0.14401577;-0.15726122;0.061930392;-0.049746323;0.10078968;0.31868848;-0.20397513;0.073892266;-0.19695696;-0.23369677;-0.1463606;-0.22274803;0.044113487;0.015487728;0.041143816;0.13761254;-0.015050956;-0.06454768;0.04403225;-0.19155051;-0.07073067;0.1809359;0.19582354;0.055550396;0.17180371;-0.16393252;0.049755674;0.46237242;-0.08653114;0.09640031;-0.018971436;0.15277156;0.21720469;0.05948884;0.20577744;0.14286871;0.0066448385;0.12704574;-0.05779345;0.26605076;-0.051541112;-0.0908769;-0.14695308;-0.3095778;0.0797176;-0.17817941;0.3096948;0.3934112;0.110567465;0.17405075;0.44131312;0.32512182;-0.19058599;0.18771173;0.16571772;-0.09455009;0.015830813;0.2295171;0.038534623;0.003085821;-0.027878195;0.14960733;0.022506792;0.12009785;0.37699318;-0.058186814;-0.11871245;-0.046397693;0.14910842;-0.01723662;0.22365348;0.096243344;-0.21578087;0.19620436;0.14382988;-0.27014086;0.12586547;-0.054348774;0.08295726;-0.03134832;-0.00082052423;0.21921632;-0.10044086;0.03348977;-0.1345004;0.3183929;0.104212575;0.039108567;0.06543258;0.008432422;0.12619066;0.17922659;-0.023091711;0.28245965;0.2597265;-0.3605978;-0.0010904177;0.22032799;0.18360683;0.28974473;-0.07426657;-0.047537364;0.011749309;0.15534033;0.19703577;-0.05307784;-0.11506739;-0.00086584146;-0.08841184;-0.01953331;0.2059028;0.37153482;0.4768795;-0.09528984;0.14038643;-0.07645955;0.022855643;-0.24340847;0.14249596;-0.03241398;0.065351225;0.06853608;-0.07724932;-0.058213238;0.10204052;-0.21026552;0.06437199;-0.14998208;-0.12040099;0.005445426;-0.07812637;0.08036854;0.43657225;-0.043080978;0.23664403;-0.23492023;-0.10285552;0.07140389;0.2645929;-0.10277182;-0.12240973;0.15891314;-0.3987925;-0.091963;-0.20419967;0.11902326;0.010702103;0.05216511;-0.26745695;0.371658;0.042559825;-0.26692185;-0.2677499;-0.100693546;0.18713853;-0.17710282;-0.0802289;0.16062163;0.11777802;-0.1526547;0.018956956;-0.08730388;-0.108681716;0.057405513;-0.5489577;-0.10592036;0.30094796;0.0015680629;0.013003137;-0.38881516;0.098262414;0.10990994;0.07119811;0.043372564;0.060428787;-0.25464973;0.05119811;-0.096096754;-0.22966492;0.12667337;0.081675105;-0.0026465224;-0.29149076;-0.10543398;-0.22723648;0.11802096;0.047340255;-0.030748727;-0.23482431;0.04228663;0.21634513;0.031022755;-0.03506601;-0.106272034;-0.19803901;-0.010922947;-0.058941163;-0.17285262;0.049500767;-0.12870659;0.14808135;-0.009344454;-0.05635572;-0.020251686;0.030199675;0.006093434;-0.11571538;-0.33446506;-0.13246207;-0.049818795;-0.047084335;-0.26767164;0.055468146;0.04649485;0.17931269;-0.16676022;-0.28458178;0.09179695;0.092295535;-0.03746876;-0.12483646;0.023302587;0.07782588;0.29932794;0.041846275;0.21514057;0.107077956;0.10237469;0.07143427;-0.27985877;-0.116472356;0.030005744;-0.14539015;0.25599208;0.21081811;-0.06147805;-0.025651148;0.33403996;-0.018283065;-0.084216;-0.07883011;0.13552254;0.09551118;0.007465567;-0.2150263;0.033356417;0.16310243;-0.4125701;-0.21342142;-0.2746362;-0.007870962;0.09690362;0.013046414;0.149379;0.105507575;0.041846026;0.0053340243;-0.056649584;-0.038234722;-0.13526423;0.2428575;-0.06505811;-0.044069055;0.1995278;0.3399519;-0.26100776;0.18029755;-0.108156554;-0.0055689937;-0.024786748;0.109845184;0.21366009;0.0590283;-0.24970508;-0.38173142;0.2231087;0.37205154;0.026240485;-0.23569755;-0.09224223;-0.06075665;0.09757339;-0.18944971;0.40720838;-0.15984282;0.36473086;0.09141588;-0.051013842;-0.2199216;0.21469766;0.3716641;-0.27495483;0.14159311;-0.16224295;-0.14583488;-0.34002638;-0.230919;-0.08489944;-0.049659833;0.07464625;-0.061971307;0.040648088;0.03135347;-0.23555493;-0.02880931;-0.10994779;0.24348831;0.09131955;-0.050696313;0.029836738;0.16433223;0.1829601;0.018191654;0.19191782;0.16694081;-0.17674217;-0.06975663;-0.10915383;-0.05271692;0.09508651;-0.18102647;-0.012821161;-0.14793561;-0.03922123;0.058417145;-0.6987259;0.3124999;-0.16968104;-0.0792153;-0.0709459;-0.1503799;0.13650434;0.07673373;0.26001233;0.0905377;0.1944734;-0.07536318;-0.042321034;-0.05725667;0.037227824;0.0143381795;-0.106203884;0.5261749;-0.1218543;-0.17359576;0.17403148;0.11617183;0.2444435;0.28924415;-0.06724225;0.20437555;-0.39907002;-0.02100427;0.35827133;0.08265411;-0.07550449;0.006083832;-0.08559972;-0.016199969;0.023264274;0.15145996;-0.3289213;0.08499589;-0.08387259;-0.024073772;-0.023046318;-0.022572536;0.05000969;-0.17474687;-0.08049699;-0.11663948;0.2443069;-0.24493203;-0.3307689;0.16043366;0.21470189;-0.013864731;0.039687138;-0.13752522;0.31284678;0.086183585;-0.15395355;-0.21591759;-0.26367623;0.2211729;-0.14305194;0.34259963;-0.11411679;0.07802034;0.030925756;-0.29966056;0.09252031;-0.17330083;0.14086458;-0.002336014;0.075033754;-0.18082827;-0.13808599;0.13264589;-0.1929758;-0.15176252;-0.19058733;-0.07141521;0.07612794;-0.07834859;0.038074303;0.0154410675;-0.09670081;-0.051354002;0.048121225;0.034360874;-0.014531879;-0.05649759;0.0737051;0.3303574;-0.01007294;0.07898725;0.16559277;0.09120946;-0.030081227;0.28430215;-0.1624613;0.121117815;-0.028103117;-0.0072101275;-0.3455927;0.06897865;0.09404772;-0.080558546;0.15299723;0.05016359;0.12795992;-0.021427488;0.23746914;0.13631356;-0.023573542;0.17830202;0.149417;0.099423476;0.38666582;-0.03626554;0.1761507;0.097517006;0.046262156;0.040173557;-0.03776358;-0.03180715;-0.052862864;0.06746687;-0.23133737;0.117367335;-0.16447304;-0.026559398;0.16630729;0.08080856;0.025649112;-0.543103;0.30158547;0.042079456;0.121713735;0.2087729;-0.09725895;0.2934587;0.009919801;0.024544088;-0.24861006;0.16791949;0.2270084;-0.29001448;-0.035752025;0.4135119;0.079820305;-0.32925934;0.31301254;0.14704166;0.16680028;-0.008111009;-0.118222855;0.13709743;-0.10916913;-0.24030909;0.14926906;-0.23218128;-0.0032009082;-0.10165392;0.055578243;-0.45199335;-0.24502479;0.066814534;0.3768352;0.24606544;0.095994644
-0.15941772;-0.11681192;-0.22826798;-0.01136727;0.11620615;0.009276962;-0.08853135;0.01890486;0.23529826;0.08569115;-0.0991199;-0.14434125;-0.19457681;0.12618425;0.11587316;-0.22043984;0.1086878;0.072943635;0.096315704;-0.14623053;0.18275627;0.14121042;0.02567869;0.1926561;0.15899508;0.08979199;0.033035833;0.19110505;0.14023982;-0.23092079;0.17817327;-0.11132615;-0.15840612;0.09937467;-0.010458167;0.048244372;0.024682608;0.07692718;-0.18910405;0.12556098;0.41034174;-0.039770916;-0.1375192;0.0069104354;0.2898294;0.08334317;-0.17099546;-0.025462523;-0.16308948;0.17261189;-0.1276269;0.31549245;-0.21591769;0.08208513;0.24149099;-0.23274378;0.058141414;-0.03000525;0.13624054;-0.15972091;-0.025402999;-0.052395627;-0.058447253;-0.056914803;-0.098632544;-0.06472818;0.06096376;-0.14795548;0.034951042;-0.104898006;-0.12009321;0.19161889;0.1589002;-0.18259348;0.14819269;-0.002685311;0.3421629;0.108746745;0.12969173;-0.026290333;-0.17791791;-0.041260768;-0.061405968;0.25586078;0.19133204;0.015737314;-0.11074125;0.14978035;0.1456702;0.23800783;-0.1750521;0.058066387;0.030121613;-0.07637367;-0.22025354;-0.08391029;0.10498121;-0.22128262;0.19070195;0.14496414;-0.06801624;0.0995004;-0.13156125;-0.22502546;0.1573552;-0.07109184;0.113520086;-0.014902469;0.035427164;-0.66653275;-0.13106719;-0.10598628;0.058402244;0.056839425;-0.048712835;0.23100701;0.32111964;0.16590963;0.02328592;0.12240978;-0.03043829;0.13481236;0.056779318;0.30378628;0.14459081;0.03412079;-0.07968209;-0.28573012;0.08734234;-0.18728687;0.29264125;0.26752612;-0.3228933;0.02171414;0.28474808;0.23727825;-0.10779381;0.18287571;-0.060340174;-0.23030977;-0.22432779;0.2469974;-0.012301757;0.11214682;0.0087554;0.13024193;0.09270457;0.13287777;0.21068327;0.15020865;-0.11454265;0.10594228;0.26808608;0.11376391;0.08195408;-0.011744051;0.016442679;0.18713702;0.15344767;-0.12470538;-0.1081887;-0.19601505;0.07121823;0.19832255;-0.025416961;-0.051049527;0.021210704;0.04913458;0.11134795;0.22303003;0.026806815;-0.17222658;0.20001067;-0.10866198;0.051152717;0.21117646;-0.076715514;0.20710254;0.44757563;-0.26311946;-0.017593268;0.0015154454;0.04931637;0.012175228;-0.13639493;0.0061558774;-0.08557245;0.13497025;0.13819903;0.10290095;-0.15023717;0.008997185;-0.11464395;-0.07776528;-0.057037834;0.29056147;0.45298934;-0.25190455;0.40132645;-0.10402288;-0.05446556;-0.12147596;0.14750682;-0.027484065;-0.02245863;0.0783694;-0.21057653;0.032726526;0.18166812;0.021632705;0.16313984;0.13478859;0.124961734;0.014106452;-0.3058504;0.19326143;0.2808272;0.22001809;0.13335615;0.054525338;0.060594827;-0.0098065045;0.14606568;-0.071717836;-0.14656419;0.18052216;-0.122337274;0.038772304;-0.1047708;0.22999159;-0.022476746;0.18185437;-0.41590244;0.14843428;0.119518265;-0.26725107;-0.34647605;0.030318754;0.06818257;-0.043548845;-0.007871311;0.23968662;0.09754634;0.0350577;0.050839614;-0.080748014;-0.071608536;0.21365708;-0.22176158;-0.183844;0.122463994;0.13539962;0.16255859;-0.19518009;0.027515486;-0.02699504;0.17029746;0.069023;0.13210319;-0.34232223;0.058014955;-0.07030297;-0.2751264;0.14556012;-0.0007514726;0.110739574;-0.11679729;0.19410837;-0.5597404;0.04427638;-0.11568684;0.0978023;-0.14033173;-0.05360342;-0.065618694;0.16412821;-0.008490906;0.05476908;-0.17582586;0.0031543341;-0.03423716;-0.033438344;0.09436041;-0.2167734;0.11698793;0.061389808;-0.22821599;-0.11311957;0.11541023;0.11354451;-0.052755374;-0.169874;-0.17278606;0.041075654;-0.05129005;0.11648453;0.0365058;0.35430306;0.2678223;-0.3434397;-0.00027701922;0.2988599;-0.07800758;-0.09323284;-0.30697325;0.029148731;0.08055937;0.2295793;-0.1351042;0.11502187;0.012634644;0.004658773;0.036563683;-0.2367976;-0.18496084;0.32750893;0.045028765;0.21076214;0.32587767;0.043643273;-0.037357885;0.25944486;-0.115942605;-0.0803881;-0.029266374;0.26253343;0.21725152;-0.11606324;-0.16288881;-0.19035004;0.100800574;-0.19369103;-0.34251776;-0.119772784;0.10714372;0.076481104;-0.17998044;0.25568515;0.00047976853;-0.011129827;-0.07940462;0.0012936341;0.15137374;-0.09910837;0.10239798;-0.01425105;0.19704486;-0.06202096;0.40505958;0.28966412;-0.0027448393;0.06876891;0.042973578;0.17850304;0.031246198;0.008026446;-0.04822227;-0.20659935;-0.20366365;0.0070676026;0.3614173;-0.37238654;-0.08912519;-0.099744946;0.13735561;0.020011203;0.02943783;0.19879287;-0.032706242;0.22976205;-0.02478217;-0.0737289;-0.088981755;0.17923495;0.30476215;-0.061197385;-0.15642764;-0.39721814;0.10402876;-0.36040398;-0.061330646;0.112903126;-0.21225947;-0.0133495815;-0.03894467;0.033371974;0.028198702;-0.13399185;-0.22504082;0.10273264;0.13444811;0.030754829;0.055486254;-0.074708134;0.23366693;-0.18876071;0.18069595;0.0045039603;0.18448271;0.12357124;-0.13449316;-0.18186302;0.0322323;-0.14902523;-0.03249001;0.1256051;-0.17535606;-0.17895961;-0.017748732;-0.5187567;0.27707815;0.12948498;0.19861302;-0.05455914;-0.26373067;0.10485653;0.06649511;0.033770572;0.025277773;0.14929369;-0.31245863;-0.090921335;-0.0042015915;0.106888115;0.16228713;0.116597004;0.39342782;0.09716092;-0.06135495;0.12518424;0.0016735417;0.21736674;0.23603357;-0.0765162;0.08588183;-0.18614218;0.0703303;0.31212914;0.030990632;0.01034408;0.11299234;-0.006953108;-0.032124545;-0.096278384;0.12234017;-0.17875382;0.06560809;-0.31272733;0.032670952;0.03240712;-0.090976745;-0.09723115;0.08448764;-0.115642205;-0.18319045;0.11255018;-0.11591603;-0.18176383;0.2148599;0.060649242;0.073606245;0.083885215;0.0057271584;0.34701493;0.15467013;0.03524875;-0.29677942;-0.04621544;0.17851602;-0.17757235;0.29206046;0.05275023;0.07906663;-0.120856605;-0.45673805;0.048145223;-0.0035043482;-0.05320821;-0.072352454;0.27209845;0.07512347;-0.09905404;-0.019336112;-0.16674328;-0.16081534;-0.074462295;-0.007786549;-0.11993593;0.17907278;0.22323093;0.05596448;-0.0853716;0.17128122;-0.042587347;0.015051527;-0.056738738;0.050695676;0.25643674;0.18105362;0.10373164;0.1459415;0.3409642;-0.031341773;0.104247406;0.24791749;-0.027471852;0.3124943;-0.06873563;-0.18657458;-0.2639697;0.09610712;0.29000577;-0.34096947;-0.044825643;0.043116905;-0.019591207;0.0011845963;0.0035994176;-0.035712432;-0.08225004;-0.05458016;0.19714895;-0.04488677;0.08433255;0.19054097;0.22723119;0.010185375;-0.055335768;0.003921859;-0.0789813;0.095706366;-0.07211585;0.015974047;-0.07740269;-0.08431041;-0.098626;0.09883749;0.08751309;0.32172248;0.002620137;-0.23876539;0.19821088;0.057040364;0.22535357;-0.03569348;-0.15421808;0.25086153;-0.005283004;0.015961802;-0.15236148;0.007883273;0.2004687;-0.39192012;0.13083586;0.29428768;-0.09799964;-0.23371708;0.24819659;0.44784197;0.18514633;0.010743451;-0.1603685;0.06697665;0.088603236;-0.10106015;0.30329043;-0.22853373;0.0085064145;-0.1564137;0.056062218;-0.17805697;0.09946789;-0.043215808;0.18828799;0.19648582;-0.13513365
-0.17654546;0.16522735;-0.17302577;0.18874672;-0.120290406;0.10766575;-0.19110075;-0.29164308;-0.15383522;-0.2603289;0.015234278;-0.22128932;-0.1144433;0.20002608;0.15343314;-0.2352979;0.07215922;0.1713298;0.21647349;0.08528109;-0.09497866;0.04225098;0.2106489;0.24965243;0.15318097;-0.022079691;-0.17003031;0.3829569;-0.0050237747;-0.02238098;-0.19497727;-0.07509748;-0.20568357;0.057818573;-0.27680162;0.103785574;-0.05907069;-0.02589065;0.08559139;0.19795811;0.3677931;0.0194763;0.14049302;-0.13092081;0.1869151;0.121959314;-0.02056264;0.06403908;0.09638198;0.06696323;0.0010818777;0.17623407;0.18947588;-0.12960935;0.20060176;-0.1378218;0.2534924;-0.044269938;0.08195131;0.037696484;-0.019394787;0.16805878;-0.24190514;-0.10110425;-0.08461171;-0.12772584;0.07811011;-0.12834254;0.002255686;-0.09356614;-0.28283393;0.03202647;0.20538543;-0.24449371;0.04007685;0.046321664;0.2869084;0.096291505;0.13338111;0.22174238;0.033200186;-0.041266285;-0.1434633;0.13720337;-0.10153469;0.12180728;0.3793593;-0.06573875;-0.11715349;0.015823087;0.08514648;-0.06726128;0.25425577;-0.07347092;-0.2563435;-0.01590522;0.2981403;-0.25808865;-0.054466717;0.28611064;-0.18710345;-0.18853794;-0.02897538;-0.19205378;-0.15540078;-0.25049955;-0.05685757;-0.19923218;0.011377951;-0.5657943;-0.1255003;-0.07678166;0.04529928;-0.29256934;-0.04659026;0.120981954;0.14186808;-0.042294484;0.21172963;0.14446859;0.11065731;0.18013072;-0.11631128;0.24753425;0.03379913;0.052539684;-0.1103416;-0.17585565;-0.057785332;-0.025945207;0.12456202;0.17839922;-0.087552294;-0.14759491;0.43040487;0.16348216;-0.068667874;0.09502657;0.17924632;-0.15109321;-0.05424992;0.25771967;0.2468492;-0.034278896;-0.028329244;0.17567201;-0.1885412;0.11678296;-0.032278895;-0.04564646;-0.12288325;-0.11190785;0.201029;0.15225115;0.1399841;-0.12600197;0.17749843;0.08700349;0.31752518;-0.17827284;0.28059238;-0.2402422;0.20634983;0.25614494;0.03383584;-0.100045666;0.008069367;0.06425037;0.0827594;0.34764257;0.16794075;0.32173514;0.15937947;-0.15208781;0.123043805;0.4734883;-0.03190268;0.26280406;0.38324282;-0.0334159;0.19544785;-0.12916225;0.14338407;0.05656594;0.072097704;-0.29546523;0.06827958;-0.0779686;0.2339105;0.31736335;-0.13305323;-0.034763347;-0.16848996;-0.0018887089;-0.18179488;0.16457295;0.35129502;-0.21198909;0.31193253;0.0180067;-0.0401313;0.034146;-0.0958446;-0.01895817;0.09601299;0.09098577;0.027289243;0.011100178;0.12787063;-0.20436884;-0.08587058;-0.06210699;0.0391527;0.11744987;-0.08735396;-0.047892336;0.38143408;0.2401192;-0.09486055;-0.015166489;0.07502723;-0.05206141;0.25629443;-0.24458316;-0.039696053;0.2410501;-0.061494943;-0.32625324;0.14087605;0.23385015;-0.080168314;-0.14061935;-0.247448;-0.0076305834;0.34666225;-0.25661057;-0.20937224;-0.2896319;-0.02174057;-0.067391746;0.055718806;0.13769807;0.048122764;0.31914175;0.09621915;0.012774373;-0.20852542;-0.0796811;-0.12521227;-0.10575782;0.21435949;0.34118086;0.08563205;0.07264557;0.04145243;-0.5181664;0.042853605;-0.050300397;0.112461686;-0.055874944;0.07676465;-0.19188511;-0.25950357;0.2448227;0.17632796;0.06672554;-0.22924459;0.035323072;-0.18777919;-0.0068278597;-0.04724151;-0.25525838;-0.26913142;0.00022583778;-0.26715362;0.16061312;0.21667032;0.21796674;-0.105011426;-0.103342876;-0.16571988;0.06122178;-0.055673473;-0.19335994;-0.05563432;-0.05750219;-0.25934827;-0.17557403;0.048015565;0.24722767;0.15288311;-0.087278776;-0.18250753;-0.2680188;-0.119492516;-0.049455028;0.13708894;0.053624216;0.020769553;-0.101554416;-0.069730066;0.22895913;-0.05918747;-0.17938009;-0.31868201;0.14322053;-0.027594354;-0.37837598;-0.084275514;-0.11220251;0.14421788;0.1300906;-0.035122965;-0.12580201;-0.1991544;0.31449974;0.050948292;0.07898795;0.30544063;-0.11886558;0.0013675583;0.07103008;0.065255634;0.08053248;-0.28760475;-0.091622874;-0.076847434;0.026855702;0.061376605;-0.038857933;0.09070999;-0.16535147;-0.2005632;0.07231717;0.17331634;0.14943522;-0.06834148;0.23758166;-0.037343618;0.011247008;-0.24852815;0.20393957;0.34016594;-0.10380508;0.124751136;0.051933516;0.17873277;0.007566788;0.26735678;0.14272483;-0.136351;0.13299704;0.13973723;0.2900256;0.048774444;-0.10740586;-0.31563497;-0.08122343;-0.03308273;0.2908825;0.3592665;-0.28978732;-0.025918039;0.16168062;-0.05660787;-0.029406844;0.025520496;0.31212148;0.041610043;0.18840228;-0.11174355;-0.37483525;-0.25130492;0.08432123;0.16201058;-0.13000749;-0.16235778;-0.26127806;0.13881959;-0.11551992;-0.07479918;0.058037218;0.080899276;-0.037115555;-0.13001527;-0.104398;-0.0151579855;0.14881264;-0.17731391;-0.08796568;0.25526187;0.22296834;-0.052271854;0.0035504769;0.21503381;0.052637324;0.19203523;-0.02003679;0.019807952;0.14874677;-0.018276736;-0.15995246;0.049431454;-0.2284644;-0.003935823;-0.11163643;-0.07700202;-0.09814309;0.08357179;-0.048733458;0.030558214;-0.18736786;0.0820132;0.1494065;-0.096868955;-0.10344;0.038429156;-0.00033445036;0.028093997;-0.03481805;-0.17019053;-0.19706023;-0.052223694;0.108777784;0.081490986;-0.009205118;0.31090286;0.28305805;-0.13620663;0.13395216;-0.09883311;0.09485066;0.3115107;-0.112383716;-0.16820948;-0.3133209;-0.1400321;0.24040425;0.09648664;0.013950572;0.20676328;-0.28356004;0.09189332;0.07136055;0.13702917;-0.2017198;-0.20980889;-0.004047091;-0.12350632;-0.10432984;-0.021657132;-0.10308462;0.101649284;-0.17118436;-0.14256409;-0.1272743;-0.051034357;-0.21292011;0.3831616;0.2723371;0.03189493;0.04135079;0.031572435;0.20990333;0.22646023;0.2236532;-0.052511506;-0.2605224;0.35245997;-0.15012932;0.005332366;-0.03385832;0.015529558;-0.17551902;-0.35167584;-0.003961199;0.022042673;0.01722855;-0.14030185;0.038594704;0.18804881;-0.12231273;0.027102502;-0.15850104;-0.018756563;-0.13255328;-0.03750714;-0.0598556;0.096906394;0.37637174;-0.0021852881;-0.07539837;0.22978471;-0.16429318;0.03404339;-0.061615482;0.10216986;-0.07429188;-0.008942733;0.08967967;0.059210416;0.14844367;0.032859076;-0.013055629;0.28393948;0.1260023;-0.02762656;0.048648484;0.028990889;0.18822762;-0.062345468;0.24696358;-0.22481959;-0.25587296;0.21434477;0.039412726;-0.0003573539;0.079653695;-0.11214113;-0.027302861;0.0037816637;0.13300215;-0.046345748;-0.031862788;0.21166657;0.0009492518;0.20163569;-0.07300196;0.08193104;0.06179114;-0.027341278;-0.024500558;0.020093901;-0.009156762;-0.014076823;-0.14153613;0.062923685;0.00071542466;0.14378579;-0.15324712;-0.30158874;0.22429265;0.02253325;0.2761415;0.090366684;-0.017027425;0.09305939;0.24319182;0.124488614;0.2337737;-0.14011964;0.22269729;-0.25956833;-0.1632697;0.32637605;0.05884702;0.14867017;0.33156618;0.20683083;0.093257315;-0.24643898;0.06779464;0.124272;0.116439186;0.03942633;0.3783938;-0.009804534;0.05476716;-0.14777559;0.0887752;0.11500038;-0.06445399;0.019339094;0.03001202;0.262878;0.0002896789
-0.34673795;-0.06524886;-0.09179231;0.376958;0.13393568;0.1922255;-0.23801164;-0.046809133;-0.057772715;-0.15740465;0.026787508;-0.124961264;-0.10078823;0.0899996;0.07160019;-0.28833172;-0.19378234;0.2176643;-0.301317;-0.07506342;0.057895415;-0.18399987;0.13544285;0.13338216;0.21186711;-0.032376803;-0.34175918;0.056620013;-0.00020823235;0.27378854;-0.3388632;-0.045369465;-0.15200111;0.037370328;-0.24393432;0.10622972;-0.19509637;0.093313925;-0.122733586;-0.09655119;0.15434784;0.18723454;0.19010851;0.14495046;0.18439785;-0.23090382;0.038074087;-0.14146926;0.17266607;0.19117291;0.04004589;-0.20135413;0.28256652;-0.27217263;0.10756521;-0.34280166;0.3360106;-0.12057523;-0.25065055;-0.16450098;0.052732125;0.29848263;-0.12806138;-0.12419687;0.16606756;-0.08987082;-0.0636068;0.031198788;0.06279162;-0.12698299;-0.1495583;0.17459305;0.085235335;-0.012657845;0.14194849;0.006741631;0.35263607;0.11496014;-0.028973227;0.13849069;-0.008815;0.15117921;-0.06241813;-0.05216597;-0.10314366;0.14151742;-0.30138466;-0.08959823;0.021673908;-0.012573943;-0.05934659;-0.1426328;0.09016771;0.14693263;-0.384069;0.094905145;0.08331623;-0.22284666;0.04792374;0.34979454;-0.14321044;-0.18884255;-0.23744087;-0.11648187;-0.16684824;-0.21080357;0.04793622;-0.16079916;0.011705152;-0.37691864;-0.078045145;-0.092285566;-0.15366451;-0.21511476;-0.28021294;0.05226405;-0.04326431;-0.1358851;0.201098;-0.14237626;0.28100878;0.17107375;0.03598;0.4841432;-0.13012183;-0.057308447;-0.13392319;-0.08569803;-0.051625546;-0.057199746;-0.28358933;0.11363254;-0.11356859;-0.29300866;0.24284643;0.06967271;-0.08402341;0.10145899;0.16356671;0.108903825;-0.18388173;-0.08332593;0.12027749;0.029257303;0.016898265;0.048578843;0.12758482;0.21585082;-0.0036181007;0.08990497;-0.18621695;-0.013282032;0.30099472;-0.24483263;-0.23648654;0.1363562;0.09410166;0.15210134;0.20055167;-0.18674856;0.22020422;-0.1404693;0.2780082;-0.11686054;-0.116024956;0.006610494;0.05083436;-0.04319413;0.21411258;0.16534561;0.07609449;0.057228137;0.2232529;-0.31082037;0.19028793;0.0934714;0.014049921;-0.030935695;0.47250706;0.22204538;-0.04658476;0.11388395;0.1025811;0.08731596;0.29718575;-0.018782867;0.37120906;0.1320441;0.09484456;0.14743777;0.018370235;-0.002926617;-0.05486881;0.043149576;-0.2042768;0.27172515;0.41257504;-0.1092077;0.31325597;0.018993765;0.071766585;-0.13271746;-0.2986841;0.06740748;0.35364738;0.22914706;-0.1140451;-0.022912;0.13754342;-0.29204372;0.12543336;-0.29172206;0.36007652;0.2577657;-0.4638352;-0.039575495;0.21780919;-0.030191505;0.10189071;-0.059902743;0.19836336;-0.029498238;0.067218795;-0.33580858;-0.000939417;0.2639241;0.10640251;0.25260296;0.16718242;0.14957862;-0.12885135;-0.09617182;-0.51316744;0.10109022;0.14018607;-0.1237504;-0.10576752;-0.08612493;0.3246926;-0.3158808;-0.09008154;0.29695132;0.06042176;0.14633243;0.113680035;-0.06456607;-0.16646041;0.20769928;-0.06179006;-0.16937737;0.0029652182;-0.20336816;-0.013771034;-0.13346592;0.039590992;-0.65224904;0.17832808;-0.27948987;0.12683181;-0.0059130406;-0.096939646;0.3587706;-0.12263997;0.22225414;0.21321934;0.19065706;-0.10164981;0.2808422;-0.37553072;0.12051907;0.01442375;-0.20823073;-0.026349198;-0.05728591;-0.23550358;-0.04223817;0.3027294;0.020526575;-0.36347705;0.08213574;-0.20002273;-0.0133771775;-0.12502855;-0.12090573;-0.11669795;0.11502788;-0.28898063;-0.10334709;0.027003454;0.06354179;0.16914122;-0.052170794;0.005845196;-0.019843526;-0.066760905;-0.019278312;-0.051465895;0.007998112;-0.0038493506;-0.25599948;-0.024079341;0.42189646;-0.09151722;-0.13934079;-0.3865013;0.082596205;-0.056122657;0.18671118;-0.10098342;-0.20612817;-0.004086888;-0.077974126;-0.18151008;0.32904312;-0.31574813;0.26380646;0.044694513;0.10677718;0.3371707;0.01837455;-0.011194859;0.012727303;0.027562302;0.115763545;-0.33628207;0.064477764;-0.13381787;-0.022732211;0.11041903;1.997078e-05;-0.042644836;0.04957971;-0.0025050866;0.0071852733;0.16252;-0.22276367;-0.008445179;0.14562926;0.106265716;-0.33125466;-0.2429391;0.23375602;0.13942018;-0.06961065;0.117730886;0.17507274;0.10544506;0.33976552;0.17935735;0.15375902;0.14684148;0.037367072;0.02344225;0.2758631;0.13972378;0.2597959;-0.3261892;-0.16116397;-0.2819007;0.29838204;0.47887227;-0.16070972;-0.06495273;0.32429472;0.15007462;-0.2662884;-0.022326704;0.13464487;-0.056384385;0.023099585;-0.119928725;-0.074784935;-0.1548437;-0.04265029;0.31553495;-0.19482054;-0.20673087;-0.5628007;0.19907795;-0.11954662;0.12089978;-0.0761277;-0.051103532;-0.21070258;0.1416704;-0.16107242;-0.076470494;0.08695304;-0.13197072;-0.06043076;0.1897772;-0.08353662;0.08805794;0.114324406;0.28120622;0.10401642;0.07466165;-0.016621072;0.007337411;0.09481026;-0.037598148;-0.09512824;0.0034573022;-0.22180271;-0.000829254;-0.07601036;0.090759136;-0.093717836;0.31912857;-0.29979777;-0.20777595;0.16204642;-0.02377124;0.16254951;-0.21493016;-0.24485098;-0.09608135;0.11714063;-0.06412312;0.33843762;-0.0025282581;0.03543257;-0.20754415;-0.057249844;0.32997182;0.053939033;0.15931277;0.10189066;-0.14422236;-0.077346936;0.060747035;0.21096224;0.07673926;-0.15276238;-0.20930225;-0.38838738;-0.027621787;0.22563763;-0.004294128;-0.06189781;0.062975004;-0.13777058;-0.066407844;0.032222442;-0.4188458;0.05713199;0.01687639;-0.14030337;-0.23908019;0.06479354;0.03680656;0.025374582;0.066627376;-0.25580907;0.026258891;-0.002300831;-0.17904451;0.0016800464;0.3524872;0.23087794;-0.047795616;-0.11585779;0.26263076;0.07504212;0.18850747;0.021492371;-0.19465666;-0.013796647;0.23431012;-0.07770765;-0.16974394;0.2951442;-0.2800481;0.07991085;-0.034559272;0.03512109;-0.07379676;-0.10006618;0.1347813;0.19453555;-0.24385859;-0.06685551;0.07804404;0.13553625;-0.07088199;-0.18465433;-0.08125449;-0.16512457;0.011381555;0.31977737;0.52521235;0.23349491;0.20665622;0.029823722;-0.12878439;0.1259369;0.13872287;-0.10006581;-0.223747;0.07460568;0.17000656;0.0123429885;0.10738533;-0.003510996;0.091406986;0.18144494;-0.052817516;0.07350036;-0.26540434;-0.016804388;-0.28053302;0.25152913;-0.3019433;-0.36696115;0.17131492;0.056458652;0.023663757;0.13085458;-0.096229754;-0.12722355;-0.2914091;0.08729784;-0.15100127;0.05947632;0.25483698;0.14629808;-0.02042814;-0.32977918;0.04624268;-0.08188695;-0.27749687;0.005750449;0.081043184;0.14514416;-0.36858982;0.031265646;0.21270895;0.003153986;-0.10345479;0.10177823;-0.31821874;0.11763417;0.040410474;-0.16074532;0.16154544;-0.0025612821;0.23063478;-0.0757712;-0.015454307;0.24460849;-0.139008;0.15374954;-0.3323046;-0.051347572;0.30481452;-0.31933936;0.08984539;0.12999788;0.37002084;0.10381993;0.44541353;-0.037391048;0.12504523;-0.12378111;0.14451703;0.32280263;-0.014630005;-0.076011695;-0.22982855;0.22561152;0.13851136;0.49164507;0.34089008;-0.031152898;0.21081917;-0.021986596
0.076374635;-0.15634485;-0.09500964;0.22760184;-0.1038086;0.016946893;0.02327184;0.023748938;-0.012444516;-0.02379545;0.0959763;-0.08943325;-0.1659238;0.28724632;0.12063053;-0.0413647;-0.12739244;0.12415763;-0.20261878;-0.09614658;-0.0013158728;-0.11488599;0.016897274;0.1608941;0.048621215;-0.045042872;-0.12310738;0.055300828;-0.28093892;0.39877924;0.022100542;-0.031203853;-0.12382611;-0.052401975;-0.18808272;0.05091907;-0.09871217;-0.01272549;-0.33704147;0.018234339;-0.08967301;0.00051583495;0.14173813;0.25937942;0.07033896;-0.07370533;-0.03427938;0.007362311;0.21160758;0.031882532;0.11339562;-0.12469657;0.013074298;-0.40909004;0.14403605;-0.5622908;0.13106741;-0.31819716;0.04273998;0.0625837;-0.016780315;0.3832343;-0.08829332;0.005892063;0.25187185;-0.082678944;0.09518049;0.15432201;-0.055345807;-0.018336598;0.094113566;0.20631991;-0.013415148;0.090125635;0.15762126;-0.18653771;0.4333384;0.014397083;0.2191215;-0.034046426;-0.04356217;0.011627823;-0.033818997;-0.02390451;-0.011109818;0.122285396;-0.033288527;-0.039859056;0.071740635;-0.23462716;0.051768813;-0.17975943;0.14614244;0.22386736;-0.21783304;0.38769603;0.26156497;-0.057340983;0.027252614;0.22323298;-0.0891386;-0.19612516;-0.24840829;0.0064082914;-0.33569416;-0.24215853;-0.04824553;-0.09067926;0.22837044;-0.24349023;-0.3317731;0.30363572;0.323472;-0.14060076;-0.2210023;-0.06530154;0.039679367;-0.20801224;0.29987624;-0.030814506;0.13736974;-0.22275738;-0.04942929;0.3473147;-0.16737251;-0.20188445;0.13193637;-0.24729367;-0.00089223584;0.06649023;-0.033330306;-0.053646162;0.061115615;0.10264839;0.123747446;-0.083012395;0.03645221;-0.19264911;0.070593424;0.023380034;-0.2779074;0.09387856;0.05232597;-0.28515944;0.1386404;0.32052684;-0.27240524;-0.003286671;-0.078507334;0.028967177;-0.053442664;-0.027112113;0.4672401;-0.0896012;-0.52395684;-0.03676133;0.15591003;0.10367916;0.029746264;-0.18991059;-0.0030487024;-0.10622796;0.010580158;-0.05339408;-0.054552343;0.1240049;0.35650024;0.06562164;0.09658916;0.20517853;0.18008502;0.11434292;0.30252364;-0.16768654;0.0015402572;-0.08197164;0.16767548;0.15736353;0.22370568;0.230051;-0.18217286;0.14393955;0.0814691;0.09676212;-0.26801652;-0.26903996;-0.06314885;0.0015743712;-0.08595341;0.14387326;0.35105214;0.09714354;-0.21289513;-0.12930837;-0.13453776;0.10589417;0.2933323;-0.13831386;0.17630884;-0.11213648;0.035181414;0.27102268;-0.020138245;-0.044134177;0.01608688;0.21284643;0.28933293;0.08408237;0.0423608;-0.4741451;0.065659605;-0.25392583;0.29269204;0.15204634;-0.1966183;0.09373223;-0.13898395;0.16889232;0.14168847;0.11491159;-0.073037736;-0.112198345;0.1605109;-0.13112734;-0.22087775;0.13126351;0.16561498;0.03697699;0.017914752;0.08489492;0.0054135276;0.030685838;0.0034200556;0.30313367;0.21027279;-0.16955522;-0.13747343;-0.013440681;0.21045925;-0.30870432;0.0014300114;0.20057921;-0.08232725;-0.0021402314;0.06395422;-0.09222231;-0.18253523;0.26021242;-0.26801392;-0.17137721;-0.10171495;0.15348843;-0.049805284;-0.19902219;-0.16017649;-1.0186954;0.028410323;-0.082250245;0.009912757;0.045338333;0.026828406;0.04070635;-0.14595;0.3945379;0.23645088;-0.035895605;0.05072299;0.1026227;-0.28143248;0.37275243;0.092689514;-0.0656762;-0.29404712;0.015917232;-0.20160702;0.042661794;0.32891715;0.22709303;-0.096426465;0.27750024;-0.20291843;0.13203646;0.09503643;-0.018274788;-0.002249125;0.08480219;-0.09841621;-0.105324745;0.033568613;-0.13897571;0.22582024;-0.0848121;-0.09612735;0.011338617;0.098006986;0.0558879;-0.070891984;-0.12413534;0.10938002;-0.121275745;0.07991349;0.1900822;-0.1419928;0.009110007;-0.17719916;0.073228545;-0.16222343;-0.18362251;-0.019279756;-0.27327657;0.013765399;0.044415675;-0.14697069;0.047715593;-0.017874962;0.36373165;-0.01137866;-0.01616891;0.02521358;0.0009405729;-0.05213064;0.07911505;0.00030737088;-0.0028460696;-0.09836318;0.102246515;-0.063547455;0.26225436;0.29431492;0.0249862;0.041536253;0.16884957;0.15065068;0.1919161;0.2480179;-0.20205589;-0.022022992;0.22831595;0.15787502;-0.3335531;-0.02563376;0.028564213;0.17093135;0.05698828;0.039705068;-0.22342744;-0.045247592;0.2853523;0.23239866;-0.17136657;0.20099752;0.16049811;-0.104040965;-0.08598723;0.029893855;0.36716768;-0.17458057;0.16822466;0.03231511;0.3343981;0.39577138;-0.1366749;-0.06726192;0.111662626;0.16705664;0.048598453;0.26932976;-0.13058388;-0.3133976;-0.15052532;0.0024771793;-0.23344816;-0.087810814;0.10976591;0.14414354;0.04066337;-0.05509527;-0.26118484;0.25462;-0.118936814;0.07530472;0.101667754;-0.13062237;-0.0074437144;0.19748382;-0.30842286;-0.21902858;-0.2393333;-0.0886594;-0.2310058;0.28854316;-0.07087596;-0.0418239;-0.15824911;0.33910486;-0.0041315947;0.013277997;-0.03820814;0.21910919;0.09870516;0.015352946;-0.043633625;0.09695647;-0.29794997;-0.058992498;-0.24310441;0.054683376;0.124435835;0.17082076;0.3560164;-0.08096631;-0.22181892;0.13423014;0.33760312;-0.10875065;-0.12791722;-0.37818137;-0.0069514085;0.06540134;0.103866816;-0.11971629;-0.065041155;0.15595731;-0.19985697;0.11550165;-0.02511118;0.35768014;0.10933616;-0.29592016;-0.13093725;0.14639357;0.063402124;0.015235262;-0.22568302;-0.20494014;-0.4042205;0.045958754;0.5131543;0.1477206;-0.084791034;0.04914167;-0.08570721;0.16856125;-0.019233922;-0.23764215;0.037569065;-0.063004136;0.15864822;-0.26223353;0.044092283;0.06807988;0.14148702;0.1345703;-0.069766186;-0.11717761;-0.14610787;-0.008344536;0.037887108;0.2017957;0.17024313;0.13218601;-0.056565512;0.13177116;0.110879056;0.06488859;-0.008187785;-0.09886211;0.08545798;0.04286535;-0.07510369;-0.36427924;0.19306384;-0.023247624;-0.07831968;0.14468521;-0.035938136;0.0069334405;-0.1907687;0.08407459;0.24570975;0.0018886476;-0.24805066;0.1025063;0.08316798;0.08455822;-0.23799695;-0.064011425;0.03998538;0.028913338;0.13155486;0.38108552;0.07452117;0.25336987;0.119533956;-0.014504686;-0.011740819;-0.060819585;0.053616833;0.13676198;-0.0028864692;0.16118786;-0.0022099032;-0.010415038;0.095968105;0.13360557;-0.11581919;-0.1514478;0.05197788;-0.16976461;0.049614053;-0.313982;0.18060227;-0.3744629;0.04178802;0.46153724;0.19087219;0.08174324;-0.01761648;0.090287074;-0.04831574;0.15795772;0.17404191;-0.27280036;-0.038566396;0.19608824;0.20838135;-0.24738193;-0.28008863;0.27193928;0.09747098;0.32434282;0.15969524;-0.15556186;0.295191;-0.19004573;-0.024813494;0.057194233;0.007122585;-0.07609625;0.13007042;-0.36751333;0.08077227;-0.13915569;-0.40050763;-0.13975774;0.105225414;0.09198147;0.01690363;-0.09349645;0.06614402;-0.13138783;0.16263898;-0.2167112;0.061791707;-0.15627801;-0.20016386;0.114260755;-0.09661234;0.5045427;0.0806967;0.01885932;0.01750778;0.30458343;-0.30421486;0.10158768;0.23941821;0.13241543;0.25385407;-0.23912321;0.19904965;0.20834516;0.45397457;0.21237148;0.0018117806;-0.09761429;0.10704573
0.14221409;-0.029843815;0.030680446;0.1283792;-0.10946936;0.17660098;-0.23595372;-0.12181736;0.06781261;0.089110024;-0.2208156;0.048499875;-0.24473695;0.20094445;0.080431625;-0.15116508;-0.0717551;-0.19682883;-0.26592347;-0.09543314;0.08726945;-0.053818602;-0.039855212;0.2654708;0.053442385;-0.13551472;-0.20071097;0.14153838;0.17588116;0.19798967;-0.008559975;0.006686112;-0.17296115;0.2709531;-0.006735115;0.058035925;-0.052236937;-0.3177994;-0.056265697;0.09479064;-0.20903292;-0.1617455;0.06556271;-0.078178056;0.22781591;-0.03952014;-0.010314199;0.09786538;0.14343297;0.014722619;0.06410107;-0.3133377;-0.1418142;-0.13012263;0.20850696;-0.30651858;0.10755107;-0.21573743;-0.060255088;-0.094814844;-0.0042036306;0.2587264;-0.14706926;0.054977197;0.02322431;-0.18072763;0.11495;0.26152682;0.0791119;0.026807632;-0.16793922;0.09602969;0.055115607;0.4049784;0.15261056;-0.15356654;0.2111613;0.11224859;0.07971881;0.0890039;-0.032459203;0.2922654;-0.114217654;-0.06917585;-0.12013479;0.102921136;-0.12311735;-0.026938163;0.08386508;-0.28573245;0.29868466;-0.045618825;0.15020965;0.2349375;-0.049908362;0.12099586;0.18914132;-0.28560916;-0.074208744;0.24386138;-0.19378361;-0.15593794;-0.1059871;0.25785083;-0.17273043;0.00057696906;0.0106302565;-0.019039499;0.1758833;-0.0652074;-0.36011583;-0.19245255;-0.15704872;0.042950787;-0.17924772;-0.019132366;-0.05154056;-0.19645764;0.18754432;-0.027133398;-0.030754553;-0.33245265;-0.2957946;-0.066566706;0.06701036;-0.112391494;0.08934729;-0.2990372;-0.046002775;0.0078208735;-0.24953654;-0.49276206;0.06355444;0.29717058;0.2491119;-0.019740932;0.01317459;0.0005532637;0.23927145;0.15130877;-0.071232386;0.11312596;0.061647236;-0.33569777;0.17110308;0.19240762;-0.37098616;0.08147277;-0.115910605;0.21840023;0.07142325;-0.05959825;0.20022884;0.09058802;-0.434048;0.07389272;-0.08500366;0.057795007;0.20432156;-0.12117124;0.11551068;-0.1507434;-0.068703264;0.32240847;-0.2078942;0.22224806;0.28266928;0.05943852;0.2570713;0.18700866;0.2576376;0.085504346;0.17138478;-0.102726735;-0.011121591;-0.08222231;0.025679182;0.09011009;0.29300517;0.16489668;-0.03931521;0.1359673;-0.009904341;-0.061402474;-0.0030904699;-0.15590665;-0.045170113;0.1319825;0.0130010545;0.22660427;0.2735055;-0.113790266;0.029981013;0.03633134;0.11993714;0.21462022;0.1302418;-0.16469301;0.038847793;0.08348495;-0.09559859;0.06608605;-0.15055345;-0.30896056;0.055098597;0.07246384;0.06639895;0.14481142;-0.09471583;-0.4735518;0.1128921;-0.12265947;-0.045385003;-0.093037434;-0.014215148;-0.03975365;0.15596916;-0.051420055;0.19361506;0.19644263;-0.52398306;-0.1588617;0.04972578;-0.09860992;-0.17707534;0.19068536;0.13005689;-0.098119386;-0.052776977;0.08504847;-0.11358961;0.05718145;-0.11885523;0.3158673;0.2643838;-0.22915132;0.00048771247;-0.12829515;0.25736484;-0.1439175;-0.101105794;0.2823725;-0.046199843;-0.15192007;0.25772998;-0.035717577;-0.11203317;0.5027002;-0.04277372;-0.111872666;-0.056021914;0.03738956;-0.08582294;-0.20781948;-0.3191439;-0.4748726;-0.33857977;-0.10071636;0.17538714;0.2500516;0.11011272;0.101775885;-0.11461354;0.3296702;-0.16893405;-0.21959995;0.17086525;0.37670973;-0.6632366;0.2768795;-0.018819114;-0.23640384;-0.06322244;0.15187778;-0.07721769;0.022608342;0.25988215;0.30666548;-0.10099562;0.19792767;-0.17812851;-0.08510399;-0.13346653;0.01961935;0.083778106;0.25127017;-0.046860427;0.0015505326;0.17617066;-0.2191639;0.3018088;0.098991446;-0.046542134;0.035170875;-0.0052630017;0.18494026;0.18269019;-0.24147722;0.048941396;0.023305802;0.031179313;0.23171799;-0.055117104;0.1328859;-0.061148938;-0.038337193;-0.047224853;-0.28965148;0.24600221;-0.17952695;-0.070056506;-0.16435847;-0.077645816;0.012386432;-0.1763767;0.3530852;-0.0032429001;0.18202174;-0.08243403;0.13581313;-0.15131627;0.048460137;-0.018269239;0.13366356;0.07107027;0.08767454;-0.19098793;0.55610484;0.041832697;0.16958225;0.014438012;-0.0064340234;-0.33258867;0.0064587393;-0.36385337;-0.0061887493;-0.058944065;0.04170097;-0.050799828;-0.2762122;0.31996134;0.22758272;0.080720164;-0.043374937;-0.041649155;-0.20590319;0.013738128;0.36624274;0.13583478;-0.17654496;0.070134155;0.20142926;0.089828014;-0.06683832;0.19233297;0.22736955;-0.073223345;0.097932935;-0.12432055;0.24511446;0.4199571;-0.03340124;-0.14075471;0.026923925;0.053178415;-0.24302396;0.016814811;-0.005345051;-0.24032357;-0.24362811;-0.09303745;-0.11542744;0.14505354;0.042706877;0.09716683;0.20203613;-0.23606223;-0.21187346;0.16386877;-0.049523786;0.15834698;0.103649534;-0.105179764;0.040650252;0.012619705;-0.21080756;-0.06184471;-0.34826463;-0.11038966;0.13507336;0.27128065;0.12680414;0.05319281;-0.1415207;0.29681736;-0.2528597;0.2531495;0.08392484;-0.03757264;0.14374751;0.14630331;-0.06341915;0.13962369;-0.07611908;0.1158177;-0.35428378;0.07284063;0.025897305;0.15022942;0.1772653;-0.11219993;0.2543684;0.081213936;0.043889854;0.0926339;-0.17564966;-0.059841048;0.20589674;0.055598386;0.128814;0.20548598;0.35671556;0.043501135;-0.20109373;0.112415805;-0.01586102;0.32511646;0.31750906;-0.06224963;0.039201796;0.2471327;0.33478722;-0.13641618;-0.114631005;-0.267964;-0.23123719;-0.0484175;0.07624313;0.15245174;0.024388127;-0.010768876;0.011472345;0.23173413;-0.047152575;-0.00058209134;-0.027497124;-0.09937757;-0.21829076;-0.18798944;-0.18684958;0.09142972;0.04765267;-0.03897113;0.2722457;0.18197817;-0.09256115;0.16230579;0.23059762;-0.081101015;0.24912383;0.29257175;-0.19547828;0.13391031;0.083052576;0.04627553;0.047820535;-0.025829172;0.023732675;-0.25056046;-0.10875361;-0.47397798;0.18598734;-0.022388114;0.24891186;-0.05549208;-0.0347545;-0.10039916;-0.17865819;-0.09499814;0.3116821;-0.08761687;-0.081843846;0.064600065;0.0030522407;0.24875312;-0.090338096;-0.043167636;0.07761336;-0.17134228;0.18025398;0.27550602;-0.11693238;0.15309606;0.121390976;0.15103665;-0.11154649;-0.058806535;0.16373472;0.17679895;-0.12529275;0.48472115;-0.06032832;-0.1869511;0.040577874;0.278652;-0.1055428;-0.02911391;-0.05735089;0.160932;0.1724931;-0.066389605;0.25140417;-0.16930918;-0.18024398;0.046662744;-0.14552583;0.110507235;-0.21298167;-0.012144525;0.089297235;0.17559248;0.2893398;-0.43437335;-0.09267032;0.21048534;0.04326585;0.011190496;-0.19208223;0.13932537;0.29348525;0.06924855;0.048943255;-0.2731089;-0.049664956;-0.16456847;0.00089250883;0.056014717;-0.06430464;-0.2147155;0.36121526;-0.3187332;-0.12805054;-0.12565815;-0.41731164;-0.09774831;0.1598346;-0.043101348;0.28312734;-0.005411739;0.07527956;-0.10428022;0.0320025;0.09824606;0.11461269;-0.06310182;-0.1074279;0.03461236;-0.013763647;0.35036168;0.36902237;0.049744472;-0.0551167;-0.14936872;0.13122106;-0.056230962;0.322921;0.1093746;-0.032923758;-0.00848403;-0.0031844298;0.34393844;0.16862455;0.1935882;0.058755375;0.038935207;0.040820893
0.07692448;-0.12635402;0.08684683;0.20459557;0.15356618;0.18650933;0.18667108;0.11517927;-0.026648374;0.10835145;0.015408923;0.08053975;-0.0311117;0.1395066;0.053111583;0.056836326;-0.12127968;-0.0378747;-0.3212457;-0.16174509;-0.14683957;-0.13348587;0.05549626;0.13310859;0.09033207;-0.06316866;-0.14370728;0.0047465516;0.1452855;-0.23501204;0.097473264;-0.13745596;-0.024814501;0.22471282;0.18104361;0.17827334;0.058040094;-0.37789693;-0.097179815;0.06272884;-0.36894664;0.007279277;0.056067873;-0.02448619;0.111614875;-0.16842474;-0.17914745;0.12745161;0.16682447;0.22818467;-0.07903716;-0.28715178;0.081892416;0.2909487;-0.009571772;-0.37717137;0.20507868;-0.19223362;0.08995602;0.059801552;0.017362664;0.12136975;-0.0010215708;0.14834253;-0.09204335;0.0382746;0.11306456;0.24024346;0.19758753;0.12632675;-0.14772609;-0.044269376;-0.07381561;0.41293603;-0.09951064;-0.015316162;0.33267146;0.01271713;0.18848784;0.08231066;-0.013692777;0.0004896381;0.03305072;-0.16739881;0.12003842;0.11203145;0.13549343;0.034400947;0.004214922;-0.32896775;0.036608815;0.017385276;0.11754514;0.12636018;-0.09129867;0.16511968;0.30518985;-0.0010916564;0.034305133;0.26560992;-0.18603721;-0.09812608;0.34747565;0.017184827;-0.2936514;0.16842496;0.28295237;-0.10304488;0.2763493;0.09829345;-0.25691092;-0.0027662658;-0.23097709;0.10221122;0.4644275;0.09213374;-0.31925178;-0.10208952;-0.118508674;0.031349823;-0.19306047;-0.16842547;-0.17514156;-0.47927454;-0.017826539;-0.25500757;0.11310725;-0.24798416;0.20282464;-0.020228604;-0.17886762;-0.29160115;0.19704968;0.009668041;0.16381696;-0.035757657;-0.091575764;0.03130777;0.29966328;0.3426395;0.14433002;-0.14325497;0.21404043;0.38849884;0.09100399;0.12696853;-0.22062372;0.103878655;-0.2767243;0.11463235;-0.042047925;-0.13825616;-0.006472325;-0.022853972;-0.25913545;0.057472892;-0.2863745;0.16600236;0.15394244;-0.16628002;0.05840548;-0.06428531;-0.01677759;0.3272904;-0.1896209;0.09059572;0.14041966;-0.099727675;0.12034402;0.110025026;0.3108692;0.1683141;-0.054882918;-0.11577346;-0.060834616;0.18070623;-0.06547249;0.22833769;0.047857292;0.36462718;0.00037578083;0.07458145;-0.027450709;-0.01085911;-0.01867734;-0.092030145;-0.017192652;0.037678033;-0.25446397;-0.072793975;-0.15640038;0.058714893;-0.098980404;0.016984023;0.17974013;0.23996024;-0.18746538;-0.1314183;0.2790104;-0.15625809;-0.17019433;-0.098001756;-0.16161315;-0.109043054;-0.10284382;0.13736013;0.113347344;0.055353776;-0.34142765;-0.35580721;0.26460916;-0.23850808;0.19260389;-0.13200864;-0.018439995;-0.084799774;0.17537054;0.094113804;0.20024873;0.24202372;-0.21282944;-0.04562596;-0.10754312;0.2212584;0.013874616;0.22158013;0.20269808;-0.09540521;0.06912921;0.00042673625;-0.14196853;0.034863017;0.008347531;0.0526575;0.14703853;-0.1125297;0.2002952;-0.18771349;0.36543635;-0.049964238;0.041261286;0.1220364;-0.09437372;-0.07498289;0.22443391;-0.5135331;-0.12687118;0.29697174;0.14437407;-0.05319784;0.16418694;0.08938725;0.041678745;-0.3400805;0.1466697;-0.6084634;0.02794369;0.22315441;0.06487599;0.12330565;0.07432363;0.18094997;-0.044386357;0.3177666;-0.29001465;-0.08046201;-0.12358642;0.2767179;-0.29120877;0.2677934;0.15556541;-0.2545583;0.2608571;0.22022386;-0.009854402;0.040864635;0.17394014;0.24125376;-0.08180002;0.036253564;-0.20290515;-0.12818485;0.04609439;0.1537246;-0.04368797;0.24461544;-0.050300907;0.14647458;0.19680415;-0.15496403;-0.036658835;-0.08302173;-0.19236523;0.39150912;0.03459836;0.012872571;0.06092585;-0.02766036;0.051952608;0.25742337;-0.04779436;0.12345141;0.019135071;-0.102687664;-0.13700055;-0.0536644;0.106975585;-0.34122378;0.14632323;-0.2328991;-0.062023185;-0.30970067;-0.08317738;-0.052254234;0.085518755;0.38555413;0.0552706;0.0088572875;-0.028271526;-0.021461338;-0.19967295;0.15901361;-0.014866049;0.0805051;0.18620396;0.06134716;0.11202676;0.22492397;0.2320183;0.13372117;0.030630007;0.16069624;-0.23164704;-0.274133;-0.35867307;-0.3630936;0.09255986;-0.074038036;-0.2905673;0.08934782;0.15572038;0.061895076;0.14492202;-0.039049644;-0.032563146;0.13804337;0.12922797;0.06209737;-0.09358426;-0.27048585;0.029500984;0.039153636;0.3327097;0.15056212;-0.011052357;0.041108623;-0.025396824;-0.039088637;0.35403553;0.14930953;0.27444312;-0.11611442;-0.29167065;0.19170141;0.13646886;-0.30918717;0.10445709;0.22927092;-0.33622724;-0.1413589;-0.14939336;0.12863094;-0.1703928;0.10383251;-0.1344644;0.08194762;-0.100111075;-0.14696325;0.1621666;-0.24608295;-0.12337283;-0.005303014;0.0057902453;-0.33219483;0.18638083;-0.26263797;-0.13334979;-0.017756324;0.07445344;0.16540284;0.40314624;0.12308901;-0.22657424;-0.09862181;0.23625587;-0.491091;-0.007498364;-0.012618924;0.056347176;-0.017273149;0.13561194;-0.28551835;0.17884924;-0.14429334;-0.030079195;-0.35349786;-0.08628163;0.14714685;-0.14780892;0.43949157;0.05922596;-0.3039009;-0.008765599;0.046306826;0.17002843;-0.05534691;0.010113606;0.12953171;-0.010333555;0.22383177;0.10280544;0.2938056;-0.13110182;0.15961334;0.015343232;0.15487969;0.37056062;0.14967196;-0.08332074;0.10994024;0.04336417;0.23073897;0.04935527;-0.11178456;-0.09611797;-0.28371975;0.045889653;-0.3559712;-0.08073189;-0.22972101;-0.107331626;0.20688896;0.22634722;0.124409735;0.045732398;0.028628396;-0.15001595;0.13654257;0.006541655;-0.18366008;-0.055286843;0.0020406134;0.0022377747;0.10404664;-0.054117974;-0.012617833;-0.21947335;0.031132396;-0.11825416;0.013499181;0.29306075;-0.11537865;0.054159928;-0.3062909;-0.16608992;0.032459266;-0.0063011404;-0.054218363;-0.073151335;-0.13934061;-0.13851097;0.11261362;0.1814504;-0.15565039;-0.11665884;-0.20118223;-0.08718262;-0.18594009;0.03303495;0.105851725;-0.20960552;0.01425164;0.089178294;0.1154066;0.104410194;0.022466555;-0.19259231;0.10897787;-0.21918805;-0.25765508;-0.0090623405;0.13028589;-0.043980837;0.06567918;-0.04009527;-0.020456519;-0.0938627;0.20040287;0.11280137;-0.18399447;0.11487593;0.09878349;0.0067597823;-0.11576299;0.18606015;-0.08603152;-0.110357516;-0.18278956;0.09028603;0.020988857;-0.15216163;0.15609562;-0.13706456;-0.25867075;0.15071556;0.065773085;-0.04628278;0.03533914;0.009680023;-0.1969088;-0.23279573;0.30230376;-0.33058718;0.18504776;0.08149576;0.08591681;0.046651486;-0.23140158;0.13533533;0.15524594;0.09521964;-0.13911197;-0.30938026;0.037157096;0.056654446;-0.037246548;-0.14949806;0.03243988;-0.059723064;0.33012572;-0.022198046;0.026743783;-0.24727318;-0.38208234;0.10617678;-0.019897895;0.110115804;0.07722144;0.00847693;-0.0068566264;0.17717293;-0.24368232;0.040196843;0.23109673;0.0348699;0.06574814;0.19842525;-0.18205991;0.07271834;0.25922585;-0.26195714;-0.04535667;0.06007249;-0.12622736;0.10160961;0.25744256;0.12634297;0.18508355;0.07739475;-0.12828176;0.3597514;0.19426727;0.075434335;-0.043316733;0.03273431;-0.2593222
-0.23419282;-0.02113978;-0.21318378;0.2976549;0.02805617;-0.02759365;0.21031535;0.27016282;-0.23651621;0.024081044;0.07293941;0.1445197;-0.046331022;0.19188225;-0.02557808;0.0029047502;-0.13148227;0.44388628;-0.22680137;0.067966;-0.45478433;-0.02555245;0.026261928;0.11428361;-0.07227193;0.12504882;-0.11421114;0.1921663;-0.054586302;0.031190237;-0.19405997;0.05527928;-0.0787814;-0.33183143;0.16450112;0.24634734;-0.016244235;-0.31848606;-0.11883686;0.11576351;-0.520324;-0.02028316;0.07428082;0.1797408;0.05870915;-0.13301429;-0.20004365;-0.033622455;0.14071794;-0.0708222;-0.3521912;-0.24924737;-0.19522426;0.2244891;0.053321403;-0.18022773;0.17136659;0.18633004;-0.055265307;0.04559;0.006393708;0.14308022;0.09873723;0.22120811;-0.2580385;0.07383391;-0.047299374;0.36584893;0.1667983;0.11990295;-0.13402286;0.046993908;-0.06014912;-0.035993174;-0.29949707;-0.06538421;0.2685448;0.16412747;0.064667895;0.15659288;0.19958127;-0.1731289;-0.046188492;-0.051148143;0.10269868;-0.17246364;-0.2730472;-0.0036552076;-0.1612261;-0.04971851;-0.088079914;-0.061442427;-0.3132176;0.1516271;-0.2592224;0.012118;0.040921047;-0.19635716;0.027396778;0.18461132;-0.13134022;-0.115243405;0.058981884;0.09190315;-0.45137566;0.092799366;0.08941405;-0.020077642;0.033879127;0.1154525;-0.36520955;-0.13629496;0.16428088;-0.06479716;0.2754655;0.01617474;-0.27629596;-0.13547964;-0.14342166;-0.20139442;-0.0546193;0.025783096;-0.5745333;-0.3160184;0.01622074;-0.0750806;0.15954813;-0.2442074;0.24299973;0.07418006;-0.114314266;0.10812033;0.115510546;0.111258894;0.25150007;0.08703642;0.28262612;-0.1282029;0.09012494;0.29813206;0.040494565;-0.17998244;0.2353592;0.13293973;0.020944498;-0.12525979;-0.05812683;0.09904662;-0.078409106;-0.048967533;0.0025300945;-0.118844114;-0.21176349;0.08150767;0.065500356;0.12588242;-0.15638354;0.038490646;0.055980243;-0.28837663;0.06396238;0.14677677;0.037483267;-0.10350264;-0.11244118;0.28554675;0.00050887663;-0.04307221;0.1995228;0.1915787;0.083701424;0.3094331;-0.068768285;0.068988875;-0.033732057;0.43701038;0.08445027;-0.19404897;0.040919382;0.17818192;0.08548956;0.10739941;-0.030723758;0.24545084;0.08477152;-0.00033432103;-0.43669054;0.1320608;0.10465066;0.036931913;-0.07491738;0.0032898504;-0.06362016;-0.06037403;0.061650023;0.38194835;-0.24685639;0.1340328;0.26085082;0.1593469;-0.14898801;0.058946375;0.030618485;0.1071393;-0.0011091088;0.11482667;0.08147492;0.14259553;-0.1477947;-0.22857293;0.32331365;0.08233599;0.25927833;0.046409156;0.3668636;-0.2976757;0.23383224;0.07461861;0.18892038;0.19645885;0.058188822;0.04897243;0.039369322;-0.06603977;-0.034643732;0.053956646;-0.04944882;-0.14091678;0.26301786;-0.18444379;-0.24935964;0.112048365;-0.22656994;-0.094857015;0.25951687;-0.16324013;0.08207333;-0.14501506;0.19238959;-0.19604217;0.09764579;0.03038158;0.20731005;0.05613199;-0.005415298;-0.046104137;0.14800218;0.30447033;0.24695781;-0.066731945;0.008549224;0.10865472;0.061774153;-0.03998291;-0.10368118;-0.011095268;0.17277013;0.08363104;0.18360454;0.09858176;-0.014211236;0.2186564;0.020337371;0.18225674;-0.23221572;-0.15725641;0.033156864;-0.052424207;-0.27608496;0.19929916;-0.008997985;-0.10574791;0.34361497;0.14471132;0.04028906;0.09063334;-0.10949027;0.07105234;0.38236812;-0.17005591;-0.16994216;-0.08562001;-0.12029431;0.18283223;0.06108155;0.15744677;-0.13794962;-0.037287395;0.2054258;0.07991628;0.05299117;-0.17561698;-0.113361396;0.16710462;-0.17165904;0.3392332;-0.120703176;0.23816502;-0.03553094;0.17083342;-0.119373195;-0.04186205;0.006442557;0.13589181;-0.024376975;-0.14374208;0.119450174;0.14661083;0.055867072;-0.40151498;-0.1530682;-0.4376773;-0.16234736;0.16420984;-0.037742436;0.27875;-0.0033420185;-0.1458655;-0.10145949;0.100618154;0.0035678414;0.21553816;-0.12522401;0.03083856;-0.005739382;-0.05348983;0.044429306;0.0033254682;-0.0034439003;-0.12969258;0.026580846;0.06875493;-0.38524237;0.10150395;0.06062078;-0.1016432;0.0048570554;0.18058649;-0.009672595;0.021083951;-0.0070426697;0.0041900952;0.035706736;0.1559397;-0.07638109;0.19777685;0.46978775;0.02415572;0.0056453557;0.19551013;-0.05733777;-0.12011763;0.1272185;-0.0067827185;0.022229003;-0.15461616;0.11468633;-0.30219248;0.10869624;0.32532305;0.18715036;0.057058048;-0.06232984;0.110362485;0.04465829;-0.23345326;0.1638112;0.13643067;-0.10072851;-0.0047514522;-0.1246561;-0.030173045;-0.090980604;0.06848961;-0.21073298;0.24480423;-0.044969987;-0.035728425;0.034961022;-0.18401042;0.058821864;-0.07462284;-0.13351256;-0.1351826;0.054331932;-0.28906727;-0.168098;-0.0066148527;-0.13839796;0.22782798;0.3240495;0.030193133;-0.17693618;-0.023303386;0.31532323;-0.39231378;0.13166401;0.089902945;-0.2077375;-0.1020759;-0.06578075;-0.0745587;0.08800875;-0.15065171;0.003157122;0.015313682;0.0704957;0.0747425;-0.124522425;0.26854727;0.18893623;-0.12981519;-0.038582366;0.10058223;0.20916879;0.0257479;0.07981794;0.07068403;0.22066249;0.21367246;0.031207852;0.2191908;0.04902657;0.17319764;-0.032063637;0.12332943;0.35088173;-0.14004543;-0.15657368;0.21424897;-0.07706872;-0.01995993;-0.16614074;-0.0311864;-0.06630003;0.06372175;0.09110193;-0.2280088;0.040937964;-0.18501279;-0.13794793;0.11227945;0.23078513;0.037738834;0.103725985;0.010554255;-0.15528041;-0.10067678;-0.015070696;-0.006966696;-0.11157165;-0.1911504;0.08853112;0.18051752;-0.02369256;-0.0653864;-0.19086458;-0.03167347;-0.18755083;-0.23419781;0.19577193;-0.03881717;0.031280402;-0.15637425;-0.06570711;-0.20568815;-0.26581454;0.20017192;0.017121198;-0.03951235;-0.13868687;0.059938647;0.16936527;0.05953591;0.00085702864;-0.13413042;0.07324191;-0.044576354;-0.21406353;0.06647996;-0.11856213;-0.09547412;-0.0075852913;-0.027323354;-0.11619711;0.015195173;0.056191303;0.085546315;-0.10069889;0.013268262;0.046540994;0.15910581;0.0754455;0.040488247;0.34166923;-0.04172888;-0.10655901;0.248234;-0.060168233;-0.24082772;-0.023552647;0.00073602895;0.03180185;-0.026273487;-0.05301207;0.042140573;-0.016518965;-0.015835516;-0.1245061;-0.18617496;0.14278068;0.06884948;-0.27839977;0.31256336;0.19220774;0.049697466;-0.14546491;-0.03272458;0.12974283;-0.17684549;-0.059993155;0.002875295;0.012866661;-0.038308397;-0.0026973654;-0.057545997;-0.13666119;0.018946795;0.07371351;-0.04173443;0.19802128;0.11346298;-0.08936352;-0.0023186116;-0.31104124;-0.039256044;-0.15150367;0.0024251058;-0.12048211;-0.04574314;0.006075858;0.09921676;-0.5679364;-0.18456298;-0.17107849;-0.01408347;-0.0005710395;-0.2083221;0.10942871;-0.06828937;0.13421926;-0.21841867;0.159691;-0.008653416;0.11458052;-0.19841017;0.024540259;-0.14632945;0.096296035;0.13407241;-0.5206015;-0.021050338;0.038659144;0.13551565;0.066145055;0.1326806;0.27115393;0.21076661;-0.10537269;0.053535845;0.1740847;-0.05302612;-0.07748612;0.06085843;0.107358046;-0.0803625
0.027717646;0.25934842;-0.055670757;-0.11948879;0.074435905;-0.026087528;0.12327233;0.21454324;-0.057294577;-0.08878428;0.10883308;0.2691514;-0.49483708;0.21927103;-0.3056131;0.19960897;0.21374774;0.21777488;0.18493524;-0.03929189;0.10770698;0.04437512;0.036763053;-0.22972465;-0.008165242;0.056956716;0.14229608;0.1767546;-0.27216673;-0.14069878;0.10245605;0.030103883;-0.06696846;-0.12577227;0.08462414;-0.026074303;-0.08915746;0.28558236;-0.38833484;-0.030428799;-0.3203939;-0.089834265;0.094126426;0.0076839356;0.2671328;0.11504503;0.113967136;-0.2504115;0.15165709;-0.07235623;-0.08828517;-0.1037015;-0.26122424;-0.39570627;-0.02583693;-0.12212191;-0.28651476;-0.09487736;0.049351763;0.09807032;-0.029216254;0.26957327;0.041325714;-0.0026958638;0.019789256;0.09631013;0.066690795;-0.033876963;0.122723736;0.03717577;0.07343742;0.04405548;0.05615513;0.011444863;-0.2260113;0.27102083;0.071071334;0.003432693;0.013036025;0.13287325;0.20258555;-0.4075723;-0.02606018;0.06921968;-0.023017826;-0.04716995;-0.20445736;-0.26242372;-0.036342643;-0.11001481;-0.09794271;-0.13694732;-0.1464834;0.2967334;0.22965854;0.070867576;-0.074936606;0.033483144;0.10455417;0.35686803;-0.028322812;-0.0033573976;0.19168288;0.024743058;-0.1605448;-0.063945435;0.08396452;-0.32958022;-0.0013950457;-0.3477243;-0.08340159;-0.40259492;0.09378614;-0.009553455;0.26941127;0.05863876;-0.09831655;-0.20208317;-0.24707533;-0.055619385;-0.20206119;-0.09639993;-0.42059597;-0.41405934;0.23483212;0.10468192;0.059879683;-0.33519956;0.20212999;0.012493009;0.01647886;-0.15099607;0.38265988;0.18151715;0.30453378;0.23371664;0.089153744;-0.009489323;0.074500635;0.3137665;0.022549497;-0.07621136;-0.069193095;-0.32454813;-0.11409065;-0.10158678;-0.12338878;-0.066953406;-0.17366222;0.03866543;0.027826332;-0.11582795;-0.08919121;0.097889505;0.16016684;-0.18475123;-0.010110661;-0.10700101;0.19554518;0.03316672;0.03090577;0.13473341;0.18494947;-0.08225549;-0.22449496;0.34935185;-0.0069702063;-0.19256319;0.198674;0.19571467;0.051512517;0.19234744;0.063928194;0.10209321;0.099119216;0.17334546;0.09951207;-0.14641751;0.17702925;0.08742471;0.029784212;-0.0026410301;-0.06826401;0.16061987;-0.11127793;-0.026654517;-0.1937022;-0.016627526;0.02033124;0.105565205;-0.1411342;-0.07825122;0.28885522;-0.10449577;-0.08050296;0.40315658;-0.025070168;-0.025611293;0.059191212;-0.08167422;-0.15666369;0.06314965;-0.2894408;-0.19581224;-0.0071049607;0.23251726;0.26338115;0.11893255;-0.2232335;0.28392175;0.022993289;0.072457835;0.20127112;0.107671335;-0.10487662;-0.18214516;0.48087627;-0.0021053287;-0.040546224;0.24176908;0.3398416;-0.080683954;0.18940163;-0.30767587;-0.08891879;0.022550456;-0.2360262;-0.045153733;0.30737948;0.0075111534;0.12796131;0.16733567;-0.067286044;0.03763263;0.23617785;-0.07424864;0.18177807;-0.12380024;0.14382474;-0.052767232;-0.08028008;0.03620921;0.34587833;-0.03960122;-0.07653914;-0.12912212;0.22107638;0.19379286;-0.07671654;-0.024464684;0.04255072;0.046079773;-0.009343266;0.16694283;-0.053519197;-0.08325289;0.13613896;-0.07169291;0.23720033;0.0068974863;0.035082012;-0.027708456;0.06316252;-0.07720986;-0.14758953;0.07900202;0.0030986092;-0.085041896;-0.33805057;-0.057526812;-0.25770622;-0.15845387;0.10934052;0.10131763;-0.13721946;-0.065801576;-0.027835242;0.10563982;0.031231469;-0.04440155;0.07895242;0.09310735;-0.059618194;0.1831787;-0.08636334;0.050647367;-0.218627;-0.3185808;0.15574884;0.06797386;0.18615931;0.062126607;-0.28113857;-0.038076688;-0.25665817;0.29458326;-0.038677983;0.14222005;0.08656118;-0.20958604;-0.296868;0.15278324;0.14428195;0.13050084;0.28735447;0.01565056;0.10920212;0.350661;0.022215253;-0.12856884;-0.2471426;-0.24521555;-0.01654138;0.10450974;0.08744133;-0.025162937;0.10105941;0.11149092;-0.12739803;0.06107684;-0.02571775;0.17006832;0.028261237;0.20344546;0.049736783;-0.3015308;-0.024718601;-0.09078899;-0.115622744;-0.08190585;0.10671346;-0.11657066;-0.3551206;0.076127216;0.16659336;0.02149749;-0.147455;0.21823268;0.06657416;0.08732325;-0.018196132;0.13263941;0.00794285;-0.07037009;-0.36471212;-0.05091982;0.41243172;0.15075326;0.03794852;0.19511364;0.27727035;-0.0021575668;0.052672654;-0.15493245;-0.2558292;0.14553529;0.22391129;-0.32202822;0.07511067;0.1290395;-0.01250607;-0.40197784;0.0014996633;0.1220063;0.10035426;-0.51312304;0.09733763;0.08764433;-0.10557385;0.08976994;-0.006141234;0.13651207;0.10224641;-0.073896274;-0.20991907;0.055719707;-0.41157478;-0.18781316;0.1386957;-0.14002864;0.27705112;-0.062348843;-0.13440304;0.26554754;-0.10334741;-0.3412125;0.103669874;-0.19769806;-0.034083046;0.30376747;0.32324937;-0.11634696;-0.04396104;-0.01838398;0.16161521;-0.33374393;0.005661363;0.075088955;-0.28933915;0.10947422;-0.0008676366;0.12852351;0.029538823;-0.07308178;0.022654532;0.001391192;-0.107102856;0.01476502;0.23455314;-0.20031248;0.13774727;-0.118099496;-0.14617367;-0.16498381;-0.15126626;-0.1155553;0.13300386;-0.08094333;-0.06470886;-0.04402111;0.19865295;0.29555497;-0.00259;0.095121786;-0.07408921;-0.043672804;0.21337539;-0.06040387;0.069934964;0.23002936;-0.09950321;0.14536418;-0.17752291;-0.017914843;-0.08710391;-0.09699508;0.066097185;0.29719338;-0.23262532;0.15223517;-0.033425115;-0.06557032;0.22890721;0.14696836;-0.28960863;-0.09337739;-0.071683496;-0.11054127;-0.072044596;-0.28623274;-0.16077682;0.28661448;0.10160283;0.21396317;-0.061669327;-0.054471307;-0.19982399;0.157702;-0.22232912;0.019592168;-0.03349544;-0.17456266;0.0941378;-0.007139632;-0.11885713;-0.2552678;-0.15114325;-0.03719357;0.14600979;-0.15516888;0.026640493;-0.30552867;0.16016859;0.19251886;0.17137772;0.033902343;-0.13145137;0.11492747;0.12695062;0.19074683;-0.33584848;0.07869581;0.14206289;-0.26701427;0.037218343;0.057661593;0.17340466;0.09587922;0.15611878;-0.24007;0.25844076;0.028828608;0.20388551;0.30974776;0.16096744;0.047801495;-0.23386127;-0.09950812;0.003635065;0.06636649;-0.07322678;-0.09633242;-0.123121515;-0.13537675;0.09261925;-0.022568462;-0.17716952;0.14271557;0.012301312;-0.0044901776;0.08198023;-0.12649676;-0.1392895;-0.08719192;0.29270032;0.06438883;-0.25391906;0.3893936;0.23004556;0.078423664;-0.08872047;0.07646072;-0.026009806;-0.274538;-0.07212195;-0.09245427;0.059233014;0.09681213;-0.13965802;0.17001306;0.023922259;0.3247424;-0.049683135;-0.30359218;-0.13870496;-0.11758705;-0.20472199;0.0050981683;-0.23014352;-0.0356983;-0.035344888;0.14617622;-0.2984508;-0.031367224;-0.15259618;0.02457135;0.02317888;-0.3240683;-0.08450389;0.13692343;0.025849456;-0.20573862;0.13670695;-0.002267356;0.08964398;-0.02602357;0.09582385;0.0038381221;-0.22216201;0.30781308;-0.03750679;0.1948875;-0.1434877;0.16817287;0.17114183;0.38860083;0.017993823;-0.20973855;0.17706597;-0.09292804;0.25697386;0.18573464;-0.25336406;0.066085726;0.08832595;-0.073201954
0.07112166;0.2763487;-0.3252103;-0.3007793;0.20610517;-0.023373352;0.28419584;0.032145232;-0.07758493;-0.33269387;0.2280226;-0.10897522;-0.13882054;0.1362202;-0.14462554;0.07097349;0.34692848;-0.3483167;0.19500762;0.07979549;0.32467285;-0.08785643;-0.03703847;-0.029002385;0.09314578;0.10751926;-0.108256824;0.16245186;-0.24986665;-0.095493115;0.093602866;0.021607988;-0.12907377;-0.002130195;0.008571293;-0.030216062;-0.01840161;0.18872261;0.016996523;-0.22304866;-0.6663438;-0.01571091;-0.33745235;0.09967004;0.19538732;-0.084867835;0.26090217;-0.07256629;0.04638315;0.10219108;-0.09104968;-0.3975902;0.06533863;-0.30422494;0.2749934;0.14889616;-0.37311435;-0.11142611;0.24138345;0.08387832;0.0017850155;0.1498065;0.10632316;0.06891866;0.15945715;0.10092497;-0.020393109;0.020611411;0.18235546;-0.010247432;0.044294633;0.117603935;0.22040789;0.12330311;-0.08041102;0.19247714;0.20246233;0.19630821;-0.0043733185;-0.10284363;0.08238129;-0.3412532;-0.17354007;-0.17029573;-0.06708302;0.029702514;-0.22891045;-0.087351374;-0.0022758194;0.14467841;-0.087601915;-0.26642367;0.04337494;0.16534798;0.11354162;0.2427944;-0.08410229;0.08095488;-0.053212877;-0.011952081;0.19823997;-0.008470694;0.14010787;0.14000039;-0.08846733;-0.23981914;0.030896636;-0.35847336;0.1533606;-0.07467848;-0.018961271;-0.095924206;-0.030605905;0.039590716;0.36598632;0.023570558;-0.09774498;-0.21437739;-0.05312738;0.23379171;0.18309882;-0.07401922;-0.36497685;-0.6694805;0.07081953;-0.107829206;0.08071198;-0.15754779;0.14288257;-0.25487858;0.2243747;-0.30206347;0.29176894;-0.122821115;0.17227061;0.17700386;0.14989658;-0.15517;0.31739244;0.015313442;-0.2812262;0.009953235;0.16551079;-0.29451272;-0.15381762;-0.07025024;0.040037308;-0.15477973;-0.44504648;0.20526564;0.11105761;-0.07071433;-0.0935048;0.08206983;0.16499306;-0.14015374;-0.28627264;-0.23628926;0.20776378;-0.21955912;-0.14736104;0.29481044;0.08111849;-0.09101541;-0.19496901;0.34750476;0.11071683;-0.18918347;0.032511592;0.2679765;-0.25075814;0.255935;-0.1273222;0.08216347;-0.023582729;0.22327647;0.11018069;-0.08012987;0.08104848;0.04508292;-0.14792417;-0.352601;0.12183515;0.090681605;0.16002353;0.0177703;-0.47309142;0.14152679;-0.08893453;-0.16115846;-0.2697793;0.025561895;0.1621149;-0.3174107;0.22566475;0.29890734;-0.010521651;0.005973356;-0.116620846;0.16209127;-0.0033717507;-0.067923896;-0.16754553;0.110621214;-0.15418611;-0.011096564;-0.0032421646;0.05003664;-0.21074767;0.14895566;0.12640743;0.09346209;-0.15694265;-0.1199683;-0.036424812;-0.2707047;0.37503833;0.23084359;0.12089351;-0.04197038;-0.24164006;0.16914107;0.15867877;0.26218605;-0.016064232;-0.1918788;-0.23707624;-0.16046569;0.25413415;0.048322514;0.04704647;0.061480626;0.09056585;0.19366278;0.0438135;-0.119032495;0.07038344;0.21506163;0.14787579;-0.03986864;-0.084556885;-0.012178821;0.1770346;-0.29435095;-0.070776805;0.006462194;0.28094515;0.0754289;-0.061873116;-0.19157667;-0.056025583;0.009375694;-0.08012048;0.40923923;-0.028813;-0.26482126;0.2295712;0.02288218;0.19956517;-0.10520971;0.027347721;0.047810487;0.0931812;-0.07374567;-0.13647898;0.13659064;0.076634504;-0.1607054;-0.44260043;-0.33833483;-0.56240726;-0.018928144;-0.013044875;0.1072986;0.0057542436;0.09670021;-0.041841947;0.21130623;-0.19369335;-0.118209235;-0.074943766;-0.051449824;-0.15727425;0.2647289;-0.14098994;-0.1134517;-0.27490878;-0.17463541;0.12078661;-0.0024869002;0.0586963;-0.19579628;-0.17991988;0.00423429;-0.04852071;0.13145392;-0.22550942;0.11993837;0.18798968;0.04387241;0.015449129;-0.3918391;-0.01656374;-0.040625144;0.08875561;0.15609892;0.33295614;0.17563447;0.15150876;-0.006366038;-0.13570745;-0.41188332;-0.064894296;0.15233934;0.16782826;0.10931759;-0.039097894;0.29554626;-0.2745016;0.060329463;-0.016851349;0.22597307;-0.11772739;-0.10053702;-0.22146219;0.15838839;0.0057957144;-0.17012411;-0.21292377;0.029622609;-0.01642774;-0.09705321;-0.5642217;0.15095322;0.004948694;-0.13282833;-0.059795987;0.2679393;-0.1473962;0.31491193;-0.2717303;0.15978469;0.14608407;0.009020704;-0.3678719;-0.14112315;0.25407994;-0.11786382;-0.16340384;-0.084460855;-0.14998166;0.09138009;-0.046597842;0.009253918;0.19750397;-0.027678704;0.08886182;-0.15565816;0.34382915;0.29204014;-0.020761978;0.04129208;-0.016916653;0.19392483;0.03208463;-0.5630314;0.16537684;0.19629475;0.16766399;-0.0012816887;-0.2242452;0.34559774;-0.028927855;0.25302914;-0.10250521;-0.048650958;0.08991217;0.030504236;0.070814714;-0.18262184;0.28982726;0.12421035;0.10801142;0.14084421;0.01994759;-0.31175122;0.0067586196;-0.1469929;0.1229875;0.22418498;0.3079022;-0.03069227;-0.06771414;0.081898235;-0.011547052;-0.115540236;0.20040983;-0.3014665;-0.22945105;0.094409734;0.009864988;0.14537457;-0.03380591;-0.06962824;0.20444036;0.22276391;0.040886585;0.13002442;0.0045913765;0.2461609;0.09026799;-0.038890954;-0.35347816;0.012743454;-0.015026878;-0.2037043;0.11752969;0.15728149;-0.0040968526;-0.116118334;-0.08393278;0.24429804;0.17732926;0.22061855;0.040447313;-0.1397523;0.07373654;-0.14264053;-0.04663274;0.2509994;0.0078075975;-0.09198796;-0.25441378;-0.06377607;-0.020942282;-0.07462328;0.18915163;-0.13825437;-0.120240726;0.066947885;0.09317103;0.014330583;0.21968421;0.13826619;-0.21680136;-0.0147925345;-0.1822894;-0.09521631;-0.09503715;-0.089386426;0.03179714;0.2219491;0.0874625;0.06576925;-0.082201764;0.03628908;-0.12824947;0.038777325;-0.19867058;0.08564741;-0.035457894;0.12513173;0.21918492;-0.08188035;-0.10305128;-0.24821043;-0.17954089;0.020629952;-0.030979997;-0.13612308;0.058572926;0.00934672;0.15065834;0.059246548;0.01190524;-0.16766086;0.08476328;-0.017264087;0.048520405;-0.035682827;-0.5895146;-0.1349052;0.3056003;-0.19154118;-0.03872457;0.09968891;0.38133478;0.22604814;0.087282345;-0.17759442;-0.15038225;-0.13421236;0.24967654;0.2659068;-0.3428051;-0.05215812;-0.18522437;0.06386343;-0.22702841;-0.036917336;0.06869307;-0.10230312;0.2520679;0.25449562;0.09374508;0.0076394565;-0.19063483;-0.044853948;-0.15839961;-0.18536279;0.13902776;-0.08746158;-0.33523175;0.049929596;0.22408126;0.011565888;0.04935526;0.66740525;0.24676214;0.050167184;-0.13012995;0.04008782;-0.16445236;-0.24378987;-0.11357141;-0.010299676;0.1282509;0.08909956;-0.023797434;0.061128903;0.35973808;0.19841664;0.14182304;-0.041613378;-0.032547615;-0.025485266;-0.13702035;-0.3714;-0.123495765;0.0017393563;0.03206945;-0.014065407;-0.21151651;0.11647162;-0.074790396;0.1723465;-0.15388308;-0.33689088;-0.036050115;0.2567158;0.1705929;-0.3036174;0.32756984;-0.059923798;0.06585472;-0.30918738;-0.0130930515;-0.122275665;0.013978741;0.18419221;-0.24544843;0.14659238;0.053854715;-0.10259583;0.1344801;0.20884176;0.110531256;-0.12828621;0.09066416;-0.06302436;0.0863464;0.054927964;-0.22512439;0.061840095;0.15677905;-0.00679739
-0.034927305;0.08124602;-0.4306536;-0.11723918;-0.06095481;-0.14268619;0.27448285;0.021013692;-0.11082064;-0.3898906;0.25301868;-0.17425665;-0.20216459;-0.36724648;-0.01802832;0.17928346;0.47060406;-0.28059536;0.09355402;0.08687043;-0.108506806;0.072266944;0.012762536;-0.11200863;0.13812222;-0.070935726;-0.13912897;0.08909793;-0.11305437;-0.022486636;0.06422066;-0.07384926;0.029999074;-0.23570758;0.16970019;0.096939795;-0.0826504;0.25279015;-0.14421323;-0.1552621;-0.32001176;-0.18503278;-0.2241364;0.056219928;0.112280145;-0.18341717;-0.019294925;0.004300571;0.114179604;0.26479107;-0.17653517;0.023926143;-0.25229356;-0.2772022;0.099240094;-0.10683291;-0.34843323;-0.13974446;-0.10667931;0.15076254;0.007386425;-0.08681314;-0.0047204914;0.192907;-0.030704219;0.21021396;-0.05097659;0.0542405;0.25163582;-0.00016488048;-0.006121;0.04505749;0.032185413;0.29939827;-0.21275194;0.11651942;0.08775534;0.003217911;-0.044011008;0.1851674;0.19306876;-0.26806745;0.10941682;-0.11814236;0.008594717;-0.064714946;-0.29178417;-0.14162152;0.09157036;-0.2539034;-0.14708963;0.24272707;0.111057155;0.085168384;0.08796105;0.06561195;-0.17686346;0.18205132;-0.046758477;0.13838297;0.063498564;0.028503796;-0.10420357;-0.08390848;-0.19219437;-0.24464639;0.007114148;-0.20246969;-0.12572001;0.11232563;0.10479278;0.29651746;0.1467785;-0.024063598;0.17406788;0.028077157;-0.22274713;-0.1764021;0.0455213;-0.019866273;0.4073781;-0.07997878;-0.61403644;-0.7185463;0.015162235;-0.009841734;0.010452216;-0.16867724;0.14486198;-0.0076272753;-0.10474986;-0.14818974;0.21372096;0.040619187;0.07671911;0.0025398526;0.22568625;0.09541645;0.18946494;0.09119339;-0.25841925;0.09442196;0.16352108;-0.29006425;0.048750293;0.0015412583;0.15713193;0.026076136;-0.29136512;0.18597488;0.10798663;-0.22737065;-0.07225503;-0.025400313;0.22646491;-0.08648474;0.0026261688;-0.057273187;0.052783746;-0.36887333;-0.15345697;0.087931044;0.060090415;0.072681725;0.06141294;0.17142886;0.023893977;-0.07888021;0.101477906;0.1631371;-0.3118817;0.29355982;-0.11101944;0.07884002;-0.12762284;0.16091181;-0.046672415;0.1683461;0.10256631;0.18643285;-0.08039848;-0.0058003953;0.06537939;0.04923806;0.11278447;0.042512774;-0.018210575;0.07548032;0.17063099;-0.012044274;-0.28747973;-0.007349707;0.18797658;-0.13537991;0.034259874;0.2981029;0.18157735;0.0008089015;-0.15511382;-0.12590048;0.08818567;-0.04207949;-0.1771686;-0.02905786;0.052751977;-0.020650938;-0.037130654;-0.1500955;-0.17742136;0.21716994;0.12081396;-0.008746071;-0.16853839;-0.18505232;-0.32978794;-0.19758983;0.14325802;0.062107958;0.36669415;0.07632864;-0.34887314;0.08858506;0.062131424;-0.108309686;-0.038057383;-0.11970562;0.077756174;0.07312989;0.27443662;-0.12153962;0.19153802;0.11233231;-0.052821442;0.0056996997;-0.122075506;-0.1914738;0.14141424;0.18774205;-0.057277523;-0.107890904;-0.009395757;0.05664906;0.08227692;-0.18801612;-0.14818953;0.04457313;0.093081206;0.06550476;-0.06816116;-0.20007968;0.016385866;0.18760265;0.24716964;0.23450734;-0.040120635;-0.08344511;-0.0114515945;0.099019855;0.20980754;0.0017154515;0.076003306;0.03210926;-0.2063466;-0.122799836;-0.14043018;0.13278449;0.31610152;-0.16113149;-0.40199086;-0.3696455;-0.23642637;0.2814057;0.08552857;-0.043258633;-0.012486239;0.04176692;0.2880946;0.1250559;-0.122415654;0.13128667;-0.031296358;-0.14768268;-0.19761872;0.17734256;-0.063092515;-0.26012912;-0.014739937;-0.2581257;0.09797065;0.203031;0.0036847244;-0.11388515;-0.1013698;0.021401513;0.09411073;0.17724651;-0.14224628;0.042432528;0.20953989;0.020735905;-0.110163584;-0.5048375;0.09271422;0.261972;0.15981035;0.38262823;0.13931908;0.104639836;0.11681603;-0.09057674;-0.26946825;-0.17355111;-0.01933192;0.2983045;0.14150764;0.09260627;0.054282248;0.044065196;-0.25625697;-0.05963148;-0.14841534;0.21063504;-0.0714847;0.07114694;-0.06927927;0.102388546;0.07039417;0.015524511;-0.24052441;-0.08148518;0.12307292;-0.059003185;-0.37391803;0.050504923;-0.21565521;-0.15966247;-0.052147366;0.09578878;-0.38974652;0.16141199;0.13764481;0.14210504;0.14332558;-0.006136548;-0.35191682;0.030577451;0.21632521;-0.1294881;0.06603594;-0.040355694;-0.29436827;0.1836235;0.038392402;-0.4413859;0.120806806;-0.31075296;0.08346397;-0.15665099;-0.18506713;0.18825334;-0.0911061;-0.101936825;-0.04128417;0.2810578;-0.14800887;-0.6476729;0.083753;0.08880768;0.1964037;0.0168523;-0.05399033;0.36488253;-0.104881704;0.2226207;-0.032810427;-0.05434949;-0.14227304;-0.015943445;0.277043;-0.43753684;-0.05449883;-0.10918327;-0.1578981;0.20485963;-0.03262327;-0.096934766;-0.0047184764;-0.04670604;-0.15854461;0.04469841;-0.012870782;-0.2799099;-0.28899235;0.19342406;0.040389482;-0.054449107;0.20813124;-0.20358895;-0.118185595;0.13866709;0.23869148;-0.027071116;-0.1048606;0.11079748;0.07662977;0.20818734;-0.022202421;-0.076249495;-0.08233537;-0.08106451;0.25356552;0.026137503;-0.11489516;-0.07929042;-0.06650287;-0.009516698;-0.084356196;0.2530942;-0.18729319;-0.27466437;-0.09378495;-0.07823348;0.067122646;0.026655432;-0.043128934;-0.18054327;0.01683057;0.13527282;-0.106518805;0.23098063;-0.09529448;-0.20035398;-0.21728362;-0.050527323;-0.21421073;0.1710775;0.0935644;-0.34714597;-0.14279224;0.16695598;-0.068694346;0.16766267;0.20093752;0.146128;-0.12875827;-0.03385813;0.09554302;0.050661027;-0.038210217;-0.26462054;-0.107009865;0.21893783;0.003617736;-0.028667148;0.072975285;-0.2598269;-0.22191949;0.015601136;-0.13611124;0.047680996;-0.13186914;-0.057929892;-0.06862336;-0.15238166;-0.18917315;-0.14275253;-0.08062554;0.049500868;0.18252869;-0.044806663;0.22904848;-0.15700011;-0.13690048;0.28681332;0.2550953;0.043030985;0.02677236;0.27227327;0.19638567;0.13706595;-0.35109022;-0.12953928;0.18752034;0.11826006;-0.16865578;0.3441191;0.24196592;0.2785362;-0.064351395;-0.24936828;-0.093482286;-0.33630967;0.14561357;0.26372468;-0.17529342;0.16834757;-0.040428586;0.10309739;0.110377446;0.14976607;-0.11836413;-0.14149512;0.09598427;0.14499795;0.009815966;-0.064765766;-0.06131112;0.29407743;0.28240046;-0.009823942;-0.0453986;0.065407865;-0.1920591;-0.30604935;0.18394373;0.14335142;-0.026773315;0.13223532;0.22644249;-0.0262003;-0.2511182;-0.10957054;-0.094568014;-0.3713332;-0.103421465;-0.091135554;0.17014551;-0.05449056;-0.1412142;0.16599359;-0.06699251;-0.18924329;0.12910284;0.2834745;-0.18378861;-0.075157575;-0.11685028;-0.064714976;-0.14193578;0.1147559;0.024237126;-0.05059706;0.0047014263;-0.0043456075;-0.099307045;0.29078045;-0.1450563;-0.18226169;-0.0026718734;0.13513316;0.01921728;-0.26724118;-0.07875664;0.048877854;0.23664723;-0.23359945;0.100375265;0.088893674;0.21637243;-0.0032843852;-0.090561494;-0.0361037;0.1380937;-0.11969784;-0.07740845;0.09075296;0.1250359;-0.16759245;0.09168109;0.008146373;0.06381757;0.27144572;-0.089098305;-0.043847386;-0.0319144;-0.05032817
0.13330543;0.03850524;-0.16402335;-0.0807377;-0.17250623;-0.42637885;0.25318068;0.06797142;0.010098759;-0.22334471;-0.051192936;0.23294015;-0.5224953;-0.18348975;-0.11849077;0.12938651;0.13033617;-0.25426188;0.0681058;0.084816225;-0.08320141;-0.0155220525;0.04032511;-0.0037995882;0.14451894;-0.14198558;0.029194882;-0.02353334;-0.11259645;-0.24636628;0.07595798;0.031018652;0.107364774;-0.14170454;0.10236219;0.052988652;-0.17927453;0.031199677;-0.18322293;-0.31709164;-0.16515745;0.0020003167;-0.08654632;0.22695783;0.28788343;-0.0022627853;-0.26946595;-0.123436436;0.030428156;0.1506724;-0.17856333;-0.32101506;-0.050981864;-0.26449025;0.14072782;0.10465045;-0.3074179;-0.23320316;0.07296789;-0.020336507;-0.0063793864;0.04632705;-0.0056354166;0.19351399;-0.114307575;-0.060585234;0.054262724;0.31099275;0.2957536;-0.022081397;0.26948136;0.09739159;0.03231041;0.102611035;-0.10296794;0.113729514;0.0072505674;0.1685681;-0.11386902;0.029327648;0.17457332;-0.23663285;0.28936934;-0.021065753;0.08162075;-0.16838624;-0.07213366;-0.14776833;-0.057199467;-0.0041527003;0.012131322;-0.38911065;0.2573739;-0.13183151;0.16224681;0.079572156;-0.22416712;0.04066294;0.13636588;-0.03309879;0.054356206;-0.283368;-0.010081207;0.16140209;-0.009208749;-0.15046823;-0.23835231;-0.0979381;-0.14778382;-0.16718937;0.0682879;0.040689953;-0.1690573;0.22478417;0.2878356;0.24237049;0.04063948;-0.14242606;0.17296733;-0.24705002;0.13617665;0.037873596;-0.35698226;-0.45544145;-0.12979296;-0.16443795;-0.13637212;0.18845682;0.10158922;0.05622581;0.08901693;-0.3513752;0.30797789;0.2647822;0.05878119;-0.051327366;0.28074324;-0.07409203;0.08205896;0.17482458;0.029582882;-0.16967782;0.32132217;-0.19512825;0.09860722;-0.10790473;0.10302026;0.1943784;0.07216732;-0.08286252;0.17359667;-0.10572877;-0.016926445;-0.01569241;0.058954075;-0.21406406;0.11907575;-0.23316137;0.32658896;0.017900843;-0.052450728;-0.021141311;0.03364595;-0.071448475;-0.15706427;0.07789282;-0.10255621;0.0010227619;-0.057242494;0.20085678;-0.0015360115;0.3667828;0.08211096;0.03797253;-0.18831106;0.26135504;-0.04180226;0.19948353;0.15345943;-0.23347026;-0.09981937;-0.12906627;-0.029519288;0.17729063;-0.061212253;-0.066651426;-0.40566587;0.015048553;-0.06244905;-0.21747299;-0.090233326;0.12113766;0.026755262;0.003316216;0.20096369;0.17252463;0.0038411743;0.030477554;-0.07074188;0.0717503;0.11982588;0.19559489;-0.03262974;0.072042115;-0.16670321;0.051009618;-0.19707753;0.040150665;-0.06388302;-0.2480981;0.35283285;-0.09854879;0.33774132;-0.20632821;-0.05842368;0.03479634;0.041915692;-0.13768616;0.085227616;0.019143308;-0.6681756;-0.16705869;-0.15123688;-0.062315304;0.03655674;-0.028408486;-0.009567175;0.12146616;0.16691184;-0.116915256;0.07768032;-0.14059266;-0.29853266;-0.20142655;-0.14306036;-0.21336581;-0.041876923;-0.013177309;0.14842151;-0.12517993;-0.09215529;0.17883714;-0.11786176;0.33697653;-0.2967807;-0.12030276;0.03140915;0.11040075;-0.17040703;-0.21157983;0.11896876;-0.014814654;-0.15995033;-0.116665915;-0.17278801;-0.21593131;-0.17043468;-0.08009425;0.26441157;0.12394161;0.05176147;0.19361538;-0.07646678;-0.19735083;-0.13181946;0.09679093;0.17543711;-0.17644583;0.18086587;-0.14765567;-0.09216161;0.030579573;0.055683553;0.15979457;0.21353038;0.07973995;0.16407742;0.07857698;-0.15952487;0.14018749;0.015727678;-0.28035077;0.18356237;0.24623032;-0.120704375;-0.13260031;-0.35254055;-0.07311959;0.022247486;-0.10531692;-0.031761386;-0.037806097;-0.16805817;-0.27599624;-0.25792313;0.16890973;0.046082053;0.08008309;-0.14971757;-0.28667668;-0.096378796;-0.44194734;-0.07424657;0.09278396;0.16671737;0.008871308;0.1616654;0.37032613;-0.021874603;-0.18965347;-0.20092264;-0.04876842;-0.17240478;0.115894124;0.12723687;0.025468891;-0.1558444;0.19394521;0.020872504;0.08403353;-0.09580086;0.18413375;-0.039789177;-0.08872085;-0.3269225;-0.17410077;0.041523464;-0.06973789;-0.1393339;-0.07519454;0.073944695;-0.10156068;0.20323643;-0.07482484;-0.29870948;0.028009793;-0.0089850435;0.07327254;-0.15965882;0.14174634;0.10561735;0.13411133;0.24432349;0.1258059;-0.20676531;0.070516184;0.15377131;-0.23155355;-0.24424422;-0.06307381;-0.2866118;0.018653654;-0.24464816;-0.09828347;0.17620991;0.13845699;0.090021275;-0.41949594;0.05517984;0.2155657;-0.09884492;0.17658536;-0.015326772;0.2207807;0.030082062;-0.4720364;-0.013381996;0.34515676;0.053263973;0.07015942;-0.07581148;-0.029157208;0.04348748;0.3014815;-0.36344054;0.1940946;0.14347425;-0.02791876;0.35370648;-0.16309741;0.0012236014;0.0711247;-0.09266568;0.06358539;-0.015925646;-0.09789488;-0.074890845;0.14649174;-0.02261421;-0.054812305;-0.09560208;-0.3093475;-0.434468;-0.07496085;0.043493148;0.04426506;-0.22558579;-0.20485234;-0.125557;0.3866142;0.32714176;0.021264203;0.0035352742;0.18871312;0.018149914;0.160699;-0.17976025;0.08831442;-0.04660328;-0.15293443;0.117772505;-0.13065936;-0.16380802;-0.21019977;-0.15935801;0.0974236;0.069520384;0.30738044;0.1818255;-0.10126304;0.06784409;0.099480845;0.106322244;0.1432288;-0.04498665;-0.15372449;0.011154771;-0.036733016;0.07240666;0.17346965;-0.08253461;-0.06924206;-0.007577661;0.052155577;-0.12866074;0.38451973;0.13561943;-0.2055481;-0.23368156;-0.050551403;-0.024826877;0.25490493;0.13105379;0.0038042052;-0.07778515;-0.02535058;-0.10107428;0.16421442;-0.062070336;-0.13315052;-0.11974631;-0.0009861339;-0.13494128;0.21366428;0.027741238;-0.2855162;-0.31085238;0.16814072;-0.29434243;0.24561088;-0.30318785;-0.0072586252;-0.12109263;0.28491268;-0.10641788;-0.12164812;-0.14794885;0.025176957;0.13676274;-0.06766126;0.16588503;-0.16137844;0.19906326;0.2260977;0.2730318;0.1911885;0.08824316;0.23692136;0.30004668;-0.099949926;-0.13293612;0.037389867;0.11403676;-0.1385225;0.050869923;0.31844026;0.075351134;0.23696838;0.24641268;-0.19911659;0.13624921;-0.10480168;0.021621505;0.11042486;-0.47930774;-0.07192894;-0.14023915;-0.23776639;-0.06626316;0.044798397;-0.20047137;-0.18617792;0.28826228;0.22655576;0.07637616;0.039253045;0.0396344;0.08298158;-0.27831998;0.15510169;-0.071664184;0.36069322;-0.15262705;-0.19321492;0.13849978;0.06724241;0.052506614;-0.2349011;0.012164931;0.0066763363;0.104642;0.05075379;-0.099122345;-0.42226428;-0.1642554;-0.19797146;0.1495839;0.14211148;-0.2512343;0.069453485;-0.056719333;0.09777054;-0.11565104;-0.018456409;0.021802533;-0.14276882;0.050974324;0.113458715;-0.009441415;0.014181309;0.21716797;-0.18147902;-0.20597742;0.05740394;-0.1689029;0.1968553;-0.058391925;-0.3172997;-0.03432711;0.08253125;-0.094203785;-0.18127613;0.096165866;0.16635063;-0.13427985;-0.17333199;-0.1928181;-0.12640466;0.019275248;0.018136112;-0.09436684;0.08632249;-0.043282427;0.16637048;0.065089144;0.042268127;0.025080543;-0.13612747;-0.012688303;-0.034092333;0.25057602;-0.1812965;-0.12288467;-0.035465837;0.07880962;0.19646782
-0.04433044;-0.16953963;-0.046151165;-0.26782843;-0.32821813;-0.08403086;0.14195158;-0.06732526;0.06518542;0.08597486;-0.017581591;-0.006517417;-0.17851698;-0.036219582;-0.07634593;0.17302056;0.08408575;-0.33290225;0.14454278;0.1846934;-0.02357063;0.13986257;-0.06065245;-0.19118169;-0.03467618;-0.21681702;0.0046815523;-0.008461368;-0.009198441;-0.10349648;-0.0063494956;-0.10239812;0.013738637;0.0627866;0.12386975;-0.16660453;-0.14366496;-0.06699029;-0.13637912;-0.1559463;-0.1457955;0.14712897;-0.01618272;0.16999055;0.293735;-0.03495353;-0.2338454;-0.023246117;0.079509445;-0.21714689;0.10948231;-0.2692037;-0.09676822;-0.33837843;0.09929619;0.19663663;-0.14377871;-0.033220276;-0.1516253;0.05245699;0.0363988;-0.04510564;-0.100853615;0.14975056;0.1376421;0.017717825;0.16457455;-0.19541365;0.2413197;0.10960173;0.08588261;0.13246089;0.05720786;0.0026778395;-0.05288799;0.10582317;-0.19910228;0.16277727;0.16546388;0.06292656;0.1342036;-0.13976355;0.19144164;0.023323227;0.15280275;-0.25290596;-0.39778858;-0.32237935;-0.032969054;0.07264122;-0.018461142;-0.3908762;0.17285006;-0.30426875;0.25690404;0.13182701;-0.1392639;-0.03894021;0.023930065;-0.020802151;0.06067427;-0.32831597;-0.075309485;0.04229798;-0.066136256;-0.19638994;-0.2794983;-0.2286042;-0.03681164;-0.06022778;0.11530427;-0.2196596;-0.3093397;0.08050864;-0.018475577;0.0019344306;-0.053754568;0.024604447;0.19242114;0.11511296;-0.18927889;-0.025864754;-0.31766683;-0.41739818;-0.06693197;0.006384327;-0.03663621;0.36855346;-0.027238194;-0.19845912;0.07007124;-0.44758704;0.24935037;-0.029187458;0.13979919;-0.0733078;-0.040590446;-0.013026787;0.11758789;0.1860444;-0.18417186;0.11576199;0.23427713;-0.27624694;-0.053670414;-0.07754393;-0.14405136;0.25604737;0.18959197;0.08696525;0.008301128;-0.053891595;0.19193129;-0.014189115;0.07340479;-0.19675976;0.09379263;-0.29555222;0.14985538;-0.12886398;0.037079196;0.14240564;-0.18573415;0.19991358;0.06881776;-0.06575095;-0.24760865;0.13336036;-0.04072189;-0.0077042202;-0.07805076;0.30388078;0.17514707;0.09771034;-0.1766829;-0.12847732;-0.18229952;0.012688927;0.21867636;0.06040559;0.04403934;-0.169341;0.099762924;0.05404571;-0.13685587;0.207265;0.21951656;-0.024623143;-0.038467668;-0.1576689;-0.23600756;0.06759466;0.014731051;0.13793063;0.041344933;0.058175217;-0.14077556;0.1812045;-0.008893848;0.29628298;-0.03612163;0.11936643;-0.005972741;0.080618024;0.036925897;0.16073537;-0.31489682;0.04597104;-0.0034645787;-0.60747385;0.011751716;-0.06730546;-0.072816975;-0.24497911;0.13427773;0.15288904;-0.00824485;-0.36941883;-0.11533147;-0.15350905;-0.13398567;0.16575724;0.15572259;0.2987618;0.115582004;-0.07573594;-0.100396626;0.30403757;0.16128932;-0.064523056;0.17534405;-0.25556132;-0.0057230466;-0.21430609;-0.07162995;-0.31459886;-0.34036684;0.015593649;-0.023018455;-0.06457525;-0.056987755;-0.018611705;-0.09418198;0.21681787;0.15599576;-0.23478338;0.12157643;0.19111477;0.064790055;-0.057062235;0.091115296;0.15251955;-0.08758989;-0.085931264;-0.3938668;-0.04460892;0.09346973;0.07277357;0.15186194;0.008430821;-0.04302542;0.344393;0.05913414;-0.17536888;-0.1950828;0.30970427;0.16698033;-0.02113699;0.3196705;-0.24125867;-0.1506551;-0.15058298;0.14077605;-0.09054788;0.073349215;0.24261795;0.07538682;0.30364457;0.11007379;0.3809276;0.024698578;0.07432226;-0.011899051;0.08007219;-0.066753685;-0.415828;-0.022155844;-0.013597538;-0.051575374;-0.008763203;0.06987433;-0.30748135;-0.073126666;-0.35470366;0.054003973;0.010681539;0.20100881;0.050692957;-0.112738654;0.019083649;-0.03989286;-0.30078775;0.072477244;0.12750761;-0.22084999;-0.06661839;0.19510259;0.29478696;0.012022411;0.092997156;-0.27803308;-0.22006615;-0.031914413;0.2761148;0.12468269;-0.122232504;0.124112666;-0.037180986;-0.08603625;0.2260622;-0.02582552;0.06926207;0.0946342;-0.10306573;-0.37157533;-0.12505674;0.018878484;0.11756377;0.010175382;0.05955692;0.056574736;0.21590365;-0.072338074;-0.08056195;0.2914304;0.09421777;-0.1387265;-0.09860507;-0.22885458;0.18280028;-0.094784245;0.18129405;-0.07363303;0.059464127;-0.07526367;-0.14486857;0.18633784;-0.03947102;-0.36772496;-0.06367494;-0.07617126;0.16444737;-0.25603047;-0.21233797;0.12038063;0.43467548;0.046067014;-0.3512205;0.043198444;0.21379755;0.11128614;0.2945494;0.11566946;0.23667228;-0.10760535;-0.430755;0.14457348;0.10686707;0.25543487;0.24542694;-0.063565135;-0.024836194;-0.06301542;0.31166515;0.17765255;0.038510036;0.3377031;0.047644082;0.17869546;0.002036199;0.16919425;-0.02768254;0.014588211;-0.020102624;0.028733265;-0.01871891;-0.15578061;0.14292951;-0.28730896;-0.19623436;-0.1073508;-0.0722012;-0.35105065;-0.115169115;-0.05521445;-0.0024879274;-0.32785544;-0.41566974;-0.12267283;0.1613942;0.29503807;-0.016496157;0.19195618;0.04306649;0.1421674;0.06894567;-0.19518743;-0.17598805;0.0027789471;-0.20451318;-0.012484117;-0.1589661;-0.3124446;-0.16284138;-0.069530815;0.19126196;-0.06767843;0.10691494;0.30624604;-0.25236493;-0.29217944;0.05238333;0.58720607;0.023477526;-0.11042004;0.023239663;-0.14376187;-0.16217063;0.05920124;0.17032784;-0.2625603;-0.2857957;0.022620274;0.11535113;-0.00728082;0.33844367;0.051885076;-0.12439966;0.07644564;0.0054048207;-0.13717824;0.3097113;-0.09715267;-0.04315488;0.033265352;-0.016264893;0.029253665;0.082876414;0.09668693;-0.22841783;-0.12976475;0.016934695;0.11591445;0.16625035;-0.13044009;-0.16629264;0.05520169;0.15955806;-0.13408275;0.115598485;-0.092747025;0.013618856;-0.045372166;0.043190103;-0.023643792;-0.20799425;-0.04977516;0.17921501;-0.10333325;-0.035664346;0.14861654;0.040338248;-0.11250355;0.1271436;0.28022167;-0.20660408;0.11046916;-0.05902995;0.13438876;0.07289514;0.093818255;0.22203302;0.29410592;0.014784733;0.19747552;-0.065017805;-0.16982889;-0.021943139;-0.20387137;-0.11105578;0.08300282;-0.29422194;0.045221925;0.13704619;-0.37720978;0.08473032;-0.0724801;0.059005614;0.19188519;0.12689865;-0.04604064;0.08621533;0.38362834;0.08766076;-0.064207986;-0.09219104;0.06911797;-0.019998811;-0.19641167;0.019045645;-0.03906824;0.22780934;-0.07545857;0.079207495;0.019087313;0.43319663;0.18560876;-0.47806793;0.064218126;0.13860442;0.011890723;-0.16892421;-0.1693024;-0.33320394;-0.02420758;-0.12011367;-0.042462844;0.2823762;-0.032508064;0.09440038;0.0767764;0.019459851;-0.1030491;0.15623881;-0.13979538;-0.109655775;0.0013859087;-0.21615796;0.226005;0.19702277;0.32779628;-0.28906238;0.15874128;0.23762053;0.09326461;-0.050272424;-0.18428591;-0.3535731;-0.0518535;0.021540767;0.1798407;-0.11843671;0.20046547;-0.21594107;-0.19558878;-0.24917862;-0.11479759;0.1289252;-0.14623353;-0.04016892;-0.05619851;-0.015383567;-0.15952128;0.13277897;0.186577;0.20392504;-0.07964594;-0.04326899;0.16526304;-0.0106985895;0.07973956;0.11730366;0.15662362;0.043935865;-0.36421183;0.37567386
0.15804172;0.053978786;0.07547492;-0.0014615676;-0.0026213655;0.07140754;0.1305187;-0.2585182;-0.045365896;-0.06326573;-0.07326106;-0.08013281;-0.15055275;-0.26186335;-0.11186733;0.06668169;0.010880706;-0.35908172;0.1301822;-0.06614985;0.021302378;-0.07436159;-0.01864659;-0.19886886;0.2774383;0.13833162;0.03251805;0.13944876;-0.22253758;0.14272481;-0.2099841;-0.028863145;0.058973968;0.04678558;-0.21142478;-0.044296924;0.024967663;-0.23476523;0.044255897;-0.33461308;-0.19824417;0.029608795;-0.2697724;0.19245999;0.23721033;0.085519016;0.022392433;-0.28389585;0.122021735;0.030527374;0.25296354;-0.13672014;0.17770045;0.011774398;-0.036045797;0.34404212;-0.15824024;-0.08392288;0.11231533;-0.08278213;-0.013846792;-0.09901796;0.08041306;-0.09189404;-0.09298177;0.12898754;0.14178856;-0.15530215;0.29241106;0.15376192;0.0654206;0.16689867;-0.0796373;0.21337104;-0.06319636;0.1446244;0.036549807;0.03529334;0.081985325;-0.23706478;0.012789035;-0.20257778;0.2544035;-0.008156954;-0.0324709;-0.11575299;-0.09163888;-0.038992863;0.047287818;-0.45901147;-0.09605156;-0.24650428;0.16135134;-0.15228006;-0.22365087;0.24388099;0.066563524;0.17772342;0.03922635;-0.11811417;-0.04104931;-0.11903891;0.07590516;-0.08824043;-0.20304836;0.060931787;-0.2262829;-0.18088618;0.27261403;0.09618983;0.11043747;0.040201247;-0.12966353;-0.1673058;0.17810549;0.23011993;0.07689498;0.1863731;-0.07294011;0.05619106;0.020805068;0.1417462;-0.46333122;-0.30482015;-0.08999583;0.050951708;-0.083112605;0.2883449;-0.34956658;0.03447526;0.08053944;0.052566096;0.1764869;-0.19437186;-0.16083196;-0.08757248;-0.10355764;0.012488274;0.19688834;0.041888937;-0.2444432;-0.06986753;0.14198992;-0.24331284;-0.04945676;-0.15605704;-0.095488496;0.2688684;0.2379849;-0.20325015;-0.006778244;-0.14986685;0.20353575;0.11586739;0.10341173;-0.26399976;-0.044672705;-0.12825276;-0.069852516;-0.037557688;-0.10379423;0.06853185;-0.111872815;0.0006284151;0.03706027;0.09760581;-0.26326463;-0.23364493;-0.16938931;0.015666723;-0.045822155;0.2473282;-0.09132196;0.0028236313;0.13542351;-0.20400739;-0.189199;-0.36945745;0.13877086;-0.031699054;0.2043889;0.0014343729;0.1519352;-0.15274732;-0.30918506;-0.00021905519;-0.016846998;0.051110215;0.25958335;-0.029847777;-0.30926955;0.051569436;-0.04452032;-0.07785407;-0.17626317;0.1470064;-0.19944017;-0.21733679;-0.10778184;0.22915386;0.21831547;-0.13490531;0.52170205;-0.022745578;-0.045964304;0.12034678;-0.19277975;-0.092180595;0.20069547;-0.5607652;0.18609692;0.12139913;-0.10299315;-0.009481582;0.18503119;0.32061815;-0.04323097;-0.14598182;-0.17947122;-0.09331618;-0.37263146;0.0013571219;0.2397444;0.21970227;0.01694837;-0.25706202;-0.06267757;0.040750373;0.17538884;-0.07660579;0.1966879;0.037135884;0.31413406;-0.22725329;-0.24697447;-0.07487556;0.022226343;0.0839742;-0.3399376;0.10994329;0.11198385;0.12936397;0.029418262;0.25652495;-0.025913179;-0.10503385;-0.0038719038;-0.1516941;0.038806263;-0.14519687;-0.080863394;0.025389537;-0.20418338;-0.02936307;-0.3308719;-0.09145208;0.0887399;0.06402337;0.07127821;-0.2095264;0.053395536;0.24214642;-0.10075641;0.034793224;-0.366839;0.33887586;0.07378914;0.25393382;0.33386505;-0.22647148;0.077041276;0.115914576;-0.15226384;0.044302437;-0.08222249;0.092873015;-0.065773465;-0.33604005;0.11409273;0.284469;-0.025296727;0.06160462;0.04333299;0.0998576;0.10101134;-0.31634077;0.027991828;-0.08303213;0.2388376;-0.017595172;0.05289882;-0.13388096;0.20994465;-0.11654311;0.018875841;-0.17048812;0.0015441293;0.1781616;-0.061820645;-0.0073711774;0.015980963;-0.33815062;-0.03867099;0.035652734;-0.1973054;0.32609928;0.30717906;0.41260278;0.21181117;0.018853573;-0.081960276;-0.07583999;0.09498413;-0.11511767;0.040867124;-0.006600144;0.23318087;-0.07449976;-0.035971384;0.05138419;0.00952678;0.21816152;0.050775904;0.101394445;-0.25438178;0.14084145;-0.09774956;-0.24035083;-0.07124609;-0.12783557;0.08545284;0.1223302;-0.008895493;-0.14020391;-0.1282045;-0.05354518;0.09646013;0.060058817;-0.14500071;-0.03604328;0.13251428;0.2075584;0.09148831;0.19538917;0.012321772;0.17421456;-0.28879106;0.040094875;-0.14591086;-0.1450755;-0.03415367;-0.11681278;-0.09742849;-0.025188439;0.15801069;0.24276888;0.01866382;-0.25485408;0.13490948;0.2340066;-0.06490238;-0.095316805;-0.0070992494;-0.028565452;-0.0006410929;-0.4750976;0.32404765;0.024037775;-0.11642098;0.35215607;-0.072617;-0.21062838;0.32068297;0.2187346;-0.2917913;0.0816101;0.08024105;0.24963282;-0.09422872;-0.088719636;0.10045726;-0.1971732;-0.033467334;0.06065091;-0.023290021;-0.08108173;0.17922494;0.081561804;-0.17618866;0.044624154;-0.019505834;-0.49131182;-0.054373354;0.11623764;0.13864903;0.4735276;0.0058621885;-0.3224826;-0.13975586;0.4037872;0.32398424;0.024899287;0.1181095;0.0751867;0.112562105;0.06955696;0.102648355;-0.04915511;0.1310726;0.028485944;0.063314654;-0.17259426;-0.08143034;0.11452208;0.0102147255;0.19938314;0.03955805;0.24127033;0.17421561;-0.33275253;-0.047424875;0.13816324;-0.1098588;-0.38548264;-0.05542955;-0.034068987;-0.1727882;-0.08368796;0.13289505;0.21766576;-0.37001237;-0.5269224;0.10025284;-0.03197768;0.10063605;0.20897357;0.109204724;-0.11498249;0.07247386;-0.06631686;-0.07144213;-0.029308071;-0.16552787;0.10706968;0.2299786;-0.092864975;0.05956786;0.27317792;-0.060937524;-0.20745653;0.09582059;0.17840722;-0.083761156;0.455671;0.007458194;-0.25689748;-0.19721976;0.14546004;-0.20458767;0.13608491;-0.1477851;-0.05066176;0.03681639;0.16123295;-0.104002796;-0.080797344;-0.40785342;0.1532945;-0.23462944;0.14956993;0.049955864;-0.081555605;0.044977903;0.30061388;0.1080438;0.046814185;0.122070484;-0.0853691;0.06352735;0.04289174;-0.027180264;-0.037793573;0.316399;0.04723706;-0.11767537;0.0044699684;-0.09546616;0.063433304;-0.19639745;0.16797511;0.20154469;-0.30424637;0.12360401;0.29648674;-0.3654752;-0.05797277;-0.035653725;-0.017706893;-0.2400089;0.08761638;-0.009891374;-0.23231362;0.05129608;0.20950049;-0.06235654;0.06911844;0.21982893;-0.062773384;-0.42115936;-0.06317565;0.12174026;0.24181812;0.021803482;0.32395202;-0.09129494;0.106928945;0.03193007;-0.30640373;0.058894917;0.114670224;0.23191486;-0.14665495;0.07397827;-0.06796384;-0.03875139;0.10538155;0.24400766;0.09822229;-0.15848571;0.026046563;-0.1814156;0.16498208;-0.022439035;-0.09484987;-0.38661757;-0.023047386;0.21518384;0.029950846;0.086615615;0.14546798;0.14871648;-0.1883398;-0.14890495;-0.022693692;-0.11288224;0.0010498983;-0.17135946;-0.28386372;-0.035812423;0.06727906;-0.14752285;-0.16533045;-0.08494303;0.1298877;-0.059674375;-0.19126935;-0.24834952;-0.04556232;-0.09282769;-0.070639506;-0.10338432;-0.029740376;-0.4484822;-0.22462682;0.4366667;-0.08959829;-0.11226633;-0.1144062;-0.0009857173;0.067620955;0.0875341;0.03194772;0.252271;-0.04173557;-0.12176072;-0.26728743
0.033488907;-0.14620505;0.15765479;-0.37017724;-0.024094261;0.032018807;0.15850712;-0.33338422;0.08106438;0.14887264;0.05672723;-0.19161892;0.054233287;-0.43718126;-0.108491965;0.108643316;-0.015928604;-0.37138635;0.34086773;-0.18251576;-0.019774485;0.15319456;0.05668508;-0.051995356;-0.0012217849;0.09512852;-0.23136489;0.17826374;-0.08958032;0.31636247;-0.25365788;-0.029083438;0.12991899;-0.29295334;-0.28571707;0.12547153;-0.1081548;-0.23655058;-0.018328471;-0.35058555;-0.1760697;0.019539416;0.15428907;-0.040078215;0.2677843;-0.04294864;0.13193232;-0.45048887;-0.02351949;-0.092752315;0.12565497;-0.07546218;0.43921748;-0.022533458;0.24235155;0.37410486;-0.3766192;0.071788915;0.021610992;0.028627064;-0.02946987;-0.009360883;0.016430764;-0.03032456;-0.20327131;0.057048284;0.09086145;0.37720308;0.45577088;0.09726838;0.1936607;0.054875277;0.07280267;0.2387709;-0.15804791;-0.02315825;-0.10670919;0.11217851;0.22203098;-0.29671225;0.09405812;-0.058035955;0.3329047;-0.015255132;0.033766158;-0.14831902;0.052715182;-0.18410763;0.08618988;-0.37250498;-0.037215497;0.016896285;0.10314836;0.18793535;0.19034626;0.15428056;-0.23379122;0.17911527;0.008515254;-0.115072906;0.13354504;-0.15254977;0.2173036;0.038478866;-0.5306096;0.2741586;0.12680867;-0.0054712626;-0.06483078;0.14222614;0.15768644;0.2103467;-0.23238648;-0.010537599;0.1784148;0.1798248;-0.0914227;0.03583021;0.00918312;-0.088133164;-0.17802651;0.30879393;-0.40663856;-0.55453825;-0.1221579;0.08453001;0.19060664;0.24264973;-0.18606016;0.05536451;0.10160606;0.2200749;0.04301765;-0.25259352;0.02485242;-0.107703246;-0.15387775;0.15182967;-0.14759988;0.002197617;-0.003499496;0.20843938;0.35397428;-0.19381091;-0.11085439;0.1132815;-0.08502618;0.052355796;0.29788074;-0.021267131;0.22950162;-0.24139588;0.33246782;0.023392113;0.09276585;-0.16769917;-0.07801422;-0.42124635;-0.48731968;-0.203073;-0.25690332;-0.02939794;-0.13324998;-0.15893938;-0.09623655;-0.010222288;-0.3414887;-0.47743496;-0.14702968;-0.099359;0.074927725;0.4111726;0.0022310696;-0.03505037;-0.01561356;0.14648174;0.021120338;-0.14618492;0.28413472;0.15099609;0.123854235;0.013953356;0.058466446;0.13400392;-0.0005900567;0.09338614;-0.3130818;0.096120186;0.40241623;-0.37217072;-0.24052133;0.10999621;-0.26158538;-0.023430357;-0.11884513;0.073054574;0.0626565;-0.050875165;-0.20271829;0.24977094;0.19640085;-0.2043822;-0.06681468;-0.17725103;0.06562478;0.020337317;-0.27915078;-0.04417792;0.06892139;-0.37395802;-0.06818373;-0.12214365;-0.015912166;-0.044522468;0.048711997;0.14799628;-0.2027372;0.008440231;0.18099813;-0.11553909;-0.2532387;0.0960474;0.24920554;-0.1819325;0.0050493157;-0.21057454;-0.30987695;0.28167513;-0.15262944;0.1971417;0.2203124;0.10176366;0.23613927;-0.08734068;-0.18720917;-0.2720901;-0.14779165;0.046565644;0.014729741;0.20761368;0.01941527;0.20727159;0.17230222;0.14160235;0.0054414794;0.037231244;-0.0055789636;0.34749353;0.0009118834;-0.17506729;-0.18653136;0.21364877;-0.110170595;0.33499527;-0.10866202;0.053987917;-0.20242645;-0.015803037;0.09388648;-0.12018523;0.08431659;0.25534233;-0.032054566;-0.18609606;-0.1401443;0.41154027;0.0064924625;-0.03360202;0.15172118;-0.09287779;-0.045646098;0.0028737308;0.033185832;0.020905387;0.09344667;0.16971017;-0.11417297;-0.07652414;0.15539059;0.18383656;0.07461258;0.22247554;0.03936236;0.16291268;0.023027323;-0.23926952;0.041021504;0.05105847;0.20800707;0.06303905;-0.20946436;-0.06327552;-0.018437317;0.055339433;-0.1258672;0.00022079275;0.08792394;-0.022576755;-0.01550397;0.26584533;-0.19059587;-0.2820494;-0.0073839994;-0.06355046;0.0015836161;0.1615972;0.07004331;0.06493392;0.09134006;0.07307684;0.037496626;-0.28653452;0.14788689;-0.16868861;-0.044224884;-0.1447722;0.14890456;-0.21253057;0.059844263;0.07829969;0.049664013;0.06040014;-0.03719195;0.02813538;-0.32450232;-0.098960035;-0.06687198;-0.41666624;0.21574408;0.077067964;0.14248501;0.00049485365;-0.280614;0.01928481;-0.24994671;-0.2132494;0.014141462;-0.03641813;-0.17683713;0.06565219;0.14329205;0.28728056;0.030162534;0.16672693;0.20050879;0.15685056;-0.20027387;0.29940978;-0.19735159;0.07493012;-0.3665575;-0.12912655;-0.15274897;-0.107205585;0.09387658;-0.14248195;-0.003655275;-0.32859486;0.15434906;0.1682973;-0.21849209;0.19456364;0.02141829;0.14806172;-0.04178092;-0.22374353;0.16098559;-0.08638553;0.2586819;0.05450212;-0.122323826;-0.11199807;0.0014229731;-0.022643067;0.013888641;0.14922261;0.023777708;-0.101242706;-0.10947777;0.06366366;0.024810888;-0.18382987;0.112973414;0.022859463;-0.047622085;-0.059560306;0.13940407;0.006423605;-0.2931015;0.0021494352;-0.0725552;-0.46417883;0.117412865;-0.13170947;0.059392016;0.24505715;0.15212722;-0.33223885;0.049316153;0.116835095;0.23510683;-0.090888605;0.06918711;0.29566342;0.09606393;0.37410697;-0.0023543418;-0.07269472;0.11659438;0.06635109;0.046165206;-0.15239196;-0.16872564;-0.028373064;0.024116205;-0.07743075;-0.009032263;0.21377964;-0.05398276;-0.5652492;0.04876045;0.042273548;0.14664982;-0.18756385;-0.0400621;-0.1282959;-0.17160632;-0.022973878;0.18260927;0.12956579;-0.20820111;-0.22118047;-0.2331516;0.08297186;-0.031482637;0.20341533;0.050821856;-0.3146092;0.062221915;-0.23668917;0.09062335;-0.19991554;-0.022899212;0.25855428;0.09530875;-0.13215055;-0.03243388;0.41561446;-0.05814579;-0.31086323;-0.16902198;0.11347074;-0.035941858;0.393529;0.14013506;-0.19157061;0.06936534;0.13737199;-0.16885214;0.2544711;-0.097783275;-0.26898658;-0.11992083;-0.10940865;0.011500709;-0.06743107;-0.10401147;-0.1275184;-0.029420601;-0.073288634;0.012566406;-0.026082449;0.09830424;0.06564867;-0.037892513;-0.06802063;0.1674165;-0.13980448;-0.03406246;-0.08347891;-0.040983126;0.21477805;0.35382575;0.09463735;-0.06661704;0.2221659;-0.1949751;-0.18492308;-0.27858946;-0.19057266;0.056807056;0.12825607;-0.109034315;0.30412322;-0.3541001;-0.16381338;0.11947099;-0.04545456;-0.09937207;0.10641332;0.27968585;0.0831692;-0.27925432;-0.23931134;0.1079362;-0.2487536;0.26624537;0.030439388;-0.016611405;-0.017118234;0.02018399;0.14994252;0.105387695;0.19138293;0.04828178;0.1844422;0.021474827;-0.4147268;0.13699347;0.05402516;0.17369673;-0.08982058;-0.19349243;0.05840446;0.09257694;0.0684456;0.24881494;0.17197444;0.1332982;-0.11180648;0.06542193;-0.03247359;-0.099546194;0.13930906;-0.010293126;-0.22145602;0.10375167;0.078032464;-0.1434865;-0.06988202;0.058580883;-0.028321058;-0.059685096;0.0929045;-0.052678753;-0.030330809;-0.0041216123;-0.18224826;-0.14416605;0.007079639;-0.16702685;-0.22550406;0.07333374;0.101962045;-0.010972734;-0.45113462;-0.20299132;-0.033674307;-0.07586292;-0.16268612;-0.3401532;-0.0047205603;-0.19768289;0.22151205;0.2545483;-0.040962223;-0.058739856;-0.14874938;-0.17503275;-0.06791397;-0.023059862;-0.10046866;0.118975274;-0.16558175;-0.15328218;0.21134922
0.00969741;0.062243156;-0.092008516;-0.19447492;-0.31478176;0.052962787;0.078788385;-0.20205396;-0.15043026;0.30537105;0.039296445;-0.212308;-0.19439138;-0.35822743;0.10707572;0.08474444;-0.19255295;-0.051699325;0.04342818;0.073000655;-0.3688929;-0.17403367;-0.03870645;-0.12775241;-0.30069605;0.12266742;-0.09101853;0.2931337;0.07982708;0.06999204;-0.6881524;0.06514176;0.035637133;-0.30436236;-0.15530455;-0.010300944;0.044822983;-0.05476973;-0.13400982;-0.48562613;-0.023968088;-0.00417286;-0.006214511;0.22326778;-0.12274184;-0.057201415;0.4439835;-0.16484885;0.03487359;-0.32107946;0.13073306;-0.053221997;-0.006280662;0.026736971;0.035849392;0.14090756;0.103768006;-0.10733704;-0.014691763;0.1272185;0.04037404;0.23296402;-0.063330516;0.05565019;-0.19480705;-0.031178469;0.13912623;-0.20545834;0.35045972;0.071027316;0.0416747;0.034672234;-0.011145412;0.1574813;-0.042525996;-0.06959767;0.0226369;0.08944638;-0.025405949;-0.35268587;-0.10312522;0.0066220276;0.27481693;0.09696178;0.14816564;-0.04031278;0.06652997;0.05104252;0.017801775;0.100761175;0.13612987;0.15985781;-0.088022426;0.11319277;-0.029406106;-0.013783378;-0.1879915;0.21974164;0.016099637;0.041902404;0.053139094;-0.03456156;0.12471697;0.027097123;-0.4122168;0.3033303;-0.1455345;-0.037578776;-0.069526725;0.024569461;0.24681695;0.24254704;-0.16502556;0.04013927;0.11917958;0.15515119;-0.16577332;-0.13438016;-0.10747673;-0.065869585;-0.11517701;-0.008645026;-0.47664505;-0.35700992;-0.16855858;0.25119066;0.2193445;0.017513933;0.20002668;-0.13133332;-0.13858666;0.2505275;-0.10758225;-0.35146812;-0.11701456;0.071326576;-0.08100375;0.25577945;-0.17576185;-0.036203727;0.18886812;0.2970497;0.28166607;-0.2742865;-0.09865515;-0.015118211;0.100508325;-0.11687686;0.10846696;-0.09033847;0.024380395;-0.46362486;0.28769785;-0.17929648;-0.29910213;-0.01798495;-0.093311064;-0.39899623;-0.5054238;-0.04798413;0.050555505;0.020949636;0.09942071;-0.33790112;-0.098380625;-0.047881152;-0.068654574;-0.34177;-0.14608231;-0.09538303;0.009541516;0.20770253;0.08994197;-0.13860992;-0.14436428;-0.09872387;-0.093254;-0.19092487;0.23732471;0.013497707;0.30222607;0.0985479;0.16622795;0.00060825836;-0.08605643;0.108703606;-0.32043886;-0.11734235;0.34235996;-0.030627716;-0.17021291;0.008055466;-0.15332146;0.112952635;-0.16375472;-0.051496968;0.0207548;0.055993073;-0.16375326;0.31255153;0.14149976;-0.12166619;-0.122536734;-0.08798477;0.022950917;0.10453882;-0.19223331;-0.017735973;0.30892625;-0.55542374;0.14015092;0.057696994;-0.011040964;-0.39711216;0.0013869661;0.12303601;-0.16063203;0.057820186;-0.108590364;-0.2630149;-0.25149864;-0.07805675;0.16649759;0.017430596;0.063059345;-0.18020934;-0.106626794;0.026337186;-0.041764114;0.18513608;0.17628266;0.2650498;-0.18381496;0.07535301;-0.13495359;-0.08426822;-0.114684835;0.13822493;-0.13543652;0.18473928;0.27530336;0.12048322;0.13946362;0.0035720903;0.13356146;-0.12302247;0.07493645;0.17431362;0.039376948;-0.09876336;-0.097285695;0.19750418;-0.08679155;0.15712202;-0.40282005;-0.0019310105;-0.22886735;0.09766506;-0.010436025;-0.23352088;0.21008182;0.028331537;-0.1443359;-0.19906038;-0.19153178;0.21129856;-0.020439256;0.2196952;0.20972635;-0.3509252;0.14112219;0.087781124;0.12952839;0.028198598;-0.016553557;-0.058579583;-0.1520361;-0.13956378;0.08641387;-0.10961012;-0.048526745;0.27802983;0.17483562;0.17078908;-0.006749278;-0.1650304;0.14642504;-0.07436745;0.1775738;-0.006068936;-0.19903727;-0.21506199;0.230195;0.15054028;0.09680731;0.11619117;-0.06589937;-0.14742418;-0.13897932;0.20351924;-0.13347697;-0.35735226;-0.12254781;-0.04412052;-0.35307497;-0.056062978;0.24470547;0.3283121;0.012253489;0.032956675;0.14600305;-0.18187678;0.15426648;0.08055081;-0.03536986;-0.0655212;-0.055591572;-0.40257472;-0.036286563;-0.10424484;-0.0033919532;0.071003415;0.12736325;0.07134339;-0.1599144;-0.025818456;0.20715067;-0.17409702;0.13215736;0.14882292;0.025893508;0.033623952;-0.050402284;-0.26434714;-0.034793373;-0.007994905;0.07962309;0.04588143;-0.05496658;0.024600793;-0.11833077;0.25828177;-0.1760405;0.075065665;-0.01932169;0.10819187;-0.10426914;0.07628368;-0.13792448;-0.14492354;-0.36904877;-0.012019185;-0.017768264;0.04196971;-0.028446285;-0.2649532;-0.1321319;-0.11366733;0.20339899;0.2431184;0.082736604;0.12816107;0.08938359;0.05836155;0.14746518;-0.021688538;0.13961002;-0.14848988;-0.022649452;0.083541386;-0.15077955;-0.21743613;0.08508409;0.03996276;0.03848829;0.2205493;-0.06710291;-0.09284215;-0.1330468;0.38816077;-0.015277818;-0.06907284;0.24782456;-0.10335326;-0.0014975253;0.02997384;0.123517655;-0.23179632;-0.22260891;0.08321962;-0.13525203;-0.35570684;0.2627908;0.036342375;0.10532521;0.15002151;0.15417804;-0.4794213;0.05885563;0.022682233;0.17013027;0.09291416;0.141591;0.029717728;0.14679465;0.05187789;-0.09787453;-0.13039355;0.03629324;0.09461143;-0.05076886;-0.045305915;-0.08824066;-0.16316424;0.022685686;-0.06931576;0.015460564;0.004202688;0.30826494;-0.3063811;-0.022005226;0.06777501;0.14885004;-0.009054826;0.027741436;0.13358244;-0.24546286;0.15311147;0.17330398;0.06301186;-0.35218868;-0.09513948;-0.05868966;0.082548805;-0.08019005;0.044654153;-0.021181015;-0.19397217;-0.092989825;-0.10538231;0.07547518;-0.22908598;0.07211023;0.11793271;-0.23921576;-0.24349906;0.07361955;0.24511181;-0.101403736;-0.33636352;-0.07477837;-0.38482326;-0.1614812;0.3348783;0.13571686;-0.3149583;-0.022387795;-0.09110113;0.19791916;0.0185775;-0.4176851;-0.059507933;-0.06252416;-0.06595198;-0.16213432;0.12124366;-0.21772455;0.3066001;-0.07984535;0.12511832;0.12802713;0.09051161;0.24613795;0.31464764;-0.02674136;-0.10006964;0.2657229;0.08935815;-0.22725785;-0.013455404;-0.1405283;0.054161903;0.18991636;0.011338338;-0.15294814;0.28910398;0.09432266;-0.07531229;-0.086948685;-0.38281497;0.017990228;0.3716814;-0.14073916;0.32581505;-0.10986088;0.16919008;0.21958132;0.18500724;0.27155384;-0.023347462;0.023480633;0.085530125;-0.3893642;-0.08839352;-0.04160021;-0.012106354;0.12604025;0.20580837;0.13721776;-0.18041655;0.24390195;0.124427885;-0.09176734;-0.07719264;-0.09015656;0.24479467;0.13569003;-0.17408031;-0.10658947;-0.04405682;0.027839784;0.10394205;-0.12207317;0.16243933;0.08024585;-0.026836153;0.054916695;0.14093162;-0.13277403;-0.15063278;0.026826913;0.07533731;-0.14098258;0.2986459;-0.021442024;-0.11948411;0.08851163;-0.026103351;0.12132987;-0.0059627304;0.19953983;-0.04706216;0.06774778;0.035447393;-0.20869896;0.097705886;0.04790419;-0.28604004;-0.10859138;-0.15686499;-0.18106924;-0.15091516;0.18836296;-0.089770816;-0.19133618;-0.43464082;-0.19506665;-0.08043865;0.2010914;-0.1158214;-0.35689804;-0.15375572;-0.028972922;0.37897408;-0.14741111;0.1420373;0.063008405;-0.14637774;-0.19176051;-0.19804451;-0.21880709;-0.035501845;0.074698865;-0.098135106;-0.018799324;0.15597796
-0.11392855;0.034501288;0.04121499;-0.13675623;-0.37158772;-0.1323198;-0.03264702;-0.046967447;-0.04205693;0.14470845;0.061271437;0.027449658;0.17489551;-0.060954317;0.20813413;0.0030986276;-0.14020164;-0.08265012;0.08759412;0.07236314;-0.5195247;-0.12707935;0.006166885;-0.13817377;-0.1960905;-0.10482053;-0.0044858856;0.32982868;0.21646154;-0.1569244;-0.5912938;0.24868849;0.24044155;-0.5399893;-0.06294689;-0.13692579;-0.12646003;0.15593734;-0.22237165;-0.5577539;0.039147478;0.116834715;0.20022227;0.05856693;-0.21705486;-0.08766729;-0.07142648;-0.36590385;-0.032760434;-0.25840434;-0.1314688;0.030479131;0.09664943;0.034027517;0.14329591;0.04969458;-0.2781014;-0.049561787;-0.17587033;0.13609076;-0.06846766;0.29879487;0.071906276;-0.031093841;0.15900916;-0.12895507;0.11210404;0.06849459;-0.09494478;0.17283042;-0.11593843;0.02381831;0.17702492;0.16407643;-0.03563358;-0.034324467;-0.029148785;0.18671648;-0.08891218;-0.22369042;-0.18536456;0.078794554;0.22121057;0.124685794;0.17489536;-0.2081031;-0.0051271007;0.06272261;-0.03535757;0.04566953;0.16900726;0.17089748;-0.24264745;-0.15472777;0.015339182;0.26711747;-0.15242237;-0.039099738;0.07538166;-0.03944913;-0.033140756;0.069165245;0.26283985;-0.28443733;-0.13961342;0.02860656;-0.30330974;0.043181468;-0.3444057;0.076782525;-0.004255636;-0.20181447;-0.15632334;-0.037362438;-0.102532856;-0.027195036;-0.026247542;-0.030585552;-0.09706812;0.0051263548;-0.31688875;0.36201337;-0.74750024;-0.09162346;-0.08273315;0.05561927;-0.08674135;-0.05249968;0.17435698;-0.021954574;-0.15996009;-0.013990968;-0.059775;-0.12153953;-0.16057836;0.09973553;-0.24518554;0.10905086;-0.10504851;0.1822116;0.024594989;-0.022000518;0.074417576;-0.11113061;-0.10373725;0.048344772;0.25041035;-0.009006425;0.1940515;-0.14303587;0.17360187;-0.022821002;0.33425426;-0.08102014;0.13254115;0.029110704;-0.12252538;-0.17335415;-0.518192;0.10575121;-0.0703609;0.045001596;0.057356432;0.24655665;-0.07372439;-0.08546946;0.025858385;-0.14187948;0.12112903;-0.120944895;0.0064902785;0.09378489;0.09285958;-0.1344149;-0.18303907;-0.049415633;-0.24221502;-0.06563382;0.38429284;-0.1086421;0.29921484;0.17030881;0.12043706;-0.5436273;-0.25500962;0.1256388;0.16915178;0.20723076;0.28997183;0.046774328;-0.027665006;0.06980193;-0.037374165;0.008750259;-0.10994181;-0.10620146;0.1961307;-0.018691111;-0.15747209;0.14089233;-0.045030985;-0.21882392;-0.1778937;-0.087140396;0.21076684;-0.20561816;-0.021438407;-0.073812716;-0.14210534;-0.08026192;0.20881054;0.060674347;-0.021777729;-0.097921796;-0.3399759;0.021013044;-0.15039508;-0.16201423;-0.088507354;-0.07389202;-0.09895001;-0.20785198;-0.11497061;0.029281855;0.1713158;-0.0062145987;0.04244076;0.083532;-0.117276125;-0.03864876;0.06423721;0.04801356;-0.16447029;0.13169983;0.24260134;0.04262684;0.1740278;-0.19070587;-0.21775772;0.120868;0.16906394;0.22452223;-0.009010408;0.10510272;0.38676235;-0.00696808;0.09513952;0.23887524;-0.06943177;0.16174503;-0.08875414;0.27600884;-0.031184593;0.08113077;-0.33382037;0.04154136;-0.27069232;0.16731478;0.0018686849;-0.15756749;-0.0643165;0.09766986;-0.025914745;0.23850553;-0.1431872;-0.008112572;-0.30896893;0.3209757;0.17593874;-0.10306438;0.30465946;-0.02147887;0.04374728;0.023805922;-0.05847255;-0.029926587;0.07810801;-0.17049758;0.10294384;0.041017734;-0.1219244;0.113974765;-0.088900104;-0.026572516;-0.19906229;-0.04982965;0.15187433;0.039609037;-0.11418161;0.009136844;-0.16441278;-0.3905079;0.018662164;0.20665662;0.029489627;-0.024322944;0.020175623;-0.021803735;0.04204066;0.18618444;-0.11185863;-0.32689294;-0.058779445;-0.1394452;-0.6344379;0.039901745;0.327314;0.09997287;-0.26290444;-0.122980736;0.19615912;0.03810858;0.13590737;-0.12939931;-0.23108101;-0.29983357;0.054398753;-0.008893512;-0.00983538;-0.2790824;-0.024604216;-0.030993447;0.038474083;0.24251305;-0.21007729;-0.24283768;-0.28814435;-0.21164145;0.31002036;0.027134743;-0.05941154;-0.06388355;0.1447354;0.048439465;-0.31802535;0.13767986;0.12654203;-0.18313771;-0.34091482;0.03718558;-0.016262114;0.27396384;-0.22491771;0.08514558;0.21120657;0.35252863;0.11777402;-0.076511934;0.08850439;-0.26263452;-0.29292157;0.028357588;-0.01271447;-0.0019955975;0.04708088;-0.041789375;-0.03905945;-0.14781262;0.20557438;0.033859894;0.10478186;0.124918684;0.21253908;-0.005973587;0.11717186;-0.23837121;-0.10337499;-0.24432386;-0.024155539;-0.16318126;-0.020123877;-0.16670714;-0.045503173;0.16301878;0.38082984;0.121825024;-0.25130466;-0.22391872;0.07501684;0.16797888;0.14120544;-0.048802476;0.36389753;0.15504369;0.09866116;-0.19383565;-0.03781955;0.024025194;-0.45991156;-0.10862612;-0.1409474;-0.15794136;-0.09961756;-0.2509349;0.004713472;0.04284601;-0.091491885;-0.38793534;-0.08133509;0.24575195;0.08790465;0.08351133;-0.15016103;0.22514021;0.25916994;-0.00015479403;0.040643018;-0.32900658;0.11060324;0.0564629;-0.10634261;-0.056445573;0.06022271;-0.18929465;0.16878116;0.062723994;-0.23176873;-0.13883384;0.04698746;-0.24136265;-0.30627936;0.35177356;0.08363446;0.13734403;0.02642434;0.030269923;-0.21969795;0.12884897;0.060558278;-0.05007545;-0.6625609;0.07994493;-0.14537758;0.0895397;0.03110241;0.084187515;0.22273673;-0.20333204;0.35678852;-0.07699003;0.18663391;-0.16796912;-0.04924626;0.18909894;-0.12852162;-0.2197211;0.01555027;0.20583183;-0.120386444;-0.51996994;-0.06746635;-0.48501298;-0.12286383;0.34565017;0.32325727;-0.09814838;0.060079888;-0.022271335;0.03294201;-0.05799972;0.0012712962;0.009716146;-0.091311775;-0.0015580092;0.06728436;0.2602442;-0.3105336;0.2582738;0.21579482;0.027540928;0.15338756;0.22307032;0.4350852;0.09657065;-0.10214055;0.17218892;0.08378043;-0.032459397;-0.12194791;-0.033939674;-0.065347694;0.045324937;0.113303065;-0.00048769146;-0.034602057;0.13672423;-0.015520443;0.08706387;-0.15949517;-0.19590582;0.06811311;0.18669675;-0.12270773;0.24616766;0.07251451;0.10323912;0.16249269;0.061258018;0.11775086;0.175791;-0.17263468;0.17704056;-0.10035948;-0.20085987;0.11648162;-0.09875324;0.09551784;0.065253444;0.044969413;-0.09052145;0.06935145;0.070991255;0.20222704;-0.109029084;0.24923587;0.44088912;0.06670609;0.007985352;-0.14884295;0.047251467;0.09084898;0.20905142;0.20115608;0.1715036;0.04835637;-0.03813417;-0.030728566;0.18832055;-0.14723681;0.06982713;0.038825195;0.008150864;0.007837043;0.23915634;-0.1607284;-0.17772703;-0.05678734;0.21020603;0.18631597;0.07091184;-0.029576188;-0.060395166;-0.19369096;-0.1612208;-0.024287812;-0.11756201;0.077608705;-0.33842355;0.14054982;-0.11933164;-0.084542334;-0.07971915;0.25923327;-0.16890769;-0.23283014;-0.48512885;0.010970805;0.005978142;0.28302962;-0.15444233;-0.3358429;-0.22805262;0.17443518;0.26524955;0.042260766;0.28112724;0.101556845;-0.30168483;-0.17404027;-0.14642271;-0.008586052;0.071942605;0.047824804;0.06251703;0.1635666;-0.07832428
-0.095475554;0.07729869;-0.09165171;0.042629696;-0.25181922;0.19147867;0.041888203;0.015867392;0.05273131;0.12817574;0.21721786;-0.20079926;-0.1883922;-0.4622391;0.22064626;-0.05481416;0.11783558;-0.522586;0.11300464;-0.006932034;-0.12096205;-0.12892577;0.12058781;0.08934862;0.0074497554;0.16141409;-0.018950569;0.0850097;0.117614545;0.3749872;-0.052798472;0.035491426;-0.091955;-0.049860958;-0.12653375;-0.25201297;-0.12707861;0.20378363;-0.092425816;-0.54737735;0.22514263;-0.0029531964;-0.23308954;0.14367855;-0.059180398;-0.14619946;0.0894722;0.39083707;-0.08206635;-0.01304503;-0.085802905;0.11159978;0.42456946;0.07234251;0.2795947;-0.16679527;0.2225224;-0.029829454;-0.20813245;0.08697342;0.067333765;-0.09879727;0.32401943;-0.068988614;0.022033975;-0.04856286;0.002240482;0.16761829;-0.18431766;0.14501007;0.010032136;0.0871114;0.1775861;0.34667298;-0.003621365;-0.06776107;0.08381823;0.35620323;-0.06733989;-0.34662795;-0.3422199;-0.23214832;0.24506712;-0.12417776;0.1214728;-0.14066273;-0.040913522;0.04185572;-0.011311929;-0.043614462;0.24093984;0.15265588;-0.038936824;0.04900594;0.043457903;0.0027795509;0.009485029;0.18361084;0.06259411;-0.079458795;-0.07001737;-0.07971045;0.07118271;0.055232782;0.17724557;0.06715049;0.0409686;-9.253732e-05;-0.0351891;0.11479525;0.10558266;-0.09074824;0.11297263;0.07513387;-0.030298715;0.07664177;-0.02360846;0.17932546;-0.022038706;0.25213653;-0.1341309;0.40561876;-0.41268748;0.023410525;0.008182253;0.043808006;0.0005669324;-0.2549736;0.27774355;0.09573246;-0.10305438;0.29309246;-0.20248227;0.25655484;-0.42892805;0.01437137;-0.23195061;-0.12483378;-0.005551635;0.20730019;0.07299117;-0.03634282;0.045446917;-0.0821045;-0.26904294;0.0379594;0.17778838;0.057149164;-0.04670612;0.054061886;0.18861224;-0.019478042;0.187676;0.0060946806;0.03407912;-0.21285966;0.13319986;-0.08664216;-0.15939057;0.14252764;-0.09852519;-0.11001578;-0.10192691;0.2612829;-0.4759563;-0.086740926;-0.019926976;0.004025405;0.08824286;-0.17427349;0.013207375;-0.08512854;0.06455142;-0.16664228;0.10020586;0.30681252;-0.22821225;-0.14278325;0.27183083;-0.17530726;0.21021669;0.15713607;0.2583592;-0.27473667;-0.12308204;-0.2684357;-0.14385368;-0.039142948;0.12862515;0.19133462;0.11267679;-0.016737983;-0.068823576;0.31047362;-0.100705735;-0.12352031;0.22103979;0.15188277;-0.056579728;-0.00069103966;-0.05640684;-0.23868348;-0.1266264;-0.009917414;0.1143748;-0.21920316;-0.021485636;0.03308088;-0.056944456;0.26927346;0.10704719;0.07031507;-0.24992354;-0.02628407;-0.39217323;0.117244974;-0.12916765;-0.07154712;-0.011367787;-0.02690207;-0.43666783;-0.15217003;0.054878138;0.4170408;0.067705;-0.09512321;0.30453432;-0.0041501033;-0.3165884;0.34747648;-0.035292353;0.0047615245;0.15653679;0.19455369;0.038332164;0.12536243;0.2919847;-0.15263031;-0.16218008;0.011372871;0.041258745;0.17252457;0.10690317;0.13093452;0.09526648;-0.04384117;0.26201516;0.11628217;-0.40241945;-0.038867798;0.25183302;0.13787638;-0.044317134;0.1743628;-0.39709967;-0.046109684;-0.024991443;0.18757133;0.040346365;-0.34596774;-0.11219529;0.10761967;0.15608105;-0.029947108;-0.12046382;0.08982605;0.11970342;0.22708385;0.014819015;-0.032131653;-0.022313794;-0.020971164;0.19853316;0.102308676;0.06687529;0.0037141058;0.20280606;-0.1572411;0.19109672;-0.00039972158;0.044722315;0.13584208;0.059273653;-0.030401919;-0.04233669;-0.23361617;0.16078222;0.26166084;-0.08955743;0.080543436;-0.14000604;-0.0107097905;-0.16395368;-0.019987404;0.1956662;0.1891229;-0.06945063;-0.27082786;0.13593736;0.1344597;-0.07687964;-0.3344884;0.02466484;-0.15350832;-0.41801998;0.30333313;0.10588485;0.096095815;-0.20172971;0.1710974;0.14178766;0.13441429;0.120714836;-0.12313388;-0.13042596;-0.012308691;-0.07563831;0.04830453;-0.07011061;-0.49338496;-0.025547951;-0.02692049;-0.058101773;0.059425402;0.0038052376;-0.22402844;-0.0973642;-0.4997066;0.03460152;0.14191039;-0.19823103;-0.22642708;0.2507884;-0.009840373;-0.4918145;0.10472444;-0.16895095;-0.20095286;-0.25305614;-0.2548543;-0.012739655;0.20991711;0.0020338376;-0.04381955;0.1403427;0.10709033;-0.2516406;0.034691487;-0.024557734;-0.38811967;-0.24537957;0.050526943;-0.013746176;-0.05774889;-0.14970678;0.25304317;0.103079095;0.064624935;0.40201494;0.014246641;0.25873497;0.1505295;0.019492777;0.13167772;0.103744105;-0.07987915;0.053318687;-0.14544953;-0.21973047;0.28416824;0.018033387;-0.24881464;0.301239;0.035361696;0.058365095;0.24812678;-0.15310271;0.10384529;-0.10593775;0.15250179;-0.027212428;-0.16995668;0.11270236;0.2759956;0.2889638;-0.06776784;0.003926941;0.035717726;-0.29568684;-0.049612638;0.096360624;0.3646864;0.04497755;-0.13312852;-0.035918128;0.2179338;-0.25225914;-0.3496363;0.086390235;-0.1596549;0.054061648;-0.023015844;-0.10958162;0.22435242;0.23893012;-0.17169666;0.046152107;-0.32211968;-0.07233793;0.23802906;-0.06578946;0.12876424;0.021335442;-0.2082945;-0.020697525;0.08057314;0.09070197;-0.19374175;-0.3874668;-0.3305236;-0.63241965;0.28039837;0.16484895;0.09307179;-0.08584325;0.027649993;0.019487536;0.031210061;-0.056320414;-0.040745854;-0.3489088;0.05307487;-0.22626704;0.1859419;0.21792442;0.13272002;0.094305746;0.109211914;0.05411494;0.31618538;-0.17416626;0.14924306;-0.2639605;0.07051333;0.05202275;-0.1746842;-0.023386262;0.24004795;-0.13665187;-0.11809393;-0.21504593;0.004018658;0.003007326;0.1306414;0.091980495;-0.040622592;-0.11003609;0.034645125;-0.121803;-0.08224529;0.15736714;-0.04210161;-0.05458383;-0.085907795;0.117368296;0.27473077;-0.33634844;0.35620266;0.13864122;0.048811052;0.25796777;0.21839069;0.039705124;-0.044504955;-0.112748936;-0.12282669;0.27055833;-0.13533121;0.18672837;-0.1041457;-0.057953846;-0.078991316;0.25280973;-0.13160267;0.062339436;0.3261384;-0.2369367;0.13834986;0.0011558711;-0.16088267;-0.18762693;-0.26237914;-0.12996566;0.3059798;-0.23337923;0.13097483;-0.043754246;-0.03543224;-0.015863564;0.28707847;-0.1075437;-0.00058334565;0.09681194;-0.16634178;0.19179703;-0.24263588;0.15135989;0.07892839;-0.102848135;0.15567282;0.13507366;0.12455424;0.10435472;-0.10882287;0.40071997;0.48397705;-0.23627649;0.0677043;-0.14045887;0.11519839;-0.023918439;0.15196067;-0.12542553;0.11240024;-0.0009887032;-0.002421262;-0.36341706;0.108665414;0.036014188;0.07492241;-0.058021054;-0.020081507;0.09020682;-0.2505067;-0.15887952;-0.24731565;-0.040203054;-0.020402703;0.34373218;0.16504686;-0.43246186;-0.067980595;-0.028961347;0.120146714;-0.11860992;0.021706464;0.038283415;-0.19822086;-0.036427762;-0.03270319;-0.053344913;0.18822138;-0.1374931;-0.08293563;-0.23586607;-0.36419243;-0.17324139;-0.11373184;0.049273506;-0.11437136;-0.19869128;0.028362626;0.3815487;0.37456542;0.0984112;0.2759404;-0.0334225;-0.2541226;-0.14928678;-0.15288095;0.039834913;-0.23974942;-0.08255317;0.07710608;0.067201845;-0.092873245
0.08945766;0.4581911;0.04681453;0.33320943;-0.34167376;-0.040128537;-0.07109019;-0.24480845;0.21223338;0.1396717;0.18199353;0.13262542;-0.03143549;0.02750698;0.07381282;-0.2364518;-0.22010459;-0.06925111;0.11277497;0.1670653;-0.25671646;-0.25191027;0.39904377;0.1775787;0.05570565;0.3285187;0.1551126;-0.0014544327;0.083286315;0.42415568;-0.009692372;0.061073907;0.10232299;-0.022486262;-0.119590215;-0.24676082;-0.14066653;0.21284868;-0.30971238;-0.110963546;0.025528092;-0.049846727;-0.10988896;0.30495915;-0.35664925;-0.085546374;-0.49949017;0.088061005;-0.27519748;0.1464149;-0.056896385;-0.138786;0.26258436;-0.1702022;-0.01168116;-0.063988864;-0.006845138;-0.14261217;-0.08852253;0.07048414;0.020989869;-0.009968829;0.15089914;-0.040658142;-0.12545738;-0.059960052;0.09046046;0.06296242;0.0031888818;0.007776657;-0.061524414;0.17193119;0.0528387;0.24823485;-0.16598362;0.1388848;-0.055060524;0.022212464;0.22988497;-0.21401767;-0.21743137;-0.20324144;0.2063448;-0.046690874;0.10712326;-0.02899592;-0.029736921;-0.08227411;0.34436446;-0.0032117865;0.03213678;-0.12833355;-0.36545527;-0.27085212;-0.070155755;0.23165019;0.022982787;-0.068704925;-0.088786356;-0.022898695;0.037663188;-0.10170387;-0.14125;0.18564479;-0.073594786;0.03508564;-0.06164463;0.07040711;0.09401003;0.22662492;0.006625966;-0.093349285;-0.123097345;0.05921678;-0.10118369;0.17376636;-0.039031345;0.23324123;0.18536387;-0.0486846;-0.12343201;0.35967365;-0.24344824;0.10653312;0.027437182;-0.05209136;0.019439777;0.1851509;0.026897853;0.04047294;0.032611907;0.35994568;-0.2577322;0.28013414;-0.34219536;-0.13655625;-0.14741911;-0.015240928;0.01166637;0.093964644;-0.108255364;-0.3929456;-0.084474504;0.1360819;-0.16730355;0.026537374;0.16490673;0.16678908;0.12306778;-0.16168752;0.31394964;0.002402204;0.0012576191;-0.14447974;-0.055520214;-0.09431714;-0.085902765;0.060738;-0.46543187;0.25685057;-0.24511567;0.18713932;0.042410992;-0.07423424;-0.33080906;-0.17739794;-0.18435322;-0.5174407;0.13532884;0.004871103;0.021464111;-0.040029634;0.07000616;-0.06841311;0.17175777;-0.016210124;-0.09508074;-0.025010949;0.20437337;0.024526535;0.060392376;0.10353645;0.23497023;-0.28322378;-0.11808565;0.051191278;-0.4449336;0.115199186;0.22301118;0.057661325;0.0016278574;-0.07560349;0.016252436;0.17189258;0.048666194;0.011174694;0.024338622;0.08975861;-0.07563966;-0.10678567;-0.011561585;-0.24617545;0.08442124;-0.09670843;-0.11753993;-0.1526909;-0.12886317;-0.013616107;-0.05307191;0.15799253;-0.04378116;0.07785586;-0.021797866;-0.016666923;-0.32753134;0.3358007;-0.25687772;-0.45794633;-0.021921923;0.17391863;-0.42308807;-0.18276267;-0.07155666;-0.021372484;0.09101189;-0.02640642;0.17966178;0.23153538;-0.10640146;0.10824663;-0.078771256;0.0009361959;0.051800165;-0.28797334;0.03959379;0.2633349;0.18984745;-0.04065079;-0.09621116;-0.30213767;-0.025321066;0.093363;0.07746357;-0.28170744;0.1543508;-0.09941722;0.44197154;-0.20460996;0.029100254;0.063235596;0.49455598;-0.16842555;0.059042577;-0.17641541;-0.26895395;-0.22015806;-0.19094598;0.12911099;0.08824471;0.066009976;-0.017167382;0.16995409;0.25912684;-0.10681674;-0.08131288;0.1039854;-0.10552927;0.07065863;0.4549853;-0.17101915;-0.1824155;0.017325873;0.049489353;0.20115592;-0.20625871;-0.111195005;0.01644011;-0.1204768;-0.035800982;0.04184561;-0.08910585;-0.0437524;0.13100474;-0.06479825;0.028209604;-0.03565985;-0.26787028;0.21374784;-0.124707505;0.10204152;0.12630266;-0.11092335;-0.07764306;-0.10278806;0.2934446;0.034682855;-0.12334288;-0.32609054;-0.10194737;0.24848379;0.025065055;-0.29322878;0.07544502;-0.0031799367;-0.6730537;0.07100703;0.026538573;-0.22368436;0.055485766;-0.16016738;0.04704119;-0.0065378067;0.09623729;-0.27656612;-0.04658703;0.030611575;0.057330236;0.014018825;-0.1689458;-0.24799746;-0.075162195;-0.17153509;-0.015963312;-0.058250967;0.030517586;-0.42576084;0.12110996;-0.30629602;0.099288315;-0.0038421922;-0.03676683;-0.039641388;0.53439707;-0.32995516;-0.18712634;-0.17897479;0.0043142014;-0.26258358;-0.14257774;-0.22438212;0.1654597;0.09193699;-0.240629;0.1723496;-0.104695626;0.15557046;-0.07282027;-0.031809196;0.24226946;-0.3825588;-0.3789943;0.20625809;0.05476561;-0.20958188;-0.07412646;0.06507796;0.0089090895;0.06783483;0.1350795;0.027166506;0.3530344;0.32999203;0.115590096;0.041751605;0.13721275;0.076315746;-0.16831371;-0.16953288;-0.14484556;0.3087424;-0.19196229;0.102055326;0.09425887;0.30073288;-0.16011237;-0.093798645;0.08550806;0.11568528;-0.074764505;0.19998085;0.1219026;-0.38698563;0.1421076;0.08849675;0.0936853;-0.047833227;-0.1681907;0.0706534;-0.4697063;0.046218738;-0.09836835;0.088891655;0.027405676;-0.1140126;0.0996096;0.31907448;-0.31986746;0.0051625315;-0.20615879;-0.0938267;0.0971282;-0.110892005;-0.087019384;0.16239613;0.22976194;-0.38749588;-0.082018755;-0.11536223;0.025664711;0.4087487;-0.15568848;0.3764165;0.08662804;0.28027403;0.045134913;0.23128241;0.020937216;-0.23097986;-0.2883939;-0.35614264;-0.20903327;0.037686955;-0.018229391;-0.22309731;-0.025188329;0.20309335;0.084829085;-0.04852025;0.09437877;-0.10722885;-0.081359535;0.09958622;-0.2839167;0.054941826;0.32051197;-0.26016128;0.014988167;0.03403451;0.03711682;0.23412117;0.19291838;0.087582864;-0.24319495;0.047051147;-0.5508754;0.049127165;0.26142234;0.10301329;-0.15286484;-0.10128108;-0.21997242;-0.020217087;0.0041617267;0.277704;0.17152521;-0.014220988;-0.18878935;0.11607894;0.1301681;0.10970999;-0.30934677;-0.19491202;0.12769498;-0.041573904;0.17703721;0.2910464;-0.19225952;0.1707943;0.20633452;0.15938106;0.07158768;0.03509477;0.050496798;0.03167126;0.2051085;0.06630973;0.37629586;0.08835429;0.36507773;-0.17170069;0.1047231;-0.08307497;0.25690612;0.030692613;-0.15836106;0.28725722;-0.15849632;0.09644008;-0.21225111;-0.020970438;0.036396213;-0.41951734;0.14099121;0.34274107;-0.12863934;0.30911008;0.057660606;-0.26475364;-0.32967377;0.22194314;-0.14151403;0.24483198;-0.20014416;-0.17497389;-0.06936631;-0.0310711;0.2035541;0.21693063;-0.16129982;-0.008916116;-0.053527698;0.450153;0.17116824;-0.0836977;0.24001305;0.21315774;-0.08456847;-0.26653558;-0.2496428;0.086768016;0.09975566;0.12709112;-0.12779331;0.17504905;0.0084908325;0.11405744;0.013642361;0.33543354;0.0965826;0.13492472;0.06587018;-0.03699694;-0.031771567;0.01938539;0.0023551297;-0.07080892;-0.025176952;-0.17344339;0.17851071;0.29075342;-0.15067759;-0.069618784;0.12741788;0.07276475;-0.2848952;-0.058855865;0.09542939;-0.11411647;0.18753149;0.028752808;0.045492854;0.16385974;-0.08987736;-0.3578093;-0.08175005;-0.18094918;-0.43906498;-0.21585993;-0.1415649;-0.25213736;-0.49336317;-0.18683979;0.25936875;0.3029832;0.08079018;0.32185462;-0.16725034;-0.24232209;-0.055876963;0.006664742;0.075039856;-0.46533114;-0.11660174;0.20701754;-0.07569253;0.07209282
-0.16281244;0.13234027;0.073754005;-0.070872895;0.05605388;-0.067143194;-0.051213454;-0.104034394;-0.051285252;-0.0021582409;0.3091833;-0.10907157;0.1551347;0.07767311;0.1598514;-0.26437488;-0.010429962;-0.09912649;0.08227041;0.1442844;0.08930363;-0.052893925;0.4048956;-0.056780316;-0.06617923;0.08225237;0.20997816;-0.10684619;0.0009293982;0.003929982;0.14236213;0.2470386;0.08518331;-0.18560126;0.28548503;-0.21423577;0.0057175094;-0.27788553;-0.2100295;-0.27217764;-0.030620417;0.1442806;0.05442722;0.26572224;-0.28908315;-0.1017369;-0.32621816;0.010350858;0.07519014;-0.30433953;-0.24889618;0.0010499064;-0.04329497;-0.13649802;0.15463403;-0.08868378;-0.26738414;-0.10339629;-0.18842147;0.02099848;-0.042399637;-0.14798336;-0.0766949;-0.037183937;0.035173044;-0.21999115;0.05041423;0.07257249;-0.04433686;0.08737818;0.060939472;0.1401222;-0.09926793;0.007800632;-0.085809425;0.18470968;0.14146958;-0.083571225;0.17791404;-0.41349602;-0.26794642;0.023997564;0.24254003;-0.07691223;0.2769106;0.19942039;0.21046713;-0.3388874;-0.116047025;-0.051014196;0.09539636;0.14159897;-0.19482367;0.10099576;0.46046323;-0.29837137;-0.025744041;-0.12940392;-0.043493535;-0.046057817;-0.06398993;0.17599122;-0.42167848;0.15461183;-0.16024983;0.052298512;0.002237347;0.2733622;-0.02103692;0.035075996;0.21028574;0.009659597;0.18598734;0.14608648;-0.11292922;0.06831885;0.14140509;0.1546774;0.02834548;-0.061287083;-0.06460179;0.16335098;-0.22427149;-0.2043045;-0.06103342;0.08717529;-0.07113121;0.26796463;0.33202514;0.023666307;0.21927573;0.035018932;-0.108156376;-0.057841964;-0.15739694;-0.015003875;0.009480785;0.08108262;-0.34444854;0.20233425;-0.26228756;0.11359217;-0.1713059;-0.04973517;-0.025468245;0.09231205;0.094609946;0.10213162;0.20797953;-0.10696243;0.14155506;0.023499921;0.0751569;-0.059690796;-0.0715982;0.114300385;0.08258278;0.1830603;-0.40082848;0.056678917;0.045136735;0.1858195;0.09952885;-0.22679672;-0.20396124;0.011263059;0.027422633;-0.06572252;0.19940138;0.11476842;-0.0059687197;-0.16839018;-0.113248385;-0.10022535;0.13055414;0.25601047;-0.10677009;-0.105440445;0.11350016;0.14910454;0.13795343;0.27399915;0.23363744;0.0045409813;0.023307351;0.06465874;0.0843929;-0.085914;0.06296962;-0.22168991;0.13696511;-0.07114711;-0.16823813;0.38860485;0.047410224;-0.07087686;-0.027233072;0.029659074;0.14069657;-0.06324716;-0.0106284665;-0.0837506;-0.10862083;0.29984874;-0.13728729;0.015549349;-0.22022003;-0.028785737;-0.1872898;0.12246464;0.015399613;0.12507682;-0.08217265;0.26031008;-0.19811502;0.19632232;-0.11291108;-0.16278239;0.10583847;0.23546773;-0.37439898;-0.11445039;-0.27045086;-0.27735174;0.27629513;-0.19178987;0.03328724;0.12574203;-0.121466294;0.2274242;-0.103150785;0.09426357;-0.27312717;-0.28053534;-0.016646117;0.051107455;0.25935256;-0.05542393;0.20746508;-0.09930109;0.022338552;0.18098684;0.054524124;-0.12813056;0.13638909;0.13026544;0.5901858;0.008995761;0.044880524;-0.12898701;-0.014701534;0.19500351;0.10432286;0.013782465;-0.23452479;0.09477964;0.17397493;0.18029661;-0.072028354;0.14373341;0.042638797;-0.31375816;0.3534394;-0.21708629;-0.051558718;0.072906666;-0.2958671;0.011931456;0.031122278;-0.2315524;0.23083046;0.04373032;0.09304826;0.17226796;-0.2558392;-0.023589518;0.08212651;-0.14218947;-0.09131509;-0.008127996;-0.07448153;0.10115682;-0.13237713;-0.04911894;0.133827;0.1241619;0.11390075;0.128483;-0.16748902;0.1394386;0.23138769;-0.3369862;-0.13590233;0.13743757;0.17697412;0.16828641;0.058525003;0.13075686;-0.12848982;0.17101339;-0.11629308;-0.41747755;-0.069412686;-0.02820712;-0.24413802;0.3591047;0.005526214;-0.18397827;0.028836953;-0.2511181;-0.26566106;-0.009777214;0.1903175;0.13459444;0.1438416;0.03470977;-0.054701123;-0.16337238;-0.13441642;0.12772559;-0.07033775;-0.14668316;0.07285593;0.19144645;-0.23160353;0.08640198;-0.012434487;-0.50446343;0.04526095;-0.06433645;-0.10979528;-0.165585;0.11030811;0.08263042;0.12639174;0.015265489;-0.15112478;-0.014537212;0.21659452;-0.14145602;0.07296347;0.11097795;0.069789045;0.06525083;0.16367957;0.05184609;0.067886375;-0.2613361;0.10896058;-0.12997669;-0.35949165;-0.22545612;0.00087853125;0.03464083;0.11880968;0.29199505;-0.14357202;0.08312815;-0.44145757;0.014382457;0.25425592;0.35865182;0.0031704567;-0.22097364;0.2736017;0.06932892;0.10866071;0.026599342;0.027072676;0.0024415804;-0.051900037;0.034398295;0.2600367;0.04423067;0.22588927;-0.19741793;-0.22095175;-0.24655971;0.036038935;0.028338298;-0.08971252;-0.11102861;0.23544884;-0.041668184;0.2205912;0.18674402;-0.19688344;0.12367784;-0.44334018;-0.070773505;0.11077854;-0.20611699;0.031411745;-0.07993636;0.07139545;0.035479356;0.031778287;-0.053447194;-0.20085502;-0.19758762;0.25445405;-0.051950417;-0.23015176;0.1288662;0.38363162;-0.42481816;-0.14616033;-0.0829063;-0.1291451;0.017587945;-0.19203581;0.12229828;0.010493885;0.11204592;0.2663502;0.050485823;-0.08542344;0.019356046;0.17054175;0.17542788;-0.25567225;0.08267131;0.30964062;0.12977035;-0.113150425;0.080245234;-0.2125175;0.39347184;-0.01083062;0.0059967376;-0.04831934;0.22993362;-0.23411022;-0.108268045;0.19171323;-0.13328283;-0.0016444474;0.15992376;-0.35771015;0.028686438;0.099646986;-0.08711604;0.014136618;-0.04089973;0.0036573776;-0.17080984;0.041690994;0.06741746;-0.12552503;-0.27628866;-0.26416153;-0.11781063;0.103699304;0.1187635;0.2858952;-0.07020709;-0.1790662;0.18628345;0.009731302;-0.103389315;-0.23721658;-0.09624712;0.10794738;0.14860357;0.35832345;0.34055558;0.18921942;-0.021511482;-0.18482642;0.04221573;0.2699684;0.30804497;0.084110305;0.07284895;0.03480946;0.014312561;0.33441406;0.021592056;0.17808403;-0.11874908;0.1234078;0.1685509;0.10561418;0.06477832;-0.15027462;0.26238522;0.22116204;-0.12759577;-0.0074069765;-0.025899837;-0.23296383;-0.3238229;0.23625799;0.2200867;-0.07163912;-0.08899316;0.19486329;-0.10839846;-0.07258711;0.015551142;-0.2197233;-0.017362595;0.02041379;-0.3152037;0.025764566;-0.0057655526;0.15822574;0.20102091;0.32920632;0.08288074;-0.042193417;0.10510468;0.22072339;0.21798036;0.0045523536;0.38345745;-0.05851379;-0.15309158;-0.080689296;0.0064074066;0.20145805;0.21488374;-0.17366235;-0.040716987;0.08781039;0.17796119;0.089321695;-0.046879023;0.110633254;0.053321287;-0.081476696;-0.06336551;0.027761685;-0.33175606;-0.14453909;-0.18356796;-0.11927762;-0.14821333;0.11651705;0.028917493;0.057402294;0.32229647;0.37424645;-0.04619339;-0.12508939;0.10638752;0.18226655;-0.14522631;0.41538376;0.102126025;-0.03358985;-0.045429315;0.043178927;-0.20133822;-0.0053358204;-0.19247518;-0.2549299;0.10233018;0.11840499;-0.2599845;-0.3116559;-0.15139277;0.019597368;0.077838935;0.028414747;0.048236046;-0.026349282;0.12417471;0.10742613;-0.003692634;-0.17760544;0.074501246;-0.14465865;0.04821326;-0.08704932;0.3436115
0.06458435;0.1329462;0.118601084;-0.094959594;0.04798007;-0.09698756;-0.014314105;0.26117346;-0.026582945;-0.19258648;0.32073206;-0.13294049;0.24063984;0.1909283;-0.026855247;-0.25681683;-0.008201554;0.349852;0.10915094;0.089320995;0.24010223;0.16417253;0.057580374;0.22365029;0.18716347;0.083425485;0.13536693;-0.048580214;-0.17188345;-0.111608125;0.1652651;0.16144596;-0.06767113;-0.18942161;0.079947054;-0.13625398;0.3584017;-0.2818226;-0.1498456;-0.1980665;-0.0024812876;0.06386785;0.03449145;0.2035342;-0.166678;-0.023194669;-0.090100735;0.20922582;-0.013806422;-0.09858686;-0.28884575;-0.01934254;0.06614966;-0.19761235;0.054623;0.18171307;0.033568785;-0.22902475;-0.03549274;0.0512277;-0.058584873;-0.26148754;0.10643797;-0.075306565;0.009369393;-0.12104039;0.054149464;0.07550402;0.07814653;-0.068668135;0.13545643;0.098380886;0.08706156;0.046166424;-0.17460965;-0.069385104;0.16670312;-0.06278884;-0.020094324;-0.28820226;-0.14783786;-0.22213939;0.004366839;-0.12369798;0.077602684;0.004989799;0.08670046;-0.041315317;0.07633015;0.08972046;0.11345524;-0.12064095;-0.115368076;0.19597232;0.38535658;-0.40975568;0.14836188;-0.12700352;-0.117528185;-0.03534496;0.05291749;-0.12939352;-0.15818664;-0.026132023;-0.23137325;0.14377753;-0.06259429;0.3040642;0.06765685;-0.199467;-0.03147962;0.06580062;0.34899372;0.2200155;0.0365145;0.10045478;0.13507776;0.34260482;-0.1852126;-0.33844334;0.20999776;0.1236243;-0.16860287;-0.07015535;-0.011709061;0.12498988;-0.17965043;0.30713;0.30387986;0.11020396;0.06410474;0.059559938;0.07979786;-0.019775763;0.14458002;-0.046948303;0.43612686;0.17356934;-0.52276504;-0.04030219;-0.21321008;0.25766093;-0.21156175;-0.07568583;0.120732866;-0.14850558;0.11789402;0.042113695;0.33595255;-0.17039596;0.25087497;-0.29416823;0.13923699;0.149657;0.16735777;0.05622334;-0.17357443;-0.061153464;-0.63050324;0.2607118;0.17212217;0.21748035;0.0512847;-0.20652395;-0.1442672;0.009044748;0.054069098;-0.24481043;0.113660336;-0.11588984;0.0013475578;-0.17967376;0.023894053;-0.08949575;0.0332082;-0.12488125;-0.18905729;-0.12503651;0.110228434;0.009448739;0.0474103;0.088090844;0.32591674;0.32161123;0.001001314;-0.04471463;0.122629724;-0.011676964;-0.13222334;-0.37431908;0.0668007;-0.17610079;0.02719508;-0.010784155;0.25025433;-0.021136357;0.08275493;-0.01852746;-0.006037212;0.11278329;0.05182233;-0.052223686;-0.12996535;-0.2429897;-0.15904517;0.15559378;-0.093408905;0.004361979;-0.079364605;-0.3060254;-0.1291753;0.020524083;0.13560517;0.25430804;-0.019492393;0.035142172;0.002649617;-0.112343535;0.2364226;0.04513347;0.0357268;-0.2033046;0.37672153;-0.22077774;0.059920236;-0.17460431;0.16616426;0.30755496;-0.040124014;0.014853131;-0.21307863;-0.0012955831;-0.020295724;-0.17515023;-0.017247282;0.0973272;0.22245575;0.11280433;0.22997187;-0.017734077;0.035889387;-0.07465913;0.045983654;-0.20391631;0.06540713;-0.046481352;0.35679907;-0.24644572;0.06873023;-0.06991403;0.14281197;-0.0643233;0.14986245;0.034303028;-0.18670051;-0.023075787;-0.43370563;0.168744;0.13350399;0.1415984;-0.102609575;-0.41923162;0.51485634;-0.060906857;0.01823079;0.07749821;-0.15843342;-0.16948614;0.21428494;0.09431768;0.10236239;0.13941154;-0.03888213;-0.013321725;0.06036922;-0.042568486;-0.059670363;-0.1188001;-0.152077;-0.30135798;0.007882412;0.0076561375;-0.16739267;-0.22029647;0.48853868;0.19926229;0.17736952;0.04118913;-0.0956958;0.20240305;0.3538593;-0.516065;-0.28037354;-0.052113615;0.05466493;0.10874745;0.10504353;0.010930306;-0.074643895;0.038311277;0.017397664;-0.35075122;-0.08350579;0.006698922;0.0052608433;0.21432205;0.09753808;-0.048100375;0.05488054;-0.21543194;-0.24383193;0.052203625;0.1316496;0.21647796;-0.09088893;-0.3795497;0.14935419;0.086314805;-0.13041718;0.39672095;-0.15871154;0.1203773;0.06434405;0.1208451;-0.07823781;0.055868216;0.127315;-0.58642113;0.16140619;-0.07222561;0.009936877;-0.33787993;0.12720963;0.14000538;0.10742728;-0.25976932;-0.14196283;0.073326945;-0.094812185;0.064463474;-0.22859314;0.004374587;0.14581354;0.32420632;-0.023583159;0.053956598;0.029495498;0.010583462;-0.03766519;0.21325855;-0.2764086;-0.15978557;-0.021449763;-0.050900284;-0.50072265;0.0022645527;-0.17627151;0.2382437;-0.40398812;-0.001766106;0.09921151;0.13312335;-0.110984355;-0.23379934;0.05405343;0.2026405;0.085158005;0.17259991;-0.03764367;0.014649711;0.01805885;-0.0402581;0.25661698;0.24432811;-0.29623473;-0.066548266;-0.10562322;-0.17523599;-0.13258427;0.04128653;-0.053431783;0.06260746;-0.098914534;-0.021796776;0.12646244;0.14898132;-0.21895863;0.1361114;-0.49815607;-0.13176844;0.29488844;0.085907385;0.1242403;0.0064890767;0.062441263;-0.09591798;0.1986272;-0.21715438;-0.1614592;0.07388933;0.16955906;0.09501187;-0.08645065;0.0056173867;0.31447318;-0.23679276;0.18781945;-0.006134952;-0.07282883;-0.28477302;0.014216957;-0.16514012;0.072933644;0.15962511;0.08973661;0.028891612;-0.047119014;0.08034196;0.068735056;0.2006172;0.13978791;0.14485677;-0.12527612;-0.011327475;-0.0933367;-0.14539613;0.12829868;0.20694302;-0.18403505;0.14273833;-0.11043231;0.32429823;-0.16641723;-0.016270712;0.309544;-0.15196705;-0.026517622;0.4570955;-0.27261296;0.050636556;-0.114776;-0.33176908;-0.09418583;-0.20250253;-0.13529582;0.14620245;-0.0045787753;0.2099846;-0.18776749;0.0396757;-0.11065492;0.14031343;0.19163617;-0.10307035;0.2806627;0.035258397;0.0015370565;0.078596026;-0.0053497027;0.06509926;-0.025782255;-0.4020765;0.22889811;-0.13112685;0.28145716;0.40714902;0.4249826;-0.03087752;-0.0438502;0.0491769;0.23466599;0.38168582;0.24460721;0.1387287;0.20576335;0.09394814;0.07352765;0.13503593;0.15284306;-0.14968748;0.37114108;0.1934369;-0.07720629;-0.060123168;-0.20426086;-0.2080289;0.0967199;0.028399993;-0.1994008;-0.2510529;-0.030874047;-0.39788514;0.20566013;0.25699064;0.1675355;0.19544357;0.1992308;0.004900359;0.007723125;-0.18053107;-0.34297392;-0.22064908;-0.1381011;-0.026227493;-0.39485487;-0.051886506;-0.050936162;0.11833784;-0.06271448;-0.39184585;-0.014959203;0.30350137;0.08303627;0.06695593;0.13318995;-0.046383947;-0.25078928;-0.40849176;-0.20964894;-0.0769065;0.1208168;0.1648586;0.123522796;0.0002321158;0.124038704;0.21320626;0.047066115;-0.10952344;0.003996506;-0.073596336;0.022288313;0.1205087;0.15252231;-0.3983143;-0.32018292;-0.10015803;-0.022882214;0.039009467;0.04905283;-0.010584452;0.15623277;0.21554981;-0.24142405;0.43197182;0.11620078;0.10072762;0.000899039;0.030641127;0.32597494;-0.07898439;-0.047578882;-0.01124734;-0.035415616;-0.1506173;-0.16922747;-0.23798701;-0.070795685;-0.007495036;0.0034778866;-0.010979927;0.3047818;-0.07086547;-0.2544074;0.06663543;-0.1564364;-0.004026879;-0.11159237;-0.15864906;0.17673177;0.051745553;-0.05982438;-0.076543644;-0.23604766;0.13808286;0.16160454;0.12628916
-0.31141943;-0.022186818;0.13731362;-0.31723928;0.0653519;-0.11224992;-0.015700221;0.067906;0.03408266;-0.19703728;0.17259064;0.15187943;0.10468082;-0.07268344;-0.05075959;-0.39645493;0.25185394;0.116140515;0.19524415;0.23813841;0.025520982;0.2250164;0.14885235;0.14415562;0.09210188;-0.02643264;0.11461251;-0.17471127;-0.0768967;-0.29957578;-0.010438797;-0.00944207;-0.01026823;-0.13352995;0.05319194;-0.083585255;-0.09569332;-0.21517573;-0.18149531;-0.028133905;0.13827014;-0.08221312;0.058881696;0.21802348;-0.3614513;0.11352439;-0.066823095;0.23749562;-0.0934787;-0.13625723;-0.10832821;0.19577684;0.051541522;-0.13446711;0.17962053;-0.045721915;0.28161627;-0.06889376;-0.010830612;-0.03317649;0.020685447;-0.18818676;-0.25259736;0.03940252;0.20345609;0.032310143;0.0041377717;0.06257859;-0.028842777;-0.014847553;0.02417452;0.024543421;-0.021042947;0.13086581;-0.078666344;0.026603488;0.21787283;-0.011419148;0.057849128;-0.39162272;0.1559614;-0.08655103;0.02566945;-0.22504729;-0.10344927;0.0060548177;0.13041599;-0.035296906;0.1524726;0.3028625;0.08709426;-0.01904986;0.1301361;-0.15536553;0.38195336;-0.21652168;0.05722481;-0.16596366;-0.021170637;0.07763847;0.22433594;-0.11437182;-0.2938894;-0.07141916;-0.21992007;0.1829711;-0.15948738;0.22255382;-0.1004388;0.36977246;0.11843108;-0.20160078;-0.04729012;0.02079816;0.028715163;-0.15901127;0.14648105;0.19472899;0.16150586;-0.14214602;0.0572306;0.09795846;-0.11284347;-0.1193377;-0.014633359;-0.052104298;-0.22338611;0.15195788;0.13979743;0.007564623;-0.05170243;0.111101665;0.10698879;-0.042631365;0.004210564;-0.09006873;0.194687;-0.17083417;-0.04433164;0.078254946;-0.06728596;-0.00040226371;-0.23758838;0.45177132;0.041603975;-0.12881087;0.21523665;0.24550746;0.117004536;-0.1827268;0.14744782;-0.048229992;0.053888906;0.2102809;0.0031560934;-0.13196155;-0.22704154;0.002543704;-0.51766586;0.17680764;0.029582255;-0.020305898;0.108292535;-0.32648015;-0.22286294;-0.2418244;0.065562494;0.029895067;0.15042175;-0.19343247;0.027066743;-0.0638303;0.1622699;0.003057211;-0.10512893;0.12009791;0.06261115;-0.07228837;0.19149175;0.04934426;0.09636666;-0.16216008;0.29635888;0.18636735;-0.012074283;-0.10090391;-0.04777638;0.06600597;-0.107256144;-0.2684114;0.20934755;0.040383846;0.116733834;-0.07762905;0.12554021;-0.054017007;-0.12278853;-0.01260743;0.16785541;0.05049437;-0.056591876;0.17535043;0.08290505;-0.39739916;-0.089015044;-0.24210091;-0.03411505;-0.04168411;-0.2349512;-0.37108356;-0.2395799;0.10871051;0.30018774;0.03460877;-0.13884468;-0.11603892;-0.44191483;0.038983963;0.0144857755;-0.11715253;-0.12617762;-0.20818718;0.18593776;-0.4976981;-0.019675763;-0.16330366;0.21891342;0.32607037;0.091166906;0.2560429;-0.10775023;0.05422967;0.15208688;-0.035359357;-0.11894645;0.15466902;0.19045287;0.2517918;0.20400843;0.016944494;0.16425927;0.08224598;0.24925485;0.017406361;0.0152147915;0.081564;0.37166572;-0.113753006;0.22346847;-0.027593343;0.08262964;-0.17609271;0.15113533;-0.0039949506;-0.3832899;-0.32803196;-0.6400009;-0.06010173;0.1825109;-0.01901704;-0.24361764;-0.2573588;0.35784584;-0.06541636;-0.039159097;0.16235767;-0.22990753;0.036696143;0.34833294;0.04021902;0.090548284;0.02389288;0.04920028;0.0956773;-0.09863133;-0.019551834;-0.20466591;0.12841788;-0.05410222;-0.20767112;0.07483066;0.14843105;-0.05120021;-0.128554;0.15357041;-0.104898684;0.11621681;0.022170752;0.07522516;-0.12383152;0.029928338;-0.04604746;0.059800953;-0.071903616;0.07767144;0.18631977;-0.10196959;0.011526856;-0.19021933;-0.11140285;0.1697811;-0.22549161;-0.062764205;-0.12718572;0.10282881;0.010992111;-0.023896296;-0.021574458;0.047111962;-0.19903514;-0.0761851;-0.24602017;0.1876954;0.23970029;0.09659119;0.15349305;0.36966008;0.06796385;0.058727402;0.3193144;0.045421354;-0.06117363;-0.22964172;0.18490861;-0.04867147;0.010528504;-0.15882652;-0.30676308;0.25159428;-0.17010738;0.06943616;-0.25960925;0.28272966;0.13907711;-0.13494222;-0.22954974;0.043966427;0.12032439;-0.14703098;-0.07203501;-0.07849899;0.08452489;0.033102386;0.16832018;-0.23311378;0.12973718;0.07295968;0.031751845;-0.13066968;-0.18451703;0.105135806;0.033845786;0.10632673;-0.23059662;-0.37620863;0.22650468;0.019778566;0.19754548;0.1704471;0.1560436;-0.0075654844;0.16377097;-0.15475693;-0.4170693;-0.009918249;0.24801739;-0.046149235;0.14783673;-0.014436237;0.0941778;-0.23460127;0.2762082;0.23288938;-0.008853602;-0.32269993;-0.26731315;-0.121109046;-0.18042575;-0.07907925;0.104436174;0.08841778;-0.08962221;-0.08945767;0.12113021;-0.06010155;0.30471757;0.027817747;0.13949874;-0.40945596;-0.052521713;0.09781206;0.19363567;0.061981183;0.1945157;-0.04587074;-0.16400947;0.084009655;-0.2888882;0.09997139;0.10792191;-0.02492939;0.035004664;-0.11969371;0.0785498;0.46259058;-0.013964096;0.009652537;0.06771159;-0.24613552;0.09292061;-0.1509507;-0.07731988;-0.03126252;0.30132356;0.056376196;-0.012973685;0.08772473;-0.3316344;-0.2904219;0.12642327;-0.18976416;-0.0921494;0.07395174;0.201322;-0.041271064;-0.047347274;0.18039368;-0.05378657;-0.0060270024;0.15167047;-0.22627585;0.24962617;0.029147493;0.056934964;0.21235704;-0.05051657;-0.20031525;0.18494265;-0.35589635;0.11033359;-0.06591976;-0.05586469;-0.09843875;0.18129705;0.007725872;-0.08977364;0.19783922;0.1769834;-0.02361773;0.022373931;-0.06874789;0.4780102;0.21102826;-0.066548765;0.044340935;0.039868347;0.0037403596;-0.0074784677;-0.17793806;-0.013004035;0.017225469;-0.20157157;-0.014984673;-0.23378764;0.18230438;0.2771776;0.43964627;0.13779989;0.039567415;-0.017262444;0.08412303;0.1927309;0.25236666;0.19238594;0.31524724;0.22301783;0.12185526;0.08495865;0.07858002;-0.05806134;0.20177165;0.05630741;0.053971466;0.3708669;-0.1369805;-0.038336944;-0.16769151;-0.061632868;-0.16050799;-0.32238972;-0.19910556;-0.53722936;-0.07430578;0.063508354;0.07346499;0.16388826;0.07059145;0.024541521;0.07995573;-0.061192147;-0.41724068;-0.1517763;0.12786369;0.26715496;-0.23314744;0.040467344;-0.2594997;0.17854127;-0.001815028;-0.30755186;0.09323929;0.11149318;0.029803356;0.13906266;-0.003389331;-0.22657582;-0.3069165;-0.13953449;-0.13070273;-0.054417755;0.047872137;0.10531799;-0.06965293;-0.082759425;0.028917732;0.061247595;0.12473613;0.12284078;0.016413026;0.24653797;0.07845698;-0.08328478;-0.010798506;-0.061184857;-0.025411913;0.012515527;0.016804729;-0.16068238;-0.39084068;-0.019767217;0.4313878;0.1974528;-0.24068053;-0.08726061;-0.06584195;0.19757943;0.21284963;0.27277407;0.13476026;-0.09910787;-0.011317279;-0.3807364;0.0927265;0.09244577;0.12381093;-0.215707;0.08116274;-0.13342345;-0.036691964;0.12745678;0.039999865;-0.05988348;0.14033689;-0.098232366;-0.45974538;-0.0061285207;0.10672501;-0.03773792;0.055106718;0.20535274;-0.14959113;0.13955745;-0.33196852;0.046966184;0.26586553;0.17715345
0.029348176;-0.10019331;0.021411054;-0.11731715;-0.20449491;-0.039220344;0.042929847;-0.02610627;-0.07291953;-0.15493415;0.09434712;0.10733272;-0.09804411;0.23906021;0.03828323;0.00795273;0.0945561;0.051764254;0.16663358;0.13809554;-0.21590672;0.088975854;-0.07953831;0.18311669;-0.06633099;0.01919038;0.13817346;-0.14446701;-0.15751748;-0.46963218;0.25831237;0.012443535;-0.06762853;-0.32103378;0.1756782;-0.244316;0.17006023;-0.17546335;-0.16365674;0.093562216;0.08463794;0.22623457;0.23854747;0.1363874;-0.25339466;0.17855212;0.015286447;0.08815468;-0.073442206;-0.009922417;-0.056910507;-0.023299137;-0.10915552;0.061547894;0.18604098;-0.1244092;0.2115006;0.24648003;-0.15154648;-0.038839754;0.033330165;-0.254575;-0.09321022;-0.023501903;-0.12997434;-0.12357347;-0.11669044;0.1677568;0.11828841;-0.022201635;0.059106622;0.07965427;-0.038525544;0.44454962;0.06196141;0.064386934;0.11386801;-0.14420556;0.14074764;-0.23688817;0.20590822;-0.35790825;-0.06777959;-0.23649445;-0.21003745;-0.12645075;-0.13210493;0.1991517;0.2860099;0.043352086;0.08741671;0.2540928;-0.09279198;-0.24597193;0.08431333;-0.2615144;0.14874913;-0.30550122;-0.13801116;-0.1789926;0.1941249;0.10068983;-0.22083311;-0.26433674;-0.2861387;0.25387463;-0.197797;0.03686204;0.050228823;-0.20442814;0.0016857045;-0.19640076;0.33495748;-0.18075117;-0.0888993;-0.023009334;0.07402829;-0.0033649735;0.17592654;-0.21376903;0.046442285;0.29315674;0.019933717;0.034928735;0.10150686;0.20869793;-0.16501251;-0.022380589;0.037662;-0.13925081;-0.1551421;0.10884848;0.3308679;-0.10973392;-0.021083502;-0.103697404;0.08535374;-0.050715547;-0.02181662;-0.1666268;-0.1932029;-0.046562318;-0.36255345;0.43267366;0.13669172;-0.04563085;0.4539921;-0.03628251;0.07180973;-0.06852334;0.19907716;0.026565757;0.1059913;0.31993547;0.038500287;0.0369747;-0.19262601;-0.16561998;-0.21674742;0.32874274;0.060455695;-0.07559602;0.06789693;-0.041533366;-0.34213692;0.004898113;0.02655549;-0.1520001;0.28206226;0.015095511;0.11320973;-0.2212678;-0.010953719;0.0112048015;-0.06550483;-0.11017961;-0.2519387;-0.12397597;0.09941006;0.22834633;0.04610286;0.021831332;0.20430234;-0.08900259;0.0017630864;-0.28746638;-0.15503004;-0.072155476;0.2470541;0.04896832;0.32504365;-0.056221332;0.06372995;0.091426626;-0.13562472;-0.07471524;-0.0590915;0.1764121;-0.03896618;0.23506498;0.023467202;0.12952837;-0.029642466;-0.09404532;-0.0017503762;-0.2384988;-0.15065637;0.09611541;-0.06851264;-0.35951245;-0.16755061;0.20568419;0.3170696;-0.076498725;-0.15827394;0.0021133677;-0.17528714;0.068373725;-0.009551514;-0.121139765;-0.17638321;-0.18337338;0.2605801;-0.059211317;0.19277637;0.042245343;0.012259339;0.056193493;-0.04527281;0.15709305;-0.15096276;0.17956622;-0.24760482;-0.114954196;0.018300261;0.15746035;-0.038099244;0.006808611;0.3775369;0.12321707;0.016509974;0.19276148;0.19418846;0.064946875;0.016291572;0.3248792;0.07845963;-0.34739837;-0.08272008;-0.24123435;0.25505403;0.08750018;-0.10655866;-0.09497383;-0.22294883;-0.008988027;-0.34780866;-0.061206505;0.4717339;-0.16244394;0.0353541;-0.5477227;0.06298705;-0.18655623;-0.087838955;0.05389015;-0.1512071;0.20558268;0.17748043;0.10597814;0.18712878;-0.1007888;-0.049465716;0.053013753;-0.17288359;-0.14818843;-0.03939295;0.023528822;-0.11374356;-0.030906072;-0.032218564;-0.10769352;-0.4134415;0.056219433;0.013280955;-0.061584964;0.02716937;0.38669404;0.010702671;0.07357075;-0.06898174;-0.16617873;0.06383256;-0.1442443;0.18370438;-0.017702244;0.06507326;0.015852423;-0.008620323;-0.10295976;0.18162271;-0.23792882;0.039657425;-0.2647667;-0.13721491;0.012275957;0.21362273;0.29463133;-0.024066275;-0.118603386;0.08923079;0.32444596;0.24819985;-0.08071508;-0.017888984;0.086910665;0.42580146;-0.120420165;0.04226279;0.45533845;-0.0046300003;-0.02383334;-0.22479452;0.3403104;-0.085043386;-0.027477015;-0.12221091;0.009727677;0.18012354;-0.16414796;0.1920014;-0.33184108;0.39935783;0.23097163;-0.32969108;-9.3207185e-05;-0.032095987;-0.06734485;-0.06003648;0.0017522515;-0.19206218;0.00092259055;-0.27266252;-0.031990092;0.016681364;0.15603133;0.2609464;0.11601521;-0.12444819;-0.29864582;0.24029845;0.10121449;0.034427855;0.0251318;-0.26507258;0.18162048;-0.06024292;0.28144285;0.39167306;-0.12622349;-0.008565831;0.013385802;-0.37428156;-0.30946803;-0.17346604;0.2181623;-0.001869664;-0.17692673;0.021061964;-0.07457582;-0.17381541;0.21954167;0.32507524;-0.004488309;-0.4802145;0.13078763;-0.31245786;0.23452361;0.2852729;0.12630223;0.15262529;0.1272114;-0.16029152;0.42547026;-0.20803615;0.16216594;0.079584844;-0.008474118;-0.11144408;0.02421717;0.089784294;0.24913006;0.062939756;-0.007094245;-0.15476467;-0.057565;0.029404318;-0.30760977;0.015284989;0.114940025;-0.060118884;-0.2919256;0.0797738;0.033234637;0.13455802;0.048814338;-0.06835194;-0.009408384;0.015916409;0.018583154;0.06538543;0.02223118;0.03030448;0.35278344;-9.1080095e-05;0.1243276;0.115158245;-0.027342938;0.006495508;-0.18012577;-0.22488436;-0.0009446628;-0.031593934;0.15899725;0.111752145;0.075564675;0.24924248;-0.039643247;0.00012590039;-0.05243884;-0.36220813;0.3560449;0.07252044;-0.098521724;0.0716161;0.17846741;0.0981896;0.4503461;-0.26295146;0.12640622;-0.09256366;0.1028697;0.1814804;0.2031993;-0.05496747;-0.12902276;0.19632076;-0.13764188;0.06987382;-0.16984774;-0.08354898;0.26830876;0.041125473;0.040305506;0.08691509;0.12093697;0.5203415;-0.27656615;-0.1883043;-0.030280994;-0.0765174;-0.1395885;-0.1566947;0.15742548;0.14388664;0.26119688;0.36050588;0.24355653;0.19153233;-0.14048453;0.1138685;-0.025868181;0.20717055;0.025635056;-0.099440075;0.15652011;-0.08613829;0.058396567;-0.14363721;-0.12589148;0.028554497;0.12421349;0.06983217;0.17144108;-0.32635233;0.098888524;-0.2906946;0.0142930485;0.14255384;-0.053494286;0.018622452;-0.12902813;-0.27354106;0.17885798;0.23480922;0.20337765;0.1569778;-0.10751664;-0.094132654;-0.018259672;-0.18930253;-0.115909;0.043876406;0.2358504;-0.11647814;-0.15375529;0.06358245;0.053860277;0.01976585;-0.21859238;0.061601475;0.16755584;0.023489952;0.015917849;0.10071553;0.031164052;-0.17483331;0.10526889;-0.21005982;0.14688121;0.093690425;0.08702484;0.12616459;-0.22264168;-0.009402427;0.053123366;0.20161727;0.17162171;0.0052468996;0.070022546;-0.06568292;-0.1935443;0.08375227;-0.20988083;0.2222229;0.16880086;0.010022298;0.079786465;-0.102189735;0.18787898;0.049588334;0.25344476;-0.136233;0.08767007;-0.073594294;0.11846498;0.037291493;0.293316;0.17157777;-0.044351365;-0.08422501;-0.007565139;-0.126672;0.0061453003;-0.12416566;-0.019060226;0.16733247;0.07640004;0.08233601;0.010834804;0.103000745;0.0061060986;0.25581717;-0.2663687;-0.57067907;-0.12128238;0.0772979;0.0007431568;0.13594247;0.1743538;-0.042746283;-0.24991158;-0.14558917;0.009808863;0.11743836;-0.31028026
-0.16689505;-0.065913014;0.08579374;-0.12335057;-0.2368335;0.0124462;-0.06280972;-0.1900539;-0.079190366;0.10582732;-0.25169095;-0.20240222;0.028080083;0.21270716;0.35117263;-0.0016175008;0.16797204;-0.013099453;0.18710683;0.092150025;0.0018377127;0.07803252;0.11902317;0.11754562;-0.31321475;-0.0052324766;-0.02587438;0.027056517;-0.30515122;-0.47097668;0.34641296;0.06455337;0.022686189;-0.015623534;-0.025220584;-0.23491219;-0.0018367651;-0.019702552;-0.29656747;-0.05328651;0.13424431;0.1976837;0.28698087;0.08414585;-0.15909952;0.08724706;0.027030354;0.33887693;-0.11102252;0.017933117;0.17597397;-0.06346431;0.1881841;0.005200601;0.046603482;0.36261877;-0.04066722;0.16730888;-0.108739376;-0.029624972;0.00847209;-0.15549998;-0.25808382;-0.013500131;-0.032971844;-0.043565303;0.0050691804;0.12714338;0.077232525;0.05187173;0.2271407;0.027453696;-0.014470363;0.06053487;0.11263297;-0.032843247;0.06818824;0.04252803;0.04397829;0.018584186;0.23667867;-0.019639071;0.040238548;-0.17361595;0.016957972;-0.16659284;-0.006335438;0.11763277;0.3734178;-0.07211392;0.24406563;0.2691219;-0.26203087;0.054946505;0.23800126;0.2659644;-0.14782381;-0.47347358;0.0670814;-0.31953436;-0.0476015;-0.005654225;-0.23872429;0.0045672567;-0.007453259;0.41771433;0.040683955;-0.06842412;-0.19276634;-0.51236635;0.017231977;-0.028585533;0.32062754;-0.15082954;-0.5460261;-0.23229031;0.056768786;-0.048401408;0.032533348;-0.030308753;0.035795476;0.03387687;-0.06448354;0.1787518;0.061352614;0.057207447;-0.1750114;-0.059760697;-0.03700555;-0.25832316;0.09299761;0.34174472;0.24449706;-0.5498416;-0.13161457;0.10620965;0.26982692;-0.2877696;-0.15873227;-0.21649836;-0.0781592;0.030538786;-0.11399099;-0.0014426846;0.056107856;0.013516264;0.29812762;-0.048398525;-0.21108392;-0.0123761855;0.15206645;-0.119936496;0.0409486;0.12129782;0.24391307;0.17536066;-0.059007224;-0.17790534;-0.16422844;0.0025549638;-0.10250113;-0.14564651;0.056207325;-0.10767449;-0.3716781;-0.0037609388;0.13647667;-0.085638136;0.22827536;0.25882223;-0.092429355;-0.07031019;-0.12373524;0.075968646;0.05642305;-0.035705276;-0.04536648;-0.12900674;-0.052525792;0.046357933;-0.25362793;-0.035956576;0.32693502;-0.05951926;-0.19781984;-0.06479749;-0.071679145;0.15543583;-0.26972428;-0.24438795;0.013453597;0.11051557;0.026122028;-0.16820781;-0.096400514;-0.17527708;0.0530212;0.169361;0.113864966;0.52165985;-0.056709375;0.06744211;0.035158496;-0.15799727;0.07066163;-0.28655535;0.11588153;0.25239226;0.017000547;-0.1685601;-0.24202305;0.24521638;0.06716828;0.16779685;-0.2632001;-0.12481034;-0.11220262;-0.09844484;-0.061630707;-0.055482533;-0.43711308;-0.1285593;-0.49842384;-0.1352969;0.19985616;0.009865712;-0.019399155;0.05379685;-0.27131167;0.08747143;-0.1680207;0.031038806;-0.41772637;0.046233635;0.2363631;0.22205491;0.036889188;0.09069557;0.3602957;0.045081086;-0.10897432;0.3029635;0.24209602;-0.23424408;-0.03356851;0.37905264;0.22715685;-0.14923342;0.17937489;-0.18308015;-0.025156211;-0.01591239;0.1219741;-0.03286882;-0.07227424;0.41929957;0.033625454;0.060346927;0.2986578;-0.1892542;-0.094312854;-0.2678197;-0.014857784;-0.030215418;0.10986752;0.20990023;0.08091958;0.01942733;0.017069137;-0.09276518;0.002902765;-0.119051136;-0.09068232;0.17359728;0.05317855;-0.11249734;-0.12112688;0.014598877;0.17456876;0.1962596;0.09016471;-0.06643497;-0.14076482;-0.048071053;-0.34924996;0.109469466;0.18964492;0.113695845;0.06099994;-0.11116836;-0.15750095;-0.10589228;0.09396199;0.07736237;0.0145606175;0.06738367;0.073020935;0.014591148;-0.11525345;0.20663106;0.1641046;-0.0228025;0.0062889396;-0.052127585;0.06651606;0.43819937;0.102845356;-0.046268973;-0.107361235;0.04117011;0.10315238;0.29260984;-0.08154198;-0.23048016;0.097678244;-0.10235725;0.07971357;-0.053822078;-0.11839269;0.41711873;0.037373945;0.21241407;-0.1314664;0.08459716;0.03886212;-0.032389723;-0.11093342;0.38146472;0.17630374;-0.09870493;0.27257925;0.115890734;0.30829707;0.13399656;-0.11144725;-0.010384134;-0.010837743;0.14194654;0.0064591253;-0.09625789;-0.15730779;0.10694303;-0.26450014;-0.020348085;-0.0005041518;-0.09940366;0.35963643;0.13057268;-0.033276062;-0.072564386;0.18622163;-0.08548383;0.051915437;0.05890076;-0.111170046;0.044052318;0.06144238;0.19652745;-0.09935081;0.06450366;-0.038785197;0.17644766;0.19662347;-0.019347483;-0.07544537;0.12235608;-0.2538061;0.08424518;0.019758936;0.058485903;-0.1436598;0.3509951;0.035973318;0.048627708;-0.13176323;0.010423518;-0.5158519;-0.12889525;0.112635985;0.1272751;0.15622708;0.21722785;0.17281072;0.20368743;-0.17168306;0.032871116;-0.05034722;-0.019577356;0.036246546;0.064378165;0.0044500954;0.17382823;-0.20553093;0.23099239;0.03158072;-0.4068925;0.049477108;-0.1264462;0.0084514;-0.024096027;-0.03745884;-0.20140731;-0.044119027;0.15824553;-0.041769117;-0.011297816;-0.16997355;0.23026226;-0.1915323;-0.13280325;-0.06464643;-0.12729101;-0.10792872;0.23661727;0.22052772;0.106204234;-0.018687237;0.14483911;-0.33515832;0.056616716;-0.29527164;0.13847518;0.42352498;0.004726334;0.108467326;0.119403824;0.011505997;0.03828385;0.037556108;0.08559159;0.02940403;0.077789456;-0.14163852;0.0026243818;0.07698333;0.2652498;-0.035310857;0.18605904;-0.3019475;0.19098519;0.07992341;-0.19840881;0.0948409;-0.104331434;-0.1787869;-0.16785264;0.17489175;0.12073471;0.20693569;-0.19392174;8.303186e-05;0.2928986;-0.47073427;-0.13435929;0.09889534;0.12263462;0.3132509;-0.41669524;-0.09900134;0.080645606;-0.15558647;-0.10811486;-0.14988445;-0.09139917;0.25879574;0.2086815;0.09239769;0.07007844;0.21715838;-0.028087245;0.100223064;-0.25355628;-0.20073178;0.16689163;-0.2366829;-0.046879422;-0.14427455;-0.088600226;-0.013530108;-0.09806156;0.00059868424;-0.10289621;0.18681212;0.24451022;-0.54767597;0.16062139;-0.05725904;-0.020632409;0.121107;0.17644069;-0.014040874;0.34816363;-0.06612075;0.086440586;0.22464412;0.19396405;0.18454821;-0.27474248;0.34391817;0.114292376;0.07633927;0.06716884;0.027927876;0.10149404;0.04234656;-0.0066781277;0.0908762;0.11994842;0.13367955;-0.20308696;0.068420835;-0.13762875;0.08450093;-0.19039002;0.5020649;0.07901936;0.05072972;-0.023816772;-0.08168396;-0.056464948;-0.025889741;0.22593927;0.28842932;-0.067246005;-0.02476155;0.021888582;-0.0053327647;0.053946957;-0.07668282;0.059908368;0.20943415;-0.009448153;-0.067272805;-0.19993277;0.14542352;0.23048441;-0.0032360342;0.009179433;0.20991814;-0.057038907;-0.048493482;0.062431764;0.32575315;-0.081527166;-0.37412873;-0.15863219;0.06310407;0.2642278;0.19543158;0.06425618;-0.10926359;0.020519061;-0.053928815;-0.31623295;-0.11927554;-0.037335552;0.04402935;-0.107687704;0.104933806;0.21014053;0.13109456;-0.0031692886;0.36110878;0.0028085879;-0.22652031;-0.15872706;-0.088046595;-0.15041229;0.058547374;0.23342954;0.20679158;-0.21334434;-0.1884721;0.2186082;-0.038948838;0.07059111
-0.13263938;-0.27338323;0.17484668;-0.034765705;-0.32538068;-0.07942109;0.027918566;0.03878326;0.043122638;0.17006634;-0.21591318;0.020136552;0.09191843;-0.039766822;0.20450228;0.09088181;0.28565872;-0.16355866;-0.049357686;-0.02704015;0.12238908;0.05909655;-0.032174736;-0.12917195;-0.08850539;-0.15205576;0.004052419;-0.054383423;-0.1570617;-0.26620016;-0.17655227;-0.004508887;0.03746872;0.11843945;-0.009423178;-0.22815266;0.014917794;-0.00092246913;-0.12600644;0.21224087;0.24152909;0.3526846;-0.020752821;-0.09104455;-0.1025913;0.042037;-0.0051983017;0.24038807;-0.040181033;0.10176439;0.14824119;0.13214082;0.20768525;0.13925451;-0.054896448;0.51326585;0.13538827;-0.0017850443;-0.31542125;-0.10325183;-0.013385301;-0.16785215;0.029017124;-0.024172155;-0.14759254;-0.01778791;-0.06654928;0.28901038;0.15979104;-0.10521558;0.09092633;0.041089434;-0.36921763;-0.047718417;-0.13051693;-0.30203167;0.13496464;-0.18615673;-0.03521728;-0.0036267634;0.013761244;0.080965266;0.13107036;-0.1460715;-0.056418706;0.01253358;-0.040352616;0.06330878;0.23740938;0.025668845;0.12349772;0.28052434;-0.1352381;-0.064535834;0.048987865;-0.16138983;-0.15067557;-0.15631136;-0.060192898;-0.10257965;0.03364121;0.23658782;-0.24018286;-0.29512405;-0.10292948;0.050682332;0.07697669;0.24318044;-0.15700167;-0.43115416;0.15467928;0.24413007;0.2861395;-0.0014131953;-0.39839128;-0.07871439;0.04062239;0.074362755;0.24820057;-0.06627138;-0.092104815;0.0782934;0.06574489;-0.17185609;0.10706853;0.11465575;-0.011260636;-0.07323618;0.0002138878;-0.086560175;-0.041593865;0.28468394;0.18529092;-0.5000685;-0.2353114;0.0962827;-0.027897108;-0.025636306;0.10426827;-0.29980472;0.13423146;-0.31189618;-0.068940714;0.106406026;0.06926702;0.24250601;0.2114621;-0.1747092;-0.18929633;0.14030373;0.019687707;0.016575981;-0.08070656;0.20133254;0.039439153;0.08357228;0.14070772;-0.18641195;-0.17754506;0.029703675;0.061070252;0.022410378;-0.07553178;-0.29897994;-0.37821087;0.03685476;0.025071943;-0.114444;0.24929677;0.024990553;0.22737768;-0.4132616;-0.16743913;0.18232705;-0.12711233;0.07936301;-0.16133115;-0.0054309857;-0.022257289;-0.06582431;-0.25766066;0.039061263;0.07705149;0.026958855;-0.29517084;0.2031549;-0.12648326;-0.14629735;-0.2418494;-0.13858968;-0.03382656;0.008359791;0.1564463;-0.086987376;-0.16174972;-0.14135793;0.19905232;0.20097981;0.20941158;0.15922655;0.06660324;0.016623486;0.17168301;-0.28411648;0.16642326;-0.12755506;-0.23260117;-0.0076743583;0.015698036;-0.25762597;-0.3632761;0.24554938;-0.23445448;-0.029161477;-0.38745362;-0.024124764;-0.06058191;0.03876875;-0.10555962;-0.053961407;-0.2725477;-0.203512;-0.5320147;-0.19464967;0.14429481;0.0472662;-0.3387347;0.13561212;0.13972598;0.022066642;-0.12490061;-0.107900426;-0.4385774;0.1807787;-0.11242921;0.0901799;0.041433394;0.052599758;0.20605351;0.14401035;-0.014748283;0.37306166;0.13095023;-0.1293805;-0.24066599;-0.014672728;0.1377249;-0.17367953;0.12308518;-0.23178019;-0.209877;-0.024078527;0.13963187;-0.2957698;-0.16304475;-0.07926285;-0.2891647;0.15675135;0.06415345;-0.12568995;-0.31264457;-0.27276662;-0.0044103772;-0.15127657;0.08254129;0.1511661;0.09562643;0.07765395;0.07962536;-0.09650045;0.15462092;-0.2428585;-0.087519646;0.1027096;-0.15127884;-0.15267882;0.0830947;0.16161041;-0.1418262;-0.26015037;0.09895881;0.0067152805;0.16463597;0.086260475;-0.37239277;0.09872648;0.19573583;0.024651581;0.13847968;0.22709677;-0.056027092;0.20566855;-0.11716844;0.11453156;0.15213053;-0.036964647;-0.017467692;0.13982202;0.04638433;0.07209765;-0.082611755;-0.0852295;0.028233742;-0.11437129;0.058622498;0.059252366;0.22188926;-0.11170548;-0.04677868;0.031772763;-0.023174746;0.025057111;0.04828469;0.021259038;0.004859488;-0.092299044;0.21054024;-0.04076871;-0.24647917;0.3736432;0.13200615;0.109614596;-0.2433529;0.022399588;-0.051077805;0.1284137;0.13288;0.28568196;0.20638548;-0.32030728;-0.045327462;-0.045399692;-0.015634533;-0.062262062;-0.13108177;-0.040155485;-0.055731345;-0.17650248;-0.018547194;0.10257496;0.08130025;0.043761984;-0.05733339;0.0267292;-0.012236691;0.019731427;0.5943344;0.0055640796;-0.09570548;0.22131921;0.16292685;0.19876088;-0.14188527;0.15567118;-0.18874697;0.16240187;-0.0097226;0.17781411;-0.1901402;0.0657431;-0.19128987;0.28241777;0.15525153;-0.22242406;0.099683866;0.0468175;-0.2682608;-0.13760278;0.06083274;0.15347086;-0.19054985;0.43279597;-0.2225491;-0.09037696;-0.2779115;-0.14039105;-0.39666644;-0.21715698;0.22181886;0.18424201;0.07698695;0.00030737204;0.024192173;0.23690125;-0.13464957;-0.025302222;0.27930775;0.112302944;0.21807207;0.11766842;-0.05378513;0.047054656;-0.05109935;0.052128147;0.049679574;-0.45152268;-0.24972324;0.088888526;0.13414563;-0.053879663;-0.09844877;-0.30957192;0.059843026;0.21727543;0.0024033757;-0.23137267;-0.24297154;-0.14478897;-0.048638854;-0.43926933;0.12566224;0.03204757;0.04281819;-0.018099813;0.024338542;0.16362752;-0.10857173;-0.045219958;-0.37296563;-0.08598183;-0.12238602;0.1636451;0.09154358;-0.16832712;0.025026111;0.06561379;0.1819869;-0.18319333;-0.19063453;0.05799536;0.12951158;0.269666;-0.014980184;0.027413484;0.018171275;0.27614722;-0.032100532;-0.013374354;0.051541544;-0.04576616;0.055006374;-0.08102611;0.02794633;0.0065853237;-0.14984089;0.27383322;0.3353756;0.14776646;0.036865946;-0.049144916;0.07010009;0.07467605;-0.22846338;-0.16968654;0.050414566;0.09706927;0.06750278;-0.40764588;-0.14584176;-0.10178737;-0.29476833;-0.018989004;0.028924974;0.09577197;0.08610502;0.01522762;-0.020027941;0.22370113;0.40062863;-0.1119668;0.09705978;-0.4781699;-0.30961165;-0.0566263;-0.19418105;0.18426515;0.09200384;0.20140772;0.28719583;0.008781419;-0.1318098;0.034077834;0.2989301;0.13023952;-0.19428647;0.2210845;-0.1362841;0.0173115;0.24772063;0.05691362;0.17521186;0.18327571;-0.21372287;0.051768485;0.017396465;0.35068697;0.04044739;0.01642008;0.221043;0.032854464;-0.014235961;0.27666527;0.1208126;0.13446008;-0.037956875;-0.11412305;-0.010953765;0.011272892;0.06437684;-0.25118512;0.079583205;-0.117720656;-0.08657276;-0.39912257;-0.10998714;-0.16597241;0.13060278;0.32555717;-0.06011691;-0.37254936;-0.05737787;0.09716783;-0.14786649;0.10528372;-0.038910072;-0.033737205;-0.12988524;0.14020751;0.11339854;0.21080326;0.18802328;-0.21348381;-0.17428991;-0.050836705;0.19160114;0.2711562;-0.0070556537;0.044577915;-0.06394945;0.08198517;-0.15483992;0.008611742;0.096060224;-0.12619889;-0.040893774;-0.28906402;0.041170277;0.276119;-0.007822448;0.083293885;0.104810946;-0.08842051;-0.15700246;-0.053685427;-0.07580338;-0.012528887;-0.045734946;0.0070874644;0.20226103;0.24623854;-0.07505323;-0.041081544;0.190469;0.11314593;-0.112180054;-0.20392136;-0.1041475;-0.06403269;0.033866335;0.22851619;0.033937115;0.03594891;-0.40441653;-0.045661718;-0.045006044;-0.08668969
0.1359739;-0.13976423;0.4027489;-0.008745748;-0.10336638;0.10568782;0.20314117;-0.071448795;0.056713812;-0.106578946;-0.19928576;-0.19695441;0.060568083;0.027906835;0.28455937;-0.07034397;0.059213668;-0.29428458;-0.0464999;0.09527485;0.13104196;-0.059745602;0.056675;-0.076239824;-0.08119889;0.09821209;0.12618953;0.18992436;-0.10933331;-0.0013166573;0.35538462;0.01706857;0.096103184;0.07517867;0.055210434;-0.022327974;-0.054541152;-0.16234764;0.2603213;0.28313074;0.2308362;0.1120465;-0.21015127;-0.0015825953;0.007240296;0.06815094;-0.13382727;0.08939608;0.34757465;-0.005039708;0.17363635;0.08487125;0.12500253;0.055601146;-0.09725071;0.28243428;0.12739806;0.013990376;-0.19117308;0.016772913;-0.003925069;-0.07827279;-0.09155532;0.023693765;-0.041692678;-0.03670151;-0.12561177;0.012855412;0.0939466;-0.045364738;0.29036337;-0.079255655;-0.07538532;-0.116828814;0.04420183;-0.036768407;0.078076266;0.020413192;-0.06141984;-0.037054054;-0.22917801;0.07442465;0.059171718;-0.006136226;-0.1811162;0.03769337;-0.08868575;0.14342913;0.07186133;0.1202434;0.19977729;-0.005195769;0.120788425;0.09355584;0.096868046;-0.30331358;-0.21718958;-0.14864962;-0.05047879;-0.34232906;0.031396057;0.061289255;-0.19950654;0.08139739;0.11777372;-0.18193713;0.21494997;0.09622228;0.28554997;-0.56844336;-0.02050343;0.236995;0.15007134;0.047221106;-0.56847525;-0.0087459795;0.04164239;0.10321505;-0.1876161;0.06309264;0.22250552;0.01859248;0.059321992;-0.012114601;-0.012018348;0.13285604;0.16647604;0.3126993;-0.12799339;-0.109506406;0.21772219;0.021479769;0.27637836;-0.37383926;-0.23926681;0.12144058;-0.18319869;-0.269925;0.11726717;-0.30771986;-0.11287628;-0.119568035;-0.18900755;0.21375635;0.100555085;-0.03026043;0.15779987;-0.4099664;-0.30316222;-0.090030275;-0.24109419;0.14103854;-0.19189338;-0.038814977;-0.07216591;0.07583881;0.15812811;-0.17261177;-0.28839388;0.13758743;0.100872956;-0.09215021;0.08668972;-0.011675658;-0.17044376;-0.009256631;0.21784149;-0.14940435;0.041344885;-0.034253024;0.14478955;-0.19809185;-0.20957881;0.07692639;0.06595331;-0.3293163;-0.16067778;-0.10086945;-0.0766031;-0.23122333;-0.058661055;-0.06335422;0.19036512;0.093120806;0.037880376;-0.004720465;-0.21030653;-0.22631362;-0.27478352;-0.10319334;0.03534547;-0.115232125;0.3635282;-0.32880786;-0.3605464;0.078793325;-0.04691169;0.14587685;0.18717547;0.115825996;0.16274884;-0.055661347;0.30755916;-0.23148265;-0.13474476;-0.11625456;-0.05991061;0.15492518;0.13202968;-0.17365435;0.03171213;-0.116798915;-0.023263885;0.062313378;-0.031075992;-0.2761466;-0.043205164;-0.25624394;-0.22027424;-0.08378344;-0.066059664;-0.026883984;-0.5007371;0.026407229;0.22846125;0.100776635;-0.21006978;-0.09627142;0.05498386;0.01950314;-0.13025387;0.008330068;0.077302255;0.1870851;-0.06953257;0.19354656;-0.03896718;0.040677704;0.04300513;0.075562835;-0.01464864;0.2176404;0.04772187;0.23298897;-0.027575096;-0.23838942;0.14307994;-0.2305469;-0.051392764;-0.15340282;-0.052840285;0.0385767;0.045489367;-0.24666797;-0.0898107;-0.68834484;-0.39752224;0.011986735;0.14314903;-0.027186126;0.0077838236;0.049824785;0.09619339;-0.15711023;0.18351468;-0.07454023;0.26652625;-0.027461043;0.30386445;0.015325652;-0.024531085;-0.03356268;0.029190788;0.21260414;-0.18775503;-0.1714088;0.28240332;0.111696824;-0.091337465;-0.19935946;0.079200715;0.1284703;-0.0005353142;0.07919742;-0.19017352;0.013013729;0.2776043;-0.080558695;-0.11218625;0.22684488;0.09119354;-0.23826097;-0.10157886;0.1125415;0.3116557;0.054792337;-0.106314346;-0.15432715;-0.052761696;0.13875924;0.056059703;0.011475568;-0.030412277;0.23016214;0.040233463;0.10768489;0.1545149;-0.43241712;-0.34265572;0.31482923;0.12706062;0.17121002;-0.08648625;0.015804831;0.15467164;-0.028796408;0.000819664;-0.061159033;-0.030132217;0.06254417;-0.12761976;0.18479395;0.035208832;0.09733926;0.10232807;0.0013041467;0.3733591;0.12558626;0.027413012;-0.34388584;-0.11726421;-0.050444476;-0.17571385;0.04776614;-0.10742447;-0.13356952;-0.057634484;-0.045507953;-0.311165;0.10812585;0.21734829;0.070168935;-0.023501916;0.061492883;-0.058724802;0.11383859;0.14580901;-0.095370434;-0.24181218;0.111811854;-0.10304265;-0.13243833;-0.17255415;-0.12168662;0.046194665;0.2825311;0.119868;0.3107526;-0.0462874;0.13921873;-0.0752617;-0.25531167;0.23778431;-0.018793788;0.085599266;0.30865195;-0.13998845;-0.061848663;0.0021318032;0.13244043;-0.20562093;0.45904118;-0.25741366;0.11732986;0.03614867;0.2513377;0.009127914;0.20618233;0.020161336;0.29970908;0.086496934;0.24559934;0.06287059;0.26662874;0.07522698;0.057815105;-0.07524961;0.1881021;0.08999592;-0.016304424;0.28551832;-0.08769778;-0.06658703;-0.03464406;-0.044114146;-0.12649953;-0.027337005;4.2973363e-05;0.01893024;-0.22853471;-0.1536902;-0.12362869;-0.035764202;0.2556018;0.40734938;-0.2916527;-0.08705101;-0.058592618;-0.0354267;-0.27491838;0.15768312;0.0020478764;-0.071865626;0.1484034;0.08828158;0.40842307;-0.06455278;0.14712596;-0.46953458;-0.08703736;0.03016531;0.22314739;0.19317994;-0.32789564;0.10663517;0.10584851;-0.018489456;-0.30478507;-0.20491806;0.052557927;0.11704556;0.29401714;-0.015679961;-0.1478174;0.073180236;0.25221458;0.015146871;0.15879026;-0.06715201;0.04015484;0.16133913;-0.04730066;-0.10544193;0.14992149;-0.06033118;0.10728688;0.29114935;-0.071686566;-0.13826038;-0.052234042;-0.08288424;-0.4125855;-0.28065798;0.0014942716;0.22159569;-0.1834143;0.19338582;-0.13701282;-0.17416571;-0.09704209;0.06292465;0.19467269;0.06806753;0.030566175;-0.07582481;0.011421379;-0.023655226;0.09430724;0.21339846;-0.048908617;-0.037707895;-0.08486744;-0.23253977;-0.15044598;0.066791296;0.057003357;0.03465699;0.07967938;-0.10684845;-0.09523037;-0.045066006;-0.067880675;0.21993785;0.20816341;-0.16409037;0.27582142;-0.04573193;0.15364198;-0.17126688;0.05349203;-0.037208427;0.007435474;-0.00397666;0.0380748;-0.03700115;0.14067943;0.19356743;-0.2496647;0.2985803;-0.07956673;-0.19291182;0.08825095;0.10374307;0.10753119;0.031840503;0.0659888;-0.15313597;0.13353163;-0.121198796;-0.306759;0.18000731;-0.08099776;-0.2021331;-0.29957375;-0.18485421;-0.04123845;0.33803645;0.1933295;-0.12753499;0.09184285;-0.11531369;0.15550566;-0.27413765;0.0554781;-0.16654634;-0.053367253;-0.081736766;0.27935722;-0.21468376;-0.080071315;0.27589375;0.057444714;-0.09113867;-0.32195905;0.22107758;0.26674652;0.12221026;0.11274421;0.38589123;-0.1114966;0.28552195;0.11455464;-0.077349745;-0.26686856;-0.03949274;0.018360274;-0.107948326;0.3558313;-0.021386893;0.15584481;0.10234332;0.012614205;0.18736771;-0.14945765;-0.17705743;0.13349262;0.07864989;0.24617314;0.07396124;0.10677212;0.44814458;0.16686684;0.08258545;0.10047672;-0.26664785;-0.15293181;0.064742774;0.08628121;0.11506501;0.2699401;-0.13567597;0.032037;-0.0058182026;-0.08355778;0.2016311;0.054773606
0.00690717;0.012370016;0.31782416;0.21097289;-0.08814392;0.02155219;0.18475017;0.16477062;-0.025046859;0.13107276;0.025218062;0.00015398987;0.117215656;-0.20106153;0.23998909;-0.120519124;0.22397467;0.0029959187;-0.27985996;0.27494425;-0.200084;0.023173198;-0.32884166;-0.22386703;-0.14488123;-0.015442736;-0.11813202;0.041353837;-0.1895076;0.011883252;0.1750127;-0.12028149;0.13830853;-0.09182924;-0.14332752;-0.0051077455;0.14760117;-0.14210829;0.10633359;0.09842008;-0.17902958;0.04117864;-0.014566024;0.0674714;-0.073017694;0.19311334;-0.16493455;0.19915634;0.29898906;-0.033520754;0.233356;0.1141283;0.21808061;-0.2657205;-0.080271535;-0.12526025;0.2795101;0.15891513;-0.016294578;0.27703467;-0.037086926;-0.05345228;0.09443244;-0.015986374;-0.05129462;-0.056174345;-0.089417756;-0.040681064;0.26244065;-0.14084464;0.095197774;-0.27803075;0.07345349;-0.34589425;0.0770752;-0.19536869;0.03697682;-0.14874454;-0.2552638;-0.20990402;-0.2633413;-0.21204637;0.05460621;0.20718025;-0.07252701;-0.011161046;-0.036914337;0.061942548;-0.19682068;0.08372952;0.17638414;0.19408263;-0.1594404;-0.049521726;-0.18296854;0.032088596;-0.09488941;0.120714426;0.039554637;-0.18816061;0.09009843;-0.018418826;-0.17375733;0.12861921;0.0037675546;-0.13424754;0.0884446;0.1227823;-0.0040378124;-0.39780572;0.13620712;0.23854616;0.06890716;-0.22970027;-0.3084577;-0.023411755;0.06684387;0.03159286;-0.08088643;-0.22641341;0.274031;0.017709997;0.1535842;0.1301217;0.055890862;0.012112142;0.01855222;0.00021273657;-0.094392836;0.07930767;0.11002053;0.2976329;0.22411737;0.092091404;0.15742473;0.039230462;-0.12232437;-0.00328433;0.050660122;-0.30871192;-0.34548968;-0.12377556;-0.14178;0.044638664;0.19758597;-0.08528585;0.036361665;-0.48762447;-0.007459352;-0.038531277;-0.23660256;-0.053113043;-0.27428946;0.10414665;-0.3349148;-0.069212124;0.13316709;-0.13091335;-0.0747064;0.007785134;-0.09644133;-0.112902604;0.09363255;-0.2621116;-0.234024;0.094617344;0.03646558;-0.07457441;0.17026207;0.09774829;0.13276787;-0.016325878;-0.09901374;-0.0822421;0.023145704;-0.43806168;0.09640907;-0.04383697;0.03565361;-0.059609752;0.0026757522;0.004014629;0.10808064;0.13113418;0.14077558;-0.028915117;-0.11465553;-0.23182428;-0.28905144;0.09307924;0.16122061;0.108879864;0.4110353;-0.30755413;-0.36930525;0.197438;-0.07626389;0.00886209;0.11123674;-0.0929932;0.19581175;-0.21600495;0.25496072;-0.008895372;-0.18293571;0.02751158;0.13064992;0.20995228;0.26407707;0.1500296;0.12371863;0.054453492;-0.21951483;0.3316643;-0.026551288;0.11749522;-0.09655774;-0.40575248;-0.059604134;-0.13761632;0.34558812;-0.05196483;0.11431683;0.12384238;0.16517927;0.27556744;-0.0017644592;-0.41203666;0.14087944;0.011306314;-0.0474004;-0.01866058;0.26773432;0.10183606;-0.28474542;0.047937468;-0.3281678;0.19442478;-0.16682686;0.09697991;-0.012489324;0.24855381;0.09417566;0.18727958;-0.13487959;0.18028939;-0.0038701103;-0.07202453;0.27458623;-0.046985906;-0.0365929;0.0060438826;-0.08281465;0.025536982;0.07843415;-0.264967;-0.38214374;-0.21269564;0.038702656;-0.22433451;0.35436285;0.21797287;-0.017833147;-0.063673824;-0.039385293;-0.26740253;0.1756858;-0.22593041;-0.02550019;0.07606932;-0.022899095;0.0628867;-0.012082875;0.2042025;-0.14147152;-0.03903992;0.21904385;-0.07994821;-0.10812097;-0.07860446;0.112993024;0.2546298;0.07866919;-0.011569864;-0.11732154;0.048325088;0.18920234;0.020421548;0.09622025;0.3100834;-0.08334483;-0.16248284;-0.061476786;-0.124471895;0.12860557;0.32850385;-0.13925047;0.34174526;0.07042589;0.12815692;-0.057560813;-0.09254434;0.13913085;-0.040996544;0.0021116985;0.08185144;0.031027207;-0.07867184;-0.2510333;0.2201708;0.010134539;0.17821121;-0.045269202;0.09619871;0.010329387;-0.28059128;0.09463538;-0.031050805;-0.1828807;-0.14698406;-0.10945827;0.0034376637;0.22130784;-0.06676573;0.20289496;0.15473284;0.20220879;0.010540248;-0.008978406;-0.26072943;0.12417917;0.41041675;-0.25356895;-0.032367364;0.052724183;-0.027247349;0.074987695;-0.0671278;0.1794489;0.092312254;-0.055887174;-0.07914584;-0.123097405;0.057890076;0.09080029;0.28413093;-0.037788015;-0.00045284335;-0.23398067;0.06264094;-0.082950816;0.00017555356;-0.2338795;-0.053588185;-0.2063139;-0.21944107;0.14758433;0.23517135;-0.033671692;-0.07326287;-0.09846806;0.035964757;0.2088005;-0.056024432;0.007799992;0.5617626;-0.14969158;-0.010331008;-0.0650291;0.053715352;-0.3410893;0.33894008;-0.22028236;0.16556378;-0.33339044;0.5025648;-0.051480144;0.15279451;-0.030284623;0.009880206;-0.22620913;0.16171108;0.35097143;0.31768227;0.029902969;0.074209966;0.03573301;0.23731029;0.096713044;0.28235143;0.036293592;-0.08106918;0.12702988;-0.045974858;0.062074166;0.3103592;0.22665113;-0.08140452;0.21506204;-0.2442197;0.057680674;-0.05022662;0.04486366;0.011715794;0.336158;0.10654239;-0.050763045;0.095538616;0.23516586;-0.006929913;-0.018577777;-0.1413305;-0.20280914;0.103947036;0.14515527;0.08896154;0.031082034;0.28283396;-0.113247715;0.1087876;-0.008363823;0.20200348;0.023388341;-0.35533455;-0.047054667;0.045156512;-0.21824725;-0.15738279;-0.24805054;0.16163452;-0.14784354;0.15894616;0.02334484;-0.10433201;-0.057315376;0.011974168;0.1485882;-0.24348007;0.01607211;-0.1018489;-0.3188296;-0.036899164;0.023324111;0.28419715;0.04677553;0.089217424;0.19618043;-0.1481867;-0.12515251;0.11084488;0.077561945;-0.29289305;-0.16172196;-0.08224591;0.13509758;-0.31220707;0.32537162;-0.49793032;-0.0045513264;-0.08218773;-0.20377782;0.008848696;-0.06781581;-0.39696157;-0.21495967;0.011385247;-0.0065162764;-0.09025345;0.052301373;-0.01835083;-0.13668418;-0.14550339;-0.42452615;-0.03977215;-0.02999389;0.0013288601;0.014338467;-0.040492605;-0.1503823;-0.19109999;0.023672028;0.057985224;-0.022925304;0.022467196;-0.1827154;0.3101825;0.19939877;0.06257703;-0.12403554;0.107940994;0.0014157579;0.34834594;-0.17730331;0.071700096;0.20424144;0.23292027;0.17253527;-0.30198058;0.059857797;-0.010431638;-0.14494616;-0.051142734;0.076308064;0.109531425;0.014751461;0.14156908;-0.3641691;0.1993673;-0.10301672;0.13926627;0.12352076;-0.032283135;-0.111403435;0.034128997;-0.058959868;-0.15761524;-0.0043377797;0.0483744;-0.08219995;0.09713398;-0.12283922;0.041129217;-0.25762722;-0.021351008;-0.13517189;-0.13299635;-0.049754173;0.014664794;-0.25878984;-0.0572875;-0.15603215;0.17990252;-0.20754726;0.30186093;-0.10797358;0.20508598;0.09212067;0.14909075;0.2158885;-0.23912314;-0.07529655;0.0075805164;-0.1440489;0.017164096;-0.058008637;-0.25949407;-0.16726717;0.28933117;-0.2804078;-0.117280446;-0.056962978;-0.041402023;0.23520389;-0.09613875;0.024493663;0.1764145;0.35761675;-0.010734601;0.017393779;0.1400848;-0.45328516;0.27855814;0.10338206;0.12776278;-0.002792305;-0.054670546;0.07275685;-0.099086106;0.106031165;0.17009097;-0.021725597;0.25516862;0.1461571;-0.16272861;0.33507383;0.13122687
0.32931295;0.10134605;0.16208953;0.39315027;-0.053363096;0.004643022;0.13452007;0.25726748;0.118403606;0.1235054;-0.19827448;0.02363525;0.28482708;-0.12618035;0.22288013;-0.10622233;0.032013357;0.01197397;-0.24199882;0.24820937;-0.08294763;-0.0029255976;-0.15259092;-0.03213763;-0.06074672;-0.060670752;-0.065620914;-0.09823825;-0.064738065;0.12166695;-0.117197044;-0.009537167;0.18213214;-0.08457335;0.08074656;0.13013387;0.07510604;0.033222638;-0.043651413;0.37115726;-0.14902009;-0.0773198;0.07893303;-0.014909397;-0.018532638;0.12249039;-0.03568139;0.14109667;0.12957372;-0.00041383994;-0.1837992;-0.008190534;0.123662345;-0.38575023;0.02374544;0.025990276;0.39332196;0.021821953;0.011737197;0.02089665;0.00033039396;-0.0847424;0.031289335;0.10293106;0.21044055;-0.07593725;-0.09872853;0.036845967;0.09878467;-0.072873026;0.06925326;-0.050884593;0.10652247;-0.14197172;0.0865064;-0.15291204;0.30902898;0.22132295;-0.063626476;-0.29039142;0.01311323;-0.14837745;-0.021285329;0.068992235;0.07496234;0.01854229;0.05901121;0.3905992;-0.20136549;0.1634257;0.1972789;0.24597988;-0.048968956;0.00360422;0.019303884;-0.12384754;-0.1976851;-0.412836;0.056974642;-0.14022166;-0.07390364;0.042868324;-0.04907549;0.012443782;0.3087507;-0.18926069;0.1726634;-0.22362882;-0.14127637;-0.32811862;-0.14723842;0.2109561;-0.15356156;0.099225596;-0.23174351;-0.10397948;0.13200668;0.08148137;-0.079643965;0.07268786;-0.1310822;0.15965612;0.14190704;0.2824702;0.03570443;-0.09067972;0.06289702;-0.035778213;-0.055647004;-0.09404771;-0.00022101228;-0.21938404;0.039341304;-0.18797082;-0.00032200877;0.111789905;-0.31934994;0.110073954;0.1582688;-0.08752359;-0.3024906;0.015166093;-0.0022707684;-0.096095406;0.045826662;0.0017891636;-0.06424217;-0.271626;0.0007632537;-0.035492033;-0.022925062;0.34777284;-0.34443462;-0.10051339;0.0027150316;-0.1281135;-0.00312144;0.15120578;0.08243032;-0.13091472;-0.09102996;-0.02803878;0.16496082;0.11915096;-0.30974796;-0.100900136;0.047714025;-0.18752006;0.10431406;0.18425392;-0.1162711;-0.04296304;-0.047719862;-0.12930945;-0.12068335;-0.34717914;0.28141922;-0.05560529;-0.03330738;-0.25721157;-0.3527418;0.10679073;-0.07335953;0.33183837;0.17717765;0.015914975;-0.1754745;0.039576523;-0.06842432;0.14265825;0.16313085;0.033895623;0.16577677;0.08360531;-0.28004646;-0.015329074;0.004670778;0.21070574;0.14380684;-0.2378795;-0.20812723;-0.033404525;0.38066334;-0.054175254;-0.028969454;-0.29459593;0.30167133;0.26365116;0.23120771;-0.053295404;0.14169352;-0.18585807;0.1570949;0.21450074;-0.09299914;0.26658055;-0.14400198;-0.23433024;-0.21141104;-0.17776993;0.096372604;0.15986305;0.27048048;0.08564912;0.0021014684;0.064089835;0.06453628;-0.28520975;-0.23678532;0.035811976;-0.22371729;0.024942407;-0.060972404;0.13945763;-0.28379658;0.111253;-0.227808;0.06088752;-0.112250686;0.082429655;-0.1530693;0.36042112;0.2187462;0.060406264;0.27502707;0.23421045;-0.1891376;-0.307628;0.21712981;-0.23889975;-0.21833679;0.3530799;-0.020753466;0.019717343;-0.11089469;-0.13705531;-0.4697654;-0.05427962;0.11206257;-0.21305677;0.05292101;-0.05357748;-0.111485295;-0.051519062;0.22386657;0.0035930756;0.16355656;-0.18137106;-0.1348657;-0.29897276;0.028228052;0.09915548;-0.19770458;0.37024146;-0.1848362;0.008176674;0.22865878;0.033403914;0.20449297;0.13047802;-0.0018675699;0.23023924;0.24578471;-0.10363025;-0.11233344;-0.09439357;0.22459239;-0.005993186;-0.1695327;0.18069054;0.009804159;-0.2664355;-0.031724785;0.06868176;0.08533397;0.06373689;-0.09360337;0.054307826;0.04030133;0.17189436;0.12017118;-0.33225664;-0.04949971;0.11772656;0.076059714;-0.17219728;-0.1469132;-0.31369838;-0.11824012;-0.0050406232;0.11082094;0.34874472;-0.06617152;-0.05104834;0.06901621;-0.1627801;0.03511142;0.19011457;-0.07337172;-0.10116189;-0.21299969;-0.025901051;0.08992977;0.005181432;0.13280708;0.32643184;0.20777035;-0.002901723;0.15917149;-0.1652538;0.16469254;0.43014506;-0.16522335;-0.059484605;0.20498037;0.12748347;-0.06200492;0.058583826;0.1749859;0.102962635;0.24477199;0.16114768;-0.25652394;-0.08352661;0.1139041;0.12608278;-0.03448522;-0.1414851;-0.12446965;0.08059234;0.109884724;-0.102825195;0.043144803;-0.20581472;-0.15356816;-0.30475658;-0.05092464;0.3797039;-0.020233424;-0.069908455;0.124074414;0.1791569;0.00091141526;0.053250708;0.08496806;0.31270212;0.14403626;-0.019496601;0.0783331;-0.06182138;-0.075112894;0.07146411;-0.20476504;-0.006060381;0.2546419;0.15955183;0.06929437;0.381277;0.1178415;0.20802495;-0.1835508;0.0857749;0.4744662;0.17200302;0.15078677;0.02052224;-0.1402133;-0.03499155;0.036285017;0.0003990853;0.27969307;0.044981625;0.047437884;-0.17952996;-0.056554675;0.22967722;0.1772601;-0.038983177;0.09569198;-0.12762721;0.05173049;-0.085580595;0.12592654;0.03730175;0.17214659;-0.44512704;0.00031002195;0.15305454;-0.11668923;-0.22600365;0.043277957;0.12724589;0.008201916;0.1428005;0.097655386;0.20113443;-0.09228218;0.025713129;0.1315949;0.04549008;0.13325344;0.2508707;0.22770104;-0.43419823;-0.018105526;0.2179813;0.12917288;0.04018054;-0.13666153;0.10790169;-0.0165742;0.15601228;-0.13404216;-0.08485009;0.0864676;-0.0006838836;0.14289257;-0.091214836;0.14946105;-0.07157526;0.00934146;0.062485676;-0.05408153;0.11971802;0.044817533;0.026947519;0.08358268;0.0032935159;-0.12912029;-0.039265946;-0.21756291;0.014063375;-0.18547806;0.017588213;0.022083243;-0.117777735;0.1452358;-0.2569123;-0.20290348;-0.16031557;0.094446965;0.04986131;0.13190223;-0.059586123;0.04498226;0.3506855;0.11637936;-0.21698005;0.0037691498;-0.0747982;-0.03687206;-0.0926363;-0.30224884;-0.2134528;-0.03602118;0.1034791;-0.10707408;0.020718485;-0.027660327;-0.11294543;0.22038722;-0.18141654;-0.05056042;0.016687663;-0.019064905;0.2781385;0.19466291;0.037959106;-0.4269672;0.38282862;-0.16644807;0.094794706;0.06534088;-0.08434092;0.073179334;-0.118717596;-0.022775117;-0.21113221;0.16435324;-0.018029168;-0.1567549;0.11411688;-0.14217475;-0.09771073;-0.18661405;0.17462881;-0.19659945;-0.16441873;0.24707358;-0.015877306;-0.19164024;-0.07593959;-0.18030308;0.22102565;-0.20689125;-0.23517235;-0.16529813;0.10944399;-0.34017056;0.02502438;0.21109472;0.11280323;-0.12474359;0.050344832;-0.12808225;-0.15683784;0.116861165;-0.037271526;-0.23883869;-0.16435564;-0.052662104;0.20488621;-0.075180456;0.22514357;-0.0998675;0.14911963;-0.004870728;0.0500733;0.20266996;-0.18940516;-0.22694153;0.01976219;-0.06784904;0.00032487197;-0.048184667;-0.09072984;-0.33046317;0.43496534;-0.013739911;-0.012973188;-0.1205494;0.019037463;0.22111441;-0.21480592;-0.012355327;0.016536245;0.16622679;-0.10010014;-0.3434337;-0.0840791;-0.2283005;0.17562844;0.22652556;0.11002976;-0.32176647;0.04326217;0.047274724;-0.03456885;0.041919794;-0.004602319;-0.017403102;0.12721504;-0.014685425;-0.1282947;0.19379258;0.18743195
0.04548811;0.29888555;0.024347726;0.38082138;0.11527221;0.048688132;0.22967722;0.23314825;0.0039546126;-0.04428424;-0.27868253;-0.10270409;0.10589077;-0.20032252;0.22976308;0.09494421;-0.084206834;0.09005386;-0.12947232;0.07863431;0.33288205;-0.15891932;0.059446268;-0.047909725;-0.12503982;0.07250944;-0.1010481;-0.27830082;0.05357616;0.17608763;-0.044355046;0.015859747;0.075447746;0.113796115;0.11498601;0.24410045;-0.004845021;-0.33669084;-0.1789681;0.20129798;-0.049147338;0.043811586;0.022265272;-0.106105044;0.03495404;0.13946933;-0.09708958;-0.10177184;0.23890783;0.05382708;-0.016324187;-0.32996228;0.06337154;-0.050067786;0.14971958;0.33236128;0.13799429;-0.07927838;-0.11767167;0.39926237;-0.0031990574;-0.13228151;0.2723618;-0.022198593;0.36364767;-0.16493677;-0.06894122;-0.15062419;0.07347508;-0.07246185;-0.20726542;0.012501125;-0.14800254;0.12333162;0.055409208;-0.193272;0.43822688;0.1811874;0.21743958;-0.1388781;-0.12884317;0.015618684;-0.024511943;-0.03416294;-0.040048085;0.06456678;-0.19360957;0.097572476;0.036425438;0.009312805;0.11644181;0.23129609;0.25835767;0.020663373;0.16371788;-0.08127169;-0.30123627;-0.20819321;-0.059669867;0.03203787;-0.016103812;0.3365178;0.08581304;-0.14028656;0.23972076;-0.012260412;0.43602127;-0.13814442;0.22539724;-0.1811536;-0.23820789;0.26845303;0.07918176;0.019437255;0.13418615;-0.19503959;0.04525477;-0.11700846;-0.12626909;0.21600245;0.11642824;0.006190928;0.1809389;0.021929415;-0.065732576;-0.027778946;0.07298667;-0.07349392;-0.011155008;-0.14921969;-0.032491896;-0.39141372;-0.20138751;0.046546977;0.11132316;0.08395036;-0.30732337;0.13257694;-0.13323885;0.0012111303;-0.13371626;0.031279147;0.08655505;0.008708837;-0.13655235;0.20140669;0.08687322;-0.2855784;0.12124267;0.03158944;0.10055171;0.21499522;-0.15474433;-0.18737942;0.1563357;-0.02568171;-0.19203375;0.12244326;-0.039253008;-0.045534488;-0.25299078;-0.06871921;-0.1997426;0.025452284;-0.069173805;-0.32465583;0.15417378;-0.0015368072;0.07282195;0.08915271;-0.20386495;-0.11685805;0.024177458;-0.08496081;-0.037306372;-0.12790275;0.051310338;-0.10168555;0.036765955;-0.20586768;-0.22749962;-0.12612389;-0.2581247;0.19798054;0.005481077;0.04334114;0.1389239;-0.023621442;-0.20460753;0.14884235;0.12493691;-0.084996596;-0.16658875;0.26348728;-0.049967885;0.039699133;-0.030587744;0.17635505;0.2326483;-0.15643407;-0.16279516;0.25254187;0.2173447;0.32129046;0.041597757;0.00028792943;0.32935435;0.19390099;0.31422028;-0.14337799;0.10337479;0.20379804;-0.28241605;0.29983428;-0.39496145;0.2665256;0.006628346;-0.1832037;0.10320932;0.06253507;0.19984353;0.36122513;0.28976962;-0.27782482;0.11513266;0.014110497;-0.09790611;0.28516522;0.090385325;0.041255556;-0.07572378;0.18692611;0.025026934;-0.061113317;-0.41000387;0.069449544;-0.18647039;0.047694135;-0.016842403;0.0505716;-0.022983018;0.0986365;0.158645;0.29088825;0.15361771;-0.24109352;-0.15640524;0.08967272;0.15499549;-0.21119468;-0.07954828;0.07300134;-0.1535891;-0.12003269;0.27047607;0.21304101;-0.061501212;0.25990707;0.15041465;-0.48024377;-0.034458492;-0.19814473;-0.14191082;0.08803798;0.17756863;0.20618309;0.091674134;-0.085614264;-0.0609139;-0.12988064;0.045942638;0.14366914;-0.027305346;0.11018138;0.048137862;0.04957485;0.25074694;0.06286059;0.19902733;0.04809293;0.058277607;0.022717455;0.25516918;0.018032817;-0.09503706;-0.010621327;0.2670774;0.2718365;-0.053888183;0.18832517;0.0751081;-0.2544902;-0.02783179;0.4231115;-0.048950903;0.046138413;0.008013196;0.0059572477;0.051176652;0.26220858;0.047839437;-0.23799315;-0.09436821;0.023123931;0.071241036;-0.13506468;-0.25416327;-0.31464365;-0.21776576;0.107430354;0.29425585;0.27685174;0.122017145;0.02813757;0.28170517;-0.1489742;0.1136721;0.015516744;-0.14009148;-0.07163405;-0.020657083;-0.015163934;0.026433252;0.035192043;0.109787606;0.41028565;0.28387493;0.14419697;0.114083484;-0.2643638;-0.3316344;0.34807634;-0.34693348;0.060690187;0.11668697;-0.41580954;0.019126846;-0.060577407;-0.03343636;0.2374727;-0.067225955;0.4618212;-0.18656968;-0.103011765;0.3062438;0.10294412;-0.022136962;-0.18573757;-0.34965554;-0.044828996;-0.11313759;-0.011612672;-0.07132151;-0.15223959;-0.15455131;-0.54905283;0.011688456;0.27548203;-0.027335716;0.03684889;-0.018014241;-0.18022034;-0.12039239;0.20612136;-0.03590148;0.20272006;-0.076774366;0.16964391;-0.041442417;-0.15683104;-0.13728394;-0.028093629;-0.0712795;-0.2448716;0.14469956;-0.25750393;0.084479354;-0.13084169;0.00782355;0.08247207;-0.10685229;0.23512831;0.3662791;0.15603527;0.012449813;0.007873361;-0.051637087;0.033320777;0.04821876;0.18376184;0.1958604;0.054571513;0.23955375;-0.08763562;-0.009409604;0.5340462;0.11382304;-0.08355281;-0.11179543;-0.18759471;-0.06328478;-0.034168955;-0.25709653;0.058540385;0.36762318;-0.20056866;-0.06847763;-0.06921635;0.037353005;-0.4085044;0.09891707;-0.07712914;-0.13848704;-0.09019118;0.0019741915;0.05302933;-0.1732065;-0.08699647;-0.03556942;0.10128034;0.012090432;0.15561213;-0.03227304;-0.04311153;0.040088218;0.07210211;0.022352863;0.0061990977;0.062090106;-0.12799664;-0.048328348;0.22333628;-0.007581691;-0.108869396;-0.13942298;-0.16001223;0.007379265;0.03089715;0.106362335;-0.14405866;0.17116237;0.29835254;-0.2606011;0.10340947;-0.14941095;0.279267;0.31807986;0.1554474;0.040925942;-0.1025516;-0.13811019;0.111800894;-0.17762852;0.14754035;0.006634916;-0.027406592;0.3921315;-0.46329713;-0.26694724;-0.41094682;0.07301896;0.38738006;0.016206494;0.07178923;0.083711915;0.2224369;0.16188993;0.063865334;-0.12864612;-0.119609356;0.10080563;0.08917637;0.067677885;-0.14311963;-0.117694736;0.2790562;0.0041563194;0.096444994;-0.1686945;-0.09393221;-0.20765707;0.029512176;0.12692057;0.11809684;0.2073686;0.22276413;0.090703666;-0.022473449;-0.2786696;0.23709257;-0.2823695;-0.08494075;0.015714904;0.15332644;0.059244804;0.060595274;-0.027754009;-0.24652874;-0.021299966;-0.1272581;-0.06913759;0.08008161;0.036282316;-0.21392898;-0.30109605;0.17906131;-0.11580392;-0.15581568;0.25863984;-0.15684688;-0.3174072;-0.19110546;0.037639406;0.19342342;-0.024420377;-0.122678705;-0.15738043;0.07575777;-0.24418691;0.1068604;0.18312463;0.023333214;-0.18933731;-0.12202736;0.0036319061;0.0080462;0.23754494;0.1933899;-0.100681655;-0.06825241;-0.012283371;0.06089375;-0.10181324;0.08897325;-0.40891907;0.18483423;0.059484273;-0.12241806;0.1675483;0.05680727;0.08106901;0.18770674;0.05018481;0.056984413;0.05031602;-0.230575;-0.318617;0.047666565;-0.0074939798;0.16893956;0.003620337;0.14334854;0.10680663;-0.2396702;0.06592212;0.13633753;0.13396254;-0.017653082;-0.19992234;0.039694853;0.36479798;0.1523035;0.019914104;-0.16877636;-0.09725398;-0.1896985;0.07646512;0.18807715;0.048415873;0.12609558;0.052030213;-0.02957901;-0.11592202;0.013742243;-0.20143047;-0.01431751
0.20404974;-0.09170125;-0.010196318;0.38047823;0.15752447;0.2115369;0.2664807;0.24025458;-0.11551121;0.13070752;-0.19107026;-0.23910733;-0.18291786;-0.16065925;0.028229654;0.02568063;-0.2098028;0.018441642;-0.09028948;0.070766635;0.008060538;-0.14760706;0.023167785;0.21731693;-0.2962291;-0.29612267;-0.22380884;-0.056862075;0.1515798;0.15628584;-0.12718758;-0.07524465;-0.02599926;0.12070951;-0.049584024;0.16959497;0.2151087;0.021378385;-0.24728262;0.026758693;-0.0317131;0.08528056;-0.168612;0.033354722;-0.12677895;0.15846819;-0.30306622;0.008214965;0.07209143;0.044956207;0.3913686;-0.3465894;0.12530798;-0.23920013;-0.11578876;0.077886656;0.2488149;0.21696982;0.051590886;0.16502307;0.009509395;0.2517191;0.11340854;0.016157119;0.2557242;-0.19551499;-0.10724672;-0.18258324;-0.094943866;0.039577417;-0.16852649;0.004182367;-0.17685226;-0.002697952;0.02237788;-0.1656111;0.21429707;0.02416979;0.036568135;0.014737081;-0.06990049;-0.17592628;-0.10825201;0.16824406;-0.009540659;0.13692711;-0.35427874;-0.055092428;0.061136656;0.1261221;0.1609617;0.14725824;0.13844433;0.17727558;-0.082632035;-0.15743971;0.0068111178;-0.28751525;-0.110229366;0.057439063;-0.06347862;0.19136067;0.07947996;0.11483752;0.09868242;0.1479934;0.1799069;0.022844188;0.038363826;-0.17478375;0.0227476;0.078079686;0.20755093;0.114679575;-0.23807034;-0.37052593;-0.2284425;-0.24142975;-0.113920934;0.015107948;0.1565454;-0.13325354;0.14388265;0.15300933;-0.09901314;0.012081126;0.22893488;-0.2751704;0.059736952;-0.17268983;-0.13064082;-0.069972746;-0.25847507;0.01970811;0.11463259;-0.030744426;0.008898971;0.06520791;-0.039471522;0.13196735;-0.11364689;0.13696785;0.19943583;-0.080649205;0.013465183;0.18810874;-0.2620314;-0.2275152;0.113350615;0.11017878;0.18377061;-0.038848177;-0.15842615;-0.07614399;-0.007538001;0.14836971;-0.0064609232;0.005846676;0.25409827;-0.16379233;-0.14590542;-0.118378505;-0.026747586;-0.17476189;-0.21332851;-0.118060656;0.24609384;-0.0044051385;0.048313033;-0.13719267;-0.17140459;0.30198318;0.059214212;0.014589604;-0.1314129;-0.41841674;0.039641775;0.04193275;0.027923776;0.00903164;-0.22170725;0.020631554;-0.06251876;0.2067267;0.013762273;0.16592863;0.02779629;0.08948007;-0.070391975;0.19789289;0.1973031;-0.07872356;-0.16403833;0.19419053;0.14636965;0.060876857;-0.2940185;0.087344535;0.21444942;0.07424963;-0.10596679;0.11806792;0.12835875;0.22912133;-0.10003629;-0.007762251;0.25355247;0.23693484;0.20159763;-0.25603563;-0.066265285;0.039526656;-0.38738132;0.38062343;-0.4799262;0.29231936;0.058145434;0.09125713;0.05713814;0.16698822;-0.08453542;0.20864935;-0.1611344;-0.3191205;-0.06933338;-0.008605737;0.0708078;-0.28215393;0.14642783;0.08581561;-0.022456085;0.3143216;-0.14664082;0.1579386;-0.10899771;0.091891594;-0.18898591;0.21904288;-0.17805216;0.070970155;-0.029207576;0.11712723;0.18364465;0.22134395;-0.17079891;-0.024963086;0.004358931;0.076208994;0.105281055;-0.015091382;-0.041006397;0.029343575;-0.097205654;0.051952153;0.25163737;0.16649754;0.1842326;0.18152164;0.08666748;-0.5278978;0.035444293;-0.30874464;0.12842378;-0.0075957524;0.071080685;-0.017553972;-0.06345373;-0.022725653;0.26727355;-0.036543604;-0.045613132;0.24325696;-0.0474953;-0.06039613;0.2378248;-0.16377814;0.24291101;0.27936277;-0.04749084;0.041221622;-0.0219185;-0.36544302;0.20689644;-0.12731284;-0.20276172;0.16510531;0.23115553;0.12691204;-0.049718946;0.16541803;0.19744177;0.06222245;0.038942385;0.43614343;0.07836367;0.20287806;0.07510846;-0.37935397;0.096920356;0.06930027;0.05146414;-0.09779274;0.11600408;0.13368973;0.17306693;-0.35983068;-0.00032119718;-0.1068244;-0.035836145;0.26991007;0.06619686;0.27360353;-0.07848307;0.1595777;0.22239773;-0.14831734;0.15779157;0.0023536992;-0.06755068;-0.10339681;0.014816658;-0.027149498;0.15717325;0.19209065;0.23047765;0.36179024;0.28277472;0.24248205;0.10930485;-0.08824986;-0.18622598;0.13311821;-0.04729778;-0.05529859;-0.08461685;0.02195749;0.07789582;-0.12245393;0.030697048;0.22971609;-0.089700356;0.20764318;-0.16215582;-0.10242164;0.2954631;-0.16101818;-0.0069992524;0.09649913;0.084730886;0.12556297;0.16419664;0.22554709;0.03395879;-0.11097534;0.111792825;-0.3075541;-0.0489486;0.22092742;-0.2216178;-0.037995074;0.024013283;-0.20873883;-0.041841194;-0.15670149;-0.18968584;0.1422793;0.07757483;0.19748428;-0.14045748;0.24452828;-0.050756782;-0.06688989;-0.0030645044;-0.06613186;-0.24569443;0.07545628;-0.12471137;-0.19605176;-0.093680754;0.07222462;-0.13228229;0.4076479;0.58633184;0.046976943;0.1312116;-0.12957141;-0.0096830735;-0.06039868;0.12746102;-0.022926979;0.00443271;0.07193547;0.27210677;0.048149675;-0.10002046;0.6204872;-0.12295726;0.019161474;-0.19451518;-0.24580896;0.049563326;-0.034053374;-0.08038413;-0.05077324;0.33919096;0.1539568;0.16807333;0.14500254;-0.12511207;-0.29481667;0.079493046;-0.2173324;-0.19467358;0.09036116;0.021384072;0.04616807;0.09021011;0.09107826;0.056628563;0.18444078;0.059784498;-0.09426875;-0.64373326;-0.10552327;-0.09943907;0.23787095;-0.15984938;0.034592677;-0.006697449;-0.30023426;-0.015291558;0.075598195;-0.06704783;-0.021849012;-0.21094158;0.034923844;-0.01143011;-0.23893586;0.15879095;-0.006418845;0.18225206;-0.029707156;0.05601636;0.042415854;-0.15813155;0.18913795;0.23454161;0.08240787;0.010606834;-0.10180911;0.018808452;-0.0070160283;-0.12401169;0.08706117;0.018013382;-0.12326455;0.42703354;-0.5074464;-0.11645569;-0.3553726;-0.1412673;0.30273324;0.1817629;-0.104839735;0.01562997;0.19525257;0.18715492;-0.011951285;-0.5699888;0.17912523;0.06992268;0.07713465;0.042177323;-0.14301099;0.0303566;0.13000591;-0.014348024;-0.02176384;-0.2953055;-0.119043775;-0.15687343;-0.039589647;-0.08256433;0.042861022;0.100864716;-0.12031492;0.05372481;0.027841086;-0.029944457;0.046710514;-0.12356932;0.14822024;0.122288816;-0.021011675;-0.017749773;0.29548457;-0.07825552;-0.327236;-0.23464037;-0.18471082;0.058268014;0.22951375;-0.22446913;-0.15093379;0.029752947;0.25384995;-0.12473706;0.15981194;0.04690133;0.1797909;-0.15520056;-0.24575622;0.14236012;0.14136736;-0.09174003;0.11840393;-0.1424164;-0.17671348;-0.12830293;-0.10827369;0.12169818;0.14771987;0.103390954;0.11135202;0.066225536;0.085573025;0.25071207;0.06702728;0.0033423721;0.071904525;-0.077746555;0.121095546;-0.13819095;0.24039182;-0.021323275;0.31385112;0.031695787;-0.016082274;-0.13758846;0.35470906;0.46999237;0.09654341;0.2241858;0.15193076;-0.007106861;-0.12867966;-0.09685937;-0.09577671;0.030713195;-0.034857668;0.024963109;0.23227707;0.22262466;-0.254505;-0.0979582;0.0236339;0.018475493;-0.0586349;-0.5325575;0.21695991;0.059367225;0.17669982;-0.43149313;-0.09643175;-0.020560803;-0.09409509;0.14472471;0.14136715;0.099570386;0.06445508;0.1373158;-0.105101846;0.13415456;0.026455754;-0.19543146;-0.31602558
0.039554402;-0.05928068;-0.008801513;0.15182796;-0.18636793;0.13722256;0.046267707;0.05059871;-0.009889135;0.29129106;-0.3559759;-0.15827075;-0.117257275;-0.0007486933;-0.10808761;0.13567586;-0.010127721;-0.09244024;0.043229885;0.037707154;-0.10226455;-0.12831773;0.018524734;0.10291873;-0.2928729;-0.15889142;-0.0757215;0.028916435;0.04990406;-0.11588808;0.105063;-0.3193646;0.16717112;0.0071440707;-0.08042312;-0.18946609;0.18595257;0.39884117;-0.01253387;0.37572265;0.0068365354;-0.05583294;0.052256633;-0.30123472;-0.057823233;0.2475363;-0.51706535;-0.14559065;0.12682948;-0.24525246;0.1482608;0.04790417;0.2344726;-0.12836128;-0.035539832;0.06270141;-0.01667709;0.11299776;0.0069368724;0.101799354;-0.0027666911;0.05242356;0.14228024;0.11787679;0.059462056;-0.20578814;0.00084111124;0.080485106;-0.070179805;0.051930994;-0.1488527;0.19465092;-0.199151;-0.11148074;0.15369907;-0.2516099;0.11774836;0.34933007;0.15010187;0.1394413;-0.15604086;-0.20869482;0.10324574;-0.15593803;-0.17255676;0.059895612;-0.27880955;-0.017584138;0.029017145;0.21907613;0.30873126;-0.03208122;0.31136876;-0.065582395;0.14886226;-0.24987768;0.042307038;0.060887747;-0.04775301;0.0008914038;-0.0370181;-0.13570169;0.10711433;0.06603551;0.059071105;0.28372127;0.08505642;0.073015995;-0.10434448;-0.1500966;0.11725687;-0.113403045;-0.16384377;-0.07715022;-0.34795448;-0.3814082;-0.10784949;-0.17619702;0.038332142;0.24979745;0.28516647;-0.0528917;-0.020519622;0.3372719;0.030546492;-0.26450434;0.17771718;-0.30489576;-0.058188986;-0.24906161;0.0030520852;-0.010701812;-0.4214658;-0.001218136;-0.03281963;-0.13538967;-0.05853806;0.027495991;-0.0020118258;0.2685694;0.062189475;0.11979402;0.15420848;0.12863587;-0.05049171;-0.05089649;-0.3481152;-0.22874653;0.18408391;0.0072375853;0.35521045;0.13868052;-0.30235866;0.14732979;-0.017424874;0.021129018;-0.058373097;-0.16784473;0.31992024;0.021311082;0.25146136;0.0031739261;-0.005470721;0.22217903;-0.24655263;-0.2508565;0.11395392;0.02407392;0.19337727;0.057117186;-0.1473083;0.18097349;-0.09634438;0.30137244;-0.25268272;0.085924864;0.040557884;-0.16575633;0.02417327;-0.19686526;-0.32712772;-0.008034352;-0.22568057;-0.12788668;-0.075547285;0.4055242;-0.3330652;-0.015428808;-0.42405844;0.12102427;0.21609159;-0.21056618;-0.0777347;0.34714165;0.1409469;0.13834664;0.114342295;0.19270797;0.070306994;0.0047433395;-0.25451177;-0.09982331;-0.0007213206;0.029359037;-0.21773845;-0.023964263;0.16141549;0.23557971;-0.11296117;-0.15161933;0.021143857;0.17994645;-0.23316959;-0.0322921;-0.12799406;0.0037017902;-0.19291875;0.01009174;0.19451559;0.3871612;0.078987055;0.09092181;-0.32480854;-0.020448903;-0.18549936;0.11892989;0.041099034;-0.22233479;0.19358984;0.101206765;-0.09039783;0.09745083;-0.15278633;0.014301889;-0.20591715;0.18056875;-0.06829829;0.15952027;0.13336523;-0.010591427;-0.3290084;0.036832076;0.0582869;-0.094414726;0.09423479;-0.19431977;-0.088179566;0.072142944;0.008725639;0.00042757453;0.09124703;0.19948158;-0.044455644;-0.053486455;0.09278195;0.22583579;0.05564762;0.15575571;0.07045933;-0.08756347;0.011810554;-0.3623309;0.123161316;0.21242608;0.16459164;-0.08956178;-0.019848011;-0.025785584;0.15318008;0.21404386;0.007174235;0.17839417;0.03720446;-0.074697725;0.064777285;0.027912404;0.30193794;0.24210341;0.13293296;0.1638782;0.14069033;-0.34674972;0.05666072;-0.065917335;-0.15286388;0.07808952;0.077046365;0.11752336;-0.16001256;0.013532179;0.23424402;-0.256028;-0.002830314;0.14168236;-0.035410516;0.019118119;0.12980953;-0.402367;0.08900683;-0.11356684;0.11464929;-0.112935565;0.20315017;-0.047794692;0.3631428;-0.19574305;-0.06416682;-0.42889696;0.07570544;-0.07364432;0.22131944;-0.01155081;0.08984766;0.051614467;0.24208136;-0.0032670589;0.071017794;0.041545216;-0.20471013;-0.08195134;-0.095980436;0.022656158;-0.054317877;0.16183047;-0.049436316;0.2598163;0.074697815;0.388942;-0.029262228;0.0029188662;-0.31394544;-0.40214077;-0.12535419;-0.008722467;-0.1291836;0.024655769;-0.18709432;-0.0544966;-0.052322205;-0.108077474;-0.017672129;0.2369919;0.1642427;-0.24051057;0.18720514;-0.061968684;-0.03258775;0.2322848;0.019150179;0.17657092;-0.11068446;0.11269146;0.050880235;0.03643324;-0.45507735;-0.25393122;0.16706258;0.21412411;-0.020012248;-0.31939664;0.15260905;-0.15609448;0.121231794;-0.40641373;-0.026470492;-0.022089837;0.06577757;0.07456228;-0.02229933;-0.15577033;-0.06706899;-0.005974612;-0.18321371;-0.041364223;-0.23233186;-0.028438633;-0.15389375;-0.11100406;-0.01940781;0.06364816;-0.04588047;0.37225568;0.3579855;0.035976738;0.14385888;0.08786524;-0.056709163;0.031328715;-0.19531472;-0.06209652;0.17580898;0.23756067;-0.0242867;-0.25650793;-0.34478697;0.239811;-0.0051622554;0.191597;-0.19277474;-0.31132102;-0.062627986;-0.08598471;0.11955014;-0.004126322;0.061658375;0.14634755;0.15666713;-0.016828965;0.10603505;-0.09077294;0.14829852;-0.3120132;-0.061750393;-0.1116841;-0.045388095;-0.098675795;-0.24002297;0.15886924;-0.06389163;0.0007483256;0.33323643;0.12238416;-0.40249267;-0.22398008;0.031889092;0.40874296;0.046553243;0.042581506;0.18836796;-0.0038392355;0.053788967;0.067785196;-0.005723431;-0.01605463;-0.1338321;-0.0055822027;0.15599722;-0.40753007;-0.1214598;-0.03404729;0.13036308;0.020992404;-0.003233619;-0.16387717;-0.039026566;0.1568632;0.082829215;-0.30635968;0.046176538;-0.19099844;0.20866203;0.055613536;-0.23257029;-0.031853594;0.3036855;0.064240165;0.19297081;-0.23978356;0.039170906;-0.13732037;0.06685763;0.116157405;0.26548675;0.03309134;0.1572078;-0.009484791;0.22655717;0.017139742;-0.54249996;0.07752242;-0.039302856;-0.12224824;-0.28524998;-0.45661318;0.21195449;0.0069861338;-0.035967335;0.08141156;-0.26280615;-0.021934887;0.071759194;-0.06301203;-0.22657493;0.14749917;0.02432506;-0.008932731;-0.08028126;-0.058543168;-0.07655257;0.14278373;-0.19959417;0.12800917;0.10486839;0.0019031832;0.09016597;0.18826388;-0.029831728;-0.09305287;-0.51105565;-0.23720253;0.20601414;0.0075466996;-0.054048695;0.0011457361;0.13204359;0.12819807;-0.27591097;0.19091225;-0.07843473;0.17272484;-0.17851546;0.030698486;0.21464236;0.0096710855;-0.38922203;0.1649164;-0.19966842;-0.19487408;-0.020463016;-0.32305378;-0.10371766;0.11348336;0.103296354;-0.03135844;0.12597308;0.11680558;-0.009557289;-0.09920807;0.043809153;0.23144847;-0.24651566;0.26507807;-0.0019095034;0.2212662;0.13626547;0.21952625;-0.111998215;-0.3670746;0.022467997;0.38218665;0.34024408;0.114166856;0.0016937824;-0.013058446;0.10310017;0.17033064;0.0066893385;0.031063275;0.17498352;0.10035265;0.11424916;-0.08056068;0.0045500733;-0.06624236;0.10913068;0.13552885;0.2637718;0.33268273;-0.35090914;0.091502674;0.11067233;0.25964865;-0.21529682;0.118133985;-0.2682054;0.060606133;-0.035729453;0.10182485;0.10801045;0.052876372;-0.020440247;-0.25274244;0.03868532;0.01871197;-0.34818777;-0.19688007
-0.06415715;-0.17870387;-0.09087745;-0.19077976;-0.039045088;-0.26718658;0.050523322;0.11141773;-0.05968631;0.09501974;-0.007382529;0.26726934;-0.1731441;-0.12963077;0.117765196;0.1018104;-0.06310762;-0.014914505;-0.03454392;0.06865662;-0.13408978;-0.20721352;0.26975352;0.053769134;-0.0658289;-0.077024154;0.018677395;-0.15298612;0.041975584;-0.07759754;-0.0031651529;-0.27938485;0.19169922;0.19439684;-0.09475126;0.05828429;0.22825836;0.12511332;0.22149716;0.24298207;0.17103225;-0.05475563;0.09183235;-0.39882278;0.06018817;0.28408062;-0.36859238;-0.14171782;-0.017989933;-0.11443304;-0.2310382;-0.18041845;0.24410984;0.3494093;0.0484002;-0.33331177;-0.20485175;0.32274392;0.23131324;0.32506433;0.049462643;0.1361146;0.0665857;0.13817869;0.043306127;-0.14780296;-0.18698092;-0.10853872;0.07899705;-0.09454233;0.11466122;0.08338026;-0.03378221;0.0796823;0.18640734;-0.104070775;0.08294704;0.18289153;0.14592814;0.102319114;-0.32750583;-0.12884751;-0.0051934333;0.06231629;-0.08650786;0.1617142;-0.18173657;-0.22868948;0.11134787;0.16447559;0.2091356;-0.011615507;0.3691919;-0.1700896;0.11801181;-0.22976151;-0.13640818;0.054548163;-0.1483866;-0.023998126;0.08102584;0.036467895;-0.076270886;-0.08067566;0.18788238;0.32617548;0.11795387;0.14307624;-0.09527033;-0.06370542;0.07198917;-0.26179934;-0.11468942;0.08069603;-0.13144417;-0.26063257;-0.07289796;-0.14806463;0.090565436;0.16027364;0.02510025;0.14741382;0.02841024;0.26847163;0.13375074;-0.17394975;0.16082573;-0.20255901;0.07310442;-0.14183271;-0.09546281;-0.15169807;-0.30130303;0.37135223;0.05932925;-0.10522543;0.07279008;-0.15318295;-0.2002874;0.2557302;-0.33479312;0.09021109;-0.015593087;0.12619549;0.08556464;0.03392775;-0.156842;-0.14636311;0.42020464;0.095200196;0.28376767;0.25175962;-0.3309133;0.061219964;-0.22602685;0.048178572;-0.39246017;-0.03347139;-0.12873927;-0.10459271;-0.25475827;-0.029208975;-0.18661198;-0.06379131;-0.13326971;-0.076407775;-0.16192596;0.13116868;0.19603762;0.19095692;-0.028158681;0.06945542;-0.03151296;0.118068755;-0.24781917;-0.06231797;0.029202001;0.108050704;-0.08730572;0.042557567;-0.36614192;0.12800135;-0.28192195;-0.31440917;-0.032499906;0.2581429;-0.16988748;-0.12527548;-0.2278749;0.07836604;0.30491093;-0.030639382;-0.3763498;0.05112755;0.35680434;0.163014;-0.1890081;0.32072103;0.14169212;0.045835245;-0.1676212;0.20109406;-0.29885632;0.26781324;0.067785434;-0.06580692;0.06676077;0.12031269;-0.22138055;-0.09754398;0.037488014;0.05069302;-0.025092522;-0.049308248;0.07549175;-0.12988146;-0.10240993;0.060606696;0.069197334;0.23959468;0.13862464;0.2384108;-0.38184315;0.2557121;-0.16525796;0.28281477;-0.18228248;-0.19950292;-0.038741272;-0.1328147;-0.037936702;0.24184227;-0.011783325;-0.24936417;-0.057687555;0.3447518;0.03819828;-0.2223953;0.17676638;-0.09775401;-0.21311148;0.07873967;0.0020474473;0.014807024;-0.043850668;-0.39898255;-0.06918302;0.20849557;-0.14940327;-0.06881765;-0.24663678;-0.16126722;0.13455942;-0.001179344;0.1941189;-0.026989963;0.14220776;0.051112976;0.25912654;-0.23183;-0.123728424;-0.11545273;-0.035360448;-0.044890862;-0.13198365;-0.13885495;0.2161135;0.0024974137;-0.06257012;-0.049455892;0.06761327;-0.185385;0.4014769;0.0029994906;0.23192422;0.09522675;-0.106662855;0.25389755;0.20370513;0.06211541;0.015179861;-0.21889809;0.05638054;0.12102795;-0.117646605;0.27602264;-0.11049863;0.06297159;0.030894602;0.26162407;-0.056093216;-0.07052464;-0.14098509;0.02131587;-0.053088915;0.077508286;-0.060738582;-0.15988284;0.23452318;-0.054297872;0.120145954;-0.21472564;0.014187406;-0.11132025;0.51893616;0.028645534;-0.11340057;-0.19110242;0.03155144;-0.22112845;0.33368126;0.006573433;0.0039882828;0.15581635;0.28063512;0.38579598;0.009972985;0.35617322;-0.08160339;-0.06897037;-0.01629878;-0.08309888;-0.026075859;0.17144074;-0.12656252;-0.034975983;0.06040941;0.13341664;0.10170784;0.1134552;-0.38274124;-0.1353251;0.2503922;-0.1888796;-0.09326542;0.007571549;-0.06225681;0.123501875;-0.051314957;-0.022839986;0.04317885;0.19844063;-0.13993499;-0.12816074;0.17680943;0.23659278;-0.36857378;0.10263569;-0.1134476;0.15613167;-0.070495844;0.19920827;-0.23194072;-0.010707268;-0.14602187;-0.03760382;-0.0177423;0.2838856;-0.17142886;-0.13453054;0.06436401;-0.018699288;0.066200584;-0.2935938;0.1762352;0.24634288;-0.025075456;0.25317115;-0.03907437;-0.291663;0.06514305;0.23988791;-0.28917015;0.06734748;-0.20512569;-0.19835384;-0.051968016;0.03467054;0.13575637;-0.16074452;0.0876575;0.2266004;0.11343677;0.06747014;-0.11580806;0.07125127;-0.060078036;0.035671283;0.06394905;0.23431809;0.13696364;0.19862582;0.18716167;-0.17592481;-0.20285882;0.06430374;-0.1925283;0.29376566;-0.063255765;-0.035328608;0.018316504;0.008836509;0.3584557;-0.085076794;0.14459735;0.1124095;-0.109937906;-0.11075785;-0.0020268592;0.016882969;-0.115583025;-0.08376112;-0.077199355;0.32087636;-0.07194894;-0.1674751;-0.14439674;0.017449262;-0.07785225;-0.0023900785;0.28419363;0.00040425325;-0.44174317;-0.048086368;0.0077796;0.42200848;0.30622336;-0.2121108;0.20306432;0.020233711;0.13814446;0.15413916;0.089269586;-0.016361494;-0.16746567;-0.23897476;0.0039768857;-0.08326193;-0.075689964;-0.04717727;0.2702195;-0.023965018;-0.048516054;-0.06695921;-0.23774879;0.2490576;0.09320887;-0.061056744;0.1885497;-0.08819209;-0.006272058;-0.16040473;-0.3310343;0.085913494;0.02373486;-0.09646545;0.050128907;-0.18365161;-0.16107883;-0.27776453;0.17873317;0.18994603;0.06948148;0.14852366;0.09616441;0.023466712;0.30417064;0.08243957;-0.25388864;-0.054672096;0.1074986;0.10456153;-0.1732931;-0.34762648;0.12427979;0.24927655;0.0068321726;-0.020014636;-0.13686667;0.032773953;-0.012731532;-0.10900392;-0.053454984;0.12384459;-0.017674012;-0.27013862;-0.35505083;-0.108596236;0.27061614;0.10597619;0.08592277;-0.16760027;0.044130307;0.02945766;0.27377173;0.29290777;-0.015812479;-0.09367359;-0.35508394;-0.20403019;-0.21121772;0.17093256;0.23325425;0.0054498645;-0.053288948;0.034763873;-0.26590472;0.051917594;-0.21845266;0.18910302;-0.21499424;-0.031548414;0.18052244;0.25684524;-0.25512806;0.1488073;0.09039809;0.050085563;-0.046241596;-0.06666148;0.053558294;0.04488793;0.10782621;0.03914058;0.11200845;0.060882054;0.11223166;-0.16024047;-0.019215789;0.1259476;-0.16399848;0.1935606;0.08144427;-0.10445035;-0.029734371;0.12880959;-0.03658944;-0.111918524;-0.015466484;0.07924785;0.41561309;0.1903883;-0.060091257;0.12039511;-0.058308914;0.41433072;-0.21652018;0.09645676;0.13033612;0.112793796;0.167256;-0.048556734;0.15318461;0.1432405;0.02603996;0.014179573;0.12608267;0.23938534;-0.451254;0.10811587;-0.10411457;0.1484651;0.14788751;-0.22730047;0.0120607205;0.0175512;0.13209696;0.2824872;0.034693122;0.07946109;-0.002152064;-0.2951139;-0.15650178;0.04542817;-0.25547922;-0.34909666
0.05192465;-0.13523518;-0.118679106;-0.12561202;0.1003808;-0.05886825;0.3559364;0.03402617;0.06852589;0.110391766;-0.21540272;-0.09934167;0.14294864;0.07692154;0.14144139;0.16296072;-0.048039682;-0.31042817;0.11132688;0.12836279;-0.14501819;0.045901515;-0.0900543;-0.46366182;-0.27675244;-0.23469229;-0.010530957;0.10193068;0.241003;0.09331208;-0.22640951;0.09698702;0.055101547;0.11634978;0.006594913;0.14980736;0.2468831;0.2520954;0.091203794;-0.0048348797;0.0169716;-0.2196975;-0.047148384;-0.2030523;-0.059798725;0.23607987;-0.6321637;0.32768396;0.38257957;-0.15400088;-0.0049525485;-0.065742426;0.06891431;0.2300355;-0.10806382;0.061281834;0.21481644;0.26095423;0.23810816;0.07646681;-0.011598478;0.050304614;0.082761;0.17017098;0.054412972;-0.1018115;-0.13004561;0.026346937;-0.31157026;-0.16332155;-0.03389443;0.034712166;-0.04691234;0.2744695;0.25374886;-0.24158596;-0.103524595;0.14874187;0.008867148;-0.004363922;-0.14539924;-0.09428827;-0.16653517;-0.057410512;-0.17697266;0.097815715;-0.14951247;-0.011012012;-0.10158424;-0.067142434;0.27738464;-0.26140288;0.4473875;0.13506925;0.2578045;-0.009198378;-0.027416198;0.22656655;-0.07733008;-0.010361843;0.25798082;0.12495403;-0.071906164;0.19355634;0.2672838;0.3577913;-0.02766885;-0.008369122;-0.08472103;-0.27874944;0.17612447;-0.071872175;-0.2620472;0.06784291;0.08196865;-0.29445454;0.15594316;-0.23554991;-0.24846712;0.24226703;-0.22826977;0.0024455031;0.21713208;0.16489209;0.14596085;0.030276459;0.033288427;-0.068756014;-0.026619615;-0.069044076;0.047760576;0.018233672;-0.07593679;0.096171364;-0.16412978;-0.23505944;0.12216747;-0.09420478;-0.25463104;-0.019409128;-0.43920368;0.44660464;-0.16017072;0.11252934;-0.09022891;-0.0015538818;0.020819735;-0.13241374;0.09063027;0.065246604;0.21692194;-0.13284074;-0.57214105;-1.5234433e-05;-0.0028933606;0.108605675;-0.12130387;-0.07456314;-0.019695064;-0.1819732;0.121102154;-0.04304981;-0.05195391;-0.09172292;-0.2142157;-0.14142004;0.04382465;0.1495289;0.17121305;0.30212036;-0.0175682;-0.13802142;-0.22742283;0.10524356;0.026533429;0.27428424;0.021423776;0.11499767;-0.08428492;0.3270723;-0.09537194;-0.073694065;-0.13202845;-0.20064113;0.17524478;-0.1323232;-0.5335263;-0.14787582;-0.22078663;0.2880243;-0.012591226;-0.10412243;0.030659733;0.18072754;0.23563872;-0.061823357;-0.1794966;0.24656178;0.3002799;-0.0019265349;-0.2473137;0.12774205;-0.3788673;0.31717545;-0.017134892;-0.17184162;-0.00024448597;-0.011280415;0.21652536;-0.52204525;0.0029524842;0.23118429;-0.547833;0.018442629;-0.061029922;-0.0116500445;0.05071129;0.07728755;0.26396272;0.17598458;-0.0022948289;0.1062316;-0.22641015;0.24793679;0.07719129;0.19779213;-0.0032966242;0.05649211;-0.0781367;0.07124412;-0.09258862;0.33831087;0.1557301;-0.26146504;-0.23022497;0.18178257;-0.021859381;0.034618217;-0.11910719;-0.031589966;-0.023583472;0.15900521;0.026200935;-0.17664798;-0.031156618;-0.17151642;-0.03625906;0.12673783;-0.12741406;-0.12867132;-0.05087885;0.005302615;0.071544096;0.12800863;0.20163263;-0.043157242;0.087698884;-0.05870438;0.29433528;-0.035504665;-0.11097739;-0.2052741;0.10005436;-0.038376525;0.17340638;-0.17752288;-0.05605831;-0.0012212085;-0.18884866;-0.1201755;-0.25275576;-0.116746016;0.27394038;-0.0027355612;0.011441807;0.023346344;-0.27702978;0.16949461;-0.020169126;0.113395914;0.05875264;-0.1488817;-0.23752771;-0.11443137;-0.062979914;0.23820649;-0.035695355;0.06327431;0.16151313;0.12976238;-0.04159496;-0.1462409;0.04435946;0.06499594;-0.11341648;0.08175328;-0.009751216;0.12452322;0.058724366;-0.085428946;0.17882921;-0.30059397;0.08221711;0.04481418;0.2900965;0.04457081;-0.10623104;-0.18593684;-0.049653277;0.123754546;0.3646503;0.072492726;0.07940309;-0.046837457;0.12624764;0.09475914;-0.06752719;-0.09724763;0.034977444;-0.06925401;0.03941354;0.29546893;-0.0056270277;0.17227063;0.008771614;0.17314334;-0.3278949;0.030431652;-0.028495394;0.006428023;-0.3712073;-0.1163166;0.0117401425;0.14682974;-0.37505433;0.014651652;0.05013685;0.11904344;0.01534651;-0.2805261;-0.07107471;-0.119457655;-0.2605302;-0.14249128;0.14595774;0.2620625;-0.4981672;0.017308494;0.01345964;0.042530973;0.13206972;0.01774419;0.15122187;0.111927316;-0.29854763;-0.17816852;-0.10491462;0.2946136;-0.24715856;0.03790895;0.04574619;0.24717604;0.023978146;-0.19130416;0.21769027;0.059304904;0.1479483;0.17824098;0.06400373;-0.008459457;0.15286225;0.0054664398;-0.17716803;0.08985261;-0.22469245;-0.28205502;-0.2858302;0.26706514;0.22260731;-0.16144152;-0.023938645;0.07760426;0.018564569;-0.047487292;0.07828445;-0.04285759;-0.04444163;-0.14150663;0.16802762;0.3100316;0.13027976;0.28357112;0.061406847;0.022150384;-0.22658712;0.090756364;-0.26060784;-0.18002221;-0.19827427;-0.18428917;0.024182377;0.026829805;0.12330494;0.014957261;-0.08207048;0.2156784;0.09966353;-0.06683782;0.16490519;-0.077126175;-0.19329801;-0.119875;0.022197418;0.14713508;-0.07877579;-0.03834533;-0.051177137;0.03987989;0.16034311;0.029497745;0.16697945;0.058618307;-0.21133631;-0.048944034;-0.124254435;0.36443332;0.045696877;0.20519735;-0.18797618;-0.3392604;-0.045338802;-0.118740596;0.07851946;-0.06118479;-0.24366586;-0.46598616;0.023285035;-0.23612091;-0.17033336;0.106943615;0.21754852;0.20600739;-0.06723399;-0.19806585;-0.088870265;0.12607883;0.0031670048;0.03561398;0.06509229;0.08279913;-0.06171664;0.11676604;-0.14493664;-0.21373524;0.2687816;-0.09390871;0.24936782;0.04942126;-0.19737962;-0.3320296;0.23902436;0.15351525;-0.030442098;0.23536786;0.07128654;-0.07148413;0.18131042;0.27582288;-0.1543541;-0.13019527;0.104379505;0.081995204;-0.017890522;-0.2808841;0.05924729;-0.10375648;-0.11488604;-0.2170127;-0.26877314;0.061800823;0.13069397;0.24511817;-0.089676134;0.02049769;-0.14049006;-0.18302162;-0.20801747;-0.064866945;0.44178528;0.1378624;-0.081639394;-0.04861467;0.0878232;-0.10329123;0.32891697;-0.08269364;0.15361255;0.11516564;-0.04216487;0.03167215;-0.0056374837;-0.09784097;0.32934397;-0.094486706;-0.00011343383;-0.022274835;-0.31270748;-0.12441649;-0.04226854;0.15977865;0.10348378;-0.2715998;0.09202964;-0.12917106;-0.048136972;-0.12114136;0.21282761;-0.02869893;-0.17134665;-0.027289944;-0.0055374317;-0.09484327;0.1367225;-0.044813897;-0.04882066;-0.005553454;-0.030622758;-0.24270976;-0.14659311;0.116752945;-0.14098811;0.07807645;-0.018640509;-0.28747582;-0.013989925;0.038033012;-0.14442377;-0.37564415;0.029269835;0.06828183;0.27283746;0.1271052;-0.18521912;0.099711604;-0.06954371;0.3411258;-0.16370279;-0.04101843;-0.037432663;0.0062067187;-0.015286695;-0.14223054;0.16438198;0.11914164;-0.15027218;-0.12795524;0.13475794;0.22683167;-0.2111927;0.117102414;0.04077766;0.13735013;0.25530592;-0.038156107;0.051412165;-0.10120983;0.06487136;0.123740554;0.03516864;0.11822364;0.075664274;0.08592903;0.11395131;0.018410156;0.14956875;-0.1774479
-0.08489881;-0.035093434;0.04417476;-0.04926845;0.044818275;0.01636221;0.3974467;0.109322906;0.20028299;0.13203667;-0.23847203;0.22732839;-0.22808622;-0.055132687;0.21044451;0.28282496;-0.1963275;-0.03133512;0.04348483;-0.043578953;-0.09695073;-0.057586566;-0.042511422;-0.019324094;-0.14347306;0.068077594;-0.09472558;0.23607004;0.18381919;0.12359417;-0.108863235;0.10318307;0.16182837;0.25451165;-0.19140765;-0.02015952;0.22065023;0.17742297;-0.027333843;-0.21538813;-0.041070297;-0.08411986;0.044869676;0.032626286;-0.3100334;-0.03774638;-0.22727431;0.49728793;0.21377648;-0.1264727;0.19935273;0.0054533915;-0.0694814;0.123376496;-0.0004064812;0.15844887;0.08738419;0.07233332;0.22859102;-0.06834567;-0.015002518;0.052110396;-0.0013267415;0.012779915;0.06549794;0.13192417;-0.14556858;0.01616113;-0.25863746;-0.063865796;-0.07697327;0.024570165;0.0015161191;0.35131356;0.083257675;-0.004897888;-0.0632304;-0.006918319;0.3090038;-0.03957332;0.03224277;-0.08336231;-0.30941913;-0.03246917;-0.17112209;0.053021155;-0.03197398;-0.30393568;-0.2590099;-0.50902116;0.21295087;-0.23470892;0.29455042;-0.23394327;-0.10046565;0.10797295;0.10161553;0.08384406;0.049300168;0.18027915;0.2224991;-0.043108802;-0.111242;0.092490315;0.3960631;0.19611953;-0.20180947;-0.03114599;-0.24387448;-0.16682702;0.041626923;-0.39089933;-0.27189362;-0.0061869295;-0.067778386;-0.039916776;0.1289272;-0.16356009;-0.2349265;0.13751303;-0.12316536;0.06076738;0.3935903;-0.0628219;0.010532244;0.15207888;-0.15328002;-0.20236002;-0.16944309;-0.09445661;0.16722871;0.21849197;-0.10816348;0.12811144;-0.0009473224;-0.2575822;0.11276788;-0.021212183;-0.2734765;-0.11568741;-0.3957424;0.19937018;0.059184317;-0.13098136;0.0045828144;0.005880656;-0.0077955625;-0.23663184;-0.113958694;0.03726765;0.10416332;-0.030013906;-0.38412035;0.08721542;-0.24250942;-0.031710073;-0.062069032;-0.010682498;-0.1528484;0.13112254;0.1056092;0.17989372;-0.09620406;-0.039528504;-0.14497072;-0.0062709604;-0.11733622;0.3110946;0.058707923;0.2283076;0.01617077;0.0419793;0.24842948;-0.02301386;0.093723476;0.036038905;0.10125058;0.08578885;0.001979621;0.09006327;0.1031422;-0.16675103;0.14096823;0.10089848;0.22650208;0.16798168;-0.30956173;-0.09461024;-0.17081338;0.3224737;-0.051213514;-0.0021722224;0.19818299;0.10989192;0.1778023;-0.04542456;-0.29636988;0.04501194;0.17863712;-0.28202334;-0.22587553;0.08496046;-0.48648307;0.11411728;-0.009964184;0.08778253;-0.077561304;0.13003609;-0.064569324;-0.18087368;-0.08287274;0.060341503;-0.49851573;0.4134101;0.09703209;-0.06616354;0.05717743;0.042937156;-0.0132453805;0.11131402;-0.036699142;-0.13196321;-0.35270676;0.3561056;0.01561543;0.07581364;0.087015785;-0.12571317;0.17897262;-0.047767624;-0.07648875;0.19523895;-0.14512804;0.003179137;-0.30254623;0.17819986;-0.19427277;0.009372573;-0.12525836;0.06683985;-0.13452286;0.0031360355;-0.124712154;-0.2541968;-0.09955659;-0.03564166;0.16615596;-0.16124867;-0.21579859;-0.05910107;-0.029347206;-0.1791534;-0.03953907;0.013948407;0.23323332;-0.09610252;0.36791664;-0.028389115;0.106953554;-0.08817256;0.021712862;0.03608472;0.24968016;-0.11535643;0.032727595;-0.013846771;0.0837212;0.26215672;-0.120404184;-0.038922504;-0.26155812;0.010004023;0.22049563;-0.13392934;0.10556738;-0.1595189;-0.06921078;-0.021099858;0.050956912;0.07259837;0.012443108;-0.32114136;-0.07693805;0.058033824;-0.28172037;0.0250165;-0.21422242;-0.0177722;0.09472677;0.0625328;-0.08968311;-0.047872823;-0.08415583;-0.22665466;-0.32501486;-0.041020934;0.045752704;0.2656438;0.09166138;-0.29144195;0.11996371;-0.5328584;0.019331254;0.054336637;-0.05435848;0.21728998;-0.15795252;-0.07110258;-0.021039857;0.08813991;0.050321255;0.15553047;-0.011334092;-0.29079476;0.044427946;0.10343777;-0.042034794;-0.02651704;-0.01738709;0.07663391;-0.09176737;0.15043364;-0.0036832162;0.24874975;0.031035755;-0.080927804;-0.07914146;-0.029414166;0.22961703;-0.082124904;-0.17029317;0.2318977;0.23791954;-0.051671512;-0.23461868;0.22389048;0.08037604;0.19024298;0.11642899;-0.27285147;0.014543503;0.041425794;0.0042396626;0.04800702;0.02478691;0.0157202;-0.31270707;-0.07008447;0.12390693;-0.16871843;0.2231081;-0.040810406;0.1383419;-0.11442076;-0.25634825;-0.4724816;-0.04637023;-0.14296344;-0.05069183;-0.059305232;0.01062336;-0.14092049;0.31159312;-0.20614257;0.033787843;-0.010517152;0.17993294;0.17657757;0.046116482;-0.11546443;0.010465129;-0.2907944;0.23052715;0.22181232;-0.48927918;-0.14327103;-0.40593362;0.2815308;0.10718331;-0.091751486;-0.036376126;0.0613711;0.116195455;-0.010787146;0.08576459;0.077765316;-0.071168125;0.16379549;0.21486758;0.306879;0.14594522;0.14435281;0.08219722;-0.0060226633;-0.2507036;0.09606941;-0.09284526;-0.05796228;0.008112737;0.056305088;-0.06403776;-0.029177964;0.0634128;0.0928564;-0.07602998;-0.01185033;0.13181673;0.029485561;0.24133489;0.14003253;-0.1928644;0.21480452;0.057556655;-0.14223368;0.022702755;0.046004158;0.10806156;0.017565375;0.11195103;0.20150378;0.17808655;-0.058146786;-0.24388386;0.084261164;-0.16010094;0.2643522;-0.15248731;0.27518836;-0.24363263;-0.02388962;0.13479541;-0.115692645;-0.048301768;-0.06901911;-0.069120705;-0.27768672;-0.0009122561;-0.07289415;-0.00096391316;-0.057280228;-0.013136734;0.17035022;0.3363695;-0.060800698;-0.15201966;0.3628259;0.057170596;0.1729316;-0.03555943;0.06334321;-0.005597509;0.044132642;-0.17728285;0.014932127;0.031073697;-0.032688137;-0.026511347;-0.31750405;-0.30070907;-0.29989186;0.26693586;0.08213967;-0.097291455;0.1294293;0.0678081;-0.09718619;-0.033526793;0.026911514;0.17542651;-0.2437099;0.16662678;-0.123187214;0.08866359;0.06374482;0.0533786;0.20051587;0.05453142;-0.16196504;-0.29093373;-0.10968283;0.054615345;-0.072968505;-0.06536132;-0.18115683;-0.121239215;-0.34502512;-0.058685496;0.20064151;0.5322653;0.28352863;0.20033136;-0.21389833;-0.056046337;-0.10060804;0.070515856;-0.29763266;0.08098797;0.16696408;0.010621059;0.043778222;0.05590461;-0.124370515;0.3940548;0.013892131;0.09850252;0.11763168;-0.303181;-0.12959622;0.02677568;0.085580595;0.0985841;-0.05661178;0.2982073;-0.027808515;-0.018061485;-0.3454792;0.1778503;0.07778989;-0.02046866;0.1190412;0.009848389;-0.053338364;0.350689;0.020510236;-0.12528998;-0.023876281;0.013541251;-0.08804674;-0.048197743;-0.117535144;0.15945312;0.1947336;0.121633746;0.027295517;0.16110139;-0.029988727;-0.16513243;-0.212117;-0.06986302;0.031591047;-0.013335187;0.13016997;0.075369194;0.07194493;-0.043525517;0.10902823;-0.15172184;-0.060423195;0.04047794;-0.08406445;-0.04931308;-0.25235564;-0.19005615;0.25807935;-0.21713822;0.0899142;-0.08367148;-0.06666063;-0.20088284;-0.048303165;-0.24779184;0.08265491;0.2562413;0.2729513;0.2555831;-0.02861273;-0.15462747;-0.18336937;-0.034952007;0.028891481;0.04667662;0.110881306;0.086273745;0.1026578;0.11024411;-0.17176688
-0.014792194;0.026845729;0.021629129;0.107026175;0.19836581;0.026474698;0.23036848;-0.13432223;0.18372555;0.20827961;-0.18637696;0.24377695;-0.2717268;0.02397085;0.14757545;0.15554775;0.041918427;-0.20216316;0.13182439;0.019046294;-0.11976809;-0.07308619;-0.064193085;-0.2420551;0.01983631;-0.09150436;-0.10847565;-0.043947972;0.17560245;0.2717882;0.15209414;-0.026051428;0.1043822;-0.061357986;-0.10306721;0.036435492;0.281961;0.056340694;-0.03172527;-0.24474445;-0.012622789;-0.13477765;0.052099187;-0.28770107;0.08797533;0.041118752;-0.15787347;0.006121464;0.20043708;-0.2799673;0.1579575;-0.15042144;-0.2571512;0.35216108;-0.046340384;0.043491337;0.16662441;0.21730998;0.13117841;-0.025843086;0.042639334;0.023536557;0.102613024;-0.034648046;-0.030265287;0.12735043;-0.122134596;0.22975263;-0.42353258;0.046930153;0.008675053;-0.12708665;0.1936294;0.08784327;0.23474135;0.26305112;0.06961015;-0.12927304;0.37378806;-0.1137977;0.26005587;0.15654097;-0.117487356;-0.10034223;0.07129636;0.20117421;0.123910815;-0.03043574;-0.13036017;-0.34899002;0.21174835;-0.20531349;0.10166745;-0.370824;0.055165753;-0.23102148;-0.045116078;0.10653014;0.19499943;0.2491888;-0.12470809;0.09504027;-0.03560438;0.022862418;0.31193578;0.09563769;0.053051677;-0.016324008;-0.2848503;-0.26135743;0.10911397;-0.2279282;-0.24696799;0.14734942;-0.18891634;0.014473731;0.046183694;-0.17636436;-0.20023969;-0.05352117;-0.14128941;-0.010698385;0.30221024;-0.01776501;0.1567719;0.24135472;-0.18490212;-0.1714665;-0.32815787;-0.33041728;0.13148075;0.05163757;-0.15848483;-0.04476211;0.10706765;0.068986125;0.1772233;-0.017588628;0.10551352;-0.19448838;-0.42112732;0.21614814;0.033133037;0.07965655;0.04185931;-0.02673124;0.0024987652;0.26349825;-0.16985995;-0.02216804;0.1566016;0.080738336;-0.31250814;0.028361978;-0.13420393;-0.022465494;0.005402518;0.036525227;0.1387333;0.14313062;-0.14998165;-0.024329903;-0.23634529;0.04189911;-0.26665562;-0.06487509;-0.24735217;0.20662396;-0.0024908192;0.15507345;-0.110896945;0.15487096;-0.15505868;-0.1111791;-0.06278566;-0.34643015;0.23836406;-0.20133197;-0.24883765;-0.1410844;-0.055288035;-0.40833393;0.004609008;-0.14980476;0.1558141;0.045752127;-0.4969819;0.060552206;-0.17451069;0.047495205;0.16160895;0.060762364;0.040282838;-0.003994541;0.044393897;-0.013096742;0.10439159;0.0951409;0.07890598;-0.12161949;-0.049587164;0.08946251;0.116164595;0.08704781;0.2658389;-0.109900676;0.08282303;0.32061344;-0.16743279;-0.062436223;0.13008569;-0.19712181;-0.19266017;0.21632934;-0.07038367;-0.0952635;-0.097686276;0.1310717;0.091127954;0.24583443;-0.28294477;0.002428709;-0.22175577;0.23469023;0.037234314;0.08244285;0.09000869;0.35996786;0.14795035;0.019082835;-0.10554322;0.10169976;0.03278348;0.23194279;-0.14483348;0.008235868;-0.18462755;-0.18902962;0.05777747;0.080853716;-0.15022413;-0.23524977;-0.20364545;-0.2720293;-0.011579452;0.12039032;-0.044718012;-0.10903124;0.09134367;-0.104201116;0.2283317;-0.23322953;0.014891287;0.119088404;0.012660154;-0.016865108;0.091111295;-0.058594614;0.14819454;0.22025298;0.09211;0.3247139;0.19872491;-0.29621625;0.12156727;-0.059055194;0.2479974;0.09399424;0.029198289;-0.210043;-0.16837808;-0.24120763;0.24788378;-0.1563932;0.058138493;-0.0075885924;-0.10792776;0.04427973;0.12933739;0.124856375;0.06181487;-0.07696673;0.2616202;0.07453738;-0.116150886;-0.050787695;-0.18548152;0.017874878;0.031771556;0.18460791;-0.1807668;-0.07828997;-0.08275524;-0.28250596;-0.100942366;-0.2112367;0.026311634;0.141344;-0.005178878;-0.01343172;0.14922793;-0.6245587;0.095225394;-0.009733442;-0.011367655;0.021671679;-0.08764738;-0.64013326;-0.16622947;0.1842955;0.11225871;0.2685635;0.09970332;-0.38747984;0.3001699;-0.2424951;-0.1757699;-0.034039825;0.00086705375;0.2448135;-0.04480871;-0.24847479;0.11270579;0.098606646;-0.19530447;-0.6833438;0.20440887;0.114899494;0.2072952;-0.11283849;-0.10554205;0.08090403;0.14984772;-0.0023455299;-0.14357859;0.007628216;0.069175676;0.16093053;0.1064526;-0.21374214;0.17314121;0.13217142;-0.0397434;0.033362173;0.13445215;0.1030924;-0.53758824;-0.13476443;0.07851533;0.028402504;0.11472101;0.017532788;0.09146441;0.072529666;0.17284961;-0.11661731;0.06458544;0.157517;-0.12907186;-0.021407584;-0.15620354;0.14364314;0.17619087;0.020059945;-0.09877074;-0.12955208;0.14976926;0.36333;0.25638574;-0.28614303;-0.039447404;0.01726985;-0.10934124;0.063739285;-0.4409462;-0.19063482;-0.06407357;0.22073144;0.20983636;0.13969797;0.082061775;0.21482179;-0.08671318;0.07571947;-0.0003721052;0.16761346;0.10771074;0.22918417;0.09055596;0.05750312;0.07191287;0.07875851;-0.02216299;0.020542;-0.054806262;-0.16840278;-0.0833045;-0.15858977;0.08725779;-0.014777454;-0.022235315;-0.13365325;-0.1996209;0.0020239903;0.05141958;-0.20384906;-0.18911417;0.1361428;0.12308678;0.015132389;-0.2812738;0.20693974;-0.037539933;0.16458207;0.035178225;-0.052806567;0.21571505;0.0689683;0.04110131;-0.020731049;0.2804528;-0.043337453;-0.3798515;0.13763852;-0.272365;0.26038697;-0.12796988;0.28454006;-0.22730285;0.075342864;0.27488878;-0.2935758;0.028163724;0.013601537;-0.089603044;-0.2640071;0.19967444;-0.09634102;0.008159644;-0.09864993;0.32359242;0.03204734;0.3340923;-0.078137;0.061722327;0.13702486;-0.09116958;-0.06905293;0.08813432;0.12527563;-0.035010137;0.19070351;-0.047944393;0.04458788;-0.027004797;0.023799688;-0.14919141;0.0329806;-0.020752838;-0.09607614;0.10752879;-0.10597949;-0.19385448;0.24108374;0.18079552;-0.034650072;0.10991518;0.0687289;-0.14309329;-0.26168674;-0.063293785;-0.019808283;-0.10545754;-0.26987574;0.09571297;0.15566301;-0.011048189;-0.033161152;-0.22525577;-0.031606663;0.1297487;-0.13831833;-0.0018392359;-0.05131185;-0.09585386;-0.37857217;0.17789932;-0.3541027;0.24714638;0.22515227;0.08860681;-0.1687945;-0.10449657;-0.1515469;0.024122104;-0.28200468;0.05027928;-0.098906144;0.013792166;0.10201239;-0.0017460602;-0.08721139;0.2306685;-0.163224;0.18290614;-0.09663055;-0.25138593;-0.018631058;-0.13210121;-0.11995778;-0.10382646;-0.04133372;0.14116903;-0.109133355;0.11648433;-0.183457;-0.027031861;-0.19182208;-0.08129998;0.1518242;0.03965438;0.0006295582;0.17932615;0.19794884;-0.21442954;0.017394086;0.06421053;-0.2473199;-0.018054288;-0.094349;-0.08893798;0.2533961;0.30594856;-0.064187445;-0.11783738;-0.11920902;-0.2264866;-0.12032445;-0.078191906;-0.10941993;0.1667637;-0.063537896;-0.2678428;-0.096679784;0.1343872;0.07460923;-0.10768251;0.33831155;0.049304515;0.19894108;0.06999163;0.03140528;-0.054309733;-0.012674592;0.035489723;0.35191324;0.30055553;0.15420407;-0.18491168;-0.050353874;-0.16515705;0.28332213;0.28304023;0.101714395;0.0074733514;-0.0034458742;-0.12148735;-0.0679221;-0.092363924;-0.18631944;0.042885795;0.15690407;0.10473128;-0.0100708725;-0.023541499;-0.167037
0.033370316;-0.2294497;-0.063958615;0.13791178;0.28678325;-0.023648124;0.20189916;0.08204685;-0.03891483;0.055933237;-0.19319412;0.29699263;-0.38012278;-0.34167317;-0.04865363;0.08676877;-0.06791408;-0.20312111;0.06664748;0.093793154;-0.30376667;-0.020542273;-0.061266106;-0.13414535;0.041694213;-0.194359;-0.18859719;-0.02783067;0.23614527;0.23087949;-0.034912214;0.08927994;0.050319374;0.083942264;-0.09117112;-0.056438673;0.24680106;0.11539493;0.09483387;-0.15694161;-0.044116654;-0.10225135;0.28206402;-0.009810315;0.15438287;0.056512136;-0.040735923;0.021307882;0.21557498;-0.061166003;0.107879214;0.031584214;-0.32840148;0.13028646;-0.047357753;0.103522204;0.04445654;0.2112746;0.23292324;0.023202278;-0.06705877;0.11091271;0.030015705;-0.02788012;-0.0689978;-0.0596144;-0.0795877;-0.0047310074;-0.48791298;-0.14089164;-0.15242761;-0.062301498;0.019124921;-0.44738284;0.24521367;0.21971062;-0.16083461;-0.058295187;0.20251432;-0.10721982;0.13187665;0.21228565;-0.03130453;0.06466103;0.055853322;0.23022266;0.116507076;-0.17455931;-0.13437946;-0.39335933;0.11327421;-0.1981337;-0.0127974;-0.10206704;-0.057222255;-0.12159689;0.09858079;0.02130506;0.092635915;0.21745463;-0.01974302;-0.17243387;-0.10185928;-0.001156034;0.31183577;-0.002398682;-0.15898196;0.11574725;-0.18238443;-0.33938378;0.30291978;-0.33198825;-0.028206598;0.072012566;-0.24714988;0.17265852;0.24933614;-0.038401827;-0.07769911;-0.22453108;-0.17769201;-0.11401834;0.3069665;-0.18773583;-0.06563259;0.06455577;-0.19785333;-0.18814321;-0.16499496;-0.103555925;-0.007533353;0.029439969;-0.1706797;0.07074625;0.1921492;0.17805892;-0.03198913;-0.08967765;0.11202577;-0.26779604;-0.22993448;0.10105848;0.054953102;0.19181234;0.11429762;0.15589707;-0.03437342;0.12569621;-0.25963926;0.036533017;0.08392018;-0.19900799;-0.42411694;0.003540121;-0.13612412;-0.044973794;0.017157216;0.06820285;-0.059734028;0.031702742;-0.13539797;-0.052830614;-0.034145523;-0.044598997;-0.2204752;0.015137936;-0.20762439;0.3683338;-0.09046261;-0.12923245;-0.017129919;0.16154195;0.25266072;-0.23999883;0.028253013;-0.20133558;0.08110599;-0.07273942;-0.21488893;-0.088975646;0.042988494;-0.23872402;0.12005359;-0.2802642;0.0664065;0.28244784;-0.42321324;0.016109206;-0.09652354;-0.01187325;0.06864045;0.09692733;-0.07540073;0.1181216;-0.014628989;0.18676595;0.15228127;0.14471044;-0.28638613;-0.13314086;0.11287211;0.10362316;-0.06531446;0.16878423;0.1048988;0.08952622;0.06689193;0.1312057;-0.18131712;-0.25580496;-0.010880565;0.038424086;-0.08240855;0.1718921;-0.092984505;0.122433506;-0.1411053;0.07536569;0.16436958;0.053976685;-0.28576592;0.17551534;-0.1942132;0.03702243;-0.02125669;0.014995892;-0.14948034;0.09916048;0.21415955;-0.08915216;0.118326254;0.107124165;-0.29365236;-0.24547158;-0.3585227;0.02111281;-0.014950681;-0.07278241;-0.09451483;-0.015570672;-0.04234609;-0.14500144;-0.07629558;-0.46703386;-0.22740522;0.21693256;0.031858604;-0.11353108;0.3139256;-0.07534022;-0.26868185;-0.2618496;-0.022276515;0.024834953;-0.059019003;-0.19617297;0.0050181653;-0.24014097;0.08188338;-0.18658008;0.15548372;0.018099027;0.007247348;-0.020318879;0.23345874;-0.07357651;0.1130096;-0.08145697;-0.3490635;-0.31800357;-0.016648104;-0.27095276;0.18566908;-0.14392932;0.11253417;0.014248084;-0.39178038;-0.088454;0.06106783;-0.11760487;0.019320315;0.027664673;0.41382825;0.19306272;-0.0053066947;-0.14388333;-0.12984306;-0.016551478;0.014132252;0.15367137;-0.2874581;0.1897657;0.05683778;-0.25188842;-0.19778728;-0.17871442;0.0867068;0.08118172;0.10826376;0.00063209014;0.08841189;-0.4335755;-0.07644263;-0.027849266;-0.11013508;0.11480137;0.08630389;-0.33435804;-0.12489527;0.19802818;-0.052877393;-0.04542846;0.10177763;0.013965921;0.27416497;-0.2537068;0.02318434;-0.17326216;0.04618218;-0.026009921;-0.09338032;-0.15763232;0.033794913;-0.068541445;0.21577765;-0.59766346;0.3936835;-0.018073099;-0.025829753;0.11133914;-0.07670988;0.051499225;0.22820054;0.19048445;-0.056971017;0.33730775;-0.06981851;0.07448562;-0.052582137;0.095300175;-0.044333447;-0.15776515;-0.027521601;0.19544536;0.06283473;-0.013215777;-0.26440325;-0.33161855;-0.2582467;-0.18853545;0.14507343;0.0061887107;-0.1437528;0.14217742;0.07007798;-0.012661069;-0.042251486;-0.16133101;-0.21915506;0.06852934;-0.1835926;0.2273057;-0.0043143476;0.15074761;-0.041258764;-0.055860963;-0.05016001;0.18964367;0.13866434;-0.31665295;0.14378877;0.034101985;0.106705226;0.11379199;-0.25093108;-0.05535794;-0.22547583;-0.053618375;0.24617256;0.038972244;0.13484107;0.03063188;-0.37290683;0.17395867;0.20235394;0.13672936;0.09807502;-0.036128774;0.101926595;0.119978495;-0.052248053;-0.019884828;-0.033621494;0.029956918;-0.01268172;-0.09690091;0.068921186;-0.2885651;0.31306773;0.1782363;-0.296244;-0.14930815;-0.066319324;0.11742785;0.036764696;-0.12573473;-0.14333306;0.1906623;0.06287951;-0.05000105;-0.18232945;0.19745427;0.07180275;0.041985385;0.13157913;0.040582456;-0.019320544;0.14695884;-0.067160934;0.11386293;0.23477672;-0.14630434;0.0010228977;0.1679794;-0.36170158;-0.009808877;0.029176118;0.055823106;-0.11570537;0.02740313;0.09286054;0.072264686;0.2635975;-0.06891819;-0.27044904;0.08425233;0.13939856;-0.28916624;0.09855033;-0.011811344;0.4616146;-0.020935373;0.049407303;-0.05289556;0.023854058;0.26009604;0.02306471;0.042804036;-0.09112987;0.20058297;0.15396342;0.13396282;0.0024006022;0.054953855;0.09251124;-0.0055607343;0.19173838;-0.17238466;-0.08763352;-0.11621008;-0.17908616;-0.32362455;-0.11441499;0.3692605;0.1023331;-0.008599938;-0.115126155;-0.10164556;0.17268273;0.03934008;0.019875925;0.10221848;-0.17827241;-0.1221003;-0.00040732106;0.074487515;-0.034007728;0.04896071;0.06595981;-0.047751773;0.05398381;-0.06073408;-0.28473425;0.024080055;0.094796665;-0.51359075;0.1732066;-0.30837157;0.46424773;0.038938675;0.09618705;-0.1954701;-0.22945814;-0.0890452;0.14115508;-0.30703962;0.11190378;0.1185385;0.05085964;-0.15603405;-0.09916289;-0.052308004;0.1590538;-0.12086926;-0.11495213;0.046818245;-0.16728644;0.011289514;0.20615721;0.17735669;-0.025793036;0.09203023;-0.06923797;-0.03135432;0.037783638;-0.2547984;-0.022015065;0.20297298;-0.07846209;0.27219823;-0.05584923;-0.10499851;0.14472671;0.09948772;-0.22289363;-0.0044828495;-0.11652487;-0.41451302;-0.044126317;-0.14213063;-0.1742108;0.14179523;0.07687884;-0.2869663;-0.09353533;-0.0998536;-0.21196702;-0.05760395;-0.047342032;-0.28892702;0.029437302;0.19339819;-0.02282372;0.13712251;0.107631676;0.14644435;0.017529538;0.11682117;-0.009502223;-0.053239483;-0.02723432;0.006715582;0.10420695;0.07007395;0.01589295;0.24662183;-0.045509785;0.24496408;-0.18393299;-0.16967101;-0.16459772;0.1958393;0.18137944;0.12158942;0.2601749;0.10694354;0.13314685;-0.13945724;-0.17948124;0.0708477;-0.027013868;0.14079292;-0.2082233;-0.08788139;0.08519713;0.038743295
-0.12001292;-0.22812714;0.009385467;-0.15374242;0.091830134;0.060923293;0.21647502;0.2689573;-0.009635047;0.055140555;-0.022867935;0.20400102;-0.48483893;-0.4389705;-0.08295801;0.20504609;0.10650663;-0.2776452;0.040107477;0.021039333;-0.33885953;-0.01039882;-0.05877686;-0.009982511;0.023880638;0.07089362;-0.16100302;-0.13533692;0.34080198;-0.16456085;0.11315788;0.06403655;-0.038891584;-0.019031508;0.06339717;-0.07315176;0.27229336;-0.08870472;0.22747426;0.0424202;0.07051802;-0.0676179;0.09377645;0.12745245;-0.32884488;0.013679035;-0.058655344;-0.018783195;0.37976652;0.2852253;0.31809032;-0.12714028;-0.09668146;-0.006194962;-0.14928831;0.24639484;-0.13103683;0.1231388;-0.0523791;-0.028914267;-0.013659381;0.1778783;0.039873287;0.048453283;-0.10698668;0.043892045;-0.09928852;-0.30111352;-0.3585676;-0.11448009;-0.20091555;-0.039230384;0.09031152;-0.16828771;0.11955552;-0.016519314;-0.21578717;-0.15238996;0.17373393;0.13613619;-0.1310289;0.13814077;0.026890159;0.08470726;-0.09942388;0.026892684;0.067901656;-0.122047484;-0.056741986;-0.21736391;0.17753008;-0.19954804;-0.12259323;0.1203087;-0.06928218;0.11523771;0.046840817;0.16676867;-0.05831983;0.24638648;0.071744904;-0.13088515;-0.05953644;0.07883796;0.34825253;0.20714752;-0.13174772;0.21869138;-0.059762806;-0.056663573;0.3400679;-0.18053557;0.15770914;0.23413444;-0.041178755;0.14870664;0.24137872;-0.1837977;-0.10936976;-0.16138434;-0.20436823;-0.07196;0.4231093;-0.05593155;0.09769986;0.092255086;0.102010965;-0.15127613;-0.34010565;-0.07559063;-0.06585863;0.17303014;-0.19191268;0.20853533;0.07810373;-0.0020780116;-0.0010939798;-0.057892703;-0.17614523;-0.20267153;0.17441273;0.13430645;-0.07505267;0.0995454;0.19239795;0.070290275;0.0043372805;-0.07016264;-0.23791866;0.15182376;0.013391779;-0.18619016;-0.4645993;0.008510703;-0.1874758;-0.1911863;0.17554943;0.032151222;-0.020684846;0.012511268;0.005348768;0.11463631;-0.014994025;0.099982426;-0.03881192;0.0133456895;-0.029811228;0.14892015;-0.1610597;-0.0913666;0.14108324;-0.026894124;0.312193;-0.15145786;0.020092642;-0.29021785;0.098227814;0.0071384353;-0.23129663;-0.12891136;-0.20535295;-0.28375646;0.1969583;0.21696822;0.16872118;0.31224298;-0.18648686;0.10290506;-0.0338452;-0.054922774;-0.09561541;-0.093274966;-0.033280708;-0.020441938;-0.13773775;0.18896846;0.0415995;-0.052146904;-0.026209157;-0.109313;-0.057069857;0.08445417;-0.080756426;-0.09921559;0.24311902;0.24996215;0.0062373;0.20016795;-0.16967434;-0.22770636;-0.17423055;0.082504965;-0.25027385;-0.05690446;0.019238487;0.007548811;-0.28551844;0.058062956;0.30386555;-0.12960681;-0.36279625;-0.090347566;0.054004457;0.1329217;-0.015696866;-0.17911765;-0.12208787;0.41059473;0.34713057;-0.11087003;0.0053292783;-0.038205605;0.1522339;-0.17484401;-0.0825188;-0.15657754;0.089556135;-0.061789233;-0.27186838;-0.04598201;0.08347167;-0.29368415;-0.17783073;-0.2163018;-0.18033169;0.15361145;-0.06051226;0.027653975;0.22334473;-0.030449174;-0.57083094;-0.22975847;0.08878177;-0.3528775;-0.16624655;-0.24155004;0.014919645;-0.29745156;0.10663465;-0.10045245;0.13207214;-0.022063088;0.091123775;-0.0067037907;0.09685737;-0.15042973;-0.07275136;-0.08924843;-0.0926168;-0.03411179;0.2923324;-0.110323675;0.11698808;-0.024132732;0.05556434;0.13073307;-0.2310054;-0.23175885;0.013028629;0.014901169;0.12058343;0.11624927;0.18974459;0.16346931;0.004562951;-0.05118585;0.22560617;0.16930631;0.076182656;0.11062531;-0.038394324;0.096752584;0.13960397;-0.10547015;-0.039373673;-0.13690774;-0.037518654;0.047763973;0.113152154;-0.043501794;-0.04220155;-0.37578204;-0.004319717;-0.069445424;-0.19946091;-0.11366519;-0.07716036;-0.12090808;-0.10924224;0.3621905;-0.03383469;0.10067031;0.08881683;0.18237512;0.2526587;-0.018346947;-0.076525435;-0.17689286;0.10229703;-0.017092047;-0.020553216;-0.17318912;-0.005552184;-0.2696561;0.046278227;-0.24612804;0.12843816;0.08554753;0.13267997;0.20248118;0.14416066;0.046108715;0.1686027;0.22284985;0.07817939;0.35851702;0.07869015;0.067675196;0.07146669;0.10861029;-0.080134876;-0.24621348;-0.033444516;0.106847994;0.196779;0.029907953;-0.11230643;-0.25324628;0.006863462;-0.17214605;-0.11357313;0.09916757;-0.011859898;0.0037252312;-0.12751451;-0.2213053;0.066872194;-0.16812675;0.14231178;0.087454975;-0.22593379;0.09638311;-0.13303988;-0.06750775;-0.3070172;-0.17051473;-0.05352783;0.015545162;0.035167783;-0.5347375;0.12569612;0.052295085;-0.07254088;0.02420159;-0.18571244;0.06705251;0.15309647;0.22560017;0.28102338;0.10573447;0.043417484;0.105851986;-0.14915326;0.15799409;0.1826107;0.24545823;0.21939324;0.035460364;-0.06057625;-0.090344556;-0.010049226;-0.03815243;0.12737693;-0.10289554;0.014017266;-0.004417577;0.07767884;-0.24215965;0.20389551;0.16876315;-0.27969447;-0.09864984;-0.27468455;-0.010155327;-0.095021784;0.13316788;-0.07587568;0.22438878;-0.013707134;-0.10455213;-0.16558574;-0.034494784;0.05039779;0.13278987;0.16547105;-0.033653416;-0.11240789;0.023589334;-0.18034439;0.23530957;-0.02253687;-0.13000263;0.02988531;0.08761934;-0.26148888;0.007396805;-0.03201921;-0.120835245;-0.16057326;0.061341345;0.115262076;-0.17503072;0.20969278;0.059657786;-0.22031571;-0.12363165;0.07030851;-0.35889116;-0.013247174;-0.06978252;0.23847255;0.039775033;0.26992062;-0.07416403;0.06411264;0.2818076;-0.020478513;-0.057096425;0.0033240004;0.035423573;0.0776003;0.06203192;0.09593956;-0.017602865;-0.23004952;0.0940346;0.008186292;0.0209801;-0.005520718;-0.058365863;0.15120107;-0.23152696;-0.015977018;-0.085824415;0.1485894;-0.17579535;-0.0028661347;-0.070462584;0.09924437;0.15624848;-0.0028788208;0.02977751;-0.16701221;0.039878856;-0.014138458;-0.13315241;-0.11312515;-0.020028856;0.1374209;0.13571942;-0.13602692;-0.15777723;-0.23899491;0.10523679;0.21372223;-0.38304657;-0.12262438;-0.24139877;0.063322216;0.10104721;0.0057842587;-0.37143004;-0.02219241;-0.102148764;0.14546275;-0.2967801;0.0077246255;0.32129332;-0.03194259;-0.023625342;-0.07094474;0.09405626;0.23848857;0.0022927553;0.027383924;-0.008415815;-0.29298323;-0.019146621;0.082030885;0.012895874;-0.16910917;0.15901971;-0.048819736;0.053269453;-0.2101693;-0.13682896;0.118807025;-0.50271946;0.03137358;0.20805585;-0.11855447;-0.02565533;0.026624752;0.23307434;0.083267;-0.123862594;0.052283365;-0.40820196;0.1840601;0.0015985994;0.11865403;0.1382255;0.07299458;-0.18351348;0.041329633;-0.19980246;-0.2967367;0.08018651;-0.06024151;-0.2364916;-0.14686123;0.18891445;0.11345896;0.294079;0.056172762;-0.18729302;-0.13424368;-0.094373316;-0.14631225;0.114517294;0.010057038;-0.34017593;0.3214905;0.11982928;-0.14622143;0.21125548;-0.0041689626;0.31318322;-0.10716162;-0.13583604;-0.07690534;0.1604112;-0.22737448;0.21036905;0.1897665;0.051709164;-0.03177713;-0.1066551;-0.119797796;0.0040641283;-0.1314579;0.27873057;-0.071710184;-0.15946557;0.039853193;-0.01847836
0.026166614;0.06228409;0.08748394;-0.27160555;-0.15268572;-0.12768343;0.20353748;0.28279448;-0.18753985;-0.12484707;-0.07327415;0.19549304;-0.18377891;-0.18704727;0.0038142216;0.120341375;-0.18762761;-0.020822436;-0.035818446;0.064321995;-0.35090873;-0.1339571;-0.13261065;-0.33179653;0.012217332;-0.04672673;-0.13852653;-0.19959396;0.13314997;0.124142386;-0.053983722;0.11788594;0.080987945;0.014583652;0.015324741;0.23160441;0.20214604;-0.3302502;0.30187243;0.06371558;-0.0606177;-0.1451735;0.06466096;0.029029656;-0.51072836;-0.1176447;-0.10514175;-0.25812882;0.37925804;0.25926876;0.11446043;-0.15647438;0.17561847;-0.13328585;-0.165822;0.3809737;0.092985936;0.02294369;0.14569189;0.1705935;0.030269999;0.19153458;0.057511214;0.16114487;0.079820745;-0.090503186;-0.16395538;-0.15844156;-0.24097691;-0.14263038;0.0758777;-0.13392845;-0.07792452;-0.12642881;0.07438218;0.058135185;0.012971941;-0.028087003;-0.010498344;0.13368379;-0.08297004;0.1005266;0.0833083;0.25936225;-0.022368165;0.08953173;0.25480592;-0.0036491805;0.0579664;-0.15857612;0.088959776;-0.23502925;0.14283937;0.11186122;-0.25829765;0.0659597;-0.0009747089;0.05374941;-0.13877214;0.07478939;-0.05191571;-0.066391684;-0.066035494;-0.050474208;0.24806973;-0.14527941;-0.16138573;0.0605775;0.010212077;-0.10593864;0.17005189;-0.2343054;-0.07602908;0.2091711;-0.024175594;-0.05255823;0.2738393;-0.17411204;-0.16282935;-0.2483279;-0.19275956;0.046935942;0.39334;-0.16918346;-0.03508777;0.060899034;0.13548163;-0.09385978;-0.07977925;-0.13048111;0.119366065;0.12417247;-0.019911336;0.31949523;0.23444828;0.033274516;-0.14040032;-0.0499853;-0.023776678;-0.16377413;0.19612113;-0.14770222;0.09954858;0.30902833;0.17948315;0.032507736;0.1543536;0.06384019;0.16832262;-0.19468042;0.055690788;-0.06292777;-0.6508987;-0.08769291;0.043873604;-0.11659671;0.38228765;0.09279946;0.034080006;0.103319675;0.16069902;-0.013195145;0.13711149;0.26371956;0.12966654;-0.024283145;-0.059698615;0.042901453;-0.21719049;0.04458651;0.18664326;-0.08657099;0.008565408;-0.23348825;0.049428273;-0.4023737;0.15520538;-0.05152537;-0.04816124;-0.36624917;-0.08201798;-0.11943944;0.28879625;0.081466764;0.061610274;0.12965737;0.04194103;0.26111683;-0.28133184;-0.08070958;-0.049837716;-0.03858866;0.08097994;0.07918127;0.10365622;0.1806899;0.0899517;0.0043395;-0.22308823;-0.10481328;0.07358482;0.017239032;-0.14686406;-0.19823274;0.20963745;0.013904537;-0.15353411;0.18561035;0.0030852586;-0.1997193;0.019427745;-0.025392951;-0.19996087;-0.019320834;0.09560924;-0.09084368;-0.18466826;0.05283681;0.14976305;-0.2570326;-0.12262124;-0.09945935;-0.1119573;-0.025871342;-0.08402923;-0.23841497;-0.12651905;-0.030096766;0.0050755213;-0.11473436;0.049657498;-0.14404386;-0.17202845;0.010491016;-0.124178395;-0.08815448;0.16984507;-0.1065167;-0.33602437;0.023479652;0.27746788;-0.27235714;-0.15736884;-0.16883284;-0.05445653;0.25669175;-0.086333625;0.2378646;0.11296272;-0.035388757;-0.5829037;0.18639863;0.12657659;-0.37882438;-0.07355622;-0.016926011;-0.27274758;-0.31423804;0.121613786;-0.07989809;0.2905495;-0.14987744;0.11526486;-0.21708082;0.02234541;-0.29294753;-0.26148564;-0.09480303;0.13135837;0.15563375;-0.062217813;-0.096853174;0.10120905;0.0795252;-0.18278751;-0.103992626;-0.5228917;-0.016164308;0.069354236;0.15456034;-0.13413577;-0.090286985;0.084405325;0.04258796;0.09930384;0.054976262;0.09338109;0.080234736;0.086862475;-0.019830516;0.13904262;0.06643577;0.093755424;0.13393714;0.1055406;0.060928307;-0.08146624;0.07754533;0.06223616;-0.08220796;-0.16721442;-0.23649326;-0.17697865;-0.038320344;0.119632944;0.14664546;0.035212103;-0.10236686;0.023300676;0.21916227;0.06420943;0.35109356;-0.083364695;-0.059519645;-0.1400297;0.050858416;-0.1735215;-0.09469258;0.06710508;-0.0788526;-0.025201863;-0.28400654;0.019985342;-0.17612831;0.17170863;-0.12348794;0.036429323;-0.23007402;0.058833957;0.21900024;0.105863914;-0.24939798;0.15942435;0.2151177;0.11607243;0.19885893;0.2531903;0.013970166;0.18057892;0.17141998;-0.026749194;-0.28653005;0.062345013;-0.057741843;0.2181267;0.1018387;-0.15444155;-0.23288372;-0.3223478;0.09878221;-0.21798024;-0.035410564;-0.1787194;0.21861033;0.07173934;-0.37653944;-0.24621633;-0.065432616;0.23261693;0.10686016;-0.13946025;-0.2695308;-0.03349837;0.010704086;-0.21515974;0.010428561;0.12049091;-0.090007134;-0.11139498;-0.40697145;0.20471811;0.17172824;0.05006878;-0.104702726;-0.20802663;0.2130245;0.08143379;0.060297098;0.0960053;0.3408858;-0.06437484;-0.023123907;-0.1612397;0.04110842;-0.09648011;-0.017405363;0.16903858;0.013949958;-0.17929137;0.03117806;0.017565776;0.09959809;-0.15203941;0.053247333;-0.09854108;0.42546275;0.20359041;0.079211324;0.23360021;0.1165105;0.063617855;-0.04464892;-0.36975402;0.076796055;-0.0069601876;-0.22302678;0.034346897;0.17614077;-0.27496967;-0.16658357;-0.20741087;-0.06284213;0.110559724;0.025959807;0.2201662;-0.17296532;-0.068705134;0.025881425;-0.018937364;0.30607662;0.08714249;-0.11094732;-0.3693478;0.29715186;-0.06435838;0.19117437;0.2024535;-0.25231037;-0.016323043;0.022372624;0.17381686;-0.19977763;0.19826743;-0.12243487;-0.15964113;0.08866777;0.12859276;-0.21046822;-0.017187621;-0.20564048;0.2796616;-0.06912568;-0.050866567;-0.079769164;0.01506755;0.2451952;-0.08140941;0.007903285;-0.059191365;-0.01635957;0.035556506;0.032241378;0.05457654;0.033544723;-0.16558431;-0.038576394;-0.108087696;-0.018250402;0.09578885;-0.0056308247;0.022431925;-0.15207997;0.051598072;-0.08601327;-0.101619914;0.11199935;0.026801059;0.022580966;-0.20010252;0.18919544;0.21449988;0.16123389;-0.29977012;-0.23964931;0.14459668;-0.26797268;0.121577635;-0.09890422;0.1700822;0.0012988017;-0.2322012;-0.124728136;-0.32225496;0.1172274;0.081388086;-0.30280265;-0.25871333;-0.30184662;0.07041103;0.08695662;-0.20861913;0.077387266;0.017976625;-0.074311346;0.17165202;-0.3131921;0.08557775;0.016714612;-0.11233091;-0.042231873;0.066684544;-0.006863623;0.049571984;-0.108418226;-0.16282375;-0.15928274;-0.15739968;0.15497142;0.0795556;-0.10404114;-0.15644838;0.022790575;0.038657136;-0.4236562;-0.093363315;0.008117503;0.19327621;-0.42854938;-0.007410252;-0.07989779;0.04453572;0.13374458;0.11506968;0.10582806;0.16855763;-0.010783882;-0.26113153;-0.32846865;0.23406856;-0.12693751;-0.010931758;0.020141527;0.10697423;-0.28051275;0.15191165;-0.27432644;-0.13339598;0.13751034;-0.0471296;-0.27154574;-0.1663492;0.0835043;0.1245464;0.23784605;-0.113673404;-0.14089398;-0.08783192;0.068724655;-0.34894288;0.059378028;-0.2053059;-0.26598313;0.23622233;0.118269496;0.018866146;0.21153086;0.21026498;0.0324121;-0.09086025;-0.23118265;0.09905374;-0.047417708;-0.07024468;-0.1290628;-0.01973667;0.003073052;0.1477017;-0.14393587;-0.056129664;0.1815788;-0.043625817;-0.2371882;0.07270936;-0.12424116;0.20979448;-0.33096707
0.017104385;0.08819857;-0.06805622;-0.22028002;0.048803873;0.025937602;0.22644386;0.033683404;-0.01749165;0.055755004;-0.21235393;0.26578414;0.22957116;-0.21582735;-0.11585987;0.10152478;-0.15078874;0.016086036;0.14850439;-0.029302303;-0.0195177;0.00050212414;0.066811055;-0.016200216;-0.1987829;0.1226379;-0.18563621;0.096580476;0.16276069;0.048400633;0.0005186773;0.039623898;0.14052673;-0.28564236;-0.025737386;0.18210924;0.21541363;-0.19568902;0.27589175;0.06386816;-0.122367956;-0.14456601;0.03422619;-0.032245703;-0.37714636;-0.01712594;0.15119012;-0.08976639;0.23738527;0.14229402;0.32254666;0.21017997;-0.21473229;0.05470515;-0.08659689;0.103742436;0.113530666;0.09773805;-0.14319071;0.3649382;0.048625022;0.049855333;0.13304234;-0.16897547;0.10965013;-0.018017134;-0.13825975;-0.09711592;-0.10067323;-0.13618651;0.18573281;-0.14706752;0.043834247;0.0036365143;0.11734713;-0.0067970864;-0.027472114;-0.040163245;-0.15850735;0.10919343;0.0029059239;-0.13626342;0.004089772;-0.16681202;-0.0727161;0.15310885;0.08764255;0.1479397;0.0038672618;-0.29443792;-0.0985416;0.14347173;-0.018498061;0.27401552;-0.29148677;-0.08032709;0.19521107;0.08619443;0.010173016;-0.24022824;0.04726407;0.06024241;-0.015207897;-0.41586098;-0.021724692;-0.20376518;-0.34023443;-0.039730933;-0.12426131;-0.09259871;0.077711865;-0.13579749;0.16783693;0.08714222;0.029338894;-0.17723005;0.17211959;-0.060972083;-0.17932785;0.1650618;0.26253912;0.15039216;0.19108413;-0.22680998;-0.10402317;0.11871671;0.10309137;-0.23672867;-0.16583139;0.17450975;-0.0592909;-0.06347096;-0.102859475;0.28698435;0.13720596;0.054648597;0.04317284;-0.14135787;-0.07335002;-0.122137904;-0.06185326;0.15689498;-0.08247817;0.35401776;0.20361567;-0.19282125;0.18469831;-0.036059473;0.10805017;-0.14123732;0.04623901;-0.17844804;-0.48762706;-0.20048875;-0.26922432;-0.14071365;0.11061427;0.22085808;-0.0886015;0.12776646;0.14209689;-0.031759903;-0.092194736;0.194411;-0.057934523;-0.060310915;-0.07419824;0.17868575;-0.11233118;-0.106221996;0.14263426;-0.21400483;0.01764944;-0.2854698;0.20892258;-0.477333;0.13979223;-0.01772001;-0.12291095;-0.3003166;0.088223174;-0.036356248;-0.101981424;-0.022439308;0.0058689946;0.37617776;0.23617552;0.22397123;-0.0074494705;-0.20741862;-0.024233194;0.039211422;0.13363813;0.08993722;-0.22839029;-0.09852309;0.018763812;-0.08810891;-0.2751829;-0.08797916;-0.07459129;0.2502921;-0.20408428;0.04381581;0.035059784;-0.04597584;-0.11598099;-0.09700746;0.32890916;-0.034302756;-0.11296567;-0.17390203;-0.24700657;-0.30989662;0.123352274;-0.09834046;-0.120545894;-0.07361964;0.13179229;-0.34311676;0.2608406;-0.14774826;0.0016083089;-0.032987546;-0.067278005;-0.005223199;0.12934047;0.22179428;0.05371351;-0.4581032;-0.05567443;0.12422947;0.04794071;0.037549477;-0.17141525;-0.1587549;0.08918075;0.064204045;-0.21046378;-0.095686026;0.087376975;-0.10501333;-0.023880666;0.038474023;-0.23665442;0.3118079;-0.20531432;0.015023588;0.06060456;-0.21815224;-0.28301707;0.055417214;0.12539722;-0.092643976;0.0550309;0.22766991;-0.23005058;-0.08192274;0.35214114;-0.26749521;0.014579235;-0.08353458;-0.09486833;0.023787228;-0.23424064;-0.12719335;-0.11308341;0.11673804;0.001336585;0.21042563;-0.1785797;-0.1136016;0.1632985;0.11348856;-0.18450525;0.008725684;-0.57863104;-0.0032144238;0.1885684;0.18126617;-0.047154043;0.08260327;0.02353435;0.052595463;-0.10954384;-0.039036732;0.058951486;-0.012872252;0.1910421;0.073307455;0.30424967;0.05832584;0.1300731;-0.10821777;-0.13884455;0.29029068;-0.03570619;0.05316094;0.13973458;-0.03365216;0.1619378;-0.30509734;-0.09824024;-0.012871271;-0.12094754;-0.292345;-0.2118337;0.08487384;0.14298686;0.09927153;0.03416325;0.15068339;-0.028286545;0.12554768;-0.23867597;-0.16774514;-0.044261444;-0.29764077;0.2955206;-0.023119586;0.038455065;-0.0329481;-0.08788347;0.13975616;0.13390872;-0.23951887;-0.15979771;-0.12038595;-0.097231604;0.21544136;0.10996346;-0.045569275;-0.17076811;0.301046;0.16831826;0.08897573;0.18347846;0.10843015;0.022174671;-0.023761477;0.005298147;0.03368483;-0.0150391245;-0.02235724;0.08373624;0.18344206;0.03257588;-0.5195393;-0.24382472;-0.07222092;0.12960425;0.03772338;-0.03853882;0.10174816;-0.011840038;-0.028020928;-0.12969902;0.023304371;0.20014383;0.3774314;0.09155139;-0.16040397;0.21636066;0.2922924;-0.35875952;-0.42435098;0.106380664;-0.03320931;0.083361134;-0.17372814;0.10651207;0.14804763;0.15198785;0.11903044;-0.07137911;-0.008122049;-0.29795802;0.01634275;-0.019148994;0.315797;-0.26068753;-0.27526677;-0.2884617;0.2737604;0.20146286;0.025601821;0.2487135;0.012098149;0.15481803;0.24877109;0.037991084;0.1456511;0.13595603;0.07514014;-0.27140835;0.07995474;-0.1423419;-0.328585;0.18148772;0.074906535;-0.064655125;0.017263178;-0.07068871;0.06110273;-0.095201425;-0.18643425;0.15466733;0.050142612;0.034048323;-0.21790417;-0.21760395;0.34624827;0.24776536;-0.041489694;-0.1596573;-0.19449075;0.015021308;0.112436175;0.095306054;0.008728752;-0.054712;0.017443698;-0.38099253;0.2659118;0.07116329;-0.21648005;-0.021493353;0.010805971;0.12525615;0.027031139;0.07368177;0.0046333135;0.2398314;-0.061436664;-0.20755278;-0.037216008;0.11095356;0.08714275;0.26953003;0.022066958;0.18850285;-0.16534643;0.019213714;0.028518418;0.017461257;0.26596594;0.12712511;-0.14912674;-0.13141489;0.12295482;-0.017762158;0.03010047;-0.1641979;0.045613207;-0.26030767;0.025057212;0.07314621;-0.20549;-0.08940061;-0.15110889;0.1367506;-0.17281382;0.3037203;-0.29934216;0.014097382;0.007686101;-0.0322687;-0.20679568;-0.17702504;0.31335947;0.051243518;0.14233765;-0.055195212;-0.20537691;-0.047576003;-0.20578325;-0.123690344;-0.04497023;0.053867877;0.07269446;-0.4890168;-0.114461966;-0.15518193;0.22935034;0.09239069;-0.057714023;-0.12589832;0.048853185;0.089772895;-0.00037128074;-0.074718796;0.11634926;0.30978933;-0.11670662;-0.2172636;-0.053416032;0.046491012;-0.04487022;0.042331766;0.052131005;0.16021256;0.29251155;-0.10376827;-0.1414828;0.04685252;0.005557013;0.38866243;0.16687056;0.29191765;-0.17728983;0.14706634;0.017004618;0.14658348;-0.36711386;-0.0068033026;0.21998338;-0.0435532;-0.09994657;-0.020164631;0.008934841;-0.04783434;0.04911275;0.101789325;-0.32125738;0.121674374;0.005174305;-0.26697576;-0.37834957;0.06409895;0.085008755;0.19172801;-0.103931285;-0.06201065;-0.36485562;-0.06388815;-0.1472374;-0.11998954;0.42827833;0.19415103;-0.035897385;-0.097640224;0.32240307;-0.06427311;0.34035864;-0.18144014;-0.24607512;-0.043949895;0.05924893;-0.009632305;-0.020593662;-0.1178415;0.3065703;-0.10179276;-0.045611374;0.07834866;0.22165653;0.3005374;0.057009734;-0.09232702;0.018923614;-0.088155404;-0.08955583;-0.5283321;-0.0646679;0.0003069621;-0.10305286;0.15551983;0.07582643;-0.16827476;0.113037586;0.055963103;-0.32726902;0.06666526;-0.09705494;0.034542866;-0.3812724
-0.09467307;0.038323916;-0.12938869;-0.2834747;0.0121030845;-0.060456816;0.13787277;0.10958919;0.07591522;-0.053372994;-0.14770068;0.28583387;-0.108010665;-0.14955662;-0.13181649;0.08221099;0.20136547;-0.14292449;-0.040069837;-0.09740804;0.092142254;-0.05486399;0.24849956;-0.13312067;0.13426967;0.1066714;-0.0694574;-0.02442484;0.08566069;0.079399996;-0.094560534;0.0055628107;0.1435967;-0.29528758;-0.06783876;0.025438836;-0.1314016;-0.013689398;0.27930483;0.0838403;0.16750169;0.100917086;-0.18051414;-0.0023302452;-0.036969207;-0.14172755;0.050493006;-0.08714014;-0.08045282;0.32404128;0.3097804;-0.046192873;0.079774566;-0.039320495;-0.25687686;0.07162727;-0.30665153;0.0369563;-0.20241235;0.19680613;0.03196649;0.20707904;-0.0123355705;0.08034275;-0.016631382;-0.056639522;-0.015451029;-0.014372687;0.1461144;-0.15934068;0.24432778;-0.11627311;-0.12876251;-0.34881976;0.0486389;0.08333486;0.21165368;-0.00077565917;0.09050309;0.1244196;0.13802415;0.24592406;0.098700725;0.009237544;-0.06164111;0.09994625;-0.053546738;0.0807826;-0.18298721;-0.03287694;0.027370665;0.40280923;0.111074515;0.41416535;0.074516274;-0.21299277;0.020542264;0.20641759;-0.099035196;-0.263976;-0.15440737;0.10498501;-0.0065232567;-0.3523141;-0.06535287;-0.26349723;0.11942625;0.09553205;-0.020046867;-0.025574587;-0.04414035;0.04695714;0.07485795;0.30276683;0.11837357;-0.0015995852;-0.07584315;0.005425298;-0.18565305;-0.11925846;0.23384121;0.031154241;0.19117223;0.17365986;0.010082138;-0.10990087;0.114604376;-0.13897341;-0.050786596;0.124356374;0.034852542;0.10462231;-0.1575776;0.04282112;-0.08060478;0.051638503;-0.02978097;-0.11938994;-0.073989935;0.0013753326;-0.02143395;0.052970733;0.074879356;0.018308152;0.17115274;-0.0018368706;0.13683145;0.17063478;-0.10772058;-0.10312209;-0.08912544;-0.09956495;-0.29386592;-0.16671684;-0.13717835;0.023884848;0.082671225;0.05638915;0.1369474;0.29546323;0.19190437;0.041361555;-0.11553379;0.118667535;0.1623743;-0.23419267;0.010592996;0.16511698;-0.07680508;-0.04810752;0.13671054;0.028949296;0.05325732;-0.2072063;0.12723221;-0.17653833;-0.11557149;0.15789507;-0.3259039;-0.4165243;-0.11359156;0.050391972;0.054585766;-0.1078215;0.14928699;0.16898595;0.24451347;0.09768602;-0.36095732;-0.2252863;0.00065155094;-0.059886683;-0.14557596;-0.22352579;-0.038357574;-0.011158291;-0.08868117;-0.05509027;0.19422127;0.03623557;-0.07791085;0.24254774;0.009803369;-0.037646342;0.1394136;0.19878024;-0.043307774;0.09571075;-0.10252924;0.093453765;-0.31426695;-0.07505893;-0.27184498;0.023630911;0.15709983;-0.38174495;0.026109546;0.040955305;0.25245404;-0.41261482;0.1153025;-0.033895165;-0.09016789;-0.12294179;-0.019247144;-0.08511116;0.21124324;0.2289893;-0.32588375;-0.08710528;0.07834266;0.0046000523;0.23860353;0.07770906;0.06965906;-0.21436398;0.2214383;0.012729433;-0.19082206;0.040264223;0.028282704;-0.12441208;-0.19555259;0.17620438;0.14166316;-0.11977398;-0.07772912;0.15941289;-7.924769e-05;-0.00022353792;0.033909075;-0.045433823;0.0723677;-0.32843697;-0.1477876;0.14193274;-0.23337916;-0.042917613;0.019843582;-0.26220948;-0.076888196;0.21677469;0.026291322;0.039895494;-0.14339988;-0.018484317;0.03200509;0.056259517;0.18521713;0.1939729;-0.1368564;0.014990826;0.28220227;0.24744037;-0.0975004;0.0077603837;-0.42382616;0.10194559;-0.06717533;-0.08301539;-0.037482634;0.2807304;-0.039175004;0.0310602;0.00035143242;-0.03523337;-0.0758458;0.22351328;-0.030998636;-0.014910918;0.15460962;-0.3279436;0.0065732035;0.051016755;-0.29532546;0.15703669;0.031015076;-0.19148527;-0.022839079;-0.1650452;0.055776533;0.09258592;-0.020558825;0.17523226;-0.0028753355;-0.039222084;-0.21183278;-0.0812233;0.058104943;0.45426542;-0.018347936;0.23264647;-0.07600158;-0.041278284;-0.12176612;0.006101238;-0.30207333;0.2199355;0.25183645;0.06667388;0.11391537;0.039438;0.016413096;-0.17847498;0.012897179;0.052451637;0.0023856857;-0.35407892;-0.07472561;0.17906569;-0.118974425;-0.19088775;-0.15682282;0.18498698;-0.027021643;-0.30092055;0.1500889;0.0054809987;0.20532402;0.01838571;-0.061921194;0.06350905;0.16791052;-0.068866886;0.0834032;0.06998224;-0.28835553;-0.33836308;-0.113884054;0.15626809;0.15877885;0.013096238;0.17090592;0.14661017;0.23898345;-0.09131011;-0.065102264;-0.21315484;0.10363866;0.17763157;-0.04006221;-0.27601758;0.32127568;0.21483631;-0.046127513;0.15228966;0.072677314;-0.014468964;-0.043574315;-0.04102031;0.32849112;0.12918222;-0.33471957;0.3392484;0.094983295;-0.005117646;0.24520464;0.063763954;-0.3912992;0.36629474;0.024126407;-0.064730704;-0.22195792;0.070388205;-0.059672523;0.016099392;0.012248634;-0.003693052;0.26209417;-0.04633994;0.09950931;-0.0022619434;0.18340075;-0.15025744;-0.074143425;0.15409088;-0.13454771;-0.072855175;0.30478445;0.11097708;-0.11082835;0.070831195;-0.1281408;-0.050146807;-0.07263035;-0.40259054;0.1405766;-0.10970025;-0.027976155;-0.43544632;-0.15934074;0.21242563;0.30325276;0.19187115;-0.00068225863;0.026803361;-0.07029484;-0.22646858;-0.10180277;0.15919198;-0.055395663;-0.2208133;-0.10134281;0.095643535;-0.056314543;-0.25573683;0.03499487;-0.119722955;-0.104056895;0.04893597;-0.081312716;-0.023570037;0.10453206;-0.0031404835;-0.045329526;0.050138704;0.058583047;-0.23456647;0.28282705;-0.03920458;0.08987238;-0.040574156;0.030944772;-0.25119227;-0.10930156;0.34079593;0.1604519;-0.11297267;-0.04656297;-0.26497725;-0.07465373;0.089907974;0.0149806375;0.051671453;-0.21798858;-0.16201529;-0.021606449;0.0344315;-0.0039759227;0.07074668;0.1350021;0.20695321;0.1352814;-0.20518681;-0.096115075;0.15901174;0.086174525;-0.14498049;-0.04610278;0.145505;0.18162884;0.1249903;-0.26623368;0.061099313;-0.14718625;-0.20211898;0.06927884;-0.14808619;0.03303524;-0.05845182;0.014049027;-0.058408957;-0.050052285;0.025437318;0.12410274;-0.1856089;0.11851908;0.00730459;-0.2156136;-0.11441837;0.15912592;0.15508693;0.10726424;-0.15151213;0.21254599;-0.09677092;-0.058587253;-0.13520728;-0.14595093;0.18662977;-0.07346149;0.50548846;-0.022187283;-0.21565709;0.022171281;-0.09317371;0.24412543;-0.023609314;0.43140826;0.012889819;0.14460386;-0.26264027;0.029069133;-0.43316266;-0.019528966;0.31983262;-0.13799182;-0.07399304;0.03790182;-0.117089264;-0.028164126;0.21967056;0.18013453;0.18278417;0.097280845;-0.051556073;-0.2546654;-0.1645847;0.1965926;0.18567224;0.030828435;0.04587539;-0.023462743;-0.033248603;0.026835617;-0.25475338;-0.15936641;0.22707735;0.21346939;0.124657065;-0.09212778;0.12265131;0.3295524;0.30053964;0.00808874;-0.16368741;-0.11338749;-0.058001906;-0.15398823;0.08999979;-0.15228151;-0.07367353;-0.28071582;-0.13901678;0.02981609;-0.16279192;0.039244317;-0.051146053;0.1070682;-0.14504103;-0.01372016;0.01144666;-0.4894642;-0.19744591;0.16275246;0.0103362445;-0.0540828;0.33382756;-0.04639325;0.14318895;-0.23926611;-0.33165258;0.086271994;-0.16872342;0.064702176;-0.12614767
-0.20221147;-0.27371436;0.014217709;0.011545046;0.045895074;-0.102550514;-0.115438074;0.21904323;-0.15016629;-0.22363631;-0.051024016;0.12087208;0.11898102;-0.031704824;-0.06467219;-0.061374683;-0.05152813;-0.023503816;0.010149465;0.08420133;-0.5073498;-0.11504347;0.061641574;-0.15760764;0.13361609;-0.16910873;-0.021950778;0.29998556;0.030945815;0.036294345;-0.17325836;0.015449737;-0.078772195;-0.20850438;0.043428358;-0.016198881;0.09474589;-0.10924476;0.3538131;0.10550276;-0.025599642;0.25670785;-0.059888244;0.12930197;-0.05943436;0.20573342;-0.21760516;-0.14175184;0.24382348;0.028962744;0.21688825;-0.053143423;-0.22794761;0.19953558;-0.31057057;0.11878192;-0.08858911;0.2330031;-0.2464969;0.12076309;-0.09809609;0.19249071;0.025182918;-0.13337219;-0.08269493;-0.14037235;-0.032555763;-0.06492514;0.267421;-0.060726166;0.10349582;-0.07499866;-0.109721534;-0.3737984;-0.03612942;0.123060174;-0.015070181;-0.21685162;-0.16951448;0.28359494;0.16264081;0.068483286;-0.010163594;-0.013328297;0.11159326;0.049346752;0.13813402;0.033955686;-0.12687378;-0.11507661;-0.01091683;0.25973287;-0.0059591844;0.11505404;-0.45330247;0.19844545;0.08354695;0.12682152;0.20069525;-0.16479503;-0.027948594;0.056671876;0.1398375;-0.11048881;-0.16025688;-0.09139298;-0.3309865;-0.061837032;-0.21411408;-0.2687418;0.11682319;0.15624411;0.03750242;0.11072611;-0.109767675;-0.017627612;-0.12558061;-0.03794635;-0.27815595;-0.08001271;-0.24328505;0.11627171;0.24572095;0.39809588;-0.12188631;-0.16087168;-0.18856327;0.008360907;-0.050320152;0.10087615;-0.023985153;0.51106554;-0.047071654;0.08986285;-0.17993706;0.18020919;0.124506146;-0.23306619;0.032195143;0.10197765;0.30280146;-0.1669183;0.09994303;0.23573592;0.09793921;0.10880998;0.26061448;0.37938613;0.3725238;-0.20756206;-0.08380719;-0.6322456;-0.06979957;-0.043454554;-0.27222043;0.02388515;0.17832021;-0.105449095;0.20785414;0.27851853;0.54510945;-0.020020353;-0.018044315;-0.1156618;0.12780437;-0.023705807;-0.13490054;0.10175035;-0.022384224;-0.19786786;0.1640805;0.009689725;-0.2337768;-0.07702052;0.11240907;-0.19544972;-0.17862089;0.2972667;-0.29851553;-0.22847468;0.06446922;0.08837633;-0.15337673;-0.009441229;0.11523921;0.24285163;0.0017345937;0.115956455;-0.14694606;-0.23033391;0.31308365;0.113546744;-0.036060013;0.042158566;-0.0359597;-0.25743505;-0.0045252824;-0.039911695;-0.10276788;0.098520994;0.020735588;0.01516306;-0.22108553;0.25830084;-0.1558338;-0.03052312;-0.07780482;0.09818136;-0.16322841;0.28556514;0.20487396;0.17685033;0.23413491;0.14882013;0.26856166;-0.49237412;0.12061501;-0.03308353;0.34143803;-0.33706692;0.3997437;-0.111195646;-0.106459446;-0.00090256636;0.18799694;-0.1519961;0.13674013;-0.03456927;-0.07085361;-0.1253235;0.014248566;-0.21997698;0.2760064;0.0014839392;-0.326824;-0.23461236;0.355779;-0.15622577;-0.05137621;0.08117122;0.14598;0.04906817;0.010964209;0.0540171;-0.12857738;0.036465954;0.09915438;0.13396385;0.052033048;0.27472675;-0.016725838;-0.0421364;-0.18228428;0.04940257;0.27879077;0.40805486;-0.18321319;0.14421329;-0.031804264;-0.15181635;0.0037601397;0.21883114;-0.26110533;0.12534162;-0.16091853;0.047194727;-0.008404965;-0.28195256;0.14144593;0.35714862;-0.20412213;-0.2554192;0.065388955;-0.053459577;0.098986015;-0.025203634;-0.21752383;-0.21486476;-0.034526777;-0.0014534032;-0.100298256;0.00011913175;0.08536998;0.010923347;-0.06422741;0.12038415;-0.10334201;0.053555857;-0.04306772;0.16004077;0.20782465;-0.182929;0.019763138;0.02886918;-0.170371;0.18111472;0.06271436;-0.120029286;-0.026472636;-0.16309549;-0.071097255;0.12819429;-0.0564112;0.35092902;0.20229399;0.44632956;0.08619511;-0.09195282;-0.056889147;0.2168853;0.07687638;0.13394414;-0.17231716;-0.20863694;-0.023474164;-0.14190021;-0.37364656;0.13719217;0.16279177;-0.13651854;0.123977125;0.25339016;0.1375678;-0.14692974;-0.043769587;-0.23786058;0.14199324;-0.29277414;-0.032869663;0.2776212;-0.20907426;0.17424181;0.058655735;0.16309068;-0.0007555829;-0.14001489;0.04142517;-0.038551725;0.015746463;0.04740955;-0.17929415;-0.0004593127;-0.019279927;0.1027075;0.12849791;-0.004673377;-0.1507544;-0.42218044;-0.15278196;0.31136242;-0.1690779;-0.08281283;-0.1774387;0.24862912;0.21601765;-0.17732728;-0.1459758;-0.06849047;-0.03704312;0.122986495;-0.04458896;-0.4319173;0.07250069;0.3468191;0.14755267;0.07185154;0.14729588;0.13622512;-0.16469109;-0.07173952;0.39578912;0.036523156;0.058480836;0.33986947;0.06525599;0.15475555;0.2600061;-0.13281262;-0.53685325;0.26054272;-0.0064342036;-0.06290178;-0.40679723;0.011757982;-0.15711437;-0.029758172;-0.04032052;-0.420358;0.34306;0.08556133;0.013492128;-0.015723709;-0.13910402;0.017056596;-0.19352947;0.045883197;0.0014614081;-0.1409582;0.083778106;0.15248385;0.2433254;2.1476751e-05;0.12070533;0.27243882;-0.03640389;-0.21481566;-0.053897213;-0.015568219;0.07675948;-0.24368398;-0.1547146;0.02424892;0.18530335;0.26520154;-0.00055434613;0.08837008;0.021146812;0.04854219;0.10787028;0.045018077;-0.12820566;-0.17665686;-0.05720598;0.23726963;0.06822948;0.029661898;-0.19534363;-0.050602134;-0.016345248;-0.13549851;-0.17340194;0.0010320701;0.11784041;0.03372468;-0.0404726;-0.15381064;0.10419738;-0.12729767;0.059324063;-0.009707557;0.015082372;-0.13548301;-0.118101016;-0.18853903;0.03083106;0.21817084;0.03140961;-0.3157236;-0.09515835;-0.29514247;-0.182491;-0.33921456;-0.19524555;0.28083083;0.020911535;0.036657188;-0.056060437;-0.045783166;0.09663963;0.13163725;0.04694696;0.016755845;0.13689971;0.2559066;-0.06917304;-0.0008135858;-0.12080741;-0.28779358;-0.14992625;-0.025375528;-0.016317032;-0.15727888;-0.24318008;0.13519426;-0.13915798;-0.10512215;0.08119696;-0.11994686;0.044918083;-0.26887175;-0.08002518;0.15123853;-0.12222658;-0.07474701;-0.2013118;-0.31940466;0.04409698;-0.0724957;-0.10006478;-0.39689326;0.19339055;0.30300102;0.15534766;-0.18400721;0.41045466;-0.064189866;-0.034624167;-0.06662169;-0.18849061;0.046666767;0.08316841;-0.06493535;0.21378268;-0.37635484;-0.2951226;-0.0787609;0.33396053;0.050752815;0.18324806;-0.03281125;0.31515065;0.042881995;0.12877014;-0.52692187;0.155714;-0.14928202;0.0053247428;-0.56477946;0.03870867;-0.06521336;-0.046600346;0.2130106;0.313541;0.044236947;0.07200546;0.011491858;0.059888326;-0.17421344;0.101438046;0.061275043;-0.21380764;0.14352272;-0.19191903;0.16661386;-0.11896895;-0.24420807;-0.07392201;0.13266745;0.22859678;-0.16110128;0.12953822;0.1081452;0.16559136;0.17377393;-0.095747575;-0.044945575;0.0021985096;0.18943468;-0.0704096;-0.022590473;-0.1499433;-0.23795159;0.07072467;-0.20719741;0.0036404373;0.031626012;0.22200069;-0.16975829;-0.050458312;-0.099165894;-0.21768501;0.057869326;-0.37117302;-0.046076898;0.042320848;0.08278053;-0.14788978;0.09377698;-0.02152873;0.12804832;0.10234925;-0.3593164;0.30159655;-0.08177872;0.19379224;0.09860029
-0.028410703;-0.09350497;-0.09215434;-0.45801762;0.21575409;-0.057123397;-0.21148895;0.030301245;-0.091257796;0.15664253;-0.100459546;0.18048325;0.1861686;-0.15881497;-0.16729218;-0.032609355;-0.13079073;0.006951658;0.009432825;0.014864944;-0.0530652;-0.11462227;0.26911762;-0.29446262;0.17823523;-0.072884;-0.2288792;0.027293377;0.089671925;0.0042132027;-0.12628362;0.05700301;0.13595507;-0.08562437;-0.08329053;0.1418099;0.11548442;0.06294299;0.098102346;-0.21144858;0.20649493;0.29760653;-0.024966648;0.118875474;-0.1595667;0.13519585;-0.25702626;-0.19803637;-0.012464075;-0.19021392;0.047634456;-0.24150294;0.037927248;0.21832608;-0.20188598;0.02486926;-0.3748121;0.09502882;-0.14899841;0.27147755;-0.010927209;0.28037184;-0.00016953485;0.015034882;0.03439432;-0.07803603;-0.059656505;0.090718344;0.07293728;0.09025537;-0.027971331;-0.15868045;-0.14677145;-0.08422499;0.016144749;0.14493947;0.15628767;-0.21282431;-0.074640535;0.0018171311;0.13454884;0.1317974;0.09727799;0.10696622;0.26086804;-0.05986109;0.109516196;0.08859189;-0.1474732;0.029476643;-0.13166907;0.2516428;-0.21750534;-0.21864684;-0.2600679;0.06271105;-0.16003458;0.18231726;0.08661184;0.06121079;0.07615585;0.22965266;-0.07218979;-0.3229434;-0.14309739;0.16371632;-0.30155358;0.19715023;-0.17554353;-0.56518894;-0.07609185;-0.06609164;0.1035774;0.12687701;0.08813213;-0.058468793;-0.28826043;-0.102468655;0.023633769;0.062120996;0.12863113;0.2703792;0.22592045;-0.22854392;-0.13271627;0.10132484;-0.17011862;-0.07000498;-0.09204141;0.014000777;0.04963909;-0.22020787;0.07208228;0.30102888;-0.49724802;0.10820205;0.10008431;0.04006455;-0.16531579;0.2738804;0.115296505;-0.17536148;0.015332406;0.28528133;0.23585041;0.17698029;0.23110493;0.2645882;-0.21918584;-0.059299976;-0.141329;-0.15095155;-0.019201744;0.0122687295;-0.3196614;-0.078041635;0.1978418;0.4129453;0.095492296;0.39503846;0.21402887;0.10389105;-0.1693083;-0.16494758;-0.030139785;0.07386034;-0.19464102;-0.12551637;-0.19056337;-0.16857758;0.1707465;0.10779046;-0.26488197;0.0048260815;0.0988307;0.21577007;0.19966412;0.31119657;-0.10417109;-0.078092076;-0.050206862;-0.05591533;-0.31600854;-0.04932832;0.05727316;-0.008981319;-0.05925771;0.120050676;-0.35357818;-0.18974717;0.31349748;0.16306075;0.04335111;0.010151357;-0.14460707;-0.15013337;-0.072990224;-0.08358522;0.06715187;-0.2568455;-0.10341874;0.040623438;0.1292269;-0.0063408855;-0.16418314;-0.04666905;0.15244183;-0.07879206;0.02164427;0.4481161;-0.08493005;0.18062042;-0.20891158;-0.049402203;0.21878003;-0.109362565;0.12041134;-0.027098123;0.19481601;-0.22319378;0.22247659;-0.43386674;-0.1628724;-0.034457855;0.0032330535;-0.013163582;0.17342326;-0.026321027;0.05712633;0.14395043;-0.015681272;-0.0019355153;0.38265866;-0.33548832;-0.010863998;-0.07138081;0.31132278;0.06567696;0.011577709;-0.07305187;0.12479141;0.26643994;0.13091075;0.026055453;-0.061839003;-0.0304236;-0.107222795;0.11283751;-0.054039188;0.3122267;0.13073522;0.09721252;-0.041477818;-0.23158;0.22984782;0.41601747;-0.1288583;0.15814342;0.06329176;-0.20334157;0.13879769;0.26296988;-0.39133763;0.17286974;-0.3250562;0.11175311;0.20252438;-0.108032055;0.0060129575;0.22401075;-0.23482926;0.18279256;-0.11558888;-0.07372713;-0.12094542;-0.19130106;-0.23308016;0.016997507;-0.0250822;-0.08075119;-0.024422323;-0.09089308;0.27191;0.07167383;0.027854089;-0.042407952;-0.0135072805;0.29857183;0.06067649;0.2249456;0.08284819;-0.110043384;0.1847649;0.1458764;-0.3811815;6.161109e-05;0.001222425;-0.12791725;0.009876558;-0.13502562;-0.053994954;0.041112583;0.08008545;-0.11117329;0.33819237;0.28229815;-0.07949599;0.009746526;-0.09817177;0.14462748;0.1785054;0.28505236;0.041735232;0.168305;-0.04747857;0.22008109;0.09187792;0.10295659;0.037611853;-0.24048702;-0.009731541;-0.08409197;0.0625077;-0.12914293;-0.050632138;0.16269462;0.08568481;-0.46743062;0.03523823;0.3563841;-0.08519722;0.13140722;-0.10924846;-0.021487353;-0.050294403;-0.16273934;0.19096026;-0.17305252;0.24664542;-0.20461118;-0.08310051;0.031552203;0.13333352;-0.21504608;0.18208311;0.09618326;-0.059360255;-0.08498914;-0.23107445;0.21922937;0.06067741;0.29480025;0.004849143;0.025846107;0.11922713;-0.16804321;-0.1011342;0.1364797;0.1230343;0.050579306;-0.0784302;-0.19713248;-0.18206309;-0.065095864;0.24988076;0.104407065;0.30711868;0.03541717;-0.30841583;-0.009124751;0.3159862;0.07192984;-0.18861571;0.07305389;0.15236086;0.056856256;0.25919488;-0.17225693;-0.30719998;0.40698183;0.04089078;-0.280903;-0.108825125;-0.12765129;-0.0703632;-0.081614666;0.07798807;-0.15684605;0.35320443;0.2730505;-0.2857993;0.043030526;-0.05063137;0.016171126;-0.0005373344;-0.113102116;-0.032069493;0.11037671;0.008304751;0.025424082;0.22976014;-0.03292848;0.37483004;0.18000954;-0.072158374;-0.25350645;0.016908552;0.009130481;0.33358413;0.15497205;-0.16856445;0.40763208;0.009928786;0.16161494;0.07116659;-0.38278726;0.1718212;0.009176825;-0.00559438;0.08731236;-0.14182036;-0.124556154;0.054926727;0.095059775;0.014574379;0.24260207;-0.23581558;-0.038196195;0.13198286;-0.22622582;0.17888397;-0.15445608;0.13327383;-0.024437064;-0.12763004;-0.19136964;0.10086512;-0.27569112;0.0865363;0.1680458;0.12194114;0.011139495;-0.027608966;0.25767797;0.12518577;0.45572186;0.026390893;0.040935814;0.18173406;-0.34056607;-0.22035904;-0.31830662;-0.18718047;0.26352933;-0.13698359;0.11738097;-0.079225175;-0.15662561;0.23189503;0.26890254;-0.2405493;0.32060215;0.035886925;0.14689375;-0.18876363;0.18195716;-0.10732835;-0.06833146;-0.23213194;-0.1295607;-0.14261267;-0.086019814;-0.38334206;0.091671996;-0.22938925;-0.09780328;0.0026456402;-0.096520744;0.25982925;-0.033131663;-0.09858639;0.01766247;-0.15312417;-0.025562897;0.0119066695;-0.16722682;0.3308144;-0.20454915;-0.029296067;-0.5179167;0.2234109;0.024953924;0.048199557;0.09620042;-0.061998002;0.023173986;0.024337018;-0.061606083;-0.0047251936;0.24387713;0.09674306;0.38782984;-0.028016835;-0.033365656;-0.16397563;-0.21836428;0.2942447;-0.15432395;0.37143967;0.02534371;0.09098329;-0.09794756;0.13758534;-0.20581591;0.15495776;-0.21473503;-0.25168318;-0.10764244;-0.10375093;-0.20816252;0.11858752;0.09886979;0.14300767;0.21031186;0.08402424;-0.055884045;0.098160125;-0.20604531;0.32280976;0.058092892;-0.054475136;-0.0016968146;-0.04187665;0.03353795;0.050450116;-0.0417118;0.10461499;0.17478982;0.17642428;-0.062990725;0.09604454;-0.016940728;0.25418112;0.028809149;-0.08489998;-0.0595206;0.1437498;-0.13795884;-0.20630826;0.24295186;-0.02391244;-0.103949025;0.29463157;-0.31758258;0.21156237;0.066424556;0.2396571;-0.23009156;-0.16059789;-0.071648344;-0.23411946;0.07182221;-0.07106971;-0.1433766;-0.15229487;-0.11647862;-0.016120207;0.025161821;-0.044435732;0.20580523;-0.2174493;-0.16706404;0.29046136;-0.09920617;0.017238405;0.14889711
0.04383853;-0.11213881;-0.0885404;-0.06425193;0.45012742;-0.12287284;-0.1702058;-0.095383614;-0.037019733;0.15866433;0.03905224;0.23609959;0.17117663;-0.112230696;-0.015470879;-0.014952566;-0.04552505;-0.3339799;0.007277389;-0.000953455;-0.3288435;-0.065105245;0.19503571;-0.016218849;0.102768965;-0.21472883;-0.15576722;-0.067611;0.12832943;0.01930364;-0.2884603;0.14857453;0.3126878;-0.14455497;0.0873897;0.094278105;0.13155669;0.17396393;0.09126665;-0.41020525;-0.009130868;0.02672469;-0.25175205;-0.09784682;-0.2870437;0.023334274;-0.2920947;-0.18242918;0.09658153;-0.004940862;-0.11789175;0.030948719;-0.05719139;0.06765727;-0.096595645;0.22062361;-0.12960066;0.15317416;-0.16065855;0.20390159;0.06213469;0.10311187;0.020710919;0.031274885;-0.0067884014;-0.0875036;-0.0781236;0.12947886;-0.035151638;0.03798053;-0.08731684;-0.15759261;-0.120953046;0.042862862;0.0074385083;-0.011742308;-0.16527651;0.004572741;-0.15633309;0.11138217;0.07941649;-0.0039165863;0.05914704;-0.1419948;0.36878568;-0.064164184;-0.064653;0.20460498;-0.17206158;-0.19741525;0.07701411;0.3046237;-0.23423822;-0.24826817;-0.05757593;-0.0826382;-0.17392658;0.14260836;-0.0021857857;0.12040747;0.03691273;0.038535457;-0.017354278;-0.18344079;-0.23022716;0.01647194;-0.20691769;0.12587197;0.05187337;0.033201396;0.093382835;-0.36625192;-0.10537509;0.01817262;-0.37281576;-0.00013418401;-0.05252762;-0.074154206;0.12293861;0.15923129;0.16715626;0.17848322;-0.146868;-0.22522934;-0.08834002;0.06166962;-0.07466907;0.046703167;0.02056511;-0.04176088;0.04740719;-0.19647866;-0.18531135;0.051851515;-0.37362683;-0.016015094;0.12740578;0.031181227;-0.0705852;0.11972633;0.23856896;-0.15355891;0.20124419;0.2123921;0.21679518;-0.08054749;0.241577;0.08199398;-0.271905;-0.041192282;0.043401506;-0.28695974;-0.21088819;-0.09822239;0.42052802;0.06312378;0.11460538;-0.008810474;0.27854484;0.4358686;0.14839922;0.13478266;-0.1896386;-0.13898577;-0.19457145;0.37145665;-0.09761299;-0.05011996;-0.30871588;0.2444066;0.066386424;0.11279704;-0.15792651;0.02662916;0.028753113;0.111286215;-0.167922;0.22421202;-0.060144167;-0.35421252;0.0629631;0.1430444;-0.3915671;0.31113207;-0.07280057;-0.046849392;-0.00712949;-0.11576855;0.0713151;-0.12433826;0.2170804;0.08329884;-0.035225827;0.10942088;-0.034381676;0.01663556;-0.07669557;-0.056530084;0.031705987;0.07966278;-0.009337011;0.06233318;-0.059885062;0.15351734;-0.040701285;-0.19889383;-0.0059275436;-0.027429294;0.1228533;0.30294406;-0.12490565;0.2775468;-0.111319356;-0.0880543;0.27785555;-0.22670195;-0.1184489;0.13422096;0.006271331;-0.2836553;-0.21903785;0.039641026;0.06548843;0.25768402;0.14855462;-0.05834874;0.12907629;-0.011642823;0.15991147;0.16821276;-0.027774379;-0.1920416;0.35398376;-0.22110952;-0.20317173;-0.0774107;0.17021967;-0.014753312;0.1972774;-0.21514833;0.16840255;0.25349367;0.10303059;-0.21597639;-0.025902126;-0.09226091;-0.25492206;0.16388083;-0.101299345;0.29589123;-0.04634751;-0.009825241;-0.058857124;-0.050828163;-0.055791013;0.26212746;-0.12070283;0.18272838;-0.11124433;-0.17199075;-0.0005967613;0.14178124;-0.08120071;0.023110334;-0.21929146;-0.022276385;-0.05937105;-0.38166398;0.069922715;0.35219753;0.024678975;0.14578117;0.14766362;0.07028903;-0.035464063;-0.20686267;-0.22637996;0.0698881;0.017487431;0.12172218;-0.143576;-0.08929437;0.17724644;0.120076016;-0.020266002;0.077145286;-0.037418053;0.3645773;-0.059860688;0.046007104;0.11212727;-0.07678322;0.122776836;-0.09949946;-0.15083298;-0.1065638;0.0540648;-0.15445268;-0.032009885;-0.24734694;-0.11874242;-0.16787711;-0.017889969;-0.036234222;-0.08123998;0.25108755;0.029158259;-0.078746825;0.1515257;-0.07966229;0.2181396;0.35221726;-0.048958056;0.43307823;0.18337724;0.1016107;0.19380425;0.22909133;0.119034655;-0.2289614;0.063480966;-0.099378824;0.19198981;-0.103069365;-0.015175413;0.04128868;0.22507174;-0.11079805;-0.092853315;0.34743258;-0.21232119;0.24541731;-0.14647664;-0.13744833;-0.19572073;-0.07643797;-0.049078498;-0.18046267;0.030912321;-0.1433422;0.043925587;0.0011368347;0.14328806;-0.082616456;0.035417564;0.061911143;-0.3509224;-0.25382006;-0.27684757;0.009455807;0.14186347;0.18363674;0.0296936;-0.1205912;0.21923408;-0.22492547;0.025588661;0.17796631;0.10334934;0.10099854;-0.104041904;0.14944415;-0.30812725;-0.1511857;0.020750817;0.06563156;0.15513524;-0.12097173;-0.24600285;-0.15335205;0.2028953;0.23558542;-0.30715442;-0.0014149634;0.17970702;0.03884832;0.19362652;-0.029270481;-0.035909053;0.2566952;-0.009334078;0.019941341;-0.2632334;-0.18157026;0.024952969;-0.1739223;-0.14412452;-0.258122;0.2883969;-0.012049405;-0.16075698;-0.07750157;-0.058987163;0.0797723;-0.06431246;-0.20378864;0.10401563;0.024765635;-0.16775975;-0.043098517;0.116682276;-0.0044339076;-0.035392947;0.18037626;0.0380526;-0.10770159;0.06415416;-0.16028285;0.12726223;0.08792044;-0.23550077;0.28200245;0.07493529;-0.08037781;-0.0843039;-0.20228195;0.005135933;0.24287926;0.0019873627;-0.008477126;-0.42221233;0.069271095;0.34466508;0.34274295;0.00678087;0.24106264;0.12327035;-0.10388339;0.13276602;-0.33244437;0.0021375977;-0.045423787;-0.09680574;-0.006601632;0.03513684;-0.2427115;-0.17082204;-0.383031;0.11458727;0.16043417;-0.045436166;-0.2420631;-0.16344585;0.27485946;0.1457679;-0.0923887;-0.07172761;-0.25343832;0.067089915;-0.03161928;-0.115915075;0.11818644;0.1651335;0.04572439;-0.25935483;-0.006474933;-0.053626865;-0.14252482;0.21206893;0.29754433;-0.24978559;0.2442569;-0.04193991;0.18663408;-0.11251607;0.1839943;0.052725405;-0.26597768;-0.2912495;-0.07253823;-0.21745183;-0.16969074;-0.14652279;0.14211814;-0.18959385;-0.17108765;-0.061955508;-0.17179148;0.33453742;-0.13612449;-0.049507815;0.3358731;0.012765164;-0.013134676;0.24672459;-0.12672018;0.044746723;-0.27227122;-0.22982423;-0.5357966;0.2578829;0.17895792;-0.014301658;-0.019860212;-0.057930797;-0.14681363;0.054838594;0.006767116;-0.07326758;-0.14390336;0.19803655;0.5162264;0.1723899;0.026392393;-0.21405326;0.1019946;0.17412734;-0.17117432;0.13392149;-0.16900404;-0.17361376;0.058751106;0.18980372;-0.04804555;0.024377497;-0.3123085;0.022111781;-0.08946363;-0.10005922;0.13472177;-0.026134288;0.081673115;0.012240015;0.012412157;0.0032873377;-0.022229435;0.008548445;-0.18082151;0.29156226;0.025454972;-0.16076022;-0.0952851;-0.18680577;-0.03575096;0.09177297;-0.03156116;0.06593173;0.08983695;0.20749898;-0.2523252;-0.3248382;0.030603359;-0.05365992;0.12847202;-0.054567993;-0.03647612;0.0110301655;-0.04175551;-0.20124613;0.21050248;-0.17738731;-0.19611458;0.08708505;-0.25019976;0.21290743;-0.06841112;0.4001737;-0.0164182;-0.46642652;-0.08138005;-0.5147163;-0.06375759;-0.20533705;-0.17901978;-0.07998876;-0.058967;-0.058192886;-0.12360945;-0.013899923;0.005561175;-0.12439385;-0.27697417;0.2685374;0.009308284;0.122141965;0.30363706
0.0825215;0.07003002;0.1630079;-0.17885031;0.13320358;-0.04661437;-0.25108004;-0.11733383;0.074915335;0.15230128;-0.12579434;-0.083027184;0.3557168;-0.3847141;0.095177494;0.19810434;-0.17619316;0.017214488;-0.34015083;-0.16215354;0.26372245;-0.016251646;-0.024761826;0.01800399;0.21703777;0.066599794;-0.25483865;0.0107414825;0.08064231;-0.005977956;-0.13755748;0.19607852;0.15231688;-0.031273417;0.21396704;0.074519835;0.13923526;0.08005879;-0.012869285;-0.13625233;-0.13596655;0.057205524;-0.048612278;-0.043898366;-0.16799508;0.011591264;-0.01600757;-0.16090873;0.0009447787;-0.39612672;-0.08318728;0.16179836;-0.26348817;0.2708319;-0.07971649;0.18485314;-0.46824867;0.025034767;0.030991213;0.32172772;-0.04697108;-0.25434187;0.03249068;-0.013956315;0.1983826;-0.12917748;-0.06888051;0.021399396;-0.1600687;-0.0716061;-0.25542057;-0.16892293;-0.056077175;0.009721661;0.06469386;0.16161273;-0.4033206;0.0837355;0.14234404;0.23284315;0.17101578;0.10319146;0.14563414;-0.13939716;0.105895795;-0.08233915;-0.16765474;0.08175135;-0.21124421;-0.12320064;-0.038835786;0.4022518;-0.1486178;-0.35176656;0.18841907;-0.10301722;-0.07524038;0.31508535;0.05672807;0.16027673;0.07853918;0.06613627;-0.002470809;0.069440134;0.09360169;-0.2229941;-0.11453975;0.051746525;0.10083631;0.02044443;0.12303053;-0.2563737;-0.2286124;0.05311381;-0.00077869603;0.13558479;-0.08453747;-0.006452561;-0.004178609;0.19698438;0.104112305;0.13102978;-0.13762325;-0.14341348;-0.15431884;0.20199545;0.049834803;0.026323257;0.026599348;-0.08080745;-0.111377925;0.057150934;-0.32791463;0.044238593;-0.29354456;-0.121912174;0.025506215;0.087116234;0.018169636;-0.08647812;-0.016457645;0.018182373;0.14528592;0.15530042;0.030298235;-0.036044423;0.4101776;0.008252908;0.068888366;0.15226944;-0.14841922;-0.040655646;0.09196235;-0.027396085;0.43002528;0.0387409;0.04210542;-0.04524274;-0.024395209;0.27733818;0.06538209;0.16805935;-0.14284539;-0.041899;-0.15556037;0.41670442;0.0845039;-0.28947106;-0.017559469;0.22947952;0.04015637;0.094110034;-0.10659574;0.07552539;-0.08240768;0.064040914;-0.35137972;-0.051090043;-0.18300155;-0.023219842;0.20991422;0.12880683;-0.36505407;-0.22021057;0.23071684;0.20249292;0.058347337;-0.18165109;-0.03250791;-0.089866385;0.2518463;0.030554613;-0.052015398;-0.024057887;0.093768016;0.19285406;-0.08730419;-0.14203718;0.3118914;-0.19368675;-0.09907983;-0.19156206;-0.20273669;0.08515061;-0.0016416848;-0.037414175;-0.13476646;-0.112855725;-0.054648235;0.68192166;-0.20592158;0.094452426;-0.26635057;0.10677028;-0.1270708;-0.096871;-0.06518217;0.014199684;-0.013827203;0.26765153;-0.23044658;-0.1077263;-0.034716792;-0.09485471;0.0437677;0.05413052;0.34472364;0.12175133;0.123090394;-0.061961528;-0.018598728;0.04102716;0.32617268;-0.0654895;0.03540888;-0.1220491;0.18956463;0.093907245;0.23295495;-0.053190976;0.15709972;-0.071945794;-0.074173845;-0.13992769;0.047097567;-0.0844859;-0.3153292;0.22618887;-0.18948533;0.21452412;0.15987551;-0.14020373;-0.0023692101;0.06629933;-0.27138197;0.24516256;-0.25556046;0.36754563;-0.049658984;-0.119109534;-0.0046304576;-0.134958;-0.055649206;0.09279778;-0.08378998;0.17322019;-0.17655693;-0.3157634;0.055196006;0.15542647;-0.30593222;0.052003637;0.09464918;-0.07173497;0.011309967;-0.17432053;-0.061664626;0.11253962;-0.12025386;-0.022024682;-0.08872657;0.03685545;-0.3763463;0.0025417998;-0.052084316;0.067623176;-0.14349599;0.21290125;0.089665055;0.28249392;0.11060533;-0.113550365;-0.0034162276;0.029860659;0.107331224;-0.1534254;-0.048339512;-0.33759296;0.057439648;-0.101706065;0.045842107;-0.092982434;-0.05076017;0.12763822;-0.14671475;0.32289618;0.15051235;0.21830529;0.14551188;-0.03073778;-0.091184795;0.38815993;-0.005766578;0.17382865;0.26406932;0.11175621;-0.012114557;-0.09965861;0.2671625;-0.20141697;-0.05966013;0.11295763;0.022202415;-0.21615717;-0.2036072;0.36987028;0.04300905;-0.291339;-0.10089998;0.21121508;0.05207102;0.14820138;-0.1726698;-0.326053;-0.09628052;-0.13216352;0.09703743;-0.19775417;0.34099796;-0.029257895;0.10943661;0.08625875;0.28124022;-0.017053118;0.0374018;-0.06913286;-0.37294364;0.10162841;-0.117459856;0.0554533;0.15813576;0.26275593;-0.100573346;-0.23990265;0.19076668;0.033205137;0.02321202;-0.20648003;0.15387708;0.08248342;0.11181796;0.050160106;-0.12609667;-0.23417191;-0.0007152204;0.08066168;-0.0881774;-0.094800375;0.2855024;-0.14244814;0.071873546;0.33592704;-0.13847665;0.0053239274;0.08373504;0.039769635;0.14312883;-0.327111;0.13135704;0.03565518;0.14057232;-0.10080494;-0.093313314;-0.26218602;0.13051075;0.07849487;-0.05454511;0.111990064;-0.13468061;0.12467463;-0.119069576;-0.29828236;-0.07913451;-0.056006305;0.094781086;-0.20573688;0.1352702;0.0861243;-0.3222795;0.09870136;-0.103207774;0.0049860985;0.06831526;0.12162396;0.19405818;0.008033797;0.03518463;-0.26617953;0.07734454;0.0490943;-0.057129644;0.42591596;0.24122153;-0.10018915;-0.17510767;-0.1545938;-0.06805837;0.27546543;-0.21013916;0.1586243;-0.18263498;0.12789822;0.11237637;-0.003333602;0.025305888;0.11195871;-0.26416147;-0.17762052;-0.0072492403;-0.13972418;0.2896369;-0.029619854;-0.17253464;0.042347763;0.1097964;0.0315606;-0.057724968;-0.2829573;-0.027114717;0.061938677;0.08215337;0.14227171;-0.20152535;0.064049676;0.16503589;0.0540772;0.13759603;0.11083455;0.18170105;-0.03231499;-0.18585995;-0.17366889;0.088407084;0.12767681;-0.32121333;0.041764174;0.14747487;-0.20971633;0.1271988;-0.061580837;0.07700642;-0.09661055;-0.10358841;0.17242889;-0.034494232;0.20643102;0.09839083;-0.031704433;-0.09018501;0.006461861;-0.15766402;0.17392893;-0.22541966;-0.018265385;-0.08553362;-0.057445247;-0.12874039;-0.030433293;0.08554398;0.022442434;0.047507778;0.25084385;0.10279024;0.084717825;0.09158952;-0.050124545;0.29305765;-0.18793508;-0.25179255;-0.18728212;0.10766943;-0.22487497;0.054882016;0.18410413;0.09985358;-0.15440841;0.0625067;-0.17127596;-0.08826137;-0.08636362;0.064744115;0.0936258;0.15548262;0.30489486;-0.07071324;0.12597068;0.112315975;-0.28311372;0.0630374;-0.182169;-0.14821517;0.15743358;0.09355329;0.117030285;0.15706185;-0.27924198;-0.031479973;0.07311515;-0.14690521;0.00077019236;0.064395145;0.11377638;0.117950104;0.11376339;0.10366871;0.1446149;0.16558273;-0.11995124;0.112046696;-0.053467873;0.08371693;-0.14865422;-0.11368091;0.23550014;-0.25310308;0.04224472;0.039191622;0.07303919;-0.032058835;-0.30694538;-0.6048657;-0.09247121;-0.22689314;0.079537354;-0.03921938;0.19232962;-0.11530229;-0.14760286;-0.049918048;0.14264993;-0.04615434;-0.09707673;-0.28848797;-0.23819326;-0.05427242;0.14866084;0.26831618;0.026052248;-0.3074497;-0.03177277;-0.33169416;0.048316948;-0.05215349;0.06696414;0.0971853;0.049770694;-0.115567185;-0.20877081;0.060536265;0.035455335;0.06327468;-0.24280222;0.52677786;0.05994457;0.09683474;0.012803234
0.19015048;0.21549289;0.11222051;0.3054793;0.12582022;-0.19016768;-0.08252884;-0.04258403;0.14882673;-0.26077393;-0.11984484;0.14725341;0.07093524;-0.23026833;0.14634913;-0.03130904;-0.05675738;-0.17054284;-0.08076059;-0.11040573;-0.13497384;0.08550689;0.006224088;0.0225886;0.17808726;-0.0022393675;0.107848614;-0.21196768;0.10297419;-0.26469406;-0.096468925;0.2710096;0.078587934;0.17051378;0.09039475;0.07503585;-0.03148862;0.29489842;-0.51687235;-0.028186716;0.09459155;0.098780654;-0.1302681;0.03248041;-0.31319505;0.015524634;-0.32947567;-0.16734512;0.01470686;-0.44546282;0.097085625;0.27875793;-0.59980136;0.28906912;0.008883504;0.0306065;-0.19354928;-0.14358328;-0.06971674;0.2975971;0.010186795;-0.2543877;0.07883103;-0.11036794;0.17183188;-0.18335865;-0.05928408;-0.032804467;-0.26443022;-0.1072136;-0.11887506;-0.09788313;0.16537398;-0.1779708;-0.050171386;-0.15216824;-0.24391493;0.15937142;0.13093318;0.1833369;-0.05899618;0.22228113;0.32884234;-0.024514392;0.054028;-0.09472745;-0.1597797;-0.009987298;-0.15449138;0.025364159;-0.11328077;0.06869826;-0.29001006;0.036882818;-0.037254862;-0.2758598;-0.04322324;0.09409777;0.101108365;0.11506255;-0.02910052;-0.04638995;-0.051935893;0.06489922;0.049050923;-0.100297175;-0.23339564;0.030580277;-0.113227636;-0.043170966;0.050578553;-0.18218195;0.14863667;0.16518894;0.021827387;0.15995786;-0.07227056;0.11301259;-0.04429178;-0.07152638;-0.17212087;0.014986308;-0.33746493;0.038718846;-0.18571784;-0.047109675;-0.014971589;0.24397936;-0.06222177;0.027123721;0.17005567;-0.13421252;-0.41242093;0.4254199;-0.30879554;-0.11859739;-0.052627843;0.15705982;0.034025673;0.12086757;0.0034283216;-0.2833963;-0.18516201;-0.06792061;0.019829903;-0.07751939;0.12633699;0.010963839;0.026655208;-0.011489063;-0.0041326154;-0.100461856;0.13668564;-0.033223268;0.06697676;0.09631532;0.2799277;-0.019108826;0.15725163;0.12751876;-0.2838488;0.21059829;-0.08907867;-0.11514523;0.1897213;0.31157246;0.07828293;-0.22852193;0.007893491;0.43084863;0.071000166;-0.17236917;-0.029943679;0.029203465;0.09949477;0.053444207;-0.19702512;0.010204399;-0.13597758;-0.30940366;-0.00044823356;0.11071339;-0.2900171;0.22466856;-0.028462099;-0.07051004;-0.00323884;-0.35940424;-0.16892429;0.1332272;0.44856572;0.019923247;-0.039179098;0.25830492;-0.0043907943;0.18822122;-0.15043451;-0.27036676;0.122541204;-0.13784325;0.063526;0.34809193;0.2323607;0.200707;-0.3618611;0.055042177;-0.29075214;-0.06751883;-0.22004244;0.18335564;-0.08276522;0.3618162;-0.23763411;-0.15613459;-0.39745593;-0.12454208;-0.25158235;0.14261234;-0.06799472;0.334234;-0.28212067;0.0483018;-0.16448279;-0.28989756;-0.050510094;0.11894754;-0.0529672;0.28464732;0.18056428;-0.29833952;-0.050406337;-0.07440541;0.18306836;0.017367475;0.07802084;-0.013306808;0.027184622;-0.30865565;0.28602245;-0.01469004;-0.16716526;-0.09372683;-0.0028397634;0.011294326;-0.10837618;-0.13415556;-0.09790695;0.017964741;0.11428937;0.34920537;0.2149887;-0.13151854;0.19562583;-0.19470716;-0.046783138;-0.0007136904;-0.31786823;0.10583056;-0.050918277;-0.17241119;-0.07339136;-0.041216373;-0.2105714;-0.063076764;-0.18835405;0.014696941;-0.0819241;-0.107027926;0.14842111;0.10754355;-0.066146046;0.24672638;-0.045745876;-0.013498254;0.2515025;-0.12225656;-0.22580749;0.040253226;-0.06193993;-0.16591717;-0.19035916;-0.1765732;0.061577912;0.02724678;0.019267023;-0.018001068;-0.0963808;0.3372658;0.27453148;0.21626596;0.087990165;-0.12716135;0.16625386;-0.13962038;-0.12285451;-0.037547287;0.10409885;-0.22371444;0.18492575;0.03964529;0.050791226;0.05439892;-0.10358386;0.2498772;-0.37420675;-0.010140158;0.021357886;0.09221995;0.16778633;0.11321923;-0.0779334;0.22856918;0.047240578;-0.09712987;0.27311718;-0.019176686;0.19216447;0.0131186135;0.19601317;-0.009592792;-0.13152276;-0.03933882;0.059082504;0.047990248;-0.14983034;0.052510012;-0.017594764;0.32264018;-0.16217598;0.13462283;0.053053483;0.08656512;-0.06150852;0.036161553;0.22867745;-0.03786714;0.028981254;-0.21678631;-0.11060191;0.22518964;-0.17159359;-0.017227849;0.41991934;0.10156836;-0.07858187;-0.20117395;-0.34019634;0.04080864;0.21931592;-0.2383813;0.22249827;0.072893634;-0.14846684;-0.089714125;0.07377964;-0.062036753;-0.0741043;-0.02751136;0.23360229;0.01846259;0.010986287;0.26441187;0.02892694;-0.1546893;-0.053302046;0.016299604;-0.35929835;0.19957459;0.2167561;0.052657653;-0.0015350416;0.025710195;0.17574869;0.1414438;0.045712408;0.22793365;0.08980376;-0.20000826;-0.032575775;0.074475795;0.12706533;0.113159016;-0.096737914;-0.10924324;-0.111401536;-0.0652378;0.051231936;-0.01415261;-0.005120357;0.13548778;-0.033366177;-0.16797188;0.0654826;0.09824016;-0.08675979;0.07706841;0.35016274;-0.13343118;-0.078073904;0.39520124;0.033088192;0.21735686;-0.10505477;0.15193163;0.18230204;0.0034943728;0.11355705;0.020142801;0.07848323;-0.03586811;-0.061129596;0.39103466;0.21976653;0.070694424;-0.2769859;-0.17947178;0.12185596;0.13501105;-0.10575329;0.08721232;-0.25021613;0.12763664;0.07948709;0.34279436;-0.050697405;0.036613345;0.21192475;-0.016667033;0.26348236;-0.03309869;-0.1193113;0.07758721;-0.2554232;0.06097076;0.06841543;-0.113023244;0.06503756;-0.052761186;0.004034972;-0.14951375;0.20807594;-0.22654252;-0.11030124;0.1517139;-0.17341435;-0.21414258;0.17369837;0.16768396;-0.07125946;0.16262129;0.098627746;-0.044527367;0.15340064;0.30914328;-0.027967444;0.036048032;0.06350252;-0.108450025;0.064513355;-0.0615586;-0.10549662;-0.043933;-0.05518268;-0.104223035;0.030068606;0.011414033;0.110434294;-0.35424352;-0.013073768;0.08142291;-0.31597656;0.04156357;0.08532411;0.007926291;0.1785692;-0.1825484;-0.14751942;0.056079943;-0.0489785;0.1243051;0.05021819;-0.008759501;-0.121698596;-0.10914015;0.08876901;0.022790264;0.26997164;0.12808365;-0.09939737;-0.05438541;0.03647427;0.053121824;0.016738629;0.18219753;0.09574113;0.051723965;-0.02041873;-0.06231595;-0.12411995;-0.2032098;-0.018936763;0.21314983;-0.2564713;0.10119692;-0.13266033;0.11146605;-0.03538742;-0.15199532;0.14773609;0.08850848;0.08594976;0.4266287;0.1335182;0.26228562;-0.06862323;0.049783543;0.09537138;-0.036443986;-0.104343615;-0.026481086;0.14794955;0.1261647;0.05067011;-0.007087146;0.23081467;0.10303901;0.29085463;0.21567033;0.27668068;-0.15573496;0.032757495;-0.18374987;-0.21285704;-0.14747691;0.041743744;0.034051333;0.11195215;-0.065806754;-0.0031740016;-0.30018348;-0.5152918;0.041614488;-0.42633685;0.22025086;-0.12314897;-0.06466843;0.050079886;0.1505794;-0.057504453;-0.050027367;-0.21068789;0.19205748;-0.23116899;-0.3349465;-0.08735399;-0.03539364;0.06496271;-0.06598142;-0.41576535;0.04627426;-0.35460684;-0.14250822;-0.1873002;0.27713996;-0.05976125;0.07748657;-0.047060862;0.0021646076;0.1638744;0.050758153;-0.0008879311;-0.11447321;0.3480892;0.09445106;0.052969873;0.03923552
-0.059409652;0.09372247;-0.051965613;-0.23034577;0.43120936;-0.24143802;-0.14817728;-0.14601927;0.025488764;-0.26948717;-0.1403187;0.005049429;0.08419633;-0.16644463;0.017637055;0.10469027;0.090722606;-0.16795072;-0.20854458;-0.12911506;-0.07638944;0.1000792;-0.02400752;-0.11140885;-0.012059361;-0.13205037;0.03222803;-0.1883699;0.0058591897;-0.07430619;-0.129981;0.25923496;0.0906726;0.038688842;0.1285155;0.14624996;-0.0058690724;0.20697258;-0.2014781;-0.26009798;0.09995021;0.15434432;-0.104141615;0.02601503;0.06429398;0.03803665;-0.096014425;-0.19331668;-0.16376008;-0.46425858;0.23442084;0.015778488;-0.31948444;-0.010559048;0.061270818;-0.0168538;-0.07684415;-0.029566824;0.11650494;0.050116546;-0.0049667205;0.08768434;0.043342117;0.03897027;-0.1572633;-0.23064446;-0.030571975;-0.09613845;-0.35154042;0.069175266;-0.21175495;-0.17169392;-0.013888326;-0.28787822;-0.047589194;-0.22543623;-0.37256157;0.2612783;0.27397844;0.13860585;-0.0536569;0.18102494;0.25535515;-0.2376132;0.13578591;-0.21912874;0.20621307;-0.14312364;-0.08132763;0.054667853;-0.06922102;0.037137553;0.2798489;0.019403957;0.09120926;-0.39744854;-0.01017859;0.0040634675;-0.09955506;0.11982215;0.0100676585;-0.1826205;-0.024404876;0.16132003;-0.060704183;-0.1499007;-0.25925854;-0.050495498;0.12770145;0.07885338;-0.0017796396;0.13088489;-0.01714472;0.11265645;0.123224504;0.098011;-0.032426294;0.036171958;0.14687645;0.06066465;-0.19025269;-0.03830237;-0.31607786;-0.1444413;0.03441974;-0.17115259;-0.16258068;0.35396397;-0.040259678;0.059416696;-0.007739686;-0.20607181;-0.34526777;-0.105226204;-0.42022032;-0.044722084;-0.02420703;-0.10817407;0.25621507;-0.09753667;0.03968197;0.22633752;-0.03038875;-0.115515865;-0.06924965;-0.006252823;-0.107520714;0.010022168;0.037001263;0.10363435;-0.0926027;-0.01883916;0.032821238;-0.06991496;0.29199457;0.18015999;0.3518958;-0.24632762;-0.042991485;-0.113671236;0.119225144;0.0795415;-0.0027264692;-0.09470373;0.084568225;0.22660989;0.26958635;-0.11027465;-0.045616627;0.1990453;-0.15072995;-0.15702122;-0.17673819;-0.08544638;-0.082225665;0.14445138;-0.18665072;0.064726345;-0.083109885;-0.23209919;-0.0410671;0.119627185;-0.23786066;-0.09397358;-0.03181572;-0.06887449;0.095583454;-0.25884995;-0.12530124;0.22319806;0.3872267;-0.020071689;-0.06546376;-0.03566345;0.26906702;0.09672791;-0.03121202;-0.072858125;0.16031502;0.34986594;0.028514354;0.1262222;0.14742693;-0.19144596;-0.31735307;-0.038781695;-0.13524295;-0.08328321;-0.091195606;0.1220128;-0.005107983;0.20483994;-0.28811502;-0.13659884;-0.22360916;0.02481643;-0.04506868;0.05367225;-0.07986461;0.1305522;-0.22805206;0.016087031;-0.22603455;-0.2409686;-0.04989663;0.16924529;-0.2020632;0.12520377;0.19901855;0.19785483;-0.14595416;-0.33073813;0.0739694;0.1389419;0.15803851;0.13834141;-0.017221618;-0.13465886;0.11687332;0.091327935;-0.114506714;-0.11075878;-0.097744554;-0.036902923;-0.1687275;-0.19734491;-0.0029349958;0.07214844;0.5266463;0.28382626;0.08583292;0.058881726;0.07024696;0.10777411;-0.17216243;0.06177144;-0.3560149;0.31767768;-0.14431342;0.10299792;-0.12277995;0.14013144;-0.1268068;-0.06949842;0.09475192;0.14221263;0.0026256703;-0.1728128;-0.035560403;0.124810725;0.036637787;0.11719447;-0.21979682;0.099463604;0.15221095;0.082668886;-0.14047341;0.41044927;-0.05563181;-0.22627887;-0.099857666;-0.14446707;-0.11773138;-0.020657858;0.0063389638;0.13437568;0.06454486;0.08363318;0.191704;0.21611129;0.06410181;-0.1570654;-0.02278952;0.09019274;-0.036465544;-0.0089194365;-0.030667208;-0.1514258;-0.038801577;-0.10413395;0.017589962;0.0404861;-0.04804727;-0.03274979;0.06714018;-0.024302032;0.03677259;-0.072459795;0.116585605;0.2688596;-0.08421947;0.20034836;-0.010752284;-0.11852099;0.28185722;-0.053918503;-0.048777394;-0.096119344;0.28342634;-0.026249347;0.1378184;-0.052861102;0.120739065;-0.09421993;0.04377349;0.20043236;-0.25192887;0.033434484;-0.019912716;0.118743844;0.14156708;-0.40225402;0.017807126;0.1814848;0.2422212;0.083542526;0.043478087;-0.16392386;-0.0690298;0.37153423;0.15913151;0.21579945;0.20243935;0.14101033;-0.017513247;-0.39665312;-0.24925289;0.06883214;0.057642702;-0.09015856;-0.023022797;0.08048542;-0.10573534;-0.105017096;0.24724957;0.26258287;0.014446225;0.19440064;0.24579209;-0.06358389;0.07331425;0.21988963;0.14738497;0.10573871;-0.038201217;0.26891565;0.0007842728;-0.026952375;0.19464204;0.4562064;0.036811244;-0.028388036;0.05595182;0.02394887;-0.10835498;0.25832364;0.12107816;-0.22620486;-0.036235;-0.24254532;0.22729021;0.13327706;-0.031509705;-0.019705528;-0.03502895;-0.17012626;0.12943195;-0.19188699;-0.10715955;-0.21929449;-0.1388576;0.02844154;-0.1981327;-0.011457672;-0.028195154;-0.12264684;0.30553272;-0.16903122;-0.11204742;0.22370318;0.033431403;0.044124488;0.017305877;0.041350495;0.27943403;0.3733583;-0.06892555;-0.10536149;0.11808822;-0.09921478;-0.024397375;0.0487936;0.21630517;0.022208445;-0.024204485;-0.17651889;0.14009377;0.06549606;0.10515648;-0.025818462;-0.04726527;0.16353881;0.13832766;0.2778271;0.026605126;-0.004579587;-0.0899047;0.2956872;0.22965533;-0.0947455;-0.005126404;-0.010000613;-0.11060781;-0.015942473;0.1296814;-0.027905228;-0.11530207;-0.25749257;-0.05203359;0.0033089134;0.2945858;-0.5272999;-0.22018802;0.011743076;0.057409182;-0.34363088;0.10260026;0.12350024;-0.09988085;0.0924542;-0.080461495;0.16489834;-0.059783768;-0.036767498;-0.17694177;0.010381112;0.04419994;-0.14900723;0.12523071;-0.067702636;-0.118958764;-0.033215668;0.10542324;-0.015655875;-0.022375721;-0.1590057;0.0904285;-0.20195706;0.076683596;0.04961176;-0.2535708;-0.14780661;0.14175333;-0.00266649;0.3656211;-0.23041634;0.093940236;0.12507246;0.055380266;0.11817424;0.13281155;0.3970016;0.062104978;-0.0720862;0.026553193;-0.04722307;0.07951544;-0.1289737;-0.053541433;-0.120475255;0.13899203;0.15752845;0.06987749;-0.045737155;0.2056689;-0.04817819;-0.07979139;0.07574324;0.033418078;-0.115573496;0.11554976;0.2262558;-0.029338554;-0.023845356;-0.27402794;0.05862218;0.16027607;-0.18746541;0.054748863;-0.021264087;0.112347536;-0.224352;0.07615157;-0.06969457;-0.13031036;0.12749848;0.23541091;0.28957385;0.036706682;-0.12304497;0.21792625;0.12399415;0.13743468;0.04098205;0.07366031;0.052977223;0.39692876;0.17262694;0.2603059;0.011254257;-0.05791339;-0.12377765;-0.118081115;-0.45407552;0.18645422;0.13935506;0.05017747;-0.34339672;-0.04243631;-0.24268387;-0.22600336;-0.24507886;-0.2846523;-0.08106492;0.0040750154;0.023809519;0.0311967;0.26353976;-0.14532526;0.16566508;-0.082419105;0.10604745;-0.074684195;-0.0918517;-0.006788262;-0.15449958;0.094034836;0.0025358975;-0.3578178;-0.1552049;-0.27166533;0.036058035;-0.07622135;-0.028752374;-0.14439249;0.122001834;0.07919804;-0.13843572;-0.014143882;-0.022292051;-0.19717775;-0.21416606;0.23632878;0.012666193;0.15229416;0.22433445
0.250203;0.1675939;0.054461382;-0.19897656;0.06639218;-0.051978804;-0.18830484;-0.08294948;-0.06068741;-0.43761426;-0.21509384;0.037823357;-0.101115115;0.025787842;-0.081418805;-0.23286836;-0.09380352;-0.23153451;-0.27243286;0.15526348;-0.06519656;0.22770539;-0.13547246;-0.23005617;0.05791609;0.08634497;-0.103883654;-0.17056341;0.023193318;-0.57540065;-0.3864744;0.2799932;-0.11685389;0.05956419;0.22417155;0.0059130434;0.0672092;0.10623118;-0.095797226;-0.06252299;0.11100095;0.28252202;-0.20436227;0.12622043;0.28856894;0.1475095;-0.31742087;-0.2431728;-0.00970553;-0.1588942;0.10960704;0.017230812;-0.1372195;0.27161974;-0.15765671;-0.098368056;-0.31314793;-0.09378313;0.25003266;0.03127634;0.00024732616;0.04210518;0.24651563;0.100390196;0.042284217;-0.24877392;0.025544342;-0.33340317;-0.3783968;0.017853035;0.09312436;-0.14788464;0.030722227;-0.2416941;0.0934268;-0.06358894;-0.2667247;0.18788038;-0.021384802;0.23062183;-0.002142436;0.10397464;-0.029103376;-0.115102544;0.08581864;-0.11816819;0.086301506;-0.01858001;0.056542605;0.12423781;0.07581316;-0.06720811;0.08400652;0.14482535;0.063134074;0.047496617;0.060025636;0.24935237;0.109469354;0.13716978;-0.00622913;-0.2678028;0.3200971;0.32411647;-0.105609976;-0.013112121;-0.20565686;-0.017544288;0.076846294;-0.077271566;0.15741542;-0.018577712;0.01092534;0.01718313;0.22521071;0.21892549;-0.087188385;0.11822929;0.037812114;-0.14520685;-0.27252614;-0.26074287;-0.21877924;-0.042145025;0.020908609;0.037553746;0.05934467;0.055149112;-0.06409843;0.097288705;0.19670735;-0.18098211;-0.14306122;-0.1646745;-0.4461546;0.0945096;-0.17133708;-0.06435044;0.3831455;-0.03621816;0.11919137;0.33335355;-0.193371;-0.33039346;-0.2516375;0.07122999;-0.009890281;-0.032019544;-0.03610129;-0.07108471;-0.14772457;-0.024145536;-0.18017639;0.17426133;0.30811355;0.37549803;0.14805757;-0.14715956;-0.14148834;-0.007985917;-0.16198005;0.12630937;0.094002634;-0.28205284;0.03273678;0.10868223;0.21942699;-0.06636328;-0.02652886;0.1546296;-0.0020491872;-0.25484833;0.12734585;-0.03156437;0.1158383;0.18908995;-0.0002539923;0.09886393;-0.22125782;0.2557859;-0.106696546;-0.10326263;0.032677256;-0.4769007;-0.045737308;-0.09635179;-0.21614505;-0.26345763;-0.2141968;0.06766639;0.49742284;-0.0052064997;0.062005658;0.006550336;0.1762141;-0.018684851;-0.1017312;-0.203281;0.15052831;0.30923474;0.028037481;0.13297592;0.21402483;-0.028983848;-0.5116742;0.005654009;-0.11731248;0.15550151;0.062063083;0.13251948;0.06359186;0.030571222;-0.08127948;-0.11871673;-0.13792533;0.084273085;-0.12617521;0.06509519;0.12533544;0.25492603;-0.32283306;-0.13080612;-0.18821147;0.11232338;0.022723097;0.13239242;0.07056032;0.023932686;-0.07400994;0.013023368;-0.017980289;-0.28440028;0.095094554;0.07796641;0.23556761;0.2345514;0.059488155;-0.053076148;0.22475635;0.23775119;-0.09427175;-0.15538031;0.15536352;0.018512;-0.19987872;0.08118796;-0.1752415;-0.01700939;0.031097675;0.2574743;-0.018414715;-0.049114585;-0.104608156;-0.19775142;-0.4623407;0.062503114;-0.016966682;0.18086135;-0.06307199;0.10783674;0.09852434;-0.19738656;0.016318914;-0.20610927;0.16063507;0.20392571;0.10313474;-0.04551943;-0.032222044;0.014707884;0.22870114;0.06289215;-0.42053887;0.095330864;0.09516767;0.06274764;-0.000995979;0.04421138;-0.058819428;-0.41462564;-0.11776049;-0.2645241;0.08229459;-0.05848285;0.044160265;0.3382618;0.12678075;0.027273756;0.2330566;0.030356199;0.12099449;-0.08830022;0.028420154;0.09909346;0.07704074;0.24304639;-0.09675516;-0.28274152;0.09110089;-0.0740669;-0.035506897;0.26525974;-0.00072301173;-0.095696904;-0.027642805;0.035710957;0.059326455;0.106571905;0.3050815;0.071729;-0.12693724;0.14474142;-0.047118742;-0.13091896;-0.042084675;-0.05194906;-0.18518369;0.029057436;0.2447678;0.29916328;0.18412577;0.020760428;0.07784525;-0.21204574;-0.047297943;0.31751654;-0.09059666;0.12749486;-0.030053496;0.10246811;0.24720165;-0.02950735;0.08146139;0.1355167;0.056259543;0.20871451;0.075226694;0.11231944;-0.07596357;0.451738;0.053846434;-0.061252456;0.27752936;0.11971925;-0.14816348;-0.024109889;-0.31933686;0.31648567;0.075904034;-0.067190535;-0.057555385;0.09360821;0.20145434;0.005652086;0.18074891;-0.16818745;0.030770255;0.24744824;0.31247362;0.0060306313;0.16425799;0.10612736;-0.0017118048;-0.22045277;0.114784956;0.30480155;0.05771644;0.04649384;0.16925311;0.3052983;0.14948454;-0.10822674;0.06812107;0.023000177;-0.38518333;0.24521716;0.095991656;0.055494916;-0.099136725;-0.18010414;-0.08245711;0.2135909;0.15743546;0.20963047;-0.042114705;-0.057545464;0.19060631;-0.047819253;0.053450353;-0.082286544;-0.1375735;-0.07583525;-0.04652543;0.12680972;-0.09969128;-0.15040088;0.32200158;-0.0038793841;-0.0005941027;-0.216505;-0.20203504;-0.07862514;0.058447286;-0.16841276;0.14641519;0.3765213;0.12807047;0.22072531;-0.08849586;0.019644707;0.12537505;0.046552353;0.063280225;0.046945546;-0.057676096;-0.24481195;0.18811163;0.36431286;0.21655717;0.18939357;-0.18215846;0.14052676;-0.12968907;0.44720483;0.10036572;-0.10592456;-0.33042255;0.04547424;0.1671549;-0.14923607;0.09051278;0.15506843;-0.14140384;0.02674834;-0.02255692;-0.13205793;0.15121967;-0.111911744;-0.08640018;0.19387035;0.08261793;-0.5968461;0.22611542;0.0494874;0.05198838;-0.24210109;-0.20045233;0.086068094;-0.06807699;0.058216296;-0.23294231;0.2734876;0.16465011;-0.053351454;-0.018998915;0.04871362;0.11385989;-0.10791558;0.013858965;-0.0041216398;-0.13370167;0.033469103;0.064526334;0.019359201;-0.12967843;0.050261363;0.12491035;-0.28061253;0.0026717577;0.13346781;-0.26176354;-0.053819805;0.08517254;0.061635833;0.27506232;-0.21455754;0.06652883;0.18293998;0.01602659;0.13101915;0.28509593;0.14477883;-0.18044095;-0.05816089;0.13507494;-0.12609053;0.2147476;-0.034084022;0.14161888;-0.03152184;0.14748172;0.4288484;0.12766267;0.008371728;0.1687035;-0.04620125;0.001314253;0.1534812;-0.22548771;-0.037592378;0.08005118;0.25566152;0.041742325;0.08819384;-0.083344676;0.0055269045;0.27867508;-0.0022504588;0.16885005;0.14031811;0.169296;-0.43350834;0.05818304;0.18394272;0.18957217;0.10137961;0.13900304;0.110797;-0.009176608;-0.21442765;0.101553366;0.0015145724;0.26514602;-0.052117016;0.15310822;0.0002856125;0.14952803;0.12962405;0.058777034;0.03503788;-0.09745102;-0.016646937;0.03950214;-0.14017609;0.060619134;-0.019464608;0.08201664;-0.07255671;-0.19189475;-0.27298787;-0.07909326;-0.19520962;0.09603457;-0.020988116;0.16025294;0.30939835;-0.016384073;0.14429323;-0.050681673;-0.064193584;-0.10161663;0.23544554;-0.2876412;0.107245065;-0.07291389;-0.08822958;0.016049666;-0.06285906;-0.36475432;-0.0498409;-0.18525296;0.11143113;-0.30126828;-0.066018894;0.06389111;0.101846695;0.18491387;-0.09425873;0.061194196;-0.10308919;-0.20909561;-0.23711929;0.34860006;-0.081514835;0.20637031;-0.025894491
0.11909556;0.09344903;0.05880248;-0.12582415;-0.22052506;0.0018938192;-0.3164779;-0.0725815;0.19075179;-0.049759544;-0.33983505;-0.090310514;0.09988227;-0.06411921;-0.035537288;-0.06136157;-0.18034305;0.14444432;-0.23823254;0.083024226;0.02050108;0.11534041;-0.01696932;-0.23591508;0.13135247;0.19980115;0.06597765;-0.052131377;-0.2743482;-0.07978361;-0.18983133;0.28683597;0.05288612;-0.12700075;0.177015;-0.03416162;0.13707326;0.23581326;-0.19681513;-0.09294705;0.22532897;0.057166047;0.018874446;-0.01606172;0.056081906;0.057838533;-0.18873136;-0.09616301;0.006709382;-0.1551357;-0.038811892;0.23694927;-0.10879838;0.2885433;-0.19173433;-0.0029876106;-0.083834566;-0.06400237;-0.09203174;0.08281113;0.06309023;-0.23697191;0.46130314;-0.12598607;0.025709655;-0.12993357;0.14087449;0.22031786;-0.08283277;0.038678594;-0.12328908;-0.03478138;0.01468372;0.00085084245;0.15068665;0.16982073;-0.23954082;0.25201285;0.1880178;0.28056514;-0.076894276;0.1022573;-0.13534409;-0.017314648;-0.069707364;-0.18663186;0.23131895;0.23001845;0.03931526;-0.08418227;0.2144515;0.044268887;0.33657667;0.36369094;0.06161155;-0.118073955;0.017971456;0.46275324;-0.067787945;0.15427369;-0.012983989;0.07713289;0.18122092;0.12182412;-0.0034488684;0.10057967;-0.10102287;-0.13479897;0.031259075;-0.34905943;0.2346919;0.054298915;-0.44875526;0.019899955;0.30717355;0.03161346;-0.13793868;0.12449586;0.0928059;0.091888525;-0.3010996;-0.22149862;-0.018704312;-0.084953755;0.048516076;0.07449759;-0.016646704;-0.2637501;-0.102736294;-0.07926652;-0.025570977;-0.15968308;-0.15485743;-0.11665538;-0.5786479;-0.049506035;-0.25894275;-0.17450938;0.055677846;-0.22736046;-0.15670168;-0.11381682;-0.34777227;-0.023658117;-0.23131631;0.27069148;0.016043823;0.03283262;-0.21588086;-0.0044079875;-0.08029454;-0.04373689;-0.1652459;0.113715775;0.34120855;0.24721134;-0.06701509;-0.22565491;-0.29606038;0.10214966;-0.20814958;0.12815772;-0.07790882;0.09552561;0.11684815;-0.13892245;0.37917084;0.23818317;-0.08805844;-0.044586413;0.07487205;-0.36815837;0.21377647;0.06949774;-0.14970805;0.03215882;-0.31287453;-0.01200719;-0.21145408;0.20586878;0.077929646;0.27635872;0.16492742;-0.058835797;-0.10973681;0.13391052;-0.08001245;-0.12952414;-0.100902796;0.18880554;0.45659173;-0.02582429;0.27092317;0.1883138;0.024074882;-0.2234318;0.16247524;-0.14983901;0.04341645;0.285816;0.033475857;-0.14265805;-0.03849853;-0.49591812;-0.18833224;0.06264908;-0.2869449;0.15294647;0.22078077;0.13495094;-0.08827455;0.04767909;-0.17730404;-0.2660605;-0.079604916;0.376492;-0.1609943;-0.009358724;0.15161537;0.10510815;-0.0546065;-0.019985529;-0.19313698;0.384917;-0.010774548;0.22383012;-0.036744628;0.24871849;0.0583591;0.14618148;0.10704127;-0.26287848;0.38817027;0.01646648;0.13805613;0.13297124;0.06632425;0.02080782;0.16701463;0.27178225;-0.0271974;0.23600434;-0.061454233;-0.3296176;-0.2872987;0.21566893;-0.0034091342;-0.28369474;-0.049477335;0.14337355;-0.330695;-0.100688815;0.046654914;-0.14877509;-0.26669735;-0.046630405;-0.41578406;0.23976535;-0.026927603;0.24336629;0.027025618;-0.18936482;-0.0759383;-0.03801627;0.14264555;0.25709012;0.05710692;0.068930194;0.0019637258;0.057136614;-0.131032;0.15412432;-0.26961994;0.17990914;0.1486143;0.041445952;0.11627013;0.2062202;-0.094208024;-0.3957798;-0.00950072;-0.0913633;0.16283104;-0.025009472;0.15222834;0.39841238;0.06711877;0.057838373;0.102570646;0.095820226;0.1808069;-0.09181288;-0.3055338;0.29369056;0.10939005;0.014364577;-0.018821292;-0.24228403;0.11969196;0.021118874;-0.07401808;0.06616912;0.08189855;-0.15025695;-0.19354184;-0.006740457;0.11973428;0.14693692;0.19815572;-0.09876685;-0.013433087;-0.057080504;-0.045910645;-0.057698883;0.034122292;0.01256258;0.08472044;0.053880814;0.40178162;0.021032918;0.14056185;0.09955025;-0.04168473;-0.16627115;0.16223222;0.3951576;-0.25190464;-0.025116263;0.09936749;-0.1608606;0.15311904;-0.16992724;0.070541024;0.317982;0.098313086;0.14112172;-0.13413405;0.04682683;-0.08241232;0.20889363;0.1878809;0.037987854;0.060799874;0.2068699;-0.14229341;-0.33858395;-0.4245941;0.20529273;0.22812693;-0.013624747;0.08906233;0.25095373;0.15781881;0.013210141;-0.036834266;-0.18994272;0.043932397;0.06065255;0.08831366;-0.07363966;0.010355267;0.03910189;0.07026605;0.1325806;-0.0172449;0.083066545;0.09125434;-0.27015296;0.319536;0.1898616;0.104496606;-0.27508083;0.17727476;0.025109395;0.004971713;-0.005609572;0.064514644;0.32902348;-0.20088255;0.10585429;0.05297646;0.37410823;0.27075294;0.12696344;-0.23180696;0.038409334;0.15670992;-0.13013393;0.14623824;0.27497643;-0.03187068;0.061093938;-0.09074276;-0.026016122;0.17843199;-0.22240865;0.009829413;0.104605444;-0.010015082;-0.11679714;-0.08589271;-0.2058849;0.13277483;-0.19217736;0.06369576;0.46172425;0.023905158;-0.13967331;0.15225826;-0.23156768;0.12056257;-0.09065278;0.2575114;0.062181357;-0.09639951;-0.0407745;-0.24142429;-0.022873497;-0.15456933;0.054362576;0.19736291;-0.003617131;-0.115037486;0.13538828;0.011434673;0.11211318;-0.09769361;-0.1060879;-0.06016114;-0.31858322;0.28824845;0.0033535357;-0.0396198;0.044950552;0.112842694;0.062171657;0.1319261;-0.017032227;-0.081807405;-0.197552;0.13760094;-0.64665455;-0.008658118;0.103374325;0.1023088;-0.009733715;0.018601937;-0.14457105;-0.0113486275;0.107164204;-0.0029920402;0.20815401;0.088764146;-0.039111685;0.06226095;-0.042238686;0.12804246;0.24254118;-0.047870398;-0.061090466;-0.09212841;0.13426621;0.19026873;-0.101111695;0.003631119;0.024042668;0.04747104;-0.1855763;0.013428524;-0.05287942;-0.34812927;-0.09606975;0.0695719;0.09025536;0.09942058;-0.1506509;0.20391044;0.0013297995;0.0931591;0.16955641;0.2930471;0.2535717;0.1966697;-0.015325162;0.065518074;-0.17547835;-0.040234406;-0.04188338;-0.022838762;0.013546012;0.06181237;-0.031825755;0.17939371;-0.1189221;-0.1619803;-0.25285992;0.17807321;0.14554563;0.16953376;0.13052943;0.19636565;-0.08510396;-0.013057625;-0.060728703;-0.115637094;-0.14891526;0.21647896;-0.06486885;-0.31165016;0.0345933;-0.057113603;-0.4654244;0.08142168;-0.09763379;-0.14626396;-0.105305724;-0.0688317;0.15311694;0.06550544;-0.19107811;0.2939632;-0.16338383;0.08287241;-0.41645208;-0.019743713;0.0838355;-0.061949056;0.05136101;-0.024682643;0.19995336;0.2715764;0.0003637951;0.06677587;-0.38792777;0.019424124;-0.0649972;-0.115330584;-0.23233923;-0.0022732418;-0.18175797;-0.32229814;-0.053743575;0.100873046;0.03163754;0.058783356;0.23333226;0.035515316;0.120353036;-0.076352574;-0.08223321;0.13777283;0.40362468;0.13338621;0.33824685;-0.21669167;-0.06530427;-0.080392905;0.33713388;-0.44964686;-0.19009447;-0.0073071048;0.1887756;0.06154314;-0.12069325;-0.07260943;0.08552538;0.100770794;0.17120555;0.04713374;-0.13436207;0.1499075;0.030505918;0.10379996;-0.22321677;0.17233601;0.06302556
-0.16247006;0.14134987;0.124459974;0.08837806;0.04843544;-0.12760265;-0.22869706;-0.018822163;0.13139912;-0.050070465;-0.036052603;-0.020689031;-0.0723742;-0.2552679;-0.26717582;-0.15281041;-0.19626848;0.05240411;-0.20172669;-0.32089573;0.16020994;0.25242585;-0.13745864;-0.1446821;0.18702084;0.19009896;-0.013930718;-0.045717392;-0.07956273;0.073493384;-0.065515146;0.311097;0.059347738;0.0096568;0.19918096;0.14253551;-0.22840846;0.081443794;-0.21711043;-0.21214594;0.16196194;0.112133265;-0.06341493;-0.2099542;-0.1702058;0.117498025;-0.14628063;0.13049525;-0.22441596;-0.01974614;-0.07939914;-0.109058276;0.04573144;-0.010117865;-0.04900563;0.12923373;0.2109031;0.09844079;0.025775028;-0.17660691;-0.022772439;0.16176037;0.4369445;0.17948014;0.04652703;-0.23477966;-0.055731364;0.13808566;0.048583683;0.044582367;0.013488831;-0.051645387;0.029235275;-0.18534684;0.17631054;0.064044975;-0.34559527;0.34892765;-0.12012165;0.2681259;0.061997697;0.35073146;-0.19972862;-0.03705421;0.066911906;0.098412044;0.042108465;0.091612175;0.04992991;0.061994962;0.07918933;0.05491646;0.11741638;-0.012337339;0.14817779;0.017731644;0.044753376;0.19827534;0.0907268;0.0018389868;-0.12290663;0.02576364;0.08574095;0.15525268;-0.12732798;-0.041426055;-0.057984367;-0.049406104;0.2962168;-0.14053783;0.17108332;-0.24604195;-0.06954566;0.031145656;0.11378263;-0.07526987;-0.05170116;0.21876255;0.16668394;-0.19935846;-0.5936015;0.02795496;-0.20180468;-0.26294333;0.013168935;0.040063187;-0.029771121;-0.0733609;0.007484019;0.082251236;-0.004473389;-0.061319813;-0.1021585;-0.21552035;-0.27154416;0.015639203;0.13247757;-0.06730183;-0.033713736;-0.18264768;-0.030183878;-0.11627192;0.11089446;0.14134628;-0.15315527;0.09297616;-0.058269165;0.22550131;-0.0694034;-0.07272184;-0.16089606;0.12933178;0.04353175;-0.07860451;0.16122608;0.35445634;-0.13175002;-0.012681878;0.1772599;-0.09629198;-0.40748897;-0.16136707;-0.118922025;0.079014875;0.04832254;-0.024374638;0.48636553;-0.005056577;-0.09439465;-0.057326403;-0.075763896;-0.21983874;0.05502642;-0.08520376;0.0455304;-0.14212218;-0.12942758;0.06616832;0.040947527;-0.26164773;0.02812956;0.19773243;0.24272683;0.12561603;-0.15026568;-0.23201959;0.1253724;-0.013548875;-0.14493877;-0.0042177704;0.35478812;-0.012073878;0.119564824;0.29586813;0.120345645;-0.20609103;0.10053682;-0.17403041;-0.10324053;0.11895123;0.03204491;-0.034096804;0.016992673;-0.32618368;-0.32718927;-0.089176826;0.10990349;0.23099075;-0.002846854;-0.20570083;0.17048858;-0.004267196;-0.0013986032;-0.20435204;-0.006551057;0.4482914;-0.2534597;-0.036382385;0.053749703;-0.014363573;0.10908049;-0.0042851684;-0.31425184;0.0010915676;-0.03893516;0.05368734;-0.179434;0.0800506;-0.050069515;-0.091984786;-0.15094595;-0.23845826;0.27746746;0.09676241;0.13973194;-0.038899455;0.087148294;0.031677786;0.3391778;0.26662838;0.026079796;0.053667508;-0.04879346;0.17531663;-0.27013862;0.08141688;-0.24636544;-0.0624416;0.2073578;-0.054698795;-0.16201974;0.018246548;-0.04226016;-0.021110505;0.062233765;-0.2536867;-0.34109142;0.10152711;-0.042776074;0.43851617;-0.09319719;-0.026018182;-0.32740042;-0.090877905;0.34754503;0.22700006;-0.06113204;-0.06568437;0.08280226;-0.153835;0.033249903;0.06593727;-0.17159012;0.20064884;0.135259;0.08494748;-0.18582307;-0.00072530116;0.2110977;-0.5131775;-0.123971485;-0.15375757;0.04846797;-0.051565282;-0.027019635;0.43820938;-0.0906705;-0.3049808;0.059273474;-0.0105968155;0.10252001;0.0081046345;-0.062803075;0.22795033;0.13665166;-0.15032691;0.055088982;0.24744786;-0.071531095;-0.035241947;-0.0671569;0.21433969;0.044220686;-0.43671563;0.25332755;-0.23108366;0.12596093;-0.047632992;-0.0046040355;-0.2614169;0.025105136;0.034261532;-0.097373135;-0.045458343;0.03517469;-0.13655318;0.064109646;0.095152475;0.3211505;-0.1439511;0.07833076;-0.023962155;0.110048436;-0.35613018;0.07034149;0.34070548;-0.16552897;-0.21191831;-0.022483017;-0.23092653;0.19443883;-0.31010246;0.38320595;0.33114785;0.19089758;-0.0022246353;0.09048192;-0.06204301;-0.005248498;0.23754752;0.245655;4.656888e-05;-0.031754877;0.0025313674;-0.07241501;-0.18928392;-0.17718011;-0.09614134;0.14473064;0.13712539;-0.19757725;0.021479221;0.122266285;0.20014545;0.18570781;-0.08778585;-0.055030786;0.19513117;-0.1677662;0.080709495;0.06417909;-0.0680195;0.26318505;0.023213388;0.11141489;0.24784213;0.06783193;-0.18312629;0.43075013;-0.020225562;0.21752734;-0.26941696;-0.04544921;-0.2298388;-0.077602886;0.120585315;0.30267736;-0.008900867;-0.098168895;0.021517087;0.1579738;0.3458833;-0.037279975;0.27954006;-0.092673;-0.046295237;0.12317622;0.0044017592;0.39106876;0.1799587;-0.07650542;0.083626255;-0.3378367;-0.11318069;0.079542734;0.026188666;0.20649223;-0.032683417;-0.02786407;-0.0011620406;0.054594472;-0.11642964;0.12917005;-0.23570828;-0.08953553;-0.01796549;0.03028605;0.16561417;-0.010342425;-0.08959824;-0.07238085;-0.12385561;0.08458849;0.109509155;-0.012888649;-0.07276575;0.027126236;0.0007631684;-0.4233036;0.35197687;0.09976449;0.15185565;0.033424523;0.014873115;-0.066893786;0.031696606;-0.22048801;0.016232103;-0.02793413;-0.29154742;0.29806292;-0.073153205;-0.15924498;-0.028131377;0.2788373;-0.04735052;0.080925874;-0.21657808;0.06630827;-0.11477426;0.08965304;-0.6077636;-0.10156491;0.3096951;0.11750299;-0.30288675;-0.2045612;0.06456428;-0.11793249;-0.004579641;0.075157516;-0.09190004;0.18757081;-0.31382445;0.07370058;-0.03302291;-0.041549895;0.42200872;0.16304931;0.2601725;-0.4089431;0.13711819;0.27206463;0.14853676;-0.056781735;0.17750199;0.079761826;-0.33482134;0.1628389;-0.004912017;0.013503398;-0.08200696;0.070920795;0.07628233;-0.037980642;-0.17763849;0.17124009;0.17067151;0.02017221;0.121068;0.3350582;0.19232455;0.10376441;-0.063722804;-0.06557513;-0.16281621;-0.07296584;-0.11574444;-0.0496232;-0.09259827;0.0072543765;-0.044981223;0.3010257;-0.037772033;-0.14006126;-0.05614922;0.058631763;-0.083631195;-0.03199943;0.28741962;-0.22328922;-0.099163875;-0.34845096;-0.13622333;-0.054921124;-0.20313539;0.33235124;0.08372178;-0.32102636;0.033998054;-0.16314064;-0.6878905;0.10666824;0.30454552;0.004162262;-0.23310873;0.24720946;-0.032857876;0.055784743;0.060264394;0.26843974;-0.25816432;0.14505924;-0.20503764;-0.07141926;-0.13603382;-0.21121757;0.13707599;-0.06528845;-0.023295587;-0.0071263597;0.1813959;0.11258996;-0.33231676;0.07028405;-0.1656033;-0.11729717;-0.22530122;0.021496056;-0.14979573;-0.20250142;0.071843326;-0.104238026;-0.17070037;0.10382701;0.13995655;-0.003808047;0.36845323;-0.005988659;-0.20053412;0.07983466;0.21905535;0.109655656;-0.053311054;0.05959648;-0.24837531;-0.033634327;-0.09353513;-0.3890644;-0.30880517;-0.14156821;0.179693;0.14793721;-0.3639046;0.22311212;0.064111024;0.09075348;0.054858167;0.16070075;-0.14941186;0.3165664;-0.018298717;0.2043855;-0.0029545694;0.29690656;0.049894936
0.03251412;0.01955476;-0.096057534;0.16317973;0.12541907;0.12101326;0.06135776;0.06481921;0.11744374;-0.060485415;0.08025143;-0.31825826;0.0458302;-0.28798082;-0.0585361;-0.11918257;-0.3639945;0.04460651;-0.21485034;-0.24770379;-0.3882116;0.23436214;-0.11181967;-0.006946475;0.07902724;0.06329834;-0.04598257;-0.11466087;-0.27631634;-0.07048126;-0.23918536;0.085529365;0.23010644;0.29284865;0.31985155;-0.06755244;0.0137051875;-0.16696292;0.07564725;-0.052303232;0.004892186;0.06838345;-0.026838554;-0.21816985;0.3085373;0.23315991;-0.019341642;0.333612;-0.0997734;0.13671549;-0.48836094;-0.2668864;0.04241894;-0.12857445;-0.38774508;-0.16003585;0.084973834;0.03084684;0.038030118;0.061744157;-0.05665052;0.2135954;0.1760115;0.060365558;0.07489611;-0.26132405;0.039118372;-0.4288708;-0.0070872726;-0.061477732;0.21393478;-0.023706151;0.06214644;-0.3808484;0.17956494;0.019432379;-0.3371717;-0.039455015;-0.024331272;0.09340752;-0.00015967466;0.1112404;-0.10708808;0.04853866;0.0280258;-0.004963977;-0.037071988;0.07950393;0.10769414;0.16445608;-0.07753947;0.08712701;0.33407307;-0.23816472;-0.015100796;-0.0663472;0.081477925;0.3036218;0.13147396;-0.0026802323;-0.071520016;-0.15018408;0.048271064;0.22048843;-0.039067134;-0.15768297;0.046335284;0.0009994633;0.23980382;0.40090573;0.2454081;-0.056627456;-0.23536846;0.16024137;0.2181847;0.060951658;-0.112024605;0.13512026;0.14952573;0.040589415;0.016639847;0.022110952;0.20258163;-0.17280494;0.052964307;0.041840896;0.114981405;-0.21727142;-0.26831925;0.09051661;-0.1884846;-0.3503814;-0.019513763;-0.39757398;0.008737473;0.27196527;0.113265924;-0.14134648;0.15007256;-0.027632475;-0.0107652545;-0.27266565;-0.0379964;0.12328838;-0.22691755;0.0109747285;-0.2900848;0.36589962;0.09071977;0.023723466;-0.096534014;0.10920375;-0.08068254;-0.07563103;0.094271265;0.40311754;-0.0903351;0.0013981442;-0.035306986;-0.088275075;-0.24660851;-0.21453208;-0.09396586;0.13371707;-0.08643576;0.15899318;0.4228893;-0.18937933;-0.046941083;0.11103057;-0.14131424;-0.29779652;0.20803666;0.13244475;0.11774605;-0.3457212;-0.19478019;0.25909594;0.23798683;0.07154774;0.16402361;0.17572348;0.15632656;0.073380195;-0.06560655;-0.19820589;-0.07323573;0.1320775;0.17103988;0.07756506;0.36055166;0.016746113;-0.0015167631;-0.017503986;0.38037807;-0.2226718;-0.12070421;-0.14064175;-0.18615104;0.16563487;0.050501514;-0.24443376;0.08337391;-0.050090507;-0.08394943;-0.064646795;-0.010942929;0.13808747;-0.06411208;-0.28323466;0.38031048;0.052234173;0.04531014;0.045947034;0.31652465;0.11506411;-0.1520825;-0.08015649;0.054666184;-0.08145193;0.33204004;-0.15543504;-0.104040116;0.0660778;0.08843714;0.13824017;-0.1981207;-0.17566189;-0.0208718;-0.09949565;-0.092640646;-0.054106932;0.3790553;0.018953128;0.051155433;0.1979353;0.18459947;0.29111132;0.20262225;0.025923848;0.053612307;0.03918546;0.18377444;0.19086926;-0.10153534;-0.20189129;-0.08340298;-0.17093985;-0.036846053;-0.12046433;-0.040782336;-0.16048962;0.095234744;0.05069845;0.10806288;-0.20592378;-0.47788954;-0.017517477;0.24862266;0.14878047;0.12437924;0.046771873;-0.1740138;-0.024778623;0.26349312;-0.03508003;-0.15887146;-0.009536098;-0.07416285;0.05554124;0.1823738;0.22857392;-0.17912976;0.09355679;0.33152655;0.052910104;-0.2098381;-0.11431295;0.14317352;-0.7076049;0.033899322;-0.093340866;-0.01236309;-0.07408995;0.08329135;0.4676897;-0.04683676;-0.37623557;0.0888259;-0.030273624;-0.1157607;0.23943801;-0.250783;0.02551792;0.3411247;-0.0152319865;0.057128806;0.018265001;0.12431507;0.26289362;-0.006615698;0.026856888;-0.02818633;-0.21752559;-0.23042993;-0.22539271;0.19476937;-0.06531751;0.025602728;-0.20684122;0.03767155;0.059356272;0.065465465;-0.03375823;0.016530117;-0.059202593;0.24501391;0.003223994;0.1786226;-0.20960386;0.21015199;0.027262518;0.18661295;-0.18508776;0.04860022;0.20578411;0.17010763;-0.13359724;0.044327904;-0.14527696;0.18353294;-0.05966685;0.3646097;0.1684975;0.1904008;-0.0555203;-0.027767152;0.15006363;0.15806721;0.27947107;0.029963808;-0.2002655;-0.3561247;-0.047788803;-0.115570284;-0.23089027;0.02672644;0.07325095;-0.027623856;0.0887624;-0.21095821;0.12038397;0.012971363;0.04436;0.2811911;-0.27724883;-0.040569067;0.21362095;-0.036221676;0.1984999;-0.20101751;-0.102780096;0.26638445;0.22345999;0.22382696;0.19976439;-0.14921777;0.045103807;0.26988894;-0.062627286;0.14632928;0.1290984;0.13944714;-0.3582936;0.027815023;0.10625736;0.15958112;0.011335466;0.038954746;-0.15604456;0.08666792;0.15847191;-0.07109435;0.34283155;-0.15503854;0.026212672;0.12770735;-0.092792615;0.64343643;0.18506265;-0.27219757;-0.01711532;-0.007884529;-0.07871263;0.0055058603;0.060535002;-0.051804315;0.10249251;-0.014716033;-0.31602618;-0.1915858;-0.01952823;0.16918619;-0.21399185;-0.5070445;-0.017150275;0.033820257;-0.039303772;-0.09291235;0.14362726;0.10867288;-0.0442029;0.039696112;0.007910787;-0.07352177;0.07929428;0.03200438;0.16952811;-0.21589135;0.44619724;-0.10006333;0.07648077;0.07495806;0.26558897;0.052531373;-0.27034903;-0.34843454;-0.042572595;-0.19089705;0.099120006;0.25073662;-0.17995204;-0.25367272;0.070360295;0.21684052;0.15264788;0.16620147;-0.6051877;0.11661388;-0.23053265;-0.050428126;-0.42233035;0.18442631;0.3630341;0.1104037;-0.41752747;-0.17852128;-0.14972802;8.0568076e-05;0.016499942;0.12761638;-0.4292433;-0.067958705;-0.45114625;-0.01925851;0.11316188;0.27405074;0.44146758;0.08914571;0.08881121;-0.31842944;0.08015899;0.09945478;0.020529773;-0.035399072;0.12492128;0.08926892;-0.25490993;0.049364246;-0.040233135;-0.07139286;-0.3052274;0.26340893;0.04804518;-0.061649315;-0.11498832;-0.06868392;0.008306979;-0.2109017;0.21096434;0.22163503;0.12435791;0.1127267;-0.10992122;0.0818487;-0.010690036;-0.15610678;-0.11204291;-0.06364761;-0.07798163;0.015208091;-0.15151346;0.03802014;0.026623115;-0.17815362;-0.08217082;-0.08591681;-0.03451407;-0.11429465;0.14861873;0.036646254;-0.45861724;-0.28916436;-0.083964765;0.08894964;-0.03412859;0.44790396;0.10455799;-0.23106644;0.091516994;-0.12278846;-0.10395108;0.09227476;0.4817621;0.12956932;-0.17079276;0.227881;0.016152868;0.12219184;0.19792092;0.16710678;-0.4377368;0.14385661;-0.15854624;0.021411033;-0.09284346;-0.5426028;0.033404995;0.12335965;0.12739626;-0.0032516364;0.12586965;0.10395552;-0.2174616;-0.11267711;-0.06529187;-0.043142244;-0.26863453;-0.108566836;-0.16469403;-0.3328226;0.24181974;0.1498186;-0.083609164;-0.08433502;-0.09691475;-0.11679817;0.23887904;0.040974014;-0.15733206;0.09618396;0.24747288;-0.049726043;0.06223063;-0.0331639;-0.14785172;0.1944415;0.041586563;-0.25472918;-0.10848074;-0.6620256;0.22281484;0.055415127;0.041346192;0.15445687;-0.2305467;-0.14646126;-0.023107989;0.27896944;-0.026156146;0.17026784;-0.23574142;0.29239106;-0.19818293;0.16969097;0.017309831
-0.10890322;0.010465281;-0.043577652;0.21876058;-0.25052702;0.15579377;0.043257087;-0.04631838;0.09860046;0.05022868;0.13370869;-0.3944319;0.05567967;-0.040993553;0.010985836;-0.14436096;-0.14764683;0.029076003;-0.067224056;-0.17675568;-0.305217;0.08138601;-0.051625922;-0.15394375;0.07214222;0.22206162;0.11290472;-0.078954466;-0.10964505;0.00092286407;0.03611431;0.05096378;0.008711532;0.10842037;0.12074758;-0.2536371;0.019496288;0.27864847;0.25519103;0.24311863;-0.061786518;0.0047449833;0.23416235;-0.121088654;0.010478733;0.18804237;0.22489126;0.18241872;0.027769491;-0.075077735;-0.11859958;-0.31886238;-0.04217431;0.0128594795;-0.43222156;0.09242771;0.19411875;-0.101260826;0.07745177;-0.14367858;-0.06257736;0.0511452;-0.017244132;0.09775234;0.15839836;-0.17309062;-0.050698075;-0.082455724;-0.13029651;-0.025895642;-0.00193526;-0.16144587;0.028599935;-0.066654526;-0.039169043;0.061117746;-0.15526585;-0.1442445;0.07899843;0.020671453;0.022704586;0.36326393;-0.105857566;0.08876577;0.046284802;-0.04135828;-0.45180103;-0.14724799;-0.015435136;0.26483372;-0.04571398;-0.052737243;0.04104424;-0.1428573;-0.056352764;0.12221664;0.16090946;0.33183548;0.06354858;0.060115527;-0.052302208;0.034702655;-0.31269258;-0.021903925;0.19002393;-0.020708852;0.23568948;0.06694416;0.024072522;0.39797533;0.08013256;-0.22453277;0.17219894;0.09821695;0.069277264;-0.033074327;-0.15622297;0.0018527247;0.11530522;0.15415397;-0.008002795;-0.05256379;0.26067543;0.017295403;-0.0612206;0.07853192;0.029523185;-0.36118215;-0.38628697;0.046806145;-0.3306096;-0.08962425;0.046462454;-0.17480499;0.16852684;0.15839386;-0.0042155837;0.10213778;0.19228086;0.23303509;0.024534062;-0.4562625;0.04717347;-0.12118952;-0.10329542;-0.07214324;-0.026995597;0.06490201;0.021737628;0.14655292;-0.11221876;0.010130208;-0.0100103365;0.13967036;-0.26896304;0.1366781;-0.2993026;-0.07695932;-0.07877341;0.07145342;-0.08536038;-0.10907568;-0.24975663;0.07844522;0.1900227;-0.06533123;0.2271073;-0.12541671;-0.032164544;0.035614893;-0.06955112;-0.068448834;0.10091291;-0.009461248;0.23762411;-0.5335928;0.002410087;-0.17015503;0.13587487;0.10630086;0.1215308;0.2035794;-0.10767905;-0.060122628;0.11564151;-0.08735705;0.071626484;0.14995858;0.06783633;-0.0660955;0.054506533;0.048527513;0.05264641;-0.20015742;0.14492784;-0.18355986;-0.20003156;-0.04802059;-0.056264278;0.12698513;-0.10177302;-0.2130912;0.12552245;0.010109217;-0.1031756;-0.05457118;-0.12057884;0.11900086;-0.24422418;0.20251898;0.2791444;-0.026655175;0.5553183;-0.009073363;0.20552881;0.24299344;-0.3164897;0.08498419;-0.1054663;0.19458383;-0.09022589;0.0792043;-0.102298096;0.21104042;0.07761948;0.054326266;0.0066139046;-0.06718012;-0.048397027;0.06447585;-0.16982375;-0.16022421;0.2515606;0.0147998305;0.070643656;-0.08996539;0.0050212126;0.08013142;0.06245357;-0.04411079;0.21672788;0.21626323;0.101626985;0.14793733;-0.09376254;-0.32154113;0.0035162754;-0.14153333;-0.11196297;-0.07994715;0.047887906;-0.32753727;0.030199235;-0.016926235;0.1481964;-0.034328863;-0.12171463;-0.013074691;0.13910916;0.17360684;-0.16891149;0.067773566;-0.24325289;-0.0699542;0.054302547;0.15714145;0.16219793;0.04875215;-0.13884434;-0.31066194;0.17628293;0.1395017;-0.03782265;0.07554698;0.11793838;0.00043355845;0.20088239;-0.09148099;0.120128796;-0.46007353;-0.11181979;-0.013191894;-0.16150114;-0.005759126;0.062498517;0.069574855;0.0410904;0.0024359724;0.14022495;-0.2354282;-0.003244492;0.13296469;-0.2150208;-0.07765582;0.3082805;-0.026875515;0.0015670478;-0.07081834;0.16428646;0.10473946;-0.02701874;-0.014410628;-0.008315077;-0.48856136;-0.24860653;-0.24590188;-0.14424226;-0.14947593;-0.099591225;0.11847194;-0.14141874;0.07264966;0.057475157;-0.077465415;-0.0030788744;0.07567986;0.20476462;0.23387454;0.011151777;-0.16484155;0.2005068;0.14102927;0.22595714;-0.12072542;0.22175539;-0.02418628;-0.18765518;-0.027701268;0.009343573;-0.062693074;0.17854235;-0.1767234;-0.033184644;-0.11133905;-0.09481427;0.15072739;0.10828947;0.15011536;0.018222678;-0.08344438;0.17422976;-0.04042947;-0.17746325;-0.2916461;0.018900415;-0.50840205;-0.061750438;-0.1215703;0.1535077;0.005818989;-0.35103023;0.1932134;0.14508386;-0.09991973;0.07442931;-0.31150702;0.016594347;-0.09433665;0.027125176;-0.05063137;-0.022587806;-0.3300088;0.020478556;0.065599754;0.12973717;0.057404738;-0.30459484;-0.042578913;0.17074642;-0.11818506;0.06930649;-0.23478498;-0.096787944;-0.15758486;-0.005545944;-0.08107699;0.15136737;0.0274521;0.22017993;-0.113901734;0.22967198;-0.07379162;-0.16025;0.26682082;-0.2464614;0.085185215;0.17950334;-0.03260709;0.28611657;-0.0011940543;-0.1918543;0.17067388;0.16951793;-0.15842015;-0.06219749;-0.014429795;-0.28588545;0.18106796;-0.04472119;0.13364188;-0.2600226;-0.180504;0.111951664;-0.16035406;-0.4301695;0.020300886;-0.09666982;-0.05529852;0.09517679;0.28748256;0.02920416;0.19112918;0.11867135;0.093534626;-0.11592072;-0.10723475;-0.028365469;-0.08687782;0.14866419;0.037593786;-0.43603915;0.044912107;-0.0017953705;0.2166718;0.021214666;-0.08623655;-0.23856904;-0.3409253;0.0016710522;0.112540804;-0.10558322;-0.112220086;-0.3039229;0.023204755;-0.014667831;0.31551465;0.041107688;-0.53464127;-0.2202359;-0.20345175;-0.19449668;0.057853516;-0.07875512;0.49865386;0.13323037;-0.04962534;-0.003942357;-0.48196915;-0.06390734;-0.03371426;0.14631155;-0.009514026;0.085193306;-0.31169832;-0.045041982;0.029901257;-0.12886226;0.29564285;0.12367203;-0.08286893;0.0447167;-0.1392671;0.04207108;-0.11187084;-0.028349066;0.06505315;-0.004031283;-0.09887746;-0.12677617;0.0068046786;-0.07626673;0.1422399;0.05775227;0.07280747;0.14127688;0.25953594;-0.16164757;-0.014888573;0.026880682;0.17932084;0.1314477;0.11323383;0.16118473;-0.04595515;-0.08922186;0.23876908;-0.0011914222;-0.19120927;-0.17910339;0.024822928;0.0015600665;-0.14133175;-0.14598428;-0.25220293;0.06139912;0.10816567;-0.12747723;-0.073841326;0.019232856;0.07896305;-0.39451674;-0.2097767;-0.2552774;-0.08850675;0.28673124;0.01804141;0.087074414;-0.11510871;0.11996879;-0.16285244;0.0360299;-0.1234114;-0.140344;0.09262731;-0.107368454;0.05991228;0.26967937;-0.18167779;-0.06718126;0.08463451;-0.0574666;-0.14360535;0.07842572;-0.12191804;-0.031295534;-0.04765713;-0.095334336;-0.05209456;0.10702675;0.30853373;0.117043786;0.03803143;0.29326853;0.01043982;-0.3044978;-0.14022982;-0.058542036;-0.12908156;0.057772096;0.21556553;-0.54854774;0.106768206;0.36338973;-0.17154899;-0.10490144;0.14416884;-0.14250037;0.16913848;-0.09249456;0.022948746;0.07112981;0.08409224;-0.22813448;0.013194462;0.102654435;0.11410393;0.10134034;0.04298224;0.17033306;-0.12109538;-0.38723215;0.2249157;0.020375207;0.16661881;0.24431556;-0.06851376;-0.26362494;-0.029155578;0.27417982;0.018288804;0.08585043;-0.12904349;0.14300239;-0.16984631;0.15447016;-0.002762367
-0.2457;-0.19575244;-0.09368911;-0.08357495;0.12451295;-0.05548241;-0.089840755;-0.09695959;-0.061211124;0.18513191;0.11361049;-0.26189026;0.2392271;0.16506465;0.068398826;0.014493148;-0.2377594;0.019603092;0.052913833;-0.22768207;-0.06580871;0.04626587;-0.15924342;-0.062213276;0.21875824;0.23889999;0.0940259;0.008186814;0.019539785;-0.061445624;0.20838632;0.105830975;-0.019699775;0.39876696;0.23487416;-0.16478929;-0.15254903;0.33851996;0.28307867;0.10990992;-0.09022278;0.067301154;0.14410518;-0.22227547;0.31183806;0.20408246;0.15307888;0.06411728;-0.033902492;-0.052535586;-0.39388448;-0.20729935;0.20412056;-0.34908432;-0.42091802;-0.08620683;0.14376278;0.21840331;-5.2076422e-05;0.012099124;0.07217885;0.108238705;0.1729932;-0.044419628;0.03560949;-0.15576345;0.036054082;0.16522941;-0.038375568;-0.10062441;0.13851994;-0.21853346;-0.0873508;0.2697399;-0.23631626;0.26473996;0.09817527;-0.036453307;0.17323026;0.008441711;0.26574808;0.1641803;-0.17937094;-0.09477717;0.09224261;-0.11696153;-0.47445822;-0.10332559;0.0655675;0.091823496;-0.06572896;-0.09147387;-0.12738459;-0.015559252;0.27924758;0.074461296;0.07515198;0.37848124;-0.061308715;0.019866994;0.11099905;0.017611466;0.069382325;-0.079809606;0.3722111;0.06478953;0.43719143;0.006294881;-0.13875592;0.09124891;-0.10722869;0.01213985;0.042444196;0.35541403;0.16414274;0.010315395;-0.28450787;0.013872372;0.20342252;-0.04862154;0.28018054;-0.0015016787;0.31280097;0.16522951;0.0019182861;-0.03718535;0.03609397;-0.039466113;0.19703063;-0.0076681552;-0.010063567;0.14215687;-0.1285445;0.09761993;0.16704336;0.039520953;-0.08458355;0.3150489;-0.16796169;0.3046617;-0.2511569;-0.5323448;0.38753098;0.0739429;0.14856392;-0.1662949;0.048093222;0.096754424;-0.23114535;0.150367;-0.01712089;-0.13398889;-0.060515527;-0.10495092;-0.46259147;-0.11012261;-0.28368977;-0.29635784;-0.29945797;0.1277507;-0.076127626;0.0075725745;-0.18389209;0.00042604763;0.20394067;-0.027346054;-0.0072962674;0.18554464;-0.20309941;0.106664814;-0.039726604;-0.0032470096;0.017497763;0.19144644;0.06582002;-0.39735138;-0.07274688;-0.18157864;0.15595293;-0.3744119;-0.036952026;0.008801744;-0.057772078;0.20864534;0.1639957;0.2480212;0.21237601;0.10865402;0.22039741;-0.0768556;-0.09355468;0.13058396;0.0038408975;0.034356058;0.19304958;-0.14577788;-0.34208494;0.026642669;-0.06638684;0.10114989;-0.18676098;-0.004222055;0.27026242;-0.22873566;-0.13549049;-0.11846733;-0.0024488694;0.101524115;-0.39812225;-0.7120235;0.06074018;-0.048708424;0.24943915;0.0090638315;0.31593242;0.18304546;0.05905941;0.12918812;-0.022268774;0.12567416;-0.31257755;0.4112852;-0.020009987;0.28153896;0.1568435;0.028956711;-0.3110039;-0.24576946;0.39798406;0.29413354;0.07595637;0.07381991;0.39993393;0.034948453;-0.045740202;0.005594461;-0.00090850354;-0.0767342;-0.06531816;0.048659798;-0.028150199;0.15334482;0.13374926;0.15741731;0.036699217;-0.08857553;-0.27076572;-0.28171182;0.2240979;-0.0073220464;-0.27045667;-0.10442143;-0.02357885;0.108153544;0.021814892;-0.44060355;-0.094667636;0.19649766;0.13042162;-0.114675455;-0.31795222;0.038904846;-0.3611102;-0.18423416;0.2667653;0.3965177;0.1675602;0.26505956;-0.11240217;-0.050746147;0.38995925;0.30338082;-0.1294489;0.17875502;0.23970777;-0.02523211;0.0143138915;0.04401334;-0.09740379;-0.27781606;-0.048627883;-0.08909439;0.12350818;-0.037662495;0.03154846;-0.06570601;-0.0320337;0.014546194;0.030078448;-0.32643697;-0.19549654;-0.014390084;-0.04489846;-0.12930708;0.015490099;-0.056249592;0.038996007;-0.21957062;0.011185433;-0.08364197;0.10987399;0.07522281;0.09540937;-0.25945836;-0.02245641;-0.34032422;-0.16676466;-0.21913476;-0.013944623;-0.18466201;-0.037551705;-0.2395389;0.052356403;0.12818114;-0.028821046;-0.045205563;0.21756911;-0.16900738;-0.061642736;-0.27596173;0.19314684;0.16508245;0.08201941;-0.060845643;0.289797;0.32057235;-0.11919425;-0.0490749;0.17150998;-0.04085294;-0.036693707;0.07279346;-0.23488294;-0.078388706;-0.27832505;0.13837221;0.22172539;-0.10930067;-0.04440957;0.11138579;-0.22750896;0.08309684;0.0014232288;-0.17146747;0.028634507;-0.5082774;0.25018278;-0.29020825;0.23349597;-0.055451088;0.09541849;0.11397058;0.08039755;-0.09218453;-0.019750983;0.081698865;-0.012899409;0.087797485;0.1922768;-0.03272677;-0.12860852;0.0026680755;-0.1214708;0.13030212;-0.0472368;-0.06398145;-0.55333924;-0.06530094;0.23392633;-0.12182944;0.12542157;-0.2525112;-0.07345205;-0.22523531;-0.19515069;-0.21756634;0.028949225;0.15866879;0.23609594;0.025614489;0.27669406;-0.2303951;-0.045730196;-0.05755454;-0.2917514;0.116700895;0.18946812;-0.0825839;0.081765786;0.022711402;-0.30704427;0.10746443;0.24883765;0.08420822;-0.0091677895;-0.18121673;-0.3814181;-0.050880924;-0.22596611;0.41827184;-0.17854175;-0.08427298;0.19378616;0.051734608;-0.052102912;0.13322052;-0.15436248;0.073018566;0.12972637;0.37654227;-0.06263578;0.19756089;0.2217512;-0.09217496;0.0699444;-0.19897032;-0.025731856;-0.21485385;0.11323355;-0.046287492;-0.20742914;-0.07622004;0.080010116;-0.31610698;-0.17603965;0.10509967;-0.3019003;-0.42700493;0.16586187;-0.051791918;-0.27931914;-0.22722578;-0.24595524;-0.0031913144;-0.045665186;0.3113356;-0.1438411;-0.15372658;0.11486362;-0.05147364;-0.27803168;0.116362795;-0.25577506;0.2491261;0.3118154;-0.041261297;0.07114265;-0.08165871;-0.014945466;0.28024644;0.14585753;0.22789216;0.18325718;-0.33053797;-0.13077907;0.09376344;-0.3395043;-0.111626305;0.048526943;-0.22964983;0.10769235;0.033704206;-0.1751593;0.09536097;-0.12676123;0.039154295;0.07220708;-0.13589042;0.04167286;0.024445511;0.15239139;0.07276755;0.08148763;0.0048182285;0.13744693;0.30019483;-0.0077573494;-0.0976167;0.23814335;0.32803962;0.38718024;0.26378846;0.18241134;-0.09835287;0.062352523;0.43067437;-0.07304547;0.052650273;-0.20623845;-0.21813154;-0.1494779;-0.1264475;-0.12047996;-0.03934743;-0.28617555;0.012326154;-0.072596215;0.15561701;0.09518913;0.010278327;-0.4638866;-0.23023157;-0.24934371;-0.11553456;0.0970432;0.037898883;0.063832685;-0.0844262;0.20936963;-0.11316357;-0.015545901;0.137137;0.12755217;-0.1262385;-0.07450287;-0.020760087;0.09356908;0.004304657;0.0027398283;0.12576589;-0.048018117;-0.07778246;0.27758148;0.055826314;0.16399597;-0.18328075;0.08080256;0.213045;0.060573395;0.31222367;0.11848139;0.016764361;-0.08130151;-0.089163594;0.31592247;0.041661095;-0.00076510035;-0.18506676;-0.03644595;0.226759;-0.042414032;0.02283984;0.24467342;-0.21218775;0.041712463;0.07764785;0.041497387;0.09813822;0.27835882;0.13239217;-0.00055088423;-0.12469572;0.25733063;0.18528576;0.016870314;-0.22458008;0.2758123;-0.1716594;-0.017993553;-0.04265409;-0.2592229;0.12683633;-0.30140713;0.20144944;-0.037116572;-0.18028149;-0.08113348;0.06298128;0.2341256;0.018563261;-0.021507384;-0.372855;-0.02359621;-0.20430978;-0.066319615;0.01647033
0.07401777;0.2124966;0.06344387;0.12585647;0.060560867;0.044500574;-0.31593788;-0.06815753;-0.22384043;0.18237276;0.22216652;-0.18400918;0.09220479;0.3226342;0.04804446;0.037559062;-0.40054688;-0.064215645;-0.24532956;0.0022893522;0.031831987;-0.13770735;-0.15255815;-0.02705807;-0.06378106;0.026344897;0.018279975;0.056325924;0.04053714;0.048323963;0.08854393;0.16348659;-0.21781471;-0.04091204;0.059937287;-0.25260574;0.045836646;0.106445976;0.10294825;0.07385763;-0.07767076;-0.08601452;0.074390635;-0.008724366;0.094805546;0.14560476;0.20389262;-0.06901049;-0.18218672;-0.011038729;-0.40316066;-0.09610138;0.116069175;-0.34513694;-0.2960627;0.016027702;0.1575337;0.047048613;-0.0690489;-0.021128822;0.0035218566;0.0021936905;0.31682488;-0.12380509;-0.10664674;-0.090992555;0.031164497;0.19987997;-0.15571277;0.031600483;0.10734789;-0.005665819;-0.12757911;0.1858164;0.042469002;0.22754106;0.065196246;-0.00016502732;0.21839006;0.07013387;0.1475813;-0.14055957;-0.21413912;0.15822998;0.16659245;0.021578703;0.08380169;-0.1473249;-0.109358646;0.13054438;-0.074051626;-0.06359201;-0.37298745;0.16207641;0.1458953;0.45498478;0.12682872;0.20521809;-0.013239919;-0.15344445;0.072480954;0.20090936;-0.2281908;-0.100988634;0.26336133;-0.06479527;0.19215176;0.116425864;-0.16189142;0.2686524;-0.17349786;0.18257761;0.15971634;0.00836127;-0.099765085;-0.1498918;-0.20116998;-0.07381803;0.10374237;-0.09438311;0.35988405;-0.060438883;0.42136005;0.17061214;0.0010998963;0.04907847;0.09535227;-0.28807896;0.11469936;-0.048231736;-0.118003584;0.15147752;-0.42852846;-0.25711802;-0.013271389;0.012026759;0.078913756;0.17550227;-0.079660445;-0.15091108;-0.2706695;-0.116341636;0.15449986;-0.16081473;0.12634414;-0.053397123;0.22223318;0.087072365;-0.00062545575;-0.037341785;-0.028882103;-0.0074964045;-0.003875741;0.0119555015;-0.35322437;0.11898519;-0.40909362;-0.08899392;-0.015877306;0.047082815;-0.066853456;-0.12115327;0.0048073917;-0.025559472;0.24140652;-0.029455153;0.059268106;-0.06346992;0.068119586;-0.09027816;-0.0402507;-0.040337343;0.18925306;0.032426916;0.06509999;-0.33495745;0.006147026;-0.13309808;0.14760657;0.12969665;0.020016897;0.28305456;-0.061174463;0.22736141;0.22077829;0.20962287;0.13618515;-0.016819682;0.12615304;-0.09509152;-0.14353564;0.073720664;-0.1563652;-0.0777903;0.1750759;-0.15542023;-0.21770449;0.11580325;0.080190785;0.21510091;-0.11222754;-0.063271314;0.16106759;-0.07594304;-0.27410075;-0.16801238;0.28344873;0.14005935;0.008806859;-0.54048455;0.17957547;0.1486305;0.20952387;0.05516952;0.13927346;0.12240222;0.20014349;0.056480132;0.0013649923;-0.082180314;-0.13322963;0.36492893;0.28955853;-0.110103875;0.21414101;0.090928495;-0.0002950239;-0.20728576;0.013937944;-0.0660087;-0.01909087;0.088041276;0.3491544;-0.07237266;0.3329714;-0.022831118;-0.043889433;-0.065483846;0.012807875;0.011108336;-0.032871883;-0.017236128;0.13229108;0.0139996335;-0.15389994;0.23032683;-0.17432398;-0.22700743;0.30069557;-0.017985929;-0.10050087;0.025228374;-0.046144705;0.26420927;0.12293987;0.07066135;0.13644083;0.257183;0.10455934;-0.17697231;-0.039466273;-0.18657659;-0.28687134;-0.3137726;0.097657695;0.31298974;0.06795842;0.215064;-0.2382805;-0.3406145;0.32095844;0.23561244;-0.14529298;0.040132537;0.22212218;-0.082233444;-0.17233893;-0.12899801;-0.38702813;-0.54882014;-0.12972926;-0.0051730745;0.03711217;-0.13475199;0.23531209;0.19628523;0.114816695;-0.18492882;0.028214423;-0.039204717;-0.01029183;0.16237307;-0.12999146;-0.038657077;-0.00059347966;-0.17834997;-0.06630865;-0.07274172;0.05594409;-0.024001308;0.028926697;0.028640158;-0.0747318;-0.2385701;0.12027622;-0.0010977365;0.014440112;-0.2326866;0.24931167;-0.26515153;-0.10592223;-0.01197412;-0.002238256;-0.14956914;0.019019468;-0.32133695;0.30718154;-0.37747326;-0.06594525;-0.10095955;0.13360472;0.31035662;0.26018804;-0.042308006;0.09923272;0.35379675;0.041477;-0.019476844;0.18811142;-0.1470732;0.05701158;0.030411934;-0.18663302;-0.12232919;-0.2009195;0.30506805;0.27348816;0.1274554;0.049425915;-0.12677428;-0.27918196;0.1303045;0.22009522;-0.078595616;-0.03747842;-0.44066346;-0.107979976;-0.0830657;0.21188226;0.022810157;-0.03941085;0.07415143;-0.19466841;-0.10514965;0.11012639;-0.09027951;-0.088150024;-0.028533394;-0.025173783;-0.0692276;0.04039745;-0.22374603;-0.11037695;0.093297504;0.077664815;-0.003719163;-0.3122125;-0.033736993;-0.0021460927;0.07529454;0.008897055;-0.35304064;-0.03843658;-0.07351945;-0.21757384;-0.04301114;-0.2983741;0.11274274;-0.070981316;0.12956242;-0.009791023;0.06924567;-0.02983713;-0.15108298;-0.033003632;-0.044692565;0.101339504;-0.101746;0.14152358;0.19987229;-0.020090977;0.113428175;0.25085568;-0.0076526864;-0.12880643;-0.44893906;-0.108383186;0.09889713;-0.06760949;0.10237404;-0.24520743;0.108618766;0.19561927;-0.026032422;0.01411356;-0.30513987;-0.0026643227;0.084348604;-0.14077576;-0.08141167;-0.0022982142;0.072775155;-0.100361064;-0.1555463;0.22693722;0.0530535;-0.0070654615;-0.19131587;0.00815744;0.09808274;-0.19962418;0.06951927;-0.18223216;-0.06359634;-0.022232538;0.038560677;-0.2947205;-0.15712942;0.104250655;-0.22989556;0.03870789;-0.11961671;-0.11620977;0.053198874;-0.102516845;0.22295395;-0.13535868;-0.059523974;0.14829758;-0.08285205;-0.11900236;0.11693419;-0.01085162;0.25897875;0.015828574;0.033104174;-0.10155422;-0.00013037924;0.007594105;0.30290535;0.17412132;-0.21169469;0.13039151;-0.12771334;0.008367489;0.09950594;-0.040226553;-0.050567485;0.3192016;-0.12721807;0.19557825;-0.107744716;-0.0047304337;-0.08490868;-0.09299066;0.056347266;0.04736856;0.1406699;0.002378184;0.031952236;-0.10729641;-0.17144838;-0.0045774304;-0.29224017;0.22463322;0.13142961;-0.09319133;-0.06385986;0.102152385;0.29232064;0.24004534;0.3633829;0.12704907;0.07459535;0.08106516;0.041053146;-0.11662438;0.04875952;0.02582033;-0.042512473;-0.23812172;-0.07676068;-0.04205096;-0.15032521;-0.12057672;-0.008145953;-0.009002158;0.18397094;-0.1237759;-0.037329353;-0.02050136;-0.3034037;-0.2806559;-0.15913546;-0.04154714;0.006727139;-0.20152342;0.17605269;0.2255359;-0.11645241;0.012460976;0.083950974;0.12898494;-0.13313763;-0.14374007;-0.16517602;0.20456977;-0.096571594;-0.10335915;-0.082814485;-0.1282153;0.0014136459;0.25450224;-0.0074497657;0.18018933;-0.10874018;-0.13806355;-0.1530429;0.17644373;0.20724025;-0.1040504;0.053475976;0.088628404;0.121486835;0.068543516;-0.047934636;0.1539408;0.116458416;0.2091764;0.21914484;0.20279607;-0.009260641;0.23533076;0.20019445;-0.04109535;-0.10637711;-0.08234997;-0.031876102;0.2068862;0.011861136;0.08079379;-0.11905377;0.13371646;-0.078877844;-0.01975186;0.027795628;0.000122029756;-0.121982194;-0.015149904;0.05449433;-0.20356834;-0.028974054;-0.2776411;0.1457143;0.023219144;-0.030120594;-0.042879052;0.014837918;0.17806956;-0.06269633;-0.24712728;-0.14296228;0.11808255;-0.14184082;-0.23761082;-0.11629667
0.067692935;0.31376794;0.09438747;0.09671577;0.3300503;0.17642084;-0.15615733;0.045939088;-0.26378456;0.078607365;0.28226605;-0.28555712;0.16297665;0.09677267;-0.03892971;0.17112531;-0.4701564;0.26531914;-0.32633972;-0.21811552;0.087349094;-0.085339345;-0.14506747;-0.10759889;0.013137572;0.12348606;-0.044191085;0.09893641;0.018045895;0.20471981;0.24332872;-0.046182778;-0.1531408;0.09036224;-0.033906635;-0.06937298;0.2068569;0.057017338;0.025667433;-0.1078734;-0.0478131;-0.21451105;-0.0037863643;-0.06326592;0.11349467;0.0768308;0.14574699;0.19561684;0.17498425;0.027680619;-0.27170256;0.14876264;0.03778299;-0.4892293;-0.36635065;0.18914242;0.09910793;-0.19126655;-0.09569409;-0.015536757;0.01933999;0.14406052;-0.07024708;-0.27345687;0.09925303;-0.094608776;-0.026005121;0.28172004;-0.21138562;0.142386;0.22947577;-0.09907152;-0.21373504;0.063077524;0.031776804;0.031512406;0.008049414;0.08660103;0.19820009;0.21063532;0.18768395;-0.06865052;-0.12690693;0.30347863;0.07659747;-0.10508453;0.05829584;-0.17896041;-0.092533514;-0.033879332;0.13086495;0.18663463;-0.45403376;0.030942466;0.28152123;0.14470513;0.11137118;-0.018008722;-0.00046176242;0.065652676;0.1721935;0.020476438;-0.26949862;-0.25471374;0.044922303;-0.4013331;0.1590143;0.15763867;-0.24480745;0.19061212;0.1436611;0.32601127;0.15172936;0.054866586;0.17936061;-0.43061724;-0.012833169;-0.1052346;0.087517075;-0.2837503;0.09139231;0.0032121667;0.41059187;-0.101651594;0.0063681644;-0.13795026;-0.106056005;-0.29927227;-0.18366101;0.039249282;-0.047591157;0.014964091;-0.41590178;-0.18615337;-0.051410876;0.065741405;0.15157545;0.07851411;-0.15741201;-0.11179877;0.040504735;-0.06121114;0.07971852;0.012120083;-0.00089971133;-0.10088257;0.034789164;-0.05541545;0.2271473;0.048633818;-0.0321405;-0.034063872;-0.094909005;0.1532915;0.0074979397;0.2305962;-0.008703511;-0.05990933;-0.16361517;0.2704529;-0.07580101;-0.05404463;0.076439306;0.023455037;0.19090201;-0.06205388;0.02517499;-0.049456246;-0.0877071;-0.17929913;-0.027995296;-0.10084243;-0.10520881;0.067446105;0.12070363;-0.15713017;-0.07545784;-0.22418599;0.025322778;-0.19852503;0.15574823;0.16551782;0.07612529;0.24616945;0.19775912;-0.079114094;0.1987246;0.14026336;0.017483572;0.033574;0.086685285;0.03891421;-0.12013682;0.2976525;0.15878192;-0.011826999;-0.16095148;-0.21784964;-0.07296762;-0.10670586;-0.19026539;-0.10489914;0.20655078;-0.05641217;0.056135852;-0.16315064;0.33603323;0.16888574;-0.09019135;-0.64046305;0.11339989;-0.021142116;0.10761867;0.09752614;0.044045046;0.29807225;0.047614537;-0.08679793;0.07007356;-0.19685492;0.18426432;0.18978785;0.3993783;0.002419986;0.16524519;-0.090076424;-0.009442229;-0.43130007;0.12047529;0.17846483;-0.108990036;0.27941465;0.10385891;0.013136886;-0.024940075;-0.06281674;0.068511166;-0.12668341;-0.12822317;0.06236613;0.14448075;-0.030037848;0.026355553;0.11934148;-0.18104824;-0.016612742;-0.18471432;-0.1664279;0.4251272;0.1584723;-0.042916916;-0.1989984;-0.046780117;0.23120187;0.097134404;0.41556868;-0.058890693;0.312024;0.0688542;-0.0034670683;-0.0142658325;-0.23290528;-0.07648197;-0.37319267;-0.045424882;0.14056635;0.059655566;0.28553924;-0.001235318;-0.15186866;0.33100626;0.12559389;0.031746212;-0.047469698;0.18987547;-0.10451393;-0.29430977;-0.029485617;-0.17216088;-0.026398938;0.05277783;-0.19235152;0.21494964;-0.16902383;0.22260347;0.22297494;0.24567398;-0.09012229;0.20568845;-0.030183231;-0.08192983;0.29252714;-0.19060794;-0.18198898;-0.032653134;-0.40008622;0.06083658;-0.0036200632;-0.03264103;-0.32424363;-0.06021583;-0.041816335;0.043681666;-0.0457981;0.2216918;0.1627269;0.09417531;-0.016965687;-0.012615594;-0.3081303;-0.019928938;0.027183658;0.06839115;-0.10111113;-0.22734517;-0.2990313;0.23919392;-0.07091132;-0.047044784;-0.028134601;0.27143562;0.12988426;0.33698243;0.12184892;0.27368888;0.07816212;-0.18567424;0.061404634;0.04904334;-0.22296503;0.1860362;0.03733962;-0.21275155;-0.037305884;0.26680657;-0.27793336;0.21743825;0.0340544;0.2142498;-0.2519504;0.07843809;0.15668017;0.03029491;-0.05329294;-0.003147567;-0.67753035;0.12208612;0.15921547;0.23744522;0.11873041;0.15309696;0.09040983;-0.099727705;-0.05907109;0.18372406;0.13765174;-0.01885084;0.10310704;0.09942514;-0.25132725;0.0071138716;-0.61101925;-0.18558298;-0.05440943;-0.021329606;-0.06888098;-0.13098916;0.23387806;-0.07879045;0.09784601;-0.04303061;-0.44420782;0.068221174;-0.03645614;-0.28941455;0.06582837;-0.100089006;-0.13428444;-0.10531776;0.22693707;-0.19370516;-0.012206981;-0.010541518;-0.068810895;0.2061582;-0.07126589;0.077752456;0.19353552;0.070552714;0.04231311;0.011704074;0.16623619;0.2052379;-0.07601235;-0.03025645;-0.2617601;-0.1601193;0.024482684;-0.23553213;0.05723815;-0.1579141;0.080820255;0.018405586;-0.04275637;-0.07156031;-0.38883662;0.13742036;0.024262113;-0.2397202;-0.20108089;-0.03376133;-0.107133985;0.0029449258;-0.029019568;0.17629015;0.073487945;-0.015744817;-0.040350944;0.09921746;0.19248511;-0.10414149;0.031332627;-0.45213297;0.012114484;-0.13727053;0.012751504;-0.1157852;-0.41578355;-0.03132327;-0.0899364;0.04008425;-0.12797378;-0.33669737;0.008066188;-0.05439943;0.11897888;0.023468783;-0.1387301;0.34645587;0.06478268;-0.043048214;-0.090646885;0.083448224;0.07009471;-0.12641919;-0.062298685;0.07593427;0.48411652;0.08930218;0.25291276;0.23658068;-0.402885;0.11536186;-0.29170692;0.039996866;0.21315002;-0.0068274057;0.09992994;0.21425112;-0.35087857;0.14162147;-0.027342355;0.13538823;0.04097313;-0.09900407;0.12468847;0.023909045;-0.10648714;0.11783785;-0.05689787;-0.23504683;0.045964777;0.144695;0.12318433;0.06384747;-0.05476872;0.100950316;-0.09241717;-0.0007894737;0.48184976;0.05656435;0.16955262;0.20052326;0.035430614;0.08330002;-0.010184297;-0.18239985;-0.048883397;-0.28759372;0.10488233;-0.25978205;-0.047874406;0.10938897;0.1609181;-0.19026458;0.087632924;-0.055000994;0.28129488;-0.5793816;-0.11208812;0.08442009;-0.41682985;-0.35906187;-0.036619663;-0.18755777;-0.08481513;-0.02070935;0.11815916;0.10269268;-0.067327686;0.17305315;0.19646211;0.12335207;-0.06697993;-0.35754812;-0.15282318;-0.09125538;-0.008491636;0.05046644;0.03946261;-0.035545528;0.0012526552;0.10935949;-0.14098842;0.19127333;0.010836459;-0.23614682;-0.09975826;0.22153515;0.41758916;-0.03274179;-0.03320789;0.03455968;0.33920467;0.011618829;-0.13721706;0.15982342;-0.010735604;0.018779859;0.14113818;0.30762067;0.05501561;0.21857841;0.13880171;-0.10135307;-0.26566255;0.21317208;0.07898371;0.16227876;0.05174617;-0.062095016;-0.08672728;-0.057050887;0.17426899;-0.019418668;0.30325156;0.29714227;0.034977045;-0.038406417;0.037499126;-0.34909794;0.06208941;-0.27929863;0.06757548;0.09696535;0.022410585;-0.15306756;0.12309134;0.10736118;0.051489074;-0.32037282;-0.014283767;0.075881615;0.0054379166;-0.12773366;-0.5073897
0.0012828676;0.16214901;0.13156614;-0.10623277;0.21000895;0.049374066;-0.21555239;-0.2951197;-0.067785695;-0.030045217;0.19819939;-0.1300191;-0.035947897;0.07628958;0.13373287;0.06907016;-0.323789;0.19209343;-0.083778605;0.2783923;-0.31745195;-0.14911576;0.017714024;-0.034529477;-0.027745428;0.13652676;0.09912942;-0.119965956;0.014540269;0.05459248;-0.010496341;-0.119776934;-0.17515121;-0.18350637;0.022031657;-0.013821443;-0.003872112;0.21817245;-0.21612824;0.17807938;0.13450022;-0.013729729;0.010039128;-0.17504388;0.016371125;0.031470306;-0.17663974;0.049330033;-0.09223987;0.19796434;-0.04227369;-0.16249138;0.1276917;-0.25009385;-0.19649833;0.068336904;0.0030206323;-0.3926533;0.050056513;0.08226788;-4.2054824e-05;0.2459011;-0.15237314;-0.11226457;0.10282748;-0.23315689;-0.011876712;-0.08160468;0.12085759;0.10343396;0.118386164;-0.0007958007;-0.037145678;0.06559015;-0.12615639;0.24229462;-0.15372805;0.15501767;0.17591354;0.2883386;-0.14582236;-0.14541751;-0.0642107;0.09935993;0.10214614;0.09422393;0.07557596;0.120367944;0.06456167;0.11950521;0.057963967;-0.12514836;-0.21183898;-0.1892074;-0.10154957;0.0056076245;0.070618324;-0.023313489;0.022259211;0.04623349;0.07827763;0.0900753;-0.39839095;0.047397476;-0.057864245;-0.12000483;0.23358127;-0.0059356466;-0.017264133;-0.21023935;-0.024823204;-0.06753438;-0.00955209;0.12318002;0.014500483;-0.42334834;-0.1438008;-0.3002904;0.03357556;-0.07970342;-0.13925941;0.09107362;0.11501594;0.04695747;0.115110256;-0.11260259;-0.0937527;-0.11997856;0.036575302;0.049606986;-0.034181464;-0.01916638;-0.41496876;0.08835106;-0.119159736;-0.13822678;0.32323584;0.14135462;0.08093156;-0.10260805;0.0890365;-0.017024197;0.1992883;0.07388411;0.12684336;-0.013640821;-0.2121827;-0.08365478;-0.08285202;0.13238637;0.19945754;-0.0007557994;0.08324586;0.12515652;0.2107361;0.14892331;0.07242012;-0.13980879;-0.16521111;0.25620988;0.28642026;-0.11195976;0.0080166245;-0.12276211;0.153754;-0.11950744;0.038170304;0.3284468;0.04716034;-0.28560397;-0.040709965;0.25845504;-0.30516005;0.12830673;-0.066899724;-0.1311653;0.101750694;-0.014630608;-0.10508369;-0.27145377;-0.012035116;0.092479534;0.08956791;-0.042200327;0.14603323;0.31779593;0.06348075;0.13263197;0.12475021;0.21676189;-0.05044372;0.01021498;-0.1902412;0.18812045;0.16506684;-0.23708938;-0.11264133;-0.03377823;-0.07613501;0.12160994;-0.1783452;0.05528953;0.20321567;-0.09904887;0.2223527;-0.04416761;0.420953;-0.0005046504;-0.23527789;-0.4329358;0.114492334;-0.059606466;-0.012771863;-0.112725146;0.036368422;0.012808947;0.086521916;-0.06350709;-0.20176356;-0.14701597;0.10045843;0.11290375;0.08218849;-0.2638868;0.13994403;0.11276889;0.099535614;-0.4080344;0.009914364;0.22557224;-0.052593693;0.1451051;0.10613738;0.011329861;0.15775445;-0.1950961;0.2416134;-0.19259289;-0.109761976;-0.038388614;0.050386634;-0.13307403;0.07288275;0.20884027;-0.22260398;0.16986145;-0.13778262;0.048277397;0.32334715;0.09128794;-0.33990398;-0.19563594;-0.08068329;0.12981299;0.23411858;0.5372642;-0.23359358;0.05730705;0.009093166;-0.09988241;-0.040499244;0.03645641;-0.25209528;-0.13376723;0.059376016;-0.0728364;0.21625048;0.04216294;-0.21979502;-0.12177188;0.15881766;0.2129797;0.2492676;-0.06864396;0.16196157;-0.030417265;-0.2273732;0.07503405;0.17247555;-0.36023986;-0.07994405;-0.43249452;-0.26175025;-0.17839868;0.13160335;0.23429292;0.12529144;0.00091626815;0.07377997;-0.19732998;-0.06911981;0.06376361;-0.25839853;-0.034362353;-0.21625249;-0.17479327;-0.11713802;0.006762359;-0.033904783;-0.052754126;-0.22047149;-0.08756647;0.054816872;-0.09172612;0.070182286;-0.108383715;0.004771122;-0.34458578;0.03228017;-0.05467106;-0.026187873;-0.015866557;0.045328435;0.23690684;0.1401217;-0.116183795;0.21955247;-0.01707948;-0.12429347;0.085289784;0.14772385;0.023314767;0.20663252;0.117740616;0.21065223;0.08064797;-0.40618667;0.3053906;0.10287278;-0.17983812;0.11266675;0.26826775;0.0015018049;0.06308595;0.084935784;0.05951889;0.16563646;-0.07463994;0.037609287;-0.08720637;0.10053434;0.105329104;0.1332774;-0.29650286;0.12980953;-0.5614526;0.26003817;-0.10792841;0.19722608;0.2129806;-0.15042792;-0.117878065;-0.002328049;0.017277014;0.122727334;-0.041937076;0.07009685;0.38363412;0.3140318;-0.23374401;-0.08813748;-0.021354573;-0.015007123;-0.0049726195;-0.07490282;0.062187087;-0.18263303;0.14328021;-0.07228888;0.21539359;-0.084073715;-0.23074326;-0.12924089;-0.028781187;-0.02935531;0.086722575;-0.15815231;-0.19604595;-0.028829798;0.13198076;-0.1426048;0.104221955;-0.054180905;-0.12460402;0.23725219;-0.17875503;0.22314665;0.20617418;0.08065474;-0.12943369;0.13587537;0.08726631;0.056360394;0.010496929;0.08593916;-0.1761542;-0.15080646;0.18914567;-0.09057299;0.1072509;0.156069;0.1132619;-0.13576785;-0.06525653;0.11882616;-0.23413852;0.1479543;0.11326291;0.023932116;-0.1455734;-0.1377123;-0.25973046;-0.12384886;-0.12169248;0.31643152;-0.17896402;-0.064214155;-0.007956042;-0.09840042;-0.059077654;-0.15408969;-0.032699782;-0.25662717;-0.16470894;-0.11333501;0.21770112;0.1407348;-0.12463207;-0.052477878;-0.10739406;-0.1759976;-0.051871248;-0.15551296;0.027501255;-0.3144735;0.15373057;0.026479475;-0.06374071;-0.015382767;-0.023466201;0.008483073;-0.005476906;0.12484615;0.04531032;-0.015211553;-0.12334252;0.09494176;0.0032688372;0.11435009;0.120494835;0.31970406;-0.32220373;0.059515577;-0.253067;0.083150275;0.31370777;-0.14632268;0.054048505;0.42000684;-0.19915798;0.023995329;0.017598923;-0.013389374;-0.25592288;-0.19926023;0.0022203973;-0.01364327;0.19779444;-0.037442427;0.02758574;-0.03254562;0.20208278;0.069902904;0.23471643;0.20148607;0.024803275;0.26588753;-0.008453537;0.16708961;0.21855429;-0.061747674;-0.0027594995;-0.021950299;-0.014683718;0.010937666;0.21803062;-0.018866561;-0.11869956;-0.08030385;0.09823493;-0.2495891;0.1361223;-0.057326704;-0.045591403;-0.08204934;0.067111075;-0.12194326;0.12329057;-0.13330954;0.071485534;0.05159746;-0.24867566;-0.16508876;0.09688142;-0.0011474597;-0.0561286;-0.07469819;-0.03338108;-0.18319443;0.3306988;0.09169183;0.19745246;-0.073468275;-0.14994709;-0.2729898;0.11935714;0.015647657;-0.40893123;0.08335729;0.024443528;-0.048619814;0.058563735;-0.028222322;0.056891784;0.20810413;0.013616712;-0.19067925;0.0002806273;0.14220954;0.04831614;-0.19197884;0.17509376;0.08653828;0.13108912;-0.25764295;-0.14855503;0.18145882;0.05745331;0.2772232;0.11842294;0.45495132;-0.161317;-0.04930246;0.08362157;0.069864094;0.03038592;0.2595653;0.0323486;-0.013802774;0.12553102;0.039771087;-0.17522036;-0.08284617;0.0053142426;-0.0072090104;-0.05684214;0.21508369;0.0028877722;0.41997382;0.06577615;-0.10021084;-0.087880716;-0.14265999;0.0036627755;-0.12220235;0.049338914;0.0659942;0.08061722;-0.008304119;-0.06371952;-0.37437874;-0.2516425;-0.14972247;-0.056036685;-0.048622668;-0.49768454
0.21595994;-0.20641859;0.125514;-0.095516905;0.103403986;0.2714697;-0.08890388;0.019419748;0.11413964;0.087068856;0.13077027;-0.13216192;0.18520732;-0.11924222;0.04860545;0.06131536;-0.24380836;0.019285033;-0.18046214;0.07847029;0.039435375;0.003527083;0.08739129;0.057054844;0.03221968;0.12853663;0.09493225;-0.267908;-0.07601493;-0.08729972;-0.17554404;-0.17714523;-0.17106229;-0.11115009;-0.022383338;-0.14591667;0.2034694;-0.1637364;-0.22783948;0.032972652;0.12352507;0.26811567;-0.09675196;-0.1395186;-0.08215749;0.17668949;0.09409999;0.16794248;0.074808426;0.37341782;-0.071944;-0.26623693;0.0012331121;-0.00971425;0.00696713;0.15335205;0.0069923294;-0.04538152;-0.04116072;0.20058985;-0.0344602;0.21946639;-0.27429205;-0.103477776;0.031839717;-0.11075036;0.055545192;-0.38543305;0.11215631;0.1015522;0.19961584;0.02581279;-0.25776383;-0.033954788;-0.045895766;0.3519202;-0.23495892;0.27636996;0.19481489;0.34984773;-0.082383834;-0.18457188;-0.33439305;0.33446324;0.113741845;0.092999935;0.1585726;0.27954116;0.1308708;-0.034457166;-0.0029491752;-0.048388835;-0.10486716;0.021009907;-0.2649687;0.07039502;-0.057013936;-0.2293733;-0.03318803;0.052512325;0.12354191;0.0133365;-0.070450604;0.124111675;-0.21114525;-0.21468417;0.063656025;0.12149802;0.23472401;-0.46914732;0.21039155;0.14058323;-0.1887907;0.18624909;-0.08180547;-0.19730814;0.14420249;-0.29334334;0.18647897;-0.39977974;-0.20819147;0.05633788;-0.03781135;-0.06396612;0.13889986;-0.3570494;-0.2924142;0.04465723;-0.09532149;0.1860261;-0.0010811489;-0.16733518;0.07907345;-0.30142376;-0.020564148;0.04672732;0.023701856;-0.038891498;-0.15201147;0.049103465;0.20574664;0.050880466;-0.12208072;-0.07429404;0.0774834;0.112915665;-0.044368405;-0.15716664;0.16760787;0.20310187;0.25865364;0.06856803;-0.13829558;0.21898775;0.1622315;0.29940057;0.10865228;-0.16085108;-0.20152898;0.055726986;0.03475108;0.023569765;-0.10705095;-0.17426951;0.03388708;0.00091101136;0.051026735;0.089578815;-0.010007771;-0.13285312;-0.35745656;0.08850158;-0.12991577;-0.042564016;-0.049419947;-0.34555897;-0.0267165;-0.08147317;-0.11650159;-0.25846413;-0.046005905;0.06799329;0.025481025;-0.031214084;-0.045391962;0.023195788;0.16792983;0.29400617;-0.031849757;0.23462245;-0.029573021;0.021464482;-0.004445514;0.1502934;0.34897545;-0.3643781;-0.12364517;-0.0390092;-0.18954167;0.1322189;-0.19307539;-0.1339857;0.053369503;-0.038145665;0.16126402;0.03323814;0.21732551;-0.020739162;-0.39184386;-0.17242298;0.10002746;-0.13003474;0.20496322;0.012584481;0.08597863;-0.058616184;0.2623784;-0.04085764;-0.06926853;-0.21654415;0.14806914;0.054179404;0.036444932;-0.1747841;0.065939225;0.24343249;0.24989682;-0.40432528;-0.08904361;0.23219569;0.03224312;0.14543304;-0.38016692;0.09342922;0.10782415;-0.17014773;0.09508685;-0.39056143;0.09523564;0.096197926;0.21790464;0.25173363;-0.0229074;0.15868935;-0.31309894;0.2299688;0.021710532;0.07801405;0.046437226;0.07946182;-0.015904052;-0.25165373;0.04975705;0.1235456;0.30027202;0.10672406;-0.4665667;0.089680344;0.10085395;0.095991954;0.13860837;0.019289665;-0.36079898;-0.08596175;0.10349105;-0.020733338;0.17803879;-0.08650027;-0.49119958;-0.35052243;-0.13931413;0.12809102;0.16026086;0.0306925;0.2162294;-0.0029788285;-0.03989473;0.12153809;0.35414892;-0.089875646;0.080278456;-0.50692207;-0.2131033;-0.13331933;0.064621106;0.1587278;-0.05024829;0.1636489;0.0414098;0.0072489837;-0.046150375;-0.10950518;-0.2295399;-0.09479522;-0.35877237;-0.24224663;-0.034607243;0.05659065;0.15287377;0.19963926;-0.09277548;0.023891745;-0.12871371;-0.19992785;0.21457602;-0.022328034;-0.008340962;-0.52158123;-0.056472484;0.13893017;0.072226234;0.008330801;0.051159635;0.10009424;-0.043575227;0.0048506996;0.020272344;0.17046307;-0.06586655;0.07132804;0.052440543;0.26710525;0.11259355;0.021388125;-0.031988654;-0.41628054;-0.5831236;0.16540188;0.16090053;-0.041141823;0.2388606;-0.1815402;0.0023781052;0.15118043;0.11353822;-0.2826124;-0.090513304;0.0052245143;0.26717716;-0.35050032;0.19166046;-0.03649368;-0.055326227;-0.24116491;0.18037634;-0.6258858;-0.007377713;-0.081689894;-0.18482305;0.42773673;-0.029921496;0.044963617;0.23889558;-0.08410048;0.057411276;-0.18899445;-0.04417459;0.13617381;0.10348735;-0.11694564;-0.041741636;-0.0064173895;0.3401974;-0.12893571;-0.21962772;0.050439563;-0.18384615;0.058062;-0.007405889;-0.07741595;-0.15131396;-0.2840325;-0.20047121;-0.15012082;-0.15389837;0.23788719;0.32026362;0.066570036;-0.044167265;0.19285192;-0.18601865;0.0035774594;0.022829553;-0.22786756;0.061497077;0.117093384;0.12001948;0.37401956;0.0607557;0.099326484;0.0077184527;0.31311414;0.13851127;-0.08152167;0.15203674;-0.23937503;0.23683438;0.40608844;0.02762216;0.014192137;0.02275042;0.018556258;-0.30903175;-0.2897153;-0.074167185;-0.4197149;0.10125619;-0.053233597;0.020413805;-0.053076144;0.14019085;0.06416581;-0.18002783;-0.31412935;0.104762435;-0.17209087;0.03330997;0.03837199;-0.04231313;-0.006797561;0.22695549;-0.04081894;-0.290598;-0.2725802;-0.15416862;0.0058169067;0.40191194;-0.3556617;-0.08416535;0.077195905;-0.106825195;-0.03514482;0.0021763255;0.097347796;-0.13836032;0.103676446;0.12218306;0.13051118;0.009129465;0.25362712;0.02601817;0.19608273;0.066359766;-0.029311258;0.087729774;-0.1102324;0.17845024;0.13435476;0.13645674;-0.0024090626;0.096563116;-0.26464337;-0.016865961;-0.32596704;0.13129695;0.36380038;0.13150522;0.23600261;0.25422245;-0.07572707;-0.03885091;0.07513006;-0.07015187;-0.11997523;-0.04058886;0.2369441;0.14059494;0.034211054;-0.11761864;0.056518286;-0.09517294;0.44469008;0.22067058;0.19825369;-0.076811895;-0.02836174;0.106460355;0.03172503;-0.009310804;0.18089502;-0.425319;-0.028534034;-0.14947835;0.04202324;-0.07878439;0.21439311;0.20851704;-0.031654853;-0.42381895;0.14063756;-0.25709656;0.15737438;-0.018436326;-0.02284375;0.23096319;-0.007155835;-0.0664828;0.04213317;-0.2133617;0.15762877;0.1618637;0.010607655;0.092961825;0.28823546;0.14356117;-0.051460054;-0.005843353;-0.044514604;0.0017687153;0.08418816;-0.27877554;-0.11482518;-0.19752532;0.12547743;-0.25671494;0.10622252;-0.09493529;-0.13216597;0.022951305;0.16604023;-0.04011317;0.15275793;0.028079567;0.020051368;0.03105803;-0.10822258;-0.2763514;-0.1787204;-0.10984285;0.12106387;0.19494914;0.018183315;0.086391814;-0.046362147;-0.13601641;-0.15583861;0.061696887;-0.056409866;0.049131047;0.09207734;0.070859425;-0.055867907;0.14992358;-0.026603008;0.13069773;-0.16831285;0.15635693;0.054300696;-0.021704283;0.09886269;0.033813667;-0.085565545;-0.09134499;-0.0060596275;0.07302369;0.007235688;0.017888833;0.007063144;0.10246274;0.046703186;-0.22987624;0.09512389;-0.05240747;-0.1102463;0.036003247;0.20600843;-0.008573326;0.24572553;0.05056915;-0.06318701;-0.16923927;-0.48872578;0.067420885;0.1172994;0.16331954;-0.17585212
0.11914907;0.026163923;0.011307382;-0.20308068;-0.14401118;0.014907741;-0.033122886;0.17036234;0.19742927;0.03314849;0.073447086;-0.18721719;0.2277012;-0.107387856;0.13686962;-0.0042854855;-0.061603043;-0.03924381;-0.0032588777;-0.009796125;-0.25597358;0.15758726;0.054736935;0.19858892;0.039486248;0.051668078;0.054412484;-0.083522305;-0.11476193;-0.061506417;-0.19116776;-0.13086782;0.045902852;-0.12017192;-0.1464463;-0.024246749;0.19833642;-0.09182724;0.07322985;-0.020006474;-0.1907476;0.08409264;0.16718504;-0.37609795;-0.14536498;-0.07811548;-0.045497283;0.025151197;-0.15218629;0.27483398;-0.29769185;0.03187618;-0.11700849;-0.28847736;-0.13671505;0.3512732;-0.15855052;0.18515188;-0.26695707;-0.06726539;0.02378211;0.16482945;-0.4647812;0.07321903;0.05796884;-0.016857918;0.094710596;-0.26311558;-0.023569398;0.12440227;0.114589;-0.09685858;-0.008942202;-0.074845314;-0.09019775;0.27196684;-0.29564893;0.07479163;-0.012899397;0.48879015;-0.14106706;-0.24404097;-0.20843661;0.15606774;0.11609726;0.20969227;0.0040118587;0.15806071;0.014872421;0.019007307;-0.12621422;-0.156065;-0.11230557;0.058955636;-0.3218841;0.03339725;-0.23371844;-0.046172153;0.06698094;0.11145735;0.1786311;-0.02559466;0.0410182;0.024019506;-0.1459195;0.06203971;-0.096079804;0.041048605;0.32610187;-0.5598575;0.23252727;0.018653408;-0.07495006;0.10366791;0.50705487;-0.19081563;0.18775703;-0.12125841;0.16794379;-0.41792315;-0.014150525;0.035474855;0.0114467;-0.21527755;0.25298297;0.0055726916;-0.05924649;-0.084986985;-0.24575397;0.10962354;0.015706588;-0.097198136;-0.10288953;-0.3886009;-0.09823833;-0.19481577;-0.018318357;0.06999013;-0.18565695;0.22083783;0.25471094;0.06437228;0.046755064;0.062698215;0.13288885;0.30130446;-0.07908237;-0.05991824;-0.1043353;0.14663349;0.098802015;0.084517844;-0.18025352;0.14275533;0.12815937;0.22304605;-0.17411341;0.050942626;-0.16769585;0.06461342;0.19047518;0.06230706;-0.012085226;-0.09520245;0.022299724;-0.08331373;0.15772234;0.4237381;-0.08457358;-0.39353898;-0.085438915;-0.02118893;0.13038698;0.0068351794;0.06946619;-0.18160093;-0.083422646;0.15983464;-0.07750307;-0.16648696;0.013934304;0.13386035;-0.054743618;-0.032003723;0.0880523;0.037692964;0.35061586;0.18757293;0.04200822;0.3946776;0.12627798;-0.099435695;-0.021348925;0.17321707;0.013926507;-0.20568143;-0.28239158;0.10508997;-0.12788236;0.20938618;0.03479878;0.11307659;0.045781463;-0.29140148;-0.103657104;-0.009313412;0.0553923;-0.029563624;-0.07512391;-0.356201;-0.033085383;0.07745063;0.25262812;0.041363962;-0.048522234;-0.36653602;0.17400576;-0.058508072;0.08497794;-0.09818969;-0.20327526;-0.0035453222;-0.1259455;-0.001802739;0.0833764;0.33117035;-0.015790148;-0.06348528;-0.14632651;0.015062632;0.0038821322;0.22971983;-0.23846571;0.0023867958;-0.03269034;-0.18919627;0.21487184;-0.278719;0.018298244;0.22271162;0.058395874;0.031911317;0.030320799;0.13296057;-0.21453162;0.0070562596;0.113445826;0.20383963;0.03663009;0.2817539;-0.0639997;-0.28819513;0.14510784;0.09485576;0.17853278;0.04420259;-0.108431555;0.013797311;-0.08669105;0.06621184;0.14876881;0.0070999246;-0.12274592;0.23761395;0.21184635;-0.16942608;-0.0024849484;0.14524753;-0.45758444;-0.3207464;0.026971791;0.034896888;0.24975245;0.087587744;0.1907962;-0.15679964;0.07553507;-0.08591072;0.4247174;-0.037107375;0.1400357;-0.3303172;0.013795227;0.08365632;0.064129606;0.07233164;0.057451352;-0.06027837;0.1274003;0.096901804;0.010459304;-0.04313985;-0.4175912;-0.10485151;-0.07902511;-0.22335547;-0.00027673633;-0.27880993;0.024138317;0.11852517;-0.26959583;0.21371204;-0.072703846;-0.043556046;-0.0061906627;-0.00786201;0.19692773;-0.38606235;0.05894943;-0.03627595;-0.100635044;0.047703322;0.12046823;-0.20204054;-0.10115671;-0.08322914;-0.120111495;0.3066205;0.07497361;0.0962194;0.103746146;0.11583014;0.084815115;-0.06731705;0.079478145;-0.30138344;-0.22334939;-0.023769317;0.18841685;0.13424979;0.14853187;-0.39031804;-0.2578712;0.16015287;0.17167377;0.032173943;-0.12173458;0.06285447;0.022076976;0.02112751;0.05404821;-0.073851265;-0.039312985;-0.06295944;0.08650252;-0.39206117;-0.070598066;0.16382408;-0.13711627;0.24271354;-0.16417673;0.013473437;0.06842807;0.006113894;-0.17161745;0.14480253;-0.06037737;-0.021238249;-0.18858343;-0.26223445;-0.1464422;0.20573875;0.30012912;-0.19342323;0.11478617;-0.35760587;-0.13814285;0.045162283;0.38485387;0.072373755;-0.028570447;-0.30750394;-0.067721285;0.033185814;0.09227806;0.03715713;0.03032776;0.31569;-0.20486233;0.11395327;-0.08267317;0.07601196;-0.04467778;-0.36647573;0.05357881;0.20527402;0.162086;0.38307062;0.22941315;0.041852567;-0.21316284;0.15639885;0.03070108;0.0047174003;0.30719256;-0.5006372;-0.015067601;0.4023177;0.12104208;0.009103923;0.06601435;0.061474953;-0.12334802;-0.2338617;-0.19149587;-0.14252524;0.11402005;0.03363778;0.11597914;-0.00893085;0.03623032;0.01984079;0.022262042;-0.2316384;0.17129712;-0.29774213;0.03764523;-0.16062602;-0.030601313;-0.21195787;0.07812675;-0.11903277;-0.25498238;-0.317742;-0.046642225;-0.22328165;0.28819486;-0.25405648;-0.08735222;0.02959223;-0.11783811;0.0404239;0.20608947;0.13078924;-0.19667429;0.12131755;0.057878677;0.030109035;0.0408353;0.1134658;-4.6974128e-05;0.11521694;0.046809644;-0.063179225;0.23742284;0.09136001;0.13335903;0.08172018;0.074252665;0.020210562;0.042379476;-0.17741598;-0.013115782;-0.30728778;0.033725593;0.19090404;-0.007897389;0.12746865;0.2008511;-0.59864175;-0.0078045228;-0.034222424;0.047502458;-0.2034074;-0.004536525;-0.054538377;0.18818606;-0.037225917;0.17985523;0.058150336;-0.047658976;0.17214637;0.20624436;-0.011869995;-0.19681542;0.15992744;0.06440571;-0.17228182;0.34524474;0.30705276;-0.2793856;-0.0882861;0.032329816;0.13855822;-0.05185156;0.25450382;0.21331905;0.026648851;-0.61053;-0.040849026;-0.03467553;-0.060063336;0.13217461;-0.074649595;-0.14172734;-0.03455718;-0.042580325;0.40904418;-0.20528455;0.17146552;0.14678147;0.09125888;0.0015478168;-0.03682229;0.14807571;-0.06853459;-0.15162475;-0.0060088476;-0.08648877;6.943241e-05;-0.19963044;-0.19791748;0.11381414;-0.10117978;0.16625395;-0.2450507;-0.085595;-0.35423565;0.03756305;0.0583983;-0.09034414;-0.0013221729;0.09807963;-0.05358604;-0.0308881;-0.0445711;-0.035840172;-0.23145187;0.0953367;0.121623196;0.05351941;-0.20613877;0.14226732;-0.28244886;-0.12988488;-0.24075039;-0.06934166;0.08883445;0.23385012;0.14468409;-0.18748564;-0.24678639;-0.015768271;-0.1380663;0.23724684;-0.2139626;0.19160396;-0.1335369;0.0996707;-0.02361229;-0.059804242;-0.09639752;-0.24028116;0.104182765;0.06735706;0.039695177;-0.08348454;0.15409265;-0.023091277;-0.026136406;-0.35355753;0.011307337;-0.057405565;-0.10629836;-0.0102407;-0.02313502;-0.10307233;0.10467727;0.02665575;0.022526002;-0.16020314;-0.32777402;0.19641455;0.058452807;0.14865668;-0.3336115
0.06818294;0.2329126;0.04028155;-0.2936821;-0.25558782;-0.12697254;0.30256814;0.23327558;0.116862096;-0.1162664;0.19718833;-0.03771116;0.16208202;0.025193842;0.06124181;0.09922347;0.014592241;0.06525486;0.072588846;0.04439822;-0.45821977;0.124473944;0.16204378;0.28504038;-0.20193687;-0.09341485;-0.15993947;-0.11333143;-0.04852192;-0.104049206;-0.15683699;0.091336474;-0.1072963;-0.2137001;-0.16235721;-0.07463047;0.1718093;-0.2766451;-0.05996651;-0.17875387;-0.24399798;-0.18030415;-0.059831936;-0.2151931;-0.0747016;-0.14124654;-0.05906069;0.1942591;-0.27856928;0.15570876;-0.17997782;0.13213827;-0.118724026;0.22161353;0.20934425;0.35932457;0.042283565;-0.12652196;-0.013779761;0.027365034;-0.034759972;0.20236215;-0.28656417;0.12232468;-0.03472943;0.06378632;0.05078825;-0.22240412;0.12691353;0.0432094;0.057240646;0.04006618;0.10019348;0.052462272;0.121823184;0.032418765;-0.05561158;-0.020426694;0.008758833;0.124788254;0.10845423;-0.3966916;0.14919855;0.44082025;0.15126307;0.14395511;0.22302727;0.30101073;-0.09898411;-0.12279546;-0.12276161;-0.39944252;-0.29000437;-0.24503183;-0.44513443;-0.3972279;-0.055081587;-0.10136248;0.14422356;-0.15349063;0.03426876;-0.18845116;-0.006381411;0.06325501;-0.30854455;0.047125027;-0.24091643;0.074295186;0.24102828;-0.43258524;0.02831005;0.14112999;0.07154397;-0.24407434;0.39733747;-0.115896225;0.20604455;-0.090521276;0.13413109;0.059973918;-0.13249485;0.12079578;-0.26320842;0.009161075;0.26424536;-0.05365643;-0.13169186;-0.54384744;-0.22202894;0.13518785;-0.08263772;0.016320629;-0.1906003;-0.22620724;-0.12004836;0.10812716;0.22098441;0.12593177;0.16720852;0.14953732;-0.04038363;-0.0088863;-0.032526854;-0.040585976;-0.08870176;0.20799269;-0.12620121;0.07281989;-0.12144169;0.28344065;0.01602027;0.050835256;-0.18725598;0.095216565;0.15285327;0.05666673;-0.019721877;-0.10610942;-0.221346;0.09043967;0.038794566;0.021526454;0.17367743;-0.17205557;-0.047345117;-0.07341068;0.03691344;0.13701831;-0.11075869;-0.18121901;0.04431587;0.22392966;-0.07200484;0.13115503;0.11174687;-0.29540843;-0.059116263;-0.25074184;-0.06381287;0.10480106;0.26124987;0.119206555;-0.00391913;-0.00424119;-0.26112652;-0.13276419;0.044799194;0.08830028;0.1382795;0.050336897;-0.09060882;0.18286638;0.091847695;-0.1337379;0.20735864;-0.05417006;-0.14410704;0.12164327;-0.09861843;0.15177302;0.051278576;-0.01450214;0.07784368;-0.19095546;-0.10862183;0.14831214;-0.13217275;-0.02315603;-0.18681778;0.0016500518;-0.04738101;-0.0021183733;-0.058422238;0.032189332;-0.20624165;-0.3697009;0.09323038;0.10321033;-0.035279755;-0.035850402;0.13847773;-0.05194242;0.1182289;0.10291196;0.144468;0.15651867;0.23043199;0.14289232;0.013136729;0.022788296;-0.061621886;0.08447841;0.042702112;0.1809966;-0.20327808;-0.21882007;-0.011013089;-0.18162704;-0.053319756;0.18597285;0.2984527;-0.27891877;0.022561105;-0.19289075;-0.27867606;0.05386161;-0.031901088;0.13292792;-0.050497383;0.21153316;0.16845751;-0.2874872;0.00631528;0.0722476;0.20065157;0.3520059;0.0054056025;0.17921536;0.085304014;0.1307546;0.4272965;-0.1685908;0.024602072;0.10533279;0.14052685;-0.22560291;0.011695557;-0.12502217;-0.4171975;-0.340398;-0.23245618;-0.024100441;0.10122519;-0.15470491;0.11953666;-0.030300476;0.14873746;0.02187809;0.13213682;-0.098714456;0.14684401;-0.2582494;-0.3263011;-0.14934453;-0.034650635;0.19549742;-0.07872913;0.1350958;-0.016328339;0.028931178;0.049252395;-0.06888066;-0.26876637;-0.1693204;-0.021738663;-0.19032264;-0.056005113;-0.085001335;0.13200971;-0.11053446;-0.13483085;0.111218065;0.0584502;0.07852099;-0.30505824;0.06525769;0.17272839;-0.25969782;0.11826878;0.065852545;0.1577889;-0.08696928;0.13273297;-0.14233546;0.032827385;-0.12317354;-0.07917588;0.15576442;-0.17186765;0.26691356;0.15540695;0.19476886;0.09054674;-0.0926573;0.101733945;-0.26706302;-0.06702371;0.07708462;0.03065924;0.08959186;0.24888876;-0.12960155;-0.3108329;0.025753252;0.13214949;0.13826503;-0.020059057;0.35840496;0.08620788;0.012691228;-0.21514727;0.031304605;-0.23359287;-0.11575003;0.09422205;-0.1344384;-0.162559;0.13198952;-0.14855455;0.08187295;-0.47566998;0.03725454;0.0708046;0.27416018;-0.0025406189;-0.18807876;0.14670181;-0.07671106;-0.012796851;-0.14064494;-0.15129383;0.034839176;0.30098692;-0.10736405;0.03603014;-0.36861026;-0.007735134;0.026027694;0.07298992;0.25359854;-0.22262125;0.022481821;-0.19319335;-0.075246446;-0.20236926;0.24261184;-0.012866702;-0.04066253;-0.09153462;0.00455628;-0.24009734;-0.095738776;0.019169642;-0.36480975;-0.13573597;0.20195165;0.09556464;-0.09285084;-0.20934805;0.04225905;-0.10999244;0.41493163;0.058071222;0.08708025;0.3290487;-0.25830284;0.07236476;0.036277432;0.25847158;0.012985859;-0.05900446;0.10646547;-0.0075097475;-0.1323395;-0.10406883;0.28090346;0.005263894;0.09243323;-0.070202634;0.16505976;0.109668195;-0.17719463;-0.24351837;-0.1700885;0.1873989;-0.2891081;0.28019574;-0.10606049;0.015848355;-0.1931935;-0.1586888;-0.09157424;-0.31718338;0.031626895;-0.1530786;-0.2179996;0.16818938;-0.28494233;0.016573789;0.07772826;-0.075294286;-0.018073184;0.18322366;-0.017383022;0.043337155;-0.0072771236;0.13663727;0.24400686;0.033829182;0.14691071;-0.18225878;0.078604616;0.19032131;-0.09240413;0.26497835;0.07599106;-0.018471424;-0.16681331;0.0815345;0.09629291;0.05862033;-0.09463594;-0.20760038;-0.2414133;-0.16251886;0.006083646;-0.13996056;0.17739123;0.13861483;-0.42138925;-0.25115645;0.0075866915;0.05228524;0.04212371;-0.1034672;0.014464447;0.08779783;0.06640926;-0.1087406;0.023905892;0.06895051;-0.009476085;0.08358896;-0.010137641;-0.04311307;-0.026874086;0.077235274;-0.041076608;0.08702903;0.0316385;-0.5432865;0.0065904115;0.095797494;-0.10593845;0.055543922;0.103339456;0.043949507;0.1241306;0.013981185;-0.14422454;0.1133517;0.18082301;0.10264539;-0.044297658;-0.1542978;-0.11296652;0.08539412;0.18478808;0.048756372;0.1107928;-0.17629713;-0.18421589;0.13902512;0.13942042;0.1234602;-0.023105351;-0.25976422;0.050215453;-0.3521959;0.18053569;0.15108979;-0.120658845;0.059359267;0.18824385;0.20641546;0.0444665;-0.026532784;-0.43152782;0.051575728;-0.034806043;0.17731959;0.010408662;0.1312342;-0.054035306;0.082596794;-0.102797695;0.16229889;-0.032768894;0.20404032;0.06378993;0.07801522;-0.15155886;0.19869179;-0.2567534;-0.3923152;-0.10164227;-0.13940234;-0.09164127;0.00030314963;-0.20682973;0.0022114154;-0.30037698;-0.09098179;0.109328315;0.099502236;-0.19695736;0.19541468;0.11043778;-0.01757459;0.04059233;0.20607087;-0.024012463;-0.2762704;0.029344507;0.1695553;0.049177084;-0.089843206;-0.07480015;0.20375365;0.033860743;-0.47571108;-0.009211397;0.0075118565;0.05413353;-0.08060842;-0.2507543;-0.1272515;0.18938193;0.029389555;0.14130113;-0.16600019;-0.1205525;0.083010815;0.11195729;0.058297902;-0.40566352
0.13967204;-0.0052747997;0.01597609;-0.79787904;-0.020774001;-0.3533823;0.21115787;0.19728704;0.25186184;-0.2626408;0.06699896;0.08105132;0.080119096;-0.10391272;0.11040719;-0.023790646;0.03550676;0.047921993;0.09699861;-0.14780484;-0.09339671;-0.001986957;0.10501474;0.22562924;0.072905235;0.16623418;0.04056749;-0.07120549;-0.20007685;0.053280573;0.03359956;0.028533487;-0.03916881;-0.23393315;-0.15734349;-0.13079977;0.17045805;-0.34017736;-0.051264863;-0.14525282;-0.18402258;-0.29442465;0.014657995;-0.23112081;-0.07551029;-0.3109145;-0.12696329;-0.06967638;-0.33373025;0.12171931;-0.22291043;0.11970499;0.112533756;0.0061993366;0.17549247;0.010812703;-0.4381473;-0.05372477;-0.0041600233;0.021554118;0.04538448;0.17579953;-0.449273;-0.05044318;0.23879083;0.14871247;0.19838743;-0.10305826;0.036490727;0.0067751682;-0.07160173;-0.049455956;-0.09043768;0.03296304;0.079380415;0.16943093;0.15383966;-0.011412223;-0.07086456;-0.111704424;0.10771647;-0.2081138;0.041333046;0.3090273;0.08837078;0.113258764;0.29430804;0.25826222;0.05739605;0.1287488;-0.11220339;-0.41153842;0.072003335;-0.32254514;-0.031856395;-0.19673008;-0.061889324;-0.016338538;-0.005865984;0.015642583;0.025464835;-0.15232831;0.023492962;0.1848642;-0.16797687;0.018656401;-0.18528739;-0.042179216;0.030896887;-0.08855891;0.3337014;-0.122651815;0.22607954;-0.28937307;0.41006488;-0.19812882;0.09624022;0.15535799;0.09127904;0.1022575;-0.10487031;-0.013408792;-0.17472064;-0.102872446;0.13341516;-0.02832703;-0.048455276;-0.27069062;-0.022269566;-0.111068256;-0.0718223;0.0388279;0.08380563;-0.13454716;-0.014662205;0.054344416;0.030593958;0.15302864;0.25865343;0.12868606;-0.059280034;-0.09809005;0.09509581;-0.015716342;-0.16678144;0.16502687;-0.20711751;0.14645275;0.09933769;0.2344348;0.012382659;0.071121775;-0.44185084;-0.070717275;0.34683156;-0.039670154;-0.09764458;-0.036767527;-0.12882784;-0.07797753;-0.008468326;0.23425744;0.28565195;-0.015326435;0.033767484;-0.07148171;0.09376482;0.17810325;0.05541632;-0.1705872;0.014699739;-0.11037447;-5.580141e-05;0.13721709;0.120008945;-0.5294902;-0.1371621;-0.20441063;-0.21968308;-0.12907194;0.11360369;-0.031587724;0.12470546;-0.13816667;-0.3741906;0.21057227;-0.0949758;0.045756888;-0.12330122;0.015413716;-0.28126478;0.06562253;0.15235513;0.02478919;-0.0015464905;-0.24789438;-0.12588224;-0.05302557;0.076769;0.023232188;-0.069797374;0.17749843;0.12865569;-0.080216676;-0.1321931;0.1503675;0.05696781;0.0928946;-0.11451922;0.0704832;0.0022076326;0.11579718;0.07543748;-0.16834782;-0.16901286;-0.29216975;0.09869005;0.18247133;-0.056700803;0.04249339;-0.49211645;0.20299459;-0.17875826;0.03576762;-0.093723886;-0.2092297;0.19840941;0.23848796;-0.27394167;-0.17438084;0.23433594;0.08963793;0.160979;0.13451466;-0.19205028;-0.14832611;-0.027143126;-0.08814392;0.0987986;0.012883672;0.02616483;-0.43360713;0.038241368;0.05795607;-0.05864499;0.031281702;0.089304715;0.34155378;0.25445473;0.09820791;0.39686456;-0.2972752;0.10415113;-0.11502495;0.065112494;0.209788;-0.01883702;0.24465121;0.23666489;0.032334834;0.18408065;0.014233888;-0.017226264;-0.0267712;0.32966533;-0.06855996;-0.098212495;-0.07710291;0.008109036;-0.15409404;0.106222175;0.0070118937;0.01241929;-0.15514597;0.10851583;-0.1308372;0.061151784;0.031656783;-0.24763581;0.20561162;0.09120796;-0.14157255;-0.05190256;-0.06195751;0.052589558;0.10229156;-0.26726645;0.1672872;-0.015225098;-0.10752212;-0.05158334;-0.1732784;-0.14623047;0.10722558;-0.15488105;-0.25354084;0.026381172;0.023968523;0.19352534;0.2524086;-0.08251795;-0.0842586;-0.08511074;0.24084815;0.07722759;0.15009084;0.018061996;-0.3990584;0.17754306;-0.18886292;0.19059214;-0.17725883;-0.15983576;-0.12431359;0.112965725;-0.18782766;-0.17601417;0.19037107;-0.016765097;0.011605434;0.12951747;-0.06885428;0.019808047;-0.15286891;-0.07319664;-0.4128179;-0.36922058;0.18090191;-0.19400755;0.16070193;0.08509028;-0.19429609;-0.20586897;0.30733877;0.10383843;0.097667426;-0.001067465;0.2476852;0.08014205;-0.09827871;-0.12946586;-0.07786534;-0.07769332;-0.014901437;-0.059516225;0.078271054;0.15000041;-0.1432003;-0.08717619;-0.02289228;-0.6571625;-0.13610286;0.1315345;0.38561228;-0.25225967;-0.27368537;0.13860647;-0.12677287;-0.11352959;-0.12655327;-0.15063442;0.23399113;0.2833341;0.064945936;0.014646788;-0.24641556;-0.076976575;0.04729676;0.3479918;0.22426689;-0.22172092;-0.20292085;-0.3825886;0.085963935;0.036226057;0.19242363;0.16299525;-0.27368435;-0.1633497;-0.06946588;0.16481422;0.22854006;0.17986093;-0.34485075;-0.15417768;0.020867199;-0.021004941;-0.08290661;-0.11783254;-0.03172459;-0.039755482;0.22112541;0.1454454;0.15005295;0.26685262;-0.27483013;-0.03303252;-0.04632151;0.16089487;0.053689595;0.046358936;0.21391393;0.060860515;-0.12310575;-0.03692654;0.11962168;-0.04899819;-0.026805317;-0.04774137;-0.22277242;-0.035705104;0.20594253;-0.10668997;-0.001241049;0.19936405;0.16091667;0.10193298;-0.21764678;0.13804205;0.002073713;-0.17677456;-0.037273236;-0.1447504;0.01392198;-0.15398781;0.11576948;-0.14619514;-0.12919919;0.014386974;-0.23447171;0.09242667;0.009069039;0.093143724;0.054797355;0.059452802;-0.05489529;0.038348548;-0.015031452;-0.045453392;-0.08256296;-0.00097229815;0.12960973;0.047324453;-0.241138;0.34543142;0.16598938;0.05017988;0.10071855;0.06528957;0.18007003;0.02599248;0.0026372664;0.034507334;-0.112333246;0.11638294;0.17231488;0.042158198;0.0012240234;0.32704702;-0.029117392;-0.2685587;-0.06765005;-0.08950098;-0.14458665;-0.1130419;-0.044246133;0.0935386;0.18367717;-0.12739886;-0.04374568;0.029339703;0.04260275;0.28716347;0.053451724;-0.19099982;-0.0052349865;0.17879455;0.07282109;-0.08197314;-0.013996759;-0.5448601;-0.12899633;0.07452504;0.24396686;0.23992391;0.14690028;0.19337909;0.23493536;-0.1062442;-0.043235082;0.03632444;-0.0929951;0.036293793;0.020702431;-0.08583644;-0.06024641;0.007988204;0.21957988;0.04914385;-0.048637576;0.020781705;-0.06928761;0.34490258;-0.018500634;-0.19780983;0.05963713;0.08851132;0.06663657;-0.11593767;0.10800145;-0.07653189;-0.05535082;0.117200546;0.038999084;0.24177949;0.2963926;0.10840302;-0.528933;0.08651715;-0.108476676;0.065758765;0.1549272;0.28278407;-0.02064278;-0.10036505;0.007244861;0.16106531;0.08098303;0.024149418;-0.1219594;0.17667536;-0.16497935;0.15743417;-0.12023516;0.0022504395;0.085761905;0.0014274016;-0.22386128;0.00748251;-0.16451271;0.11208379;-0.2856798;-0.08539518;-0.18976566;0.3545688;-0.118379675;0.118578486;-0.15149033;-0.06040826;-0.05620294;0.20554614;-0.16363622;-0.30834398;0.25654763;0.25075638;0.1745819;-0.21054617;0.06286309;0.34644943;0.11570494;-0.16597138;-0.06462006;0.11029201;-0.115436174;-0.29237425;-0.09135924;-0.025836911;0.041793607;0.20225157;0.20715855;-0.09914576;0.0018675938;-0.1114751;0.24308544;0.092701115;-0.47897935
-0.38369805;-0.09232001;0.10691387;-0.30763716;0.1867386;-0.29198968;0.18702786;0.3683508;0.27655974;-0.17776118;0.15956925;0.13730998;0.047639046;-0.054873392;0.06085509;0.07683375;-0.0049283267;-0.11335506;0.12261009;-0.08973026;-0.21341036;0.051187515;0.02694816;0.2699405;-0.063744955;0.062879324;0.0042608078;0.024711814;-0.20491174;0.2369787;-0.1272606;0.026201976;-0.04813639;-0.32875988;-0.30327842;-0.10143282;0.16777301;-0.25658736;-0.07123988;-0.29747796;0.019444648;-0.08804437;0.009185145;-0.3319643;0.0006032319;-0.104234874;-0.038178124;-0.10792261;-0.020578135;0.14990246;0.09030712;-0.100352466;-0.14649293;0.22196148;0.2701064;0.21011914;-0.36311767;-0.25476894;0.14610519;0.26439232;-0.03088692;-0.07596306;-0.18543741;-0.19004335;0.29045492;0.14994851;0.12887928;0.023397043;-0.005817906;-0.022362575;0.07541194;0.029682033;-0.19986914;0.06643707;-0.09141535;0.17792946;-0.05107084;0.009686851;-0.25568846;-0.22044349;-0.0031474768;-0.09310651;0.15513828;0.3543065;0.1563404;0.051927116;0.20380172;0.24478088;-0.031628054;0.28757405;-0.32677746;-0.27283987;-0.03212354;-0.11864853;-0.39504245;-0.41348606;-0.038723707;0.02549295;0.19339556;-0.09786622;0.22093773;-0.18204993;-0.0062140604;0.3192015;-0.25076106;0.13692586;0.32622188;0.13690203;0.037193798;-0.15308823;0.39675498;0.0034639407;0.28986812;-0.41743365;0.077538066;-0.17567761;0.15011346;0.18679073;0.21858753;0.22862329;0.07252803;0.17433956;-0.0431639;-0.15724489;0.009681232;-0.04504936;-0.11126907;-0.27464232;0.03837632;0.044219136;0.22145908;-0.32479924;0.3689985;0.030728994;-0.04484906;0.090052254;0.08382397;0.18611751;0.1625447;0.14112778;0.1389358;-0.0009215942;-0.21727884;-0.034883723;-0.18015406;0.031515375;-0.1702295;0.018415844;0.09578441;0.2130254;-0.030357894;0.2950714;-0.38253337;-0.042092185;-0.15307592;-0.21696894;0.19733451;0.049714565;-0.24727207;0.0161499;-0.03823966;0.09084261;0.17821737;-0.24189566;0.00183298;0.2606501;0.10981932;0.27205077;0.03626066;0.08449187;0.011024116;0.03953911;0.056962915;0.14620496;0.0729201;-0.5396904;-0.09216143;-0.19048402;-0.13528945;0.30601406;0.11795323;-0.13467367;0.17356421;-0.26215613;-0.22718835;0.01787662;-0.025316814;0.02377612;0.033070076;-0.3495335;-0.121870905;0.18497802;-0.16770042;-0.2368637;0.11761066;-0.14388551;-0.08300483;-0.1674266;-0.043468434;-0.028196454;0.034568362;0.058039885;0.043779857;0.028398817;-0.19143602;0.05405195;0.07403219;-0.10791823;-0.03826766;-0.08579225;0.01546581;0.005118579;0.038459074;-0.04307946;-0.09063004;-0.006088455;0.006568304;0.13794804;0.09692616;-0.5677564;-0.061502818;0.1955725;-0.21465924;0.13578784;-0.23098403;-0.18090844;0.119890146;0.42783427;-0.28151864;-0.12418588;0.18521176;0.30147544;0.040636975;-0.028856039;-0.15257981;-0.046055607;-0.2061216;0.0285633;0.25114655;-0.027991554;-0.086973324;-0.22173972;0.14136955;0.22504242;-0.09372601;0.031366915;-0.09198311;0.085234925;0.3974809;-0.06627994;0.437142;-0.2093868;0.19717768;-0.091619596;0.20583166;0.18379213;0.024903925;0.1496254;0.26630655;-0.30134606;0.2250758;0.13298224;0.12979557;0.019635556;0.18752196;-0.057552442;-0.22269732;0.017598182;-0.13037065;-0.0597376;0.23244065;0.12510571;0.24240859;-0.07944529;0.29665163;-0.09409441;-0.28933057;-0.13165525;-0.2128539;0.26460713;0.08613707;-0.18794551;-0.34005478;-0.0025042105;0.08106118;-0.21290395;-0.3060924;0.21439876;0.057226572;0.11718895;-0.03952905;-0.05554678;0.018846788;0.025414076;-0.017881894;0.106483795;-0.009596208;0.2937692;0.074547924;0.055348426;-0.117205046;-0.1188834;-0.056679264;0.12527604;-0.0147769805;-0.26853734;0.05088286;-0.3360294;-0.005368768;0.09293602;0.07541403;0.10491586;-0.021882482;-0.19412015;0.027090466;0.07229534;0.11932916;0.25656042;0.06870299;-0.06697148;0.08094324;0.1215435;0.13272776;0.11623171;-0.076570556;-0.13363555;-0.24821055;-0.07723762;-0.051302403;-0.015187226;-0.21350731;-0.07071628;0.052444085;0.2452411;-0.014520168;0.036768824;-0.08921321;0.16188839;0.27014804;-0.074851684;-0.121959254;-0.11081409;0.0075615845;0.19970666;0.09044768;0.17077795;-0.12005196;0.0048383283;-0.13060589;0.10391011;-0.11138453;0.04166638;0.2264508;0.22870025;-0.033526473;0.0086322725;0.008394976;-0.16216308;-0.04782067;0.10522882;-0.004733657;0.14088896;0.054085735;0.23127376;0.20919503;-0.53018963;0.04866525;-0.132092;0.3112562;0.30679977;-0.07384901;-0.30691734;-0.1730578;-0.08991997;0.08841042;0.20590751;-0.046440545;-0.36940682;-0.020484326;-0.09501165;0.22572571;0.16551204;-0.23982333;-0.20203745;-0.029077066;0.16486837;0.06536601;0.0016851423;-0.094130374;0.14573877;-0.060234543;-0.31297803;0.041772887;0.10990237;0.03539831;-0.09281761;-0.118149064;-0.29291523;-0.011546124;0.027744489;-0.15370624;0.01948391;9.703909e-05;-0.13861328;-0.15927687;0.32830727;-0.09863812;-0.0011389996;-0.47657755;-0.09881349;0.02766827;0.11560726;-0.028337391;-0.28505012;0.034923475;0.101081625;0.04819508;-0.05197919;0.16798553;0.045071624;-0.31202504;-0.24869935;-0.2844436;0.24604546;-0.1616192;-0.24677882;0.026286222;-0.019811446;-0.02379831;-0.14612713;-0.18346718;0.16359012;0.2311218;0.07633723;0.15847017;0.005872699;0.07702821;-0.004516573;-0.111136034;0.055834293;0.07481997;-0.08361277;-0.08647275;-0.0700983;0.13551427;0.14722382;-0.060557082;0.029793499;0.105567165;0.17026293;0.080352135;0.051593684;0.18462007;-0.2582466;-0.4390622;0.034254834;0.106051065;-0.2191756;0.05770572;0.1123247;-0.15520956;-0.037930746;0.010205964;-0.09859407;-0.061528683;-0.060123015;-0.0031737466;0.32285562;-0.041072324;-0.03987745;0.26317403;0.15526569;0.08396899;-0.19131912;-0.24707295;-0.030830268;-0.04997452;0.11915912;-0.12810783;0.07136606;-0.6125564;0.064191595;0.090717256;0.030508885;0.26344213;0.12740685;0.020991553;0.006452155;-0.10420478;-0.3226628;-0.18753552;-0.24703902;0.0304542;0.11278704;-0.0550951;-0.024294892;0.1595557;0.05165641;-0.077676326;0.09499707;-0.12856223;0.24460642;-0.05566138;0.13547747;-0.22029124;0.049997393;0.1469596;0.08272541;-0.1588074;-0.039802887;0.019133862;0.011124482;0.09236831;0.02191595;0.0150034595;0.22675952;-0.06458912;-0.26701465;0.02151948;0.17024122;-0.0075649065;0.089696355;0.15000415;-0.16069525;-0.108418204;-0.009305203;0.059750777;-0.07431871;-0.15916021;0.101172864;-0.040807866;-0.06078403;0.2238016;-0.15197194;0.3210818;0.046105087;-0.16437188;-0.2155288;-0.1700393;-0.02304728;0.21432276;-0.22480346;-0.05030786;0.21573763;0.24238837;-0.12319276;0.2628618;-0.38810548;-0.18242033;-0.08840826;0.094208345;0.090836056;-0.18627402;0.15459871;0.056814756;0.2440512;-0.21542181;-0.0049757836;0.186477;0.20751807;-0.12141943;-0.013796469;0.2031925;-0.08711363;-0.14680691;-0.011926658;0.10354878;0.0911251;0.07124527;0.11289604;-0.022584528;0.032473046;0.07210953;0.13733242;0.074335426;-0.5155076
-0.19826695;0.12407505;-0.009292973;-0.3627518;0.011007132;-0.09276357;0.061811235;0.28927302;0.13894151;0.11048087;0.17985785;-0.00787446;0.11994817;0.06625144;-0.03158086;0.070412055;0.115493044;0.38169476;0.29039422;0.1721552;-0.21369866;0.12693867;0.024028806;0.16255176;0.14225541;0.01216361;0.095683575;-0.0200334;-0.13100879;0.18486056;-0.101072446;0.06394627;-0.088223524;-0.35046098;-0.22758336;0.020486854;-0.071184956;-0.40853536;0.12111167;0.025997203;-0.0018866851;-0.06409984;0.1165715;-0.09614813;-0.054488126;-0.17038518;-0.021546496;-0.15743014;0.030307256;0.25007457;0.1717108;-0.09162664;-0.21961519;0.14631118;0.23456025;0.29487607;-0.27243045;-0.16713977;0.13558473;0.07176984;-0.033341534;-0.09497164;-0.20003846;0.15902726;0.09412296;0.079361975;0.11683911;-0.17909001;0.02167316;0.091188096;-0.025308665;0.07959383;0.12812722;-0.1933835;-0.1043747;-0.27616593;-0.009383019;-0.012663305;0.07919866;-0.1762541;0.20573297;0.05246141;0.037121683;0.30536732;0.048879147;0.022987546;0.2984937;-0.015500827;-0.12146765;0.075743854;-0.20533565;-0.18454163;-0.06964843;6.717468e-05;-0.6881513;-0.15434286;-0.16315496;-0.3266341;0.2237814;0.10504398;0.05889349;-0.050210163;-0.038883038;0.029802438;-0.24126384;-0.04774748;0.25647604;-0.004051154;0.06249014;-0.29666376;0.2573845;0.11396884;-0.0014453596;-0.26400837;0.12765889;-0.04803025;0.03518856;0.12861198;0.22350432;0.052342627;0.05431791;0.13478184;-0.29859197;-0.31784198;0.062814824;-0.091424845;0.15634398;-0.265985;-0.15888344;-0.089783035;0.19722064;-0.23382232;0.24947247;-0.07291227;-0.08514474;-0.08896015;0.15168661;0.07946551;0.1949655;0.30813795;0.018624622;0.21655343;0.09765357;-0.21807879;-0.12405498;-0.016270246;-0.026752647;-0.09613911;0.002960761;0.11379323;-0.19572864;0.18749599;-0.29728702;-0.1522847;-0.047069315;-0.087911695;0.28794762;-0.019466199;-0.2574773;-0.14023966;-0.1547277;0.101242594;0.0484947;-0.11395109;0.20800917;0.0031797932;-0.042498056;0.19664459;0.005534623;-0.02967534;-0.07291521;0.0739199;-0.12829861;0.054261886;0.19344442;-0.21814962;-0.042658947;-0.24461287;-0.09821663;0.29461122;0.20528306;-0.038756166;0.21939163;-0.43387625;-0.011308154;0.16410929;0.044147376;-0.17038462;0.16543023;-0.23254146;-0.10162513;0.15135743;-0.03634819;-0.018047372;0.06846071;0.0552995;-0.02965124;-0.16606472;0.033779446;0.20534384;0.05385444;0.38133785;0.17067601;-0.0341818;-0.061055582;0.15720811;-0.19518021;0.08602915;-0.16473657;-0.18415394;0.035472576;0.0977414;0.19346347;-0.14309481;0.18755095;0.3183741;0.0459712;0.15883484;-0.045797985;-0.15130253;0.01943588;0.22345655;0.013629166;0.2656745;0.07035831;-0.26785123;0.028682427;0.13599578;-0.30862668;0.04546094;0.13653001;0.15021919;0.10726441;-0.090433106;-0.12821668;-0.0757401;-0.13797969;0.024210237;0.07187059;0.08164763;0.057779435;-0.41242087;0.15259162;0.3566415;-0.12455752;0.19047688;0.1264008;0.13806249;0.15978578;0.004405898;0.16046497;-0.19342603;0.082220726;-0.08031777;-0.21940061;0.26884633;0.14112954;0.17753947;0.044032484;0.13814197;0.22185998;0.27631268;0.08040489;0.07724265;-0.01395068;0.16716622;-0.15676941;0.19647618;-0.27265084;0.0056876885;0.10167857;0.08378833;0.16720504;-0.05391178;0.22815442;-0.052656967;-0.103402086;0.22227874;-0.089858435;0.06601005;0.13056268;0.053919766;-0.074222736;0.12829623;0.16521391;-0.30639315;-0.08624359;-0.08909871;0.046067744;-0.012239842;0.12881732;-0.12271696;0.024051776;-0.06781334;0.051683854;0.030677052;-0.07693924;0.13569199;0.04609266;-0.058858484;-0.1460567;-0.102933064;0.21355447;0.019542444;-0.22271658;-0.24262182;0.11410551;-0.09251493;-0.052563988;0.1678299;-0.000556517;-0.1729692;-0.09016328;0.05027234;0.023442172;0.025803275;0.06918428;0.03855529;0.1472006;-0.10747114;0.19073482;-0.011234179;0.31752545;-0.21451014;-0.22342038;0.11020372;0.18175001;-0.14750971;0.11212409;-0.017990923;-0.05661453;0.20596944;-0.07842966;-0.024148423;0.23305741;0.07079607;0.023014927;0.25686702;0.14454916;0.10850541;0.2316324;-0.010909827;0.116468415;-0.19987956;-0.032725077;0.37322813;-0.06978559;0.11986389;-0.25594407;-0.0117901685;0.049034134;-0.037008155;0.0129191885;-0.030186243;-0.12924686;0.009138148;0.104487404;0.05975506;-0.033332992;-0.13284531;-0.0192705;-0.3194298;-0.3284818;0.22088939;0.09922749;-0.31396818;0.02318246;-0.22287902;0.12055044;-0.052664593;-0.017537521;-0.23537822;-0.37052277;-0.046701092;0.060231972;0.0668224;0.18739688;-0.19815457;-0.08139317;-0.06204379;0.24508052;0.071382694;-0.061076913;-0.12787697;-0.15318076;0.030723296;0.23251815;-0.100260906;-0.37058517;-0.08113032;0.012888047;-0.18484935;0.11220905;0.060077064;0.052346226;-0.003596208;0.15060525;-0.0550182;-0.08456395;0.051400438;-0.107754104;0.04362395;-0.124125786;-0.12887321;0.024289196;0.25303593;-0.062212028;-0.066010855;-0.12219724;0.17195345;-0.1120631;-0.14280374;-0.0043246606;0.106438205;0.11277775;-0.10722905;-0.05076586;-0.35909125;0.116575316;-0.1364459;-0.092061885;-0.096484296;-0.09011063;0.38757637;-0.092952125;-0.077376306;0.21563919;-0.16338736;-0.033504877;-0.12995376;-0.22041292;-0.17793153;0.35105726;0.009334227;0.030268569;-0.12377859;-0.015420806;-0.17210072;-0.21478671;0.30409852;0.31343395;0.056329872;-0.17536935;0.010340385;0.0046675005;0.035588134;0.059903707;-0.19247395;0.06207328;-0.119632915;-0.043471918;-0.13591038;0.1746966;0.081790745;-0.18858607;-0.00157226;0.019913452;-0.016524589;-0.063565336;-0.023092503;0.00859526;0.057966452;0.1410849;0.05929419;-0.1446297;-0.18240607;0.059674945;0.38950896;0.12215925;-0.20088965;0.01166473;0.057132952;0.12965538;-0.21861064;-0.10327539;-0.09101897;0.022353148;0.10284105;-0.22545002;-0.0072870054;-0.37144962;0.23575723;0.12459604;-0.09691691;0.119526416;0.41432935;-0.07805697;-0.35167435;0.16864167;0.050936714;0.09741518;-0.2991923;0.15568662;0.08885751;0.10304015;-0.09369708;0.100789055;0.12161708;0.098789096;0.12930512;0.15115933;0.0053222515;0.1421298;0.0664326;-0.015348403;0.018135281;-0.0013330206;-0.016575864;-0.12698534;0.14842613;0.15934117;-0.00498027;0.14643806;0.1056917;-0.116575725;0.0019880345;-0.0050427956;0.1332209;0.14143784;0.02017365;-0.25680164;0.14190134;0.22681566;-0.15049747;-0.16311233;-0.014778113;0.20375378;-0.034874722;-0.091623195;0.04669195;0.16328034;-0.24274947;0.01440483;-0.29941726;0.43921554;-0.09523667;-0.19027853;-0.1304737;-0.23120815;0.08216114;0.01673183;-0.25450277;0.19408365;0.21833014;0.007958216;-0.024853958;0.29133472;-0.14057586;-0.35120136;-0.12514839;0.16216834;0.19731599;0.073797494;0.20651676;0.24300052;0.3699322;-0.19809462;0.015204421;0.04232161;-0.008654914;0.14952244;-0.12902561;0.4007573;-0.021072289;-0.47724545;0.038260087;-0.13543089;0.11761493;0.21610355;0.07932442;-0.16297495;-0.055109646;0.016713645;0.13340311;-0.10788158;-0.049762294
-0.14525674;0.064328074;0.038801108;-0.32324532;-0.06792961;-0.15213928;0.16583024;0.14998575;0.14971638;0.24097547;-0.07916048;-0.05724699;0.35296813;-0.036722355;0.16009793;0.07855296;-0.060355008;0.20723285;0.06393781;0.14916888;-0.05092533;-0.021923907;-0.14123656;0.043918148;0.22655715;0.010388736;0.11658791;0.08202332;-0.12302211;-0.10149072;0.22353159;0.027716856;-0.22183922;-0.1787385;-0.07435065;-0.07911476;-0.2322019;-0.22376321;0.22009401;0.049790476;0.18089984;-0.050614905;0.032113705;-0.18109103;-0.060989622;0.014671838;-0.17096052;-0.4593549;-0.12173995;0.22808117;0.04966404;0.20804365;-0.16516285;0.21023472;-0.04836167;0.05498856;-0.27785417;-0.26516393;0.225853;0.016207423;-0.004557602;0.07247643;0.12385088;-0.019605557;0.014564798;0.2457673;0.11410456;-0.025146833;0.027218955;0.0001591384;0.027047638;0.05440498;-0.04673313;-0.44400874;-0.08681529;-0.009060783;-0.060346324;-0.09304698;0.17963424;0.016807266;0.09395408;0.1062497;-0.09086778;-0.04329355;-0.058528382;0.078592986;0.41910976;0.07099797;-0.1633518;0.12481812;-0.12810285;-0.48357803;0.05665357;0.29123545;-0.23580681;-0.047630638;-0.099622;-0.28351676;0.086279675;-0.05689265;0.19215223;-0.050623454;-0.09403721;0.08626173;-0.35442328;-0.03437319;0.343376;-0.14078896;0.13664949;-0.18567882;0.19523832;0.14947626;0.11879871;-0.22947367;0.18296999;-0.010163165;0.2552684;0.23676503;0.10222805;0.08544248;-0.05748798;0.052561022;-0.4075579;-0.24273968;-0.1307451;-0.29152882;0.08496783;-0.108929716;0.12947571;0.04970659;0.22187954;-0.091207;0.29623434;-0.01599049;-0.08152108;-0.16488822;0.33828172;0.0027443452;0.19504394;0.20373002;0.04499456;0.026262673;-0.097716354;-0.19114316;0.000117256095;0.077762015;-0.23308446;-0.33274207;0.0816426;0.09985827;-0.04878326;0.07796245;-0.34353256;-0.015892152;-0.4343195;-0.10402912;0.28005943;-0.20306475;-0.21925366;0.12568088;-0.12114883;0.0110166175;-0.011468999;-0.18766081;0.26078418;-0.13840622;0.0025947634;-0.11773514;0.016626306;-0.18032716;-0.075086914;0.108210824;-0.15618625;0.046715774;0.0126790255;-0.37110376;0.05671835;-0.2510168;0.008418887;0.0049469327;0.23408368;-0.07246508;0.007437666;-0.14988215;-0.15021293;0.04434743;-0.016572597;-0.016274897;0.029743623;0.03275201;-0.022772368;-0.016426915;0.16576622;-0.28781715;0.014824674;-0.17918172;0.0024862369;0.11289788;-0.23662473;0.1580492;-0.2002749;0.23098332;0.100636415;-0.15962097;-0.118202046;0.1266685;0.012772508;-0.09091874;-0.37283853;-0.29862025;-0.18406206;-0.10462189;0.06415272;0.064424716;0.2037166;-0.0047452995;0.024023788;0.23441856;0.037013765;0.06223566;0.22522691;0.13133709;0.06711655;0.04043865;0.07869477;-0.07985858;-0.15765907;-0.16292688;-0.2790066;-0.040594593;0.024656601;0.069881804;-0.0580777;-0.31540978;-0.09677255;-0.13598877;-0.16816945;-0.016701493;-0.14157823;0.030802665;0.17476104;-0.34662038;0.23399606;-0.0017746063;0.04596423;0.13786727;-0.15351206;-0.06992881;0.038915545;0.12319956;-0.23058732;-0.0019664594;0.096355155;0.041128553;-0.060309432;0.17765488;-0.071109794;0.14039622;-0.00829012;0.0704197;0.03160023;0.13166341;0.27199075;0.027476909;-0.11380226;-0.14931296;-0.061982844;-0.03148648;-0.092281;0.29657602;-0.02129745;0.045426674;0.3042079;-0.00075112854;-0.052134093;-0.18550928;-0.20160727;0.37033796;-0.084301926;-0.014276296;0.10413294;0.18760507;0.11873243;0.112162374;0.164517;-0.24693996;0.13189043;-0.17195782;0.081094734;-0.042658374;0.17006777;0.10139444;0.07574767;-0.1612511;-0.043595023;0.20536919;-0.049982924;0.11490167;0.1303016;0.06961203;0.012257274;0.24962594;0.12308332;0.016384203;0.017837718;-0.12143036;0.32526946;0.0643893;-0.04816137;-0.030523906;-0.025866117;-0.025683634;-0.059686553;-0.011108252;0.014886638;0.0596609;0.018347133;0.19077274;-0.23091786;-0.25092578;0.06582644;0.011818551;0.0543633;0.02412518;-0.27065784;-0.07854692;0.18666522;0.13721934;0.15592319;0.08163615;-0.008339955;0.026322676;-0.18603761;-0.08201808;-0.09941098;0.13931327;0.022679497;0.100486934;-0.1532711;-0.054069325;0.011605594;0.07294075;0.4447679;-0.20853366;0.043654807;0.36461025;0.25559622;0.0634803;0.17308189;-0.28108764;-0.34069306;-0.031229086;-0.09319614;0.16726042;-0.17815189;-0.16500318;0.04974459;0.19211644;-0.34430814;-0.11722339;0.060448006;-0.4125818;-0.23704536;0.14047001;-0.04037635;-0.11857187;-0.041451428;0.106089205;0.04259591;-0.10895609;-0.029045584;-0.3949979;-0.1197137;-0.10667234;-0.3282762;-0.23061238;-0.19972625;-0.23215118;-0.15458962;-0.03944082;-0.05088356;0.16333772;0.08863176;0.2023548;-0.17280386;0.078386925;0.03633644;-0.20193593;-0.18846361;-0.086790256;0.035189554;-0.21544416;0.058119047;-0.015830394;-0.026661517;-0.11638506;0.14001654;-0.17145553;-0.0732567;0.015128532;-0.27405065;-0.1800389;0.040672094;-0.2085704;0.036616836;0.090860076;-0.018561048;0.1919744;-0.1815081;-0.006881451;-0.104194306;-0.41258287;-0.108632356;0.21114235;-0.042659014;-0.063036814;-0.1258643;-0.18153134;-0.14199263;-0.17942095;0.10889037;-0.18735467;0.035923306;-0.06805985;0.04955891;0.0670392;0.071317516;-0.017511237;-0.14307997;-0.10903101;-0.05919782;0.18728921;0.333075;0.019418702;0.10862667;-0.11834397;-0.25787294;0.03721928;-0.29198286;0.32245058;-0.1771634;-0.15405178;-0.07299775;-0.0025189437;0.1778384;-0.07844138;0.20803794;0.020682104;0.06132227;0.12374735;0.086837485;0.12238512;0.17192307;0.0058672186;0.043543726;-0.06638306;0.053142905;-0.036535617;-0.095882826;-0.037347853;-0.14509544;0.11850859;0.20540494;0.3484891;-0.050259966;0.029513022;-0.038684864;0.20890735;-0.11691236;-0.09021565;0.08321845;-0.046858806;-0.035446707;-0.06257546;0.120112956;-0.08877105;-0.106443025;0.06418906;-0.24576315;0.11981893;-0.27807534;0.13031098;0.08190542;0.0447393;0.08777899;0.17029709;-0.10192239;-0.26427844;0.043039452;-0.022722231;-0.09344158;-0.021038104;0.054135367;0.077142276;-0.12350989;-0.0023397817;0.15430138;-0.20042954;0.16680332;0.13084699;0.08876949;-0.45638236;-0.26360056;-0.006944326;-0.05936007;-0.13553786;-0.079926066;0.14373131;-0.13642012;0.16090624;0.34140286;0.22536659;0.17381115;0.08574234;-0.012065313;0.23421834;0.20746355;0.009498804;0.082065985;0.17450142;0.028466005;-0.036517557;0.38345796;-0.30976528;-0.08348726;-0.056178976;0.15807207;0.062143456;-0.19339389;0.02648616;0.19109322;-0.09140594;-0.028299743;-0.013664664;0.36105114;-0.008664566;-0.11740803;0.00068585965;-0.32830492;-0.10825645;-0.09126821;-0.07034463;-0.0137942415;0.11676543;-0.05292667;-0.080541074;0.103277534;0.18996531;-0.24030179;0.04105314;0.072324336;0.03714395;0.14097561;0.12819083;-0.013308654;0.338974;-0.08435844;0.049987815;0.049728405;0.108918704;0.43055996;-0.0478044;0.05663001;0.09284633;-0.37263262;0.018236184;0.050166633;0.21956688;0.10538171;0.07160032;0.0143555235;0.05964507;0.04439327;0.1156869;-0.016316202;0.20374349
-0.064025454;0.056764174;-0.20157538;-0.2459695;-0.15848236;0.13561743;-0.022661138;0.18250763;-0.047050875;0.14780824;-0.116860874;0.06704931;0.2829656;-0.06875475;0.22617823;0.14078905;-0.0939824;0.45019868;0.017034993;-0.020703591;0.5371781;-0.13070771;-0.20459515;0.02494217;0.15784533;0.051100742;0.11880134;0.15826766;0.1913434;-0.08703775;0.09550386;0.104859635;0.016941007;-0.2001599;-0.18534212;0.039183564;-0.14594655;-0.25151345;0.25381905;-0.04978391;0.06470723;-0.062678635;0.008663602;-0.15316351;-0.10866548;-0.24481854;0.11075021;-0.3770547;-0.19952324;0.16549386;0.27641356;0.22529711;0.15077384;0.2614484;-0.09014237;0.031262983;-0.34174582;-0.0021201898;0.006177306;0.100295275;0.08371964;-0.05624538;-0.094841465;-0.22484206;-0.12117381;0.072865635;-0.089859955;0.016254626;0.025881352;-0.01893722;-0.24958003;-0.047187213;-0.10786102;-0.14428711;0.13018787;0.11181819;-0.012925146;-0.10174266;0.024157232;-0.11074194;0.008385926;0.0003664111;-0.0187951;0.026582005;-0.27994895;0.09211124;0.3174231;0.17994303;-0.029231738;0.34983507;-0.13534749;0.04266129;0.14818625;0.3985719;0.05486049;-0.041646603;-0.086741894;-0.04328889;-0.041773796;-0.27225474;0.20458797;0.2153286;0.0022013686;-0.10239596;-0.36757603;0.019795295;0.31077325;-0.38420442;0.075354934;-0.41155386;-0.03800941;0.1369061;0.049227037;-0.17824273;0.24120642;-0.18056448;0.11894284;0.09433029;0.1525155;0.00033989575;0.14895841;0.12902433;-0.31333467;-0.4668253;-0.25912616;-0.19322138;0.15237622;-0.1836662;-0.006427745;0.15849765;-0.3164174;-0.26400957;0.004149976;-0.031680066;-0.17197908;-0.08307224;0.05480066;-0.06756824;0.27399835;0.35639575;-0.18221025;-0.08217893;-0.21578518;-0.21531571;0.024225803;0.08393389;-0.096243925;-0.1554302;-0.09350762;0.15373431;-0.34892765;0.100545384;0.07069539;-0.29068366;-0.47919592;-0.044865653;0.1289291;0.15359169;-0.38501662;-0.14897385;-0.27895376;0.012243265;-0.2032155;-0.191617;0.2695637;-0.11874859;0.1851036;-0.0853735;0.09777478;-0.007860817;-0.07893299;-0.11745438;-0.045265;0.040649932;0.093464665;-0.08156577;0.054034617;-0.07838861;0.17229842;-0.0143532595;0.17871322;-0.18466431;0.056006525;-0.06477206;-0.0689439;0.07190666;0.47037575;0.047048707;0.11981512;-0.02642593;0.018099241;-0.10547095;0.15968636;-0.3101319;-0.0076442976;-0.09855452;-0.2741865;-0.016048694;-0.1890279;-0.2643744;-0.008136535;0.12777503;0.1793983;-0.19412705;-0.0061342414;-0.08144965;-0.066650756;0.010776576;-0.0542218;-0.0080402205;-0.07409542;-0.085356385;-0.045819614;0.054624084;-0.10332076;0.074444175;0.06517599;0.1822149;-0.069454506;0.12165889;0.28625187;0.049552612;0.08055546;0.20378074;-0.012557876;-0.011252198;-0.144282;-0.19150077;-0.1724556;-0.19035462;0.238075;0.23766011;-0.24461044;-0.32965562;0.10818452;0.0840255;-0.056840982;0.077643946;-0.2167681;0.026339887;0.12495758;-0.2203565;0.18396206;-0.17529847;0.06712363;0.13320811;-0.37295696;-0.2235358;-0.20348349;-0.07499094;-0.45594078;-0.25804797;0.04586055;-0.05837145;-0.21959563;0.23157234;0.058812827;0.0514912;0.019228866;0.18862961;-0.042932644;0.35965303;0.2657521;-0.0036741064;-0.10253064;0.089702256;-0.36245242;0.3502729;-0.3190009;-0.046105996;0.019300554;0.29509702;0.22989492;0.11803341;-0.17806704;-0.094584614;-0.20437703;0.16094638;0.1350051;-0.05300232;0.09886644;0.16161895;-0.042968415;0.13066779;0.2685592;-0.010992009;0.24703239;-0.1276308;-0.079880856;-0.07190688;0.17728932;0.11335451;0.22276422;-0.030446174;0.14097299;0.29140094;0.017531639;-0.2395149;0.02020535;0.20211357;0.22757971;0.16248226;0.13076223;0.06286011;0.023224043;-0.17427331;0.051220287;0.11410846;0.052542977;0.080239326;-0.061059102;-0.17490698;-0.16772455;0.015208301;0.17672148;0.27953956;0.08282044;-0.027256882;-0.16697653;-0.0056977463;0.082171425;0.029966485;-0.056514148;-0.011907125;-0.13511074;0.051017497;-0.07602912;0.022912495;0.14619963;0.17550364;-0.08466823;-0.013967355;0.04462401;-0.3000192;0.120275825;0.10538506;-0.01404896;0.15543066;-0.11420302;0.007373394;0.17974608;0.10639391;0.20656042;-0.22245094;-0.0358076;0.42158067;-0.014067047;0.04332203;0.19197163;-0.19220012;-0.10116034;-0.11542104;0.08058938;0.02353763;-0.08156959;0.34438887;0.028319605;0.030792024;-0.17836547;-0.25192574;0.023153301;-0.2999581;-0.2646733;0.071815304;-0.1928972;-0.25554004;-0.13253549;0.21250504;0.22214498;-0.14582115;-0.10806697;-0.004117508;-0.12062409;-0.15331106;-0.20235291;-0.22186774;-0.11935975;-0.16689555;-0.0348594;-0.14103343;-0.014861622;-0.023963543;0.05440348;0.17895156;-0.14596547;-0.14223233;0.051377703;-0.08265166;-0.21090984;-0.083096035;-0.14101632;-0.3245934;0.09154481;-0.10092841;-0.034500495;-0.38761932;0.2066923;-0.2295758;-0.14754425;-0.06466469;0.02122811;0.16836265;0.083316214;-0.18339777;0.06573857;0.074940264;0.003983395;0.09934286;-0.1260216;0.01296569;-0.07977644;-0.39667302;0.1088602;0.04285091;-0.10942822;-0.055118337;-0.06063562;-0.04093933;-0.10544715;0.1516187;0.022976879;-0.23647936;0.15374736;-0.19445662;0.24953116;0.05300394;0.2525912;0.13436863;0.09836716;-0.001481375;0.19647469;0.14721546;0.10554531;-0.029707324;0.14718214;0.02535286;-0.1456061;0.43040362;0.026263703;0.14703022;-0.16631453;0.14026788;-0.23321807;0.22124349;-0.13219814;-0.33945417;0.19959353;-0.12829576;-0.010208478;0.2606222;-0.025307342;0.13200128;0.16594072;0.008322195;-0.23792745;-0.11112332;0.16204567;0.07777158;-0.21618244;-0.23447718;-0.22292039;0.14260249;0.18987516;0.17250419;-0.023705076;-0.24295363;-0.03723109;0.1952186;0.1893427;0.10438847;0.08344537;0.113049954;-0.113413535;-0.3016164;-0.057055887;-0.2607263;0.12282553;-0.007432747;-0.11677775;0.31371105;-0.22634651;0.07980108;-0.03118502;0.06341892;0.101334184;0.062944815;0.04947688;-0.14431046;0.08695664;0.016075956;-0.22062497;0.0395144;0.17411351;0.23944327;-0.48216373;0.050457504;-0.08016545;-0.012810276;0.2119393;0.016765589;0.53172845;-0.2125516;-0.23002417;-0.038027573;0.03276601;-0.033355728;0.03498689;-0.3218165;-0.1583868;0.14187847;0.129028;-0.17255281;0.07966451;0.22078927;-0.039731234;-0.047144108;-0.05572616;0.38913503;0.04404102;0.15169756;-0.20182969;-0.15787832;0.17231344;-0.18226111;0.068346865;-0.13486882;0.034435906;0.05833897;-0.14442956;0.07739451;0.2694708;-0.22082713;0.019625885;-0.018117025;0.2819464;0.03797335;-0.027052393;0.21588708;-0.11558931;-0.031703692;0.0005277475;-0.031280823;0.025103267;-0.0811842;0.035635687;0.18998003;0.19194514;0.008614543;0.011221039;-0.006783162;-0.075781435;-0.17123319;0.22380437;0.19292204;-0.021007143;0.08655611;-0.19159241;-0.16296093;-0.099818386;0.21340261;0.5535238;-0.23470664;0.2502306;-0.28551838;-0.28597194;0.09817408;0.024899082;0.14515212;0.12894897;0.14251295;0.00083319587;-0.08496753;0.017719792;-0.12459459;0.13954571;0.13179258
-0.05898372;-0.19253176;-0.03245692;-0.52463996;-0.19835417;0.18844026;0.057644423;0.2603582;-0.035079654;0.018409899;0.025716154;-0.07608192;0.10214804;-0.15336624;0.23799625;0.05020892;0.14390628;0.15959716;0.1025564;-0.059247077;-0.30874896;-0.009066857;-0.18707412;0.16343836;0.045077957;0.25501826;0.109865375;0.3137718;-0.05717902;-0.0036218779;0.07093791;0.10740498;-0.090609156;-0.4361176;0.068121426;0.12876624;-0.0371072;-0.14611259;-0.036450844;0.22210346;0.21243733;-0.058913577;0.045769427;-0.08373942;0.114192896;-0.079368435;-0.14428215;-0.14215577;-0.01663781;0.092357345;0.1683153;0.21022326;0.19789895;0.009931254;-0.038846318;-0.36617997;-0.09254395;-0.07816549;0.019621355;-0.10496683;0.0012106331;-0.21993455;-0.16898206;-0.07000857;-0.016489808;0.04911475;0.03640876;-0.0065255305;-0.04976992;0.043164268;-0.35399935;0.0030506568;0.025984377;0.104140505;0.06279538;-0.012433173;0.060410783;0.04588777;-0.1749409;-0.15018944;0.012794876;-0.0063522514;-0.041969568;0.07292674;-0.012439324;0.07363302;0.20090744;0.21042831;-0.030976424;0.24096075;-0.02403491;0.24825023;-0.14474577;0.1630744;-0.021763755;-0.01562157;-0.15777217;0.056308713;0.12674467;-0.22637284;0.021327626;-0.03181248;0.20435597;-0.1778042;-0.5226483;-0.120319866;0.30327272;-0.19015083;0.15220346;-0.28775188;0.06386582;0.19902098;0.1948997;-0.20532764;-0.13605791;0.024501177;0.047832206;0.16978322;0.119415514;0.014293864;0.16632353;0.10571215;-0.547374;0.18527773;-0.011050796;-0.19105;0.14956562;0.08562557;0.2259198;0.12238747;-0.48432946;0.11515791;-0.014962822;-0.2937841;-0.034346636;-0.026608491;-0.06389742;-0.10968404;0.325872;0.13523658;-0.08641143;-0.10748497;-0.14716792;-0.18229057;0.063484706;0.03624573;0.050843254;-0.07785746;0.07570895;0.15888382;-0.28978944;0.12598808;-0.039824218;-0.07099357;0.040141933;0.24910295;0.18597382;-0.102807194;-0.09601898;-0.09923551;-0.03620038;0.107108675;-0.23822193;0.19691066;0.36086336;-0.14662975;0.32220876;-0.053722356;0.045138188;-0.40918154;-0.21097787;-0.05140347;-0.06023877;0.08898118;0.083269835;-0.025783459;-0.16933805;-0.04701879;0.1912404;0.025437903;0.34862337;-0.068598494;0.119256124;0.019438008;0.035559356;0.07530631;0.05383933;-0.18147458;-0.12954018;0.20864278;0.07773335;0.098487645;-0.018681534;-0.2591329;-0.02879869;0.123416714;-0.18963344;-0.2421405;-0.093451194;0.07819945;0.056945957;0.25725675;-0.2821015;-0.026037607;0.022156483;0.008222121;0.07013868;0.020131141;-0.02726098;0.11011883;0.11750892;-0.12596005;0.20546336;0.19874132;-0.010864281;0.04731828;-0.06743146;0.19521403;-0.09572771;-0.042875584;0.14977513;0.13803336;0.16222602;0.15286534;0.1983246;0.062395446;-0.05117949;-0.27321446;-0.30368114;-0.061342314;0.057820253;0.02191138;-0.11016575;0.021030094;0.08100406;-0.04199402;-0.050700307;0.23330598;-0.19170296;0.03636322;0.20447288;-0.39497223;0.3157353;0.012992451;0.033875775;0.23632918;-0.20655562;0.040863793;-0.3169268;0.04958617;-0.28217617;-0.011014181;-0.09372761;0.06008669;-0.3894072;0.2983645;0.12070629;0.13513416;-0.009846435;0.07784101;0.046679124;0.2728295;0.3551793;0.1693733;0.08878992;0.050471354;-0.34969655;0.1547927;-0.06301507;0.23371872;0.053897806;0.10592538;0.35242376;0.12334263;0.034392808;0.07875138;-0.22384143;-0.040735368;0.07268447;0.005463877;0.2319559;0.103221305;0.0054379296;0.1159931;-0.019750794;0.16658865;0.2858589;0.08427213;-0.16958092;-0.05158021;0.15045257;0.11167177;-0.05195632;0.013950966;0.07657775;0.09330784;0.11238454;-0.18732366;-0.03207051;0.067331;0.09298719;0.15978812;0.20295636;-0.11378054;-0.079036765;0.10818666;0.18639705;-0.15455122;-0.045207154;0.22334759;0.083713956;-0.18671432;0.05012733;0.14426175;0.1615626;-0.004638568;-0.22247198;0.05863806;-0.03023737;-0.05585513;0.05460044;0.10242666;0.17801386;-0.056652077;-0.32480305;-0.07017261;0.15063955;0.21107283;-0.13596669;0.07392399;-0.1092591;0.10516465;0.068836115;-0.29779458;0.23942907;0.25384852;0.0061649163;-0.06733064;0.030958794;0.019541714;0.2551096;-0.041616898;0.05547999;0.003943202;0.083539516;0.5597862;-0.11524772;0.07303436;0.07071172;0.044381987;0.06339778;0.059577834;-0.17047861;0.038460776;-0.048764214;-0.04793824;0.1901114;-0.01638193;-0.16493535;0.08230206;0.08072933;-0.2538821;0.08588112;0.29903868;-0.12360449;0.13126187;-0.12688401;-0.03883807;0.26587608;-0.2274057;-0.06168841;0.111670904;-0.3171736;0.0606216;0.095627196;-0.2507064;0.003133115;0.03698595;-0.1499039;0.014913026;0.2650785;0.13611442;0.12171657;-0.048961267;-0.18951233;0.1268939;-0.01378675;0.14892451;-0.004846037;-0.11345005;-0.25240222;-0.30447435;0.18048538;-0.17043099;0.12712158;-0.23002866;0.08945968;-0.019237462;-0.2757575;0.12517908;-0.12174393;-0.033854518;-0.046885006;-0.17470732;0.03469905;-0.2251557;-0.15050498;-0.067352474;-0.00882789;-0.101445615;0.0684099;-0.19267723;0.03408929;0.08903043;0.075782314;0.03230888;-0.18119258;-0.16000217;-0.11837213;-0.04914356;0.1129254;-0.21048391;0.21961598;-0.21443821;0.013197279;-0.20793828;0.0808174;0.046488166;0.025808187;0.23723176;-0.121579535;0.226799;-0.032707043;0.16325761;0.1486811;0.09450648;-0.014758245;-0.23201925;0.19432542;0.029364886;-0.164873;-0.07259353;-0.21308734;0.09176608;-0.13243571;-0.1513282;-0.03798524;0.104312986;-0.14358857;0.09826792;0.027990406;-0.27378494;0.05715743;-0.104743525;0.1561463;0.11580046;0.41951135;0.20045927;-0.14159966;-0.19991681;0.04966309;0.13499369;0.12858388;0.2689085;0.11435087;-0.20144156;-0.05587317;0.043345645;0.16139248;0.052226614;0.121169396;-0.134832;0.1473773;0.06245321;-0.2672884;-0.040767226;0.09404841;-0.07332873;-0.05109498;0.10148133;0.19148576;0.024919173;0.10087341;0.18177596;-0.031852424;0.061219353;-0.10854287;-0.23109496;0.060081974;-0.08602399;-0.1793011;0.048251178;0.07700559;0.13802285;-0.33201405;0.18941374;0.056589413;0.132444;0.10287591;0.02082896;0.02113992;-0.17581244;0.14789799;0.050846953;0.1009608;-0.062230665;0.26564184;-0.2883286;-0.13751668;0.099070825;0.1262926;-0.21780896;0.1387769;0.18026015;0.058441658;0.089749314;0.15155518;-0.16721115;0.15934071;-0.050044827;-0.038584918;-0.11922662;0.03825327;-0.28128463;0.058363717;-0.021717591;-0.023179548;0.096735254;-0.0018793499;-0.02390695;0.14891988;-0.033169962;-0.032881968;0.32699296;0.13025092;-0.06792142;-0.15753792;0.12927885;0.14722206;-0.059755467;0.0305513;-0.19555514;-0.0037080056;-0.024326537;-0.13293338;0.015909808;0.1602994;0.09451856;0.14407764;-0.03881161;0.20310836;-0.008577012;0.352892;0.103988186;0.0798785;0.12292064;-0.06784244;-0.08900822;-0.1549267;0.11706661;0.15018313;-0.14789039;0.002215392;-0.4195173;-0.29211518;0.16032775;-0.053097483;-0.046431422;0.17955382;0.056755465;-0.15074377;-0.09362675;-0.019405559;-0.08088823;0.09818096;0.24220076
-0.039852653;-0.03814992;0.027404416;-0.38916647;-0.41278324;0.35033524;0.14722104;0.20993637;-0.0630996;-0.25071126;-0.10655855;0.0028106973;0.050455462;-0.118355416;0.24099147;0.09501822;0.08420743;-0.19555992;0.10935242;0.052495454;0.044220317;-0.10567746;-0.24033944;0.08114839;0.14425737;0.02445199;-0.018412052;0.17691557;0.03858921;0.0136304945;0.33572128;-0.073527984;-0.16083309;-0.42900336;-0.1816723;0.25438723;-0.37635314;0.03665803;-0.21929605;0.11878196;0.26038873;0.05329326;-0.04203289;-0.2294813;-0.057092775;-0.109594695;-0.060166214;0.22789884;-0.28548717;0.27557984;0.22079265;-0.025070678;0.131397;0.041941646;-0.18210156;-0.21811756;-0.038593113;0.027627205;-0.26394933;-0.074116014;-0.032577854;-0.06046326;0.18049063;0.12314502;0.11481159;0.14982747;0.004815731;0.04820546;0.060594194;0.09742261;-0.061394963;0.0491472;0.042799685;0.23822284;-0.01651208;-0.25705335;0.08171802;-0.096718244;-0.14290045;-0.1222898;-0.2605932;0.1514271;0.10266941;0.07923739;-0.16904962;0.25531682;-0.049442798;0.14743415;0.23764569;0.1715911;-0.024465142;0.35248515;-0.3453565;-0.18565181;0.14652258;0.21190256;0.14044566;0.26544765;-0.115784876;-0.1127389;-0.031086283;-0.13627966;0.23759414;-0.20093624;-0.46828413;0.16518354;0.2587909;0.18562956;0.052842893;-0.40020314;0.078879975;0.0140794525;0.0918823;0.04319532;-0.029512817;-0.13645834;0.016479539;0.11179685;0.183656;-0.09831485;-0.0074533;-0.079357035;-0.6729838;0.062196184;-0.17108703;-0.17105989;0.18247305;-0.17644612;0.36570364;0.23448987;0.043785285;-0.06496768;-0.0024267554;-0.004251352;0.010260357;-0.24477157;0.021160446;0.09939944;0.010618908;0.27394378;-0.25743523;-0.38310775;-0.069561295;0.11275918;-0.019139208;-0.24785233;0.18871064;-0.15913321;-0.20163748;0.127349;-0.082303785;-0.16857891;0.026590843;-0.2416692;-0.04245375;0.02549489;0.1300873;-0.0416707;0.2309672;-0.05605905;-0.21949713;-0.025531018;-0.07943582;-0.34916458;0.3125864;-0.1827857;-0.055723358;0.034673683;0.051093567;-0.44647494;0.07334869;0.02954132;-0.02408537;0.08060789;-0.0540406;0.28218257;-0.17194395;0.25706697;0.24931538;0.08981014;0.24395889;0.05882705;0.07051944;0.031181127;0.20099713;-0.007820464;0.046525557;-0.27572072;0.20184843;0.08707698;-0.1335198;-0.03318805;-0.035356056;-0.12793224;-0.024511745;0.14779213;-0.20409396;-0.12051037;-0.028501004;0.13061199;0.03148367;0.2923359;-0.087854125;-0.19708985;-0.17577407;0.23164442;0.016682817;0.055089295;0.05740912;0.55242306;0.02101711;-0.013841745;0.19894229;0.021107888;-0.40159634;0.29466972;0.036986426;0.07038546;0.048262324;-0.55155545;-0.00056498864;-0.014501402;0.11127936;-0.009109779;0.23959108;0.024186222;0.048044622;-0.056171183;-0.051391076;-0.040255096;0.086785264;0.037507854;-0.1211596;0.49345398;0.08630254;0.17670307;-0.101474844;-0.005835921;-0.45228782;0.0014621691;0.29321298;-0.29238597;-0.0032163875;0.028999256;0.14708036;0.26362512;-0.037536193;0.12720194;-0.18164574;-0.02274781;-0.21860684;-0.047287725;-0.1482521;0.087186866;-0.15170227;0.24212807;0.08232548;0.27993104;-0.18446323;0.4502857;0.1411765;0.34207618;0.28400898;0.32147047;0.21310554;-0.15767154;-0.38611615;0.05869634;-0.28240132;0.1279542;-0.3468918;0.19497363;0.24511166;0.05703891;0.023304086;0.0900344;-0.2943423;-0.19837674;-0.1922004;-0.05043099;0.13780145;0.15330002;-0.30559057;0.0058429264;0.15262002;0.08765997;0.114517674;-0.081436284;0.2292973;0.023407167;0.06583555;0.06254517;-0.13173766;-0.09260472;-0.13128716;0.15084925;0.12965399;0.01817531;0.08911748;0.03559536;0.029159982;0.43044874;-0.011698592;-0.22205873;-0.103510834;-0.07720516;0.09302831;-0.010531087;-0.055627596;0.16930778;-0.015223607;-0.1412162;-0.114737876;0.026833892;-0.056573067;-0.3851198;-0.34606546;-0.10586252;-0.07023838;-0.2559088;-0.028197682;0.21065232;-0.031345673;-0.07942886;-0.043708883;-0.2544754;-0.19348365;0.016116168;-0.09617738;0.16749826;0.005558884;0.13843563;-0.18626694;-0.43943068;0.00015998635;0.20850968;-0.037859835;-0.07528376;0.0013550214;0.018057512;-0.004875623;-0.0043685674;-0.0013146276;-0.1795581;0.009550745;0.27303421;0.061616164;0.19260794;0.08261226;0.09836753;-0.013837575;0.043674152;0.11108459;0.09821581;-0.11731545;-0.020691492;-0.043697085;-0.12138049;-0.27517635;-0.18001994;0.045451146;0.037291225;-0.028449496;0.30562833;-0.11942738;0.3694308;-0.120760195;-0.18659559;0.044360407;-0.12937535;-0.060655598;0.037565447;-0.6985265;0.017503114;0.08299554;-0.013627987;-0.10619574;-0.15942422;-0.2649101;-0.017864417;-0.014189621;-0.026700456;-0.018594736;-0.2077508;-0.025518285;0.14493869;-0.11319634;0.06447148;-0.09228909;0.15361272;0.03287744;0.048515145;0.13768059;-0.0225135;-0.13993345;-0.037978068;-0.17916322;-0.20892084;-0.115535915;0.1268463;0.101278946;0.0019423385;0.04088278;0.08096894;-0.15468901;0.18346208;-0.17451663;0.000968979;-0.052198227;-0.12259836;-0.13527119;-0.27757418;-0.06453068;0.042183165;0.09504291;-0.096422195;-0.07206825;-0.061852545;-0.2302101;-0.16670117;0.11420619;-0.23349428;0.21696407;-0.3304559;0.09066961;-0.147631;0.207915;0.20910165;-0.01978161;0.20862465;-0.3122103;0.06279296;0.046533167;0.10177344;0.12540153;-0.060337316;0.090735495;-0.23647512;-0.00036244886;0.25692335;-0.060684234;0.06160079;-0.33311027;-0.093580306;0.0047136913;-0.11641581;-0.06963684;0.19454265;-0.20485814;0.14665091;-0.015657492;-0.050638217;-0.021160427;0.044748068;0.13435562;0.075178005;0.043428864;0.2631313;-0.17538364;-0.05750335;-0.09318705;-0.045349248;0.15292378;0.19082676;-0.14616255;-0.043376602;0.0025916088;0.10190434;0.21677874;0.008796316;0.04639866;0.064624034;0.14800832;0.044489093;0.03191173;-0.12012104;-0.08135779;0.09051019;-0.019012406;0.09794449;0.2081796;0.19701965;-0.02707791;0.018323516;-0.07469991;0.086054005;0.12334512;0.06855416;0.07508884;-0.12327411;0.06956273;0.18451484;0.12882748;0.0759628;-0.65401375;0.28156623;-0.028422302;-0.048027173;0.28595278;0.032184474;0.11549205;-0.051363453;0.086838394;0.16318376;0.45383334;-0.051741555;0.12539488;-0.2024415;0.014937901;0.08894078;0.19516636;0.03729276;0.06386664;0.21220474;0.305384;0.07370275;0.02835285;-0.2773756;0.10926929;-0.13318259;-0.18484834;-0.075239606;0.20054427;-0.061039697;-0.0047365697;-0.16447508;-0.045708437;0.04503795;-0.11362748;0.22852434;0.1441994;-0.11982737;-0.14712542;0.05600639;0.2417992;0.04251786;-0.008380638;0.26363468;0.15757577;0.14582181;-0.14636524;-0.3107303;-0.18546157;-0.024667418;0.18401168;-0.04387793;0.119073205;0.038667105;0.16535999;0.008886915;0.05899808;-0.22967657;0.2986888;0.21391271;0.13865972;0.22484513;-0.16756666;-0.29056737;-0.078868076;0.23177546;0.20535442;-0.05822656;-0.14082159;-0.34562573;-0.20728621;0.13780837;-0.05937288;0.072366275;0.050789192;-0.024934752;0.2120298;-0.02134606;0.31813112;-0.043202125;0.16118076;0.4433835
-0.059357893;-0.06956145;0.08152787;-0.29884014;-0.34411836;0.23459433;0.1318589;0.05599634;-0.007439249;0.13833328;0.0377909;0.1463451;0.031186558;-0.14597805;0.15237272;-0.06374371;0.24890791;-0.10275873;0.09024863;0.24977154;-0.046952825;0.08602441;-0.06323705;0.05377457;0.0473891;0.08594358;0.17285259;0.302978;0.03573729;0.09150084;0.17274384;0.02478055;0.11371989;-0.19427712;0.07562059;0.22209427;-0.26371667;0.31709182;-0.2031823;0.11489606;0.28043485;-0.109908484;0.07285864;-0.028043855;-0.11537916;0.12883462;-0.008092786;-0.16921215;-0.21899174;0.15761477;0.042705227;0.17047814;-0.31362996;-0.20340118;-0.017760864;-0.2358958;-0.2114583;0.10171485;-0.13043351;-0.092185974;-0.02313232;-0.3246557;0.092451446;0.13760173;-0.14058731;0.03350548;-0.03480645;0.061337646;-0.0013623039;-0.08999639;-0.04025501;0.03835415;0.22254997;0.22383346;0.08433932;-0.3680667;-0.3383819;-0.06312925;0.00069081597;-0.038936675;-0.17031102;0.16115656;0.019081272;-0.10193433;-0.14399354;0.12446151;0.058999978;0.011322814;0.21011326;0.11098171;-0.027655967;-0.04164261;-0.11768601;0.0028268893;-0.118519455;0.13571209;0.06595344;0.22011645;-0.034036987;-0.10560671;0.07267075;0.083123825;0.11258478;-0.13192227;-0.32046363;-0.20512657;0.034492545;0.1581531;-0.13916081;-0.6066925;-0.01212042;-0.08409735;0.09316962;0.10387566;0.007676735;-0.0015008434;-0.02629321;0.15991949;0.18913107;0.16306964;0.20781988;0.072114885;-0.7242945;0.1615184;-0.08212002;-0.069399506;0.15429789;-0.36266398;0.28802356;0.2061088;0.06710419;-0.279769;0.200056;0.25387302;-0.094437376;-0.07199733;-0.027785223;0.02363534;-0.17492425;0.2699325;-0.10734123;-0.2850772;-0.13302536;0.21831195;-0.077074796;-0.06909267;-0.035775863;-0.38191187;-0.073442504;0.041081384;-0.16432935;-0.0016540985;-0.20344374;-0.1067478;-0.28541422;-0.0470096;0.010665046;0.12259116;0.07620104;-0.123789035;-0.16057457;0.08465548;-0.0961225;-0.46810943;0.22145797;-0.07043548;-0.059795562;0.26938686;0.08357222;-0.21563902;-0.029698031;0.11849976;-0.061032582;0.12056914;0.10604783;0.23220459;-0.1577588;0.14657372;0.22900848;-0.041073736;0.04612977;-0.14536183;-0.06598226;-0.23823136;0.069657706;-0.37290606;-0.0720677;-0.35497236;0.18992117;0.23482956;0.09250948;-0.028316533;0.13348404;0.1838066;-0.14561568;0.04444265;0.043658268;-0.05067728;-0.047108028;0.0013031948;-0.075374514;0.18982103;0.10107689;-0.28412157;0.15881494;-0.043507386;0.31378356;0.06260365;0.09081167;0.3758844;0.09504497;0.106673345;0.08342158;0.0868075;-0.0393762;0.3225283;-0.21030986;0.24429433;0.05120426;0.116442375;0.20270737;-0.040828414;0.2985561;-0.044811584;0.115774184;0.14145657;-0.010711947;0.038866512;-0.084216654;-0.15370592;-0.11938282;-0.15475966;-0.110750124;0.22752877;0.081554316;0.20561393;-0.11302608;-0.08331068;-0.26733473;0.10480065;0.02325453;-0.29094252;0.17115335;0.22912075;-0.08535824;0.088152386;-0.06282944;-0.037835106;-0.45631757;-0.021667482;-0.06624375;0.19565406;-0.07083614;0.08752896;-0.54858565;0.40247104;0.01714052;0.29870033;-0.15786338;0.12896156;0.004401931;0.15430166;0.121192664;0.27607578;0.102317326;-0.037059978;-0.55279;-0.13360927;-0.049882818;0.18570587;-0.013002173;0.032439075;0.101232514;0.11139169;-0.014639462;0.062484182;-0.0260422;-0.039593183;0.19334877;0.034274295;0.09298607;0.069685;-0.10168704;-0.090967864;-0.12438228;0.057198472;-0.07508301;-0.097107954;0.20902005;-0.114655234;0.021204773;-0.18726876;0.19593425;-0.12454558;-0.20976631;0.15839052;0.024409927;-0.12083397;-0.004766872;0.33140615;0.119010784;0.40119076;0.07592125;-0.17004181;0.0057697115;-0.2831674;0.17846262;0.01956098;-0.06974456;-0.077893555;0.023776952;-0.2359224;-0.18306874;-0.1825197;0.13201319;-0.3899002;-0.27673322;-0.11969116;-0.018304756;0.09154859;0.067573234;0.2473528;-0.03187068;-0.08446714;-0.12822025;-0.27051932;-0.10941604;0.023876641;-0.15678573;0.203141;-0.16945373;-0.16212587;0.24329288;-0.16043869;0.011134307;0.084728435;0.021065095;0.005726048;-0.1784026;-0.08197634;-0.13972;-0.08999543;0.027757881;-0.048053242;-0.052787703;0.3778069;0.25628078;-0.1153763;0.19321804;0.26334432;0.08655019;-0.049493372;-0.007015493;-0.039140474;-0.056211796;-0.17473032;0.082534835;0.14099799;-0.27206337;0.09132491;0.10285494;-0.040801514;-0.03301317;0.054548446;-0.08991374;0.16987112;0.08172662;-0.08943565;-0.06275864;0.07121884;-0.13189767;0.13280037;-0.29272068;0.15820016;0.35597074;0.0278413;-0.17154689;-0.011703409;-0.0073680496;-0.15060836;-0.16624449;0.078181006;-0.20016421;0.07185945;0.11897739;-0.028485296;-0.09699606;0.2352611;-0.07763148;0.084388964;0.05957121;0.16362008;0.027057743;-0.118488304;-0.10080782;0.2533189;-0.1696265;-0.19052999;-0.11635618;0.1888439;-0.110388964;-0.061529394;0.027671453;-0.12581323;-0.14786164;0.36119965;-0.15885247;-0.0489538;0.026612075;0.06981067;-0.10124095;-0.33362398;-0.09850504;0.1119412;0.035323527;-0.23494752;-0.12282446;-0.14747925;-0.1045736;0.017260283;0.25787455;-0.19624437;0.15482704;-0.2366231;0.10537736;-0.16532113;0.18483526;-0.028992163;0.006066726;0.38536355;-0.032080762;0.10791263;-0.041395895;0.040249996;0.18399651;0.052635804;0.12358576;0.06704583;-0.06720251;-0.027200606;-0.15077817;-0.07170851;-0.1629507;0.10632835;0.17736238;0.087706804;-0.038331244;-0.16964029;-0.14386757;0.121572256;0.027473545;-0.23315223;-0.24371737;0.04200344;0.016329154;0.107549496;-0.08398428;-0.021819059;-0.00768307;-0.19671851;-0.23329131;0.088013686;0.13348691;0.18346947;-0.012953393;-0.2121764;-0.055603947;-0.1566169;-0.061210576;-0.037740055;0.02484039;-0.105398946;-0.14388007;0.031202398;0.15538453;0.06761723;-0.12541093;0.121030845;-0.06952238;0.025699323;0.091406435;0.10571181;0.0017103496;0.007136356;0.11800051;0.022443747;0.19545595;0.06951885;0.28558785;0.29554993;0.17924324;0.041634493;0.14292294;0.0076652295;-0.6514062;0.16333888;0.14507096;0.084335834;0.006672268;-0.12094485;-0.17808264;-0.32169947;-0.23568799;-0.025618099;0.22859891;0.10214635;0.017692361;-0.19772881;-0.026088987;0.16673276;0.25428644;-0.23550947;0.19085327;0.12577105;-0.015489831;0.21615008;0.0465813;-0.22040613;0.08064002;-0.1619318;-0.20254456;0.19546479;0.0130461035;-0.15920994;-0.072516285;-0.14977238;-0.02967454;0.15355581;0.035023592;0.09899977;0.18882234;0.021471066;0.024551202;-0.23401915;0.2452028;-0.004452174;0.09030594;0.33329374;0.26910344;0.19911231;-0.3950155;-0.3526897;-0.07279444;0.08344732;0.020416282;0.014280534;0.35487577;0.15714909;-0.0007319718;0.053602763;-0.14435086;-0.2784933;0.26943928;-0.016647149;0.033691306;-0.045061965;-0.04311384;-0.23969054;-0.008627102;0.22679766;0.16597418;0.04993443;-0.13989824;-0.010568975;-0.22181854;0.3189146;-0.00968012;0.35905057;-0.04465513;-0.047268547;0.121166885;0.028344441;-0.010595535;0.0022787468;0.06912839;0.14715788
-0.12520231;-0.16029327;-0.053740755;-0.052729033;-0.32257363;0.4223377;0.09653562;0.07548702;-0.11080382;0.07360518;0.24707583;-0.04649843;0.2751511;0.13915052;0.24685444;0.057931483;0.0033773873;0.15236264;-0.079850726;0.2642424;0.007850373;0.05606035;-0.00027046812;0.025807764;-0.26098076;-0.114533976;0.18717878;0.27198836;0.2254706;0.2689529;-0.1248045;0.31002265;0.08121152;-0.03586264;0.2079818;0.15082072;0.025209524;0.08296646;-0.01845328;0.10680767;0.022127993;-0.17414637;0.16136983;-0.00412011;-0.08637369;0.08455419;0.25968695;0.09411058;-0.22043571;-0.06868374;0.25153732;0.11827481;-0.39921904;-0.19216762;0.048821963;-0.0651966;-0.13256133;-0.06105076;-0.028146321;-0.3528877;-0.02940121;-0.31012022;-0.25002748;0.0047746943;-0.08608717;0.020877672;-0.032480076;-0.1216716;-0.11573833;-0.121217854;-0.30215958;0.032062266;0.1136991;0.43046752;0.029092796;-0.23975927;-0.55968183;-0.0036105753;0.13208656;0.1068267;-0.18101059;0.21776098;0.029613325;0.068534605;0.20010674;0.013921106;-0.17117012;0.069749914;0.099057;0.12401863;0.29011235;0.27899188;-0.07106849;-0.086362734;-0.24622329;0.14621009;0.24101272;-0.12778682;0.100073166;-0.2253099;-0.014891502;0.2720645;0.26057735;0.008360128;-0.40781903;-0.23810996;-0.019024163;0.38389865;-0.06470384;-0.36096454;0.058929373;-0.07545984;-0.07033401;0.040171795;0.0004725455;0.031275254;0.11755447;0.009833246;0.16567619;-0.0292061;0.2653611;-0.11495447;-0.6465825;-0.03649911;-0.22846444;0.1262729;-0.04230343;-0.28351554;0.26126292;0.09340937;0.18415864;-0.47589952;0.10670728;0.048601482;-0.11182193;0.05240086;0.11955273;0.04632013;-0.2439539;0.1086992;0.010568973;-0.15392151;-0.1888892;-0.05256962;0.056371424;0.060407035;-0.09669729;-0.3590928;-0.07674372;0.10205409;-0.37303218;-0.21075909;0.045771576;0.017357074;-0.5507472;-0.051712874;0.08067792;-0.10596738;0.39530572;-0.087494604;-0.028947335;-0.024890823;-0.09800373;-0.4105104;-0.020514645;-0.13570966;0.055841222;0.21248627;0.049563874;-0.05814153;0.02675154;0.10155252;0.21153237;0.1498374;0.036600698;0.35570174;-0.16427661;0.07331323;0.16428475;0.28093246;0.31810686;-0.03973094;-0.2946494;-0.0074949916;0.061615374;-0.23995109;0.05188635;-0.22894593;-0.05539063;0.05915348;-0.13490613;-0.008876453;-0.18539119;0.056735855;-0.0946449;-0.2534288;-0.16725302;-0.04224429;0.10550498;-0.10456502;-0.03584703;0.1561274;-0.018992407;0.12399651;-0.22912723;0.075822674;0.21405733;0.13011901;0.030129936;0.26544788;0.14307116;0.12559943;-0.042319763;0.014866109;0.16172266;-0.0055896654;-0.05640148;0.22223918;0.087262504;-0.038407166;0.2494651;-0.00041383813;0.15395051;-0.34983888;0.14646904;0.17330237;0.11463904;0.15654731;-0.4250308;-0.031920772;-0.023913367;0.005219654;-0.19022635;0.16118646;-0.22036515;0.19540356;0.05355483;0.03530768;-0.15049244;0.021642173;0.270718;-0.31212708;0.039602056;0.24459365;-0.049875725;-0.2316539;-0.0650697;-0.0721194;-0.33266798;0.049721718;0.09791511;0.14636034;0.016148182;0.30800253;-0.48523712;0.12102962;0.3558116;0.3614674;0.09519366;-0.07382204;0.011203823;0.03221328;0.11231968;0.18653801;0.23651019;-0.11736723;-0.6700423;2.1537086e-05;-0.15553676;0.22871456;-0.013267885;-0.096364595;0.15568371;0.07833418;0.056245226;0.091724105;-0.08731058;-0.11469334;0.23926362;0.3164692;0.035388246;0.02603901;-0.21846996;0.058353744;-0.25529206;0.0489701;0.052579973;-0.14110717;0.2136849;-0.23049337;0.10104141;-0.03581943;0.01579516;0.17814627;0.039835114;0.09144972;-0.03965281;0.1522328;0.058247194;0.21919456;0.30436176;0.41490224;-0.052618966;0.03558903;-0.101127364;-0.15547408;0.22525889;-0.051119037;-0.2270616;0.10320505;0.092794724;-0.28262457;-0.2508232;0.049329784;0.19987783;-0.34424236;-0.36882436;-0.2885308;-0.038260534;-0.09430107;-0.12838766;0.19820465;0.2888923;-0.07215482;-0.012021258;0.0891286;-0.40615517;0.40277082;0.23613946;0.13870269;-0.14879411;0.2607307;0.17734194;-0.06836869;0.2164977;-0.03504332;-0.121458866;-0.093830235;0.19687517;0.025533978;-0.0123313675;0.06333888;-0.23849137;0.036608532;-0.14248326;0.21971573;0.31419954;0.22149679;0.07278984;0.17626947;0.34401247;0.13125697;0.14380097;-0.3029685;-0.15359499;0.12847008;-0.036779106;-0.05799251;-0.06368983;0.003097064;0.08837469;-0.31857595;0.024390487;0.15407085;-0.011782981;-0.11585853;0.019123701;-0.038079016;-0.073816895;-0.034327842;0.049672328;-0.013183448;0.03610014;0.18032396;0.18951018;0.29640156;-0.025114464;-0.07023439;-0.044225007;-0.18429807;-0.3226309;0.20250313;-0.07356921;-0.12301696;-0.0023164225;0.13350733;0.05245393;0.18206955;-0.34644064;0.19461463;-0.041391417;0.06688949;-0.0060004946;-0.17678094;0.038343932;0.21486832;-0.106518745;-0.010200534;-0.20972292;-0.23925063;-0.14265567;0.101958215;-0.16135125;-0.18390678;-0.2790557;0.25404572;0.07764065;-0.07421713;-0.28111315;0.2933583;-0.11399805;-0.32796806;0.042953525;-0.11704901;0.03567867;-0.12406676;-0.26949045;-0.1011907;0.19725825;0.1852142;0.021603487;0.06927412;-0.07480062;-0.03689132;0.15386644;-0.2036617;-0.07199739;0.014157847;-0.15667874;0.20789316;0.20693706;0.17082998;0.119401276;-0.053856973;0.02023982;-0.04290506;0.15393178;-0.06959875;-0.11189709;0.11373106;-0.30490175;0.1434596;-0.015234205;-0.021577036;-0.0152260875;-0.115116775;0.047824696;-0.036487624;-0.25030214;0.013693035;-0.095718466;-0.42476553;-0.025974842;-0.12823227;-0.0040590055;0.04427239;-0.09515088;-0.024352556;-0.050146297;-0.047446344;-0.35354704;-0.08964789;0.2232972;-0.07502099;-0.13520555;-0.029812586;-0.10077778;-0.09730033;0.10365847;-0.030017352;0.087221205;-0.15321805;-0.1787134;-0.046135757;0.28589773;0.040741358;-0.11834645;0.07605526;0.028379347;0.07817976;-0.0400312;0.4159314;-0.038249932;0.17273055;0.22336854;0.09959656;-0.23029591;0.14694762;0.26152506;0.08822533;-0.2638446;-0.04409569;0.18297507;-0.019276235;-0.35879245;0.025669847;0.14033161;0.019650076;-0.12556787;-0.19932964;-0.042441547;-0.26979744;-0.080444425;-0.009181556;0.19795157;0.18312323;-0.03818926;-0.13321309;0.116127245;0.16030371;0.3732566;-0.19614817;0.119975984;-0.114334874;-0.05963338;0.08817912;-0.024376389;0.20827922;0.09201281;0.103673674;-0.11139025;0.06227898;0.08578937;0.027802333;-0.02136644;-0.09492941;-0.10754498;0.2062817;0.1510594;0.05600809;0.064207606;0.19470833;-0.023831567;-0.08966115;0.20010822;0.042224824;0.014339182;0.33511978;0.2407986;0.20741352;-0.25843975;-0.4034157;-0.075076066;0.16735817;0.31241286;0.068798155;0.33642295;-0.10047681;-0.15347406;0.080072865;-0.029192498;-0.099401645;0.3177298;0.151735;0.0023286787;0.0524223;-0.032868117;-0.20693819;0.05062143;0.13945897;0.021821618;0.09022881;-0.018247923;0.096713744;0.22521235;0.0178781;0.025012609;0.24858665;0.13058525;0.021847308;0.09971244;0.31574225;-0.05560083;0.13432139;0.10196716;-0.15707284
0.13088073;-0.20977114;0.05535622;0.22101991;-0.079867855;0.37254104;0.0068878606;0.083803706;0.020525929;0.11679331;0.37009838;-0.0072683515;0.23391819;-0.11193766;0.2589731;-0.03553115;0.0076427376;0.34644797;-0.21335246;0.13956314;0.11072686;0.15492572;0.28657135;-0.008171287;-0.19493988;-0.09854298;0.08589888;0.16191375;-0.045251217;-0.00085854257;-0.27557185;0.17162079;0.22157618;0.068962105;0.1166733;0.093303494;-0.26596308;0.12235925;0.21509077;0.039947383;-0.008380316;-0.04683431;0.27092603;-0.19198611;-0.44859555;0.05807887;0.1395595;-0.044699047;-0.49336785;-0.36490858;0.13808084;-0.08903758;-0.4442051;-0.10762212;0.0018363682;-0.045925576;-0.20406084;0.15804107;0.23724538;-0.11477886;-0.0028322493;-0.24145676;-0.1339396;0.09959454;-0.032972038;0.086224504;-0.011552122;-0.033096675;0.08185013;-0.056793034;-0.07304601;-0.062684216;0.09467267;-0.03578274;-0.114136875;0.03022673;-0.34746456;-0.30223703;0.3098571;0.13204122;-0.09703542;0.32966056;0.18976654;0.056582592;0.06323037;0.045942158;-0.016881566;0.022805281;0.14927782;-0.042448476;0.1746096;0.14020424;-0.020235147;-0.20908552;-0.27018481;-0.12980632;-0.109742954;0.04941213;-0.08716682;0.11092283;0.1738278;0.17851083;0.16715999;0.010554728;-0.49033517;-0.13180149;-0.05581642;0.35364136;0.059540514;-0.07428404;0.14439015;-0.007027503;-0.12029857;-0.27227458;0.13468781;0.07265508;-0.110372044;0.07456339;0.044905666;-0.058978114;0.29173157;-0.032894682;-0.49681386;-0.099523045;-0.23707993;0.065275125;-0.00038792408;0.28283727;0.31383264;-0.012089569;-0.016667748;-0.2392846;-0.028935058;0.042400207;-0.067449085;0.26364905;-0.016164042;-0.03549256;-0.20323358;0.2970576;0.10311468;-0.07867042;-0.019619681;0.054957908;0.0874063;0.218171;-0.24619205;-0.4378479;-0.28073686;-0.022751693;-0.21510863;-0.12221789;0.23958384;-0.07147717;-0.36615917;0.14717995;0.026982382;0.06439965;-0.0655088;-0.2587853;-0.116080195;0.106537074;-0.10332963;-0.5235348;0.071665734;-0.14348318;0.18332466;0.11956815;-0.17207143;-0.21772859;0.09419184;0.13422292;-0.09199464;0.08888752;0.16938521;0.2936793;-0.1231557;0.19948311;0.19756988;0.23053324;0.1905353;-0.016531909;-0.3533621;-0.26811123;-0.0336729;-0.2588771;-0.12612762;-0.1909847;0.0793912;-0.12270821;0.009485479;-0.081712894;-0.0474372;-0.37883994;-0.054582525;-0.07282373;-0.051876534;-0.04455217;0.31869283;-0.13600785;-0.13745853;0.30162778;0.0076731904;-0.07649684;0.075295895;0.02561281;0.6058288;0.011749167;0.24103452;-0.02256451;-0.037785687;0.12142924;-0.10292677;-0.062790535;-0.045969523;-0.07622293;-0.26493624;0.1453095;-0.38906845;0.097476214;0.45633897;0.038135797;0.15424357;-0.33941245;-0.1343487;0.053593077;0.31764403;-0.1484384;0.016389258;-0.021099892;0.05902201;0.11281348;0.02482035;-0.031317145;-0.25436836;0.055606566;-0.018725526;-0.11666281;-0.09079615;0.007344486;0.054693867;-0.34480968;0.1848923;-0.07539174;-0.34358487;-0.014935532;-0.34264275;0.013871415;-0.35258016;0.054262307;0.2229263;0.34553638;0.097741365;0.13739684;-0.014519465;0.050625607;0.21741153;0.33337155;0.04003971;-0.15899527;-0.015643736;0.21692437;0.20343836;0.24493286;0.3284221;-0.084579706;-0.5387302;0.03531705;0.21534277;-0.06689936;-0.055819843;-0.075012766;0.26436523;-0.023718419;0.14821601;0.18007359;0.09581708;0.04317996;0.124568164;0.18194126;0.087894484;0.10663001;-0.032215513;0.17577654;0.105980664;0.33223152;-0.20266242;-0.28872973;0.01972507;-0.31494442;0.17218012;-0.07767488;0.18115847;0.13407658;-0.2542407;0.010012477;-0.15804112;0.44105676;-0.09296142;-0.050836537;0.116789244;0.3277634;-0.05469246;0.0044477973;0.10241243;-0.20240633;0.20903517;-0.36194742;0.022968134;0.14405248;-0.027406724;-0.32858422;-0.30356544;0.008143186;0.18645501;0.11666602;-0.08556739;-0.266504;-0.21184109;-0.050179172;-0.054166395;0.184995;0.21035676;-0.048032302;0.14903295;-0.09970683;-0.21549776;0.19212857;0.3593194;0.08021807;-0.18337758;0.06017743;0.11424576;-0.03459401;0.14761482;0.056329276;0.11118932;-0.081378005;0.08603053;-0.33824405;-0.07941938;0.2181092;-0.051245276;-0.13339469;-0.27585918;0.060716245;0.2583172;-0.031033363;-0.31217965;0.30637884;0.2163314;-0.0537003;-0.006504759;-0.2507025;-0.15443917;0.06911351;0.012096014;0.04413795;0.35680997;-0.1776747;0.073191255;-0.3960374;-0.06024743;-0.13762267;0.1007956;0.16493876;0.20205384;-0.43698928;-0.061016288;-0.46445304;0.07480497;0.03362946;-0.12025156;-0.15905909;0.2751323;0.17855306;0.21381347;-0.076840915;0.107213065;-0.2931274;-0.41717428;0.28973368;-0.14424337;0.062243555;0.1328551;0.0760635;0.022415498;0.028766792;-0.23933136;0.11841516;0.07086069;0.09374786;-0.042655956;-0.18400075;0.10995211;0.16958365;-0.22113308;0.21264355;-0.17784867;-0.09738747;0.02055906;0.05629907;0.0654906;-0.042469617;-0.19446592;-0.015078464;0.10540329;-0.052485194;-0.022788418;0.07208928;-0.13025446;-0.3623156;-0.14794569;-0.0123431925;0.21881853;-0.026019214;-0.21069568;0.08871181;-0.02367574;0.17794882;0.4729668;0.085908316;0.03414272;-0.0139709925;0.13301438;-0.026522717;-0.1350459;-0.06135106;-0.058472104;0.2236349;0.1643859;0.14142126;0.07514783;-0.053402796;-0.028447093;0.10389725;0.008717792;-0.14278717;0.12375472;-0.18186642;-0.09511894;0.19878411;-0.06731259;0.13798939;-0.04888188;0.11025001;0.20495467;0.009518405;-0.20796233;-0.05855285;-0.02221904;-0.12532414;0.01266056;-0.13970938;0.23133525;-0.19370742;-0.36313242;0.09163543;-0.047628652;0.17334992;-0.23627584;0.052781377;0.07718062;-0.4311205;-0.23881854;-0.09709501;-0.10961026;-0.16845293;0.22280756;0.002887872;0.008215136;-0.115698;-0.24739589;0.021756763;0.22179697;0.2335089;0.014204635;0.1462411;-0.0050682304;0.021406049;0.0785376;0.09239521;0.095031224;0.11114856;0.27432168;0.2713764;0.020563237;-0.041859057;0.11903822;-0.006093898;-0.046743657;-0.65959656;0.1230326;-0.0819631;-0.33671674;0.11342885;0.13720804;-0.35885692;0.01919527;-0.14439712;-0.17865351;-0.3269278;0.11872567;0.23239219;0.06832957;-0.033564363;-0.17323369;-0.1312355;0.06661318;0.33428234;0.1197827;-0.14541294;0.03798573;0.079111114;-0.27417237;-0.18879047;0.085382976;0.09264323;0.013275603;-0.0055834185;-0.046119485;0.008792169;0.057977278;0.10606712;0.013782767;0.049494952;-0.016617065;0.16348554;0.065089844;-0.0058193747;0.19722527;0.15715721;-0.019862302;-0.15453298;0.097269304;-0.010270863;0.09347398;0.35819435;0.06504959;0.03919144;-0.029414732;-0.3822581;-0.039396267;0.18241702;0.2447173;0.055629876;0.23886953;-0.16201086;-0.13809113;0.38053346;-0.056792624;-0.21437024;-0.055813547;0.45911238;0.08171727;-0.06673929;-0.15767819;-0.21313553;-0.013185656;0.10056699;-0.10123291;0.13684459;0.16896136;0.10041517;0.35209128;-0.05670178;0.080404475;0.18026088;0.050457697;0.07238544;0.12594666;0.33956528;-0.12532161;0.10668204;0.20656227;-0.008718798
0.45813912;-0.20988275;0.18378729;0.051978137;-0.086622424;0.1633089;-0.03552206;-0.23312497;-8.269443e-05;0.2648672;0.41168776;-0.02506404;0.2519177;0.043712754;0.019658912;-0.22749168;-0.0061960616;0.06851934;-0.014035797;-0.040740367;-0.30368903;0.14960882;0.31589317;0.18638532;-0.21362919;-0.055028047;0.28511727;0.38653937;0.01936379;0.285607;-0.109734274;-0.093258135;0.24840316;-0.009452292;0.24163415;0.024720905;-0.1621612;0.20394197;0.2807625;0.048467804;0.11796003;-0.19598514;0.24687614;-0.15711653;-0.087417856;0.26831168;0.17166646;0.19717333;-0.2783632;-0.3393602;0.022625063;-0.3025528;-0.08027514;-0.2400357;0.043747526;-0.013894313;-0.0853244;-0.06787809;0.19842905;-0.07706529;0.032664903;-0.2507721;-0.09616107;-0.06650434;0.1517971;0.2138484;0.09538224;-0.11706494;0.093059234;-0.19680418;-0.11091811;0.020530654;-0.09903895;-0.13399269;-0.1907919;0.12516925;-0.23204495;-0.114566535;0.020083083;-0.014187387;0.055584114;0.115271434;0.19408102;0.1415719;0.17856431;-0.053837053;-0.054472428;0.31036457;0.16698077;0.0791415;0.110661864;-0.29042467;0.26786822;-0.39689976;-0.35891065;0.31672248;-0.17042848;0.08917731;0.1504848;0.047412947;0.19385871;0.100895986;0.41273072;0.16803733;-0.4519701;-0.07400243;0.22743377;0.069187716;0.064439386;-0.015533686;0.023479888;-0.04128788;-0.18226682;-0.20743594;0.060180172;-0.054670267;0.20091146;0.12238385;0.12854733;-0.14517476;0.13257743;0.016887879;-0.56822515;-0.05769957;-0.09579802;-0.028911859;-0.14049217;0.184085;0.33371592;-0.21861345;0.13315958;-0.2914025;0.2345398;-0.13356096;0.08116797;0.28017184;-0.22061859;-0.1218407;-0.064683095;0.31056085;0.40125605;-0.23378852;0.022600288;-0.13840735;0.05670192;-0.058090284;0.08080153;-0.26901948;-0.068972595;-0.14684899;-0.06224157;0.039857257;0.057347316;-0.043404825;-0.35102123;-0.03072362;0.00035208475;-0.08876109;-0.1108674;-0.31358132;-0.04113715;0.117868274;0.041045006;-0.45851445;-0.025986902;0.054889772;0.10093289;-0.11136244;-0.120438926;0.10758253;-0.0028222569;0.21665053;0.05552532;0.18885322;0.13365127;0.029018877;0.015617508;0.27536246;0.030621637;0.26506838;0.16747865;-0.08819043;-0.18598603;-0.20605397;-0.035702184;-0.1451969;0.024724627;-0.23713692;-0.11689978;0.0034575087;-0.022659702;-0.023083054;-0.17041036;-0.30681574;-0.018557755;0.08772158;-0.17771102;-0.17382397;0.26335135;-0.1429176;-0.08773804;0.26088324;-0.040433716;-0.028720114;0.35676733;-0.10255705;0.18801557;0.20852558;0.1587415;-0.32103282;0.087212786;0.021710606;0.030259881;-0.07474086;0.015067048;-0.113956854;-0.071834974;-0.052442215;-0.32024163;0.015404789;0.16923016;-0.16774489;0.12949133;-0.34093997;-0.0999241;0.15765163;0.1917531;-0.46332762;-0.0030437524;-0.1187873;-0.10780642;0.24205911;-0.08466322;-0.13039438;-0.06017004;-0.04123192;-0.04180255;-0.027180536;0.062379878;-0.018184602;0.16134366;-0.11290746;0.16811928;-0.29871053;-0.12507994;0.2003727;-0.10705723;-0.040931698;-0.30251184;0.00049021846;0.40316415;0.3719359;0.07590448;0.2976425;-0.20796987;-0.02839175;0.34867918;0.19232821;0.053469736;-0.14987984;0.056025717;0.085246556;0.05390612;0.2153749;0.17752442;-0.12805626;-0.17344296;0.054095455;0.22293387;-0.20517585;-0.18588813;-0.058797713;0.13568422;0.095119156;-0.06833332;0.16178074;0.12361441;-0.073173225;0.014824213;0.32810703;0.10672249;0.06336717;0.0816883;-0.120202065;-0.029051915;0.113704726;-0.2740665;-0.17657375;0.14787611;-0.20385106;-0.00840386;-0.1465072;0.23212099;-0.03247329;-0.3791627;-0.065616965;0.10035603;-0.018665234;-0.096979305;-0.109697565;0.1736437;0.13010263;0.015603927;0.06071621;0.16243884;-0.41653475;0.09613376;-0.32442603;-0.069228284;0.036568925;0.14578494;-0.15110452;-0.14834864;0.028660592;0.038348097;0.0876183;-0.036476318;-0.19662517;-0.20846099;0.016656402;-0.10639754;0.28564218;0.30010825;0.16615751;0.11779309;-0.19658284;-0.38620996;0.0708197;0.2503269;0.024237622;-0.09945489;0.30197605;0.12285239;-0.13906308;-0.09168562;0.061735984;-0.102903545;0.05679555;0.08052298;-0.37599406;-0.18614446;0.06897423;0.091725715;-0.33738935;-0.26732376;-0.21207319;-0.03992301;-0.31408578;-0.05005849;0.1494057;-0.3826404;-0.056740325;0.023353847;-0.15209466;-0.047281433;-0.10188408;-0.07672192;0.1321518;0.073042184;-0.0259035;-0.07270934;-0.39679733;0.12668209;-0.0839484;-0.04659912;0.2850852;0.16702768;-0.30683738;-0.11416415;-0.13935082;-0.04352041;-0.32335556;-0.050493944;-0.09695456;0.013186228;0.19520178;0.24598083;-0.089630574;0.11712345;-0.3430191;-0.20793745;0.3074853;-0.017450951;0.03561975;0.44883785;0.29450646;-0.06425762;-0.15862337;-0.018161207;0.17965695;0.2726962;0.21937159;0.0917657;-0.18349737;-0.036865912;0.14269683;0.14393353;0.2649592;-0.29534745;-0.25093222;0.0843938;-0.034814496;-0.030442169;-0.33766055;-0.18313324;-0.24073075;0.1597458;-0.01685381;-0.030153785;-0.021273054;0.027117752;-0.29149133;-0.28780988;0.077201016;0.12468734;-0.008880475;-0.38561276;-0.070883095;-0.08841589;0.07088475;0.2736571;0.15246299;0.016102817;0.03401741;-0.038870044;0.19302991;-0.30497274;0.026487421;-0.08478405;0.24865887;0.13163878;0.17205897;0.11030549;-0.030310197;0.046323348;0.07755326;-0.096956864;-0.055472225;0.17062572;-0.232472;0.1543266;0.2715162;0.12383383;0.23320176;0.081169546;-0.0044268407;-0.06398087;-0.046337068;-0.051579442;0.013966151;0.0020429397;-0.06838051;0.053617716;-0.029638126;0.2586512;-0.23660132;-0.44567195;-0.29744744;0.20839766;0.37390298;-0.03541275;-0.03752664;-0.0074719633;-0.26588356;-0.16570061;-0.051373146;-0.20064174;-0.31624442;0.07712963;0.06879281;-0.14864534;-0.3154653;-0.19764861;0.21234353;0.045250002;0.38652214;-0.08353368;0.07885357;0.12902516;-0.21002743;-0.0145749645;0.032617502;0.049432103;0.13659503;0.2382669;0.25691268;0.13198465;-0.03365429;-0.22361135;0.22958133;-0.054003198;-0.65293115;0.047911424;-0.20228778;-0.3580505;0.102084234;0.12960956;-0.24488439;0.16460817;-0.26305747;-0.23048225;-0.19480689;0.27082226;0.14942563;0.23571105;0.03729894;-0.011964601;0.20919311;0.053479098;0.31149933;0.15979037;0.13137332;0.13572237;-0.10089694;-0.06222584;-0.090295754;0.18577099;-0.025064183;0.034624204;-0.23225583;0.07371195;0.1522436;-0.20858823;-0.015503497;-0.17268305;0.08873735;-0.2400286;0.04949396;0.13922049;0.059493963;0.0623864;0.2549265;0.013423445;-0.42081022;0.08265727;-0.01433705;0.14773247;0.017908232;-0.022163082;0.027207712;-0.005015661;-0.17462605;0.03801193;0.0836508;0.13122319;-0.22186336;0.36283737;0.15762609;-0.074849874;0.12755577;0.018367985;-0.24072881;-0.11196599;0.4607176;0.03852445;0.26073387;-0.18888442;-0.2416242;-0.5532318;0.12345892;-0.15703037;0.17857811;0.2625466;0.18407191;-0.06331122;-0.08714121;0.21683782;0.057336964;0.06686221;-0.13493945;0.042218667;0.047035042;0.058763083;0.21079277;0.15762521;0.0723369
0.31554833;-0.12059113;-0.14474581;-0.04483817;0.2808695;0.062171064;-0.008784253;0.02595158;0.13522565;0.13129105;0.13843614;-0.18938906;0.17930838;0.25479424;0.12585823;-0.3521335;0.02606624;0.11440258;-0.0047307364;-0.10411456;-0.24829833;0.25910577;0.33560988;0.24517077;-0.16361302;0.12539864;0.09117035;0.45061305;0.045821253;0.2188197;-0.4342349;-0.06034435;0.14796326;0.08085149;0.016711457;0.10256621;-0.061938975;0.05208701;-0.04161504;0.10376394;0.15323755;-0.006603045;0.28184277;0.10088012;0.004083957;0.2014242;0.39148647;0.18877101;-0.030044284;-0.2513899;-0.07348807;-0.22214046;-0.26971042;-0.31286517;0.03512865;0.07620094;0.054173894;-0.03693416;0.14919157;-0.0047291075;0.020901522;-0.14764175;-0.051531564;-0.1743794;-0.14928631;0.117817484;0.05532407;-0.36032256;0.15549743;-0.22187288;0.06543127;-0.022286974;-0.20493744;-0.17687172;-0.33925164;0.15442972;-0.3584307;-0.32926494;0.07177059;-0.0025677783;-0.1053914;0.041518908;0.043180216;0.28470424;0.08832461;-0.17857336;0.01568899;-0.016120559;0.11154592;-0.08748295;-0.057835076;-0.16401926;0.22146726;0.112297624;-0.45575586;0.059072364;0.031571142;-0.037563514;0.039391916;0.3359619;0.21681727;-0.049651098;0.11704412;0.10488839;-0.5763625;-0.07176395;0.108642615;0.057391614;0.07051388;-0.090636455;0.17937191;0.084486224;-0.34492025;-0.26403296;0.18224953;0.14712782;0.048738208;-0.1378982;0.20172064;0.16075012;0.1710842;-0.15421228;-0.17908637;-0.21195067;-0.034202974;0.2614181;-0.18799962;0.1425363;0.2996595;-0.3297257;0.4109219;-0.33073783;0.11898864;-0.25576928;-0.019746859;0.17386486;-0.21417749;-0.09317476;-0.050258026;0.35777417;0.14323501;-0.084576994;0.077007964;0.0015646858;0.25023425;0.14343646;0.038499806;-0.29724094;-0.0694045;-0.11114722;-0.05443356;-0.18866782;-0.16175587;0.02949167;-0.34484708;0.16939023;-0.30473918;-0.11100488;0.058669932;-0.22411573;-0.1084405;0.053460166;0.29772082;-0.37409806;-0.062325805;0.024681585;0.0566924;-0.05673788;-0.04800922;0.5780864;0.017933095;0.113434166;0.3080025;0.166342;-0.07952943;0.092902094;0.007248518;0.28258955;0.19483505;0.09147802;0.10662796;-0.13607396;-0.1291268;-0.116087966;0.030873315;-0.2595016;0.4667546;-0.16833155;-0.06854118;0.007292065;0.13132027;-0.012729478;-0.04429693;-0.1981831;-0.0442048;0.049664754;-0.36966345;-0.01917065;0.11790288;-0.2835245;0.0968976;0.09360513;-0.21616964;-0.15703905;0.30310392;-0.22287823;0.0273813;0.1526512;0.35778457;-0.45262998;0.08702116;0.08027415;-0.21012528;-0.16122209;-0.16228454;-0.09282763;0.16505224;-0.36263514;-0.10533808;-0.11071175;0.53756833;-0.18046917;0.11565435;-0.31653255;-0.16313918;0.2961727;0.18258244;-0.4982516;0.24403544;-0.054986026;-0.12735708;0.4557194;-0.10448981;-0.19686739;0.15226233;0.08144383;-0.21519688;0.12964816;-0.004532274;-0.010601877;0.33677384;-0.09710133;0.26256934;-0.3596499;-0.4927653;0.02344379;-0.03497305;0.18750125;-0.23973812;-0.106676616;0.22487883;0.15173884;0.05343199;0.12759191;-0.080259755;0.0024991431;0.45465577;-0.14689818;0.110101216;-0.09015476;-0.20033999;0.15629455;0.06284181;0.28573325;0.16138119;-0.0056350864;-0.166396;0.044756413;-0.09970067;-0.17068623;-0.18086892;-0.44817504;0.021894857;0.12421906;0.13266842;0.15028735;0.027880965;-0.07772123;-0.14194842;-0.032082602;-0.03731405;0.05713339;0.17194578;0.06982755;-0.31725788;0.09849;-0.42801812;-0.4633438;-0.089706674;-0.12140509;0.14479314;-0.31176734;0.18633002;0.021140084;-0.38960242;-0.19891648;-0.038215462;-0.29024893;-0.14591533;-0.2702754;0.13401853;0.09597413;-0.03810699;-0.17175974;0.41768625;-0.45500898;0.070757695;-0.4984547;-0.07421816;-0.06452749;0.045973305;-0.05691825;-0.097784646;-0.1631777;0.10811829;0.20180817;0.03776056;-0.21878158;0.04122091;0.17781682;-0.18321492;0.28724092;0.16525215;-0.11995015;0.17619398;-0.019605683;0.07743935;-0.25960886;0.2516432;-0.14938943;-0.19741176;0.11205654;0.071665615;-0.09250423;0.20510697;-0.018596606;-0.2648177;-0.20048302;0.04281783;-0.18074061;-0.042257372;-0.09005507;-0.05836522;-0.17642942;-0.19413675;-0.3226507;-0.21864858;-0.2619151;0.049184613;0.3713827;-0.45741555;-0.09147462;0.3658126;-0.08443914;-0.010018446;-0.1122973;-0.16377419;0.05370416;0.24007079;-0.13636725;0.028516632;-0.3097574;-0.06458171;0.04617589;0.013031367;0.40353596;-0.26241973;-0.1796659;0.10169625;-0.6471591;0.139425;-0.13264075;0.28307322;0.109555766;-0.06967715;-0.12483609;0.287085;0.10896244;-0.3184676;-0.22222245;-0.11392047;0.2070889;-0.15148498;0.1744102;0.109374054;-0.019298747;0.22323808;-0.18032771;0.013891994;0.2695592;0.094848484;-0.029593648;0.18827593;0.022981305;-0.012149557;0.012003675;-0.008791666;0.23000021;-0.18074365;-0.220334;0.005350216;-0.20278198;-0.088161096;-0.39446637;-0.17358398;-0.08485211;0.044247486;0.056208678;-0.053448062;0.11793419;-0.1916035;-0.377258;-0.109179385;0.0017118093;0.07613528;-0.024139345;-0.14284584;-0.14566329;-0.049209546;-0.17687583;0.49716455;-0.089256704;-0.14154786;0.027342865;0.0044678715;0.0040724142;-0.12688562;-0.25811455;-0.34068954;0.38887787;-0.12883835;0.057733424;0.1934316;-0.11236889;-0.19436052;-0.054140955;0.03159282;-0.16075455;0.22044985;-0.4294825;0.091928676;0.04336164;-0.022168843;0.5085131;-0.28928506;-0.12350121;0.03686361;-0.23880602;-0.10854646;0.043900795;-0.014257442;-0.15174545;0.011720787;0.082304016;-0.079722315;-0.13628696;-0.21320087;-0.0039170086;-0.068140775;0.040433437;-0.31094363;-0.011812759;-0.08160237;-0.27113804;-0.20291615;-0.009250365;-0.25412136;-0.4867532;0.2791429;0.041324187;-0.077327654;-0.33854884;-0.18122321;0.5981766;-0.13237892;0.17965601;-0.10893554;-0.0053134435;0.2782959;0.13214684;0.3135094;0.048250787;0.08776838;0.058824312;0.19892423;-0.16552755;0.26210007;-0.123914704;-0.22963907;0.035431955;-0.07092278;-0.70410997;0.0112759955;-0.055512235;-0.62046456;0.08953551;0.08498759;-0.1882559;-0.055607785;-0.07213134;-0.04879742;0.15264416;-0.11493122;0.29578677;0.40388012;0.02216332;0.112970464;0.024781719;0.05121182;0.24750511;0.22997129;-0.03264771;0.12619519;-0.30490583;-0.2892204;-0.2794807;0.107001565;0.17710815;0.049412157;-0.067512356;0.07646847;-0.10941139;-0.09172293;-0.20210269;-0.15252247;-0.0061474494;-0.09688183;-0.09670946;0.22679158;-0.109042734;-0.0026427824;0.431084;0.099604316;-0.45812264;0.046562232;0.10263097;0.37555128;0.010756479;0.16806684;-0.02347586;0.020541005;-0.25201797;0.2004587;0.22169505;0.09063604;-0.39341825;0.26590523;0.0988713;-0.16266772;0.29206836;-0.06502651;0.07045806;-0.501623;0.38531375;0.22856309;0.02497242;-0.008903571;-0.14306977;-0.312271;0.11842001;0.09522045;0.16734135;0.329864;0.07636651;-0.20813219;0.053884607;0.34608003;0.16409607;0.14842027;-0.01586615;0.049318414;-0.11083055;-0.10618669;-0.10280975;0.24415529;0.05089119
0.38424549;1.4632643;-0.123575106;-0.3066041;-0.54945487;0.521518;1.9043967;-0.4783142;2.1879067;0.0749771;-1.453217;0.40279838;-2.029288;-0.32674068;-0.5022731;0.8529392;-0.1341356;-1.0152315;0.13043275;-2.4893174;-1.4424639;-1.9665116;1.0321656;-1.6850588;0.417978;-0.07220572;0.05409346;1.3099775;-0.7763706;0.33529556;-3.1395376;0.8540397;-0.064906254;-1.4520725;-0.9830079;2.152697;0.12824237;-0.4565553;-2.0118072;-2.1373475;-1.7449254;-0.7532652;1.3752149;-2.5926843;-2.648755;0.34238428;1.6427915;0.4111128;-0.12324818;2.4097183;0.22578415;0.28614932;-2.407702;-0.34250394;-0.99239224;2.694747;-0.6712154;-2.721695;-2.1616197;2.7034967;0.06367266;-2.3605294;-0.049042363;-1.6621174;-2.5335724;1.5884248;-1.1267627;0.117240965;0.13928275;-0.88047636;0.59089327;-2.015757;-0.56725144;2.9886003;-0.41008732;-1.647238;-0.5084413;-0.58585113;0.5565713;-2.6692805;0.21294767;-0.43083522;-1.2967389;2.0866663;0.5431543;-0.014186419;2.4962132;-1.6412208;-0.70304894;0.5283521;-0.842594;-0.7897965;-1.619809;0.23422706;-1.9203402;0.9928318;0.24492536;-0.078351736;0.78091526;1.4265938;0.69679224;0.4323533;-0.86891115;-2.6465254;0.48616943;-1.0350778;-0.46232253;-1.8619864;0.48175758;0.46063408;0.07968862;-1.6236348;0.42054567;-1.0702021;-0.11139251;2.0542614;-0.116582386;-1.3957012;-0.17215751;-0.07153855;0.26071918;-0.18847339;0.69734186;-2.1197379;0.29214823;0.79766136;0.92584515;2.1464446;1.470925;-0.4685768;-1.1242464;0.52109706;1.4328167;-0.5343638;0.45866853;-1.5212884;-0.26398546;-1.5611321;-0.92321825;-1.0826333;-3.649773;1.3217908;-0.12017609;0.56497544;1.6341128;-2.7479265;0.18267956;-0.7861177;1.8811593;-0.5002328;-2.3600142;-0.09704107;1.4784664;-1.1120119;-0.8042123;1.3156052;-0.7301577;1.3868752;1.0299207;1.337022;0.3336219;0.29665565;-4.0078683;-0.54539067;-1.0196705;-1.5467442;-0.5242356;1.1423802;-0.35654706;0.6538995;-1.7877871;-0.99649674;-3.0515318;-0.0006159992;-0.34829906;-0.09871287;-0.35725376;0.4278623;0.6160538;-0.17907928;-0.88742703;1.4165019;-2.693379;0.97660524;-0.65142864;0.14696263;-0.25773564;0.24071442;0.30217996;0.3075609;-0.79459685;-0.2519208;0.62215716;-0.74169827;-2.5994265;3.0380614;-2.9151554;1.1067908;2.3410628;-1.7284955;0.40436214;0.56245303;0.65621275;-1.3598695;0.20376801;1.3179123;-2.5673203;-0.3411149;0.3898185;-2.518219;-3.9118388;-0.34176022;-0.60980386;0.02747042;-0.5971883;-1.0731479;0.29883978;0.1185731;0.74412256;-2.7593703;-0.4904871;1.2991546;1.532196;1.2991755;-2.8723953;-2.9733615;0.39738542;-1.0012637;0.98215306;0.2733326;0.7811759;0.43454823;-0.57384086;1.6767861;0.60476375;-0.45945516;-0.5255818;-1.384937;0.36756754;0.5164215;-3.7831385;1.1028421;-0.071900025;1.1087568;-0.8432465;0.033550333;-0.36928588;-2.4009604;-0.88371366;-0.8747984;-4.3963013;1.2158111;-2.7664335;-1.5058802;-0.1053562;-3.141744;-2.0203974;1.1467472;0.26938978;-0.9642459;0.47792494;0.6142331;-1.7333925;-0.78906345;-1.6249385;-0.98491913;-2.20609;0.017284397;1.0426645;-1.4836007;1.4303688;0.74682546;-1.0421761;-0.95777804;-2.1634126;-2.6169572;-3.4798884;0.654507;-0.4684959;-0.8064628;-0.4027928;-1.0410117;1.3044481;2.3806186;0.16813524;-1.0555012;-0.1958978;-1.270939;1.2428995;-0.4492739;-2.759375;0.72006506;1.1415565;-0.82020414;-0.27002704;-0.73172766;-0.64894724;0.80226386;-0.5883172;1.0463598;0.17730391;-0.6120371;-2.4533699;0.96926033;0.2644642;-0.013800979;-2.500848;0.35722423;-1.3076572;2.0180845;1.0573542;1.4130832;-0.7948227;2.0052242;-1.7588223;0.3282622;-0.40370157;-1.5529296;-1.2142984;1.7635108;-0.7010011;0.6878;0.3624188;-0.6018596;-0.055199437;-0.7562479;1.7132258;-0.8361561;-0.55295473;0.42417234;-2.8345299;0.4167986;-0.07829282;-0.08442598;0.7299964;-0.02153732;0.5790224;1.5099528;3.2154727;-0.35859904;0.13412294;-0.03658419;0.08850344;0.8728469;-0.4018875;1.1732264;-2.4433665;-1.8563567;-2.5294385;0.6753083;1.0352836;-1.398388;-1.9170018;0.38818827;0.041981954;0.79214585;-1.8837079;-1.489402;1.5040057;1.8194329;-0.12660751;-0.7915981;0.16781668;0.40890774;1.0342335;0.029511048;0.9745314;-0.4367442;-0.90247273;-0.07057545;-0.79190046;-0.81724995;-0.47476304;1.0479932;-1.3221017;-0.051684044;0.69047725;-3.0071359;-1.574815;0.35669556;-1.0243127;1.3725787;0.77267057;0.08920709;0.7704837;-0.44100925;3.0895503;0.61694646;0.8381301;0.77352804;-0.54490894;1.6927167;-0.3684536;1.1657337;-1.2127268;-1.9560018;0.69273037;0.5028769;0.51303244;1.079775;1.0999532;-0.8096605;0.15058692;0.14558262;1.3357139;-2.254708;0.33210623;-2.7723317;-2.7431734;-0.21938577;0.09004873;0.9923128;-1.4987279;0.6099589;-3.591744;0.26352608;-1.683337;-1.4706131;-0.12383004;-0.10269148;-1.7196507;0.5054143;-1.0694187;-1.7695172;0.18644099;-0.034069;-0.65045524;0.321076;1.1558685;2.0608623;1.629137;-1.5261451;-0.4162894;-0.91832745;-0.98889303;1.6566787;-1.6261349;-0.7284921;2.769538;0.13564496;-3.567532;-0.7464524;-2.697433;-0.36399785;0.6602005;-0.26527706;0.094733305;-0.014795827;1.0951272;0.17819837;0.58378696;1.2677917;-0.7242996;0.90536195;0.28378007;-0.061572347;0.44717324;-3.9439454;-1.4569756;-1.1694671;0.4985888;2.1473613;-2.3606215;0.65016264;0.19342932;-1.0930059;-0.3878314;-0.01658057;2.2454007;-0.51071405;0.2010268;-0.09000429;-0.21543866;-0.519768;-0.30864337;-1.5867171;-0.83387154;0.059518587;-1.1154377;0.11661491;2.8338964;-2.5102181;0.38043737;-1.6161683;-1.8018316;2.7343564;-0.46871567;-0.12283911;0.39677784;-0.16784085;-1.4104514;5.4784045;-2.1191218;0.32492068;-1.2995623;0.30129552;0.18846366;-0.6268423;0.26994988;2.2764602;0.49609494;-0.21910654;-1.5801697;-0.7544216;-0.72065836;-2.7552094;1.662354;1.3623021;-1.9236131;0.8875178;-0.7599378;-0.055550676;0.9209622;1.0274225;-1.7690907;-0.5496047;-1.0605623;-0.6563613;-0.21490611;0.14701784;-0.26837283;-2.3806822;-0.04903138;0.2564509;-1.0863621;0.5396208;0.4020528;-0.33201176;-0.18011591;0.5891935;-0.7318735;0.43578792;0.8611728;1.0446815;2.3645887;0.059535045;0.0007464113;-0.14861211;-1.1075755;0.10824663;-1.4882445;2.9375415;1.4741924;-1.9597702;-1.4541005;2.0744371;0.8565963;1.4681329;-1.459946;0.7779839;-0.053189266;0.38172537;1.090033;-2.889701;-0.30637148;0.18199939;-1.5560709;-2.7825353;2.0186026;-1.142563;2.255443;-1.4847529;-0.9543758;-2.3569982;1.4712268;-1.7051288;-1.765313;1.718418;0.087855466;-1.6374891;0.50336736;0.82552135;1.227422;-1.6868938;2.3858726;-1.9766227
-0.8496215;-3.5021255;-1.3725597;-1.0095279;1.0943247;-1.0015566;1.9254239;0.35711545;-0.18456481;0.846575;-0.4285707;0.38334545;1.3658319;-0.36116642;-1.0964372;-0.08988609;0.49767938;-0.76541126;1.8546891;-0.2724918;-1.8114841;-1.8241302;0.1088509;-0.4412012;0.40943712;-0.9208844;0.71766317;2.3679054;-0.81166387;2.3634048;-1.2114972;1.2739459;0.015643744;-0.969321;-0.52340066;-0.6592358;3.1899087;1.2684947;-0.7105436;-0.4536502;-2.2295787;-0.8039667;0.07460593;-1.4519022;2.4279828;0.75409;3.8607037;0.48143873;0.0032391595;1.5044595;-1.8781837;1.633113;-2.6999826;3.3620975;-0.5278118;-0.38332856;1.2108637;1.5514643;-0.021044835;-2.2692177;0.024271926;-2.3147557;-0.20924142;-2.0833297;-2.382725;0.84808064;0.33749807;-1.8946577;1.3096718;0.0041258475;0.8156011;-1.063324;1.8454996;0.5376224;-1.1099104;-1.8553553;-3.0732994;1.2769477;0.58794147;0.926146;-0.021489087;-1.600821;-1.6120282;1.2076633;0.48411396;-1.531241;2.3497527;-2.55701;0.32725826;-1.4130298;-1.0536036;0.88045806;-2.2809055;-0.31269285;0.822557;-2.9616687;1.4731057;2.7933087;-1.0367355;1.7148333;0.42200115;-0.57059985;1.3502028;0.44881654;0.103372484;0.83532476;0.94602007;-1.0088623;-2.4339433;-1.3122615;0.15277365;-1.3939667;-2.211069;-0.5727806;1.5336863;1.2108788;-0.2210707;-1.1046343;0.24137308;1.1602839;0.5323693;1.9583704;1.068823;-1.8927786;0.9449612;-1.8878164;-0.8338002;2.3344915;-0.7083979;0.95386666;1.2790519;-0.9455962;0.4782706;0.16634418;1.8566016;1.0347306;0.28047976;1.6102486;-0.9038116;-3.679315;3.6448863;0.40341246;-2.2300985;-0.9817358;1.489809;-0.7371149;1.5891789;2.4602535;-2.0081828;-0.33655643;0.2217283;0.5090082;3.2577934;-0.07453235;-0.2612043;0.36380753;0.5053117;-0.12963621;0.5304638;-0.24669258;0.501081;-0.5065914;-3.2514565;1.1210959;0.2215234;-0.8523222;-0.30329183;1.2028638;-1.653492;-1.961704;-2.6083992;-1.0786278;-4.4377813;-0.046520796;-0.19084372;-3.9217236;0.4751765;3.2869506;2.4327881;-0.18732215;-2.3624392;-0.20329753;-1.6834028;-1.4949576;-1.7555348;2.8306549;1.9117005;-1.0512072;0.30576605;1.4325936;-0.89178014;-0.67327005;2.6132486;1.1823115;1.7393183;0.6494111;0.50175923;1.22781;0.5516241;0.031572126;-1.0618677;2.3059535;1.1237755;2.3062525;-0.34567192;2.0777066;-1.5446373;-0.24039997;-0.008928514;-3.321491;-0.40529168;0.9172159;0.4029552;0.6784014;-1.6067253;-1.0176084;0.803334;1.4836297;0.6949328;-2.3612063;0.5109686;0.52797353;1.5934751;2.0117257;-0.61569816;-3.1704538;-2.702593;-0.6357291;3.3314965;0.85287285;0.5312638;-0.47416964;1.2539215;0.31961894;0.90913886;-1.4414728;-0.95648974;-0.8671384;-2.953456;-0.12882617;1.1158485;-0.17914583;0.43571278;-0.83449394;-0.070218;1.424643;-0.16923311;-1.3771148;2.0704434;0.54806083;1.0812749;0.038386248;-4.70199;-0.5828476;0.47101107;2.6968055;2.3942237;-0.9504535;-2.0908973;-3.5481493;-0.7887977;0.18979847;-0.4370593;0.31480062;-1.0541567;-1.3670347;-1.7016286;0.68911505;0.5283067;2.0499945;-3.1733568;-0.49573383;-0.49464548;-1.4213407;2.8941092;-0.54960805;-1.3580247;0.6368553;0.55620146;-0.39259514;-0.05455069;0.37884414;0.7200264;1.5890703;-1.2033236;-1.4061333;0.60410494;-0.9235947;-1.6427312;0.38841692;-0.24664097;1.901157;-0.35479572;-0.1774447;-0.24667837;-1.6137471;-0.6995209;-0.8477358;-0.7752582;1.5160155;-1.3661057;1.4023374;-0.67666936;-0.22141878;-2.3408306;-2.2706132;0.98450303;0.42719635;-0.767013;0.7170692;-1.1618453;-4.1094303;-0.99214053;0.12399404;0.3280214;-2.9592013;-1.0345279;0.20972954;-1.0178467;-2.859296;-4.0297236;1.2500676;0.7366732;-0.11578783;-4.3144636;-1.583159;-1.7535523;0.41380227;0.6061045;-1.0463808;-2.0933988;-2.8067603;0.7546764;0.5647395;-1.1468494;-0.038212296;-1.6309605;-0.34710908;-0.27401316;1.576918;0.16880338;-0.20967191;-0.12782466;0.30189112;-1.4698769;0.04806819;-0.6686098;1.442397;-1.9005668;0.49438855;-0.7254843;-0.102907605;-3.289117;1.1210085;-2.0171173;0.9451875;-0.9895551;0.9663461;-0.21178246;0.43712962;0.060327508;1.8460369;-1.3511196;-0.62006027;-1.2890707;2.2574086;0.50839394;-1.8258373;-1.0775143;-1.8089712;0.29640886;-0.25379503;-1.412394;0.9042146;1.1159273;-1.0514925;1.0958545;3.0259898;-1.7434888;0.35674074;-0.7950069;-0.56000066;2.0278208;1.6028014;-2.3622308;2.0434632;0.23944217;-1.5466555;0.30290148;-1.0652865;-0.7647352;1.216442;-4.067829;-0.6467104;1.7869263;1.7617046;1.1074858;3.8991992;0.5265969;0.7971544;2.123638;-2.1184807;1.7942591;-0.2741761;-0.35662174;-4.8745594;-0.31292802;-2.0076208;1.1458595;-1.1316147;-0.9003998;-1.0167565;-0.228983;-2.7835047;-0.25845835;1.1111856;-2.1145887;-2.632662;0.26305163;-3.1072714;-4.9344387;-1.9850873;-0.5634266;0.37326363;0.5778522;-1.0614113;0.33838114;0.46487305;-0.41551933;-1.1565517;0.7650821;-5.127615;0.82181674;0.11034647;-1.2932413;1.253768;-0.42701477;-1.1034268;-0.50093514;0.5401741;2.4786103;0.47897884;-0.10661854;0.40222263;1.3466822;2.3951755;-0.17852463;-3.2040262;1.777253;1.1554537;-1.1262754;1.1865442;-0.4862226;0.87613535;-0.4556093;-0.12545252;-1.0158186;-3.4484682;-0.25272247;-0.76962346;2.6475587;3.9059222;-0.42183805;-0.2751623;-0.2097318;-1.292472;1.3906932;-0.15986581;-1.0135232;-2.6019862;-0.69793594;-1.8510846;-1.003762;-0.3130166;0.3032676;-0.40908107;-0.49392116;-0.000586894;2.451197;-0.58747673;-0.6051768;-1.7288128;0.38016507;-4.4031544;-0.23542894;-0.5045065;1.1873136;-0.1639842;-0.046216555;0.9491383;0.40471706;-1.39328;-0.28980845;0.44261166;0.2585516;-0.6662546;-0.10856244;-0.15494502;1.1417671;1.719191;-2.3176003;-0.41418722;-2.4652443;1.3027347;-0.2549344;-4.011862;-0.17699172;-1.4673251;0.84560895;1.4172319;-2.1378176;-0.21071237;0.70014083;-4.3441877;-1.5230548;-3.2659018;-0.726907;1.1203526;-0.31242955;0.20562379;0.36637977;-0.2650901;1.877724;0.68630916;-0.1221455;0.42763367;1.4259458;1.0249972;-0.25698805;-0.95471513;-2.0018916;-0.09178889;0.07247019;-1.7520844;2.0303595;-1.4356318;-0.6178497;-0.32900292;1.8081416;-3.0375037;-1.0791507;-0.6273481;-1.5827695;1.0717913;-1.0652559;1.6436057;0.84866107;0.699096;-0.22842826;0.6999891;0.790906;0.7159651;-0.6176802;-1.713251;1.0328593;3.8256671;-1.0155783;0.8083467;1.6960442;-0.9583883;-0.20599052;-0.889588;-1.1458752;-1.0500424;-0.536968;-0.87661445;-0.190818;2.7349956;-1.7553333;0.41684926;-0.36325702;-0.9920007;-1.9133296;-1.4015192;1.1700586;-1.4502665
-0.44391033;-0.05415361;0.08113156;-0.3347478;1.179189;-0.3755799;2.0050075;1.2903237;2.6497276;1.8708206;-0.25493473;0.48560637;0.62512094;-1.1177675;-1.1850241;0.0094856415;-1.2550143;-0.7061557;-1.8787678;-0.79031855;-1.7029982;-1.5286776;-0.058295578;-0.61122894;-1.9973481;1.6267834;-0.5778861;-3.4705508;0.3459495;0.8322637;0.6143237;0.24962217;0.31736118;2.2264233;2.1730793;1.47436;1.9913769;0.032169834;0.6087906;0.13940518;0.09146069;-0.10913364;-0.6841454;-1.051106;-0.37136298;0.8389702;2.094207;0.5766407;-0.7291333;0.29833287;-1.4213997;0.379196;-1.8863673;-2.3090353;-2.0092955;2.8338926;-1.8597285;-2.3924112;0.21715829;-0.629764;-0.015774626;0.04532473;-0.59114856;0.15076983;1.9052291;1.3526525;0.1681835;1.2847072;0.4133009;-1.0539838;0.57214344;-0.507049;-0.18624692;0.060752306;-0.93992895;0.033552084;0.12619075;1.2035222;1.4531775;-2.1963255;-0.45965952;-0.7971578;-0.7852116;3.5504136;-0.32327333;-1.2021046;0.5834301;-1.2905338;0.41306537;-0.6211329;-1.2240295;2.372346;-1.0916528;-1.0485868;-0.95434904;-4.718617;0.583907;0.36442152;0.062460124;1.7225193;-0.6581448;0.93100137;0.46337757;-0.06385283;-0.15552494;1.7151414;0.5279544;-1.6512402;-1.4059982;-1.5233964;1.7880683;-2.341126;0.80859107;-0.70397544;2.009574;-0.014151961;1.6016425;-0.41835147;1.2575067;0.5618572;0.6349468;0.65001345;0.3354445;-0.47751883;-0.089245446;0.61769044;-0.95958936;-4.7590427;1.2935816;-0.82461345;1.2046283;-0.25424924;0.12940553;-0.13493797;-0.037493896;0.50071275;-1.5936955;0.90802354;0.24488388;-2.5817077;-0.25574172;1.4530094;-3.3534222;-0.93823195;0.11615485;-0.30821377;-0.88961214;0.34106523;-0.5106182;-0.8111511;-0.79511887;1.068278;0.6259271;-0.096134916;1.1448057;-1.6902372;-0.8158506;0.21382381;0.7014997;-0.28289658;-0.4919868;0.12178363;-3.7900658;1.8539441;-0.72216904;1.7454087;-0.13083404;0.7970704;-0.39728683;4.4752073;-0.9003228;-4.725476;1.5381769;-0.30491877;0.06755507;-0.24030559;1.2171724;-1.079682;2.0146532;0.8842602;0.6524678;1.1415182;-0.8109425;0.5141506;-2.8113773;0.8421935;0.91436636;0.69098836;-0.6884181;-1.5828198;-4.711681;0.4308331;2.723487;1.0054826;-1.0465014;3.85677;1.8614099;-3.9555922;1.3183447;-0.95795804;-1.4012383;0.027002847;-1.9971863;-0.08120882;-0.48778796;2.0394557;2.102138;-0.8111936;0.9465627;-2.303435;-1.6720282;-0.9366352;1.130785;-0.8499091;0.8803152;3.0701473;0.2804698;2.0104115;0.93361276;-2.702794;-2.7977834;-2.2385798;-0.16963968;1.6071761;0.3722032;-1.4337339;0.12411588;-1.3921922;0.6369565;1.3810349;-0.77661717;0.48082387;1.6195837;1.1018568;0.23613359;-2.2363694;-1.6537538;0.3288073;-0.0025945713;0.33827814;1.2806996;2.9183426;-0.18961748;0.59771013;1.2560115;-0.2914443;2.1890445;0.21602885;-1.6092178;-0.03543712;0.5667888;0.7400777;-2.0399103;-0.43681374;-1.9861631;3.4812427;-0.48112547;-1.8703178;-0.8941531;-3.9249969;-0.49808276;0.22703072;0.06628104;1.1302774;0.37380302;-1.6323599;-1.1595898;1.3035399;-0.8309922;0.45436817;0.64613956;-1.2390957;-0.10646716;-0.08137788;-1.2878922;0.033670343;-1.3766962;-1.1032922;2.2352557;-1.0924783;-0.76731306;0.49974233;1.6241937;2.615722;0.35516125;-1.1122894;-0.3449263;0.13335042;1.3631885;0.05544991;-0.80562437;0.16071385;-0.81757987;-0.05753554;-0.77525437;-1.380712;1.0571841;-4.8108315;0.9530697;-0.9576071;-1.4800813;-0.56466824;-1.21227;-1.5552858;-0.24341266;-2.3874555;-4.028493;0.20497988;0.41480887;1.1872641;0.11215284;-1.1035823;-1.6865704;-1.7430671;0.5145206;-1.2495779;-2.0131454;-2.082337;-1.1434295;-0.04976896;-2.7919624;-1.8214768;-0.0001186288;-0.9289899;1.817323;1.2026453;-3.430529;2.2066169;0.73623574;0.089514375;-2.9188979;-3.7360961;-1.5992948;-2.9661577;2.202003;1.032088;0.49446964;-0.8330781;1.4305346;2.3464773;1.2606633;0.6105455;0.18871903;-1.9368985;-1.7899772;-1.791838;-2.1388688;0.204401;-0.39082733;0.3180549;-0.35455555;0.5227045;0.09722867;-1.1297739;0.28640193;0.96730095;-0.75406307;0.9481832;1.0507605;0.6006524;-0.44491702;-1.1851676;-0.022655997;0.57225;-0.39810753;-0.20643036;-2.0279999;-1.5592458;-1.8351591;-3.5709255;0.0009693127;-2.2282398;-2.6050193;-0.7153418;1.3538727;-0.3017681;0.8930112;-0.25456586;-1.3263453;0.8592803;1.1954067;-0.6373527;-0.39563483;1.0631618;0.8540454;-1.0579295;2.417457;-0.19384353;0.19272529;-0.47560322;0.12873635;2.9354093;-2.9362211;-0.57264185;2.1165237;2.0031285;0.7790698;2.5088947;0.17949626;-1.3766193;-1.706872;-1.2708229;-0.19369021;-1.441876;-0.8858763;1.0596513;-1.0845299;-0.5966344;2.6969233;-1.978091;0.6265287;-0.7057563;-0.67844194;1.8611691;0.7826379;-1.3155637;1.0615928;-2.1851904;0.5180204;0.54035115;-1.114765;1.9857694;1.0477418;-0.5167479;-0.7923463;0.61624795;1.2248057;-1.0025077;-1.1117871;0.9009732;-0.3152884;-3.3752875;-0.3683929;-0.58203274;0.9854813;-1.5407789;-1.767778;1.3867165;1.5796765;2.0285559;-1.4223602;-0.635976;-1.2464645;-0.089972906;-1.1626003;0.26450142;-1.2940978;-1.360734;1.4326442;0.39920688;0.66525847;0.057485532;0.3360757;-0.88060725;-1.0214033;0.5199608;-1.1632624;-2.2624433;0.19590594;-1.9254308;1.5946116;-1.1745234;0.02584695;0.45400223;-0.7972036;-0.81222534;2.0345063;0.23403597;-0.5846879;-0.82578564;3.7707133;1.0603136;-1.66978;2.148012;0.649456;-1.124407;1.8525481;0.6867741;1.7284263;1.4508756;-2.02639;-1.1534165;0.2277258;-1.8805112;-0.6441568;1.3189522;0.20788725;-0.9357014;1.435693;1.8776866;2.0911818;-0.99057364;0.07557053;-0.6838166;2.118012;-0.71171653;-0.87006617;3.1698723;1.0835583;1.0715928;0.8936695;-0.48912257;0.32070118;-1.5657032;1.2745568;-4.5230107;-0.85641146;-0.89781624;0.5235612;-2.0007675;-0.3418891;0.32785437;-0.9615751;-0.6123237;0.58276665;-2.3739645;-0.028873896;2.2910593;-0.21073239;-1.4071587;0.5268746;1.2532054;-1.6337959;1.9493681;-0.40256935;0.18247901;0.6590294;2.112687;1.0926523;1.7252336;0.74431217;-0.47911984;0.918847;-2.5299215;0.29590157;-2.533029;-1.7216557;-0.24281248;0.5723153;1.0050817;-0.33377233;0.79644394;1.9179082;1.5402721;0.038595345;-1.9854237;0.9137653;0.06619186;-1.7285092;0.25307503;0.8471183;0.9624127;1.1164875;-0.02813797;2.5378911;-0.7341656;-3.523742;1.7261053;-0.017417021;-0.24917522;0.40976256;0.15509713;-0.8617313;-0.3995526;-2.8655376;-1.2741275;-0.37750185;-2.0775077;-0.5510702;-2.3770697;0.20583473;-4.100976;-0.4163292;-1.0451323;-1.0384814;-2.3250666
-1.7174581;-1.7012128;-0.30557257;0.66229725;0.49991596;0.57753843;1.249339;-0.24888812;1.3391502;0.7254307;-1.2441678;-1.7329808;2.8330636;2.069716;-0.21110983;-0.89925957;-0.5832112;2.3260818;-1.3579873;-0.22724472;-2.1704443;-3.3401287;-0.34582412;1.6631813;0.78893805;-0.4047505;-0.42627496;1.3914473;-1.2449737;-0.3832931;-1.606859;-0.7868165;-1.5410324;-1.322634;-0.0066967937;0.1635916;0.19111316;2.3769002;-0.24448454;2.1602564;1.6413153;-1.5074555;1.4876437;-0.6203248;0.13251911;1.1690081;1.5626981;-2.1557386;0.35219783;3.2670085;-0.97571766;0.3208714;1.2748895;-1.2124772;0.015043364;-0.285171;-1.0420337;-0.049316097;-0.9900691;2.2266958;-0.0055375667;-1.1028323;-1.1525372;-1.3211468;-0.06950028;0.9605873;0.4303284;-1.481109;-0.115936995;-0.40611;0.03266904;-1.1313828;0.36670712;-2.9960468;-1.7855797;0.50307035;-0.06090375;2.1968274;0.70788175;-1.0580598;-0.32257092;-1.1271007;-1.1886345;1.2138896;0.89963794;-1.0024364;3.0287192;-0.4327499;0.7938573;0.45569572;-2.751649;0.6279708;-1.5540545;-1.5583521;-0.59295696;-3.1442358;0.5686623;-0.33582696;0.60387605;-0.8650248;-0.3288557;2.1766968;0.7037542;-0.6781437;0.9885906;-0.6450354;0.5248495;0.9531885;0.4080719;-3.5215607;-1.6471307;1.2091988;2.0222125;0.33010897;1.0197327;-0.40395537;3.0329874;-0.69854283;-0.008895602;-1.7220638;-1.2656735;-0.7166231;1.3540802;2.2889085;1.0584269;-1.2923937;0.037351344;-0.6177723;0.09922206;-1.8615791;0.04639828;0.17601576;-0.74855703;0.36892554;0.55117404;0.09926319;3.726217;0.056710906;0.62851524;0.34488648;1.0121428;1.1124201;0.77988654;0.62913835;-0.28166237;0.91233736;-0.7989786;-0.4501643;0.5251869;-0.9328119;-1.5650485;1.505843;-0.56350595;1.125319;1.6733781;0.39993533;-0.86795485;-0.27303347;1.3914363;-1.1687547;-0.22241926;-0.17759477;-0.36448905;-1.0919703;-1.2521188;-0.9081303;0.67123014;1.2398872;1.7347806;1.2829412;0.20653106;0.7748853;0.4357722;-2.3165407;0.08986349;-2.0365458;-0.7627713;0.051865432;0.9942018;1.5208247;-1.5205216;-1.3132312;1.1631632;-0.49299145;0.9304148;2.2878823;1.599635;1.334662;0.9722851;-0.37477875;-2.804545;0.69373155;1.8387817;1.6022447;1.0063298;0.24545571;0.77599204;-0.43347895;-1.1453254;0.4826138;-2.2513404;-0.21625446;-2.0147061;0.5719335;0.08826263;1.3577994;-2.8936956;-1.783865;-0.2557615;-2.8911898;0.38805354;-0.6239045;-0.1232185;-2.117961;1.6930264;0.68217504;-0.45854053;-0.19164601;2.0238411;-0.43011805;1.0362735;-0.62447983;0.28533632;-0.7083785;-0.79438555;-0.91779476;-0.72806805;0.71087384;-1.2200514;-0.29391766;0.048002254;0.87437594;-0.051822208;-0.4207507;0.94961494;-0.25762984;-1.6255802;-0.17735067;-1.0488257;-0.85536534;-1.0979699;1.6495632;0.5113522;0.6977043;0.023855207;0.06529116;0.20950194;1.8452197;0.07579861;-1.6547846;0.9807398;3.0564833;2.1939201;2.3781984;2.5518432;2.3883488;-0.37820286;2.2756903;1.8400129;-3.6107025;1.3444397;-0.7817505;-1.2843944;1.0571033;-0.57300836;0.4856147;0.38339406;-0.4115077;1.3269169;0.99876153;0.18672028;0.3567487;-0.105218455;-0.7468108;-0.77580434;0.013732969;-1.5688864;-0.30760673;-1.858093;0.8076166;-0.740922;-2.8455641;-1.336431;-1.2272974;-1.7675387;2.347795;1.2872951;-0.9557077;1.764413;-2.1464148;-0.43184072;1.7456158;-0.2572866;-1.0382109;-0.1614573;-0.521738;0.75014925;1.6643715;0.116534665;0.15690811;1.1568723;2.585485;-1.4141018;-0.24790536;-0.625868;1.211582;-2.5582416;-0.17835023;0.4821253;0.71090925;0.60345984;-1.21458;-1.0958848;-0.14920811;2.2933683;0.48185635;-1.2163297;-1.8412089;0.44612074;0.1882729;-0.983204;-0.16364767;-0.6716392;-1.0252656;0.80960304;0.49900374;-0.34980753;1.9064126;1.9148437;1.206135;-0.700788;1.804084;-0.11952904;1.1919837;1.2510839;-0.50174546;-0.49464533;4.649741;0.13876557;-1.438657;-0.2672958;0.116340734;-0.6147316;-1.1167841;0.37278986;-2.1958876;-1.4156144;-0.5178621;0.21700703;0.33096406;-0.88081396;0.798853;-0.5868258;-0.5022958;-1.8178833;3.084167;-0.7245442;0.19005406;-1.986788;1.2025759;0.86285436;0.5547284;0.23565006;-2.091421;-0.075674206;1.4460472;0.4640392;0.5738746;-1.3400347;-0.17031273;-2.3115296;1.5391152;-0.9454571;0.2543835;0.5397944;-0.27906913;-2.9763486;0.78707373;0.04574464;-1.4924418;-1.8839207;0.39638138;2.8085427;-0.92070705;-0.06892697;-0.45148736;1.4696628;1.5428606;-0.08119665;4.574713;1.0021849;0.009241726;0.2912061;0.5229418;1.7032696;2.2063904;-0.54607147;1.490117;-0.2568908;1.318945;0.0072597857;-0.69714195;-0.14963041;-0.0626517;-1.019507;1.9544249;-0.81848526;0.18741143;0.2232031;-2.9280922;0.93683416;1.5493922;-0.53821176;0.85701805;-0.061002012;0.73276037;-0.18097359;-3.1465137;1.8081037;2.4147599;-1.6222056;-0.8461073;1.9451141;0.7383524;0.2774288;0.43684924;0.92516804;1.5268226;-1.9719162;-0.8420502;2.266354;-2.0280187;0.9631393;-0.05195665;0.2892859;-1.2959259;-0.74613374;0.06147034;-3.3477802;1.0920968;-1.2450793;-1.3413949;-1.4305449;-0.16842087;-0.72359335;1.0391587;-0.2740774;-0.15445736;-0.57105273;-0.2798851;-0.2695849;0.73526776;-1.7943335;-0.69004613;-2.7269964;-0.21099639;-0.32020184;-2.3309314;0.5872095;-2.4965594;-1.5312854;0.9763203;0.8728028;0.6576932;0.014488002;-1.79871;-0.32516074;1.0626278;-1.1164398;0.7697821;2.3220942;0.9227068;-1.3827798;-1.9471735;-0.8686158;1.1943961;2.4108746;1.0010492;0.20355363;0.9157866;-0.06788037;0.66468304;0.6561406;-0.5331535;-1.4535801;3.1564457;1.929253;-0.77507025;0.56111056;2.1713305;-0.50210816;1.5155189;1.3599058;-1.4883046;1.7940148;0.08214035;0.9423049;1.3856332;2.2627616;0.14815304;-0.16678603;1.5360279;0.4952524;-3.0115006;-0.079849035;-2.17403;0.879478;-1.1016554;-0.8042281;0.74245274;1.286013;-1.4475065;-0.88062745;-2.0940921;-1.7925988;-1.3606285;0.2867157;1.4805346;-0.47428983;-1.6502447;0.5400299;-3.4573755;-1.1845088;0.738971;-2.0592952;0.61606294;-0.06645138;-0.29306784;1.1304126;0.11674413;-0.22081973;1.361577;0.92722154;-1.1919159;1.9012853;-0.9330214;-1.3013784;0.024287956;-0.59720725;-1.8236668;0.47038347;0.70026;-2.6793816;-3.0271127;-2.4483306;-1.1026244;2.3583343;-3.409656;-0.6040361;0.215542;0.01306243;-2.3202195;-0.2385452;1.4463774;-0.44884893;-0.82996947;-1.0786163;0.22943828;-0.76765436;-0.11682102;-0.2434469;1.6614288;0.927512;-0.033031724;0.4963451;0.4295205;0.5911488;1.2347693;-0.72245455;-0.46481255;-0.008286884;1.4584175;-0.43744895;-1.4763715;-0.25925156;-2.6917844
1.1222252;-1.0564818;0.4353957;-1.8328961;2.3166595;-0.26258123;-0.738932;-1.1266742;-0.33686104;0.8222221;-4.115923;-0.053860646;1.3856493;0.03759133;0.61427295;-1.8274325;1.7868403;0.8435483;1.0097592;1.110543;0.23125172;-2.499786;0.09228338;1.0562783;-0.80464673;1.2711036;-1.5929804;2.4022982;-1.906831;1.677093;-2.603764;-0.53001356;-2.8174663;-0.8983641;-0.57559025;0.72586316;-1.9023436;-2.3004544;0.010679606;-1.7701845;1.2417616;0.92414904;-0.43122303;-1.4080198;0.8655118;1.886077;-0.84980965;0.3685868;1.0957893;0.9899589;-1.1471666;-0.557071;-0.18424818;0.48686266;0.35690165;0.39520347;-0.1086991;0.43811253;0.40218997;-0.40092203;0.14143218;0.35895914;-0.48605612;0.7730228;-0.050982613;-0.47308186;0.6833147;-2.0008163;-2.7328515;-0.044322193;-0.3882455;-1.0063634;0.98068583;-0.08925303;-1.5253463;-2.4443502;-2.7793844;-1.3653619;-0.952824;-2.0653605;-0.07088348;-0.49773;-2.0754197;-0.06365535;0.9754547;0.49490726;0.5720786;2.2266173;-0.7374598;0.9817608;-1.4298594;-0.78680944;1.5029936;-1.2140833;1.2522457;2.027624;0.31966507;-1.0982586;0.10541891;-0.05204745;-1.0069902;1.7341344;-0.43094945;1.3885876;0.28412902;-0.5409804;-1.4027855;-0.4458119;-0.8218937;-2.1374204;-0.34378907;-0.38312277;-0.18075152;-0.19488494;-0.61818874;-1.6811527;0.18370624;-0.51769316;1.2852019;-0.31640962;-1.8625736;-0.19498707;1.1042628;1.6796978;0.092638664;1.0053557;0.64952064;0.12220934;0.4829102;1.0258669;1.2770214;0.86219466;1.2738073;-2.404128;-0.68190175;0.6789673;3.4753618;1.2629083;0.37416348;-0.22452244;-1.6720141;2.7925847;-2.6604912;1.8136307;-1.4830827;-0.18732965;-0.81747025;-0.46669817;0.16699162;-2.4945474;0.22569947;-0.56303734;2.0718386;0.33454743;0.7335338;-0.37896097;0.8198274;-1.0590559;-0.9203486;-0.78376526;-0.78946644;-1.0438163;0.041626595;-1.1411637;-0.6293641;-1.4484943;-0.49059346;-1.3727217;-0.90565604;1.4601057;0.0071709263;-1.7003806;-0.86680776;-0.70018846;0.5880757;1.1302433;-0.7355506;1.4387693;0.85334665;0.35406122;-0.2626799;-1.9425458;0.83791804;1.2905957;0.110492654;-0.53559464;0.6788303;-2.1588;-0.045025803;2.0102348;-3.552621;-0.02005238;0.27653974;-0.048622485;2.3487704;-0.48454726;1.3456209;1.5603364;-0.31091213;0.9812706;-0.90568215;-0.12720796;0.18582024;2.5420136;-0.026388304;1.2636839;-2.4454734;0.0722394;-2.4525304;1.9375914;1.0847827;-0.14842299;-0.79565823;0.4846518;2.264454;-0.18000382;0.7164395;1.3395964;-0.6462761;1.2076732;2.010064;-0.66877234;0.14560334;-0.4293112;-0.063286394;2.4730906;-0.39987805;-0.94882905;-1.0685129;2.687872;-1.0123618;-0.123827815;0.083276145;-0.4438177;-0.35106492;-0.19871962;-0.18994157;-1.4838493;-0.51705444;0.07967541;-1.5735445;2.104233;1.5016694;0.87770987;-0.21654168;0.5990841;0.88458425;1.7137172;0.21313332;-1.9898148;1.9051081;2.0568013;-0.6942846;0.7378157;-1.2034177;3.3269348;0.9429639;1.3270464;-1.6273767;2.3650854;-1.0395691;-1.5034345;-0.010169468;-1.3708144;-0.19249308;0.15155667;-1.5526835;-1.2580984;-0.10322767;-1.5790834;0.046483465;0.25759503;-1.1726699;1.2436726;1.5724001;0.67683315;0.29083493;0.48957998;0.4994893;1.7472856;0.06554263;0.6216307;-0.27803543;-2.6871514;-2.2566144;-1.9812074;-0.4299092;-0.3698637;-1.1768484;-0.8040739;-1.8448782;-1.2144076;-1.4310226;-0.4520758;-2.3733437;-0.23361754;0.37576365;1.8971274;-1.9388545;1.3915725;1.0188537;-1.3310272;-1.0576195;-1.9889184;-0.46671158;-1.505449;0.2658309;2.551285;-1.2194245;-0.07378401;0.3340879;-3.603815;-0.65833837;-2.4668117;1.9734688;1.0859758;-3.2770033;-1.6474658;-1.2413183;0.4994635;0.3281326;2.2701547;-0.3291649;-2.762802;-1.1108167;0.14281052;-0.18054527;-0.7985213;0.64495593;0.046845328;1.0930586;1.0826195;-0.057565697;0.93014866;1.0965873;2.2504144;1.6439515;2.6147275;-0.9662551;1.7691216;-3.5662453;-0.9854582;1.822816;-0.2562012;-0.32683924;-2.8935359;-1.1210797;1.5217646;-0.75293994;0.3360418;0.77414554;-2.5738616;1.3014754;2.7397876;0.05985261;1.4918791;-0.4274067;2.4314497;-0.13591254;0.7449049;-0.58320445;1.9364234;1.7151308;-0.7531661;0.06671307;2.7456295;2.5119984;0.52920794;0.6868787;-0.43487084;-0.14407496;-1.7974132;0.34474134;1.5715594;0.3886167;-2.6498315;2.454447;-0.81327915;-0.2646157;-0.24026068;2.5701005;0.3851044;1.9179269;0.6211829;0.1734059;-0.02147139;-0.00022496941;0.6516091;-0.124776594;0.272439;-0.9065155;-0.49644807;-1.467641;0.4305551;1.0231113;2.0943203;2.3984907;1.8676468;0.82835203;0.6313703;-0.03297607;-0.5385776;-0.31400093;-0.12853552;0.89214236;-0.69940424;0.7998734;-0.3575163;1.2994863;1.5217934;-0.66957366;-0.25766587;1.165908;1.1564875;-1.2348739;0.7069577;-0.94421285;0.9760202;1.5263035;-0.44252297;-2.6794455;-0.53441054;-0.39672992;-1.9251885;-0.38784298;-1.0784775;-3.011098;1.4884574;0.4679256;-1.400275;1.5557916;-0.24976067;1.0495167;-0.45631683;-0.830767;0.34800547;-1.5485516;-1.9988904;0.04254517;-1.5663208;0.7944499;2.467224;1.4649727;1.79283;0.5827403;1.9785092;-2.3061643;-1.2516346;-0.4221469;0.57762575;0.81774527;-1.622764;-0.7038711;-0.7234896;-1.7708156;-1.5524206;0.30132842;0.83458996;-0.87811023;0.6703845;-0.0947157;1.0945375;-0.7084211;0.4525851;-0.15626669;-2.9217532;-0.085768975;1.0242754;0.47945136;-0.15234566;-1.8283638;-0.5623002;0.44146675;-1.5189372;-0.56724256;0.1311661;-0.63104016;-1.0662445;-1.872194;-1.3568709;-1.6246285;1.0236126;0.033318672;-0.717264;-0.26675656;0.021014344;1.9538536;-1.1191527;1.720074;0.24246144;-0.16536212;0.17157839;-0.14039911;-1.6891828;-1.5433649;-0.71131814;0.14455728;-1.4215341;0.658215;0.7932659;0.4506781;-0.009225813;1.7498832;-5.075175;0.92608726;0.31835842;1.12215;-1.0615048;-0.069936514;1.7796415;0.63274205;-3.3304822;-0.52151656;-0.5961149;-2.771481;0.51204056;0.45863605;0.34047073;0.29989392;0.20516938;-2.116775;0.67432296;-0.3649811;-1.3526005;-1.184915;0.72675824;-0.06402702;0.07658351;0.2730568;-2.7121232;-0.9474601;1.9068059;-0.23987794;1.0709982;-0.0173278;0.8979843;-0.27762568;0.41585377;-0.19389042;-1.9751347;0.24622867;1.5242141;2.1134958;-1.7904506;1.0116999;0.8224027;1.7786149;-1.5364618;0.4268638;-1.3851526;-0.27518657;-0.4549237;-2.0014827;-0.26920512;0.4596012;-0.6422964;0.81556225;-1.2623038;0.7236103;-0.41253203;-1.8956487;0.92474025;0.20218281;1.1532128;-1.9690787;-0.5849012;1.0872487;2.8283174;-0.065657265;-1.7991891;0.25601694;2.4247801;-3.0573354;-1.29157;0.7362759;-0.04495517
1.3447195;1.4750024;0.5655909;0.93477243;1.9041582;-0.734457;0.9515118;-0.35280234;-1.6797189;-3.239118;-2.0377483;-0.27935302;1.691267;-2.474383;0.83111864;-2.226485;1.3365614;0.9329483;-0.66619056;1.4472142;-3.838001;-0.80199313;0.82666075;-0.8799791;-0.8775342;-1.3107622;-1.377574;1.4757466;-4.399678;2.049913;0.16541928;0.79519606;-4.4017315;-0.49073818;-0.59810483;1.1340884;0.0393609;2.9268615;-3.1804502;-0.1484418;-0.9627532;1.9089835;1.2658733;0.73633546;1.1852515;-0.6987014;-0.49790764;0.6268854;-0.29484013;-0.80427593;2.3248847;-0.45932713;1.5112672;-1.4463301;-0.5866335;1.255403;0.4732168;0.5820895;-1.7878499;-0.83402324;0.17079292;1.3128563;-4.08479;-0.41466302;0.5570998;-0.37267813;0.15529807;-0.05802761;-0.83346546;0.19517788;-1.1794049;-1.0027442;0.20449983;0.26016438;2.41328;-3.396708;0.4057347;0.6657763;0.4196199;-0.7920917;0.65255684;0.22308685;-2.1980903;2.2582622;0.16669525;-2.328303;-1.5405796;-0.80493605;0.45340887;-2.1782372;-0.85218936;-0.035162393;2.272967;2.06462;-0.44470817;0.10955351;-0.8799394;2.5615;0.55423015;1.8496156;0.05649074;0.8923326;-1.4333272;2.9464946;0.19668005;-5.9108396;-2.8764815;-1.2681441;-1.7821853;-1.254311;-1.6786305;-0.73828316;1.592124;-0.115005836;0.2132466;-0.61669385;-0.4399591;-1.2720227;1.8414905;-0.56521606;-0.19147499;-1.8022187;2.9447412;0.90508777;-1.9745077;0.010121998;-0.5276845;-0.9918269;-1.6104017;-2.4082577;-1.6682178;-0.09720906;0.8056636;-3.68408;-0.91090226;0.21388777;0.063398734;0.57697904;1.1407102;-2.8715198;-1.268523;2.5470195;-2.0407243;-0.2858275;-1.2529055;0.37032405;-0.44767675;3.3417637;-1.2873759;0.34058625;0.58614105;0.4435243;2.4845555;-1.0253218;-1.8346767;1.9547745;1.165079;0.7302177;1.1499909;0.76329374;-0.012921614;0.054985657;-0.25045073;-0.25061905;0.78580797;-1.0006748;0.37553278;0.24402556;0.41898736;-5.1049943;0.6496401;-2.3687851;-0.48106566;-0.56311375;0.9696927;-2.5873017;1.1177957;-2.9935598;0.4775128;0.014859719;-1.272096;2.0834177;1.8402027;0.17697403;0.08099222;3.441255;1.5294241;-0.13991283;-2.8829615;0.1591117;2.0045245;1.0534946;-0.32116526;-0.44276145;-1.3866885;1.1767577;0.75252587;0.59154254;-1.013249;-1.1279018;-1.2626756;-0.16999042;0.2780004;-0.88252574;-0.55118126;-0.017238637;-0.1178228;0.48188984;-1.5532818;4.593972;-2.3459697;0.45621288;-0.95158476;-0.6990453;-0.8075896;-0.619754;-0.2628094;0.28884134;-0.34961504;-2.6372254;1.3905226;-0.7161487;-0.11345932;-0.6132617;2.1553934;0.9489664;0.01776321;4.9613037;1.2209566;0.45814505;-0.690599;-2.105206;-0.69728655;-0.44900236;-0.48223257;-0.6918294;-1.5418779;-0.5588954;-0.525001;-1.1135681;-1.302274;-2.241088;2.1031022;1.6529864;0.48241788;1.5590569;0.9618622;0.005562414;0.67595565;-0.8327749;0.60865974;-4.797535;-1.7186826;0.37181562;0.095637195;1.1749747;-1.917458;1.0818521;-0.48288998;-1.3963608;0.07788191;0.79712826;-0.53283095;0.16632894;-0.72906893;-0.056808665;-1.3493806;-0.84023577;0.23629868;0.8048541;0.10654245;-1.9001741;-3.1735833;0.49122894;-2.3580434;-0.003413524;-1.1695687;1.033638;0.37983552;0.0870137;0.06374958;-0.7341265;-0.12043322;-0.8277058;-0.9232676;0.20300132;-1.8402357;0.5196492;-0.28368485;-2.1450694;-0.533617;-0.3280151;-1.315272;-2.004843;0.26375836;-2.2739553;-0.85348004;-0.07638953;-0.25496304;-0.012905048;-0.120762974;2.6028476;-0.7699272;0.23616892;1.4759469;-4.009529;-1.0977364;2.0441835;-0.9403287;1.5183928;1.1582348;-1.6168032;-0.11119414;-0.9954201;1.5841892;-1.3121881;-0.5744199;1.3707482;-0.08752351;-0.42810526;0.37737095;-0.87998897;0.52127886;1.0826185;0.85571456;0.25010753;1.5699784;-1.942875;1.688741;0.22529477;-2.9526908;0.02268232;-0.9146712;0.84102046;1.2650665;0.6840954;0.9064039;-0.4285562;-1.2076414;0.787406;-3.176466;-1.1169181;0.9346692;0.44873548;-0.12939298;-0.63072854;-2.7863238;1.3100901;-1.2222599;-0.57317084;0.13895024;0.19855455;0.86055756;-0.99034786;-2.3881845;-2.5377119;-0.9144478;-1.8035274;0.49136648;1.3172092;-0.30497232;-4.9255095;0.9739239;-0.1783535;0.0350991;2.6034677;1.8547455;0.005476737;-0.47184628;0.21463864;-2.059873;1.4432923;0.27085003;0.50129867;1.4168199;1.5186876;1.1054797;-0.53402257;-0.26072428;1.4166272;1.3645078;-1.2663774;-0.12510996;-0.76551086;0.3815415;0.65565693;-0.3351174;2.6241806;1.4429028;-0.24579762;-0.3346261;1.4110998;0.7391839;0.07719466;0.66021997;2.594588;0.26621863;1.4329534;-0.4034239;0.7745957;-1.9322451;0.015070789;0.429103;-1.6323092;0.121724196;-0.26174212;0.3569534;-0.6838552;1.1533792;-1.0150824;-0.30855304;1.0368453;-1.1721685;0.2871039;-0.04397026;1.3058635;0.2621518;0.12562546;0.17306893;1.5012006;-0.70191383;1.9671105;-0.096117824;-1.7425587;0.08923717;1.2961634;1.038327;-0.84704924;1.5154635;2.4047532;0.25051203;3.1925385;0.79696715;0.42108178;-0.27234232;-0.20604807;-0.78340775;-5.903888;-3.2990894;-0.60847235;2.6305163;-0.8536915;-2.9925804;1.1022309;0.33650857;0.979139;-1.6441313;-4.4815946;-1.6133039;0.4907453;1.5919199;-0.4654336;-0.26461852;-0.86213297;0.55501163;-1.2974885;1.6518948;0.9791599;0.05474875;1.3790816;0.11900169;1.0977224;0.21674083;-0.2878975;0.9517273;-0.62441653;-0.7526744;0.47892353;-0.2858558;0.5228658;-2.4674265;-0.1291642;-1.6569517;0.4002831;-0.08611494;-0.38399026;2.0964684;0.25491163;-2.4778013;1.3461865;-2.0136263;-1.7594378;-0.68566954;-1.6736718;0.34575;1.7272336;0.14728601;-0.1353314;1.9288623;0.45981303;-0.4545508;-0.13643831;0.26423448;0.59282625;-3.356385;0.8128899;0.7326415;1.388072;0.41454363;1.3445392;0.65135884;1.6330904;-0.579205;-2.065626;-0.9285138;0.009164726;0.07698879;-0.96279013;-2.108032;-2.8814478;0.34143;-0.3900991;-0.9341771;-0.8016115;-1.2412475;-4.495864;-0.071084894;0.50587314;-0.37065277;-1.4413102;-4.3084054;-0.5855632;-1.5648236;1.258023;1.1396184;0.8444954;-0.72739625;0.5100529;0.31746358;-0.6172432;-1.0694978;-1.5588994;0.33341712;0.36391166;-2.9177988;0.5723731;-0.122341014;-0.050234057;1.5898533;-2.2695124;-1.7131388;-0.013514153;-2.4531865;3.7268534;1.7297662;-2.4451807;0.6700636;0.9913404;-1.5086426;1.8379859;-2.0332003;-2.4039323;-0.0154656675;-1.8812948;0.26622057;-1.9172355;2.5084577;-0.5831996;1.2310721;-1.5254507;-0.89463;-0.49860162;-1.6332512;1.0634446;-0.556415;-0.8629841;0.85834706;3.0300176;-0.058412243;-1.4819381;0.84046227;1.5544553;0.10385425;-1.9672271;0.37606436;2.1043262
1.0426192;-1.4863749;-0.4164688;-0.09126935;0.3655458;-0.7097109;0.5771082;-1.644951;-2.822297;-3.041327;-3.01371;-0.22695598;0.16675273;0.875261;-0.21809436;-1.395808;0.8164039;-0.07553124;-0.92593914;-0.5082965;-1.198004;0.19547883;-0.1264432;0.28603983;0.730553;0.21501593;0.50099766;-0.12570442;-0.8081139;1.6501809;0.84660727;0.43989962;-2.5857782;1.5408956;-0.020814328;1.2817292;0.15695609;2.8737657;-3.0453227;-0.7981486;-1.4553745;0.56273323;-0.44873497;0.30022997;0.82706076;-0.044962537;1.022991;0.8128704;1.5391382;0.38643968;0.68280643;-1.4990364;0.49902996;0.14562239;0.09120711;0.7376803;-0.21439701;-1.3345336;1.1527709;-2.079292;-0.08594543;0.9269411;-1.1449409;-0.8581028;1.4356195;-0.7621042;-0.3275877;-0.10553773;-0.3952805;0.035406083;0.03767826;-0.061046205;0.16148227;2.6972353;1.7961434;-0.48932043;-1.0278076;-0.54825073;-1.4825639;-0.21073757;-1.0161647;0.98786235;-3.1701288;1.9937549;0.47419417;-2.4611511;-3.055957;-0.16632439;1.0390562;-1.1248302;-0.6736736;1.6193197;-0.35629022;1.5070875;-2.1053247;1.6458275;-1.4470031;1.0493821;-0.58548826;-1.6070992;0.3207601;2.3006723;-1.6484939;1.3368225;0.7447216;-1.5005665;0.8006581;-1.5861763;-3.3796017;-1.2105248;-2.4010804;0.6957319;-0.48368505;-2.204257;-1.9761723;-1.0223415;-0.92208946;0.23517159;2.0368218;0.6011425;0.38504428;-0.84438455;3.7599638;-1.2013935;0.0947537;0.4219902;-1.7159877;0.75068766;0.17460415;-0.87509054;0.5155961;-0.44233522;1.764788;-0.7109361;-0.50444865;0.5440941;-0.023480508;0.7484691;-0.2393881;-0.5288595;-5.0037503;-1.3340586;0.37379512;-1.3590151;-1.7373624;0.71639484;-1.8591459;1.2914237;0.7095797;2.0334587;0.32217422;-1.0467614;2.103589;0.89606446;-2.0195835;-0.5639296;0.85999864;2.4605372;0.58642215;1.0944793;0.46489525;-0.5395911;-0.42544317;-2.7583163;0.47456872;0.46906352;0.78550464;0.33176872;0.13750474;-1.0343502;0.015921103;0.66911286;-0.11576572;2.0187666;-1.2932779;0.6930874;0.44312638;2.352337;0.98846906;-0.19601363;-1.0640026;-1.2230765;1.142374;-0.26374128;0.26933116;-2.8695223;1.4924031;1.0141146;-2.50591;0.7134087;2.8776915;-0.8124768;0.04295521;1.5704011;0.31118762;1.2533966;1.5759499;0.16617157;-0.49885646;-1.7652454;0.7558975;2.9726653;2.2006724;-0.014608338;1.3823198;-1.4409019;0.25334156;0.55796784;-1.3472894;2.6354136;-1.3312299;-0.5289728;-1.8374412;3.8060682;-1.7084641;1.8212302;0.76364994;0.88107544;-0.07583656;-0.68153816;0.9385001;-0.2775111;0.25775626;-0.9878736;-1.9106495;0.8531158;-0.1506931;1.5119869;-0.786026;3.2183738;0.24355131;0.9408863;0.89223146;-2.8358026;1.825671;-1.1334765;-2.3878026;-1.08206;-0.39804778;-0.028806945;-0.3540067;-1.24607;1.0927125;0.8854325;-0.58343416;0.72039217;2.4257994;-0.7019326;-2.0354924;-0.42709377;-1.095487;-1.8537256;-3.350478;-1.9206021;-2.6116917;0.1584998;-2.420486;-0.6925212;-0.70519364;-1.4445224;2.0182114;0.24266262;0.75907123;-1.2256582;-0.74056804;0.14449444;0.9784211;-2.0219662;-3.2784545;1.00075;0.688556;-0.6764895;-0.7245159;-0.20583788;-1.3549474;-0.35367832;-0.2682732;2.8103333;0.502601;1.093333;0.2716555;0.052059665;0.50523365;-1.6825205;1.7547542;0.36462557;-0.32224667;-1.0069994;-0.20779207;-2.9355812;-0.19124259;1.9343421;-2.3266501;-1.0057565;1.8353171;-4.146575;-0.6748965;-2.0541568;1.0735227;-1.2094504;1.1941104;0.20781235;-0.039321262;-0.74073553;2.6486328;-0.34668702;-0.9355619;0.71270895;-1.8612914;-0.59932476;0.14965077;-0.78765786;-1.7718825;-0.5894853;0.5213495;-0.715481;0.83144486;0.5017723;0.69734836;-1.632047;-0.5526263;0.23259743;-0.9335205;1.3339959;-0.3928855;-1.9551206;2.136953;2.3490407;2.3941562;0.11479803;1.1402851;0.73394954;-1.528632;0.25592002;-0.50337964;-0.58566415;1.0797651;0.960705;-0.23966934;1.6113479;-3.7466433;1.3366823;2.359291;-0.24591912;1.6186874;-0.6756549;-1.4423105;3.2731323;1.945404;1.922752;1.3354865;0.76013327;-0.42862636;-2.210704;2.1147141;1.4246782;-0.38533458;-0.5825348;-1.0927052;2.7613628;0.82279414;-1.9125913;-1.6721487;1.8107666;-1.9802368;1.6922282;2.0943227;-0.115417704;-0.67142415;3.3352408;-0.2931728;-0.1393185;-1.4486235;-0.17127956;-0.88884467;0.73883134;0.63437796;-1.1143937;-1.2493811;2.236602;1.256953;-0.8487469;-0.8691159;-0.6466733;0.7985101;0.4316076;0.28329933;-1.1370466;-0.07197031;-0.27019912;-0.6540177;-0.8984231;0.9424675;-0.25788736;-0.39143303;-0.65880334;-0.49668628;-1.354258;-0.20696539;-0.3433176;-0.12506023;-2.1766286;-0.06775295;-1.6908209;-2.9068048;0.8302755;0.75950134;-0.3928933;1.7654499;0.19357646;-0.98222995;0.40091062;0.54516244;1.3986604;1.2498693;-0.42150202;-1.8689414;0.75771487;0.70695174;1.1900951;0.0012726162;-2.891077;0.30708095;1.9488171;-0.16283916;0.15057622;-0.39184257;0.747139;0.59621;1.2291479;2.4384174;0.86842716;-0.7172824;-0.03524527;0.7330155;1.5518326;0.23505661;-0.13646433;1.3927317;-0.5387168;0.72112834;-0.5290227;-2.2500844;0.17015712;-1.1591812;-0.53061837;-0.74272573;1.0750356;-1.3558928;1.0229125;0.4907382;2.0040188;1.7627681;0.631145;1.3854268;-0.30366272;-1.9511586;0.69230646;-0.67339355;-0.65018713;-0.3135831;0.43417504;0.18853676;3.0971026;-0.53330714;-0.49501055;0.43010867;-1.8498061;-0.9154007;-0.09266201;-3.5257244;-1.858018;0.037849236;0.8545044;-2.3799298;-0.2100627;0.9039614;0.56276953;-2.3464103;1.2806703;-0.7024574;-0.070166744;-1.1481665;-4.759271;-0.33282745;0.77534395;-5.859276;-1.0191442;1.5088274;2.0318518;0.6629005;-1.5336827;0.46085158;-0.024380293;-2.118712;-2.1511304;0.48382854;-1.2709708;-0.15681395;1.2819144;0.39378974;-0.09506742;0.81810313;-0.049342185;0.1127481;-1.9583205;2.4827118;-2.839274;0.8029204;0.11785272;-1.6796641;1.5538977;-0.038123854;0.53987503;-1.2406337;2.3927915;-0.960711;0.548452;-0.124806;-0.13583325;-3.0407119;0.22666772;-0.54064864;1.5720475;-1.0951735;1.1608424;-1.3035479;1.7657061;-1.6690894;1.328903;-0.9038508;2.3323834;-0.39651516;-0.6301513;-3.6196208;0.7700256;-0.3863841;1.4288921;-0.20525901;0.860977;-1.9887203;0.75567037;-1.7877196;-1.2869219;1.6114008;0.45124936;-0.41127944;0.9471332;-1.0560504;0.6650914;0.59267735;0.9001266;1.5540035;0.11635763;0.66936195;-0.85813886;3.7631972;0.6982256;1.3230089;1.4032283;1.0671287;-0.50154006;0.44588476;1.4940712;0.30501875;-1.0830946;1.4401566;1.9265199;0.55894095;-0.6104652;1.6217582;1.4782093;1.2214793;-0.5426722;-1.091384;-1.1003542
1.3665878;-0.1973268;1.4818593;0.2815415;-0.34076238;0.7667161;-0.29089528;-0.56561166;-0.98255074;-0.15936655;-2.1665895;-0.5319865;-3.0794718;0.41710734;2.0102024;0.2598385;-0.4474703;1.8424425;-1.1475737;2.4846926;-1.2214401;-0.88515276;1.0839852;1.1964141;0.080451444;-1.6342894;-0.5706897;0.5634418;-2.8213632;-0.19167425;-0.4124337;-1.0988123;-3.7961266;-0.1772849;-1.6526171;1.1483203;1.6934563;-0.466956;1.8794175;0.45221752;-2.9258764;0.46867338;-0.31686336;-1.2706505;1.6424983;1.2447773;-1.7646754;0.7483967;-1.6616535;1.1396914;-1.7296683;0.5707157;-0.9537979;-0.3341862;-1.0689962;2.7094347;-0.86229753;-0.6940056;-1.5005422;-2.0454135;-0.19587857;2.5106714;-1.075623;-0.15452725;-0.4034411;1.2132643;0.5253326;0.9803824;-2.79284;0.4784119;-0.8660338;-0.12710908;-1.3469161;1.2229996;1.4658355;-1.4724073;1.5664494;-0.2319812;-0.54244375;-1.3745338;-0.37170708;1.5920894;-1.6819229;-0.2757832;1.1577249;1.1062602;-0.38991457;2.611929;0.018681861;-2.2917237;-0.09098565;0.119506404;0.34443572;1.4910463;-0.18978317;2.028298;-0.81224024;0.26482883;-0.52800757;-0.32299003;-1.503204;2.8169289;0.9104471;-1.3289468;-0.42412412;-0.9270751;-1.442384;1.631895;-3.5673;-2.120625;-0.20803356;-2.0308669;-1.308397;-1.3358934;-0.9746293;-0.27148423;-1.5069884;-1.3313417;0.17090504;-0.25637788;1.4504161;-2.3241186;-1.2915401;-0.9607812;-1.2708849;-4.4175067;-0.44323495;0.5296108;-0.26373565;0.35189816;1.0561513;-1.4278666;0.2730353;-1.5200218;0.02552343;-0.66917783;1.1646117;-0.14818317;-1.2958174;-3.0390239;1.1802126;-0.35319278;-0.9454781;-1.1185764;1.3148794;1.1319133;-3.0813236;0.65990204;-0.71595734;-1.1768597;-1.65343;1.5724865;1.5808221;0.20651978;-1.4982673;1.0748379;1.2280643;2.2003176;1.7157873;-0.57780665;-0.13568042;-0.00795735;-0.5299975;1.6720793;1.0049163;-2.5316105;1.2706704;-0.54731244;-0.31642857;-0.6726097;0.0461899;-0.94263357;0.49512345;0.41291168;0.3220391;-2.6517377;-0.7248108;-0.3302123;0.5915478;1.764242;-1.8083194;3.2228677;0.07679965;-1.6279062;-2.708832;-0.58057445;1.1679205;-0.43804753;-0.93758255;-0.45475113;-3.90388;-0.7427243;0.30252364;-1.8092573;2.028469;1.8048494;0.11645298;1.681611;-1.595306;0.81718916;-0.46101242;1.1149644;-0.3437302;1.4889879;-0.006818343;-0.70578694;1.0177798;-0.28731883;-2.922066;1.9966152;-0.33228844;-2.5215394;0.52000093;-1.4226207;0.788293;1.4203635;0.5429403;0.5478152;-1.4473054;1.1203867;-1.3729411;0.35885864;1.3982371;0.22391741;1.9733732;-0.46927515;0.66898555;-1.0171183;0.89643204;-0.49270627;0.40319428;-1.4748154;-1.552144;-0.47656095;0.43946755;0.9366736;0.034491967;2.423405;0.065951645;-1.5115483;-0.71801573;1.8593773;1.9021809;2.518024;1.2908788;1.1542403;0.745337;0.05532091;1.5783229;0.01799555;-0.066416994;-1.499686;-0.6274189;-1.7271072;0.8753723;-0.75738245;1.3590693;1.9462944;0.57023853;-0.99564356;0.20412806;2.537657;0.7325055;-1.064969;-0.26709557;-3.2581794;-0.52477527;-0.97751635;-4.0483203;0.010715867;-0.29085556;-0.9135675;-1.1626562;1.3299457;-0.2581255;0.100493066;-1.4084122;-0.28352243;2.5897396;0.20970221;0.43911695;-3.3149695;0.89817816;1.4688164;-0.21157591;0.29477876;-2.3407702;1.373408;-0.43337622;-3.6591208;-1.0148174;-0.7078288;-1.7372818;0.8383455;1.3723433;1.2435414;-0.12849608;0.80358905;0.8470555;-1.3444077;1.7641287;1.8104372;-0.23378554;-0.6418791;-3.2117205;0.6723466;0.79510725;1.0863433;-0.23900057;0.2285153;-0.11751465;-1.2494624;0.7208235;-1.1392313;2.0539145;-0.04184928;-0.7326172;0.17347816;0.27609012;-0.68604153;1.4800375;0.48125002;1.5443386;1.7881372;0.73903877;1.3104899;0.9327648;2.394512;2.2426615;0.6726572;0.60808146;0.005442033;-3.4901628;-1.1798493;0.003392495;2.0088377;0.53448325;3.061143;2.09283;-1.1640072;-2.321337;-0.21035516;-0.49267837;0.7465596;0.06003019;-2.190118;-4.8126273;0.63719714;0.8838798;2.68714;2.9896295;-0.2974617;-0.41050753;-0.41820666;1.4804626;-0.4836497;-0.43920472;2.4366431;0.81429946;0.93656605;-0.9943239;1.0165746;-0.68821853;-1.7056915;-0.020585192;-1.0475614;3.2540739;-2.0136397;-1.4312897;0.7709819;0.022700315;1.2856411;-0.7856255;0.32572666;1.7228004;0.88224584;-1.8388319;1.7876219;-0.37537992;0.77225626;0.08004898;1.2631775;0.33666167;2.1048632;-0.69554293;-1.1096711;0.4446139;0.26672357;1.4197987;-0.9617006;1.620283;1.1718502;-0.80797637;-0.9116238;0.34700736;2.67452;1.1895115;0.99153537;-0.57785195;-0.0984463;0.035704248;0.53516364;1.1758155;-0.087437734;0.21016477;0.14337431;0.13355093;-2.5938478;1.320864;0.051261876;-0.27530804;0.15289997;-0.20356107;0.8210784;0.31447908;-0.36896396;-1.6462159;0.01878764;0.49562475;0.7012608;-1.2675109;-4.9826484;-0.33652815;-1.8751426;0.021169955;1.3589761;0.9416398;1.8172479;1.338654;0.39738303;-0.76475143;-0.09053183;0.33556876;0.36274227;-1.1781868;-1.9542801;0.59594035;0.02101966;1.8513509;0.16380352;0.5713371;0.54439026;-1.4581944;2.5644069;1.5287604;0.68549335;-1.7819812;-2.3640587;-0.50828683;-0.9830495;1.2732079;-1.3450134;-0.7764803;-0.3994981;-0.46332777;-1.1017756;0.7775758;-3.3573751;-1.1131113;0.9401904;1.5387317;-1.752198;-1.6278574;1.4621063;0.59540623;-2.6846275;1.8800306;-0.56688446;-0.49394536;-1.19446;-3.2595088;-0.58155435;0.83022517;2.1141305;-2.8260672;-0.19404106;-0.058958687;-0.60390884;-1.0288292;-0.27967975;-0.20204301;2.3538997;0.28726634;-2.48186;1.3571345;-0.8743729;-1.9384696;-0.576136;-0.8619308;2.7470453;2.1703146;1.5881816;-1.3884972;-1.556339;0.20349061;-1.0862236;1.0715361;-1.3418193;0.30427796;-0.39033473;0.69014525;0.7714241;1.1575588;-0.94017196;0.7848482;-0.5715629;1.1883094;-3.4338155;-0.30102003;0.80931705;-0.24511997;-0.90785956;-1.7646339;-2.0244994;-2.1434507;-3.7037704;1.298257;0.36467385;0.43115473;0.015140032;0.8767095;0.5529316;-1.1719673;-0.1373809;-0.9722126;0.9683433;-0.23565887;-0.046625197;1.325869;0.70261323;-0.6316566;1.3187042;-0.6742875;-0.16786343;0.04214122;1.313623;-0.4281909;-0.4167282;2.4575238;-0.8249536;-1.5193204;0.78058994;-2.2587054;-1.0060773;0.6898115;-0.3431071;-0.6765976;-0.22092308;0.46436223;-0.041350614;-0.7189434;0.9353762;-0.54453206;1.5007672;-0.31406298;-0.58753246;0.1256603;-0.5466557;-0.2345949;0.4675449;0.40274146;-1.5821569;-1.9907529;2.2262754;2.9608438;-2.4594812;-0.85238785;-0.087494515;-0.23911288;-1.3354167;-0.15687406;4.177129;1.0518209;-0.9637133;-0.028484413;0.25422102
2.8900917;0.49338418;1.2483394;-1.0821007;-1.2621145;1.1497703;1.3717735;-0.74344355;-0.97290957;-1.4221886;-2.0259674;0.5329733;2.0169766;0.89521104;-0.36593428;-0.75870323;1.2230875;0.106827706;2.922402;0.9696735;2.823833;0.6400558;0.03694086;-3.2575312;0.7247741;-0.3148058;-1.3248392;-1.4588126;-1.1024407;-0.99240875;0.73733395;0.12301531;-4.816811;0.12441598;0.32147318;1.6368542;0.8353957;-3.5437987;1.5083784;0.60894674;-2.6728454;-0.95366997;-0.34467557;-1.8057976;0.76753044;-0.11143808;2.1785488;2.2824278;0.55176914;-1.7982256;-0.28140265;0.5528589;3.018061;-2.1221147;-0.958299;0.17740676;-0.17039353;-3.5283203;1.0261483;-1.5553163;-0.0010274206;3.2451367;-0.48544347;0.46542245;1.2252613;1.1043831;0.029458158;1.4298018;-2.2143912;-0.024993086;0.044582594;-0.63103867;-0.7530557;0.010092697;-0.71738005;-2.1033523;0.09572705;-1.7554083;-3.3561478;-1.1917282;-0.65870476;-3.192588;-1.9484795;-2.3531504;-1.0658787;0.75934243;0.6255323;1.0127912;0.57791686;-3.516489;0.2640506;1.231176;2.5159237;-1.6972289;-4.2628593;-2.1430972;-1.4212584;1.2020372;-1.0907719;-2.610433;-2.0361855;-0.011907931;0.81734204;1.0252427;-0.9264756;-2.9410317;2.4706225;-0.68670005;-2.5920312;-1.9363557;-1.7302091;-1.5873518;-1.8484325;3.9059627;-1.7497399;-0.7186127;0.13852449;1.5675191;3.3527203;-0.520312;-1.7157167;-0.146481;-0.056837164;-1.4443723;-1.2324985;-3.4343994;-1.1438947;-0.30031177;-1.2671975;0.42075908;-0.5445439;0.51761794;0.42209026;-2.8714612;-1.0082378;-0.23557271;-1.2749535;2.3399436;-0.7387;-1.0943207;4.080466;-1.2397215;-2.3335223;-2.0643795;-1.7340418;-2.446305;-1.0692471;1.1909206;-2.1112273;-0.6783327;1.9372152;1.3887228;1.0032476;-0.0005518065;0.6814124;-0.84244657;-1.464625;-1.1253334;-0.07786079;0.4311777;1.5070423;-1.1345333;-0.15670697;0.9441531;-0.18475962;-0.18791395;0.35264066;1.525007;0.067434855;1.3300345;2.0261862;-2.6789575;-0.8938269;0.4501277;-0.15086724;0.43456835;1.1757597;-1.1458223;3.0721977;1.6152468;-0.7066928;-3.5522013;1.9142196;-3.1021578;1.5228475;-3.0483665;-0.06758323;0.7262446;-0.45802665;-2.4232464;-1.3436328;-1.0971615;-1.1144731;-2.11892;-0.33522683;-0.18076523;-1.7933098;0.20061547;-0.45002025;0.12191691;-0.15348129;1.4415163;1.1924798;-0.62926626;-0.76112086;1.2308253;1.9241972;-1.214219;-0.1622489;0.32718337;2.4591565;-1.2158766;0.8129275;-1.3501772;0.8811366;-3.780327;-0.37549928;-0.96879756;-1.6394417;-1.3513714;1.7086208;-0.26759768;-0.54481643;1.0226307;-1.0965459;-2.2766578;1.3725172;2.5098448;-2.0702288;0.62849844;2.1947253;-1.175499;0.25419742;0.46207958;1.5467496;-0.48715934;2.5872777;0.6334553;-1.3299302;-2.127204;0.12388112;0.7221758;1.9191601;0.70251924;1.2251405;1.9581227;0.14876936;-0.20314324;0.5085945;0.40641284;2.1863787;-1.7460952;0.012509945;-0.43790528;-1.4510275;-2.0586116;3.045588;-1.2846777;1.1112895;-0.55093133;-1.1870735;0.69974136;0.78861654;-0.052349415;0.24259797;-0.60699314;-0.22699423;1.6791699;1.7525462;1.835448;2.5143173;-1.1886417;0.4511268;1.9970447;0.819289;0.4976274;1.5454626;0.8724524;2.4205842;-1.0228761;0.3759332;-4.3366423;0.3915928;1.0116345;2.3685434;-0.8819089;-2.8134646;1.1585368;0.38219208;-1.8693918;-0.73537725;0.020434981;-1.6673313;0.5421439;0.13485463;0.81939334;-0.1216361;0.10106151;0.43326563;-3.634174;1.0831547;1.1200631;0.8813083;-2.4042077;-1.0238688;-2.7865028;-1.4730899;1.1285908;-0.8170221;1.5249468;-0.6729291;0.2761504;0.61947006;-1.5706493;0.8879484;-0.9800275;0.27839538;0.9375592;0.4492092;-0.5623108;1.5232024;1.9468445;0.021634677;1.6174667;-0.6076843;1.3930484;0.58311063;-0.3053687;1.153225;1.2270218;-3.3246214;-2.847672;0.7622086;-1.3520944;-1.8793384;-0.36650002;0.76200485;1.5012226;-1.3747876;1.8388959;0.50255895;-0.50686246;1.9328167;-0.011978746;0.7906921;0.4188649;-0.37541682;-0.049745575;-1.2912992;-1.7872099;2.314923;0.6030376;0.9323374;1.621;-0.27666965;-1.8654675;0.21118733;-3.2429318;-3.2157037;0.62764907;1.2075883;0.27623734;0.21500446;-2.60764;0.14123824;-1.694695;-0.14493729;1.2969097;-0.72954875;0.9406366;-1.527022;-1.7407539;-0.80511117;0.99689746;-0.2039157;0.5772167;-3.5391629;-0.9282518;1.530772;-0.56390834;-2.188803;-0.6277412;1.6008095;0.8273128;0.037702117;-0.62238955;0.15573381;-0.442097;2.356746;-0.28660873;-0.70080364;-3.6412058;-0.8913681;0.21461508;-0.6624015;1.418072;-0.6429526;1.8805006;-1.272609;0.88801694;0.28707686;-1.2522902;2.55751;0.87410384;-0.52664924;0.09028179;0.7707627;0.04023059;1.6487986;-0.94370806;1.0260688;2.0854123;-0.8626902;-2.5347083;-1.0583316;1.0426533;0.033739064;-0.8548327;0.86311233;-0.7663045;-0.33908486;1.3636668;0.27417317;-1.1215289;-0.46071288;-1.261699;0.3905595;0.19697197;0.6845888;-0.24575226;1.1282678;-0.17807886;1.0347475;0.009538467;0.2602224;-0.1289181;2.4665537;2.7716668;1.5943304;1.2536227;0.07060062;0.97234863;-1.9291452;2.617702;2.5667398;0.06935611;-1.5805925;1.2074069;0.52808523;1.0555323;0.4055816;-1.040199;1.7522327;0.92443264;1.5764152;0.36930084;-0.35078108;1.0011259;0.32934734;0.72753716;-0.5980138;-2.2544298;-1.8719492;-0.3614953;0.10176645;-0.84846175;0.7175399;-0.77724147;-1.3912758;-0.5676844;-0.99183065;-0.8151233;0.11883047;-0.1094944;-2.095621;-1.6855832;0.7946469;-0.88169295;1.4057235;0.13705139;0.38325775;0.124837026;0.45115498;-1.4281372;1.5503815;1.1488702;-0.9953616;-0.95154697;-0.37134054;0.5198458;1.3177398;-0.73866224;-1.0893382;-1.6864308;1.3421967;-2.0334702;-0.53185683;-1.5754887;-3.9760287;1.346939;1.6651659;0.6654019;2.5572457;-0.42072785;-0.65119135;-1.2017326;-0.6367359;-1.730741;3.5984404;-0.10496752;0.6159439;-0.21117374;-2.9071968;-0.40427113;-1.6248531;-3.2021523;-0.3017409;2.5700362;-0.30098754;-0.67132664;0.28725362;0.9510741;-1.4355502;1.9384205;-0.8976737;0.5043461;-2.0747378;0.6150062;0.81249815;0.76516175;-1.0070208;-0.63708746;-1.1780702;-2.2194607;2.2910724;0.092203565;-1.1325543;1.9341108;0.9444876;-0.14662273;0.46799135;-0.21395044;-3.0785992;-1.1969932;1.647195;-0.17412052;-0.3755525;-1.0533389;1.3016843;-2.330458;1.0547167;-0.07903261;2.5849278;-0.5072625;0.17418432;-1.8485434;-1.0141016;-0.867295;-0.17114532;1.4907799;4.5625105;-0.3009062;-0.3885241;1.5591753;-0.9880814;-0.70192176;-0.49951524;-3.9024267;0.3498817;-1.9134976;0.55728275;0.6610551;-1.1388372;-1.6555886;0.09855903;-0.41087064
0.17623869;1.487984;1.2904085;1.5112995;-0.75617677;1.8082457;1.204764;-2.6152554;-0.66199917;-1.3895202;-1.2644509;0.0232501;-0.42676407;1.4477297;0.173885;1.7120631;0.5747195;1.5339172;0.06420974;0.4040271;-1.091247;0.7855772;1.4386779;-0.75734735;-0.8479427;0.5193223;-1.5275369;1.6596458;-2.408909;0.032012627;-3.7303672;-0.021880278;-1.3349135;-1.7791083;-0.16272376;-0.30253708;1.096484;0.65393925;1.0598342;1.9990062;-1.3366687;1.0587481;1.4359359;0.40952384;-1.4256238;0.6502563;0.08222473;2.8567154;2.8630066;-1.3058897;-2.571358;0.4769108;-0.20863156;-1.3080124;1.3312553;1.872411;1.6199913;-0.08350942;-0.61296314;1.5482336;0.06951843;0.3374763;0.3437001;-0.28215787;-1.0093604;2.011989;0.33618373;-0.96988434;-2.1299713;-0.2975514;0.08238108;0.00339091;-1.0285975;-1.1651888;0.09772448;-0.45927957;0.3916659;-1.0698879;-1.9191744;-1.6808344;-0.7759931;0.94421095;-1.0912175;0.70243466;-0.2158196;0.43943784;-0.85451204;0.5453508;-1.2533184;-1.5221808;-0.49035755;0.6212668;-0.4807744;-1.7006955;-3.8071787;0.77679926;2.1205947;-2.4504097;-0.18214348;-0.6471937;-0.27454114;1.0267556;-1.1788788;0.061414115;0.61998874;0.8176962;0.2810612;-2.0077443;-0.7239106;0.70395553;-0.18024811;0.5984182;1.0517828;-0.32245448;-1.2693923;0.2378061;-1.3116381;1.9657593;0.9725885;1.2954617;0.65453565;-0.01892301;-0.2233395;0.91872025;0.14844812;-0.53851396;-0.059607815;0.82900274;-0.12039241;1.6645896;-0.34529668;0.5575024;0.4076718;-1.5365285;0.103979886;0.62074137;1.7073295;1.4047946;2.307774;1.7624127;0.17620614;-2.3049219;-0.70009565;-1.0039468;0.430285;-1.4851334;-0.50277245;0.05620136;0.9535095;0.61724657;-1.6585301;-1.1146835;0.53709537;-0.18257664;-3.5727515;0.8374841;-2.0903752;-0.32479602;-0.40805173;-0.34257323;-0.39858603;-0.27778372;-0.11019513;-0.5076407;-2.646408;-1.1364586;0.8015066;-1.2763621;0.9957992;5.8562374;0.61675406;0.90400636;-2.4558048;0.97601414;0.014685793;0.7604574;-0.743747;-1.9149989;-0.015538736;-2.2778144;3.0933087;-3.0294168;0.09408213;0.89955837;-2.5690942;-1.3693935;1.0626496;0.65185094;1.248925;-1.0573977;0.92270815;-1.3021005;0.25984806;-0.331974;-1.8026395;1.45445;0.7614484;-1.3018708;-0.5494462;-0.3151461;0.05794209;3.0401163;-0.21899164;0.74819314;-1.3802764;-0.51264364;0.09640302;1.1555014;0.9015133;1.3250593;-0.288563;-2.645277;0.92332083;-0.35845912;2.1275063;-0.52428013;-1.4485224;2.0441704;-0.043260746;0.29574123;0.38834298;0.6193554;0.8081826;2.5071275;-0.9961479;-0.473203;0.3666862;-1.918119;1.176482;0.77242714;-0.6081931;-1.5123425;0.64710706;0.07413053;-0.048336744;-0.14399664;-0.4760596;0.6119235;0.94770753;0.6327837;1.455267;0.3450594;1.8440093;-4.012983;0.17274643;0.5544377;1.0605301;0.36232707;-0.36259553;-1.7826086;-1.8817986;-1.4840677;-0.51194006;-0.1394561;-2.0501854;-0.3056812;-0.03933928;-0.32064652;0.028209254;-2.0410056;0.6725818;-0.39909732;1.589238;-1.2964753;-0.30438414;-1.7281904;-1.4783775;-0.3724713;-1.1637199;-1.6741236;-2.2171903;0.6180696;2.794047;1.7404132;-0.31030115;-0.3789981;-0.4960939;0.72829217;1.8353657;1.0591846;-0.17181802;1.1591148;-0.9325357;-1.1082674;0.32023397;-0.7691174;1.6943924;-1.3054793;0.036149822;2.0770452;-1.2963829;-1.3558148;-0.30155343;-0.0018013176;0.7542186;1.0476446;-0.4609503;-2.051975;0.606412;0.47062367;2.1136467;-0.22650151;-0.4757807;-0.12146834;-0.4412435;-0.6734647;0.25160182;-0.29794994;-0.094470985;-2.6400695;0.039307375;-2.140208;-0.52276975;1.0706984;0.4569984;-1.3822122;-0.14337301;0.26640505;0.22159068;-1.3944085;-0.21932954;4.1549606;0.06775732;0.98334646;-0.34649193;1.7157627;-2.873892;1.9243708;0.9094178;1.1850241;-1.9888382;0.0008376721;-3.9985797;-2.3400471;2.481712;-0.2775192;-0.4116887;4.195762;0.13598105;0.6962624;0.52995104;-2.958656;-0.32471412;-0.90594244;0.81945896;0.8056692;0.16786775;0.62525827;0.0416771;1.4901037;-1.2009671;-1.0601144;0.6410332;1.2825522;-0.82561356;1.1557693;-0.09580634;0.6725805;1.2940035;0.53807527;-0.8112801;0.04821103;1.0664425;-3.5396686;0.8041295;-1.3238425;3.2628727;0.8372013;2.361212;-0.5357643;-1.7670875;-1.86054;1.4071995;1.1448219;1.6576837;0.030911876;0.058362015;0.08717895;2.6523862;-0.4981788;-1.1796483;-0.63975203;-1.3968581;2.0542445;1.6351058;-1.0414246;-0.32043836;-3.301625;0.61601686;-0.16778557;-0.33330086;0.54780054;-1.3612955;-0.5926127;-1.3692164;0.773977;-2.1121929;-1.1448382;-0.98796886;-0.99229467;0.23749408;-2.1584222;1.6370531;0.80519325;-0.13897291;2.0892262;0.39721185;-0.60211325;-0.65762484;3.051002;0.82128185;0.33356714;-0.50845194;1.1391611;0.14569579;2.0164413;-0.08960317;-0.17252226;2.940172;-2.1266208;3.981183;-1.071786;0.889203;2.213256;0.28757727;-1.7206631;-0.5092962;1.7162478;1.6774567;1.2698728;0.32014355;0.5135277;0.3752848;-0.3960771;1.8567516;1.7191781;0.54397064;-1.432447;0.008088069;-0.76596624;-3.214295;0.7404481;-1.4183221;3.0440803;-1.4377103;1.0428511;-0.012063942;0.25460678;0.77780175;0.24846347;1.4222345;-2.907225;1.0000466;-0.70792437;-2.4234116;-0.48313358;-1.386288;-2.9444926;0.39658847;-3.0627031;1.2770679;-1.6729788;-2.2737515;-0.0662844;0.4059355;0.39961317;-0.82271045;0.20088358;0.4766058;-0.14890413;-0.49882603;0.16574384;1.8922739;0.904212;-0.4935487;-0.96640867;-0.4869982;-1.2842611;1.0349877;-0.53143364;-0.27222744;1.917839;-2.6520915;0.5421211;-0.30583364;0.25353438;-5.116585;1.1509155;-2.0322888;1.1591704;-0.6473975;1.555051;-1.724649;-0.9006064;2.3314316;1.4275503;0.058578357;-1.208846;0.24765594;-0.91224515;0.5420311;1.6015991;1.3560477;-0.5633433;-0.90092933;-0.41681817;1.1609865;0.5907417;-1.0077168;-0.39125428;2.8153474;-1.480059;-0.19210853;-0.13666542;-1.1745033;1.4328269;-0.025905281;1.6142923;-0.8742228;0.9139841;-1.8705424;0.61253923;-0.40122995;0.7550786;-0.4971179;0.29479104;-0.99066496;1.014778;0.49318448;-2.8193216;0.7156747;0.62323767;-0.79093176;0.36469984;2.8809373;-0.08673848;-0.8571619;0.77226305;1.1064183;-0.87617296;-0.60879743;0.9670952;-1.5639151;1.2916725;-0.40385327;-1.9802967;-1.2695705;3.4067862;0.5286428;-1.1202339;0.9219788;0.75028855;1.8400759;0.42559576;-1.9475375;-2.500002;2.0037436;1.6638858;-0.8766105;0.7985606;-1.4680151;-0.9265246;-2.308767;-0.438344;0.20776165;1.3139263;-0.13221705;-3.4580107;-1.9327084;-0.29406753;-0.07474187;-0.65041983;-1.008947;-0.09197954;1.3496397;0.9411818
0.019134024;-1.2238479;1.0769747;-2.1111195;0.21048613;0.16464366;1.2071003;-1.9625331;-1.0442219;-0.042534936;-2.8838024;-0.54005337;-1.1444733;2.8216953;0.1837335;-3.0119724;1.2916019;1.8619825;-0.76506346;-0.12981887;2.849296;-1.1244586;-1.1711202;-2.473484;0.9914164;1.7174078;1.6630448;0.18196212;-2.899057;-0.3467585;1.6464331;-1.5300928;-1.5215955;-1.3045653;0.8191081;0.73588836;-1.5122998;0.8452392;0.5172876;-0.81655407;-2.5578256;-1.5093701;0.33418965;-1.1644037;-0.95660335;-0.55541253;-2.3984265;0.9040229;1.0499719;2.6343675;-1.1075993;0.43958324;-0.47138718;1.3538696;0.07920312;-1.5725837;0.93497455;-0.38116074;0.7671299;0.10277728;0.048583336;-0.8378674;2.002308;-0.50751835;-0.38393295;1.2752761;-1.2648785;-0.8640616;-1.5166848;-1.7279351;0.4431162;-0.48768708;0.7801307;-4.0472045;-0.0013004788;-0.08152227;0.13927157;-0.36789373;-0.4320009;1.1725906;-3.8586433;0.44348192;0.039081704;-2.4579582;-1.3239863;-1.828658;-0.99692935;-3.0708783;0.4802832;-3.1460052;-2.3664908;-0.5302275;0.40200713;-1.4814066;1.4525527;2.6894042;-1.294682;-1.8718823;-0.5695417;-0.78902143;0.165604;-0.06462196;1.1202996;1.5915124;0.6750361;-0.23697853;-0.13107799;0.62428373;0.7015831;-0.4476825;-0.019833084;-0.8161012;-1.3292912;0.58368826;1.8758734;1.209243;-2.6569757;-1.6224943;0.39283115;-0.09926727;-0.5770893;-2.0464206;0.34002307;-0.85021836;-0.99996847;-0.7157943;-0.15408924;1.1917995;1.0126921;-1.3273126;-0.19390479;1.1603997;0.3056198;-4.4266615;-1.3024852;-0.1758037;-1.9670156;0.55917645;0.32836363;1.5507331;5.2473416;-2.1505857;-0.65613997;0.30193174;-0.6525244;0.13798244;-1.598289;-0.78151566;2.4345644;-2.1476161;-1.1534804;0.70445526;-0.5563485;-0.6141686;-1.3345021;1.5388277;0.10465679;-0.85670453;-2.7315733;0.9751758;-2.8770704;0.6509393;0.08070448;-1.501426;-0.25036582;-2.1394126;-0.6524702;-2.8641543;0.08485231;3.7064667;0.8627809;0.6833238;1.7598068;-0.75818396;-2.2052257;-2.3848732;1.1112034;-0.11594155;1.2794913;-1.4396973;0.73940253;-0.2497821;-0.20406145;2.0792708;0.5608358;3.2323728;-3.047532;0.5880228;-0.11033803;-0.2535254;1.9968702;-2.1027472;-1.2375396;-1.3328867;-1.6253132;-0.3839645;0.19038467;-2.1277988;-0.047001336;-0.95957696;-1.1680888;0.78863555;1.9125257;-0.5693706;-0.38931826;-0.11370895;-1.5467644;1.5869099;-1.4070094;-0.495775;-0.41334617;0.5051672;-0.2379565;1.1099213;-0.46283808;0.41452554;0.6748281;0.80430293;0.9836233;0.52485406;6.480741;-0.10287659;1.9657857;-0.036595117;-0.17245542;-0.29950085;-1.8252451;-0.43091175;0.435844;1.2719451;-1.2901218;1.779609;-3.0151305;-0.24771841;-0.061385006;1.3047259;-3.710086;-1.3368949;1.1448315;-2.1248963;1.5384495;0.079408884;1.4842392;-1.2741584;0.70425737;0.3845981;0.04822694;3.8857496;-0.33855075;-1.381945;0.46402538;-0.6368007;-1.4497936;1.3696542;-2.1632466;0.12798573;0.027781613;-1.7468942;-0.58144885;0.7063794;-1.500104;-0.62116563;-1.1594765;-0.12773135;-0.07360752;-0.45323125;0.84496415;-1.4022887;2.1875443;-0.9654479;0.05020567;1.9356011;2.6236682;-0.23657702;-1.8494267;-1.0689744;-0.36659464;-1.697305;2.0713038;1.6516525;-1.0154235;-0.436272;-1.0158069;0.21004508;1.1843227;0.1502952;1.0708761;0.875536;0.7817282;-1.655111;-0.43021294;0.5923876;-1.983065;-0.6910404;-0.48450196;0.12529056;-0.917425;0.37925693;-0.3036042;-2.5829742;0.10388064;0.5912398;-1.2772518;-1.605475;2.9248443;-3.0022538;-0.10535094;1.0323046;-0.0182709;1.3197794;-0.383062;4.1390057;0.3104902;1.4721361;-2.5858345;0.16907483;0.8465492;-0.3431113;-0.5530201;-1.7883301;0.32206014;1.1793811;-0.5197196;-1.8512084;-1.9398072;0.8126787;-2.214351;-1.7631242;1.896813;1.0081022;-0.4958544;2.0865889;-1.7481127;0.26085448;0.91768956;0.27375504;1.0970436;2.8648558;1.2353098;0.38258836;0.58895147;-1.1554339;0.29502404;0.49310786;-1.5858444;-1.0026042;-2.4528284;0.44621715;0.12990448;2.0715694;0.90240103;-2.2549195;-1.4469469;1.7494836;0.86199516;1.0455878;-0.70228326;1.2011954;-2.3230689;1.3796039;-0.8899966;-1.1663449;0.22235522;0.94724154;0.29317233;-1.5443783;0.36039177;0.74141604;1.4747097;0.35557634;-0.99040186;-1.8872478;-0.50279063;0.71367526;3.02095;0.065184064;0.4789254;-0.710077;1.237074;0.3983588;2.24323;2.3446236;-0.26479936;-0.7923873;-0.5233336;0.37050492;2.0317438;-0.009035623;0.2159915;0.007660902;0.9541281;-1.6409675;2.8166711;-0.3196302;-1.8280721;-0.9089223;1.3960254;1.5323155;-1.3068299;1.8517045;0.08024463;0.5088512;-0.672392;0.56903076;-0.33597794;-2.7470021;1.7479686;0.1854503;0.53046376;-0.7748301;-0.75062025;-2.0218275;0.3166539;-2.6831422;-1.5677258;0.8302987;-0.26792738;-4.6733794;1.1176074;0.4425823;1.9654043;-0.13518721;1.8199084;-0.38688445;1.1376396;-0.72297;1.061533;0.62135035;1.9971546;2.7912862;-0.020080278;-1.1147746;0.3489089;-1.7382165;-1.7142411;-0.40663525;2.126647;0.5774975;-3.5632367;-2.9823492;3.4474123;1.1216981;0.22545752;1.8851842;2.9268904;-0.12604225;1.0871099;-0.38974357;-0.03603997;-0.07005014;0.9516838;-0.1197649;1.6405116;-0.61085474;-0.17747003;1.2633214;-0.8692565;-0.065519646;-1.4430382;-2.9325294;-1.3808681;-2.345271;-0.50375193;-0.5853661;0.60470307;1.5977015;-0.0045653456;1.4095118;0.099177055;1.8584331;-0.20934653;-1.7820325;-0.9314717;-1.8940414;0.062493727;0.10650763;-0.40121782;0.4165736;-0.08502279;-0.031472076;2.1051695;-0.70843613;1.0240782;-0.51400274;1.7681884;3.564755;-2.2260973;-0.31592163;0.7345417;-1.0301734;-0.19863379;-0.12385631;-0.109559745;1.2128472;1.3333513;-1.0215822;-1.1270512;-2.8974953;1.0143627;-0.47734332;0.19858591;-1.3856163;-1.0908883;-1.5571272;0.9994725;0.16120379;0.77916205;0.08381516;-0.6663046;-0.671661;-0.7663461;0.644167;-1.1598514;0.73327255;1.900138;-0.7241614;0.73701835;1.6249155;-1.3800291;0.9303497;-1.8723414;-0.85519767;-0.39336962;0.16618642;1.1683756;0.85707426;-0.083054096;-0.9777572;-1.2122413;-1.8759838;1.0712948;1.3109715;0.29229152;2.5428612;-2.041282;-0.15736172;0.57835627;-0.26508754;-0.30124053;-2.4401731;-0.47697031;2.6973479;-2.0089343;-1.0685375;-0.23604006;0.25100878;-0.79973274;2.845731;-0.45377076;0.84916604;0.055508062;0.28007385;0.33108592;-1.8416554;0.66944826;-0.37876207;-1.6854715;-1.3773222;-1.5371078;-0.025231892;0.30363753;-1.0753402;0.38763192;-0.52113986;-0.30420113;1.2885101;-0.31413922;-0.30744588;-0.43157676;0.7539761;-0.024083436;-1.5081633;-1.0081074;-2.8184612;-1.8635758;0.0150647815
-0.43385434;-1.0854418;-1.2978084;-1.4812746;0.40064552;-1.050769;2.1973498;-0.6061829;-1.4618834;0.48482108;-0.56801826;2.0696342;1.7144232;-0.95641816;0.34754854;-1.5681982;0.3274423;0.6708386;2.770544;0.50512564;3.5132818;-1.3923589;-1.3670192;-1.0803398;-0.11864413;-0.37182328;1.5780722;1.6091473;-0.036168292;0.80550855;-0.6888059;-0.4334384;0.027892752;-0.3272858;0.09475619;0.76806575;-0.61834604;1.1712334;-1.7438452;-0.5491101;-2.0689766;-0.8993479;-0.73255527;-0.5149638;-0.24815227;0.65871733;-0.8898603;0.009264283;-0.10346172;-0.018444179;-2.9213946;0.25477222;2.0054145;1.9535835;0.40679947;0.60161906;-1.1923631;-1.25751;0.804464;0.24950369;0.1762156;-0.53157943;0.53149366;1.0503088;-0.57875;0.4393455;-0.012301946;-0.8837777;-0.02090809;-0.095759995;1.1633172;-0.58491;-0.53348994;-3.9025664;0.069752514;1.0861893;0.6452413;-0.55855393;-1.9065853;-0.091832735;-2.5588055;0.39919925;-1.8243827;0.8685139;0.27066165;0.27306685;1.2565328;0.8123103;-0.20872885;-2.5748854;-0.2593951;-1.2372638;0.6310534;2.1289325;-1.4599341;-1.4198222;-0.46101558;1.5532582;-0.08702117;-2.0335653;-0.1350918;0.76497906;1.6755592;-1.0949602;-0.1557296;-0.21250075;0.057841126;0.03500734;-0.91436005;3.404243;2.7898188;-2.421346;1.9659979;-1.6549789;2.5363595;-0.35692024;-0.16712438;-3.566389;1.7279674;1.752857;1.5483428;-0.8024775;0.9857683;-1.2661306;-0.34165272;-0.46701327;-0.5424251;1.6328806;-0.5845264;1.3252184;0.68661505;-0.16443302;-1.385299;-1.2065634;-0.1734261;-0.08641218;0.23636165;-0.32035694;-0.6027503;0.049383167;2.2218485;-0.65556973;0.510572;-2.2154188;-0.32271647;0.7967646;1.6501464;-2.5762262;-1.2155987;-1.2131108;-0.29121673;-2.9675028;-1.9681647;-0.1480948;1.6112057;0.65251064;-2.0479488;-1.8008523;-1.3641067;3.844482;-2.9080107;-0.39309978;1.3551244;-2.5682158;1.2325423;-0.18249619;-2.111016;-0.25486657;-0.32845914;2.1766946;0.7466306;0.66148484;-3.415112;-1.0793219;-0.85882944;-0.71436137;0.7793994;-3.6276605;2.0513327;-0.757334;0.39262757;-0.8290603;0.18254107;0.12854597;-0.2636543;-1.1023327;-3.9151437;0.66735125;1.5452049;0.8568308;-2.7240326;-1.5405182;-1.9367409;1.083017;-1.9098694;0.55175006;2.0395982;0.4049035;-0.45910436;0.7400027;0.3856458;-1.139671;-0.7726391;1.8768132;-1.1095254;0.6063864;2.8825035;0.24130197;-0.27224186;-0.291593;-0.20316921;0.43696177;-1.3593304;-1.0013553;1.904289;1.9706291;2.0793016;0.16909821;0.79664075;-0.37893388;-1.2574978;-1.083568;1.3174652;-0.40505055;-0.6440036;-2.3342097;-0.5027109;-0.57073766;-0.29442385;1.8955011;1.015283;-1.7275896;-3.5708709;-0.73056537;-1.4275743;0.8672308;-1.6548598;1.1074595;-1.1030782;0.77053946;0.95545405;-1.2268817;-0.08922743;0.8810922;-1.6352335;0.012856085;-0.5574747;0.56645066;0.44425645;-0.5828073;0.023590002;0.36575794;-2.1403558;2.8665438;-3.2848778;1.8610417;2.1917098;0.21113023;-0.32726783;-2.1823008;-0.31134272;0.4350623;-1.6279883;-2.0811155;-2.1407883;-2.3677847;1.2652137;1.109735;-2.178336;0.027076317;-2.5327427;1.902404;0.78281415;-1.0612377;-0.10162072;-0.27432507;-0.2914434;0.7301147;0.01566734;-0.20365508;-0.4933144;-2.1296372;-0.124663584;-0.31935328;0.15860441;0.1381201;1.478777;0.8838561;0.238245;-0.23233505;0.7725967;2.2435236;-3.7833939;0.010170291;-1.3391463;2.053004;0.4683104;2.2269206;-1.2666404;-3.1142366;0.9158086;-0.6488793;-0.8892913;-1.9156082;-0.8078063;-0.6996608;-0.07678876;1.4131823;1.381546;0.69628185;-1.8564184;0.79643846;-0.0011621995;0.8294684;-2.3362658;-0.5350068;-0.49429592;0.48526686;-1.6090175;-2.7355835;1.4493253;0.018225826;-0.49996084;-1.4928851;0.4379099;0.012300533;-1.5690137;1.1486725;2.0385685;0.37134704;2.7798307;-0.78661734;-4.4883256;0.4924535;1.8242384;-0.19564001;-1.1164318;1.0465138;-0.33416533;-0.0018062149;-1.1421964;-1.8976674;1.0664402;-0.16921404;0.36454362;-3.454914;2.2777698;-2.330884;1.2087771;0.7360684;0.9939756;0.68199474;-5.6979475;2.567755;-1.8380135;0.19384277;-1.0719877;0.7139275;-0.89222825;0.50515664;-0.4869811;0.24514419;1.4679505;-0.24603286;0.6030012;-0.021324947;1.5530329;2.0055144;0.6488023;0.35803187;-0.0945541;-1.8651495;0.44420674;0.7450881;0.74212456;0.844453;2.3821988;-0.3982819;1.2156916;2.8606615;-0.37184516;1.0344815;-0.0054365;0.3575407;1.8961346;-3.1127985;1.1278137;0.2364546;-1.0838736;0.7254591;-0.6388866;0.43422303;-0.050091498;-1.7881784;-0.51568824;-1.1847863;1.0461956;0.12993018;-1.1362805;-0.8932622;1.1333315;0.0428316;0.67843086;1.276367;1.0103188;-1.6553696;0.6081726;0.40769798;-0.43374854;1.0669206;-0.16325672;-1.513588;1.4658763;0.45848972;-1.6770704;-3.1647356;0.13120933;-1.0318912;0.45091245;-1.6448824;-1.5444597;1.3558766;0.7871761;1.1214786;0.69502133;-1.3381168;0.15968174;1.624031;-0.7556741;0.90062267;1.3471369;-1.8238008;-0.21709459;-1.3179673;-0.4975866;0.66022265;-0.94249344;1.0454514;-1.2936499;-0.37906167;0.4211813;1.6309863;-0.729897;1.0211477;-0.3736581;-0.5341772;-0.8615275;-3.9665349;-0.7097052;-0.083933026;0.22823022;0.5654709;-0.9492371;0.34592658;1.7841337;-0.5729676;-1.495937;-2.6803825;-1.2517992;-1.830148;-3.7156188;-1.2560248;1.1896913;-1.050113;-0.4255718;2.3512707;0.76996183;-0.506724;-0.6661562;1.9482294;0.35777363;1.3387654;-0.46367043;-2.1766589;0.6894395;1.7055885;-0.350587;1.2478963;-0.039180163;1.3651128;0.09346804;0.6551871;-0.79601985;-1.21734;0.5488487;2.3066514;2.346672;0.6520999;1.7315155;-0.91480047;-0.65429354;-0.2716894;1.1844164;-0.38360113;-2.7789426;-1.6818743;-0.8281488;0.46368808;0.98903066;-1.9732342;-1.1448916;-0.8361732;1.8708589;-3.6784787;-0.5113215;0.5125778;-0.9849093;-0.3497621;-0.3452976;-0.96067613;-1.9799929;-1.3648002;-0.5590733;0.55170816;0.5349533;-0.8440971;-0.83053696;1.4600121;-1.6384032;1.1157887;2.2035153;-0.3159528;-0.5008124;0.5857739;1.9093574;0.17025098;0.82151026;0.29230374;-0.25205177;0.6910558;0.57101196;-0.349901;-0.68334925;1.8363136;-0.47993734;0.6045981;-0.33431754;2.8030884;-0.45626974;-3.014958;0.47553855;1.8149204;-2.1273034;0.8408935;0.03205429;-1.1473354;-0.14347574;-1.8964638;-1.0048242;-1.068809;-0.81159955;1.8179872;-0.27360573;0.6476975;1.2404464;-0.70518196;-4.1514554;0.24573825;0.27028385;0.20060688;-0.7158627;-1.4565309;-2.1384814;-0.3473661;-0.4205746;0.8789859;0.68015665;-2.2608638;-0.7704234;-0.8402;-0.49880597;0.8298837;0.54103416;-1.8417343;-0.20474513;-2.585263
1.4617399;1.3554814;-1.0005988;-0.69693047;-0.44330695;0.21764329;1.1911649;-1.9365572;-1.5278035;-1.074244;-0.7196376;-1.6224147;-0.16667771;-0.6034211;0.7772176;0.73866487;0.27247277;2.4258182;-0.789029;-0.58657354;0.08535157;1.6883134;-0.69181657;0.48724473;-2.914228;-1.9618181;-0.29477227;0.16337122;-0.105623774;0.77546185;-0.051946763;-0.44656104;0.7181144;-0.7833656;0.81636286;-0.69626385;-0.8683169;1.2318702;0.18245482;-0.47479156;-2.2863934;-1.913862;-1.5672683;0.68827343;1.2005535;0.8400435;0.8334171;-1.654984;0.8844253;1.386893;-1.7512718;2.961179;-0.5954415;1.7861118;-0.37818688;-3.1497543;-1.5957823;-1.9218309;-0.114699915;2.427101;-0.1441013;-1.021836;1.0923889;-0.26183316;-2.6898139;1.4213054;0.5904051;2.2249572;0.31877762;-0.15301655;1.346978;-0.947801;-0.5224117;-0.7020777;-1.402667;2.6722386;0.41966608;0.760439;-1.1131952;0.60349846;-2.0072997;1.0682896;-1.749272;-0.56831133;-0.015978575;-2.2639403;-0.98255783;-2.3968003;0.78404635;-2.0009828;-2.1623209;0.4144078;0.27715153;-0.6249849;2.4898038;-3.3204813;0.5604664;-2.2109103;-0.7245284;1.1497859;1.172602;-0.3896114;0.31126985;0.1702376;1.1884565;0.9760503;1.278464;-0.93198776;-0.22640131;4.9878697;1.5401942;-1.5698946;-0.37779984;-0.18776427;-0.9834983;2.2418857;-1.6660196;-0.96048075;1.149332;-2.2396052;-0.2734581;0.51689374;0.8794776;-2.5645986;0.01611478;0.4370337;0.7043944;-0.050388556;-0.061046384;-1.4171603;0.08154402;-0.09341089;1.1234719;-3.2246954;-1.0618032;-0.63631094;1.1989356;-1.3098763;-1.3146192;0.49871212;-1.706379;-1.7562871;0.5451574;0.96507597;-2.153054;1.7096399;1.6303065;1.0022984;-0.045008525;-0.8586154;0.80407596;-2.4375477;1.3840405;1.2722726;-0.27835193;1.3503613;-0.88249946;-0.42040762;-2.011127;1.3584256;-2.852192;1.0780348;0.531454;-2.7443378;0.44564086;0.8329886;-1.9758521;-0.9662699;0.6470533;-0.6156399;0.12879232;-0.6455175;-5.374338;-0.25491714;-2.7625027;-1.2288584;-1.3596078;-1.7876291;0.82329565;0.773528;-0.598599;0.33507624;-0.5557695;-3.913194;-0.06592356;-0.7652549;0.8837287;2.2667012;-1.9116085;1.0335349;-1.8073001;0.09759148;0.1336077;-0.5497373;-1.1249849;0.80416447;0.513021;-1.2805779;1.087692;0.64356536;1.450578;3.2831905;-0.07255674;2.1807945;1.70623;-2.1440177;-0.011075677;-1.9661398;-3.643337;-0.37594897;1.2998321;-1.4109361;0.80709606;0.49974087;1.8670533;1.9054497;-0.1495731;-2.168734;0.59832996;1.0448407;1.1422241;-0.5230354;-0.59408116;-1.0745164;0.1038241;-3.665399;0.8312589;-0.31620684;0.47493932;0.71135414;0.31414682;-0.7225183;-2.921398;1.3362883;-0.0127995005;1.0329953;-2.5271773;-1.7904217;-1.1589707;-1.4077317;0.79325444;1.6298194;-0.65498376;-1.8161633;-0.9380361;0.38593554;1.7945969;2.3392544;-0.8346486;-0.37033388;0.5362953;0.14277972;-0.071237676;-3.3826113;-1.3677688;0.6490482;0.52352947;1.6278051;-0.8961329;1.1133142;-2.775266;1.5390935;-0.90930307;-0.122189336;-1.2902822;0.5141882;1.3805001;0.47197223;-0.77740484;-0.3345543;-0.038680885;2.7201717;3.3381796;-0.8113425;-0.15258707;-0.54884064;0.06012769;1.3852202;-1.8019344;0.769772;-1.124746;-0.25335202;0.397865;-0.8340331;0.22960258;0.0091295075;2.7003014;-0.92255557;0.78288;-0.50792783;-0.18106328;0.99229157;-5.4890256;-0.08564176;-0.014013724;-0.81815565;0.46131632;1.0896907;0.5902576;-0.16763055;1.5707681;0.34326982;-0.8984766;-0.88346434;0.5668386;-0.31883302;0.756051;-0.20609155;-0.3358677;-0.589188;-0.5084602;-0.19691303;0.33013183;-0.8128295;-1.0439254;-0.5303537;-0.66569084;-1.1139333;1.523857;-2.4020956;1.3363795;0.6719353;0.0007928422;-1.0952828;-1.6214324;0.5544956;2.0226629;-1.3889276;1.6679603;-0.3246535;-0.30790305;-0.29753238;-3.3932137;1.212667;-0.6447845;2.146117;0.51919144;1.0612503;0.53477275;0.87141144;-1.0356504;-0.12010491;-1.4535598;-1.0649757;-0.73657715;3.3243906;2.6462092;2.0240154;-0.33566988;2.506596;0.383927;0.17062603;-5.521861;-0.6860717;1.1435566;-1.0007656;-1.3713417;1.5355301;-0.48972186;-0.83491457;-0.3945626;1.0820101;2.9802597;-0.22650689;-0.20267588;-0.40057537;0.35781997;0.9734652;1.8767037;-1.1882287;0.5001722;1.3412182;-1.7552484;0.7444628;-1.4267259;-0.24018003;3.5744402;-0.10909695;0.08025263;1.7769148;0.6540317;0.45974773;-1.5434496;-0.8040106;-0.6261597;1.3977954;1.426687;-0.7916197;-0.47683108;0.91216105;-0.026241498;-0.6037347;2.8734322;-2.1375558;-1.5891976;0.7230969;0.7182861;1.9220105;-0.44196925;-2.5456345;-0.03371481;-1.0301584;-1.4645841;-0.033897705;0.7635316;2.589987;-2.5118337;0.06535684;-0.9614038;1.1092299;0.84349924;-0.9119697;1.8858099;1.3705722;0.501194;-0.5836448;-0.65564674;-1.0220121;1.1405057;0.7069328;0.5248429;-1.0396352;0.9576373;0.8012784;0.5233992;0.6757073;-0.36777237;2.208281;-2.803748;0.13158682;0.21677466;-0.1026894;1.1802137;0.22193787;0.67715526;0.15926582;2.1434588;-1.587567;-1.8707113;1.12666;1.0829706;0.26148298;-1.2062098;0.68797857;0.28657717;-1.1839659;-1.0010234;-3.3621752;0.88187397;-1.4417144;-1.205527;2.891258;-0.6353423;1.2847263;-0.40683547;0.6626765;0.4858727;0.9275468;-0.69845086;1.0978613;-2.5246542;-0.29945612;-0.09679796;0.14446872;-0.2668283;1.917649;0.9282966;-0.5982262;-0.13645628;0.55954355;1.7683043;-1.2402565;-3.104991;0.5279258;0.2332847;-0.20230582;1.7565732;0.31822765;0.8729266;2.1702948;1.4018306;-1.2689642;1.0385386;0.030863332;-0.8700762;1.1348203;-2.1256082;-0.27656728;1.5586247;-0.51779455;1.5864882;0.23473735;-0.19357376;0.32889673;0.7756219;0.1711913;1.488894;0.5047686;1.9458958;-0.39315408;-0.59586775;-0.9253838;1.3310127;-2.4823725;-2.331268;1.2220219;-1.9975173;1.7160033;0.52008533;-1.5439706;-2.4486763;0.60189235;-1.7338545;-0.10875754;-1.7274697;0.083559565;0.124679595;1.4799429;-1.0488584;0.021821845;1.0149386;0.2097176;-0.58980477;-0.8478772;0.12140876;0.12968914;2.1345286;2.045279;-0.8621608;1.4517648;0.25872228;-1.6958843;1.1840334;-1.0308144;-0.5871979;0.23747288;0.18775493;0.8604843;-1.5428206;-0.5920982;1.5717037;0.9532291;-2.1070373;-1.4576513;-0.8278536;0.16875064;-0.23112327;1.5921034;-1.1803391;1.6016644;1.2687516;1.6186528;0.119539276;1.6250148;0.9973802;-0.0003936259;-3.1404157;1.8742263;0.20436727;-0.4622319;-1.2158693;-1.2482362;1.0367328;1.6954446;-0.80505645;0.03697858;-0.19544946;-1.4766642;-0.15294178;-0.4295876;1.0444322;-0.042877186;-1.5186605;-1.5561236;-2.1564085;-3.0116816
-0.67796814;0.35222712;-2.5260026;1.4982585;-1.3037317;-0.4889107;-1.3802612;-0.8156789;-1.1296482;-0.98585624;-0.22009401;0.099329144;-1.0993701;-1.3808057;-0.088273756;0.13213953;-0.33253276;-2.3748007;-2.4734476;1.4666877;2.2224832;-0.60998434;-0.11300929;-0.118779786;0.48400247;-0.09561709;0.17930916;3.410944;0.5330133;-0.37731048;-0.87124187;-1.3211715;2.3256707;1.230532;-0.7836688;0.15309194;-1.2935749;-1.1479683;1.1999625;0.7673093;-0.5307707;-2.092772;-1.0695232;-1.6885626;-1.2930603;0.8039564;-1.9385024;-1.1904459;-0.6740767;2.603875;-2.1139603;-0.4704663;0.04111842;0.27380517;-0.63118315;-2.2446969;0.0115401335;-0.7393743;-0.6497423;0.13287543;-0.043440077;-1.056639;1.166184;0.96348125;0.72844714;-0.19564453;-0.09147144;-3.2945669;0.5956139;-1.2931341;0.86025834;-0.956149;1.0497438;-0.72784394;-4.4296165;1.131419;-1.0791209;1.8129789;-1.9264096;-1.2771907;0.62870777;3.4532545;1.196772;0.12882146;0.8361929;-0.7884679;0.6840908;0.64269525;-0.46427634;0.45864177;-1.6758721;-1.3676511;1.1464942;-2.8111608;-0.9023384;-1.4696443;0.34290537;2.7246618;-0.082617044;-0.41380164;0.68425584;-1.8116474;-0.25169092;0.19259861;4.0563993;1.4793725;1.3034157;0.8242262;-0.07990787;0.26810226;1.5945464;2.1800644;1.263852;-1.0424671;-0.2765795;0.27463335;-1.7709198;-2.1139483;-0.16933057;-0.5149772;0.011996772;1.5918353;1.8113773;1.0081173;-0.43260652;-2.5654535;-0.8602787;2.0069978;0.23040137;-0.12646888;0.686757;-0.9094208;-0.44650674;-2.521657;1.1426075;-1.0808458;0.21933906;-0.39028078;-1.3054802;0.67092097;1.2955362;-0.09905819;0.07586555;3.152324;0.6351265;0.66754574;0.08966405;1.1800869;0.32215825;-0.38945758;-1.333157;-3.1171386;-1.6738834;1.4083607;-0.1153324;-2.175356;4.191366;0.36644256;-0.47226048;2.429078;-2.8931296;-0.3763019;0.824592;-0.34030944;2.0291438;-3.3715656;-0.46154732;2.10025;0.17075078;2.7055492;0.8259292;0.9396312;0.12425377;-1.5497532;-0.5715793;1.1213121;0.3153079;0.25982493;0.63959724;-0.21070902;1.3660915;-4.47641;-0.9316868;2.1585994;-0.13484477;1.6920475;1.6088715;1.0751903;-0.5238645;0.76415455;0.07208701;-0.8003513;-0.15972643;2.3090124;1.6611383;1.2222295;0.93382853;1.6317106;0.2445147;-1.57299;1.1687871;-0.7470105;1.0580391;0.3910685;-0.7210843;-0.7738167;-0.2297162;1.3753722;-1.3290536;-0.44883767;0.4678542;-0.4415845;0.67705375;-0.62814844;0.53751576;-0.12958908;-0.73217547;1.1659741;-0.6309154;0.9463158;-0.11244946;-0.5063882;1.1425562;0.7170478;0.30714047;-0.64007205;0.71247596;-0.8874637;0.08296856;-0.0020778533;0.78535366;1.0729127;-1.6293378;-0.04016545;-0.76623654;1.1809355;-1.4400076;0.43420172;-1.8932023;-3.2444324;1.961322;1.3472267;-1.730835;-0.1613748;-2.2693372;-0.6577879;0.15012525;-0.48470548;2.0697649;-0.57571423;0.79506373;1.432826;-0.22145195;-2.2775931;1.6958523;1.3153478;0.5399075;-1.2920601;0.07218403;2.35353;-1.1153185;1.4242901;1.1689191;-3.06739;-1.548569;-2.1544523;2.4420729;1.4625227;-1.3945805;-0.48549;-1.6112103;-0.6935658;2.5313914;0.81531274;1.2490578;-0.4316511;0.07520539;-0.502191;-2.5068493;1.3548281;-0.21224181;-0.622217;-1.6924618;0.29336998;1.0808434;-1.2575027;-0.5757773;0.2581888;0.8232742;-2.1169007;-1.8951712;-1.1489227;-2.120573;0.15453361;2.3121912;0.4023396;0.5475882;-0.55621207;0.5161475;0.5488667;0.48467165;-0.41613677;-0.03493469;-1.7408714;-1.4116896;-0.9546364;-1.1580265;-0.43183774;1.3956968;0.48393252;-0.75750405;-0.39892775;-1.3577924;0.7308003;-1.1903726;0.7373415;0.1864583;0.24673498;0.119628906;0.5178127;0.7863806;-1.2514695;-1.7264599;-0.01134436;0.4782713;-1.2321645;-0.93753827;1.3345273;-0.8550264;-2.081686;-2.215988;-1.7000164;-2.6449025;0.025205033;1.292105;0.26996142;-0.6734307;-1.8140714;-1.1033292;0.50636154;1.4422015;-0.6987583;-1.6663465;1.1161919;-1.2556708;-1.015396;2.7810755;0.8876066;0.44535467;-0.5108851;-0.17281064;0.6830953;-0.9648224;-0.054149363;1.6332169;2.6842773;-0.8706641;-0.45458815;3.269788;0.97843057;-2.0249124;-0.8865959;-1.9156204;0.38862953;-1.7928476;0.005419946;1.2778194;-0.09834777;-0.74292827;-0.3840355;-2.0358007;1.0157851;-0.2638097;-0.65686136;-0.9672698;-0.34359258;2.770349;0.41801608;1.0155174;1.2758824;-2.2122111;-1.0608413;0.72058356;-1.6317616;-0.5227271;0.6881809;0.5856266;-2.4671056;-0.7076354;1.4735166;-1.1752622;1.573634;-1.2705998;0.7858592;-0.80111474;1.5947593;-2.474831;1.403973;0.17245117;0.77054733;0.9519985;-2.4027336;0.66914195;1.377587;2.4271376;0.9605991;-1.906271;0.44941425;-0.5087318;0.72538465;-0.40188256;-2.0342984;1.8978853;-0.463677;-0.98225033;0.60183424;0.6294979;-0.9196644;0.29081404;1.3661375;-0.33304423;-1.338478;0.44118983;1.6075954;0.4413557;-0.30610445;-0.39938024;1.6453508;-0.07392164;2.728213;-0.16034587;-0.9526327;0.64664876;-0.7760354;-0.06570886;-0.7472653;0.65929484;-0.13903534;2.216825;-1.6576489;-0.17932364;2.7941568;-2.120842;-0.7090395;-0.39122677;-0.6936152;1.11881;-0.68635094;0.33142877;-0.07747311;0.7764322;-0.4053219;-1.4424444;0.9680498;1.5757319;-0.6363182;1.0053356;-1.0533594;-1.5989729;-0.068515286;-0.59024143;-0.33299848;-2.604084;-0.2559102;0.19802082;1.0983583;-1.7345698;-0.27623484;-0.31138426;-0.2900112;0.8355853;-1.4009362;-2.0219436;-3.3350794;0.04733836;1.9933527;0.7573335;0.8831084;2.7263;1.3747686;0.6368682;-2.4117947;0.21405213;-1.1301615;-0.04694423;2.4677582;-1.0278692;-0.36833608;1.042941;-1.4731964;-1.9036454;0.28854504;-2.9514115;-1.1775682;-2.4252598;2.2376895;0.25116584;2.6880312;1.3873073;-1.411981;-2.1487586;-1.2841291;1.5754001;-0.072621755;0.60537547;1.0904045;-0.88625205;0.99232376;-0.5957464;0.2612247;-0.5342713;0.31047127;-0.172724;-0.37576485;-0.64412665;0.03661591;0.29218027;0.94301337;-0.76695216;1.2821879;0.15456513;0.96083826;-4.325124;0.08450348;0.20618486;-0.3389304;-0.48301226;2.0191429;2.1804872;-0.13907637;0.055123996;0.9977542;-1.8809596;-1.4326868;-0.12145246;-0.8315388;0.42972872;-0.018967997;-0.21511903;-0.36240277;2.4332094;1.2835572;-1.6590832;-2.0702126;-0.14811343;-0.3800237;-0.94880396;-0.34455252;-0.9100719;1.0402954;1.0277689;-1.6618999;-0.18035884;1.6031429;0.3076795;0.5551879;-0.9204897;1.2592164;-0.3517553;-0.63462245;2.224366;-0.9580916;-0.79701364;2.6418428;0.1336036;-0.8705483;-0.24480753;-0.23747136;-0.2803504;0.40131953;2.0339124;-2.3610134;-2.5001745;-0.6024632;-2.5278094;-1.0222301
0.49711376;-2.0321727;1.1261947;-1.8873577;1.1434655;0.4560539;0.6947695;0.8984623;0.1966323;-5.096622;-1.7592437;-1.8688277;-1.0766588;0.3851076;-0.7353182;0.23090579;-1.0439875;1.6766007;-2.1316814;-1.4627091;1.0412401;1.511913;-0.06598303;1.2559685;-1.4997306;-0.18514538;-0.73722506;1.7981533;-0.8218789;2.1803355;0.13354237;-1.0995758;-0.35128742;0.77047896;1.5755223;-0.4869815;1.2290137;0.00879907;-1.9278545;1.585063;-0.16911533;-2.837098;-0.280447;1.4077433;2.2389941;1.5947609;-0.25960886;2.3191373;1.0738846;-0.5376495;-1.7346216;-0.5634462;-0.84474593;-1.545571;-1.0303948;-0.70849544;-0.9391852;2.71066;0.22571881;3.4137642;-0.03493679;-0.37692145;-0.9233328;0.5881044;1.1705303;-0.026087929;0.17934747;-3.4023292;-1.0337712;-0.049434323;0.13252337;-0.6974623;1.9485967;1.2660781;-0.79971075;-1.2857097;-0.90176535;1.8749783;-2.90966;0.5090553;0.08500157;-5.091439;2.8327827;0.7206426;0.654306;-2.6619732;-1.5139369;1.9713905;0.57753015;0.555575;-0.81472385;0.36920804;0.77019334;0.5449013;0.7904721;2.6635604;-1.6558912;2.4935732;0.008319927;-0.75818306;-0.81765324;-1.7718524;-1.2608348;-1.6262952;3.3067803;0.24501282;0.23930784;-2.514949;-0.32145405;-1.6448008;2.3501015;0.6084186;-0.10268474;-1.3382407;-2.7321863;1.1143256;-3.5360842;-0.4047983;-0.77549213;2.5265462;1.2444752;0.7736708;0.44419748;1.9085826;0.8390332;-0.9951634;-0.3542011;-0.48657086;0.6115007;-1.2218609;-3.195223;1.5128086;1.7193027;-2.376096;-1.470127;-1.0377753;-0.8559738;-2.3734832;-0.9391607;-1.0201651;-1.8387969;-3.343592;-2.067786;-1.6786288;-1.7777563;-0.2339881;-0.69839;0.6619824;-3.3846173;0.21240626;-0.21376128;0.046663605;-1.5496604;1.5231787;-1.1790531;-1.2873312;1.35077;0.35982752;0.9952511;3.1166055;1.8317578;1.175881;-0.26033443;2.1727304;0.6695972;-1.6049529;0.9808527;-1.0372797;-0.021398941;-2.6016052;-0.07426981;-0.8322588;1.0291425;1.0906765;0.5102744;-0.8587005;-1.1926273;0.24767148;1.4142349;1.2515054;1.6618797;-1.679601;1.6978883;-0.5664451;-4.5446897;-0.26623046;1.2935687;0.11337651;1.7515506;2.1697783;2.1333873;0.07360556;0.69282883;2.153353;1.4351914;0.51651055;1.8790944;-0.76695085;-0.22126065;-1.2740718;0.36674228;0.84891;-2.265275;1.4028616;0.45269394;-0.3592307;0.41931018;0.05413293;-0.13705048;-1.4855379;2.322528;0.5344478;1.7647989;0.8618015;-2.4251263;0.605053;-0.74702173;0.9262254;-0.17277849;2.064727;4.8905697;-0.6548966;1.7164149;-0.45195737;-1.9552789;-0.96125406;0.4418192;-1.3109045;0.78287053;-0.39829245;0.8786086;-1.0995378;0.2652875;-0.3904114;0.25990173;-1.0954425;-6.0117846;-0.0698732;-1.1463014;0.92532045;1.3576254;-1.7124497;0.05920673;-0.7852424;-0.56984746;0.8442856;2.4577746;-0.5313631;0.8334564;2.0888436;0.66159445;-0.5803071;-0.49368173;-1.5724792;-0.9951652;2.4679894;0.8375093;-0.43832406;-0.8166136;-0.9251361;-0.12852201;2.6590374;-0.3586785;0.37341765;-1.7131925;-0.25199246;1.3709513;2.1918032;-2.2109697;3.7317486;-0.10577757;0.94245034;-0.5356208;0.4482427;0.23773445;0.08972351;0.61010367;2.0519931;-0.48567423;0.20542522;0.07346733;-1.1212558;1.7995948;1.8227103;-1.7083142;-1.555891;1.2841839;0.9538784;-0.066958964;1.088091;-0.5960048;3.6757705;-3.714914;0.107571274;1.8019491;2.0950701;0.84526616;0.5941429;-0.1254572;0.55470985;1.5294327;0.15734409;0.7170212;1.1874251;-4.5214763;0.4440172;0.2706106;0.68674695;0.3525087;0.1333751;0.7831027;0.8197367;0.41223884;-0.86965454;1.2663208;0.096571155;1.187988;0.6837493;-1.3645777;-0.568731;1.1536145;-0.6267047;0.7976417;2.6422334;-1.314712;0.92574376;1.7083102;0.85281026;-1.6182761;-1.3608878;-0.6951182;2.8363245;-3.1478999;1.3829739;1.4117128;2.816082;-1.366219;-4.856852;-1.8743657;0.9679281;-0.20630223;0.121655926;0.22388394;-0.08097484;-2.2217538;1.8977621;0.49872336;-0.53408515;-1.0924116;-3.0241709;0.3061643;1.1997459;-2.8415291;-1.2653927;1.0445693;0.7508662;0.4850966;-3.183901;2.210112;-2.3678176;-2.0096135;2.2679665;-0.6892555;-0.9526886;0.26747745;-0.24267836;1.1376818;0.8475224;-2.2897422;-0.079931624;-1.0335797;3.6535482;-0.35828096;0.19504334;-1.5686772;0.93307114;-3.5949028;0.7220173;-0.25358635;0.9279815;-0.6954961;0.39258236;1.8021429;0.7720586;-1.0051514;0.09224113;0.11554722;-3.2222261;3.9085498;-0.023834368;-3.2829497;-0.38988307;-0.07807762;-0.2039944;-0.2855786;0.8773205;-5.5091977;3.6373506;0.80771965;0.09101363;0.70203215;0.22824182;-0.31038097;-0.40230945;0.5808203;0.8232964;-0.65521085;0.11517473;0.017238136;-0.8834747;0.5607509;-1.2800398;-0.38768038;1.6129634;-1.9553738;0.5005922;-0.39560798;-0.76276886;1.8587081;2.3321333;-3.8575237;0.76222885;-1.4940059;-0.33749956;0.18505153;0.04104204;-1.113223;-2.6501508;0.0043934486;2.5885837;1.9609288;-1.8897074;-0.99329835;0.475075;-3.4182632;-0.57259434;-0.0014651761;-2.2946758;-1.6168844;0.060421;-0.019944085;2.0171387;-0.97701067;0.71651506;-1.1681843;0.22078195;1.3101317;-1.9917166;0.08395478;-0.45579058;0.5969179;0.73927176;-1.705361;-0.76165515;1.471886;-0.14852673;2.6089623;1.7721065;0.70912516;-0.75058293;0.20474024;-1.061296;-1.9183495;0.5733118;-0.49058166;-1.9303687;-2.3601675;1.0193229;1.477353;-1.0386077;1.0879526;-3.480263;-1.1620156;-0.57889944;0.30631566;-0.15622973;2.0033932;1.1230859;1.546207;0.502302;-1.1036114;-0.5846937;-0.31528372;-0.9647263;-0.50208706;-1.5832639;-2.206492;-0.14740923;0.59813035;2.768193;-0.46690887;0.9166251;-2.289867;-0.45195213;1.5605427;2.3085709;-0.28477785;2.3390744;0.05872858;-0.8181044;0.39072126;-2.880368;1.5675074;1.472128;1.3838022;0.93712264;1.2961184;0.16489565;-0.1929329;-1.9139901;-0.80420256;0.5898525;-0.015721546;-2.573002;-0.41295645;-1.4722176;0.2622711;0.2526768;0.5465944;-0.57529354;0.1144004;-0.8615384;-1.5654097;1.8707142;-1.1907773;0.1556998;-0.74343145;-1.349519;-0.23961599;0.6658545;0.17366137;-0.24426636;-0.76305825;1.8809344;-3.2881858;-1.1941211;-0.64215755;-2.7359443;-0.30702198;2.9365182;1.2301395;-1.4015931;-2.5350673;-2.4926798;-1.7509556;-0.17546074;-0.23475538;1.7407682;1.2660778;-0.93046397;1.5349593;0.62141514;0.7641096;1.5399692;-1.1900669;0.031492073;0.51678807;2.1073651;1.1359845;-1.5147685;1.4566296;1.5473746;0.41293588;1.0575498;0.7322898;-1.3691604;-0.24232472;-0.24374203;-0.80127525;2.7429028;0.9316347;2.6400392;-0.5643659;0.95841515;-2.799527;-0.4790022
1.6529554;-1.5529394;-0.075495236;0.7042253;-0.8559504;0.3523345;0.10466541;-2.7513192;1.12746;-2.680147;-1.188375;0.49944407;0.8265555;1.4455535;-0.28618845;0.25984013;-0.05074868;0.24851814;-3.474309;-0.902403;0.80076337;0.83429796;-2.3758879;1.1368397;-2.0231962;-0.159323;-0.6482852;1.1658621;-2.1819077;0.31494328;-5.692634;-0.15001817;1.3040247;1.5620595;-1.4869753;-0.42885435;-0.6852478;1.4318014;0.13575436;-0.3366611;0.045268394;-1.1429186;-1.1195438;0.030400386;0.06773211;2.7502425;0.050232287;1.2724283;2.2490654;0.37018716;-4.2109656;0.08267908;0.1292234;3.516266;-0.95925367;-0.97133386;1.4973758;-2.4118748;0.3413907;1.0368813;0.17308341;-1.1486479;-0.22067334;-1.459146;-0.3178251;1.5747887;0.76563686;-0.59868574;-1.1955541;-0.19708635;0.75211895;-0.7214923;-0.04364517;-0.9931676;-2.7495973;2.3019042;-0.7938011;-0.6394514;0.9207971;-1.4653558;-1.8163089;2.2122805;-1.2025938;1.8730984;0.535942;0.83077776;-1.360373;-2.826512;-2.0698833;-1.7099454;0.08477724;2.2791498;0.9974696;1.115497;0.5830353;0.6673756;-0.63097656;3.5354414;0.25335503;-3.4087288;-0.8347418;0.30384493;-1.0253527;-0.12947735;0.5636356;1.0994165;0.49855065;0.47232977;1.3802013;0.818509;3.510066;0.5949363;-0.4210738;-0.77739275;-0.3806984;1.1818526;-2.3239129;-1.2123183;0.507026;0.2495846;-0.430594;-0.6570063;-0.84481466;3.0818622;0.09260183;0.67907465;0.21452387;0.8510832;1.0664552;0.6734083;0.84457725;0.06034177;0.6593232;-0.25620645;2.2400389;-0.0051041893;0.60292184;0.20598611;1.5654018;-2.4848986;0.08055127;0.68221873;0.2534866;-1.704517;-0.57919955;-2.0994446;-1.382912;0.040203676;1.6066884;-0.9306585;-1.5251284;-2.1923118;0.29099602;1.5906022;0.6553947;0.8133278;2.303697;-1.5098424;1.1071318;1.1976714;1.2856596;-1.4255259;0.61088437;2.06089;-0.21149845;1.0487736;-1.0582305;-0.041103285;-1.265705;-0.6104759;0.2306128;0.30112222;1.6324639;-0.8153898;1.5325598;-1.3672338;-0.65019155;-2.6080852;1.2224243;-1.8542564;1.9482374;-0.5784619;0.94327086;-0.53420794;-2.2309089;-0.5742561;1.0571002;2.2476454;-1.3225846;1.7275977;-1.9794043;-0.809266;-1.6653279;-1.6332034;-1.246169;1.502803;-0.9941989;-0.7009743;2.115599;-0.35581425;0.74020314;-1.1005646;2.7108574;-0.060611516;1.4669101;-2.2787042;-0.012917813;0.35503623;-0.55068684;-0.58479834;1.9667323;0.7455901;0.38764742;-0.8685732;0.9077816;2.0159295;-1.0857506;0.9181891;-0.7277279;0.4365739;2.0308576;0.043475635;-0.54634905;-1.9450701;-0.028128555;-2.6109006;-0.36539546;-5.936234;-0.15977551;-2.6638763;-0.2463562;-2.1189036;2.2966256;1.4920889;1.3534539;-0.1344456;1.893195;0.8628936;0.6325258;-0.6811264;1.0250357;0.79409987;1.8186928;-1.5963134;-1.8595828;0.17452548;1.2653296;-5.7655716;1.0757405;0.59184265;-0.96133375;1.4915928;1.4438691;-0.91104215;2.972652;1.1653277;-1.3177332;2.8059034;1.1416705;-2.0415719;0.5915799;0.05518956;-1.5525181;-1.3603181;0.66999644;0.36062893;0.9994412;-0.22155559;-2.0918772;1.6708108;1.7155719;-0.52460206;-1.7934681;-2.1375737;-1.7239501;0.38987318;-1.8217193;-3.264804;-0.56758314;0.98755527;-0.4537793;0.90625536;-1.6076002;-2.7878788;0.016297275;0.31628305;1.5415343;-0.21917628;0.47627443;-2.3358908;0.34514993;3.5332162;-1.8965116;0.001856007;-0.20880891;-2.7987204;1.0395547;-1.7771776;0.08306524;1.0299234;1.5774146;-0.20506273;-0.3532511;3.0346076;-1.0078505;0.18477048;1.5646025;-0.42889705;0.8701212;0.8082903;0.10816486;-0.5121581;0.22905001;-0.36315975;-1.8435069;-2.517961;1.7235483;0.8393039;0.09011359;0.7684817;1.8316813;2.642154;0.3573958;-0.6518222;0.6831925;-0.36948824;-0.3714272;1.53609;1.1145736;-2.2066343;-2.3529;1.646827;0.71754986;-0.5736986;0.22827837;0.7918036;0.3423057;-2.2619925;1.0669091;-2.9037855;0.9933602;-0.28367975;-0.42588463;2.186373;0.521363;0.829564;-0.07513146;1.6138781;-0.6909826;0.14150779;-0.8743796;-0.6423727;-0.5328773;-1.8310559;1.3272423;1.5552152;-0.58259505;-1.4837058;3.6230001;1.3091048;-0.4702152;2.7426476;0.90174425;1.1579878;1.1601682;-0.3250187;4.8467736;-1.0854402;0.75127983;0.90508825;-1.3610749;-0.57568276;0.33701974;-0.5547279;-1.3224791;-0.43707332;1.6115911;-3.037591;-0.6245342;-0.09702138;-0.43418142;1.2337145;1.0973387;2.4595056;-0.24466456;-0.9737781;1.5706172;-1.9720954;-0.09645937;0.29813188;0.66635036;3.6898046;-4.277324;-1.1923455;0.16307063;2.6277223;-2.3391597;3.3411226;-2.451435;0.07587287;0.44407576;-0.3192848;0.9465651;-0.9619079;-0.11067145;-2.6507013;2.0315332;0.91163445;-1.6887599;-1.2795066;0.12342434;0.19962761;-0.63586366;0.69912446;-0.26888132;-0.008519532;0.33666667;0.97831273;-0.1288584;1.8208406;-3.1793613;1.1318178;1.5384433;-4.0781856;0.78284496;-1.3810815;-1.6882893;-0.26531354;-0.4594882;-0.7116022;-0.7594829;-3.6725156;-3.2162786;0.50365263;-1.6469941;0.44622535;0.20321646;-0.5521578;-1.2460339;-2.1197703;-1.3816867;-1.0137151;-1.2986284;-0.7982941;-0.0033809647;-0.8148303;0.40356904;-0.7267235;0.53307396;-0.44022247;1.5175848;-0.38450828;-0.28937376;-0.13205032;0.9890815;-0.015481332;0.47126994;1.373203;1.1079413;-0.23494747;-2.4659598;-0.3970936;0.0046909214;1.7160844;-1.1699785;1.2336879;-2.8227065;-1.5906907;-0.0036892744;0.5083773;0.8249257;-2.3159022;1.4004574;-0.650039;-0.39109066;0.10872025;-1.452444;2.3123004;2.6986282;-0.24101306;-0.013546981;-0.76944476;1.8282954;1.2276071;-0.91741395;0.0010590948;2.1231284;2.518282;2.3028586;0.23203437;-4.082215;-0.5361231;-0.106104925;-0.86840427;2.78191;-1.3659155;-0.38162786;1.0618129;0.25161242;0.9750774;0.6303308;-0.7815529;-0.46807572;1.4771386;-2.4915726;1.0982312;-0.51079094;-0.6439099;-0.013534366;-0.27192858;0.90282154;0.16004427;-1.5774516;-0.2986522;0.82395685;-0.31779328;0.84953845;-1.2220238;-0.07575874;-1.2866316;0.2015965;0.13592947;0.6603524;0.38240036;-0.708582;0.46480292;0.49876407;0.21649852;-0.9232506;0.14503272;0.16655134;1.4263374;0.5948972;0.09188963;-4.963691;-0.80195844;0.90675753;-2.598575;-0.552259;0.908751;3.6606789;-2.0105894;-2.8742774;-1.7523086;0.20858446;-1.527395;1.1643118;0.5939312;-0.5184174;-0.8808064;0.13630809;-1.6083077;-0.13660891;-0.614297;1.4439924;0.4267992;-0.07556433;-0.2836599;1.6446217;-2.3993464;-0.28958267;1.7016268;0.096183784;-2.5625956;0.8142963;-0.030730689;0.83289266;1.2324982;-0.76794505;1.14334;-0.23746802;1.3263483;1.8034213;0.3418263;-1.3424443;1.5672759
2.3368096;-2.1976511;-1.2441618;-0.7174733;-0.7671043;-1.1337817;1.9912874;-1.7104219;1.5337565;-5.125906;1.1025229;1.0395782;1.8757938;-0.9683962;-0.113980435;-0.0013098001;1.1741738;-0.525696;-2.043958;-1.7020166;-0.10211366;0.96411455;1.9518887;-0.557606;2.578209;-0.524643;-1.0700184;-0.27226907;-2.11473;-0.11080028;0.35956535;-2.5152225;1.540017;2.7724004;0.75853014;-0.2626006;-1.3037107;-1.0993773;-2.2264836;0.5421458;-1.1086187;1.6535474;-1.7491775;-2.5992253;-0.027517185;0.96664375;-1.4071177;2.216663;2.4365642;0.10471604;-3.49996;1.039098;1.402776;0.73624784;-0.7211453;-1.521554;1.6626464;-7.9929595;-0.18674345;0.61075014;0.07419039;-1.4630523;1.5778396;0.1585649;-0.6904582;0.33227912;0.40362668;1.7141284;-0.49977732;-0.7767987;0.75946873;-1.5813656;-0.40436003;-0.95048296;0.3340517;1.1540489;-1.022056;-0.530956;-2.7574;0.10802459;-1.6178678;2.1559393;2.391706;-0.3527001;-1.8603632;1.3365656;-1.2235702;-1.4966635;0.0022655616;-0.31009498;0.32779357;2.080803;0.39946136;2.2505462;1.5403543;0.014201891;-0.29190484;3.054592;-1.683299;-2.099013;-0.16890706;0.95847136;-0.01651301;0.7327716;-0.6671512;1.1180457;1.431467;0.53976274;-0.70407045;-0.09715277;2.471391;-0.02911302;-4.9921355;1.0569474;2.7118158;0.77765363;-1.8408724;-1.1470718;1.8214507;-2.6593225;-0.627386;3.7174785;-0.8619498;0.29079294;1.1501017;1.7414145;1.5349789;-1.2873538;0.7982738;0.74833375;0.30524725;0.52270466;1.078867;-1.724631;0.8553481;-1.1661309;-1.6411796;1.7871535;-1.2646197;0.9511584;-0.66316974;1.6230178;0.16927445;-0.9019595;-2.9349062;-0.32964864;-0.64011186;-0.011991535;1.751866;0.4291966;1.0452799;-0.60393363;-0.05119751;1.4488894;0.47800845;-4.066925;-2.8900714;-0.102084875;-0.67653024;1.4753101;-2.9173698;0.281623;1.6768916;-1.4614427;-5.25787;-1.4765815;-0.21163869;-1.0168784;-0.34495717;-0.8258945;-0.9069018;0.0027108735;1.711654;-0.93453276;0.16961722;1.0960609;0.45472932;-1.6434741;0.9736484;2.1606677;1.4059659;-2.3982482;0.7805189;1.9599266;-1.3323029;-0.42588416;-0.21455353;0.9902947;-2.411909;-0.5304017;-4.438718;-0.22887066;-1.2208297;0.03290769;0.3066661;0.041175663;-2.3264563;-1.5973521;-0.25596347;0.1922576;1.7572154;-1.758514;-0.12084195;-2.7555585;0.65734386;1.6911781;-3.065415;1.1800401;0.18307287;0.38826722;-0.44329143;-2.8447824;0.35791343;0.5213936;0.39963228;0.06459814;-0.3460213;-2.0893826;-0.38954344;1.8142145;2.3654416;1.4154061;-0.4058393;3.1371543;0.29668915;-2.7540734;0.59279037;1.1303834;-3.2607641;1.5594678;0.899591;-0.7551237;-0.3897856;3.5750532;-0.003671285;0.25079274;0.48952717;-0.32305738;-0.36668056;-0.30924723;0.8910372;2.353911;1.5963877;-2.4412098;-1.2857037;-0.19713691;-3.7073176;0.56724703;-0.039203957;-2.9767656;0.832467;-1.2711467;2.6937628;0.40326396;-2.023253;0.88276637;-1.5467336;-0.21145989;-2.2108762;-0.38410848;-2.5031664;1.097522;0.25610644;0.2172402;0.66066074;1.4514713;0.53672135;-0.19026268;-6.4652214;2.2909684;0.84755355;-0.29255044;-1.0708313;1.0909332;-0.3596944;0.39018634;1.8667985;-0.32083446;0.39355785;0.8096553;0.13977876;-1.462857;-2.2979274;-1.3510145;3.2941422;-2.8995411;-1.2736527;-0.65093625;0.45330817;2.2853627;0.30325228;3.5507092;1.6271423;0.53104556;0.72104424;-2.443018;-0.07451246;-2.047572;0.3334888;-1.1968253;-1.7938641;0.16182399;0.937541;-1.5037622;0.9222995;-1.4826915;0.1842097;0.41205326;1.2055885;0.6317471;1.272668;-1.3179;1.3438466;2.0859575;-0.762688;-1.9808947;0.8511403;-0.63041246;2.5359027;0.24571766;1.2476524;0.32643577;0.621507;-0.18365291;0.12858696;0.78256756;-1.2176192;-1.840099;-2.0501244;-0.073116146;-3.7942736;1.5706949;-6.1287837;-0.7507891;-0.66455126;-5.6608415;1.849532;-3.9081175;0.4950541;0.9151571;1.0811573;-0.7070359;3.0920625;1.3741497;-1.4262002;0.5465944;-2.2663817;-0.3677814;0.80155855;0.46513045;-0.61510396;1.4867425;2.4459708;1.0446907;0.17045781;-0.19333425;-0.059907228;-0.17091352;0.07432319;-0.42636573;0.47381178;1.1377218;0.35460845;0.055569284;-1.9321721;-0.37975252;-2.2237766;-1.9346762;0.8551688;1.8300662;-1.3623464;-1.0749636;-2.8338668;0.35645726;-1.3935266;-2.2670743;1.8842633;1.2833645;-0.3347925;0.26685864;-0.692554;0.8155953;1.1731797;-0.23887193;1.9057797;0.5214164;1.0030724;2.4607792;1.386487;-1.1354971;-1.110391;2.5225282;-0.073832;0.5328813;0.9349231;1.8041576;1.0121771;1.9896048;1.1242985;-0.256279;0.62722415;-0.15442884;-0.55470055;0.11166459;-1.5503343;-0.94879055;0.39261281;-0.08554366;-1.1860232;1.4208938;-1.3090955;0.32881096;-1.2273501;0.6087007;0.5489675;-0.56409395;1.6459697;1.2389755;0.7261903;-1.1130378;1.5204525;0.8673526;0.6780693;1.978851;1.2014425;-0.60721785;-2.218182;-1.1290896;1.5061659;0.23798174;0.00028170843;-1.5088536;-0.06732164;0.20146999;-1.1776685;-2.0042748;0.758276;-1.6441902;0.96770173;-2.029468;0.98829764;1.1447151;-1.9975939;-0.9011814;-0.9794308;-0.7262034;-1.4429682;0.9205667;-0.23166049;0.047368817;0.5971097;-0.55994326;2.7600708;-0.23807687;-0.5917831;-0.030469505;0.15581103;1.8099068;0.48102477;0.33793685;-0.45139667;0.04332679;0.40058315;-0.8836381;-1.0854423;0.18972577;1.8555994;-2.5998464;-0.5476198;1.818473;-0.014343542;-1.1340725;-0.44063723;-4.5168414;1.8751497;0.3073793;0.41239488;-0.468755;1.9336241;-1.314231;-0.7555271;0.44655025;-0.025587287;-0.88350165;1.8464253;-0.95190847;0.85416895;-0.39510924;-0.8429413;0.021286236;-0.01670448;-2.647328;0.90933317;-0.037334323;1.10958;-0.42778432;0.0845304;1.8223983;-0.6168359;0.9111372;0.14264399;1.4576423;-0.0851455;-0.9018272;0.23931724;0.89450127;3.5100646;0.05990246;1.801591;-0.7829543;0.07196965;-0.022216143;0.18858588;1.0306089;-1.3361136;-1.4773204;0.69013596;-1.0269209;0.41192394;0.019894436;-0.43396375;0.5599546;0.05557058;-1.8690786;-0.40816733;-0.0025853938;0.83765656;-0.44638115;-0.054954343;0.63717556;1.1285224;1.7369671;0.8555248;2.859355;-2.0971024;-0.86874145;0.4513579;1.3271719;-0.91952354;-0.44409546;-1.2565006;-1.2896278;-1.5690184;1.4162016;2.8633418;-3.1642444;1.2123535;0.2959146;-0.27275908;-2.2791195;-0.11924143;1.2980818;0.18011157;2.4285905;2.383247;0.7885615;-4.3749356;-0.111866005;1.1530454;0.006106751;-0.90242404;0.110438265;-1.052404;1.3454951;-1.4936596;0.18022095;0.18135677;0.91243774;0.3493786;-0.14148839;-0.1734753;0.86089236;0.8882488;0.05489425;-1.4112;2.2660203
1.7272583;0.47756022;-2.2494116;0.8203359;-0.798446;1.5543375;0.015202312;-1.0454881;0.6713281;-3.7937775;0.715214;-0.986276;1.8244344;-0.8200027;0.76810616;0.77127165;1.0188146;1.3265406;0.79949087;0.85165715;0.7501609;-0.51310015;0.3329934;0.004927445;-0.08889512;-0.68195075;0.7519781;-0.3070885;-1.3464472;0.14994338;1.1321815;-1.1522168;1.9852853;0.50368845;-2.3432643;1.2479812;-0.5447875;1.3576311;1.1795094;1.5013326;0.04621063;-2.4651759;-1.3410395;0.03756613;0.23464052;-2.0084603;0.7276318;-2.0734646;-0.87071925;-2.2345028;1.2238129;-0.20894957;0.017455818;-0.92535496;1.2584784;0.8355048;0.72483563;-6.565456;-1.3406875;-0.45118883;-0.08375346;1.3009268;1.3643181;-1.8987324;0.59611297;-0.007912695;0.27463982;1.5466553;-0.7865375;-0.7201323;-0.2824554;-0.17140745;-1.522034;-0.8062969;0.8630461;0.9037472;-0.714758;-1.7152325;-0.1334752;-0.39150497;-2.2122576;-0.71568173;1.2913024;1.8996065;-0.495915;0.5164534;2.5604815;2.0901723;-0.31872755;-2.0703125;0.96389693;2.7728667;1.2176318;0.5519351;0.3061357;0.60021687;-0.42924547;-3.1069005;-0.5003762;-0.69261706;0.00013445396;-1.3350267;0.6472573;1.2274734;-0.52628696;2.7120912;-3.3707235;0.28413862;-0.5248394;-0.71093524;0.46153176;-0.8641205;-0.66186213;-1.040215;0.09058259;0.3690404;-0.09489162;-1.4693924;-0.40948433;-2.0162816;0.8365665;0.30586;-0.90668017;-2.1053467;-0.5506553;-1.7292072;2.11006;2.445234;1.294375;-0.5605296;-0.8359045;0.29969847;-0.10078203;-1.1388389;-0.40118372;0.14174223;1.976703;3.257354;-2.748698;-1.663827;1.7959223;-0.7224129;0.691104;-1.5206095;-1.8747344;0.11182156;-1.4470303;-2.8403318;-1.2722353;-1.6663593;1.025361;-0.6695921;-0.36985195;-0.96092534;-0.845807;-1.6059897;0.17290781;-2.3625128;-0.861514;0.8840092;-0.8953607;1.4904311;0.1451874;-2.0421557;-0.4050289;-1.2230545;-0.6566543;-2.5626464;-0.7411149;-0.5059925;-0.87148976;-1.1304953;1.8300061;-0.80384827;-0.44829404;-0.44205096;-1.6827332;-0.5485962;0.6952036;0.36320052;1.9022931;1.3679154;0.79481757;1.5220056;0.51873493;-0.4809902;1.8250865;-0.50299275;-0.27199772;-0.49305922;-3.2430127;0.08388195;1.3727199;-1.0214136;-0.15199085;2.3394845;-2.4912064;-1.2257205;1.6434063;2.1005862;0.5486656;-0.8951237;-0.78994876;-0.57799184;1.339019;1.9562025;-0.027500749;0.4814205;1.6224655;-1.6224996;1.0927383;0.16924699;2.9326806;-1.8532685;0.0064903926;1.0581369;0.7247475;-1.5545254;0.2300142;3.8955898;1.6991755;2.1933749;-1.7040513;0.3298535;1.0696324;-0.3842861;-1.6188489;3.1662438;2.243106;-0.35089043;1.8868308;-0.95436764;-4.2203503;1.8946881;1.9408358;0.8563627;0.65008885;1.2982605;0.72146344;-3.0359545;1.6587423;1.2401352;1.3462043;-1.3106662;0.18420285;-0.651921;-0.7123779;-1.0570436;-0.20811142;-0.39600652;-2.16054;-4.1580353;1.4021386;1.4207063;0.286553;1.4105247;-1.3408387;2.076272;0.97689116;-4.7692327;-0.7629126;1.4706916;0.43112594;2.7519011;-0.12506215;1.0425096;-0.5628694;0.81842566;0.40960786;3.9903886;1.8846738;2.6266997;-2.1674447;0.21792978;0.007040306;0.2393791;0.11697466;0.5837954;0.7849059;-1.2969463;0.53161854;-0.17585303;-2.6241443;0.9573226;-1.7807119;-2.1185598;-1.9602786;-0.65005404;0.11469478;-0.8859618;0.54928106;-0.900893;-1.4122844;2.180209;0.03887151;-0.17365852;-0.64692205;0.29455498;0.17016265;0.46627584;-2.4983265;0.11959795;1.0689675;-2.655832;-0.6635572;1.3964363;0.039537065;0.14021794;1.2452195;-0.212548;1.6980207;0.6355927;1.1386994;1.0463477;-2.0249636;2.3691094;-0.1458152;0.35205945;1.255609;1.5863197;-0.6174815;2.1753817;-0.26365772;0.27588826;0.7785538;-1.1919413;-0.1284189;-1.4333268;-0.546963;1.3030727;-0.118243925;-0.7828356;-1.5182707;-0.26166373;1.181497;-4.0306034;0.10768192;0.012822912;1.5861706;3.2092962;-1.0144533;0.7807053;1.8560374;0.65564454;-0.79425365;-1.7094213;-0.9274713;-1.149491;-0.5127799;1.3731585;-0.30293745;0.75564426;1.4185629;1.1866326;-0.38528016;1.2173959;0.76705587;-3.6954072;-0.31913254;2.1844456;0.65107226;1.4671996;0.75951284;2.6954334;-2.0708506;-1.8711524;-2.0347192;-0.22660758;0.6910183;0.3235353;-2.1258376;-2.6046154;0.014395721;1.9321915;-1.2859482;0.28263426;1.3839911;-0.23687442;-0.0977702;-0.47675797;-0.28637242;-0.16179389;1.024869;1.1054586;1.7721354;1.5746185;-0.77431583;1.8848981;0.22001375;-0.9781417;0.7817178;3.1847167;-0.2800632;-0.5825978;2.8080873;4.8458686;-2.2303762;0.08973593;-2.106247;-0.70628995;1.4085418;0.7351659;-0.97722906;-2.3640313;-1.320303;0.7248322;-1.0421662;-0.08664057;3.3941264;-2.470252;-1.0950396;-0.27959597;-0.7166516;1.1614445;-0.8440295;-0.60040927;-1.2134968;0.046327125;0.009227836;-3.123679;-1.0790373;-0.16594496;0.9236527;1.66681;0.74975663;0.49959812;-3.2384968;1.1762792;-0.01185038;3.5820756;-2.27606;-1.6876436;-0.27579594;0.46611655;-0.98219997;-3.2432966;0.2624103;1.2179854;-4.90294;-1.7528512;-1.4946095;-0.050684243;1.4420221;0.51732045;-2.474496;-0.3084595;-1.0423362;2.063255;1.6645266;-0.1689792;1.3903178;0.5905715;0.41402766;1.1554464;1.104605;0.56930214;1.4105018;-1.232814;0.052562498;0.69893956;0.59856987;0.51718533;-0.030987635;-0.39490315;-0.058378655;-1.1739403;0.43666014;-1.3618528;-0.8246216;0.71355015;0.55945283;-0.95474434;-0.52414924;-3.8724391;-0.41337445;1.4133234;2.619885;0.7221389;2.7345169;0.9675381;-0.71231776;0.21081011;1.6260966;-1.8057085;1.4516335;1.5025387;-5.063436;-0.20998484;-0.44070652;-4.3828974;2.293469;0.44154838;0.42665336;0.901771;0.64950216;0.1848792;0.9389135;0.5334697;0.9394687;-0.5399187;-1.8177525;0.65968;-1.359171;-2.6333716;-0.2225196;0.4724573;2.8025336;-1.6708113;1.1076078;-0.666496;-0.2992579;-1.0388161;1.160673;1.8325561;2.2109497;-4.192247;-0.94805247;2.342689;0.8153151;1.0749257;0.81441385;0.16287754;-0.10876936;-0.054974265;0.50493646;0.40419504;1.2805325;-0.6187954;2.5321777;0.1603909;0.2911527;0.15883431;-0.18400933;2.4714587;-2.4207788;0.69923425;0.4604776;0.16418947;0.88985044;0.047786966;4.030812;-1.5495046;-2.5804932;1.2793274;-0.89611614;0.0045735026;-1.0344385;0.5913961;1.6629786;2.334422;1.2241269;-0.7405218;-0.99683285;-2.7338934;1.4414091;1.0759978;-1.645954;0.1438099;-0.29715025;-1.0766135;1.9627459;-1.8667611;-2.323915;-0.29696247;-0.86011285;0.5391052;-0.66986734;5.301415;0.19379672;-1.0691308;-1.2274579;-0.40708694;-1.6184325;0.22117189;-4.313866;1.0782881
-1.1519979;-2.9157412;0.88202924;-1.5850632;-4.800541;-1.1589922;-0.9336633;0.70291376;0.46761945;1.4658253;-0.37593922;1.6498965;1.4615194;1.1483573;0.7543662;-0.07198348;2.0141332;2.070557;-3.125988;2.0525672;-5.172658;-0.45556152;1.6880685;-0.9918092;-0.6357435;-0.4557935;1.6989255;-1.5201936;-1.1895412;0.39785188;1.478386;-1.521684;1.1617057;0.5445366;-3.0114524;-0.38756457;-0.2615809;1.1985865;-0.58278704;1.5529789;-0.25435776;-0.29309353;1.3142705;-0.39851043;-0.7770293;0.13758451;-1.7323709;-3.1802576;-1.1122402;1.3578435;-0.9078958;1.6944221;-0.24304017;-0.71029776;-0.03614264;-0.13021058;-2.7609868;-0.12927832;-1.67798;0.93433374;-0.12511414;-1.2158681;-0.85994846;0.16955812;-3.7390034;-0.8868056;-0.051910657;-2.4060593;-4.051487;-0.0314137;-0.29520124;-0.22438447;1.5793945;-1.5621654;-0.358562;-2.6066554;2.4173563;-3.2694652;-0.5045677;-0.13940868;-1.9685555;-2.0606234;-0.68224615;1.2020702;-0.9319127;0.46987417;-0.403759;-0.38506535;-0.68272173;-0.80256116;0.71759504;-0.27714318;-3.9729476;0.4551667;1.8971857;1.3946832;0.61535996;-0.47262365;-0.81796294;-1.9688495;0.16385569;-1.3033751;1.2990496;0.40762085;-1.3723795;-0.92674315;-1.2765845;-1.0208813;-1.0467011;3.1990201;0.8512729;-0.3038771;0.33402026;0.85897475;1.7622269;0.72961354;-0.8687784;2.2035346;-0.04091891;1.5080295;0.3621832;0.41248372;-2.3953993;0.83595806;-1.6019022;0.58508307;0.37088415;2.3884838;-0.07052428;-0.18271987;-0.0583976;-1.1567036;0.79833883;-4.138938;-0.7095318;-0.58360463;2.0843651;-0.2998339;0.11287462;-0.33743808;0.68196404;-3.4185178;2.1319537;1.4923432;-3.5221155;1.0429727;-3.4881244;-0.32591057;-2.803982;-2.3505292;-0.9867306;0.7532524;-2.6800423;-1.8839569;1.0939332;-0.22243625;-0.05190783;-0.4738629;1.3160323;-1.1286501;-1.4120666;1.3781166;-0.37987685;0.356901;1.714456;-2.2145457;0.16934477;-2.3385906;-1.1054306;-0.08643709;1.5865828;1.1965082;3.1749947;-1.0638717;-0.6225784;-2.9263892;0.47886533;-0.26259992;1.5322982;2.6724184;0.9230131;3.0556123;1.0197132;-1.3229334;-1.8227439;-1.5308739;2.699064;0.95105606;-1.5062355;-0.49055898;3.001237;-0.56918174;2.8214874;0.7591784;-0.551151;0.22507223;-2.2778687;-0.79770267;0.24733387;1.8636162;0.95258236;-0.635332;-1.0330547;-0.4425156;-0.48865804;0.81804067;-2.0421941;0.33775693;-1.9855336;-1.8204863;-1.6273558;1.6611754;-2.2881794;-0.20131329;-0.45480502;0.9379441;-2.482776;-2.044857;0.15648712;-0.36839256;2.3088045;1.0333917;-0.9706038;1.4827657;-0.66721684;2.2814116;2.2386498;1.142723;-1.7339915;-0.08919563;-0.062346566;0.2406624;-1.6577158;-0.17452937;1.7459488;-1.1933793;1.2784424;1.0560889;-0.23488453;0.37927;-0.17042491;-0.62003934;-0.9217719;-0.99604714;-0.42346343;0.6820422;-0.13877697;0.076370746;1.371499;-0.64225996;0.88355285;-0.80760753;1.6122152;-4.1574216;1.3167071;0.8357322;-1.1682808;0.28409976;-0.5719216;-5.532255;-2.4120033;0.36478227;2.436352;2.5304604;-1.2123342;0.396974;-0.043779228;-0.30563423;-2.1287377;2.693511;1.2153612;-2.0652823;1.2210972;0.577965;1.0647583;1.0711224;1.6300995;-0.62609655;-0.9569643;1.4393737;-0.43815047;0.42518228;1.9671912;-0.047311578;-2.3248847;2.7457488;2.5536952;-1.9006408;-0.364321;-2.6651392;2.551686;-1.7278428;-2.694596;1.7268866;-0.13113981;-0.80243385;-0.0050277277;-1.9261272;0.1902097;-0.495859;-1.1053872;0.21794312;0.30953977;-2.8412797;-3.5570226;-2.6314895;-1.0596541;0.31630278;1.4903961;2.230969;0.61533695;0.49668193;-2.1939993;0.53383976;-1.0242376;-1.164649;0.82662135;2.100795;-1.6479025;0.07588839;-1.4225138;-0.13896775;-0.27924737;0.025552988;-0.4741398;-0.29326454;-0.24542263;1.4925406;0.3734978;1.618649;-0.939684;0.6520845;2.027919;2.082497;-4.153179;-2.4492598;-0.3132546;1.3202878;2.911033;-0.0145185;0.20690644;-1.4722217;2.162841;2.9793274;-0.51849496;1.330164;-0.71474266;-1.9606663;1.5191625;2.3742774;-0.20492056;-3.0818212;2.0815632;-1.9843992;-1.4834057;-2.8627255;0.64592326;2.1748285;1.2997224;1.3137069;0.7730949;2.8585694;1.0238106;0.36210832;0.46330947;-2.2860112;-1.5445365;3.7683651;0.43051472;0.6485596;-0.21743906;-1.6009451;0.8144954;0.716071;0.97220063;-1.2134374;1.3147546;1.7199837;-0.7580423;-1.0962967;-0.04817234;0.8324172;1.3195282;-0.8989186;-0.45802197;-0.64138466;-0.49007502;1.3451794;-2.3144407;-1.2980547;1.256549;0.24729137;0.8860073;-0.33935574;2.4079156;0.3674743;-1.9162214;4.173326;0.12428141;1.2443025;0.33659786;-2.410757;2.2163048;-1.740281;0.43051037;1.6208975;-0.72754544;-0.6089336;0.041908707;1.1147214;-1.190602;-0.9996799;-2.1407113;2.7539136;0.83978695;-0.7828671;-1.1225396;3.1375551;2.168073;-4.3465276;-2.5937176;-0.9918091;-0.4527257;-0.71896476;0.72616065;-1.177499;-0.99514955;1.0331311;-2.7591817;-1.6318752;-2.9387002;2.4833858;0.4047139;-0.10633531;1.6168816;0.86066467;-0.55687624;-0.19769764;-0.028203335;-1.3279175;1.9190736;-0.45632848;0.046207875;0.15676157;-3.7019641;-1.7356763;-2.2860086;-1.1929102;0.048411593;-5.21528;-0.7479812;-1.0929786;0.87914646;0.14156735;-1.1300536;0.85734844;1.442312;-2.6908991;-2.9898045;1.6182837;0.7417495;-0.3291671;1.939199;-1.7478181;-0.28846896;-2.5950904;1.5946845;1.7189537;-0.5474981;0.508712;0.5064442;-0.26343516;-0.35688916;1.005056;0.901898;1.8004324;2.9460042;0.7727501;-0.097638264;0.19658087;-0.6315736;-0.3117729;-1.2318982;0.08898009;2.4769723;-0.4630273;0.7339347;1.6339282;-0.2826077;-1.7021067;-1.3671674;0.03845168;2.5869706;0.24117596;-0.84987015;0.075675316;-0.29981244;1.0127063;0.15797739;1.5473075;1.7671452;2.948297;0.042089913;-3.5544538;0.046775617;0.010615305;2.4779196;-1.2850249;-2.945551;-0.92719275;-1.2979937;1.4224032;2.0900362;1.3298084;-1.4899945;-0.9911079;-0.88237655;-1.0078555;0.8575081;0.46570164;0.47896072;0.80879825;3.0880113;-0.57144135;0.17249799;0.7226798;-0.6660446;-0.6572302;-1.0006444;-2.5451915;-1.8724482;1.5105137;0.6132678;3.7627423;-0.61184627;0.250866;0.5348855;-0.35454896;1.0802646;0.035037592;-0.22774066;-0.67599386;-1.1202722;0.84345835;0.8764945;-2.5017054;-1.326043;0.2759168;-0.27690563;-1.8910223;1.443208;0.8514615;-0.8101723;-1.9385679;-0.1492538;2.6527014;2.9246185;-1.791169;-2.0222425;0.018012004;-3.329605;-0.10842254;-0.4812924;2.545749;-3.4155169;0.21531568;0.4646635;-0.47129855;0.7909411;-2.327422;-2.4936082;1.081016;-0.10132801;-0.58679545;-2.376981;-1.118567
1.7130053;-3.161957;-1.1312921;-0.70185375;-1.6343744;-2.8982816;0.6727157;2.0850837;-0.63674074;-0.49562624;-1.6359389;1.4680015;0.23289864;-1.2204543;0.2647623;0.76210237;-0.9171639;0.7684505;0.5041464;-1.0603372;0.52147096;-0.69474494;-0.2631537;-2.235602;0.57893044;1.4116235;0.040865716;-1.1727499;2.2405393;1.8896044;-0.6693563;-1.9314342;1.5434493;1.3420322;0.7481316;1.5783662;-1.3789309;-3.0254452;-0.35585904;-1.1400193;-1.599893;-0.9285024;-0.8606129;1.0401022;-2.6932013;-0.79175496;-1.2226576;0.085572824;-2.1780257;3.4555764;-0.53303295;0.25391924;-0.43880674;-2.0728674;-0.8342739;4.563135;-2.624943;-5.7054577;-0.7852953;1.840848;0.014520064;-1.1195861;1.3897378;0.31059852;-0.8431854;0.3316562;0.022367239;-0.95376164;-2.6935709;-0.24594489;0.04552718;-0.7481266;-0.6170822;0.6022663;-1.4584329;-1.5979055;-3.221804;-3.9415164;-1.6622185;0.115136094;-0.88978535;-1.9388386;-1.9570509;0.592452;-0.047084194;-0.039168403;-1.3661994;-0.35116464;1.984377;-0.70584345;-1.6991544;2.773437;-0.0159757;1.2283372;-1.6948152;2.353857;-2.539569;-2.1991608;-0.26549932;-0.54742616;0.27758303;-0.34549052;1.5371984;0.036155954;0.4035833;-0.49055314;-0.7766876;-0.5258745;-0.58945125;2.2804103;-0.8278893;1.5035331;0.13488571;0.31949973;-0.2761953;0.7014357;0.8706097;-0.22706975;1.4111152;-1.23422;-0.25482574;1.2242811;-0.30739963;-4.820609;1.1649133;-0.4292403;0.034938615;-2.1331213;-1.0185606;-0.49168378;1.648484;-2.661466;1.7653102;0.23446277;-1.1722766;0.9618575;-0.8030963;-0.9605373;-5.9796143;0.5666633;-0.023942713;0.059441395;-0.85812366;-2.1717086;-0.8927576;-1.9199086;-1.4801604;0.22454713;0.15957339;0.8271489;-0.49570906;-0.3846837;0.12061992;-1.1493396;2.3907664;-1.6619619;-1.3605314;0.10017134;-1.6297665;1.3708594;-2.7023973;1.0806593;-0.5673143;0.5866922;-0.6393953;-0.55014974;0.4945057;-5.2158127;-0.61450297;-1.9086524;1.3682892;-0.86199677;0.0023034357;-1.261521;-0.7053326;0.17034942;0.29614365;-1.2160919;-0.73507524;2.1186905;0.0003464799;2.4115465;-1.1874162;1.5197594;-2.391953;-1.5101326;0.70535284;-0.07659521;-2.1495245;-1.1664563;-0.43786335;-0.0033968692;1.9755003;0.392965;0.73117805;0.55845934;1.1057047;-1.2036409;2.6175315;0.9229225;1.1133878;0.7462599;-0.5127124;-3.772924;2.6519556;0.5059808;-1.1791798;0.1070283;-0.8347938;-0.17479873;-0.6723459;0.902728;0.93270195;-0.4326988;0.014395238;-0.09474682;-0.6955886;-0.79083586;0.070370585;-0.37609515;2.8884468;2.4830804;1.872516;1.0384215;0.36821356;0.13863397;1.4191763;-0.44429332;-0.06190038;0.7566514;0.8512073;0.5176564;-0.5958567;-0.15760623;1.0858566;-0.030078065;3.0862865;-2.2253883;-0.4986232;-1.7489209;0.4741824;0.9669828;-1.1692348;-0.630523;1.4922159;2.743072;1.9701679;1.7060052;0.09426112;-1.2849997;1.9172735;1.8530642;2.4328692;-3.080529;0.63846636;0.7135503;1.6358923;-1.9220431;0.72529715;0.6103681;-0.47072595;0.67165047;-0.96575654;0.70656645;1.8564607;-1.0238001;1.6214019;0.7410346;-4.15349;-0.045111023;2.6511934;-2.959808;-3.0170286;1.2676015;-0.27750468;0.1324819;1.437672;-0.3268193;-2.1741862;0.6298856;-0.26319394;-2.2468362;-0.71763957;2.4852812;-0.13038129;-1.0133599;0.4208479;1.4782792;1.1414723;1.4054005;2.5607183;0.56424534;-0.8535118;2.550689;1.9139414;-2.8262837;-0.89396536;2.5959158;0.87856686;1.197383;-0.52691317;-0.43366766;-0.47832763;-0.5607295;3.5836625;-0.5722101;0.68728334;-0.10581829;1.3967221;2.0293636;-0.103429124;4.4150767;-1.4765525;2.7289357;-3.051164;-2.6390493;1.7153467;0.031012004;0.90305537;-1.0125986;0.22101569;-0.68125606;1.201191;-1.1896036;2.3182619;1.1949929;-1.2448587;-1.7014196;-1.4059542;0.69728947;-1.353233;-1.3598993;-2.4548833;1.3687874;-1.5359534;0.5340258;0.5733221;-0.270596;-0.15096083;2.0488203;-0.22097044;1.6127375;3.287797;0.83291197;-0.38668156;2.79648;1.8640001;-0.39254093;-1.6252108;-2.384498;-0.022053603;1.1317679;0.27554977;-2.0018914;0.9777012;-1.0932972;-0.01140547;-2.288909;1.7172651;0.82578546;-0.04699942;0.28286958;-2.8103633;0.4155162;0.27424636;0.85488683;-0.66633993;-2.377149;-0.6604606;3.5950866;-1.8245395;-5.568921;0.877602;-1.1111765;-0.60107696;3.8018918;2.2119534;0.17573828;1.4573703;0.7169544;-1.0533837;-3.3677742;-1.7327932;-0.16312794;0.44521567;-1.6736561;2.0479317;-0.47516927;0.29567266;-0.8507642;-0.9725899;1.1559215;-2.0638177;0.39311805;2.7196112;-1.0003632;-0.25605795;2.5530841;-0.48557478;-1.3053634;2.0527537;-0.56071;2.560628;0.21445282;-1.1623656;-1.2940922;-0.17069472;-1.6704736;-2.5574877;3.2976377;-1.1028359;-1.0560088;-1.8762609;-1.9278315;-0.5557641;-0.3769032;-1.2810321;0.8476668;1.816755;-2.1450272;0.0010585258;-0.24366634;0.052902803;2.7874112;0.9891551;-0.6607793;-0.6959052;3.0388613;0.5809337;-0.9117574;-1.805183;-0.184999;1.1946454;0.7185162;1.3993951;-1.6941994;-1.343694;-4.0368204;-0.8624191;1.6614565;-0.8798962;0.9294993;0.73630583;0.73013115;-2.654718;-0.02383644;0.2890997;-3.8316529;1.0703949;-7.8727584;1.695992;-0.77268875;0.67557687;0.26051787;-1.3411909;1.0951715;-0.28924724;-0.57703274;-1.01175;-0.10875744;-0.2295944;-1.6529255;2.6490145;-1.1041628;-0.49008983;-0.8352307;1.0749698;3.218143;-0.39818802;0.59592915;2.0062819;-1.8186407;-1.4240181;-0.2615631;-2.5327322;-2.3301284;-1.0426395;0.49440643;-1.2097648;1.1739572;-0.97670436;-0.87665486;1.7458335;0.5571735;2.0117552;0.3101049;-0.8462254;0.55411136;1.7995002;-2.704356;1.0960325;-1.4206005;3.0675654;1.7231662;0.22547539;0.8095217;-1.7210357;1.8544006;3.3233373;0.9429303;0.15186256;-0.14279163;2.4814484;-0.7445417;0.5776081;-1.28529;-0.6837513;-0.07746107;0.109921075;1.0550073;-1.235282;-0.013108462;-0.5709485;1.0708884;0.55724514;-0.26573512;-1.1029485;1.8879776;-0.16555852;0.015652845;-0.35117432;2.2003126;1.3192338;-0.1631089;0.37127438;0.47636497;-0.55011106;-2.0019257;-2.1053805;0.49287236;0.8619522;0.7306771;2.4669857;0.3863269;-2.2004561;1.524778;0.75834584;-1.4775603;1.2351035;-1.3732092;-0.1864028;-1.1308687;-0.315661;1.867211;-0.1461877;-1.9023482;-2.6858425;0.2001664;-1.4450939;-0.21616499;-0.4804472;1.420701;1.7184836;2.2699277;0.2762477;1.1343455;0.23033626;1.1502346;-0.5243193;-0.6070955;0.60104376;0.7202271;-3.92024;0.8685373;-1.2615488;-0.7272204;1.0338265;2.0641463;0.12805815;-0.6498105;-1.063694;-0.6274531;2.6267498;-0.96594256;-2.1626253;-1.570729
3.4544594;-0.4690371;-0.20447181;-0.42930737;-2.2697756;-2.1299021;0.9440219;-0.38343704;-0.5228758;0.11368099;-0.066909425;-0.58962834;1.0208547;1.920736;-1.9295996;1.0088061;-0.7184176;2.4091442;0.9039559;0.64123297;-0.32383582;0.4381551;2.048202;-0.83014745;-2.6008081;1.4588711;2.3494675;0.9813513;0.5138012;1.9497862;-2.6368651;-1.9243156;0.85458964;0.11366759;-1.027352;-2.035584;0.35889772;0.65967834;-2.8937523;2.0893607;-4.050053;1.5363113;2.1815271;-0.67256683;-0.62997067;0.65991765;-3.2193606;1.1782203;-1.2640257;0.3800618;2.9620655;-0.23793767;0.279138;1.6551332;-0.1895573;-0.46602175;2.3732224;-3.5052829;1.899301;0.35658336;-0.048612196;0.13766378;1.0456387;-0.24191822;1.0213425;0.9309583;0.60590106;-1.1460885;-0.82714313;0.08167228;0.90025705;-0.51980513;-0.18259473;0.033851694;-0.25384966;0.23105787;1.3271638;-3.219233;-1.6257933;-0.6814701;-0.63929206;-1.4720944;-0.53961873;0.9658036;-0.22901663;1.6889366;3.1809723;-1.1488678;2.888363;-1.2559022;-0.3015171;0.27352294;0.71278477;0.66558814;-0.44037873;0.09987506;1.9775892;-0.35078853;0.8018896;1.1692789;-0.2825614;2.7341764;1.7198266;1.0324078;-0.5640109;1.039492;-0.68222415;-2.0073848;-1.3097024;3.0610316;1.004463;1.3543301;0.857073;-0.3805531;-3.202126;-0.13571091;-1.4618859;0.41059345;-1.270402;1.1060883;1.3494177;1.5906693;-0.5898567;-1.5938919;0.67361474;0.8158912;0.8254055;1.3266208;-3.9866734;0.062769115;0.0456286;-1.8037677;-0.47242787;-0.3793986;-1.0300676;-0.07098647;-0.6988675;-0.772732;-0.18644013;-0.45858887;-2.1979322;-1.8316902;-1.3494242;-0.6992381;0.19537802;-1.138261;-0.44544318;0.7999982;-3.2651181;0.15158601;0.5707518;0.19972289;-1.0634618;0.3906117;-0.24212585;-0.7034887;-1.4257545;-0.49290586;-1.6125094;3.5942578;1.0600405;1.2334157;-0.6256707;-0.5204546;-1.001779;-1.0180552;-0.5070928;-3.8957388;1.3491414;3.6056707;-0.02979379;-0.8462692;1.1425868;0.0910078;0.30435768;-1.4758039;0.938009;0.04950246;-2.109;1.6336453;-0.5222321;1.0085889;1.0856676;-2.7908833;-1.8133988;0.66876;-1.2366186;-0.9197023;-1.0535975;0.14498739;-1.6044906;-0.39572683;-0.16606784;-1.7148684;-0.57189494;1.0652747;-0.84511584;-0.7304918;1.5190381;-0.27239752;-0.84416026;-0.8475032;0.4742346;-2.398931;0.74986744;0.8235323;-2.0114524;-0.26140228;-0.42717123;-0.6779925;-2.6950035;-1.2676588;-1.0512887;1.5204209;0.51026946;-0.7214376;0.16397582;0.523067;0.73694164;0.18603113;2.211408;2.1650083;-1.627867;-0.021566898;0.7321514;-0.51720685;1.6332009;-1.5499499;1.5995438;1.0683566;0.472809;-2.883849;-0.52505606;-0.0387835;0.6736775;-0.45730415;-1.0653926;0.19719376;0.89496857;-1.6263033;-1.2192701;0.7598727;0.38746062;-2.209189;-0.13866268;0.04772918;-0.65474725;3.64595;1.5375237;-0.5415901;-1.2366428;0.7878071;2.0291555;1.6334459;1.4810855;0.70396674;2.0573058;1.7219676;-0.8240482;-0.30872408;-3.0681233;3.0154176;-2.1294105;1.4251621;-0.38264254;-2.1132607;1.4319211;-0.61585224;-3.0199857;-0.5456608;0.94094497;-0.54742086;-1.1885966;-0.9626188;-1.7542255;0.16251434;0.51337475;-1.3289889;0.3506855;-0.49261793;1.1053386;-2.0814526;1.7400618;0.18804829;0.54689294;-0.17375076;2.3366113;2.6602795;2.3381402;2.3817434;0.90694416;1.6347903;-1.8371805;0.2568948;0.6931868;-3.6274562;-0.83858114;-2.2853646;0.5776136;2.715992;-0.11012672;0.3304241;1.4323732;-0.15621023;-1.2159202;0.7446374;0.019506175;-3.0429776;0.2112024;0.9540307;0.4453575;3.284603;-0.44239017;0.85854566;-2.6452794;-1.5742196;-0.6047281;-2.616869;-0.2146454;-0.25899208;-0.08202932;2.5702996;-0.9196658;-0.72726774;-1.483301;-1.4760286;-1.6017852;0.017720148;-0.40501073;0.077923544;-1.3811357;-1.2135996;-1.9352533;-2.1955245;-1.8001027;1.0245055;-0.23749232;-1.7303696;-2.4421096;0.023723738;0.45110926;-1.523982;2.879302;0.35396802;2.1010675;5.723377;-4.808195;-3.871762;1.5325736;-1.1205186;-1.328549;1.306949;-0.034744646;-0.37281907;-0.66308975;-0.978359;0.8706359;-0.25323454;0.11163616;0.814016;-0.9890742;-0.15814237;-1.4408283;-0.6596086;0.17416596;0.29987326;-0.96056664;2.1444068;-1.8838586;-0.30683002;1.592566;0.4096916;0.96681976;-0.9448457;-2.3691952;1.2201372;1.9178056;0.6601412;-2.0880988;2.832513;-1.5781336;-2.2969472;2.4590297;-1.1569724;0.7603405;-2.7127848;3.6973019;0.42602152;-0.1740607;-0.6399697;-0.30347404;3.4732585;-0.5296402;0.74577117;1.2265964;0.21786188;-2.8318024;1.8418576;-0.56841;0.47727633;0.6880965;-2.199977;-0.519908;1.3147984;-0.16293328;-2.227546;-1.1599107;-1.0453302;0.2512949;2.7237248;-1.0618308;2.3513489;0.26577246;-0.43190742;0.63478214;0.24470595;-0.8957299;-3.5487218;0.3488635;-1.732222;1.5583442;1.1196154;-2.3449664;1.6451597;0.460346;0.75182384;-2.986291;0.54488784;2.2948213;1.3480386;-0.3514636;0.7713054;-1.8034865;0.14072673;1.1510718;-2.5515132;-1.4084055;-1.474393;-2.9975066;-0.92526174;0.16479099;-0.04693419;-1.1381254;-0.6033249;-5.998309;-0.025886878;-0.72835904;-1.1200417;0.5878627;-1.6853569;-1.0415765;-1.1385827;-0.0076720035;-2.0271814;0.3132452;-1.0279918;1.8326795;-1.8711563;3.4322324;-1.3587581;2.5415883;1.5952326;0.80066335;-0.9873783;0.28085765;-2.738509;1.526783;-0.2855787;-0.65018356;1.0772651;0.07691583;-2.798067;-0.53942394;-1.245838;-0.9167175;0.4911212;0.25663662;-2.1713276;-0.85504234;1.7715687;-1.1465933;0.30441442;-0.3729379;1.0164713;-1.0830771;1.7088951;-1.6329652;1.4198583;1.508743;1.4468989;-1.1846159;-1.1869396;1.1662843;1.2479346;0.34279722;-0.15765591;-0.06113757;-0.044070423;-2.5644023;-2.1660953;1.5560113;1.6533129;-1.0970964;-0.6369054;0.92884344;0.6212729;-0.33846775;-0.25160444;-0.45887384;-1.1412129;0.81308854;1.0478032;0.31463104;-0.7096911;0.1412421;1.8468456;1.7339848;-1.0743835;0.77079993;-1.7393771;-0.24566151;-0.06636857;3.3166106;0.04235326;0.14423329;1.005487;-0.86132246;0.5758676;-1.1694955;2.448557;1.3699456;0.28281486;-2.269438;0.37910104;-3.0833533;0.05355457;0.5360942;-2.0073214;0.08713094;-0.4681188;3.4638128;2.6876707;0.2932832;0.6068902;-3.3778222;-0.39047596;-1.6751354;0.35230604;-0.84889597;-1.5697676;0.78638995;1.0106008;-1.4254901;1.7617103;1.895063;1.231461;-3.0515094;-1.5706378;1.2390794;2.7314124;-0.80105525;0.02549586;0.32827973;1.314989;-4.2483373;-1.9783441;-0.14167778;1.6281263;-0.6966706;-1.1736846;0.8726582;-1.6730486;-0.76383275;-0.16310598;-0.005331689;-1.8822644
0.83561385;-0.1510037;-2.2104764;0.44618765;-2.3237278;0.96097857;-1.4969225;1.8114525;0.24248971;0.13158947;1.1686826;-2.3167598;0.9426307;-0.14039132;-1.5261008;0.8853207;0.36225936;-0.8657423;-0.6327902;0.6151357;-2.303735;-0.40851066;0.025779082;0.6058923;0.5362753;-3.3192635;0.39471844;-0.2537445;0.11386897;1.0064881;2.1702082;-0.7920726;-0.15769869;-0.25863186;1.1809272;0.51719517;1.3271593;1.1559069;-1.2992585;2.3795805;-3.394676;-1.0016493;-0.48508838;0.18494844;0.5208642;-2.5072787;-2.8150854;-0.2792535;-2.146877;2.0605936;0.5064905;1.5815268;-1.1495609;-2.3458974;0.6733383;-0.4564705;1.7938261;-3.605331;-1.6543905;2.4939642;0.30115077;0.8078558;1.324477;-0.823152;0.62100667;-0.74805385;0.029455129;-0.008475686;-0.8130207;-0.12156858;0.85749197;-0.5934138;0.71170574;-0.112154506;0.7870596;-0.563824;-1.7881868;-1.9172108;1.9093482;0.39179206;-1.4171649;-5.340257;-0.21672565;1.3272914;-0.36876938;2.1236353;0.92767453;-1.0637268;0.34795058;-4.5960274;-0.58425695;0.8683845;0.4633752;-0.19189799;1.6201458;1.8413476;0.433706;-0.3015108;0.30749115;1.1326523;-1.8686748;0.4194108;1.4330368;1.2494216;-0.42778492;-0.15541287;-1.3171047;-0.15041406;1.1274538;2.4491096;-0.082140535;0.11617171;-2.3906217;0.36490577;1.4826478;2.1822999;-2.7188191;-0.9017996;-0.039345406;-0.41981643;-2.6082377;2.5255625;-0.35319623;1.8951316;0.08272308;0.89155376;1.013542;-0.07702014;1.1597884;-1.2291836;0.842212;-0.34810024;0.34512582;0.6095254;-1.4426477;0.044484288;-0.72051215;-2.2612996;-3.0716474;-1.7231491;-0.0058520352;1.039342;-1.3596091;-0.66925395;-0.1999626;-2.410264;-1.2245001;-1.9771845;-0.9300388;-1.1383895;-1.2052257;1.9773077;1.4400173;1.2299212;3.1565297;0.11583593;-2.08695;-2.1885889;-0.44165862;-1.7269309;-0.82222843;-0.012549039;-1.0842781;2.253037;-0.4914688;-1.246996;-0.03421552;-4.447504;1.193355;1.6352937;0.42225245;-2.8515382;1.1384226;-0.6037653;0.4924296;1.8201462;-0.6230259;1.1362916;0.36302668;-1.5012305;2.5839164;1.8317138;0.95439696;-0.99918354;-0.99099463;-0.32511598;3.1657515;-0.25888216;1.2700497;0.4340359;-0.7866151;-0.1739864;0.18723963;-2.6451395;0.55043393;-0.7254547;0.87840754;1.120825;3.8562;1.7337385;-0.70848906;-0.49283865;0.3465128;1.365877;-0.5862558;0.5760388;1.0241549;0.86022687;-0.44705957;-0.41292349;1.0481654;-0.10649103;1.2414266;-2.3765528;-1.5144383;-0.17294143;-2.5751827;-0.30280355;-0.0036595548;0.46143597;2.516759;-2.3657696;0.6015221;-0.97596043;1.6409364;-0.7916076;-1.740012;-1.3344193;2.3913715;2.076673;0.04364594;0.44733453;-0.4887506;-0.11997676;0.77315444;-0.59771204;-1.033392;1.00158;-0.19270833;-0.79577124;-0.45814237;0.977012;0.9659112;2.0889633;3.2604654;1.3087729;-0.38749012;0.96807975;2.1306503;-1.4405988;1.0693367;-1.3282454;0.0140986005;1.2995425;0.7598049;0.09250541;0.8737296;0.109370105;1.3152891;-3.347268;0.17823784;-2.1269183;-0.92370623;1.9458357;0.9712053;1.4212066;0.8903816;-1.6412276;0.5451246;0.99450153;0.19960715;-1.1874957;3.6850748;0.81746715;0.269725;1.1452982;1.3039588;0.68048334;-3.2415192;2.8117704;0.6622132;-1.1242019;-0.072550096;-0.37320524;-0.92185426;-0.79443485;-1.6746558;0.16291244;-1.6565262;0.81572926;1.0166383;1.3588424;1.9852017;1.9570305;-2.5373843;0.6441725;0.49498436;-0.74505305;-0.10285651;-1.1415275;-1.1032767;0.7392252;1.9659202;0.121383786;-3.0770555;2.1043878;0.9452891;0.002233473;1.2105428;0.647693;-0.33029756;1.5538416;0.72373265;1.0679595;0.8662158;1.3266178;-0.4373286;-0.12844975;0.6250484;-1.3918134;-1.5816518;1.3911625;0.12643847;0.90857095;-0.96829814;0.70663726;2.408374;-0.51944876;-0.754466;1.7806661;0.23331784;1.0121824;2.1811259;-1.5448904;0.9740072;-0.099255905;-1.4175578;-1.7815399;-0.6736158;0.9850426;0.30501804;0.21200112;2.8174326;1.0390755;-0.6319081;1.0034171;-0.48567012;-1.6526178;1.4250313;-1.5046926;0.3461215;-0.15924573;0.81375897;-0.78175735;0.45275366;-0.48629117;1.1798385;-2.207462;-0.64893633;-0.74364936;0.39903107;-0.9037907;0.40605018;2.3532646;1.8738954;-0.41915733;-0.6609164;-1.1708109;-1.7139728;0.45221788;0.21744072;0.8907242;-1.6588436;0.57487965;-0.09718443;1.5297703;-1.0759655;-3.0521228;3.167216;1.8382032;-1.2236047;-1.2059513;1.9193791;-0.66375583;1.9646374;-2.0292275;1.1515824;0.7650308;0.36232704;-0.68908715;-1.6447976;1.456244;-2.2084072;1.6934369;-0.08486127;4.601289;0.7004116;0.22642869;0.6467951;-0.20555313;1.1033537;-0.18654022;-1.305234;1.1238159;1.1811496;-2.7114947;-1.6266837;0.08017337;1.0684333;1.0856591;-0.32333705;1.5832326;1.8762751;0.05365995;0.73192346;-0.069121204;-1.5303292;0.14664426;1.8496938;-0.45152044;-2.8495224;0.57647747;3.0603023;-0.31620395;0.06996989;2.1964955;0.48666167;1.9564465;0.48083755;1.0077434;-1.0507954;-1.176236;1.3911355;0.24899781;-0.07860458;-0.50276774;0.5865268;0.21596612;-2.5920393;3.155059;-3.2485769;-1.5434302;-1.0758482;-1.246474;-3.158399;-0.4765282;-1.1985365;-0.442908;1.3323793;-0.5020135;-0.5420863;-2.5927367;0.32862183;-0.04507981;-0.04412467;-1.7127267;0.7402807;-2.2568972;1.1590812;-4.478191;-2.0548217;-0.9125195;0.48161435;1.4941711;0.12571734;-3.3923886;0.22408976;-0.46721897;-0.36100897;0.06600834;1.7338818;-3.3116932;0.3593547;-2.3260288;0.7274963;-2.7178488;-0.2582546;0.7429443;-2.1493547;-2.2817256;-1.2515486;1.1875137;1.0831141;-1.5326016;1.6669507;0.8320088;-1.6772861;0.27492103;0.13925776;0.07849546;0.38428053;-0.11647735;0.9731029;-0.11612694;0.5011014;-0.4641306;-1.1743836;-0.7635057;1.0361732;-0.24386792;-0.8747435;0.5161746;1.0522197;-3.5636241;-1.849424;-0.43472466;0.00954623;-0.84204596;-1.362091;2.8399258;0.50349474;0.82632697;-0.80369574;1.821905;1.0731164;2.6888597;0.97780985;1.8523083;1.569285;0.3013119;-1.4513469;0.15260682;-0.37669125;0.3155173;-1.9849081;-0.53824216;-0.22135052;-0.44195628;-0.019288786;-1.7463897;-2.1781924;-1.062304;-1.0631427;-0.08438661;0.45838758;-0.098143734;-0.5525857;-2.3729098;0.21517125;0.45681626;-1.6862608;1.3414407;-4.411885;-4.5887093e-05;0.8425891;1.1605248;-0.2836155;-0.21258943;0.6238956;1.3661168;1.2536173;0.83333266;-2.1479275;-1.8603415;0.6633988;1.0641611;-3.598525;2.0724297;0.21357527;1.2354654;0.82705903;1.4734538;-0.8387619;0.78130853;-0.6365615;2.0495484;-0.7405085;3.8926866;-0.9480532;-2.3270013;-1.3288035;0.37167576;-0.45110926;0.34375596;-1.4022785;-2.2593472
0.89814943;0.96217793;-0.73857075;-2.250743;-1.153887;1.302025;0.5331278;1.052704;0.89862245;-0.6352132;1.4701074;-2.0863805;-3.1337345;2.0224657;0.14646176;1.6027694;0.088611394;-1.970472;0.40037715;0.9513155;2.5381608;0.20227423;0.6990782;1.8764747;0.71988297;-2.9266002;1.0287981;-3.0632586;0.5176348;2.860209;2.2695818;1.5530453;-1.677481;-0.13768512;1.0041955;1.0683124;0.23859894;-0.12065379;-1.411819;-0.6523263;2.2333338;0.5176904;-1.9620299;-2.363793;-3.1213398;-0.5038782;-3.053947;2.4609106;0.13593636;-1.8784491;1.0707685;1.2354031;-1.9181557;-2.5057561;-0.38150874;-2.378088;1.5671254;-1.0433711;0.5788272;0.46316856;0.12810041;1.1123034;1.4079403;-1.5850242;2.3160727;-0.047190066;-0.2619323;-0.5468756;-1.438994;-0.14633729;0.35000232;-3.2356815;2.0140145;1.3948653;-1.0588472;-1.843984;-1.1292193;0.9037395;-0.74738187;1.3312434;-3.1216552;0.50054073;0.26468366;1.921327;-0.019771228;1.0588266;-0.61294276;0.16303383;-1.3686808;-4.8180013;-0.3934179;-0.35707173;2.5005999;-0.37089536;-1.4619877;2.3473217;-0.3493428;-0.17069487;-0.0018527271;1.9862065;1.2116183;-0.72705615;0.57387364;0.6095815;-0.31053638;0.19110268;-1.0862268;-0.8395099;0.16814238;-1.6218747;-2.024766;-3.645703;-1.0905541;-2.2985985;1.1718704;0.6358713;0.5268341;0.69982314;-0.89030856;1.4929296;0.7837872;1.8217767;-0.20809944;-4.4754786;0.6881992;-1.0571668;-1.0949211;0.7357817;0.7743248;0.32739246;2.3558717;1.2915727;1.4242381;0.10592796;-0.21581869;-0.97718996;-0.6919799;-2.2117288;-4.3268466;-0.6590766;2.432611;0.43948853;-2.0623662;-1.3755242;-1.7641299;-1.5322381;0.0679183;-1.7003049;-2.9867275;-1.102562;0.6031869;0.6871871;0.77256763;1.1129029;-1.1232122;-0.12379203;-0.15466812;3.4657183;-2.22811;-0.08192271;-0.76332295;0.541954;-1.8205279;-0.24011375;-1.104357;0.19643961;0.89231974;-2.241361;-0.30261958;0.15592639;-0.63774884;-2.7017763;-1.3050469;-2.2064252;-0.19132254;0.7193931;-0.8405798;0.6088734;2.2853858;1.5296168;1.8180132;0.47090298;0.5830511;2.1847403;1.2465819;-1.525838;2.555932;0.34461263;-2.056022;-0.43806002;1.0595747;-0.46146137;1.8515822;-4.0494123;-0.43169776;-0.3737504;3.3734593;2.1257148;0.52885824;0.024884447;0.39746615;2.4687607;2.1401904;0.8724613;0.6228165;0.81574327;0.15576214;0.6471046;0.8626823;-2.4678314;-0.69492257;0.1940767;-1.5366552;1.0591383;-1.8454428;-0.1297319;-1.5986798;-1.9568045;-1.5592306;2.2477403;1.2882919;2.7123542;0.7433522;-0.6713746;2.133156;-2.1650538;0.008687352;-2.139567;1.0569249;0.21596704;1.9063842;0.708;1.0584091;-0.77749133;1.6997024;-0.16331096;0.14166051;0.07311955;1.1817827;-0.058413677;1.3429132;0.17606042;-0.11280792;1.716064;2.6726913;1.2317971;-0.52413136;-0.511466;1.3901505;-0.24440984;-0.79739445;-3.060248;1.0514736;-1.0154377;1.752795;-1.6135693;1.0038778;-1.2196523;-0.44843695;-4.039178;-0.18847148;-0.35801935;-0.83720136;1.9125328;0.81765634;2.0576255;1.5090773;0.46595415;-1.7039955;1.203971;2.325068;-1.4882824;3.3866365;0.70668983;-0.2673957;0.5017302;-0.28651097;2.6325831;-2.7052479;-0.522517;-0.4596115;-3.1913269;-0.32797456;-0.37658066;0.40814975;-1.5720067;-2.7076528;-0.9188424;0.01219204;-0.38581243;-0.1307946;-1.3981894;-1.8217404;-1.5673726;-0.77432835;0.7553882;0.22455171;-0.39420697;0.65679324;0.4701556;-2.0326614;0.6661535;0.0633747;-0.9688752;-0.09930701;2.164776;-2.0362184;0.7057513;0.49923098;1.4979647;-1.7305547;1.5738413;0.74097586;0.15705238;1.9281156;-0.07319256;2.5768218;2.5233302;0.7250852;-2.0606167;0.39940622;0.95254785;2.3566737;-0.16192654;-2.595146;-0.7579571;0.53624076;-0.15516996;0.9940102;1.4203783;-1.2067311;-2.8338883;-0.057965025;1.0741276;-0.038915947;1.8919193;1.6394211;0.21019666;0.044263635;1.1760451;-0.29723108;1.7968237;1.7573266;-0.82243955;0.41145477;3.2173462;2.0172148;-0.1494368;1.7943301;1.0070331;1.3200506;-2.8430538;0.28111216;0.43174186;-0.4874073;-4.263153;0.28465515;-0.43037686;1.8102523;-1.2198211;1.4037745;-2.498667;1.1890326;-0.2713317;0.15227434;-4.536031;-0.260926;0.49586248;-0.6589552;2.1578066;0.6641927;-3.0065706;-2.4943244;1.1021135;-2.2478702;0.8369699;-0.09695763;-0.79383016;1.8963616;-0.3178039;1.0055326;1.7409246;0.408116;-0.120571;1.5126052;0.22693042;-0.7460623;-0.2975478;0.28196925;0.23389986;-0.121532805;0.26963365;-0.036655594;-0.31323236;1.0514443;-0.4855542;-0.31407607;1.9390203;0.61138;1.1796967;0.69150734;0.49228123;0.13446203;0.2920378;0.4645852;0.84295094;-1.8476347;-0.40245894;-1.0852247;-0.116682015;-0.6670971;2.640713;0.8071877;-0.100615844;-0.10436163;1.340934;0.7760374;1.132012;1.146918;2.5922675;1.6574523;-1.0768905;-0.37897828;0.45443225;0.1357198;-1.5753275;-0.41770568;-1.0340174;-1.7555971;0.66232157;-1.8232676;1.4992663;-0.099750794;0.08132128;1.5788993;-0.025936183;0.4959427;1.1616281;-0.23388767;0.17866619;2.405109;-0.51829946;-2.548136;1.372044;-2.6728954;1.7263335;-1.0305054;1.6075411;2.5815158;-0.034921076;-3.1678197;-3.9160523;1.5646671;-0.36940026;1.3007456;-0.3653206;1.6042442;-0.846339;-0.48248786;0.41379225;-0.13191164;-1.6337749;-0.15731063;-2.2131581;-0.45738858;-2.4009109;2.0225205;-0.48587957;0.8019085;0.45982587;1.2220403;0.5926469;-1.2194937;-1.2103988;0.38296336;-0.33708167;0.9146351;0.18424614;1.7720717;-1.4876431;0.9879804;3.1040795;3.3556993;-2.8389912;-0.59659845;-0.8271273;-0.3454572;-1.897389;4.8107953;-1.1745187;-1.6878712;1.2106148;0.38736114;0.5362855;-1.276315;-0.6171148;0.36479613;-1.5967679;-2.777167;0.9538215;0.42352316;1.2996993;-0.11360847;1.3678077;1.3467855;-2.231736;1.225322;0.38189048;0.41658294;2.0658789;-4.5569286;0.8395236;-0.5324565;-4.5289073;0.65164864;-0.122890465;2.5989943;-1.4977015;0.21452384;-0.71136856;-0.31839234;1.2588122;-0.8747938;-1.2304446;-2.774583;-0.72198766;-0.88895524;0.38523355;0.89143145;-1.4788464;0.7034949;-0.5033571;-0.9206488;-2.475565;2.3875918;-0.86385137;-0.8538102;0.54978037;2.1623514;0.5890934;-1.5039746;-0.43430012;-1.7638857;1.862116;0.9009816;1.2071185;-2.0084274;-0.170501;-1.2827752;1.4925835;1.0694937;-0.26709557;-0.30412102;0.5381293;0.47155315;0.83662605;-0.9215335;-0.05367843;1.6958947;0.16735166;2.5819333;1.063362;-1.4684834;-0.28623107;1.0243006;2.9139102;-0.36537388;-1.0708023;-1.4116995;-2.2380245;-1.4548057;1.5262429;-0.24041642;-0.60407054;-0.8281208;-0.9639521
0.52970093;-0.11669478;-0.10598006;2.6216342;-0.3498629;-0.53255665;1.1977787;-1.4970317;-2.1281984;2.0773168;-2.1919262;0.5032967;3.0180411;0.5790523;-1.6454759;-0.9339416;-1.6804227;-2.7511897;-0.84071696;0.8529276;-5.4592376;-0.1980871;-0.3792104;0.78778327;-1.1994804;-0.2971264;-0.08708476;-0.8340004;1.3366276;0.47437406;-1.1079711;0.4886985;0.23221363;0.29047126;0.6908078;-0.52394605;-0.80904406;0.83808815;-0.5091711;3.069409;1.2658242;-1.5212421;-1.2762728;0.58571094;-2.399336;-2.2455082;0.7155963;0.9060332;2.9499552;0.9202181;-3.4257324;-0.1531022;1.4099853;-2.2012873;0.37749022;-0.43521214;0.57884675;0.025872601;-0.32887095;-0.6805299;0.23145217;1.551178;1.183211;0.9211461;1.1238447;-1.0864004;0.17823625;-0.16923231;-2.7130082;-0.019483102;0.15820283;-2.0630267;1.2307595;-0.21854511;-1.848646;-2.312575;-0.08973348;0.99033797;-0.51498467;1.6328567;0.70113665;1.0425135;-0.29764658;0.8351181;-2.026085;0.31022164;-0.9413739;-3.1412115;-0.908364;-1.9050745;0.89495164;-0.6170069;-1.3323035;0.10774959;2.7867482;0.522265;-2.3324068;-4.0636406;-1.454605;-0.005646663;0.93807405;1.648454;1.7380971;-0.67822206;-0.3851556;0.13346875;-2.1555073;-0.35164812;-0.5925154;1.4203551;-2.7812812;-1.9308928;-1.6574455;2.1218963;3.1581738;0.5748055;0.8212991;0.46494365;0.0006719564;-2.0363445;-0.113437854;1.2615012;-0.08669773;-0.2589997;0.4316496;0.0018924718;-0.49863735;1.5084454;-1.560475;4.2204266;1.482649;0.69678503;-0.5267361;-0.1979287;2.253986;0.46653944;-0.3487065;-1.3129795;-2.7767704;-2.1864526;2.811318;-2.3140724;0.37511703;-0.365862;-2.394067;-0.78725946;0.8730053;-0.29706198;-0.45936775;1.1668881;-1.346754;-1.5886368;0.6955835;0.5162194;-1.6271758;0.25507584;-0.16170752;-1.8380071;-2.3164735;-1.3141804;1.6179343;0.19145189;-0.24256812;-0.86502415;-0.11633714;-2.3291562;0.43280792;1.8101921;0.118330464;-3.1491704;-1.7247146;-0.5678978;-1.3016719;-1.0808308;0.004758948;-2.7538822;0.53890777;-0.8282527;0.6737986;0.1743831;0.9929626;-4.522194;-0.5548085;-0.052520763;2.5807211;0.12867051;-2.7488284;1.5951278;-0.8834726;-0.46802872;1.3762827;-0.49583775;0.65230364;-0.49716783;-0.08214623;-0.06748529;0.78612685;0.6850359;0.43519047;0.97851884;0.8881945;1.1022707;0.7456164;0.2562699;-1.3705436;0.70139915;0.6553337;2.2107334;1.8289944;-2.2225964;0.01822324;0.40173727;-3.246404;1.6257496;2.1673;-1.455544;-1.1751832;-1.6592286;-0.88511497;0.589142;0.4414745;-1.9603918;2.0939465;0.4134489;0.45509738;-0.23199168;-0.36673126;-0.21933693;-2.602283;0.4290458;-1.1639148;1.2394283;-0.8087868;-0.27094883;0.48656958;0.20081021;0.06543095;0.31390324;2.3606162;-0.054765336;0.60876447;-0.5581435;-0.21896219;-1.495116;-2.6694846;1.4726248;0.6017062;1.0268197;0.84356797;0.39188287;-0.15504585;-2.59619;0.7676448;0.30651644;0.004984926;-2.6560926;-2.249929;-3.07863;0.28893813;-3.2243884;1.6068507;-1.3878416;-2.126916;4.3225026;-0.05068319;-0.06140292;0.40040737;-0.6449801;-2.6504557;-0.32002664;0.18687834;-2.5385764;1.152331;1.1699418;0.5456423;1.2942525;0.22114173;-1.4141976;1.4810083;-2.7493186;-0.259374;0.21129543;-2.5155902;-2.2056835;-0.72261244;1.5082027;-1.5765376;0.74761975;0.11296734;-0.4619504;0.025213026;-3.2470496;2.2790565;1.7790573;-0.28987142;-1.7696402;-0.346834;2.5539615;0.6372334;0.60116017;1.9419655;1.4373554;-0.7466857;0.53159773;-2.1371593;1.5803208;-1.9069973;-1.4902743;-0.3368439;0.13237584;-1.1164557;0.46223664;0.30158016;-1.9807444;3.4506552;0.28342044;2.1915162;-1.1580201;1.938391;0.24630515;0.23703068;-0.8689873;0.5184791;-0.4852087;-3.1857917;-2.2567718;0.36481595;1.6789091;0.044872988;0.2745979;3.178854;0.30408236;-2.6990647;-0.6955547;-1.8295095;-2.2913654;0.49535558;1.9197451;-2.556036;2.6555524;-3.344778;-0.9032618;-0.6762255;1.2167552;-0.37377894;0.88148785;1.9956934;4.311654;0.31328788;1.5857508;-0.42771393;-1.7173837;2.0690405;-3.6154356;1.2781901;-1.2553403;0.08802419;1.2152668;-0.14657922;0.016368205;0.23444228;0.085457645;-1.8050675;1.4546347;1.2137812;-1.6052662;-0.041823853;1.3383987;0.92977107;1.9383599;0.49546063;0.6081971;-6.4428115;0.50706935;-1.30473;0.10639893;1.1714923;-0.6032141;0.14354496;-1.6844792;0.04278294;-0.41791576;-0.56050456;0.30523038;0.61047024;0.47340405;0.36549497;-0.30498025;0.15527995;0.11103451;-0.12971872;-1.9056886;1.8126385;-0.34589246;-0.4129156;-4.1594553;0.252421;-0.14957924;0.82126784;-0.23795904;-0.75188553;-0.16420946;1.4766316;0.7651803;1.5106467;0.9318504;-1.0316988;-0.5700602;-0.9957814;1.2530993;-0.1854176;3.5278435;1.912788;-1.3923837;-0.44891375;1.1027205;1.370248;1.285966;1.5777912;1.5308653;-3.227255;-2.0586812;0.44270468;3.4497113;-1.0045182;-3.63855;-1.1031212;-1.1529568;-0.30049783;0.7816862;-2.1079698;-0.19786444;0.13327114;0.4027881;0.881816;0.8750978;1.1088665;-2.591114;0.36704555;-1.1758436;-2.7607012;0.84852535;1.5633253;1.8777425;-1.1966033;0.2057744;-0.9972319;-0.15407296;-0.22718145;1.9944278;-1.741641;-1.376227;0.19120283;0.36834764;0.38147473;-0.42298713;1.6619769;4.9277587;0.1963672;-1.1534675;0.24766584;-1.2607243;0.4050852;-2.3249729;1.284755;-1.4083796;2.3854165;-0.93854696;-4.661779;0.3186572;-0.45884702;-0.16434294;1.5227928;-0.46267274;0.8957928;-0.9839958;-1.4756517;-0.6180279;-0.5133209;-1.7888875;0.16926235;-1.5530282;1.0264469;0.05283495;-2.0201073;-0.15361327;1.6766558;-0.6011977;-4.5967946;-0.8352376;-2.152879;-0.5160826;1.2796327;0.069606185;-0.2255324;1.33725;-0.4767482;-1.1191175;1.9561183;-0.3692245;-1.6030706;1.3453057;1.1162326;-1.7113439;-1.9796488;0.7905414;1.0209696;-0.23204905;-0.62135357;3.598629;0.11511548;2.9010508;-0.270582;-0.5285959;0.9095732;-3.817718;-0.09390688;-3.8112829;0.14488432;-0.8841543;-3.562371;1.733743;-1.851728;0.30176213;0.29848132;-0.43313807;-0.604724;-0.8545183;-0.4496411;-2.9627244;1.0053911;0.31498805;0.7764333;3.9444368;1.9693741;-0.97552145;-0.8628797;-0.9789165;0.0782943;-0.029667914;0.14319155;4.371377;-4.888691;-0.15242183;3.4484313;1.5106487;-1.5427754;2.7825642;-1.3046919;-0.35575694;1.6154017;0.45301527;0.405406;2.2255983;0.7046371;0.64281654;-0.20938477;1.2238523;0.062990375;-0.5503826;-1.0847824;1.2873638;2.1352386;0.30893287;-1.4439856;0.44196025;-0.051457085;-4.1771092;-1.4432179;-0.2258461;-0.7811793;3.4633822;-1.6218914;0.3957438;-0.05468674;-0.48433504
0.30118573;-1.0063939;-1.4402499;3.1138299;0.96545404;-2.9182997;-0.28283003;-2.6235266;-1.6954612;-0.33027315;-0.48974386;2.0829709;0.019186782;1.2524427;2.5687604;0.34072214;-0.8621712;-0.12692665;-2.0868862;0.87505364;-3.6568425;-1.5134282;-2.4905808;0.8221418;-0.50424373;-1.1821198;-0.08523086;1.0395248;-0.4368456;2.5885468;2.6032224;-0.39455006;-0.131652;0.41034287;0.5285263;-0.4702632;-2.1417794;0.4076648;-3.3749266;3.5046306;1.8515744;0.04154623;1.5295348;-0.043905903;-3.0278108;0.2850808;-2.2350142;-1.3991989;1.7725877;-0.58571655;-3.8520098;-1.5696002;0.23411433;-0.3978737;0.6134587;0.42939717;0.8558415;-0.8738961;-3.302022;-1.4036542;0.21912314;-1.2403517;-2.4200294;-1.0614486;-0.0034293528;-1.2693785;-0.37795976;0.4734785;-1.8703808;-1.8859764;-2.0174088;-0.75508374;-0.8338004;1.0393832;1.2897521;2.2897742;0.28100765;-1.6235266;0.7199079;-0.7859616;-0.7353815;1.4241614;-2.76574;-0.18753465;-3.489035;-0.6338474;0.3538095;0.49999452;2.1576715;-0.4991359;-0.7096604;1.6232901;0.7470479;-0.26419628;-1.3586298;1.9779873;0.39732486;-3.018382;-2.849985;0.64348733;0.58599854;-0.20090622;1.3912045;-2.294964;-0.022265276;0.6552001;0.8369239;-0.47603667;0.834053;0.9496211;1.429088;1.0577954;-0.24090429;-2.3517268;2.1153913;-0.24151513;0.30143154;-0.22222224;2.2520099;-0.89530015;1.0861163;-1.6090443;0.018096108;1.2590263;-0.8571884;1.0341759;-0.724062;2.0401769;-1.0175297;-0.03686908;0.41985145;0.36268383;1.4827955;1.4040371;1.6383574;-2.263591;-0.54161525;4.138637;-2.248324;1.3890692;1.1798481;-0.09724576;-0.014721322;-0.69789433;0.8918765;-1.6838937;2.1066177;-3.4055736;-4.2746396;1.0216011;-4.522251;-1.2139102;-0.56435394;0.8952643;-2.9026113;-1.8354543;-1.7502868;0.8923641;-1.7733648;0.31346932;1.999394;0.059678067;1.2408661;0.04842642;1.7978619;-1.7479246;1.8936967;1.0793564;-1.4578333;-2.1538775;-0.23729539;-0.07199476;-1.6442418;-0.5717326;-1.7311825;-2.3528817;-1.6443031;-0.15834162;1.3006927;-0.5937547;1.8908477;-0.7837979;-0.34246528;0.9305418;-2.565746;-0.79179245;-2.796738;-0.3054035;-2.7582512;0.08427478;-1.2823964;-2.457829;1.3721756;-0.27397954;-3.703102;2.3976452;-1.3639798;2.3330903;1.1711929;-1.0799915;0.46758887;-0.847328;-0.8617062;-1.7651465;-1.1515368;0.5551619;0.6445037;2.5523903;0.677042;-2.5859697;-3.0194325;0.22526452;1.9515115;-1.0895034;-0.78786623;0.5382111;0.66520613;-1.7693585;-1.0947056;1.5227138;0.6545896;-0.58764184;-1.6564001;0.26653996;0.76425725;0.51368994;-0.43082798;-1.0625148;0.8611519;-1.63313;0.40335125;-0.66283303;-2.9047701;-0.559089;-1.350244;-0.01780691;-1.7582697;-1.631132;1.0955502;-0.7523411;0.89179313;1.7027401;-1.8709718;-5.784423;-1.5457854;-1.5950148;-0.59179443;-1.3280205;1.0974422;1.1600219;1.1897465;2.6160655;1.7295293;-3.0544987;0.8752611;0.36600885;-2.0802238;0.719775;0.32621795;1.3313028;-1.2380458;2.1611943;-1.1377605;1.0479175;1.35564;0.5776769;0.13675982;-0.51832765;-0.78843373;-1.8085761;2.5585332;1.7819281;2.1898625;0.6290795;0.5088108;-1.6602421;-0.25137448;0.95514226;-2.0723383;1.7808121;-1.0123297;-0.22229058;-3.6550517;-1.7404377;-0.5555847;-0.46455318;1.237332;3.000036;-1.1122298;-0.53356993;-0.97176474;-3.4878056;-0.7091277;1.0910778;-0.05552052;-2.7527452;-0.37955314;-2.3161004;-0.54604405;0.61331403;1.0111388;0.18471912;-0.52017885;1.9695985;-1.6505291;1.3238814;2.2542584;-2.084249;1.9341308;-0.5044611;1.5881382;2.3158498;-1.1968021;-0.006507333;0.9002321;1.2199272;1.5829505;-2.8323183;1.6194453;0.54859746;0.15897813;0.8348102;-1.3143475;0.24360457;1.4227906;1.7691619;-0.16004512;1.3373148;-0.8419298;-1.1454095;1.0509965;-2.5696254;-0.14834046;1.2989084;3.1201727;0.74143595;0.31042513;0.55930394;0.24133049;-1.6717079;-2.3315182;-1.1398654;0.9452409;0.58339;1.1687905;1.9172498;0.37260467;-1.7275069;3.4936938;0.14659037;-0.52938884;-2.4492996;1.8518417;-0.6423183;1.069756;-2.533378;-0.79124475;-2.2305353;0.3697928;-4.944852;-1.248076;-1.0665889;-0.41296846;0.811764;1.2873209;-1.5105829;-0.5197285;-1.2028348;-1.2058903;1.4907684;0.2610133;-1.404108;-1.1799897;0.89926964;0.68547726;1.199654;0.63920295;1.1276485;0.31065747;0.6217464;1.7316434;-1.1247141;2.795707;0.1960792;0.59885037;0.102746256;0.6963319;-1.1372342;0.787275;-2.359335;-0.50632524;-1.9241807;1.5849634;1.1210238;0.22629336;0.7256763;1.6762204;-1.0365564;-1.6934733;1.1197553;0.67768776;0.3175943;0.89508706;0.13921931;-1.474424;1.949979;1.461416;-1.6529554;0.47566015;0.11653922;-1.7701589;-3.8132875;0.02623542;0.1257008;-1.6266448;0.16471322;0.47786668;-0.045286316;-0.99437886;2.7964563;-0.96291935;-3.2498338;-0.97405326;1.4407666;0.7284342;1.041577;-1.5199517;-2.016392;-0.14429884;1.0333525;-4.429868;-0.42399293;1.758437;-0.22713725;-0.10438842;-0.06945199;0.97204185;-1.9689898;-2.4166076;1.0346301;0.050812274;1.659791;0.2875962;-1.6240646;-0.052909162;1.650585;1.6470627;-1.5940955;-0.103523985;-3.5972328;-0.0067926664;-0.95851713;0.19771543;1.790974;-0.52408534;-0.3407159;1.9772024;1.113454;3.371159;-1.4439073;-0.15769313;-0.1920731;-1.1717054;0.27799854;1.0948205;-0.09822056;-2.1258085;2.0966148;-0.7325524;-0.58673704;-0.805963;-0.7915982;-0.17265485;1.2675176;0.76895493;-0.94307685;-0.25612223;-0.07493475;-5.6174455;0.8409292;3.6536274;-2.0873835;0.26773608;1.2853552;-1.9679432;-1.0401101;0.78066003;1.4148854;-1.7712156;-3.603378;-1.3021017;0.5401127;-0.627285;1.2065192;0.29672232;0.29499358;-0.16736494;1.3808458;1.8603255;-1.5949962;-1.2639667;0.26291403;-1.9300879;1.0938605;1.198139;-0.1779189;-2.2267792;-0.5074836;-1.8944705;0.52327514;-0.37736142;1.8065678;-0.47156176;1.1395118;-2.9930398;-2.1491826;0.65579677;-2.9853728;-0.8339506;2.1633413;-3.212455;-0.9018511;1.5650034;0.15635765;1.0232315;1.2197926;-0.022615494;0.8472505;-1.7179561;-1.9224544;-0.5071551;-0.9601816;-0.34185982;0.7318464;-3.684676;0.8007769;0.40468463;-2.2145638;-1.435182;2.0105815;-1.390427;2.8445797;-1.2894204;-2.904065;0.115934014;0.48770756;0.1912465;1.7799573;-0.7016026;1.0827711;-1.3323615;2.3156123;2.324117;1.8929482;-0.6356422;1.8949848;-2.1024587;0.24410093;3.706333;-0.6980493;0.39486003;0.1317117;-0.6756519;0.23865162;-0.7432041;-0.9764272;0.05018563;-0.05934296;-1.7487555;1.2401658;-0.8800609;1.2031181;-1.5285829;-0.40995562;1.4925559;-2.2764163
-1.9133031;-0.47113535;-1.2085034;-2.3778586;0.22357331;0.64988184;0.41569844;-0.67409754;-2.2544484;0.0019431263;-0.99540687;-0.17096059;1.4165932;1.5062954;2.3125672;0.3778088;-1.3424504;1.3884311;-1.4253402;-1.2971994;-0.07710443;-1.1371119;-1.0212158;-2.0101383;-1.3412422;0.6269152;-0.9566639;1.2756255;-3.3194284;-4.83003;4.2267537;-0.8807063;-1.7821124;0.32187098;-0.3657031;0.059200775;0.66671026;-0.33113766;-0.6300193;-0.11200748;-0.22412376;-1.5628326;-1.6424237;2.0994623;-2.0275614;-3.7131813;2.2756777;3.7681186;-2.3879535;-5.769727;-0.5576992;-2.06421;2.47684;-1.8958973;-0.75864416;-2.918275;-2.015445;-0.8573492;0.29477632;1.3180015;0.03623065;0.70667017;-2.7266464;-2.0356877;1.2401441;-0.013253486;0.64879483;-0.18642095;-0.13287947;-0.46114755;-0.40386328;-0.6417815;2.582048;1.3166636;2.238827;-0.6387284;-0.5169876;-0.32680267;0.7323224;0.7593719;0.21834297;-0.7553608;0.4780555;0.40866074;0.49153578;-0.2067526;2.4920135;-0.1841525;1.1667539;-1.837182;-0.52842563;2.0361264;0.82899487;0.4908371;2.9024298;0.025083702;0.1925044;-0.52406895;-1.0131544;0.74399126;0.20489804;0.8724593;1.1599185;-2.294586;-0.18628502;-1.0457855;-0.82577854;-0.18029878;2.7403615;-1.4006788;0.14418896;1.9008002;-5.815529;-1.7310966;1.2067262;0.90356034;-0.4816218;-0.20758925;1.7828068;-1.8194641;0.68482864;-1.7042423;-0.43121207;-2.4256737;-0.6378022;-0.85140586;-0.16488363;-1.0124047;-0.95796835;0.8883297;0.025830777;-1.4368762;-0.8478549;0.48540556;2.525582;-1.3268002;-3.0673826;-0.21815872;2.3808126;-1.8754203;1.698128;-0.17996557;0.78066725;-0.09022998;-2.521348;-1.9661642;0.9460546;2.708912;-0.5752053;-0.3621162;-0.9515523;1.9251711;0.21367261;-1.3968596;2.3257964;1.979446;-1.698115;3.4134967;-1.7545134;0.61304057;-0.9124188;0.63819623;-1.0906646;0.11834775;-0.39129958;1.8445414;0.8275184;1.3983753;0.6781073;-4.802776;1.167445;-2.1711786;-1.4537091;0.8311647;-0.8703426;0.18535098;-1.5392104;-1.3676242;-0.34208247;1.2041637;1.2703959;1.340979;0.02049688;-0.29467502;1.2605803;3.399824;1.5904273;0.463951;-1.1040715;-0.011077019;-2.3413203;-1.488154;0.63553244;-0.89075226;0.71875715;0.7035812;-2.3875878;0.18857367;-0.12032779;-5.674431;-0.7674281;-0.02217507;-2.7798991;2.0814402;0.0740971;0.9479303;-1.601217;-1.0426371;0.15646376;-1.2037704;-0.16533776;1.4563025;0.7357207;1.7881578;0.31121063;0.54185164;-1.0161656;0.7938964;1.4319389;0.8167412;0.15418628;0.21998216;-1.2223823;0.39275795;-2.6776404;0.50332373;0.02647257;2.410192;0.3663714;-0.3779747;1.6464405;1.2657675;0.53400016;-0.17709075;1.4555619;0.080082394;-2.1931114;-0.60324;0.5546132;1.0256362;0.80778956;1.2285374;1.1967422;-1.1735115;-0.8022945;1.4344897;1.3682472;0.5044617;-0.07020599;1.9288611;-0.2467278;-1.1060959;0.32349592;-3.0647624;1.9922923;3.6673937;0.100577585;1.5368444;0.4522648;-2.151597;2.0639055;1.2798547;1.5700339;-0.7217706;2.0791874;0.5053044;0.94686806;2.1479294;-1.4438646;0.8010996;0.019558078;1.5530007;1.8730651;0.37601453;-0.2643132;-2.9656568;0.30317396;-0.2676351;0.43025836;1.5349754;0.5675838;-0.035470072;-2.0939224;-0.28626445;-0.9164586;0.97356385;-2.1699293;-0.54957527;1.3457918;-0.33032095;0.452417;-1.5657406;-0.20038992;1.8643242;1.4740009;-0.31399652;0.5950312;-1.9847257;1.544462;0.30707598;0.77812064;0.4252133;1.2760794;1.0521924;-2.4151719;0.26093605;-0.6093998;-3.2533612;1.4364852;-2.7570026;0.4934644;0.5465838;0.61742926;-2.4646082;2.4163234;-3.7371893;-0.854666;0.9553352;0.02273653;-2.158754;1.5667174;0.50418025;-3.0351248;0.0013077214;2.1403437;2.5987544;-0.98319775;2.7783682;1.4285616;0.4586141;2.667052;-3.2130766;-0.4241412;-0.61823183;-2.490395;3.3495347;-0.026485411;-1.7902441;1.4874692;3.2806988;-2.022367;-2.3714244;0.10302953;-0.24579886;-0.48706967;0.32783085;-0.2424154;0.92824924;-2.2879891;-1.831184;2.1781492;0.19420253;0.21033773;-0.39441693;2.8889904;0.057722606;0.22925279;1.7496306;1.3626256;-2.0392382;-1.1896416;2.3273332;1.0333797;1.4055703;-0.20720208;-1.8491395;-2.847165;1.430468;-4.6471853;0.10448146;-1.0391918;-1.2780974;-3.2226918;-1.4760845;2.8931687;1.424469;-0.22038274;0.19261402;0.7247719;-0.3687875;-1.3960843;-0.2602276;1.3759646;0.038822304;-0.5955203;-0.9773621;1.7973562;-1.8527482;0.005037115;1.5772725;0.94444567;1.1984841;-0.438179;0.2593186;0.95504415;0.30803978;-0.26577148;1.2168549;-4.2573605;0.69097865;-0.02836397;-2.619712;-0.8379964;0.7617066;1.5463681;-1.194617;1.1103157;-1.040237;-0.10478081;-0.750923;0.52721417;1.0601602;-1.8664019;-2.2324069;-0.35733193;1.8588727;-3.1840868;2.226723;-0.72253555;2.6790607;-0.84662527;1.4386982;-0.03576858;-0.53382057;0.8521669;-0.5489428;0.26111475;0.36388353;0.81675076;0.013972844;-2.8555245;-0.77542037;-1.4382998;0.2531075;0.2867011;-0.22818303;1.0920086;0.12845188;-2.6527915;-0.07027126;-1.5587533;1.2811382;1.2819437;-3.5653667;-0.24702752;1.1205771;1.4089216;-0.5667937;-0.08714236;-0.35730508;0.085888945;-0.9335292;-0.43550718;1.1295214;-1.6760412;0.6120768;2.7155683;-0.9622456;-1.8069354;-1.868122;0.7869369;-0.6985221;-0.8397807;-3.3833945;0.85788304;0.2283615;-2.1156714;1.0569619;-0.36308476;-0.107591264;-0.17409715;1.0370973;-0.45530292;0.37318492;-0.0014437758;-0.049556322;-0.3498382;-1.3104231;-5.4187346;1.4283476;2.0306787;-1.7415849;1.2783142;-0.9833417;-2.544593;0.4259592;-3.9020803;2.2832243;-0.59438956;-0.19743387;-0.24066944;0.5140561;0.23614062;1.9555689;1.8350626;-0.36551005;-1.3435131;1.9676787;-0.6788117;0.33965206;1.2101547;-1.1397485;-1.332151;-1.8233292;0.18960361;-0.04505089;-1.2673795;-1.7009668;-2.1770265;-0.6976005;-1.010042;1.8415741;-0.0031281926;-1.5605723;2.3046908;1.1520332;1.8284761;-1.7903666;-0.13214059;1.3216674;-1.3322097;1.4938619;1.2004241;1.3800682;0.44258565;1.6003082;-1.0452987;-0.4879915;-1.1477858;0.1642833;2.055525;-2.656985;0.5940853;0.17736682;0.07606401;1.2907726;-0.83238727;-0.5859583;-1.0481274;0.4609206;-1.3044348;1.4935093;-0.6038692;1.133698;-1.0563129;-0.8952556;-1.6005019;0.59741044;1.1307122;-0.89512664;1.1164738;-0.20778911;-0.39483547;-2.0713904;-3.4181716;0.30461258;-0.3690105;-2.0773642;-2.1168497;0.14651312;0.3621407;-1.026569;0.3961761;1.5785041;0.23673725;-0.21766526;-1.0252695;-0.5716224;1.1297505;0.5836872;-0.41537467;-2.6191285;-2.1331925;-0.3256286;1.7041216;-1.2714655
-1.2204567;-2.0533135;0.45124564;-0.93680584;-0.43056688;-0.54849684;1.5312682;-2.0114288;-0.053129513;-1.8143163;-1.1835611;0.073791414;0.68843055;0.3389214;1.8222549;1.0929352;-0.24561258;-0.63183695;-0.6861935;0.593589;-1.6648021;0.19364779;0.24321832;-2.0083022;-0.18443365;-0.9244831;-0.8775735;0.1479926;-1.3302226;-1.6084417;3.5372143;-0.42067173;-1.8104603;-0.8543076;-1.1488092;-1.4179901;-1.5941343;-3.0099647;-2.5779843;0.7538847;2.816758;0.07344105;0.30218884;-0.70776266;-0.74203455;-0.2849855;-1.0099041;0.9008525;1.5954807;-0.53469723;-1.3171176;-0.15888835;0.5814632;-4.6428676;0.7140617;-1.2242336;0.53035444;-3.6684635;-3.4660604;-1.517445;-0.038922098;-0.7499192;-0.79470307;0.096509196;-0.37970605;1.4167998;0.14618255;-0.42034775;0.6518816;-1.2255832;1.8790209;-0.1954855;-1.6998624;1.3413695;0.9589846;-1.1632626;2.091882;1.9369726;-0.08895505;0.48879167;0.97426534;-1.4740458;-1.1218505;-1.2438276;-1.0367278;-0.52989864;2.505437;-2.724098;0.90506685;0.016514612;-0.9087576;0.9781832;1.595828;-0.40064502;0.2057313;1.6448568;0.9267236;-0.3168751;0.39038274;-2.5394244;-0.1541201;-0.26283646;-1.36006;0.071005605;-0.026320709;-0.3168036;0.84569836;0.77629244;0.9175981;3.7806098;0.8526009;-0.5595516;0.7963136;-1.2012069;3.016399;-0.9329898;1.0166384;0.8371924;0.7097506;-1.5228982;-0.78388214;-0.59459555;0.20142254;0.2679907;0.06459339;-1.3172526;0.2473059;-1.4713541;-1.5402929;-0.9666008;-1.6198769;-0.30316776;-1.0512115;1.6036017;0.8880481;-0.6158463;0.20287801;1.0403153;0.29358557;1.7581575;-0.06832402;-2.5989451;0.72904474;0.59951013;0.91421884;1.6732725;-1.673488;3.787211;-0.1452825;-0.6643136;-0.5701388;-1.4138703;-0.34378535;-0.0034154607;1.9039901;-1.5279256;-1.0974442;0.35270664;-1.6932632;1.0963875;-0.36962223;-0.65669346;1.1520351;1.0171139;0.14798921;1.3932127;1.092688;2.7631521;-0.9767529;-0.10283899;1.4609714;-1.3092302;-2.2961676;-0.16850753;-1.3097193;-0.38719067;0.46690235;0.6121284;-2.4517317;1.6108266;-3.4448519;-0.017999142;0.47864273;0.5735853;1.0618604;-0.0196768;-0.2984789;-0.87405664;0.29333007;-0.82275605;-1.4104463;-0.32285357;0.4941329;0.8989689;-2.4015818;-0.48496863;-0.31105775;2.015691;-0.31661335;1.4235965;-1.7068946;3.2884357;-0.6522588;-1.8494321;-0.03699052;1.5960711;-0.33385655;-0.6578324;-0.7599174;-2.397113;-0.75510323;1.4309493;-1.3544846;2.766814;-0.38005936;-2.575353;-1.1260356;-1.1670474;1.672305;0.09792341;1.9936887;0.1268653;-0.23862682;0.2707785;0.33346975;0.33868504;-0.9571008;2.1662946;-2.227434;0.75259817;-0.044678167;0.36683163;-2.663755;2.5482469;1.083035;-1.0938499;-1.5818022;-1.9464718;0.32614428;0.990662;-2.455768;2.049662;-0.5161969;-1.4316764;-0.6090227;0.8232418;-0.23762381;3.5093973;1.0866373;0.6829437;-2.739054;0.9117788;-0.20091192;-0.18679267;1.5343907;-0.4482444;-0.40584478;1.0920409;-0.41437122;-0.79186916;-1.3304284;-1.1231983;2.550478;-0.7665323;0.538781;1.0944828;0.54353994;0.5446851;-0.38673684;-0.63663447;0.31072527;-0.3245078;1.1125647;0.32635954;-3.7423995;-0.9493985;-1.0574278;2.2440777;-3.0886657;-1.6038694;0.07196318;-0.06854333;-4.040721;0.44379744;-1.5811335;-0.079451695;0.9887773;0.56582004;2.5640552;-0.63646585;0.8704627;0.7369847;-3.985099;-0.5081393;-0.09573838;-2.0463138;0.42044455;0.07492415;0.8495765;1.7618194;-0.59595233;-0.1083072;0.34328496;-2.2118676;1.1804242;-0.4267787;0.35911965;0.9436213;-2.8551471;-3.6158006;-0.4750991;-0.13668211;0.27562997;-1.3662359;-1.4531109;0.7673574;-0.72065663;-1.5782375;-0.72928435;-1.0482334;0.29691306;-0.21321218;-1.4465061;-0.27327523;0.69245565;-0.2485866;0.14770687;0.7084525;0.33557847;0.55279624;0.6690361;2.9931688;-0.5944454;0.3564827;-0.017590674;1.4173958;-0.408416;-2.5352883;-0.85901886;-0.4514319;0.05219968;1.3507056;-0.37446475;-1.2169552;0.2067697;0.6519881;-1.2521739;-1.0934985;-3.9075968;-0.2449401;-0.9582948;-0.29179725;0.9232181;-2.2780862;0.62428254;-2.5092213;0.4851245;2.105873;0.6531208;0.26202324;-0.7739272;1.9179608;0.16561498;1.9805031;-0.032806147;2.61924;-1.4860821;0.36838397;1.4743972;-1.0971863;-0.4112626;0.036966026;-0.54504406;-0.4492846;1.5549405;-0.70410424;1.001171;-0.86679065;-0.46567363;0.53789634;-0.024601601;-0.22714484;2.3696249;-2.351395;0.9708653;-1.927543;0.27884772;2.2473366;0.7041828;2.7165422;-0.9478638;1.1032257;-0.8218841;0.84676546;1.518242;-1.1777797;0.5763163;1.7028793;0.24523789;0.11835189;-1.837388;-3.48844;-1.7009037;2.5293574;-0.93112797;0.43062562;-2.1740003;-1.1438738;-3.6008208;-0.020526914;-1.8237172;0.06825351;-0.38099244;-1.2479541;-0.77894706;1.402374;0.07391934;-0.6828715;-0.44944337;-0.8913133;1.874529;0.51849276;-0.60378903;-0.30399397;0.49944988;-1.3479571;0.3121855;-0.16090494;-3.5168402;-0.9679656;4.2351565;-0.7182493;-1.1154631;0.50096726;1.5435078;0.19904679;0.42449394;-0.7374835;-0.8971745;-0.91616726;2.060244;-1.3059206;-1.1745845;-2.0294003;2.9274397;1.6981121;0.86633855;0.019160707;0.24246654;1.3377894;0.5908039;-1.0463039;0.32753336;-1.0308963;0.37843007;-0.036480404;-1.7778808;-0.5184386;-0.5351108;-0.28996027;1.8211023;-0.91423887;-0.636351;0.06333748;0.9064031;0.5396341;-1.5999448;-1.9670962;-1.7263355;-1.6874386;-0.73511934;-0.667946;-0.08556411;-5.11203;-2.6872177;-1.2214379;0.8320984;-0.24919653;-1.5319868;2.8594832;-2.6116164;-2.5662355;2.598853;0.9325659;2.2391026;-2.1489975;-0.37439921;0.5257933;1.6705317;-0.37772608;-0.69989014;-1.0821143;0.09454698;1.4355198;1.1174716;1.645335;0.36896122;1.265403;-2.1357806;0.7062459;3.376507;1.6518419;-0.87253904;-4.5754495;2.010423;-0.92664117;-4.3410425;1.5380967;0.0017083711;-0.09730801;-2.2460542;4.187759;-0.4544096;-0.5652896;0.7471722;-1.7941285;-0.15477628;-1.7592764;-0.2767748;-0.903445;1.3166255;-0.39164895;0.65147513;1.4507354;0.46108687;0.88850623;-0.1677283;-0.36839238;1.0257479;0.9545815;0.22553878;-0.28380072;-1.5568172;2.1817524;1.0605135;-0.34790385;0.495859;0.64009476;-0.2987972;-1.8850034;-2.1227655;1.5481592;2.1845536;-0.40441936;2.987003;-2.5647352;0.4899255;2.7222679;-0.03500977;0.68905956;0.075172;-1.9974642;0.29403928;0.502127;-2.3685436;-0.28479335;-0.17516582;-0.02640869;-0.67214346;-0.12409403;0.105600104;0.3329734;1.6884252;1.6509093;3.0095885;-0.07722302;0.5634655;-0.51813185;0.01708781;0.90669733;-0.11913384;-1.1803296;-2.999108;-0.5669704;1.2231805;-1.8371499
-2.6061437;-3.5826864;-1.7668846;-1.9728082;-0.06521989;0.6266804;2.323151;2.547662;-1.0875661;-0.32571694;-1.4879175;-0.4935231;-0.87892103;2.7041755;0.32959306;0.3330394;-1.7351885;1.7596651;-2.6646054;-0.39141393;-0.59722996;-0.6831554;1.049936;-0.818352;-0.11027831;0.9419729;-0.04417374;0.99444926;0.27002952;-1.2892262;3.5606205;-1.4070045;0.009211316;0.55319387;-1.2877073;0.2140947;0.5419323;1.673776;-2.3486586;-1.9745065;0.95294404;2.1435392;0.6325907;-2.0632074;-0.91608196;-1.8557738;1.0691042;-0.91049105;1.1737092;-0.14650272;-0.74995214;1.7392865;-0.4645795;-3.0393226;-1.6455072;0.12590191;-2.7907674;-1.3423152;-2.327795;-0.35778177;0.2940193;1.2993482;-0.09905387;-0.22762133;-2.05477;0.7025175;-0.43795106;-0.7805872;0.88039297;-2.249029;0.30953962;-0.15375924;-1.8539333;0.8234977;1.668867;-0.08689885;-0.9480002;1.1726451;-0.36278766;1.1351535;-1.5900325;0.66740084;3.107629;0.560189;-0.3590123;0.443953;-0.27882066;-1.0069793;1.0036328;-1.7372147;-2.1229033;-2.9319744;-2.3810527;-0.08133597;1.1065273;3.087142;0.3733254;0.6979535;0.24342825;-2.5392892;0.38271293;-0.7828007;-1.0602694;-3.12717;0.04050904;-0.35823968;1.6181177;-4.0256467;1.2544292;0.59257334;-3.0980928;-1.3599589;2.4819367;-0.77341104;0.723279;0.6986404;-0.79251254;-0.19988103;-1.7501736;1.6963435;1.110426;-0.969455;0.0010191912;-0.9476525;-0.40200529;-0.0044382894;0.83815265;-1.1107441;0.86372006;-0.62339956;-0.41864276;0.9376436;-0.5718928;1.7164568;1.0026509;-0.40208265;0.6748047;-1.7115556;3.9032307;1.3739103;1.2630394;1.0171809;1.1677717;-2.1058474;-0.04220369;-0.14421077;-0.7675329;-2.5368826;-0.56214154;-1.8508085;-1.7236656;-0.15779021;-0.13782902;-0.21133435;-0.715397;1.0572112;1.2979553;1.5554893;-1.7091486;3.5794158;-1.5155108;1.2884521;-0.2264271;-3.5221848;3.5214365;0.9204856;1.959348;1.6235479;-0.69493425;-0.38174888;0.2473228;1.4038199;-4.461343;0.71127254;1.8225157;-2.1712031;0.9852041;1.7555752;0.19191784;0.30291465;-0.36363065;0.9052887;-0.63936967;-1.1130042;-1.506956;0.6749189;1.9193056;-2.111257;1.9503398;-2.6279526;0.6525692;-0.22488981;-0.9564336;-0.30305934;0.9022907;-3.0745058;-0.079812616;2.342561;0.046078727;0.06250075;-0.7843939;1.466593;1.7049619;0.73672724;-2.1930673;0.60398895;1.638967;-1.4034891;-0.89841366;-0.7559858;1.8679788;-0.69114035;-0.49760178;-0.51121056;-1.1527706;-2.7300386;-1.818944;-2.4193199;0.44276667;-1.5661552;2.5530446;1.9995301;0.97851413;-0.01178665;-0.08586427;-3.265351;-0.4898495;0.37430945;1.7027943;-0.11083978;-0.4088547;0.53749216;-2.1302123;0.77789754;-0.7964795;-0.377753;-0.7651118;0.21273616;1.6880157;0.8808788;1.0318183;2.5931985;0.68663156;1.8420862;3.705802;0.7650772;-0.7321436;1.100211;-0.035720516;-1.1418753;2.3816721;-1.9614582;2.6232169;-1.9952077;3.3766785;-1.7866118;-1.4397824;2.4896255;-0.040421642;-0.73516077;1.387574;-2.405595;2.2661188;-2.5496352;1.4037757;-1.872265;0.23221889;0.18104795;0.57676786;-2.865773;2.0748675;-0.50991845;3.3831084;0.28188303;-2.7386506;-3.2074113;-2.8782787;0.20266815;-0.8375023;-0.5497507;-0.8629013;1.0264862;-0.44530118;-0.99444383;-1.481395;1.536447;-0.5994553;1.7632285;1.1645902;1.0852852;0.06635383;-0.18492885;-1.731219;1.48617;-0.01818173;-0.53538525;-1.9324354;1.3198451;0.27426824;0.8598355;0.37562048;0.34860915;-0.3109016;2.3756962;1.2948679;0.85286903;0.07100521;1.0021437;-2.175391;0.61128783;-1.8306372;1.6355193;-1.2894144;0.084022254;2.393937;-3.6136813;0.3987924;-0.43832457;0.9017273;0.31714445;0.1786851;1.6686637;-2.1025908;0.04397133;-0.99708974;1.5978376;1.1249287;-2.089688;-0.22805825;-0.5317833;3.1409996;2.0563173;0.1901852;-0.31724685;0.06905825;0.4287608;0.68284696;-1.1060349;-2.8746808;-2.2702463;-0.149389;-0.11654157;-0.99301606;-1.1278397;-0.67727035;0.5680377;-1.0040597;-2.337025;0.7026173;-0.12601936;-0.68380797;-2.9344044;-2.0024772;1.1638873;0.051563393;1.0171638;-0.47437185;0.2425827;-2.7589328;-1.5796777;-2.0371253;-3.612917;-0.11509279;-3.75244;1.3534092;2.639869;-3.0180411;-1.809393;0.1971087;0.74093145;1.5895561;0.42327744;-0.53914624;0.07893566;3.888284;0.0028640777;1.2554375;-1.6350521;1.3933347;4.062882;0.8843167;-0.56271493;0.82561964;-1.761299;-0.92045254;-1.6160043;-3.037142;0.70414364;3.1339908;2.2276952;0.6226722;2.491791;2.631529;0.7006387;0.33735338;1.329045;-2.6951454;-2.0984619;0.42312005;2.5995243;-0.32479733;-0.31597558;1.3509228;2.0314734;1.9782765;-3.1534588;-0.79694796;0.11952879;1.5144242;-0.48056749;-0.21774623;0.9993516;0.020627223;0.030710958;2.0664542;2.234708;0.96508425;-2.2003407;-1.2754557;1.6920718;-1.1608816;0.062166978;1.0425192;-2.210557;1.1574315;-1.533764;0.6414355;1.0302907;-6.0175304;-1.6591654;-2.96474;2.867279;-2.490797;-0.32021064;0.8135416;0.027001277;0.49450916;2.6589525;-0.1856416;-0.30981338;1.7719615;-0.5319518;-2.6835828;0.7167753;-1.3993292;1.7848152;0.93567866;3.2607791;-0.6803521;1.8181185;-0.1878167;-0.6576827;-0.7245848;-1.7193152;-0.70939213;-1.978608;-1.4035529;-0.7809262;-2.2248888;-1.6040602;-1.8514217;0.25527307;-1.5086977;-0.5129582;-1.4209952;0.50822175;-1.3766038;-0.41201946;0.2292503;1.0262874;1.5249716;-0.39020637;0.6003113;-5.167906;-0.359433;1.0808065;1.029351;0.35734874;-3.4955022;1.1382104;-1.4489069;0.71199137;0.4386823;1.0091162;-0.54821587;-1.1778184;-0.73734194;2.0744786;1.2533692;-1.5371553;0.011101155;-1.0098835;-1.2922573;2.1971006;-1.6573273;1.297343;-0.7477499;-1.2122573;1.0551887;0.29450914;-1.3157569;-2.4981253;0.9121595;0.6512924;1.3271071;-0.334534;-3.9391387;1.2118956;-1.3412378;1.3354738;1.9175967;-0.26513165;0.5904999;-2.388996;3.3371155;0.857312;0.4810853;-0.686966;-0.14113949;-0.2453734;0.7300707;0.89823794;1.4184945;0.81156677;1.0710157;-1.5022929;-2.371341;-0.56485486;-1.7714709;-2.1592233;0.76762056;-1.2693201;-0.3157639;0.39469722;0.04899837;0.8292903;-0.17926657;-0.82216614;-1.5857171;0.025094053;-0.93689054;2.1187577;-1.784783;-1.1945504;0.4784494;-4.9774685;0.29104456;0.3736706;-1.4452064;0.4413984;-0.6110429;0.9428832;-0.49454957;0.5165403;-1.6654088;0.72014225;0.017596163;-1.3658336;-0.96497756;-1.5996765;1.603494;-0.35214183;0.94376564;-0.69243693;1.8808824;-1.4450516;0.9772422;2.734798;-0.018694585;1.3466039;-0.7955345;3.534408;1.1744314;0.0864613;0.49130252;-0.76997536
-0.25490624;-0.53157264;2.033189;-2.532643;-2.2120261;0.0028087413;-0.8757157;-0.93776846;-2.0503576;-1.0300728;-0.6267273;1.8925414;1.3992778;1.409053;-0.059875764;1.2551045;0.0006390426;1.0419294;0.40426165;0.40830684;2.44903;-0.5836668;-0.34975415;-0.71547693;-0.1867119;0.57482266;-1.1727095;-2.0888612;0.5958196;-2.2480035;-3.394186;1.5843583;-0.9684207;1.3100858;-3.1412992;-0.83066475;-0.11155916;-0.043033805;-2.4998322;2.1410382;0.33795384;1.7119268;1.0105907;0.82270664;-0.33471605;0.9092357;-1.1912215;0.41897824;0.6064578;-0.37072238;4.0816317;0.18670936;-2.944514;-2.7992084;-1.0365227;-1.0318947;0.48542094;-0.629866;0.80543673;-0.6135548;0.14981055;-2.1047773;0.91382456;0.19980368;-0.78414786;-0.47752625;-0.05534347;-1.1424146;-0.94778514;0.5729094;0.7850233;-0.59944475;1.4831005;1.0020792;0.5956961;0.7150612;-1.5883455;-1.2603041;-0.8686908;0.19564089;-0.097210936;-0.40950748;0.8434345;1.163393;-0.83994436;0.29714176;-1.5888127;0.34075502;-0.21134531;-0.661272;-0.261217;1.7159407;-2.3502083;-2.199153;-1.1952801;0.53691137;-0.3442179;1.1327724;0.07820998;-2.1088831;0.5615767;0.25491017;0.21076469;-1.3945031;0.17818129;0.81658185;0.93417174;-1.263385;-2.1103764;0.9849437;-0.47589067;-0.35571477;0.58366877;-2.1013792;-0.05712279;-1.6805912;-1.3849549;-1.0075309;0.48120078;-4.131156;1.5406307;-0.24117666;0.3897182;0.15481758;-0.05308126;-0.12807621;-1.8023379;-1.5741597;-0.3799017;-1.3500904;2.6797116;0.22052015;1.7464826;2.9174736;-1.5325457;-0.8418049;-2.058805;-3.7623215;-1.057466;-0.3959228;-0.08280041;-2.0998197;0.34740254;2.911971;-0.13478702;-0.80836964;1.5270654;-1.1280247;0.43422335;0.5003427;0.9185075;-1.7212715;-2.7074902;-0.38290256;2.355738;-0.95606077;3.779364;-0.54630905;-3.6288667;0.90065116;0.75387377;-1.5608236;-0.8839881;2.1476998;-0.50654733;0.30478206;-0.38416317;-2.1270826;-0.47637907;0.040078823;-0.2509216;0.16546217;-2.1867554;0.83334666;-0.1375131;-2.4141514;-0.20010978;0.4432447;-0.9322658;-0.7399319;0.7848771;-2.4041505;1.0689476;-0.061803486;0.50834644;-1.3324194;2.9431157;-0.67433554;1.6803344;-2.3459911;0.46454513;0.28479195;1.887142;-2.46093;-2.3979201;-3.218335;-0.91456795;1.1264732;0.29079196;-0.97572386;-1.3815429;0.53289557;-1.1577809;-1.4730589;-2.582442;-0.70519924;-0.87791425;0.069120765;0.07005434;-0.4361341;-0.5705406;0.060153052;-2.2668223;0.649424;-0.6598574;-1.5575492;-0.24855734;-1.4544419;-0.7557973;-0.76065964;1.6861582;-0.32606527;-1.9291593;0.16376111;0.36929905;1.0733833;0.92314696;-1.5372062;-4.395464;3.6982312;-0.83604974;0.06805225;-0.35104877;-0.5521829;1.319471;-0.5884047;-0.2590439;-1.3624576;-1.9808099;0.32896912;0.8883091;2.8861747;-1.2730922;-0.74417967;-0.6980622;1.8196064;0.93095374;0.98037493;0.67099327;1.2876765;-1.9667974;2.3097627;1.75228;-1.3317298;-0.49758816;-0.9011807;-0.4221046;-1.0203116;0.2866077;3.3134115;2.6501257;1.9439471;2.8775668;-1.7836492;1.3746079;-3.154012;-1.8359797;0.06983634;-1.7357687;-0.012307649;1.7145612;-2.319007;-1.3551341;0.90400404;-0.354573;-1.3934323;-0.6414596;2.0905824;-2.2214105;1.2008508;0.28162745;1.928248;0.084624976;-1.3409908;2.869597;-1.7176734;-0.10993854;0.9673976;1.3841864;-0.7236427;0.43380627;-4.0866303;-1.3729525;0.38566154;2.4321537;-1.3057579;-0.5843757;-1.0121175;0.73449194;1.0429455;0.48614058;0.87745625;0.27525997;-0.4842685;-3.3544285;0.29863644;2.3163629;-1.7115448;-1.1884781;1.3643135;-1.2233108;-0.79108095;-0.75644577;0.49782088;-1.0540085;1.3626008;1.0385116;0.20737681;-2.467586;-0.93607175;0.15302534;-0.0851545;0.18955208;0.13469939;1.3826092;0.21158808;-2.5114245;0.47308564;-2.724923;-0.31459275;-0.079345584;-0.39157805;-0.22851752;0.15176071;-0.5534521;-2.5325832;-0.9791762;0.5367605;-3.3345869;-0.31162983;-0.9563038;-0.49547052;-0.109394684;-2.5729015;-0.6742205;-2.266266;0.19325176;1.9958954;-3.8614302;-3.008509;1.2607241;0.33637217;0.14947973;0.10427234;0.45118907;2.559716;0.0136540495;4.4894395;1.4224712;-1.6967195;-1.3826674;0.95634943;0.34111494;2.1771882;-0.24941736;0.17305781;0.16029124;-1.6540173;0.09155981;-0.80455095;1.1690611;-0.7590726;-0.5272942;2.038344;-0.06612411;4.4535203;-2.6758533;0.8387795;2.001251;0.45333517;1.2646649;0.26338863;1.2410592;-3.0434062;0.23502554;0.58015317;-0.18694685;-1.0163623;-0.7879518;-0.9187796;0.6068977;-1.5366259;0.62023467;1.7308367;-0.54922336;0.21593775;-0.86411726;1.5883818;-1.1484435;-0.48438302;1.2524328;-4.4843736;-1.1246252;1.0700375;0.036513027;2.2998533;-2.8133788;1.001966;2.446823;-0.25372955;-1.5162497;0.09073303;-0.0005089218;0.2566787;-0.39473918;0.8132642;-0.08243965;0.5809829;-1.9020802;-1.5838699;0.116306506;-1.3582244;-1.6462318;-1.5397679;1.2067386;0.1537065;1.0388182;1.7927507;-3.8468246;0.16522104;0.5682524;-2.6175041;-1.9327439;-0.16785817;-0.4085215;0.38882464;-1.2534481;0.61386335;0.031344093;2.7794125;2.7544208;-0.33971313;-1.552302;-1.0500513;-3.5786068;1.6785483;0.6825436;0.6604001;-0.08552889;1.390539;-1.3574047;0.3428299;2.651238;-1.4844288;0.39644182;0.16399528;-0.9879758;1.4139704;0.87977844;-0.87534124;1.8854804;-0.43319017;-0.13410786;-0.87880504;-1.3016832;-0.3856037;-0.06763445;-2.510312;-0.6477638;-0.9384348;0.6636972;-0.69575745;-0.027248949;0.47832438;0.3848406;-3.2227838;1.1394812;-0.502693;-0.055806078;1.676224;-2.4321969;-1.7085961;-1.0825671;-0.081027165;-3.9555657;-0.6538099;-0.1402738;-0.40782404;-1.9427513;1.8992809;-0.20442523;-0.05796752;-0.7824627;0.3952681;2.5964813;0.12321486;-0.051119424;0.07224845;2.4904132;0.24310136;1.5908194;-0.12607527;1.4564342;0.8904464;3.3808951;-0.79379785;-0.7987961;0.4279272;0.42944634;1.6133329;-0.118199565;1.0988846;-0.05023359;-0.13147166;-2.4751556;-2.762205;-1.2844142;0.092243776;0.24777603;-0.13818792;-1.7267779;0.23430042;0.6452769;0.27108908;0.91657794;-1.5279692;-1.1551639;0.77385;-0.90275735;0.1484389;0.44985202;1.8532209;-0.59110236;0.82884324;0.4063647;0.38877854;-0.05569757;0.88783926;-0.51125586;-2.729842;-2.6337602;0.2586262;0.8711731;-1.2481469;3.3223863;-0.9233765;-1.3681245;1.5888829;-2.493993;0.9148233;0.9169766;1.3492846;1.8655773;3.192606;1.2797139;1.1079366;4.0866523;0.9656908;0.584444;1.3051817;-1.3815893;1.2625692;1.1192675;2.1286898;3.0039363;-1.8140802;-1.6581601;2.5947504;-0.15146127;2.384141;0.4132591;-0.6952156;0.5807966;-0.32174012;-0.06851923;-0.19000089
0.83894116;-0.91377;0.6342777;0.15897562;1.1208849;0.4373259;2.2756236;2.1122894;0.2966265;0.67867404;-0.034971584;-0.40271676;1.9883136;-1.3651251;0.4878803;0.6374633;0.19559284;-0.9055599;-2.9825983;-0.5293095;1.4409145;-1.3346969;1.7209989;0.34623033;0.06925558;-1.5006582;-0.27509007;-0.48521698;0.65248924;-0.6775187;1.1929742;-1.6441913;1.1919345;1.4778353;1.0037338;1.8149573;0.4818482;1.8862468;-1.8615514;1.3621304;1.1896243;0.3725592;0.8853152;-0.28572643;-1.6508819;-0.5719055;2.1252487;1.6674297;0.6633664;3.1460922;-4.4938;1.0288466;-2.673377;-1.878429;-0.069484666;-0.72572875;1.8367798;1.8169827;0.46240675;-0.09268844;-0.07638753;-1.4829519;-0.6033987;-1.2209313;-1.988455;1.8031752;0.85607356;-0.01770303;-2.8724723;-0.7094946;-0.011287756;0.36718243;0.288177;1.2456373;0.46214685;-1.2913218;-0.51232344;0.8906387;-0.07409474;0.021064518;-1.2838632;0.23280048;-1.2982037;-3.6817796;-0.8253727;-0.7452874;2.888953;-0.90323406;1.3315779;0.6064585;-2.1093931;-2.5162334;0.8490435;1.7747376;0.12670237;3.788658;-3.07305;-2.0553155;0.6402269;-0.80207866;0.46510056;-1.0077045;-1.892186;1.5473183;0.8629701;0.47849682;3.2700918;0.07486417;-1.1190488;-1.7332996;-0.3529945;-0.79893166;2.5317984;-1.8854039;0.63191766;-0.10353968;-0.41048697;-1.0330961;-0.22658537;-1.2306279;0.98359096;-1.9728879;1.2278187;-0.81299406;-1.2411783;-0.9086639;0.07968522;-2.2018025;1.1846794;-2.5867417;-1.9327008;-0.08440098;-0.7616305;-0.17107652;-2.032386;-1.160015;1.4055378;-1.9089136;2.7208545;-0.9518464;0.108255476;0.14796405;2.304555;1.3033967;0.33223736;-0.817572;0.21853177;-0.9839029;-0.111020744;-0.81634384;0.17646974;-0.8226506;-1.2917043;-1.5989577;-1.7432566;1.7245322;-1.8344948;-1.7160989;-4.8344626;-0.7252612;0.24736097;-1.9018462;-1.3840182;-0.9941935;3.3638504;0.44443592;-1.0567687;-3.4097128;-1.0804286;-1.2391835;-1.3995428;2.2724624;-0.85647374;0.9569494;-0.8122149;0.60714585;-2.7416174;1.1124684;1.7728826;-1.4780741;-0.66517705;0.5203675;0.3649873;-2.049732;2.4015808;-1.4331421;3.1355016;2.213486;0.649551;0.60714436;-3.432406;0.68391883;1.7095956;-0.54579544;0.33943143;-0.5631067;1.5214648;0.37116644;-2.6847386;1.1967714;-2.5283337;-0.6073984;-1.8922321;-0.25834534;0.32048303;-0.4070803;-2.0488572;-1.1789204;-1.1575389;-0.895531;3.137069;0.60922873;1.8240666;1.4552755;-1.4031843;1.6341194;-2.2936914;-2.4611971;0.5433775;-0.006030197;-0.43742314;-1.5232514;0.3920813;-0.6320785;0.27732062;0.15272926;-0.9073907;-1.7420853;0.09127703;1.8733035;0.00725169;-0.038862705;-3.5367408;-0.5820786;1.2283518;0.47143012;1.2446837;-1.8837073;0.9232168;0.29953107;0.37784624;1.0396575;-1.0082822;-0.47590512;2.5418894;0.7648688;-0.95879;0.039445158;-1.1990639;-0.8056011;-5.389987;-1.2703849;0.61863106;2.0583346;-1.3494271;-1.7099221;-0.47385502;1.530241;0.16628091;1.0661014;-2.18145;0.9726764;-0.16121963;1.1583813;0.3817171;0.6645889;0.103540786;-3.5566316;-5.7218556;-0.8592348;0.7999382;1.9569458;-0.060614992;-0.36555946;-1.3585042;-1.4221551;0.38997397;2.0938706;-2.3450637;-0.20745252;-1.7802051;-0.30467084;1.3350996;-0.4325706;1.7099991;0.570455;0.3918838;-3.4923947;1.8967192;0.35907432;-0.70796615;-1.7313982;-0.08699954;1.5223281;0.5216009;1.8568474;-0.07404481;0.47901943;0.47168824;-0.2669696;1.2128878;-0.50714165;-0.47205907;-0.868451;1.6516205;0.4332055;2.0226305;0.5998491;0.31069538;-0.16319342;-1.0016704;-3.8630998;0.03108179;1.9767588;0.021480707;-2.2054331;1.7729229;-1.5168287;-2.2589715;0.6655464;1.1557363;0.11048058;-1.7524619;0.43989584;-2.067474;-3.1542447;0.9384037;-1.1912575;0.6167143;0.80277985;-1.3047918;1.6810812;0.74981046;-2.1925764;-1.7816787;0.85727066;-1.44498;0.1895334;-5.35691;1.5886142;1.0226524;1.7488037;0.0047876257;-1.1248511;-2.1454327;-0.33434314;-0.11215069;-0.83604646;-1.5511001;0.9966471;-1.4424734;-0.61078143;-0.7219917;-0.6019298;-1.2030032;1.2769552;-0.94203275;3.282017;-0.45211816;-1.1190966;-0.35490063;-2.9894955;-0.049198855;1.84487;0.828619;-4.2685328;0.1657528;-1.5766509;-0.5418752;1.3350142;-1.3324276;1.1941586;0.15188143;-1.1733948;0.9201894;-3.8824224;-0.5740853;-1.5518075;0.50116307;-0.5278946;-0.89543796;-1.237384;1.5976349;1.5602938;1.8254628;0.019426368;0.52714276;-0.24020974;-0.32519075;0.65132755;0.12751317;0.051521286;0.6977537;0.5436503;-2.2890303;-0.273545;0.74594605;0.4806639;0.6452822;0.6390883;-2.867213;-4.7254696;-0.30676892;1.9029438;1.0849859;2.0437877;-0.5148803;1.9363605;-2.4360356;0.21885903;-0.78015125;3.2642555;1.1337309;0.46987888;-1.4110494;-1.8340368;-0.24731177;-1.615776;-1.8074706;-1.3166857;0.12303806;1.3743829;0.7447332;-1.5242265;1.784596;0.77420276;-1.5971904;-0.35379213;-5.9979568;0.14585827;0.65683335;0.1969288;-1.259074;0.36985868;-0.8091467;-0.52343214;0.90104055;0.40274996;-2.4619455;1.3856478;-2.19902;0.64355576;-2.3138223;0.83538324;-0.29004902;-0.1703618;1.2175423;-0.42095324;0.49987292;1.7515393;-2.5839832;0.88844347;0.66920465;0.14626276;1.7377431;1.0006517;-1.3029025;1.4987782;-1.2228774;-0.41280118;2.8385944;1.3565053;-1.2320422;-0.73494184;1.66647;-1.7274296;-0.7930951;0.01288504;-2.9833324;0.8363186;-0.10989777;-0.8326253;1.1540598;-1.8786786;2.487302;2.3381112;0.26625973;-0.30949667;-2.1762152;0.14955032;-2.9406796;2.3672156;-0.42065483;-1.2946554;1.393327;1.2246878;-2.1967647;-1.0281113;1.5337473;0.830774;-1.0783776;-1.0608915;-1.8342077;0.14532173;-1.4440598;-0.8763307;0.27350003;0.33589458;1.7325585;-1.1739271;0.46629247;-1.3664544;0.30099913;-1.8791268;0.52445835;-0.33377486;-0.41639227;0.9378587;-4.4172926;0.2894082;-0.7781441;-0.55488324;-1.9074703;-2.7182443;1.6738197;1.4949807;0.09563352;-0.1705448;-1.0896949;0.0737551;-0.5007209;-2.05251;-1.573902;-0.12815718;2.420788;-0.3835708;0.31238624;-0.18811029;1.0323825;-0.30572537;-1.2267152;-1.0965401;1.1233084;1.1055533;2.6419077;1.2787112;0.011195513;-1.8977623;-1.9362224;-1.2319329;-4.3303256;-2.0655541;-4.7791557;-1.8767064;0.97664964;-0.7246902;-0.8131175;0.9670197;1.3279942;1.0473902;-0.39748892;1.23317;-0.106917426;-0.4164322;2.4672883;1.8923749;4.218569;-1.5505427;-2.3485973;0.99755764;0.22671837;-1.7828286;-1.6284542;-0.35946864;3.2303536;0.4819291;-2.7549503;-0.19360052;0.019151833;1.024811;2.454793;-1.5761782;-3.266352;-0.53141236;-2.3561652;-0.6340594
-2.278433;0.5821179;-0.12248754;0.90246433;0.01022081;1.1921622;0.7012767;-1.4675485;0.15225348;-0.6552859;0.97934514;-0.03430397;0.1571206;-0.69743294;0.25894707;-1.201499;-0.92186266;4.4683275;-2.1397316;-0.67599624;-1.0713911;-0.53801835;0.22358589;0.9640469;2.2121284;1.1413453;-0.26541996;0.9918509;0.82450515;-4.294535;0.18050146;0.7202161;-0.110667415;2.4764874;-1.2914151;2.6103787;0.1375995;-1.2318498;-3.1853595;0.5218151;4.636109;-0.3854538;0.7594165;0.7310405;2.5093102;-1.135777;0.34329957;0.20484513;3.693791;0.84150773;-2.814669;1.9143504;-1.2647736;-1.8582368;0.4060187;0.6139473;-0.053444184;-0.118351996;-1.3658185;1.1433213;0.14460795;0.9411766;-0.7359664;-1.5967742;-0.13905735;-1.0315133;-0.4208878;0.84694725;-2.083047;-1.652834;0.659412;-0.07773648;-1.2634684;2.4393992;1.2217461;2.3747902;-0.23262985;-0.23216434;0.68726075;-2.8042555;-2.184695;0.7976074;-0.31586164;0.58756614;-2.3333905;-0.46246713;-0.806643;0.8024216;0.7903175;-1.8458613;-1.920493;-0.36199918;0.11927456;0.19673191;-0.7646531;-2.2813163;-2.3913453;-0.121160544;-1.1203674;-3.0624912;0.7254192;0.69330704;-2.4356413;0.5041288;-0.5860308;-0.48685965;0.121523656;-1.228429;0.27148825;-1.4109135;-1.9351115;0.69770926;-2.9634361;-0.6873698;0.47665992;0.8585342;1.0970525;-1.1954376;-0.03470221;-1.0535483;-0.37983197;-0.16592516;-0.99901253;0.10668523;-2.0772543;-0.6877863;-3.7050753;-4.2623796;-0.62036747;0.6418914;-1.8508819;0.33079547;0.6394643;1.7009368;-1.2914095;-1.5165104;3.046039;0.34100083;0.09898975;-1.1545677;-1.974532;2.3173661;0.17695941;0.22498216;0.61416936;-0.8991463;-0.3825299;-0.40395063;-2.180136;0.038207244;-2.243127;-0.55086076;1.5293574;-2.44817;-1.3398167;-1.1246015;-2.3838792;2.276063;-0.7993933;0.21270299;0.06421634;2.0310237;-2.647851;0.5801688;2.1503189;-1.5534526;0.57657;-3.452419;-1.3875369;0.14190665;0.8028867;1.926527;0.3668968;1.078971;-0.5317158;0.4378816;-1.3631868;2.5464022;0.52243954;-2.738726;-3.8189015;-1.2783849;2.1895788;-2.2543309;1.4741291;-1.0283307;1.5841938;1.73118;-0.2721805;-1.6486039;4.2536597;-0.68436384;2.6479173;-0.51869124;-0.06698206;-2.597998;-1.5109427;-0.54107416;-0.3328497;1.5226746;0.1654468;-0.74550533;-0.86453336;3.6726434;0.21929695;-0.4374409;2.230266;-0.49249622;-1.3142368;-0.48594278;-1.4366934;1.0446477;-0.19921577;-1.316109;-1.426973;-2.4468455;-0.013689737;-2.8731396;1.1071206;0.12928952;3.089442;-0.49550223;-0.8610157;0.07575875;-0.11351632;1.3592414;1.0059654;0.72020054;-2.6976016;0.5023535;-0.06489087;-1.3967308;-2.2904332;-0.5777627;-0.13539824;1.6767551;1.7121006;-0.4375146;0.9184797;-0.06641842;-2.0134165;2.0457523;-2.327351;-0.2836863;0.14051008;-1.3781418;1.2400066;1.7333002;-1.9899578;1.0439748;1.8263695;0.20157318;-0.9191684;-1.3402045;-1.4125373;0.5974536;3.958661;0.941359;-1.0104384;-2.6425705;-0.29505372;2.744512;0.6697568;1.2062368;0.8818845;-1.2983965;-1.7361653;0.17019714;0.59967387;-2.9290996;1.9004108;0.08865669;2.2462747;1.4386487;-1.8142672;-0.91591686;-0.2460622;0.4219161;-0.27809674;-2.4702706;-1.0778651;1.522541;1.0944775;-2.3204186;-5.0996523;0.98894453;-1.2669497;-1.630436;-0.70290905;0.6932311;0.3206856;3.3154855;-0.13457684;3.286328;-1.0196346;-4.5749283;-1.3757347;2.0109103;0.54544485;1.0168372;1.3943454;0.1447775;-0.64616746;0.26658177;2.1936667;1.4976116;1.2488264;-0.8535319;1.3924248;-3.867422;0.14935622;-1.3716654;-1.0371819;-1.0200859;0.3809296;0.004138382;-0.294383;0.23326592;-2.1204414;1.603735;2.8061144;0.4795651;0.496481;1.2481956;0.2190093;0.9989285;0.023698578;-3.6404939;0.8657362;0.6478814;-2.9321523;-0.7137907;0.6098425;-1.9247776;1.5161259;0.14183617;-0.10399879;-0.08650685;-0.6220338;0.35017198;0.54470503;-0.093689255;1.340839;-0.59337574;1.1229424;0.40693647;0.43230742;-0.32202545;-3.4323287;0.27328283;2.0755267;1.3103331;2.6506717;-2.3438792;1.7461808;1.6127251;-1.6921023;0.95704865;-0.44388008;-0.83690894;-0.05687595;-1.3234731;0.37602732;2.7810678;-0.35006917;-0.33907717;0.7542115;0.6128738;1.5968184;-1.671188;-1.2977728;-0.30360907;-1.1208372;-0.59598356;-0.20754637;-0.4428347;-1.9807197;-1.5893123;0.41042358;-0.88986236;-1.6100916;0.70150614;0.42393863;-1.5907769;-0.004519766;0.9441722;-2.7138262;0.2445702;0.5241537;0.032437403;-1.4029863;-0.79502195;1.338014;0.6405382;-1.0505962;0.4968011;-0.400657;-0.34417146;0.40659836;0.21446435;-2.4858117;-1.3237655;-0.3385886;1.4396554;-3.9809566;-0.25964877;1.2342052;-0.36744365;-0.6494622;-0.27229112;-1.2036111;-0.00691625;-2.2405279;-3.366615;0.911663;-0.79855776;1.1044599;-0.9361545;-0.17739415;0.8866932;-0.07736256;-0.7112619;-2.6131308;4.970704;1.2456119;-0.7536711;0.9575019;-1.7041109;-1.9493537;1.5277044;-1.4061157;-0.06918995;2.5864053;-0.20549713;0.6290741;-0.59293115;0.37207308;-1.521341;1.7239765;0.948699;-3.4184382;1.278839;1.06835;-1.358105;0.203806;1.6203349;1.2172474;1.7717184;-0.38423526;-2.6701887;-0.40499654;-0.48593158;1.9082322;2.6125724;-0.07637945;1.824309;-1.8627586;-1.3112215;-0.58921415;-1.5131295;0.4880102;0.53337;0.2986379;-1.8867173;-0.98829895;-0.14213187;-1.0370429;-0.27898777;-0.59926385;1.531969;2.1402128;-0.8416496;1.7125585;1.0798063;-0.15700929;-0.21422164;-0.6109207;-1.0266372;-3.452265;1.2687497;1.5785686;0.6126583;-1.3372036;-0.44328007;-0.26650816;0.7253324;3.3151772;-1.9216213;-0.23579048;-0.47182894;-0.7703899;-1.5246022;0.29378262;1.991535;1.3828273;-0.028216116;-0.03936074;5.426423;0.36166772;1.1487081;-1.2566875;-0.0490821;0.8807835;-0.89789915;0.045630425;0.6707393;-2.4265947;2.239864;-0.34104106;0.17947009;-0.7918042;-1.5496945;0.43643555;-3.2863889;4.7511444;-0.38085142;2.5259728;4.2745614;-2.0297444;-2.1078928;-0.71132743;-1.6507921;-2.3456464;0.4433134;2.59009;0.16131693;0.91198313;1.2883451;-0.5936761;1.1293123;0.46447363;-0.7078478;2.6390834;1.3492118;-2.2222962;1.3424375;-0.43223837;-0.62820643;0.7935836;-1.3520309;-1.8767574;0.87092257;-2.628391;-0.5049129;3.9316206;0.66756;-2.788602;1.930609;0.30894122;2.4456506;-2.4673889;1.1492895;-1.1752276;4.758592;1.5412159;-1.2474939;0.36182514;-0.3910721;1.9827983;-1.1897215;0.35314304;-1.0241942;-1.5721235;-3.3766406;2.0119581;-0.7371543;0.97678125;-1.683062;-1.6416717;2.0529966;-2.249986;0.42784542;-2.0401192;0.7310379;-0.12253068;0.125988
-0.04865867;-5.5391583;1.0389676;0.2134325;-0.07950588;1.9382414;0.28660014;0.9797236;0.54432935;3.093287;3.4897375;-0.79566747;3.8086371;0.7089203;-0.86843467;1.8623058;-0.49504337;2.6225712;0.7695825;-0.7635291;1.8659251;-1.8727491;2.8999903;-0.383395;2.8546448;-1.2520797;0.9553016;-2.0311165;0.53574216;-4.1188173;-0.95332545;-0.38075313;-1.5554113;0.05326117;1.8711219;3.3232558;0.35949543;-0.20320575;-3.035749;0.8763205;1.144387;0.5081139;-1.1791838;-1.5890032;-0.0051690675;-0.2963487;0.2041607;0.553231;-1.2452569;2.7892053;1.1415862;2.3301377;-3.3116968;-2.5559833;0.4867024;-0.9217217;0.6148866;-1.9165554;-1.6275387;-3.1588972;-0.22655441;1.3294992;-0.3120042;-1.3880122;-1.9306501;0.37215653;1.2426013;1.5927109;1.7045225;0.757196;0.24462868;-0.6023831;-0.5782044;1.6276954;1.4308988;1.1216882;-1.3423716;0.014219993;-0.27277616;2.63632;-0.25583914;1.736002;2.8002977;0.21172762;-1.352801;-1.3209164;-0.7124736;-3.011723;-0.52578294;0.7854445;-0.7429918;2.099326;2.3950293;-0.9574622;-0.44283384;0.17670779;-1.4595461;-1.983808;-1.3513044;0.2957724;0.42178792;-1.7293464;0.021407569;-6.345478;0.3747969;-1.1203922;2.5748355;-1.64424;-0.45931956;-0.12974593;0.75623447;-1.589468;1.0176281;0.08966317;0.5954604;1.4297736;-1.8987598;0.43947175;-0.41300154;0.9400803;0.5036164;-2.2697682;-0.43838054;-0.40583602;-0.504056;-3.245714;-4.0262914;2.6755893;0.4293346;-1.9225178;0.20753744;0.709108;0.6493636;2.3531263;-0.6827424;-3.7908003;1.2219762;0.5849006;-0.93293625;-0.41698807;3.6479497;1.397845;-0.18774344;1.3455304;-3.3462787;-0.46441746;-0.23733115;-4.3508005;-2.1230717;1.236336;1.3716981;1.7419306;0.34948325;-0.95401704;-0.8400824;0.5150137;0.60639685;2.5029082;-0.93400896;3.2712588;1.8489343;-0.6722489;-1.8812743;-0.485992;4.5600295;0.05220515;-0.31027174;-3.6068277;-1.0572208;-0.010243199;-3.0440996;2.1685157;0.62293655;1.5382273;-1.4261469;0.18099612;-0.9358531;1.5191691;-0.5208869;1.868677;-1.5383825;-1.6738693;-0.063230895;1.6099086;-1.1396565;-2.2378604;2.3578298;2.1962366;-1.8045166;-1.1260962;-1.1091716;0.15118764;0.5290629;0.13752191;1.3773265;-1.1004976;-2.381164;-0.36140856;-1.5367703;2.508234;-1.7068752;-1.2678671;-2.0227852;2.1175272;-3.3283944;-1.7135011;-5.486732;-0.3896762;-4.180362;-0.9191708;-1.2246764;0.5061866;0.1720168;-0.61380035;-0.73641545;0.43476206;2.509551;-3.2427487;0.7744911;0.96915483;0.17713699;1.3663974;0.94946176;-0.06947209;0.98588586;1.4880899;-2.959672;1.3643373;0.05794432;1.4676391;0.19197056;-0.88889056;-3.0888643;-0.28989437;1.8625145;-0.19514184;-1.6041094;-4.9259057;-0.696731;0.99793535;2.3867476;0.5083479;-2.400082;-0.5265968;-0.44242027;-0.943605;0.6520191;3.3732808;-3.5172207;2.0197957;-0.6592838;-3.4008007;1.0469974;-2.8098357;-1.9636258;-2.983889;2.984441;4.583621;-1.0903407;0.43150258;0.7551591;1.9914477;2.3026083;-0.41307276;-0.23580293;0.19375457;1.0028367;-0.2718021;-2.1275198;-0.8209751;-0.77613944;-0.82242054;2.5519867;0.107972436;1.575652;-1.9283395;-3.3196795;-0.6981203;2.0610836;0.80116796;-0.46770063;-0.40500998;0.6723666;-2.0412455;0.7794592;0.92429775;0.80033416;2.5011716;-1.5656905;-1.0539334;1.5799329;0.32026124;-1.5852695;2.5591102;-0.21291049;-0.41605824;-0.7634646;2.500293;0.2133767;1.933817;0.34043705;-0.5168032;0.4535161;-1.5133557;0.985709;-2.2726355;2.595246;-0.9196088;0.61307454;1.9664013;-1.0320249;1.2899714;0.66003954;0.8299926;1.6251405;1.764385;4.0414205;1.4633693;0.1622553;0.21692523;2.1037838;-4.109768;0.052225668;1.0104282;-4.1137543;1.758213;1.7353393;-0.64585304;-0.8951029;-2.2401855;-1.7290034;-2.5137348;0.30995455;0.91581815;-1.8086255;1.3715848;-0.46600237;-5.75912;0.34674293;0.025376607;1.0759788;2.729494;-2.6457388;-2.1138024;-0.23260997;1.2725616;1.5706803;-2.0737553;2.3732164;-0.57623345;1.5040182;1.4229404;2.4076645;-1.1417385;4.462004;-1.1220925;-1.6344979;-0.013499368;0.084668666;-0.29816258;1.3526877;-0.48744243;-1.3145901;1.2514294;-1.9010998;-0.06719034;0.25782028;0.17411263;0.088932015;2.1552455;-0.38976514;-1.9766957;-1.6187689;0.6742948;0.04861702;-1.0200458;3.1433282;1.0130069;-0.11091382;3.1527123;-4.909106;-0.17071706;0.86445147;-3.082838;-1.7230822;0.67454046;0.8040796;0.939139;0.46683234;0.7852926;-0.18759315;-0.7911371;-0.87923276;0.9288345;1.9981942;-0.014887957;0.37282115;0.24026544;1.4509364;2.264156;-0.575267;-8.569935;-1.3594061;0.6404632;-1.1537498;-0.74890685;-2.131908;0.24946067;0.3538137;0.5888552;-0.37032968;-0.24496524;-0.30578473;-4.21387;-0.3865816;0.19231477;0.055672437;-2.1824777;-0.83813494;-0.3741776;-0.94065565;-1.358485;-3.1301446;3.0158064;0.2390608;0.5145488;1.0529039;-0.44724432;-3.3212285;0.47772336;-1.7063259;0.17691909;1.0733725;0.38506418;1.5428475;3.2574031;0.4320113;-1.0420583;1.7865006;-0.9884683;-2.433749;-0.66643757;0.2760365;-1.8183657;1.9819369;0.5981715;1.1785692;1.701906;1.4078065;3.7981572;-3.6056075;-2.438291;1.0000181;0.6467593;-4.5661755;0.910783;-0.48727912;-1.4305818;1.5756236;-0.021650806;1.1442424;2.4682915;1.36113;-3.1561944;0.55586946;1.677102;1.2774615;-0.6881197;0.3149975;0.6238047;0.9516547;0.8785496;-0.109681636;2.1810048;1.2762765;0.82347983;0.33526045;0.8677369;-2.0455165;-0.20294029;2.4650037;0.57450396;-1.171662;-0.8838754;0.39021188;0.5553871;2.4152875;-1.5588263;1.3406482;-0.5338552;0.44188917;-0.7708351;1.8730874;0.73223567;2.1638145;0.75525963;0.8460608;0.7470336;-0.15397215;-1.1480067;-1.364937;2.1635528;1.85418;1.6248592;0.18662764;0.9696648;-2.1222367;0.9790526;-0.48335588;0.6655172;-0.956462;-3.196045;-0.67971;0.008165831;0.34569696;4.8232236;1.633726;3.6698134;-2.028773;0.02277361;-1.9743106;0.5458052;-2.338504;-1.1054761;1.8205054;1.043074;0.04641221;0.66652346;1.9805706;1.9781804;-0.79348755;0.052151218;1.6030518;1.1699077;1.9848164;0.26888716;-1.35515;-0.16639212;-0.784348;-1.8184143;1.0971366;-2.3967755;2.0878835;-0.5739066;1.1414367;0.117406495;0.7524013;0.73018867;1.4058487;3.9646373;0.30826315;1.0714839;3.143458;3.1424334;0.23635347;1.0724534;0.6642998;0.9398488;0.94328475;0.11057235;0.26701128;-1.6340233;-0.33225313;-0.93319947;2.3580205;-1.7774757;-0.96294624;-1.1153384;-1.6928093;1.6211123;0.23620033;1.6850927;0.45210767;-0.8814741;-5.088567;-0.84701616
2.0863433;-5.3564835;-1.5559772;-2.8817298;-0.89646876;0.22826822;0.5114959;-0.28835693;1.4372764;1.0963302;-1.4051001;-1.7289634;-0.93137914;-0.6075027;-0.51530707;-0.075637154;0.2859511;1.4921628;-0.3073956;-1.0959892;-1.7137374;0.41813058;1.9479177;0.03463912;-0.9420076;0.5740992;-1.4328469;-0.23949863;2.2495117;-1.6443341;0.500604;-2.2354693;1.7247329;0.4104639;1.2450377;0.37511754;1.3294281;-1.7692598;-0.51365525;-0.7164624;-0.31510252;-1.5869865;0.7379612;-1.5860887;1.0985008;0.856708;0.56190634;-0.86341536;-0.7602234;0.4991901;2.2439156;-0.24655768;0.65159166;-4.0725293;0.7483103;-0.90134645;-0.51394415;1.1206145;0.78895426;-0.90153664;-0.21331777;-0.25753447;-0.2312963;-1.562892;-0.8241277;0.3865608;0.09296199;0.26291323;1.0657402;0.30211306;-1.1308784;-0.6505796;-0.2974145;-1.6923745;-2.0242333;1.1787827;-1.5736212;-0.91599864;0.15607263;-1.3702207;-0.06310377;-0.8927441;2.3598368;0.8757741;1.365012;-0.62275815;-1.3176508;-0.24534717;-1.4428663;0.80988127;-0.5601449;0.31849915;1.2911687;2.2157242;0.30421546;0.94438946;0.6630836;-1.7789037;1.1632237;-0.55181545;0.45646408;2.814404;1.1644993;-3.3021536;-0.5747989;-2.605865;2.497061;0.9612069;-0.6712652;-0.17539656;0.84250975;2.012095;-0.8576884;-1.3684125;1.6369381;0.6101515;0.36455798;-2.3685665;-0.54450214;0.52969646;2.455707;1.4799262;2.0767004;1.7043642;-0.02457251;-0.5206531;-0.07650553;2.276263;0.50186116;-1.0859543;-0.78424186;0.798082;-1.6656257;0.55268735;0.122467004;-0.79931605;0.097906396;0.52298784;1.3650227;-1.4281156;6.130845;1.2226585;-0.017538704;1.1098716;-1.2783093;-1.8789438;-3.6065364;-2.1967692;-0.100745715;-0.562447;1.0207511;1.4529986;-1.354458;-0.31937373;1.3635547;3.433163;0.70798916;-4.2239647;-0.9282913;0.6748789;2.2102818;1.127921;-2.7971556;-2.5056489;-1.2412897;1.3470447;-2.2153568;-5.666212;-1.1297501;0.7789948;-3.6253324;0.51913196;1.3328174;0.8108105;-1.1067611;-1.9727955;0.028379641;3.4648674;0.9826504;1.1377434;-1.0668017;-0.20510226;0.15046361;-1.2528943;2.58135;2.0960326;-1.1897053;2.4677384;1.5396008;1.006034;-0.80587655;0.7374545;1.0736955;-0.44452786;2.8348565;-0.5189877;1.6958355;-2.1457431;-0.6966563;3.56111;-0.6677663;-1.822901;-5.115984;0.296051;-0.5574935;0.66727597;-0.61694807;0.1667533;4.368346;-0.79334974;0.029482268;2.1195517;1.4912013;0.15630792;-0.7462738;-2.5057096;-0.84370184;0.08066214;1.2739973;-0.52521706;0.8868695;0.60362834;2.762243;0.4126702;-1.0028298;0.47367007;2.4022794;-1.5165278;-0.13360122;-0.5196047;-0.29079401;-2.2226999;-0.7888451;0.95448166;2.045906;0.6396331;-1.4984661;0.9736968;1.1649677;-0.96772355;3.0267231;0.8520786;-0.9951521;0.018139798;-0.32815477;-0.48607245;0.1396487;3.5830832;-0.8146965;-0.33376703;0.8421498;-1.6924573;0.15940972;-1.3771808;-1.3224946;-1.4834234;1.6260457;2.2088902;-1.5093713;0.61305845;1.9469312;-0.38092053;-0.31656647;0.06283983;-1.8259523;0.46118096;0.7814769;-1.3400652;2.2332976;0.40759465;0.6764772;0.5441587;6.382441;-0.5082525;2.440458;-0.1610495;1.0805591;-0.55899704;0.9238139;-3.747945;-0.54062015;-1.7114433;0.14111026;1.8148313;0.11507871;2.938392;-2.169056;-1.1034008;-0.43412265;-0.5817872;-4.171601;-0.039900552;0.21407053;2.3384504;2.7863548;-0.020698883;-0.49662045;1.2154895;-0.6433433;0.26676252;1.0147206;-0.085899465;0.28690577;1.6455064;1.4405751;-1.9417503;0.7076968;-0.5881743;-0.534927;1.4210365;0.3600276;1.3646382;-0.5234808;-0.20636126;2.430944;-1.4821239;1.4733897;0.7567391;-0.07737769;0.14013237;1.7550248;-2.6740375;1.3059286;-1.1176591;-2.166179;2.048646;2.675941;-1.4199197;-1.0372413;-0.5021333;-1.4713018;-1.8478647;-1.7891521;-0.23382;-1.0597748;0.078060046;-0.38048676;-6.691322;-1.9159242;1.4104158;-0.7775861;-0.9236928;-0.35613644;-2.3919938;-1.1920304;1.2372363;1.2961174;-0.19651566;0.5237985;-1.6546392;-2.049575;2.0897079;-0.5413657;2.6446366;0.17802708;-1.1427794;-1.0888971;0.6443311;2.535796;1.1336123;-2.928053;-0.91223395;-0.14756119;-1.0239407;-3.0318086;-1.4860431;1.3873243;-0.7862344;0.06666078;0.8884811;-1.4148101;-0.7202927;-2.0322099;0.43091318;-0.9217684;-0.8901969;5.9146004;-2.3435776;1.0508393;-0.12425445;0.2912188;0.62433195;2.0590708;-0.7641071;-0.9335845;-1.2537465;1.7767949;-0.746436;0.3797109;-0.43541446;-1.0270734;0.70372754;0.7999741;-0.95598304;-2.6803124;0.8080551;-1.089428;0.94007826;0.3619829;-0.1785617;-2.2354562;-6.273839;-0.919576;0.8096094;0.7528873;1.0674171;-0.6545226;-1.1429408;0.5406652;0.48868597;1.0384928;0.75589895;-0.40070903;-2.5968568;0.74795794;-3.2612777;-0.80151427;-3.4036884;-1.1417766;3.066103;3.2860053;1.1062591;-0.60336107;-0.025999108;0.11388469;-1.2735081;-3.897864;0.9804842;-3.9203851;2.6168783;0.91770893;-0.9999141;2.3742857;0.55962276;-0.7740563;2.6316702;0.1736674;-0.98057854;-1.7188047;-1.1644949;-0.32995918;-0.664575;0.33654824;-2.2658293;-1.3928682;1.5108488;1.4360797;-1.6313417;1.3674664;1.8731899;-1.1452867;-0.22569549;-1.2417246;-1.5715125;-3.0467868;0.9129408;2.3906226;-1.3948103;1.2032934;-0.19968945;-2.2943923;0.24657045;-4.2059946;-3.2676094;-0.2463419;2.446049;0.3501065;1.2388434;-4.4684663;0.7011338;-0.8574972;1.1977866;-1.9836615;1.4538361;-1.0312915;-0.56928533;-0.7823496;0.3775376;0.45457497;1.6840913;0.3822059;0.22673266;-0.13726588;-0.565253;1.3774469;0.8595469;-0.5649456;-3.149794;1.1274868;-0.7504865;0.95951784;-1.6872947;-4.4070063;0.32149404;0.18637803;-0.50082123;0.85943675;-1.0489643;0.55127054;0.4159853;0.53474164;-0.41044956;0.26292956;1.4646919;0.13858975;0.9216319;-0.8726869;-0.15710652;-3.1415567;0.8475811;3.1258287;-2.1084013;-0.5883732;-0.18666981;-2.1117907;3.0430124;-1.8371947;2.893437;-1.746939;-2.5192566;-2.221742;-0.24099176;-1.544815;1.8167381;1.3576194;0.22825918;0.08002825;-1.8115981;1.817257;0.34486532;0.22550987;1.1475701;1.6540519;3.497483;1.635485;1.6553391;-0.17421488;-7.0652595;0.70490646;-0.97339785;3.1672006;-1.4577942;-2.9725082;-0.41631237;1.4968778;3.3720832;2.0741503;-0.99948144;0.5076589;1.973811;0.4238717;0.18242164;1.4129976;0.6556048;1.0324117;2.382095;2.0940235;-0.78262204;-1.6830969;-0.43929935;-0.49042663;-0.7632424;-2.5640984;-1.6308316;1.5275915;-1.5905503;-1.4486885;-2.6543899;-2.3747017;2.1456163;1.0669719;2.448339;-4.0643787;-1.9716245;-3.596706;1.9388461
-1.6663066;-2.1986945;-2.1285758;-2.1255367;-0.9226865;0.75597984;0.20560971;0.6028983;-0.8070623;0.580641;1.6792762;1.233781;0.79238033;-0.71376055;0.66262954;-1.0074384;0.63288754;1.9737313;-0.79583806;-0.37228924;-1.2442312;1.2128727;-1.7371678;0.88053;-1.4643741;1.3711704;0.22620645;0.44767398;2.3588428;0.7779566;4.8825517;-0.097715996;1.1841277;-1.6199875;-1.1669614;0.45300204;-1.070831;-2.244168;1.0009729;-0.3911789;-0.21023777;-0.6716221;-1.2313308;0.59950423;-2.2786036;-0.37783474;-3.8432283;-0.8744462;-0.17432523;-1.7108538;-1.1258148;1.7152689;1.211631;-0.67702526;0.29782486;-5.339292;0.3794598;1.0001134;2.319328;1.4439541;0.4055351;-0.34547022;-1.048476;0.09618099;0.4390707;-0.24902163;-0.75783443;1.9973456;2.2465708;-0.5931625;1.1457707;-1.1367167;1.0262023;-0.18621987;-1.4898223;0.5636942;-3.791514;0.0865241;-0.5418838;0.2686178;-1.576455;-0.77486116;3.2476883;4.628192;-1.0900055;-1.1364717;0.896219;0.58728266;-0.8419992;0.7240768;-0.75776863;-3.1999936;1.1543304;1.491099;0.00022787381;3.434014;0.6245135;-0.21631046;-0.13992831;-6.39133;0.31249884;0.7950572;-5.0002775;0.7382014;-2.4015508;0.47792512;1.365415;-3.658401;0.029657582;-0.5813296;0.321305;-0.45677444;-2.105035;0.17587675;0.6450652;0.6551396;0.28042832;-3.5217457;0.22481856;2.1016746;0.351442;-0.7321295;0.5901906;2.8407576;-0.8412068;-2.0363934;-0.4008656;4.7406635;1.7991866;1.1791253;-0.3280453;1.7889311;-2.4546826;2.583111;-0.040404163;0.43227887;2.0017025;-0.52819496;0.76193625;-0.596216;0.6534172;-2.8755534;0.8903196;-1.1581445;1.4988061;-1.4687686;-6.6733603;-0.20453052;1.1743225;-0.94217974;-0.54152274;-1.1652749;-3.5081177;-1.1445427;-0.28440017;0.48602727;-3.3983483;0.82510793;-4.0452223;-1.0977957;0.52662516;0.08291222;-4.3420167;1.3255157;1.299706;1.409309;-0.641924;1.017488;-0.7529829;0.914998;-0.24202724;1.3027364;-1.4098221;2.3047192;0.4654762;-0.93905497;-0.5036918;0.09469906;-0.5187238;0.7178623;-3.3773115;1.6587839;1.2473376;-0.19947328;-0.35424986;1.7679846;0.5435773;0.39172626;-0.09507723;0.89383113;1.3377935;-0.46815047;1.4891888;0.6675242;0.9547069;0.009282391;1.4751517;-0.54933816;-0.02492678;-0.5428174;-0.5673837;3.002616;0.512183;-0.45632696;-3.6897438;1.2120638;-0.8508074;-0.4899974;0.90496194;-1.1350251;0.3813819;0.39730775;0.052179165;-1.7692868;-0.28894356;1.0440661;-0.046605643;2.6261191;1.8267671;3.3149107;-0.24194933;-1.1270539;-3.6178148;0.04475087;-1.0653871;-1.0942012;0.38947755;-3.0632975;0.38285884;0.86195886;-0.053228326;-2.1211221;1.8742752;1.4391636;-0.0039299875;1.1535612;-3.0219724;-2.506687;-0.27003992;-1.0462536;-2.9013345;-0.13864432;-0.3011231;0.52877367;0.13879943;-3.665756;2.213077;-0.18479359;-0.013373138;-0.48632464;1.1007929;0.6021589;-0.6002393;-0.008211083;-1.1745524;-0.2492456;-0.8551521;0.7144794;-1.1933802;-2.6017501;1.2517263;0.997829;-0.7806516;0.45208058;0.29040715;-3.490834;-1.4810163;-1.6622623;3.7318294;-2.006669;-0.83201855;0.7602856;0.6955024;-1.048218;0.5419244;0.87212735;2.2491457;1.3074776;2.6499593;-2.3698134;-0.5941264;-0.73222667;0.7760289;-0.058020197;-3.7690375;0.9631558;-1.1016523;0.7245388;0.7914879;-0.89735675;-0.6115765;-1.0077327;-1.151108;-0.4213572;1.6718736;2.5871685;-1.2480478;-4.082543;-0.4446555;1.9838414;2.6063733;0.80549437;0.084677435;1.3667797;2.79856;-0.08050031;-0.5608361;-3.2407117;0.05977735;-0.23870447;-0.051414132;-2.474028;-1.2707565;-0.1405203;0.19187486;-0.021471288;0.96604484;-0.18563809;-0.03034749;2.2936566;1.4055008;0.017653475;0.63918257;-1.5930159;-0.36886364;3.198376;-0.39058012;-0.5615746;-0.9566315;0.83431506;1.9866724;-1.3251436;1.4837916;1.9370537;-0.5722606;2.7766845;1.7359991;-2.5218165;0.071465194;1.6941586;-3.8019042;-0.5315277;-2.4687276;-1.9845802;0.63912445;4.0349336;3.131719;2.5646582;-0.51581;-0.5309653;1.1196729;0.7543485;-1.8686374;-0.46743202;1.978408;-2.313259;0.016976325;0.9916087;0.896646;-0.85809666;-2.1004727;1.4345005;0.84557396;2.734263;0.49286103;2.11082;3.9167523;1.2579665;0.17242;-0.03139605;-1.9136618;-0.8440194;-1.0330733;2.8155868;1.8655528;1.7216183;0.7080898;-2.4976137;1.178674;0.048547372;-3.2429245;0.70323354;0.045718346;-1.1378647;-0.19115467;-2.3200214;-0.11828243;-0.60226446;3.278244;-1.8193485;-1.0143548;1.3004206;2.2283666;0.29254717;-0.8299959;1.1499048;-0.8222753;1.2122153;-1.0878978;-0.5570229;0.7938042;-2.4332252;-0.2607164;-0.32626593;0.48058927;-1.5774621;1.4490805;1.4465952;1.0539764;-0.93242264;0.94687885;-2.0857847;-1.6892292;0.8732705;2.0204897;-0.3200585;0.2882213;0.7078644;-1.9867809;-2.0505583;4.0963993;-1.1132214;3.5535576;-1.2718638;-0.32028747;1.4373614;-0.23757428;-0.9965209;0.59517753;1.7803102;-1.6838635;-2.0430608;0.6897868;-0.3923119;-2.0291476;1.1072829;-0.93893194;-1.7378591;-0.6493889;-2.076013;2.4395065;-0.054840866;0.98124355;-2.929318;2.6750374;-1.1433663;1.7153174;-1.2628039;-0.55063903;-0.55521536;0.8875289;-1.2715135;-1.3844733;-2.2651584;-2.1896875;-0.43938804;1.5895387;-2.050225;0.7318064;1.5773995;-1.121781;0.31307256;-0.091680996;2.3447378;-0.6370059;0.7038354;-1.0472064;-0.9234252;-3.4157012;2.467535;-1.9860057;-1.8324356;0.44510084;0.9821618;1.6699007;-0.105601005;-3.7752059;0.41636118;-2.020627;-0.56763947;-2.5983357;-1.8324952;-0.36993077;1.6787575;-5.4944463;1.7374674;-3.276382;-2.9972057;0.67357826;-1.8249133;1.934881;-1.792924;-0.2342934;1.854278;0.84644735;0.18073912;-1.4825453;-0.19833262;-4.8240795;-0.9258551;-1.4808954;-1.1530933;-2.5570242;-4.223505;-4.099167;-0.25725654;-1.1816483;0.81234187;-1.7279066;-1.1801065;0.9093242;0.16625904;0.37931868;1.5110452;-0.017509151;-1.7420967;1.9584311;-3.7916582;-0.49068502;0.76114804;-0.22391605;-0.30467;-0.56106836;2.5074797;0.87677366;0.8870691;-0.41241843;0.3461279;-0.5217535;0.34405378;-0.7860483;0.10014566;-3.2986147;5.1344504;-1.4192089;1.0207231;-0.24740565;-6.9509044;0.33852324;-1.2355851;-0.060567636;0.54122764;-2.7786796;-3.678812;-2.2725806;1.5954331;0.13504;-1.1269926;-0.4415044;1.0608563;0.07999126;-0.41333038;1.9956079;1.3876306;0.6714597;-0.36951408;0.29605466;-2.2095966;-0.2009455;-0.8493835;0.4986789;-1.4012277;1.445458;0.8029687;0.89818376;-2.2019992;-0.55875456;-1.6208607;-0.92955303;1.8384837;-0.62059754;1.3125609;-2.7757528;1.9321883;-0.72609115;3.411319
1.6517334;-1.8271918;-2.4838097;-0.112944715;-3.2178373;0.5067551;2.8210323;0.61553085;0.6812721;2.6215413;2.265115;0.43583733;4.124682;-0.90233606;1.0565466;-1.1958383;1.1588258;1.2972198;0.3819745;1.3092537;0.30144078;0.22896594;-3.388023;0.29147446;0.8432471;0.17096084;-0.31277427;-0.004025833;0.528198;-1.3837216;0.06719397;0.029688045;-2.689166;-2.8025644;-2.9355137;0.40093124;-1.1880599;-2.0438564;-1.0802778;1.3783228;0.5637863;-4.431603;-0.34155822;-0.46312672;-4.275674;-2.0462441;-5.0593367;-3.7164173;0.33964604;2.540287;0.95174325;3.1900973;2.1003535;0.12737322;0.18867624;-1.6576848;-0.38264665;1.7668712;1.4899734;-0.13545857;0.3514523;-0.7930072;-0.9211102;-0.6101447;-0.4852996;0.8384412;-1.5502317;-0.7970211;1.3410547;-1.4958986;0.4222613;-0.023445643;-0.05565058;-0.43646377;-1.9350296;0.63386625;1.5987322;0.88012475;-1.1422968;0.011528091;-0.98097575;-0.95408237;3.915106;1.7802339;-0.542675;-0.49310037;1.4948014;1.2083758;1.0701739;-0.24609895;-1.3352475;-5.3493896;-0.13497913;0.36694586;-2.1961045;3.817242;-0.15049376;-1.335788;-0.3107226;-3.9882097;0.25123233;3.027266;-5.8478966;0.34315786;-0.7667765;-0.49439;2.0443761;-1.1837783;-0.9379908;0.39556456;-1.7347509;2.3844728;1.1482711;0.75070304;-1.3464543;-2.5298202;1.6246827;-0.86847496;-3.1797996;-1.0000535;-2.764154;0.06305779;-0.43369374;0.29321486;-0.9955862;0.2134242;1.886228;2.486762;1.9365611;3.9427717;-0.102612026;-0.280566;-2.048095;0.30663735;-2.7287378;0.103890225;-3.6263843;0.3558869;-0.096368;-2.3976424;-1.4490268;0.19380707;-2.9926462;0.32251775;-0.75370824;-0.89313734;-0.9857154;0.09103155;0.190551;-1.1574625;-0.4848661;-2.4062352;-3.521449;-1.5786686;1.4835044;-1.0440235;-1.9831007;0.78771806;-4.885468;-3.1648757;1.5339738;-0.9781497;-4.2867804;0.19275732;1.8638628;-0.7949688;1.134778;-1.9457527;-0.7028278;2.4643676;1.2073398;-3.051644;-5.478906;-0.19832803;1.3325483;0.08303571;-3.2051928;-2.5850613;-1.3305893;3.319951;-1.3356452;-1.5047688;-3.106731;1.4176068;0.72035116;-1.932293;0.4239686;-1.0138125;0.7438228;2.3313074;-0.26823848;-0.6215705;1.7426016;1.4036783;0.34053028;0.72679245;0.33879736;-0.4671974;0.5260979;-0.8304374;-3.146712;-0.24172479;1.2607914;0.21996702;0.43363455;-1.4173614;-3.5082543;-0.9979287;-0.7009921;-1.1580619;-0.9828519;2.1032827;-2.8237686;-1.3113674;1.3019474;-0.20337199;-1.2595309;0.620616;3.834493;2.0843937;-0.48007086;2.4006555;-4.8830166;1.3034848;-0.33201134;-1.565019;-1.2987138;-1.8093435;-1.5310789;2.4458227;-0.19019976;-2.5463705;0.105794676;1.373045;-1.7351724;1.0091194;2.5889974;-0.41182247;-0.41818708;-3.3470843;-1.1518608;0.6880197;-2.292027;-2.6733978;0.94736373;-3.8542912;0.5428791;-0.29184383;-0.14238296;-0.60377586;-0.46665412;1.4384283;-0.36376622;-1.3588042;0.16446362;-2.2888737;2.3174212;5.332771;-0.80903745;-1.9589792;0.15622368;2.6614811;-1.0134308;0.5485979;0.40530834;-2.6587284;-1.4721457;1.8204129;3.7018576;-0.6300708;0.59583265;0.68293935;-1.8167851;1.0735563;0.12304835;-0.22302242;1.2348593;1.8809872;0.52117926;0.43595287;-0.8715571;0.30531275;0.9891558;-0.95808434;2.0422854;-1.3916391;1.0002327;-0.046402905;-0.07348219;-1.6705592;-0.68134487;-1.4046335;-2.3916137;3.0746439;4.125834;-1.542691;0.12766987;-4.1541176;-1.189807;0.74556285;2.0716908;0.0645807;-1.235998;3.2223694;1.0820524;-0.64588064;-0.7740048;0.8797679;-0.2820232;2.442419;-0.25906128;0.03781533;-0.09156649;0.907075;0.43447098;1.1587901;0.7716986;-0.27635804;1.3137217;0.7247058;0.030768316;2.471356;0.58901566;-0.45861393;0.71062356;-1.4709972;-1.9415334;-1.4288186;-0.98988485;1.5729071;-0.63860947;2.594734;2.2418048;2.5011847;2.3323946;1.8638982;2.0417817;1.2005461;-1.4278613;-2.7190793;1.3170941;-2.083937;-1.3528143;-2.7554376;-1.6210889;1.2482507;-0.83971876;-1.6812756;0.306946;-1.5134962;-3.9552248;1.985722;-1.3274723;3.4448922;-2.8209157;-2.057914;-1.4551734;2.2353542;-1.4089503;1.7755216;-0.08943532;-0.3981215;-1.956787;1.5904799;1.7684951;3.8549824;2.5274403;3.108545;1.1415566;1.9428618;-1.4049925;1.8243891;1.4039661;4.225149;0.48167175;0.21975651;1.2993704;1.4866039;0.22292444;-0.16494587;-1.2256827;-0.43662965;2.29084;-0.45151228;1.8167542;-0.21307082;-2.9710574;1.6361916;0.31921825;-1.8664548;-1.3225594;2.4073453;-1.5975684;1.0949031;-2.174353;-4.905694;2.7107046;-1.0955316;0.5461239;-1.4990059;2.3672092;1.7336609;-0.7576543;0.6080351;0.06834806;-0.6536941;2.8051984;-0.6665058;0.41229558;-0.64246935;0.6009576;0.5661429;2.029935;1.6158822;1.2477112;0.6428472;-1.702555;0.35960224;-2.0253704;0.8055982;2.2729025;-1.6004007;1.764977;-0.70242375;-0.8498141;-0.10916923;-1.9432127;-0.017757794;-0.43263763;-1.5097865;-0.6074975;1.7047849;-0.37051305;0.17172919;-0.6214162;1.68148;-0.2709403;-1.1890069;-1.3208755;0.36605915;1.3997931;1.6364514;-0.721871;-4.2891107;1.3657285;-2.598847;1.4197978;1.5640348;0.09528676;1.2078062;-1.1489497;1.0446727;1.3177091;-1.519677;-0.19175728;-0.7631198;0.15200004;-1.101322;1.2924583;0.8445259;0.91985977;0.691583;-0.6522955;-1.7012106;0.07556897;1.5664129;-1.0224044;1.7256547;-0.893087;1.4631125;-0.20698513;-0.33124506;-0.04985828;1.1744202;2.0347927;-0.76898795;-4.548497;0.31213987;-4.103377;-0.05869096;1.0841603;-0.093691275;-1.9896983;1.252055;-2.4977396;3.2868235;-1.5172142;-0.29604247;-2.3025553;-0.4073655;-0.5935109;0.3422759;-1.2523967;-0.34041741;2.2919931;1.6116542;0.2697702;-2.334733;-6.7722173;-1.3328031;-1.0253589;1.0886451;-2.695308;-7.344398;0.041674964;0.10789495;-1.4055839;1.9636405;0.4063675;1.1641911;0.49905068;1.5851755;0.54615355;-0.15142351;-2.7061536;-1.4689647;1.939789;-5.7803392;-1.7367634;2.359085;-1.2960148;0.1316857;1.6847811;-2.289545;0.9817322;0.52261966;-1.4416347;-1.2778004;-0.089068055;0.17462416;-0.6410466;-0.8446213;-0.16674158;0.6068127;-3.0381174;1.0366336;-1.3182702;-2.9154677;0.42789203;0.1374888;4.198403;1.0012779;-4.3202124;2.7755115;0.27064353;2.112075;-1.5642939;-0.17862394;-0.21681808;0.48645824;-1.143671;-1.061254;0.5156189;4.0776973;-1.957618;0.24324848;1.0457541;-0.13909818;1.9051957;-0.37073952;0.079878666;-2.63512;-0.6335063;0.4163959;2.4605596;-0.76081;2.070359;3.7078154;-1.1974902;2.0729542;1.9190589;1.2325608;-0.7966213;-0.15992951;-1.3899122;-2.057661
-3.5061681;-2.0062747;-1.7887653;-0.9606809;-3.918766;-2.5339427;1.0792902;-2.291511;-0.7384994;1.1289244;-0.7590615;0.19497323;0.49754003;-0.91502243;1.3770752;0.153263;-0.81071764;-1.7239636;1.372205;-1.6875383;-3.7324555;-1.0187607;0.9280769;-0.29013395;1.9125774;0.79408914;2.1206615;-1.076059;-2.7175524;-0.8503142;-0.69269717;-0.0024947177;0.75982976;1.0817512;-1.543984;0.7994846;-0.6603951;0.47796553;-2.2761059;3.5563853;1.4282117;-6.4089394;0.35676378;-1.0938693;-0.23151618;-1.9606776;-5.39126;-1.2643434;-1.1441946;2.7735586;1.4125141;1.6671625;3.8418932;-1.9378873;0.34139234;-2.3843;0.2008049;-0.427735;0.28127968;1.7076387;0.21447468;0.2770854;-0.94001603;-0.70759094;-2.3826497;0.6321397;-1.6228944;0.57251686;-1.1543039;-2.3761053;2.7162843;0.29962063;-1.0620551;2.1477106;0.08461007;-0.1800884;-0.68135864;0.046355262;-3.1163387;-0.35342297;-1.6552113;0.4577246;-0.6062978;1.1139804;1.1069899;-1.310376;-0.07109899;-1.0520513;-1.3249391;-3.0556738;-0.8194307;-3.3772793;-0.4388299;-2.7571695;-1.155012;2.9738736;0.32515272;2.8361568;0.07048817;0.26568195;3.0297804;-3.0782316;-2.9110644;0.33192596;1.6861526;-0.5444818;-0.8898232;0.539722;0.78157336;1.1659079;-1.4502809;2.0479167;1.0884391;-0.5774586;-0.5978841;0.6540353;1.4903233;-0.43806204;0.019034151;-0.3580434;-1.8630778;0.94440246;2.7047167;1.7136048;-1.4727004;0.62506706;0.52258766;3.436045;-0.41770813;0.45714393;-0.7479217;-1.4926121;1.5046804;-0.9442807;0.08945268;-1.5411389;0.40351525;-1.5489855;-1.2189925;1.0238389;-1.9405993;1.532402;1.0705204;-2.4905684;-1.6489297;-0.8194497;-2.290392;-2.91216;0.7353593;-2.0298004;-0.6023121;-0.47856373;0.36068636;-1.4319946;1.1105918;-2.1910539;2.1755857;0.49660724;0.3892574;0.55630744;0.9043915;3.3506866;-2.0957422;0.48039222;0.20688613;-0.40597513;2.1970735;2.3148272;-0.2553034;0.76113594;2.940729;0.8333861;-0.78211707;-0.5020438;0.34816965;-0.5684897;1.2341092;1.24434;-0.52814555;-0.6749305;-0.7201988;0.31520474;-3.352421;0.39525875;-1.5718307;0.8507753;0.27031428;-0.2035809;0.8890751;-0.9557504;2.7247849;-0.09371194;1.407198;0.19580951;0.94345313;-0.32649443;0.11905626;-0.7567414;1.7005625;-1.0159649;-0.78998196;3.694272;0.354973;-0.7741435;-2.3132703;0.16064706;-1.1611999;-1.2907623;-1.7315654;-1.0077814;-1.6091802;1.3732488;1.4878926;-0.94945234;1.3771973;-2.8210192;-0.7548043;1.9913741;1.085021;3.6090317;-1.8794852;0.43944427;0.16305694;1.9645448;0.229636;1.1733327;-0.018050816;-1.3532884;-1.529327;1.4890902;-0.87079304;-3.6039257;-0.41540924;1.1836405;-1.2188505;1.0502073;1.361657;-1.3254907;-0.788695;-2.9616852;-1.2361826;0.30072916;-3.3425295;2.0423775;0.7799105;0.004775727;-1.0783263;-1.0891069;-2.6509318;-0.47115442;2.02549;0.56915706;0.08346192;-1.1844902;0.42182735;2.101241;1.2498943;-0.017417068;-2.0035195;-5.2830505;0.9802961;0.45095995;-0.30356646;-0.25166124;-1.4683934;-1.2558241;-0.047557786;0.6114337;-0.82378787;1.5199213;-0.5175785;0.61968935;-1.2246618;1.3888565;0.7561931;-1.1043581;1.1976372;0.060490232;1.630877;4.1886716;-1.7362733;-2.192286;0.59292066;0.855082;1.3049015;0.048677567;0.22039935;1.7200952;1.2702882;1.359202;-0.437533;0.44420472;-1.1254388;-0.1465854;0.1192869;-1.9002755;0.20094156;0.439475;-1.0873077;-1.427736;2.0636666;0.11627396;-0.82714283;2.0137482;-0.06852799;-0.27249333;-0.39518806;1.6328334;1.8189927;1.7187405;-0.8100022;1.8019139;-1.1702186;-0.6225305;-0.4169948;0.41535136;0.43279094;0.020390684;1.2333221;0.32428652;1.84245;3.0268989;-0.30020052;1.4444177;-1.6276776;1.8043782;-3.4965086;-1.3770816;-1.3443063;2.0875823;1.4383767;2.8132267;0.7753254;0.36594325;-0.60353774;2.5551462;1.7108948;1.5431783;-2.187758;0.4516844;0.036649637;-2.6710358;0.32363635;-0.73073804;0.5956509;-1.8165237;1.2894033;0.4797339;-1.6008499;0.44890553;-2.698561;0.30358747;-0.23534666;1.2636656;2.334249;0.11408238;-1.6580747;0.9070999;0.19310729;-0.16004962;-0.13601166;-5.053633;2.1151147;-0.24685298;2.2209058;3.2978508;1.662771;2.2726712;0.611005;-2.2159755;-0.9154471;-1.0782888;-0.051027108;0.5741803;1.9262311;0.188957;0.9786584;1.630438;1.3487527;0.15835795;-0.84090763;-0.5303699;0.29320678;-3.3745565;1.4144776;0.43052334;-0.32845163;-1.4391037;2.2862358;-0.6401026;-0.54299885;0.93840086;-1.1090676;1.3584721;-3.0982292;1.6567988;-0.3711266;1.5769546;-1.7304502;0.5796342;1.3081675;1.7435426;1.0880307;1.6523795;0.523427;-0.5509873;1.765479;-0.7561429;0.58558565;1.1105126;-0.6455456;0.122295894;0.85992;-1.5953789;-1.1561589;0.34345117;1.9045999;-3.9732077;1.4522575;1.2149445;1.4938703;1.5607916;2.1929555;0.75633997;-0.5304302;-0.7512036;-2.8555677;-0.9383492;0.19475037;-0.1638591;-0.8110081;2.0104203;0.5585592;0.17185383;0.621641;0.9077585;-3.0074933;-1.7527314;2.6471937;-0.47262082;-0.37649488;1.6804528;-0.0012359896;-0.24884838;2.048501;1.100475;1.1146636;1.7383741;-0.44058698;-0.3051181;-0.0703343;0.26757994;0.45032376;0.59106916;-0.77132845;-0.19146188;-2.9186165;-3.2641726;1.3372566;-3.3248792;0.6281266;-1.0750089;-1.7154397;2.7790327;-1.0962172;1.3538224;-1.4768385;2.4124064;-1.2459258;-0.20148344;-2.1262174;-0.5961956;1.6260002;0.9772923;-0.10974077;-0.96844757;0.14668432;0.5496201;-3.8961053;0.55678064;2.7536445;-1.7701082;-1.0850924;0.27901804;5.508696;1.5007085;0.37566096;1.4806867;-0.7092089;-1.2743304;-0.006589081;1.3732151;-1.7818352;0.81620663;2.154894;-1.7232361;0.33576643;-4.435533;-0.68652815;-0.30155084;-0.47434086;-0.75800085;-1.362501;-4.518717;-1.4474747;1.2973831;-4.338037;0.9078331;2.2377422;-0.26479852;-0.63982403;2.25668;0.20302117;-1.2046609;-0.3296837;3.7304542;2.2526913;-2.0015423;-1.5831091;0.57282066;-0.007202704;0.08384044;-1.1503644;-0.7756793;2.1464727;0.08720923;-1.235026;1.1821003;1.3094457;0.99923176;0.6661652;-1.9347715;1.3597889;2.1025;-1.6411942;1.325259;1.0734761;0.63225913;-0.2265021;-0.8765223;0.8035333;-1.1621944;-0.5386829;1.4401447;2.9810154;0.28878036;-3.7491207;-0.19700167;-0.44304192;2.1303365;-0.62701523;0.71591496;-0.2142443;2.8871522;-0.2973097;3.018139;-0.49259058;-3.4937804;-0.6471879;-2.3880982;-3.3569565;-1.482696;-0.18589373;1.825161;0.53273475;-0.33142984;1.9070458;0.6917354;-1.6073357;2.3513718;0.38251406;4.3040733;-0.65168494;-1.2473469;-0.11659411;1.0855429
-3.0036922;-0.98088306;-2.333899;-2.486843;-1.8089306;-1.2459332;-0.022106593;2.027299;0.73428077;0.39673612;-0.1488746;0.3916391;0.060807843;-3.332122;3.866325;-1.0424418;-0.8420722;-1.7467358;1.0616691;1.480732;-1.1533332;-0.2517769;-1.9339806;-2.3762128;-1.7525932;-2.7351766;1.3811264;1.5735058;-1.4661441;-0.023115948;1.8483288;1.5105441;0.057285767;0.53956485;1.224188;2.507676;0.2834114;0.86364806;-0.49226087;-1.206028;1.3386991;-4.3902645;2.1531944;-0.3531651;-3.4853306;-0.18879527;-5.0946484;1.5461824;2.0955176;-0.19283779;-1.2651908;1.0557082;-2.0034096;-0.13927032;0.16260307;-1.9231381;0.96119165;2.232399;1.0372816;-0.43911517;-0.1419623;-4.012973;-1.4047629;-0.7021133;0.91581106;-1.4287456;-0.6435664;-3.1382754;-1.8125741;-0.39805833;-0.15863736;0.3755799;-1.6309187;1.1364915;-0.52630216;1.4553388;-2.601053;-2.9150567;0.06260788;-1.1706995;-2.078126;0.45916793;1.9716997;1.4296819;-1.4624904;0.07433068;0.3025875;-0.5974073;-0.34530663;-2.514047;-0.19910753;0.09365756;0.13248888;-1.5422939;-1.5348004;1.060033;-0.63649076;2.2163117;0.37732536;-1.4717829;0.8466649;-1.1524688;-3.85838;-0.8361989;2.4742827;1.037577;-0.28662348;0.79999673;-2.4117506;1.2337203;-0.15421681;0.52853435;-1.4788064;-0.89659524;-0.25213298;1.0151575;-2.0195544;0.41476744;-1.1329548;0.95402145;0.7921696;0.62709624;3.1343882;-1.2181238;-1.9854265;-2.5823824;1.1296921;0.11642933;-0.42634296;-1.4289075;0.77714413;0.32399872;-3.1534557;-0.6724059;0.57161397;-0.939131;-1.3034279;1.3657119;1.8745072;-0.19974436;-0.7229375;1.2360184;-0.860614;4.296776;-3.6957972;0.38288093;-0.5840505;-1.0674374;-1.0330495;0.80476755;-0.61593413;0.77821976;-0.9492133;-1.4200597;1.3796064;-0.6964998;4.087883;0.8547059;-3.786927;1.6088822;1.7694806;1.1676966;-4.9161034;1.0888305;2.8296096;-1.2454461;1.7634532;-0.58100647;-1.0549635;1.3489876;2.669094;-2.6175008;-0.95630974;-0.887643;1.6061748;-0.5167991;1.1739917;-2.071986;0.995659;-0.36552888;-0.2912617;-4.1694584;1.0865812;0.26264408;-0.8933501;0.45252672;1.0747668;1.1551393;-0.46706134;-0.9535604;1.4528732;-0.6195664;1.2064836;0.94094825;0.8308645;-0.621331;-0.49620634;-0.57413894;0.34713516;0.11691516;-0.95606375;-2.5566647;3.268966;-0.22031364;-1.6634642;0.40299755;-1.1159197;1.1134186;0.2438302;-1.066668;1.2586749;-0.13209893;2.3699162;-0.39295238;0.7512232;-0.8730629;-0.28466272;1.0949476;1.5772091;-2.338525;-1.5086224;-1.067912;-5.21066;-0.39043647;-1.7364172;0.62534815;-2.3228683;-0.037309468;-3.5619502;2.055167;-2.6831439;-1.4157735;-1.1945822;2.589484;-0.42339432;-1.5327283;-1.1760552;-2.3813283;-0.5376035;0.28583878;-1.5071028;-0.83782816;-2.7538743;1.4028286;0.8013833;0.861482;0.24462163;1.6929557;-0.012797735;1.2938638;-0.17270586;1.346542;-0.21712047;-0.31231233;1.4627405;1.1178964;-0.39962298;-0.8462281;-0.6926839;-1.9811207;1.4603494;2.635495;0.45800635;-1.0215062;1.5766318;-2.606642;-0.77055275;0.53013974;-2.3217294;0.22445783;0.7043603;-0.12824176;1.4394233;1.3235434;2.882417;0.2715806;-1.037575;2.732588;0.9902107;-1.2348638;0.08706004;1.267158;-1.1298269;-0.36709952;-0.7688064;2.0592859;0.33401954;-0.6471199;-0.9884175;-2.4806857;-0.97893023;-1.0449572;-1.5243582;0.8682958;2.0203536;-1.1640761;0.037341204;0.7465328;0.39345887;0.3261835;-1.2480122;-0.18674587;1.1269951;-1.2756197;5.240036;-0.940329;-2.0999746;1.9280356;-0.0049195862;-0.588856;0.60941124;0.35398367;-2.258049;-0.2311515;2.8681617;-3.0168989;-1.3029087;1.3974332;-0.69098234;-1.2309216;2.1772337;0.20461357;1.9695616;-0.26304087;-3.0817463;-4.7903595;1.4030595;-2.6057262;2.1922197;-1.5134077;-2.4357014;-3.426741;1.7053024;-0.9463117;1.4088713;-3.2021663;-0.16986424;0.54213166;-2.025155;0.3901123;1.7814782;-1.7597022;-2.0402577;-0.916518;0.639903;-0.018656326;-1.6931065;-0.26086938;1.4096495;2.2993855;0.041102055;-1.9968808;-1.0466787;1.5877988;-2.451363;-2.4900315;-0.3081783;3.2905648;1.3631086;0.9216913;-0.9108605;-0.93191504;0.7703474;1.4633682;2.7893972;-0.54648817;-1.8104851;1.9530925;0.50400996;2.6733944;1.6058942;2.891346;-2.7335057;0.15128317;3.1995468;-2.4479136;3.2281313;0.5372786;-4.326063;1.1587691;-2.8489711;3.0838428;0.15450265;-1.2344023;0.58050525;0.5352005;0.12756442;0.013772608;1.9719934;-2.1871648;0.47231522;1.4305753;-1.9711217;-0.69871116;-0.38806915;-5.374321;-1.4406046;1.1043339;-1.0417405;-2.061483;1.1325239;-3.0331504;-2.1776414;1.6515801;2.0906806;1.221849;-1.6570219;-0.9738308;1.3580424;-1.6704856;-0.22451027;2.106224;-1.5646265;-1.2484577;-0.028013485;0.5419005;-0.49695936;-1.2594502;-0.9624586;2.9900703;3.6689024;-1.1675968;0.41048825;-1.2855246;-2.798313;2.1064844;0.15151593;0.63268447;1.184505;3.5902402;1.1276263;-2.361623;0.4042038;0.39315996;0.1881228;0.24775063;-0.56103265;3.120188;0.36097583;1.0488384;0.7626884;1.518237;2.1800685;-0.6222404;0.20750713;-0.47647575;0.5031701;-0.0768744;0.26228067;-2.1653616;-2.0923347;-0.12322836;-0.23226747;0.6533755;-2.1121585;-0.9073522;-2.0648334;-1.2319186;1.0295564;-6.4243464;0.37947923;-3.1993287;-2.2877111;0.45959783;-1.7247345;-1.023835;-0.57586163;1.9197043;-1.1359761;-1.7976325;-0.19447032;1.5860143;0.76112497;1.2096418;0.7195052;-1.1405902;3.676487;0.4969124;-0.18485805;-0.97734326;-2.4702787;0.9005782;2.154266;0.98478246;-3.6963413;1.2814388;2.3315566;0.5128498;0.23616147;-1.664761;-0.89422923;1.6424327;-1.5876391;1.1420393;-2.5684857;-1.4063284;-0.5333011;1.15973;0.23295622;-0.27889025;-1.6458739;0.46232992;0.27953482;-6.3135366;0.35979158;0.20584337;-1.5877064;0.28642857;3.1817956;-0.9360281;-2.06592;-3.2557073;0.48648512;0.37211275;2.2736633;-2.9006872;3.545303;-3.2800026;0.35302472;0.7640871;2.1275396;-0.07827873;0.7466225;-1.1778629;-0.6868221;-1.106071;-1.591821;-0.22874278;0.32837555;-0.10870476;-3.5581574;0.14468497;0.18744408;-1.1103652;0.81174755;0.31996083;-0.7524708;-0.89334756;2.1727905;-0.2172418;0.17262028;-2.2552562;-3.9238667;-0.1583343;-1.6451713;0.09923138;-2.5203695;0.69326174;-0.68387777;1.3592689;1.4565097;0.09285357;2.2024896;4.122887;-1.0704104;3.861361;0.2707757;-1.092244;2.189437;-2.9041512;-1.4970148;-0.8673641;3.392998;-0.2653477;-0.4724722;-0.71034944;-1.2895367;0.37997892;-0.86884356;0.35891256;1.6433394;-1.2239008;-1.6661285;-2.2713964;-0.69558847;-2.8919222
-2.243588;-3.011871;-0.94563943;-0.11953777;-0.47547305;-0.9822722;1.3778241;-0.8431412;0.116900206;0.9758027;1.303155;0.43626964;0.104611084;-1.7914325;0.88738996;0.20583794;-1.0743771;1.1064798;-0.7699646;1.2102679;-1.0050824;-0.043054353;-0.71692544;0.009570699;3.6700914;0.6154577;1.1096493;0.4045616;0.90997535;-3.5015545;1.8123928;-0.30974543;-0.22866596;-1.1369576;-0.34827298;2.5427618;-0.10865102;1.356696;-0.7687951;-1.6899586;2.0363517;-2.2078154;-0.24919876;0.16059189;1.0584432;-0.6868899;-3.0279405;-1.9259369;-0.5651221;1.8192304;-2.049314;-0.79001117;-2.7576225;0.5909335;0.29404902;2.3643224;-0.80492723;2.4106166;0.58374184;-1.7878355;-0.0005307747;-0.78344756;2.3289616;-1.0444851;0.73800296;0.7102057;-0.06456144;-2.5549476;-1.7601173;-0.32824436;1.4089714;0.98020345;-1.3977263;-2.1807742;0.33501345;0.07472219;1.2207171;-1.5685169;-0.41185707;-2.9062386;-1.302242;-3.1279557;0.24596997;1.5668308;-0.83241117;1.4059958;-1.5074996;0.6255035;-0.49393204;-1.6172547;-0.84578276;-0.22140907;0.8966959;-0.5484573;1.0342332;-1.3109896;0.45526266;-1.6498246;-0.8123335;-1.6698227;-0.21900994;0.22640508;-0.7375783;-0.51011485;0.03568643;0.49059927;-2.0060437;1.3496236;-2.339224;0.30113578;1.3062928;2.1969516;-0.24207054;1.092059;-0.1270454;0.6742786;-0.4247702;1.3261075;0.39261112;-2.9951189;-1.7783356;0.36062244;-2.1102622;1.5321311;-1.227608;-2.1663246;1.3998936;3.0420465;1.013509;0.41292655;-1.0208073;2.2727654;0.92488253;1.4258159;0.98538536;-1.2514994;-0.71468073;1.143054;0.45321506;2.4711342;0.11480281;-1.694641;0.3832672;0.54648024;-0.94621766;1.4757605;-1.1827064;2.8828132;-1.4428301;0.46731108;-1.3188021;2.087493;-1.0635922;-0.9364956;1.1358664;1.0262569;-0.69656706;-1.5792803;-2.8929408;1.61794;0.39096314;0.7259695;-2.5233655;0.37022558;1.5457894;-2.0080132;-2.8839512;-1.4096458;-1.0769665;-0.3224182;-0.16420837;-0.1410606;0.781761;-2.595222;0.5018975;0.20677671;-1.4402243;-0.8177781;-0.18163529;-0.10089398;1.861651;1.4853724;-0.86561453;-2.1502104;-1.8548371;-0.431004;1.8487136;1.5484926;-0.62981385;0.010400324;0.43397158;-1.1975986;-1.5158278;-3.4104977;0.15697794;-0.44983718;-0.18172653;-0.96631896;-2.2207315;1.8216656;0.052801237;1.0184171;4.2439704;-1.5495807;1.4870292;0.5744942;-0.8207546;0.07301803;-2.9295235;-0.44229025;0.1945829;-0.806235;-1.0322797;-0.49953642;-0.40100455;-0.8633887;2.6825206;-1.0858028;2.3081207;1.2729219;0.6126683;0.72566175;-2.8516226;-2.2708213;-3.6351218;0.35545716;0.3457311;2.9765964;-1.0285643;-0.5369752;-1.9945934;-1.3731602;-3.434762;1.8399566;-0.44437027;0.65613824;0.123559624;-1.2290028;0.68049616;-0.8056764;-2.4282823;-1.5492487;-0.08575965;-1.6811284;-1.8977922;1.2398193;0.79581213;1.2736828;2.305208;-2.166218;1.1636887;-0.22116676;-0.92233515;-2.3529775;1.1174339;3.631944;2.9224498;1.6135633;-1.0162865;-2.2276928;2.445239;-0.72600627;0.38519943;-0.15171759;0.22744246;-1.6099554;-1.0017191;-1.4218789;0.013034808;1.1980774;-0.8272363;-1.1353931;-1.5414475;0.32637745;0.67756504;-1.4649428;-0.8194533;-3.9820812;2.407604;2.8943372;-0.4241163;-0.81067085;1.9509858;-0.6313121;-0.58420855;1.6362014;-0.013395338;0.55997694;0.052476913;0.39611307;-0.9601791;0.2881634;1.2245415;-1.5291575;-2.0449867;-1.3883324;-1.6688335;-1.1279129;-0.5340216;-0.3636845;0.7907172;0.58521646;-0.66160756;-0.10238859;1.1385618;1.3789963;-0.37041166;-0.6757845;-0.7336025;-0.81572694;0.057274442;1.0675918;-0.67042387;0.15342438;2.0381944;-1.275034;1.0448115;2.3855445;0.45364472;-1.4467956;1.016538;0.45653427;0.21811287;-0.21723388;0.06241935;-2.9948459;0.9685548;-3.2094245;2.5169768;-0.8814602;2.6252577;-1.917534;3.5339298;-0.18484275;0.74940044;-0.4038127;0.6925642;-0.3076474;-0.7841437;-0.2935107;-0.56910294;0.79869556;-0.40124148;3.1618178;-0.27238074;-2.0032954;0.24836406;1.7917037;-1.3032383;0.5359469;1.4822977;-1.4314536;0.10837929;0.7966824;1.9741813;-0.73260266;-3.3042502;0.44642934;1.019192;0.6308191;-0.07075262;5.9533663;-0.34699932;-1.5411811;-0.06423755;2.515997;-0.34013307;0.46077678;1.1898532;-2.4919848;0.8286108;-1.3905177;-2.247863;0.73642385;-0.2416812;0.48972806;4.082996;0.029049607;-0.15368095;0.85970646;-1.6452897;-0.30969736;-2.1256244;0.36609855;-2.6356223;0.9944771;0.19912261;-0.23761383;-2.1397948;1.0555205;0.6295734;-0.65212166;-0.52917415;-0.91691864;-0.50770634;-0.050996076;-1.4784209;0.5709426;-1.0568731;2.265149;1.2048473;-0.57042986;-2.094784;1.9639301;-0.05335305;-0.94225043;1.2149642;-1.8105602;1.2240075;-0.2878656;-3.1888988;0.46170962;0.04386496;0.029832978;1.55014;1.9169315;-2.0168931;0.2570725;-0.382736;1.4428012;2.2890105;0.3963198;1.2991072;-0.9472936;-1.7011751;0.22549608;1.2343905;0.97481954;-0.9944736;-0.3925044;-0.024465498;-0.9443134;-0.35837615;0.32401845;1.2686222;0.38437882;1.0099772;0.39520285;0.9610389;0.19728333;1.7537369;-2.827139;0.65834653;-0.40647808;-0.6970712;0.33893895;1.5750346;-1.984131;1.444395;2.1199992;0.69080174;2.2176456;-0.6003386;1.3370097;-0.4751455;0.928231;-3.4141092;-1.2466714;0.05611845;-2.0160208;-1.309118;-1.4193226;-2.2633982;1.724415;-0.9733385;1.8663172;-0.43773186;1.1704782;-0.71650076;2.4847395;0.831546;0.9985193;-0.56740606;0.47058132;-1.5751783;1.4070573;-1.276314;1.323027;-0.41436806;0.4739136;0.21787664;1.5215663;0.66363883;-0.65940523;-5.080942;-0.16221838;0.53931385;-0.79147804;-0.31670922;0.41126564;0.51392126;3.0137374;-2.0543137;0.0778921;-0.17671627;-2.5193655;2.3661702;-1.9449869;-1.64219;-1.1351813;-0.36969733;-0.7304726;-1.180697;-5.3425937;-3.013974;1.5913483;-0.6744294;-0.44756222;-1.7655813;0.58583003;0.15004209;-1.9666147;0.51115894;0.505561;-1.3799006;-2.4898028;1.1207432;-5.1778994;-1.5391899;4.0580416;-1.3133854;-0.29551303;-0.26403266;0.67621493;-3.1127234;-0.22767846;0.12537529;2.8528118;1.6407624;-1.3759493;-3.1506991;-1.8569707;0.8083861;-2.2439723;-2.9745493;0.828753;-0.5091733;-0.15207236;1.0103359;-1.8538375;3.1027782;1.999976;-2.9836729;-0.29164547;-3.7748098;-0.16990235;-1.347117;1.3090487;1.6815773;1.333816;-0.29231754;-0.9281991;1.3809739;1.6426378;-3.4456072;-0.10254085;-1.2891732;-0.6399342;1.531178;-2.7066865;1.1027689;-1.3079728;-0.60482544;-1.8604139;1.4573876;-0.21771102;1.6890061;-0.10219352;-0.8414102;0.9955209;0.65251267;-1.4375876;-1.0673687;-1.6123077;-1.434788;-1.8458829
-2.5470195;-2.3404279;0.12103405;0.8931271;-0.0027327614;0.12612529;2.5925477;-3.9766083;1.0956186;-0.28793016;0.15550256;0.6169865;2.4165602;-0.969053;1.5777743;-0.029848088;-1.7382102;0.13553526;-0.89503866;-0.95238924;-2.2522366;0.23536958;0.5730716;-2.600724;-0.5155634;0.08588662;1.311092;0.523296;-0.064419456;0.8681332;1.878044;0.082565874;0.4588616;0.51681143;2.2528837;-0.17806225;-0.93853337;0.21348345;-0.5294769;-1.313098;0.59407717;-4.9335446;1.596981;1.4423374;-0.6980723;-2.8939579;-3.0103297;0.36096752;1.3119621;0.3733634;-1.4455512;-1.6256193;0.5287724;1.3840092;-1.2745041;2.4866903;0.87712294;1.9324349;-0.26905224;1.7256868;-0.22401096;0.19046368;-0.106183514;-0.35010847;-1.2061489;-0.64615464;1.0057645;1.6835082;-3.5101748;0.60713744;0.06673834;0.3624479;0.6366712;1.7882669;0.9092234;0.871519;-0.64801514;-1.9767592;-0.81858045;-1.3138047;-2.4678957;-2.6601806;2.3228045;-0.43310165;-1.1802276;-0.5542681;0.17050281;-1.8635763;-1.4017509;-1.6594049;-0.8797058;-2.5776696;0.22643855;-0.34512463;-2.098344;0.23121576;-0.44601434;-0.29553682;-1.4919372;-0.2658659;0.63175124;-3.1595378;0.6596224;-0.078526594;1.3847098;1.3025882;-2.1619794;-0.15984094;-2.50765;0.30412987;1.8013126;2.3626876;1.7861806;-1.8549875;-1.4143378;3.2126453;-2.0634367;-0.37541196;0.1393709;-2.120955;-0.6473406;-1.1639738;-2.172799;-1.2480929;-1.3712873;-1.1528655;-0.096574165;4.644863;2.5047607;-0.68327785;0.071887314;-1.4496815;1.0316491;0.85313463;1.0785109;-1.8756703;-1.405248;-2.2352114;1.3223844;0.6885048;0.78763163;-0.1263749;-0.85683227;1.4234076;-0.7104927;1.929151;-1.7031708;-0.41492632;0.69126934;-0.24095525;-0.96294236;0.20612226;-1.5111935;-1.1177024;-3.3781295;0.48671;-3.1449594;1.4463786;-0.6440115;0.42165127;-0.89045167;0.49352384;-0.6799595;0.53742474;1.4007521;0.38960162;0.24243775;-1.9891688;-2.253602;-0.6812049;0.25280404;-0.7802402;0.81581014;1.4773182;0.39360666;0.52502954;1.4028535;-2.6413689;1.187524;-1.4626417;-1.8634162;-4.8607917;-0.069559366;0.7797351;-2.151272;-0.95489424;0.86970276;0.17170998;0.16413;3.513109;1.1543106;-2.0662842;0.008698458;-4.3418407;0.14464681;1.0432873;1.4957589;-0.39822277;-1.691057;-1.7057525;-0.79603004;2.2268517;-0.40088677;0.84506524;-0.05582009;-0.3413331;0.47957852;0.77474165;-0.48226207;-0.51562065;1.8068297;0.6853367;-2.7724667;-0.58425504;-0.037372842;0.3512515;-1.3376317;-2.4845595;1.332993;-0.73990715;2.392162;0.31929943;0.7193216;-1.2244238;-2.22284;-1.0790073;1.3542675;-0.8920678;0.116986774;1.2620256;-1.5699574;-0.1486257;-1.0107845;1.1497558;-3.9749377;1.0406162;1.6913437;0.65029573;0.43616676;-1.4736711;-3.322893;-1.2929412;0.564727;-0.28465772;-1.5175549;0.77374935;-0.102810286;-1.2762141;1.1105157;0.76017225;0.41885638;1.7543141;0.80956286;-0.100419015;1.5979456;1.101886;1.531956;-0.9154843;-0.62491626;-6.0768523;1.5772158;-0.6077086;2.2481475;2.164604;0.76729023;-1.2398038;-0.7576861;2.177016;0.88408417;-0.07797796;1.7749976;-2.317373;1.0147308;1.5171602;0.55206704;-0.30522916;0.5683561;-2.2045927;1.0460098;0.4907245;0.031729124;-0.11938738;1.2204535;-1.8433449;-2.4013891;1.476469;-0.09929686;1.3579607;-0.9602277;-1.4840462;0.35922295;-1.8907894;-1.5048695;0.1988501;1.2009999;0.4545621;-0.56174046;0.44424316;-0.58829916;1.1005372;-1.038764;0.37017062;0.47975355;1.2130902;-1.23344;-0.6218188;-0.29079914;0.29247457;1.1377236;-2.118357;0.2578931;-1.2579032;0.65193367;-0.8475349;3.1007452;1.9040365;0.44814497;1.0993942;-3.0236022;-0.034746747;0.30706668;0.5683881;-0.8303311;-0.74932;1.076498;-0.5246616;1.5384673;3.8090625;-0.9573506;0.26400164;0.26670375;1.9645276;3.2160263;0.84303665;6.3188796;0.3684495;0.20728;-0.079485044;3.7879062;2.2500372;0.0042922045;-0.26594034;-2.7600534;2.3646584;0.26410314;-2.2178133;0.15917797;1.1895679;-0.66860175;-2.8281856;0.8721604;0.36107856;0.793431;-2.5810633;2.1148007;-2.9833965;-1.4213603;-0.4431136;-0.63291925;1.789288;0.12061147;-0.5688291;0.574866;-1.7447673;-1.3745012;-2.1181548;-0.5848326;0.12484767;1.3928398;0.04629931;-1.5651805;-1.4378593;0.30742633;2.1046212;2.295916;0.7850572;3.6695747;2.1313534;-0.6835161;0.17778233;-1.0034539;1.392226;-0.9351311;-0.7882749;-0.693131;0.081367664;0.6717259;0.3815954;-2.168798;-1.8444579;-4.0419807;-0.50891596;1.8470703;-0.35837036;-3.5607944;-0.08205995;-4.4866242;2.4812317;-1.2411165;1.4161112;1.9033743;-0.19351633;-2.52658;1.2241046;-1.8861188;0.6558566;-1.0863591;1.4333026;-0.5340768;1.5109532;-1.2690337;0.20168614;-2.5541232;1.5277939;0.8104904;0.9934375;-0.15626073;-0.59932065;-0.08629601;2.2166271;-0.3966069;-2.1550026;5.0292277;-1.2299336;-2.0000098;-0.98684174;0.8268559;1.5055202;-1.5729017;1.671304;-1.3269473;0.9286543;0.40605178;0.43710142;-2.1986701;-0.6162205;-0.0871615;-0.30309853;-1.395292;0.9643056;-1.5697116;0.40543807;-1.9281768;1.848557;-0.43203202;0.29887447;0.2509644;-1.1518406;-0.23806436;-0.9194494;-0.78435254;-0.2924723;-0.42584488;-0.30656838;1.7460831;0.25338694;1.4377959;-5.996176;-0.59245336;-3.009676;-2.8021533;-1.4322505;-1.4010453;-0.8134397;-0.974908;-1.5764841;-1.4779954;0.095033176;-0.0026612205;0.89700836;-1.4117907;0.30434394;2.9006543;1.0298544;0.5339749;-0.058555443;-0.38890794;-2.402793;1.2159808;-0.3618889;-2.5680442;-2.3678818;-0.2017388;-0.057930525;-1.0410762;-1.4788501;1.0088848;-1.38418;1.0830809;0.6019936;0.6852546;0.35484904;-1.664843;1.0562857;-2.9273422;-0.665849;1.243266;1.4158189;0.37314606;-1.8566362;4.1085;-0.7134311;-0.33329558;-0.9983192;0.4210744;2.3344193;-1.3756001;1.2803954;-2.571515;-0.0941273;-0.85561025;-2.1086438;0.40921655;2.15174;1.4949304;0.64952487;1.3672857;-3.7201378;0.49572867;3.1033309;0.20926122;-0.95824164;-2.1913288;-0.5459336;0.18419933;-0.14065559;0.9758208;3.9472697;0.6611433;-0.18903747;0.54812783;-0.18112803;1.210787;-1.031199;-0.66870904;0.77929646;-1.6433562;-2.3897479;0.7996926;2.5380673;-2.6673005;-2.2085812;1.0399208;-1.7612329;-0.98445666;-1.1654707;1.4886987;0.29031834;2.6861017;1.7831753;-0.014831452;1.3194032;0.40972728;-3.144976;-0.57771343;-0.54691863;0.47581288;-0.80584747;-1.2694647;2.180046;-0.17850956;-1.6858501;-3.581471;-1.4927225;0.9637952;-0.9225524;0.053820636;0.5835934;0.7646028;-0.34051996;1.0275819;0.580578;-0.6895927;-1.4445256;0.39274126;0.96166146
-1.0502036;0.5882535;-0.6099927;-0.8102127;0.46181673;0.80366325;2.327913;1.7450604;1.0723325;-2.4928794;-0.23524061;-2.3518093;-0.8291564;-3.3868034;1.0724657;-0.6972365;-0.31232807;0.9087259;1.7588578;0.46327183;-0.54990363;1.2562932;-2.864264;-2.5856218;-2.309561;-0.57258725;1.6383985;-1.7536805;1.9133149;-5.645824;-0.88955486;0.093191706;-3.9118242;1.8411703;0.13517559;-0.11457207;-0.47666138;-0.38474166;0.94319624;-0.90808403;2.2509599;0.11992412;2.1587024;-3.6154525;-2.4367912;-0.78081864;-4.223375;1.9608655;1.6853889;-0.15990217;-0.36770073;-0.86993283;1.1242831;0.29360402;-0.43803304;0.31955418;2.2960808;2.006694;0.77101284;-1.3908457;-0.2319431;0.45397258;-2.878352;0.1976331;0.06544427;-1.4999348;-0.926755;0.9650587;-2.7504861;-1.3152155;-0.119968146;0.47854915;0.4772398;1.7242886;0.50037086;-0.9972206;-1.0629228;-1.290595;-3.4690306;-1.2937809;-1.1025641;-0.9121053;0.84959555;0.28552163;-0.9451852;0.5854778;-0.7146037;0.73463404;1.738586;-1.842359;1.7079046;-2.1015797;1.5040511;-3.0973728;-3.056017;0.5143794;-0.7667009;-0.5127407;0.32419035;0.40148264;0.13984467;-2.600446;-0.06001764;-0.690087;0.72090757;0.6907162;-2.1828697;1.0195401;-1.5741727;-2.0120678;-0.18022102;2.2675679;0.76265043;-0.16528544;-3.379953;0.21038985;-1.9766254;1.4523969;-0.23468553;-1.7474372;1.005965;-0.6124933;2.5770297;-0.21160136;-0.7693054;-0.4387537;0.7009607;-0.43280357;2.1661146;-3.7384884;2.3602233;-0.7969502;-1.3018465;0.7359761;1.8953519;-1.3575464;0.59325415;2.221359;2.7738268;-0.25475302;0.8675518;-2.4796495;-1.3323759;0.5589229;0.08116945;-0.70281506;-2.8183196;-0.26608592;0.0552043;0.048647445;-0.8658139;-3.5654895;-1.4809785;-0.28698412;-0.61286587;0.3339067;3.706586;1.7600297;1.4258181;1.4290682;-2.4723146;0.62892354;0.29474646;-0.6575112;0.15583414;-0.1490705;-1.6417663;0.41461807;-3.1510968;2.7161458;-0.19311976;-0.47539514;-2.2159128;2.4224584;0.536835;1.2677976;2.1062214;-0.7173395;2.285136;-0.83273727;-0.08850254;-3.0933602;0.3168553;0.38658243;0.111842506;-1.102528;-0.397213;-0.7616953;-2.5791037;2.0849054;1.2496303;0.03718766;1.6511874;0.28670526;-1.752669;0.7759757;-2.3686404;-0.77047163;-3.7347445;-1.3023244;-0.27464595;-2.5381305;1.4895635;-1.8820115;-1.1194925;-0.11217025;-0.28771597;2.0732713;-1.706803;1.1110328;0.7335163;0.58508766;-2.5221007;0.10885631;0.31997734;1.8390708;-0.9906479;-2.1131856;2.600931;2.1678555;0.9802095;1.091006;-0.19068389;3.0695171;-1.3562567;-0.071968056;1.3289118;-1.6730151;0.846188;3.6444235;-1.6357521;-2.3155746;-3.5464582;1.734466;-3.9825819;-0.1736333;-1.1524817;-0.8771801;-2.4645555;-0.5498598;-0.08640215;-2.6559784;0.7072866;1.744244;-1.3583866;-0.008337799;0.07546141;-0.23803784;1.5707957;0.7027635;-0.5837303;0.41481444;0.9331929;-0.10829705;1.9819365;-1.005125;0.31326285;-2.1015134;-0.46508923;-4.121723;0.66509765;-1.4401363;2.7623723;-0.1281319;0.045074206;-4.6013007;0.3363844;-0.70832115;0.117744096;-2.9559624;-0.46457624;-1.809862;0.3673978;1.0063344;-1.7530403;0.39872503;1.0418144;1.495026;-0.79326755;0.8953288;0.03809219;1.1710281;1.3764513;-2.275457;1.544573;0.79324734;-0.5432978;-0.5276808;-0.47793275;-1.9856646;2.2362137;-1.8172331;-0.6662579;0.21619126;1.6340457;2.7057028;-1.4802767;-1.8911215;0.012090575;-0.39808527;-2.136209;0.09660199;0.27471182;-1.200817;-2.4236817;-2.440701;-1.5547864;1.6935018;1.8272942;1.4698949;-2.906034;0.43419608;0.34324747;-0.21398862;1.9949609;-0.81881344;-0.7213769;-1.9293622;-1.4098794;0.13719916;-1.1338526;-2.2761421;-0.19188206;-1.6919352;2.7364004;-1.6642193;0.3209108;1.786803;-4.3385234;0.44500482;-3.0896084;-3.2614245;0.6467343;1.7372925;1.2897105;1.1597012;0.506264;0.18056743;-0.99721205;2.4207573;0.4332509;-0.7526186;-1.2753459;-2.3497846;-0.012755502;-0.17534056;0.90291095;-0.6805948;-2.0147746;-0.9803274;-0.107123695;-0.14043126;0.43894035;-0.12668934;-0.7840561;-0.053868175;-1.2198576;0.10635891;3.5548024;-1.5315185;0.6239267;-3.0613053;-0.37788555;-0.7299181;0.33690313;-0.5461079;0.27101508;-0.3520707;-0.30614212;-1.0387262;-0.7027416;-0.9245935;0.0016673212;-0.2493622;-0.86360836;1.0507678;2.6155236;1.2647582;-1.8811774;1.5710136;1.63207;0.26981384;-0.25457922;0.036568392;0.5316951;0.7962051;0.33315724;1.542675;0.4916633;-1.2167636;-1.6518145;-0.9190671;-0.36970124;1.8137503;-0.8609791;-0.67749846;-1.4993019;1.7896969;-1.6796263;1.1674478;-1.6563731;-2.4872746;0.7663982;2.7413223;-0.02307729;-0.65584105;-2.8923936;-1.0133266;-0.82308483;1.8248749;0.7717981;0.98386467;-0.8589475;-0.6526756;-0.8227013;0.8873034;1.643113;1.9612423;0.37350684;2.1916075;-1.1337426;-0.2703715;1.7678088;-1.0530355;-1.3328753;1.9742712;0.23307137;-1.3471452;-0.13253407;2.464935;-0.3510275;0.22880018;-1.2237266;-0.25257328;1.2531956;-4.0221224;-0.19748849;0.18964593;0.49741596;0.47703913;1.4334846;0.469652;-5.284468;0.6971194;3.537743;-0.29460713;-0.6563093;-5.390594;-1.6966916;3.0540798;-1.1088686;1.408361;1.5353488;-0.00032296017;1.0063124;0.903496;0.09533746;-3.6735938;0.13682836;-1.1148744;-1.3544836;-2.316245;1.6697985;-2.1703503;0.724041;-1.0512234;-0.84052336;0.07685861;-2.69688;1.2125589;0.37771797;0.8257598;-0.19975731;-0.055062607;0.71052253;-0.46076515;-0.6937361;-0.618454;-0.38645074;-0.0508448;-1.3880794;-0.2564553;-2.1320684;-0.048816975;0.49958616;0.5046528;-2.7326372;-2.599004;0.18263108;-3.2053404;-0.51592255;3.88179;-0.40695903;-2.519133;-1.1971351;0.787211;1.1951326;-0.33061382;-1.4529377;-0.6778186;1.2389208;-0.7043544;-0.25093833;0.20328084;2.4736688;2.133324;-1.9073395;0.29868603;1.6726497;-1.6243752;0.7155945;0.341559;-0.41646752;2.791762;-4.365214;1.5283858;0.012021023;-3.1198857;1.3336103;1.8443649;-2.6963255;1.5483822;-1.0378675;0.4006829;-0.3339544;0.030169657;-0.9703519;2.8685112;-0.02848357;-0.26486534;-1.0994803;2.0581436;1.4715805;0.56131077;-0.54636395;0.14197418;0.28255624;-3.0761452;-0.47375533;0.47159824;-1.8795909;-0.6497388;-0.31802374;-1.0357187;0.54538673;-0.33834475;1.2703029;0.6111222;-0.5085733;-0.5341287;-0.96085745;0.51209444;2.227254;-2.631263;1.4020723;-0.98658144;-1.1298774;-2.4331536;0.4783898;1.7577451;1.1012654;-0.6057481;0.0334744;1.4012258;0.3371854;-0.10045477;-3.1118922;2.1801317;1.1792831;0.65836364;-0.047016338;-0.35919785;0.23524527;-0.0810386;1.159326;-0.91592836
1.3563699;-0.3450672;1.380181;-2.2666113;0.95825297;0.782363;0.7642849;1.16668;1.1560973;2.0334587;1.600135;-2.4694526;1.1625918;-1.5938655;0.95960885;-0.1625245;0.30103368;-2.3439875;0.3952674;0.7259141;-2.8758245;0.50595075;0.76520854;0.64539546;-1.3916281;-1.0613354;-2.361615;0.95550936;2.7397301;-2.599022;1.7511331;-0.48901355;0.43671727;1.1756614;-0.60210043;1.0781431;-2.081786;-0.91238075;1.3833221;0.31571555;2.83583;-2.0229058;-0.3675381;-2.8812516;-2.08451;-1.0161188;-5.101841;1.0550792;0.3493114;1.2596883;-0.75383586;-3.111326;-0.8081073;-1.7433743;0.034329817;-0.45918092;-1.0747547;1.3909562;-0.29373088;-0.48862612;0.18252315;1.2939497;0.30182207;0.66078705;1.2877539;-0.2451307;0.26652253;2.603711;-0.6524933;0.05400517;3.23089;0.8959303;-1.6578472;-0.23805773;0.10737052;1.1769317;3.195836;0.042108454;-0.6264615;-1.3039315;-1.4130218;-3.8191676;-0.9218867;-3.1172328;-0.16275194;0.18602848;-1.4627677;0.4133433;0.22875178;-2.1294909;0.73309845;-4.5858507;-0.5262287;-0.36047128;1.5889248;1.062844;2.5538619;-1.0372988;-0.9968556;-1.7161835;0.6753984;-1.7788826;-0.5881352;1.3432984;0.3696853;-1.354584;0.94516593;1.8212689;1.3445534;2.912104;-0.1200833;0.9783968;-1.7034782;0.91516066;-3.8703742;-1.3620044;0.15813862;0.7909188;0.7984348;-0.2198901;-1.5395349;-1.6819907;1.4511557;1.7717552;-1.1942661;1.1385036;0.585227;1.0342996;0.9305656;-0.20239404;0.16244969;-1.1762627;-0.77049553;0.03397372;0.48571196;-0.34757876;-0.5062439;-0.84267217;-0.14686462;0.7850053;0.18679659;-1.9197457;-1.2107794;2.1693041;-0.1700532;-2.4476318;-1.1911227;1.2915831;0.45021904;0.07494504;0.8676947;0.57456106;-0.8574111;-0.06876683;2.0825639;0.74655694;-0.52443075;-1.8756825;-1.6477109;-0.7512395;0.8244067;0.14800678;-2.9669583;2.399455;0.17674197;0.89166987;-0.45882615;2.2497234;0.3375792;0.95165235;-0.85090876;-1.9444946;0.24616365;2.029509;-0.4295787;0.303096;0.8516358;-1.5564725;-0.7478415;-0.50229347;1.3714671;-0.7065266;0.35436836;-2.3616874;0.82433563;-1.025146;0.19794191;1.314308;-0.31781206;-1.8321912;-1.7069556;-0.46922272;-0.1337735;-1.892334;1.396705;-1.1668955;-1.6726551;0.4945396;-0.0048124013;0.022029389;-0.5904636;0.8446997;-1.2057459;1.3839542;-0.17501616;-1.3876516;1.2480918;-0.25665104;1.207285;-3.688914;1.760415;0.29872525;-2.8537738;-2.1651258;0.36028954;-2.413689;-0.14095004;-2.007235;-0.38939494;1.144716;-1.0017666;1.7431899;1.3111004;-1.2904111;1.087545;-0.7598496;1.171692;1.2614481;-2.098625;-1.272867;0.5408803;-0.523004;-1.6509795;0.3863247;0.43527743;0.5574788;-1.3344138;-1.7063324;-0.69148123;0.23220213;-1.0273726;-0.99852526;-0.957032;1.0158966;-0.30530307;1.7707105;-2.6233916;2.6399536;1.2680722;-0.23754331;0.28032392;-3.1425135;1.0187134;0.74456227;4.08403;0.8694164;2.8845437;0.35287884;-0.5126812;-3.5540628;-4.337381;-0.95894545;1.8487517;-0.29018733;1.0215775;-2.0064204;-0.20121421;1.3037988;0.21271962;1.0702324;0.043686733;-4.4701295;1.3448373;0.78327805;-0.4669424;0.24274772;1.4591054;-0.052294936;-0.8602395;-0.3642814;-0.553875;-2.2880704;-1.8564746;-0.049177382;-2.2377746;-1.044536;-2.2889457;0.46456152;0.39014512;-0.8071821;2.9149964;2.8003273;-0.81187505;-2.4840631;1.6195046;1.7774141;-0.47181022;-0.11460677;-1.2854177;-2.2051158;0.70073295;0.13670184;-0.9174257;0.6840875;-0.15762828;-0.8545901;-2.003092;1.7306789;-0.7006273;-0.44077656;-2.6578798;-1.8772542;0.822506;1.5827297;0.014289312;0.2512253;-2.2396674;-1.450169;0.81075174;1.8625854;0.2612436;1.4306816;-1.6097009;-0.09366906;2.9931788;-0.09947263;-2.0959692;0.9999514;-4.599518;3.2745855;-1.1341395;-1.4250787;0.4468861;-0.33427608;0.23241974;1.7291461;0.52077675;0.39560488;0.5450637;-0.81765234;0.26684886;0.3539824;0.44281936;-0.26290494;-0.10297984;2.035695;-0.08535297;0.35189527;-0.7769102;-2.379356;-0.80640405;0.5019784;0.84020823;0.55609137;1.4378004;-0.53695947;-1.2587454;3.1957676;3.054073;-0.50708824;2.3310733;2.203397;1.4794453;-0.4152584;-3.239206;0.9323945;-2.2221143;1.8668395;0.6629133;-1.4473318;0.59502405;1.112214;2.431903;1.2714764;-2.007148;-0.31926054;-0.5546504;-1.9309007;-0.58084995;0.58051205;-1.2746233;-0.04507867;-0.11709887;1.7972999;0.64160115;-0.22980411;-0.14562316;2.0533276;-0.12139882;0.0663732;1.1574053;-1.042567;-0.1590137;1.3071193;-1.3582574;2.0104206;-0.47597986;0.40954563;-0.32950288;0.49353904;-0.4771895;1.7124199;1.7172086;1.1380467;-1.1982521;0.5745275;-0.6026704;0.13590378;0.029719327;0.80564934;-0.8152067;0.03550194;-1.1042074;-0.91563594;-0.029206023;0.78170854;1.0351707;-0.022251187;0.7294128;-0.26169315;-2.3830292;2.3621604;-1.179983;1.7262657;1.4105437;0.0011585552;0.5137622;-2.472263;1.0735723;-0.96322584;-0.75075614;-2.5629823;-0.37546328;-0.310126;-2.108887;-2.0682642;-0.8218118;-0.19280592;1.375496;0.591053;-0.3589935;-0.77377176;-2.8676581;-0.6605111;2.6849298;-0.83906573;0.19874182;-0.6926962;1.4047227;1.7234315;-1.0170674;-0.60268;-1.339217;-2.8825898;2.87173;1.3761266;-1.0138929;-3.7494404;0.004898149;0.926408;1.5865873;-4.211586;2.607455;2.948892;0.14293614;0.75572455;-1.8488221;1.8550335;-1.632141;2.982811;-0.35236007;-0.6323729;0.458235;-0.71824026;-2.2915578;-1.2425853;-1.4732023;-1.586766;-2.0191944;0.45729703;0.696046;1.0171462;-0.67993146;2.1858954;0.18992081;-0.39246547;-0.28894988;-1.842919;2.24488;-1.1608179;-0.47376183;2.9901998;0.7595044;-1.9046685;-1.3545082;-0.9721878;0.5641765;-0.54313123;-3.3072817;1.9144189;1.9243622;-0.31642938;2.7346716;-1.8034385;-1.7763995;1.3341811;-3.7238147;-0.41739732;0.9014972;0.6516823;1.5199354;3.0409822;-1.1723068;-2.307961;-2.335435;-2.1712954;0.9981011;-2.4787965;-0.36764726;0.5271875;-6.7188787;0.4784803;1.1861032;0.35323405;0.782424;-0.13625605;-2.3646178;3.1796436;-2.3697004;0.85823506;-0.8211286;0.045057397;1.5787102;0.6923219;-0.2979785;0.22873539;1.6483386;-0.9226132;0.46252757;0.18047993;-2.4348967;0.35613006;0.4820277;2.3902743;-0.6944405;-0.8699106;0.9628023;-0.33424333;0.09630811;0.8400421;-0.9855904;1.0988686;-2.1832585;-1.269782;0.7908516;-1.8292458;1.8406109;-0.008532576;0.020959431;1.3462262;-2.242759;-0.06843981;1.6760764;-1.3704455;0.83666664;0.61469907;-2.405104;1.966829;0.55891925;0.60327387;0.7244138;-1.0657966;0.45868477;-1.046691;0.5819534;-0.4766691
-0.27450177;3.5044935;0.3845582;0.9078407;-1.926919;-1.7611712;0.641277;-0.40195334;0.45156902;0.5508713;1.9051831;-0.31476405;-0.4896796;0.17567241;0.19893654;-0.6753525;1.8800226;-0.9540181;0.62201864;1.699198;-0.93130773;-0.1957093;1.4126743;0.8400021;0.32372704;1.2782042;-0.40682247;-1.0556725;2.1759958;-2.241744;-1.3477881;1.2332675;-1.2603915;2.601181;-1.2330444;1.0224226;-4.062879;-1.6106979;0.91797405;2.245297;1.9468452;-6.442821;-1.6685698;-0.16277763;-1.1623673;0.18164125;-0.44620654;-3.6129632;0.3485511;1.830713;-3.5417814;-2.163233;-1.5212661;-0.55389845;1.3992158;-0.4633994;0.24022587;-3.5426977;1.4614524;-0.3332227;0.07368316;0.92531425;2.080721;0.39956713;1.4765487;-0.1833132;-0.57827437;-0.19767438;-0.7879038;-1.86825;3.6104095;0.88747585;-1.2949498;1.4122068;0.1564688;-1.963701;0.7388907;1.2347927;1.6889939;0.326316;-0.5569211;-1.9809003;0.30512422;-1.2532462;0.16844879;0.8997581;-1.8855613;0.088248484;0.28836247;-2.6519203;-2.2127154;-1.7769355;1.6964703;1.0951358;-1.5790654;2.8746355;0.39000344;-0.7813481;-0.23017162;-0.12328647;-0.39381787;1.6387157;0.22762673;0.30567923;0.75510234;-1.2832162;3.5251505;-0.026146427;1.0898273;-0.9668587;-2.1271183;0.20454662;-1.9104036;1.1059704;-1.6679455;1.5535902;-2.3391;-0.42107558;1.1457896;0.48671448;-0.7317247;-0.79209095;0.3973322;-1.1547763;-0.9827103;-0.87975854;2.1782658;0.48904172;-0.50648314;0.7550942;0.30363512;-1.4905711;2.0070298;0.6850514;-3.104484;0.0014722992;0.6361299;0.8588333;-4.6563587;-0.559626;-2.2324376;-0.8784403;-1.0297481;-0.14996432;-1.0248145;-1.0263841;-1.5666605;0.6960529;-2.6133237;1.0854154;0.8094663;3.4958045;-1.1081556;-0.08837072;2.767591;1.9985889;-0.49629077;1.9648412;1.6861539;0.340243;-0.31973866;0.6596185;-2.2468014;1.5790777;1.0421112;-2.032538;-0.5846483;-0.7965642;0.7617885;3.0787573;-2.390974;-2.713516;2.5514884;0.8612159;-0.26777807;0.45886898;1.3551743;-0.85602725;-1.530886;0.62417775;-2.7853951;-0.98132694;0.31999728;0.6299946;0.22213832;-3.4574225;2.1886065;-0.68154204;-0.48757946;-1.1132225;-1.4904515;-0.6234795;0.6636724;0.06441634;1.038487;-0.35410655;-3.6528492;-0.915056;2.190631;-1.092667;1.8295316;2.793234;1.8299017;-0.20681158;0.16832173;1.6770554;-0.74255514;1.7819581;-2.710536;1.1178366;-0.14998545;1.0535918;-3.0408177;0.23342444;-0.54220307;-0.21071602;0.11610523;-2.9836626;0.40722075;1.1043816;0.9021104;3.1432493;-1.3824522;-3.714124;-2.2418046;-0.71246123;0.16562396;0.4039319;-1.7217352;3.1631794;1.8969954;0.16028395;2.927978;1.9195926;0.6814193;0.8142953;0.3323659;0.68960196;1.4015956;-0.7554726;-3.6020682;-1.8220716;-0.8785914;1.0509114;0.02566976;-1.2212089;0.9528531;0.4106681;-1.2340708;-0.2671355;0.21085693;-1.7535248;1.1215032;0.52055794;-0.54266596;3.68429;0.24924058;-0.34075087;-1.5737177;0.5103319;-1.089069;-1.5765013;0.9045043;0.059446428;1.323662;1.5040284;-0.39429307;0.33832207;-0.3952162;1.5446341;0.7913227;2.1916077;2.28986;0.14998096;2.717538;-1.1541775;1.3234402;0.6734022;1.3838031;2.0000799;-1.0464432;-0.6909365;1.1214428;0.9769278;3.185746;-1.2898208;-1.0027041;-0.19915538;-0.4504825;-0.9836744;1.5687311;-0.74103314;-2.2681825;-0.30705938;2.4545557;3.09237;-0.123482995;-4.9671726;0.47968975;-1.0359795;1.0135564;0.7673646;-0.88056266;0.21056923;-0.41511697;-2.058455;-2.4616537;0.78964424;0.9327999;-1.7797756;-1.7459106;0.38513047;0.14126448;-0.21683478;0.44632542;-0.89531016;-0.70868105;1.0913663;1.3107535;-1.2875812;0.50638086;-0.33576694;1.4012623;1.4055872;-0.8017954;-1.1147895;1.0794266;0.2886128;1.0665785;0.79807985;0.2659673;-2.8328352;0.30954832;0.33030772;0.34815207;-0.10319385;0.52151215;0.6259742;-1.2328845;0.7900756;-3.2358515;0.107753776;1.4669316;2.501701;-0.28070262;0.63349104;-2.2116249;0.81052774;0.17395157;1.3681949;-0.10878878;0.358333;2.7309191;-1.5905759;1.5260848;0.8912618;-1.5710437;3.5926635;2.5571513;-2.3003747;1.0466224;2.310293;-1.4074469;-2.9472182;-2.9720654;-2.877382;-2.8335469;2.9266205;0.73370296;1.1617032;0.81890285;-0.8507504;0.06602673;2.308141;-0.86211574;0.19944727;-1.0091301;-2.1980262;-0.13545363;0.9096787;-1.0248104;1.7944269;0.67234;-0.087821044;-0.8298607;-0.97013366;-0.74683267;0.72994906;-1.996501;-0.9705696;0.76556444;-2.9787078;-0.3661852;0.8210883;1.7217565;1.0690489;0.6239387;2.2642367;0.073912054;0.623584;-1.709894;1.2127819;0.27008897;-0.2636428;0.10793248;1.9318116;-1.4837781;1.0461802;-1.6606966;-2.5142455;0.2963007;-2.2019048;-0.7593769;-0.8451792;1.7125467;0.39872354;0.8768272;-1.3743823;-0.9648248;1.1236835;2.2114305;-0.66713303;-0.12329122;4.6432877;-0.6385508;-2.0482745;1.5919123;-2.847971;0.22824858;0.40302122;1.4210335;-0.7213747;-0.9965748;-0.8732502;-2.4410186;-1.748757;-0.111736745;-0.7979506;0.95477295;-1.0353266;0.8905058;-0.3567659;-1.6790649;-1.7146858;-2.2351954;1.3602961;0.4712518;2.0238216;-1.9772995;-0.81324595;-0.4765628;0.92150754;2.711026;-0.8431463;0.3800208;-0.2785553;2.9226236;0.36726487;1.4602084;3.8813233;2.2971027;0.60885143;0.8783605;-1.3578055;-0.6215531;0.5028067;-1.7794534;1.8771346;0.73716986;1.2281381;1.5198419;0.5204932;-0.40806735;0.17167766;-0.16249585;-2.2144575;2.0545788;-3.0708888;3.04022;0.5037624;-0.4772349;-1.0268579;-0.87326014;1.07103;1.9773611;-0.15518633;-0.5065117;-0.030842947;-1.3163186;-0.09326213;1.6936668;-1.5717021;0.48672512;-0.8451861;-0.60431457;-0.0230462;1.2670014;-0.25205427;-2.2273488;1.259624;4.0632143;2.4403148;0.60309577;-2.0471308;1.7943027;-0.7686398;-1.0889949;1.7660927;0.39433032;2.2803228;-2.4704442;0.6060243;-0.76355207;-1.8569573;-0.64028037;-0.36223274;0.2513983;-0.80795443;-0.2310063;-0.4115365;-1.6095417;0.107251845;0.63108253;1.0539571;0.889672;-0.4129107;-0.95223874;1.8064108;-0.082986295;0.3549617;0.23810045;-0.9347388;1.6492189;-1.2255845;0.34468973;-0.39423722;-1.7087694;2.0525546;0.2014197;2.1724937;-3.1227796;-0.6690986;-1.2476621;1.541918;1.3463871;-0.46706098;1.4103762;0.60059726;1.4899043;1.5221599;-0.5670901;-0.13754368;-1.8661579;-0.17413877;-0.12334522;-0.4095322;-0.29802328;-0.34407124;0.11132732;2.5349405;1.4630303;0.82215077;0.057157297;0.18624173;1.5033157;1.1438959;0.40131107;2.350202;1.6764666;1.3180588;-0.02156431;0.22625384;-3.1460125;-0.60379785;0.35369584;0.89980936
-0.1472224;-1.9601262;0.8685358;0.25926974;4.552781;-4.5166197;1.4042151;1.1766224;-1.3871772;-0.1731774;1.0952386;0.54615915;0.6237359;2.9951577;1.5026404;-1.2758117;-0.23223276;-0.62137824;-1.3219506;-0.07387334;-0.73646194;0.4205695;-1.4252996;-3.8117604;-0.4864866;-1.6663898;0.7457981;0.05648792;1.9618615;-3.0052135;2.027191;0.38416034;-2.7090716;4.004548;-0.7040944;1.0363234;-2.3137558;0.6394605;0.26732874;1.0684932;-0.4941488;-2.1365793;-2.4822662;1.2433095;-1.606679;-0.4965853;0.75065196;-0.47679764;-0.8022191;0.5031835;-1.5928193;-2.481791;-0.7091473;-1.4016714;-0.7022358;-0.7927517;-3.7138941;-0.93532294;-1.8405552;-1.7839764;0.15976277;1.7879939;-2.0791962;0.90244645;1.0471644;-2.4364681;0.82085943;0.7485141;-0.77556217;-0.27413517;2.2958791;-0.7314046;-0.16399467;3.623947;-1.5435635;-1.4171171;-0.9177655;-0.13671596;-2.2003157;2.6306248;0.4415165;-2.3180492;-1.3801196;1.9765915;-1.2954412;-0.3450663;-2.7102654;-0.06124496;-0.80495524;0.6410147;-0.9560955;-2.2776406;2.841894;-1.3664923;3.9035006;2.3442767;1.9752766;-1.56489;-1.6293947;0.91390514;-0.785209;-0.43492523;-0.098787434;-2.5876658;0.6054759;-0.09846444;1.5181236;-0.2942881;-1.4366398;0.24056831;0.14430346;-0.6052312;-1.3247645;1.5349776;-0.1812155;0.8425153;-0.25363386;-0.40612996;-0.7099866;-2.4178336;0.15892279;0.8827701;-0.25776994;0.2618618;-0.32446373;0.9956458;-1.0677325;2.5187473;2.1199908;0.2063461;1.9131469;-0.02291745;3.0170019;-0.364869;-2.2598274;-0.7556459;-1.3626688;1.1460017;-0.56208766;1.9194425;2.7009394;-1.2884108;-0.23822232;0.020843271;-1.0157299;2.9679754;0.5636354;2.483146;0.993003;-0.91780484;0.40574375;0.70391864;-1.3420011;-0.62291116;-0.21594742;-0.29829493;0.46147677;-1.7555994;-1.2413156;0.5209505;1.3373209;-0.16286615;-5.0673404;-0.30638286;0.20049945;-0.19129427;-2.4989989;-1.0017692;0.13207118;1.8604133;2.2620306;-0.7462306;1.7333546;0.15571322;-1.5256267;-0.005617659;-0.3273271;-2.6072018;0.36723104;3.0168283;-0.68564385;-3.9471915;1.6289668;-1.172733;0.33312342;-1.3654896;-1.8158249;0.96972966;-0.66408014;0.93938625;1.3647556;-1.0980227;1.7906075;-0.4684516;0.7943353;0.049428828;0.69538105;1.5103899;0.22948699;1.9671822;0.5039048;-3.7212887;-3.2163522;0.14970127;-4.289741;-2.415365;-0.78471065;1.4539937;-4.014851;1.1333907;1.8833836;3.0722654;-0.6011923;0.58374;2.7666326;-3.3463466;0.10574244;-0.5584024;-0.31350657;1.2390348;-1.3511155;3.2473571;-1.8548428;0.8178873;-1.5116074;1.1005056;-0.8286758;0.8797692;-2.4054396;-1.0760144;-0.8340102;-0.28283373;-2.1642394;-0.9227063;4.0323825;0.42159173;1.5676714;0.76879466;-0.3989987;0.54861;0.94436544;0.95586;-1.3110801;0.9019438;0.35191372;0.21656594;0.55609137;1.9209263;0.8867213;0.88547873;0.57635444;-1.2348624;-0.91917944;-2.943769;0.21161097;-0.77987933;1.4281847;-0.64410806;-1.1436931;1.7718613;0.2957833;0.7611318;0.5154702;-1.1475921;-1.1624577;0.42625687;1.71675;1.296538;2.3398569;0.2623104;0.8333382;-2.5186696;2.6777823;0.82351446;-0.77308446;-0.65392435;1.5629427;1.0184939;-1.4417124;-1.1964071;-0.56832784;-1.9131315;-0.5888667;0.50326097;-0.6165463;-0.527098;-1.3816582;-3.2349331;-0.1446978;-1.7904701;1.21855;-2.9755547;-1.8670973;0.5842218;-1.1814562;3.752055;-0.34910503;2.604767;-0.6807825;-1.8988883;1.6749142;0.34343615;-0.7625489;-0.7432868;1.8958029;0.11756252;1.5637441;-3.529634;-0.54036254;-1.3710082;-0.6128398;-0.7319967;-3.0714421;-1.7217151;1.0708038;-1.1584724;0.31424218;2.5122318;2.1118245;0.9615681;0.8388641;-1.0449717;-0.061097134;-0.7363086;0.27631998;-5.355497;-1.4189515;1.3855094;-1.2804483;2.529661;-2.8903008;-0.96537095;-0.13976175;-0.3263003;-1.49273;1.0629922;0.79764646;-1.9330215;-1.2706907;-0.16916125;0.5051368;-2.0937202;-1.4605072;0.19591886;-0.5129244;2.0752037;1.7942128;0.83853203;1.1928892;3.5294688;-0.81007636;-0.40076986;0.037773818;-0.19838977;1.2859397;-2.7262776;-2.0220768;1.1123898;1.8746984;-2.2247133;0.6563233;4.96071;-0.2927578;-0.19662033;-1.7596036;-1.7662779;-1.0304217;2.025474;-1.9737395;-6.2660456;-0.58020574;-0.95374477;-1.1315132;2.4061794;-3.1814187;1.3581957;2.1202497;0.8327992;0.34815997;1.2632923;0.93097544;1.2896675;1.1446954;1.2942792;2.4925842;-3.286356;0.33587664;-0.8994082;0.9068014;-2.0068574;0.10071059;-0.23088661;0.4517918;1.2041161;2.5187585;0.42005548;-0.695451;1.0918761;-0.11299868;1.414393;0.53678346;0.5997478;-0.03447064;0.58068997;-0.8757546;-0.6643123;-1.034811;-0.10596145;-1.400685;2.6922364;-1.602764;2.2623887;1.8768064;-1.3282287;2.06381;1.0407791;0.7836323;3.7532022;0.1402456;-0.24451008;3.057568;-0.3745191;-1.2990931;0.26277024;0.38856366;-0.13680378;-2.5274618;-2.2671835;0.38268274;-0.22915226;-0.6985192;0.124029465;1.1845495;-0.40426537;-0.6408606;2.7149932;0.64520067;-1.8290861;-1.1613023;-1.4186077;1.6423926;0.42971754;-1.6075789;0.4680397;-0.037143428;0.36486158;0.5806285;-5.986261;-1.8873782;-0.12758707;0.37386397;-2.9196858;1.0667442;-0.14118384;0.73625916;-0.022407016;-2.0412793;0.4420611;1.177701;0.57708097;0.007211538;0.17405681;1.0893893;2.5887802;-1.5443221;0.9198743;-0.1672632;-0.14807768;0.2382422;2.3350809;0.45975447;1.2776161;0.6520604;1.6667924;-0.084708974;-3.779053;-0.19793035;-1.3617274;-0.5255238;0.09512902;1.3556271;-0.5240377;-1.5765088;1.3309892;-0.30043972;-2.1334093;-1.7867408;0.22156951;1.8789278;3.016761;1.7775569;0.33604127;0.44150025;0.81103104;0.64860314;0.9503918;-1.399702;-0.95622104;-3.4036763;2.1133204;1.611624;1.2251126;-0.5333739;-2.5620227;-0.670797;-0.9862708;2.4326534;0.7447654;-1.2131094;0.6550335;0.79958594;-0.24779503;-2.2952352;1.5502659;-1.9835064;-0.6603894;0.8019275;-3.2773635;-0.5650044;-0.21090057;-1.5775031;4.6828914;-2.8000176;0.37949443;0.6843925;0.18683235;3.0699754;-0.25253892;0.8445719;-0.7359647;-1.032977;-0.12727076;0.2845541;1.4543489;0.78889894;0.75244015;-0.9630071;0.5680027;2.5953734;2.8461719;-0.3302374;-2.2643583;-3.6595979;2.6132236;1.0354289;-3.966729;-0.8498791;3.1884515;-2.0242932;0.4257518;-2.0872214;-0.16906697;1.8270406;3.836233;0.041037895;-0.64772236;0.8324208;-0.19379105;1.3325893;2.008722;-1.2438916;0.5534749;-0.14844576;0.28094912;2.516896;0.9661404;-0.4169054;-1.0660541;-0.10606969;-0.12462055;0.00829355;1.4041766;0.97049135;0.21195258;0.7496307;0.4381778
0.24827044;-5.201313;0.5649405;0.9217252;0.036511388;0.81271595;1.2200742;-0.10111106;-0.69677967;1.8317715;0.15822455;-0.76041806;-2.36027;0.7060215;0.23065431;-0.70502007;0.4691153;-1.1966747;1.8293861;-0.97928613;2.0029848;-0.43750638;-0.18956816;-2.0906441;0.8289778;1.7821434;0.49235424;0.19634151;0.60271686;1.1711594;1.9530797;-0.44492456;-0.06268338;1.7198489;-1.7009526;-0.7230396;-0.11591319;1.1330823;0.0670638;2.381702;-0.7895501;-2.0425963;-1.1735473;-1.2600085;-3.8604321;0.76120424;-4.126484;-0.6217986;0.49370876;1.2202902;-0.26958072;1.0690668;0.17975499;-1.2131529;2.1583118;3.142569;-2.4381256;0.037811574;-1.5567681;-0.06239026;-0.0917649;2.4269907;-1.104488;0.62529325;1.7388308;-0.8648163;0.15086667;-1.3501203;-3.4302914;-0.5466622;0.5569557;0.81884205;-1.2575028;0.45952317;-1.2201421;-1.4998102;-0.45712745;-0.26063508;-3.1777303;-0.22959742;-0.102977775;-3.3565547;-1.6598498;2.4334273;0.69246626;-0.48337787;2.0799458;0.98902184;0.5508984;0.34287992;-1.6821355;-2.794601;-1.3304435;1.5312394;-0.19592078;0.37381974;-0.6346832;-0.4186022;0.30202723;-0.28579456;-0.0016458394;-0.33240083;-1.808553;-2.380275;-0.4425096;-1.8668274;-1.0417831;-2.42173;0.5132696;0.13536139;-1.1582315;3.5097647;1.6603193;2.736226;-0.21000586;-1.5611888;-0.48292518;-1.4441198;-2.2188323;-2.2888405;-0.51070327;-0.4213776;-0.37960958;-0.55046046;-0.046793003;-0.39097828;-2.371559;0.6753448;1.7709202;-0.48464274;0.60977024;-0.108069055;2.1084154;0.95651543;-3.2785363;-0.8508868;-0.36350718;-1.4411651;-1.5948781;-0.91343874;0.9078574;2.8389688;0.12150769;1.9855704;0.054859366;-0.28746948;0.35015446;-1.298657;-3.2136168;-0.46369833;-1.2824118;0.4083787;-1.5777783;1.3247955;-1.8423228;0.4952972;-2.2026677;0.8732522;0.019848524;2.1111224;-1.712341;-0.07502071;-5.3696012;1.9033355;0.8883261;-2.2390337;0.50570965;2.0861082;0.8530368;1.5160804;0.26041803;-0.54131675;-1.7702587;-0.6090532;-0.7932491;0.17149785;1.4853565;-1.225912;-1.2972668;-2.946415;-1.1307634;-2.3761704;0.5417008;0.6969595;0.7093317;1.3114591;1.5109673;1.1018144;-1.111118;0.15850699;0.097733214;-0.6011029;-0.97876537;0.1415726;-0.037696633;-0.6698349;-1.6517613;0.33039135;2.3454967;0.15675622;0.66464835;-3.1751056;-1.4659998;1.579264;-1.1629965;0.012224924;2.842214;0.169296;-1.3196863;-0.16755003;0.2941765;0.19869033;-2.3726401;0.012679571;0.86525655;-0.9433086;0.2770862;-3.071681;2.100526;0.5374583;1.4402877;-0.12507704;-2.5076144;2.062566;-1.0541885;-0.39498267;-0.9403516;-2.8379095;0.51478267;1.3052044;-0.84174466;-0.74302095;1.6516587;-0.67090666;-0.45905727;0.62262154;1.7663206;-0.4301456;-0.4998145;0.796692;0.6963951;1.8924267;-0.9179165;1.8203013;-0.61054957;1.3818712;-0.6638318;-1.6903584;1.7429186;0.28459898;1.1876493;-2.3426273;-3.019939;0.8420759;3.5731509;0.34514573;-2.165505;1.3821176;1.3872802;-0.11231772;4.7304487;-0.08579511;-2.6023157;0.036934208;-2.146658;-3.2353122;0.12679857;0.3222212;0.58542246;2.8115807;0.058021273;-0.8321727;-1.1182449;0.49422184;2.3817165;-2.2311587;4.7436595;-0.7170073;-3.6001;0.43642017;-0.090859994;-1.7965055;-0.6316468;0.03026508;0.8354486;0.58570033;-1.487609;-0.7352021;-0.21604146;-0.45324805;0.7938862;-2.8133478;-0.65287495;0.65650684;-2.639867;0.8326204;-1.0022665;-0.45932838;-0.28476462;-1.2451183;-0.26888865;0.14771791;-0.662066;-1.5815175;0.2589958;1.1553183;-0.12739809;-2.4972365;-1.0329041;-0.96574897;-2.3547814;2.486932;0.94988745;-2.5265796;-2.8001716;2.774298;-0.9332051;1.1854607;-0.29324067;1.2287778;0.5203541;-0.19132128;0.27457088;-0.2433256;-1.0469456;2.2896094;1.2617062;-1.4166727;-2.981577;3.3615367;2.7048597;0.38140815;-0.37297884;1.312039;0.44392267;-0.39252958;0.8731839;2.3445756;-0.368016;-0.018016621;0.20547777;0.26372617;0.3432097;1.0804082;0.54778725;0.98850024;-0.01994343;0.15467218;0.30987874;1.8500142;-0.13293481;-0.8164704;-2.1772547;0.24180526;0.73881793;-3.3077264;-2.540267;-0.29156986;-1.7488942;-2.5153913;-0.12101701;1.2237723;1.3305689;-0.7225783;1.4396942;0.4032977;2.072787;0.25114074;-0.9340398;-1.6301123;0.32681674;0.82488596;-0.76254255;0.28069818;1.2390826;2.1560192;-1.0712311;-1.8820993;1.6853817;1.9324616;-0.17879963;0.2822749;-0.5888618;1.2584488;0.91582465;-2.2623734;-0.23280686;0.99835867;-0.19286874;1.3605757;2.3653128;0.59152746;-0.15046524;0.87468004;1.0713193;-1.8211372;1.3438495;2.0832562;0.5626635;0.15581328;1.5267788;0.16754517;0.4727443;0.48591858;-1.4787242;-1.2173935;-0.5433585;-0.3937295;-0.93319184;2.4328082;-0.27881977;0.80106324;0.80974835;0.46367106;1.2010468;-1.426539;-0.064659335;2.8583496;2.4297483;-0.7773756;0.5991936;-0.47945252;-1.9916767;-2.6593952;0.22159304;-0.6141043;0.64318997;-0.88336307;1.0696796;1.5940578;-1.8901023;2.63955;0.86218685;0.007048965;-0.9096776;2.4812737;0.6873466;-0.39219445;0.30071872;-1.1608961;-0.21419436;-0.14697926;0.54241186;-1.1628858;1.3906012;0.7872236;-0.16400006;-4.3904443;-0.28693473;-1.1835555;0.022720622;-1.4813739;1.2096835;1.9966537;0.69752234;0.5916117;0.8357753;-0.52354455;1.3435869;0.34128225;2.160851;0.74714434;1.0895258;2.3456564;-0.20246243;0.72164726;-2.8931427;-1.8785776;1.5178142;2.3437219;0.39115676;-1.3063173;1.5992314;3.4331057;0.23929875;-0.95117176;-2.5555155;0.024754822;0.72468853;-0.92180616;1.7016066;-1.5345519;-3.0058968;2.9305594;2.7009065;-2.3523836;0.9285921;-1.0485498;-1.571985;0.51386976;-0.037227776;0.8515859;0.27535212;0.069364734;0.38143733;1.1703655;-0.8600174;1.6425409;-2.5223444;0.5857976;1.8213502;-1.6960887;-4.748224;-1.4899389;-0.04258917;-0.1714348;-0.3716272;-0.06775978;-2.9040108;-0.07300867;2.7912848;-2.517466;-0.47886562;2.181937;-1.1167908;-0.28942183;0.97790706;-2.643487;-0.39492765;1.0926293;0.21345736;0.81068945;2.7146878;2.5822268;-0.7674604;0.33261585;0.2169989;-3.4880214;-0.2732047;-1.4930073;-1.1245601;-0.7197963;-0.87525773;0.28769213;0.46018836;0.9501559;-0.048330195;0.77920836;1.4132131;-1.3851559;4.7341876;-0.62311155;-0.23621531;3.9469097;-0.41978392;-3.3127651;0.41124126;-0.93968326;-2.0614994;2.0509794;-2.3922243;2.9744887;0.70088935;0.66360927;-0.52911615;-0.8892925;-0.8651848;0.7161513;2.682366;1.5828608;-0.96450603;1.3756936;0.093228795;-0.93065363;-0.9643956;-0.95012987;0.90004843;-0.60113;-0.02113377;0.5510509;0.11241472;0.5473135;3.977782;-0.15748778;0.007962275;-2.228559
3.4218426;-0.5481123;-2.1556199;3.2945788;-0.17131601;1.3337876;-1.6402158;-0.5960482;-2.091688;1.499798;1.0646077;-2.0537255;-0.16740228;-1.5439026;2.1275806;-1.1134433;0.4770329;1.486282;2.0945652;0.6447912;-3.1381745;-1.4847611;0.76620466;0.84115714;-0.5416825;0.810403;0.43180662;-0.26856962;1.6746578;-0.08673923;-0.20751959;0.22415197;0.84058124;-1.5128238;-1.3415309;1.6307677;-0.69990677;-0.031093817;0.46586832;0.654288;-0.7495696;-3.347465;-1.1102883;-0.90579146;-3.227118;-3.7533147;-5.7398896;-0.82128596;1.6519061;1.1564028;2.8004925;-0.116542205;-2.627687;0.64423466;1.8108163;1.0690168;-0.9488737;-0.94603074;-1.4219893;-0.9787746;0.2098012;1.502988;-0.81394106;0.047660314;2.0404615;0.41401497;-1.4360482;-3.6714826;-1.5091609;-2.07972;-0.07195649;2.074605;0.129459;2.8407705;-1.7989506;-1.2169324;-2.3555484;0.28525615;0.2647063;-0.96454114;-1.2049128;0.5872364;-2.4521983;1.3034983;-0.034267392;-0.085085444;0.22953087;-1.1023647;-0.7357439;-0.83477384;-1.9578472;-0.73457223;1.2122295;-1.1575568;-2.2381744;-0.33878475;-2.0524666;-0.48679587;-0.31919906;-0.11909487;-1.4573295;-1.509119;0.9358589;-0.14836515;-1.3975796;1.5497665;-0.4898759;-0.014448664;1.4732232;0.43567467;-0.30286488;1.1964238;1.7757653;-1.4732087;-1.5800384;0.11996904;0.3755621;-2.46113;0.36062837;-0.12648188;-1.7694758;0.1150967;-0.2539476;2.1789467;-1.728048;2.447601;-0.21906294;0.85743946;1.5168303;-1.4384413;1.5494736;-1.0401132;-0.7930961;-1.338724;-2.9172518;-0.30741352;-3.8208103;2.4622247;1.2731961;-1.0848205;1.5288948;3.379896;-0.7834834;1.7722555;1.6692975;-1.1785994;-0.5072438;-1.7146915;-0.2719419;-0.8118691;-2.0629427;2.1720438;-2.0860245;-0.051503573;3.3113;0.7931903;0.4812767;-1.2732958;2.7188709;0.39008626;-0.4498396;-0.043331295;-5.497517;0.5503635;0.59641814;-0.8302663;2.3010726;1.2606354;-0.13617058;3.058673;0.54676026;1.7857997;-0.6403303;-0.70310944;0.029487982;0.13592774;-1.190632;-1.0484775;0.83895355;1.7556609;-1.4935498;-2.044433;-2.6294808;1.3105316;0.71521777;-0.6117333;-0.3107986;0.41452968;1.757612;1.9601941;-1.6830943;-0.3219116;1.1288534;-0.68044776;-0.066435836;-1.8555279;-0.83564556;0.464466;0.8949261;1.186317;0.9616008;0.031492956;-5.502633;-1.5302927;0.48993605;0.7373721;2.2222805;0.28228793;-2.3418124;-0.4979862;-1.4294833;1.1550523;-2.5831606;1.3242095;-0.21874267;1.5633854;-1.0513042;-1.319837;-0.12638977;-0.07785669;-0.9967973;0.21531695;-2.9294124;-3.585624;-1.0874826;-1.6928093;-1.539996;0.97651905;1.2360823;3.4559383;1.0825189;-1.2137007;2.0366974;-1.1355451;1.9240599;0.2956382;1.4771576;-1.7671995;-0.9728897;-1.6491638;3.1473198;1.2910401;0.69807893;2.6348143;1.7983756;-1.7781745;-0.00036591367;0.12064234;-0.32237124;0.52753717;1.3222805;-2.9619002;-2.3152926;0.32194394;0.23849976;1.5284295;-0.5165481;3.4970052;0.41633582;-2.8016057;0.9339821;1.7595936;1.3507533;-1.6487591;0.77104604;0.1455463;-1.1713573;0.27375588;2.5450518;0.5864891;0.16714758;0.37524807;3.3736284;0.3970047;-0.481979;-1.5608913;1.6117553;2.0457344;-0.64850926;0.96143764;-0.45583504;0.43183577;-1.646069;1.7040629;0.36796287;0.8620153;-0.0656544;-0.13477905;0.17689276;-0.60827416;-0.26314673;-2.7323887;0.9390836;-0.013838142;0.13059697;0.64615023;-0.13937517;-1.3912402;-0.9518089;1.2668264;-1.1402694;0.42691246;-0.525407;-0.58243674;0.16836885;-1.0037072;2.992811;-0.7209652;0.82748055;1.3091898;-0.87354594;0.7048104;-2.275722;0.5180298;1.198097;-1.929723;1.1698767;-1.2605062;0.73988456;1.0486358;0.49199677;-3.3996289;-0.704015;-0.90232396;3.0949297;-0.26464626;2.0002267;1.6755472;-1.7205927;0.7832425;-1.9112556;1.0596831;1.9807844;1.576517;-1.6956558;0.8424661;0.01613421;-1.4337282;0.9613486;-0.33882657;-0.5289736;1.0942369;0.9142863;1.0295573;-0.1694232;0.78351825;-1.4852401;0.97002697;0.066669375;1.710722;-0.9161186;-0.48668674;2.340883;0.2453528;0.93393975;-2.7927094;-1.8591293;1.4064548;0.5120277;0.41080633;0.13173714;2.3150837;0.4332258;0.027080934;-0.11768268;-4.170752;-1.073361;-3.2144666;1.6181121;1.497738;-0.013641069;0.3943143;-1.5664624;1.0846266;2.37433;0.7071614;0.8829285;-2.0879028;-0.051079538;-0.69295543;-0.7799551;0.86758035;-2.8330612;-0.95106715;-0.8383407;-5.133968;-1.3701024;-1.0887433;-2.022496;-2.3837035;0.57837;0.39635783;-1.45541;0.7971758;1.9398482;-1.9306306;0.90406626;0.8083087;-0.38231686;-0.27365375;1.035823;-2.1763422;-0.14931662;0.33725175;-0.6832549;-3.7127736;0.6821358;0.6757847;0.6323136;-2.0387332;-0.73577666;-0.0018394812;-0.363792;1.1522937;0.5275466;-0.27614284;0.27476478;0.48346812;-1.4950674;0.42036688;-1.6792636;-2.1443498;2.0081406;2.126347;-0.17161794;1.3376211;-0.0067731966;-1.8365691;1.9782108;-2.8341138;-1.4934539;-2.7037919;1.1053368;-0.5607095;-3.2610385;0.2774677;-0.7793291;-1.0794024;2.4485853;0.38416293;1.0308287;1.0391878;-1.613341;-1.5067036;-0.203782;-0.35479894;0.73783565;-0.87026024;0.2669583;2.2738051;-0.12843072;-1.6812525;1.4375361;-2.7754874;-1.0112638;1.0401795;1.0652435;-3.332718;-1.8492818;-1.9342717;0.5618132;1.3528115;-0.21884413;-1.1350446;-0.7158548;0.4576951;-1.4570346;0.016685618;1.062351;1.2920747;-0.5947335;0.048135124;-1.1820371;-1.0899526;0.6938967;-2.5689394;0.0057655266;-0.46357584;0.4424243;0.47233662;0.18801014;2.8037722;-2.940516;0.31931543;1.3704381;-0.34246746;-0.28302255;-1.6736805;0.73629934;0.9611058;-0.6919325;0.72738284;-0.9440498;0.004931804;2.1649635;-2.5592275;-0.66562545;-1.1367447;1.8035535;-0.91840595;0.69255084;0.39397368;0.2737474;2.0764751;-1.785885;0.689232;-0.1951988;-1.6386452;0.3887974;1.0404559;-0.20662914;0.25892195;-0.61818635;0.11940042;2.4943545;2.9474587;2.2970147;-0.887824;-0.21569808;-2.8157697;-1.2550322;1.3572674;1.18737;-0.28774643;1.9103508;0.23448679;-2.9007401;-1.1080438;-0.5274822;-0.20367628;-1.2254378;-1.943841;0.016796332;0.25830886;0.959585;0.5920028;-0.12938277;0.92828864;4.01846;1.3742554;1.3463998;0.846042;0.6721396;1.6930413;0.8989777;-1.40349;0.47659624;-0.54746234;-4.6620235;1.3571382;0.014409181;-0.34014714;0.4605179;-0.31579772;-0.76046264;0.5501365;-0.592533;-0.6040791;-0.06288028;1.6901155;0.004235119;-0.8971018;-0.7670727;0.5244506;1.931454;0.5724662;0.91839993;1.2595011;-0.38645628;0.8201661;0.9449257;-0.13330661;0.98519015;-1.8913674;-1.5025935;0.14107582
0.11967817;-3.3653364;0.4096119;-2.9480546;-0.74961597;-1.6628028;-0.24550319;-0.57788914;0.63196135;2.1665483;-0.46202183;0.31221294;0.28539735;-2.7003903;3.0535147;-0.6838733;-0.30369538;2.2287438;1.3849066;-2.5991895;3.932964;-0.42096236;-4.102516;0.9165779;-1.3910359;-0.96760607;0.22449392;1.8905014;-0.41252825;0.89608765;1.1055354;-1.2042863;-0.22475302;0.22396469;-0.6703058;1.6574883;-1.3566382;2.6569312;0.44398698;-0.9337373;-2.6048107;-5.572301;-0.74381447;-3.148389;-1.5193274;-2.7734954;-2.2754068;1.152467;-0.59951776;-1.8900546;0.53559786;0.8367281;-1.1151015;1.4504768;0.17798842;2.3281572;-3.0426643;0.1763728;-0.30778828;0.24015163;-0.017041774;0.9663929;-1.7175497;-0.16367194;-1.540714;0.6548504;-0.16131628;-0.45631737;-1.0557382;-0.76055646;0.10026128;0.18197678;-1.0499889;-0.5041619;-2.3561168;-1.3749002;-0.8262687;-1.3795114;-0.70228356;1.4608076;-1.2942181;-0.86287993;-0.9924538;2.595264;-1.0610329;-0.33877164;0.5961884;0.8993284;-0.45646393;-2.4248912;-3.0330737;-1.1803529;1.4014887;-0.2544242;-1.1509236;-1.5728377;-2.4068983;0.5632603;0.09743936;-1.3440719;1.1932592;-4.62881;-4.567216;0.7721542;0.6978833;-0.41799867;-0.6887558;-1.0102478;-0.052968856;1.8609331;0.5844744;-0.18391949;-3.093163;-1.0814567;1.3099381;-0.74693274;-1.8035206;0.0037974252;-1.1267698;1.0686249;2.2251894;-0.1699582;1.0382901;-1.359785;-2.8397908;0.32667354;0.3013596;0.06757951;0.46498352;-0.5545711;-1.727708;0.06510938;-1.3478092;-2.4259167;-0.64936805;-0.23605843;-2.241405;-2.6942313;1.1473138;-0.5327272;0.6073024;-0.44616756;0.4400212;1.3105274;0.21792614;-0.52117145;-3.3879898;-1.9253488;0.92230374;-1.171146;-2.3321924;0.75847495;-0.19055042;0.047473416;1.9286408;-0.8156824;2.4273658;0.6586902;-2.905975;0.5533327;-0.6853632;2.0407302;-9.919208;0.09907333;-0.8812967;-0.41801986;1.34834;0.035956923;-1.2242042;2.37461;0.6658606;-0.9018862;0.033197995;-1.5117799;1.8990858;0.104256496;-2.6668115;-2.2461572;-1.3471496;0.4498889;0.1836786;-2.001518;-0.5432877;0.24576901;-0.61454755;1.2403852;-0.42907038;0.72191805;2.7647052;-1.2873348;-1.1382148;-0.19132988;1.6436185;0.43573323;1.5289707;2.0546174;-0.3944338;-1.0991507;0.99919844;-2.2395716;2.2477105;-0.07847547;-0.24714017;-3.0778973;1.8910521;-1.9385136;1.8707935;-1.2004749;-4.120297;1.6802402;-0.24256802;0.72944415;-0.6879145;1.3294338;0.050136242;-1.2220801;-1.6169974;-1.0817047;0.25186443;3.309894;1.2699844;-0.39464474;-4.358494;-1.7620056;-2.3281267;-2.0690777;-0.5528238;-1.3061724;0.9532704;-3.0605383;0.37526587;-1.052467;-0.6060731;-2.1571183;0.30733448;0.23481523;-2.165563;1.242025;-0.9755421;-0.5235272;2.675116;0.33224842;-1.4938356;-0.4871699;2.0350046;0.89442265;-3.2090087;0.16049255;0.14671531;-0.71805143;0.17561665;-2.7915154;0.76362526;1.9513445;-1.1243589;3.3128006;-2.5995977;1.7044818;-0.29130015;-0.28038746;2.2929544;-1.8790706;-0.83760786;-1.3884684;1.0619193;-1.942469;-1.6305133;1.4567609;2.168184;0.23154439;-0.58568186;-0.6458317;-1.0109074;-0.17145564;-0.9069531;-2.378658;1.9976785;1.2974684;-3.3365483;0.46292377;-1.7835256;-1.4572729;-0.4459654;0.6318529;-0.23714115;0.51199645;0.95636415;-0.79442346;1.1522481;0.24282712;0.35494027;0.1713977;-0.67498136;-2.0229228;-0.9575241;1.8550552;-0.68400234;0.38599816;-1.2593942;-2.0687296;1.0537583;0.10644189;-1.3198284;-0.31386524;1.0552931;0.9966729;3.839026;-0.82089573;0.09019417;-0.3613902;-1.0634389;0.01757342;-3.2055628;0.97658604;-0.9515778;-0.036897775;1.2705166;-0.3982394;-0.745956;0.7212584;1.0195764;0.11585672;-1.8688383;0.24311057;1.7668046;-0.49185723;2.1452856;0.11248349;-3.8967056;1.6528031;3.2850034;-0.07144933;-2.352099;0.52792585;-1.579382;-0.72906506;0.9442601;1.9523677;-0.2534763;1.3529824;2.3232486;-1.5742863;-0.24302556;2.0329635;-0.3920867;-0.7870671;0.0342041;0.27344123;1.2961262;-0.4235017;0.92391235;-0.27142704;0.030432938;-0.08692365;1.8292198;-0.5733754;-0.77628934;-2.0778377;1.4752938;-0.39140007;0.23336068;-2.2095487;-3.2814078;1.6697602;0.67714274;-1.0516299;-1.3481667;0.596935;0.7363223;-3.1008983;-0.5015351;1.7162858;0.60957366;0.13824226;0.025751784;3.2181308;1.749395;-2.4029653;2.2273333;0.17663483;2.5281408;-0.039561514;-1.3277098;0.8606284;-2.024536;0.80915076;-1.2313279;-0.80214727;0.1695955;-0.31713393;-1.2961956;0.4454744;-1.1195015;-0.69967484;1.5454092;0.10741318;1.2444723;0.28330714;-0.31865123;-2.1009755;0.15027095;-1.0193757;-1.043719;0.73776114;-1.7261146;-3.5179398;2.7364404;-0.74750125;-1.2979814;1.3237172;-1.6427814;-1.4888766;0.46726868;0.58388436;-0.6150095;0.34232506;0.36481822;-0.32745653;-0.42306438;-3.2930171;1.0136395;-0.028202811;1.4424266;2.6695025;0.26549703;0.9792571;-3.7306218;0.46774298;-2.110749;-0.45169902;-0.5433336;-1.9906497;0.21172199;-0.30520126;1.1846675;0.13401744;-2.0492294;-2.1240327;4.933335;-0.4779801;-0.85995835;1.8119553;-2.9597073;-1.6168362;1.5160224;0.66061765;1.469323;2.4968958;0.22786672;1.6049773;1.1004913;-1.257735;-0.00019089048;-0.7493122;-2.7740629;-0.23222785;-0.981639;0.33091596;-1.4168545;-1.2275095;0.7044214;-0.024032883;-0.321093;-0.4185921;-0.26565605;0.65617985;-2.3867369;2.2812474;0.50853896;0.7749175;0.064929426;0.5086588;0.119774655;0.120628454;1.7858342;-0.37104398;-3.2692025;0.923456;1.6469322;1.3642024;1.455124;1.3629873;-4.7700734;2.2996392;-0.7021231;0.3891392;1.2315906;-0.65047973;0.20645627;1.5119566;-3.2059271;-3.0942085;-0.06344387;2.658257;-0.021848518;1.2991242;-0.0635442;-1.0171019;3.1862652;0.34988058;-0.7009915;0.64703953;0.9937317;1.9370482;-5.217538;0.3217722;-2.1294272;-1.9478986;-0.7131252;0.61288;1.3676866;0.39088964;-1.790305;-0.23784828;1.9567634;1.6734512;2.9085703;-0.6734949;-1.141995;-0.20116627;0.24492054;0.059496053;-0.19504483;-0.114347056;1.3683349;1.0265003;-2.4164455;0.62184036;-1.6762835;0.40804368;-0.003451697;-4.2714777;0.6324618;0.43224332;-0.31465435;0.97016037;1.048246;-0.15773652;1.4803661;-0.017118115;0.20376262;0.04872773;-0.9713886;1.8490047;-0.37106693;2.3262923;-0.21480237;2.1576743;-0.81560034;-0.92676747;-0.44732854;0.08442736;0.54708564;1.167493;-2.5799277;1.9643489;1.7340385;0.97305393;-0.16636206;0.11294363;-0.9528689;-1.2109575;0.6464303;2.278031;0.9644142;0.6683289;0.20164582;-0.93339163;-0.72275305;2.262139;-1.0257211;2.6347353;2.1536775;-0.27894428;0.5207023;2.585085
0.9308875;-0.54840976;-0.28742495;1.8926303;-3.0971851;-0.3224701;0.21743022;-1.2645415;-0.6027172;-0.47817084;0.5465714;-0.38092953;-0.4896079;-1.4947401;-1.1576624;0.39327636;1.3472898;-0.7958223;-0.8444579;1.2473992;-2.1900854;-0.5775396;-2.931565;1.2634542;0.28040212;-2.1844375;-1.3041838;0.7608816;1.7619796;-1.1633933;-0.8722579;0.21399052;-0.5848329;2.0812626;-0.38529772;1.6179473;0.08519674;0.9553742;-2.995696;-0.6164489;-4.758031;-1.8943865;-0.50828135;-0.29548827;-1.8615024;2.4821417;-0.8586221;0.5446701;-0.594842;-0.50628656;0.02449259;-0.8661705;-0.7110832;0.25770527;1.6416067;-4.551756;0.7353056;0.3119215;0.4008749;-0.1972281;-0.03258438;1.259615;-0.7486989;-0.13262434;-0.58927846;-3.0219388;0.94935334;-1.5558075;-1.9543667;-0.817146;1.3410233;-1.2392939;1.0246737;0.6503408;-1.9196867;-1.6714417;1.865351;-2.0330741;-2.612666;-0.12754017;0.82401544;-2.9479284;2.5452735;1.0244803;-0.20171379;0.9380791;0.33893973;0.21669933;-3.4945762;-3.252564;-0.300814;2.1838999;-1.3746787;0.5468346;1.0683427;-0.23818943;-0.14525536;3.5707278;-1.0683111;-0.9572603;-1.4216797;-1.2748866;-0.88161427;0.15772235;-2.380159;3.7845051;0.19789673;0.6379862;2.844948;0.43917784;1.3123348;1.5267533;-0.18263443;0.5695006;-2.4001648;-0.10881722;-1.2463583;-1.963301;-1.0465751;-2.132301;2.8072004;-2.3439572;-0.81850237;-5.1864977;0.9462581;0.6213462;1.2563431;2.8801486;0.24984027;1.6323063;2.6607437;-1.4090997;-0.4880041;-0.4867113;-0.34855512;0.44340464;1.2927228;0.5760512;-1.3413873;-1.6769316;-4.1254334;-1.4329845;0.5955282;-0.4353008;0.6468929;0.44459504;-2.933369;1.8628268;-0.7082333;0.3138137;0.20520552;-3.2315562;-0.45363477;1.7321413;2.0288792;-0.30169547;0.2784893;0.2392633;2.420817;2.6076493;-0.74553025;0.7449631;-10.232586;-0.9813982;-1.1521394;-0.13057126;2.2649305;1.8649256;0.34297678;1.8516785;1.5928407;2.010471;-1.8408365;-0.48084438;1.4172143;-1.0896083;0.53422266;3.5789256;-0.27330324;-2.4243152;0.73871565;0.6411931;-2.0324948;-0.16964896;-1.8065698;1.668018;2.4060369;-2.4245965;0.42514625;1.738911;0.17738307;-0.7511289;1.0052062;0.31566003;-3.152419;1.1828098;-0.76091045;-1.8820459;-0.0058453726;-1.7583824;3.1245008;1.9915583;-1.2640728;-1.3369612;-0.4950155;0.33808345;-0.17113625;1.372947;-1.1464146;-0.441412;0.64063257;-1.4827073;-1.8932558;-1.1960783;-2.3799162;-1.1384641;1.9349828;-0.7495134;2.937972;1.4696032;-0.74586844;-0.26460415;1.7933401;-3.5077026;-1.2020956;0.48293698;-1.5727111;0.7043949;0.0990641;-2.9165387;0.33106017;0.081151426;3.706387;-0.0012838756;-0.46594942;-0.21725482;-1.0651008;0.9891091;0.09339769;-1.4310265;-0.11667296;-2.2515543;-0.49522358;0.2873317;-0.8920384;-0.9634127;-0.57463855;-1.2300557;3.834528;-0.30330822;-0.47556686;-0.5597878;-0.7177889;0.27483878;-0.7360915;-0.5795623;0.91450256;-0.36654803;-2.074976;-1.7597302;2.5140274;1.7802411;-1.6259563;-1.2220278;0.025321394;-3.3556569;1.9686701;0.07827674;0.5992558;-0.7187746;1.5522076;-0.55421245;1.6363456;-0.3185641;-2.7159042;-0.07158589;1.8466083;1.2285789;-1.474936;-0.60791004;-0.12155908;2.1100626;-1.0628586;0.030622171;1.343528;0.3855995;0.73248214;0.35586628;1.0583047;0.014690416;0.5279842;0.55703247;-1.1962868;0.7561416;0.99119765;0.580161;0.89379656;-0.04534913;0.5119406;-0.77382565;0.3632265;0.19972226;-0.37374827;1.1478796;-3.9897387;1.0280797;0.9838287;0.88641405;0.34741223;1.9084271;0.5501906;-2.4742227;-1.3506008;1.0153319;0.47845906;1.9331084;-2.52896;0.25071445;-0.48972437;-0.36741093;-1.7272635;-1.7623304;1.0572821;0.41463393;0.048404615;1.1951646;1.2988588;3.4810696;-3.3219292;-0.2718179;5.48108;-0.4676823;-0.112349145;1.4791608;-0.9278267;-0.84294164;-0.07364208;1.067256;-0.80531234;0.7308392;2.419201;-4.213712;-0.10377513;-0.3209164;1.7502778;-2.4610746;-0.45282513;-1.111156;3.621541;-1.9627237;0.70054144;-2.2750802;-0.27787992;0.56159407;-0.3793898;0.2817937;1.2132505;1.1410527;-0.11370273;-3.2263901;0.69170046;-0.8575235;0.075953126;-5.112632;1.2017429;-2.3758485;-1.08324;-0.0955935;-0.10253487;-0.27762192;-0.31260824;0.14288537;-0.25694922;0.45407104;-1.2187026;2.8419573;0.79696083;3.2843184;1.3755456;-2.0494444;-0.64796233;0.61619544;0.8890142;0.33288524;-0.42781132;-1.2565144;-1.2523792;-2.3043609;-1.6883923;-2.8528862;0.78074425;-0.84587777;0.12897895;0.8160062;-0.4721844;-0.7646711;2.3793137;-1.5842453;0.89836365;-0.3310712;1.3648424;-1.134725;1.6091062;1.4287579;-0.80614716;-1.5098788;1.8838676;1.2204535;-0.3995461;-2.2675512;0.46005857;-0.61124516;1.2971;1.2023535;1.1499149;-1.6550214;1.9564319;1.654784;-3.5933986;0.6483828;2.1524262;2.3936582;2.2342925;-4.8095703;-0.5451502;-0.37849554;-0.69909745;1.0537304;-1.0072895;0.2997071;-1.3255954;2.5521975;-1.0292685;-0.15904973;-1.6331109;0.9468101;-2.800372;0.9813277;1.2516026;0.60595804;0.98223597;2.1234097;-1.0846826;-0.43693006;1.5280138;-1.5864469;0.5071091;1.430613;-2.4160829;0.9879834;-0.7194541;-3.3828983;0.98433596;-1.6859072;-2.5933962;-1.0765173;1.4936719;-0.57706606;0.16665886;-0.9109038;-0.72430706;-1.9590904;0.32626006;0.31111255;-2.4217515;0.3664556;0.18503048;-0.4496781;-0.526176;0.13506593;-0.55823416;-0.64317465;1.6242555;-1.1351745;-2.3216777;-2.8233306;-1.6875544;-0.32819137;-1.4381183;-0.768056;1.7380052;-1.2686588;-3.0757911;1.1028122;1.7047119;2.6403108;1.7106247;-0.30972978;-2.8694077;-0.88486063;-0.7549849;-0.20065252;0.78944683;0.11756031;-0.07662259;-3.5097702;0.7621948;0.10623596;-2.2817101;0.694836;0.25217324;1.0777649;-0.28906196;0.27777314;0.27011183;-1.1973568;0.46835855;-0.7688693;1.2818937;-0.26878563;0.4234594;3.6192706;-1.9634833;2.24338;-4.9310436;0.5715798;0.49072105;0.81521237;0.04289681;1.167793;-2.7009518;0.7568142;-0.7833802;0.8948011;0.4402364;-0.051843114;0.16210724;-2.6109512;0.7673583;-2.649439;0.5197553;-0.5856316;-0.81388223;-0.96773046;-4.1315084;-0.65283847;-0.112470634;0.23528673;0.42970133;-1.304115;-0.9289228;0.096765384;-1.6693989;-2.393072;-1.6800432;2.141213;0.49131593;0.11650109;-1.3838687;-0.27799183;-1.79402;1.3711888;-1.899972;1.7358046;0.94388235;1.1922059;0.08013932;1.3559395;1.2864971;0.83620155;1.2821494;0.5051336;-2.9769754;1.0403142;0.2954353;-0.07441341;0.73705673;-5.990518;-0.1690977;-0.21489173;-1.8954619;0.16725317;3.5546353;-0.6998587;0.87670195;0.80608535
0.5741832;1.5485343;0.14941429;1.8468319;-0.84984356;1.0037621;0.099864185;-1.1850011;-0.788524;-3.8101902;-0.16396984;1.9071473;-1.9037858;-0.8378761;-1.0108414;0.22746608;0.7005193;3.136362;0.17751385;-1.0674335;-1.3314762;-2.1445591;1.0226256;-1.573112;0.7822637;-0.6993763;-1.6820269;1.4352131;1.256576;-1.8532648;5.3283296;-0.8384811;1.1835263;-3.0429192;-1.0919403;1.7717179;-0.7915675;-1.3957375;0.37608463;0.4846911;-3.8363242;1.9143054;-0.51401895;1.3225701;-0.8040439;0.6583097;-2.4293075;-1.4941454;1.3656944;-1.1756344;0.84150314;0.17986451;-4.5968285;-2.236314;-0.75147074;-1.4830806;0.6887074;0.5299832;-1.3902032;0.31952807;-0.046433527;3.1289637;-1.1083591;-0.16173074;-1.4897538;0.14817108;-0.40564716;2.6750057;-1.170463;-1.3236982;0.27276897;0.34726948;-1.5424417;2.6141038;0.28511533;-2.9847827;-1.3957686;0.99477845;0.38251644;0.91848725;-1.0620404;0.649732;0.042826287;-0.34225076;-0.2569188;1.1346087;-1.5960435;0.43751886;1.8094349;0.011392104;-0.7470336;0.9548897;-1.3651975;0.3519933;2.5693502;0.13084576;1.0836964;0.88798887;0.17794378;0.72948563;-1.6114309;-4.754042;-0.11596255;1.7104981;-0.5191783;-0.13926901;-5.1648345;-0.117364906;1.3355073;0.92647326;0.49709082;1.7562292;-1.0737876;2.3739095;-0.14696598;1.871874;1.1285715;0.18515132;1.2441788;0.036275785;-0.24295838;-1.5212295;1.1001424;-1.378399;0.43559575;-2.4547274;1.0327083;0.04750919;2.0921476;-0.5163478;-0.10548379;-1.2682844;0.72578144;2.219197;-0.15922807;-1.2961103;-0.1314633;1.3366886;-4.0202265;-1.7792741;2.48505;1.5437133;1.3601835;1.1549468;0.065689445;0.20747262;0.8890118;1.4519324;-0.47468138;1.4422116;-2.1644182;-1.5437107;-2.4283261;0.71719056;1.4062401;-1.2512538;-0.41166392;-1.3240442;-2.9224346;3.8580606;1.8030834;0.44668472;-10.719828;0.82940644;-1.6423867;0.023695894;-1.4351559;0.43217936;-0.060802624;0.104242474;1.3198137;2.4970644;3.0088158;0.66399974;-0.34044036;0.9986402;1.7208444;4.0102334;-0.2992583;0.6164176;-0.26977402;-0.20727217;-2.18372;-4.036593;2.4997709;-3.7143803;-1.4913771;-0.8803634;1.296297;0.73266435;1.4166629;0.104470484;-0.46172848;-1.5511681;0.39802518;-0.25882244;0.9949846;-0.7816401;0.4228912;-0.77885664;-1.7794825;2.1699228;2.8666403;-0.36612597;-0.80699736;0.11734367;0.67801595;0.062486846;-2.9164302;0.72111404;1.2866409;0.98714316;-0.78251356;-2.689173;1.7746435;-2.2065744;0.4784304;-2.6237485;-0.2055418;-0.73657346;1.6407764;-0.59217733;0.9384865;-0.44045416;-1.6313655;-1.0884072;1.0265576;-1.5169278;-4.273466;-0.793999;0.62462455;-0.52109206;0.26238075;-0.0043171714;2.682278;-0.061279956;0.5270363;-1.3222291;-4.2268066;-0.38169757;-2.1861246;-2.1165879;0.79129064;-0.22312991;0.36955324;-0.7501475;0.8510725;-2.5345101;-1.0406145;1.0247147;0.8433456;-0.3929092;-0.8554228;-0.6641119;0.82932144;-1.8290018;-0.34388608;0.34268746;2.7236304;-0.4008784;0.6203602;0.09312008;0.82745445;1.677017;-2.299557;0.65871274;-1.248188;2.6716383;-2.7008836;1.3606349;-3.2547162;-0.32144806;-1.3181498;-0.7079526;-2.3313522;-0.8953269;2.513269;2.1796205;-3.1995146;0.3057496;0.41025862;2.2444663;-0.34104624;-1.2665249;2.7060518;0.33605254;-0.35784876;0.81490225;1.0869044;-1.0478368;-0.034321036;1.654385;-3.371219;-0.4402696;-1.1450227;-4.7274237;-1.0057865;-2.3232472;0.5718119;-5.3499527;-0.63952476;0.8074379;-0.014288804;-0.02944018;2.6851175;-1.6995718;-0.34452838;1.0010535;0.07719506;-1.3492515;-0.6074821;1.4847968;-2.034706;-2.7763808;-2.529003;1.528862;-0.2980187;3.6681275;-0.60604084;-0.027742552;-0.03558849;1.4982506;-0.21382427;-1.2161875;-1.8743781;-2.0625894;-1.8495865;-0.33162102;1.938212;-0.2696488;-2.2655349;-0.3720046;2.2673018;-0.50423515;-0.9292001;0.33350468;-0.5270706;1.3304223;3.3126373;2.2674344;2.4325035;1.200119;1.5044613;-0.038726702;0.99269146;-6.1427794;0.7584534;0.53348213;0.31283468;1.727494;0.6056853;2.4306972;0.36726728;0.31658196;2.1355147;-0.37861082;0.6650381;0.32296538;-0.54192406;-2.0955243;0.8785529;2.29776;-0.8569901;-0.0025011383;1.0046037;-0.42473558;0.4164719;1.3105226;-1.2094539;3.5273;-0.65443605;-1.4849504;-1.7596016;0.7034067;-3.3019192;2.7248468;-0.44448727;-3.205539;2.2583437;0.80309534;0.95871;-1.4164225;-2.3355272;3.6388302;-0.6688733;-0.6096111;1.3894398;2.0072796;-0.6520585;-1.0420562;-1.8677782;-0.14394335;-0.82539374;-1.041624;-2.2905297;1.1669893;-0.55094266;2.0091925;-1.373586;0.32191142;-0.5597885;-1.483457;2.1323876;1.0431358;-2.6152556;2.8873467;-0.3595398;0.2878041;1.098715;-0.4512697;-0.6544751;0.18707544;0.8791424;1.064094;1.1002136;0.20770857;1.9929702;-0.35607314;0.071409725;0.6873188;1.2358462;1.3351827;0.13105708;-0.74388427;-0.44247478;1.0273994;1.0530597;1.4572663;0.020163698;-0.868572;0.5034801;-3.3209183;-0.9616858;0.51569617;-0.029245125;-0.49954778;-1.3945107;-0.11657071;3.2646096;0.15881063;-4.3773236;0.73046905;-5.494272;0.13055284;1.8017071;0.123384506;1.2255222;1.1348565;-0.8787087;1.4288206;-1.9034042;-1.666593;3.620347;1.5963718;-1.029873;0.74309915;-0.083623804;-3.8689926;1.0352724;3.2393436;0.51356596;-3.7333217;-0.33506548;-2.1034486;-1.271407;-0.7119077;-0.83796376;0.76555765;0.56886;1.0346115;-0.7933774;-4.3401003;-3.6200933;-1.2765377;-2.8784723;-0.055170555;2.6914046;1.9815584;3.680627;2.3402483;-0.47240657;0.038845044;2.2700782;-0.68457174;0.58429307;2.6075125;-1.1293827;-1.2593637;-0.587693;-4.068384;0.16851556;0.47040805;0.5616316;0.3701451;3.8498669;1.3332232;-0.62021613;-3.0629601;-0.5340569;-0.14992169;-1.6630214;0.19247301;-0.5964867;3.3017807;-0.66628987;-1.3799782;3.1050496;-1.0611664;0.036166105;0.36312822;-0.169568;-1.9337255;-1.2148513;-0.5203761;-0.11264902;-5.310928;0.53578115;0.99157995;0.5936839;0.67083645;0.74011433;-0.65387;-0.48809364;2.0975797;2.4823651;-0.6122165;2.2166233;1.1176335;2.363219;2.3171866;0.2502352;-0.8136384;-0.36971155;0.21691994;-1.9561455;-1.0714766;0.2716748;1.9623251;-0.38964164;-0.29412067;0.7458227;3.144529;-1.0799735;-2.0013847;2.8559694;-0.093155526;0.027647039;0.74965537;-2.6030753;0.85586476;0.40024588;-1.2353938;-0.40970433;1.177105;-0.60248077;1.163705;2.398714;-0.482348;2.5460014;-0.7779789;-0.6495462;1.0827941;0.8353305;1.2101535;0.6068992;-0.75240433;-2.913432;0.31778467;-0.13000059;0.0715058;-1.6062688;0.9053756;0.08182773;1.6206595;-0.37267426;-0.23341346
0.5728772;-1.2698705;1.0224934;-3.2094362;0.012839971;1.2426268;1.3979988;-2.3636475;1.771118;-2.0496755;-0.17724629;-0.09735054;0.34268072;-1.821476;0.045637656;0.538455;-0.4074991;3.2910964;0.08285689;0.15113626;-0.90226424;-1.6817082;3.3774614;-0.026818136;-0.3633979;-0.60072774;-0.45795682;-1.7818241;0.9787254;-4.211626;-0.25922263;-0.13852887;0.31476995;-0.6805612;-0.44304696;-1.9860315;-2.3538656;2.0970187;1.3368294;-0.47780392;-0.7692068;0.5047179;-1.1684628;-1.4309986;-1.001933;-1.3833542;-2.3432648;-3.2359207;-0.49841845;-0.9836841;-1.0323008;-3.5037003;-3.2210348;-0.45515355;-0.1683382;1.7719674;-3.6877553;-0.1350517;-2.7484689;-0.5713069;0.018870132;1.8193052;1.7409663;0.86886173;2.7465882;-0.50935507;-0.6333441;2.164024;0.5006563;-0.19163544;-0.6761756;-0.6660311;0.84385145;1.9216547;-0.23669517;0.3508288;-0.3660844;-0.96995974;1.2903305;2.7602706;0.48595157;-0.42467272;-1.1716659;-1.1762226;0.13218361;-0.57038856;-1.9322555;-1.4764745;-0.4690182;-2.310393;-1.2474837;-0.33889782;2.0460212;-0.057758622;0.8032438;1.1250179;1.1803014;1.9693202;-0.24455419;3.1559296;-0.24539775;1.5959066;0.019237475;2.0750463;-0.5140996;1.9881545;-3.649868;-0.29730237;0.5260038;0.8799771;1.4271439;0.4202926;0.54059356;2.045696;-1.9522594;1.2744938;-0.5382755;-1.2418782;1.3201704;-1.1765841;2.3634896;-1.4323542;-0.8456659;-0.9206419;0.04312973;-2.258778;0.051869668;0.085051626;1.1977173;1.3087189;-0.19725141;-0.91578;-3.2019322;-0.79266703;-1.491069;0.26055261;-1.5184193;-1.9495339;0.21251163;-0.5907459;-1.2864432;0.16440438;-2.6430368;0.05884315;0.36346075;-0.4897377;-0.30142874;2.376895;1.5242877;1.2012047;-1.4088424;-2.148587;-1.7978945;0.6532626;1.1671776;-0.12268268;-0.28872597;0.5288542;0.92126185;0.23589133;-0.00646734;0.8656823;-9.019547;-5.5359726;-0.25257364;-0.3811537;-1.0958116;2.0317028;-1.0821843;-0.16578418;0.08085624;-2.1018965;-0.16537198;1.8281713;-0.3549003;0.22952569;0.8581722;0.5922261;-3.2505088;0.8541659;-2.868872;-1.7025862;-0.77598447;0.53906035;0.6994273;-3.4294686;1.5177925;-2.482038;1.037738;2.350248;3.106403;-0.28726998;-0.6016335;-0.00047464215;0.7008969;0.2771298;0.31939858;1.5644386;-0.64691985;1.6443906;-0.26421994;0.104024984;2.3810709;-2.9324312;-3.4582427;0.89793956;-3.3029895;-0.75634193;-1.7888238;1.3340687;-0.55581754;-0.26512167;3.6077914;-3.6770587;1.0102826;-0.6886334;1.5921583;-2.742567;0.0827938;2.0752723;1.0564506;4.270977;3.2220356;0.28793845;1.0375392;0.11285574;0.18782105;0.9553801;-2.8844151;-0.8085395;-0.16153698;-1.6341525;1.3125561;0.1183097;-0.011562572;0.49067283;-0.79492354;-0.61967593;-1.0290184;-1.0509899;-2.7999117;-4.1695566;0.5036062;-2.229896;-1.773031;-0.47352517;0.061251942;-2.6545074;-2.0593662;-1.4422829;-1.8450096;0.16223298;0.7809299;-1.8276749;1.1301111;-2.6305768;2.70629;1.2242573;0.44442424;3.2508066;0.15861422;0.8654222;0.4993798;-1.3028936;-0.545333;2.2557316;0.92887336;1.1804073;0.12816073;1.4897633;0.09940921;0.14383933;1.3838701;-0.21178243;-2.975163;1.3169402;1.7749782;4.447307;-6.910618;-1.2941529;0.3063524;-0.46596357;0.4621657;0.15758681;4.126994;-0.056864917;0.681161;-0.12091111;0.97104526;-3.1542022;0.027280232;0.9339138;-2.5564332;0.80939645;-0.9617611;-0.23757504;-0.7052502;-0.29163128;-0.6095468;-3.9221919;-0.9848688;0.9668305;-0.22931726;0.9302816;0.20039691;-2.0995245;-0.6681226;0.2835089;0.7340831;-1.2632853;-1.6632594;-0.67841136;-0.115429595;-2.3378084;-3.704365;0.8662957;-1.4701287;0.34088337;-1.7459433;2.035411;0.8386466;0.3392772;-0.62507915;0.7221866;1.4079714;1.5178963;2.3038235;3.1508412;-0.48443803;0.073932745;-1.0682703;1.4961267;2.5348704;-2.3701556;1.8236707;-0.9163128;-0.22392456;-2.547718;-1.2400999;0.7058907;0.09984176;1.1437052;0.38318896;-0.93985146;-0.61780626;-0.7236745;-0.06519886;-1.1129395;-1.589893;0.86871946;0.10623733;2.0463803;-2.0647616;1.6668359;1.6059058;-0.5696545;-0.5151053;0.27213383;1.2345945;2.3988857;0.41436598;2.5645165;0.36157498;-0.92496914;1.8853754;0.07566642;0.40741363;-0.8019784;-0.23433669;-3.2969432;-1.3539103;2.7169795;2.7682738;-1.8331445;-0.3328466;0.006170057;-0.10738832;-1.2044052;2.513991;0.052805062;2.2760093;-3.2246048;-0.36708194;2.7600105;2.1242936;1.332671;2.5640342;2.9659295;-0.12198894;-1.1779771;-1.4173424;-0.0807674;-0.035786018;0.1392538;-0.5230409;1.6950227;-2.3697164;2.9746315;-0.9843144;-1.8292882;-2.0163138;-0.029879425;2.4400425;0.58386207;0.20326714;-0.3255324;-2.217296;0.31503358;-1.1474136;-0.061985668;-0.09131593;-0.56851214;0.2847458;2.6510515;0.3097893;-5.7101836;2.8447459;-3.4758487;-0.9307523;0.018668072;-0.6007962;1.4262128;2.6389291;-1.4102564;0.50539106;-2.57244;0.14107323;0.79191566;1.8015687;-1.7333603;1.5557846;0.75932837;0.3993193;0.2058347;-1.122676;3.0211387;-1.506365;-0.67529565;-1.6712737;3.564299;0.7335873;2.0178027;-0.29334587;0.035573676;-0.04078142;-0.06595302;0.09473718;-1.1740812;1.3648676;0.80793095;-4.439418;1.3958411;2.22085;0.015562697;-1.2699031;2.186508;0.14904928;0.37985545;-1.261858;1.6130097;-2.8355281;1.4797208;-0.55625224;-4.355066;-2.1713243;-1.2229115;-0.047276504;0.41103664;1.2025881;-0.33082762;-1.2370251;-3.8560643;-1.2469096;-2.3247116;-0.52518266;-1.6947303;4.167063;1.5471965;1.391118;1.5116915;-1.0845087;0.43000883;2.4342148;-1.1308022;1.714847;1.2396979;-2.2191894;-2.7175493;1.7716584;-0.5291478;-0.19829516;-0.26478443;-0.38770595;-1.0787665;-1.8627012;2.1146011;-0.3729548;-3.7646163;-1.1052908;-2.4621115;4.134759;-0.507444;-2.741435;0.8109228;0.52022576;-1.3458717;0.29819727;1.1561037;1.2464544;-1.4370453;-0.29703194;-3.1105735;-0.57463074;-0.24804121;0.6943618;-4.4481993;0.007844371;1.02191;0.26570135;1.1235517;-0.0614628;2.2593617;-1.0613314;-0.13038035;3.2017906;0.27619404;4.5248966;2.6853642;-0.69325;2.97773;-2.9448428;-1.178323;-0.04185575;-0.30424064;1.3263792;0.4220821;0.024538413;-0.3019194;-1.2347728;-2.6562068;2.4569216;1.5818408;-0.27728835;-2.7483141;2.9005067;1.2071264;0.36154667;-0.63216585;-0.8355417;2.8997042;1.1401075;-0.45392227;-1.5140197;1.7347188;-0.59379375;2.3440995;-0.17753871;0.62001765;1.8057508;0.21859604;0.22352794;-0.26446268;-3.4305344;-0.5414088;2.2775917;-0.67705643;-2.0245116;1.4165334;-0.44056606;0.19262634;-2.3399296;0.5440177;-2.0961804;0.35510316;-0.100967646;-0.36016694
1.267764;0.04553385;-0.48665503;-2.2375975;0.9926434;1.784109;-0.7409881;-2.4040492;2.7028956;-2.710742;-0.5275734;-0.23380613;1.9819125;-0.013447347;-1.7014021;0.14021066;-1.5539645;-0.060572464;-1.6863984;-0.26938167;-0.35141537;-3.1004536;1.0328794;-1.9012293;-3.1213577;-0.6822395;-0.8280285;0.3314195;0.6256877;-1.9164968;-0.033681918;-0.59578556;-0.4863898;-0.56679296;0.6976141;-1.9691957;0.84951067;-0.21225697;-1.3702167;-0.7267264;-0.823412;-1.9537458;0.3316717;1.362634;0.36527726;-1.0137908;-3.187919;1.3201772;-2.0416968;-1.1552033;2.6735349;-2.7427292;-1.7813976;0.4533064;1.5319467;1.5793965;-2.9064465;-1.6385185;-0.30387408;-0.0064677587;-0.42322394;-1.7292937;2.911534;-0.5420446;0.25544825;2.2279139;2.45241;0.20439753;2.182381;1.4157186;-0.77849096;2.558444;-0.79978395;2.213865;1.2818638;0.87046534;-0.8858626;-0.029367145;1.9700248;-1.2163291;-0.3686344;0.13375895;-0.59599346;-0.6366482;0.45285523;0.96161;-4.1203036;-0.76071286;2.0644867;0.19073942;-1.2562512;1.3991498;0.6561627;0.56507236;-3.9679782;-0.02910407;-4.8441296;-0.44934067;0.3847173;3.3137686;1.3216584;0.9022963;-7.1086454;1.420204;-0.57368916;1.2095116;-2.1295483;-1.183803;-0.46039972;0.9439128;0.67220855;-0.46752796;0.4734752;1.3356782;-0.33564;-2.3746014;0.62716466;2.2445495;-0.028061107;-0.19568089;-0.33354473;1.2529494;-1.6588875;-0.51588655;0.32870278;-1.3285089;-0.7073247;-1.9828117;2.6277418;-0.10341473;-0.9252207;1.1742862;-2.430315;-1.5933656;-1.0423334;-1.20505;-2.5565033;-3.836928;-0.49039698;2.0233865;-5.2666135;-0.06092058;-3.3454492;-0.0112384185;-2.58303;1.9910734;1.5738616;0.46401888;-0.7750861;1.080215;-0.5875089;-1.1470453;-2.2412133;-1.0403342;-0.0065169143;2.596471;-1.8654572;-0.80138665;-7.16101;1.0997397;0.7185529;0.9263731;-3.7624407;-0.747589;1.1409804;-1.4682171;-1.7643172;-0.54686487;1.408904;-2.192964;0.12998119;-2.6334047;-6.190806;0.9398894;-1.2529908;0.43868166;-1.5475686;1.2313491;1.1705754;1.7220762;2.0337076;2.3827858;-0.5068046;-0.90533024;-1.9447145;2.117684;5.3214545;-0.9217739;1.8972923;-0.33713612;-0.82859105;0.13906977;0.54002166;-1.9588711;-0.6424426;1.8127065;1.2588123;2.4810152;4.3864794;2.1731858;-4.4521685;3.30328;0.34417415;2.7018554;-1.358198;0.63131785;-0.12143067;-0.2868129;-2.0980198;-0.48227817;2.5747628;-1.4918338;-1.6690506;-6.0390377;-4.517985;2.1630354;1.6414173;-1.114144;1.5095332;-1.4817365;-0.46988228;2.2673278;0.574745;-2.555291;-1.8563608;-0.709554;1.6999991;-4.2869587;-1.1271702;0.49197227;0.6253155;-0.038279396;-2.496566;0.29193497;0.93358475;-0.54521835;1.7027264;0.09928871;0.89840895;-0.761558;0.0038946788;-0.7526476;1.697925;1.0655836;0.23600696;1.0417967;-0.46131018;1.575574;0.22859493;0.81172985;-0.9791872;0.4534564;0.96458733;2.473895;1.6009318;0.7194335;1.4881126;0.14679053;-0.41907516;1.108859;3.6032712;-0.4914566;0.9480717;-1.1657164;-1.767385;1.4359802;1.2155647;0.3438843;-2.8279781;-0.19431128;0.23994482;2.2260053;-0.28560653;-1.2902477;-0.26699752;-1.3172998;0.87083775;1.3627499;-7.743411;-1.3402064;-0.9078534;1.7471374;1.5253448;-0.13227184;-0.8325158;0.4602412;1.4269933;-3.3842263;-0.24704866;0.80152655;0.033263184;-2.3348603;-0.636011;-0.13315713;-0.95190555;-2.5958033;0.693943;-0.4989143;1.2188331;-4.2881145;-4.117264;-0.51498985;0.31778336;0.14107554;2.6128788;3.7733996;0.68268913;-0.5330633;0.0038159057;-1.4455571;-0.46547598;-2.8669672;1.2084758;1.8812112;0.39537653;0.5805322;-0.18201172;-2.300534;0.21443766;-0.03438686;0.28222904;-0.20167759;-0.38597322;0.40850362;-0.2905836;2.4444995;1.3006417;0.086045235;0.19681336;0.75616086;-0.47912726;1.5498803;-0.20258518;0.05711004;2.942124;1.0559722;0.1694729;-1.2187967;-1.1636183;-0.032128595;1.9520698;0.425343;1.015409;-3.7476282;-3.2278252;0.63341707;0.07059435;-1.4435415;2.592817;-1.3630545;-1.6451705;0.7806968;-2.0626304;2.0483782;-0.9180095;0.8105896;-0.0702829;4.013551;-5.433231;2.873337;-0.41587365;-3.0321643;-1.9408344;1.9053762;0.80074066;-0.9213978;0.8965535;2.1260138;-2.9260294;2.4815462;-1.2392775;2.6823251;-1.0697383;-2.2421422;1.0688096;3.5501971;0.1520946;-1.5573094;2.000963;1.4304001;-2.2685907;0.4976729;1.0498785;0.082033835;1.665241;0.90515494;0.4364586;0.18087189;1.4503535;-0.72738427;0.7339474;0.3877608;-1.3024088;0.038710542;-0.5750305;0.21447314;-1.714322;-2.4949398;-0.9540094;-3.3556771;-1.4739009;-0.3948702;0.75666225;0.04040259;1.3065454;2.718041;-2.509575;-0.95786154;0.03956898;-0.750335;0.22325142;-1.0548422;-0.27177674;0.27007872;1.282257;-6.170891;1.0030106;-3.517426;-0.68281615;1.672575;1.1256783;2.1667888;-0.50437963;0.3493608;-0.76994723;1.5811238;-1.379075;0.33109906;1.8523047;1.7236084;0.22594891;-3.7574058;0.8321265;2.0054967;2.6367471;0.31116274;-0.43707117;0.9545301;0.35123503;1.9132094;0.5139965;3.38682;-0.51822674;1.0531046;0.25208932;1.4880704;0.43811768;-1.5520842;2.4167016;-1.0678965;-0.65969604;-2.2131536;-3.3992908;-0.55251604;-0.5359252;2.7027721;-0.65587765;1.178825;-2.4568858;0.33330408;2.1244385;0.8061537;0.4177161;-3.3634515;-0.07109363;-0.3325934;1.0759573;1.4201882;1.6313838;-3.2769012;-1.0548799;-1.139313;-0.19853334;0.8241656;-0.10485806;-1.8806279;3.1017852;1.8044455;2.1327634;-0.9317197;-1.5580449;-0.5392153;0.4952037;-1.6848207;-0.96462077;-1.2084668;1.9341625;2.4317355;0.94115275;-0.1418191;-1.2870741;1.0931515;-1.2677125;0.3539351;-2.2150116;1.385188;-0.9199955;1.1617763;0.8825141;2.3525138;3.0165086;-1.2596323;0.62695175;1.4173954;1.7046182;-3.2525053;1.7277632;1.0189555;1.0948712;-1.2235073;1.8517896;-1.5430694;-2.7815917;1.1903781;-2.284062;0.07404522;-1.219667;1.7950617;0.17418654;1.1002578;1.8806478;0.54697657;-0.7439203;0.8886887;-0.5840573;0.30491778;2.3392794;-0.59547305;-1.9689475;0.16946793;0.7337467;1.5981464;2.2691667;-0.40052187;-5.07236;-0.78567433;-1.4461342;-3.4315217;0.9749395;1.0959646;2.0268734;-1.3772724;2.1538706;-1.5591768;-1.3376153;1.2070612;0.40272406;-0.654977;0.33764362;-0.13970941;1.1949474;-1.3687696;-0.21859486;0.8328082;-2.906353;-1.5528325;-0.30959725;2.9835277;1.6341536;-0.42390805;0.7336526;0.1353225;0.17662647;-0.14379019;-0.43401143;-1.3583115;-2.4143808;-0.9805874;-0.7424942;1.448371;-1.1517538;-0.055292338;-1.9003651;-0.3501071;-3.3008065;0.3980441
1.7848511;-1.0294476;-0.22950833;-1.3731852;-3.3350754;3.3123746;1.1659683;-1.3758417;0.3136318;0.22253904;-3.0002086;-0.004514401;2.411594;-0.8542304;-1.1441592;1.6937655;-1.0359498;2.6121178;-0.58562714;-0.031773984;-0.26099795;-0.9808941;0.09077813;2.7810924;2.2672746;-0.25465453;-0.25127155;0.31862885;1.4340037;-0.12297221;1.3120263;-0.4177492;-2.3451254;-2.4623654;-0.40702832;0.17805815;1.4483223;-0.7567888;-4.440542;-1.8975813;-1.34375;-0.32019547;-1.2305175;0.29575956;0.948064;-1.3417187;-5.0948176;0.83065164;-0.09084521;2.6613674;-0.5210667;-1.3182267;-1.7059656;-2.2247207;1.1482794;-1.3513467;-2.0967207;-0.8622015;-1.5600953;0.24707012;-0.091109626;0.7644812;1.4001877;-0.18123858;0.39989477;0.26628476;0.82180196;0.45751795;-0.9048883;0.3703285;0.50580037;0.8013766;1.392345;1.4062668;1.5567619;1.4692098;-1.0603765;0.6290299;2.4420357;0.35946175;-1.9995978;1.1198094;0.12251553;-0.71575284;0.297982;0.9286371;-1.9791954;-0.53774846;3.0690536;-0.0019423054;-0.04696789;3.0940206;-0.30867356;0.89443123;1.7973967;1.0865811;-1.8275096;-0.38721514;0.5724368;1.8986647;-0.007324093;-0.09874638;0.22601582;-3.5809393;0.6911219;-0.74992925;-3.9980152;-2.2328296;2.9030018;-1.0007846;1.4230347;0.054566752;0.83847505;1.640523;-1.052566;-1.5411664;1.0841814;0.57306665;1.5056784;0.7957208;-0.6600685;-4.8821287;-0.37170488;-2.3261278;-0.46726263;-1.0815182;1.337409;-0.12781686;-2.2235773;1.1573583;-0.15011638;-6.457246;-1.4511796;1.7317066;-1.0470195;0.58882856;1.1684761;-0.62966704;-5.18511;-2.3023999;-0.5295832;0.84829265;-2.7251618;2.2320566;-0.5693083;1.4928156;-0.5872505;2.4546483;0.59562916;0.45506912;-1.1703473;1.4053454;-2.1287801;-1.1009395;1.4077061;-0.14854702;0.196196;-0.69700813;-1.3946882;0.4220984;0.40895033;-0.0889581;-4.830164;-0.16189158;1.1621755;-1.7469534;-1.0816206;4.2467995;-0.36626816;-1.9422858;-4.009858;-4.3770146;1.0276074;0.08209017;1.9466351;-0.28064126;-2.98862;0.4862407;-2.631384;-1.2616541;-0.035033528;1.3075365;0.9905552;-0.35801622;-0.6822005;1.5587008;-4.3995066;-0.3015603;2.8616536;-0.031928025;2.1923187;0.40958792;1.8264488;0.072337545;-0.5106524;0.03861134;-1.1771017;-3.6018586;3.152264;1.6473694;-1.1777157;0.5482746;2.5073864;0.8905568;-2.871681;1.7270823;-0.77730405;0.6409312;-0.016566386;-2.165156;0.26643077;-0.8651618;2.015095;0.15289159;-1.3550613;0.5600099;-1.7279435;-3.1519465;-0.8409831;-1.8778337;-0.88204455;-1.0405228;3.458068;2.0126655;1.0367357;0.729512;3.8064628;0.8651077;3.209235;-0.37200925;0.106655695;-0.36449555;-1.2404728;3.363801;0.9015376;1.0097429;-1.4130965;1.8806757;-0.33917472;-0.9772798;-0.4031813;0.048096698;0.6522014;0.20667219;0.15542328;3.1752245;1.2075489;-0.39702982;-3.288309;0.8876248;-1.6306815;2.1732295;-2.128252;1.7333479;2.0945377;1.9793631;2.1599398;2.374511;0.2754561;-0.5210312;0.75655377;-0.9768529;1.9811057;1.3974475;1.3409461;0.48987007;-2.1138625;-0.4659407;0.29686192;-2.6272376;0.29273504;1.26336;-3.4467645;-1.1994596;0.72453296;-0.3204553;0.4317697;-2.7160277;0.52988714;-0.9145845;-0.6975591;0.30495894;-3.8265398;-0.8031214;1.051498;-0.008728625;1.2638354;0.8995486;-0.6483628;-0.2163822;2.0941935;0.3041756;0.31177592;0.97716796;1.0097073;-5.3304386;-0.31449607;0.93381673;1.0509188;-3.180857;-0.4650699;0.41463104;1.013089;0.08925048;0.10933765;-1.1466837;2.0840633;1.4718107;-0.70884305;1.2272149;-1.0790945;0.39409828;-1.1333985;-0.12932046;3.2391987;1.7656873;-0.5614564;-3.6419861;0.08850965;1.5091639;0.058736905;-3.153742;-0.7942098;1.345721;0.067420006;2.5551884;-3.58058;0.14282016;1.9036608;-0.72918004;0.4892475;-3.106527;1.8031266;1.9967986;-0.48463872;1.8918917;0.24166837;-2.9473877;-0.67545456;-3.876079;0.75987625;1.8428618;-0.63292515;-3.039147;-2.3645344;-2.4073994;1.1093266;-0.26712495;-0.20596097;-0.29694158;-2.6877472;0.42368686;2.6468787;1.0716679;0.202942;1.7723857;-0.08274249;1.7022132;-2.731222;2.9836717;2.509956;2.2437954;1.3074337;-1.2241784;-0.72706985;2.3225818;1.8048337;-0.18090427;-2.2850761;-0.4255591;-0.41290152;-1.7098521;0.3222918;-0.6268717;-1.3727983;3.5411563;-1.040041;-0.05006444;-0.4880348;0.15316753;-3.3533158;0.043015797;2.0570838;0.45959508;0.31478596;0.21757816;0.7839443;0.44634205;-2.6839707;-0.4918877;0.46433586;-0.32190648;-1.6806086;0.06459515;0.2064786;0.97253245;-0.094592825;-0.3954775;-0.50880784;-0.52454746;2.4659486;-0.19512877;1.0035052;-0.9810447;-1.377007;-1.1018473;-2.0496008;-0.6618314;0.20088112;-1.1270697;0.63977027;-1.0705147;-0.68066895;-2.2087677;-1.9650816;1.1993668;0.44096562;-0.83513194;-1.9643469;0.8701258;0.09357309;0.23396814;-0.68301266;-0.36670795;-0.7583776;0.41313523;-1.3399662;1.6487398;1.9425743;0.817013;0.49536344;-0.5161616;-0.11940399;1.2055138;1.3627366;0.18841727;-0.779414;-1.1381335;1.6585045;-0.4020733;2.053423;0.5754537;-0.9537754;0.12695959;1.5924559;-0.093097664;0.3584579;-0.018546898;2.7844853;2.9557889;0.97272176;-2.490863;1.7385787;-1.756869;0.23049316;1.5109862;1.6415514;-4.969988;-0.16547427;-2.2016273;2.282957;1.2046326;2.3436124;-0.42534614;0.023592427;0.4910043;1.5234486;1.4238799;2.2215695;-2.646409;1.2661092;0.7187302;1.1436969;0.8605353;1.7557155;-1.5579625;3.4710832;1.1718938;3.116837;1.3768578;0.7615958;1.0926269;0.1545628;-3.0374503;0.7831318;0.48386267;-0.6704786;1.343058;-1.0047427;2.0206802;0.98154354;1.3723754;1.4234582;0.45345324;1.642385;1.2494867;0.39364067;1.6336138;-0.93951446;0.8753593;0.9730698;0.6855527;2.081167;0.023517594;1.7051351;-4.09972;3.0916116;0.25563708;-1.2144645;-2.3791788;-0.7706364;3.7960894;-1.086963;1.7143792;0.55036145;-2.552423;-0.2909462;1.7958516;-0.077330805;-0.63245976;2.103266;1.4653542;-2.4701982;-0.846363;0.5342191;0.26222435;-2.7475069;0.4442179;-0.005651775;0.7573473;-1.5181488;-0.5461114;0.8025702;0.047274843;1.8641891;0.3857352;0.19597204;2.618027;-2.4424586;-0.9390816;-0.7933863;3.552434;-1.3958794;0.6558053;0.73382515;-2.7455611;-1.2064538;-1.0516325;-0.5629517;2.6409776;1.6101202;0.8845549;-0.26024926;1.0636061;-1.5270451;-0.8574982;-1.9251962;1.9891095;1.607083;-1.5981252;-0.69088006;-0.78623086;3.3465962;-2.2023318;-0.109127864;2.1079323;-0.8206216;-2.8064752;-0.11690592;0.4307726;-1.1981933;0.4604063;-1.7244248;0.24378586;-2.6093771;-1.9455442
-1.0624659;0.0834668;0.41069072;-0.21158528;-1.5595601;1.0459081;2.460162;-1.5681255;-2.460958;-0.29447427;-1.7091056;2.1627252;0.6873743;-1.9545441;0.3172813;0.16700998;-0.3605819;4.4371514;0.09446253;0.09137465;-1.5202382;-0.47923607;-0.6165805;-0.5047573;-1.1471655;-0.9536904;-0.0012529136;0.6977129;-0.027099699;1.1950243;1.3443086;0.019461581;-1.6846448;1.4820789;-0.670455;2.351182;-1.1936101;-0.6877488;-0.743621;-3.6137779;-0.6961875;-0.5484366;-0.6771021;-0.43850783;1.398658;-0.3566753;-7.1886487;2.0234413;1.0046434;0.8424634;1.1398157;-1.5143285;-3.5728548;1.7507497;2.066361;-2.956075;0.23232579;2.4047368;1.385737;1.5037378;-0.21238582;0.15513986;-1.31687;1.6568127;1.2558539;-1.2145672;1.6595609;-1.873316;-1.9513948;0.4926023;2.626076;1.429328;-0.25455168;1.253853;1.3800144;-0.65338165;-2.384784;-2.5644903;0.39755043;0.8075943;-1.2079691;0.65520376;-1.431994;-1.3175949;-0.20734012;-3.5999784;-1.1184921;1.0817475;2.8748624;0.1984388;-3.5978262;-0.20804547;2.091515;-2.4463348;-1.5314727;0.4660645;-1.2300175;0.7343477;0.17507209;2.8189309;1.2588438;0.02778755;-4.073597;1.2785506;-0.53760743;0.68866557;-1.7111282;1.1559662;-1.4578028;-0.5947475;-0.49452153;-1.2819602;0.14600733;0.65496206;-3.1339774;0.40681332;-1.093385;1.5744889;0.8142348;2.5495234;-2.7145317;-3.1880121;-1.3948903;0.01632236;-0.674513;-0.36321577;-0.054613322;-0.6419518;-1.4807426;1.4680926;-0.5753588;-0.6724236;-3.3377914;3.3484955;0.7189036;-0.4969561;2.5393193;1.9159417;-4.637032;-0.2860463;2.6628866;-0.47397387;0.2588692;1.1512305;-1.1442015;2.3986695;-1.8013;2.038563;-3.0070887;1.4534314;1.9135768;1.222387;-0.72552866;-2.352111;1.631775;-1.5947366;1.1623181;2.8659832;-2.0999088;-3.561199;0.8507932;0.772311;-7.9187126;-0.4790414;1.029904;0.77043176;0.40190473;-1.8279568;0.77607197;-1.0684936;-1.6901143;-1.6392635;1.030713;1.0238787;1.4660347;0.51451993;-0.10718018;0.51960343;-0.5796016;1.5564848;2.1960003;-2.6860266;2.1904426;-0.98611504;-2.0604062;-0.82191736;-5.5343885;1.1283581;0.98950654;-0.9095648;2.8019135;0.17184247;0.90679264;-0.9327446;0.39904818;-0.8745234;-1.8150132;0.8062066;1.8745673;-2.7333705;-0.29422072;-1.1990402;1.3544539;1.4706118;-5.2244415;-0.38884735;-0.36150697;-0.6313194;-0.27930897;-0.7401404;-3.5497892;0.9433364;-5.0161576;3.4356852;-2.5328693;-0.5701601;-0.6706661;-0.16585988;-0.6021755;-0.98566306;2.847276;1.1192099;-0.5242388;-5.7695723;0.24579859;2.6436367;-2.0967646;3.1686184;1.560253;1.3692766;1.1021804;0.58579683;-0.54581857;1.2368901;-0.72813666;-0.0946583;0.40711743;0.51017874;-0.085726306;-2.1719317;1.4332486;-0.03525101;-0.0042084595;1.6096555;-1.491645;-2.1153324;-0.31809527;-0.038254786;0.5417636;1.7395072;1.791005;1.756246;0.86524975;2.914425;-0.34722766;5.592763;0.7445623;0.20098783;0.009483633;1.5283049;0.9105676;0.9911293;-0.57225347;-0.34893563;-0.5029534;-0.8430624;-0.07401525;1.3783416;0.13173147;-0.58027637;-0.9074865;1.1019795;-0.67543405;-1.0382469;2.268698;0.8176272;3.3457844;1.4120282;1.3756624;-1.8863063;-0.74672836;-0.15531813;0.22913873;-1.5501755;-0.22741131;0.36384317;-2.4528518;0.39590538;-1.8921942;0.078293554;-0.42690006;-1.8082441;-1.6201557;-0.13793348;0.21531473;-1.3488035;0.8133527;1.6389682;2.2362678;0.88298225;1.0362227;1.4763622;0.8108131;-7.0115643;1.2998612;-2.6532383;3.1294298;-0.24849194;1.0974307;1.8357915;-1.6712945;-2.953639;0.50056446;0.62733924;1.7952513;2.4582975;3.5071993;2.166822;-1.5272149;2.3640707;0.82624334;-7.1579423;-0.15662424;1.7108016;-0.543211;0.7898146;1.8684944;-1.4148101;-0.60287124;-0.8538491;-1.757876;-2.1632743;0.4188812;2.4218912;-1.0895306;-0.39997134;0.49816945;-5.681073;2.1141894;1.9735051;0.10246974;-1.1320456;-1.1720848;-0.2035277;1.4532912;-1.3253462;-0.04127084;4.2531714;0.31174615;0.3255485;1.9952306;-0.9212844;1.7520274;-0.9171346;1.2332854;-0.7989023;-0.18904735;1.5203692;-2.3821712;1.2817627;1.3513017;2.1687338;0.28300512;1.9649456;-1.3995322;-0.80479074;1.4927969;0.66772246;-2.3928409;-0.4590653;-1.3835531;4.7386208;-0.44135058;0.7030904;-0.95044893;0.65073997;0.5016562;-4.3983965;-0.24990386;-2.9178886;1.7089901;0.46684638;1.0776311;1.0514947;-2.5959835;2.9501898;-0.5202771;-2.0380752;-0.24773808;-0.22955726;-4.0310316;-1.0957701;2.2485604;-0.8131306;0.2980171;-2.2729306;-2.8251946;0.0047536097;1.3054839;1.8288656;2.284791;-1.8336666;-2.4590409;-0.15140596;-0.83236915;-0.37228766;-1.7715496;2.3615458;0.9507074;0.07223226;0.4956947;0.09711698;-2.3661015;0.12540933;-0.105654724;0.08820842;0.31913567;-0.5829591;-3.6115048;0.22327021;1.4955215;-0.07683665;-0.39157912;1.3739817;0.051663183;-1.8123735;-0.8239488;-0.6361972;-0.07564145;-1.0627418;0.35492083;-1.7911743;-0.37391174;1.722817;1.9691484;-0.92250156;1.2770152;-1.4531726;0.121273816;1.2520739;-0.22849695;2.0178628;-3.077052;0.013952721;-4.758765;1.4281427;0.9085532;1.0016994;2.6952605;1.4206384;1.9505196;-1.7000352;-0.011074771;-0.586248;1.0979378;1.750855;1.8010162;0.0022830244;-0.54598826;-2.7780602;-0.15021144;-1.1335653;-0.9288189;-5.288908;1.0821075;-0.5851379;1.9164528;1.9038255;-0.18134436;-1.0155652;-1.1306231;-1.5814208;-2.4866967;0.98704505;-0.025722435;-0.11938559;1.2462399;1.8315691;-0.10682287;0.0015760654;-4.3976655;-0.09292068;2.0031888;-0.47032666;0.18527822;0.54096615;-3.2744536;-0.8031875;-2.6319146;-0.24794286;0.9715148;-0.40250108;-1.0560601;3.7516778;0.6550131;2.8227239;0.10768256;-0.34283602;-4.94527;0.6625189;-0.09084747;-1.5868704;0.34115016;-0.31150293;1.8535079;-0.8288479;1.1270989;-0.7447114;-1.4941707;-0.8292196;-0.37777743;2.0135357;-0.31836462;0.33193353;4.158634;-0.37695828;1.4950966;0.8299067;-0.026829578;-1.5573702;0.16085188;0.22163609;-0.41835722;1.9294852;1.6464633;0.45096192;-3.856377;1.9826692;0.7027515;-0.8292213;0.94049424;-2.6471374;3.5391138;-0.19088684;-0.958337;0.53380626;-0.46195644;-1.1524817;-0.5605716;0.62949526;-0.9790604;-0.93856955;-0.30809352;1.3923172;0.84601223;-0.12726617;-0.5495473;-0.5335051;-0.03239142;3.926462;1.7268744;-1.7506791;0.4504087;2.672638;0.30013138;1.0061255;4.203697;-0.74814004;1.7205343;-1.6110083;-0.38277897;-2.2137077;-1.3451462;0.44385305;2.7953455;1.4488873;2.8267987;-3.486081;-0.21446693;3.5678885;-3.6908636;0.16496365;-1.3449899;1.6127626;-3.9003513;-2.73498
-0.3544006;1.9685707;1.6650394;1.5725756;-1.2410978;-1.0259522;1.8007113;-2.0391488;-2.6821501;-1.6166602;0.43759063;1.5612057;1.0915611;-0.22021605;-0.6763395;-0.26617107;0.9195048;3.8351421;-5.652226;-0.50121164;-2.8101337;-1.4054737;-0.68886393;-0.49145493;-1.4069667;0.44308633;0.6648743;-0.0679226;-0.20982267;0.23558475;3.382557;-0.85740054;-1.681835;-0.1011526;-0.62344235;-3.3037207;-0.72383004;1.3916596;2.603617;0.8106588;0.34671462;1.4895543;0.34040365;-0.06331387;1.2720215;0.13220869;-1.0648421;0.16656084;2.1257102;0.5173793;3.4795108;-0.74816865;0.3502013;1.1786813;0.61134726;0.48894894;1.1595554;-0.8422883;0.8927557;-0.057457287;0.05421149;2.3613963;-1.952213;0.9441982;1.2651652;-1.2460967;-1.5609585;1.819043;-0.026255416;-0.77708495;2.831706;2.180971;-2.8321002;2.4623404;0.07017754;2.8579102;-1.5778973;-1.7755092;0.87468946;-2.567487;-0.08287238;2.984787;0.4914912;0.35270566;-1.7957395;-0.53138244;0.70821756;-0.8368627;1.3905616;-0.5196718;-0.7576618;-0.20784295;-1.9926656;2.4404857;2.2536788;-0.94478637;0.07430085;2.6653383;-0.48795262;0.33200932;0.30195928;1.2815787;-0.28995803;2.2899344;0.83165973;-1.373161;-1.2088648;0.7188141;-0.16400737;1.018978;1.5810227;-0.5532305;2.0576665;0.5516955;-1.8643073;0.023128433;-1.1348001;-0.14404471;2.6706798;3.1480906;0.6756943;-0.46470502;1.1391342;-0.824422;-0.79219955;0.9256558;-0.11225119;-1.7533758;1.2738967;0.52776355;0.7102541;-3.3569307;-0.37290618;1.1485094;0.024259314;-0.9684163;-0.4673895;0.48765597;-2.9325986;-0.25243777;-3.9311297;0.41837364;-1.7030199;-2.957043;-2.321357;0.1572137;0.044866387;-0.29579553;-0.41660845;0.7179287;0.24475782;-0.95646685;-3.0196893;-1.22055;-1.6357425;1.9039285;1.2078085;0.11383009;1.4696381;1.1601113;-3.0754423;0.55876815;-5.261542;-1.4517368;-1.150627;1.4165317;0.52959114;2.1105838;-0.34298787;1.4754479;1.1509426;-0.026020369;-0.15106386;1.6174566;0.152922;-1.5507401;-1.3556556;1.4605129;-1.4790795;1.5019484;-1.3408872;-0.9386948;-0.13643458;0.16246673;-2.4482236;1.4868156;-0.57940954;-0.8736044;-1.1837933;-2.575602;0.066004746;-0.044958808;-0.86772656;-0.40631056;1.767449;0.5259592;0.03688114;0.21575195;0.21157272;-0.6711262;0.033019975;-0.9540494;0.7607541;-0.01523063;-6.467035;2.0372367;-0.88026494;0.25063524;-0.12717167;-0.46779853;-2.1001797;-0.7360759;1.7331845;-1.0721982;-0.14315234;4.887905;1.3940263;-3.119892;-1.4102173;-1.3446865;0.17935239;-0.59442294;-0.57955027;-3.6890814;-0.41076544;-0.3065042;0.63890725;0.6159199;1.3771732;-3.680315;-0.39648047;-0.21424587;1.3806609;0.19716701;1.6636822;-0.41812608;1.2848516;1.6830825;0.9688075;-1.0859892;1.2314391;-1.4254717;0.00051012466;-0.52645886;-2.8634598;0.059120454;1.4355915;0.08551931;1.522828;0.41875002;2.2251341;2.3889458;0.72582865;0.079689056;-1.5654266;4.8715134;3.7763546;1.8416806;-0.04811605;3.4977238;1.1901155;1.0532006;1.016727;0.43717057;-0.0230719;0.005219459;-0.26178765;-1.2467519;-2.4745507;-0.9535884;-2.79855;-0.92068315;-1.0265716;-0.2938024;0.37399784;-1.8055618;2.8691347;0.2389784;0.31693757;-2.3002436;-1.9381193;-0.07029346;-2.0854356;0.29212385;-0.6843918;1.5101582;-0.225151;1.8267587;1.2344723;0.78419906;-0.65361226;-2.9528434;-0.420356;-0.26846704;0.13019685;-0.8754866;1.1472557;0.8838759;1.2308148;0.14025582;0.27254897;0.075619794;-1.0194352;-2.95725;1.6285453;0.04536947;1.916396;-0.12866472;2.47968;-1.1148201;-0.59105134;1.1083016;-1.7846735;-1.4229003;0.43164387;0.7780954;-0.34349522;-2.6609588;-0.040324677;-1.2366128;1.6266643;0.33013928;-0.49488586;-0.7038565;1.2858777;0.5874851;0.0047216006;-0.81514305;0.69468516;0.28954506;-3.1189022;-1.0143172;-0.27403992;-0.2231381;1.9140475;2.2706547;-0.58824444;-0.68370867;3.2516115;2.4977357;0.54404163;-0.81436354;-0.5405767;0.055000003;-0.52803344;-0.14581795;0.14422515;0.7210231;0.08521718;-1.3559155;0.4390634;1.6286236;0.24242783;1.2423787;0.30033857;1.4687709;-1.2881582;-2.4023511;-1.9032712;-0.56399274;1.4302393;1.2551836;3.1266294;-0.030264698;-0.078461245;2.372958;3.1124196;-0.5095392;-0.60981065;0.15972832;-1.0497379;-0.0010956066;-0.93798554;-1.9344445;-1.7136714;-1.3336924;1.761181;-3.308705;1.2352989;1.167131;1.6766686;0.6810715;1.725106;-0.26832223;1.8725827;1.6379837;1.8924358;1.3768505;-3.029646;0.46501836;-0.09458009;-2.2480478;1.0357965;-1.7676965;1.6331035;3.502349;-0.35557327;1.7776387;-1.5035146;-0.5094539;-1.1331687;1.4705553;0.21285379;-1.6317687;-0.5535497;-1.5274894;-0.06620698;0.66240734;3.2455375;-0.05375176;-0.49980798;0.16943565;-2.718751;0.06689348;-0.5691058;-2.5956614;0.21543612;-0.33823937;-1.2814709;1.2733074;1.464179;-0.62772816;-0.46447766;-1.8772701;0.9431136;-3.54143;-0.06025046;-4.454953;-0.37165454;1.9386274;1.2675234;-1.2374917;-0.80753654;0.5113231;1.351936;-0.5254898;-0.05447285;0.6970325;-2.334036;-1.5866811;1.8458682;2.716974;0.27770436;1.3969295;-4.2526765;0.36295462;0.55831283;-3.030916;0.35355276;-1.500762;1.8540671;-4.756689;1.8574284;-2.0184224;2.351104;1.214162;-0.50758016;3.6028066;0.09658832;-2.5097392;-2.5374606;0.47826323;-0.014589741;-4.100644;0.27241042;1.2887989;1.8686547;0.35565594;0.09061663;0.49898672;-0.6663271;2.914914;-2.3613772;1.3115044;-1.5537184;-0.07362713;0.2711582;0.9745899;0.27074015;1.0279226;-5.212003;-0.5378575;-0.123135686;-0.76566297;1.1659082;-0.02994744;1.754346;0.1929508;-0.7737211;1.6795385;1.1099762;-3.0367637;-0.6013401;-0.022464765;0.26997516;3.592264;-0.5985426;1.8563584;-0.40353101;-0.9968763;1.172089;1.8048114;0.090244085;1.6229877;0.4847779;0.6415153;2.2242625;-2.0386279;1.0348879;-0.20515364;-3.6255722;0.83046067;-0.063145645;2.1780214;-2.7720537;1.424261;0.9508434;-1.1906761;-2.2289457;-1.3421357;-1.1377324;0.2950498;0.18507753;-2.2834332;0.16921389;1.023421;-3.7910323;2.5364754;-0.21880619;1.2807673;0.47181082;-1.2197515;2.7262995;0.17666185;-1.7418318;0.070219114;0.43274263;-0.35628358;-1.242115;-0.8770832;-1.2925537;-0.53824204;2.2912233;1.3873327;-1.6010516;-1.3828069;1.1314808;-0.34560952;-1.6948578;-1.2680352;-0.74195236;0.14000605;0.4864059;2.4971914;0.20929429;0.24905607;-2.756048;2.2433445;1.0263377;-1.1132901;-0.32532477;-0.513335;1.9024688;-1.0274354;-0.3397941;1.2911628;0.44935375;1.7749861;-1.3125447;0.46149576;-3.0588317;0.80813396;-2.3373704;1.7668604;-0.63316864;-1.7281123
-1.9209839;1.4434575;0.016103407;-2.5058787;-1.7816341;-0.46385536;0.58067507;3.0161233;0.088164315;0.6077599;-0.43249786;1.816206;4.4175777;1.8514243;1.0160509;-0.10204096;0.066726245;1.9871324;2.4804616;1.3487978;-2.0143025;-0.34848922;-0.5321384;-1.011697;-0.6780998;0.31072426;-1.1165053;-1.5534743;-1.1361609;1.2649968;0.38629457;-0.84654737;-1.6997303;-1.7833635;-0.6747332;0.32739627;-1.0918821;-0.006641676;-0.72939837;-1.5700438;0.9752345;-2.3556998;-1.5254682;0.056955107;1.7028769;-0.7105006;-4.115947;-1.9800293;-1.558204;1.1842301;3.7710056;3.1035244;-0.8333477;0.5698945;0.07246725;2.5605154;-4.2351794;0.8589816;-0.89627427;0.64439064;0.02892611;1.175851;-0.49503663;-0.005017707;-0.95447415;0.78752863;-0.49707618;-0.023670169;0.33381912;-0.013244428;-0.12308101;0.05511011;0.9915649;1.3430475;-1.6174611;-0.62975585;-4.90028;1.808458;-1.0862153;-2.3343866;-0.34020633;1.921102;-2.9513526;-0.2698239;-1.1689163;-2.257654;-3.0345194;-0.44191363;-0.5349919;0.94305813;-1.3721379;-4.501234;-1.2483951;2.101801;-3.0248058;-2.4877157;-1.568545;-1.307598;-0.39568508;-2.9727895;1.7272803;-0.031058088;-1.1405741;-2.804017;-0.4452731;-0.59905577;-0.52887774;-0.45822212;-1.4220679;-0.22327429;-1.6704018;2.48855;1.189163;3.7232969;0.77138317;-1.2568841;-0.72844034;-1.8083359;2.2118094;1.2035997;4.6029797;-0.5313454;0.07497804;1.604914;-1.9781567;0.84372044;0.6135399;-1.6525313;0.58780926;0.2465578;0.864048;-2.0061703;-1.1852924;-2.7156668;0.08308913;0.64551985;1.1553959;-0.9565514;-0.07367925;-0.39922115;2.2096872;1.5559878;0.16759317;0.4411835;-1.3506968;-1.3323442;-2.9602146;2.2875657;-3.0361464;-0.52970016;-0.6056413;-0.7418163;-0.7348823;-2.9290771;0.3088356;-0.4951233;1.4013424;0.5244631;-3.2031214;-0.9755499;0.84191877;1.0777181;-4.012558;-2.076126;1.5012691;0.3016707;1.2136787;-2.6098173;-1.4658656;3.6816545;3.3429935;-2.3111658;1.6252145;-0.8549971;-0.7510627;0.598958;-4.150061;0.85466826;-1.2226967;-0.76588625;0.49583146;-0.2361566;-0.5756101;-4.071626;-2.9201;2.7563097;-0.70975494;-0.37905848;1.2895914;-0.71695286;0.4463063;-0.39327544;0.60454386;1.122282;1.8193367;0.86448544;-0.44943687;2.1659515;-0.86850476;-0.5181303;-1.9963896;-0.17549838;-0.90807325;-0.9332006;-1.1548618;-2.0809402;0.6476999;-0.71645796;-1.4149114;-3.121971;-1.9524629;1.1724414;0.36813816;-0.9298541;0.70955104;1.5575771;-0.27239415;0.34073195;1.3733476;0.75854504;5.071403;0.33243123;3.8435953;2.2413547;-0.39056486;0.4128642;-2.4050107;3.513008;3.261267;-1.3369038;0.9804945;0.16060205;0.5826106;-2.4231827;-0.48949727;0.92804116;0.7804346;-1.1777649;-1.1045337;-1.1266599;0.8219552;3.0933712;-0.76049805;-2.3310285;2.7014544;1.756192;-3.1143775;-1.7789347;-0.2682527;-1.3614186;-1.4098792;0.0012995709;1.8375114;-1.72428;0.91760385;1.8338645;2.4772792;2.0859623;-2.5342474;-1.4997121;1.865438;2.0466719;-1.161693;0.818606;1.3702374;-0.25533432;-0.0082366215;0.59805447;-0.6827402;1.8255552;-1.3436682;-0.3095945;-0.7514247;0.08505646;1.7523003;-1.2044078;2.330608;-0.049633026;-0.15147927;-1.8449725;-1.5457472;-1.2998495;1.4895401;1.1852702;-0.22037622;0.35906276;1.1562752;1.0638951;-0.39214966;0.06771841;-0.94464666;-1.028972;1.5015283;-1.202407;-1.393267;3.231703;0.640813;0.043245025;0.16438341;0.99493027;1.4622844;-0.30502367;-0.56995046;-1.6917642;-0.5301723;1.2191449;1.4680444;2.555651;1.3138628;-0.54975605;0.25348234;-2.7630322;-0.44005486;1.384533;1.9037005;-1.210361;1.3774241;-1.8432472;-2.3192873;0.37372947;1.1489956;-0.8035391;-1.8339211;1.14198;-0.39309055;-1.956639;2.6756034;-2.8013544;0.051847946;0.41983488;-1.0655638;0.7995157;-2.6949022;1.0901413;0.5965994;1.8051329;-0.15406619;-1.8828717;1.3869561;0.017053649;-1.8293726;-0.05998829;0.59724003;-1.4793046;-1.1011829;0.31366464;0.33139434;0.08735413;0.025533987;0.89233416;1.9162492;-1.0569959;-2.6903307;-1.4731272;-0.9282525;-1.9026482;-1.5634744;0.018123992;-1.896398;1.3198419;-0.88179636;1.7930964;-1.0645269;1.7623163;-2.033979;-0.2615529;0.25374654;-0.74582195;-0.5606388;0.15358515;-0.72278535;0.24861838;-1.9967188;-0.8103157;-2.4802868;0.85569423;2.741008;2.1762593;3.218563;1.3228902;1.362781;0.1281373;-1.2547637;-0.28690475;0.28823802;-0.19066183;-1.7456589;1.7276281;2.1470869;-0.2621274;-3.9118154;-1.7529604;0.32982668;-0.1377273;-1.1118592;-1.5562196;1.2080082;1.192941;1.7223734;0.92847145;-3.0867276;-2.0379436;-0.2123843;-0.458318;1.8944751;-0.9474934;-1.895145;-0.7337088;1.1738088;0.65916425;0.06982727;1.0401648;0.15756363;0.9077338;0.5607607;-3.3770185;-1.9123151;3.8409927;1.5722563;0.08794547;-0.19478072;-1.6529619;-1.18645;3.4001803;1.4219844;-0.6434812;1.1705494;-4.4881115;0.8394029;1.8800335;-1.0810373;-5.3537984;0.46052706;-0.8641085;-0.9493529;1.0687252;0.89635193;0.100941;-0.17543972;-0.075538926;0.37532455;2.4871495;-0.2597904;0.18427987;-3.2251751;1.6147529;1.6347681;-2.416035;1.1441984;-1.0430593;1.0861714;0.87910306;0.5457362;-0.30604082;2.4815273;0.80167127;0.9531012;-1.6592146;-1.0560795;0.67835647;-2.1046073;-1.7906754;-1.1412163;-0.19397525;0.07499606;0.058180023;-0.0029045977;0.44380715;-0.25661266;1.8042412;-2.3479354;0.6879053;1.8835121;1.2498189;-1.67386;0.05127317;1.1877921;0.35956234;1.5382318;-0.020311685;-0.6251195;-0.051617704;-2.184282;-0.74493104;-0.55976045;0.05627215;-3.4980466;0.2243288;-0.394087;-1.8630886;0.6206471;-1.5371051;-1.3366156;0.45363495;-2.631397;1.8835311;-1.5282303;0.29268017;-2.4765487;-0.77165264;-1.9323889;-0.9966432;0.6603586;3.0624537;2.5122566;2.270621;0.9687264;-2.1849668;-0.60700035;-0.3548557;0.6589252;3.1753898;-0.3850397;0.23167466;0.53103536;-3.77581;-0.42864224;0.013128349;-1.4238985;0.00302147;-1.3015677;0.7022707;-1.0639786;0.7815363;1.5401459;0.45393044;-2.2602859;-0.14960662;-2.9161713;-1.1810447;0.024587879;-2.321138;1.4088038;-0.2426346;-1.2040538;0.582604;-0.08732793;-0.049637422;0.32120278;1.9171653;-0.93436986;-1.2248011;-1.1068099;2.2037237;-3.70042;-1.8377401;-1.12126;0.16392317;-0.26001447;0.8335675;0.07882658;0.57025075;-0.2704262;2.9191015;1.7331636;-1.1009159;0.060539555;-0.73583674;0.7359009;0.058827274;-0.39418823;-1.8161641;0.3481216;2.2116706;-0.30704165;-1.1298823;1.5345031;1.4915997;-0.50588626;0.32386875;-1.1692568;0.20089623;-2.904462;-0.13721639;0.85520464;-1.6659063
-0.7350704;0.8270012;0.41758287;-1.4991173;-1.6605539;-1.501257;-0.6716837;-1.2421526;-1.7812092;0.5036307;1.6112049;0.969108;1.1782311;-1.0524789;-0.14845373;-1.2728403;-0.98331773;2.4980311;1.2958663;-1.4091842;-2.4364986;0.38547108;-4.471313;0.37659907;-1.4858854;-0.7208864;1.1869761;1.0044923;-0.94468695;1.2351387;0.54870147;0.19304028;-3.5941472;-2.083637;-0.15357086;-0.11946325;-1.0830486;1.9330298;0.2695684;-2.315156;-1.5053679;-0.48701018;-0.12828268;2.344042;-0.769329;-0.3539063;-3.7701533;0.3746659;2.07674;-1.5308375;1.4452864;-0.1428193;1.6085173;-2.2077227;-1.3258878;0.56999147;1.5488831;1.4862535;-1.0553166;0.2866867;-0.07629875;2.9365537;0.66720575;-0.20155619;1.2090224;0.9131601;-0.2900269;-0.6512249;1.6677912;-0.9277559;0.13554083;0.2572853;-1.7757187;0.14404516;-1.2799357;-1.1293077;-0.26954004;-0.3997304;-0.76231295;-1.0584546;-0.8278453;-0.11910003;-0.16605362;0.1750379;-0.42115286;-1.553004;-0.08759615;0.5176054;1.3882381;-0.30760857;0.8413459;0.95599586;-2.1576495;0.6300908;-0.37027958;-0.5402108;-0.9328785;2.8860736;0.24060918;-0.98728967;0.37778443;0.57685345;0.97247237;-1.5491011;2.2382524;0.40748847;-0.84653217;0.38843957;-1.05764;-0.061183006;0.6981978;3.3633993;1.8275987;1.7836274;-1.041651;1.1358801;-0.13026929;-0.5676291;1.1351097;0.8987647;2.9049962;-1.2812067;0.11062794;1.4086875;-1.4040927;2.0615706;-0.7045726;1.5119386;2.5773113;0.04651754;0.4510381;2.4870062;-2.43913;-0.52567375;0.019196762;-0.44921005;0.07353561;-1.8601472;0.46596673;-0.9918802;-1.4091532;0.6962366;0.13235243;0.09157086;-0.11155921;-2.7029223;-2.4954393;-2.2584333;-1.2405387;-0.66074646;2.331361;-0.21436746;-2.31926;-1.9763958;-1.6777639;2.2147994;-0.54584235;-1.9243833;-0.1980918;0.36365458;-0.8359703;-0.3194983;-3.6631987;-2.9071643;-3.5753438;0.9906835;0.0753533;-0.18614796;-0.10046387;0.7574645;3.7736378;-1.4514266;3.057902;-0.7188602;-0.48022375;0.4477391;-2.590494;-0.3661307;4.267314;2.082421;-0.40907332;2.3281085;-0.27055198;1.6223354;1.0369756;-1.3318701;-0.8629286;-0.57318175;0.4127146;-1.058114;-1.574636;0.6052857;-0.36076257;-0.7926773;-1.2708325;0.53348124;-0.21862376;2.9103804;0.6524198;0.54041475;-1.0123321;0.410663;2.154088;-1.6872497;-2.1694298;-0.038592175;1.6948596;-0.9155915;-0.19138376;-3.1899076;0.5782307;1.250468;1.9154593;-1.1973581;1.0350174;2.9473324;-1.9649669;-1.3022037;0.5800913;-0.88209707;1.6747881;-0.8442726;-0.14669093;-2.1365168;0.5290725;-2.518954;-1.5479885;2.0291634;1.4614611;0.28037107;0.87584513;0.012304656;-0.34808892;-1.2431455;-1.671357;0.6634653;0.6047659;1.224519;1.6206135;-0.21384273;-0.5478032;0.5686325;1.4377605;1.5973889;0.45569646;2.4368112;1.0439668;-1.9172925;-0.31858453;0.21634045;-1.8196186;2.1406279;-2.1416032;-1.5458618;-3.8860197;0.37149715;1.6129591;1.2913524;-1.2597224;2.6147125;0.33671704;1.3979236;1.8657678;-0.1905486;-0.41580233;-1.1094213;1.600504;0.37631503;-1.1698241;0.088196866;2.414516;-0.31726298;0.9518532;-0.03935534;0.57749546;-1.022128;-0.19198224;-0.86728567;0.7663117;-2.9504645;-1.0948248;2.3486698;0.49139288;-2.562403;0.30459747;0.4736127;-0.26562965;-1.293182;0.051842146;-0.59150624;-0.36435005;-0.89017147;0.97345716;0.1132453;-0.72068125;-2.7737205;-0.6056191;-1.0082946;-0.12929118;-1.0866622;0.5148614;0.2612166;-1.0769025;-3.3619852;3.2368464;-0.80437356;-0.9558494;-0.69548607;1.25855;-0.10855272;0.49084252;2.1133804;-0.07427025;-1.7326959;0.6523131;1.8979264;-0.7913415;-1.3259532;-1.932701;0.9514298;1.8145984;-0.7824852;0.5650177;0.10032937;0.7432653;-0.2693002;3.8570275;-3.2803733;-0.7494066;0.1922898;0.20656621;0.42269707;-0.29115847;-1.992133;-3.219177;1.9693556;0.50542307;0.19852546;-2.7795863;0.8219825;-1.1552179;-1.1928109;2.5684;-1.9285448;0.26990986;0.87799585;-0.4271949;0.13448434;1.8494468;0.6020558;-0.0788612;-0.15199253;-1.3489577;-1.912429;1.0075952;-0.46647355;-0.3632042;-0.36003843;-0.3090842;2.9630828;0.20386073;-2.2183235;-1.2865474;0.22769073;-1.6912124;2.134777;-0.9887542;-0.48816267;0.18225437;2.5581741;0.40257028;0.38050905;-0.21021684;-1.5333779;-0.38466793;-2.0645652;1.8420345;0.5855565;-1.8118157;1.1606282;0.5237024;-0.17071372;-1.5724077;-0.7726191;2.4774306;-0.32231614;1.4909778;-0.80181897;0.49564984;1.4583768;0.73240817;1.1098299;-1.7325746;0.2207585;-0.67426527;-0.98991585;-0.85784274;-1.5025473;0.69737536;0.19543318;-4.4190884;-0.2418618;0.2546452;0.4624804;-2.0456963;-1.3291721;0.32862934;-1.0521221;1.4318031;0.3873829;-0.3381081;0.992158;-1.0395955;-1.874825;0.64486516;-3.4071524;-0.7376174;-1.6919221;-1.8520615;-1.423285;1.0576682;1.011778;0.94881797;0.12450147;0.24091248;-1.1303592;-0.11828913;-3.8274808;3.4413164;-1.2077414;-1.0244496;0.34992287;-0.7308422;0.53154016;0.24836767;-1.3978765;0.5987757;-1.882834;1.0203681;-1.0352857;-0.007871592;0.99221176;-0.3460347;0.059765026;-1.1225652;-0.64804906;0.07029939;-3.9677155;-0.43358022;-1.0932852;1.081693;1.0154265;1.3153355;2.2161143;2.219544;0.6513911;-2.124801;3.6352675;0.7891056;-1.5721798;-1.9808687;1.3304735;-0.05562123;-3.0886917;-0.10304075;2.177501;-0.63771045;-0.7148036;-0.020447409;2.3392782;1.6747897;-1.1827419;1.83359;0.954469;1.267629;0.1974844;-0.30529466;0.5823436;0.587315;0.2562795;-0.5210986;1.90171;-1.758893;-2.0497446;-1.4131315;2.299855;-2.053277;-2.452455;4.4178267;-3.5303917;1.0321375;-1.221855;-1.0264434;-0.87062776;-2.290654;0.30665192;0.39819884;-0.62472785;2.8240597;-1.9381074;2.903153;2.366859;1.2284449;0.5196171;3.1435997;1.7417887;-0.0062176883;-2.8967528;-0.3581947;-0.43801066;1.8250878;-0.5194001;-0.74262756;0.3775889;1.0407472;0.18782061;-0.08456741;-1.1684681;-1.5216188;1.9639953;-1.4574684;-0.6070794;-1.528086;3.1977444;1.5602953;-0.3905936;-0.3359909;2.4477193;-2.4548533;-0.09672071;-2.0308247;-1.8574241;-0.307502;0.834192;0.053853843;0.16212963;-0.6035515;1.4174664;-0.52982444;-2.1937892;-3.0257971;0.34271035;2.2253938;-1.6598712;-0.8172743;-1.5684203;-0.666794;0.33721736;0.026944537;-0.19931193;0.2755851;0.5223265;-1.2165859;-1.3063478;1.9937859;0.93475;0.8001347;-0.20883708;1.0849516;-1.4104205;-1.153917;0.2611019;0.36418164;2.1482675;-0.72185844;-0.4478142;-0.6920125;-0.29356807;-0.024797875;-0.2944333;-1.3950553;0.6211311;-3.8334353;1.6941595;2.3023396;0.73494184
-0.05581062;-0.9947736;0.56927073;-2.6261091;0.56526893;0.3222032;-0.07091787;-0.47881907;-3.1567822;-0.781651;1.6703035;-0.7464872;2.2840793;-3.42088;0.21223338;0.3170013;-1.6573141;0.9043886;-2.669117;-0.35228726;3.2424023;-0.8571153;0.3827286;0.420953;-0.9742544;1.5866339;-0.5377641;-2.8957944;0.31750843;1.3154811;-0.18629043;-0.90764;-0.68119824;3.4671009;-0.9967754;2.1051047;0.2450667;0.96768355;2.7444568;-1.8455688;2.1736765;-1.2491119;-0.23924781;0.80174595;2.21386;-0.24722876;0.6520736;-1.208085;2.0427377;-1.2040633;-1.2588048;0.94518995;3.430306;1.5336542;1.2142832;1.4997002;-1.5159063;0.24922886;0.13194406;-1.3050771;-0.07243909;1.2965691;-0.10171256;-1.0297906;-1.3287629;0.39723673;-1.247667;-0.78410727;2.9491656;-0.31105465;2.2048254;-0.20397493;0.6447271;-0.278656;-0.9806203;-1.0186877;-1.3512161;-0.7535165;-0.5951624;-0.51144075;-0.08008329;-0.7843554;1.8936222;0.191732;-0.9837192;-3.5679338;0.57038826;-1.5095341;0.95349985;-0.3590046;1.2120222;-1.5348593;-0.79914296;-0.27204767;0.5020503;-1.0083059;-0.88570464;-1.6862253;-0.3704722;0.019833853;1.629185;1.5205661;0.82162875;-1.1301842;1.2440436;0.9943902;-4.199009;-0.79146045;-1.6921116;0.66144955;0.56835014;0.71110046;2.4622586;1.6642452;1.1897426;-2.4876788;-1.0957648;-0.04139859;1.7533503;-0.32121938;-5.387568;0.09482589;-0.6749473;-0.614415;-0.26111624;1.5922467;1.2464681;0.8235581;1.5531094;0.7443248;-3.360797;0.24966802;-2.1454859;0.3715903;-1.5670184;0.12610622;1.4465499;-2.1128955;-1.0510569;0.23330721;-3.3980908;1.2364945;0.5079875;-1.1372074;-0.68125623;0.35169712;0.025045319;-0.7983124;2.2337167;-0.40171117;1.2409942;0.9880474;-0.6307667;-1.6618308;2.5718222;0.76959395;-1.1681048;2.6920943;-0.24315016;0.7377068;-3.0195413;0.41179597;-3.7067297;-0.1371844;-0.006329877;1.0595688;-0.37397736;0.048096538;0.1605441;1.8556292;1.3568081;-2.4957762;-0.3035574;-2.0479357;-0.9661348;0.060026526;-0.25499022;-1.448238;1.1761689;2.9652195;-0.47481224;-0.8967212;2.4323785;1.8424785;-0.08075072;-0.12413575;0.708191;-0.28891125;2.544666;1.0387292;-0.9382061;-0.4475975;1.3387382;1.2775451;0.07332626;0.19297598;2.3195324;0.51534075;-1.7122372;-3.2302854;0.9964543;2.4127858;2.7214725;-2.1152027;-3.268559;0.90074384;0.54052764;-1.3787615;-4.4236116;-1.3649164;-0.88555825;1.352649;1.5912477;-0.6578463;-2.0776374;1.4029111;-1.768548;-0.9636362;0.7073652;0.5610089;3.5429766;0.7153568;1.1649073;0.56188405;0.102523595;-0.72356534;2.147523;1.5575804;2.3990326;0.50738245;1.1674448;1.5971321;0.40908152;2.541189;-2.7838287;1.2788081;0.8750494;-3.4593692;1.8871852;0.3606002;-1.5776771;0.84846836;-0.033579256;0.563536;-0.3470142;0.41790628;-0.33752477;-0.20960352;-1.4763751;0.43715644;-1.6054087;2.5233207;0.045300905;1.5820764;-0.54580253;0.9772252;-0.043571137;-0.52326715;-1.6528755;0.34363553;-0.2909783;-0.8915035;-0.036080427;0.19089188;-2.6839933;2.278307;0.83051395;0.31946695;3.51986;-0.9594165;1.1024963;-0.70649874;2.6501482;-0.46033734;-0.5633703;-2.8346756;-0.062587686;-2.0091758;-3.1726975;-0.9070358;-2.0506253;1.0290457;2.0833268;1.4307226;0.48059472;1.4299133;-0.4775945;0.5805345;-0.7578861;0.6668423;0.35964507;2.5658095;0.10710322;-1.4380888;-0.10477665;-2.144628;-0.051561456;0.18799904;-0.3802806;1.1094719;0.958128;-1.2788651;-1.2559048;0.4632748;-1.2152941;0.21602058;-0.23108894;-3.1572206;-0.92675585;-4.1023808;-0.38606408;1.4458271;0.027149988;-2.0349913;3.5892532;3.9155457;-1.6205152;-2.224061;0.7865067;0.9868543;1.5283136;-2.5662823;-0.747094;-0.41173923;-0.36238712;3.0247054;1.9828415;-2.1960204;1.2505844;1.2457014;0.06154914;0.8842993;0.888099;-0.62065667;1.3194919;3.1214883;0.5053332;-1.8109804;-2.215066;-0.2709542;-0.94229865;1.731364;1.2687627;0.29259613;1.4531695;-0.30996746;0.68523383;1.2984366;1.5258859;-0.46511382;0.57929134;-0.99450326;-1.205413;-0.25893843;1.2815151;-0.72364384;-0.5500759;-2.7582865;-1.0256584;1.5429375;0.91329676;-1.4913429;-3.3247068;-0.12820733;-1.9581723;3.3595803;-0.085692436;1.6733454;1.8416139;0.38235202;0.88096654;-1.5237656;0.0068690255;0.74803203;-1.7818313;-3.670172;1.0117825;0.7704222;-2.3763967;1.7793534;0.5826656;-1.0451696;1.3992379;-1.3299272;0.5387151;1.7032943;-1.3574994;-0.58619064;0.7491268;-0.3049675;-2.100413;0.09405736;1.5614551;0.5190281;-1.5259931;-1.8128089;1.1123543;-0.6625939;1.7575538;-0.8351532;-0.24200511;1.0300618;-0.57517284;1.2162501;-2.5874445;1.5084502;-0.6387093;1.225997;2.0738626;1.5959237;-0.63342726;2.4877372;1.4741012;-0.14003715;0.5910366;2.0752666;1.2756144;-2.2654703;-2.055968;1.9631253;-0.08927743;-0.3981093;1.3477128;0.19800511;0.17862935;-0.74756217;-1.8557794;-0.83167565;0.93953615;-1.7604151;1.1838516;-0.4364846;-0.37575227;0.5394533;0.44032106;1.8011544;-1.5430826;-0.33825496;1.2634335;-0.41231862;-0.7475494;-0.06552171;-0.23850755;-0.42297256;0.51311576;2.1278567;1.3116459;1.1948315;0.64499295;0.6874654;-0.2590402;0.53175277;-0.80351955;1.674322;0.68563807;0.55732805;2.9657493;2.4397583;1.4936574;0.8638426;-2.1819475;-0.14000891;0.5542076;0.9310814;-0.35678154;1.2880355;-0.09231091;0.7734741;-3.0851283;1.2487673;0.5419929;1.9792078;0.5078171;0.8543574;-0.04604056;0.8141656;0.2395639;-0.8056409;-0.37294292;0.34470624;-0.33120003;1.0192138;-0.57841504;1.5321711;1.4362525;0.73427343;0.96053827;-0.5745314;-1.4728113;0.74978894;0.6632057;3.5857782;0.016052619;3.0598755;-3.2162204;-0.49256378;0.4870173;-1.5838186;-1.110713;0.6577324;0.45188597;-0.72486943;-1.760356;2.0781097;3.8651812;0.9530299;-0.4834443;-2.6588287;-0.05487518;-0.853862;-2.558397;-0.43563887;-2.7330227;-0.26335675;-0.43049827;-2.1010082;-0.07722693;-1.7633052;-1.8242112;1.8326515;-0.55442125;-1.9199381;-1.2921468;-2.3779578;-0.05452843;0.27705553;-0.99648345;1.1363378;-0.24323238;-0.15821716;2.6786325;-0.16586803;0.15005304;0.4216158;2.103715;0.6283443;0.31726834;-1.1173718;-3.8134875;0.51875794;-3.0768983;-0.5908656;1.5844889;-3.3199272;-0.8227497;3.222688;-0.56415856;-0.27971068;-0.29318503;-0.39878336;-0.6743639;2.0403552;-0.0058307857;-0.74657;2.8965182;-0.78237355;-0.5860194;-1.1019138;-0.07874747;0.9026157;-0.36127585;-0.26046622;1.311014;-0.10730719;-2.1436749;0.33668575;2.5679471;0.05544367;-0.8713817;2.122576;0.85444105;-0.5366313;-3.0119472;-0.23832159;1.2858869;2.0541265
0.61317015;-2.1833403;-0.57169545;-3.8236053;1.42459;1.0110201;-2.0723524;-0.45810387;-2.616371;0.013670705;1.3811362;1.1120058;1.0169603;-0.4284147;0.5050496;0.5921042;1.9871383;-0.6787233;1.2864096;1.9044852;1.5012637;-0.029485643;-0.6043698;1.4691472;1.8645281;-1.5207661;-0.22684343;2.3618822;-0.1628149;-0.49506238;-0.26386502;0.89754224;-3.9121726;1.5599188;-0.36759922;0.09561936;-1.451409;2.725373;1.150122;-3.0104008;0.38084847;-0.6082575;-1.208243;-0.91683024;0.22759905;-0.9852798;-1.6119299;1.324314;-2.0637047;0.5668251;2.8206058;1.095197;-1.2378986;-4.233828;-1.8683136;-0.15341185;2.565111;0.034965895;-0.20359702;-1.033025;0.11096239;3.45033;2.441943;0.26099434;-1.0595254;-1.516451;-0.890222;0.03686526;1.1971649;-0.30322605;-1.8496058;-1.2920419;0.43930936;0.14635937;0.6270595;-1.1785513;-1.5580554;-1.0731266;-2.1218646;0.20255223;0.68810165;2.282525;0.51339126;0.22685963;-1.3337861;-0.5329673;2.7135515;1.5670686;-1.5322049;-1.0508112;1.5979922;-0.78055304;-0.8932262;1.6076094;3.3188462;1.960613;0.53963196;1.476516;-0.27134535;0.90477747;0.4521975;0.081892096;0.66936594;-0.57150495;2.5094438;1.6109904;-3.3862526;-0.40368152;1.4461721;-0.00080579886;0.58755237;-0.07043452;1.9261795;-0.75606996;1.1235054;-3.7066514;-1.7932332;-1.1111833;0.3424578;0.92893356;-4.709904;-0.4175857;0.82333505;-1.3743222;-0.13285542;3.2017276;-1.2923403;-0.61393124;1.7177263;-2.1555352;1.037917;4.4262896;-2.743681;1.2336453;0.6934894;-0.10115746;3.677482;0.11238319;1.8356253;-0.062840246;4.924007;-2.5586846;1.1256433;-1.0133469;2.2120726;-1.5358384;-0.25742108;-0.8179166;-0.98518103;0.47165748;1.1477542;-1.4064944;0.080411874;-1.7256335;1.9082558;1.2493745;-1.8063877;-1.7828622;-2.3917494;-0.44516438;0.17433557;-0.8997247;-0.49305198;-0.9419488;-1.1764755;0.0118357465;0.8736603;2.3757453;-1.2551025;-2.4764075;-2.012422;2.1392055;-0.10836351;-0.28471768;1.0255013;0.4082607;-1.7961035;2.226313;0.09086573;-0.7522483;1.2169342;0.9941115;-0.7402045;-1.9030796;2.4066594;0.29740328;-0.88236797;-0.64177513;-0.7611253;3.9191723;-0.09745432;-1.3062645;1.8031973;1.2226363;-0.26252156;1.802685;3.835685;1.2028811;0.04303411;1.8978012;0.8430092;-6.342108;1.2857503;0.7227569;-2.8892167;1.5799302;2.0429294;-0.42286217;-2.5956275;0.8479483;-1.2976311;0.78509057;0.36944288;0.2883785;-2.7512872;0.8864285;3.1458755;0.50083774;-1.1489639;1.2002212;1.9301442;2.2912624;1.1572452;-3.1114457;0.4129147;-1.7795773;2.4267724;-2.6788437;2.6127825;2.5371587;-0.60312897;-2.5379205;0.40257075;-1.3070575;-0.8147406;0.14200194;0.25629666;-1.5656569;1.9531322;-0.3907352;-0.22656307;0.8083766;0.65736306;1.1058362;-0.41626832;1.6933293;-0.80459696;-0.66938466;1.1855727;-0.6393222;-0.81102175;2.657009;-2.1172438;-1.7547342;0.0034444768;-0.93336827;1.8912448;0.36957982;-1.9166514;1.7479836;1.145561;2.5111103;2.331402;0.0010086792;1.3706961;-1.349006;-0.6243782;-3.5033734;-0.12090572;-1.2835646;-0.5946488;-0.733863;-0.058606155;1.5793846;-0.43603295;-0.50782347;-1.2095312;0.6294462;-2.8730278;-1.9873496;-0.33823404;2.2514546;-2.3896594;-2.3186781;-0.03920255;0.05945552;-0.78934425;0.58319813;1.6987274;-0.1369891;-0.71895796;1.0217154;-0.6609105;1.3964771;-1.0815679;-0.5113256;-1.3104234;-1.6138856;-2.192313;-4.0529876;-0.42401233;-0.48517916;0.37500265;1.0684059;-1.856641;1.3613404;4.168022;-1.7345992;-0.5574338;-0.40718523;1.0498093;0.2310923;-0.87887436;-0.51829165;0.88874245;0.5470617;-0.7625319;0.19551747;-0.90946734;0.9297554;1.5540011;2.560752;-0.66739094;-2.005042;3.006348;0.83044004;1.2132442;0.22634912;-0.20241748;-1.2195072;1.8591377;1.1235632;-0.33897358;1.0460203;-2.8368192;0.71064687;0.11920671;0.6629548;-1.6673869;-0.7350207;-1.386395;1.6041343;0.13520725;1.368042;-0.003237174;0.25520554;2.498709;-3.5836363;4.114863;-0.9333776;2.2673497;-0.9356361;0.5796656;1.6829901;-2.3142173;0.6212955;-0.288118;4.729315;0.22344583;1.3354554;-1.3693559;-3.8925378;-4.689257;-1.3711624;-0.6058393;-0.91231185;0.568485;-0.1649041;-2.370224;1.7333467;-1.488427;0.4813201;-1.2385371;1.2395513;1.2950106;-1.4946144;-0.05595257;1.1642834;-1.0822346;-1.4920466;0.5297719;1.1839399;-2.2435417;1.89679;-0.8763914;-1.004354;0.42219982;-1.2849313;0.7082914;-3.716396;0.87779456;-0.35890338;-1.1979597;1.4164282;-0.29480425;-1.0423512;-0.4510647;-1.82858;-0.14216581;1.5355216;-0.89679325;1.454263;2.9375606;1.2876775;-1.4975669;-2.1132493;0.3625077;2.3855891;3.3142312;0.34335586;-0.2868731;-1.9011798;-0.21835782;0.7638384;0.2913317;1.8320407;1.4852023;-2.0662794;-1.5186261;1.5328708;-1.357527;0.16259126;2.4610262;-4.933403;-0.5042976;0.120495625;-3.192502;-2.4900343;0.143896;0.80398047;-0.5020689;0.30982703;0.5496205;0.37168306;-1.6750554;-2.7090409;-1.6829344;0.6890712;-2.7623765;-0.3469763;5.4206343;2.6242337;0.90066594;0.3847834;0.500349;-0.52501655;-0.018875912;2.9788895;0.88883996;1.1379085;1.7600468;-0.09751485;0.9277192;0.45026037;1.7740991;0.6460727;2.5765836;-1.438458;0.93693805;0.23477411;-2.5852878;-3.219184;-0.7492554;-2.3819456;-3.1516252;-2.1167493;-0.3819697;-0.47523123;-1.9650917;0.86840504;-1.4118149;0.03645285;0.17458363;-0.11110283;-0.19487092;-2.158097;1.5290496;0.39718625;2.2814205;-0.7788715;0.6021139;2.0793514;-0.719415;-0.5974836;-1.2191935;2.0261245;1.0707455;-2.312842;0.61282885;-0.34894046;1.7558693;1.4795693;-1.2971265;1.1888838;-0.060985077;-2.5092323;-0.3672741;-0.58704555;-1.6067843;0.79138553;3.2414231;-3.2426476;0.64647526;0.894932;0.36749607;1.1144472;3.2372377;-0.19189575;-0.39949334;0.957108;2.6595297;-1.9481599;-2.185297;0.5668791;2.7169197;-0.0025004635;0.16047221;0.30386177;0.12184548;-0.6120535;-2.3167474;0.45508087;-2.03285;-0.20221812;0.5945374;-0.6853627;-0.22711979;0.80240935;-2.5172865;-0.7224707;-5.409834;1.3261523;0.32876652;-0.2969788;2.3570096;0.75946313;-0.21775156;-0.41398263;0.42415252;-2.3570182;0.49414057;-2.5427246;-0.82491827;-3.028358;0.26008582;0.61531276;1.0378854;0.33945748;-1.0304978;-3.378834;-0.3504033;0.8987194;2.675699;1.5284829;2.154651;0.74111086;-0.28541237;-0.8755634;0.7155146;-3.4996674;0.3814033;-0.51271397;2.7850106;2.8916407;-0.89295214;-0.9132949;1.5952797;-4.2722173;-1.0430368;-0.9340945;-2.5747442;-1.7810273;-0.5119406;-1.5778937;2.2084725;0.14990246
-0.55637515;-2.7819932;-0.049374394;-1.4299433;-1.2281748;1.9875253;-1.4770504;-1.9380118;-2.6628096;0.6688588;-1.6102346;2.9202416;1.6753124;-0.67150694;0.6299094;-1.3898053;0.025043879;-0.3595946;-1.6241522;-2.4609287;-2.5019355;0.8966468;-0.16999777;2.4116912;0.82299817;0.29886913;0.7473535;-1.4866366;-0.72015506;0.6338319;1.1484168;-0.028220376;0.77112687;2.7106826;-1.7019724;-0.3870868;0.87697625;-1.2003485;0.13114241;-0.6397907;-0.020675018;0.0708462;-1.5734258;-1.2442219;-0.11138996;-1.9629226;-5.50731;0.45256022;1.1970593;2.8265681;-1.5330313;-0.089337714;-0.39385664;0.3341592;0.27867618;-3.1903174;3.2806225;0.87917495;-0.8041404;0.7946541;-0.1299939;-0.38251144;-0.46110365;1.0578254;-0.21990219;-2.7112443;-1.1443926;-0.864324;0.5318295;-1.2495581;3.0896711;0.32243913;1.0517373;0.91225016;0.17932712;-0.70439523;-0.061065383;-0.15946676;1.1313778;-1.3713378;1.1931765;-4.6730313;-0.34081683;2.8384523;-1.1959379;1.113244;0.65323216;-1.0570171;-0.87901413;-0.70987576;-0.53682536;-1.2976398;-0.34826463;-2.6681023;1.3630232;0.83625185;-1.6862503;2.0695908;-0.44640157;1.2686068;-0.48679963;1.5476466;-0.8596448;-1.4043398;3.7167745;0.9106668;-2.1892974;-1.248809;1.1100813;-0.047866426;-0.32791927;-1.397269;1.9673796;1.4039595;3.6789756;0.91597503;-1.3151375;0.39873302;0.470011;-2.6537788;1.5390984;1.4138906;3.075287;-0.3511712;-0.80090326;1.0675665;0.8647141;2.6491172;0.4602593;0.2293795;1.6677277;-0.5662501;-0.86484295;-4.134259;0.43449935;0.58705986;-0.89767534;1.0397184;-2.2010968;-1.5951889;4.145317;-2.4882948;-0.29323813;-0.8504167;0.3064329;0.45332748;0.2902236;-0.6644461;0.93581295;0.16430537;-0.91504395;-0.9375936;-1.7947534;-1.2294598;3.6421432;1.5034856;1.0849758;-0.3585941;-0.5806475;-3.9026036;0.75517136;-2.111737;-0.9904802;-0.4109564;1.1287932;0.67074925;4.35728;-0.4032246;0.501288;2.5734878;-7.093586;-1.0493941;-0.56553817;-0.9874853;1.4507072;0.3590881;-2.4939008;1.5021226;0.7233545;1.3543334;-2.1641045;2.1947677;2.4695282;0.32463133;3.4018574;-0.09575565;-2.5723772;1.8968887;-1.0312523;-0.8027077;1.7746465;-0.4542175;-1.7256836;1.8613682;0.78693277;1.3836969;-1.9148954;0.49680755;2.6961315;0.04008666;0.2484233;-0.58273727;0.96151215;0.96375906;-0.5482865;1.1293613;-0.61730754;0.39813286;-0.8943215;-0.96481216;1.3591484;-0.40549988;-0.31254965;0.9203867;1.2806824;-2.296424;0.8838595;2.8558092;-0.30445844;1.3715973;0.63213265;1.6101135;-1.0214257;-1.1057367;-1.3007587;-0.7612431;-2.9295588;-2.2469413;-0.66304857;-0.16060953;-0.16193986;-0.09370746;1.4657955;-1.1780627;0.59055865;0.33879742;0.0606726;-0.70667934;0.56333655;-0.2886396;-3.7787752;2.5256674;-0.97994393;2.1951594;-0.88678926;-0.20967732;-1.9707783;-2.692275;0.80327815;1.2767305;0.8713724;-0.53106725;-0.9863074;-3.2964287;0.7213461;-1.3677939;0.0013456324;0.24859291;-1.1097808;0.78014666;2.390663;4.2665224;2.0430033;-1.43299;0.43158412;1.0738715;-1.9199256;0.35605025;-1.7540863;-1.8115381;0.31147933;-0.11479009;-2.2137265;2.0072176;-0.34232932;0.566787;-1.4295454;2.184714;0.8672577;-2.5815864;0.33185115;0.8628045;0.32012337;1.2791294;0.1522011;0.609345;-1.2909956;-0.6399848;0.9853458;-0.364563;-1.5288491;2.4287322;0.66005486;-0.12694594;-0.030920058;-3.4076514;-0.8755498;1.2326953;-1.2579094;2.068594;0.8003087;-0.29085574;0.119141236;0.30001858;-1.2052743;0.5938877;-2.0028112;-0.34117264;-0.3813883;-2.8941581;0.58843565;0.28847048;-1.1502861;1.945117;1.031521;-1.6140378;0.99766517;-0.7321596;0.19956352;2.4741006;0.96407014;-1.1184576;-1.398088;-4.060017;1.3200345;1.9194133;-0.16061933;-0.18705612;0.27342457;-1.4504145;-0.4878411;2.8812628;2.3944135;0.015468995;-0.10890523;-0.4791782;0.1042956;1.2113186;1.8991344;-0.30442756;0.13933143;-0.9563759;-0.48748773;1.2427964;-0.6723588;0.7005537;-0.1748274;1.7229437;-1.920507;4.1716886;0.3524987;-0.105566695;1.8212122;-1.7112033;1.1977488;-3.784051;-0.8835669;-1.0338418;3.9787683;1.1252526;-2.8156722;-0.013794004;0.30522293;3.1778333;0.27151507;3.0243447;-1.3964875;2.1273413;2.047487;-1.7955582;0.8918806;1.0520738;-1.1984829;-0.4105887;-0.6897908;2.2060225;2.0672755;0.1818035;-2.243602;-1.3878154;0.98470205;1.5096512;1.5673196;-1.325323;1.6686435;-0.43005705;0.33011928;2.986748;-3.923205;-0.3448762;0.40340444;-2.9090252;0.69303733;1.86608;-2.0871944;0.38651195;-1.5249993;0.8475292;2.0457025;1.0075191;-0.36406898;0.085059114;-2.4605942;-1.2824416;0.13781469;0.77158415;0.027972024;-0.77419263;2.28748;0.77049685;-0.15468532;-1.1185492;0.42026287;0.72311383;0.49408534;-2.3351939;1.0366722;1.6915492;-0.2922769;1.2391362;1.3674873;0.15942827;0.6290652;-2.6609178;-1.2189755;1.190701;1.0736715;-3.7987385;-1.1837726;-0.9537417;-3.1376193;-2.3838043;0.7178325;-0.06049912;-0.5289309;-0.22890298;0.90378475;-0.59871644;0.52362084;2.9529665;0.6395542;3.4658756;-1.0998243;-2.6992216;0.72041327;0.19296664;0.44876623;2.8129804;1.352971;-1.4054153;0.674344;-3.2876198;1.1809572;-1.8376024;1.0961611;0.8477788;-1.2732867;1.6260376;-0.69474804;-4.0637054;-1.7396263;2.4584067;-1.5565186;-3.65707;-0.74868774;-1.4372388;-1.1730072;-0.24342984;-3.7036414;0.1983904;-0.52338004;2.053262;1.9000586;-0.44126073;-1.0978773;-2.2969978;0.7820016;-1.1663643;-1.7110713;0.06563498;3.46275;0.15834558;0.02078486;-0.66711175;0.8735677;-0.76653475;1.7632635;-2.5203564;-1.1685958;-2.6583612;0.83133674;-0.71114147;-1.9611099;0.2859311;0.24309513;-0.10956441;-2.1547797;0.36980936;-1.4081364;-0.24322373;2.0139766;-0.12214397;1.5155331;-3.419399;-2.3513093;0.07763242;1.535824;-1.6396157;1.8138661;-1.3589976;-2.8775294;-3.5008402;-0.98484725;-1.4975362;2.468842;0.09246012;3.0674314;-4.5695257;0.5867807;-1.9623328;-2.1954477;0.5888403;-2.5521836;0.14217792;-0.3429533;-0.3722819;-0.060536657;-2.4788477;0.31899825;-0.2962369;-3.2947924;-2.3126812;2.3712375;2.3394248;-0.4140772;0.2012506;-1.2973589;-2.227275;0.5271412;-0.20426182;-0.07195408;2.8332396;0.6346593;-1.6908998;1.2443688;2.61737;-0.31031397;0.4756202;-1.4721484;1.2485862;0.8840005;0.4470104;1.4660249;0.51927644;-0.51417786;1.0724804;1.0606724;-1.8750305;2.0641234;-2.6562288;-0.763246;-1.7069948;0.6457971;-0.4896099;1.6895367;-1.0728271;-0.11162998;0.7120966;-0.6031385;-0.8738554;-4.3956256;-0.7618987;-1.758625;-0.061519157;1.0747702;-0.16826263
2.0749516;-1.9595972;-0.10412789;0.074221894;1.7088559;-0.10259739;1.8961815;0.8053211;-2.4799933;0.71324605;1.1273459;-0.90992737;2.9111404;1.2785143;0.7731451;-1.6306732;1.0408543;0.77379036;1.9344798;-0.97680855;-0.7547261;-0.03142478;-1.8802457;0.62517935;2.4710944;0.11607351;-0.47106278;-0.14245912;-1.0793613;-0.024871178;1.9460126;0.47412598;1.2442422;1.054245;-1.861104;0.20675482;-0.05962221;-0.9681388;2.4445016;-2.5134437;0.08132331;-0.5682169;-1.5905418;-2.735616;0.53762764;-0.43230975;0.2446588;-2.7533677;0.41198102;1.9839528;-0.18442202;-0.7747545;-3.288484;-1.2985641;0.23263475;-0.51816034;2.1736693;-0.09381788;-1.8741649;0.42261302;0.23161592;-0.47228462;-1.157187;1.3120824;-0.18223293;0.28786725;0.1220196;-1.5446688;1.5020199;0.25047466;-0.36696;0.005791277;1.0779529;1.9090592;-0.99989104;-2.9620583;-1.7265171;-2.8295462;-0.5237259;0.689024;0.49869558;-3.8913677;2.2116184;-0.2227278;-0.11704223;-0.56893855;0.78165126;1.9766561;-1.9723333;0.11311016;-0.34748435;-1.7464887;-0.20057592;-2.2195966;2.30332;-0.010886223;-5.9572735;-0.9945579;-0.39619097;0.4947415;1.5195861;-0.33341324;-3.033509;-1.9215715;-0.5872363;-3.2543712;-6.9689045;-2.5019443;1.0002693;0.41496274;-0.19608264;-0.02898924;0.7936136;-1.2820293;-0.21784256;-3.580691;-1.8943516;0.058001846;-0.016458679;-0.5723961;-0.29941842;1.8822376;0.41830045;1.9454116;-1.4358633;2.3851912;0.2668938;0.4963898;-1.4506092;0.13473354;-0.05439259;0.33970538;-1.7001079;-0.7037329;-0.18082765;-0.58374745;0.42602643;1.0673728;1.1919013;-2.2425299;-0.85832953;0.65094346;0.2303468;3.198393;1.3787593;1.3772568;-0.08934461;0.6387855;-2.527818;-0.49142554;-1.6726512;-0.78387225;-0.20988123;-0.47066373;0.5621041;1.4361507;1.5488727;1.7554286;-2.9018333;-1.2709115;-2.0369053;-0.74006754;-5.4475884;-4.5550575;-1.6807624;-0.804558;3.3325493;0.010548296;1.372803;0.39316663;-1.4743248;-0.4974477;-0.92580944;-1.275849;-1.3908193;0.94215477;-0.5238631;0.20144123;0.7213357;1.9394935;1.3190956;1.5838953;3.0951006;2.2357137;1.3189477;2.702004;-1.9608307;2.7280061;2.0037923;1.3585813;0.8460834;-0.04919105;1.6159539;1.7614034;-1.2583606;0.12419101;0.02783895;0.36785775;-1.4485315;0.4252621;2.1851475;-3.1359117;1.710411;-1.0633706;1.6472818;-2.4121783;1.7973104;-1.7383499;-2.5952897;-0.71878445;1.0270149;-0.7876359;0.92630905;-1.3536309;-1.1205668;2.0476165;-1.7104886;1.2526082;-0.06334907;2.5013945;-0.61174005;0.39242506;2.029808;-2.6043026;1.5503347;0.3193308;3.109523;1.8418;0.6290842;1.3829786;-0.57181054;0.76225185;0.66448116;-3.2767296;1.694512;-0.33072412;2.8104722;0.28732646;-0.78637904;-0.44046703;0.6372467;0.06780007;-0.4656024;-1.0086427;-1.8368425;1.2351675;-0.79131633;-1.9489464;-3.548571;-0.22073314;-1.394445;2.1945202;-0.2588221;2.0153074;1.9580339;0.9112394;0.5976826;1.4099237;-1.2357467;0.39940134;2.849249;3.083485;-0.1425796;-0.17617258;-0.3301308;-1.2161783;-1.7862539;1.6815029;3.7009916;0.70469767;-1.3808382;1.6965307;-0.69149864;1.3489646;-2.1742935;0.40727386;0.26094487;-0.23558348;-0.9909425;-0.5243426;0.14601672;1.3806903;2.3259249;1.4808747;3.0241249;1.1350691;0.706503;-0.47409448;1.5702436;1.7901157;-1.3146183;1.907955;2.1774025;0.04256408;0.18800543;-2.2793512;0.42799565;-2.2211144;-0.43400282;-0.84840965;0.6111546;-1.2098833;0.79036254;1.0745474;-0.51180696;-1.8005091;0.59534854;0.93981105;0.3693345;-5.658982;-0.8186159;-0.6598791;-0.16384086;0.11617213;-1.0676435;-1.9339691;0.11433167;-1.4800225;0.3235511;0.40893295;0.84453297;1.9130111;-0.6262359;-0.6410257;1.1800478;-0.15178402;1.3989567;2.2028487;-1.2149297;-1.4682015;0.480356;0.2998264;3.038106;1.8443278;1.4070895;-1.0161518;0.7183683;0.32293823;2.2608714;-2.7722397;-3.580423;0.21745142;-0.20576513;0.876307;0.76111704;-0.32459554;-0.5599898;-2.3425193;-3.4029362;3.9821215;1.5881196;-1.0229566;-0.48012838;-1.2052625;3.7393026;1.9159137;-0.7791139;2.440223;-0.115783975;0.792623;-0.97932166;1.5583298;-3.2171214;-0.7080779;-0.5548589;2.8572493;-0.29195687;1.4010231;0.4981444;0.43333972;0.78396124;0.27979195;1.1749302;-1.9312356;-1.0388752;0.56593114;-2.2179387;-2.0827513;-0.5335646;-0.6064227;-0.5658247;-0.42726302;-1.2621242;-0.44184694;-1.7454591;0.5066704;-0.32012486;-0.7577062;0.053346775;0.96901286;-1.303429;-2.0579002;1.9404916;3.4027212;0.5552713;-1.0510552;-2.3211222;-0.9353243;1.4876304;-0.6372699;-1.4390655;0.28386363;0.13188249;-1.402163;-0.066333;-0.34422615;-0.5585957;0.37606138;4.1466265;1.6576278;-1.2230796;2.792377;2.1592693;5.608809;-1.1589792;-3.0608137;1.8580203;3.1503196;-2.5367851;-0.83580303;0.6052639;2.1255004;0.3887813;-2.2910802;-0.81468636;-1.2130946;-3.3862348;-2.7258906;-0.27577162;0.6303818;-1.7609149;-0.77345365;1.8852849;0.13348576;-1.5192895;0.6414854;1.1666667;0.2220309;1.1823596;-1.2955197;-1.0009868;1.4018095;2.465506;-2.1962552;1.5793455;-0.35361007;0.9884898;2.4682372;1.0167441;-0.54053974;1.3558844;-1.1813147;1.5428889;-5.0149426;1.8372891;0.92935;-2.6532707;1.0302377;-0.39463797;-1.5360185;-4.6506267;-1.0613296;-1.1782304;-6.579145;-1.7618845;-0.71619743;-2.2675853;-2.0783036;0.057048272;0.14214125;-1.6202965;-0.63172716;0.023633618;-1.0604231;0.64508724;-1.9511118;-0.49160776;-2.9726448;1.1816478;0.87843597;2.3146212;0.13360439;0.029293155;-2.0390327;1.3618141;2.374966;2.4927716;-4.338057;0.14845791;1.8405032;0.7485541;1.1454452;-1.7455546;-0.031570837;-3.6310086;-0.34981188;0.73627776;1.3816576;-0.5617581;0.5608264;2.238265;2.7400467;-1.0117297;0.27474692;-1.3125519;0.21231757;4.168635;-0.09733491;-1.20724;-0.5997326;-0.62038153;-0.099589586;-0.35002053;-3.014284;2.213748;-0.16580462;-0.082748204;-1.6367699;-0.1874377;-0.47655964;-3.0629594;-2.787459;1.0062671;-0.1704613;-0.37491608;-0.29067442;-6.222531;-2.2133105;1.2536162;0.4645659;0.8737486;-1.1413589;1.4910492;0.3231774;-0.9271285;0.4807236;-0.79638106;-1.92973;-0.57397956;0.8986484;-1.323423;0.100503415;-2.455684;-1.489333;-0.4798679;-1.6910903;-1.6511123;0.06762574;-0.17236722;-0.06161556;-0.038344137;1.7389184;3.5730288;0.5963294;0.39393112;0.5839866;0.6298227;-0.8806013;0.66750175;0.72592574;0.8182264;0.22179121;0.08273063;-1.9836795;3.468117;-2.0748172;-2.1218326;-0.12395282;-1.1137583;1.2412574;-3.1512237;-1.08403;0.8615105;0.21989913;0.98543257;1.3641269
3.1090302;1.9518967;0.7441803;1.9078465;-1.4268806;1.4996914;0.031844065;0.54576606;-2.4793465;1.6048844;1.3039756;1.9458203;2.7475822;2.1141603;0.6338653;0.4274441;0.96192706;0.022599263;-0.22177736;-2.5870872;-0.35901782;1.0362813;-0.29699707;0.9119118;0.708874;0.8176028;-1.4371153;0.045270983;0.36396208;-1.2807788;3.391091;-0.4652699;1.2206237;-2.070495;-1.9400059;0.8568034;-1.6543403;-1.2066972;3.0379152;-2.0842645;-2.3638227;-1.3392539;-0.96891266;-2.1138911;-0.09435322;-0.25227386;-0.9929214;-0.009501417;-0.38866854;1.3967062;2.877827;0.84931815;0.7215757;-1.9628565;1.3296651;-0.83353704;0.9510869;3.0674064;0.10082906;-0.47168678;0.36962464;1.6232859;0.16748802;0.51710486;1.0227123;-2.1061437;-1.6442683;-1.8763008;0.062014986;-0.31988007;-0.6230573;-0.6282163;1.5250772;-1.5973825;-0.027529227;-0.29872835;0.6051029;-2.074634;-0.011588763;-0.41430134;-0.1645243;-5.5430984;5.5898733;0.32956648;-0.9615134;0.34581077;-1.5624343;1.8183216;-1.5794277;-0.51692116;-0.0068540224;-0.42477265;-3.6298018;0.53620255;3.0153966;-1.363299;1.9570802;0.69043875;-0.7213906;-0.82857406;-0.14726995;-0.044424515;-4.3077145;-4.0359654;-0.35285696;0.9593989;-3.3187673;0.33790222;-0.9801699;0.058418337;-3.4584496;-3.046393;1.3867978;-0.94060934;-0.3244974;0.45913172;-2.9366217;0.4011621;0.05201337;0.5614645;0.38290343;1.0149198;-0.27843118;4.025143;-0.6745038;1.0927142;1.522738;1.4402853;1.4436057;-0.16981196;1.671404;-2.0572927;-0.19951876;-0.23856054;-2.5263357;-0.07052457;0.9860275;-0.67087233;-0.2760481;-0.7398947;1.5534333;-0.1883259;-0.408003;1.8131329;0.55402815;-1.098484;-0.8649007;-0.9081086;-1.0954478;-1.1019943;0.17000031;1.7152777;-0.9445451;-0.055219226;3.8928728;-1.058229;1.6567234;-0.5917214;-1.9599154;0.7612998;-0.90121686;0.34295925;-2.6165452;-2.4966283;-4.9160914;0.9056697;2.1478157;0.6689574;-1.0329385;0.86550546;-1.8588563;2.1051483;-1.911193;-0.3793721;-0.7975319;0.7655808;-0.31068626;-0.79165506;1.2189918;1.0144546;-0.22924413;1.054991;0.5361846;0.3611276;-0.026020773;1.8101233;-0.45067215;1.0619357;0.7461713;2.487281;0.61680454;-0.50169194;-1.5543106;-0.9667184;-0.8019249;2.2844024;-1.1248207;-0.39030057;-0.3844246;1.1234597;-0.12006341;0.33753768;2.3883688;-0.76798147;-1.445325;-1.4334371;2.3473525;-0.2010965;1.816141;-0.11284317;-0.8679232;-0.92367905;0.24504627;-1.3921164;-0.74469817;-3.5065122;-1.1424187;-0.12198754;-3.6592062;0.35297745;-0.66595155;0.35100842;1.59593;0.46239713;-0.7698409;-0.9955061;2.7143915;1.610456;2.0970426;0.34415087;-0.15917291;0.85237706;2.661262;0.19041526;1.7091662;0.5640957;2.530852;0.5267838;0.15332454;-0.4118367;-0.683314;-2.5765147;0.93998665;-1.0155001;1.9993504;-0.98522276;-0.8889956;-1.8843094;-0.5382726;-0.50481147;0.41934437;1.568952;-0.7383532;1.2973748;-2.510071;0.08648717;-2.0084155;0.8867966;-1.2571065;1.6671454;4.4930196;0.5675151;0.6797933;2.8372233;0.19028907;-1.1186048;-0.57191294;0.5092198;4.4010043;0.3823946;-0.30718118;1.0504713;-1.8993388;1.50229;-2.8547087;0.50129753;-1.0537962;0.19555804;0.28201064;0.048454102;-0.07963187;3.6160123;0.16580512;1.5220127;-0.930455;1.9408302;-0.20405544;4.0694094;0.5501618;1.0097908;-0.26045865;1.8749177;2.471549;-0.5090935;-0.637632;-0.9197362;0.063673064;-0.9981995;-1.7222252;-4.4534974;1.2190247;0.4013097;-0.8422614;-0.022900593;0.49436978;-4.6457753;1.8915273;1.9372553;1.2506735;0.5605176;0.28268334;1.1885998;0.05444877;1.3713543;0.3731694;-2.3420177;0.20922194;-1.8241417;0.25450528;-0.16972905;0.94877094;1.873586;-0.040149163;-2.262592;0.31873056;0.3403176;0.9280347;-0.38754085;-0.17364566;2.8408582;2.0400183;-1.2513537;0.55172294;1.5489509;-1.9296528;0.06269988;0.684387;1.4087559;0.27110887;-0.8510276;-2.0888307;0.19259395;1.3484898;1.5363101;0.43288508;-0.3901053;-0.7610148;-1.0723519;0.48266962;-1.8482153;0.26776522;0.53331095;0.36810613;0.4563492;1.091538;0.938314;0.9426598;-0.92989814;1.0905039;-0.38259432;-1.3346493;4.4980884;1.384903;-5.7118316;-3.3505332;-3.7586422;0.52987176;-0.9149995;-0.12116865;-3.3391206;-0.0018955396;1.254405;2.3739195;-0.5915714;-3.1465533;1.7181572;-0.35240158;2.6415956;1.9330873;-0.8089636;-2.5264752;-0.14101045;0.21094824;0.23611544;-0.8165702;0.15045004;-1.3779211;0.038415678;-0.44357556;1.2788216;0.068827145;-0.03442983;2.2834694;1.7138321;0.09611464;1.4074947;-0.50744665;-2.888542;0.6897542;0.87069196;1.8899816;0.5594222;0.0095678205;-2.735005;-0.20077711;0.63056123;0.14494985;-0.79442245;2.38626;-0.23089275;-0.09351139;-0.8447358;2.178552;0.9973754;0.13147272;1.210956;3.2876992;1.2480131;-1.2411872;-1.4569416;-0.04213461;1.4731396;0.25504833;-1.4146044;-0.322013;-0.90073526;0.2840037;-3.4228015;1.9971343;1.5390481;-0.5632499;-0.85117185;-0.80964327;-0.9927976;-0.18291192;2.096504;0.8187225;1.0963056;0.11218836;0.91035074;0.77725536;-1.5438385;1.0009625;-1.0975733;2.953785;-0.46530056;0.7816499;0.96581846;0.09667296;1.9767721;1.1400858;-0.42549026;0.5356998;-2.4591317;1.2097459;-0.650057;-1.6234262;2.297953;0.79197073;0.00020848971;-4.7622476;0.29275393;0.5655406;1.6585039;-1.8523899;-0.46137077;-0.919377;-0.69057477;-1.6339117;1.0271106;-3.1774154;-0.29481304;0.11485723;-1.4620976;-0.2642512;-0.47412592;-1.2122158;-1.8524892;2.4279053;0.6612865;4.1230235;-0.63746786;1.893945;-0.82706404;3.6741767;0.3772504;0.013554343;-1.3751508;2.289899;1.3680401;1.7248864;-3.0827358;-0.6135273;-1.3925091;-0.63856083;-0.2506976;-0.8851783;-0.571793;-4.0726237;1.5810058;-1.8376675;1.9718891;-0.24288711;2.350001;-1.1840667;0.045421205;3.2508254;-0.32788742;-2.1761963;1.5751923;0.40834263;1.6939216;0.5566956;4.2917976;1.6492171;-1.1331218;0.12050996;-0.8294206;0.25468427;-0.969551;-0.5334553;-1.4132221;1.7285666;-0.5393827;-0.78161645;-0.017183304;-0.20173568;0.2710114;0.21567233;-0.4131309;-0.39502504;1.1180619;0.78627944;-0.15620057;-2.2819343;1.3359085;-0.2763002;0.6113782;-1.2254058;0.9347166;-0.3197489;-1.5966977;1.9610287;2.6016076;-0.24691264;-1.3033694;-1.2636523;1.1127945;0.34080902;2.4681568;-0.25699222;-1.7743199;-1.1299528;0.6076652;-0.012868049;-0.72308636;-0.67731667;-2.2759888;-0.7461605;0.3315857;0.69131565;0.6526619;-2.6789978;-0.12132367;1.8350797;-2.1795323;-0.8739919;-1.0999703;-0.8035849;-0.1449649;-4.7870736;0.5486328;0.927123;0.20007396;0.9617235;-0.32430127
-0.23179285;-3.0866942;1.1569315;0.26890406;-0.6654727;-0.89164454;-0.42089665;1.5865546;2.002638;-0.51857793;0.034579236;1.6173464;0.87341243;0.2585264;1.5504352;0.060046878;0.9042972;0.32791385;0.5548804;-1.9741834;-1.0912644;0.7257924;-1.0483935;0.6529479;0.04066555;-1.7383584;-1.5172971;0.14379677;-2.0726504;1.7649459;0.6120132;-0.2394194;-2.7832274;-3.650015;-0.009490896;1.0958208;0.74276745;0.5076992;0.14003989;0.10028603;0.4232533;-4.389203;-0.40606377;2.102584;-1.3310989;-0.38401178;0.2652177;-1.7776879;-0.89272225;0.1661803;3.8016157;1.1565725;-1.1321118;2.7717721;1.7357179;-0.8567821;-1.0130941;2.627961;1.5283941;-0.7026258;0.3357007;1.0541087;-3.425292;0.6428615;-0.6742749;0.7842047;-0.3776222;-0.27305907;-0.32183966;0.46601543;-0.43940863;-1.0588052;0.18781984;-1.2145611;1.0732666;0.21337567;-2.613402;-1.8861688;0.16085756;0.98674107;-0.46417657;-4.477814;3.601656;-1.6966546;-0.53564125;-1.509511;-1.4387255;-0.9947355;-0.8611766;-1.9591432;-1.749618;0.54267865;0.5035563;1.4788833;-1.8283159;2.489996;1.5546235;0.6462756;-1.0076348;-1.5210557;0.10790318;2.3031487;-2.7863505;-0.016932484;1.1657671;2.3886068;1.9910998;-0.43773457;-0.7319187;0.57438475;-1.4954015;-3.2081776;0.8564194;-0.25398344;-0.5324991;2.7237098;-1.5596151;-1.1510328;-0.91718316;-0.7838;-3.3094888;1.1226014;-0.6368334;1.4512666;-0.67506045;0.51711375;0.045406006;-0.55023354;4.3333178;1.174484;1.3840461;1.9320512;1.7320601;0.42672965;-1.0030055;-0.5658162;-0.9278614;-0.3956677;-1.189078;-4.772152;1.1147541;-1.8540764;-0.35430843;0.4521063;0.15277132;1.2549055;-5.866061;-0.41764644;1.2290101;-0.5226806;1.790589;0.7913484;-0.852084;-0.6939163;3.582883;-0.5686536;-2.0230136;0.32986543;1.0858884;-0.087548785;-2.4692438;-0.31903633;0.51065993;1.0148281;-1.933757;0.92064965;2.3142002;-1.7663357;0.72346723;-1.9109387;2.37231;-0.18905939;1.5882128;0.5248251;-0.91111356;0.30314034;-2.5761435;-0.4798993;-0.16071793;1.6518829;0.8226937;1.8433594;1.1804594;-0.5198674;0.2820583;-0.3201661;-2.8469622;0.01016288;1.4304205;1.5583612;1.8718355;-0.8932936;1.6310686;0.68245137;0.10074934;-0.059957184;-0.63132095;-0.78990173;0.9040889;0.15275185;0.9923903;-1.112776;2.178678;-2.9149313;0.58291453;-0.34493756;2.4637852;-2.4259584;1.6041195;0.6947478;0.05279822;1.9062508;-0.47256032;1.198716;0.8848949;-2.343146;-0.14321874;0.51765805;0.67226124;1.6679224;-2.4614463;1.556248;1.9731215;-4.5179224;-1.2124946;-2.8927014;-1.6575086;1.7269855;-2.3653924;0.7883642;0.81578964;-0.8997754;-0.33577454;-0.026446428;-2.5878081;1.010466;1.5257136;2.0663242;-0.23436777;-0.27816302;0.6942655;0.99772215;-2.259631;-0.0780774;-1.1254988;-0.6167787;0.626439;-1.3647274;-0.2850583;-0.8001748;1.8876812;-0.53486943;-0.400199;0.7205744;-0.95511436;-1.8138028;0.9301045;2.4726198;-0.571434;-1.1370461;1.6907104;2.5592186;0.28690737;-1.2425735;0.47062603;-0.6315496;1.9748955;-0.9310206;2.049843;-0.7638545;0.3477272;0.9487375;-1.6690631;0.2806222;-0.8998519;-0.4029768;0.9519019;-1.052497;-1.8747957;0.75071454;-1.1865698;2.318964;-2.6965163;0.8177687;-1.1207168;2.156621;-1.2493566;-0.7596923;0.28348985;1.5801135;-3.4988859;2.1092196;1.0083264;0.67401046;1.0182812;-2.0530035;-0.105978355;0.06584277;-0.5827069;-0.18837093;-0.008563608;0.86616325;-1.8896568;-0.42434198;-0.36454165;2.1047056;1.397214;2.0062792;0.53296363;-2.8034587;-0.0013260789;0.631993;-0.22744115;1.0292845;2.064889;-1.1947957;0.94056433;1.6036127;1.040085;0.060522888;1.2454041;1.6757594;-2.0586536;-1.8614576;0.43602997;0.52735126;2.2831287;2.4135032;-0.2985982;2.402475;-4.617212;3.6283572;0.055202823;-0.41166347;-2.780972;-0.16604714;0.42984742;0.8399069;-0.11307151;2.915484;0.12544157;-0.2116525;-1.1856966;1.7081786;0.6302014;0.7034496;-2.597152;-0.6751036;-0.8623687;-2.739143;-0.5908082;-0.9799979;-0.6427026;1.2428522;-0.12717563;0.20926993;0.14449859;-2.0803053;0.3844385;-0.9989056;-0.94597864;-3.048763;0.6676924;0.04321401;-1.3127245;-0.47240046;-0.076156326;-3.104837;1.5169502;1.7190483;0.16369973;0.9617923;3.9379344;-0.581736;-5.572615;0.62638617;-2.2703695;-0.8129374;1.541106;0.039450157;0.5349902;-1.2493981;-1.19874;1.7991813;2.7491722;1.1343751;-1.742836;0.06428735;1.7197367;0.29118097;-0.5075228;-2.5872355;0.9135313;0.655194;0.94509757;0.33235756;1.1622866;-1.1044617;0.7864414;-0.82082224;0.05029557;-0.34171107;0.39764667;0.8508816;0.16510308;1.6960559;-0.06766971;1.0335393;-0.55608386;-2.592119;-0.59242;0.16323078;-0.19217877;-2.706728;-0.5550052;-0.20200935;1.3258466;-1.2225318;-0.43308875;0.37030044;-1.9640595;0.7670947;-1.8100306;1.4288292;-0.7707991;-1.3314635;-0.37843236;-3.745768;-1.6624795;-0.37488887;-3.201469;2.6780121;1.6893831;-0.07564779;-0.76563704;2.2576275;0.18345729;-1.2911489;0.27893993;-0.026444836;0.30530822;0.571449;-1.8814664;-2.2246592;0.6130898;-0.12588662;1.1135336;2.350956;0.4109837;1.1774609;1.5927607;-1.1072668;-0.38918576;-2.1606703;-1.8465238;0.81642413;-1.06367;-0.27960053;-0.47401258;-7.293684;-0.5963585;0.6512164;-3.9254408;-2.9273517;-0.026294231;-1.0314498;-0.74450594;1.8119701;0.29220226;0.7907307;1.6153846;-0.08087616;-0.43501663;3.4040086;-0.09678896;0.30810368;0.3745516;-0.055037547;-0.25156587;0.022551084;0.87155956;0.2667783;2.4463363;-0.9774403;0.9257302;0.022841217;-2.4468546;2.4261432;1.6489979;4.1263933;1.9646171;0.114317715;-3.5586545;0.7318939;-0.43457136;-0.73737967;-0.7625384;-0.9612933;-2.7749317;-2.287255;1.0632138;0.9663266;-1.5828185;-0.14509232;-1.3300167;1.6423594;2.0967772;-0.09987025;-2.7507927;0.6739291;-0.051425602;1.4447842;-1.4724877;0.65491784;2.151784;-0.912636;0.9691916;-2.6735282;-0.48012695;2.0332394;-2.8894029;1.3708405;1.6661088;0.8337544;0.06681534;0.38957962;-0.5711479;0.44228515;-2.789628;-1.5522412;-0.34157196;-1.4425484;-0.27768365;2.3497689;3.4221277;1.866398;-0.35866114;-0.6208547;0.8094397;-4.617952;1.0025439;-3.3901355;-1.1458447;0.8217876;-0.033270154;-3.6031835;-1.8468668;0.76681304;0.8086669;-0.7477826;-0.30106887;2.2804217;-0.36207667;-2.1345394;-0.60166496;-2.6324327;0.36191595;-0.42493287;-1.1330937;0.44989493;-0.010829486;-1.6904145;-2.3894057;0.94683605;0.78812194;-1.5124589;-0.41270596;2.4616866;-0.6866329;0.9696408;0.47717723;1.3949533;-3.4851801;-0.47463757;2.0536573;-2.2790234
-2.6317904;0.35963443;0.059812278;0.21919194;-1.9251627;1.9655128;2.8913035;-1.5926511;0.43662348;0.7185012;-0.08308289;0.04453754;1.0740639;0.0739903;0.1288324;1.3366896;1.376512;1.3335396;-2.8873315;-1.9033374;-0.32034078;0.52740353;0.7304794;0.2384399;-1.76752;1.4889129;-2.502782;-0.30442703;-4.5185523;3.2679362;0.1837225;0.21034458;-0.95555633;-0.25570628;-0.78007317;0.541302;0.39577794;-0.017848328;1.9891169;1.0666802;-1.8030175;-1.5605458;-0.8403833;-1.9934614;-1.8456252;-0.6106021;0.19350463;-1.129116;0.26531368;0.5601487;1.1513758;0.20924143;0.076815814;2.9575768;1.6650712;-1.4121138;-0.33861795;-1.1923898;0.49585235;0.4607459;-0.20729478;0.34464356;-0.50163275;0.39788848;1.6708099;-0.41205892;0.10038122;-0.0033209112;-0.89735955;0.10116912;1.6449935;0.794185;-0.0855918;-1.6519905;1.6095393;-0.6185268;-2.9236424;0.5145921;0.43336216;0.26725012;-0.28106356;-1.638282;1.9851414;0.85959494;-0.71132654;0.5599558;-1.6607925;1.1189567;1.9446502;-0.6635456;-0.6062253;-0.27310002;1.6723115;0.8652594;-1.4099818;3.3158295;-0.5044077;2.7815201;-0.37100506;0.37977594;-0.71992797;0.8411093;-1.3436043;-0.364199;-0.42152333;2.0435045;1.0670482;-1.8755072;-0.8498427;0.274954;-0.79111284;-1.1122833;0.4056666;-1.2749428;-0.53625256;-0.60588807;-1.1348392;0.31205466;-0.22472627;4.771501;0.96836543;-0.37582707;0.7132834;-0.105825566;-0.0054012057;-0.14010137;0.8897678;-1.3510782;1.4167832;-0.052753173;-0.27542964;-1.9908671;0.8671705;1.7416587;-1.3902987;0.7089713;-1.2551688;-0.47821233;1.1625544;-2.2442524;-0.92974424;-0.75711;-0.057791762;1.1079115;-1.8502406;-2.1237338;-4.496878;1.2955444;1.5996476;0.010672169;-0.42132646;2.2892306;-1.7529283;0.19576181;3.4393394;0.30596465;-2.6987221;0.4681042;0.039536837;-1.1624691;-0.022667259;0.41950163;-0.0208303;1.6563046;-0.95191187;-0.5322463;0.27163106;2.206749;0.6036899;-2.4713163;-0.10907498;-0.9527456;-0.5852534;0.26988792;-0.2982582;0.5575155;-1.573743;-2.0572224;-0.30105314;-1.9225266;-0.06356999;-0.63103616;-0.008150406;-0.27545977;-3.096777;1.6268245;1.2115098;-2.028115;-0.6079627;-2.3792953;0.87536985;-0.9862243;-3.238798;-1.5991868;-1.27573;0.1395618;-0.38559863;-0.3910063;-0.43259278;-0.44203678;-1.6327323;1.3982197;3.6857367;-0.29459694;-0.8868502;1.7409294;-1.5520549;1.0085201;-2.1813548;-0.20424354;-0.63409865;-1.6362305;-0.11996719;-1.0231091;2.0682948;0.6168014;-0.9294782;0.80546033;-0.7842054;1.9713651;-0.88597214;-0.59735906;0.012571609;-2.6955483;-1.0624791;-4.4278293;-1.6102445;1.5538721;1.4083354;0.09069305;0.55215526;0.051625554;2.4557173;-0.83046585;0.054726653;0.13965024;0.19002804;-1.062274;-0.59548587;-0.82060426;-1.0311342;0.2094232;-0.72316974;-2.8814855;1.2271338;-0.81837946;-1.3901414;-3.1350026;-0.6572205;-0.9064031;0.19159229;0.0419463;-0.8512556;-0.33383164;-2.1874442;-2.1181004;1.8755994;2.3735683;0.63736516;-2.986966;-0.08931356;1.9767822;0.009551395;-2.761442;0.56941384;0.8345339;1.8887405;0.3572062;-0.45447934;-3.6976237;-2.120918;-0.33975658;-0.9418982;0.19177108;-0.58509576;1.4408251;0.5105541;0.35213584;-1.9280818;-0.86964136;-0.6482339;1.3840379;0.19159943;1.4244338;-1.4584986;0.35110304;0.63912064;0.32379127;0.19222635;2.3443398;-0.041936625;0.86442184;0.36287007;-0.027578685;0.82694495;-2.3478994;-0.012803488;0.004118397;0.1859986;0.14218487;-0.6618645;-0.88183355;-1.2179608;1.2773519;2.129963;-1.1816139;-0.82153344;1.659833;1.044168;-1.3662941;1.0413175;0.39523184;0.556726;-0.36762977;1.1432171;0.2210835;-0.24576607;-1.063205;1.422805;1.5162154;0.9938245;-0.5868514;-0.59772253;-0.7697337;-0.64212084;0.048383825;2.43061;1.1326303;0.5006844;1.4608933;0.0052588275;0.78992426;-0.96876246;-0.27726567;3.8875887;0.3704556;0.5275854;2.104328;1.9746344;-0.67822915;-1.7534083;2.0458705;-0.86035216;0.57694966;0.3647809;0.460245;1.0578266;0.65077853;0.21678026;-0.4644257;0.31821853;-0.86167663;0.47680113;-2.3310614;1.2186221;-0.42440364;0.106328025;-1.5545295;2.8520727;-0.64210266;0.8773388;2.2122185;2.791564;-0.3179367;2.142397;-1.0184214;1.4908617;-2.0606146;-0.15152839;-1.0122356;-0.031933263;-0.9897134;1.4813654;1.3101605;-0.1702513;-1.716971;-0.8747985;0.26982832;0.4785746;-0.641323;-0.5952907;1.640979;0.05582908;-1.416831;0.9297892;0.051684562;-1.4400779;-1.205417;0.6557053;0.5970007;-1.0961144;-0.57913107;-0.86875015;-0.3899347;2.886594;-0.8409381;0.924994;0.21053694;1.9564912;-1.5116166;-0.18272978;-0.09918973;0.40138024;-0.971205;0.05887361;2.6185374;-1.9523787;0.5260118;-2.7853906;-1.9171076;-0.3479926;-2.2885437;-0.74449664;0.980567;0.5021458;4.472628;-0.39282584;-0.51254123;1.3546451;-0.68090516;-3.3469808;0.42979386;-0.27527803;0.44395033;-1.7508043;2.1293824;-4.0875416;-1.7900585;0.1646428;-0.38107774;-0.06324106;0.04446276;0.22672673;0.19339752;-0.56585485;0.30120057;-1.5304507;1.0120302;-2.175032;-1.3712356;2.0767584;0.9434351;-0.3475923;-3.2474992;-3.0218475;-0.67518055;1.3917077;4.051099;1.0693394;3.3819954;0.8539694;-5.307586;-2.9256134;-7.290127;-0.8364343;0.7909004;-3.0902617;-1.5480261;0.8991196;-1.5204406;0.6019567;1.5796132;-0.80750877;1.0192106;-1.5265927;0.043132596;-0.9491536;1.3488321;-0.28502494;-0.43640244;2.08482;-1.482199;0.08145403;0.51065373;-0.8991877;-0.8019681;1.8073391;0.0626398;1.7605929;-0.19390702;0.7632027;0.30071333;2.5354092;-0.25738046;1.6494614;-0.2661818;-0.5621981;1.6137599;2.2844048;1.7314175;-1.6686046;0.6805002;0.07458102;0.026890758;1.5729462;0.2473828;-0.50874645;-0.999232;-1.2083626;-0.09596869;0.0028250513;2.2460964;0.30229598;0.131737;-0.9048381;0.64050144;1.9270093;2.678304;1.5034572;-1.3859888;-1.1521397;-0.6758138;-0.94088906;1.9573838;1.968145;0.21208736;0.7957632;0.23114802;-0.19096693;2.8381739;0.08021863;1.6624495;-1.0419533;-0.9910788;0.0936141;-0.8275967;0.50448287;0.91417634;2.0523202;-1.0606686;1.8117428;-1.3506111;1.0025321;0.282016;-2.595023;0.21247602;-1.347399;-0.5567492;-0.4559159;-1.8905818;1.2363844;-2.0882604;-0.2424638;1.3242431;-1.716323;1.0744398;-0.15612446;1.6272199;0.4950356;1.841359;-0.12442449;1.2367399;-0.2813817;-0.9442851;-0.70717853;-0.9184138;-1.3735303;-0.16401398;-1.1646202;-2.081886;0.04629932;-1.4358643;-0.93123007;0.81924117;-0.3612223;0.03593754;0.4173336;2.2478726;0.17177811;-0.252563;-5.110858;1.4369992;-0.42230436;1.455842;-0.74794173;-1.0461547
-2.708698;-0.43279883;0.8735032;1.6338029;0.30865514;-1.3963412;2.0296614;-0.7902976;0.032259732;-0.9216375;2.570826;0.80365485;1.2010381;1.4657599;1.6420768;-0.87288964;1.2599056;1.4535967;-1.3286619;-2.0000896;-0.8431379;1.7157313;-1.1871434;-1.7511923;0.7897301;-1.6471167;0.009738045;-0.8031337;-0.29903203;2.3743236;0.65353465;1.5152185;-0.3108917;0.05805052;-0.58924115;0.61827886;-1.5583735;0.40241945;-0.8300616;1.8298609;1.520133;-0.8241445;-2.6044781;1.7267555;-2.39532;-0.58743423;-3.822808;0.86268497;-2.5054352;-0.027234647;0.5608886;-0.73194736;-0.7376539;1.8607411;1.4536473;-1.8604175;1.1383013;-4.1043744;3.1277347;-1.6712759;-0.20102519;0.60302377;-1.5603569;1.9896196;-1.0743256;0.99885184;0.70917684;1.4870992;2.3155334;0.44879943;0.9959693;0.21173924;1.7249801;-1.595759;0.49983764;0.56896055;-1.6655511;1.4038936;-2.4100022;-0.057495087;-0.5663761;-1.35841;0.22380576;-2.1154616;-0.16886218;-1.1570843;0.99979216;1.2199961;2.3376946;1.256257;-1.2475417;-1.4802457;-0.85790205;1.0202821;-0.23006046;-0.040140893;-0.47946578;-3.004116;-0.035727043;-1.4664638;-0.11551173;-2.8215914;-1.9551796;0.30724865;0.30683437;2.2948377;-0.34509638;0.9402637;-0.14306313;0.6401607;-0.8144566;-0.39903274;0.029841583;0.065466344;-1.2794796;-0.7955979;-2.4435906;1.619961;1.4324232;1.2117474;-4.1736345;-1.4409214;1.1121485;1.3864805;0.013057718;-1.6398425;1.095928;-0.4681395;-2.1562192;1.0500263;0.43608147;0.34527355;0.18886787;-1.5476916;-0.17943752;0.24377693;2.3899496;0.97890925;1.3247496;0.58001274;2.0743678;-0.21279894;1.7330496;-0.99361324;-0.46970287;-2.106342;-2.711635;1.7173774;-0.2851048;-0.7811587;2.490677;-2.2827754;-2.5202627;-0.54933584;3.9698334;1.9844213;-0.3513557;1.3779557;-0.7636085;-3.248082;1.9522724;-0.15982768;-1.0466386;1.1635554;1.0076271;-0.049010873;0.833008;1.6510898;-0.705645;1.2056961;-0.6896962;1.8903389;-5.802464;0.045207158;0.202905;0.77910006;-1.4069008;-1.0410969;0.8379732;-2.2296262;2.7903385;0.038810812;0.16343692;0.5207389;-0.1834308;1.4413658;0.42678577;-0.31429175;-1.8566508;1.5479642;-0.68045473;0.012688314;-1.2395141;-0.6416573;1.5038372;-0.4656003;-1.0013444;-0.7621142;-1.1167326;0.03324489;-1.246179;0.013838905;4.155903;1.6484922;0.9957911;-0.12901716;-0.8678939;0.793282;-4.1864495;-0.70272857;1.0757475;-0.5477631;-1.9337819;2.4845297;0.05769415;3.043948;0.61360073;0.42896706;0.11499896;0.5563158;-0.15915383;2.0047598;-1.387678;2.3034134;-0.55694795;-1.5943539;-0.45066825;-2.810976;-1.6626016;0.12728612;0.2232842;-1.4262251;0.6359234;0.5424294;2.694066;0.500344;0.4806275;1.7681043;1.2135006;-0.1895705;0.8944254;-0.4862121;-0.12172553;-2.2409708;-0.42981905;1.4144794;0.067276694;3.1987665;0.20539309;-1.6212256;0.099078186;1.7719514;1.459652;-2.2679062;-0.18618956;1.1893533;3.0379925;0.40706998;-1.1039519;-0.10913219;0.09837684;-0.6567766;0.6733294;-2.8866677;-0.0635762;0.7236427;1.8186241;-0.8495922;-1.8555427;2.2563617;-1.9111652;-0.00031877853;-1.4794226;0.8045974;0.71972847;0.34732607;1.3494841;-0.5830409;-0.983382;1.0317692;-0.5474519;0.46330565;-0.34679887;-0.38252583;-0.017160041;1.6414117;-1.1632843;-2.6302733;-1.5533751;-2.0746891;0.40392858;1.0094862;0.24378943;-0.63088465;1.3944367;-0.5272004;0.41774124;2.753247;-0.85949636;-0.3462838;-0.8312846;-1.3910426;-0.47263408;-0.1198828;0.2138489;-3.0292842;-2.2671902;1.5607095;-0.04663383;-3.114803;-0.80890477;-1.8922293;0.8330286;2.8613353;-1.4216473;1.3226177;-2.8654869;1.7086799;0.98878366;1.4365153;1.661984;1.1916615;1.0162483;0.0031092118;-0.31721082;0.98256946;0.14469287;-0.57154554;0.9402109;0.16134693;-3.2706838;-0.18519688;1.8018112;-1.2176642;0.84921706;-1.7249043;1.3438187;1.4472544;2.7715755;0.6830659;2.0197682;-0.9619648;-0.2807119;2.9660804;0.5384198;-0.64961666;2.6905813;0.12850636;1.1893698;-1.2107247;0.27217028;0.76008314;-0.8914194;-2.3298643;2.451466;-1.7334613;-0.02498116;1.3852482;-1.2283872;-0.94474065;-0.10514907;0.22668275;0.9916733;-0.4433921;2.159591;0.10711131;-0.53577787;0.73381346;2.1488235;0.3849642;-1.0676942;-1.084435;0.3322184;1.1691308;0.22273715;-3.0009542;1.777349;0.9611233;-0.25502372;-1.3486031;2.2480834;2.7657607;0.5308294;0.7851152;3.6084127;2.0053244;-0.8536184;0.87841374;-0.8757303;-2.1385305;-1.1437547;-2.7074506;-1.0376376;0.7104914;-0.7658558;-0.010336043;3.201314;1.6695851;0.9319054;2.2169585;1.4477112;2.9486506;0.4582536;-2.021449;-1.0720453;2.0605507;1.1395453;1.9550555;-5.359022;2.623572;-0.20545246;-1.7516718;-2.7617378;0.29363152;1.3674242;3.7489853;0.58542264;0.31356567;-1.1260567;4.350086;-2.286988;2.8241107;0.6983417;-2.368493;-0.1293168;-3.1403294;-2.4915524;-1.5967256;-2.14722;-0.97677;-1.3841363;-1.4391598;-1.1516174;-0.08321712;1.4892868;-0.6001717;-0.49391946;-0.656421;-0.3345983;1.0303212;2.264075;-0.48517138;-3.5040734;-0.41162828;1.6973522;-0.16138533;0.93444663;-0.9755148;-0.2910721;1.5529174;-0.05295298;-5.2389255;2.0960891;-2.493328;0.9864475;0.5103901;-2.6574254;0.9362717;0.23363262;1.5354236;1.1539664;3.2260532;-0.58813727;-0.6563158;1.4619651;-0.30890125;-1.1451453;-0.21661359;-0.5446608;0.16923523;0.3035422;-0.09730421;1.1464621;-2.143164;-0.51405424;1.4937816;-1.6185879;0.796253;1.3132809;-1.5976226;1.8732588;1.5461477;2.5624788;1.2933309;-0.5310501;1.643889;0.016480984;2.1863842;-0.600032;1.3296655;-2.2632089;2.207574;0.5179653;-0.63743573;0.4641255;-0.38503104;1.0398122;-1.6081798;-2.945455;-1.6320488;-0.19647372;0.36822626;2.2628138;1.579604;-2.140036;0.36037597;1.0039783;-0.43647772;1.7093785;-2.1360874;0.36912495;-2.0356858;-0.38235533;1.1555734;-2.7324398;1.7196647;2.2156389;-3.3067312;-0.85768276;-1.7348593;-1.7529593;0.7881437;-0.72765994;1.6488768;0.7439577;-1.0420898;0.8696314;2.6537285;-0.13086389;-1.1701074;0.9370029;-0.45775598;1.5023704;-0.6253351;5.9199896;0.16222614;0.89030147;-1.1421357;-0.76238984;-1.2087141;2.1284707;-1.7050393;1.2062396;-2.285833;-4.290288;-3.5868437;1.1179438;1.6782608;0.8992912;-1.7301801;-0.2633843;-1.3895355;-0.16202097;-0.97791;-1.0599133;-0.76063114;2.0583243;-0.2861673;0.7471143;-0.5298113;-0.39895794;-1.3623292;-0.073870175;-0.49735257;-2.2246242;0.90561455;-1.0198125;1.5246952;-0.22917269;1.4806163;-6.629247;-0.00011817193;-1.7921556;0.111273944;0.47224396;1.352092
2.2230422;1.9828922;-1.6843672;1.6587616;-1.9179552;1.4391837;1.7522043;1.3954539;1.2674565;0.13628583;3.154613;0.44076183;-1.7812127;-2.3958895;2.304929;-0.9094241;1.5201193;1.0706952;1.9363025;0.40914574;0.6025997;0.043020543;1.3599389;0.19383425;0.2858068;0.6948558;-0.5299622;0.570396;-0.23840718;-1.473445;1.4215558;1.1732441;0.244778;-0.65531385;-0.03459242;-0.45958465;0.88069826;-0.9816729;1.9315311;-0.27729058;3.3580387;1.6189516;0.565469;-1.5110945;-1.0269014;-1.0273689;-0.5655078;4.6487336;1.6576946;-0.34804118;0.55104554;0.016351089;0.5319391;-1.1009088;-0.19901595;-3.4203527;3.6700413;-2.68651;-2.7637935;1.7757347;-0.2806875;0.60753775;-2.0384476;0.7386928;-0.04336117;-1.1753768;-1.5822783;2.1755745;0.41222566;-1.5355601;0.5954998;0.22930019;0.4009033;-0.7249138;0.31831;1.5018117;-1.3743823;1.7017007;0.41226563;-1.1728971;-0.81378955;2.9348946;1.1018938;-1.3023431;-0.52628696;0.3933622;-0.61425;0.6766426;-1.3624934;-0.80517197;-0.21444699;-1.0802659;-2.427718;2.962603;-1.6046635;0.08912264;-1.4395685;-4.108807;0.116640486;1.437391;-0.3181541;-0.75628793;-1.3072766;-1.4030232;4.245725;-1.765912;-0.7383826;-0.41586605;-1.4345286;-0.06424603;0.10118686;-1.2557162;0.70765287;1.7916051;2.290345;0.017143514;-0.34042615;1.53976;0.35233328;-0.820289;-2.3626091;0.9569919;1.372742;-3.3075173;-0.7901994;-0.42101926;0.9779474;-0.6649759;-0.38955387;0.6921684;-0.95195156;-4.331472;0.5780032;2.4793854;-1.38429;0.073356494;-1.9952215;-1.5433819;-1.9010943;-1.0104426;-1.3459144;2.25002;-3.53103;1.3692968;-1.3737628;0.3643345;-0.22809511;1.1392374;-0.6976227;-0.8959713;-1.5264461;-0.274007;-1.8764634;0.033167735;2.045458;1.1539812;-0.25187147;-0.8180891;-3.3241339;-1.2659718;-1.2739972;-1.2513926;1.0462197;-0.5936458;1.9574153;-0.5726969;1.3210546;1.0734924;1.849523;2.0959496;-0.21467637;-2.8270035;-3.8331745;-0.61697763;-0.9009375;0.86934507;-0.68387824;-1.4669867;-0.83269376;0.29115435;-0.61439794;0.1649017;-2.3661404;2.4012172;1.0955352;2.6201396;4.015454;-0.7548916;1.8672589;1.0525118;2.7372396;-0.33175588;-0.805375;0.12959543;-0.5882794;-0.57476145;-0.4934514;-2.4772925;-0.8470154;-0.05432237;-1.462507;-0.91451323;2.4158978;-2.8497818;1.2812417;1.1772358;-0.8311454;-0.8331024;-2.6547897;0.1574536;-1.8919865;0.36321762;-0.42663127;0.17968807;-0.20839968;-0.45132193;0.3029384;2.1688173;-1.121211;0.28611553;2.1558793;1.8601096;2.4219177;0.09827864;0.1548483;-0.743363;0.45413893;0.26181108;-1.4422237;0.28521806;-0.97221106;2.3753474;0.7681689;0.9706781;-0.02592491;0.31501213;0.15076065;-1.7851257;-4.423049;-0.33390933;-2.2127182;1.5419647;0.023208233;3.734684;-0.5645759;0.9828559;0.9712436;-2.0200262;-1.6256416;-1.2728719;-0.9957535;0.88226366;2.9528224;0.87407595;-3.1689453;1.1728116;1.3460133;-0.6889617;-0.40203542;0.35280424;-1.2551675;1.0958552;-0.67305225;-0.20665725;-1.1524662;-1.0325772;-0.95851636;1.5199639;-4.106785;-0.27464512;-0.68396187;-1.1038527;-2.5026388;0.82489324;1.8020585;-0.1701401;1.1008245;3.3860435;-1.8276048;-5.0401416;-0.30074427;-0.57673305;-2.7625198;-1.7230076;1.2748688;0.027728837;-1.604791;-0.034278233;-0.46335587;2.3032079;0.5210481;1.8945003;0.3824478;-1.7414628;-0.4526103;2.3153148;-0.7947381;-2.2051833;-0.3466223;1.8626374;-0.5546377;-0.96966904;-0.2620119;0.042276457;0.55620474;-4.222963;0.21187466;1.7462238;-0.16411494;-1.1958394;0.3094477;3.1971717;0.47675917;1.5844219;-2.4493253;0.70664436;0.843743;-0.5545642;0.7257529;2.4170787;1.1318959;-0.47644034;-0.7607933;-1.8267833;-1.9723351;-2.9595382;-0.7681007;-1.8486854;1.6962738;-0.1151456;1.4465091;-0.4019008;-0.8270095;0.27951506;0.13114017;-1.4437281;-0.8310134;1.1014485;-1.2197684;-4.161443;1.4369428;0.29507774;1.5784302;-0.0040735817;1.4651997;-1.0786401;1.9464355;-0.50522536;-2.131335;2.569041;0.6271287;-0.024082115;0.40099522;-1.0490155;3.2583508;1.4298146;-0.6387905;0.91865724;-1.6509844;1.237192;-0.6184995;1.4121832;0.17379358;0.3230057;0.95154506;-0.9524523;0.5778001;-0.23488873;2.4209125;2.3504317;-0.6590273;-2.0864012;3.9698205;-1.6434742;1.263762;0.09672694;-2.8282297;-1.5771523;-1.2855877;1.1142012;0.74534655;-0.30840245;-0.1804259;2.8918488;0.08105325;-1.6210561;1.2236844;-0.753089;-0.73638207;-1.1397624;-1.2350005;-0.41984302;0.9467655;0.36643788;0.38902664;0.12364959;0.96274567;-1.662301;2.0794146;1.2681383;-0.6417087;-1.48432;-0.7212342;1.6705856;-3.1470363;-0.5681942;1.4094801;-0.5613398;-6.192614;1.5935193;-2.4623125;2.0034928;-0.4570227;0.7019538;-0.53222895;-3.5138583;-1.3823156;1.9087973;-0.5177295;3.2566693;1.306156;-1.8817903;1.8249574;-0.8430866;0.5622165;-1.463649;1.6162155;-2.512379;-0.45591453;1.2114577;0.881403;0.13082565;0.6395163;-0.7372496;0.68949413;-0.33053765;-1.7432053;1.2859113;0.83005035;-0.3342485;2.2871704;0.77452534;1.5595052;-1.4832281;-1.0865685;-2.0158894;0.6286502;-3.65159;0.19031516;0.1094627;-0.18331249;-1.3951285;3.0899081;1.1706443;0.6112396;-0.9579401;-0.95938057;1.0440167;-1.5095648;-0.35846546;-0.042796727;1.4001207;-0.23205812;-1.2066422;-3.406484;0.82000434;-0.18434489;-1.0935152;0.11602888;-0.031779032;-0.3605764;-0.28328702;0.284696;-0.60778236;-1.0576342;-1.2078936;-2.7011604;-0.33689055;1.5166684;1.5564582;1.269866;0.6024052;0.6710506;0.9005017;0.7324612;-3.5789866;-0.07585653;0.5489342;1.0377786;-1.8806001;-2.1954296;-2.6511805;-0.32208228;2.1536174;0.9857443;-1.0535042;-0.45464373;-1.7449106;-3.4989362;-2.323137;0.30163735;-1.0782347;0.31054017;-2.1842306;0.43173283;-0.09055136;0.30357638;1.5215911;1.382847;0.8722236;0.802923;3.1319766;-0.28375387;0.7544583;-2.0539653;-1.013878;0.75045455;-2.6082942;-1.218347;0.45118263;3.330126;1.6506207;-0.75922924;-0.3327031;1.8381206;-2.1136231;0.8639927;-0.17361483;-0.344564;-0.19466041;1.3322252;-1.4327078;-0.2975266;0.34314996;0.80286986;1.3531305;0.30193987;1.6045455;1.560745;-2.8921657;-1.3961374;-1.6864921;1.8706777;0.7957455;-0.9294825;-7.976536;-0.7477237;2.6549473;-0.08731185;0.35324293;-0.8672906;0.6503482;-1.3557239;-0.98922414;-1.7132883;1.2607316;-1.43726;1.6977645;-1.0588166;-2.5952506;0.5331548;-2.3179784;4.5965233;0.7828507;-0.43731934;-1.1142888;1.5952386;3.5148814;0.15354373;0.16359694;-2.534618;-0.29618162;-0.49628928;-0.55340564;1.1274302;-1.4755183
-2.154443;1.4563972;-0.10237729;3.3293977;-5.174586;0.631917;1.1843992;-0.64508426;-0.7398851;0.14728038;1.1651126;-0.060380105;1.511681;-1.2225128;2.2729144;-1.7525576;-0.36186382;1.8284867;1.3325125;0.3971382;-1.0259846;-0.8076798;-0.14687078;-0.46449453;-3.9630234;0.8174156;1.356465;-1.2645037;2.9110036;2.0415094;-0.036330644;0.31607518;0.9890646;-2.9479785;-0.7388123;1.1333152;-1.3499337;0.16420224;0.09394721;0.47682217;0.23267592;1.4041024;0.75655323;-0.5018405;-0.9580342;-3.7226262;-2.1356888;1.9646256;-0.92187357;-1.9637586;-0.302006;-0.24495831;-2.0059683;2.7693155;0.8410924;1.651613;3.8084273;-2.8471248;-2.2567759;1.6398263;-0.073427476;-2.8805299;-4.002518;0.89424324;-1.7212582;1.3495374;0.18385205;1.839715;0.16726115;-0.462799;-0.6841369;-0.7068274;-0.09241535;-1.3792809;-1.2445422;1.1848743;0.13034363;-0.77254045;0.19998139;1.5894659;0.9401863;-1.778867;-2.0246255;-0.1933394;0.13537842;-0.08958297;-1.4727929;-1.8354276;-1.4761605;0.87363774;0.8492912;-0.0033297727;-0.9137694;1.7764125;-2.1880455;-0.25906911;-0.8509973;1.3048246;-0.18251838;0.8429728;0.39623702;3.2231646;-1.6901761;0.53691864;-0.80910957;0.28337365;3.2647347;-0.27055717;-0.3995739;0.45776868;-1.0583345;0.6662099;1.1555662;0.22643177;-1.2225664;-1.7953894;-1.1496551;1.5659603;0.89752185;-2.2940207;0.925851;0.52273947;0.8232725;1.1224211;-1.0535911;0.36273113;-0.02398328;0.78833896;2.6962261;-0.85105675;-2.949614;-1.1146544;-0.15577403;2.8115401;0.5386349;-0.39256757;-0.841673;1.0881463;0.06176682;3.9051929;0.18645363;1.2816367;-0.9042462;0.42606437;-1.2803347;0.14365229;0.7863364;-1.0562851;1.2851204;-0.31430408;-2.590336;-1.9334202;-0.8879246;-0.286235;-0.1619247;0.009343686;-1.5712843;-1.639504;-1.529662;-1.6225159;4.2547917;-1.0965071;-3.6779423;1.9673557;1.5329894;0.42992395;1.0004104;-0.66664803;-2.3105924;4.4990034;-1.0181147;-0.32524216;-3.5880613;0.18072526;0.10919558;0.037619077;-0.7902529;-1.6937617;0.1855504;-0.5825959;1.4976789;-1.5685799;0.09875479;0.08444554;-0.87034667;-0.42643312;-0.4522343;3.5415754;0.93660617;-3.3196726;-2.2341838;-0.62296224;0.5595295;-0.11987762;-2.1890945;-1.5412397;0.29427588;0.14704636;-1.7211123;-0.1886641;0.17221425;-0.39997023;-0.19690382;-0.2660378;1.1012272;-0.28880268;-1.3937653;1.6782383;-1.2088888;-1.7202486;-1.6180809;0.43370023;-1.0166504;-2.4025042;0.66372365;-1.6146425;1.3468305;0.62192225;2.8638403;1.000501;-2.3707557;3.3953846;-2.160718;1.4769442;0.999458;-1.2655247;-2.7466822;2.6753523;2.7462375;-2.687981;0.88527864;0.44273698;0.5327933;-2.2648711;2.8151996;0.061729714;-2.0749447;1.2169412;-1.3631815;-0.2309781;0.60484934;0.5810108;-0.57911164;1.2597817;1.7570287;0.69760394;-1.216049;-3.8835666;-0.6094996;-0.70140696;1.004016;1.4756105;2.4443183;-0.3362245;3.1472483;-1.6046427;-1.4646302;-0.73552626;-0.53098905;-1.3959585;1.5278118;0.8435851;-2.7889223;-1.8894467;-1.0900779;-0.39431557;-0.1681927;1.0282137;0.32172734;1.7593068;-1.718355;-0.017228298;-1.8618847;0.8111182;0.18827161;-1.1660769;2.9885674;1.106668;0.37673676;-0.60775477;-0.40261403;1.1646589;0.2087681;-0.6253733;-0.46459493;-0.2991305;0.22974849;-1.5002164;-1.5305461;-2.52374;-1.3000075;1.1733329;-1.5227786;-0.6444179;3.669957;-2.386781;0.4345823;-0.99245703;-0.60337985;1.2572639;1.3470165;-0.4156993;-0.7043341;1.8716861;-3.088978;-1.864566;-2.1639998;-0.56543416;-0.015627991;1.4770715;-0.9805444;-1.7188127;1.0815216;2.2175431;-2.2101216;0.818648;0.6554749;-0.28411108;-1.0946385;2.1470287;1.7322149;-2.9922667;-1.5943402;-0.39396527;-1.1107697;4.4101024;-0.040683743;-2.5934942;-1.3912133;-0.19285919;-2.4936442;-3.5301201;-1.3793051;0.76064765;1.00106;0.40045345;-0.40915912;1.076887;-1.2674357;-2.4395416;0.6989201;0.90683746;2.4798715;-0.33318588;0.09391053;-0.7900226;-0.07877;-2.9860048;0.16861533;-2.1404545;0.5114311;-0.97609186;-1.0296297;-0.83297807;-0.59426886;1.2724087;-0.89890665;-1.1315362;1.916943;1.2659736;-2.251791;-0.20709388;-1.2915521;1.6965779;-4.715733;-2.1165702;-1.6230311;1.1310514;2.9309084;-2.35292;-1.1027113;-2.2189987;0.09998312;0.12415664;1.2808719;2.5057697;-0.08103076;0.22062849;0.018913366;1.1482803;0.17117742;0.94480765;1.195682;1.6355038;1.1398405;0.33002794;0.5076417;2.42508;-0.14888048;-0.38405114;-2.373468;-1.6728295;-2.0268974;1.043119;1.1739056;0.08191372;0.005366034;-1.3021333;2.6092095;-3.4584568;-1.0677471;1.5543325;1.536333;0.06909119;3.3121095;-1.1141852;-0.6444242;0.9610158;-1.0652689;-0.402906;-1.1171871;2.0591888;-1.3230933;1.9211005;-0.31508917;-1.2266178;0.6421615;1.7883343;-0.6547329;1.5053276;0.4741782;-0.09373015;1.2728164;1.0200204;1.314893;0.25700697;1.9676387;-3.5000792;-0.7690064;-2.7394202;-2.2832804;0.47696853;0.2759245;-0.45471525;1.4950935;-0.42051452;0.9589061;0.596432;-0.5064207;-0.06437953;-0.827901;1.9094584;0.5254515;-0.23973422;-2.2538753;-2.8908517;0.7911254;-1.8235753;2.0377166;2.3095205;-0.6130529;-2.9253583;-0.51486695;-0.33664894;-0.2700539;0.091979824;-2.5042586;-1.0010172;0.17843543;-3.0520241;0.021822799;1.2049592;-2.7766612;0.4152002;1.8497121;0.58982927;-1.5631821;0.3042057;0.55402833;1.140827;0.7279802;1.9305482;-0.78943485;-0.7214709;-0.055563983;0.068561845;-0.0046151876;-0.22515172;-0.64939076;0.7505239;2.0428107;0.6011676;-0.9652209;0.33919403;1.4102747;-0.96974707;-0.56673986;1.1750903;-4.6852446;-0.7867979;-1.46735;3.9761496;-2.0904644;-0.08634668;0.4875305;0.5158186;0.6196607;0.88470596;0.8885329;-0.23557754;-1.4010191;-1.5753946;-2.6978855;-0.3774136;-0.7731086;0.96382123;-1.9365793;-1.9714929;-1.2963531;-0.16110145;-0.04851646;0.23695661;-0.4115511;-0.94067156;0.82075065;-2.9283633;1.5153009;1.1730328;-2.559377;-1.002394;-2.3592172;1.2246448;-0.52825534;-1.7766218;2.563864;0.42831257;0.03335815;1.2081664;0.7460592;-0.30086955;0.1883576;-2.5895512;1.9327012;0.5653306;-0.22089383;2.0206065;0.8454473;-0.2990749;2.4980683;1.6313822;0.70005757;-2.9322844;-2.3169649;0.5699077;-0.3679796;-2.9886694;-1.995517;-2.2931418;-0.09804384;0.73743427;0.14771987;0.15493831;1.4724749;-3.5307584;0.18881366;0.8036455;-4.8882337;-0.6441992;-1.0159035;-1.7760043;-0.9737045;-2.520521;3.9991074;0.3365669;-0.5842169;-2.2332964;0.7890384;4.215883;-0.4025581;1.1852112;-1.0792289;1.1588337;-3.1799493;-1.3292044;-0.96846485;-0.42935818
0.7891565;1.8890332;-3.137895;-1.1079853;-0.41504067;-0.33921307;2.214789;0.6768865;-1.7416568;0.72950244;1.295028;1.2691412;-1.6673255;0.9332077;1.7129716;-1.3841476;0.85032696;-0.7193933;2.3056889;-0.21342222;-2.0124347;0.5716759;-1.2404963;-1.1889489;-0.4096887;0.90384483;-0.56326747;-1.3726147;2.7903156;1.0506899;-0.6383138;2.0935378;0.6449826;-1.0035174;-0.16044556;-0.19636092;1.302397;3.3993402;2.37968;2.8464918;0.8362598;-0.4610545;-0.18031888;0.95890933;-3.5634418;-1.6858768;-2.1363862;1.2737355;-0.7242525;-0.8438221;1.2805116;1.4663433;-0.79338366;3.0569146;0.8826534;-0.65669674;1.0015284;-3.1836624;-2.2400126;1.3056287;0.6741652;-0.7570608;-0.7046986;0.49566972;-2.3134284;-0.060558964;0.2669097;1.3163089;-1.1967846;-0.6953469;1.1361187;0.9371656;0.18531436;0.71534765;0.20261456;0.52064854;-1.0723678;1.8276162;0.4987352;-0.98601663;0.32774398;-0.3979555;-0.009839216;2.8921854;-0.7291814;1.0267406;0.8323731;2.1273346;1.3115267;3.109606;-0.6136148;-0.21336277;-1.359488;0.13952625;0.32915524;1.3410798;1.1991603;-0.068001285;-0.71917474;-0.82872254;-0.43271568;2.5704238;-1.9010997;-1.320249;-1.1472895;0.119779;2.7421088;-1.4163402;0.29778463;0.26322773;-1.1924633;-1.5528696;0.6702661;-1.4548099;1.2423332;1.2148644;1.1568356;-0.61703897;2.4895117;1.038727;-0.20879646;-0.2747253;-0.4380673;2.4716241;-1.220792;1.6823307;1.3801703;1.3579322;1.748861;0.09776561;-1.1675522;3.8175893;3.1208599;0.2464037;0.5830195;1.3881533;-2.889268;2.5816438;2.488168;3.6492808;2.7313466;3.0583951;-2.6842258;-0.85833746;0.08465706;-0.3537216;-1.7693435;-0.3877627;-0.53954244;0.13818069;-2.4690557;-0.83813864;-1.3429327;0.6774647;-0.016059406;2.6739218;0.82728285;-2.5070355;-1.2613362;1.5992614;4.3775105;-0.46416223;-4.066085;0.47975886;1.1933675;0.20563717;0.92554504;0.045702673;0.49711975;1.505077;-2.1511045;-1.1578497;-1.0958517;-2.4795125;0.36405382;-0.18066742;0.09049468;-2.6139286;-0.82308084;0.2987191;4.143943;-1.9314181;2.2948024;2.2777443;-0.7707815;1.6740279;-2.6393757;1.4804301;0.52380335;1.0026367;0.7021016;-0.44359964;-0.38813478;1.7884349;-0.96662706;-1.4073039;0.0070398166;1.3569683;0.060930982;-0.6388268;1.4071205;0.5314988;0.50181055;1.8637626;1.432919;0.66910475;-0.3177476;-1.2307111;2.7307837;-0.94070333;1.0629625;-2.152951;-0.51306003;1.6282922;-0.66878915;-3.583366;-2.4935546;2.3182237;0.12978865;-0.39372477;-0.7396909;3.2561202;-1.7303247;-0.38649604;2.2208502;-1.5351356;-0.8162758;-2.3328533;-1.031625;-0.022468193;1.3817525;0.60996014;0.5003908;-1.8036942;1.769877;1.4739848;-1.7453042;0.8603076;-0.15042901;0.25833136;3.805366;-3.3430798;-0.091029696;-1.3350389;-2.5753303;0.8786128;-1.3438566;1.0460757;-3.7754674;0.5473485;-1.0798701;1.0084176;2.8340201;-0.98594904;-0.7329596;0.50793374;2.3506496;-3.1855783;-0.33499515;-3.4109082;2.788112;-1.1967983;-2.594985;1.5641466;1.5756422;0.15911977;2.5701375;0.9410112;-0.048061978;-0.94119;4.8879166;-4.4531546;-2.4748316;0.5347357;0.16027899;-0.19559422;-1.4656284;2.4749706;0.5262903;-3.942952;-0.3261813;-0.3540831;1.8200723;0.37363786;0.4484851;-0.07413443;3.1180906;3.5351365;-2.7056315;0.10765517;-1.4753003;2.7574959;-0.47975138;1.1606416;0.19250125;-1.1460867;-1.0045952;-2.0540385;-0.87228286;1.4682578;0.84990406;1.4356004;-1.9620869;1.7988213;1.1626077;-0.5266724;-1.089681;-1.2665913;0.6971506;0.74071264;0.61818755;0.93525225;-0.790457;1.8389453;-0.5462487;-1.0329691;3.3673196;0.016538186;-0.4910348;2.5436707;1.3302853;-0.92379576;0.18150197;1.1880478;-1.7986894;0.006607039;2.9506664;4.0221457;-1.0534371;-0.8417796;-1.1256559;-1.2715602;2.345835;-1.3051534;-0.5171654;0.6873477;-0.12874238;2.3101356;0.6683902;-4.4580097;2.8424244;0.21709628;0.3290985;2.2267373;-1.9384322;0.55682844;-2.5278907;0.15131654;1.8419169;4.193059;1.2393609;2.1190827;-0.902013;1.1897846;1.2909495;0.4155831;-0.4256619;0.6701495;-1.9981395;0.9074841;-2.402015;0.49205443;-1.4162884;2.1930618;-1.6678944;0.62015444;-0.82683814;-0.31875017;0.77629;-2.8189719;-0.51520765;0.1776518;1.2541624;-0.24123332;-1.464534;2.6788628;-2.81338;-0.6676701;-0.91003895;-0.003638605;0.6781611;0.06625501;2.0018427;-0.6040559;-0.0042337696;-1.202145;0.16033693;0.94605666;0.7733361;-1.1142488;-1.3217282;0.30237862;0.674644;-0.7831606;1.0883754;-0.1708602;3.075238;-0.12387729;2.2702343;0.38284117;-2.1539278;1.5733929;-0.6086612;-0.92926353;3.135579;2.5582643;0.63564134;0.86917967;-1.2863734;1.1846621;0.9528697;0.84292734;1.5451744;1.5654674;0.47432876;1.0231699;0.74199957;3.1247013;-0.69354236;0.45050552;-2.0658545;-1.3885226;2.9695144;5.0470896;0.18122108;0.03989621;-1.8521448;-4.2008805;-0.64388543;-2.7532601;-0.97229654;-0.087910935;0.64687383;-1.1003077;-0.203983;-3.3046074;-1.1047361;-1.4038854;0.99156916;-0.6720533;1.7825809;1.3348652;1.863275;-0.5428742;-3.8514745;-0.59515524;1.5558403;-2.7372992;-0.83931917;2.068953;0.4590456;-0.7793188;1.5608903;3.699583;-1.4946074;-0.28562936;-0.48828745;-2.147674;2.6003757;-5.138409;0.24638186;1.7113708;-1.3400627;0.7335768;-2.4152825;-0.023595845;-0.9131964;-1.3650203;1.7882783;0.041038554;1.1385815;1.0129745;0.54741937;-1.261491;0.8644552;1.4715903;0.028687943;0.801874;0.5462302;1.5972883;-0.13904478;1.3942138;-1.2967259;1.2836694;0.05658926;-1.2876394;-2.1976376;-0.1481309;2.7325172;4.7092752;-0.40774915;0.06685093;-0.8639262;-0.8738043;2.529688;2.802673;-2.2251918;-0.032816283;4.199288;-1.5794104;-4.4217777;0.59844464;0.86519873;-0.2865332;0.4989972;1.4067748;-1.0084072;0.8157545;-0.93658435;-1.4226657;0.7901701;-4.418796;-0.794193;-2.2675886;1.7608553;-0.8866552;1.1486505;-2.5809002;-1.3360494;-0.49929038;-1.4003823;0.25493366;-2.9332852;-4.2663813;2.2196767;-0.5124397;0.16046204;0.6062364;0.17648844;-0.25643092;0.6529478;-1.7859415;1.4486669;2.928967;0.3286337;1.8035234;1.2057568;0.0028798007;1.6014196;2.818778;-0.8504783;-3.0505056;0.9494826;1.6017296;-0.039954;1.4093983;-2.277354;-0.73653704;0.25780195;0.64173454;-3.9838817;1.6270598;2.3347287;-2.715925;0.701196;-0.9315;-2.333086;2.606084;0.7243741;-0.4406789;-0.53261226;-0.885828;3.4681072;0.7132776;-0.9314126;-1.2165998;1.6084454;-0.40540773;-0.9634673;1.6664965;-7.607343;0.435303;0.269168;0.5369119;0.7743158;1.8118455
-0.5211271;0.29333293;-0.39742973;1.0372437;-1.2311951;-0.4555665;2.0334218;-0.29383242;-1.9373734;1.1903492;1.3294055;-1.9953346;0.84836054;0.16529037;2.3167021;0.6935439;0.9665275;0.027747406;1.9138803;-1.8547509;-2.8363705;-1.1173317;-1.4221761;0.4870948;-0.22440419;1.8710264;-1.36798;-0.9921893;-3.224057;0.74478805;-0.6757587;-0.29654732;1.6602906;0.029490223;-1.9200846;-1.65984;0.25887927;-0.23305272;-1.0125585;-0.045008406;0.2706681;0.6280141;-1.7217257;-1.7933164;-1.2757977;-0.71399766;-1.8689042;-2.0732996;-3.15942;1.7393168;0.7638365;0.1877819;-0.87129545;-1.3997477;-0.18812945;-0.13853198;-2.0892076;-2.3762329;0.8668298;2.8101528;0.20246361;0.402854;-1.0630237;1.3603119;1.1659414;0.07401647;-1.3915788;1.9554932;-2.684356;-0.94124466;0.5905803;-3.056393;1.8929143;1.8818392;0.6767714;-0.064769745;-1.642682;2.2351182;-0.70795816;-1.4335893;-1.0970154;3.379939;-0.55217725;4.2542067;0.13373238;-0.007941434;-0.6223405;2.0339055;-0.117974035;0.23384967;1.0851527;0.9138811;1.002512;0.7434157;-1.0425552;0.19338983;-2.2422247;0.18419507;-0.6189619;-3.345287;0.6007698;-1.6237621;0.23918366;0.40608814;-0.6483657;0.36432;-1.4941261;-0.071079135;-1.248215;0.5563807;0.27763495;-0.540727;-1.2745409;-2.4435873;-2.153033;0.18302312;-1.6649778;-1.1427382;0.37250376;-2.1055613;0.52027684;-0.09651503;-0.54220545;1.4596114;-0.41980717;-0.6761922;1.3672881;0.7997893;1.4266824;-0.30107754;0.53739226;-1.0310369;1.3721596;2.216561;1.6313736;-0.6823275;-0.7588492;-1.3890295;-0.99419904;-3.257281;-0.7719;1.396565;1.6289388;-1.0681038;-0.8691753;-1.8646126;-0.72235197;1.6120329;0.66916203;0.5582476;-2.4689584;3.1969073;-1.1936454;0.66573536;-0.1585788;-2.2803588;-1.6279163;-1.0755017;-0.34729865;0.45690897;-3.1255054;0.9423931;-2.1065032;-0.19566277;0.6012967;0.08162355;2.2484086;-2.9265838;-0.4711806;1.1364615;0.59834254;0.33316937;1.3727939;-1.6325287;-0.62749964;-0.30843022;-0.22719017;-0.17260969;-1.5101922;-0.006758838;1.8277009;-0.5259899;0.6602419;-0.28371465;0.604389;0.132094;-4.2522373;0.303352;-0.48101285;-2.5093088;0.31207186;-0.6230372;-0.4005305;0.60290396;-0.73811;0.25592116;0.45169398;1.1696215;-0.38484085;-3.886951;-0.81898665;0.064587496;1.7522804;1.1469883;1.4653912;-1.5693427;0.19471173;1.2817302;1.282589;-2.8172183;-1.1795746;-2.2619905;4.2921762;-1.4304894;1.3811811;1.1344178;-3.7340064;-1.6957043;3.2758172;-1.7879943;-2.657402;2.9877098;2.768602;1.8750576;0.2667765;-3.588955;0.60961914;1.2767991;2.5328681;1.3097752;0.23444171;0.8346649;-1.6161743;0.43774965;1.5539719;2.1488028;-4.2490034;0.5847528;-0.8868008;0.13482127;0.8829683;-1.9725603;-1.0144054;-1.7796896;2.804235;-0.41443485;-1.5464948;-1.3985721;-0.82640463;0.6296655;-4.340779;0.7368897;0.07676427;0.059870224;0.048202895;0.6230099;0.35661834;-1.8172997;-1.1879245;0.367134;2.9878407;-2.3273354;1.0546216;-0.58668447;1.0992223;-0.8411344;2.2994952;-0.21605583;-1.558285;-5.691492;2.4627273;-0.2281099;-1.2083516;1.6607386;-0.63762134;-0.46807587;0.6985532;0.8398859;0.43234068;-3.1017115;-1.0248835;-0.17120883;2.915263;0.08647589;0.348796;-0.12690526;0.40718925;-0.7630205;0.68011886;1.9865464;-1.7523007;0.44646722;-2.0914671;-0.877449;1.399651;0.049174745;0.7890831;-1.9040053;-0.4184009;-0.36668056;1.4019431;0.076048136;-0.6282793;-1.2738509;2.1288044;-0.29676276;-1.9944785;-2.555854;1.6586277;0.39868194;1.1549577;0.14196128;-1.1307126;-0.550372;0.12762725;1.4074938;-1.558443;1.7475954;-0.25312135;2.622307;0.8596411;1.4981974;-0.99757904;1.1491375;1.3749897;1.3827448;-1.6488159;2.0782368;-1.761362;1.4172591;-1.5840136;-0.9565346;0.65767497;0.20749013;3.023919;1.8656346;0.09376284;1.5680164;0.19789085;0.97921574;2.6571493;1.5000949;1.3983179;-0.72501117;0.31735572;0.43584502;-1.745276;0.94316375;-1.0173148;0.59262514;-0.18776613;-0.22151615;-0.21572573;-0.13602696;0.7789079;0.18754897;-0.10407103;-0.14269806;2.053928;0.19423585;-1.8018141;-0.050528668;-2.319415;1.152601;-0.31530488;-0.10642738;-1.3537865;-0.9195193;4.083402;-2.8688338;0.45378888;-4.1719246;1.7690682;0.004505332;-1.5275509;2.9448178;1.6350965;3.194326;-2.0689008;1.7949094;3.105878;0.619588;1.3842345;-2.1380215;-1.7506168;0.27782026;-1.1600825;2.1976316;-1.1027166;1.2896017;-0.09908783;-1.8527551;1.3855845;-0.5271308;-0.8123352;0.98679245;1.0282995;-0.08412469;1.0449913;0.10435075;0.8352029;-0.33530504;0.7032802;-1.9089301;-0.043841574;0.675562;-1.1140343;-0.28655973;-4.622894;2.2675064;-0.5627517;3.508299;0.11640586;-0.55967367;1.2408388;0.2501794;-1.7823163;2.0196679;-2.2702975;-1.2752612;0.6846843;0.84569883;1.9835758;3.322337;0.5837818;1.6122144;-1.2743763;1.1184348;0.50443083;-1.6195987;4.196846;-0.27516046;-2.2392807;-0.20383768;1.32803;1.9128187;-1.0888788;-2.2354696;-1.3294944;1.2351496;3.3317304;0.4177774;0.10834604;-0.7231806;-0.17466089;1.1199424;0.050920777;-1.0051309;-1.9168001;1.8548195;1.0234964;-1.7908363;0.48164526;-2.3034537;-0.18491237;-0.25932702;2.8598359;0.29671943;-1.0793791;-0.47525707;0.78344506;-0.75146806;-0.50882727;-0.38843352;0.38627487;-0.061251905;0.25837424;-0.09045058;-0.7425231;2.1362965;2.8849237;2.6178608;1.191882;-3.026492;0.06001501;-2.4803011;0.22320104;0.2962545;2.078009;1.341413;0.96619797;-1.675374;0.6660888;1.5484256;-0.15644312;-1.1134645;1.6026664;-2.8088334;-2.0339704;1.5168047;0.84321463;0.3035926;-0.6196497;0.6412754;-2.0066059;-1.7083634;-2.1539538;1.3215033;3.128601;-1.0401584;-0.1516464;-0.020994522;-0.46013457;-1.0950978;1.5876005;-0.31469095;1.5734569;-2.3183687;-1.1729122;-0.8411381;-0.018766318;-0.8233125;-0.9940978;1.586451;-0.47829223;2.220492;1.4222683;-1.7015526;-0.8578062;-0.6498062;0.56628466;0.58393663;-2.9164338;-2.8400657;-0.8017194;0.66017455;-1.461995;-1.1683332;0.9271157;-1.2906083;-1.3448696;0.5859235;0.066559345;1.3706752;-1.2335081;0.20413195;1.5270609;-1.4236498;2.723235;-1.2937568;2.0277803;-1.1967272;-3.2444782;1.9835873;-0.9488604;-2.697536;-3.3306298;-0.21430328;1.6568447;0.68691665;-1.4140413;-0.35856783;-0.8020751;-0.41926643;-2.543007;-0.24898262;-2.3634617;-0.61739045;-0.438964;-0.7442254;-0.77003294;0.93071055;-2.0129683;-1.2532961;0.55986285;-1.413439;-2.7625926;-1.0303726;-0.42908534;1.3476565;-4.124144;0.6895423;0.8864493;-3.007083;0.14734027;3.7707517
-1.5232923;-0.048795965;-0.3426328;-1.097337;-0.07618711;-0.4721068;0.049714856;2.1654758;-0.1993822;-1.581823;1.0814618;0.6163586;3.4667492;-0.07769679;1.437905;0.23134623;0.38430688;2.7475367;-1.1062336;-0.2612549;-2.649968;-0.5278457;-0.71616584;-0.63020563;-0.9717188;-1.0706843;0.11314874;-1.2076122;-4.3981457;-0.4924511;-1.1059117;-0.28452408;0.22706684;-1.0355564;-0.37285727;-0.70933104;1.7161406;1.7941794;0.7578067;-0.13263562;0.13509147;-0.4515889;1.0085306;3.7558248;-0.67194694;-0.6555288;-0.94288445;-0.11651229;-0.4895647;0.23281957;0.9126808;0.2716271;-0.56055146;-4.1047735;-1.1075835;4.137754;0.031229679;-1.5829736;-1.0396948;-0.2248056;0.002743751;-1.2655005;-0.24861093;1.0701363;0.35292175;1.4940288;-1.5372016;-0.18279634;-0.71169037;-1.9403932;-0.4438393;-1.4373;-1.7145876;0.5206653;2.0317748;1.7000333;0.42556047;0.52820504;-0.35586628;1.3094426;-2.783035;2.647446;-0.6323956;-1.4663572;-0.74760497;-1.8299294;2.5069368;0.5095979;-0.2245715;-0.41697454;-1.8490677;-0.12528348;1.6534276;1.2405951;2.381219;-1.1419351;-2.4898472;-3.7241638;-0.61057174;-3.2478204;1.2869194;-1.680431;-2.5461607;1.7130829;-0.099570885;-2.2236679;-2.4760368;1.1845151;-3.2591407;0.6790261;-3.7070155;2.2155218;0.64492416;-0.14766048;-2.83649;0.8147706;-2.0040693;-0.6097995;0.9749414;-1.3272396;0.7308931;-1.7520221;-0.6171609;0.76562405;-0.2813924;-0.84469265;1.4886676;1.4164616;2.568577;-0.250047;-2.6720388;1.4708819;2.609031;-0.71912;2.7543895;-0.039042614;-0.28138173;1.1283052;-0.757524;-2.389312;-1.9854791;2.0032344;-0.6129759;-3.0757518;-0.21019134;-1.6635677;-1.9185516;-1.3953071;0.8991889;1.5044589;-2.843934;0.17920266;-0.62915987;1.2223312;2.6231208;0.20323817;-0.8871138;-1.2408906;-1.9288986;2.901993;-0.21034703;1.2914526;-0.6434055;2.9660413;1.6049488;-0.1845567;0.9392117;-2.4472198;0.30486277;2.7412326;1.8889564;1.3896276;5.403767;-2.4863975;-1.2507696;0.6787686;1.0196528;0.6417027;-1.5460244;0.6165533;3.009218;-0.13198414;0.016287386;-1.5925596;2.1962304;-0.67734706;-2.7642746;0.8006017;-3.084437;-1.7603685;-0.24737328;-0.708817;0.65668327;-0.5604545;0.015477166;-0.15785427;0.55926085;0.38280934;0.8252952;-0.2898065;-1.2078952;0.97840613;1.1869372;-0.9004873;1.9137039;-0.8619913;2.8168678;-3.018586;-0.72684735;-1.5733713;-1.1311245;-1.7947669;0.6318983;-0.2836918;0.027833734;-0.37999055;2.041312;-3.8830764;1.5824844;-0.4231391;1.3713732;1.3387501;0.95301473;1.788817;2.096952;-1.2149314;2.6802425;0.74917114;-3.7683635;4.152681;0.3841948;0.29046282;-1.7632217;2.0271144;1.6478832;2.4746158;-1.4475347;0.44027266;-4.5324254;-0.27496016;0.6247321;-0.10703647;1.020268;1.4920914;1.4243958;0.6711579;1.669905;-0.9180928;-0.19684248;-0.47207114;-0.7725176;0.29713887;1.0047137;0.71352124;-1.871203;3.0470848;-1.6664046;-0.52114516;-2.8792949;0.1635116;-0.04930862;-0.35289335;-2.5708787;0.9404681;-0.79081297;-0.5069224;-1.8451293;0.9812249;-0.9106351;-3.0990217;0.14509144;2.1964638;-3.9292839;1.7211154;-1.6363122;-1.710959;1.4899402;0.8540425;0.76779896;-0.4450868;-1.4268057;0.32156405;1.7555268;-0.42901087;-0.034560453;-0.6546934;-1.4233038;-4.4057107;0.15349428;3.1803346;-0.033577424;-2.2468238;0.70032096;-1.5576416;0.32092726;-1.4450562;-0.2857771;-3.740009;-0.05490292;0.36331832;1.157956;0.14923331;0.924175;-0.18269646;0.121960044;1.2552509;-1.8322971;-2.0272534;0.9245472;0.1684269;1.1827985;0.15498547;-0.7955438;-0.54697436;-0.2268966;0.7406892;0.4897698;1.7421141;0.32016608;0.63983625;0.06876406;0.44076633;0.024838448;-0.2531623;2.9773514;0.37265036;-3.762377;-0.07859719;-1.1843361;-0.11174265;-0.6186594;-0.16828458;-0.8433823;1.977388;0.35900718;-1.4970719;-0.48712254;0.32649013;1.044206;1.3834982;-0.024887608;-1.2269408;0.88642484;-0.15645769;0.5879764;-1.439412;-0.5314346;-0.06231208;4.30809;-0.69763947;0.24415514;-0.99994075;1.9033337;-1.1687787;-0.44562688;0.07877641;0.15061215;-1.8531418;-1.5385996;-0.07622406;-0.7491593;0.30694336;-0.14391047;-0.57395715;1.7867655;1.2969034;-0.95198846;-1.3231239;0.7444165;3.594063;0.13566545;-4.8310285;-1.760912;-2.2388954;2.4776907;0.93248975;-1.3070128;-1.0348964;1.3178921;5.4369044;-3.2831655;0.74008113;-1.7246215;2.3712676;2.5063567;0.2764172;-2.63144;2.4136722;0.365658;0.15699686;1.0878361;-0.05716285;-0.654915;-0.7766315;1.5775526;0.16831121;-1.4237098;0.3789563;1.2071284;0.6370991;0.14892921;-1.1969054;1.2007143;-1.6094713;2.550257;-1.4898717;0.3867435;-1.3628238;1.6611075;0.69756866;-1.1382576;0.07934488;-1.366292;-2.0092602;-0.033121705;0.851769;-3.534288;1.3374858;-0.78449714;2.9715338;0.9898325;0.957824;1.5497391;1.0456109;0.23148648;-1.1116139;-0.35336804;-0.45716113;-1.4114174;-1.5833049;-0.21970461;-1.1089919;1.2613589;-0.90924126;-0.06702786;0.71663904;0.32322258;-1.8741546;0.49426553;1.7924081;-0.3131753;0.34873906;-2.2997475;0.07385866;0.5749588;2.0658088;0.4860385;0.42479348;-0.52494967;1.2443343;1.239124;0.992702;-1.7443906;2.2324736;-0.39138246;0.6314161;0.90160495;0.16596231;-0.074597165;-1.457654;2.643803;0.31053147;-0.27277523;-0.39547363;1.3574342;-0.6383814;-1.4100628;-0.7265497;0.4326742;2.4245892;0.4649438;1.6041708;-1.2919017;2.788258;0.7165245;-0.35136262;0.35792118;-0.31561524;-0.86189336;0.80886;0.11214811;0.789383;-1.2398963;0.43982086;0.36002415;-1.4442434;2.465637;-2.1213841;-2.1944335;2.570045;1.5600241;2.3053615;0.24137121;-0.38471094;-1.2594243;-0.9718971;0.16966015;0.6531741;-1.3765566;0.9040808;1.3414336;-2.5879338;1.884736;-1.2660517;1.5553298;0.2521851;-0.7447727;-2.9729035;0.14093162;0.45633495;0.8224552;-4.0037355;-0.6150274;0.81532574;-1.4073328;1.1937381;0.8268014;-1.4144777;-0.9370145;-2.7898903;-1.168147;-2.6267242;-0.2926283;-1.6326156;-0.10689995;0.564504;-2.901899;1.0764985;-1.1726761;-0.06531666;0.7391188;-1.6531284;0.97547245;0.21997762;-2.7166586;1.2093474;1.9155958;-0.4325104;0.7599027;-2.031658;-0.6832576;-2.4499314;-0.40749943;2.8409176;0.34052977;-0.010861076;-1.0018044;-1.0369486;2.2151883;0.19535868;0.043234445;1.2654426;0.5443562;-2.150947;-2.1276746;1.1805152;-1.8784289;1.7928278;0.6899911;0.562647;-2.555787;-0.5530908;-0.6237885;-2.646897;0.07287847;0.24019744;1.5538166;5.984247;-0.16548528;0.29967695;-1.6085087;-1.9010171;1.3096844;-2.8931856;-0.47581413;-1.4636236
-2.556301;0.4917775;1.1375903;-2.7090392;-0.8818567;-0.8805569;-3.2004683;1.3820883;-0.41255996;-3.3614469;1.763116;-1.7252259;1.1561639;2.2582276;-0.026539588;1.5286446;1.385497;-0.6882717;-1.8445777;-1.9866168;-0.9512282;-1.2179095;1.1532688;-1.1307673;0.2901267;0.66107756;-1.055243;2.4344594;-2.4652748;-0.6886341;2.4771628;-0.27179226;1.4781514;2.7366626;-0.4697898;0.8914891;1.7029122;1.90416;-0.9128821;1.1806948;1.004771;-3.4338017;-0.5858561;-0.6452003;0.035305817;0.4871337;1.2501353;0.26617646;-2.3835647;2.752115;0.5580157;2.5024247;-0.7534133;0.13216206;-0.17428938;-0.67648894;1.4478298;0.8802609;0.2991156;-1.5279173;-0.030211497;-1.4706755;-0.5817614;-1.4282697;-4.4596434;0.41276816;-0.82304436;2.3529294;0.06072353;-1.481278;-1.2357912;0.017890746;-0.5543442;1.5709306;1.1859695;0.6347092;0.32426974;1.0041075;0.29463527;0.6390391;-0.119096555;1.1269529;-1.0297596;-0.4757509;-2.0924218;-0.9960407;1.1977409;-2.8924923;0.341562;0.34350583;-0.9497568;-1.8205851;0.6415056;-1.0293308;0.16320904;0.1668015;-1.7424296;-0.9081178;-0.29108092;0.12241845;1.7825155;-1.7711796;-0.32142815;0.28875837;-0.034994394;-3.1062617;0.16869688;0.53376603;0.2618738;0.68180496;-1.4158355;1.6729143;0.19598696;0.4741529;-2.7429478;1.9068067;-0.0077009695;-0.21814188;2.2289345;-2.2262337;0.072010286;-1.1521538;-0.594397;-3.1236763;1.0351682;1.2094315;0.43303138;1.639557;-0.35782006;-0.011139368;-1.2450606;-1.0706522;-0.30010796;1.2555459;-1.0630977;0.89962727;-2.1212397;-0.4123573;-2.0189652;-4.756306;3.893891;2.3301873;-2.3243384;-1.9096379;-0.23609285;-1.1774598;-4.699617;-0.22246431;-0.28332058;0.07935061;-3.102302;-0.77456146;-0.78265554;1.8304563;0.48947746;0.104299754;-3.4957874;0.8600981;1.8299757;-0.7537552;-3.0548916;1.7772266;-4.368024;-1.4656045;-1.2645568;-2.3876626;-1.4186084;-0.37762195;1.5158769;-0.8378453;2.3710935;-0.95331866;3.179567;-0.54665023;-0.63382745;0.5049727;-1.9048803;-2.5657446;-2.4390452;-1.6919838;1.1444728;-1.3162004;0.78578156;2.9473503;2.7273912;1.9156357;2.4069517;0.17689812;1.0620763;-2.4444656;1.0543109;-1.198891;0.49506718;-1.6454405;-0.42421684;-0.028742826;0.89169276;1.4927281;1.1478524;0.3314365;-0.48667684;3.2793415;0.24232678;0.0015018232;0.36489505;-0.31243795;-2.7204852;-0.4250013;-2.3835564;-2.855508;-1.6628443;-1.7786697;3.1764004;-1.9226424;0.11750871;0.4526192;-2.5826411;-2.0310607;3.0519116;0.39508334;-2.5785835;-0.14718731;0.9753495;-1.7565485;2.3450422;-1.8796285;2.7301755;2.29948;-0.6093354;1.0364634;2.2351787;2.1999948;-0.6991763;0.9201821;-2.5423703;0.84678406;1.4266052;0.16439222;0.18976924;-0.47355708;1.0094675;-0.12823385;-1.2278322;0.4285603;0.9678512;0.20756194;-0.9751084;-0.60091263;0.8375098;-1.9968982;1.8051105;0.5692343;-1.5585513;-2.4774427;2.0949345;-1.7738771;0.68056536;1.1363347;0.20068337;-0.33065394;-1.9913276;-1.598165;-0.8652968;4.002333;-1.6819513;2.0768764;5.279355;2.9776752;2.6933057;-1.74833;-2.1548057;-1.1859828;-2.6158066;-2.270724;-1.3302512;-0.5734866;1.7147335;-1.5764419;0.58894545;0.8713967;-0.37922254;2.4140217;-0.1834189;1.1797266;1.2863156;-0.45441315;-0.3534696;-3.9668205;1.6272146;1.9622612;-0.17805292;0.13311729;1.4824858;-0.7384578;1.7731074;-5.413942;-0.58406156;-1.6194055;-0.21201791;-0.29709944;1.5141164;1.0457673;-0.15875717;1.6115216;1.0637025;-0.671758;0.15082188;-1.1949447;1.8163764;-0.2642859;2.5024853;0.074055575;0.51892895;-2.8002214;-0.46497443;1.5527061;-2.3208508;-1.4331471;1.0004592;-2.7645729;1.0097861;2.431711;-0.84485906;2.40966;-3.0641804;1.2122974;-0.9509214;2.0909863;1.2119014;1.6895531;-0.21512094;-0.957517;2.3264725;0.052204117;3.3877752;1.7932146;-0.41986498;2.7077775;0.52412313;-1.0809011;-2.8901203;1.2707591;0.30765072;-1.0183003;0.7209232;-3.3751562;2.2238193;1.2982517;1.4118899;1.7872299;0.9100718;0.124532975;0.42569536;-1.1691709;1.7612193;1.8587729;-0.928546;-1.6447597;0.23070483;-3.8094041;1.5412765;-1.1893032;-1.9641087;-2.7044828;0.8307017;1.2648736;3.9264514;0.8684671;1.6014026;-1.1708236;-0.331551;-2.4162;3.8487248;3.3141155;-0.6369529;-2.360066;-2.949192;0.22262347;-0.14989115;-1.5815876;-4.7729273;-3.007379;-1.5682906;1.3132696;0.8850176;0.85872316;-0.14860651;0.2895932;0.41238284;-0.23923466;0.25392273;0.11890163;2.6014335;-0.20495056;1.1789438;-0.98476416;-2.4012177;-1.2842451;0.8928444;1.6037413;-0.46931994;-0.33000058;0.13343191;-2.7867737;-0.7574517;0.47466102;1.9160961;-1.0241234;0.9310626;1.5614536;-0.14263137;0.109768584;-0.9378392;-1.8565278;-0.9620863;1.4629711;0.056413464;-0.44163397;1.4863099;1.0034839;-0.2790711;-0.9808408;0.9978408;0.5768861;0.25109968;1.153905;-0.08234927;3.7288766;2.041676;-1.791151;3.29638;-0.7108927;1.3074213;0.36798534;0.23376304;-0.35110265;-0.90435356;1.0291499;-2.5678678;2.5221117;0.6022687;-0.18759203;-3.3859699;-0.8455589;-0.034580354;0.2719588;-0.15805306;-1.123635;1.1782875;2.32998;-0.1648419;-2.2505927;0.039980363;-0.069447994;-2.2441494;2.25659;-2.1460235;0.20075871;-1.340257;-1.6691669;1.6377323;1.0077542;-0.8956524;-3.267953;1.188143;-1.0874541;-0.78639835;0.496338;1.1648041;2.1114345;-0.74672896;-1.6768605;-2.1045575;-0.7869684;3.1064885;-4.5488653;-0.43695158;0.89772546;2.2045135;0.9193948;1.6338687;-0.62728465;0.96890795;-0.08857461;0.6331988;-1.6022813;-1.5135738;-1.4748917;0.40905765;2.213276;-0.9695249;-0.15699482;0.46882588;-0.7345087;-2.3380022;-1.0991259;0.1186435;-0.39609393;-3.5833867;0.0886503;3.036843;0.40911275;-3.8917842;0.11907702;1.5319904;0.00439221;1.5555522;-1.3708963;-0.7291817;0.66033256;-2.0773191;-1.2081478;-0.6764355;-0.4975465;-0.46777186;-2.7856297;-0.85083026;0.4370081;-0.19968961;-1.122305;-1.9400027;0.35492152;-1.6241586;-5.4037957;1.3515735;-0.8413484;0.7421915;1.4756584;2.8183312;0.7920436;-0.72810256;-2.382948;0.665203;-0.043892987;2.8680851;0.12021016;1.2276735;-0.8483335;0.6164695;-1.3612486;1.5257062;-0.697652;-5.968617;-1.7858243;-3.1088173;3.5385592;0.70876694;0.43721384;0.35474348;1.8175948;0.23310092;1.2059883;-0.8871707;-2.241974;-3.994609;1.6754467;-1.2636795;1.2649001;0.5209132;0.6586831;0.74705195;-0.7703005;-0.93083215;0.3664137;-0.11938682;1.3069079;-0.5954571;0.0014177754;-0.9675182;0.43847892;-1.699651;1.5786482;-0.5642199;0.23596638;0.73002595;-0.3597875
-1.2774777;-0.09796008;-1.459648;-2.556314;0.597997;1.8126742;-0.7464576;1.5325304;0.6414037;-0.7322863;-0.28796086;-1.4578588;-2.4591825;0.002467373;-0.12262638;0.64464146;-1.9718932;1.4764621;-0.5833294;-3.2610552;-2.7149353;0.4732451;1.4579211;-0.30076933;0.2323265;-1.2306238;-1.1360991;-0.82940483;-1.5906957;-0.6914647;-2.9945989;0.74373746;-0.5909782;4.4072733;-3.1398618;0.39049694;-0.31478155;4.6119986;0.9379236;1.1461024;2.4809716;-1.657656;0.4089775;2.0340867;1.0527092;-0.5170452;0.45087335;1.4499692;-0.42972016;-0.2835495;0.7358275;2.4050136;-1.3389823;0.10993556;-0.025674203;-0.56066334;1.4737939;0.48881423;2.0798945;0.3777751;0.043965664;-1.0123013;-0.15684362;-1.3717037;-1.0901122;0.893239;-0.11540694;2.2623887;1.3142017;-1.4592857;-2.1801488;0.01106464;0.14158691;-2.156482;0.94265246;-0.5403401;2.2782784;-1.5052534;-1.1044067;1.345425;0.87656623;0.9691438;-1.1925813;-1.71641;0.2680629;-1.6220633;-0.8584245;0.6732939;-0.42475522;0.23683675;1.749492;-2.8999927;-0.55594677;-1.0863917;-0.4168372;-2.50185;0.4818214;-0.3770401;-0.2988417;0.1426865;0.43470204;0.39249507;-0.24292022;-5.0697236;0.18916622;1.5427678;2.329195;-0.017242668;-1.0544802;0.38120827;-0.67540085;0.42724293;-0.43392345;-0.3454188;3.2600598;2.2331052;0.6649341;-0.5333393;-0.9208568;1.7563142;1.753424;-0.91427857;-0.17332438;1.7038025;0.5445488;3.0759175;0.65408903;2.8424387;0.689233;-0.76288164;-3.6146147;-3.3071113;-0.12504868;-2.276856;-1.0109655;0.67553425;1.6658381;-1.801293;-1.2740059;0.73167586;-2.2903645;2.194063;-1.5152647;-1.4568796;-0.5086063;0.4668253;-3.8392794;0.28184316;-1.6760018;-0.096815586;0.035761166;-2.2931638;0.024371909;0.7455514;0.8909481;-0.316203;-1.1869913;-0.16200393;3.292075;-1.2656655;-0.2755385;0.019080153;-0.79176754;-1.3557495;-0.6628925;-1.8032315;-0.13837984;0.57295877;0.59094226;-0.803302;0.9768467;1.3921981;-0.6373724;-1.754064;1.0461178;0.2820768;-0.2347909;-0.37676495;-0.66603523;-3.9990451;2.2518203;-1.0531471;0.9001706;-0.50669134;-2.4010575;0.026822187;0.17948301;0.6226713;1.7029542;-1.8910831;1.2088742;-0.06774538;1.4976188;-0.47884604;-0.37698197;-2.092465;-2.6130948;0.1768597;-2.336064;1.7871499;0.8187903;0.24117218;0.541199;-0.7413431;0.93969375;0.5091599;-1.5877534;1.744394e-05;-4.801729;-2.978305;-4.309453;-1.919594;-3.0760393;-1.271436;-2.0470362;-3.875949;0.48051193;-3.029394;0.7205532;-2.0146894;0.8783036;0.41372204;0.8259688;-2.8802538;1.8907905;0.2426583;-0.5622484;-5.967552;4.4460554;1.2887068;-0.3778777;0.5334376;-1.2796443;-1.4532266;-1.344535;-0.75236285;-0.88902724;-1.4349743;-0.94694984;0.915026;1.08704;-0.27480805;1.5073758;1.929511;-4.694592;0.23855223;2.166992;2.0877848;1.8867778;0.25334755;0.43459764;3.1280398;-2.1320062;-1.2236884;-1.4129785;1.8058282;-0.19553465;-0.59534734;0.011890229;-0.5396176;-1.0858179;-0.2631871;0.17290534;1.8291872;0.8097873;0.4457795;-0.024032706;0.4495708;2.6021974;-2.248982;1.153915;-0.3271359;-0.07372036;1.21962;1.079414;-1.0702575;-0.9157545;-1.2436457;1.1149867;-1.8507513;-1.1871746;-2.1160817;1.6819811;1.2019773;1.1739262;-0.6066335;-1.0797893;-0.016441897;0.3419084;0.27267346;-0.52646506;1.6646369;1.174375;-2.862747;-0.4985715;-2.9553654;0.36898923;1.550491;-0.6142987;-0.32166535;-0.99633133;-1.8131106;-1.4923112;0.6157107;-0.72988075;-2.2444284;-1.5676466;-1.130785;1.43951;-0.8635098;0.42842218;-1.6658056;0.7237068;-1.4828221;-0.5445377;-0.37908623;-0.44330952;-0.67034686;-1.1726768;2.1799192;2.0722067;-1.2539644;0.17207013;0.67860436;1.4789141;-2.873695;1.2181679;0.11441293;0.18413816;-0.94051147;-1.1308208;3.7382467;-3.300866;-1.4655256;0.4499359;-0.9464936;2.549007;0.32505405;1.3919953;-3.2048318;-1.4272858;0.8674763;2.5736294;-3.1383073;1.2279909;-1.6815454;-2.2171762;-1.5308337;-0.30665824;-0.8922419;2.5630152;-0.69529516;0.40744123;-1.4015999;1.1967422;1.4795333;-0.96708906;-1.33202;0.38964197;-3.8441622;0.07221864;0.36486676;-2.8457525;-0.5130792;0.5684791;2.3172047;-0.35297564;0.92311895;-1.6898227;0.8387145;2.0067983;-1.5987425;3.1610086;-0.24387018;-0.2281598;-1.5013804;-1.3430285;-0.79848176;-0.7171456;-1.8662739;0.44320932;-0.27149794;-2.6852796;1.1092999;-0.88480306;-0.858804;0.7281413;0.14961083;-1.2800702;1.137158;1.9054989;-0.3865654;-1.0541768;0.47231108;1.5318114;-0.0319811;0.71695364;0.47905606;1.0478553;0.12723704;-1.7572582;0.4989736;2.246144;-0.35112685;-0.27709395;-5.2230062;1.4380046;2.8783813;2.577176;-2.5383594;-0.023567872;0.7255675;2.1594489;-2.759007;0.14636394;-2.3489435;-0.6405652;-1.2161859;-1.0673568;1.3375763;1.3964882;-1.4735525;-1.1515901;2.0470977;0.4346807;-0.2978198;2.0683973;-0.8532228;1.3271127;0.31609988;0.38922235;1.4033129;-1.1422458;-0.055934027;-0.7309294;-1.3002928;-0.64908105;-0.1979847;-1.1528661;-0.15413083;1.9799796;1.7711875;-2.880797;1.8145747;3.2172987;1.2913543;0.04779949;-0.32446745;2.278583;-0.7648211;-0.3824509;-1.6692833;0.3883686;-1.6004524;-5.679272;1.2765065;-1.7348113;0.28353375;-0.33504415;0.25128612;1.5940903;-1.9203482;-0.59645957;-2.812789;1.5024027;-1.5062461;1.0278095;-1.4809281;1.5098314;-0.70281774;0.711885;0.45871094;1.5084716;-0.115616105;1.7920644;-0.1309685;-1.4609935;2.0390198;2.008237;0.3692005;-1.3055419;0.88591146;0.9463113;-3.8218412;1.1284407;0.94245374;2.291306;-0.24000962;2.6204906;-0.93257403;2.3350065;-0.051708512;0.40438944;-1.220834;-1.0446949;-0.33894974;0.30267972;-0.4508636;-1.3126556;0.074332364;0.41329926;-1.4790987;0.9253373;0.71666;1.662187;-1.247964;2.3330238;-0.9608231;-3.2113822;-0.8299636;-1.1651899;3.0440273;-0.2551966;-2.2736678;0.0037301618;-1.9778423;0.6125757;-1.6074479;-0.60644126;-0.157703;-0.68134856;-1.4607089;-0.031925842;-2.2724354;0.46126607;1.5332549;-3.869702;-1.0893029;-0.6738909;-1.066629;-0.31239083;-1.3328043;2.3303983;-0.21773829;0.1389688;-1.3873317;0.69189113;-0.6473101;-0.05323237;-1.203383;-1.4662637;-1.4445293;1.8342134;-3.257662;0.094172604;0.26580647;1.7228236;1.5947955;-0.4182138;0.7954279;-0.23332322;2.771001;3.7904356;2.1750765;-0.94960046;2.8220456;0.32036215;-0.12750016;-1.4831105;0.4034633;1.1426153;-1.0214739;-1.9192666;1.2949122;-0.9710524;-0.74437016;1.5496671;-0.72579604;0.10689368;0.27842805;2.6286047;2.950217;-1.702809;-0.13308732;2.11632;-1.7053386
1.2553864;-1.3753426;-0.44715127;0.8555412;-0.3106639;0.39785832;1.9157734;0.6746394;-1.3019648;-0.64502436;1.5731068;-3.4006531;1.5330737;-1.4724498;-0.21273719;0.9106895;-2.1714907;2.9644978;0.92645186;-1.3120193;-5.501114;-0.2377112;-1.5061517;0.32748112;1.628682;-2.3714921;1.3554478;0.38237488;-2.0172863;0.8378968;-4.462309;1.0563974;0.8290647;1.6417806;1.3651279;0.06883551;1.3123338;-0.41987497;0.9708897;2.6873953;1.4469427;-2.6194437;-1.0334808;0.079657294;-0.34567487;-0.6583921;-1.4084612;1.059521;0.46524292;0.2685847;-1.4854715;-2.5262098;-3.479827;-0.717198;0.8572896;2.1571875;-0.2239415;-0.71591485;1.8959259;-2.1411033;-0.15473138;-1.1496587;-4.1655283;-0.5493744;-0.07011538;-0.11885287;-0.5634272;3.0699048;2.2763155;-0.42725042;2.8366911;0.10665182;-1.3018837;0.5442373;0.6933056;0.68790066;0.5630476;-1.4331484;-0.7326588;-2.0285437;-0.022260522;-0.7753715;0.08308423;-1.5479723;-1.5761733;-2.0869703;0.59360397;-1.4902258;0.8016995;-1.3273187;1.0912513;-3.5616858;3.1584659;-0.021874232;0.74265206;1.5069162;0.72989243;-0.600705;-1.0859611;1.0638531;0.043200508;-0.11874014;0.7525334;-3.785915;0.43853143;0.58550465;1.4910238;-0.015542018;0.33214357;0.59707886;-0.54695445;-2.836946;2.727399;-0.13383964;0.33719793;0.8407008;-1.1774628;0.16811837;-0.34310725;-2.52725;1.6868341;-0.4822754;-0.5344319;2.0775664;0.8498032;0.8954309;0.27751532;1.256137;-0.5955866;0.763299;2.6240659;-0.8190473;-2.0288327;-0.03451484;0.41018832;0.3003366;-1.470994;-1.5232292;-6.314542;-0.2054154;1.6660542;2.853201;-2.1802628;1.6235201;-1.0522841;0.59295005;-0.99728763;0.50225717;-1.6466367;0.016313879;1.0538158;1.3005316;0.1667876;1.1871483;0.53026515;-2.0796008;1.0080148;2.9628363;2.887882;-0.26606384;-2.920804;0.44061399;-5.070724;2.3908267;1.1064204;0.89370674;-0.3802409;-0.8955235;-0.038506497;-0.22176695;0.8422885;0.23524295;-3.1012807;-1.195193;0.7652291;0.4527348;0.7220609;-0.65152794;-2.3654659;0.37890595;-0.32509473;-3.544481;0.23737761;2.0454798;0.54360396;1.1381801;1.6488829;0.96708065;1.6367941;-1.9911529;-0.14620405;-0.85846704;-2.0727623;-2.579663;0.636637;-0.32735857;-2.3858018;0.26123735;1.5837169;-1.0467855;1.1490867;0.863117;1.1788659;0.830601;2.625227;-0.65938413;-0.24414621;0.86451393;-2.470077;-3.4236767;-2.1847253;-0.19276612;-2.3547635;0.29133576;2.7926219;1.1627582;-0.9622628;-2.790676;-0.60964626;0.68994147;-0.8187837;-0.31037328;2.4475307;0.7870959;-1.4401805;-2.2709544;0.31923175;0.7257713;-5.0673304;2.5624452;0.12552635;-1.5419587;-2.1768289;0.9057688;-0.9991621;-0.5799857;2.271045;-1.5593711;-0.9350452;-0.07293532;-1.6764178;-1.8791668;-0.4736104;-0.2959358;0.15355657;1.5980867;-1.8619609;3.0292199;-3.6385496;0.35618404;-1.3783846;-1.202791;-0.6902089;-0.16574046;-0.45165995;1.245418;1.8290943;-0.07364859;-0.7300264;0.6509547;0.84749526;-0.6319586;0.8974711;-0.28500497;0.35716206;2.9136286;2.8098845;0.63064355;1.1927196;-1.9570916;1.4568968;-2.4385815;-0.6138236;0.85207766;2.0626354;-1.713672;-0.3614168;0.17920607;1.9599227;-2.2603505;-1.296987;-2.8863976;1.1378974;0.85778534;1.0741912;-3.4392555;-0.026651228;0.08493121;0.122967534;-1.7196814;-3.6961594;0.19868182;-0.29602277;-0.015409197;-0.68276846;-2.4914796;0.50823;1.1962625;0.9846934;1.110938;-0.4838194;-1.4037044;-0.7072045;-1.1383939;-0.6429998;-2.9900277;-1.6886669;-1.567085;2.3546283;-0.5405333;0.96722853;-0.22760925;2.3037302;1.1471205;-0.18233326;-1.6116129;-1.5095108;-1.8890668;-2.8666587;2.282753;1.969714;-0.23031369;1.1544429;0.11331247;-2.9218202;3.1513898;1.8990369;2.706626;0.056088574;2.026159;-4.0282025;0.73485285;0.7401068;-5.0115504;1.9750555;-0.60034585;2.5246131;1.172984;3.2589705;2.6405761;-1.0559945;0.68036103;-0.7264546;-0.47015345;-0.49211103;0.73709786;-0.30990323;1.7539982;-0.2689145;1.3563592;0.009035491;0.49095783;0.051103827;-0.86108094;0.32291296;3.490641;-0.018217688;-2.6445715;-0.23279178;-4.577897;-2.4852843;0.113856316;-0.032046363;-3.0761688;-0.3566296;0.71160996;-0.455386;-1.2464375;1.8608258;2.0038939;1.3157567;2.614121;-4.207968;3.4091098;-1.2261823;1.2629521;0.86860585;3.1343086;2.9690545;0.8388933;1.9378978;0.5945674;-2.3308275;-1.814546;0.45448318;1.084743;0.26718825;0.5861868;0.2075839;-0.8474372;-1.1474081;-2.2948427;-0.70209646;-0.30262914;1.7383698;-1.959871;0.41563123;2.816237;-0.73634946;-3.8838313;-5.2782326;-0.82424223;1.3155187;-0.0061215633;-2.8557067;-0.66894275;-0.6831203;0.17082669;-1.7170002;-1.9006723;0.8099108;1.0046374;1.0361649;-1.0654188;-0.31528154;0.7922509;-4.5193443;-2.079811;-3.541768;0.46347255;2.1320622;-0.8728059;-0.70116884;-1.4074502;0.1847501;-4.601171;0.3531775;-2.8717656;-1.4258312;0.476569;1.2896603;-0.3650716;-0.5610713;0.14356244;1.9862412;1.4447614;0.25455528;-2.6796873;-0.9344817;1.2391298;-0.089834325;3.1638947;-0.85736686;1.295544;1.0193505;1.7731448;-1.4159567;1.3839225;0.82355106;-1.2988709;-1.530169;4.077239;1.593836;0.63529986;-3.1477818;0.8310756;-2.992544;-0.16639312;1.1404387;-0.6966217;1.6521958;-1.6759919;-3.8635738;-2.899997;1.3169694;-1.4052163;1.0572724;-0.0036477828;2.5171056;0.29384115;2.6317053;0.35869622;0.3445107;-2.2622657;0.6861471;-0.04500212;1.2959474;-0.2695183;1.6803193;-0.21921317;-1.990798;1.3712921;1.412178;-0.60036546;0.25544885;1.3571563;-1.3568531;0.71962184;-0.71931213;2.5273583;2.595107;0.9177381;-2.8024116;-1.410194;-0.6943077;0.7367517;0.23025097;1.9031756;-1.3626945;0.8413242;-2.188196;-1.179435;1.5620433;-0.19682321;1.6399655;-0.85836184;1.6953226;0.044870574;-2.9558315;0.3325468;-1.866846;-2.8095822;-2.2422132;0.39088145;-2.3802242;-0.93233204;2.2145157;-3.413977;-0.30197537;-0.16432726;3.212398;0.64300907;-3.3130317;1.3389449;-1.0333524;0.60998106;-3.8028846;-1.3540546;1.0595497;0.88062483;-1.076662;-1.2758995;2.2954795;-0.13917303;1.6480918;-0.3763534;-0.31965244;2.343041;1.2315196;1.5701631;-2.7282705;-1.1771743;0.46203956;-0.73471636;0.0072236434;2.522799;-0.4083927;0.9982616;1.1609708;0.7444466;1.4825424;-0.98029995;0.7322033;0.799404;-1.1708564;1.1674482;-1.4953283;1.4041865;3.030496;0.3016499;-3.4247036;0.12362222;-3.1533167;-3.710969;-0.8143145;-2.03274;-1.2735806;0.57353526;-0.465162;-1.505506;-1.4174827;1.583975;-2.4861536;-0.33394828;0.73647517;-1.686709
0.68912065;-0.5132136;-2.0420485;-1.2714198;-0.31862098;-0.634862;0.894703;0.6597669;-3.6676004;-0.047783352;0.8457294;-0.51526505;-0.49174413;-1.0298529;0.593315;-0.4334192;-0.103611186;1.2634258;-0.31779373;-0.050015613;0.846374;-0.7913501;0.50567544;-1.8057928;-2.335834;0.114887595;-0.41078585;-0.060278326;0.8425964;0.49998012;3.2331717;-0.07237605;0.088624686;-1.4073622;-0.70950896;1.0951514;1.1028868;0.046492316;-0.037805337;-0.43691412;0.21646206;-0.17589356;0.6338169;0.21436685;0.40086767;-0.24380907;0.505106;-0.89205605;0.9513995;2.2081847;-1.324405;0.51556426;-0.377601;-3.7083554;-0.86511254;-2.943513;4.44684;-3.8427634;1.0154666;1.802956;0.28121418;-1.5095432;-1.0631686;0.987575;-0.9829923;0.811821;-1.0711958;1.2538993;1.4495723;-1.414067;0.547821;-2.5747607;-0.17686374;1.5232861;-2.4041126;1.0380816;0.062330607;0.1731451;-0.5125059;0.99352074;-1.7576741;-0.6409879;-0.72780704;-1.394548;-0.36669677;-0.51145136;2.4612293;-1.9398538;-1.3414333;-0.29836398;-1.5737777;-3.0396788;-1.3487095;3.4490807;1.40413;0.28128114;-1.7172302;1.0216813;-1.1995866;-2.072465;0.72373295;0.85010755;0.25683203;-3.3521965;0.28146103;0.9577178;-2.4875827;0.5512849;-0.3251304;0.04875448;-0.56471235;0.12624048;-0.015298115;-0.7970803;-0.35863543;-1.1101336;1.4567705;-1.9501123;-0.71416885;-0.37168112;1.7130057;-2.2352328;-0.072180256;0.7853561;-0.7360129;1.3071462;-1.6673472;-1.8039404;1.8090469;0.96592647;0.39418718;-0.035776585;-0.32117584;0.5042301;-0.9782994;-1.6635177;-0.288772;-2.9573324;-1.2251536;0.4097141;-2.8531141;2.7789052;1.8653;0.14328662;1.6107816;0.015258098;-2.4269464;-0.32816392;1.2595613;-0.15354685;-3.402045;-3.6880717;1.0140289;-1.0890659;0.260588;-0.96460855;-3.6367218;2.791288;1.1861557;-2.1855183;-2.6845815;-0.22476198;-0.21713506;1.5882231;0.1913306;-0.23105687;1.0879307;-0.95671856;-0.39475092;3.0769212;3.8039985;-0.9849825;-0.45974272;-1.2020813;0.10789061;-0.30153424;0.8331648;1.2873861;-0.057781026;3.116938;1.2449714;0.021300543;1.1397467;-2.6616976;-0.66526705;5.205982;-2.0249;-0.25980288;1.6522441;-2.8761334;1.2019749;-0.9279787;1.1504359;1.5812238;-1.4489799;-1.8522164;-0.7714348;1.8209583;-0.47753155;-0.8984451;0.06503793;1.9750087;1.3085047;3.1615973;2.5234165;0.22668394;-0.18494377;0.78837395;2.6720526;-2.2346206;0.23187357;0.6668726;-2.1020007;-0.41349143;2.2825058;2.856352;-1.3874258;-4.662585;0.41581193;-1.907811;-0.05457465;-0.4679254;2.842456;2.899666;-0.010714239;-1.3529818;2.9359875;1.0941733;-0.90316325;0.46137804;0.2493383;0.43663487;-1.5331461;-0.70641166;1.5965527;0.6235326;1.3538436;-1.535735;-1.5595095;-0.18802872;0.4796452;0.22673213;-0.79790455;-1.5813658;-0.52325946;0.7422089;-0.9481055;1.7825557;-1.9326937;-0.26626027;0.7468709;-0.7503689;-4.417767;0.78189224;0.11050849;0.73680514;-0.39715654;-1.3723224;0.8653601;0.98880094;-1.1251464;-2.3793817;0.35495365;0.3472989;0.7737813;-1.7055544;1.0860968;-1.9838247;-3.425823;-2.376294;1.6913373;-1.1477706;-5.6238027;0.10146814;0.38463444;-1.0952055;0.049273785;-0.17868407;0.22763918;-0.39959624;-1.7728755;1.5327207;0.4744763;1.4304446;-3.2182138;1.4484218;-1.115286;-0.18272407;-0.47855926;-0.9120376;1.2750133;-0.06595339;0.37061042;0.51372284;2.0990665;-4.3631434;-0.6899579;-3.5471008;-0.5026274;-0.43766642;0.10265766;-0.92504936;-0.7141224;-0.15200494;-1.3329356;-0.68386465;-1.2962701;-2.2533202;1.6994934;-3.8132398;-0.064334534;-1.0342257;0.37650478;-2.1339915;-1.4211786;0.5470294;-3.0995662;-0.9299384;-0.7829611;1.4143355;0.25527492;-0.71400243;-0.4568879;-0.5413907;-1.7661246;2.653507;-0.64072376;0.24726276;-0.2344057;0.57169557;3.4902642;-2.5851953;1.5846043;-0.6597896;0.019737344;2.2009404;0.22393484;3.3674169;0.09745358;-2.3780346;-2.2290547;-1.20357;-0.9801042;-0.3988602;-0.81780714;-1.4080139;0.6263129;-0.1482745;-2.4925182;0.52523607;0.35942325;-1.778224;-1.4527797;-1.5048642;1.0272517;0.837324;-1.4409294;-3.2510204;3.1012151;-2.0797837;0.80189997;0.7803185;2.7052805;2.492761;0.2904248;0.17320812;1.0732869;1.2465869;1.0586022;-1.7242426;1.509231;-1.5142184;-4.546286;-0.39110643;0.20092331;-1.7611253;2.1154542;1.3046864;-0.9761657;-1.3880906;1.3083395;0.8508445;-3.206116;0.040779036;-0.55888677;-2.0299654;0.50676095;0.12532602;-1.4656098;0.36606255;-1.1356511;1.0503252;-0.4337733;0.8707367;1.3823798;-1.8717252;1.292844;-0.7830141;0.7428277;0.095747225;0.7334166;-1.0156455;2.2123594;0.8705916;-2.5769024;1.7975532;0.16665219;1.2531254;1.0350479;-0.4444899;-3.3420007;1.3389729;0.4030007;1.7380747;-0.13415404;-1.5849319;0.7358987;0.743813;-0.5604272;0.51090986;-0.17413947;-0.16847812;-0.545198;0.3725257;1.3663096;-2.4735212;1.3586371;-0.99408174;-0.6091663;1.8740296;-2.8363497;0.38319892;0.3354328;-1.3559237;0.76799756;0.70428663;-1.2313157;-1.5523452;-0.4959322;-1.4627233;5.9347873;1.4845685;-1.4526135;-0.14203654;-1.2537683;2.2920625;-0.19476628;-1.3495636;-0.46425837;-1.4195944;0.36746392;0.19832072;-1.1154345;-0.6939313;-1.7836568;0.11118297;1.4853349;1.0224986;-1.3928181;-0.72769505;0.65069294;-2.9443142;1.590637;-1.9380826;-0.5734296;-0.286939;-0.41810206;0.6991529;-0.11874734;3.1976027;-0.29931378;-0.78580344;-0.022028286;-1.3709589;0.20016472;-0.5446353;0.45587593;-1.7575536;0.99079186;1.3574383;-2.8835537;-0.063667566;-0.7289186;-1.1233633;0.51947916;2.066983;1.7018611;0.7730696;2.8677328;-0.8421167;-2.9710412;3.6665223;2.3296041;-0.92428803;-0.56413305;0.008933127;-0.134511;1.398884;-0.021607475;-3.3336492;1.9830655;2.2026362;-0.8800216;0.92697656;-0.18312204;1.8732296;-0.22306997;0.04852853;0.19463435;2.6422825;0.5041085;1.35632;-0.16898394;-1.2050191;1.0084299;-3.5797763;0.7961495;-2.539733;-1.6212008;-2.5622892;0.33368108;1.0866715;0.38386512;2.5120583;1.5224856;1.0745361;-4.3531566;-2.1664894;-0.21004796;-0.24007039;1.4292129;-0.29017326;1.3408369;-0.14418519;-1.7984395;0.94737494;2.478303;0.08047547;1.9813542;-2.9897106;-3.3302197;-1.3448306;0.99012274;-1.8196243;-0.7505816;1.406148;-1.2495726;-1.1533116;-0.56623566;0.22697581;0.7707237;-0.53880435;-0.9895894;0.099515356;-2.2949338;1.4130306;0.21971002;-1.3165977;-0.6043522;-0.9843657;0.62922806;-0.24610822;-1.8908112;-0.80554175;-1.8631542;-1.7100489;-0.2876761;0.17561951;-0.5554294;-0.024140345;0.5023321;-3.3557203;-2.944787;-0.032886077;0.50752974;0.8642965
Bias from input to hidden layer.
0.040332515;0.03538404;-0.12123804;-0.051418774;-0.052971702;-0.0015786727;-0.109289795;-0.09127635;-0.17227454;0.17252965;0.27777967;0.23482881;0.028806046;0.09854701;-0.08712871;-0.04059515;-0.07912724;0.03248862;-0.1028659;-0.07371594;0.0949029;0.03360221;-0.07074854;-0.033638693;-0.07939841;-0.093035854;-0.18187143;-0.0010269978;0.03979755;-0.010633515;0.0016699819;-0.046655484;0.21320283;0.11310633;0.015667258;0.024665125;-0.03946112;0.123546794;0.18581653;-0.078284256;0.0054142615;0.3945;-0.08385496;0.19383292;0.18237422;-0.05345545;0.06348072;0.01227876;-0.11300625;0.06848883;-0.17734018;-0.066273525;0.07349892;0.058833458;-0.05592751;0.2316347;0.040420394;0.10890283;-0.048155554;-0.12043215;0.02653133;0.09075136;-0.16922139;0.11738998;-0.3077222;-0.08442751;-0.17465197;-0.08500424;0.13940865;-0.1559353;-0.050024208;0.026706843;0.10066677;-0.13767165;0.25204295;0.060469735;0.16310179;-0.16688552;-0.074175276;0.022091664;-0.048143126;-0.25215888;0.32796377;0.0545239;-0.06424602;0.16450123;-0.019764869;0.14973755;-0.05957139;0.05079303;0.06384334;0.020220853;-0.10615452;-0.108909324;-0.06364936;-0.13982865;0.037198815;-0.10686233;-0.10226996;0.121546894;0.029029481;0.075671725;0.11324769;-0.031558845;-0.078991264;-0.17098099;0.11436689;-0.026937913;0.18132745;-0.09851264;-0.05869478;0.0778492;-0.015472817;-0.092050046;0.065626785;0.08190965;0.112076044;-0.14305873;0.04631407;0.0650598;-0.0854196;0.09980721;-0.06989266;-0.06672282;-0.043087587;0.122144505;0.009859767;-0.19994147;-0.2091813;-0.10576729;0.034880616;-0.11240909;-0.113263175;-0.23157537;0.19439782;0.16020507;-0.0401994;-0.21328509;0.17575885;-0.13929135;0.16567495;0.26184556;-0.0735849;0.058826864;0.043651167;0.041350737;0.12058542;-0.12896383;-0.14838707;-0.085299164;-0.060899805;0.23552383;0.32623357;-0.0138851125;-0.18008797;0.23013428;0.22508308;0.03818995;-0.10143306;-0.21415493;0.0037290799;-0.02775506;0.10371142;-0.028042175;-0.17009845;0.19153452;0.0489856;-0.03776692;-0.04954673;0.18921141;-0.06576661;-0.07633479;0.09565999;-0.19492564;0.1555751;-0.060353804;0.05242475;-0.0008649238;0.030273017;-0.16700774;0.27238443;0.3247416;-0.15897885;0.11488336;0.122368515;-0.027684608;0.029777521;-0.16230616;-0.020630514;-0.18473776;0.008796027;-0.0054751;-0.020507718;0.032230366;0.06314126;-0.018494016;-0.07388057;0.07778797;-0.005906681;0.010289406;0.17758684;-0.015211105;0.100002736;-0.018281633;-0.04459594;-0.10878755;0.027970599;-0.0116269635;0.06461124;0.1823801;0.069563106;0.0043109795;-0.13219233;-0.051788338;-0.004111182;0.104782805;0.09985328;0.1374487;-0.013070972;0.19029261;0.065315776;-0.0899745;-0.076738276;-0.07586239;0.09815597;-0.12970236;0.053035714;-0.013337566;0.19187811;-0.14419667;0.1359321;0.07135487;-0.30812672;0.05017473;-0.28163806;-0.035080355;0.23599765;0.13675667;0.102441594;-0.114274494;0.2435851;-0.0075448784;0.0042952285;-0.100414015;-0.08917833;0.14610845;0.017776564;0.014634117;-0.032417387;-0.16524522;-0.06861179;-0.1951879;0.065425836;-0.08456218;-0.029270286;0.05305262;0.10362442;0.032158796;0.062374808;-0.035034746;0.09992998;-0.080983415;-0.14526628;-0.042369854;0.09197306;-0.1287836;0.18337525;0.17610736;-0.16243161;0.17776188;0.12282308;-0.06147027;0.0010800365;0.1150113;-0.019093946;-0.11983394;0.18763585;-0.21544337;0.15371618;0.14720435;-0.09762844;-0.21855494;0.24089074;0.04653479;-0.120361835;0.0677665;0.18954152;-0.13792652;-0.021007825;-0.1074253;0.08320363;0.107376814;0.22144216;0.03459184;-0.08803656;0.02692527;-0.0974863;0.12004173;0.03589867;0.17638591;-0.05230906;0.0076222033;-0.11063828;0.09488703;-0.019099489;-0.048243023;0.0721328;0.098945476;-0.0002737919;-0.039568856;-0.1246083;0.116101086;-0.040671624;-0.011155912;-0.023193626;-0.12732078;-0.07834572;0.07405843;0.048118297;0.085701466;0.039942488;-0.06952327;0.018368086;0.0143251605;0.19759004;-0.0863191;0.07660538;-0.19588381;0.008344091;0.12220385;0.06994827;-0.048111834;0.10043771;-0.3317591;-0.120632395;0.2729031;0.08897325;0.058241062;0.06656149;-0.024195522;0.017648313;-0.04645;-0.08070676;0.085145295;0.11789901;-0.06831865;0.071741454;0.09783378;-0.08157801;-0.1980483;0.21812008;-0.05822176;-0.019285452;0.054169003;0.13835481;0.044297013;-0.09090653;0.1904263;-0.050188743;0.0037495121;-0.053966455;-0.0022081959;-0.1265668;-0.21929671;-0.22215696;-0.071141206;-0.27181348;0.1179201;-0.14715534;0.062923744;-0.06251212;-0.001291779;0.015704246;-0.06653803;-0.10773126;-0.07197338;-0.22910981;-0.00017710676;0.23482038;-0.10340854;-0.20482156;-0.015017713;-0.07957224;-0.06063224;-0.17643495;0.054562103;0.22906291;-0.061058365;0.09161774;-0.06113796;0.02708036;0.2276425;-0.07307168;-0.034623377;0.32562113;0.15596175;0.036176015;-0.04394465;0.024442427;-0.034625188;0.109438784;0.17763111;0.05519053;0.08135802;0.18250312;0.08021396;0.094436735;-0.041451074;0.10490895;-0.0881399;0.039443895;0.14123078;0.0202431;0.08351835;0.096072294;0.049691167;0.2016695;0.18592502;-0.15690929;0.12738387;-0.051598474;0.1024166;-0.12814313;0.092705734;-0.06507438;0.0801796;-0.18138032;0.11528683;0.1364356;-0.23783442;0.07740131;0.16038695;0.16205929;-0.15536734;-0.22432187;-0.094340615;0.007133266;0.162829;0.20360151;-0.059640974;0.081784025;0.020481203;-0.08977169;0.038442206;-0.020898173;0.029401215;0.008071184;-0.2502448;-0.17850575;0.07269185;0.04525124;0.21861903;0.025501363;0.13313496;-0.033298157;-0.07171185;0.082804464;-0.026129132;-0.07013406;-0.029356997;0.08242243;0.03368298;-0.11536502;-0.1632449;0.053554084;-0.0035918814;0.011615566;0.07668543;0.1612662;0.16714664;-0.06516772;-0.29088253;0.2776522;-0.0042738896;-0.019863743;0.16055919;-0.12762333;-0.052454613;-0.033988286;-0.04872272;-0.12090602;0.13214488;-0.018457353;0.12966213;-0.026115375;-0.13020295;-0.022249028;0.07699325;0.110125445;-0.008775861;0.122059755;-0.11203507;0.005453593;0.02547224;-0.1210137;-0.06256113;-0.07206773;0.066070095;0.07054831;0.105230615;-0.010615685;0.12371266;-0.21346371;0.23568626;0.081255525;0.06464868;0.2266034;-0.1243349;-0.19301932;-0.14688015;0.1247231;-0.24907868;-0.2705841;-0.10946277;-0.11283438;-0.045501694;-0.04392349;0.16607676;-0.1252006;-0.18808377;-0.10541612;-0.042791065;-0.046640325;-0.05049202;-0.06396413;-0.15355133;-0.10550293;-0.14526734;0.05598379;-0.054933;-0.14129122;-0.006691131;-0.009681894;-0.027495686;0.016754672;-0.05663447;0.024238683;0.2090285;0.041235536;0.03502317;-0.19492914;-0.12372442;-0.19703785;0.28006953;0.07199347;-0.02024869;0.035513032;0.18263966;-0.041368324;-0.113114305;-0.12707192;0.16695017;-0.16105993;-0.26998526;0.08361575;0.22293815;0.016155776;-0.0612735;-0.11761079;0.037962034;0.114151195;0.039519392;-0.06590034;-0.042171713;-0.07138341;-0.06437823;0.09502308;-0.1823109;-0.11223362;-0.030245231;0.16060644;0.10626041;-0.00877828;-0.108724095;0.059353903;-0.16841623
Weights from hidden to output layer.
0.40233085;-3.6821728;3.7598631;1.8901373
3.3848898;-3.9642155;-3.4442766;3.7970843
-0.56872755;-0.5352175;0.61546993;0.7874448
-0.30677325;0.6454714;-1.895912;1.5082521
0.7792978;1.6054192;-1.2707855;-3.0608776
-0.9669235;3.030886;-1.0468867;-3.0787594
1.6514566;-2.1927454;1.2514535;-0.819518
0.9599506;-3.1977048;3.5001967;0.57636124
2.61185;-0.36758777;-1.8001056;-4.2537384
2.2515786;1.8393006;-5.0169177;-4.3421984
2.270841;-2.626116;0.0016981217;0.5275722
-0.64252144;1.5789187;-0.22768533;-0.7471148
-0.57449925;2.3864703;-1.0835803;-1.6491629
0.147995;-0.7084317;-0.856825;1.4949186
0.54889804;-0.12533744;-0.27216843;-0.90217435
-0.12748373;-0.04924897;-0.2534363;0.4457214
-1.3226937;0.058278307;1.816307;0.44679472
-1.3162163;0.010455955;3.9812427;-1.9665582
-0.23296475;-0.621572;1.5667729;-0.4510582
0.15506046;0.18866591;0.18458873;-1.1334699
0.07019092;-0.10863263;1.5050484;-1.9805353
-0.8951773;0.88079506;0.21329534;-0.13013254
-0.091770545;1.8169568;-3.6144614;-0.38720757
0.6363871;-2.047081;4.557552;-1.0864093
0.09149758;1.6866833;-1.599413;-2.1502726
0.09692762;0.6727253;-1.8662823;0.33714917
-0.21109857;-0.35331106;0.17133996;0.58712363
-0.30065984;0.18013796;1.5503603;-2.609438
2.4585743;-2.5144866;2.5507836;-2.6684868
-0.11461589;-2.1021268;4.6672587;-1.0578699
-0.36514878;0.3163398;2.4474363;-2.622399
0.039730255;0.12191255;0.2125314;-0.4986194
-0.06981147;1.2955804;-1.9660238;-0.6033106
-0.2005578;1.6601694;0.40233526;-2.1496546
-0.47965983;-0.17015484;1.1293601;-0.19978726
0.38891035;0.2880126;-0.13143341;-1.3170886
-0.55401105;-0.96918046;0.6080116;2.0162492
-0.03536846;2.2399695;-6.3703814;2.1626039
2.082658;-2.5500035;-2.2980206;3.1938314
-1.1084064;0.025021221;-0.82340527;2.1811244
2.2796774;-2.4442835;-1.1089922;1.2678155
2.7661376;-2.4490304;0.13773979;-0.80948776
-1.7019291;2.5298371;0.72094953;-2.7742112
0.108380504;1.0963657;-1.8970749;0.052774258
0.68843347;0.100143336;0.4784371;-2.230624
-0.4510682;-0.38307852;0.7668369;0.5118032
1.4920793;-0.11930443;0.47834086;-3.022131
0.32788017;2.7163987;-3.3295739;-1.6677623
0.48245418;-2.626655;2.4233725;1.1768821
-1.0053607;2.552572;0.90600824;-3.5679362
-1.3869628;-1.8889928;3.4682014;1.4029543
-1.5013934;1.4045533;0.67670625;-0.7781652
0.70951617;0.3150315;2.8352098;-5.4241304
1.0202423;0.4146665;0.8088502;-4.7189655
-0.75691545;-0.42971316;1.0286299;0.9508818
-0.5834593;0.97513825;2.9585214;-4.398689
-0.020182533;1.6527898;-2.9747684;0.4679296
2.3200715;-1.3619872;-5.825091;3.68082
-0.11608198;-0.089825;1.6657238;-1.4428475
-0.22220553;-0.60534686;-0.41543955;2.4286654
0.019394308;0.018678283;0.018918104;0.01968474
0.34081307;0.9989792;-0.055133503;-1.8822169
-0.13201898;-3.188269;2.0165248;4.382795
-0.005208409;0.27456614;-0.062160887;-0.27450308
-0.7541481;2.5782385;-2.7260644;-0.3987292
0.1491857;-0.47781447;0.06171461;0.21080688
-0.05183682;-0.0643392;0.0047255745;-0.026635407
-2.370299;-1.4571179;5.1239204;2.5421197
2.8534136;-1.3264515;-1.709535;-0.17134419
-0.113641225;-0.1072469;0.037065357;-0.029166333
3.3426735;-2.5145423;1.4414382;-3.7804632
-0.25352326;0.10096183;0.0005166391;0.4045642
-0.07552258;0.08987015;1.1284899;-1.4050881
-1.4455985;-1.1499363;0.9507349;3.6412458
-2.5126266;0.20862566;3.747801;1.5980713
-3.4721065;3.6288364;-0.3909217;0.14260186
0.39803007;1.0390282;0.735244;-4.3333855
-2.1098542;2.7413385;0.95914114;-2.1257567
0.6982481;0.48911113;-0.9570076;-1.5735427
-2.196565;1.276866;-0.23822562;1.6802782
1.7010013;-1.621585;1.855263;-2.1573176
-0.18777075;-2.1134224;1.8961082;1.0477219
2.38055;-2.1405792;-0.4464256;0.09547219
0.9573203;-1.7351029;1.584787;-0.46478552
-0.18765478;-0.21184896;0.59085774;-0.031330023
-0.45666468;0.85475194;-0.5204139;-0.09212569
-1.0597013;1.9869281;-3.421404;2.250836
0.40232867;2.3660114;-3.3568716;-1.9222763
0.1964267;-0.07503006;-0.8427699;1.1232613
1.7924818;-1.7179637;-1.9022069;1.5529904
-1.3201452;0.5374042;1.629815;-0.5121895
-0.12609506;0.87183684;1.7161278;-3.0949638
-0.7298362;1.0831008;3.1501153;-4.88378
2.6629498;-3.811807;-5.6278706;7.328497
-0.3257379;-1.1508459;3.2594705;-0.93424386
-0.8956744;0.67072904;-1.7181953;2.9517794
-0.1555757;0.64181244;-1.2820387;0.3099578
-0.19503325;-0.90708125;-2.277264;4.2798333
0.011773558;0.005108306;0.15310933;0.108582385
1.9192134;-0.03319602;-3.8991225;-0.055665694
0.2277784;-0.33409032;-0.27034488;0.52143955
1.8539345;-0.14173907;0.05663117;-3.4091854
2.9267669;-2.003611;-3.5415335;1.1865783
0.08057248;2.56508;-0.86472785;-5.921048
0.49504137;-0.70616746;0.9198123;-0.7437987
1.1525043;-0.5002045;2.7294776;-5.3684926
1.6691214;0.61177963;-4.274747;0.25833467
0.08589327;-0.94682324;1.6724045;-0.33129174
-0.27733847;1.5260711;0.3767355;-3.3804016
-0.1670051;-0.4142855;-0.24764663;1.7612901
-0.26357985;-0.5572522;0.13690838;1.5868824
-1.1354858;4.2066636;-2.5304127;-2.5271118
0.17205283;1.6071752;2.639848;-7.1793056
-0.65469396;0.30680564;1.4788684;-1.3761913
-0.32467538;-2.191377;0.66715115;3.4575434
0.03738972;0.8223735;-1.5380328;0.24022791
-2.3819544;1.2562304;1.4033438;0.21117957
-0.24862547;-0.27945036;-0.13276969;0.695863
0.3431996;-0.42543256;-0.6673222;1.3901603
1.0897889;-4.6971774;5.292949;0.8895372
1.3610559;3.6450024;-5.8430977;-4.0671935
-0.63600546;0.5242713;-0.7613768;1.4058579
0.576796;-0.24876672;0.617335;-1.6278902
0.8773921;-0.7895874;-2.8694189;2.0957134
-0.3643382;0.016250242;0.26765642;0.22294398
-0.13306162;0.6195842;0.5808382;-1.2426144
-0.61491233;0.7818576;-0.8783272;0.49533433
-0.37636286;-0.89503837;0.70473987;1.417178
0.12608889;-2.9301872;3.618685;0.6824801
-0.2810113;0.79873556;-0.55415606;-0.18652698
0.15177616;0.35097662;1.6493524;-4.353742
0.917977;0.106552;-3.961462;2.1094635
2.775142;-1.5066652;-1.4506888;-0.9650795
-1.063574;2.1169045;2.4536421;-4.496895
1.6004105;-1.3933926;-1.0117731;0.5805695
-0.5697847;-0.15768896;0.7505551;0.2776903
0.12640709;0.07176524;1.3120788;-2.0120583
0.15234217;0.46726406;-2.5391297;1.3740708
0.30193186;-2.5513487;5.9348497;-3.113836
-1.4714891;0.3269373;-1.0888623;3.5877585
-0.012727687;0.34410474;-3.4976516;3.1783822
-1.427254;-1.0103287;1.3899585;3.6973054
0.4816552;0.5474663;0.035585485;-2.2080684
1.1871955;1.4204867;-5.86134;0.37285456
1.0108294;0.10822024;-1.1205449;-0.86388344
1.9543378;-1.4243202;-1.7435343;0.99914545
1.8623315;0.5208925;-1.3956959;-2.6243281
1.4051653;-1.7424333;1.953718;-1.6290661
0.5276839;2.5766175;-8.578498;2.2342105
-0.11473821;-0.03551516;-0.30007932;0.4015213
-0.42887327;-0.3954701;1.5644606;-0.18401292
0.71606266;-2.3042948;2.2412999;-0.26411432
1.5049686;0.008898753;-0.92541593;-1.4351842
-0.6091653;0.014163147;0.46477288;0.49432954
-1.0223973;-2.296559;2.329341;4.1618304
0.108637296;-0.14016195;1.5897197;-1.5544379
0.67908645;-2.6991298;-0.18399788;2.6239617
-0.26866892;-0.18246454;2.2816362;-1.1601481
2.0399945;-0.39461455;-4.2046022;1.2874757
-2.3181067;-0.07610207;2.7948053;0.7044198
0.6848412;-0.5316803;-2.9023588;2.7840142
0.0061713806;-0.05633432;-0.258642;0.17360772
3.7370615;-1.3059869;-1.5896856;-2.9952116
-0.10732903;-1.3500742;0.22589363;1.7890723
-1.7207917;0.54499304;0.7967469;0.83455104
-2.7151875;2.5283923;1.0613754;-0.6027368
0.3639795;0.26956;-0.06320182;-1.3343717
1.1417888;0.33549124;-3.9517384;1.020417
-0.18044731;0.0074434658;-0.12205519;0.77750707
-0.8732131;-1.5267992;2.603961;0.6484141
2.6897318;-1.2400692;-0.70376414;-2.1815066
0.28591302;0.5544302;0.7566794;-2.6145623
2.1453924;2.2351055;-6.748393;-2.0358357
-0.6400038;0.16960426;0.45862597;0.53863513
-0.83404046;0.37071726;1.2263014;-0.31189084
-0.5118398;0.2312963;1.5991393;-1.2121545
0.11835169;0.10187356;0.34178036;-0.46620142
1.7607485;-2.3023932;1.0651506;-0.14221202
0.024556363;-0.86538595;-0.28736037;2.349781
-0.25861758;3.3168106;-5.6913395;0.025798839
0.99015284;-1.1199387;1.9863489;-2.64199
0.19136634;-0.6683964;2.8216236;-3.1056273
2.4116068;-0.61081296;-1.4758195;-0.990555
-0.30211464;1.7706618;-3.170742;0.15260878
1.5341277;-4.6944814;3.551139;2.8823578
-0.21994452;0.16978945;-3.4132648;3.6481686
-0.93312407;0.28010517;2.7218559;-1.9954016
0.48305953;-1.0206091;0.71571887;-0.11338846
-1.7781866;1.9310532;2.6818953;-2.9302332
1.1341608;-3.0170865;2.1801586;1.0942756
0.2672895;-1.833388;-0.07639639;2.7617147
-0.052608613;-0.042398628;0.04845603;0.007189386
1.6069063;-4.3962026;0.73794085;5.1919203
-1.3225639;4.3342686;-0.98273826;-5.9717426
-0.86491436;-0.10513857;3.3101192;-1.848582
-1.402292;1.6019187;0.097568616;-0.3762173
-1.7414787;-0.42235142;0.73119545;3.9244602
-0.36524716;1.601537;-1.7608639;0.009723766
0.7891729;0.59649473;-0.57470495;-2.8494744
0.34506232;-0.010101877;2.570952;-4.4656844
-0.09805423;0.5474085;-0.07289652;-0.6239285
1.7745196;0.80347216;-5.8065763;0.8520282
0.32947496;-1.3921393;-2.5073733;4.841276
-0.38880876;1.1174124;-2.1249437;0.6230288
0.96630746;-1.6785727;2.487684;-1.4286923
-0.5157119;0.7352989;-0.84215295;0.50589496
0.3600996;1.0794172;0.82193524;-2.3878694
-0.12174215;0.35555393;0.26902896;-0.8578532
0.50057596;1.1387875;-0.17280184;-2.233058
0.50305426;0.42157927;0.3480812;-2.2029037
-0.70547247;-1.1125965;3.1756113;-0.04088585
0.9370426;-0.95647997;1.2300866;-1.6052467
0.75684327;-1.8274295;4.296049;-2.5125835
1.5695748;-3.0457733;4.275863;-1.432745
1.125295;-1.2227927;-1.5750058;1.8392766
1.1641278;0.6193279;-6.4852543;3.1240792
0.58225054;0.1829927;-2.1912856;0.8888508
3.6371558;-2.0920866;-1.6507384;-1.2547114
0.90744066;-2.3830996;0.42342892;2.6327498
-1.33233;-1.341818;3.5790834;1.0795943
-1.4970412;2.1137023;2.5135388;-4.3201833
1.1728745;0.65096724;-3.0834105;0.18213327
1.4894944;1.3836205;0.25317845;-6.925267
0.14415453;-0.8737426;-0.7640453;2.382111
0.37264842;-0.28193444;0.9243066;-1.2442925
1.2901154;-1.55706;-1.835747;2.4793906
0.7546272;2.8525264;-5.8482146;-1.5450916
-1.0613526;-0.8988692;4.0932403;-0.6349971
1.3431131;0.8122156;-6.547887;1.7297786
-0.07352024;1.4429502;-4.022796;1.4812236
0.024797212;0.00743489;-0.28817242;0.36854625
-0.43779713;-0.016732516;-0.9913633;2.075848
0.2518903;-2.4224544;-0.5631853;4.341101
-2.4599206;4.3870463;-3.1992376;0.2776235
0.2965008;-1.7765931;0.576925;1.5573196
0.900606;-0.5643393;-0.7106175;0.049477946
0.86945015;1.3943398;-2.405349;-2.2340133
0.026911473;1.3044703;-1.4395201;-0.20774451
-0.87860405;-0.69496876;3.136989;-0.3816438
-0.5111063;0.11008451;0.74403435;0.05764921
0.6668698;-1.406826;2.2990785;-1.1511798
1.0441769;-1.5749171;-0.72731805;1.3947905
-0.9787582;0.11962684;0.62708515;1.6352196
-1.0559145;-2.7511919;4.2586436;2.7588403
0.081216864;-1.1661325;0.9407583;0.666358
2.5568938;1.375575;-4.0235624;-3.3969169
-0.80055135;2.333471;-2.6215575;-0.22827178
0.17883773;-0.39915922;-2.3396356;3.3486686
1.3501387;1.7837903;-3.306035;-1.9556898
-0.84720933;-0.17128521;0.4798308;0.7875935
-0.08674891;1.5017834;-3.8854818;1.4278541
-2.2702596;-0.057096664;4.5279756;-0.48553234
1.4643508;-0.2765824;-3.0072503;1.2958311
0.842416;0.8371903;0.5528471;-3.1338696
-1.007742;1.9587493;-0.76111877;-0.41924557
0.5412468;1.4863168;0.66044253;-4.816129
-0.4342422;0.54989815;-1.6957289;1.660707
0.645053;0.18751773;0.019547507;-2.219294
-0.32530853;-0.23533556;0.06854209;0.9724648
0.65984815;-1.7097682;2.0886147;-0.88949305
0.65595555;-1.6321619;1.2425886;0.010810674
-3.2671804;0.5073478;1.3973533;2.6469014
-1.9930263;0.07835525;0.87502587;1.8205923
-2.0719886;2.3463147;0.14734529;-0.56565344
0.1701882;0.9717473;0.08690573;-2.2942731
0.22625464;1.6041831;-2.7033024;-0.67625207
-1.6571589;1.2469411;1.2381579;-0.42801717
-0.003145721;-0.66475695;-0.75254226;2.6677454
-0.31244949;-0.75986207;-1.2623341;2.7136118
-0.2292502;1.4777992;-3.7033358;1.3426569
0.577405;-2.89397;0.6162565;3.3261697
-0.159705;1.8310306;-3.90544;0.43700007
0.76422423;0.44315955;-2.5159476;0.30231667
0.124455445;0.40015098;-0.2959523;-0.8881873
-0.33771634;-1.3610001;3.3109992;-0.11015295
-0.32463548;0.020406483;0.19001113;-0.025007835
-1.3673755;0.625219;1.8721001;-0.7647503
1.1186726;0.9200779;-3.9005487;-0.37534901
4.027647;0.6087209;-4.649274;-5.8071404
1.2349849;-2.7035952;0.801146;1.6084282
-0.19624084;0.08196222;0.16177058;0.04694858
-1.1819806;-0.2490839;1.6573298;0.11929575
-2.135815;5.271818;-2.1252902;-4.210807
0.08306813;0.22247984;-1.0674536;0.64016056
0.65643305;1.1984259;-2.7370772;-0.4236086
0.534582;-1.0109948;2.1243334;-1.3677979
-1.4511222;2.2518375;1.3419532;-2.95275
0.1931285;-2.4330702;4.074229;-0.35405865
0.060693685;-0.2577198;-0.3240008;0.6848137
-0.43206763;-0.1734429;-0.21363229;1.7857342
-0.98621196;0.4880794;0.6225157;0.16432235
0.3892574;1.3566872;-0.39964274;-1.7074127
1.2293094;-0.33021373;-0.27034152;-0.884465
1.2554775;-0.19269443;0.37240052;-2.764476
0.19783929;1.5204309;-1.1844941;-2.0685446
-0.39920986;-1.1746427;0.40429294;3.1749527
1.3363773;-1.328469;-0.49364677;0.40333843
0.78361726;0.7826948;-5.61479;3.1162755
-0.081145704;-0.11835307;-0.005877155;0.32856238
1.0474433;1.0973659;-2.6963615;-1.7649691
0.6648217;0.16630587;-1.1732137;0.09864091
-0.59130967;1.266012;-0.87450624;-0.15581533
-0.124189995;0.0077404794;0.1823246;0.018648634
0.22495852;0.040510263;-1.1249971;0.69081646
0.080803655;0.040260192;2.240912;-2.8804789
0.387575;0.1451852;-4.5736036;2.6436832
0.48055303;-0.31917915;1.2460252;-2.4726505
-0.120891094;2.068526;-1.5929924;-1.3373834
1.454467;-0.53314817;-0.3411699;-1.301479
0.37475717;-2.9749365;3.7426913;-0.07370122
-2.3967493;1.7677344;0.9131745;1.2308534
-0.73268646;-1.1313901;2.1039486;0.33410737
-0.1651939;-0.2537859;0.31732503;-0.002297833
-0.23613913;2.8465998;-5.6149607;0.5410813
1.2724599;-0.38605586;-1.6892513;0.24491496
-1.0919926;1.2965484;3.1625278;-4.9186335
0.47365102;-0.06756454;-2.05264;1.6009504
1.0541027;0.8152786;0.28353283;-4.5177116
-1.1314014;0.9841303;1.869979;-2.2345245
-4.154222;1.5731984;4.745606;0.45965356
0.64748305;-0.56249684;0.18206957;-0.7758101
-0.510229;0.3597455;1.583891;-1.4870477
-0.096030354;0.054675844;0.49063239;-0.35645714
-0.064823784;-0.6367626;-0.1968594;1.4220413
0.11943375;1.7455171;-1.3792151;-0.8001567
1.223223;0.24782664;1.4383833;-4.055996
-0.17711425;3.3064055;-6.353098;0.4391535
-0.24193318;-1.7115084;-0.28560007;3.1662362
1.600785;0.089061484;-1.1220517;-2.147283
0.6441033;0.045075286;-1.4838225;0.62292194
-0.41462207;-1.3098072;2.2270186;0.94259953
0.16844787;0.7537802;-3.8794198;2.2843149
0.7478583;0.17183585;-3.4743757;2.1938546
3.2513988;-1.4595382;-4.624529;0.9684338
0.3065204;-1.803919;4.585891;-3.0487547
0.6774125;2.7895694;-4.027092;-1.7923504
0.009465618;0.025792569;0.32294303;-0.4550803
-1.2243994;-0.035652883;3.00815;-0.9206897
0.8170267;-3.600901;4.552723;0.12152187
1.572011;2.987673;-6.3280544;-2.5673993
2.2981906;1.2839757;-2.3896577;-7.0065594
-0.15644091;1.1369896;-0.84537476;-0.9562269
1.4267514;0.19776438;-3.708282;0.91145444
-0.320998;1.0880584;-1.1720543;0.43525168
1.2661068;-2.0261624;0.8809154;0.94289404
0.09474895;1.9457506;-2.9593005;-0.1284951
-0.40785477;-1.5860492;0.11642046;3.3385367
-0.22573636;1.9078317;-1.9158925;-0.83310044
0.15615627;-0.11154857;-2.4872746;2.0482547
1.1734276;-3.7771883;4.9341455;-0.20837036
-0.11984023;1.508675;-0.23724718;-1.9923453
-0.12031535;-0.12079469;-0.2725106;0.9048219
0.086009175;1.6593971;-3.648338;0.6867918
-0.74414766;2.6893008;-4.1892247;0.79174227
0.2849877;-0.0029241124;2.9939454;-3.906812
-0.10171196;0.32204574;2.0179806;-2.8820653
-0.37851685;0.021216577;0.3615281;0.06056368
-0.02270229;1.0750271;-4.0121813;2.0473614
-0.9806481;-0.40192214;-2.4204345;4.8440185
-1.924061;-0.5704825;2.8328667;1.5749635
-0.8426671;0.597984;0.043947775;0.22938886
-0.38342866;-1.5224732;4.2455406;-1.3309433
2.583501;1.3389434;-5.430171;-2.3764553
-0.9918353;-1.8904814;3.035808;1.2709144
3.6970315;-1.3564296;-0.050028875;-5.7186966
-0.25039354;-1.2034574;0.4258853;2.050526
-1.3491659;-0.3501369;2.309597;0.31620502
0.99410796;-0.8277643;2.0589066;-2.9053817
-1.0989105;2.5145967;-2.481274;0.41388437
1.2462295;1.1708709;-7.0818977;2.489928
-0.7691737;0.6024938;0.5531429;-0.061767604
1.9555115;1.5855104;-6.01363;-0.8327625
-1.0484908;2.3057523;-1.2317154;-0.5159767
0.4744307;0.27045065;0.34768748;-2.0200057
-0.9339987;-0.7740376;2.7360327;-0.202399
-0.023660216;-1.6398064;1.6448139;0.8052619
-0.56819755;-1.5851606;0.14182685;2.5135615
0.042445768;-1.1417348;-0.29125756;2.6429832
-2.3061185;0.6473067;0.39130765;2.337089
-2.2250452;1.1000354;2.0962608;-0.35578546
-0.12274585;3.5599399;-3.0095692;-4.3354797
0.029671693;0.20696606;0.6818063;-1.3684572
0.8856697;-0.46972007;2.859403;-4.29133
-0.4316844;-1.017495;0.4849932;2.8730474
1.2123867;-3.6316745;4.618222;-0.63389254
0.0747928;-0.97256553;0.40352163;0.9636691
-0.08857489;-0.20567387;-0.055057615;1.1180816
3.9505992;-4.254969;4.54349;-4.944443
-0.55387515;1.2980418;0.4719475;-1.8551211
-0.44142178;-0.6321361;0.38738164;1.7708524
0.0035824568;0.5168349;0.8703209;-2.2072077
-0.96388894;1.554028;-2.4977927;1.6766914
0.8966897;-1.5388248;-1.976945;3.3056986
0.18420228;-0.042357367;0.112331256;-0.40696535
2.1549678;-2.0622034;-0.00056711555;-0.07995305
-0.5631666;-0.6103095;-1.989092;4.1261554
-2.2665377;0.91255224;-2.7038164;5.4492273
-1.4994797;-0.5252287;2.2166302;1.2273026
-0.85189867;0.7537781;0.8193027;-0.5027855
-0.51449;2.2156203;1.4604906;-4.6192684
2.4475424;-2.524256;1.5670362;-1.6352794
0.64139515;-0.00064464554;-0.89011335;0.18808019
3.4321399;-3.5265136;0.8954307;-0.6481234
1.2764126;-1.2540437;-0.21230076;0.0790315
-1.5172228;2.5931878;-2.2055268;0.49412325
-0.26199117;2.345649;2.0324898;-5.958772
0.28768367;0.08972265;-0.5661973;0.16713715
0.07511527;0.3343151;0.559756;-0.87727666
2.0717144;-0.30850226;-4.98974;1.6106179
0.5773035;-0.49058712;-1.9411865;1.7000593
-0.5030745;0.47121558;-0.47115043;0.2600061
-1.8234507;1.5269156;3.8190181;-3.1532624
-0.24623887;1.3766391;-0.5372618;-1.6995155
-0.08043111;0.6256718;-3.5592828;2.6014032
0.19532411;0.35071936;-0.0963879;-0.5479936
0.2482419;-0.42160347;-1.2420992;1.0594959
0.68077433;0.21730343;0.06307926;-1.4448215
-1.18013;-1.6528734;1.9363828;3.1313972
1.5045043;-1.0682678;-1.1924518;0.42125246
0.1353638;-0.20262021;3.1862397;-3.6005552
0.46047756;-1.4415439;2.907686;-1.4225469
-1.1507097;-0.04131178;2.6897705;-0.6525994
-1.3092523;-1.2374816;2.6656892;1.1669759
0.6662229;-2.2451162;4.5104723;-1.7774025
0.35788387;-0.1607003;-0.07155978;-0.024935663
-0.38604477;2.275306;-2.5330226;-1.2718507
0.84732264;1.9979296;-1.254545;-4.5685625
1.9128904;-3.552222;1.5464342;0.77054244
1.7905275;-2.085714;0.26560208;-0.13410139
-0.91829103;2.1719754;0.35047036;-2.0751116
0.7576101;-2.6915627;3.7297318;-0.4976549
-0.46892655;-2.5022588;2.2543674;2.8575695
-2.7295308;2.8229215;-0.2534996;-0.10963187
-0.088082984;-0.043808553;-0.074608736;-0.06757876
-0.14689003;-0.39545557;-0.27605996;0.7574951
-3.1179605;2.38731;-0.3138429;1.8486489
-0.037478674;-0.620502;0.60484767;0.20779453
-0.6028841;1.0606695;1.02096;-2.1924918
0.9343147;-0.15193126;3.7132912;-5.220116
1.8018831;-4.388459;2.7151484;2.2086904
-0.67540145;0.31402335;-2.1530774;2.7837074
-1.3721235;0.12448477;0.9019475;1.346304
0.09898923;-1.9730262;1.8177892;0.8495265
-0.7757105;-0.14226168;-0.18738785;2.4947517
1.947455;-0.058608644;-6.3697505;3.0490828
-2.3929603;1.1020187;2.3403113;0.3841657
0.4396763;-0.031553067;-0.995401;0.45750943
-0.36725536;-2.4222758;-0.4949048;5.187357
0.07647367;-0.5473363;0.55234134;0.2134093
0.93958706;0.6355226;-2.4693615;0.004022349
0.35072464;-0.035782352;-0.4751653;0.059447646
0.3978565;-2.1690586;4.8636537;-2.185508
-0.2796223;1.208129;-2.2024963;0.7400522
0.30410427;1.4383188;-1.0376662;-1.7495322
-1.8838062;-0.15968549;3.9756033;-0.112777
0.45766085;-0.6920403;0.3013388;0.055525593
1.1712068;-1.8593104;-2.3012695;3.9809568
0.26358035;-1.6540911;2.6870418;-0.8650297
-1.2087909;-0.2767798;-0.03993694;3.1124399
0.45582908;-1.8298225;-0.60384536;2.4414835
-0.43976238;-0.75589323;-0.4472466;1.5379958
1.6413462;0.50779355;-0.84107316;-4.0159755
-0.8942288;0.6430172;0.6123232;-0.044067536
1.896977;1.0717877;-6.6256266;0.8452209
-0.031800553;-0.4549878;0.40240547;0.34941062
-2.1479912;0.90441245;1.6443801;0.5097419
-1.5180683;0.86840284;1.8810816;-1.0075464
-2.33605;2.4119723;-0.5037847;0.23335443
0.9743186;1.5252706;-0.48281598;-4.311163
0.75669175;-0.40986773;-0.28906032;-0.18870056
0.6864405;-1.3717852;-1.7655978;4.6261997
-2.375148;2.9374166;-2.6886609;1.6855109
-0.9551011;-1.3901516;4.439661;0.29671094
-1.3001306;3.6688333;-3.0316572;-0.94035196
2.9906175;-0.25430444;-2.046762;-5.129886
0.12723224;-2.0842009;1.2136517;2.7084408
2.0028408;-0.20552742;-2.5056262;-1.1276225
-0.038156528;-0.029052071;0.03371653;0.3308903
2.0852103;0.0802561;-5.525949;1.1270962
0.314386;-0.29312885;-0.7722933;0.85608524
-2.1966662;0.061121076;0.6708496;2.211037
-0.24713075;-0.17646667;1.9647576;-1.4851735
-0.08296649;1.1906704;-0.38085175;-1.5514013
0.7450475;0.6221426;-1.5911628;-0.77866745
0.58182317;0.27700767;-1.9852827;0.66338396
-3.0969415;0.12285384;2.1516254;2.8406603
0.339035;0.86745536;-7.4623585;5.1678753
0.19873077;0.18544924;-1.1142983;0.20317191
0.16133578;3.1066992;-2.3307726;-3.3385699
0.39074978;-3.0702446;1.9005238;2.1214063
0.28097633;1.4883986;-3.7294092;0.5182353
-0.7848522;1.0178908;-3.0194304;2.9381697
-0.96229196;0.55700505;0.3881463;-0.040180575
0.24709022;-0.04114311;-0.9255821;0.8012155
0.2705201;-2.3237016;0.65189743;2.6125216
0.52366495;-0.4249302;-1.6061168;1.972205
-0.13916801;-0.23905756;0.30730775;-0.1706272
0.82252634;-2.1035793;-0.9582434;2.3861244
0.74803084;-2.4430606;3.47845;-0.8627098
3.157637;-3.3311424;1.6783657;-1.2177862
-0.89638585;-2.4594069;1.8886414;4.1444945
-0.90059334;0.23198354;3.9273736;-3.0539017
-0.20966235;0.68738;-3.0465958;2.164294
3.978455;-0.8243971;-5.2301135;-1.0135369
0.26676413;2.154769;-5.1839604;0.40811735
1.187229;-1.0617454;-0.35003403;-0.12849781
1.5642617;0.44873995;-0.4461695;-2.453638
2.969503;-1.7565569;-1.1848398;-1.8199939
-0.29371518;-0.7447794;4.048634;-2.5137558
-1.4066522;1.9674687;0.19940281;-0.75754845
-0.8829838;-0.7584795;2.8722682;0.038634643
0.70139617;0.5274913;2.5123608;-5.639832
-1.7798463;1.3399872;0.65141916;0.27938566
0.5222247;-2.0920675;-2.4501739;5.409951
-1.0159357;-1.914005;2.0217962;2.9700992
1.2264428;0.16176827;-4.7133884;2.35389
0.43199658;0.14392136;0.2911742;-1.8628933
0.7758511;0.30126157;0.95679104;-3.174308
-0.4388103;0.13635708;0.2961223;0.047917224
3.4999104;-4.5011535;-2.6379848;4.428541
2.675987;-0.7628428;-6.587311;2.0248983
0.33896244;0.6665503;0.33268145;-2.9627748
-0.9311091;0.6299185;1.742322;-1.5667683
2.023238;-2.229633;-0.27237508;0.4146781
0.7678744;-0.4793441;-0.7820152;0.3330148
0.08910732;-0.17508325;-0.10988727;0.05273383
1.4235966;0.6837754;-0.4531795;-3.153945
-1.23757;-0.3253244;0.59423906;1.9697276
0.8649568;0.0071896734;-2.271703;0.68237984
-0.08351949;-0.20497154;-0.26376715;1.143254
0.4891928;-0.02955267;-2.3596969;1.6666186
-0.6311598;0.28771067;1.0699573;-1.0045521
0.6036736;-1.4240563;0.99804246;0.21799693
0.47614807;-0.274046;-1.3220099;1.1398941
0.025351882;-0.5394069;-2.361053;3.7548215
0.7174627;-0.34767297;-0.5395399;0.09012937
0.48479268;-0.33956963;-0.28479803;-0.21436314
0.717589;1.448091;-1.1298966;-1.9238908
0.28467298;0.118644476;0.42190525;-2.1172087
-0.820865;0.14528239;-1.6749983;3.770852
0.21149762;1.2457948;-1.355801;-1.7416716
2.0244691;-2.7285078;0.92820734;0.0734242
0.93136996;-2.4264216;4.5735407;-1.9744844
-0.9626993;0.49148497;3.9866245;-3.863257
-0.10539816;0.71452874;-1.8321084;1.2562599
2.147524;0.042762626;0.31669196;-5.2455106
-0.25772554;-0.40736005;0.525851;0.98079765
-1.4932966;-0.0916766;0.20075205;2.47072
0.20416753;-1.1453518;0.7552882;0.70804596
0.53622293;0.72256035;-2.200839;-0.309471
-0.41513565;-0.3129417;0.5146025;0.3413369
-0.9675309;2.0426989;-0.27984837;-1.4127327
-0.19401954;1.735135;4.185032;-7.677905
-0.98976076;-1.7986413;1.3659501;3.296137
-0.92780066;0.27179173;-0.52553564;3.0282009
-2.6351593;1.4730471;1.673255;0.74603224
-0.11034862;0.27920488;-2.2302892;2.7363873
0.004391401;-0.27709788;-0.66673857;1.6462811
-0.6195766;-0.3887476;-0.29939187;2.3125868
-0.3181946;-0.5443773;-0.08836319;2.1058528
-0.35983273;0.41565162;1.0196947;-1.5048355
-0.73900336;0.008876423;0.5642826;0.34389144
2.25059;3.2505143;-5.489791;-6.8395967
0.84932154;1.680844;-0.21814577;-5.945886
-1.3562965;3.3358297;-2.1795616;-1.2473571
-0.42502233;0.49570525;-0.61211705;0.52982694
0.6642639;0.345683;-0.69569397;-0.94272184
0.52272093;0.748545;-0.14080906;-2.8273926
-0.50423545;0.10697429;0.18531944;0.29495764
0.7331981;-0.35091478;-0.8731407;0.5454956
1.9401958;-3.6205857;-0.54908526;3.3819404
0.3147011;0.25870845;-2.757856;2.3407698
-1.3155687;-0.59635466;1.5608764;1.0867084
-0.8312578;0.12300462;-0.059333783;1.0913124
-0.6405668;-0.15283634;1.1038523;0.7802893
-1.1201807;-1.1720192;1.7460308;1.3086549
Bias from hidden to output layer.
-0.0081871;-0.0014156871;-0.01848895;0.072434336
