Weights from input to hidden layer.
0.08191813;-0.05699152;0.07975708;-0.0776746;-0.110902496;0.016930735;0.019251019;-0.10796582;0.037440296;-0.06826181;0.024870913;-0.001800514;-0.010889846;-0.010385022;-0.03635351;0.024035176;0.050361577;-0.1312647;-0.0024044225;0.12176209;0.23676962;-0.10070412;-0.11666156;0.026335754;-0.050616074;-0.18327996;-0.014198801;0.16820884;-0.1382242;0.15009955;0.023576304;0.21839981;-0.05780652;0.034793098;-0.008572529;-0.08058614;0.0018924243;-0.011788905;-0.037005313;-0.13242957;-0.024066266;-0.1459819;-0.023920028;0.0454747;-0.16612309;-0.036084738;-0.07914455;-0.11536943;-0.056389786;0.13644749;-0.05879902;0.09076304;-0.009283994;0.15809405;-0.14590454;0.10261187;-0.117965;-0.08989661;-0.13442926;-0.08727048;-0.16873582;-0.18447433;-0.016221078;-0.15507194;0.093102634;-0.21070711;-0.008805994;-0.07553819;-0.106987625;-0.1478116;0.0074340627;-0.13095641;-0.06231582;-0.01619167;0.035683677;-0.11143797;-0.09209132;-0.031236801;-0.005559123;0.069606796;-0.20628951;-0.054913137;0.078278184;-0.07592782;-0.11607927;0.06514994;-0.091645725;-0.14261003;-0.13531958;-0.095624425;0.022897843;-0.0031536792;0.03036685;-0.025237694;-0.10353518;-0.15613966;-0.05320769;-0.051692743;-0.12686276;-0.0052333237;-0.10099538;-0.07585689;-0.09091424;-0.1268241;-0.080580585;-0.12065063;-0.046009604;0.013642323;-0.13887425;-0.14526694;-0.112899974;0.018076198;0.038620997;0.0829006;-0.11939835;0.016579088;-0.01240847;0.14776033;-0.012631757;-0.0058349906;-0.07290149;0.032721974;0.034389228;-0.10520618;-0.087043084;-0.18112919;-0.1250324;-0.07950967;-0.015899492;0.21653602;-0.12740873;0.054565884;-0.048418365;0.009770489;-0.09176797;0.0009911049;0.052076835;0.1156544;-0.15473215;-0.08514386;-0.09227886;0.081262685;-0.04466876;-0.07022753;-0.09227138;-0.0868119;0.0689136;-0.035008356;-0.117970675;0.00861481;-0.020844698;-0.13684574;0.03967009;-0.0228766;0.040485173;-0.16246945;-0.16273412;0.12189997;-0.11172747;-0.06515686;0.0388514;-0.10340604;0.028047329;-0.14950077;0.017728508;-0.055470895;-0.08430579;-0.007523024;-0.11262231;-0.0009875823;0.088413045;-0.005189201;-0.09230769;0.10474182;-0.078214265;-0.0021959413;-0.12031138;0.042483278;0.03432079;0.024627374;-0.064965576;-0.17210591;-0.12630805;-0.02136005;-0.10643118;-0.02613938;-0.09716435;-0.024117347;-0.03333128;-0.06036571;-0.10072286;-0.060761005;-0.09074239;-0.15847929;0.16974503;-0.06328656;-0.088613816;-0.1521732;-0.09455376;0.03407173;-0.037322156;-0.10235827;0.049833264;-0.09519412;0.008227067;-0.0723751;-0.08812644;0.03829093;0.018769758;0.018411454;-0.010079539;0.022587;0.0034976017;-0.02947108;-0.11167155;-0.10453039;-0.072376855;-0.026756993;-0.019280732;-0.08475989;-0.04462638;0.009444333;-0.052759886;-0.039062664;-0.119379885;-0.07704523;0.11986393;-0.16088432;-0.0935672;-0.1645157;-0.06892159;0.031221941;0.046464704;-0.012427273;0.015169979;0.117478035;-0.056031115;-0.069889806;-0.13487823;0.074645415;0.057119094;-0.123115055;-0.011746474;-0.08745964;-0.03591059;-0.049471233;-0.067888975;0.052120272;-0.040715296;-0.07401873;-0.13145773;-0.115557775;-0.0064035705;0.06160563;-0.06502567;-0.07723757;-0.007687125;-0.034981783;-0.056017436;-0.10483365;0.012094185;-0.08958025;-0.114795186;0.012643818;-0.02016767;0.041224144;-0.002473354;-0.13104008;0.0011715468;-0.031844176;-0.06757742;0.058163848;-0.07572856;-0.009600166;0.083291724;0.045513656;-0.06404953;-0.10440174;-0.14339042;-0.15442507;0.020622818;-0.24323347;0.03848575;-0.06904813;-0.13615252;-0.045202572;-0.03553794;0.0080564935;0.03724934;-0.030373564;-0.11190133;-0.20910999;-0.020760825;-0.015466442;-0.10339269;0.1618162;0.037886906;-0.022683125;-0.2668525;0.02291257;0.03349446;-0.09166847;-0.016071724;-0.04512308;-0.098440565;0.028264672;0.06291271;-0.20400266;0.006329495;0.014228317;-0.046939716;0.019317226;-0.082014486;0.009811257;0.05645416;0.10137758;0.020696322;-0.013019769;0.0011546809;0.0020395855;-0.026762323;-0.123750575;-0.12212608;-0.1291592;0.10758426;-0.07169464;-0.08485589;-0.123597495;0.011213085;0.024917468;0.0765725;0.124792285;0.04369308;-0.09650273;-0.030730467;0.07514846;-0.018095301;0.015038855;-0.11933016;-0.033377085;-0.1813861;-0.031600162;-0.059048545;0.1430301;0.117014475;-0.16412607;-0.053488616;-0.07212264;-0.038530607;-0.0014645879;0.004444515;0.1503636;0.11940336;-0.07172829;-0.033168856;0.009554099;-0.08993029;0.1194249;0.17950952;-0.08569549;-0.12522104;-0.105749294;0.042235095;-0.05685419;-0.02109156;0.00080690027;0.009513746;0.092389576;-0.09656824;0.09817831;-0.09834809;-0.08356451;-0.06236696;0.033219337;-0.119166456;-0.11082026;-0.050713193;-0.114701405;-0.047126997;0.062481318;-0.04425427;-0.011569339;0.0008425315;0.07503661;-0.17686725;-0.027101088;-0.12398421;-0.12095335;0.0030149051;0.012913081;-0.084684595;-0.16048539;-0.011816636;-0.02078849;-0.056780778;0.024141086;-0.009760626;-0.10243937;0.08152246;-0.091442026;-0.01927429;-0.0814411;-0.00065636693;0.02101374;-0.004088907;-0.009805376;-0.041110486;-0.12533307;-0.033930898;0.05531198;-0.07297794;0.01085339;-0.07737465;-0.110456795;0.051918652;0.11010891;-0.14342926;-0.09320892;0.019165365;-0.21085711;-0.09681517;-0.040579524;-0.11985356;0.006139101;-0.020856319;0.046168648;-0.07247573;-0.019575387;-0.0018526685;0.028681893;-0.0855016;-0.039079368;-0.08599433;-0.13859905;0.0025361327;-0.07097103;-0.065991774;0.16433795;-0.014755652;-0.14745815;-0.03224666;-0.008109978;-0.12709446;0.00484069;-0.015891895;-0.03913056;0.169814;-0.1353427;-0.10737794;-0.124716856;-0.118244305;-0.017306471;-0.044925593;-0.06507196;-0.005406481;0.015628068;-0.055185188;-0.060202546;0.020404026;-0.11912064;0.02583684;-0.09684372;-0.015776679;0.020163678;-0.13491459;-0.0809584;0.010714518;0.030771837;-0.15931906;-0.09463107;-0.07864815;-0.09723724;-0.017202742;0.01676295;0.091529734;0.0084756445;-0.09736702;-0.12948143;-0.033437494;0.004441874;-0.071158044;-0.107754275;-0.10735333;0.01789522;0.14959691;0.0023884377;-0.013574931;-0.096920036;-0.11318653;-0.05653448;0.043928143;-0.10523801;-0.0022816507;0.16942064;-0.020560946;-0.048908416;0.008224742;-0.036725942;-0.033997573;-0.075155154;-0.13831834;-0.025835967;0.034244284;-0.08361659;-0.004557938;-0.05237459;0.033450004;-0.054584187;-0.18400964;0.09140208;-0.10862648;0.073462166;-0.1299583;-0.06414467;-0.031306908;-0.025468599;-0.12838154;-0.032745942;-0.054904755;-0.14006959;-0.21448758;-0.025927668;-0.13002494;-0.08827813;0.01506709;-0.0069731264;-0.06938689;-0.08259556;-0.0383496;-0.059199344;-0.113764286;-0.056401446;-0.012597612;0.038001765;-0.11037878;-0.10739231;0.06243962;-0.044276852;-0.0016008624;-0.053184744;-0.004993951;0.031037988;-0.11199282;-0.029311229;-0.06030057;-0.097236976;-0.0659909;-0.11223475;0.0347337;-0.10804815;-0.13670751;-0.08700074;0.08605064;-0.047787078;0.020639056;-0.10148547;-0.021700038;-0.29319653;-0.01582879;-0.12460447;-0.019357357;0.094526865;-0.035585735;-0.094076;-0.08910742;-0.038474858;-0.050763562;-0.080461;-0.07995715;-0.11759855;-0.120099835;0.043605965;0.029922599;-0.020553358;-0.13474238;0.042273726
0.0934075;-0.13274477;-0.013956253;-0.06506329;-0.16094618;0.009998136;-0.14015335;-0.22674713;-0.038332794;-0.10274434;-0.0093925735;-0.03980227;-0.014484832;-0.019905796;-0.047045335;-0.078636706;-0.058869008;-0.08304103;0.05418861;0.094722964;0.12624545;-0.10529076;-0.103555985;-0.04315648;-0.12585242;-0.18002735;-0.06801579;0.03531654;-0.112325944;0.13643436;-0.02148696;0.0793815;-0.0899748;-0.07536114;-0.0042065475;-0.011707696;-0.03948106;-0.07398818;-0.17204557;-0.02737102;-0.0877802;-0.17720677;-0.04991481;0.07599412;-0.26939753;-0.11295421;-0.0650409;-0.062461786;-0.0039730454;0.008776276;-0.019934582;0.017515212;-0.075304285;0.1167385;-0.017357323;0.025096638;-0.08809812;0.023485772;-0.07300804;0.03423205;-0.11213938;-0.23415308;0.018792938;-0.16105197;0.09694455;-0.17879951;0.02079368;-0.14941008;-0.16737431;-0.110368714;-0.13010584;-0.033917613;-0.12412338;-0.011229606;0.035605222;0.018245628;-0.08159233;0.023657259;0.038479805;0.03305412;-0.081166014;-0.03552198;0.16698809;-0.15315644;-0.058134623;-0.030445;0.01970112;-0.09409715;-0.081414804;0.0087708905;-0.021248909;-0.11424249;-0.024198968;0.043909412;-0.17291617;-0.037399918;0.036919285;-0.053600717;-0.13527015;0.013453431;0.024926517;-0.05438811;-0.054999243;-0.09042825;0.042664148;0.009720957;-0.031166349;-0.022299858;-0.19271843;-0.032026008;-0.18231693;-0.055531714;-0.005229787;0.039471958;-0.04654303;0.009171437;0.01910754;0.06872775;-0.077739626;-7.090835e-05;0.0060673873;-0.0754162;-0.036355313;-0.15403447;-0.054104313;-0.07214554;-0.016866535;-0.08497733;-0.088187575;0.12362812;-0.049218733;0.067891866;-0.013509132;-0.020498678;-0.060347896;-0.05964919;-0.0758306;0.16804859;-0.050583526;0.066039115;-0.09024062;0.022119075;-0.05268902;-0.016302807;0.015581849;-0.10474719;-0.023257498;0.035869125;-0.023568973;-0.03437034;-0.011628211;-0.100470066;-0.0072726165;-0.09261428;-0.05728835;-0.19780213;-0.086020105;0.08442586;0.024737703;0.04127058;0.01858105;-0.02614739;-0.0019267403;-0.099367455;-0.01608869;0.010581373;-0.0077752136;0.046660807;-0.08937599;-0.021411814;0.10058473;-0.06649665;-0.03808517;0.0745077;-0.12951966;0.037791412;-0.040659305;-0.0077523366;0.055265658;0.030710923;0.09125613;-0.03115232;-0.1325214;0.05408256;-0.0006911745;0.010476944;-0.018881606;-0.049411297;-0.009583827;-0.09341767;-0.09408996;-0.016617713;-0.04906775;-0.0630212;0.14240609;-0.080291934;0.034334417;-0.031099204;-0.03818443;0.0390961;-0.018363139;0.031385936;0.04801878;-0.0928625;-0.058565967;-0.016559206;0.00052901753;-0.012271958;-0.044261977;0.034838352;-0.062905446;0.00069604046;0.08428296;-0.06761049;-0.044460837;-0.12005988;-0.063786596;-0.03132177;-0.030691415;-0.19755365;-0.070538074;-0.10007653;0.031671997;-0.0575203;-0.07018625;-0.08387725;0.077764094;-0.14098397;-0.07616925;-0.16432548;-0.055690233;-0.106112584;-0.074109934;0.04589356;0.019145956;0.049277928;0.05031489;0.022788104;-0.027549908;0.1766921;0.0046584196;-0.1058634;-0.06016143;0.03538442;-0.059831418;0.00893459;-0.07776806;0.0474426;0.047756597;-0.018101294;-0.09967073;-0.05716393;0.068609156;0.075733885;-0.10552103;0.0038020983;0.029072944;-0.012374847;0.023747366;0.023169124;-0.088523805;-0.014137494;-0.098275304;0.02252587;-0.017979553;-0.021024583;0.003057127;-0.10195285;0.03269318;-0.030921087;-0.1124194;-0.105345264;0.0746917;-0.1108467;0.06934947;0.062425457;-0.098106995;-0.0076840757;-0.0023397228;-0.21829917;-0.06256463;-0.29381117;0.021122959;-0.027693026;-0.091047116;0.044802796;-0.06965945;-0.012497398;-0.07716681;0.05049259;-0.15660487;-0.20980829;-0.027044365;-0.0037053095;-0.0065470478;0.17829216;0.0040042987;0.08992103;-0.28673717;0.025152715;-0.10144081;-0.03934724;-0.05028458;0.02303687;-0.0913349;0.11223118;-0.07552521;-0.12747377;0.008708104;-0.06349804;-0.002109965;0.018504044;-0.101653114;-0.036262665;0.14780346;0.008694271;0.023495613;0.031733107;-0.12789592;-0.040453143;-0.039713994;-0.072413206;-0.16480437;-0.029618485;0.04564305;-0.110697865;-0.069863684;-0.039078105;0.018833255;0.013098376;0.12056056;0.13616438;-0.03851713;-0.07434775;-0.029070996;-0.0056220326;0.0063256505;-0.08523322;-0.06548023;-0.05003991;-0.083371416;-0.100678675;0.024794213;0.063399464;0.040731348;-0.06636115;-0.109367505;-0.034532454;-0.016848914;-0.08587357;-0.044844322;0.05620775;0.02511234;0.014149753;-0.10381197;0.05115063;0.0096840495;0.12883565;0.02133452;-0.057965424;-0.13335972;-0.04308079;0.07933179;-0.08054174;0.014883708;0.029302293;-0.06869028;0.10307883;0.013775772;0.096575394;-0.020039063;-0.044995077;-0.11989627;0.0022738865;-0.09712578;-0.015256175;0.037999477;-0.06434087;0.007629503;0.09386104;-0.058230635;3.544137e-05;-0.052397497;0.036551483;-0.10635809;0.030619552;-0.17504448;-0.061186947;-0.13095565;-0.071864896;-0.020308472;-0.1602397;0.050966397;-0.028642323;-0.16264057;0.045405652;-0.045059245;-0.19436613;-0.03195065;-0.09721263;-0.06494111;0.019085206;0.017041108;0.03911139;-0.013293687;-0.12773296;0.01803735;-0.13480785;0.008088381;0.052550703;-0.154285;-0.09340789;-0.041702516;-0.03929532;0.05494218;0.20842181;-0.016691798;0.006288863;0.03946038;-0.13269319;-0.08390554;-0.040308766;-0.0539378;0.017841687;0.008237377;0.00895841;-0.09656438;-0.013827744;0.103947654;-0.040065948;-0.029315535;0.10067986;-0.06139875;-0.033432174;0.1162976;0.026140925;0.003636949;0.16133375;-0.11237158;0.03248823;-0.02866157;-0.08306132;-0.113804296;0.120417684;-0.037566137;-0.0014497183;0.19884332;-0.15772252;-0.12554961;-0.034675546;-0.07888035;-0.030762086;-0.09677153;0.027422965;0.010372432;0.024972973;-0.103564955;0.0711608;0.007419764;-0.105813906;-0.042252634;-0.08638932;0.024137855;-0.09872776;-0.08443223;-0.098995514;-0.07830521;-0.018659158;-0.022518918;-0.14787237;-0.06618382;-0.05387285;0.021756532;-0.09063045;-0.06340802;-0.03858322;-0.06239227;-0.022969043;-0.10644862;0.027118979;-0.058502868;0.020385299;0.044368744;0.045456838;0.032785036;0.053333525;-0.055897634;-0.06146327;0.0070398515;-0.07112514;0.005264896;-0.12582809;-0.11829665;0.074043825;-0.10378727;-0.010773017;-0.06711298;0.017193377;-0.08431625;-0.049091686;-0.01977322;-0.086997256;0.09466785;-0.08698576;-0.04415361;-0.031908877;0.022130601;0.016274083;-0.035307884;0.032074515;-0.05369461;0.0051502134;-0.010756481;0.043470196;-0.039668776;-0.021403668;0.027142437;0.05462168;-0.017141072;-0.17357117;-0.2345262;-0.117362395;-0.017809281;-0.061725337;0.06381743;-0.032235365;0.018218203;0.023164578;0.031774666;-0.035382867;-0.038054053;-0.09050408;-0.0060180696;-0.0043563084;-0.13294613;-0.07818396;0.09242604;-0.053582877;-0.117566876;-0.10009766;0.0020728942;-0.0033021132;-0.087429576;0.058276385;-0.090995245;-0.027508345;-0.09268973;-0.10878071;-0.088995315;-0.06265525;-0.09368457;0.0057565407;0.19539219;-0.008112571;-0.009896125;0.017767368;-0.09034594;-0.28415602;-0.06485982;-0.04875041;-0.056536727;0.13143705;0.029899629;-0.065166846;-0.030912813;0.021053847;0.074413046;-0.01903882;-0.111651964;-0.11111616;-0.13192013;0.09348104;0.03251549;-0.018467441;-0.15671419;-0.033845164
0.03479933;-0.046381943;-0.044015203;-0.06159434;-0.1300912;-0.11027208;-0.06000468;-0.06638647;-0.027194258;-0.022227434;-0.031934004;-0.11150789;-0.008606319;-0.11229846;-0.07435384;-0.059356052;0.011064969;0.058910593;-0.0039050633;-0.06698138;0.14694607;-0.07920281;-0.10627963;-0.05546508;-0.07377609;-0.0893733;-0.04615881;0.055062003;-0.013687636;0.18851964;-0.08857314;0.16416861;-0.090447456;-0.026104921;-0.020119086;-0.07329818;-0.10919444;-0.06237253;-0.17430893;-0.052114144;-0.02079925;-0.17348175;0.005090186;0.045459513;-0.23846838;-0.043121245;-0.09921981;-0.12181572;0.013343929;0.09540821;-0.054119386;0.068920806;0.0073893717;0.05019871;-0.09906944;0.0361972;-0.049425047;0.05812347;-0.048516944;-0.044348236;-0.06306715;-0.10702106;0.022290802;-0.07509891;0.035792004;-0.23654787;-0.026626082;-0.09355316;-0.17468457;-0.07947633;-0.030327167;-0.053424;-0.17242825;0.02753569;0.041383408;-0.10032419;-0.077424236;-0.038600665;0.10002896;0.058801003;-0.15799682;0.0023645821;0.0459041;-0.012794801;0.059747484;0.048866194;-0.030492233;-0.02863915;-0.12642242;-0.047047596;-0.10008394;0.00450157;-0.011950067;-0.044361096;-0.06698044;-0.057230417;0.014860302;-0.034484543;-0.050049394;0.019828068;-0.11213438;-0.039926495;-0.05739866;-0.099044025;-0.034903377;-0.012570361;0.07098774;-0.08835945;-0.16744468;-0.1515558;-0.17937133;0.046929367;0.025975676;0.0959031;-0.113571934;-0.08475953;-0.03953725;0.14192927;-0.02452171;0.0032290267;0.01487974;-0.1054471;-0.08020143;-0.095459245;0.034244586;-0.22260007;-0.17071362;-0.11360933;-0.080461934;0.057201434;-0.0033276456;-0.09527265;-0.14697926;-0.0875328;-0.16690879;-0.06938042;-0.11602644;0.13690823;-0.18161762;0.051377878;0.0137146525;0.088841274;0.06395903;-0.06945749;-0.00960467;-0.024493707;0.05935866;0.043077078;0.049578086;0.016296716;0.021472385;-0.016230818;-0.023003442;-0.13041443;-0.014780938;-0.24348198;-0.055406656;0.0013073622;-0.0074600745;0.08241097;-0.01198266;-0.08686902;0.00056824856;-0.11704424;0.0014882463;-0.09078598;0.012824391;-0.022757322;-0.06467303;-0.13682944;-0.038218223;-0.00832384;-0.03956197;-0.0013133578;-0.052688066;-0.05143668;-0.0023368723;-0.011867924;-0.011188354;0.017773097;0.06995359;-0.039162982;-0.0874149;-0.06771515;-0.059253585;-0.10870915;-0.14584315;0.03748167;-0.09429759;-0.019736195;-0.04053469;0.006962323;-0.04194688;-0.10301513;0.1008543;-0.099004835;-0.10438322;-0.095983334;-0.077214725;-0.06675491;-0.06821444;0.02116973;0.01607808;-0.04381478;-0.13949947;-0.08859222;-0.041046295;0.052689172;-0.02114154;-0.06147933;-0.017764498;0.01794957;0.13218482;-0.03656247;-0.14361928;-0.07471608;0.019620756;-0.07162605;-0.05247659;-0.1775421;-0.11441213;-0.025611628;0.028646754;-0.08137848;-0.01539525;-0.06819683;-0.0153947435;-0.17018011;-0.02316749;-0.0579861;-0.006775415;-0.13069372;-0.108575724;-0.015679507;0.012202014;0.042457357;-0.081758976;-0.100240976;-0.003199931;0.06512711;0.021027258;-0.055622034;-0.029861936;-0.019031512;-0.064347744;-0.014275751;-0.014918043;0.023597445;0.05789712;-0.01975422;-0.11481542;-0.012695331;-0.050842322;-0.0076099224;-0.09824634;0.046508953;-0.031218912;-0.068729036;-0.07412219;0.044355515;0.018662054;-0.07487245;-0.07553135;0.007487428;0.026239356;0.021851245;0.061265595;-0.10265539;0.016910378;0.08119172;-0.04061028;-0.11181848;0.07796052;-0.021944182;0.045799468;-0.06526388;-0.030481804;0.035875883;-0.13114847;-0.09072186;-0.08862408;-0.24343546;-0.03902844;-0.01604917;-0.13212113;0.048044074;0.023125647;-0.073993504;-0.06357453;0.009647078;-0.06439678;-0.17599608;0.036169387;-0.008805149;0.0023875951;0.0590856;-0.11187064;0.05419007;-0.33788675;-0.050382156;-0.09595928;-0.03392389;-0.034829892;-0.059162475;-0.0616194;0.08013887;-0.094728075;-0.05411822;0.016684588;-0.0004685066;-0.024944471;-0.08590455;-0.06346355;-0.015004078;0.06148909;-0.012771344;0.022473123;-0.05328804;-0.08427173;-0.12990989;-0.08180532;-0.1408286;-0.069913425;-0.09897315;0.008343737;-0.018636048;-0.11534724;0.02909107;0.023681173;0.035463084;0.05871943;0.04072097;0.025024971;-0.024487775;-0.03356245;0.1612218;-0.054895967;0.046002056;-0.09699818;0.009287926;-0.13664953;-0.13327377;-0.037453476;0.13272512;-0.017645856;-0.15204503;-0.040723324;-0.050695516;0.027732704;-0.00818564;-0.055061765;0.004271891;0.0048695165;0.054975796;-0.06942326;-0.03642593;-0.016122796;0.105533905;0.18139662;-0.06503804;-0.07319881;-0.016162354;0.0654685;-0.03646141;-0.0014227424;0.034391206;-0.07899473;0.12834935;-0.122815914;0.07222588;-0.049249597;-0.12676133;-0.14085509;-0.096724264;-0.042550605;-0.1016353;0.04964475;-0.06677625;-0.12495801;0.06927144;-0.14335321;-0.11985489;0.06853601;0.0902877;-0.092815116;-0.023360457;-0.10488822;-0.12528586;-0.09731463;-0.08339679;-0.0051691523;-0.016364504;-0.05996013;0.118099555;-0.17976832;-0.056939606;-0.0085722115;-0.15523277;0.06079742;0.013395158;-0.07964372;-0.048763484;-0.091704495;0.048737153;-0.026232371;-0.12159605;-0.047078475;-0.13140844;-0.095350996;0.065680675;-0.12667626;-0.097205766;-0.076510906;0.0020956732;0.09157981;0.25256234;-0.013589185;-0.12978505;0.080375895;-0.121715024;-0.030382339;-0.015432268;0.023196515;-0.051824387;-0.0866295;0.040903796;-0.054806296;-0.006033627;0.09310645;-0.057545688;-0.10993469;0.062178787;-0.057879813;0.020778397;0.06698823;-0.047339622;-0.040097833;0.08838162;-0.0119320275;-0.034130692;-0.018532407;0.043454465;-0.062205724;0.07575883;-0.020235507;-0.040437885;0.100725226;-0.070763096;-0.08415271;0.013320381;-0.117907844;-0.11104559;-0.029975507;-0.104979336;0.034880422;0.021214603;0.003453646;-0.0330231;-0.007203804;-0.041385345;0.025557809;-0.11043338;-0.041193135;-0.054999743;-0.034542732;-0.026340738;-0.023587959;0.020420766;-0.005469924;-0.16297348;-0.04920195;-0.093637064;0.08857381;-0.07102183;0.05324317;-0.070208505;-0.07515971;-0.07286932;0.02169494;-0.096963495;-0.05945769;-0.06801383;-0.041149482;-0.04514571;0.019272864;-0.077597626;0.010996802;-0.1214319;-0.06931113;-0.03785759;-0.018283281;-0.04686173;-0.07409784;-0.029769354;0.039145824;0.015730806;-0.046518505;-0.066628106;-0.105446465;-0.09452611;-0.124129474;-0.08866235;-0.054831438;-0.08146241;0.025847184;-0.11772035;-0.11770508;-0.10165217;-0.12741354;0.075450875;-0.035599664;-0.020306762;-0.01019076;-0.0026287378;0.015028748;-0.08692683;-0.042845998;-0.041113533;0.079203434;-0.13347447;-0.24312842;-0.039621063;-0.044750206;-0.004770796;-0.046779707;0.033988524;0.024356604;0.038708404;0.096566685;-0.09138493;-0.074478894;-0.037468776;0.07032912;0.08932354;-0.093503766;-0.094376296;-0.025143182;-0.15775588;-0.056398865;-0.10450002;0.048415717;-0.0012867203;-0.06116856;0.081495665;-0.11834578;0.015326049;-0.09286064;-0.007779209;-0.045401253;-0.032733545;-0.07799798;-0.028244805;0.15711105;-0.07787178;0.027185723;-0.1063642;-0.084627345;-0.21872294;-0.09258617;-0.13798559;-0.035202615;0.068415664;0.009124367;0.011473188;-0.011743802;-0.041559692;-0.0515774;-0.13842767;0.0039034544;-0.17029916;0.013048267;0.0772749;-0.022883529;-0.15547591;-0.09185102;0.040632233
0.06963388;-0.039655708;-0.035698887;0.05429396;-0.12252623;0.0040287203;-0.076378725;-0.1903892;-0.09414495;-0.14281417;-0.052834578;-0.028786043;0.01984532;-0.0103849;0.0171039;-0.086274855;-0.021929324;0.09606416;-0.02166095;-0.07036827;0.07459465;0.032539062;-0.016231881;0.048471104;0.011989076;-0.095399;-0.098691106;0.046062265;-0.056001067;0.15731551;0.010066702;0.047811233;0.0005898012;-0.08195293;-0.06840017;-0.054359823;0.001654515;-0.06333709;-0.1275114;-0.0455446;-0.054199047;-0.06454766;-0.060949266;0.013713801;-0.29414374;0.0145735815;-0.119479686;-0.10396756;-0.01155275;0.0072115446;-0.12702174;0.15274855;-0.072929084;0.008639511;-0.047398847;0.055862002;0.02898478;-0.07285336;-0.031920068;-0.024501668;-0.09346416;-0.11003412;-0.108019195;-0.112876765;0.12648983;-0.28264067;0.014148549;-0.16387656;-0.07977095;-0.071180254;-0.111022584;-0.03926053;-0.1676517;-0.021332351;-0.03319511;0.053038668;0.0127018355;-0.045148663;0.016898757;0.051270314;-0.08219718;-0.060596805;0.07009472;-0.1632459;-0.05864347;0.10461938;-0.036735766;-0.10733607;-0.11317601;0.039648354;-0.017521836;-0.06564504;-0.035183012;0.03759664;-0.09329474;-0.11357854;0.014443471;-0.12881362;-0.1258083;-0.09678811;-0.13133751;-0.010760713;-0.11364432;0.027278066;-0.081956536;0.026085623;0.02565454;-0.0012719255;-0.121282674;-0.04333704;-0.08293798;0.010914219;-0.0879792;0.10581541;-0.061017;0.021878893;0.020545337;0.14796446;-0.0066383188;-0.107132494;-0.05765916;-0.0018198139;-0.04272997;-0.14640224;-0.021112284;-0.16274649;-0.08498034;-0.07170649;-0.039469097;0.073312566;-0.060978;-0.04488097;-0.04387496;-0.054608952;-0.1431653;-0.116330944;-0.06374435;0.06399852;-0.054597095;-0.05506638;-0.054762382;-0.0012807143;0.041670892;-0.052385177;0.0077256556;0.014522435;-0.006509213;-0.06655663;-0.04024051;0.0058840527;-0.045069385;0.0009973557;-0.091288;-0.013869038;0.022626204;-0.2363999;-0.13343719;0.04046241;-0.106983185;0.065103374;-0.0988627;-0.16107425;0.054138023;-0.055787582;-0.0736332;-0.09974285;0.00736394;0.021594394;-0.06761355;-0.105342284;0.10377151;-0.0886975;0.028149035;-0.036672093;-0.09784106;-0.008226753;-0.012196639;0.007932905;0.020117125;-0.03899701;-0.052595172;-0.13152604;-0.009481324;0.0022836626;-0.12779109;-0.15330611;-0.011135035;-0.06963863;0.002896896;-0.064229496;-0.08168777;-0.040514484;-0.083920375;-0.033736862;0.077123225;-0.07410345;-0.09388176;-0.09774478;-0.018907739;-0.010193353;-0.09736854;-0.05858358;-0.01588094;-0.08901601;-0.03005921;-0.0006105454;-0.14482602;0.026526785;-0.028993534;-0.021056408;-0.061420336;-0.085075065;-0.02884042;0.004937592;-0.07587821;-0.078530535;-0.04972031;-0.13799547;-0.032017767;-0.1369909;-0.14962651;-0.018120648;-0.05895563;0.010579369;-0.012827352;0.038808223;-0.0024494848;-0.054538693;-0.08087075;-0.038366392;-0.07859785;-0.040617283;-0.07130075;-0.06656819;-0.11650824;0.08644837;0.041667107;-0.035858452;-0.07022616;0.18868901;-0.047810942;-0.014547656;-0.14252572;0.031452682;-0.014093404;-0.0550539;-0.1285896;0.008371687;0.026400078;-0.10494191;-0.14366184;-0.09775905;0.0304453;0.09098055;-0.095889755;-0.042470433;-0.020187927;-0.0941113;0.0069696032;0.030775344;-0.06976749;-0.018691381;-0.07387259;0.06825799;0.03599024;-0.025279537;0.10180612;-0.062422827;0.011826024;-0.05629078;-0.028219655;-0.012706239;-0.015718197;-0.07662136;0.054465804;0.04620532;-0.07011326;-0.053501096;-0.074582264;-0.09232692;-0.020078262;-0.21067241;-0.10015027;-0.14265232;-0.032623895;-0.083227575;-0.075938985;-0.0014071807;-0.097654104;-0.07797509;0.0098581165;-0.20668127;-0.080337785;0.03479145;-1.6677111e-05;0.07363616;-0.030160272;0.04484214;-0.32211947;0.076555625;-0.08446051;-0.10190659;-0.09646569;-0.11814357;-0.149739;0.034168802;-0.06477799;-0.07829308;-0.05704543;0.029108422;-0.028112292;-0.04473424;-0.057478253;-0.10327166;0.037877075;0.09494951;0.08212779;-0.05728563;-0.030368747;0.026532935;-0.11032134;-0.061542463;-0.030482905;-0.03465282;0.056962002;0.04162844;-0.10022255;-0.012766055;-0.023203826;0.063329965;0.03435213;0.05768838;-0.110485636;-0.06586222;0.045268867;0.13106048;0.03404811;0.06384471;-0.12217727;-0.07556197;-0.028871382;-0.055424593;-0.12275926;0.1360981;0.041955806;-0.17630756;0.023833375;-0.024817785;-0.050461028;-0.07571101;-0.04858658;0.106224835;0.046855494;-0.07781269;-0.11092115;0.01234532;-0.020165496;0.16459875;0.13583699;-0.03891625;-0.0009494061;-0.09575546;-0.019427367;-0.07381189;-0.072399974;-0.05066222;-0.002663753;0.11094723;-0.052230917;0.11747927;0.01140803;-0.053458348;-0.13083044;-0.028507693;-0.13182865;0.009219197;0.018092789;-0.12674579;-0.04962933;0.0068728314;-0.13012268;-0.055543598;-0.03178863;0.026187029;-0.14273252;-0.0075876624;-0.11727322;-0.039884556;-0.14008413;-0.028313061;0.023586912;-0.06711388;0.037704803;0.07032192;-0.16617577;0.041282356;0.01786534;-0.14095429;0.008040514;-0.06452262;0.009714361;0.024286075;-0.052372657;-0.030249802;-0.011985264;-0.0073947106;-0.05353005;-0.13419883;-0.10587367;0.0513308;-0.08315231;0.017600138;-0.030281734;-0.066667974;0.10357555;0.22259365;-0.011921646;-0.087481625;0.10621163;-0.24300818;-0.051020116;-0.06879463;-0.017172584;-0.08662356;0.015299113;-0.07613142;-0.055517048;0.01951216;0.08792748;0.0476272;-0.068609886;0.1474171;-0.13140783;-0.024291305;-0.018481068;0.011363487;-0.0003477947;0.14756401;-0.10298532;-0.059800774;-0.07002515;0.009154804;-0.05627231;0.011219954;-0.08498616;-0.05078302;0.17946853;-0.10881874;-0.04082819;0.08103136;0.045156546;0.0065720193;0.027765458;0.030817898;0.05340481;0.035263825;-0.028080905;-0.05294391;9.168311e-05;-0.14396127;-0.106765255;-0.030698858;-0.07178096;-0.07157073;-0.019766087;-0.07096091;0.024874473;-0.01690821;-0.025404086;-0.067626335;-0.15457842;-0.07781176;0.079303846;-0.06570002;0.006574572;-0.092664056;-0.07473368;-0.01896245;-0.041209742;0.0018379918;-0.09401685;-0.049234595;-0.058530305;0.04169795;0.021055475;-0.049238507;-0.15096937;-0.10982232;-0.07886215;-0.00680039;-0.006031122;-0.12944934;-0.035630055;0.037990488;0.010843617;-0.09439356;-0.05196379;-0.10202316;-0.011074871;-0.017977832;-0.058490437;-0.0522436;0.014002138;0.028761124;0.017535526;-0.07726803;-0.023562206;0.001734925;-0.072399475;0.054832812;-0.1297461;0.016258167;-0.017428705;0.033584304;-0.040919423;-0.11759374;-0.094217755;-0.02499987;-0.08340758;-0.07989304;-0.34650463;-0.1470715;-0.11323404;-0.15272017;-0.0076338598;-0.09814572;-0.038702846;-0.032433763;0.029601343;-0.047633093;-0.09129015;-0.03527213;0.00088934746;-0.028665848;-0.11696996;-0.12844104;0.019913571;-0.16048901;-0.13446589;0.0060086246;-0.1124344;-0.02834684;0.0050531225;0.051095054;-0.077185206;-0.08231833;-0.12420711;-0.0130496705;0.041121572;-0.01925409;-0.11533502;-0.025724022;0.061192892;-0.03665461;0.0054392316;-0.016703632;-0.095980145;-0.17096281;-0.10481925;-0.052025877;0.009113805;0.032975357;-0.019675542;-0.059341833;-0.085884534;0.08845347;-0.105919406;-0.048040103;-0.15499963;-0.18230395;-0.06574132;0.12305877;0.07395254;-0.0066619893;-0.18864197;0.06605782
0.022347527;-0.04606024;-0.05887466;0.03941834;-0.10894543;-0.0075611016;-0.03686968;-0.14344814;-0.046094473;-0.09932433;-0.07832135;-0.124067955;-0.11169714;-0.009323518;0.025382034;-0.02594306;-0.0060628513;-0.038914032;-0.10901825;0.014102305;0.15288773;0.025453474;-0.078126;-0.10782429;-0.10850289;-0.03578537;-0.04556573;0.09945505;0.009603698;0.029914709;0.0053317714;0.028189702;-0.10700045;-0.029203719;-0.107998;-0.045173872;0.020683657;-0.06590007;-0.025327705;-0.05010173;-0.09779327;-0.08582382;0.057024993;0.062309686;-0.2130839;0.024922075;-0.059667274;-0.13721955;-0.034767482;0.0760021;-0.07214943;-0.014198427;-0.03084127;0.047615554;-0.12746283;0.044902712;-0.043218955;0.026334384;-0.08890623;-0.020914422;-0.021860838;-0.15670627;0.016579581;-0.13394022;0.0973833;-0.27531934;-0.020542625;-0.14525004;-0.076689765;-0.03372574;-0.10689179;-0.0693106;-0.17400128;-0.016893595;0.015993023;0.0070736995;0.027388804;-0.087898515;0.101749904;-0.08214791;-0.058002092;-0.018903503;0.14250188;-0.08721288;0.032135826;0.1190229;0.030309005;-0.07378299;-0.031382997;-0.124947585;-0.069644645;-0.07682608;0.035535354;0.010444664;-0.12931317;-0.087548025;-0.057689637;-0.081930354;-0.13993452;0.030335566;-0.068841696;0.010456284;-0.07454955;0.009703837;-0.08943109;-0.12379318;-0.03688302;-0.084507845;-0.11193243;-0.101336755;-0.20056523;-0.0806711;-0.10980638;-0.016878786;-0.054181255;-0.101950236;-0.062441193;0.12942128;-0.0799218;0.04573107;-0.008017583;-0.04833546;0.041323666;-0.11629688;0.009674745;-0.14974323;-0.13368458;0.015222109;-0.008771624;0.07583998;-0.09954301;-0.07231458;-0.14604034;-7.068476e-05;-0.1233927;0.034981314;-0.07781282;0.13803114;-0.14365356;0.03769674;-0.023923587;0.04848646;-0.09304164;0.03960027;-0.085811116;-0.09110156;0.0072890087;-0.06258665;-0.05240787;-0.08941142;-0.08735354;0.027112223;0.054904085;-0.04321584;-0.0597101;-0.17081884;-0.083539344;-0.008936649;-0.008521365;0.047035117;-0.10651272;-0.1487847;-0.09344721;-0.0690987;-0.06398982;-0.05250456;-0.06276834;-0.043320972;-0.06368291;-0.080922246;-0.01688831;-0.07111968;0.013473797;0.05090855;-0.15315364;-0.05571899;-0.033607304;-0.073331565;0.14022109;-0.08455833;0.08730424;-0.063230455;-0.07368946;-0.011045801;0.029705409;-0.14504406;-0.15283136;-0.03935681;0.014628781;-0.067130655;-0.06504178;-0.05910449;-0.104122184;-0.019763248;0.11577128;-0.09179948;-0.00080393563;-0.17080358;-0.10049899;0.029278513;-0.088778995;0.016707245;-0.059547473;-0.098769054;-0.07244367;0.013628529;0.012978365;0.02200442;0.07120576;-0.05119774;-0.030491853;-0.06335959;0.061188865;-0.009866442;-0.04478828;0.017202796;-0.014957362;-0.17278846;0.017790891;-0.15624706;-0.13931309;-0.1142505;-0.041395586;0.014403312;0.010479602;-0.08142364;-0.061702833;-0.15637057;-0.013079278;-0.0781039;-0.029489506;0.03172221;0.0030528908;0.017204719;-0.06111395;0.089834124;-0.043956105;-0.07985864;0.0036951057;0.19385187;0.01250332;-0.018095346;-0.098204546;0.0075942934;-0.013179567;-0.08096975;-0.070035435;-0.0076442705;-0.007266221;-0.065494254;-0.1451378;-0.10958318;-0.0558932;0.1208527;-0.08358091;0.023084356;-0.04554778;-0.15483376;-0.055918388;-0.03021596;-0.008453083;-0.14242788;-0.123463295;0.0125800865;-0.07005668;-0.032475512;-0.050446194;-0.049475197;-0.11327411;0.09055128;-0.1342605;-0.07250268;-0.0692404;0.0045521064;0.16361068;0.08217438;-0.04376531;-0.0073069097;-0.017368218;-0.09490816;-0.048994754;-0.20070058;-0.10456199;-0.13575217;-0.0002701138;0.014429315;-0.018344657;0.04976655;-0.009035352;0.062411238;-0.10104219;-0.17234574;-0.079812944;-0.03026581;0.013484727;0.10712977;-0.080844164;0.115733854;-0.34871402;-0.027504137;-0.1009022;0.005546416;-0.04588405;-0.13057467;-0.117947064;0.04492903;-0.01352919;-0.098156266;-0.07424449;0.04078457;0.03961398;-0.08601266;-0.08804679;-0.10498541;0.15438193;0.10819723;0.105476215;-0.06753924;-0.00317038;-0.016100598;-0.03171704;-0.16642116;-0.1575642;-0.0029362333;0.07101465;0.008264439;-0.014742878;-0.12251678;-0.04458983;-0.09234049;0.0798395;0.15839985;0.03812508;-0.040753305;-0.0735579;0.15946227;0.091120794;-0.041105386;-0.07135636;-0.02173498;-0.069721565;-0.0016875119;-0.056603663;0.108836375;-0.030903181;-0.06466674;0.016034653;0.006394766;-0.033901602;-0.122587204;-0.017498916;0.015819153;0.050733306;0.034893516;-0.040560026;-0.062045798;0.09103801;0.1561873;0.16750579;0.021689603;-0.1148116;-0.017384065;0.03830018;-0.09554062;-0.059138384;-0.08058883;-0.096849844;0.06472742;-0.013926647;0.07114095;-0.06414601;-0.10638531;-0.17263375;-0.08850685;-0.08652859;-0.05818685;-0.05177124;-0.09809942;-0.03762551;0.050986156;-0.07960005;0.0005685559;-0.03065297;0.0939317;-0.10247949;-0.06341236;-0.042156834;-0.16195062;-0.024004294;0.015588926;-0.06777316;-0.09329157;-0.039015938;0.076831885;-0.1277289;-0.09982375;0.010658669;-0.17355669;-0.04613729;-0.08144854;0.008635027;0.014150651;0.008772086;0.07403654;-0.056970276;0.0015209746;0.003363614;-0.15699078;-0.025534661;-0.09579035;-0.06024759;-0.00920849;-0.115928225;0.010324005;-0.016566118;0.22664316;-0.00076415954;-0.12314746;0.039789356;-0.14679101;-0.005428156;-0.10946022;0.007977557;0.06792958;-0.023012882;-0.02357952;-0.058744002;0.004342556;0.010059428;0.026464202;-0.019094285;0.056074172;-0.025023254;-0.06500225;-0.019634234;-0.09620907;-0.123007946;0.10339293;-0.013367856;-0.023361523;-0.0030394236;-0.043630272;-0.13735852;-0.062318906;0.017597515;-0.11267226;0.20218442;-0.06224712;-0.12544124;-0.019970104;-0.049618337;-0.112450875;-0.024966866;0.02272391;0.13466959;-0.08579194;-0.03680313;0.007248583;-0.016892593;0.012941274;-0.038045716;0.006523768;0.020717278;-0.013613812;-0.0061795753;-0.06293746;-0.094546616;0.03382667;-0.033887673;-0.1140693;-0.07680374;-0.1869066;0.014648342;-0.079012126;0.061674252;0.01791057;-0.048037987;-0.09091228;0.023728667;-0.045951787;-0.06338438;-0.0007075112;0.05723565;-0.025501598;0.025982669;-0.042527113;-0.11215727;-0.06392673;0.0014334952;0.00095676986;-0.00482977;-0.060142856;-0.10134915;0.12624831;-0.014048152;-0.038088314;-0.072015725;0.0023112867;-0.12851019;-0.090768054;0.030631624;-0.07895026;0.09716525;-0.09401203;0.04344068;-0.05299434;-0.045806188;-0.013621398;-0.095265955;0.08379195;-0.07267827;-0.05619467;-0.042903222;0.05594063;0.0010543566;0.0015452078;-0.053870678;0.05303397;0.10883096;-0.09051775;-0.35146847;-0.06649205;-0.082726546;-0.024241788;-0.043299448;0.049289145;-0.023805987;-0.04552191;0.0998606;0.0030222517;0.020053782;-0.046807557;0.10256351;-0.022564871;-0.13705294;-0.06946122;0.0042691934;-0.1338332;-0.019158501;-0.044396408;-0.01709942;-0.030877419;-0.05752201;0.09222235;-0.11591051;-0.115098976;-0.014903596;0.046564195;-0.030751724;-0.15083635;-0.10778082;-0.010971503;0.14139333;-0.09848343;-0.03343817;-0.040078998;-0.014980487;-0.26788086;-0.087293886;-0.107900195;0.0026095712;0.044108063;0.005611163;-0.012065085;-0.11569023;0.019827403;0.012437768;0.012915288;0.018379338;-0.17121878;-0.04244772;0.12130782;-0.018537547;-0.1468419;-0.112354815;-0.044537615
0.1358818;-0.05164839;0.10470594;-0.01621024;-0.11483419;0.055549588;-0.093755275;-0.17979601;0.0036965692;-0.06814856;0.02947263;-0.0062609618;-0.027728079;-0.09591108;-0.07494071;-0.03466905;0.05935599;0.064518794;-0.013552055;0.034236092;0.015691273;-0.13546255;-0.01323405;-0.035647366;-0.046196073;-0.16342506;-0.02011218;0.024614032;0.0023944117;0.082648136;-0.018117994;0.025485978;-0.054045692;-0.14640352;-0.04231715;-0.017643308;-0.11939656;-0.010249499;-0.16726935;-0.0051645646;0.022978846;-0.18766715;-0.02279174;-0.028218683;-0.22739498;0.009676877;-0.020988157;-0.1270275;-0.06050583;0.05671628;-0.10869411;0.03472338;0.016888121;0.11345365;-0.098192155;0.04412466;0.023927921;0.008233845;-0.04887777;0.020784177;-0.11581621;-0.16471823;-0.09472035;-0.042464677;0.09563622;-0.16846327;0.030798644;-0.12055558;-0.009470791;-0.09606728;-0.08287277;0.01554595;-0.20448941;-0.09318041;-0.04633018;0.044148166;-0.036254816;0.030128611;0.10902855;0.07591307;-0.036232762;-0.11394917;0.01667413;-0.027640326;0.020312162;0.10819445;-0.035526045;-0.008659268;0.020078879;0.0007759465;-0.06128857;-0.016049892;-0.07781343;-0.022522256;-0.13638392;0.0016200987;-0.058736473;-0.06860868;-0.0081427945;-0.0033024033;-0.15699112;0.024483113;-0.045012772;-0.10125813;-0.020833094;0.016221046;0.049332887;-0.09408984;-0.06322716;-0.14305264;-0.039961167;0.046727385;-0.12550472;0.082406834;-0.007251689;0.025527246;-0.08642325;0.12806998;-0.046517383;-0.047316097;-0.09105757;-0.05001118;0.03356898;-0.15344316;-0.08036738;-0.07994622;-0.058898862;-0.061009996;0.040268857;0.16147695;0.03853765;0.067454435;-0.08290508;-0.018781934;-0.10743435;-0.042786103;-0.06333039;0.0946768;-0.028959807;0.07753055;-0.052409973;0.16615486;0.005473967;0.003505467;0.030474;0.028447937;-0.07725994;0.024072228;-0.1309174;-0.07067458;-0.035742518;-0.11882226;-0.05124945;-0.08708954;-0.02033554;-0.23135063;-0.16118892;0.067373775;0.058180504;-0.035766225;-0.037558943;-0.15145658;-0.054193173;-0.014863744;0.040727966;-0.029792149;-0.03217275;0.057475727;-0.045493808;-0.062123254;0.072258696;-0.052384153;0.062080115;-0.10034271;-0.008731634;-0.07988688;-0.026790252;-0.08529124;0.15245922;-0.0005929649;-0.034075525;-0.1119287;0.027101737;-0.060988445;-0.00050699577;-0.14480156;-0.107946664;-0.03814994;-0.004573722;0.026624383;0.02830914;-0.088121064;0.031498224;-0.091727875;0.09255608;-0.018745959;-0.055999346;-0.009236192;-0.030407485;0.04063523;-0.052541856;-0.08604782;0.025505956;-0.11817244;-0.09813219;-0.13448861;-0.1129342;0.0724144;-0.04992132;-0.114893086;-0.012087534;-0.03788148;-0.026148092;-0.086599045;-0.13683611;-0.003757061;0.0011797413;-0.18769602;-0.016575327;-0.06147935;-0.11284261;0.0018031758;-0.013617073;-0.12057387;-0.011585735;-0.11430673;-0.037547715;-0.14543815;-0.07471953;-0.1539149;-0.020671828;0.035133652;-0.10382476;-0.08449185;-0.07015135;-0.025999565;-0.056316376;1.8382052e-06;-0.07556273;0.11689279;-0.04601952;-0.020611444;-0.037455216;-0.11800607;-0.09467452;-0.042593952;-0.010808154;0.034597013;0.05791834;0.012675126;-0.14099668;-0.027002173;0.052267894;0.023799593;-0.115786284;-0.049780082;0.01350293;-0.10423535;-0.030288585;-0.040308252;0.07044018;-0.14419432;-0.09052248;-0.05864026;-0.0656028;-0.066043116;0.02949472;-0.15770856;-0.12010453;0.010245258;-0.10125348;-0.06587512;0.0016464773;0.03484427;0.03611824;-0.020417413;0.030040773;-0.008487531;-0.076753005;-0.099228315;-0.033553276;-0.23501976;-0.033230487;-0.11195547;-0.07380142;-0.06781649;0.008560348;-0.061016157;0.0058234185;0.06051709;0.024456754;-0.101217024;0.061878815;-0.026710598;-0.08475846;-0.0011603301;-0.06415157;0.056869015;-0.27450162;-0.06180434;-0.093738385;-0.0037173403;-0.07170719;-0.04912856;-0.099112354;0.100726716;0.056155354;-0.062650286;-0.037066955;0.011735641;-0.059870012;-0.031955007;0.014190494;-0.043119844;0.00996329;0.12905304;0.0699437;-0.053919047;-0.14131133;-0.077193946;-0.0013848622;-0.13287868;-0.09619683;-0.040883;-0.04376569;0.022504088;-0.050128497;0.020003948;0.030945655;0.0091013815;0.048612677;0.022431768;0.041425735;-0.015780251;-0.068180546;0.03196753;0.09112565;0.0028813803;-0.008352453;-0.047094755;-0.13465865;-0.123722665;-0.06405425;0.10819538;0.011821993;-0.06826729;-0.024538593;0.012881261;-0.11064195;-0.032340523;0.06751839;0.15030679;-0.028529359;0.059520375;-0.11443174;-0.052011188;0.015862804;0.085035875;0.058927856;-0.06783863;-0.13957942;-0.10299918;0.04123371;-0.0025873967;0.0062859356;-0.051273093;0.02842207;0.03533365;-0.025164405;0.042443693;-0.058789458;0.014397533;-0.08939542;-0.03159669;-0.11392022;-0.117217444;0.049396805;0.027896676;0.006296946;0.07769946;-0.050674893;0.012266466;-0.06715009;-0.052514922;-0.08099573;0.0030638422;-0.09006172;-0.16415785;-0.065408185;-0.06383438;-0.07702711;-0.07152105;0.031448286;0.1555046;-0.18349724;-0.09852761;0.05008205;-0.023623912;-0.054174636;0.00327021;-0.03170717;0.06869834;-0.04820391;0.023417093;-0.0360067;-0.0978258;-0.06315734;-0.17791092;-0.07674969;0.023759808;-0.09070521;-0.10566791;-0.065720245;-0.026846567;-0.0070645614;0.18662405;-0.12671144;-0.020968817;0.02378534;-0.24510492;-0.09253048;-0.1288311;-0.08379367;0.023120336;-0.094531186;0.021235108;-0.05807964;0.044321634;0.12836769;-0.036407195;-0.11490362;0.1195916;-0.14155556;0.034239832;-0.01756961;-0.08489827;-0.0069202804;0.11367699;-0.14177321;-0.085319385;-0.069915175;-0.006306268;-0.020419741;0.09895748;0.05619465;-0.045678567;0.08699455;-0.049157392;-0.020213323;0.010591747;-0.06933111;-0.08133269;0.042159215;0.032063387;0.11211544;0.018387819;0.009907198;-0.042602513;0.023510594;-0.12787451;0.05083619;-0.06612316;-0.07678496;-0.06337097;-0.10606063;-0.12474548;0.039931286;0.042934455;-0.10996843;-0.05451267;-0.08737366;-0.13573775;0.030345002;-0.04087115;-0.04069926;-0.06753496;-0.0918042;-0.12903632;-0.06774338;0.009787001;-0.0950689;0.026567616;-0.091900386;0.04300038;0.15554021;0.057242308;0.0007469569;-0.16402133;-0.04425572;0.014656473;-0.01059312;-0.11580046;-0.08941739;-0.014318662;-0.053724322;-0.010761943;-0.034953523;-0.117241114;-0.06399474;-0.019115673;-0.03875433;-0.120840386;0.0052585145;-0.051532906;-0.08524991;0.0112115;-0.06416453;-0.10270846;-0.073152475;0.13825011;-0.029408542;0.0035042546;-0.13541934;-0.03139089;-0.09679079;-0.06899543;-0.06162938;-0.118818715;0.07308361;-0.1815296;-0.21921644;-0.02027433;-0.026337463;-0.065303594;0.020895742;0.02244229;0.020057296;-0.061901204;-0.0068408214;0.0065718694;-0.10449881;-0.12166277;0.06074983;0.03244882;-0.074136704;-0.022573356;0.047507156;-0.18471396;-0.1462482;-0.07389713;0.052656643;-0.049863335;-0.09858067;0.034001466;-0.09937401;-0.0020687163;-0.00019429301;-0.055411622;-0.08468569;-0.16544919;-0.15566233;0.05534271;0.16214646;-0.046796314;-0.008863835;-0.055964414;-0.11714667;-0.21300527;-0.027981043;-0.10246628;0.04802628;0.049656652;-0.029797234;-0.080963194;-0.09857927;0.041266207;-0.06401076;-0.060178984;-0.039947707;-0.14461254;0.012167872;0.0651408;0.067376934;-0.055304177;-0.061452884;0.053584468
0.14699739;-0.024210047;0.074170224;0.014417716;-0.10189166;0.05080182;-0.11616915;-0.18213475;-0.07930795;-0.076544695;-0.11194181;-0.021511184;0.033548493;-0.114699766;-0.043769855;-0.07841445;0.0014686778;0.12377859;0.014485443;-0.076610915;0.11212536;-0.033840388;0.05222553;0.03610376;-0.08502998;-0.034504194;-0.13787259;0.012252729;-0.06889819;0.18176137;0.025201933;0.11285448;-0.12716182;-0.043791782;0.017089617;-0.039434236;-0.13210353;0.0063858735;-0.052634332;-0.12085106;0.023884557;-0.03926747;-0.005074814;-0.014643439;-0.29129192;-0.077595495;-0.10651664;-0.14439678;0.07989326;0.03996987;-0.03973464;0.09342439;0.013672992;0.027088424;-0.0035749914;0.01457829;0.028506827;-0.014760289;-0.06862954;-0.0031999853;-0.08605041;-0.17267996;-0.09131651;-0.078561425;0.080311306;-0.19360049;-0.01722644;-0.13571155;-0.14028473;-0.0457277;0.0009983083;-0.09438018;-0.113602474;-0.039808664;-0.033603843;0.055283662;-0.014581119;-0.029825153;0.16115494;-0.064812906;-0.040326107;-0.085867666;0.06533201;-0.16912493;0.0039502075;0.022011613;0.017231507;-0.16883129;-0.1019602;0.032470033;-0.04497987;-0.015956497;0.033248667;0.024077587;-0.121839724;-0.0826268;-0.10005221;-0.1364349;-0.11373171;-0.014481786;-0.13710111;-0.03071419;-0.09831712;-0.010220105;-0.07019459;-0.11123803;0.0040174928;-0.07835921;-0.2072904;-0.02783774;-0.16134466;-0.08950879;-0.12408169;-0.028354669;0.018120047;0.036138337;0.022047209;0.095519945;-0.14077325;-0.074395455;-0.071761794;-0.044321787;-0.013025933;-0.08041102;-0.07166193;-0.1071698;-0.10767961;-0.12500694;0.031207316;0.1201235;0.01227356;-0.08723904;-0.101300314;-0.007513708;-0.057313327;-0.010616448;0.014205859;0.16947016;-0.06973674;-0.015667232;-0.050162673;0.16474369;-0.028116088;-0.06173229;-0.054079626;-0.08264623;-0.056184284;0.057956684;-0.0578995;0.030499402;-0.048638195;0.016067572;0.05086564;0.00516183;-0.013123007;-0.21793695;-0.03393239;-0.09227373;-0.09183886;-0.060874883;-0.090205014;-0.091103084;0.04396829;-0.15589543;0.015485639;-0.11445993;-0.030358268;-0.04986478;-0.009765838;-0.024582459;0.13043073;-0.008548964;-0.02536756;-0.06819239;-0.08149008;-0.026029468;-0.079908155;-0.013553209;0.08957724;0.023256898;-0.028088141;-0.096193835;-0.0620414;-0.047002327;-0.06674746;-0.116151005;0.025215544;0.046376795;-0.08276424;-0.032960128;-0.04619585;-0.016973397;-0.090065904;-0.15557854;0.015038528;-0.040918365;-0.032096624;-0.030229384;0.043272395;-0.0021388757;0.008981608;-0.100486785;-0.1125979;-0.12110903;-0.021403171;-0.118824884;-0.0028003205;0.086900905;0.06879165;-0.018267138;-0.03118586;-0.09780952;0.041841276;-0.11514907;-0.028348578;-0.12619123;-0.060349926;-0.18326855;-0.016377343;-0.02160927;-0.049145646;-0.06899669;0.038656667;-0.034893263;-0.09678139;-0.009088358;-0.028651284;-0.021988466;-0.084879465;-0.1125031;-0.16304445;-0.034331307;-0.04943771;-0.09727477;-0.07072558;0.0018240788;-0.005320516;-0.034230217;-0.013076195;0.02982207;0.10143401;-0.031391818;-0.02586336;-0.06434857;0.009853645;-0.110172175;0.015469154;-0.040172838;-0.023667695;-0.104803406;-0.17661162;-0.12254936;-0.027032731;0.0048547164;-0.06019571;-0.020333493;-0.0007782605;-0.109087154;-0.08692271;-0.120294854;0.01771104;-0.13029805;0.030466273;0.063277595;0.00029627467;0.036745537;-0.06478369;-0.05652195;-0.12399364;0.012589096;0.018135961;-0.007174863;0.057148345;-0.12542154;0.13180633;-0.02660315;-0.02908184;-0.012144459;0.021703288;-0.17807949;-0.007937001;-0.16782318;-0.06874967;-0.11488592;-0.006806524;0.014230204;-0.019800035;-0.05072073;-0.031220328;0.01452623;-0.14411551;-0.20146933;0.07148864;4.0557943e-06;-0.051159434;-0.011714397;-0.074751236;0.019476818;-0.3246819;-0.097811684;0.063681796;-0.0331735;-0.027723175;-0.014787644;-0.16742405;0.07796434;-0.06713479;-0.1022231;-0.04547091;-0.048674785;0.012726915;-0.061520007;-0.008515909;0.05756217;0.024769783;0.17004232;0.015886188;-0.13136901;-0.053454157;-0.081488185;0.01867133;-0.09673224;-0.01683178;-0.092158556;0.0031563384;0.004563839;-0.108121425;0.016055819;-0.080008924;0.023085963;0.09732246;0.017663382;-0.04293699;-0.080130465;0.029493945;0.16818789;-0.007854935;-0.04997152;0.0063987137;0.07416743;-0.019676277;-0.15702836;-0.10622523;0.080218315;-0.054678217;-0.124496154;-0.0048684087;0.023070874;0.03693988;-0.051517904;0.11454003;0.040256508;0.11571731;-0.02552634;-0.09946664;0.031009208;0.085210755;0.09180273;0.07119806;-0.06121615;-0.012919223;-0.053460848;0.12548044;-0.0941142;0.013474316;-0.011040905;0.05479653;0.037639715;-0.07289855;0.106238894;0.023759874;-0.11091063;-0.0332085;0.015799263;0.02693334;-0.013926147;0.00266593;-0.009800048;-0.05972021;-0.018453239;-0.13503471;-0.0863056;-0.00066469243;0.102735676;-0.14682405;-0.06400675;-0.1206136;-0.17276134;-0.00080965704;-0.01870864;-0.0010440835;-0.14819905;0.11384128;0.038408026;-0.1093501;-0.0015302825;0.046583097;-0.08192992;-0.02438136;0.032520793;-0.08812664;0.035425175;-0.08367134;0.031972602;-0.044860836;-0.14542823;-0.10997483;-0.10114082;0.02045796;-0.0054479823;-0.08681202;-0.0775904;-0.0019725484;-0.03325116;0.03545502;0.23233026;-0.09466709;-0.10580377;-0.041051727;-0.15817325;-0.07946435;-0.008238412;-0.10512658;-0.09046139;-0.13364258;0.037660133;-0.00876758;-0.0610934;0.038846478;0.03009085;-0.025892831;0.101837136;-0.10942055;0.007930606;-0.041622892;0.047711365;-0.1327662;0.017937439;-0.025204187;-0.04903073;-0.021594102;0.001278766;-0.09288377;-0.03846429;-0.031614732;-0.066159874;0.1566272;-0.011772703;-0.02072399;-0.008158668;-0.002243378;-0.071376435;0.015119091;-0.053241685;0.1329495;-0.026417973;-0.07831493;-0.07866384;-0.12553649;-0.045262937;-0.049509473;-0.034993473;0.009889816;-0.0071969274;-0.1182694;0.01570028;-0.014522356;-0.097053684;-0.08413428;-0.044820715;-0.19324487;-0.14252256;0.09422661;-0.0154490955;0.026879525;-0.08663375;-0.047106165;0.016461885;-0.03095763;-0.0946663;-0.10921111;-0.07726942;-0.0005898443;-0.095173314;0.17654686;-0.056805875;-0.019277014;-0.038953956;-0.055195406;0.017157786;0.0342795;-0.0045359735;-0.003837869;0.053669948;-0.059403576;-0.012208889;-0.0775745;-0.113176756;-0.048555028;0.033970274;0.0006704075;-0.00044485222;0.04872997;0.019257745;-0.07703827;-0.096141584;-0.012183672;-0.057065982;-0.115855016;0.15582818;-0.15500191;-0.017452048;-0.06107198;0.0582362;-0.008805345;-0.1359076;0.010651384;-0.0089794565;0.028931074;-0.18762815;-0.34346622;-0.07831874;0.0080177225;-0.04556336;-0.039355755;-0.0654883;-0.10825925;0.0045109564;-0.005993893;-0.05512383;-0.0019177293;-0.12330664;-0.019768985;0.106811576;-0.101270355;-0.111017175;0.0536691;-0.07050359;-0.0992478;-0.083332375;-0.018581137;-0.0677678;0.013812653;0.071999796;-0.06122855;-0.048355218;-0.13194329;-0.075246565;-0.066136494;-0.16178805;-0.08156482;-0.096711844;0.10649664;-0.098724544;-0.10363443;0.0072339815;-0.088937975;-0.16479826;0.016256014;-0.046408776;-0.0059974296;0.10701302;-0.05479878;-0.09701102;-0.054502603;0.040038466;-0.09111682;-0.09600392;-0.15411681;-0.21571277;-0.11308127;0.07107242;0.015192261;-0.12605871;-0.066168465;0.029519986
0.14382471;-0.07097025;0.06916849;-0.04449617;-0.13757753;-0.054102786;-0.12917832;-0.17566662;-0.05978476;-0.09903737;0.029253628;-0.09436218;-0.0038699845;-0.02513355;-0.11071901;-0.112028316;0.019192774;0.048350044;-0.032789443;0.020440038;0.040804666;-0.112383895;-0.06449556;-0.091256425;0.018598184;-0.093108326;-0.060542796;-0.021181822;0.03412099;0.059661034;-0.014247486;0.056912877;0.0146670705;-0.035726495;-0.033146106;-0.04901545;0.021245815;-0.08873692;-0.097232416;-0.0973604;0.0048925425;-0.14205112;0.023897704;0.092574745;-0.26647323;-0.0047121537;-0.086955756;-0.13609654;-0.019245654;0.07466028;0.018792784;0.11090387;-0.13408655;0.11473537;-0.11945216;-0.009109031;0.039386377;-0.049694654;0.0052499524;-0.067314506;-0.042149737;-0.14373606;-0.00091742614;-0.15892048;0.114949085;-0.13528696;-0.05459268;-0.17317833;-0.024297645;-0.09046712;-0.04410205;-0.05014726;-0.11580015;-0.032515664;0.06908819;0.04968115;-0.078148745;-0.032965913;0.17269282;0.07847414;-0.1661471;-0.0123546375;0.110099986;-0.10465843;0.023678308;-0.031649563;-0.002279002;-0.061049957;-0.11032665;-0.021877281;-0.055646446;-0.14612958;-0.09671257;0.045216274;-0.10882637;-0.118230134;-0.045965713;-0.06459197;-0.037804794;-0.09681487;-0.04315463;-0.0685112;-0.004588858;0.024426308;0.034709446;-0.04539134;0.09470299;-0.062936716;-0.06985469;-0.11682033;-0.16134226;-0.10324183;-0.05382441;-0.00224241;-0.004954291;-0.02138893;-0.11560921;0.14104734;-0.016996566;0.019137872;-0.05416805;-0.04630107;-0.092976235;-0.017119022;-0.008407651;-0.11872913;-0.06700218;-0.050907012;-0.05684942;0.020306898;-0.10976417;0.045045458;-0.050279886;-0.016742848;-0.12918782;-0.06288604;0.06931285;0.11646254;-0.08702862;-0.034423385;0.015077668;0.07304221;-0.09827432;-0.09867204;0.050391573;0.021500364;0.036278985;-0.034147926;-0.1258217;-0.04291284;0.027365735;-0.056076385;0.015119144;0.029692149;-0.08655654;-0.21421257;-0.07624537;0.07419783;-0.045986176;0.030852897;0.054734908;-0.11126132;-0.091694035;-0.081846856;-0.08371606;-0.120432116;-0.0033419433;-0.003099039;-0.08081832;-0.15523829;0.10138985;0.038985576;0.028459566;-0.059910454;-0.14684556;0.0007380594;-0.12663363;0.04199761;0.1097815;0.022415992;-0.059087418;-0.10663974;-0.06800358;-0.0069660246;-0.0035455348;-0.08661886;-0.08421852;0.0642351;-0.046077628;0.017394342;-0.012136244;-0.046697274;-0.06144761;-0.054353278;-0.052358463;-0.04639439;-0.015516542;-0.10309983;0.035882305;0.06361948;-0.10207971;-0.027359383;0.045413617;-0.12821591;-0.054424215;0.0045542847;0.0022163712;0.08389929;-0.020694545;-0.08301374;0.029003523;-0.017731534;0.008998604;-0.084417194;-0.07533156;-0.022094699;-0.109831706;-0.056936063;-0.028673852;-0.040541295;-0.08364936;-0.11488722;0.057053443;-0.050776012;0.044894587;-0.107357465;-0.012292489;-0.12177987;0.023521556;-0.14359458;-0.069678724;-0.10356616;0.015284611;-0.037109334;-0.019457282;-0.06679161;-0.07153069;-0.09657736;-0.048713185;0.06967951;-0.0059506735;-0.0019213654;-0.11329273;-0.11776361;-0.021994606;-0.06788163;-0.08926771;-0.083367586;0.019339979;-0.04848072;-0.058339387;-0.10554354;0.020674985;-0.028206132;-0.0977468;-0.096800804;-0.08702227;-0.14140834;-0.015417111;0.019964335;0.05295304;-0.16302735;-0.062801115;-0.031804357;-0.10364737;-0.06895317;0.06884904;-0.12239218;-0.085926145;0.027375657;0.010608515;-0.06010646;-0.021837637;-0.044358745;0.14094654;-0.052133467;0.045444094;0.044710707;-0.014397413;-0.16663034;-0.06135164;-0.20965084;-0.0060467077;-0.054740716;-0.045923837;0.029067408;0.036852;-0.048941884;-0.020101955;-0.057389453;-0.047389586;-0.14553562;0.041166753;0.0051716343;0.04509039;0.103975885;0.012072429;0.05267976;-0.29701185;0.028653245;-0.038149808;-0.064511776;0.04248411;-0.0027694022;-0.21448801;0.026157726;0.03762767;-0.01196567;0.03524295;-0.044735596;-0.004541656;-0.029521465;0.024361579;0.015989266;0.01944321;0.14632505;0.009968389;-0.055351514;-0.16129827;-0.07535481;-0.08157684;-0.16380231;-0.13651831;0.022184523;0.016493723;-0.07343092;-0.102436215;-0.11678513;0.030695844;-0.077206224;0.15522338;0.029485863;-0.01779735;-0.05555641;0.003592822;0.047127508;0.08897636;-0.07676934;0.0027437976;-0.0039660907;-0.017531985;-0.062839665;-0.05747198;-0.024512835;0.12719479;-0.11663441;-0.07001957;-0.044152472;-0.1192321;-0.0207578;-0.029073335;0.13543046;0.002737748;-0.064554185;-0.08648858;-0.039163183;0.054929;0.11076769;0.154411;-0.10174631;-0.103816085;-0.06614379;0.07754542;-0.12230917;-0.053318933;-0.0726054;-0.07004953;-0.018445322;0.025491724;0.058838245;-0.023925072;-0.071152;-0.048987526;-0.11787165;0.0012583347;-0.039795488;-0.081411585;-0.024935506;0.052887898;0.05246766;-0.002498937;0.02593298;0.00077512185;-0.029784905;0.01704108;-0.042136807;-0.06247207;-0.11168698;-0.07502048;-0.035358828;-0.11899524;-0.0927205;-0.046534464;0.080626816;-0.16472451;-0.08709661;0.115611725;-0.045510627;-0.02336617;-0.054327242;0.030836286;0.031169865;-0.040222697;0.07228539;-0.02019956;-0.104871325;-0.005974536;-0.22250073;0.006989513;-0.095169336;0.00781862;-0.10733536;-0.032971825;-0.036422435;0.103646874;0.12997702;-0.14395322;0.015152321;0.0959219;-0.13821498;-0.019761017;-0.015825687;-0.011279353;-0.03670298;-0.007267114;-0.08821518;-0.01661257;0.07025075;0.038732603;0.044769317;-0.11661729;0.002998509;-0.11132684;-0.0678788;0.06142379;-0.12088581;-0.06762251;0.05331476;-0.07029995;-0.061677165;-0.070833355;-0.13081552;-0.059859596;0.084989704;0.03262592;-0.015182593;0.1519711;-0.08667255;-0.02701227;0.0020069333;-0.070395544;-0.09166853;0.014349021;-0.04767446;0.041144736;-0.08307165;0.0012835191;-0.014468593;0.0129682;-0.10054345;0.007031205;-0.10775938;0.04881864;-0.031800754;0.009076738;-0.034614235;-0.08103187;0.0022868898;-0.14351618;-0.11811773;-0.10592963;-0.052067857;0.122190915;-0.079596885;0.02002716;0.01077745;-0.14067838;0.015542174;-0.0040014796;-0.09969035;0.03836251;-0.0030963894;0.04291023;-0.08238749;0.15165012;-0.03393695;-0.073673844;-0.086596176;0.09158004;-0.079759784;-0.0073245023;0.008466752;-0.012862251;0.0918544;0.039585605;-0.030114349;-0.12205663;-0.09774652;0.021963874;0.053799316;-0.09006811;-0.0015967333;-0.06813391;0.026474804;-0.03427505;0.012908196;0.006109619;-0.045400158;-0.1897658;0.067198806;-0.15662193;0.023962652;-0.060071528;0.0003090123;-0.047009803;-0.11299291;-0.0904413;-0.069470204;0.12707704;-0.16442342;-0.3424618;-0.06338277;0.0063700587;-0.03592385;0.056124337;-0.109143354;-2.8749098e-05;0.032728083;-0.004464061;-0.07483936;-0.05174109;-0.002912883;-0.021687986;0.040626302;-0.12139795;0.03225696;-0.059186872;-0.124410786;-0.1014831;-0.0532565;-0.07108116;-0.009274106;-0.012606406;0.04959946;-0.017602243;0.0007862824;0.005703773;0.03217944;-0.12599616;-0.099937536;-0.08013597;-0.035026334;0.124927774;-0.03274717;-0.09122424;-0.035618402;0.045020048;-0.21489435;-0.06931255;-0.06770219;-0.07066637;-0.0158043;-0.079100974;-0.057918612;-0.08115726;0.008933301;-0.015392912;-0.11907803;-0.07072139;-0.08298179;-0.1274168;0.02057716;-0.018367175;-0.11903492;-0.098606244;0.09619463
0.0069224825;-0.094254814;0.14251193;0.043634243;-0.1824192;-0.095406644;-0.049484912;-0.14497465;-0.0066562365;-0.052906543;-0.10848566;0.03785425;-0.07612773;-0.029905073;0.002583222;-0.072244324;0.028183676;0.10100623;-0.05234609;0.008170041;0.08917417;-0.015259595;-0.0011858643;-0.0819471;-0.06891233;-0.08730402;-0.11405566;-0.050908953;0.0005701675;0.17194983;-0.0016509271;0.16884497;-0.07446488;-0.08436755;-0.030417385;-0.075017534;0.03395187;-0.052833453;-0.10738576;-0.029053714;-0.049939364;-0.13898389;-0.05250164;0.013806164;-0.14033306;-0.025227074;-0.029171748;-0.021661742;-0.05663977;0.014909072;0.0031007982;0.038020045;-0.06288086;0.013172716;-0.07980589;0.06985907;-0.00830941;-0.030425405;-0.12567277;-0.09106416;-0.12142311;-0.22439517;-0.09899308;-0.117858164;0.09359391;-0.22979572;-0.0133352205;-0.120578304;-0.08194341;-0.035795033;0.011039462;-0.057248887;-0.051972765;-0.028564388;0.023952939;0.048085503;0.0031964243;-0.09334882;0.12687299;0.045258936;-0.16470659;-0.0061913654;0.025880672;-0.06958844;0.0670058;0.0011667015;-0.1273459;-0.12359732;-0.087734155;-0.008553451;0.0074148932;-0.15479034;-0.06659115;-0.0257242;-0.075251855;-0.1404259;-0.06967711;-0.056073353;-0.09692098;-0.09505326;-0.035758995;-0.05715395;0.008732672;0.037680533;0.04474943;-0.02459482;0.08892078;-0.059457935;-0.17921709;-0.15195256;-0.048571687;-0.089870475;-0.048014134;-0.03486687;-0.081473164;-0.042510387;0.0101745045;-0.020070381;-0.031169351;-0.07680474;0.03413416;-0.027582759;0.06836424;-0.050710805;0.04087134;-0.10547747;0.06898201;0.006049748;-0.054181784;0.042729378;-0.099017754;-0.03938882;-0.012760605;-0.007166294;-0.13743575;-0.11773124;0.031058365;0.16203173;-0.06656849;-0.089693576;-0.07829366;0.10429015;-0.12221899;-0.06421056;-0.08782256;0.005594939;-0.005875479;-0.019932043;-0.12807892;0.020448698;-0.06943954;-0.07655849;-0.024584023;-0.019014135;-0.062004562;-0.09672427;-0.0713262;0.045310885;0.055522256;-0.05110327;0.011079934;-0.06026551;-0.063146755;-0.133862;-0.110647514;0.01378845;0.026477154;-0.0034779098;-0.11418643;-0.033801552;0.15011927;-0.03236747;-0.03543348;-0.055481266;-0.11703984;-0.012029683;-0.06488219;0.06536817;0.08698732;-0.08465356;0.0732217;-0.1135525;-0.028107312;0.05026688;-0.001792765;-0.14511064;-0.062196467;-0.07164482;-0.0059628054;-0.0748496;-0.053583987;0.032006294;-0.08461482;-0.029883279;-0.045684565;-0.12164501;0.05698571;-0.07577286;-0.0027936527;-0.07515807;-0.05011225;-0.0957779;-0.09372507;-0.02048079;-0.11552096;-0.13011111;-0.05317643;0.023901146;0.079785526;-0.09653823;-0.12964824;0.036815513;-0.037192646;-0.11540708;-0.08233339;0.004639805;0.010256555;-0.019546457;-0.042776037;-0.11185727;-0.052323572;-0.12397481;0.030879756;-0.047606595;-0.059429217;-0.054640196;0.021525038;-0.1518686;-0.01785162;-0.06935765;-0.110295765;-0.061262522;-0.031693146;-0.114839405;0.009137963;0.0020971596;0.018370224;0.010537659;-0.0060651186;0.056360517;0.003796269;-0.1325362;-0.014223886;-0.088500895;-0.08868315;0.002372162;-0.138474;-0.0041676527;0.0323097;-0.021980695;-0.16411546;0.0094915535;0.0752394;0.073096074;-0.08034104;-0.11450989;-0.015173913;0.00013883912;-0.0926257;-0.027539236;-0.091350295;-0.090897955;-0.072241396;-0.0070895916;0.019239476;-0.06686785;0.05089321;-0.124007106;-0.10160333;-0.009945713;-0.001318613;-0.118798114;-0.08514485;0.029828526;0.069886975;-0.06865165;-0.030803291;-0.08887973;-0.050265893;-0.18791012;0.020129867;-0.25048104;-0.11758628;-0.060448334;-0.0033484218;0.041700225;0.010734175;-0.07772361;0.027235089;-0.03930225;-0.065286495;-0.14634417;-0.040638775;0.03939935;0.03481874;-0.033970237;-0.013657129;0.12270633;-0.2425001;0.028393889;0.059078984;0.010276401;-0.042048845;-0.1255677;-0.19954352;-0.0034120847;-0.052156962;-0.12131692;0.04093823;0.061121266;-0.023789616;0.0006818181;-0.02115987;-0.075146005;0.059884116;0.16316812;0.09361059;-0.08456053;-0.0027281367;0.024496527;-0.06472113;-0.16774592;-0.118897684;0.036439806;0.057740495;0.04738353;0.012990878;-0.008470965;-0.025276648;-0.017158499;0.13611662;0.023315325;-0.05567353;0.051648024;0.020292072;0.0024012504;-0.09947651;-0.056758948;-0.13105199;-0.11044171;-0.051867343;-0.10861404;-0.04589344;-0.020326579;0.107896954;-0.17322375;0.020390997;-0.08233261;-0.0067765005;-0.02954584;-0.0025644226;0.11476717;0.11110078;0.018072685;0.0075261584;-0.07957195;0.05433148;0.108578525;0.13232544;-0.03976891;-0.056960143;-0.0039574304;0.08291501;0.03392114;0.057640567;0.04974637;-0.03038872;0.039923195;-0.05781578;0.0865496;-0.009919346;0.0227414;-0.015230095;-0.09031998;0.05991212;-0.06384896;0.024730701;0.0020882848;0.021310091;-0.0144299725;-0.060043294;-0.10851535;0.08178673;0.021932473;0.011720677;-0.05212642;-0.1516515;-0.08227345;0.0060037575;0.016951045;-0.0392117;-0.14534406;-0.021596888;0.07660606;-0.11885473;-0.0724755;0.08322287;-0.16507654;0.009712676;-0.06756371;-0.063203126;0.013417416;0.034047265;-0.0016808178;-0.09654189;-0.017238582;-0.102258004;-0.095562585;0.025030617;-0.0010715944;-0.045855727;-0.03376817;-0.10915329;-0.0035712735;0.07615377;0.15537886;-0.034627248;-0.120289125;-0.004188942;-0.23749812;0.02803418;-0.17011192;-0.09776315;0.064352706;-0.13182352;-0.037984584;0.0076139527;-0.088763066;0.070428595;0.04886477;-0.1654696;0.10094294;-0.07572919;0.012679626;0.04411188;-0.1033041;-0.11926392;0.09855618;-0.096296236;-0.04139604;-0.015024933;-0.017202275;-0.035092823;0.06743369;-0.08529867;-0.015336232;0.1136536;0.005415245;-0.08022849;0.052697957;0.031154344;-0.059618633;-0.081301995;-0.03857866;0.07305292;-0.074242495;0.037208647;0.0005001694;-0.09694017;-0.09076371;-0.090825014;-0.13487554;-0.04390607;-0.07336076;-0.029555006;-0.10249874;-0.0051907967;-0.06755777;-0.0462754;-0.011443056;-0.094617106;-0.19092526;0.051791105;-0.088409446;-0.059782404;0.038367245;0.00010134113;0.01485999;-0.07238031;-0.08641553;0.030420877;0.039241534;0.024005866;0.031554073;0.059212003;-0.022048065;-0.15195973;-0.111669786;0.09996003;-0.08188778;-0.096123345;0.0218405;0.0108222375;0.08972276;0.028381592;0.0074250097;0.0001322226;-0.11830014;-0.060438916;-0.05178066;-0.03695114;0.03256026;0.073901825;0.044356693;-0.0143822115;-0.04215833;-0.09626277;-0.0061701545;-0.15220942;0.103802755;-0.06592141;-0.0024934616;-0.016434483;0.104012735;-0.007952186;0.008947975;-0.092481956;-0.10214824;0.04460345;-0.07495987;-0.26202008;-0.12683488;-0.077657476;-0.11795772;0.018768938;-0.089809805;-0.008641018;-0.0043432796;-0.021178398;0.070188686;-0.027452698;0.004021663;0.10518499;-0.03360274;0.013318655;-0.03991688;0.083748475;-0.12424777;-0.11706882;-0.14501682;0.022693153;-0.0075012445;0.0035860382;-0.00619506;-0.120578796;-0.11398306;-0.013752244;-0.08350551;-0.004867546;-0.105884776;-0.12893716;0.055440772;0.15834957;-0.10684191;-0.059941452;-0.103528574;-0.053803537;-0.13465278;-0.11908157;-0.11293555;0.035991147;0.05435143;-0.104232825;-0.04739583;0.008669948;-0.03378164;-0.052250504;-0.075213075;-0.1334654;-0.22093774;-0.041937973;0.115251295;0.04327053;-0.119883716;-0.08368691;0.07183677
0.09447131;0.014123149;0.026969956;-0.032060187;-0.1352098;-0.0639295;-0.117486835;-0.18807301;-0.024814952;-0.02626463;-0.116456375;-0.043164123;0.05011294;-0.07018184;-0.06413835;-0.0855904;-0.007494413;0.056391634;0.010233486;-0.07533603;0.018984485;-0.13746907;0.0070838556;-0.018181894;-0.034589067;-0.042636003;-0.09751364;-0.077214204;-0.008576592;0.14225225;-0.012842861;0.028610716;0.009946318;-0.038500194;-0.13863088;-0.15753163;0.040679555;-0.023920318;-0.09513885;-0.09807565;-0.08839529;-0.14526634;0.06300313;0.09671722;-0.17134796;0.0013212671;-0.07147;-0.031253543;0.036683243;-0.052992757;0.010753848;-0.043376256;-0.0774837;0.03140371;-0.13538451;0.093779296;0.01866908;0.009307544;-0.079512656;-0.15937316;-0.1171047;-0.107581615;-0.07665755;-0.1471894;0.0064686555;-0.18872547;-0.013202715;-0.17295124;-0.0039002148;-0.117557056;-0.077097654;-0.061649762;-0.1719245;-0.09260212;-0.021336168;-0.013044016;-0.062367857;-0.00065801456;0.17038172;0.11646933;-0.17464224;-0.0007021203;0.12063829;-0.028339457;0.053575393;0.052699838;0.021676593;-0.042631645;0.024669303;0.013974359;0.020755969;-0.016066028;-0.04357756;0.057863828;-0.1640957;-0.15544552;-0.10412139;0.021459319;-0.008271521;-0.056351963;-0.14065795;0.019576838;-0.0019591171;-0.10295443;-0.02951025;-0.065516405;0.05259232;-0.08110851;-0.1828703;-0.057245288;-0.03654784;0.02945895;-0.13532302;0.014321457;0.0009699153;-0.0407812;-0.09604817;0.12167799;-0.07714987;-0.08533671;-0.024442287;-0.001430873;0.04468975;0.0028295452;0.03283669;-0.11550555;-0.016824018;-0.08965177;-0.07053513;0.11175948;-0.018254608;0.04183401;-0.14074701;-0.088257276;-0.12812841;0.007182748;-0.04866339;0.084068134;-0.1100543;-0.060594626;-0.1248914;0.04210568;-0.055535972;-0.11207433;0.058603507;0.029280676;0.08532958;0.047396217;0.004455225;-0.028827107;-0.10294416;-0.080662414;0.047468532;0.007916202;-0.00037444104;-0.23607296;-0.12804788;0.08060086;-0.023207178;-0.07485543;-0.06231856;-0.08937756;0.0620834;-0.045539916;-0.122146696;-0.018347314;-0.012240748;0.06689237;-0.08039844;-0.0532322;0.053553425;-0.06476607;-0.08614239;-0.077257246;-0.13576266;0.0026876219;-0.015948886;-0.018502912;0.017143268;-0.10001312;0.04556332;-0.13535307;-0.05716363;0.093447834;-0.03499129;-0.0023120942;-0.016864533;-0.09875757;-0.08707059;-0.0014076297;-0.0917223;0.007371608;0.014093031;-0.04098165;-0.056348186;-0.05931664;-0.04158755;-0.12147103;-0.08285594;0.07323528;0.005129641;-0.0785908;-0.016625097;-0.08676937;-0.08671577;-0.10966511;-0.12486375;0.06585577;0.042234473;-0.08517748;-0.084541194;-0.04684118;0.029311858;-0.009409253;-0.05659423;0.031037137;-0.107212946;-0.037049145;-0.07988951;-0.12061919;-0.12988909;-0.05885861;-0.0933576;-0.071346425;-0.109869316;-0.085881814;0.07664331;-0.008790978;-0.1129074;-0.055957124;-0.12872608;0.00048402912;0.012968393;-0.109389655;-0.05925279;-0.030680805;-0.080105565;0.0023211762;-0.03368963;0.15200639;-0.030410908;-0.12227448;-0.14888047;-0.10492696;-0.014356746;-0.0151503505;-0.15002237;-0.03298128;-0.042479243;-0.09411051;-0.07540174;-0.022848979;-0.021743935;0.036496766;-0.14832734;0.0109664695;-0.012899905;-0.14473352;-0.047671918;-0.10256907;-0.07519545;-0.019137453;-0.036170576;0.09295344;0.00014631497;-0.023230115;-0.0040876903;-0.036684204;-0.14610845;-0.033166103;-0.14379428;-0.15336958;-0.053185076;-0.098946325;-0.003112853;-0.02329205;0.0553389;0.031375084;-0.1206154;-0.14813031;0.027460027;-0.17061141;-0.052390747;-0.13692445;0.021076256;-0.015004822;-0.08237135;-0.11446712;0.013890007;-0.04028037;-0.08048367;-0.10982108;0.08900647;-0.052956842;-0.07835397;0.020490399;-0.063913666;0.027560512;-0.21522397;0.028061844;-0.059520364;-0.031237574;0.01243667;-0.10603265;-0.124499075;0.023261733;-0.053345565;-0.080421984;-0.10914293;0.008443825;0.058136173;0.0002565764;-0.086016275;-0.007958889;-0.005663153;0.029070063;-0.054287296;-0.096477844;-0.11964229;0.019256938;-0.09727723;-0.09104507;-0.093724005;-0.014066239;0.019968208;0.0077042817;-0.09306404;0.028763931;0.001051263;-0.0023718036;0.086712725;0.072374545;0.008511016;-0.0039164983;-0.08494687;-0.01768315;-0.043550003;-0.034148384;-0.04757266;-0.111450695;-0.14022931;-0.04229913;0.01914346;-0.007011987;0.08345771;-0.11761812;-0.022086905;-0.059512362;-0.10322805;0.054312687;0.03420352;0.011565663;0.065454595;-0.07599649;-0.09525086;-0.105936155;0.10470669;0.11516991;0.023334427;-0.087229565;-0.12199261;-0.044363257;0.08934544;-0.0037065204;0.029475076;-0.00033815167;0.037887044;-0.04428666;-0.034255248;0.03335766;-0.12156224;-0.003121797;-0.17369427;-0.053817656;-0.060485993;-0.124523826;-0.07286368;0.021096343;-0.07601899;-0.0823837;-0.1041607;-0.001509504;0.026219819;-0.001224665;-0.102074474;-0.09071141;-0.09393076;-0.026556248;-0.041572962;-0.003133556;-0.11556409;-0.06699439;-0.033134423;0.024101762;-0.03348031;2.555388e-05;0.061569944;-0.049342863;-0.0010906335;0.00788402;-0.072403975;-0.010646365;0.027705569;-0.01608402;-0.0760742;-0.09707248;-0.04201012;-0.24129903;0.0472289;-0.090930305;-0.020712115;0.03655426;0.0030775175;0.025377933;0.055365708;0.20525248;-0.13003092;-0.05963494;-0.038521927;-0.15789491;-0.03276138;-0.18588154;-0.06470625;0.05030318;-0.009667024;0.026443355;0.064369045;0.00091351033;0.051585943;0.02178622;-0.12066876;0.13317013;-0.123844735;0.030557748;0.07125263;-0.015026004;-0.033550896;0.07977834;-0.037984446;-0.12011589;-0.06657457;-0.007854376;0.017170995;0.025314886;-0.010747121;-0.112936065;0.17228656;-0.064786196;-0.11977593;0.07876237;-0.076789804;-0.008148909;-0.06820345;0.0052404213;0.06650494;0.015607943;0.020862684;0.13743271;-0.012972249;-0.050568167;0.044564646;-0.065619595;-0.061095346;-0.040284198;-0.07118368;-0.12522617;-0.09857691;0.021949032;-0.121318944;-0.06541487;-0.059081063;-0.061134744;0.038627245;0.0407149;0.03893649;-0.06546691;0.022686869;-0.05072039;-0.075455636;0.044512108;-0.019583879;-0.10268224;-0.053955164;-0.0006477484;0.048893847;-0.004539827;-0.06616932;-0.10925041;-0.04839491;-0.063223064;0.022181273;0.13979866;0.09280433;0.12534739;-0.030234717;-0.026505465;-0.024778647;0.024613634;0.03334572;-0.06865445;-0.06520803;0.03409063;-0.06781941;-0.10913964;0.01236189;-0.08217686;-0.008728804;-0.052580886;-0.17386055;0.04575768;-0.06057643;0.013351777;-0.124455854;0.021103896;0.053026967;-0.020377146;-0.043530792;-0.08629749;0.18790033;-0.07195127;-0.23806857;-0.07057263;-0.019337045;-0.1521208;0.10861059;-0.107947655;-0.11962116;-0.025092881;-0.06606875;-0.03288398;0.020161899;-0.11373582;0.06745204;0.0016818859;-0.04920017;0.04559209;-0.07707216;-0.14983785;-0.03933105;-0.06971199;0.0266146;-0.008638206;-0.022608077;0.0063618124;-0.114567466;-0.10742904;-0.08347093;-0.059714954;-0.048030794;-0.043194152;-0.18397033;0.01146076;0.07901861;0.042878095;-0.085698076;-0.09409057;0.023448935;-0.14186698;0.04850289;-0.009007069;0.019594492;-0.018265218;0.0027732719;-0.07290198;-0.012375176;-0.04484194;-0.014448966;-0.015403664;-0.01848672;-0.06997399;-0.026504315;0.06923387;0.006528746;-0.03414141;0.06100088;0.036880102
0.11019148;-0.01650396;0.0890093;0.011937291;-0.13819554;-0.092699856;-0.01875093;-0.12757549;-0.010354847;-0.015697297;0.014421453;-0.06318021;-0.018998392;0.013192516;-0.03315302;0.018748872;0.12487132;0.025719035;0.00460679;-0.0493489;0.053626616;-0.08694017;-0.050140448;-0.07270579;0.05949037;-0.12505305;-0.019232364;0.015221733;-0.016526612;0.013320469;0.0032668514;0.013251352;-0.11784456;-0.17657958;-0.018713139;-0.14847636;0.057500854;-0.05744398;-0.0875241;-0.005388695;-0.08530038;-0.15379827;0.058078934;0.08667933;-0.20142755;-0.06538408;-0.09806891;-0.045142543;0.047357265;0.0934659;-0.052881934;0.017780352;0.013403754;0.0401673;-0.01390852;0.019014042;0.038933154;-0.07638896;-0.008002365;-0.14076969;0.041742515;-0.16328305;-0.09429333;-0.033493698;0.0671032;-0.23187625;0.032916423;-0.16755024;-0.030427657;-0.122164994;-0.009545998;-0.102611594;-0.060008142;-0.10086541;0.012929525;-0.08501038;-0.052607093;0.04607655;0.07822283;0.0058773616;-0.060988527;-0.0984433;0.0149274925;-0.14767176;0.079811275;0.07677416;-0.08362805;-0.036273688;-0.006721662;-0.022189874;-0.048582945;-0.042779878;-0.09364801;0.04742178;-0.119791344;-0.16410773;-0.0077543487;0.00043529522;-0.1211435;-0.10464277;-0.10789283;-0.100988224;-0.09789205;-0.015690539;-0.03331744;0.04532923;0.044018965;-0.010354927;-0.17999423;-0.005495961;-0.18571366;-0.082469255;-0.09518934;0.08052305;-0.030026883;0.073053375;-0.10852491;0.056574352;-0.10923989;0.027021773;-0.08868293;-0.08537928;0.027894069;-0.06931291;0.05303602;-0.016412094;-0.018349452;-0.047134154;-0.1021717;0.0574253;-0.027686203;0.044255823;-0.07375532;-0.0486337;-0.052720495;-0.114142135;-0.031626403;0.07633562;-0.1120283;-0.044073224;-0.011811898;0.13031098;-0.0740504;-0.109896004;0.025306324;-0.09978638;0.04624153;0.013925521;-0.08414077;-0.055213455;-0.11236334;0.017356077;0.010354478;-0.051714506;-0.042479765;-0.13870761;-0.105151154;0.06696504;-0.08008681;0.025370773;-0.04224516;-0.086670406;-0.030469524;-0.1455235;-0.09351593;0.03354311;-0.02832887;-0.05047006;-0.08029088;-0.044513125;0.15122688;0.048845306;-0.022188837;0.02256578;-0.07345258;0.05703148;0.01576663;0.056169897;0.1282674;-0.050624937;0.070205085;-0.040781815;-0.07331321;0.01620293;-0.082381755;-0.031831298;-0.011795778;0.015915163;-0.10786037;-0.08564722;-0.017954107;-0.022674147;-0.04866878;-0.16164781;-0.09953569;-0.048239205;0.014778047;-0.055337645;-0.09513723;-0.02650286;-0.027648373;0.0031522044;-0.07446707;0.03377846;-0.03502277;-0.030406877;-0.0118498495;-0.008505373;0.14241762;0.017835803;-0.110932685;-0.050841432;-0.05593642;-0.07883824;-0.05084975;-0.002261508;-0.10037072;-0.016536243;-0.07219842;-0.06295404;-0.17505375;-0.014632615;0.054566342;-0.09078256;-0.05254696;-0.012598554;-0.04464934;-0.1649743;0.037251845;-0.14828022;-0.05099037;-0.035419933;-0.060496826;-0.06651848;-0.09175164;0.06951267;0.056456063;-0.06722962;-0.000602676;0.030540656;-0.039475057;-0.071722664;-0.1391688;0.011160335;-0.023301978;-0.14179613;-0.12218253;-0.07885582;0.052171696;-0.03094297;-0.13433242;-0.13739389;0.024198992;0.08804041;-0.14657328;-0.013878225;-0.10216241;-0.03803294;-0.07421092;-0.090953946;-0.09071539;-0.062876925;-0.103675134;-0.010570353;-0.11318814;-0.08527567;-0.057098906;-0.14810085;-0.13083534;0.065431364;-0.12284007;-0.16557631;0.0015543889;-0.061226193;-0.022834657;-0.020511389;-0.006018359;-0.0785421;-0.099902414;-0.059093196;0.032081906;-0.19030459;-0.07576474;-0.062356874;-0.09406402;-0.06825342;-0.06965362;0.020462245;0.027959976;-0.052122593;-0.046437956;-0.12041908;-0.052830223;-0.11535103;0.07614844;0.017802496;0.03707519;0.002801088;-0.30696613;-0.11662474;-0.010039551;-0.08161822;-0.06103762;-0.053255677;-0.13071004;0.077734105;-0.047427125;0.009488512;-0.035216633;-0.063831836;-0.08983556;0.009722048;-0.02483164;-0.0037153633;0.094897054;0.15861382;0.0895295;-0.049102552;-0.024466876;-0.08845885;-0.03598367;-0.2119635;-0.10278579;-0.067619786;-0.024385503;0.06013158;0.030378772;0.01680295;0.05470306;-0.009172308;0.1845041;0.020806093;0.014932333;-0.004404318;0.024838228;0.022402376;-0.04513065;0.07316539;-0.024742782;-0.11533385;-0.0247754;-0.023046717;-0.085325606;0.07749487;-0.015605647;-0.18791443;-0.033549853;0.024326788;-0.038784605;0.024442727;0.0012613202;0.055061635;0.085231885;0.04687161;0.015938288;-0.067940734;0.042129714;0.014434379;0.015320817;-0.010122216;-0.119127415;-0.11190906;0.08723701;-0.074148975;-0.08555683;0.055368304;0.018083202;0.0027674825;-0.12504552;0.088998534;-0.019428795;-0.13129836;-0.092072934;-0.070693925;-0.039844967;-0.13356467;0.06198255;-0.06944565;0.033895217;-0.06310203;-0.008003861;-0.10259421;0.000101835525;-0.051737443;-0.07444192;-0.084912136;-0.08527271;-0.08456023;-0.049591422;0.05015923;-0.048271492;-0.20046887;-0.022931056;0.09555833;-0.15740511;0.034207076;0.06469863;-0.086380556;0.018391825;-0.068702035;0.035184678;-0.056117874;-0.055382702;0.04992502;0.04374004;-0.014952788;0.0006714723;-0.11849495;-0.03478009;-0.07988045;-0.0382955;-0.062794976;-0.10690813;-0.108230144;0.05593726;0.24714229;-0.059061654;-0.018801328;-0.050564703;-0.16073853;-0.08202453;-0.17839783;-0.104142256;-0.067474365;-0.00451386;0.04682814;-0.010096883;0.048870776;0.06102614;-0.013099723;-0.10890997;0.09904598;-0.10409551;-0.10525743;-0.034310516;-0.05943994;-0.16088091;0.1363338;-0.12700632;0.017743329;-0.0271583;-0.103327334;-0.042891953;0.11611829;-0.050811175;-0.11220497;0.052146774;0.020183293;-0.08995604;0.009255497;-0.005726911;-0.0009883023;-0.036264148;0.046337474;0.024447944;-0.0878451;0.026758024;0.04653771;0.04604785;-0.061075497;-0.09615234;-0.08185616;0.04000592;-0.0004677573;-0.083820015;-0.06664242;-0.058400657;0.015319503;-0.11968067;-0.039763767;-0.1035691;-0.081108615;0.07832426;-0.062063187;-0.01185583;-0.031693563;0.017974548;-0.07742247;-0.10148191;0.006935374;-0.067358464;0.0030513385;-0.056260835;-0.045307443;0.1199266;-0.02836127;-0.11711425;-0.07214964;0.108669855;-0.08884926;-0.103843324;0.08855761;-0.027926343;0.07764087;-0.077338554;-0.09535131;-0.08192212;-0.06025804;-0.08861169;-0.057083476;-0.032534543;-0.093046196;-0.026307272;-0.03673628;0.008225296;-0.12414483;0.05238508;-0.06486132;-0.18837254;0.0025074014;-0.13227537;0.018218264;-0.05122703;0.08186069;0.012320807;0.025826776;-0.054732032;-0.011104836;0.15686047;-0.15309273;-0.22431472;-0.0927469;0.023908934;-0.0076185944;0.074162625;-0.042944353;-0.06307355;-0.06923974;0.07822698;-0.062903665;-0.10547603;-0.016722376;0.031404994;0.0032843072;-0.1265234;0.04154507;-0.018701566;-0.18092665;-0.15664823;-0.064426616;-0.016137516;0.027753621;0.0032050342;0.007123926;-0.061765403;0.042539496;-0.045410287;0.020441024;0.013525496;-0.15695216;-0.10338668;-0.07219701;0.09690892;0.02323965;-0.08911528;-0.02666827;-0.01032357;-0.29279533;0.02716929;-0.017437954;-0.0165627;-0.00863258;-0.08785877;-0.07994111;-0.012510293;0.065085314;-0.023720674;0.00137443;-0.17538401;-0.19240142;-0.12999998;0.039360832;0.00445534;0.012962215;-0.015911156;-0.03597205
0.11028863;-0.051002968;0.039434206;-0.06074576;-0.1406904;0.02242744;-0.027785959;-0.07791455;-0.019104978;-0.037170287;0.045905568;-0.045814376;-0.01110434;0.0041224277;-0.10248091;-0.049996108;-0.0067244503;-0.059031405;0.00089642726;0.08020756;0.022081515;-0.009136301;-0.046081204;-0.04491628;0.013512072;-0.09972897;-0.037935827;0.012123486;-0.056579918;0.1134582;-0.09886872;0.13437857;-0.10005765;-0.12419086;-0.07234858;-0.008242994;0.021186758;0.01848283;-0.1268076;-0.0750214;-0.0419163;-0.12947218;0.052342813;0.09254982;-0.16492707;-0.049975004;0.02537282;-0.12379496;-0.0710214;0.090428896;-0.12878734;0.052546225;-0.09520071;0.07872118;-0.11401179;-0.0032930807;0.045215447;-0.024932105;0.027361745;-0.033721548;-0.019486466;-0.16885085;-0.0062887305;-0.07035554;0.053511452;-0.22346424;-0.009075381;-0.09745446;-0.101555556;-0.15511306;-0.020660259;-0.09061429;-0.08519868;-0.09595629;-0.024131024;-0.012772654;-0.104656234;0.039059702;0.13376454;0.03395514;-0.1896866;-0.007821758;0.13896507;-0.14152803;0.0026306903;0.057590112;-0.039648633;-0.15750542;-0.08162824;-0.02246124;-0.07488347;-0.046124015;0.05251951;-0.034367893;-0.0581388;-0.049819414;-0.106545635;0.0045686355;-0.1421071;-0.030816676;-0.11229009;0.0445337;-0.059707046;-0.037832998;0.046757393;-0.050768055;0.044308163;-0.007571183;-0.094428495;-0.07939161;-0.12944303;-0.054230034;-0.00015530297;0.016481247;-0.007396005;0.048727717;-0.10876896;-0.012892308;-0.01594795;-0.05917683;-0.036836646;0.031207336;0.049232703;-0.1513685;-0.073060304;-0.0405573;0.071778774;0.0055337423;-0.109857045;0.0013855322;-0.0085966615;0.014843613;-0.039552752;-0.05703734;-0.10629597;-0.10422155;0.041011166;0.027240615;-0.026258608;-0.031166956;-0.114173315;0.03002867;-0.11564928;0.010917822;-0.0010410431;-0.004964507;0.08612299;-0.059156723;-0.030850586;-0.044461146;-0.085490294;0.020627912;-0.04235712;0.0511763;-0.0013192953;-0.2500055;-0.15168819;0.008849288;-0.034977403;-0.019410087;0.042624384;-0.03548014;-0.023723962;-0.087421164;-0.04600807;-0.07844509;0.00029824203;0.0780642;-0.08982257;-0.050081402;0.019559016;-0.06819494;-0.00638704;0.006018764;-0.004970582;-0.014962036;-0.09389582;-0.012464578;0.055649403;-0.09094582;-0.018153453;-0.08375187;-0.07337472;-0.036620352;-0.08561224;-0.08984468;0.04672943;-0.076907024;-0.11767935;-0.047398172;0.046475444;-0.038386956;0.043741547;-0.031650424;0.042920776;-0.15794168;0.05479351;-0.09249308;-0.07827325;-0.09815379;-0.06856119;0.051950153;0.0022328508;-0.120516;-0.05497781;-0.061489873;-0.0030422595;0.13814282;0.09675355;-0.07569692;0.0061761783;0.022077326;0.033647396;-0.095975414;-0.0924933;-0.12985708;-0.028391771;-0.05400961;-0.10938168;-0.15421312;-0.06849592;-0.12645869;0.00273466;-0.075004816;0.002650822;-0.007972564;0.0771609;-0.0963521;-0.0268676;-0.08562557;-0.084970854;0.03534292;0.03422433;-0.07586603;-0.076563016;-0.07633738;-0.028820321;0.06429546;0.047238182;0.06464349;0.04326553;-0.057500895;-0.1395221;0.024640072;0.057850476;0.014346513;-0.029578447;0.0144348405;-0.08531831;-0.068948455;-0.09647881;-0.010904172;0.08724137;0.032528117;-0.1442208;0.021316538;0.011894887;-0.105051;-0.043720447;0.018520655;-0.062950425;-0.13555267;-0.106432356;-0.036770817;-0.011014336;-0.020366408;0.008420302;-0.11523878;-0.13857782;-0.037718005;-0.13151896;-0.13499786;0.037211586;-0.037165307;-0.06098818;0.0012327542;-0.06647528;-0.07326333;0.0131422095;-0.16474123;-0.100720644;-0.14252079;-0.077590264;-0.07633485;-0.041551415;-0.0953326;-0.107246436;0.0520292;-0.05944295;-0.0054382035;-0.013080341;-0.24505639;0.07238394;-0.111829385;0.08673066;0.115420006;0.02838987;0.06426707;-0.21722336;-0.058916014;-0.09189883;-0.10903609;0.026175566;-0.08022276;-0.16728672;0.050832774;0.00022225128;0.005375582;0.06508251;-0.033685118;-0.094685145;-0.06661257;-0.12327548;0.028005037;-0.0044554803;0.149333;0.028285936;-0.04775662;-0.064173475;0.04715769;0.022845753;-0.17211957;-0.11952047;-0.0678449;-0.0063937875;-0.032335836;-0.08725727;0.0022798225;-0.08840297;-0.080173105;0.118294105;-0.012648842;-0.092555024;-0.050919443;-0.042619478;0.09120533;-0.08111427;-0.082499415;0.021724463;0.017250484;-0.016033217;-0.07123294;0.0053370325;-0.008564817;0.043430846;-0.077236645;-0.03876499;-0.090791866;-0.102785245;-0.07350667;-0.07992265;0.131059;0.03383226;0.040982854;-0.06282062;0.061420493;0.1200407;-0.011186587;0.14981052;-0.036752116;-0.007890169;0.038203795;0.085019425;-0.014439596;-0.09066486;-0.021452177;-0.057594646;-0.0066458867;-0.043768227;0.12838955;-0.091055274;-0.1271709;-0.13671197;0.0042562527;0.07808723;-0.09803342;0.022584056;-0.15459509;-0.029448235;0.05374102;-0.07226069;-0.10958173;-0.07204587;0.04268465;0.020541182;-0.009772213;-0.053702988;-0.17437774;-0.13008732;-0.02914414;-0.09009425;-0.078547366;-0.030237235;0.09229376;-0.120130375;-0.08038204;-0.0251978;-0.10253729;-0.02700983;-0.044997673;-0.0749362;0.0426961;-0.08563708;0.07943608;0.046741433;0.017600028;-0.0687072;-0.22632228;-0.0043337476;0.017135259;-0.1222007;0.02090664;-0.12544459;0.026169723;0.069264166;0.13341826;-0.14116243;-0.065377414;0.04844523;-0.19738562;-0.015327228;-0.19887602;0.022244534;-0.044484045;-0.053130865;-0.010676213;-0.0077509913;0.023769636;0.079048604;-0.034504674;-0.17652133;0.1344935;-0.1371666;-0.1094434;0.025435343;-0.041926563;-0.138367;0.14448452;-0.14396673;-0.03125347;0.012356275;-0.05715553;-0.054518946;0.044395715;-0.05794923;-0.109429;0.0910121;-0.0136669045;-0.06170516;0.026562534;-0.038413983;0.012080363;-0.11767157;0.003943674;-0.0008273423;-0.030195912;-0.07342746;0.02207047;0.0458052;-0.0035634253;0.032659084;-0.019214783;-0.024936467;0.014308222;-0.045588832;-0.08429538;0.0062046135;0.006047557;-0.043926857;-0.07832263;-0.17543969;-0.17632373;-0.0022811512;-0.023974577;0.05855217;-0.06773775;-0.0038847215;0.0048971004;-0.09829743;0.061944887;0.021039207;-0.0076764254;-0.0031068237;-0.039446633;0.12462418;0.07466875;-0.03150195;-0.029350003;0.009849963;0.05170014;0.03450086;0.097446635;-0.006743191;0.044332977;-0.009760433;0.03269321;-0.111962624;-0.004365777;-0.072394155;-0.043376416;-0.06540479;-0.013445151;-0.03764452;0.05067888;-0.040197425;-0.083394304;-0.08554889;0.0051006223;-0.09088814;-0.005803981;-0.037896324;-0.028238624;-0.010460333;0.13122374;0.05695146;-0.084114015;-0.054844;-0.056894645;0.08699874;-0.049641356;-0.32914564;-0.09092458;0.009500116;0.0065095033;0.08250715;-0.012932434;-0.03821135;0.026608672;-0.067572474;0.031251416;0.03867052;-0.12262768;-0.026020458;-0.03603221;-0.10405518;0.013049842;0.09187218;-0.047665402;-0.097148016;-0.11898887;-0.08828626;0.022504296;-0.064232364;-0.012447558;-0.13520835;-0.0768402;-0.0495086;0.023020562;-0.086520605;-0.12380761;-0.026209999;-0.08190243;0.101109535;-0.0485017;-0.045525227;-0.059602518;-0.095681846;-0.14316449;-0.041075107;-0.055199765;0.010687355;0.04654785;-0.06737574;-0.048286933;-0.06558426;-0.06565611;-0.07837717;-0.089077346;-0.037272234;-0.13526475;0.00828227;0.011958872;-0.0034286156;-0.01182984;0.008041767;0.0026075419
-0.055756707;-6.0026294e-05;0.013908231;0.03990751;-0.11223959;-0.05768272;0.046232365;-0.19483386;-0.06986072;0.049168944;-0.051311538;0.029013002;0.03893238;0.015789123;-0.05588192;-0.03070776;0.037343685;0.059063643;0.06739467;0.017655883;0.1420907;-0.14339258;-0.056999665;0.05302447;-0.050688807;-0.2030926;-0.07485225;-0.025746087;-0.096065246;0.010698929;-0.011189992;0.07791212;-0.09148288;-0.1127215;-0.022901354;-0.17366016;-0.0060271057;0.00598443;-0.10745562;0.015230078;0.03773573;-0.06904744;-0.019618696;0.094757855;-0.13420084;0.06171367;-0.0057846466;-0.08063848;-0.037946157;0.024420395;-0.0033554328;0.062137064;-0.021158693;0.09802538;-0.1104049;0.0979491;0.068392634;-0.08399609;-0.12358262;-0.006128763;0.022502422;-0.14167935;-0.038020756;-0.07325544;0.029444171;-0.28147158;-0.04536885;-0.16196205;-0.08413125;-0.109402016;-0.016017206;0.015691426;-0.10074657;-0.073398285;0.10456723;-0.08398862;-0.0024941145;-0.037002273;0.065024726;0.03885656;-0.16152032;-0.037985865;0.02775728;-0.16524671;0.058782034;0.0025521766;-0.0288814;-0.10281232;0.022730127;-0.070458524;-0.013483302;-0.085667014;0.04536828;-0.020181822;-0.058567867;-0.034127396;-0.040336374;-0.0031245928;-0.10447046;-0.092694186;-0.016991418;-0.03356735;-0.081628725;-0.096558556;0.0033633718;0.031151023;0.024240635;-0.028492954;-0.14270815;-0.043588217;-0.06803243;-0.029036712;0.003964814;0.12487904;-0.02718842;0.06179325;-0.1271809;-0.053626295;-0.047847804;-0.076538056;0.034837205;0.027102642;0.06661384;0.009008457;0.07809336;-0.0059860726;-0.032186966;-0.02975836;-0.09540896;0.138973;-0.022194082;0.04823417;-0.15309168;0.005031299;-0.07122127;-0.031508807;-0.07089753;0.11233778;-0.14949271;-0.031797476;-0.011887968;0.0074598137;-0.029111;-0.11194783;0.058102828;-0.102765106;-0.041269183;0.049881168;-0.15310293;0.06546182;-0.034270227;-0.12713638;0.07541691;-0.042551912;0.047959514;-0.10874712;-0.09724493;0.11389899;0.021572828;-0.04913378;-0.048341278;0.011358732;0.06350917;-0.07711025;-0.0082800705;0.017402386;-0.07923512;-0.037475128;-0.07833578;-0.039527126;0.16354327;0.09152495;-0.020185767;-0.00248604;-0.10450008;-0.013278081;-0.053160917;0.04755183;0.11664154;-0.036395997;-0.031030271;-0.112415835;-0.06374078;0.054664742;-0.075397275;-0.047327902;0.12537667;-0.044734146;-0.05115438;-0.01368661;-0.07895746;0.053910352;0.030447304;-0.03494642;0.026089184;-0.026242623;-0.07800584;-0.015274916;-0.033431433;-0.026900547;-0.07923439;-0.025067689;0.0024173998;-0.12486009;0.014639656;-0.10154673;-0.15383743;0.1254314;0.12880437;-0.012136165;-0.114215195;0.048520416;0.027068004;-0.111601494;-0.073695205;-0.058755554;-0.009388442;-0.14253454;0.017738493;-0.0828353;-0.0962312;-0.12053583;0.009272111;0.02347547;0.025514117;-0.08688147;-0.0034985112;-0.086028986;-0.0478016;-0.121827535;-0.037782945;-0.03138691;-0.06582062;-0.05727829;-0.09749702;-0.068150096;-0.026549995;0.017036086;-0.010781608;0.16793934;-0.012040186;-0.021977557;0.0017892517;-0.059877403;0.050890584;-0.093714945;-0.06812231;-0.042414267;0.031422406;-0.08985086;-0.13259834;-0.101010144;-0.016929088;0.06191144;-0.10158595;-0.1244674;0.060203794;-0.040509664;-0.018717308;-0.093698464;-0.04384276;-0.1476707;-0.0260832;-0.054791797;-0.020809334;-0.083230264;-0.01411163;-0.13760355;-0.026548056;0.045877967;-0.1037972;-0.045827895;0.032721087;0.010128221;0.021085877;0.051657047;0.023980508;-0.040567905;-0.036186155;-0.08726963;0.053195857;-0.10821108;-0.025629535;-0.07096974;0.014898845;-0.082934834;-0.01107296;0.017743142;-0.07515516;0.07196345;0.038305894;-0.21210124;0.08189277;0.004417075;-0.011875272;0.10121842;-0.033200316;0.035901796;-0.2660289;0.032553695;0.05873486;-0.064543866;-0.070559375;-0.048283923;-0.21957676;0.023527632;0.04544315;-0.06873554;0.050467033;-0.046516407;-0.002567295;-0.027343117;-0.06618953;-0.0015025291;-0.040450033;0.038651824;0.05978727;0.008559773;-0.09822489;-0.02116834;-0.09326233;-0.0714072;-0.13451053;-0.0812506;0.07436893;-0.047208097;-0.047726437;-0.0040360317;-0.074261695;0.042075336;0.18195719;-0.048038915;0.042663887;0.0743288;-0.084851034;0.020475322;0.025348155;0.06686166;-0.064856425;-0.05006291;-0.057862207;-0.12767105;-0.061463572;0.06782301;0.14210372;-0.122967556;-0.02704123;-0.047498044;0.023448827;-0.017165177;0.019384466;-0.044429176;-0.012014024;-0.030193483;-0.10701602;-0.0037265508;0.10306441;-0.0250567;0.12079936;0.02914163;0.0022426322;-0.10699195;-0.0043952656;0.023499735;0.02787833;-7.263404e-05;-0.040589556;-0.12891756;-0.08739785;0.09780264;-0.07788238;-0.08416703;-0.17289725;-0.079029545;0.04868631;-0.052584723;-0.07807584;-0.030871106;0.068577595;-0.058343705;0.018561555;-0.07063574;-0.07143209;-0.047713384;0.027493283;-0.09029782;-0.058904257;-0.1929937;-0.14173968;-0.050766807;-0.117236115;-0.07641988;0.014467285;0.04628323;-0.12142747;-0.015237809;-0.026496664;-0.10840111;0.057562925;-0.055392;0.021587623;-0.0319953;-0.078741446;0.06349077;0.044871442;0.035896424;0.009203523;-0.14185129;-0.036554538;-0.034882426;-0.06770205;-0.019405419;-0.04242539;0.016116463;0.07708445;0.10002237;-0.15950552;-0.100826845;0.049581934;-0.16305955;-0.082224585;-0.07342846;-0.012270614;0.07162373;-0.06577424;0.026961789;0.015476248;-0.024142008;0.041623585;0.020527696;-0.031854477;0.02855284;0.017816717;-0.018403139;-0.05853728;-0.055869605;-0.10019639;0.16836853;-0.004824933;-0.08611059;-0.13236612;-0.02550115;-0.09422216;-0.006522939;-0.00037822663;-0.07495107;0.11293238;-0.023587927;-0.08078789;0.04334692;0.018271692;0.014553398;-0.12445154;0.0040124226;-0.029248478;-0.016629744;-0.09263978;0.022737315;0.0062376745;-0.025186624;0.008302589;-0.11498096;0.03758348;0.033920493;-0.10706821;-0.07869315;-0.009554024;-0.09647988;-0.103051014;-0.08345908;-0.19591977;-0.11754259;-0.02053621;0.016562607;0.007936342;-0.055146318;-0.08366914;0.02055146;-0.047652926;0.0052938177;0.042780917;-0.024249148;0.05890645;0.04951161;0.015292439;0.024618817;-0.12974042;-0.14348103;0.032204486;-0.098581076;0.027782021;0.033298515;-0.053822346;0.025693515;0.04516077;-0.08574196;-0.09376095;-0.019810654;-0.03474528;-0.00031822862;-0.09358717;-0.118811406;-0.031623196;0.05421709;-0.052194696;-0.007103912;0.020560276;0.04627219;-0.18015811;0.040227078;-0.13612305;0.057172254;-0.0702851;0.08554758;-0.034908045;-0.095472544;-0.10269105;-0.15164128;0.08698757;-0.11582578;-0.31413206;-0.025938014;0.03694052;-0.027391957;0.049295716;-0.030648267;-0.003952287;0.020963987;-0.015884085;0.07484236;0.006492134;-0.1435837;-0.045333967;0.012968526;-0.06870403;-0.0925878;-0.023001568;-0.07862603;-0.10260812;-0.110656396;0.03455473;-0.0117319;0.05221815;0.054465976;-0.074584246;-0.05719921;-0.05027515;-0.03407042;-0.06460076;-0.17043208;-0.15959895;-0.02916636;0.002886467;-0.05686502;0.03684072;-0.092678;0.0137017025;-0.26660103;-0.0863401;-0.042604595;-0.07226207;0.019467015;-0.02849851;0.061239425;-0.11044893;0.046754703;-0.026353793;-0.03648025;-0.055787385;-0.11372663;0.025064519;0.039814893;0.08623415;-0.10230062;0.07455696;-0.019216426
-0.050436124;-0.050137654;0.082003176;0.07152595;-0.09459572;-0.05712399;0.007981804;-0.16629809;-0.10519432;0.039117355;-0.10445274;0.047540717;-0.047589216;-0.0028350924;-0.085524246;0.0014885509;0.03646623;-0.048657015;-0.005412712;0.0443891;0.06466641;-0.01880233;-0.013019399;0.07705445;0.01169214;-0.22574407;-0.060294595;-0.060772955;-0.055815622;0.15145849;-0.07249308;0.10966416;0.024196666;-0.1294628;-0.13640542;-0.10784676;-0.0992255;0.04902245;-0.040778004;-0.055968765;-0.043620072;-0.100672215;-0.007509997;-0.018034099;-0.18965487;-0.03800808;-0.118309565;-0.044026006;0.05887509;-0.040308252;-0.0636354;0.041523628;-0.05197865;0.00037935132;-0.12834382;0.14189339;0.048580896;-0.07331562;-0.0038376239;-0.032186788;-0.056486685;-0.1264684;-0.10821967;-0.027069021;0.050146773;-0.21373725;-0.017794568;-0.028477676;-0.09214137;-0.15969189;-0.010175572;-0.04412909;-0.16433711;-0.035078626;0.13290577;-0.115799576;-0.092759065;-0.04032043;0.03358892;0.08796692;-0.08094041;-0.01840031;0.2056828;-0.083166964;-0.099428035;0.022668293;-0.08370617;-0.12235086;0.034006268;0.03386179;-0.0409214;-0.053976823;0.023321817;-0.0040861745;-0.1106967;-0.02720847;-0.000142477;-0.00978095;-0.064084046;-0.0029015674;-0.019199325;-0.033404082;-0.0708418;-0.1055916;-0.0019946103;0.008223893;0.0131908385;-0.08507764;-0.18819863;-0.015503183;-0.057172846;-0.0040156557;0.0007607562;0.088160574;-0.0025734534;0.0028208576;-0.08559339;0.09217353;-0.056097325;0.0068340693;-0.052598312;-0.07340595;0.07503799;-0.01129238;-0.025995849;-0.12273934;0.029251903;-0.058792002;-0.08253201;0.008295455;0.003161862;-0.069608964;-0.10663118;-0.026515508;-0.12679303;0.019387027;0.026987484;0.14700842;-0.0873907;-0.061705247;-0.013396453;0.059665643;0.012514475;-0.0015540282;-0.011225429;-0.02642893;0.034739938;0.015190882;-0.13831888;-0.09042804;-0.01968234;-0.11673934;-0.07911555;0.012150123;0.001975821;-0.12574933;-0.1344438;0.028251303;0.038734328;-0.061777618;-0.070718765;-0.018181194;0.076491825;-0.1489993;0.008598012;-0.09981445;-0.011016824;0.011594809;-0.13591754;-0.14106105;0.16096221;0.09540265;0.057736155;-0.0033287457;-0.10733257;0.009596197;-0.06523463;-0.050962046;0.009323105;0.015450645;-0.029270353;-0.12662934;-0.08766059;0.10214279;-0.03751121;-0.03286427;0.11905082;0.0312144;-0.059366588;0.054499045;-0.078151815;-0.05679625;0.06422715;-0.15186767;0.09317039;-0.020027118;-0.005720137;-0.05016474;-0.013466319;0.07211713;0.039483592;-0.03676901;-0.009685033;0.030977465;-0.0854081;-0.08524376;-0.12178966;0.14104483;0.024376014;-0.07375761;-0.14224926;-0.06706569;-0.01772899;-0.10768155;-0.15834817;-0.056578692;-0.076156184;-0.06932946;-0.09290246;-0.108148895;-0.11160462;-0.10655898;-0.030127356;-0.07112356;-0.056080267;-0.08145421;-0.042522527;-0.08166352;0.036421053;-0.115557775;-0.070196554;-0.08081338;-0.06039841;-0.091624215;0.041528746;0.056969423;0.040039368;0.05018955;0.08428513;0.028972352;0.0061426135;-0.025455955;-0.048548352;0.03731604;-0.045316327;-0.036941975;-0.117558666;-0.07314327;-0.015462705;-0.042894267;-0.09059567;-0.090019345;0.09831415;0.09676157;-0.09751633;-0.09492721;-0.03933558;-0.056964505;-0.15826613;-0.10803489;0.054647904;-0.04708611;-0.03142634;0.0135348085;-0.019311234;0.06581998;0.0952398;-0.116045706;-0.059199978;-0.085316226;-0.1244214;-0.11746762;0.021859894;-0.05193502;-0.010656217;0.02545394;-0.045231428;0.052452996;-0.07864062;-0.10426229;0.009403994;-0.23860821;-0.07849808;-0.07056309;-0.10855299;-0.06728558;-0.08912153;0.04366025;-0.021576384;0.063980006;-0.004041582;-0.1589714;0.04512742;0.033322968;-0.029929569;-0.0017736235;0.02248159;0.013740862;-0.18576504;0.0029254095;0.07382551;-0.0754862;-0.11398827;-0.13682044;-0.14411634;-0.040601946;0.07670856;-0.03783659;-0.022390649;-0.028154207;-0.07161961;0.033927344;-0.07383326;-0.068870425;-0.01053026;0.071790434;0.003718193;-0.08034518;-0.13042061;-0.057473;-0.07634802;-0.08891936;-0.04743824;-0.061767336;0.07504816;0.045927405;-0.10353179;-0.07485752;-0.07041785;-0.083705775;0.13298237;0.071946785;-0.03176321;-0.073149;0.014400352;0.04318175;0.005978737;-0.06958081;-0.01945663;-0.041011944;-0.091917135;-0.09455208;-0.1236347;-0.016891694;0.07166913;-0.03633641;-0.062924944;0.051579043;-0.006297707;0.08604975;-0.08031373;0.11126326;-0.025296789;-0.04949363;0.039660163;0.03334592;0.10520899;0.06697057;-0.0096570905;-0.03248299;-0.044336237;0.016987424;0.087379776;-0.09338006;0.007619898;-0.010972551;-0.049844228;-0.11786954;0.018599313;0.013450813;-0.09113459;-0.058385953;-0.0658182;-0.025368087;0.08483795;-0.05404264;-0.04599638;-0.061919603;0.028549023;0.013270262;-0.055347774;0.045362297;0.037030015;-0.018917989;0.06254507;0.035186037;-0.15563235;-0.118229315;-0.03239902;-0.070860475;-0.12289485;-0.125196;-0.04165255;0.1438642;-0.0019418781;-0.10125591;0.0065358477;-0.13265784;-0.090944394;-0.087671146;-0.04618988;-0.05875496;-0.01839102;0.005168313;0.007967322;0.021215815;-0.04412142;-0.2117711;0.036815017;-0.0279404;-0.088830106;0.031956278;-0.09996882;-0.061278746;0.11525918;0.13701755;-0.15790226;-0.036090188;0.07116959;-0.23730612;-0.013044347;-0.19291143;-0.06455083;-0.029076314;-0.035987552;0.041388206;-0.01646156;0.026044238;0.08993837;-0.040466227;-0.17759764;0.04997126;-0.11007954;-0.020946804;0.0066069886;-0.022971148;-0.035451587;0.10043821;-0.1224535;-0.094043314;-0.05332543;-0.09424654;-0.04221406;-0.010189668;-0.064710274;-0.07994838;0.14724809;-0.054115877;-0.036986794;0.04577217;0.018747782;0.017329222;-0.07837606;0.044435285;-0.046821762;0.033895228;0.0010616612;0.09878356;0.004693745;-0.07169597;-0.07451798;-0.14357924;0.020954808;0.031987324;-0.037059125;-0.11208806;-0.08147065;-0.14545222;-0.04179206;-0.13544643;-0.17689513;-0.20508978;0.05008738;-0.029522456;0.05919021;-0.049987603;-0.1325681;-0.04348094;-0.033701822;-0.0021378763;-0.068206064;-0.0820022;-0.051640764;0.021049075;0.08226645;-0.066377886;-0.007111451;-0.1128524;0.09969136;-0.023666037;0.022816328;0.024999024;0.1223212;0.06965002;0.052841075;0.0013627121;-0.068138696;-0.019276565;-0.05548169;0.009709561;-0.018435199;-0.03928389;-0.043302573;0.047540702;-0.05169102;-0.12032756;-0.07690327;0.009991273;-0.06473197;0.07052014;-0.07643981;-0.11136555;-0.037703253;-0.061127875;0.027939662;-0.07030087;-0.08159197;-0.11786758;0.16014388;-0.11871369;-0.2995209;-0.043602306;-0.07956767;-0.090200275;0.025930569;-0.026798787;-0.031284433;-0.0071191164;-0.10164375;-0.06687018;-0.0571838;-0.083301924;-0.03948307;-0.007010486;-0.010491161;-0.10549123;0.0826845;-0.18305223;-0.12507221;-0.04199038;-0.102434956;-0.072590046;0.027992323;0.09308453;-0.047157567;0.022470746;-0.0874031;0.03595295;-0.10056074;-0.1441105;-0.16945511;0.023222165;0.08548351;0.041506425;-0.031118423;-0.09256276;0.06797336;-0.30444846;0.008518696;-0.1333092;-0.098242454;-0.022788286;0.032226242;-0.03857494;0.000340738;0.031225195;0.0037799776;-0.10529087;-0.12923676;-0.06763176;-0.012803338;-0.0195755;-0.062010378;-0.053435225;-0.03164882;0.007555379
-0.07038883;0.044505496;0.06670144;-0.021865062;-0.0767749;0.0050525577;-0.08073708;-0.09338924;-0.009084018;-0.07466446;-0.09668122;0.035248797;-0.017069506;-0.017110841;0.03486378;-0.030037547;0.087902285;0.13560538;-0.008272012;0.031310003;-0.039272655;-0.03908501;-0.031226061;0.07000077;0.035968535;-0.20331833;-0.12913124;0.03530289;-0.03685114;0.17650628;0.034338575;0.13336673;-0.10284562;-0.10893419;0.010713236;-0.09236453;-0.032142658;-0.08127528;-0.15063569;-0.10464221;-0.03236167;-0.08478788;0.07269459;0.02683335;-0.19219874;0.012815931;-0.062507346;-0.14713009;0.018163413;-0.02184912;-0.042625744;0.020958373;-0.033709593;-0.0065646837;-0.096431054;0.030452268;0.05884471;-0.03872398;-0.046921555;-0.052853104;0.018988568;-0.19015564;0.0070511247;-0.08416613;0.10947688;-0.2150595;-0.044276807;-0.016612917;0.045432277;-0.0038555546;-0.021248713;-0.07397787;-0.04150368;-0.02037286;-0.0107118515;-0.027157512;-0.048262343;-0.07501018;0.06190832;0.11509335;-0.15097201;-0.0055548516;0.1924139;-0.1488019;0.022987554;0.008630974;0.0031549493;-0.085339695;0.017314684;-0.05495976;-0.032550737;-0.10623276;-0.075362645;-0.034731943;-0.116254844;-0.056702346;-0.02919473;-0.018091915;-0.030368619;0.04373289;-0.09583642;-0.011803259;-0.078464456;-0.10102255;-0.058125008;-0.093511544;-0.051131196;0.03957121;-0.10945046;-0.015058012;-0.029045034;-0.055338807;-0.11817758;-0.02260865;-0.045074336;-0.024782876;-0.054125156;0.111208126;-0.12544988;-0.049470503;-0.100310765;-0.10990674;0.048735697;-0.12547116;-0.053166736;-0.16106798;-0.038938496;-0.1252843;0.03958071;0.003847981;0.033618364;0.062552616;-0.022425018;-0.08370716;-0.043241106;-0.09999491;-0.010130423;0.19256903;-0.08852278;-0.05139877;-0.1141921;0.03648776;-0.007780117;-0.04166538;-0.030730605;-0.12340624;-0.009163205;0.031697985;-0.10456953;0.042277288;-0.0720404;-0.11965053;-0.070463665;-0.029252931;-0.03799885;-0.16024728;-0.02097763;0.011822082;-0.08390631;-0.048243705;-0.005050718;-0.032409318;0.033075992;0.004126957;-0.03679537;-0.03289504;-0.037201155;0.040343434;-0.13046035;-0.120384544;0.048218187;0.00048632873;-0.062172126;0.01503641;-0.10070644;0.04220906;-0.0856412;0.005602867;0.1070054;-0.047582377;-0.051057138;-0.16042776;-0.16048355;-0.070471555;0.012187937;-0.092892416;0.0782046;-0.101485066;-0.063669294;-0.034537926;0.015410767;0.05767294;-0.058733936;-0.05185148;-0.0098012155;-0.121944726;0.047426812;-0.032013804;-0.018405208;0.03363939;0.034782898;-0.07658456;0.010426675;0.022323363;-0.026786594;-0.040436387;-0.036311902;0.086205006;0.013758933;-0.114309095;-0.112346016;-0.023758307;-0.043524142;0.020456174;-0.1256113;-0.006398542;0.011440908;-0.08857194;-0.049853157;0.0077380207;-0.081628785;-0.014800847;-0.021700641;-0.08338805;-0.10279175;0.0071168276;0.086090654;-0.028846001;0.045953598;-0.16941294;0.009504072;-0.0025334721;0.007472728;-0.01759011;0.050569817;-0.09840165;-0.08348447;-0.10385797;-0.0042222477;0.049256053;-0.0121084675;0.00694789;-0.030356392;0.004955911;0.03983789;0.0066066845;-0.13126764;-0.09349459;-0.023416918;-0.06809261;-0.072024524;-0.06833868;0.0045344555;-0.056511182;-0.02875232;-0.087415725;-0.086606;-0.021759268;-0.060534175;-0.066256694;0.05950159;-0.1149759;0.00048084048;-0.051047392;0.012635022;0.030513499;0.017644737;-0.10616658;-0.026967226;-0.05494067;-0.0037233767;-0.0014886213;0.024852406;-0.06541182;-0.01138467;-0.008761473;-0.023562815;-0.0069608195;-0.00036558954;-0.08832377;-0.07029678;-0.16713583;0.016289208;-0.038529474;-0.0847596;-0.01896737;-0.0669197;0.009209691;-0.024014095;-0.012910458;-0.032327414;-0.11326049;-0.014981059;-0.114142776;-0.017489119;0.06633452;0.030815056;0.068396114;-0.28257424;-0.05502682;-0.07356102;-0.03576918;-0.103052534;-0.15541196;-0.11797535;-0.06958673;-0.011699079;-0.11525936;-0.07783862;0.0051783537;0.012286447;-0.06044024;-0.05857183;-0.08295734;-0.010804727;0.08775178;0.048863463;-0.040814273;-0.0407392;0.055304725;0.0076057436;-0.14906284;-0.11871115;-0.07509819;-0.025766894;0.01692977;0.009164803;-0.048666824;0.053167596;-0.0074574417;0.090320535;0.09439853;-0.006179497;0.03348029;-0.114425205;0.098292515;0.02544821;-0.044683613;-0.07917958;0.036187373;0.0061384155;-0.04410163;0.006170042;0.028737376;0.13008915;-0.031468455;-0.07118496;-0.048601206;0.03503387;-0.038520407;-0.054195814;0.068998665;0.06858242;-0.008763858;-0.05918934;0.027847856;0.079524964;-0.009447296;0.112686366;-0.030851698;-0.11659955;-0.03558523;0.10276287;-0.05191041;-0.01301763;-0.03906698;0.044245075;-0.02403092;-0.012877146;-0.04353923;-0.03828549;-0.04975552;-0.042821247;-0.05892634;-0.054880165;-0.053827368;0.030641953;-0.1400513;-0.036018275;0.021520594;-0.1245178;0.039817747;-0.036238797;-0.03259854;-0.035871834;-0.065285996;-0.14605682;-0.16531327;-0.030668803;-0.005795629;0.020004746;-0.1347609;0.110437326;0.12388873;-0.07721146;-0.0052663544;0.1373487;-0.07357703;-0.021306671;-0.11281057;-0.09060039;-0.06557744;-0.046817925;0.08192023;-0.0106869;0.006237625;-0.030759249;-0.101615936;0.047925312;0.046592325;-0.05188134;-0.0008595275;-0.059601467;-0.04264342;0.021269117;0.076234214;0.0018742938;0.020350056;-0.047253083;-0.18111403;-0.009377619;-0.16841468;-0.024925794;-0.015492361;-0.14057325;0.0012715432;0.004665025;0.044442665;0.17407063;-7.432647e-05;-0.1503332;0.032829072;-0.0155604165;-0.0038457178;-0.036826354;0.008843818;-0.11151875;0.0610764;0.020380422;-0.053127803;-0.0026386376;-0.022605801;-0.02062717;-0.00419437;0.074125744;-0.03787498;0.12648745;-0.104178734;0.037686784;0.15057053;-0.040127385;-0.0914249;-0.011909812;-0.09076829;-0.054474458;-0.09993107;-0.11661494;0.12295756;-0.06989539;-0.073204145;0.02233182;-0.12667117;0.06225641;-0.0005487943;-0.089773856;-0.0144139845;-0.042057958;-0.054871228;-0.07967093;-0.09378857;-0.18333882;-0.07194588;0.14343269;0.047303878;-0.07042648;-0.04212407;-0.11399664;-0.10199559;-0.096181154;-0.09955986;-0.0023868815;-0.112743735;-0.063380815;-0.07961711;0.093936674;0.007112254;-0.002900628;-0.00771172;0.03159535;-0.02985645;-0.09035204;0.05389853;0.03069503;0.11535696;0.050833263;-0.11880629;-0.006006318;-0.049702138;-0.033608407;-0.034541078;-0.021355782;-0.113611884;-0.073132336;0.014470911;-0.020760061;-0.028770886;-0.01720961;-0.08480854;-0.062160905;0.10961986;-0.09135456;-0.09758498;-0.15411349;0.11060537;-0.00046262273;-0.09068616;-0.012776674;-0.05019271;0.022068933;-0.1710955;-0.32017615;-0.01263201;0.038838573;-0.052458454;0.07376888;-0.004570353;-0.11354363;-0.07517092;-0.07725428;-0.0045931228;-0.016841782;0.017765073;-0.09198126;0.05332506;-0.08124847;-0.01727965;0.06405236;-0.13735992;-0.06481948;-0.034818605;-0.0043754093;-0.041482262;-0.042337645;0.12199811;0.019406889;0.0072504715;-0.09120456;0.016580017;-0.06492316;-0.026964443;-0.025854126;0.06393885;0.12276511;-0.1074987;0.043363955;-0.02900369;0.0179268;-0.18495719;-0.016344918;-0.051312633;0.03369821;0.045845397;0.021465631;-0.04761395;-0.03345114;0.020612257;0.062065374;-0.11282433;-0.109765634;-0.18299404;-0.04034805;0.100985184;0.013089244;-0.072313406;-0.049355943;0.083027504
0.0394064;0.09735133;0.15655306;-0.08380677;-0.14436877;-0.010057572;0.0126071805;-0.054574803;-0.013976944;-0.09112192;0.01962187;-0.07951808;0.0074379737;0.0028382575;0.033432998;0.027869096;0.097565554;0.08866208;0.068888746;0.0783079;0.039092787;-0.07647898;0.0728913;0.02698396;-0.053215887;-0.13056052;0.030954171;0.007403273;-0.010846165;0.10531362;-0.101443805;0.1396897;-0.028373046;-0.10967939;-0.11242132;-0.048154894;-0.0014172234;-0.020119583;-0.038906958;0.0045038117;0.06395029;-0.07485885;-0.0041739605;0.11126298;-0.13261144;0.0014149107;0.037567113;-0.11011981;-0.06546563;0.014734085;-0.02855979;0.022177953;0.02319398;0.0036977767;0.0018448085;0.07389496;0.14643368;0.006702469;-0.08140599;0.0310491;-0.026617628;-0.12507525;-0.10970708;-0.03919932;-0.020872751;-0.22152597;-0.028329955;-0.14630894;-0.003583843;-0.1001451;-0.07992461;0.016120052;-0.09532479;-0.1075538;0.12436431;-0.016320908;0.019876948;0.0076765;0.10836881;0.05742628;-0.13537528;-0.098662004;0.21496974;-0.047518395;-0.03438762;0.0030578347;-0.039178703;-0.15748888;-0.11756839;-0.04783494;-0.02005514;-0.09702031;-0.01541933;-0.020002244;-0.03353998;-0.14423381;0.011966494;-0.02692283;-0.01034517;-0.05161922;-0.03387017;0.051420867;0.00685027;-0.09124429;-0.0968424;-0.10564522;0.05282342;-0.02707245;-0.06624701;-0.04361816;-0.11803561;-0.10111293;-0.05735022;0.10753574;0.02302599;0.032748338;-0.094087966;0.031781606;-0.063069746;0.013126809;-0.0027405901;0.024257384;0.06690143;-0.024921944;-0.05619366;-0.108961485;0.035002314;-0.121947624;-0.072608314;-0.00027661197;-0.075259544;0.026314726;-0.13365656;-0.054604236;-0.14891618;-0.07065237;-0.07408342;0.1724037;-0.16019192;-0.08444457;-0.083664395;0.013431326;0.012576476;-0.017251072;-0.056410894;-0.031579353;-0.046276975;-0.07573958;-0.12677774;-0.0743748;-0.03026896;-0.12164511;0.029724177;0.013184814;0.021052973;-0.10205797;-0.15346842;0.007873345;0.01717743;0.0104686245;0.050703585;-0.09156758;0.03193456;-0.020184303;-0.032027885;-0.03435161;-0.09781701;0.06505126;-0.058476113;-0.017512145;0.015766254;-0.008351696;0.061836183;-0.014734985;-0.13872023;-0.03228639;-0.054402266;-0.020969806;0.05365846;-0.07956438;-0.122776754;-0.028165523;-0.015824925;0.008648668;-0.07141801;0.0136605045;-0.002711661;-0.047942363;-0.051814947;-0.009130257;-0.06698808;-0.097492285;-0.018995684;-0.077749625;0.003111704;-0.1227339;-0.039779596;-0.15999188;-0.06684499;0.05196541;-0.043991227;-0.1012668;-0.061843485;-0.12400095;-0.062317964;-0.012924144;-0.008232877;0.07492919;0.17161281;-0.07296736;-0.12446558;-0.07134663;0.07347799;-0.093480535;-0.085782915;-0.104017496;-0.080506355;-0.16682424;-0.0082122125;-0.13025928;-0.11186129;-0.02956616;-0.045089394;-0.0297451;-0.011467123;-0.010198257;0.0829675;-0.07411602;-0.06564926;-0.06668658;-0.057122003;-0.088103935;-0.101669535;-0.10774295;0.009384368;0.037951726;-0.030031819;-0.06107612;-0.028502343;0.067977935;-0.08599212;0.010900357;-0.042770393;0.052755855;0.044514723;-0.08471757;-0.08026139;0.00945676;0.012078367;-0.079306856;-0.15903059;-0.04517641;0.029302193;0.08433876;-0.041821446;-0.064933084;-0.08515548;-0.00038686913;-0.17482899;-0.024405846;0.11795097;-0.03458502;-0.10764056;0.060948066;-0.068633944;-0.019606212;-0.058567096;-0.14746773;-0.111923255;0.09378483;-0.1058966;-0.1217521;-0.10516548;-0.06371269;0.0058370004;-0.03924345;-0.07415284;-0.025033232;-0.04599969;0.06908628;0.050060246;-0.14813155;0.0394113;-0.060079016;0.029954666;-0.07560308;0.057386294;-0.05331677;-0.122728765;-0.0202751;-0.03831923;-0.085402995;0.06652856;-0.017427988;-0.08829209;-0.014001053;-0.06876907;0.0036812853;-0.29606447;0.00022023119;-0.006096429;-0.044375014;-0.052142583;-0.09405585;-0.058734357;-0.050180767;-0.019922063;-0.055455603;0.03176895;-0.041555505;-0.07789383;-0.07274387;-0.09810046;-0.0839244;-0.079139836;0.1152527;0.047244884;-0.09460238;-0.0088800285;0.04389432;-0.043985404;-0.115347475;-0.15520082;0.03214635;-0.03292354;-0.05521106;-0.11278188;0.019498073;-0.07216473;0.055885;0.16088167;0.043427832;0.029032437;-0.018929698;0.04705567;0.04930199;0.03345399;-0.067055374;-0.087844476;-0.005808343;-0.1359912;-0.13920902;-0.025762103;-0.04233974;0.026242884;-0.06882219;-0.032997597;0.046651047;-0.10213645;0.08973806;0.056055136;0.08006466;0.071127936;0.02072148;-0.07063768;-0.065464854;0.16753016;-0.060285773;-0.029612206;-0.00822706;-0.11264334;-0.03891745;0.092325255;-0.06232496;-0.0977503;0.048366502;-0.032832664;-0.10714566;-0.07349988;-0.03896848;0.023689257;-0.0023581726;-0.18757418;0.015760548;-0.023943635;0.029028272;-0.061140005;-0.15721475;-0.018222464;-0.02325686;0.006102024;-0.0024814603;-0.089862354;-0.06898493;0.056506917;0.0568292;-0.12365557;-0.19755489;-0.05517649;-0.012289997;-0.0934927;-0.078156844;0.07665195;0.05262575;0.009554838;-0.04627275;-0.018598504;-0.122669004;-0.06666097;0.0089842705;-0.07577508;-0.045490272;-0.028878542;-0.007689364;0.013681677;-0.0347963;-0.010026048;-0.13527618;-0.036439393;0.011840491;-0.11063238;-0.07081926;0.02455388;-0.037264742;-0.019432623;0.13709535;-0.09416173;0.03529376;0.06815054;-0.22136652;0.0014406989;-0.0836542;-0.09680924;-0.043376926;-0.12266052;-0.028091779;-0.02702554;-0.09180212;0.035583988;-0.07875213;-0.1312977;0.051019546;-0.040510304;-0.044548843;-0.055693865;-0.1410199;-0.11983416;0.11719163;0.015486292;-0.07140203;0.0020781024;-0.10547009;-0.057426877;0.056450058;-0.05429717;-0.08925553;0.007958907;-0.12934834;-0.10533212;0.12380173;-0.008310954;-0.08588077;0.032808285;-0.06423818;-0.06106376;-0.038751636;-0.01512866;0.030483268;0.0150478985;-0.08172119;0.002426684;-0.0657889;0.06120437;-0.06558222;-0.111109026;0.032652646;-0.023275837;-0.0003513406;-0.17526038;-0.060558427;-0.13076967;-0.11932689;0.09673775;0.044682525;-0.07262054;-0.02208118;-0.109738484;-0.025206488;-0.08466389;-0.041384056;-0.057887338;-0.0014858729;-0.021513239;-0.10201179;0.0018966743;-0.007613615;0.0063558365;-0.15048662;0.023902925;-0.06606235;0.027351271;0.15553436;-0.008212076;0.07678352;-0.065695964;-0.10636666;-0.11502771;0.009476013;-0.053267926;0.00038991723;-0.020275809;-0.12567356;0.02733823;-0.05456485;-0.11906277;-0.104067475;-0.009896559;0.0020532655;-0.12038428;0.102147534;-0.054929063;-0.13753489;-0.17170092;-0.007283176;0.010798594;-0.1090463;0.03935243;-0.13663477;-0.01198817;-0.07365234;-0.31654423;-0.08574614;-0.10245816;-0.09615637;0.06147257;-0.09696255;-0.1407403;0.057469964;-0.025418965;-0.010029347;-0.10120809;-0.04304009;-0.0043538325;-0.005694537;-0.05543093;-0.07836673;-0.07144893;-0.13629714;-0.09840421;-0.030474346;0.013366581;-0.08214476;-0.080587454;0.017420772;-0.059229117;-0.11462648;-0.14244641;-0.073249586;-0.022655891;-0.16981523;-0.07364362;0.06556939;-0.012141744;-0.06495837;-0.055383287;-0.0144537315;-0.04053091;-0.22437914;-0.08849765;-0.13225384;-0.02041499;-0.031413786;0.035013277;-0.007902561;-0.12056566;-0.040294778;-0.028382767;-0.11092842;-0.09552035;-0.0549692;0.030137403;-0.0028728864;0.065337956;0.026631;-0.037563596;0.080699444
0.007310039;0.050618343;0.008782723;-0.065911196;-0.13477658;0.020592757;0.0060476162;-0.18243785;-0.06599683;-0.038295437;-0.041601736;0.051273365;-0.056106877;-0.013021711;0.012979427;-0.028443893;0.09540892;0.014515215;0.028307606;-0.03630082;0.057316374;-0.14583586;0.007950254;0.07115549;0.07871123;-0.12383274;-0.095503785;-0.024957117;-0.010678323;0.10769418;-0.017367901;0.06406749;0.0018277167;-0.029722916;-0.074479766;-0.046650417;-0.0034872908;-0.040419403;-0.063615456;-0.10951679;0.002772232;-0.027575577;0.06706485;0.058292683;-0.28576946;0.0028124126;-0.020232994;-0.15082759;0.0005095575;0.011439647;0.028946644;0.1692759;-0.063035175;0.14114948;-0.04425205;0.017791206;0.03281428;-0.08071342;-0.024551982;-0.041647226;-0.069322765;-0.16182193;-0.13907893;-0.024858652;-0.02151984;-0.21198861;-0.04909243;-0.11016931;0.022693576;-0.004058129;-0.08338626;-0.018520461;-0.10988439;-0.007886419;0.0031226075;-0.017845597;-0.11177306;0.013869192;0.09564028;0.1280623;-0.05839353;-0.006986842;0.07255454;-0.06260291;0.018824818;-0.06803805;0.024743613;-0.07125368;-0.11501836;-0.08012417;-0.0046079527;-0.123319075;0.01716162;0.0009965163;-0.07017892;-0.069617815;-0.004953949;-0.022082819;-0.09729797;0.013428148;-0.14271495;0.037873484;0.030996686;-0.052095417;-0.08739835;-0.08529413;-0.03350565;-0.086506195;-0.11533198;-0.0872305;-0.104631;0.0060237106;-0.050801296;0.085955985;-0.024443135;0.030234527;-0.0494037;0.008644794;-0.0876613;-0.10879666;-0.0879624;-0.09140488;0.018503442;-0.03141485;-0.07149018;-0.07887605;0.03715384;-0.1005985;-0.017733216;0.04667542;-0.106694475;-0.059511624;-0.08586168;0.031821977;-0.062457003;-0.10211003;-0.14096615;0.15869571;-0.02297013;-0.088994935;-0.11655489;0.01780038;0.037992176;0.0087707;0.04275665;-0.011523761;0.001974048;-0.027270399;-0.14013676;-0.050313216;-0.0796411;-0.056896076;-0.026426388;-0.074368455;-0.044314064;-0.16360368;-0.08481691;0.011767952;0.06601203;0.07228838;-0.033853903;0.004711484;0.03603706;-0.1283101;0.035024136;0.029608896;-0.062058154;0.03995137;-0.04379765;0.0039774985;0.16657153;-0.057419118;0.067977324;0.08175278;-0.09979557;0.0105310185;-0.039815534;-0.020690776;0.09163706;0.008056426;-0.058968462;-0.057761822;-0.08775483;0.037181947;-0.0453031;-0.047395226;0.027142148;-0.047804162;-0.11120518;-0.008232494;0.008716889;0.050182357;-0.041186213;-0.05471272;0.006879945;0.024741689;0.022794133;-0.152653;0.011686879;0.0866608;-0.026002359;0.0057320106;-0.0075324667;-0.004055395;-0.120059475;-0.1314436;-0.035717364;0.07214215;0.069402486;-0.1018473;-0.13031107;0.03610534;0.03709066;-0.039994717;-0.09026084;0.01326512;-0.07406672;-0.078317426;-0.062036645;-0.032009713;-0.11180094;-0.08884872;-0.08937405;-0.09667709;0.017779551;0.007509487;-0.032605782;-0.13676591;-0.0783873;-0.06880805;-0.14488885;-0.008960475;-0.0058902656;0.0008250547;-0.012894054;0.015965607;0.002811454;-0.027048936;-0.064123705;0.08613987;0.060818;-0.062290788;-0.10643472;-0.053622786;-0.058224086;-0.13158366;-0.042164803;0.0167052;-0.0039457367;-0.080868445;-0.057255197;-0.11454284;0.06482015;0.068421766;-0.067481354;0.018992143;-0.05193439;-0.12051291;-0.15410507;-0.07265244;0.058231656;-0.0546395;-0.05579099;-0.05116355;-0.03178554;-0.06060899;-0.024205925;-0.0035398987;0.013455954;0.069939315;-0.030021396;-0.038432073;-9.073811e-05;-0.02628007;-0.04958327;-0.010133913;-0.01926933;0.05688707;-0.1207271;-0.0004784592;-0.049465224;-0.23519681;-0.027651366;-0.09166681;-0.06719806;-0.054181736;-0.0047380403;-0.072303995;-0.103834435;0.0038637186;0.1270603;-0.14073944;0.007978675;-0.12040312;-0.052985746;-0.026990278;-0.08570951;0.112780035;-0.21784984;0.011050934;-0.07870678;-0.024916837;-0.06977643;-0.13834581;-0.18177545;-0.038117133;0.05642171;-0.015510399;0.08149075;0.0016388962;0.043636654;0.064441815;0.019857792;-0.00446195;-0.025391696;0.04419502;-0.055487957;-0.056250032;-0.07277907;-0.0012916478;-0.0922498;-0.13580352;-0.07374119;-0.048860263;-0.07188965;-0.023497429;-0.08866771;0.0031626818;-0.031765465;0.07562279;0.09040728;-0.045776606;0.0344353;0.01394015;-0.08383927;-0.00463413;0.027442697;0.015480327;-0.051227715;0.018803295;-0.08853245;0.0124239735;-0.024485473;0.08904205;0.122873105;-0.036802236;-0.10217225;0.037687615;-0.01139727;-0.02959274;0.057480954;0.04401399;0.06424096;-0.017493827;0.061850592;-0.014834298;0.048418097;-0.09589233;-0.025235299;-0.04546815;-0.043797616;-0.10355149;-0.027262775;-0.04065711;-0.044191293;-0.072706275;0.052672375;0.0016488691;-0.041116122;-0.07457083;-0.044731323;-0.003228871;-0.024041163;-0.062619835;-0.0022625332;-0.081025355;-0.04044697;-0.060145035;0.013172933;0.045493662;-0.02323267;0.0497521;-0.030594481;-0.027993105;0.00989866;0.034027368;-0.12658966;-0.1706986;0.016160954;-0.10813054;-0.09504627;-0.09863723;-0.030352278;0.06907222;-0.024605097;0.021327443;0.027520442;-0.037781823;-0.03720576;-0.033581555;-0.030632773;0.05803175;-0.042219892;0.03708184;-0.068052694;0.03329736;0.019586733;-0.1385088;-0.076746516;-0.107612304;-0.0009416748;-0.103172444;-0.073435895;0.03337301;0.08815382;0.18974786;-0.14665255;-0.023655027;0.03271806;-0.11285882;-0.084573604;-0.09413743;-0.012953857;0.0062488457;-0.08952741;-0.0932443;-0.03349272;0.04457409;0.15208213;-0.008004237;-0.091356486;0.07961863;-0.12104622;-0.06177331;0.05442622;-0.00020183463;-0.124648206;0.12005444;-0.0071725897;-0.019668385;-0.0073309685;-0.08204734;-0.06133865;0.08115546;0.07146331;-0.018820334;0.094140865;-0.050597727;0.02914248;0.019051645;-0.093685456;-0.015341654;-0.076287165;0.050194934;-0.03239913;-0.03389795;0.0073816124;0.05930656;0.020105893;-0.0076980353;0.0054523535;-0.069956325;0.014132273;0.0016568195;-0.004377678;0.015370839;-0.106089376;-0.02400053;-0.17039084;-0.077923656;-0.1411404;-0.18601047;-0.04281442;-0.02562406;-0.04341973;-0.0049379542;-0.004766233;-0.051728822;0.049613755;-0.006292299;-0.061195597;-0.1103667;-0.032732554;-0.067304246;-0.006829933;0.016018843;-0.12506215;-0.0021952537;-0.009705202;-0.022498963;0.009289256;0.184416;0.12262091;0.08460992;0.069068946;-0.17547758;-0.08413684;-0.11034238;-0.01146203;0.042449687;-0.020852879;0.014958446;0.019604538;-0.039405044;-0.013618047;-0.004120739;-0.057840295;-0.022510478;-0.17080125;0.013771809;-0.010948429;-0.049378004;-0.026392246;0.007018307;-0.10683968;-0.0034977247;0.055868726;-0.025646461;-0.020118944;-0.07002172;-0.32580644;-0.03540507;0.022642197;-0.026102522;0.090571426;-0.08125732;-0.015914157;-0.06110652;0.0049488535;0.077556945;0.01601812;-0.059560828;-0.08051209;0.0015792111;-0.013182577;-0.049234726;-0.046601612;-0.120741084;-0.02627301;-0.062321242;-0.015437757;-0.089103274;0.054871954;0.0006923115;-0.015672028;-0.030698903;-0.0145524815;-0.0669117;-0.03609428;-0.15424001;-0.06653808;-0.056512926;0.105270766;-0.012196603;-0.09150511;-0.06320472;0.103954725;-0.17848223;-0.070779;-0.072864935;0.033429727;-0.040585104;0.033099312;-0.09441889;0.019498862;-0.05949657;0.049514137;-0.11257238;-0.022706522;-0.21604581;-0.11587779;0.08977388;-0.057869986;-0.08877916;0.008624607;-0.021940347
-0.07793421;0.042284828;0.13118805;-0.06249525;-0.1595572;0.030177835;-0.08296722;-0.10568587;-0.118333384;0.037069775;-0.03465405;-0.049055036;-0.08589106;0.007846101;0.01583692;0.038550586;0.09007746;-0.009954992;0.069662206;0.0023211902;-0.0237269;-0.09805839;0.07872082;-0.03338675;-0.08671652;-0.22096269;0.0044641746;0.047438182;-0.090630434;0.15591162;0.014711395;0.015358005;-0.060509283;-0.12536274;-0.11443711;-0.08223859;0.04256469;-0.056878384;-0.1480273;-0.12553485;0.06303683;-0.16551945;-0.0016029049;0.056983467;-0.3035428;-0.016803294;-0.05955664;-0.12996644;0.020160556;0.008541963;0.007248403;0.02582472;-0.10327136;0.078850836;-0.07453138;-0.0413496;0.14093715;-0.07287066;-0.12222396;0.045748685;-0.037691377;-0.18369673;-0.056737665;-0.087491356;0.087147556;-0.23628154;-0.054049477;-0.10053657;0.087182604;-0.0435101;0.057013243;-0.11318648;-0.06711511;0.028611902;0.08891514;-0.14539517;-0.064521804;-0.018147271;-0.0019172056;0.06568515;-0.14445432;0.031004263;0.12817073;-0.0589768;-0.080193125;-0.004779605;-0.045871463;-0.14305966;-0.08939338;-0.021581203;0.019764204;-0.057131305;-0.045897156;0.08068728;-0.15408719;-0.039169136;0.022916794;-0.053480294;-0.11956205;-0.0059192744;-0.1266379;-0.097363465;0.07668676;-0.054294698;-0.0068917386;-0.061817728;0.009363995;0.03902654;-0.13812773;-0.08489953;-0.16636169;-0.05835995;-0.09847784;0.090880185;0.05108743;-0.01578117;-0.10502798;0.08293082;0.017377535;0.031056538;-0.013259213;0.012957835;-0.08615036;-0.11884179;-0.050116036;-0.08570637;0.0714106;-0.030770117;0.058266494;-0.0025876497;0.0052585998;-0.026066337;0.00032436926;-0.04743685;-0.0823301;0.050365616;-0.06895219;0.13581058;-0.17056179;-0.04949863;0.022513026;0.14606644;-0.047652654;-0.0908774;0.06805114;-0.020381672;-0.022639006;-0.08416539;-0.084613405;-0.049318824;0.006702451;-0.06214159;0.029449578;-0.06886392;0.003257583;-0.25119877;-0.14160001;0.10177864;-0.009653796;0.025406338;-0.03618293;-0.10911817;0.04624896;-0.104999155;0.04807094;-0.06548832;-0.043586794;0.0005645309;-0.11536486;-0.13752592;0.09690232;-0.08332402;0.017514633;0.02152203;-0.02714184;-0.005998745;0.05459757;0.09704227;0.033694442;-0.07814027;0.009420458;-0.106031574;0.021008732;0.053141646;-0.081273645;-0.12278406;0.13111925;-0.0054545538;-0.054144807;-0.02422928;-0.012360032;0.027459241;-0.048298568;-0.064388886;0.09473784;-0.014876959;0.018387549;-0.15501902;-0.0067193997;0.07311507;-0.084113285;-0.09711268;0.012547051;-0.09342627;-0.043354776;-0.07059393;-0.09378141;0.044346973;0.05607899;-0.056114156;-0.02707778;-0.05056453;-0.098240055;0.046453897;-0.075570576;0.03787418;0.025321482;-0.15513226;0.048631225;-0.059492182;-0.054640353;-0.08745456;-0.059109863;0.011372044;-0.09695453;-0.013126486;0.0537373;-0.021297924;-0.0728537;-0.07545195;0.012364526;-0.13550597;-0.040787276;-0.06877203;0.050423514;0.061404545;-0.08585437;-0.0018743316;0.053555913;0.15257415;-0.08435955;-0.011589066;-0.077406034;0.007959329;0.06530376;-0.027069729;-0.08697097;0.015537574;-0.033686336;0.046313684;-0.1814658;-0.013788834;0.08559531;-0.03091648;-0.06950735;-0.08942379;-0.0024432347;-0.01717812;-0.12206368;-0.04286014;-0.026301792;-0.13906063;-0.07260643;0.00976981;0.053005792;-0.05318846;0.068262495;0.004484483;-0.03238626;-0.094468296;-0.031725645;-0.05850204;-0.01728283;-0.0871841;0.0559026;-0.0832502;-0.024862822;0.00082138006;0.0009849794;0.094328985;-0.05793043;-0.17165577;-0.017198348;-0.074802555;-0.04903484;0.018334735;-0.09110182;-0.05545853;-0.06099885;0.0044945106;-0.005942705;-0.08084136;0.09438807;0.031533368;-0.09947146;-0.050143488;0.0609777;-0.0032145162;-0.20575725;0.06135797;0.023680208;0.017440328;-0.04793712;-0.07215594;-0.12933473;0.01810668;0.10652968;-0.12936349;-0.011212898;0.04146213;-0.019983852;0.07012065;-0.06426544;-0.09220134;-0.079126455;-0.003621935;-0.013570104;-0.0431194;-0.0838065;-0.027464105;0.021602275;-0.15832722;-0.17572908;0.061168063;-0.036400307;-0.044494636;-0.040128987;-0.06622652;-0.062083654;-0.02772554;0.054401293;0.060896073;0.050768275;-0.037848216;-0.024000362;0.026153587;0.06497151;-0.041905407;0.015965633;-0.07231874;-0.0414533;-0.050980456;-0.1013056;0.033466056;0.09132582;-0.13960896;0.06294534;0.018454427;0.033885606;-0.0273874;0.006616824;0.052147686;0.009334578;-0.0047072517;0.020473834;-0.022118468;0.10259421;-0.006491446;0.087713815;-0.08479009;-0.10009407;0.02256971;0.12246089;0.013427201;-0.042796116;-0.0804584;-0.07179927;-0.081672445;-0.020175584;-0.025731318;0.03417001;-0.0541391;-0.10272144;-0.008166792;0.11400452;-0.124348454;-0.07109976;-0.15317327;0.03863233;-0.014218348;-0.10592567;0.022374928;0.005848011;-0.041180268;-0.026448343;-0.03970624;-0.14866918;-0.20278546;-0.040138785;-0.036899973;-0.11001199;-0.124794446;0.047291838;0.02758828;-0.057623684;0.044278838;-0.028837325;-0.023302786;-0.0020869747;-0.07732231;0.0144585995;0.00066356343;-0.05822976;-0.035535995;0.057415333;0.096552916;-0.0049728085;-0.13776183;-0.023342587;-0.03705197;-0.03926699;-0.050334986;-0.055738237;-0.11765103;-0.026536437;0.1643737;-0.02548795;-0.06629365;0.10927326;-0.13703239;0.03562258;-0.099019624;0.0240338;-0.011895045;-0.09385654;0.029001497;-0.06687804;0.03168781;0.13928597;0.047402356;-0.06664397;0.0022106397;-0.0107786525;0.05998009;-0.093894035;-0.104210965;-0.07637858;0.15098709;-0.06332539;-0.044572372;0.011052711;-0.05437999;-0.08301185;0.036795918;0.052195884;-0.085347496;0.0073209354;-0.015284655;0.021205971;0.084152974;0.045185175;-0.021666665;-0.10616526;-0.033781767;-0.05117397;-0.08497391;0.018616032;0.14473617;0.025968736;-0.0005404602;-0.06869498;-0.047341276;-0.00027401623;-0.07203281;-0.000612423;0.0031380556;-0.011016886;-0.14362597;-0.13801612;-0.120974354;-0.15657614;-0.08894537;0.093180224;0.06092194;0.07763654;-0.0032493812;-0.086267054;-0.013029398;-0.0882066;-0.008800214;-0.07268902;-0.08309533;0.04776582;-0.0797363;-0.007592888;-0.07962998;-0.050634794;-0.079805225;0.06278745;-0.043220405;-0.07484298;0.116502255;-0.0073782024;0.03345117;-0.0034589225;-0.15253423;-0.020434098;0.027673366;-0.08842737;0.043447852;-0.014890598;0.011204216;-0.077437595;0.04477643;0.022618145;-0.07758706;0.03134275;-0.031091884;-0.052642778;-0.0013796196;-0.0683605;-0.108556814;-0.056486413;-0.053727254;-0.02491196;-0.027470876;-0.010199734;-0.14991273;0.07142961;-0.065264516;-0.35333723;-0.057711437;-0.030704992;-0.09017851;0.08730978;0.012186597;-0.120014735;0.056221202;-0.03768776;0.069010116;-0.062782146;-0.07604813;-0.061914895;0.002214935;-0.0015209285;-0.039997973;0.06983555;-0.06107872;-0.015940536;-0.08417964;-0.13752759;-0.031274233;0.008290486;0.003992079;0.025142398;-0.103543855;0.01939426;-0.03982111;0.013965882;-0.16952345;-0.17030872;-0.06367898;0.019831844;-0.023374727;0.011157363;-0.026148785;-0.049533594;-0.20353466;-0.038391896;0.00025742114;-0.056353822;-0.01391052;0.037744112;-0.025282737;-0.022586284;0.10982063;0.011261875;0.044387735;-0.0389644;-0.16897161;0.018843058;-0.020224968;-0.028640987;0.0051247426;-0.027869761;0.010569041
-0.03678039;0.07182509;0.05101281;0.058830455;-0.17630239;-0.015554677;0.035442665;-0.11581258;-0.007712024;0.06317889;-0.022015383;-0.03957694;-0.09038527;-0.0028953678;0.009376462;-0.11775929;0.027710278;-0.0035665417;-0.013507261;-0.057389665;-0.016886948;-0.05725166;-0.07171488;-0.067196295;-0.015236478;-0.0884665;-0.081854165;0.104674846;-0.01249054;0.061643355;0.024718171;0.023783782;0.012760123;-0.14144473;-0.019710166;-0.08448409;-0.04106202;-0.069443785;-0.07429992;0.0006722479;-0.03497855;-0.10996621;-0.07246396;0.116620034;-0.13792442;0.074593246;-0.06641245;-0.081414394;-0.047881123;0.036937747;-0.03514947;0.17496243;-0.06605229;0.12696773;-0.049167812;0.060278475;-0.01314557;-0.034903377;-0.10099431;-0.06188068;-0.005090865;-0.20581958;-0.07019225;-0.058297254;-0.06752323;-0.25847226;-0.06960016;-0.17465171;0.08205749;-0.1501251;0.048589747;0.008311556;-0.12988605;0.031793408;0.13308091;-0.093449354;0.0065361983;-0.015586638;0.094713055;0.12622033;-0.0050597778;0.057598718;0.16163796;-0.17160684;0.018121863;0.040806625;-0.100663036;-0.019254453;-0.07740428;-0.08255605;-0.050365523;-0.02260505;0.027640404;-0.05566517;-0.017689785;-0.11060938;0.018210825;-0.12701723;-0.12248585;-0.09546159;-0.12795228;-0.10713388;0.052379318;-0.04536417;0.03349032;0.044288054;-0.05702241;-0.04025521;-0.15338275;-0.11776501;-0.20148437;-0.079807214;0.0037852381;0.12133905;-0.0077242474;0.01850599;-0.008172473;-0.03561175;-0.13979748;-0.05721769;-0.09435258;0.040869877;0.041945282;-0.014336035;0.01976002;-0.023877231;0.08341718;-0.053978115;-0.022577295;0.02782085;0.028622003;0.019099869;-0.14125372;-0.03274338;-0.15653168;-0.02349355;-0.08154546;0.10978786;-0.1027444;-0.010512648;-0.014665259;0.11294084;-0.1048264;-0.09897339;-0.0056273094;-0.09707674;-0.02715713;-0.066408105;-0.14050339;-0.02072422;-0.05089754;-0.013120657;0.016610147;-0.020476082;0.014926171;-0.24213235;-0.13272294;0.02301005;0.053648833;0.08045555;-0.051747214;-0.014051129;0.033729315;-0.04910795;0.04809122;-0.0634842;-0.009293048;-0.07397039;-0.08570156;0.012409457;0.1383905;-0.06526584;0.01495596;-0.07292293;-0.13243107;0.04987316;-0.03331679;0.09106768;0.14952895;-0.097761214;0.008678373;-0.035143867;-0.12721018;0.087267905;-0.10238826;-0.10241539;0.16185567;-0.023632502;0.009552384;-0.01881372;-0.031283315;-0.049229026;0.018763782;-0.09357809;-0.01338687;-0.06520794;0.0038217634;-0.031463064;0.048593644;0.059287846;-0.06383521;-0.06899507;0.0074553536;0.025159791;-0.022703232;-0.009016425;-0.08855712;0.14253685;0.11738473;-0.06637581;0.0119128795;0.026496243;0.021692347;0.017912451;-0.01576414;-0.09643356;-0.08175244;-0.19671582;0.030325413;-0.14212893;-0.06670272;0.02016954;-0.095469564;-0.08844244;-0.045120005;0.025052521;0.11099528;-0.1289364;-0.051652312;-0.082127765;-0.13709667;0.033576176;-0.023187963;-0.05345335;-0.064322226;0.05649155;0.054752022;-0.0030829057;-0.08117261;0.085881986;-0.05164059;0.004573682;-0.10701118;0.018401692;0.022034032;0.004846552;-0.121143036;-0.07512407;-0.044678748;-0.03696832;-0.0815052;-0.05159259;0.05671793;0.10349668;-0.16967444;-0.025572965;-0.08637633;0.0028057215;-0.052811883;-0.0049039773;0.11266327;-0.002511977;-0.094132945;0.07198531;-0.016714236;0.032659777;0.028902505;-0.10527062;-0.06760458;-0.09924069;-0.009362759;-0.09605324;0.018256832;0.031487152;-0.061528414;0.065749146;-0.036869552;-0.09636414;-0.09364487;0.04011301;-0.050542288;-0.15957177;0.009965821;-0.053127263;0.02652715;0.058528285;-0.07158266;-0.08951962;-0.05216816;-0.056320008;0.017472738;-0.22747625;0.02623363;-0.033887886;-0.041288562;0.058518086;-0.04732401;-0.0012750027;-0.2687657;0.08386365;-0.07714349;-0.069012664;-0.029283663;-0.043972597;-0.061279755;0.024159191;0.02865645;-0.087223925;0.10272418;-0.010600716;0.03756518;0.0034750283;-0.007299909;-0.10579574;0.008608679;-0.00030604447;0.012469107;-0.104062974;-0.02608447;0.013308667;-0.11014096;-0.10705346;-0.15465634;0.0115666045;-0.04984955;0.03990065;0.0051998454;0.043022458;-0.08880836;0.0095480615;0.14132866;-0.04198873;-0.050457172;0.031634167;-0.079161376;0.043246727;0.039632425;-0.09505154;-0.07375108;0.0072731683;-0.13023518;-0.13662578;0.025693564;0.020085262;0.06143139;-0.026286913;0.044241197;-0.07928139;-0.057395305;0.064719096;0.04382291;-0.03924491;-0.076521024;-0.018336544;-0.06730341;0.037623703;0.15954821;-0.054081537;-0.008856128;-0.046372734;0.0019591604;-0.04381069;0.12276864;-0.009003147;-0.023207935;0.039202776;-0.019707516;-0.042798746;0.049204305;-0.043978177;-0.09176854;0.050014988;-0.16648874;-0.06912912;0.090898134;-0.010622492;0.071051665;-0.0131049035;-0.008077992;-0.027656676;-0.018045215;-0.093815506;0.060599368;-0.015687952;0.09844258;0.056378454;-0.15579323;-0.16591726;-0.122058876;0.029356552;-0.018323332;-0.07016168;0.043512065;0.060477365;-0.009512565;-0.0726306;0.08026842;-0.009941312;-0.013839299;0.01611776;-0.04309811;-0.057096712;-0.058903787;0.031413436;-0.01866537;0.07471517;0.0025019157;-0.22775841;-0.040110487;-0.011537499;0.007711063;-0.05064268;-0.05494068;0.026921224;0.063258156;0.11174232;-0.020942276;0.03189553;0.058254365;-0.18744794;0.025038607;-0.12048003;-0.007439555;0.00038975533;-0.008491674;-0.073958844;0.034883052;-0.008883627;0.09304407;0.069140814;-0.08043593;0.075346656;-0.12316937;-0.060393196;0.05595489;-0.013840814;-0.03764567;0.18223266;-0.119376875;-0.06104225;-0.018757567;-0.0343377;-0.078799814;-0.036381662;-0.0387027;-0.02962511;0.0646846;0.027902372;0.0495746;0.009173153;0.025665795;0.04566317;-0.015764382;-0.071323484;0.077461615;-0.029117435;-0.029163076;0.13730898;-0.02216839;-0.021587074;-0.09486377;-0.15457484;-0.07044929;-0.09883382;-0.007403954;0.025590766;0.0027472563;-0.12755501;-0.14524424;-0.14021288;-0.19309963;-0.06235971;-0.0014161858;-0.05508494;-0.07403575;-0.029069778;-0.099248596;0.00061067555;-0.008652341;-0.04714291;0.015668033;-0.08629312;-0.055576142;-0.011670394;-0.026767904;-0.021208908;0.0048922114;-0.055106316;0.12786503;-0.039853986;0.032138005;0.14157163;0.00199335;0.045102675;0.019099422;-0.074712016;-0.08210887;-0.06350218;-0.1281579;0.038970027;-0.012437798;0.0025719667;0.02977008;0.025564753;-0.03735144;0.008013731;-0.076508984;-0.01657353;-0.09560158;0.064125;-0.03326311;0.025447752;-0.06511452;-0.094946064;-0.103289165;-0.12631986;0.05347631;-0.10013987;0.1483462;-0.1867221;-0.3591798;-0.034399427;-0.052091856;-0.1220113;0.050035156;-0.054018583;-0.075082816;0.053627357;-0.055077847;-0.01732717;0.049176406;-0.070978925;-0.044223778;-0.028725594;0.013900416;-0.030798806;0.00793391;-0.16525412;-0.0100706145;-0.08254963;-0.028518643;-0.01758188;-0.018192532;0.08622586;-0.013830886;-0.11877938;-0.011060357;0.0055495226;-0.09258382;-0.15082824;-0.060407292;0.014290794;0.11820819;0.034640618;-0.023228267;-0.01350976;-0.01483454;-0.28175154;0.018755414;-0.030525358;-0.0041585322;-0.0042838743;0.0028074754;-0.026609618;-0.104890674;0.04327373;-0.03370143;-0.05824033;-0.0110442;-0.084676646;-0.12561478;0.039515186;0.014761749;0.025081296;0.0114570595;0.05889099
0.025754383;0.12624778;0.12958005;0.019871632;-0.05431506;-0.049706936;-0.1098675;-0.037874103;-0.026765525;0.007281562;-0.08485616;-0.07795219;0.031788077;-0.0049018534;-0.0076300087;-0.08250942;0.10577079;0.10599811;-0.011389076;-0.06743805;0.055531166;-0.15172368;0.014384684;-0.06822502;0.0041550444;-0.19312775;-0.12819783;-0.05719099;0.016357712;0.052079156;0.029234013;0.004749336;-0.057351444;-0.15785572;-0.06386534;-0.046222474;-0.088268094;-0.06767826;-0.15378411;-0.082161106;0.042147644;-0.18085298;0.07445607;0.042305596;-0.17058158;0.014561303;-0.09808288;-0.11562535;0.040567715;-0.09623991;-0.035849243;0.022045378;-0.055464014;-0.016100412;-0.0689598;0.0030137775;0.13948551;0.05056178;-0.04661919;-0.08655731;-0.038185418;-0.07403863;-0.062472664;-0.029016132;-0.031148786;-0.23345158;-0.043953322;-0.042393308;0.08040038;-0.005803632;-0.10259997;0.026619377;-0.03343597;0.041333027;0.12638408;-0.105411395;0.011971851;-0.08569534;0.17470852;0.07151399;-0.15233605;0.01408166;0.1495902;-0.12151551;-0.01955391;-0.028960817;-0.08243713;-0.0734416;-0.06762725;0.04338623;0.04210005;-0.06933732;-0.019743307;0.057038445;-0.15476172;-0.14505412;-0.13399008;-0.10072406;-0.10801849;0.03923325;-0.09549152;-0.041623104;0.01722;-0.043286063;0.035985153;-0.01827494;-0.07289384;-0.084979534;-0.1138507;-0.089059904;-0.18985043;0.023878448;-0.11540442;0.05149718;-0.0825398;0.046464857;-0.0016304718;0.074801706;-0.099219985;-0.110898964;-0.026834566;0.032418072;-0.07288618;-0.05804843;0.022499943;-0.04933074;0.0367909;-0.054683648;0.050080333;0.047759753;0.042956255;-0.07460904;-0.1258084;-0.0071397778;-0.11678225;0.02650745;0.010200164;0.15361136;-0.14236929;-0.12818225;-0.075540744;0.126301;-0.01670097;0.0017063109;0.051149223;0.010355536;-0.0709735;-0.038189992;-0.09784418;-0.0553585;0.0043155993;-0.06839325;0.065975726;0.04240306;-0.07979505;-0.18573998;-0.073225774;0.00841792;0.025327146;-0.014818161;-0.08783127;-0.14762959;-0.1162519;-0.08374629;0.018796524;-0.006291573;-0.0125503875;-0.029292112;-0.13841096;-0.092040926;0.0046222964;0.039465956;0.038350135;-0.053231906;-0.018079357;-0.025344484;0.027020754;0.09036278;0.026692694;-0.07202931;0.020279357;-0.15623923;-0.1135707;0.07815817;0.014841579;-0.06840359;0.13284254;-0.10008805;-0.10384144;-0.07056492;-0.06605282;-0.062446885;0.032077756;-0.14807814;0.036969684;-0.013884748;-0.004303397;-0.077169955;-0.026606102;-0.020499798;-0.10330433;-0.0830939;0.04882408;-0.0077734;-0.05308572;0.0027499166;0.0071763042;0.051590797;0.0034784842;-0.10587928;0.00802888;-0.1224273;-0.024380263;-0.047553696;-0.043757986;-0.03407419;0.0008701637;-0.1523022;-0.13085614;-0.020499667;-0.053221278;-0.10488341;0.005063;-0.043434825;0.01972385;-0.09382112;0.037644003;-0.0713962;-0.020164596;-0.02560868;-0.093047805;-0.044688452;-0.040374625;0.027239056;0.026399322;0.032218307;-0.035225693;-0.0060288957;-0.021167247;0.023214685;-0.089510664;-0.012105736;-0.107636414;0.07626793;-0.0902328;-0.025713492;0.026198354;0.033422492;0.07622854;0.001814036;-0.1090967;-0.09189791;-0.0011932496;0.031106198;-0.067808196;-0.08485671;0.03192163;-0.083865866;-0.030316863;-0.10698048;0.10747981;-0.075583965;-0.029136881;-0.07753442;-0.0098806005;0.01722307;0.02445435;-0.08558086;0.017483843;0.054692872;-0.078779;-0.05825668;-0.0067329803;0.025653511;0.03771177;-0.09120068;-0.010164427;-0.0006823468;-0.12872392;0.085215785;0.037054412;-0.22189146;-0.010941886;-0.06912463;-0.11297104;-0.027980797;-0.039569046;0.008894452;-0.033657804;0.0043560765;-0.025581282;-0.18991195;0.046228174;-0.0017621941;0.008471318;-0.0010351109;-0.07360708;0.07346668;-0.18091668;0.060063124;-0.030133516;-0.095057845;0.040870197;-0.15007815;-0.15923771;0.035703197;-0.054533083;-0.14400163;0.048425384;-0.015976148;-0.07514772;0.04961725;-0.105031595;-0.10539545;-0.010580528;0.047547285;0.022988982;-0.02425179;-0.03987754;-0.06203758;-0.08631218;-0.14841717;-0.14397469;-0.048313934;-0.0064873635;0.00029697473;-0.026406838;-0.10784037;-0.0005337382;-0.057805218;0.13904683;0.025663404;0.007192067;-0.049890984;0.032865334;0.02747033;0.022693845;0.010505645;0.012705327;-0.028839378;-0.12813663;-0.10634913;0.01919443;-0.020627938;0.14670932;-0.11869231;-0.032453887;-0.1087076;0.009457979;-0.039539922;-0.015884375;0.08113976;-0.004222086;0.042298418;-1.863786e-05;-0.0976855;0.11379451;-0.06519154;0.08072013;-0.07059688;-0.08186196;0.021848705;0.008621423;-0.08994041;0.014510113;0.021783464;-0.0043131923;-0.035566084;0.010348724;-0.010599526;0.03423752;-0.07333987;-0.12946548;0.028925242;0.08436979;-0.103791244;0.061632585;-0.036777884;0.021225521;0.06820161;-0.072459936;-0.025233226;0.04743312;-0.07581981;0.073394634;-0.031112054;-0.08670985;-0.1684593;-0.0114144115;0.004754817;-0.07711032;-0.15646431;0.045688134;0.07304566;0.023532096;0.036043383;-0.018338105;-0.17164461;-0.08443468;-0.06896056;-0.103489295;0.046388023;0.03597792;-0.0027953347;-0.09045026;0.07382489;0.018243516;-0.09589332;0.018142324;-0.06093383;-0.07248144;-0.10877551;0.047484413;-0.087361835;-0.036297962;0.17973807;0.004560546;-0.07689238;0.08768028;-0.2194733;-0.049785316;0.010330743;-0.00040743544;-0.01521217;0.02355774;-0.08707151;-0.032379083;-0.049592514;0.10601983;0.058105938;-0.114558704;-0.009677174;0.015032637;0.043289613;0.05779734;-0.092692055;-0.050924256;0.090255804;-0.030113216;-0.099503025;-0.03609852;-0.00078034087;-0.0035321405;0.018033566;-0.024985582;-0.060780983;0.0014192113;-0.07647501;-0.049497575;0.08759631;0.032778695;-0.022946646;-0.08422771;-0.06046973;0.08804473;0.0069917836;0.029181272;0.106565066;0.017748969;-0.11700173;-0.04848857;-0.017301464;-0.023502897;-0.09221005;-0.08969942;-0.025120307;-0.050746504;-0.071335524;-0.0676967;-0.106453896;-0.15367062;-0.16094361;-0.053434707;0.048616227;-0.07675104;-0.123092175;0.015568297;-0.049651824;-0.017124487;0.05019222;0.00073094765;0.020590594;-0.042789724;-0.033471677;0.034330893;-0.011223795;-0.124390624;-0.121205874;-0.008503569;0.017236136;-0.0016824355;0.09924052;0.05332705;0.03551676;-0.02577234;0.014699671;-0.0042883516;0.004069321;-0.06352771;0.0395927;-0.043652367;-0.08757457;-0.026148623;-0.10539912;-0.12898687;-0.113502845;0.065663256;-0.07174267;-0.16868655;-0.0039536213;-0.021294307;0.031083995;-0.11742146;-0.030783514;0.04002089;-0.050347824;-0.085762516;-0.15375845;0.02094763;-0.07407923;-0.29114923;-0.16743155;-0.04550319;-0.110177666;-0.020124193;0.04825222;0.008236972;-0.07517515;-0.05976324;-0.012920544;-0.07807786;0.01503383;0.021488758;0.0014994678;-0.07818561;-0.033740774;0.06765096;-0.12197411;-0.14387266;-0.07099441;-0.14214972;-0.089828074;-0.049289726;0.115569636;0.021679427;-0.08006941;-0.025114758;-0.075905755;0.0019925034;-0.08072294;-0.13324098;0.02799066;0.046644505;0.042947706;0.0037762662;-0.023408394;-0.0117761865;-0.2538707;-0.012477462;-0.032709707;-0.1049911;-0.050357617;0.013791576;-0.06261971;-0.07296813;-0.018613623;0.025321262;0.020484528;-0.056087468;-0.052348416;-0.0900403;-0.02757683;0.05187989;-0.098013565;-0.03701124;-0.032113705
0.02060251;0.13710646;-0.0040998864;-0.0424888;-0.038763613;-0.06683268;0.005728139;-0.10826525;0.021906741;-0.020400966;-0.035777476;-0.011676602;0.047194622;-0.0988662;-0.08995259;-0.06129263;0.042023487;0.1076152;0.021200938;-0.050905637;0.08269325;-0.048927546;0.042207103;-5.165568e-05;-0.03066635;-0.13509765;-0.008486374;-0.05792002;-0.1255006;0.14581095;-0.078701794;0.03794803;-0.039878715;-0.14536579;-0.032156825;-0.11196965;-0.061373826;-0.030748824;-0.14339;-0.06584178;-0.10984296;-0.14605574;0.0036125754;0.1274207;-0.25260964;0.022263324;-0.07800369;-0.116450176;-0.036552317;-0.041988533;-0.057963826;0.10995391;-0.107010715;-0.028352994;-0.04372967;-0.058379106;0.10084837;-0.0027460076;-0.003967259;-0.06133911;-0.005250008;-0.18658963;-0.09254384;-0.1143943;0.09929476;-0.26942512;-0.029652407;-0.1384857;0.07112231;-0.0702451;-0.1027855;-0.020282635;-0.08181527;-0.025996823;0.0015196986;-0.10566686;-0.083355665;-0.02221519;0.1261909;0.1504529;-0.09168651;0.034826927;0.07888496;-0.13180552;-0.02373948;0.030261895;-0.00525782;-0.05739854;0.0053164265;-0.014022643;-0.044909842;-0.13368241;0.040586587;0.022532219;-0.06641429;0.014158397;-0.0067244675;-0.0711115;-0.14316624;-0.05185218;-0.101676755;0.0046676705;-0.053544484;-0.007626766;-0.09346053;0.031489;0.051650252;0.04931913;-0.15712489;-0.12663744;-0.04025201;-0.057424344;0.028863892;-0.034939565;-0.07061712;-0.0015641103;-0.004749784;-0.023149565;0.006038492;-0.06942859;-0.06193604;0.041555427;-0.07324625;-0.10872398;-0.06443472;-0.07427927;0.0027560513;-0.006498508;-0.028283607;-0.01580408;-0.06807391;0.02102559;0.020522831;-0.043809313;-0.096821405;-0.015477329;-0.102850944;0.07058975;-0.043645557;-0.071052715;-0.077152036;0.043734632;-0.124981634;-0.0067835664;0.02929849;-0.102629;-0.029458297;-0.024805723;0.01468799;-0.055652425;-0.017650824;0.038038865;-0.06570339;0.05752701;0.0038562422;-0.09128798;-0.054339506;0.12673792;-0.06593682;0.09105677;0.010462726;-0.06511076;-0.003439121;-0.024095645;0.04333387;0.015955515;-0.09705207;0.014927534;-0.10278581;-0.07301158;0.07208527;0.0017230833;-0.01062119;-0.08601921;-0.120405756;-0.105334386;-0.009859619;-0.0071814666;0.101739705;0.0017110206;-0.043129437;-0.0601645;-0.12882435;-0.06452916;-0.0038901558;-0.07845816;0.091452494;-0.08290138;-0.04398199;-0.09230049;-0.02186368;-0.06577502;-0.03479894;-0.124849476;0.015797013;-0.060720824;-0.08205361;-0.08443878;0.002644697;0.080730945;0.024610344;0.044968747;-0.003472875;-0.095044546;0.012934449;-0.031548265;-0.042504605;0.1576054;0.10815477;-0.10511071;0.027589956;-0.12395111;0.01563453;-0.028584372;-0.04931723;-0.050339937;-0.009693202;-0.16177443;-0.059212662;-0.10766744;-0.12800023;-0.019464366;-0.1025203;-0.08392406;0.050715916;-0.019807879;0.02828688;-0.14257312;0.0341935;-0.070275165;-0.0707721;0.0047560413;-0.11695872;-0.005226386;0.041369922;-0.064437285;-0.015112237;-0.09650046;-0.059037503;0.12600724;0.01688852;-0.07245694;-0.09637409;-0.00043722757;-0.036315873;-0.052612178;0.0072239656;0.03450582;0.011660238;-0.019163467;-0.1775438;-0.13041012;0.050899964;-0.007387422;-0.04398242;-0.07669938;-0.04312589;0.007275277;-0.00014955227;0.041222464;0.12025394;0.010907288;-0.076338165;-0.04186797;-0.07458457;0.057797935;-0.025753915;-0.059965085;-0.060989402;-0.011066587;-0.12695211;-0.05289555;0.025730768;-0.12988174;0.07465497;-0.029544376;0.045367014;0.0059853387;-0.10534343;0.05101748;0.015224529;-0.17175002;0.012398282;-0.11176152;0.016676215;-0.060994662;-0.053738404;-0.020112313;-0.13568515;0.056743164;0.0047220476;-0.09867576;0.019881282;0.0009816416;-0.011835546;-0.08781447;0.036644675;0.17770076;-0.15902308;0.08570122;-0.09653472;-0.007832333;-0.0051224986;-0.08007838;-0.1189368;0.10225067;-0.04634039;-0.13938208;-0.0041518905;-0.079042666;-0.019619616;0.015340781;-0.058771897;-0.03577444;0.010961213;0.15245463;0.063210726;-0.056770176;-0.009618834;0.047032665;-0.07298057;-0.06349703;-0.1670756;-0.068411835;0.06142144;-0.028855441;-0.036650274;-0.004208028;0.032965116;-0.110533446;0.10855478;0.010867528;0.035357907;-0.010999395;0.009771049;0.13328339;-0.0037877064;0.04389536;-0.061413165;-0.0039970605;-0.12526917;-0.05117037;-0.084078416;-0.0314402;0.07751496;-0.1604029;-0.04117629;0.032520115;-0.067427985;-0.05371391;-0.061304722;-0.0051596574;0.0625443;-0.09286864;-0.04733087;-0.0076473188;0.06692742;0.049403787;0.079195686;-0.080685206;-0.031028721;-0.062070724;0.103845894;-0.103701845;-0.031197518;-0.07213893;-0.09980646;-0.021207642;-0.07449707;-0.052154403;0.01773888;0.05888423;-0.041437853;-0.03964698;0.09551568;0.0070149377;-0.07554003;-0.067283146;0.029827856;-0.07084075;-0.0918925;-0.10615857;0.019658303;-0.09881152;0.10123718;-0.10347419;-0.14247629;-0.09339509;-0.0044701244;0.010602157;-0.070661515;-0.08723528;0.07853426;0.08447517;0.037926726;-0.06136082;-0.037838563;-0.16299993;-0.15639715;-0.084785156;0.0318171;-0.08614323;0.018259872;0.054320954;-0.033006594;0.016532946;-0.041283768;-0.17327012;0.083911695;0.023470541;-0.14439306;-0.04318118;0.041785587;-0.0057284506;0.09024419;0.13701162;-0.13694374;-0.03826586;0.035443533;-0.17109692;-0.0544909;-0.09331227;0.014732821;-0.08949068;-0.08248086;0.010732339;-0.004322415;-0.091330744;0.12400568;-0.019563025;-0.09073613;0.028643668;-0.017874105;-0.042071566;-0.061515633;-0.12948592;0.009911869;0.00322711;-0.061004605;0.01025091;-0.06853533;0.009200198;0.006115333;0.073826864;0.027723517;0.04254301;0.04597489;-0.10957207;0.035725974;0.07593453;0.03195808;0.029440451;-0.008472201;-0.055645127;-0.049342357;-0.08906281;-0.06735514;-0.009808813;-0.07697232;-0.008317625;0.052677684;-0.050767068;0.028563643;0.02361891;-0.0801529;-0.10653669;-0.0155006945;-0.1327667;-0.14550394;-0.092667885;-0.19171377;-0.1834277;-0.06085531;-0.0047908914;-0.08164711;-0.06410632;-0.111599416;0.01565586;-0.04479798;-0.10861886;-0.1256131;0.052566625;0.001479053;0.041025914;-0.06505132;-0.060215212;-0.093430184;-0.12803464;0.049949717;0.005055384;-0.09600093;0.047443703;0.053457662;0.09584384;-0.010048955;-0.05303761;0.021205395;-0.072558604;-0.15628155;0.018792091;-0.04827668;-0.055790443;0.023163598;0.021123027;-0.027457332;-0.039647076;-0.079189084;0.026663614;-0.03313095;-0.016770862;-0.0918;-0.06678092;-0.06900329;-0.028826645;-0.06300824;-0.039872054;0.020501547;-0.006420358;0.08522339;-0.1488414;-0.25764874;-0.001897061;-0.0523344;-0.011430856;-0.057583172;-0.05757342;-0.091630176;0.043649565;-0.091177635;0.0723474;-0.037186995;-0.007447065;-0.040021352;0.0060245604;-0.048361648;-0.0519;0.032041196;-0.20267369;-0.030871833;-0.12985896;-0.037596956;-0.00070106477;-0.09944029;0.031300873;-0.095918596;-0.10367229;-0.13813157;0.028374942;-0.074664235;-0.012512069;-0.14144161;-0.02939627;-0.012895314;-0.017909454;-0.005255985;-0.049021605;-0.05174632;-0.1630072;-0.057008136;-0.06508059;0.013156584;0.009253117;0.008541915;-0.11529963;-0.1059683;0.05299394;-0.06522711;-0.04505156;-0.12222516;-0.048483163;-0.008948483;0.049555276;-0.03586845;-0.0997897;-0.002724879;-0.046198577
-0.026431935;0.10457051;0.0672397;-0.096798204;-0.14138713;-0.098024756;-0.0033324906;-0.16315073;-0.094346195;-0.00018398844;0.004010913;-0.044812232;0.020978745;-0.022436822;-0.057034213;-0.045216814;0.0942463;0.11560337;-0.040568728;-0.08108961;-0.0149338925;0.0021136662;-0.07249731;-0.08348709;0.006658756;-0.0789324;-0.03724939;-0.052324057;-0.087142825;0.123739906;-0.032371234;-0.06737222;0.014124675;-0.010546528;-0.08007555;-0.050972957;-0.10193266;-0.12632927;-0.16184929;-0.04813268;0.034602404;-0.03794593;0.05516838;0.12879077;-0.20734586;0.013998946;-0.091608584;-0.10647632;0.041943848;0.03116906;-0.09522005;0.04810234;-0.031766947;0.0013305909;-0.040566955;0.010969184;0.12274638;0.036496084;-0.100491814;-0.044582374;0.024831476;-0.16079864;-0.14116074;-0.12586798;0.05051487;-0.14523797;-0.08970964;-0.04667232;-0.027407331;-0.14133658;-0.074269965;0.006058021;-0.13984749;-0.13101807;0.058756735;-0.056413926;0.0655487;0.005760485;0.07602886;0.086247094;-0.09972747;-0.0889187;-0.015346358;-0.064839445;-0.018240675;0.052499156;0.051817466;-0.051668707;0.00822302;0.026230522;-0.05258371;-0.093985416;-0.013112975;0.028405951;-0.0108253155;0.0002656256;-0.028288856;0.0036540623;-0.1711501;-0.023521356;-0.08059088;-0.016719079;-0.041702937;-0.06734659;0.010592679;0.02616864;0.0759237;0.036496293;-0.19631001;-0.06661402;-0.08492486;0.011669472;0.020234177;0.030089887;-0.036806967;-0.05756581;0.050665364;0.071704574;-0.08327654;-0.059141602;-0.035027582;0.004034025;-0.044941254;-0.02757939;-0.114275426;-0.093088455;0.1012498;-0.01555694;0.025651773;0.05953554;0.017871505;-0.019770589;0.018377677;-0.041477185;-0.057955816;0.03953823;-0.04878918;0.14074449;-0.15665178;0.014970203;0.02127787;0.19584596;-0.03749765;-0.018446479;-0.03567392;-0.0928036;-0.06758007;-0.06477176;0.020318309;-0.003613045;0.0031600893;-0.03312771;-0.012596759;0.09979341;-0.048553005;-0.07438517;-0.089635506;-0.0036754904;-0.041665055;-0.03862052;0.016720887;-0.12389712;-0.06695607;0.057749584;-0.1310008;-0.027974552;-0.014049059;0.0663782;-0.10182065;-0.10703337;0.07711891;0.0012165857;-0.025859157;0.036389776;-0.057535276;0.029506965;0.078998186;-0.060701337;0.112118125;0.005791418;0.051574465;-0.14212994;-0.088629596;-0.097025596;-0.034263268;-0.06226357;0.0049034134;-0.1232651;-0.008657592;-0.09329575;0.023670169;0.019875385;0.063088216;-0.10368063;0.056640267;-0.05569226;-0.0011357825;-0.034312125;-0.018850867;0.045945935;-0.06582463;-0.06044456;-0.038532857;-0.036939602;0.008523494;-0.0058464836;-0.013147493;0.16678098;0.15468864;-0.04769545;0.03289711;-0.067739986;-0.027988216;0.02235185;-0.06947483;0.0014250283;-0.11429472;-0.07732661;0.011442085;-0.0055544903;-0.039758336;-0.10790548;0.009589065;-0.049552847;-0.09024668;0.043189093;-0.0032286064;-0.13481234;-0.014339085;-0.08321645;-0.085017055;-0.002328499;-0.043776635;-0.08475507;-0.08139616;-0.13086605;-0.069997795;-0.019776963;-0.07544129;0.04691743;0.069177724;-0.13155863;0.0087207025;0.025894048;0.02213179;-0.035062227;0.029472653;-0.058766626;-0.02834476;-0.08974466;-0.06905314;-0.04075902;0.031616326;-0.022619376;-0.15621412;0.024158476;-0.05155235;0.00787438;-0.0023974474;-0.04562694;0.041157708;-0.037002318;-0.08463268;-0.072448544;-0.013330931;0.027321873;-0.08880372;-0.03989376;-0.025768083;0.04256319;-0.06437418;-0.08415654;0.057267852;-0.09208607;-0.03563489;-0.0039580665;-0.020136757;0.041967615;-0.050443526;0.057082802;0.006484617;-0.19983944;-0.10357832;-0.13684551;0.015185789;-0.09986812;-0.0036397409;-0.090150826;-0.06323509;-0.11107187;-0.03748804;-0.054470446;-0.010615125;-0.017561622;0.080779225;-0.11440738;-0.04653038;0.12782769;-0.21108979;-0.024750588;-0.0617488;-0.12012347;0.012285676;-0.054613996;-0.16713099;-0.044886775;-0.06346504;-0.029673051;-0.05756536;-0.09447969;0.0584257;-0.022798575;-0.028015064;-0.01875078;0.035091832;0.091474526;0.035460617;-0.15098733;-0.1099809;-0.08167991;-0.09027599;-0.07060639;-0.044220287;-0.0035478827;-0.036590274;0.116301835;-0.12637089;0.025929801;-0.043308847;-0.12430067;0.030794298;0.016451942;-0.12268652;-0.118303865;-0.06780794;0.10135573;-0.08929631;0.052320354;-0.059631363;-0.10160086;-0.019255789;-0.03261203;-0.081657946;0.053116247;0.032204386;-0.11053028;0.028139139;-0.13065855;-0.015026942;-0.07300303;0.0082666185;0.10789324;0.10797088;-0.09271313;-0.029755188;-0.039835565;0.15718609;-0.03200602;0.066401385;0.065234885;-0.04125175;-0.11551506;0.13657314;-0.1273584;0.054972265;-0.0362215;-0.10362085;-0.03331774;-0.01415987;-0.12301668;0.024222316;0.0354248;-0.06979362;0.032038435;-0.028308153;-0.012365866;0.049001373;-0.028381897;-0.039115787;-0.071852595;-0.033118833;-0.017234111;-0.05442405;0.034050662;-0.023651283;-0.07762515;-0.07112307;-0.15693247;-0.04698127;-0.08561306;0.014895187;-0.18245034;0.1339618;0.011921797;0.03363029;-0.014514009;0.109210044;-0.04914676;-0.013708802;-0.02033982;-0.040582377;-0.020411028;0.020814924;-0.07827917;-0.029034197;0.009295894;-0.06837307;-0.16791797;0.08014073;-0.06191125;-0.11862913;-0.11378282;-0.07590598;0.053554825;0.03485129;0.23081067;-0.0020143245;0.008677326;0.045535162;-0.13743271;-0.09479718;-0.077197686;0.018218374;-0.07279532;0.03587455;0.035545412;0.022990568;-0.029230755;0.006282195;0.041284602;-0.023663202;-0.028339362;-0.030901382;0.00081368216;0.06227633;-0.073057234;-0.0037636992;-0.031575743;0.0055810963;-0.0813531;-0.041294552;-0.07562246;-0.02305405;-0.039565414;-0.012672339;-0.041272037;0.0574075;-0.07597942;-0.0537243;0.061836634;-0.007881466;-0.034768227;-0.059794344;-0.07306141;0.08751918;-0.07156899;-0.02313944;0.06780819;-0.07725188;-0.09357898;0.008890233;-0.008014563;0.023819527;-0.04654763;-0.0101403;0.0061433674;-0.084163345;-0.038238868;-0.002979945;-0.08099787;-0.15563504;-0.022273194;0.07738157;0.021537531;0.0022253538;-0.08295334;-0.048525617;-0.08642901;0.024687927;0.030108945;-0.026821736;-0.10650555;-0.028749594;-0.0227457;-0.07254144;-0.0712318;0.00494184;-0.14329381;-0.021263069;-0.012135241;0.042645827;0.1609923;0.06151677;0.10146044;-0.043413494;-0.087898456;-0.045806475;-0.013708295;-0.12506257;-0.011843623;-0.036882784;0.046541993;-0.07632966;-0.10149802;-0.10762436;-0.01707002;-0.041508023;0.019168152;-0.08429499;0.015984496;-0.077117555;-0.06714516;-0.019091917;-0.018712873;-0.066536285;0.026183708;-0.08580767;0.0020101476;0.17939381;-0.17461881;-0.31580156;-0.028047604;-0.018222257;-0.055018615;-0.026398662;0.057707034;-0.042706426;-0.07032811;-0.037345923;-0.005115956;-0.09524097;-0.05678624;-0.029490057;0.10875304;-0.021460343;0.025102673;-0.062280226;-0.11896246;-0.07446067;-0.08465969;-0.083176866;-0.083017334;0.023267765;0.07920085;-0.088317804;0.02304218;-0.058267925;-0.007494903;0.01979942;-0.0061569493;-0.05183301;-0.010914977;0.12824386;0.06822245;-0.11216456;0.023058265;0.0218984;-0.14327602;-0.016812678;-0.1425432;0.0028956605;-0.03160942;-0.08831925;-0.05319792;-0.046597365;-0.08496888;-0.10351104;0.013795303;-0.050828278;-0.14032862;0.0093061635;0.02789709;-0.022271395;-0.052822493;0.058077957;-0.080985546
-0.08418268;-0.01392151;0.097746305;-0.045950133;-0.007269215;-0.049071882;-0.052864928;-0.19034222;0.039408766;0.050453354;0.036797382;0.03283904;-0.024268568;-0.052118223;-0.038120627;0.010888772;-0.018462168;0.08119478;0.003458935;0.071314625;0.034657806;-0.055087924;0.045349333;-0.02812151;0.04886309;-0.02223309;-0.019810861;-0.08250816;0.021351347;0.06800098;-0.08418813;0.010250721;0.05015392;-0.12010043;-0.0769384;-0.059254866;0.049720448;-0.06617029;-0.13113856;-0.08038283;-0.049728867;-0.1183703;0.071412034;0.073392935;-0.22213426;0.025019538;-0.031833358;-0.071897194;-0.0121694;0.012481658;-0.050085448;0.14660387;0.043549772;-0.040045734;-0.11064282;0.0840734;0.06471371;-0.05126288;-0.0034243225;-0.07166609;-0.0116740335;-0.19984;-0.13835101;-0.103311315;-0.034940366;-0.15576367;0.04805427;-0.03339024;-0.013150597;-0.11523075;-0.042513717;-0.048616882;-0.08255733;-0.068113774;-0.051289365;-0.019089688;0.012940819;-0.027956476;0.14057858;0.0054353504;-0.07942032;0.05558578;0.029109161;-0.048714433;0.046013497;-0.055142548;-0.08580425;-0.01381847;0.016808571;-0.031504873;-0.052755743;-0.13814677;0.033308383;0.0038631787;-0.13785478;-0.020379886;-0.09588594;-0.13857558;-0.049967434;-0.033345703;-0.0055809706;-0.0034047703;-0.04631451;0.012955468;-0.010961176;-0.08497083;0.055010814;-0.02557806;-0.17598729;-0.030556515;-0.05996948;-0.05840451;0.041531175;-0.029293727;0.0029924328;-0.02773389;-0.02444724;0.09068408;0.027357353;0.028629808;-0.006357942;-0.06313589;0.021094812;-0.015528576;-0.032382715;-0.06808367;0.116388336;0.001328908;0.014340517;0.0689933;-0.08773104;-0.06492168;-0.020142276;0.0334637;-0.14143924;-0.025909755;-0.011499487;0.13197103;-0.117716335;-0.08767358;-0.07717933;0.08991398;-0.007765366;-0.035255738;-0.023281774;0.02485476;0.054369293;-0.1314891;-0.02373952;-0.07930266;0.017944539;0.033132058;0.022170007;0.067045555;-0.00700212;-0.068363346;-0.1499065;0.005088219;-0.10273719;0.082275175;0.054836135;-0.05410532;-0.12377888;-0.0063260733;-0.13162059;0.009389101;-0.104142234;-0.017231535;-0.040740654;-0.015576718;0.028318232;-0.08309865;0.035509992;0.06869902;-0.018261611;-0.009719623;-0.0024099592;0.0140824225;0.0497351;-0.034065425;-0.07962144;-0.10122207;0.01701538;-0.057387467;-0.00714888;-0.14012544;0.10634444;-0.11381301;-0.058319837;0.053335357;-0.02344827;-0.074617445;-0.095081426;-0.074196994;0.08830238;-0.021571798;0.01608593;-0.12404426;0.009208501;0.088760875;0.021880621;-0.03883166;-0.06925904;-0.03109589;-0.04244414;0.0040913736;0.01468568;0.1661981;0.086389735;-0.065771736;0.02763366;-0.015612663;0.031747606;0.015250254;-0.04482435;-0.018459318;-0.012189654;-0.08914312;-0.11703961;-0.076904185;-0.09976379;-0.121401444;-0.0044986256;-0.09554635;-0.067821056;0.013564255;0.068626486;-0.10666186;0.025647804;-0.057155374;-0.030881714;-0.097100236;-0.053865936;-0.0012485068;-0.10460675;-0.008392028;-0.074759014;-0.08820659;0.08337021;0.095198646;0.040922467;-0.07991146;-0.14772883;-0.05720586;-0.0710761;-0.05965818;0.034575988;-0.0113026695;0.059612717;0.0051270747;-0.07764314;-0.03551024;0.014573095;-0.012673398;-0.104659945;0.037908897;0.03369271;0.0019118465;-0.08438;-0.09170962;0.11824048;-0.04790258;-0.03915782;0.0467506;-0.10747405;-0.06926727;0.060277134;-0.088189945;-0.13763958;0.05940952;0.00064017763;-0.103155054;-0.014208027;-0.09673189;0.003116343;0.0030588182;0.06099517;-0.09675487;-0.036421362;-0.048709225;-0.11973561;-0.26028344;0.0334631;-0.04222539;-0.02965499;-0.05217623;-0.008991703;-0.06821295;-0.08662776;-0.068489015;-0.052680705;-0.14885613;-0.05791266;-0.023100745;-0.06225206;-0.04036216;-0.034541335;0.11136849;-0.15849163;-0.031109242;0.020762062;-0.10693251;-0.040913954;-0.07599312;-0.06958587;0.11206879;-0.020565985;-0.070172265;0.08864614;-0.016526498;-0.092602104;-0.056154184;-0.09716599;0.043363463;0.014482566;0.06296857;0.06134792;-0.054268893;0.008823599;0.0017915042;-0.0939002;-0.1563656;-0.14778359;0.06468407;0.033889066;-0.035937104;0.008189832;-0.079380676;-0.010632864;-0.05876156;0.050338976;0.05817829;-0.11484156;-0.02411054;-0.08466641;0.06389697;0.015359235;0.005044278;-0.13066217;-0.0026245557;-0.11718621;0.014824432;-0.01429083;0.065608785;0.1185636;-0.08367773;-0.039724786;-0.11350416;-0.07492157;-0.08660906;0.07785266;-0.005972872;0.025177803;-0.013498514;-0.04888033;-0.08879623;0.13579659;0.06430303;-0.023830378;-0.07704499;-0.0729104;-0.07422364;-0.017698858;-0.12155248;-0.05681299;0.041680705;0.021389034;-0.0667167;0.038166586;-0.07529212;-0.08660344;-0.10692761;-0.05509906;-0.004233721;-0.053123444;-0.037022118;0.013391383;-0.101951495;-0.06256692;-0.060291864;-0.027186885;-0.020048143;-0.030921057;-0.07575649;0.15375508;0.017400041;-0.14022139;-0.15579006;0.03053078;-0.041861262;-0.08697153;-0.17521907;0.07956957;0.10596698;0.03513847;-0.021689644;0.09485868;-0.09990529;-0.15081711;-0.042678528;0.04269047;-0.04988848;-0.058439087;-0.047044855;-0.112523004;0.05854303;0.015674274;-0.10772807;-0.051231164;-0.0020299596;-0.059655454;0.023664368;-0.008214683;-0.07453375;-0.043088574;0.08134705;-0.04700073;-0.1230669;-0.029088253;-0.14098914;0.018353317;0.025420329;0.0042256066;-0.0032988747;-0.030459682;-0.104519404;-0.0016041624;-0.046609957;-0.031588927;-0.007067811;-0.16372398;-0.081004985;-0.08904718;0.07219033;0.00022851881;-0.038492836;0.016084239;0.13731337;0.018641198;-0.06002148;-0.07080461;-0.015058649;0.0065285563;0.070534416;-0.02684714;-0.013950133;0.09226509;-0.012803854;-0.061029807;0.13343996;0.008783576;0.04383194;0.060535006;-0.0350658;0.016011676;0.024591647;-0.10325789;0.05019188;0.016226135;-0.14077456;0.028508948;-0.06487797;-0.122545026;-0.06149721;-0.08643461;-0.09156785;-0.017506536;-0.10749596;-0.0873542;-0.059495244;-0.060662534;-0.05691839;0.10030894;0.035085943;0.020285951;0.016683577;-0.13295946;-0.025195967;-0.080521666;-0.104179874;-0.11598788;-0.050716173;-0.01521668;-0.054619107;-0.05196574;-0.0989418;-0.05613485;-0.121177614;0.04117005;-0.04779933;-0.038971372;0.13089505;0.08344873;0.021518858;0.014846025;0.0074278237;-0.09635141;-0.016513234;-0.12816405;-0.026900554;-0.041901145;-0.08372135;-0.05856565;-0.033163313;-0.12845385;-0.10803467;-0.07082419;-0.104084596;-0.018453436;-0.025756499;-0.016493572;-0.07006424;-0.039244816;-0.018637316;-0.02612663;-0.059401505;0.013559559;-0.055681806;0.16190244;-0.037619986;-0.19949879;-0.061718926;0.02173081;-0.0010561775;-0.0390976;0.06757904;-0.04603278;-0.07884975;-0.09140916;0.049639083;-0.077764176;-0.0690935;-0.04289817;0.0796199;-0.024495788;-0.0028767514;-0.025705948;-0.046638574;-0.10070143;-0.090336;-0.1366957;-0.020379717;0.013485433;0.040631805;-0.0148995705;-0.06935401;-0.08560659;-0.0062376484;-0.029973906;-0.0060459045;-0.121933185;-0.012502288;-0.028522305;-0.070310555;-0.11114232;-0.07074621;0.0260462;-0.28073424;-0.12261518;-0.05902118;0.010792865;-0.08170013;-0.04674192;0.042559043;-0.053559314;0.05545166;-0.0014686993;-0.11889562;-0.08765955;-0.06463132;-0.10755655;0.007308354;0.060707144;-0.078936845;-0.052731287;0.057706624
-0.06837837;0.051330492;0.025467668;-0.099771425;-0.009704618;0.015363403;0.009821387;-0.10757734;-0.0010531682;-0.09476322;-0.032912184;-0.08590361;-0.11305813;0.013349757;-0.07403182;-0.08134137;0.062855124;-0.040812317;-0.07754184;0.050742738;0.04111691;-0.11588773;-0.094484374;-0.016715629;0.058910932;-0.13997915;-0.10098604;0.023525683;-0.12880881;0.14699864;-0.012241317;0.00027131874;-0.106178164;-0.09712475;-0.11139392;-0.11323855;-0.06797357;0.009200567;-0.15004033;-0.04333675;-0.03529813;-0.071615756;0.0076822997;0.08610395;-0.22596507;-0.0460122;-0.00485231;-0.11054704;-0.07634383;-0.05153332;-0.11079406;0.13780281;-0.052328344;0.0004801686;-0.09959126;0.0768994;0.06281807;-0.06694771;-0.008496908;0.026874376;-0.095293574;-0.076409616;-0.08793749;-0.13150539;-0.03600342;-0.1887096;-0.04005133;-0.017223028;0.10259719;-0.0058164587;-0.036037058;-0.058752757;-0.05404298;-0.02598993;-0.074668705;-0.06737675;-0.07595608;-0.10211338;0.046888556;0.08550988;-0.075613424;0.042422637;0.11456898;-0.12024029;-0.044098638;-0.030953187;-6.386591e-05;-0.12016945;-0.040730517;-0.08909972;0.066948205;-0.1286437;-0.10882825;-0.0023518433;-0.060568783;0.0056654485;-0.134674;-0.05030077;-0.022952745;0.017407037;-0.08397959;-0.0028846918;0.05050669;-0.08980958;0.016498482;-0.06467719;0.033835843;0.005111749;-0.1362124;-0.10530439;-0.12252929;-0.055435847;-0.041713506;0.0180833;-0.05750087;0.0026879588;-0.086366184;0.0041527003;-0.11149552;-0.11668784;-0.01339861;0.054726463;-0.033859767;-0.0004500541;-0.006868674;-0.07180243;0.061828766;-0.09042862;-0.09332498;-0.0014221349;-0.06334917;0.023339741;0.0020935456;-0.002397521;-0.07167476;0.019536989;-0.0420339;0.124538444;-0.077740595;-0.014604608;0.028404571;0.13172619;-0.026298797;0.032525446;-0.054284558;-0.026726607;-0.050702076;-0.07156166;0.027100826;-0.02853329;-0.117889926;-0.038086347;-0.08492599;0.028378;0.02681466;-0.10422316;-0.11442882;0.026018184;-0.05145546;0.049191076;-0.014164179;-0.007371142;-0.03866041;0.038387008;0.013851901;-0.036611207;-0.03578605;-0.057146322;0.0038399345;-0.118245065;0.020865506;-0.023373596;0.0031001447;-0.027503142;-0.030428922;-0.02664772;-0.045631472;-0.052706283;0.057037838;-0.111146964;0.057711862;-0.047164645;-0.1293904;0.0013029543;0.0076854876;-0.1374162;-0.03510887;0.04067998;-0.07644098;-0.004384762;0.04405624;0.04307832;0.026602989;-0.14108074;0.032221943;-0.11887635;0.03148415;-0.020278981;0.029935135;0.07702286;-0.029786961;-0.07612497;0.053734057;0.040861744;-0.0761083;-0.00091814226;-0.086533256;0.1297403;0.13823679;-0.013308347;0.004571;-0.083963126;0.02682272;0.017739141;0.0079513285;-0.057114117;-0.096162036;-0.13441981;-0.11763375;-0.07806744;-0.05738419;-0.13758363;-0.057927534;-0.07296323;-0.10425736;-0.10080868;0.04802518;-0.07635366;0.042383797;-0.10619033;0.016562028;-0.09418279;0.019680027;0.048563354;-0.05872703;-0.04875442;-0.037988193;-0.031685013;0.067553304;0.050675314;-0.06560967;-0.0744106;-0.08446677;-0.04181811;-0.013706132;-0.06530732;0.026840918;0.047481805;-0.06446891;0.02888625;-0.11669606;-0.02197743;0.010583422;-0.046541244;-0.1300119;0.003197976;-0.028328815;-0.013654299;-0.008621006;0.02044307;0.04178158;-0.029409034;-0.077584155;-0.018956313;-0.041295804;-0.035856023;-0.038111158;-0.122579545;-0.113592625;-0.054796893;-0.06684491;-0.0189299;0.011796409;-0.031798672;0.07353526;0.0024788457;0.016677571;0.0063434457;-0.04002726;-0.040854044;0.026670218;-0.18706737;-0.0120051205;-0.07771027;-0.023071619;-0.07288402;-0.115449466;-0.0936605;-0.09042472;0.033814058;-0.007638852;-0.05014816;-0.06238236;-0.09925459;0.05402893;-0.040906835;-0.0857311;0.1376315;-0.22507477;0.09836611;0.034129634;0.030427424;-0.002273674;-0.15927474;-0.12807755;0.012816549;-0.05063215;0.0022402445;0.0447406;0.039617565;-0.07523741;-0.042293657;-0.083542936;-0.027117956;0.055686947;0.06817003;0.023249019;-0.06893569;-0.04367231;-0.09914637;-0.010201507;-0.13438053;-0.11856286;0.024116281;-0.01866949;0.004679635;-0.03921784;-0.024078054;-0.027188556;-0.027081966;0.07132207;0.00012352539;-0.028717913;-0.0072927414;-0.042553548;0.14371052;-0.031074071;-0.061741643;-0.099475786;0.019124823;-0.023794403;-0.080562375;-0.009488751;0.025385741;0.041666117;-0.024175279;0.04669307;-0.02176176;0.0016181072;-0.03788478;0.10197828;0.09698245;0.09255336;0.017297233;-0.043433893;-0.056468397;0.19415201;-0.026384747;0.067745045;-0.08730079;0.0100489;0.015353325;0.076450355;-0.05139587;-0.09669257;0.013820151;-0.0028882541;-0.016869007;-0.09096344;-0.058039777;0.031779513;-0.04601833;-0.11443517;-0.058937542;0.073954426;-0.08794238;0.05787994;-0.050425492;0.04741346;0.0608805;0.023622582;0.00089072826;0.007089066;-0.047324233;0.097588815;-0.08547745;-0.15417463;-0.044541556;0.009355664;0.038313996;-0.03376882;-0.07865024;-0.023452708;0.10242426;-0.042578533;-0.06631354;-0.021358041;-0.064981766;-0.030308768;-0.09541837;0.06508881;0.01398533;-0.054450728;0.0707044;-0.019792479;-0.012763353;-0.114293545;-0.16486974;0.019648964;0.06214865;-0.0195352;0.038244575;0.02328506;0.01540527;0.054431397;0.21902934;0.010275546;-0.08880471;0.026218371;-0.10545542;-0.008745494;0.022318572;0.012217968;-0.014938545;-0.053230472;0.049728442;-0.023318117;0.031117357;0.016982794;0.046363894;-0.0148184495;0.061804533;-0.112514004;0.021315819;0.0876798;-0.00080618827;-0.12534419;0.092762955;0.0048295273;0.037514046;-0.050237887;-0.088118136;0.044689827;0.06703637;-0.0102131255;-0.047509808;0.061629143;-0.021688063;0.0015313486;0.13753803;0.02836275;-0.019456256;0.0071982685;-0.08422601;-0.020654075;-0.062267303;-0.03917194;0.0866547;-0.04919229;-0.04224408;0.002161975;-0.1223849;-0.08292724;-0.007037022;-0.043668494;-0.079459816;-0.0074247275;0.006250737;-0.12300328;-0.09608899;-0.11432317;-0.14501636;0.06576751;-0.035197333;-0.091723144;-0.07349345;-0.10337024;-0.08039139;0.03420146;0.024393594;0.02769088;-0.031230267;0.06666666;-0.11243939;-0.01744708;0.05215151;0.0278894;-0.115417935;0.05517082;-0.0015778362;0.014885454;0.056038536;-0.051916398;-0.026495285;-0.09089519;0.027754491;0.0428249;-0.081997626;-0.10609472;0.07799559;-0.06499422;-0.08643534;0.029122045;-0.06203366;-0.08565751;-0.004991245;-0.051416725;-0.041281432;-0.037836574;-0.038197797;-0.1214897;-0.13708296;-0.061913382;0.010536444;0.008758218;-0.13261342;-0.04159518;0.009373079;0.16830973;-0.11092209;-0.23998319;-0.0071605234;-0.11876749;-0.033132255;-0.02252252;0.066376574;0.010795529;0.02487496;0.060618337;0.061987393;-0.010803924;0.0010563931;-0.00829548;-0.031563602;-0.031765945;-0.13301657;0.029207217;-0.07041729;-0.12389138;-0.07260713;-0.062927715;-0.011376567;-0.12472088;0.07090821;-0.11474769;-0.017987605;-0.019954128;-0.047977645;-0.025895033;-0.0064332304;-0.046762906;0.039018553;0.07760987;0.049669016;-0.045767933;-0.057590045;0.04060916;-0.12842758;-0.03797683;-0.0565604;-0.030507538;-0.0036654775;0.040953163;-3.344426e-05;-0.047115557;0.009601086;0.012484206;-0.102671355;-0.09264301;-0.12359334;-0.048935477;-0.030284984;0.016811345;-0.07149028;-0.054795824;-0.0641048
-0.049259894;0.102662265;0.12837963;0.003525901;-0.0075726924;-0.041759856;-0.09652813;-0.1727848;0.025356036;-0.043120205;-0.047648713;0.03623413;-0.056758266;0.035868216;0.026536906;-0.09631258;-0.044363122;0.01950269;-0.10415157;-0.02576579;-0.06660625;-0.070406;-0.09721797;-0.081021234;0.022353433;-0.08563635;-0.031047154;-0.106603205;0.021716565;0.124205835;0.017232673;0.07827444;0.052163757;0.046698112;-0.0033800094;-0.022241637;-0.0904664;0.017646097;-0.06808173;0.042952944;-0.025416408;-0.117556214;0.040565565;0.08515621;-0.13547595;-0.063573234;-0.09766942;-0.011183678;0.008555577;-0.0012208412;0.04252539;0.03657059;-0.05523323;0.05466295;-0.0628108;-0.048394326;0.06599981;-0.032919645;-0.09019889;0.0017960034;0.010840946;-0.15038526;-0.031829055;-0.10248982;-0.0037648529;-0.22626103;0.06281916;-0.023652151;-0.04428781;-0.034322724;-0.0024000832;0.03928702;-0.15783264;-0.06321834;0.07158721;-0.07480729;0.005730409;0.033714194;0.10380117;0.17953044;0.009296179;-0.03720462;0.097085685;-0.019355182;0.004059067;-0.012964494;0.025910439;-0.070332885;-0.013011021;-0.08978968;-0.09144515;0.0210913;0.0115791755;0.008618453;-0.1277313;-0.11387877;-0.0110429805;0.0029515265;-0.10955504;-0.046391822;-0.09127814;0.02717947;-0.022467738;0.023123229;-0.05244451;-0.01785132;0.033169493;-0.066249736;-0.090956084;-0.033059172;-0.1445523;0.0050318893;-0.073590934;-0.039722703;-0.072865255;-0.061051026;0.015933245;-0.019356852;0.020429661;-0.123846784;-0.059591427;0.057875272;-0.005425905;0.028765356;-0.070873216;-0.0255339;-0.0073160483;-0.063110895;-0.040812567;-0.07356056;-0.03826845;0.038502738;-0.06502873;-0.008515251;-0.12504755;-0.043294184;-0.1063945;0.12782846;-0.08988905;-0.09257982;-0.061642505;0.12919667;-0.13068178;-0.029752491;0.027943041;0.010603322;0.030969277;-0.08199093;-0.09246274;-0.033454306;0.032597307;-0.019721724;0.04129277;0.017502166;-0.0929852;-0.20518686;-0.018198187;0.117594324;-0.094649576;-0.057294887;0.017052663;-0.06354382;0.018384498;0.012949784;-0.117650606;0.0031888515;-0.12381803;-0.058592662;-0.11354548;-0.09920642;-0.015448107;0.005868349;-0.073645584;0.052652717;-0.031987783;0.023290453;-0.018486418;0.054660678;0.03149095;-0.039275233;0.050984163;-0.05359016;-0.16039917;-0.05108364;-0.10052085;-0.016198684;0.10311323;-0.053679094;-0.0010349186;0.045784008;0.078888565;-0.0018920177;-0.037770614;-0.06086342;0.03304957;-0.12391692;-0.029076919;-0.016838297;-0.097383544;0.04677575;-0.045768175;-0.054361004;0.02204451;0.014405051;-0.010307582;-0.10649258;-0.09365727;0.101174496;0.16245429;-0.05929434;0.0007041851;-0.041585457;0.06740515;0.010273991;0.016503928;-0.07140593;-0.024117589;-0.10397398;-0.047105953;0.00728182;-0.01755829;-0.108549416;-0.027713;-0.050429;-0.021038545;-0.060472693;0.08149995;-0.030977676;-0.07210976;-0.009478706;-0.052738626;-0.03648516;0.021551084;0.015714671;-0.0714212;-0.121219054;-0.07800091;-0.09340835;-0.07430476;0.0640959;-0.03364875;-0.047693107;0.00053357193;0.051596828;0.031644914;-0.06556436;-0.0013662453;0.048436854;-0.080409944;-0.07632844;-0.13789047;-0.04239283;-0.038988803;0.0141607765;-0.100337766;0.05397176;-0.10061046;0.018258745;-0.057395678;-0.096660696;-0.044063114;-0.039438818;-0.09979649;0.016836643;-0.1252721;-0.031343266;-0.071661375;-0.060670257;-0.026938183;0.007923157;-0.108016945;-0.1422504;0.054088943;-0.02197183;0.0032416938;-0.07226629;0.06040021;-0.0797944;-0.053838797;-0.014504373;-0.08764687;-0.12944016;-0.023629218;-0.11501789;-0.024656031;-0.06299761;-0.053428307;-0.002107147;-0.15652713;-0.055776417;-0.03704705;-0.10483917;-0.046226244;-0.08242942;0.019110754;-0.121313214;0.03290464;0.04122528;-0.11559125;0.12504904;0.0030151762;0.017443808;-0.07912985;-0.08704057;-0.055053677;-0.00035476958;-0.024479264;-0.05728366;-0.043842908;-0.028733347;-0.085808925;0.04107754;0.036989786;-0.048255943;-0.051390287;0.00089505664;0.07963293;-0.115001015;-0.1174167;-0.07670284;0.014586096;-0.1303565;-0.056219842;-0.05451731;0.04174109;-0.011155185;-0.14845401;0.012942598;-0.10202622;-0.022674346;-0.013940096;-0.0075413315;-0.13153873;-0.039604224;-0.12601203;0.034558363;-0.05262363;0.020124407;-0.050831642;-0.0133460825;-0.088474065;-0.120048806;-0.101565406;0.08811717;0.13983554;-0.051638436;0.069714464;-0.08852293;-0.03769867;-0.110858686;0.12699962;0.11659002;-0.053080294;-0.025184259;-0.066043265;-0.07811252;0.18019392;0.08990976;0.14841834;-0.015404576;-0.0812673;0.013819707;0.13455325;-0.0631482;-0.010312918;0.019884976;-0.101443924;-0.06263239;-0.09592761;-0.1393954;-0.013293869;-0.0891133;-0.018327055;-0.07935968;-0.026118029;-0.046530087;-0.07489664;-0.053862084;0.003548227;0.05327319;0.025075061;-0.09948252;0.040107332;-0.014167183;0.12715481;0.022084948;-0.015226315;-0.085179254;-0.108816326;-0.053306095;-0.018695109;-0.12893824;0.006288816;0.05748291;-0.05394308;-0.088048175;0.105492465;-0.09520531;-0.012619376;0.0066059874;-0.088796824;-0.10368065;-0.06905639;-0.027685601;-0.11469671;-0.01053373;-0.07118599;-0.13053648;-0.021652581;0.04103194;-0.02585619;-0.0007328234;-0.05613724;-0.064808406;0.051296607;0.22243021;-0.0478509;-0.13539036;-0.028482215;-0.11029958;-0.05899601;-0.0027423734;0.042608824;-0.01569752;-0.10499161;-0.07644254;-0.060034662;-0.079779774;0.07511843;-0.05305463;-0.09822627;0.0135969;-0.11029697;-0.033256326;-0.04823946;-0.023357993;-0.12289747;0.015277057;0.020758756;-0.041014913;-0.030147264;-0.002893295;0.022673123;0.06996839;0.045375455;0.006890775;-0.076300934;0.019914327;-0.086778894;0.07554211;-0.12092114;-0.080659606;0.032395195;-0.07325008;0.061339132;0.018911572;-0.076304264;0.0526486;-0.09111363;0.0022356717;-0.024262846;6.702627e-05;-0.0048850076;0.010926651;-0.11597351;-0.043312334;-0.010203198;-0.078863904;-0.15511647;-0.04089241;-0.15184155;-0.05424071;-0.022775413;-0.007616462;-0.032853678;-0.00336675;-0.068694204;-0.07282514;-0.048638746;-0.07418206;-0.058748484;0.034799106;0.06981595;0.03527658;-0.040973045;0.012019316;-0.046464313;-0.049239434;-0.0597462;-0.035017673;-0.04012962;0.12480588;0.0031323156;-0.0104074525;-0.08114845;-0.10212591;-0.014063429;-0.12025924;-0.12801574;0.0397943;-0.057264913;0.025259884;-0.008720994;0.012693767;-0.09949873;-0.07400363;-0.004588603;-0.05910871;-0.028013093;0.06667751;0.005221943;-0.027984502;-0.096189976;0.08572414;-0.06661738;-0.015652426;-0.04814485;-0.12169878;0.06304861;-0.13854717;-0.2814136;-0.07655382;-0.12306811;0.0026562072;-0.033540394;0.0027860594;-0.12675783;-0.034747425;-0.015689207;-0.037160072;-0.0074762926;-0.017049944;-0.050717592;-0.007820365;-0.103249356;-0.033206753;0.008011181;-0.039280314;-0.050232355;0.01718276;0.029626226;0.023703672;-0.11576078;0.037027225;-0.044315547;-0.0061438633;-0.0040380736;-0.087194055;-0.085085616;-0.03625444;-0.15505613;-0.022098681;0.081366256;-0.07994872;-0.105700225;-0.006529804;-0.0090582995;-0.21404019;0.013111292;-0.12085664;0.017422402;-0.014403321;-0.013822215;0.033867937;0.016917156;-0.07103374;0.03944004;0.014804561;-0.08494244;-0.07871974;0.023123026;0.00041428805;0.0086690495;-0.030628981;0.012771486;-0.03263877
0.027866434;0.08967514;0.13313812;-0.021678641;-0.11711332;-0.015617359;-0.12596188;-0.075391605;-0.09320692;-0.0068195076;0.0014819099;-0.11531248;-0.064770125;-0.052927256;-0.069866665;0.007599037;-0.02445157;0.09192408;-0.05167076;-0.0748591;-0.060876016;0.034012754;-0.01498284;-0.06335259;0.028934969;-0.082426734;-0.059635427;-0.0017313176;0.006339108;0.1556692;0.020691322;-0.015715275;-0.05457708;-0.049501114;-0.0477197;-0.07241656;0.0160167;-0.09207216;-0.02683791;-0.055973534;-0.053566173;-0.12638552;-0.00992114;0.014916272;-0.21734308;0.008114841;-0.09418717;-0.08501904;0.0067026;-0.0442268;-0.026601292;0.14281514;-0.030258052;-0.043422103;-0.043281067;0.07119646;0.12078682;0.037760835;0.051325817;-0.0015025322;-0.1402424;-0.09867804;-0.12535407;-0.059770375;-0.017490257;-0.24564701;3.0699797e-05;-0.15573844;6.29831e-06;-0.121972285;-0.087701045;0.05598957;-0.16069153;0.013842675;0.014141654;-0.044855915;0.06678749;-0.06347955;0.123713635;0.07808248;-0.021489052;0.036980346;0.050935585;-0.07639854;0.0017091557;-0.043785077;-0.007767964;-0.0040746233;-0.13557641;-0.01121532;0.03504255;-0.08680457;-0.040346365;-0.0069839796;-0.019441674;-0.088288195;-0.10337921;-0.023141794;-0.14925782;-0.027215952;-0.15515801;-0.014065799;0.028738763;0.0057486724;0.05798327;-0.051438667;-0.082494654;-0.06743398;-0.16729054;-0.089139126;-0.17250289;0.05464081;-0.07495006;-0.048208166;-0.04370038;-0.056320902;-0.09130083;0.060627136;0.009756925;-0.10109886;-0.039760318;0.039275546;0.021700887;-0.109445974;-0.10815525;-0.047267772;0.118924595;0.013987507;-0.09178324;0.019731171;-0.061019436;-0.02823932;-0.03542635;-0.060964372;-0.1355786;0.029594664;-0.068342544;0.05286023;-0.02958008;-0.12219049;0.055447478;0.1841233;0.0012433828;-0.052162714;-0.040840376;-0.088912375;-0.029757561;-0.096516445;0.06285807;0.035021015;-0.034275196;-0.017730871;-0.01843501;0.008508521;0.053629626;-0.10774966;-0.028167149;0.009630929;-0.07200053;0.07772812;0.03641347;-0.113500714;-0.025643887;0.049396586;-0.12413128;-0.035584178;-0.018289214;0.04470498;-0.023275387;-0.023375414;-0.023282725;-0.013947415;-0.057764977;0.033141624;-0.11092267;-0.01353175;0.015631815;0.0108176675;0.04304687;-0.040988106;-0.044569794;-0.13498768;-0.13833077;-0.09639999;-0.07046344;-0.12714013;0.017034145;-0.114153676;-0.10706301;0.047436174;-0.030270647;-0.09039431;-0.053190056;0.0036795475;0.062267292;0.008231893;-0.021511436;-0.016975477;-0.10160883;0.018863687;0.04879984;-0.05026842;-0.06917297;-0.012128096;-0.007975795;-0.123653874;0.02058429;0.08815845;-0.0033472637;-0.07895062;-0.002776976;-0.007819024;0.0376722;-0.04439128;-0.052613314;-0.12248601;-0.0965475;-0.14567511;-0.10519354;-0.115353994;-0.04371692;-0.05359005;-0.07757278;-0.032618802;-0.06381894;0.0415591;0.07767493;-0.08448589;-0.017031351;-0.06356147;-0.067054436;-0.025763053;-0.070991315;0.02132734;-0.09585891;-0.0204617;-0.09868448;-0.12227889;-0.030558843;-0.0078061963;0.021636052;-0.14701971;-0.113837935;0.00038305207;-0.06386433;-0.14871752;-0.09259809;-0.09638904;0.019873146;0.034425154;-0.099595815;-0.009543545;0.0728513;0.04002251;-0.12808663;-0.0654826;-0.1137308;0.006595635;-0.110869296;-0.05994079;-0.005319473;-0.1078177;0.052564893;0.008610579;-0.007944362;-0.108676575;-0.05545385;-0.032911558;-0.14655857;0.022722;0.027293438;-0.08533625;-0.04902825;-0.06853728;0.0525187;-0.102407336;0.0618344;-0.012591342;0.008493046;0.068790905;0.0072504887;-0.13593468;0.001389687;-0.05279619;-0.04920125;-0.09466885;-0.06068948;-0.06839266;-0.1409943;-0.073401384;-0.09379758;-0.1982538;-0.06982562;0.019699208;-0.042108778;-0.003213309;0.05153342;0.11499621;-0.25763232;-0.047225464;-0.013988973;0.020026004;0.058983654;-0.13442397;-0.0854016;0.012474791;0.029081898;-0.022974886;-0.010941604;-0.046279036;-0.07765447;0.031144943;0.03268201;0.025462916;-0.08757046;0.08489042;0.026083264;-0.09539278;0.0039005517;2.3894281e-06;0.02252448;-0.09725044;-0.087536864;0.02679557;0.010309233;0.11113197;-0.088630825;0.016321436;-0.03980611;-0.12227655;0.06440143;-0.014307726;-0.111228816;-0.105735324;-0.017449936;0.12858234;-0.10365359;0.026739074;-0.099521935;-0.022311011;-0.11479797;-0.0193171;-0.0084422305;-0.07376356;0.11812468;-0.10206543;-0.028404033;-0.03748994;-0.041200045;-0.123641744;0.05993801;0.030108431;-0.003910617;-0.06319863;0.07044171;-0.086637124;0.20789848;-0.012231862;0.037478134;-0.04720863;-0.106888376;-0.0026436262;0.06362769;-0.16400996;0.031112336;0.00038619473;-0.02127303;0.011025369;-0.03847447;-0.034614;-0.064072855;-0.031417813;-0.087788634;-0.029218722;-0.021990063;0.028058032;-0.09076298;-0.00078638596;-0.061966155;-0.011807102;-0.098765105;0.012955956;-0.009140288;-0.005882518;0.032171845;-0.035350163;-0.09200441;-0.14373495;-0.10816838;-0.033324853;-0.031389102;-0.08624404;0.076819085;0.026997795;-0.060660172;-0.007937194;0.097782046;-0.074040316;-0.15347508;-0.0437755;-0.059667487;-0.1128438;-0.03707879;0.06906048;-0.07339244;-0.014822893;-0.11134988;-0.07555971;-0.022555867;-0.0768782;-0.1361911;-0.06781122;-0.059470676;0.016482497;-0.06967169;0.21944405;-0.049366653;0.020363778;-0.013248667;-0.095085464;-0.09539831;-0.053533707;-0.04004735;-0.0025830474;0.0071170446;0.0018544771;-0.106764264;-0.03140586;-0.022886325;-0.07276527;-0.043727137;0.049848277;-0.062067904;0.12609878;0.08087591;-0.1097986;-0.12368049;0.025042787;-0.12556578;0.057794593;0.031915657;0.045765292;0.049593154;-0.008720728;0.031156735;0.050991237;-0.017482866;0.005312097;0.0075072595;0.15444198;0.005342599;0.020334972;0.0664208;-0.037097737;0.06617864;-0.064789884;0.045124356;0.04673255;-0.13268618;-0.040596977;-0.059954084;-0.030095119;0.009765074;-0.071870714;-0.057756297;-0.10716796;-0.096460275;-0.107774414;-0.10710032;-0.113268435;-0.067570716;-0.15825109;0.08279608;0.055982735;-0.12303611;-0.019666044;-0.0010209235;-0.07671353;-0.061654687;-0.05590327;0.027031858;0.031723656;-0.058875673;-0.06928663;0.03541551;-0.07910085;0.020099297;0.035559278;-0.0090802135;-0.015733562;-0.03592382;0.1265459;-0.04181209;0.029640531;-0.014066288;0.05319208;-0.022619786;0.005369793;-0.15947105;-0.04303369;-0.11538554;-0.012412535;-0.06910574;-0.13568111;0.004250935;-0.054555003;-0.04006786;-0.02483115;0.0035855211;0.085250445;-0.075081445;-0.1223317;-0.05279174;-0.0640951;-0.012983518;0.01974312;0.05152765;-0.02693746;0.18329047;-0.06315584;-0.29318857;-0.086802356;-0.012407808;-0.011184571;-0.0026112436;-0.06917315;-0.10580047;-0.08889183;-0.05232134;-0.09458402;-0.051235534;-0.037990622;-0.023396265;0.054814406;0.022220433;-0.11133525;-0.025930248;-0.17289437;-0.116588935;-0.13000938;0.033371292;-0.10001478;-0.122612365;0.17004606;-0.0567278;-0.009405931;-0.12805557;0.020800509;-0.101868875;-0.025423039;-0.13353524;0.028442157;-0.016046356;0.061484147;-0.086025596;-0.093389146;0.07100689;-0.26888743;-0.004173661;-0.11901204;-0.02509009;0.015410114;0.01961762;-0.049785342;-0.09987672;-0.04413191;-0.031695046;-0.055475865;-0.04652885;-0.078679636;0.018561663;-0.019010287;-0.088980265;-0.095813274;0.046611086;0.048792653
0.03344437;0.030311346;0.06577954;-0.015962357;-0.004731396;0.016639035;-0.07459228;-0.17874312;-0.06321991;-0.038322315;-0.10866289;-0.10144362;-0.057330083;-0.016206102;-0.0796909;-0.08364534;0.08908999;0.063267514;-0.03457386;-0.09806857;0.02545459;-0.089238;0.043030508;-0.095704034;0.03192641;-0.0072624995;-0.040704355;-0.035585765;-0.037638556;0.057760693;0.019909043;-0.03743059;-0.060553286;0.049283262;0.027614916;-0.095268816;-0.046294227;-0.078393765;-0.11062213;-0.06967339;0.047223788;-0.1277468;-0.056851692;0.1515622;-0.22515261;-0.07386051;-0.03438145;-0.07157361;0.0034915498;-0.0890376;-0.052003533;0.08567784;0.05387482;-0.040767536;-0.046554793;-0.018660733;0.14798208;0.014670844;0.004159172;-0.12927268;-0.035006966;-0.17835559;-0.15432307;-0.0891437;-0.0018188654;-0.21214381;0.06773667;-0.07572445;0.0740366;-0.033810116;0.00082651427;-0.001538228;-0.051363762;-0.038721092;-0.017196454;-0.05504066;0.05144721;-0.04420172;0.22534402;0.14091682;-0.0681692;0.036284465;0.1268491;-0.06735071;0.036225546;0.00087408465;-0.05875965;-0.06359695;-0.12146878;0.0338959;-0.013054669;-0.011590762;-0.008547056;0.061745133;-0.09114581;-0.06635135;-0.11123004;-0.026764937;-0.057081845;0.012647456;-0.14112423;-0.0035496138;-0.0602473;0.025458874;-0.037653536;0.0090931235;0.06503411;0.020558367;-0.17223708;-0.08293074;-0.17740278;-0.07948287;-0.07368433;-0.009557123;-0.051758703;0.026054686;-0.08981872;0.053705387;-0.078600146;-0.046975877;-0.04729503;-0.0202957;-0.025431551;-0.10220007;-0.06588169;-0.01366094;0.038573544;-0.038769238;-0.096823044;0.0489536;0.037732653;-0.083243534;-0.042708434;-0.058768656;-0.1761732;-0.0036030929;-0.18295325;0.04805235;-0.14697571;-0.059706878;0.060230624;0.055491645;-0.11612013;-0.04629239;0.008977506;-0.0073557505;-0.03775881;-0.091612555;-0.06707666;-0.098135196;-0.055084586;-0.00363419;-0.06315909;-0.0055253315;0.049181994;-0.09649121;-0.012591473;0.09698846;-0.09875108;0.067176364;0.04790924;-0.13000052;-0.049064513;0.057227496;-0.13245374;-0.049603835;0.038428035;-0.003928388;-0.06980005;-0.046032332;0.056099914;-0.02114001;-0.059295505;0.04777977;-0.03065826;0.017765325;0.01782808;-0.029650012;0.14443004;-0.07461317;0.07731353;-0.10674857;-0.08161389;0.045931164;-0.022354929;-0.029306792;-0.0015224274;-0.09388478;-0.0485675;0.011345814;0.029581904;-0.089254156;0.036814243;0.0026640787;-0.001474252;-0.057623774;-0.00466699;-0.059083693;-0.025876466;0.06036601;0.042555667;0.024490127;-0.093726926;-0.09451969;-0.094197325;-0.0020181525;-0.120627426;0.05620198;0.14443417;0.0038367275;0.010486746;-0.11097996;0.023196813;-0.020701958;-0.06711241;-0.049284503;-0.059984997;-0.038018428;0.015596586;-0.07510256;-0.0809523;-0.0108039435;0.018035471;0.045752775;-0.051140957;-0.07089667;-0.060355514;0.036464684;0.0048044366;0.017614687;-0.12825485;0.034532104;0.03267623;-0.03163066;-0.031179298;0.004154903;0.003673819;0.010214781;-0.10965774;-0.012475576;-0.063677676;-0.10490299;0.005085212;-0.041727837;-0.012621984;-0.14664932;-0.051334523;0.019244928;-0.08197553;-0.020321425;-0.081464246;-0.090964906;-0.0106970705;-0.022476753;-0.12791574;0.051167473;-0.009207906;0.0032002097;-0.056851186;0.03374138;0.023218391;-0.11852491;0.022286637;0.04843725;-0.033977307;0.009150646;0.073586114;-0.026799956;-0.19027624;-0.10079111;0.033351652;-0.08765929;0.010605251;0.0012990811;0.08229563;-0.028322546;0.046433285;0.024222815;-0.014447469;-0.005735665;-0.0026693782;-0.22397883;-0.0063035735;-0.13015988;-0.089077525;-0.057345953;-0.01823359;-0.07842609;-0.14717071;-0.015943768;-0.09332418;-0.180933;-0.015408315;-0.09185565;-0.072262935;-0.07034829;-0.073465146;0.12085813;-0.14300412;0.06969759;-0.016777836;-0.11952495;0.008340123;-0.036034606;-0.16989122;0.019058513;0.03508354;-0.062359847;-0.064068936;-0.07900769;-0.06365901;-0.053572185;-0.043075938;-0.04280492;-0.032310512;0.09852571;0.020929337;0.04174734;-0.09056528;0.012934459;0.04730195;-0.031952407;-0.05306622;-0.0053947926;0.034562994;0.08001498;-0.13690253;-0.029108038;-0.032074507;-0.0703936;0.080518186;0.11055293;-0.10902881;-0.09141077;-0.13674183;0.15396115;-0.027464349;-0.014363525;-0.112252556;-0.098887876;0.032486517;-0.071000464;0.039502364;-0.0358404;0.065458186;-0.042416;-0.017535686;-0.046483066;-0.06318051;-0.06092063;0.13184513;0.025954949;-0.06111157;-0.0053257383;0.008283289;0.011784533;0.22105296;0.0628774;0.007965429;-0.04707786;-0.023301264;0.018594107;0.13254784;-0.00092323526;-1.8096565e-05;-0.10360675;-0.10261947;0.045238134;-0.05121315;0.015460076;-0.040917613;-0.01667218;-0.013810018;-0.018157834;-0.050373785;-0.077647254;0.02838544;-0.088260114;-0.029544529;-0.041830122;0.008774529;-0.06275016;-0.03119165;0.0017440687;0.103338145;-0.0449631;-0.07918013;-0.12090328;0.012302781;-0.07447086;0.00057163864;-0.123297125;-0.0115008345;0.011035686;0.05277472;0.029222116;-0.013411939;-0.0476292;-0.099127606;0.016471095;0.045990985;-0.0055079646;-0.02065587;-0.0713331;-0.006668811;0.011385191;0.003137018;-0.12862821;-0.07185843;-0.07471839;-0.08953507;-0.022537557;0.019368863;-0.061031036;-0.035494685;0.2225643;-0.1161462;-0.08475891;-0.08611178;-0.21188943;0.03888828;0.08310251;-0.013997543;0.0024793514;-0.022717146;-0.0011520952;-0.05075558;-0.07214435;0.089034334;-0.030766588;-0.07131738;0.0045804298;-0.101963624;0.002869771;-0.008028254;-0.09714087;-0.037554745;0.05308877;-0.08363148;0.043793537;0.02383908;-0.012319161;0.015255345;0.10309606;0.05855061;-0.0133033;-0.018311845;-0.12548156;-0.04346857;0.040921073;-0.11237827;0.010782649;0.073700726;0.0034793494;-0.04190581;0.023879984;-0.10319247;-0.027517438;-0.12541702;-0.09464107;-0.073546745;0.006681755;-0.006097851;-0.032542802;-0.10906506;-0.043794964;0.032423157;0.014533218;-0.08432214;-0.07654257;-0.083640285;-0.06835859;0.069572836;-0.08674986;0.022951968;-0.09100628;-0.1378596;0.046150453;0.002727483;-0.0061684037;-0.01716159;-0.04355647;0.028615015;0.007455943;0.052138243;-0.0068689594;-0.07947335;-0.06331718;-0.031418927;0.06682892;0.03628255;0.004953749;0.06521697;0.027031666;0.03295595;-0.06133216;-0.08496143;-0.12809838;-0.07997657;0.06811424;-0.021575285;-0.054286383;-0.013109514;-0.110446796;-0.13683835;-0.081504025;0.039043806;-0.039495535;-0.03925954;0.01648413;-0.056536432;-0.14440423;-0.083716065;-0.005280245;-0.09234847;-0.074455075;0.013957555;-0.09828825;0.17021024;-0.09986737;-0.2210413;-0.0807346;-0.06999408;-0.06777322;-0.08632171;0.0103696;-0.03993424;-0.04309925;-0.025956148;-0.08012578;0.014597126;0.00891459;-0.005590333;0.026264088;-0.07986957;-0.10404071;0.06343508;-0.1295349;0.010675009;-0.005448469;-0.06425725;-0.0903658;0.008952215;0.18071042;-0.039316233;-0.05795476;-0.1435783;0.051077146;-0.0694257;-0.1065775;-0.09721725;-0.022051224;0.069813974;0.0173147;-0.08860645;-0.025888635;-0.013749819;-0.16784701;-0.09505319;-0.050435334;0.012304256;-0.05499165;0.044941194;-0.117026135;-0.09729955;-0.049652733;-0.072635464;-0.13191803;-0.008749286;-0.18049254;-0.06617402;-0.02877568;-0.036939953;-0.0155691225;0.022863097;0.045567796
0.026068289;-0.01187341;0.056203797;0.0014580863;-0.15159236;0.047457706;-0.082195535;-0.16721538;-0.06344479;0.016545305;-0.082063936;-0.08399924;-0.054383785;-0.076690525;0.0022723533;-0.011674838;-0.044441078;0.11777587;-0.029145684;-0.075329214;-0.013918402;0.0123793045;0.057285603;-0.09264935;0.023987388;-0.018151185;-0.04176623;-0.053328358;-0.07192848;0.028513508;0.021042628;0.058187503;-0.03722072;0.02698833;0.00058283634;-0.03468381;0.038221333;-0.035990447;-0.07291346;-0.057039384;0.05098087;-0.026565373;-0.08319359;0.10583873;-0.2603519;-0.092345856;-0.05160379;-0.033282906;-0.08556694;0.034759153;0.05293484;0.01194702;-0.044711117;-0.01627824;0.039092924;0.061770625;-0.0041290377;-0.06082853;-0.10162302;-0.0867477;-0.15257946;-0.078452095;-0.103076726;-0.083159514;0.058017123;-0.16206151;-0.043502484;-0.11761943;0.071285166;7.106472e-05;0.033396687;-0.020458497;-0.051077753;0.028249722;-0.10884929;0.060411885;0.03011996;-0.09330705;0.14405061;0.19019046;-0.12256714;-0.089618765;0.059810985;-0.04791131;0.042704057;0.053201042;0.03962252;-0.14013343;-0.036740538;0.05258959;0.051853098;0.015426299;-0.04153964;0.030921672;-0.059646375;0.010870881;-0.12525271;-0.060952537;-0.0013926168;-0.070912786;-0.21328396;-0.0673256;0.017631268;-0.06567465;-0.08297973;-0.09956958;-0.07224032;-0.1104112;-0.08936383;-0.01758608;-0.16613221;-0.04341082;-0.041615576;0.059390604;0.0048978594;-0.0863143;-0.015199363;-0.06534684;-0.12459903;-0.023446528;-0.03902471;-0.013277553;-0.052518353;-0.09713857;-0.048454847;-0.07366817;0.07574787;0.025005389;-0.06531052;0.07583154;0.04107695;-0.12051567;-0.10200198;0.030271884;-0.1504776;0.022639286;-0.16684921;0.063815035;-0.13819969;-0.122051686;0.03815619;0.11040098;-0.041090883;0.050415784;0.014414015;-0.105375215;-0.08074294;0.0010508946;0.028866163;-0.079214245;-0.07819385;0.05021435;-0.024511952;0.072753064;0.0075895195;-0.2385075;-0.012351791;0.11497816;0.035541568;0.042366415;-0.07513425;-0.012682664;-0.014632126;-0.037797075;-0.10545039;-0.13499407;0.022660237;-0.009113209;-0.07468985;-0.11668295;-0.013329854;0.03808467;0.017600946;0.060408205;0.0147675425;0.025878504;-0.04791969;-0.02977113;0.19617295;-0.01946306;-0.062434584;-0.06467279;-0.15873869;-0.0054008574;-0.0020668728;-0.1215374;-0.004769729;0.027361715;-0.017485315;-0.095373765;0.07094786;0.022126848;-0.06781657;-0.009240096;-0.053255357;-0.040369783;-0.014268693;-0.1543321;-0.06148229;-0.0037822141;0.017391913;-0.08740211;-0.025642017;0.014570179;-0.007703517;-0.11527714;-0.006033703;0.050808642;0.05679959;-0.08848256;-0.029060967;0.004238657;-0.044359248;-0.025911106;1.6000573e-05;-0.089095764;0.048807282;-0.08970987;-0.074509524;-0.055289317;-0.103091754;0.0048370473;0.03708656;-0.026036242;-0.10133205;0.0162458;-0.017398087;-0.053375635;0.048260886;-0.106773764;-0.028229404;-0.008171828;-0.1080863;0.009441428;0.04488771;-0.021008749;-0.032533873;0.0041456167;-0.10498702;-0.018439054;0.05940882;-0.026188891;0.0012978521;0.036370505;0.038288116;-0.060949016;0.020699657;-0.008587419;-0.013636251;-0.033156887;-0.115545444;-0.10599287;-0.03498625;0.06944072;-0.0469787;-0.092142895;0.017155968;0.019699965;-0.08668332;-0.082968;0.07901412;-0.13148193;0.027492402;0.042115744;0.028981078;0.016011989;-0.014469981;-0.035547733;-0.1476399;-0.067446575;-0.04034083;-0.0008678384;0.0049744127;-0.04980975;0.034191918;-0.043603897;-0.018648814;-0.069659665;-0.080165744;0.08158747;0.032847505;-0.19532597;0.025758207;-0.06195151;-0.058956824;-0.07988418;-0.1043176;-0.06725307;-0.16231531;-0.10045222;-0.06927736;-0.1846767;0.0015727743;-0.02353688;-0.07277836;-0.1118886;0.004903543;0.0778496;-0.14141393;0.07569331;-0.02635445;-0.098151684;-0.0049646776;-0.07351423;-0.09675151;0.04999905;-0.03719667;-0.047130298;-0.07941026;-0.08094085;-0.007963789;-0.024659794;0.011974882;0.020360753;-0.08308988;0.09122524;0.014175191;-0.08386208;-0.034062542;-0.07552343;-0.0094247395;-0.14181131;-0.1341236;-0.023652576;-0.023793777;-0.03387035;-0.01881086;-0.097798556;0.01379547;-0.09438728;0.039951473;0.02781644;0.0095254015;-0.042966407;-0.060579583;0.097089365;-0.087382175;-0.06851045;-0.11295942;-0.03494848;0.008647074;0.022749456;-0.0014820802;-0.023284826;0.017181136;-0.08009654;0.0045735138;-0.064382695;-0.022916906;-0.16758691;0.010619514;-0.06625224;0.007557716;-0.07744158;-0.073879324;0.032075483;0.21865398;0.037080538;0.08388256;-0.027845718;-0.100306764;-0.05326677;0.0263162;-0.14205025;-0.01162685;0.012539271;-0.0774544;-0.08241612;0.04668827;-0.10809057;-0.043178014;-0.014789967;-0.043440547;0.00963921;0.010481289;-0.014436533;0.016885063;0.022630747;0.030297533;0.03888624;-0.027121132;0.009934167;-0.09179805;0.0018911972;0.104756825;0.018415747;-0.09609102;-0.03824032;-0.07775962;-0.040092044;-0.10820571;-0.16776457;0.094102435;0.13999666;-0.04582712;0.044599038;0.11210454;-0.05820037;-0.096667975;0.00726828;-0.07324475;-0.024491189;-0.00032918373;0.036630556;-0.066309795;-0.05731769;-0.12295409;-0.13844383;-0.05572889;0.022265047;-0.14242694;0.020120772;-0.03374736;-0.05734559;0.014095498;0.13298833;-0.063031904;0.026180586;0.07948213;-0.16310477;-0.07899694;0.039614003;0.004874843;0.057732433;-0.011891192;0.04458821;-0.012520351;-0.02537819;-0.07134019;0.017194768;-0.011034453;-0.05794618;-0.09080159;0.08446501;-0.08123494;0.0053016283;-0.018495232;0.15272178;0.019634115;0.11518236;-0.08621169;-0.01126315;-0.008691139;0.019402958;-0.030205313;0.05441886;-0.012636675;-0.008063759;0.038682867;0.002734531;-0.01654226;-0.11280184;0.01562233;-0.018204758;-0.004252279;-0.05036226;-0.091553636;0.09645045;-0.08832575;-0.098450415;-0.07254981;-0.055754025;-0.080096394;0.034594808;-0.061045103;-0.02614049;-0.038069487;-0.07660587;-0.16489033;-0.06287374;-0.18912362;-0.12937301;-0.035322137;-0.07343922;0.0060021365;0.0031235504;-0.06719422;-0.024691092;-0.046756044;0.029256154;-0.078678325;0.030419493;-0.003381064;0.030421557;-0.0105153145;-0.088214025;0.031527843;0.018561427;-0.013474898;-0.020919353;-0.017840018;0.102006465;0.007973845;0.08412392;0.005832583;0.024923857;0.031093426;-0.044557348;-0.103805736;-0.008018389;-0.07932307;-0.03493447;0.02501953;-0.06402091;-0.026438337;-0.12827408;-0.08558823;-0.063411035;-0.16494085;0.055734087;-0.038782854;-0.005200402;-0.04377415;0.06299593;0.012908807;0.03264405;-0.09328394;-0.10606984;0.09630438;-0.04599044;-0.19946477;-0.004639254;-0.07112051;-0.12192619;-0.030700877;0.053937003;-0.11999997;-0.016119609;0.059466485;-0.083336964;-0.020495659;-0.022502022;-0.08180648;-0.04220267;0.03018205;0.008798364;0.07592958;-0.17273355;-0.076726295;-0.048448402;-0.05747145;0.009627067;-0.06771827;0.15868919;-0.00064971315;-0.07155716;0.0030003025;-0.051830634;-0.05190844;-0.07026403;-0.0973;-0.0026943437;-0.006686285;-0.038398318;-0.013686568;-0.001986911;0.08587774;-0.20842783;0.0009712746;-0.07796053;-0.07548353;0.036974695;0.0061992197;-0.06281278;-0.07256282;-0.025105411;-0.056037884;-0.057631023;-0.028564636;-0.047255468;0.03547095;-0.002137492;-0.12685841;-0.11369402;-0.032038897;0.08771699
0.05942968;0.05001045;0.032839242;-0.061265264;-0.06578831;-0.09331663;-0.043589458;-0.039397407;-0.102903955;0.097807296;0.0066801277;-0.0015831976;0.050429873;-0.02364401;-0.069447994;-0.017892998;0.08939161;-0.026187778;-0.100253716;0.034832384;0.12594317;-0.0027271246;-0.058496036;0.0021176043;0.055415064;0.03207104;-0.0056838924;-0.11848424;-0.08172747;0.16323073;-0.07203161;0.042419154;-0.07699588;-0.06488873;-0.03301386;-0.06784206;0.019320998;-0.013753813;-0.080226384;-0.0206509;-0.04711179;-0.06498051;-0.05040298;-0.023767563;-0.16515332;-0.0372632;-0.004082692;-0.13282758;-0.05293437;0.03557601;0.0082905;0.14740373;-0.057053223;-0.0017759245;-0.04229332;-0.02316041;0.1372325;0.024395017;0.012659751;-0.13020219;-0.1475747;-0.09336056;-0.09994184;-0.13864927;0.046310864;-0.11829652;-0.016309826;-0.11247974;-0.03813431;-0.07605283;-0.0077379886;-0.03921182;-0.05224248;-0.018493347;-0.03181596;0.0029286905;0.0038112302;-0.011206313;0.14639792;0.14316446;-0.021678908;0.031723525;0.18374471;-0.09590805;0.07760914;-0.10637829;-0.030774308;-0.035568908;0.028461631;0.034301758;-0.021194562;-0.108964704;0.015624159;0.05403499;-0.14888825;-0.047702428;-0.039667062;-0.01175599;-0.018619705;-0.056774143;-0.15884523;-0.062638015;-0.01909384;-0.091961674;0.060287353;0.042675443;-0.01594461;-0.082348265;-0.089837536;-0.081715725;-0.16563354;0.039122332;0.0018239008;-0.035036903;0.007966577;0.04324543;0.0018394947;-0.069799975;-0.09881723;0.059442155;-0.010047;-0.07727923;-0.066870436;0.020782772;0.009578675;0.017515054;0.12969147;0.03636891;-0.088680536;0.026270246;0.04195853;-0.0828337;-0.02645614;-0.056352995;-0.09697146;-0.06675726;-0.035618573;0.051699877;-0.15170556;-0.044869248;-0.040533196;0.09807054;-0.05323232;0.03834533;-0.01730779;-0.050950784;-0.012049093;0.00095052563;-0.0027432535;-0.0047421744;0.003292583;-0.025872558;-0.057115782;0.055633012;0.054304082;-0.21809363;-0.031011144;0.07885951;0.04471519;0.018020656;0.02963988;-0.08118689;0.0053398386;-0.03653177;0.011073909;-0.086630166;-0.011934129;0.026289035;-0.0074539706;-0.074530564;0.023026882;-0.053163912;0.025265642;-0.009599907;0.022131903;-0.096146576;-0.03866389;-0.059795365;0.166515;0.022269016;-0.04118625;-0.09853052;-0.10915947;-0.053001307;-0.010234353;-0.07938005;0.08310597;0.028673658;-0.05920213;-0.065696284;-0.022954667;-0.08842548;0.06119256;-0.12891814;-0.04596013;-0.07840649;0.018971378;-0.040047266;0.021128949;0.028949715;0.0028218767;-0.041632075;-0.07349721;0.018073386;-0.130389;-0.026031472;-0.1227927;0.16881542;0.025572222;0.005831296;-0.09933939;0.03434691;-0.099089965;-0.037312515;-0.11664118;0.004466051;0.045829043;-0.09197718;0.01925144;-0.08173811;-0.036837783;-0.10367679;-0.09000438;-0.036375333;0.047480863;-0.11003999;-0.018298946;-0.061552964;0.029181542;-0.06606961;-0.098964795;-0.103329636;0.012040133;-0.013932041;-0.075682886;-0.10540436;0.026824169;0.02005828;-0.043624274;0.07073248;-0.024488656;-0.0613497;-0.080526784;0.048146386;-0.0026201599;-0.119298235;0.014544874;0.007112822;0.06248765;-0.09415481;-0.18839157;-0.0026024394;-0.012431689;-0.07002264;-0.015775595;-0.0007367593;0.022113351;-0.04044248;-0.114767306;-0.02596454;0.13691108;-0.06878203;0.012064951;-0.070062056;0.0074338797;-0.09312858;0.014572972;0.027185827;-0.16266708;-0.049206533;-0.063501455;-0.11643045;-0.070040986;-0.009484153;0.08283212;-0.0644406;0.09089617;-0.06524914;-0.00925236;-0.019509792;-0.040200397;-0.11359858;-0.08536209;-0.001316875;-0.055949114;-0.043907754;-0.0666256;-0.05580171;-0.05005073;-0.004027879;0.017175151;-0.1647967;-0.012472049;0.028853757;0.023240695;-0.17233464;0.0596241;0.1286953;-0.25400972;0.1272079;-0.03181554;-0.026916984;0.055420656;-0.07007601;-0.18730846;-0.09150436;0.0024794645;-0.030149518;-0.034083903;0.033182688;0.0020604255;-0.05999555;-0.040063348;-0.0445936;0.0029427174;0.009487782;-0.10222947;-0.060055193;-0.004385913;-0.07939502;-0.07150415;-0.097388744;-0.13042632;-0.07853924;-0.10409487;0.009240019;-0.06278883;-0.052225254;-0.09221289;-0.056213927;0.12923157;0.08881415;-0.061951168;0.008753635;-0.0061191227;0.12059409;-0.009664804;0.02822641;-0.105481125;-0.05254919;-0.030482156;-0.09676489;0.026867514;0.09055563;0.15830573;-0.061421163;0.061381284;-0.10782194;-0.012551766;-0.07097612;-0.022640081;-0.004542517;-0.05268659;0.039784323;0.035567068;-0.06787495;0.18221611;0.04730343;0.060610335;0.02307082;-0.05838907;0.0026569157;0.115902856;0.022222726;0.017732123;0.016638774;-0.110015646;-0.10821844;-0.034863282;-0.02393317;-0.06144094;0.0329117;-0.06900949;0.020029498;-0.055014025;-0.107217744;-0.021904347;-0.065249056;-0.05146475;-0.09424316;0.005973742;-0.032449536;-0.006130888;-0.059303176;0.005529669;-0.054261126;-0.018931827;-0.09658907;-0.112287976;-0.052414738;0.03496578;-0.14975695;0.02189038;0.0789322;-0.01832878;-0.057195544;-0.018808344;-0.069603354;0.0063524824;-0.09648689;-0.09340344;-0.018683838;-0.036619034;0.057597667;-0.074210174;-0.016591365;-0.00047509512;-0.12405926;0.018845275;-0.023561124;-0.031121176;-0.09132018;-0.033277888;-0.01331453;-0.0042791064;0.20032111;-0.10803737;0.01765325;0.00450602;-0.2222656;-0.09463895;0.07825511;-0.059024014;-0.069292955;-0.08244286;-0.023237672;-0.07664383;-0.114550255;-0.038711574;-0.01872266;-0.07381408;-0.025844438;-0.08060497;0.0014674711;-0.004283786;-0.11658573;-0.027882148;0.14554638;-0.06515596;0.11995634;-0.082856864;0.049367085;-0.059937254;0.084491916;-0.03370913;0.05325539;0.028436784;0.017309874;-0.029592227;0.0038457164;-0.0756663;0.033003483;0.03351037;0.028863093;0.012280293;0.011788754;-0.10613071;-0.03786927;-0.06983162;-0.09270001;0.034025047;-0.13270643;0.020963112;0.026777077;-0.028153047;-0.07616788;-0.06926686;-0.034973133;-0.15916298;-0.03826102;-0.078391336;-0.07029774;-0.040867854;-0.012766664;0.04107539;0.00840713;-0.10044132;-0.008236133;-0.032993603;0.043344293;-0.003355513;-0.029745085;-0.08073387;-0.07416411;-0.016944215;-0.02756092;-0.0051490143;-0.02239619;-0.038526803;-0.059130028;0.05922926;0.038926102;-0.021615623;0.08449793;-0.046508618;-0.012689654;-0.0426144;-0.026599994;-0.14888763;0.023257112;-0.037949763;-0.009999554;-0.06831966;-0.020086573;0.028895011;-0.023958541;0.05245925;-0.079280734;-0.004028935;0.02798208;-0.06660923;0.025671355;-0.048950292;-0.030313615;-0.07421173;-0.10165491;0.04050005;-0.058216207;0.10402963;-0.038758148;-0.19231597;-0.055321127;-0.12660989;-0.021791782;-0.11318675;-0.079309374;-0.014295805;-0.059609547;-0.084704615;-0.09427562;-0.012150123;-0.09288327;-0.019848973;0.031337094;-0.073300794;-0.11854314;-0.06312667;-0.18040922;-0.13181937;-0.13282628;-0.1307628;-0.09772889;-0.08525999;0.07502066;-0.12768163;-0.036623716;0.005971665;0.049005825;-0.035256397;-0.05866583;-0.14741142;-0.077737585;0.03983783;-0.012884065;-0.05475513;-0.07613944;0.04136338;-0.26474363;-0.065632254;-0.12211537;0.022042898;-0.08215024;0.05181928;0.040352475;0.041178778;-0.08752876;-0.017983785;-0.12609708;-0.0047886986;-0.05438178;-0.011572888;-0.014922339;0.013791467;-0.12847863;0.014493456;0.08903267
-0.0365896;0.08736848;0.017828267;0.027173428;-0.010493441;-0.05374829;0.019625464;-0.13569087;-0.10369567;-0.009822178;-0.09240681;0.022389792;-0.09854342;-0.0131024495;-0.08520881;0.03044383;0.05776448;0.09814587;0.0073273005;-0.06685216;0.07414061;-0.085580826;-0.058579285;0.058568742;-0.0581678;-0.049651932;-0.010718764;-0.0007148446;-0.083607025;0.013497704;-0.059525028;-0.056056105;0.039908208;-0.008315071;-0.13724871;-0.14377058;-0.04287091;-0.027018057;-0.07669677;-0.080232196;-0.0634285;-0.13580327;-0.0147347795;0.07009169;-0.22456296;-0.010400918;-0.08424779;-0.056498934;-0.0550108;0.070788115;0.01969479;0.02053249;-0.00836331;-0.08051801;0.0022402476;-0.036999;0.006842656;-0.013356226;-0.03515641;0.017075812;-0.09914785;-0.16556662;-0.020844901;-0.11480474;-0.033793233;-0.14057282;0.029911563;-0.027715875;0.056972194;-0.05902083;-0.106219955;-0.048779793;-0.050301608;-0.029804334;-0.08361501;0.023696704;-0.010751756;-0.073496096;0.1551004;0.15469413;-0.021603761;-0.08513029;0.0388448;-0.01906671;-0.07333271;0.025144044;-0.060539234;-0.028921202;-0.002567555;0.059178602;0.021618918;-0.006812414;-0.07036416;-0.043255564;0.00081055326;-0.11650958;0.01583513;0.027279131;-0.08024589;-0.03433594;-0.19561453;-0.009860052;0.016254565;-0.055942398;-0.06503579;-0.01694179;0.020241842;0.040390246;-0.018844796;-0.15501758;-0.17888708;-0.025288513;-0.01338516;0.041390106;-0.09045699;-0.01716047;-0.11085667;0.03635955;-0.13947573;0.05165408;-0.040072795;0.043897077;-0.028114056;-0.013236138;-0.033654038;-0.097319864;0.015618976;-0.07266615;-0.044636432;0.0074400147;0.0418028;0.030491756;-0.10181956;-0.012350201;-0.040204678;0.00059279165;0.011953592;0.052697062;-0.08117208;-0.11314024;-0.043542273;0.14413896;0.021270977;-0.0072433464;-0.07852003;-0.059366345;-0.076413944;-0.05757555;-0.054814294;0.020832341;0.009215393;-0.0418116;0.023970481;0.032862585;-0.038850836;-0.222803;-0.10814014;0.012774469;-0.09316036;0.01172698;-0.057677623;-0.07833721;-0.0025453109;-0.0012097768;-0.040606324;-0.029601192;-0.06788133;0.037207;-0.04967029;-0.068075486;0.08778928;0.005437402;-0.027444778;0.053384714;-0.07734465;-0.004557786;-0.008227389;0.031520776;0.17217144;0.015880395;0.018402498;-0.0014102426;-0.063160606;0.020661866;-0.10712922;-0.08829476;-0.039911874;0.043244798;-0.018393012;0.02456971;-0.026147427;0.027679577;-0.030848306;-0.09920536;-0.021073515;-0.08804696;-0.00064848707;-0.105969794;-0.09831172;0.0719642;0.04316464;-0.045575954;0.05072951;-0.00057958823;-0.02064286;-0.032688465;-0.16045532;0.16473174;0.00785234;-0.112382434;-0.035246264;-0.012821206;-0.10837269;0.00093818444;-0.023312524;-0.074949265;-0.041266914;-0.082792595;0.067467116;-0.027735278;-0.124610774;-0.017450111;-0.06281001;-0.10034134;-0.07136059;-0.03935373;-0.0034110772;0.042468555;0.047139034;-0.03644361;-0.077377774;-0.069029085;-0.023999602;-0.12747554;0.020010643;-0.06858366;-0.086681664;-0.002363603;0.044646412;0.085123114;-0.111117944;-0.006776687;-0.11182747;-0.06525681;0.045061044;-0.1008442;-0.045487296;-0.079103984;0.09132221;-0.088841215;-0.10456152;-0.06430761;0.073640466;-0.06047536;-0.030248186;-0.06003965;-0.08938868;-0.097277746;-0.08862895;0.005915168;0.12163296;-0.1077665;-0.09181091;-0.09179739;-0.060754847;-0.00717574;0.06060297;-0.033566624;-0.09426538;-0.123040766;-0.124683894;-0.05720024;0.023845142;-0.0028930805;0.00875801;-0.059391722;0.026881913;-0.08094083;-0.08394167;0.021589182;0.04223725;-0.2303181;-0.091506585;-0.15263863;-0.050533608;0.006575215;-0.02292893;-0.02475355;-0.12338337;-0.08051399;-0.07941314;-0.11346445;-0.093729496;-0.038840204;0.04345422;-0.0045153913;-0.074052356;0.09783217;-0.2719946;0.13137953;-0.030288506;-0.016383424;0.019359756;-0.050573647;-0.17221652;-0.046591796;0.009374333;-0.040459502;0.09332697;0.002828321;-0.055955213;-0.025287515;-0.108486906;0.035759382;0.0063511943;0.010843628;-0.06945738;-0.105006166;-0.13768862;-0.06606662;-0.061210718;-0.17818128;-0.060980722;-0.06300747;0.024639726;0.06356178;-0.12956516;-0.06682316;-0.026587667;0.012808869;0.11452176;0.003684628;0.05274657;-0.077985846;0.036539905;0.12900066;-0.06390741;0.052986298;-0.12703648;-0.0979853;-0.0946045;-0.07335066;-0.010249816;0.06279391;0.0061142487;-0.026379192;-0.091546;-0.025398035;-0.10688143;-0.15024783;0.035289142;-0.09372378;-0.002980496;-0.10049967;0.0072219665;0.0469016;0.24227174;-0.053819653;0.044403292;-0.02868396;0.0123154875;0.021315368;0.10985839;-0.060219567;0.012361404;-0.10500201;-0.003310797;0.009431891;0.029499881;-0.10257073;0.031242253;-0.07463413;-0.073462166;-0.05378695;-0.060178485;-0.05242555;-0.05082747;-0.050593663;0.06062833;-0.10214965;-0.049296312;-0.011870129;0.010052517;-0.004699266;0.11920296;-0.0032983683;-0.16611908;-0.12467728;-0.034078177;-0.03403273;-0.079208724;-0.04943419;0.02663045;0.11707255;0.03420567;-0.011230024;-0.0010933764;-0.07615083;-0.013583162;-0.07949145;-0.09038093;0.032829307;0.018945292;0.06409139;-0.074045606;-0.0001219548;-0.10620991;-0.095721856;-0.04823026;-0.065591864;-0.013537599;0.037992086;-0.06532451;0.036313415;0.016813813;0.16493285;-0.089165665;-0.12178056;-0.03495396;-0.13032824;-0.06691773;-0.0470478;-0.08211785;0.07354087;-0.03989087;-0.06648992;0.048568472;-0.022884907;-0.009184065;-0.0657874;-0.06634526;0.0072969757;-0.107221246;0.057947017;0.0057832114;-0.09027815;-0.025083883;0.0237948;-0.10163906;0.028009724;-0.073287085;-0.015714755;-0.015353445;0.09560907;0.040061895;0.0039771707;-0.0625647;-0.006033619;-0.058209427;-0.026371708;-0.07532322;0.011630009;0.015204422;0.033080906;0.052972298;0.004744548;-0.112233534;-0.05969245;-0.018242186;-0.058502816;0.014046365;-0.010461504;0.01610362;0.030771974;-0.024126982;-0.02726121;-0.0018570056;-0.07318659;-0.20720148;-0.08893459;-0.10508757;-0.024453022;-0.04416218;-0.0041333362;-0.005752385;0.0027782128;-0.11165933;-0.11259152;0.059604835;0.009327357;0.012601273;-0.10050345;-0.022357304;-0.08831743;-0.1024623;0.050330695;-0.051769942;-0.11269414;-0.09586347;0.06399432;-0.014243238;0.10877452;0.060705125;-0.025982153;0.00311835;-0.0023746763;0.0059274524;-0.063716955;-0.044735916;-0.06042346;0.023891266;-0.005788931;0.025368137;-0.07925836;-0.05948469;-0.017277563;-0.094775215;-0.07295235;-0.1258012;0.037892077;-0.08450827;-0.11503662;-0.13476107;-0.02969582;-0.052543826;-0.103569135;-0.001794997;-0.09630726;0.12487648;-0.08302684;-0.30860236;-0.07166196;0.01155768;-0.10487915;-0.05543948;-0.022902727;-0.011249837;0.08614693;0.044723384;-0.055483516;-0.10676588;-0.043068726;0.011198918;-0.058206398;0.032944694;-0.09410799;-0.057266023;-0.12937164;0.023688208;-0.13546681;-0.121438995;-0.09584479;0.02941641;0.066136405;0.032062545;-0.09537583;-0.040148288;-0.09252495;-0.09593571;-0.15453029;-0.0771071;-0.045526482;0.07694209;-0.030780895;-0.028850194;-0.07577294;0.028422084;-0.18659146;-0.0931379;-0.08254174;-0.011500603;-0.09534954;-0.018643977;-0.09987094;0.03427366;-0.0017242332;-0.0065447334;-0.039987616;-0.04205187;-0.088701844;-0.082407214;-0.030271107;-0.103083536;-0.117125474;0.1106785;0.046195924
-0.061392687;0.056380723;0.12310003;-0.04240232;-0.13353582;0.010719879;-0.025852198;-0.10839939;0.02019273;-0.0007116236;-0.023905514;-0.050331254;-0.017292466;0.009494799;0.027114637;0.0005347248;-0.04414074;-0.013601398;-0.077973016;-0.03350191;0.10490233;-0.09501411;-0.079207115;-0.061682317;-0.013380158;-0.041443728;0.036035202;-0.050498564;-0.15102988;0.09494461;-0.0880794;-0.035111327;-0.104011595;0.057625443;-0.14652614;-0.025348151;0.0324258;-0.108227104;-0.034053694;0.0051761474;0.012199828;-0.17830431;-0.08232532;0.11757763;-0.21594778;0.0035713022;0.019810261;-0.025820447;0.0006285427;0.0628666;-0.06594221;0.071214795;0.008566704;-0.036255904;-0.0969086;-0.036321785;0.046137955;0.006629583;-0.067528434;-0.087602116;-0.054059695;-0.1466567;-0.031004017;-0.037546225;-0.03435342;-0.19023925;-0.004121801;-0.02654977;0.014184484;-0.14290135;0.018903447;-0.121013135;-0.07499334;0.010309358;0.004741407;-0.07754082;-0.0155705195;-0.106012315;0.15053856;0.17095509;-0.017094487;-0.034035288;0.101326995;0.0014381146;-0.046822146;-0.11290116;-0.091592565;-0.1497065;-0.054501448;0.006408567;0.03998683;-0.099436454;-0.08909756;-0.033809107;-0.14582434;-0.12357441;-0.057520527;-0.057983417;-0.1677034;0.0052824104;-0.1204337;-0.027370695;-0.025940025;0.048639014;-0.014498168;0.0037630687;-0.078208946;-0.008592905;0.0010265451;-0.08738987;-0.04568257;0.052877232;0.03912935;-0.023831;0.0014711707;-0.09092442;-0.006307312;-0.06884742;-0.093029894;-0.04977702;-0.01304077;0.057669394;0.04872621;-0.0696679;-0.0020818866;0.039273717;0.118398726;0.007044034;0.051952004;-0.0011586561;0.012943678;-0.04716198;0.0038142905;-0.09795286;-0.066483624;0.04750679;-0.076913185;0.057933398;-0.08645473;-0.18748038;-0.072978705;0.18802376;-0.085486785;-0.096697755;-0.0294837;-0.11397303;-0.041771702;-0.10572956;0.029484348;-0.09899905;-0.13522264;-0.11535955;0.038949374;0.063027784;-0.08032586;-0.1486834;-0.056100946;0.14820713;-0.061835743;0.0011721803;-0.073001675;-0.113746;-0.033277407;0.08309369;-0.08563569;-0.060624946;0.02994948;0.016395956;-0.05038302;-0.08005006;0.033667285;-0.022744568;-0.02681989;0.05794014;-0.08404707;0.028313994;0.036455996;-0.0011141241;0.10398554;0.042354945;0.03315926;-0.12757711;-0.030615298;-0.084208876;-0.112151235;-0.18898878;0.039534643;-0.100248;-0.09853677;-0.09588322;0.031760283;-0.02675501;-0.05641649;-0.06473161;0.06895692;-0.05420526;0.014268873;0.003794245;-0.040254764;0.056573596;-0.005654158;0.04985016;-0.045465328;-0.0597625;0.0030551269;0.03489489;-0.06232659;0.22499344;0.016702745;-0.022681177;0.021805637;0.0067746863;-0.110319346;-0.032003593;0.015138968;0.008791327;-0.019061485;-0.09678893;0.052498817;0.01058272;-0.029965471;-0.0680456;-0.105246276;-0.032460935;-0.07730381;0.0015535164;-0.050745416;0.026297605;-0.015926693;-0.058914386;-0.016125545;0.03203158;0.024300462;-0.109156966;-0.08074621;-0.04905968;-0.07665788;-0.004964225;0.02509127;0.080769636;0.020243991;-0.07034156;-0.03620338;-0.00037625537;0.01699019;0.017466974;-0.028015383;0.056440387;-0.019613765;-0.06545976;-0.1214425;-0.08547286;0.08080512;-0.06128728;-0.086121716;-0.10757971;-0.020260515;-0.07829885;-0.035490744;-0.10836124;0.004916735;-0.03574812;-0.06461845;-0.033263117;-0.09881886;-0.05392839;-0.06430065;-0.019367786;-0.08775022;-0.069686644;-0.038118385;-0.02118266;-0.023586778;-0.0002341939;-0.037802637;-0.08483399;-0.007517906;-0.03859845;-0.097873546;0.09498836;-0.05929169;-0.20003377;0.004334347;-0.029306965;0.015058182;0.012120962;-0.04130788;0.052229322;-0.13779826;0.04189807;-0.045001663;-0.11965954;-0.024947697;-0.021149602;0.0043976186;-0.124002665;0.047606394;0.100573994;-0.1695545;0.15216841;0.050881345;-0.11505882;-0.07102656;-0.0214073;-0.18917307;-0.043385826;0.05970204;-0.12154607;0.019009547;0.016845748;-0.085669026;0.022228936;-0.09273889;-0.09833632;0.0486759;0.16264234;-0.013098878;0.048792902;-0.034833327;-0.03547643;-0.062398005;-0.15583472;-0.056901995;-0.055179656;0.02788682;0.035743747;-0.027314559;-0.018702311;0.04046153;0.012446768;0.045718767;0.06901841;0.044589076;0.037683327;-0.09495242;0.17258658;-0.043582954;-0.048619498;-0.05729229;-0.049178183;-0.047104307;-0.13701354;0.029008254;0.0008311008;-0.0054262867;-0.047591127;0.04099887;0.0048950515;-0.036476955;-0.0066273655;0.08810049;0.028451325;-0.0077803624;-0.04708094;-0.013250888;-0.015334397;0.19357732;0.075107336;0.050618142;0.017579556;-0.046028968;-0.026413284;0.092787206;0.002891693;-0.03825702;-0.02282198;-0.10824037;0.02306977;-0.055652253;-0.031886574;0.010553682;0.02747686;-0.062156245;-0.03170695;0.03340464;-0.06871863;-0.0782182;-0.035993762;0.0154134575;0.004881621;-0.06360482;0.009390781;-0.07371005;-0.017672198;0.10246663;0.018970314;-0.020644458;-0.0752054;-0.10834006;0.025242114;0.020485887;-0.0725978;0.063299015;0.0052543124;-0.025749011;-0.061773043;0.042365722;-0.058864884;-0.03130262;-0.09213983;-0.07470698;0.022647666;-0.10715935;0.04427436;0.031062363;-0.03921474;-0.12562595;-0.11431253;5.1986048e-05;0.011618851;-0.020814633;-0.10904485;0.025020102;-0.033135753;0.13189831;0.089794785;-0.1064738;-0.01028831;0.051237464;-0.22880341;-0.021134147;-0.05428561;-0.05427123;-0.04624223;-0.050430708;0.046108514;-0.07417603;0.021034338;0.031471167;0.006996189;-0.106717154;0.021980338;-0.124497116;-0.038671836;-0.03716876;-0.0056800297;-0.03539327;0.09075248;-0.12545599;0.109858446;-0.02613066;0.0056542293;-0.078780495;0.097508825;0.093998335;-0.053380985;0.07183664;-0.011433807;-0.1224223;0.070847675;0.016629284;-0.019215535;-0.042374652;0.060599465;-0.07895724;0.03177048;0.026013779;0.027509555;-0.026247019;-0.02824431;-0.0501555;-0.07905526;-0.05134059;-0.09486285;0.011939057;0.044442125;0.032164723;-0.027023135;-0.11164049;-0.022498049;-0.1627779;-0.069284044;-0.11598515;-0.00979467;-0.028852718;-0.03553336;-0.008716569;0.028040068;0.021297466;0.040160894;-0.11481563;-0.0958945;-0.010210887;0.0018023094;-0.11028769;-0.02186191;0.01254749;0.00044641533;0.034795105;0.0022846581;-0.06123123;0.020527467;-0.04866075;-0.017899517;-0.047633655;-0.07870416;-0.06037677;-0.010047133;-0.06685208;0.055554345;-0.030792862;-0.10831176;-0.03294259;0.023501001;0.008829133;-0.10575717;-0.063172325;-0.06159243;-0.16162744;-0.0032582346;-0.15173101;-0.08993741;-0.15157913;0.045478474;-0.007501265;-0.057653647;0.049574398;-0.009415003;0.11680423;-0.16465482;-0.2538876;-0.14110193;-0.08447122;-0.05946619;-0.04118576;-0.028235741;-0.030055257;-0.021616908;-0.01373364;-0.061928485;0.014694165;0.016293414;-0.06579063;0.03112971;-0.0349869;-0.0558578;0.022527656;-0.09809774;-0.04056333;-0.013118105;-0.0014195985;-0.035105895;0.044875793;0.15770562;0.019583274;-0.038075093;-0.007340614;0.018904252;-0.042008743;-0.16721174;-0.010871784;-0.009578107;0.04058519;-0.00066740066;-0.09662722;-0.06825531;0.013784977;-0.19440943;0.0020368507;0.0034451112;0.021462122;-0.056884415;0.026326217;-0.07440844;-0.062493004;-0.019038389;-0.12165388;-0.07953121;-0.036671527;-0.17938182;-0.09615741;0.04843913;-0.011595438;-0.09948581;0.019402461;0.022794716
-0.07057185;0.04007578;-0.0060887793;-0.064910986;-0.03942525;0.017222013;-0.01152484;-0.17746986;0.027839176;-0.00863445;-0.06860962;-0.11141379;0.004382299;-0.042357676;-0.09419184;-0.043437395;-0.0325484;-0.03952669;-0.099810936;-0.10296547;0.017690917;-0.036372665;-0.033991154;-0.01086411;0.04801843;-0.05025337;0.02823219;-0.053153962;-0.0675753;0.015246824;-0.058117896;0.031708427;0.05344418;0.0032228364;-0.10292018;-0.12126275;-0.09311915;-0.10208699;-0.030375212;0.017036129;-0.022769013;-0.043506544;0.018618487;0.0727356;-0.27936465;-0.06986367;-0.10301585;-0.12152806;-0.09599751;-0.030854532;0.044203576;0.08939175;-0.09849407;0.04326489;-0.059769705;-0.002993194;-0.020939905;0.006824467;0.012171691;-0.024336196;0.011719959;-0.19266967;-0.068662375;-0.1750588;0.014643309;-0.12033438;0.06791134;-0.029873097;0.03157019;-0.07201891;-0.07153568;-0.07306345;-0.093026035;-0.037269667;-0.071577005;-0.113881625;-0.05590722;-0.084697746;0.22573861;0.13114014;-0.02358963;0.03584614;0.06280017;-0.08536958;0.049911436;-0.10569752;-0.029589787;-0.06562688;0.021344816;-0.027909508;-0.00216542;0.014492696;-0.105203964;0.013241392;-0.11405511;-0.026392447;-0.003988071;-0.08411412;-0.15522662;0.052467346;-0.16145988;-0.032231458;-0.06754894;-0.06394481;-0.097724855;0.03696516;-0.09791779;0.020215545;-0.14207308;-0.017250935;-0.15526816;-0.014492074;-0.09069579;0.035788245;0.009924111;-0.014122051;-0.055262506;0.018952359;-0.13175462;0.060435567;-0.07339418;-0.053392597;-0.012775306;-0.03541991;0.019293655;-0.0041272673;0.07786256;-0.0037987388;-0.0678685;0.02461594;0.00406888;-0.07029962;-0.06577697;-0.037008464;-0.08528396;-0.036831528;0.010935425;0.05637312;-0.1045148;-0.10077724;0.036743604;0.09455007;-0.095804095;-0.041202273;-0.06378994;-0.054584105;0.067137875;-0.0967534;-0.053814966;-0.013042765;-0.044920012;0.043904174;-0.08305711;0.05251813;0.043688845;-0.2063793;-0.018604087;0.027308023;0.064568676;-0.03398946;-0.067348294;-0.07908914;-0.0654931;0.10308382;-0.023532167;-0.12106334;-0.022386448;-0.0053275772;-0.15398312;-0.037195966;0.10686693;-0.003264491;0.03658654;0.03885813;-0.11330696;-0.07723819;0.037011363;-0.045102686;0.067574896;-0.12232214;0.06617185;-0.047577463;-0.10427716;0.0331987;-0.056654353;-0.1623543;-0.07093726;-0.10604272;-0.083097376;-0.056197353;-0.018053927;0.050837807;0.037435167;-0.10892774;-0.022684246;0.04921112;0.04965811;-0.1565146;-0.075217545;-0.05660358;-0.03754904;-0.052399524;-0.06410459;0.041977495;-0.061732955;-0.05417776;-0.13207883;0.118595794;0.088480674;0.029761054;-0.088186584;-0.026403708;-0.029761802;-0.036582995;-0.03478528;-0.08846608;-0.050634753;-0.14980845;0.054029334;-0.102321394;-0.09058546;-0.08345863;-0.081187956;0.034165815;0.050867718;-0.0807501;0.061948683;-0.07373571;0.017205372;-0.10584684;-0.13008237;-0.03498482;-0.01427413;-0.08024658;0.055464946;-0.057264075;0.043258797;0.0016254246;-0.05782939;0.062870495;-0.040975742;-0.116796196;-0.028369732;-0.05023695;-0.026638096;-0.1294515;0.0073988996;-0.101094745;0.052238215;0.017824078;-0.18204664;-0.0015451792;0.1088097;0.04316603;-0.11954772;-0.023770962;0.0063569034;-0.08880177;-0.034358833;0.0070827757;0.090899654;0.0081363255;0.011215543;-0.07138743;-0.013774128;0.0041521504;-0.042294256;-0.12119757;0.0021300972;0.02851063;-0.08235417;0.02697166;0.055960886;0.011032778;5.890368e-06;-0.048912663;-0.03862752;0.05035302;-0.0053610746;0.033957265;-0.07068171;-0.20339102;0.009701561;-0.039743077;-0.034557946;0.0011832182;-0.077226095;-0.009012948;-0.16864966;-0.10350885;-0.026036305;-0.113397405;-0.036218334;0.02371007;-0.1024495;-0.14715002;0.06224666;0.12723984;-0.124712124;0.004454583;0.051919416;-0.032463647;0.00034159338;-0.12934223;-0.19312291;-0.07711621;0.031360533;-0.12937605;0.048065387;-0.05386051;-0.01001332;-0.09309933;-0.032273557;0.043176427;-0.0003353515;0.11968948;-0.017715178;-0.082409315;-0.07473055;-0.052511968;0.020047251;-0.0539869;-0.025481965;0.04723156;-0.105181806;-0.037745316;0.0031718211;-0.015087869;0.021496778;-0.034112673;0.12184631;-0.08393613;-0.010956083;-0.008553314;-0.09719451;0.056339357;-0.009449812;-0.050394896;-0.12478799;0.017029468;0.009505369;-0.0650825;-0.0041895043;0.073790245;0.05374546;-0.101325065;0.063951895;-0.009767008;0.0403208;-0.030995565;0.0074438704;-0.09106026;-0.054777905;-0.08078306;-0.021710066;-0.025006926;0.17308487;0.055057023;0.076981895;0.014777161;-0.034587584;-0.060721558;0.14521794;-0.029378789;0.038819976;-0.09644436;-0.100001276;-0.07120328;-0.049241018;0.04602515;-0.11746402;-0.039992925;-0.16365069;-0.046280213;-0.065821245;0.027067717;0.004308463;-0.031461015;-0.0047991723;-0.06941936;0.027617475;-0.09053044;-0.0066089807;0.10320257;-0.002222358;-0.069359094;-0.098127976;-0.13884144;-0.119513005;-0.06249854;-0.058691658;-0.048245616;-0.0023611942;0.017282045;-0.021554893;-0.0021899578;0.0592249;-0.14575544;-0.03462816;-0.09392151;-0.0952168;-0.07012283;-0.0022131542;0.078906015;-0.014318069;-0.04737201;-0.032855134;-0.22463524;0.080592886;-0.073655136;-0.0753592;-0.0010186717;0.023887904;-0.004317089;0.11939264;0.10096888;-0.081076935;-0.055321068;0.095973864;-0.1789736;0.017619755;0.02528695;-0.034953758;-0.00069606514;-0.08633655;-0.09803326;0.042698305;-0.06552388;0.06577214;-0.026471213;-0.1498714;-0.02887877;0.0021920037;0.03317634;-0.10534673;-0.0868363;0.021326805;0.118258476;-0.051090762;0.15136737;-0.06671625;0.09207136;-0.07097761;0.038590588;-0.03693437;0.075442;0.00936251;-0.05164645;-0.10994973;0.076781735;0.025546711;0.05360306;-0.08379712;0.053502437;-0.014207888;-0.075059086;-0.10100606;0.07508702;-0.014953599;-0.06601744;-0.094720736;-0.023320919;-0.013280353;0.058436655;-0.08636021;-0.04181693;0.042735677;-0.1021757;-0.075919844;-0.13014793;-0.124253795;-0.04389391;-0.00843805;-0.040729385;-0.050142862;-0.086900495;-0.1301073;-0.107527375;0.04425245;-0.0024406984;0.0030418544;-0.032946717;-0.0042157928;-0.08994793;-0.111903146;-0.055430472;-0.10440903;0.0059055206;-0.08099677;0.018437691;-0.08318517;-0.0240265;-0.01910524;0.0120716365;-0.017520612;-0.113297045;-0.11632454;0.015313728;-0.12637204;0.027921936;0.03465975;0.038444895;-0.08068806;-0.024706746;-0.007870131;-0.08484281;0.014002644;-0.0044394825;-0.13422853;-0.09956461;-0.03652574;-0.0708816;-0.15893197;-0.066331476;-0.008960929;0.0049432763;-0.061905872;-0.055596963;0.12657192;-0.06845712;-0.27709082;-0.052627884;-0.06450143;0.030965514;-0.12531874;-0.019342562;-0.11808276;-0.021072216;0.03787495;-0.016601427;-0.024547096;-0.023047317;-0.035381366;0.027065596;-0.09841385;-0.082668476;0.0734972;-0.09216724;-0.013283797;-0.12466628;-0.0027202826;-0.009262407;-0.079835944;0.15292478;-0.07364826;-0.074955925;0.0148906885;-0.024123779;0.028429396;-0.010451064;-0.09811012;-0.09175943;0.032241493;-0.085248895;0.028243229;-0.037139032;-0.008228681;-0.294213;0.044929102;-0.1321324;-0.000102658785;-0.012988241;-0.0845735;0.04275899;-0.04614743;0.017803658;-0.10297679;-0.12653096;0.047544204;-0.11245693;0.027560892;0.030773742;-0.11864584;-0.09373288;-0.044986494;0.105839305
0.04170515;-0.0037465864;0.005415832;0.05367289;-0.1246157;-0.086381614;-0.062401906;-0.18006483;-0.064389184;0.087658025;0.01347285;-0.11419179;0.037727077;-0.083654396;-0.010992772;0.0118014915;0.11462512;0.01518452;-0.109177805;-0.11142471;0.12275655;-0.14356408;0.011556363;0.01605387;0.004818027;-0.046112742;-0.012745984;-0.08906343;-0.13931322;0.07976089;-0.048363812;0.08611894;-0.036585245;0.07693991;-0.09231779;-0.079160914;-0.0811654;0.03481387;-0.061180513;-0.11360494;-0.0374285;-0.17504592;-0.06234264;0.01759335;-0.2432733;-0.025377637;-0.017365081;-0.04447043;0.012397667;0.09029373;-0.027122214;0.14562663;0.054202057;-0.012857561;-0.067645796;-0.0049635926;0.02227413;-0.081414476;-0.10880648;-0.07088414;-0.10092956;-0.15162182;-0.019609379;-0.028342905;-0.050822698;-0.22117369;-0.089012414;-0.12084215;0.073402554;-0.1201945;-0.09977473;-0.11945873;-0.13276768;0.054686412;-0.08671647;-0.11109703;-0.00023956304;0.046157364;0.16824858;0.07700526;-0.0104684895;0.03564826;0.17486499;-0.11435235;0.05056887;0.013345939;-0.09657276;-0.010085317;-0.00644892;0.039851557;-0.06803602;-0.0037125666;0.025553813;0.05928093;-0.0044612293;-0.10888635;-0.06840602;-0.060084183;-0.14680572;-0.10511068;-0.16819975;-0.019673817;-0.07054982;-0.003219318;0.046659365;-0.09404315;-0.05425383;-0.035048418;-0.032786816;-0.093410484;-0.18977809;-0.03413493;-0.061180238;0.10022227;0.05733017;-0.0908883;0.0011553117;-0.018208684;-0.030774213;-0.064111285;0.042626552;0.06734547;-0.067473836;0.02807106;-0.06401814;-0.058967073;0.12764879;-0.05269505;0.05995529;0.104672976;-0.003894017;0.05435314;-0.11507081;-0.010838728;-0.0821669;0.014975364;-0.06673693;0.0859499;-0.11564349;-0.18573448;0.016064087;0.14456934;0.033741605;0.048739266;-0.029504241;-0.004814646;-0.01906649;-0.027799735;-0.037124973;-0.035829216;-0.044851683;-0.06249347;0.033239085;0.109772004;0.04853987;-0.19246233;-0.048648816;0.16473109;-0.057700675;-0.02302523;-0.07244562;-0.098999344;-0.095521435;0.087736174;-0.043730542;-0.072485745;-0.09333502;-0.02333321;-0.085167244;-0.00986639;0.11755335;-0.080506355;0.008280374;0.10957225;-0.10836829;0.010933996;0.033319388;0.0026258312;0.042837925;-0.05415613;-0.054981854;-0.06333418;-0.029084077;0.050096933;-0.007535867;-0.1563487;-0.059600715;0.0067548747;-0.048351638;-0.06063464;-0.031863846;-0.05182537;-0.08639731;-0.046516027;0.07954707;0.04640401;0.054600324;-0.086838074;0.02598505;0.06323199;0.03778758;-0.10504531;0.036460254;0.053923234;-0.11999938;0.039891742;-0.008318659;0.14098623;0.116522975;-0.09658498;-0.075511366;-0.053919587;-0.09285966;-0.07771067;-0.011972851;0.015069333;-0.006532772;-0.179739;0.015997553;-0.024834938;-0.06420029;-0.12800646;-0.011352816;0.05351298;-0.011469619;0.04180349;0.10684535;0.06719475;-0.07438705;-0.00863935;-0.08128553;-0.016977103;0.027569683;-0.12710522;-0.031191662;-0.009936916;-0.03953039;-0.08109621;-0.038065765;0.038875747;-0.0785915;-0.045051206;-0.05741097;-0.021184258;-0.014276868;-0.07419271;-0.06780779;0.058317676;0.08569331;-0.06158148;-0.057871353;-0.036078125;-0.031874407;0.06651695;-0.14905934;-0.020161794;-0.09447888;-0.04829353;-0.03572393;-0.018178502;0.09950952;-0.048460018;-0.06674195;0.02458418;-0.0030436798;0.017412608;0.011782274;-0.08440134;-0.09031787;-0.07332582;-0.08168177;0.060040202;-0.035879802;-0.014371371;-0.10020444;0.004679599;0.09086404;0.0019449015;-0.08880081;0.042454515;-0.11079177;-0.110944815;-0.025213573;-0.095681384;0.06405644;-0.082794465;-0.009951294;-0.0991583;-0.041227687;-0.076239645;0.022480687;-0.13336086;-0.002126191;-0.08242487;-0.065774634;-0.12898879;0.03542464;0.028052667;-0.25189668;0.056965437;-0.06763114;-0.0732425;-0.05376358;-0.056539528;-0.20247775;-0.03140707;0.01712586;-0.085068405;0.067725696;-0.030776635;-0.07608209;-0.01861195;-0.07380461;0.02589446;-0.0019117284;0.11493843;0.022101136;-0.08634602;-0.14112785;-0.110358626;0.0383813;-0.060751274;-0.10620534;0.03476642;-0.06406261;0.021664985;-0.032068696;0.019677155;0.01808134;-0.07574223;-0.006981689;-0.010702282;-0.0046586813;0.018354196;0.00017389774;0.06460328;-0.06843846;-0.063508086;-0.09736869;-0.059453003;-0.06369882;0.02221573;-0.087521724;0.09391823;0.12451804;-0.11602924;-0.021468094;0.04060764;-0.11150144;0.013875792;0.07355345;0.04579386;0.010332369;-0.07406874;0.090587705;-0.06962136;0.19584265;-0.014462421;0.039495837;-0.06324724;-0.065969266;-0.033331018;0.15041488;-0.102599785;-0.00976578;-0.072270796;-0.057828344;-0.06251628;-0.04265083;0.00013513226;-0.058732856;-0.022965414;-0.017907131;-0.016726725;-0.029315064;0.009637919;-0.00039800536;0.022113984;0.04428334;-0.00043416343;-0.02696616;-0.1090783;-0.004783591;0.03734846;0.04914203;-0.0332628;-0.09199535;-0.060578465;-0.028449226;-0.08480119;0.010259007;-0.055346724;-0.047832936;-0.077762015;-0.029702175;-0.037536845;0.06587727;-0.1402464;0.027261358;0.026097037;-0.022525536;-0.0059798043;0.001403718;0.09015246;-0.07958111;0.05676966;-0.11854152;-0.20192483;0.06373774;0.015664788;-0.110268295;0.01964934;-0.10325537;-0.06094393;0.00053315173;0.11842209;-0.08778675;-0.057550576;0.026130633;-0.1409363;-0.033015285;0.039863363;0.027629092;-0.01692494;-0.11970064;-0.10280943;0.008592348;0.016714543;-0.0244651;0.052841686;-0.14592543;0.023560714;-0.112337984;0.08871817;-0.063819595;-0.08392243;-0.012443097;0.011160611;-0.08098631;0.05290759;-0.059523907;0.08998408;-0.10992916;0.04878765;-0.05885794;-0.06706877;0.07284017;-0.053433996;0.0073988605;-0.0042770947;-0.017396595;0.008977293;-0.103070185;-0.06365673;-0.09312185;0.0034887597;-0.0069621787;0.07673572;-0.113296315;-0.01052488;-0.029760756;-0.11044897;-0.09330532;-0.0050244434;-0.13533916;-0.032831024;0.031592548;-0.09814984;-0.070701055;-0.037544027;-0.14427023;-0.16468313;-0.14361978;-0.10877355;-0.015364642;-0.01289399;0.024157641;-0.073866636;-0.0072166137;-0.06544419;-0.0753563;-0.09658369;-0.08463899;-0.026122708;-0.032151412;-0.07806187;0.034660067;-0.11973567;0.059276912;0.020426393;0.0012326003;0.080056354;0.045624927;0.03504507;0.020456634;-0.022383424;-0.116197914;-0.013644927;-0.11472317;-0.026588272;0.03583765;-0.061489794;-0.018967198;-0.0074735885;-0.09759853;-0.009319876;-0.015032787;-0.01634022;-0.1347189;-0.013133249;-0.021389661;0.04274545;-0.17525478;0.04310909;0.031225815;-0.07604641;0.05653622;-0.006946269;0.14590873;-0.11222615;-0.20276658;-0.07414725;-0.021083908;-0.0040931082;-0.12079688;-0.06430187;0.019299954;0.011933478;-0.048493333;0.028188303;0.05007021;0.018583283;-0.028866947;0.019227395;-0.03405937;-0.054746166;0.061943263;-0.18659437;-0.07143363;-0.032218758;-0.14855473;0.04776307;0.035139892;0.016707521;-0.044905424;-0.017272264;-0.122731015;-0.08394153;-0.06814266;-0.06788125;0.006310801;-0.075398155;-0.019826531;-0.04093588;-0.112466864;-0.033898193;0.053754386;-0.14178151;-0.11098655;-0.13415973;-0.09107392;-0.09076716;-0.008384878;-0.036333494;-0.0037003262;-0.0857742;0.04338027;-0.10491377;-0.08569273;-0.044599835;-0.10041547;-0.04543825;-0.04613278;-0.046293214;-0.043131933;0.04308538
0.08054409;0.012668246;0.024203172;-0.08275377;-0.06352236;-0.04638322;-0.011149627;-0.16052422;0.03740155;-0.002502268;-0.009197091;-0.047047887;0.05182126;-0.08749307;-0.043311942;-0.041721668;0.04441681;-0.07586362;-0.034336712;-0.03680063;0.10355023;-0.1555298;-0.08561352;-0.09655081;0.049405966;-0.083581;-0.057396695;-0.075798176;-0.046055105;0.032311637;0.013264069;0.0036290297;-0.09557364;0.05583136;-0.05242806;-0.015750846;0.02426809;-0.074626595;-0.13711777;-0.08809697;0.045148764;-0.13261665;-0.01197311;0.12069052;-0.22027574;-0.052719764;-0.051366825;-0.04808507;-0.010242237;0.05439617;0.013914333;0.011834032;-0.0027577588;0.0063630613;0.011361834;-0.022512862;0.035845086;0.05183504;-0.07422501;-0.13409768;-0.0375592;-0.048572402;-0.05966871;-0.09902962;-0.08644948;-0.18632929;0.07237127;-0.030390639;0.07494433;-0.07943827;-0.03298661;-0.10057347;-0.114500605;0.019403413;-0.07831189;-0.055643488;0.04022076;-0.10020101;0.1049773;0.05801295;-0.05989282;-0.017005412;0.10164807;-0.043415587;-0.07156039;-0.021339182;-0.09668728;-0.0073088943;-0.04481923;-0.021850985;-0.026915716;-0.023066131;-0.093040384;0.05023762;-0.14371732;-0.098834306;0.007128591;0.0055395793;-0.14520457;-0.07861509;-0.119049296;-0.10972463;-0.05710262;0.00091320963;-0.021479815;-0.007792912;0.042082127;0.029927174;-0.12924172;-0.024476474;-0.13506024;-0.051635228;-0.034456313;0.04007314;0.040073693;0.011287641;-0.11843127;-0.08316678;-0.11731874;0.02057312;0.015113218;0.005832179;-0.056067195;-0.0815224;-0.0034432635;1.1446107e-05;0.077293806;-0.101897754;0.031877838;-0.04413412;-0.058712464;0.047126636;-0.07393081;-0.063907236;-0.08942871;-0.07086617;-0.006181748;0.009298087;-0.054129962;-0.1140132;-0.066093974;0.18859923;-0.00010933806;0.029506737;0.022529043;0.03163687;-0.024634315;0.024764342;0.08389888;-0.027880162;0.018813647;-0.04755544;0.010434937;0.048233166;-0.0260875;-0.17629541;-0.060812134;0.01983256;-0.021077164;-0.02826184;-0.015781643;-0.09107332;0.020573061;0.00960494;-0.06564096;-0.12492588;0.008637928;-0.062287766;-0.009589326;-0.11811897;-0.0036787565;-0.068303935;-0.10258912;0.03762034;0.008128105;-0.08544661;0.07364764;-0.07411884;0.16945381;-0.108732134;-0.025311688;-0.03342389;-0.10286862;-0.08227403;-0.027913023;-0.1500908;-0.03855919;-0.06800908;-0.01815043;-0.024530785;0.054501306;-0.049219888;-0.009634131;-0.0025531116;-0.021102773;0.008988624;0.052074566;-0.13918892;-0.030823372;-0.050699353;0.030895334;-0.11294489;0.05036595;-0.092373244;0.018175745;0.033532515;-0.1000956;0.16977388;0.12506835;-0.08809901;0.0009768303;0.032844786;-0.0010446168;0.040707354;0.0021521535;-0.06762895;-0.048616942;-0.12520316;-0.012027263;0.022204943;-0.069287375;-0.014162632;0.0050744032;-0.08015088;-0.031255487;-0.043492083;0.084374346;0.00335732;0.054610364;0.009241452;-0.11611335;-0.04978599;-0.0011535414;-0.0075242487;0.000362202;-0.1035759;-0.048220534;-0.115276985;-0.11158696;-0.014875271;-0.08382133;-0.0733335;0.011208919;0.047547575;0.038246755;0.0049157627;-0.07604888;0.04996682;-0.021681622;-0.078475334;-0.050830137;-0.08703748;-0.022133652;-0.06055836;-0.13195652;0.056180354;0.047003753;0.017446736;-0.045667678;-0.1000632;-0.033266358;-0.10734355;0.019566203;-0.04988079;-0.07615831;-0.045572218;0.039226882;-0.089503154;0.0070862286;0.021749744;-0.036907203;0.043671735;-0.012492897;-0.110977225;-0.04980883;-0.040094014;0.06576218;-0.08090188;-0.07063728;0.037872873;-0.063697584;-0.14465365;-0.1116305;-0.07280245;-0.015730659;-0.037478596;-0.0823196;-0.08435685;-0.16811031;-0.11422005;0.022173742;-0.10758324;0.041846234;0.052549664;0.03470072;-0.012088148;-0.09811262;0.15196484;-0.10607921;0.06262697;0.039017312;-0.061413713;0.003176932;-0.079664275;-0.082398064;-0.045963395;-0.05218386;-0.040264238;0.008640193;0.0026065223;0.05505662;0.00029058807;-0.034629103;0.010174989;0.04037972;0.13181834;-0.085276455;0.044092294;-0.118514985;0.026960835;-0.097698554;-0.03517237;-0.0118333595;-0.030253304;-0.08544951;-0.01431311;-0.0037702164;-0.08052367;0.020080484;-0.00994455;0.06419541;0.007178993;0.0374193;-0.004750212;-0.06291264;0.037043277;-0.009607453;-0.092247054;-0.08854808;-0.09596486;-0.12662211;0.017070387;-0.09376218;0.013775358;0.0348124;-0.043853335;0.05011732;0.035554286;-0.07234942;-0.14810458;0.11048206;-0.004937004;-0.03766202;-0.05091631;0.03567209;-0.10362573;0.12712441;0.07524829;-0.009789678;-0.07381845;-0.0071538347;-0.08755666;0.10538269;-0.09148332;-0.09937628;-0.0677422;-0.0009504669;-0.029666455;-0.03759852;-0.029552655;0.049201995;-0.014507755;-0.07813222;-0.055499274;-0.04091379;-0.04060494;-0.04760803;-0.0036470506;-0.052327983;-0.010474741;-0.09809484;0.014576225;-0.048366763;0.0071718832;0.028996108;0.012749706;-0.025561962;-0.14395113;0.03345617;0.009320369;0.03900401;-0.13644938;0.07645659;-0.0658831;0.07066064;0.018188464;0.05150394;-0.13961543;-0.0013996339;-0.036208536;-0.010470001;-0.062127817;0.037616953;0.044862885;0.009545426;-0.041465003;-0.0077093244;-0.09798126;0.064387046;-0.049833532;-0.087353826;-0.055039357;-0.0720382;0.051043287;0.052122436;0.06926234;-0.0572904;-0.015771579;-0.004242726;-0.100048065;-0.026470471;0.025792755;0.013767568;0.0065041813;-0.091883145;-0.05348072;0.017354602;-0.016920136;0.050893106;0.016270785;-0.15144862;0.024187481;0.01642205;0.087434754;-0.11737813;-0.111111455;-0.08296161;0.03912391;-0.011030513;0.06959776;-0.012768486;0.06024941;-0.04580868;0.120678;0.07125074;0.013433141;0.0170236;-0.024918983;-0.010519585;-0.02677626;-0.10282315;0.030073535;0.007610353;-0.087508045;0.046338283;-0.024362257;-0.07523164;-0.022976585;0.022576477;-0.07022859;-0.08598698;-0.023223717;-0.05744605;-0.061541494;-0.02736369;0.00858099;-0.004687254;-0.007668567;-0.066170804;-0.03469533;-0.1932944;-0.04237984;-0.019237068;-0.018562298;0.05170113;-0.011289746;-0.118176825;-0.058985483;-0.0450279;-0.08134345;-0.12107527;0.037597917;-0.01402538;0.038757697;-0.008403795;-0.003904157;-0.07104106;-0.111884296;-0.083940715;-0.06491525;0.023645714;0.08406851;-0.051810578;0.07298536;-0.07293106;-0.06963433;0.01701178;-0.026075557;-0.18482763;0.022973467;-0.020149175;-0.0666776;-0.03143007;-0.09860151;-0.055071495;-0.0071301805;0.0392353;-0.052068036;-0.04002215;-0.050581187;-0.09937334;-0.08955453;-0.07429245;0.00011825665;0.027336176;0.018699702;-0.024656028;-0.118219316;0.14091484;-0.09450132;-0.16612758;-0.10977159;0.0144807035;-0.033102795;0.0076376516;-0.061677832;-0.08946442;0.047875945;0.04500496;-0.010656418;-0.08607177;-0.015506362;-0.036286566;0.08849089;-0.09923665;0.012729366;-0.08982248;-0.1579175;-0.0017670345;-0.021592876;-0.12694664;-0.005554095;-0.11853077;0.13752376;0.030099299;0.010026313;-0.026346428;0.06231836;0.04673598;-0.009177739;-0.14441496;-0.0944789;0.07420011;-0.0044023297;-0.053330425;-0.0015240406;0.1091608;-0.22070615;0.024038527;-0.035339713;-0.08619221;-0.14513114;0.026606942;-0.028731156;0.02713305;-0.1401977;0.035347644;-0.043734867;-0.0023194996;-0.06813059;0.024656234;-0.055722654;-0.07290182;-0.063541204;-0.032135993;0.01335829
-0.08293324;0.004015839;-0.030112196;0.041564748;-0.026821565;-0.08182902;-0.0012073844;-0.11314662;-0.08729698;0.069686316;0.0549992;0.005349237;-0.04900797;-0.103695;-0.0531983;-0.08313585;0.003956539;0.04759844;0.018865485;-0.022363408;-0.011681427;-0.14004989;-0.08190156;0.007098054;-0.031183217;0.0002810522;-0.1143084;-0.119442195;-0.026805019;0.08155538;-0.021628555;0.03228401;0.041478828;0.070741296;-0.08154341;-0.12090647;-0.056992408;0.02719836;-0.038772553;-0.034174226;-0.08416577;-0.05361295;0.07599988;0.074655585;-0.24605907;-0.11023922;-0.10953265;-0.0116627375;-0.066541;0.02113105;0.050980475;0.01509886;0.053159103;0.045941353;-0.101132184;-0.002500568;0.1133866;-0.10509839;0.008193959;0.028713224;-0.104557395;-0.11082862;-0.10537763;-0.10990648;-0.098773636;-0.17140791;-0.06348175;-0.10152663;-0.013822805;-0.025768539;0.03224811;0.024316859;-0.16163921;-0.032196354;-0.06762137;-0.057114493;-0.050529998;-0.031083608;0.19691657;0.14610559;-0.06782233;0.029646847;0.13802555;-0.12264545;0.029609416;-0.0070220088;0.033324976;-0.05475941;0.0029179407;-0.045325343;0.05478162;-0.05517828;-0.04206407;-0.015440832;-0.10712572;-0.08948934;-0.103975035;-0.10144253;-0.14344072;0.030396702;-0.033948947;-0.007883132;-0.008235188;-0.10718631;-0.035429068;-0.08621589;-0.07080903;0.039863702;0.0065348484;-0.097239025;-0.16839924;-0.08735028;-0.029175173;0.027018012;-0.03468466;-0.02327582;0.0046323813;-0.0405861;-0.097672895;-0.055276327;0.054903418;0.010615895;-0.094443776;-0.018579602;-0.05901738;-0.094496846;0.06856201;-0.09026505;-0.03263554;-0.04721153;-0.0069084847;-0.10272483;-0.046243872;-0.0049437652;-0.1229609;-0.09912043;-0.13076782;0.12385107;-0.032159958;-0.15199874;-0.08327728;0.12329482;-0.08722544;0.006665674;-0.027919207;0.04066127;0.065535724;-0.04843995;-0.0056500137;-0.1027777;0.021958906;0.021681366;-0.10710931;0.063293815;-0.06333999;-0.06291653;-0.15890773;0.19045518;0.010428729;0.0722119;0.029446013;-0.030704215;0.030551331;0.019161632;-0.16239247;-0.042642955;-0.040839985;0.053018093;-0.08004622;-0.087929055;0.023020938;-0.05111515;-0.104992904;0.045354433;-0.011102348;-0.062488306;-0.07029052;0.0426244;0.07998214;-0.077681586;0.011960993;-0.061117172;-0.04535169;0.017756008;-0.010893562;-0.071420826;0.0078945765;-0.008134448;-0.08121719;-0.009525214;0.002769808;-0.035759162;-0.043746315;-0.11264091;0.005614295;-0.1043801;-0.020670211;0.0052107973;0.015740478;0.052975785;0.031719215;0.03636733;-0.0011148219;-0.045860223;-0.010474332;0.034099296;-0.062069014;0.1425945;0.03569501;0.015378815;0.009149861;0.034616865;-0.11718112;-0.04172048;-0.109808594;-0.06866905;-0.02368442;-0.067113765;-0.04422132;-0.080446355;-0.018746369;-0.050048172;0.057637334;0.0534627;-0.078444146;0.062714;0.051143844;-0.009540222;-0.024356404;-0.089234434;-0.021674119;0.03122062;-0.021162685;-0.06597206;-0.053236123;-0.049392886;0.07007184;-0.033205613;-0.036789138;0.08022169;-0.061517417;-0.07303385;-0.078516;0.08906921;-0.07585882;-0.054801583;-0.09061308;-0.033718243;-0.05042618;-0.007940664;-0.11750614;-0.060794353;0.053478565;0.033089176;-0.10547566;0.040253963;-0.0120207425;-0.06012693;-0.118737005;-0.00996164;-0.008723176;-0.008396964;0.0141964555;0.061712384;0.040943366;-0.045693953;-0.02149267;-0.0015743742;-0.07505975;-0.10434394;-0.09632411;0.0651766;0.018830301;-0.043655045;-0.1127493;-0.01593281;0.030891567;0.060775675;-0.022864416;-0.005540776;-0.10929277;-0.24500602;0.032827668;-0.09170341;-0.0593183;-0.09164089;0.01936082;0.048464186;-0.075753205;-0.093477376;-0.095478535;-0.16420218;0.06267751;0.0525348;-0.0345738;-0.08466659;0.050371084;0.096456245;-0.18005705;0.105009265;-0.023595134;-0.013009772;-0.025525892;-0.008159815;-0.16819167;0.10069184;0.04177752;-0.046546213;0.070816934;-0.048818074;-0.045803364;-0.056258813;-0.055396304;-0.06681242;-0.07274217;0.05507275;-0.10152915;-0.09315915;-0.104113534;0.051606283;0.06294235;-0.16655514;-0.11046979;0.02896632;-0.07858661;0.05522141;-0.06397984;0.038331;0.054925006;-0.044680662;-0.009573999;-0.020437708;-0.03019537;-0.075340785;0.025747381;0.124775164;0.02862372;-0.037629783;0.031542383;0.023383938;-0.005178034;-0.13288131;-0.028619312;0.01342163;0.065198585;-0.107607245;-0.023579935;-0.08732852;-0.010954105;-0.046932243;0.013558144;-0.07753314;0.047639936;0.016994722;0.043974556;0.039454594;0.12437692;-0.049829956;0.06661338;-0.041059617;-0.026234351;-0.097672276;0.084274165;0.040415242;-0.040634528;0.028276062;-0.067351624;-0.09951673;-0.012834503;-0.083945304;0.045217775;-0.037288327;-0.11752433;-0.06575192;-0.10417651;-0.06039413;-0.010155624;-0.026039774;-0.09010641;-0.02420689;-0.049203638;-0.064890265;-0.079152286;0.10594;0.061560176;-0.008771833;-0.15931138;-0.025706451;0.00021346443;-0.10547667;-0.077462114;-0.06085039;-0.036326546;-0.09531549;-0.03384195;-0.004172333;-0.0019799366;-0.105850495;-0.097208805;-0.030629152;0.041619945;0.013142788;-0.033739563;0.07841805;-0.048149362;0.029223308;-0.040015236;-0.12828371;0.016217433;-0.110172436;-0.1056357;-0.06254505;0.010734955;0.030514913;-0.0052093896;0.094524994;-0.14992554;-0.109294824;0.081629045;-0.22142565;0.0400166;-0.057451446;-0.03424347;-0.024249692;0.012169294;0.045183536;-0.09283328;-0.07498649;0.0074065607;-0.039854724;-0.0143062575;-0.004864542;-0.038040373;0.008409909;-0.04205436;-0.033460982;0.028743029;0.13580589;0.015703635;0.1328561;-0.07681364;0.03782925;0.012308867;0.008620901;-0.019738628;0.06639092;-0.051299553;-0.08631857;0.028199561;0.0083843265;0.020492941;-0.104474805;-0.07779862;0.057275593;0.04343399;0.04659983;-0.069305845;0.09402913;-0.088697374;-0.0351119;-0.08280704;-0.0116508035;-0.007226223;0.0553406;-0.08336337;-0.081641026;-0.07771197;-0.076524004;-0.040423542;-0.092570186;-0.20773898;-0.18191665;-0.021803556;-0.04276528;-0.09896483;-0.0827911;0.008490554;0.045661233;-0.09907254;-0.09065611;-0.07441553;0.04450109;-0.0030133692;0.02339376;-0.0990743;-0.019102741;-0.10272629;-0.12733;-0.10933599;0.018009093;-0.062485896;0.015121197;0.10055863;0.07736883;-0.001271919;-0.08994655;-0.083253086;0.00081136957;-0.20152594;-0.03009111;0.04278509;-0.09276425;-0.060454924;-0.090568826;-0.090951316;-0.042086657;-9.568112e-05;-0.066706985;-0.06404938;0.04360489;-0.07778683;-0.06709855;-0.039308853;0.007016718;0.0038882056;-0.053792145;0.01932295;-0.13099954;0.14171676;-0.0686882;-0.16687392;0.004700353;-0.059157208;0.020874264;-0.10934159;-0.060038973;0.025905864;-0.01831449;-0.014410329;0.020269942;-0.048049092;0.017554928;0.049516547;-0.013244604;-0.06903568;-0.094440915;0.063177824;-0.06997362;-0.05889468;-0.09746968;-0.11239424;-0.02847419;-0.040864658;0.13624723;0.020939797;-0.035000693;-0.11647529;-0.05344025;0.045079906;-0.13309193;-0.039755832;0.061850432;0.1218032;0.051429033;-0.08380658;-0.09961334;0.02050153;-0.2558409;-0.026201349;0.0057403115;0.04518318;-0.012644621;-0.096370175;0.015916169;-0.0064081787;0.0051896055;-0.0140516255;-0.013834181;0.054859683;-0.18375973;-0.059210815;-0.10320576;0.0033970647;-0.018546252;0.08656756;0.05838876
-0.042350456;0.026002644;0.019383052;-0.08638305;-0.0883813;0.0054787844;0.014493738;-0.0888982;-0.025174718;0.02520505;-0.03687343;0.011721286;-0.013475447;0.030640569;0.03179273;-0.040986024;0.057782248;0.019563934;-0.064235255;-0.08646117;0.028359773;-0.13022374;0.016146436;-0.03997674;0.04087633;-0.113775074;-0.046772685;0.014394665;-0.06742639;0.03861566;-0.018554319;-0.032702472;-0.024500858;0.07758294;-0.015072476;-0.013689252;0.046861198;0.018550044;-0.102721706;-0.056911286;0.028544126;-0.029235085;-0.029449569;-0.035603266;-0.18475646;-0.027051015;0.053159;-0.072953716;-0.007994379;0.040240917;0.045064107;0.08681539;-0.020035416;-0.06531803;-0.03008494;-0.06440585;-0.040272333;0.018743426;-0.08641222;-0.0024330195;-0.15291956;-0.040470116;-0.057791006;-0.11663411;-0.09244334;-0.08437226;-0.05357468;-0.039822552;0.040238302;-0.08409773;0.016673073;0.0111768665;-0.07152045;-0.022585733;-0.04313642;-0.028555136;-0.04016523;0.042780507;0.09816257;0.060224436;-0.01410587;-0.019832723;0.15999009;-0.059436373;0.08779956;-0.10802972;-0.069597214;0.012322932;-0.043135975;0.043672044;-0.050915986;0.023756439;-0.007434323;-0.026680468;-0.09978983;-0.042591523;-0.11829644;-0.060199995;-0.025400968;0.0045146807;-0.022055287;-0.09280083;0.015790602;-0.05315042;-0.036665577;0.050332397;-0.034510784;-0.00065219105;-0.116971046;-0.09773219;-0.16026895;0.009781888;0.03472185;-0.020810202;0.002351653;-0.02176681;-0.013554365;-0.06754768;0.020213833;0.015021449;0.026292322;-0.030040579;-0.091296986;-0.03524028;-0.0072634732;-0.042971835;0.07258814;-0.08319565;0.06374421;0.108808406;-0.011525869;-0.06596086;0.023843432;-0.0036595091;-0.13322225;0.032338254;-0.14015296;0.024991885;-0.1159604;-0.15281914;-0.092995524;0.14550202;0.06271032;0.041514155;-0.08459698;-0.03760338;0.0043894737;0.019576255;0.039911564;-0.022460796;-0.03740328;-0.061309915;-0.10745084;0.050153505;0.008000883;-0.15125965;-0.024524203;0.028515559;0.01367401;-0.023651438;0.04675168;-0.029026177;-0.07856869;0.09427115;-0.025578858;0.007899744;-0.11521475;-0.038091235;-0.0967581;-0.054047097;-0.0072801365;-0.1018678;-0.041902713;0.05292446;-0.0706947;0.034443285;0.026715342;-0.021025779;0.16797276;0.017790472;-0.03769263;-0.06533799;-0.14519152;-0.060021583;0.026230855;-0.16236724;-0.016669981;-0.0035128568;-0.0039647487;0.04494765;0.092399;0.053750068;-0.058369264;-0.005659756;-0.049054235;-0.083662346;-0.014518804;-0.15282573;-0.02153897;-0.046981182;0.05730758;-0.033603456;0.044246506;-0.08272636;-0.07501683;-0.024733875;0.0070191054;0.1707433;0.028322864;0.016944634;-0.0012215864;-0.012863597;-0.109728895;-0.0064169443;-0.12621921;-0.10131026;0.048943445;-0.06489981;-0.0034138733;-0.1291552;-0.016346129;0.0019582177;-0.111012146;-0.074851766;-0.015832357;-0.09257756;-0.04557708;0.038443;-0.10001881;-0.12009846;-0.069027655;-0.0315958;-0.01535489;-0.0780844;-0.05695921;-0.12194637;-0.03414759;-0.1139209;-0.119948834;0.011803922;-0.0013510383;0.015430076;-0.14565831;0.007368686;-0.048814766;0.0129390815;0.04124273;-0.065178186;0.0008996557;0.03869777;-0.033344705;0.02091598;0.021891758;0.007270669;-0.018685978;0.0621102;0.0153259365;-0.06592903;-0.10796939;0.038862888;0.012008752;0.010659576;-0.0013214218;-0.026120929;-0.07390175;0.029254075;0.058586754;-0.09332465;0.01017411;-0.019817285;0.011045378;-0.004993411;-0.054385807;-0.007681573;-0.022949114;-0.077907994;-0.025911279;-0.055449687;-0.0015645283;-0.031831674;0.010247416;-0.08783379;-0.0016496639;0.013085003;-0.04397977;-0.07909408;-0.0059304354;-0.0642247;-0.13959771;-0.12515186;-0.11300011;-0.1283248;0.013293677;-0.027189612;0.018696046;-0.10012245;-0.073877476;0.04805872;-0.14317615;-0.06936986;-0.100390114;0.00068436307;-0.06103139;-0.10598503;-0.06996385;0.0077343006;0.083553195;-0.04970299;-0.010060538;-0.05507811;-0.07349766;0.045528717;0.023971194;-0.051894814;0.05033939;0.047173653;-0.060412012;-0.08184549;-0.041507687;0.030727047;-0.060731646;-0.016924901;0.0011374314;0.020457331;-0.0731071;-0.034350876;-0.0033365425;-0.04641322;0.059692223;-0.08255648;0.081356734;-0.023569321;-0.049762316;0.026082868;-0.13151434;0.12451473;-0.07288363;-0.008520036;-0.011006284;-0.10124294;-0.085934855;-0.10612001;-0.064342864;-0.0048792013;0.08283841;-0.09094486;0.00026827716;-0.027963713;0.02007429;-0.19195989;-0.039284654;-0.03995208;-0.073311575;-0.030339703;0.09368013;0.04120717;0.10608925;-0.02563482;0.0054990775;-0.04832539;-0.030468635;-0.0025754014;0.1624359;-0.023785751;0.027543753;-0.0807043;-0.025186999;0.058678847;0.049545314;-0.02421166;0.01674685;-0.0681122;-0.11639521;-0.067942604;-0.073309794;-0.003991025;0.05962535;-0.09631179;-0.00718399;-0.023658128;-0.02993784;-0.02480968;-0.04462969;0.0035299521;0.12180467;-0.08484255;-0.06490604;-0.15807208;0.032080814;-0.051626302;0.018997438;-0.11728513;0.05210835;0.06555459;-0.020571938;-0.0010189372;-0.055647105;-0.13520727;-0.028182324;-0.007032019;-0.029305255;-0.071374856;0.0065794326;-0.049649954;-0.0070257788;0.036803108;-0.0014249564;-0.19241759;0.024002986;-0.04411849;-0.11681627;-0.0478295;-0.06491702;-0.041880615;0.09330824;0.21146664;-0.1505865;-0.120278604;0.035569623;-0.17682591;-0.060967892;0.013881772;-0.02855327;0.036417544;-0.09750939;-0.08943246;-0.10286706;0.021849625;-0.11144253;0.048344232;-0.038064256;0.11502693;0.0029110538;0.06716647;0.0065122275;-0.02224815;0.034071825;-0.019028552;0.0004138928;0.0016111843;0.03420276;0.04512519;0.0052509494;0.07622451;0.03709349;0.009307878;-0.058250286;-0.13347746;0.01610047;-0.06552977;-0.08268639;0.03364882;-0.05695989;-0.022182485;-0.030917034;-0.023016058;0.018400108;-0.04762353;0.0007630428;-0.05319681;-0.0022024137;-0.02936072;-0.034580126;-0.02220046;0.010254159;-0.07393655;-0.08094012;-0.040599566;-0.048802685;0.012157498;-0.048622306;-0.08073968;-0.04511447;-0.10829668;0.029624717;-0.052403055;0.023616385;-0.08394078;0.053917572;-0.013765436;-0.02240102;-0.090950884;-0.05193664;-0.076767124;0.051712267;0.05242319;-0.11028746;-0.0069060083;-0.016979974;-0.025752835;-0.028554346;0.0042024506;0.045812253;-0.047491774;-0.0186098;-0.0682127;-0.0054784687;-0.08101943;-0.07385612;-0.08830094;0.021664301;0.042650692;-0.020516656;0.009019457;-0.029677339;0.009776531;-0.024862329;0.022565583;-0.13185258;-0.10271025;-0.14890154;-0.035504453;-0.018579511;-0.005155611;-0.009545146;-0.037724238;-0.084065296;0.019257097;0.21614426;-0.11408169;-0.13587393;-0.106081754;-0.068461835;-0.110179275;-0.10263296;-0.051419046;-0.09777533;-0.012914927;-0.029102603;-0.0019708753;0.042006522;-0.009781967;0.049452055;0.0073420377;-0.10633208;-0.13851185;-0.02620233;-0.14895912;0.02054321;-0.10238023;-0.103760496;-0.028573666;0.0069322595;0.0006402349;-0.037430137;-0.09066149;0.013258231;-0.07891358;0.0387944;-0.045166917;-0.1446569;-0.09422969;0.027367033;-0.07451582;-0.11460384;0.029548053;0.11131998;-0.14356318;-0.048519;-0.051929902;0.017553374;-0.13195011;0.02576651;0.023791721;-0.09988662;-0.0274591;-0.07132312;0.045739282;0.06268767;-0.1473054;0.0048169964;-0.084229544;-0.052193686;0.009348104;0.08180619;0.07666107
0.004376242;-0.07375408;0.0028833158;-0.089648;-0.05124059;-0.03293343;-0.06817669;-0.100297995;0.022479583;0.050582264;-0.0063668443;-0.044437118;-0.10914545;-0.102402516;0.011598996;0.03115086;-0.01984166;-0.123301454;0.03329606;-0.050112598;0.079541065;-0.086621866;0.0001703535;-0.071875416;0.0441215;-0.09349141;-0.008075332;0.01764281;-0.05610987;0.12609883;0.03140111;0.0414247;-0.055576548;0.049148574;-0.08858678;-0.014689745;-0.009361493;-0.014165981;-0.041482467;-0.099290974;-0.04572402;-0.10362491;0.0034807953;0.06488272;-0.2162586;0.01473098;-0.04563389;-0.07207114;-0.05161842;-0.04679175;-0.00063132495;0.09510705;-0.03383383;0.028183816;0.03537924;-0.08328301;-0.018949315;-0.08809184;-0.09192981;-0.05151376;-0.11623732;-0.16984186;0.02534413;-0.07171492;0.019064017;-0.10417044;-0.014446975;-0.12694696;-0.0663261;-0.034046035;0.016552819;-0.03153758;-0.14706244;-0.097188875;-0.029926963;-0.03554089;-0.0024543046;-0.05458978;0.13378261;0.123327374;0.005573681;-0.067288436;0.07443962;-0.04333279;0.08254895;0.036667373;0.037210718;-0.031823464;-0.050042227;-0.024177127;0.030835724;-0.083250694;0.012494106;0.065037265;-0.09366546;-0.12321554;-0.09417272;-0.1114824;-0.13541436;-0.085287645;-0.12459031;-0.0957664;0.016566781;0.029649226;-0.084933355;-0.09966493;-0.04843608;-0.008971979;-0.021135876;-0.1345587;-0.056746602;0.058598537;0.0019458288;0.061404336;-0.039860636;0.043910548;0.042108882;-0.008822118;-0.095504224;0.031863242;-0.058412373;-0.04125941;-0.11308214;-0.06351508;-0.07122371;-0.088560395;0.026614228;-0.079745375;-0.01845138;-0.03759542;0.0572393;-0.047193795;0.034757115;0.047493827;-0.06338583;-0.017456332;-0.168113;0.18005778;0.004215457;-0.07192764;0.010181864;0.20031972;0.0545892;-0.081605695;-0.03404712;-0.09281286;0.010722862;-0.08864162;-0.015357919;-0.11185868;-0.12596802;0.0112734735;-0.091118716;0.12768762;-0.00978065;-0.17349364;-0.03279828;0.018900475;-0.057632018;-0.062101066;-0.07422279;-0.11144957;-0.010563095;-0.0012427941;-0.15905279;-0.0024769017;-0.05849453;0.03156628;-0.14407302;-0.13963713;-0.012471164;-0.037593126;-0.048135545;0.12913996;-0.10224019;0.05193781;0.02841809;0.050596572;0.093165725;-0.07623562;0.065402426;-0.025161704;-0.032893214;-0.101707615;0.025596745;-0.01911942;0.05258108;0.031555854;0.033278834;-0.06777545;-0.0013761261;-0.09071649;-0.057752203;-0.13581005;0.07191609;0.055927347;-0.0046906928;-0.10421408;0.049269743;-0.009788129;0.028801046;-0.08912451;-0.06914318;0.0553685;0.01135483;-0.008551104;-0.08249672;0.100044824;0.10579401;-0.03460146;-0.059074003;-0.069298945;0.039663754;0.04065616;-0.08982388;-0.07735665;0.047670286;-0.05222265;-0.06547349;0.018260194;-0.07373265;0.011267427;0.029920204;0.035018217;0.0072595654;-0.013510369;0.081257075;0.035535093;-0.09903617;-0.0461217;-0.07853406;-0.06609857;0.05345884;-0.008946355;0.014748453;-0.04496606;-0.058861583;-0.029833296;-0.0438659;0.071444586;-0.10672133;-0.021834904;-0.11935667;0.047309533;-0.0058533377;-0.10155143;-0.086462766;-0.07845614;-0.044751626;0.049024016;-0.08755745;-0.018756526;0.0018140529;-0.025522685;-0.030782506;-0.097020544;0.041787684;-0.11748159;-0.039209895;-0.06266159;0.060739495;-0.13389355;-0.05006923;-0.05945994;0.00545544;-0.058377866;0.017823633;-0.12008762;0.015773335;-0.008996059;-0.108607896;-0.047657784;0.013572289;-0.04252356;0.016324468;-0.08388638;0.016555019;0.05265469;-0.12297938;0.039701227;-0.085557275;-0.18915486;-0.11696258;-0.110780425;-0.0026279122;-0.037621267;-0.04464886;-0.07046748;-0.16994207;-0.009664362;-0.13452055;-0.2014421;0.027036482;0.039848816;0.009272732;-0.1129135;-0.044884384;0.0382148;-0.18742229;-0.037424423;0.034466993;-0.0020312176;-0.06966899;-0.09251406;-0.074095115;0.08659758;0.06863545;-0.023116117;0.05783609;0.051966857;-0.025951901;0.03196241;-0.05585561;-0.08959495;0.0225705;0.017743612;0.015684659;-0.012088868;-0.030716162;0.038926717;0.03936212;-0.019331941;-0.09541553;-0.060749795;-0.040348426;-0.04792181;0.02250624;-0.058315206;0.040621813;-0.12727109;-0.035905242;0.05929346;-0.07911001;-0.10503977;-0.007457181;0.05224885;0.028992373;-0.037032098;-0.049374573;-0.10436829;-0.12888649;-0.038217474;0.055058714;0.05192752;0.07678272;-0.11855914;0.013305553;0.024076963;-0.096512124;-0.10458594;-0.029436704;0.04795458;-0.08311278;0.0066249417;0.06670617;0.011074739;0.09381627;0.015970293;0.0970645;-0.046835225;-0.12257557;0.0022314151;0.15498541;-0.034726214;0.05447019;-0.034985825;-0.11192043;0.0063741417;0.026412612;-0.08829142;-0.081849314;0.02353958;-0.05338892;0.05294561;-0.12615675;0.028106619;-0.09504755;-0.09368813;-0.03623171;-0.008825648;-0.12078408;0.0416423;-0.06053209;0.006813279;0.07970409;0.008302923;-0.16609117;-0.1276364;0.010443193;0.009349325;0.04268568;-0.021722274;-0.030150525;-0.0822096;-0.046475608;-0.010923712;-0.06986587;-0.06880294;-0.041047722;-0.0680035;-0.07008258;-0.10689255;-0.08451837;-0.04393038;-0.083135106;0.070531905;-0.10868632;-0.06117096;0.006079952;-0.0642566;-0.020606937;-0.05665502;-0.08877491;-0.032652874;-0.027906066;0.12910518;-0.1410217;-0.051219594;-0.047071233;-0.12195167;-0.033634532;0.01026939;0.018375838;-0.072398566;-0.10942323;-0.060967673;-0.008314361;0.012401787;-0.024115337;-0.026525123;-0.15935795;0.10279632;-0.13684113;0.060217407;-0.15366888;-0.010583587;0.005027644;0.115381144;-0.10206304;0.09535181;-0.112631515;0.084798306;-0.030586898;0.032802008;0.0032636041;0.010869294;0.017095868;-0.1395491;-0.12281797;-3.920692e-05;-0.07480275;-0.09614229;-0.08528504;-0.026249252;-0.0011038815;-0.043470033;-0.06800554;0.085749716;-0.052449908;-0.040671535;0.02804015;-0.12739961;-0.024873288;0.023876434;0.0120478645;0.01934103;0.03836112;0.026751656;-0.16789265;-0.054313082;-0.18523242;-0.09674521;-0.12291048;-0.03862078;-0.08225946;-0.034303404;-0.059219677;0.032471173;-0.08397376;0.00019348697;-0.03603928;-0.0787112;-0.034305338;-0.061089844;-0.08980657;0.0043016714;0.031064516;-0.00945799;-0.07271961;-0.08854795;-0.050624784;0.011527883;0.07578172;0.08767577;-0.063069284;-0.12289424;0.042125255;0.023436513;-0.1283032;-0.075751476;-0.052291576;-0.023769403;-0.0803069;-0.008743487;0.017928721;-0.11784923;-0.022222085;-0.073773965;-0.08965119;-0.11355153;-0.09883999;-0.05093494;-0.125582;-0.07339968;-0.08744076;-0.073329255;-0.07070301;0.008653976;0.1914607;-0.0936447;-0.2332812;-0.012945186;-0.094207965;0.03662041;0.025886633;0.051625624;0.008557779;-0.037546612;-0.048494;-0.015630757;0.012380359;-0.011194158;-0.06753096;0.0041207783;-0.013379237;-0.06553608;-0.011547241;-0.14931226;-0.04614274;-0.12327985;-0.00039557155;-0.11238876;0.016074002;0.026137348;-0.11778708;0.041897144;-0.07150471;0.02164693;-0.01422608;-0.078326136;-0.035324678;-0.07807508;0.118790954;0.042288426;-0.10617902;-0.04659313;-0.025922311;-0.15267302;0.036667164;-0.06702753;-0.020224717;-0.051820632;-0.048751958;-0.10527051;-0.05610907;-0.11869768;-0.055329338;0.03467939;-0.05392711;-0.039660767;-0.027692137;-0.031244105;0.012211226;-0.08457926;0.08792967;-0.050567105
0.021027748;-0.05963932;0.035346113;-0.033240795;-0.13995862;-0.07102754;-0.027117636;-0.0621109;-0.041766267;0.07684677;-0.102886125;0.013729704;0.047820803;-0.05360701;-0.08798261;-0.02102541;0.008996326;-0.097457476;0.01983944;0.06403136;0.012245396;-0.04871082;-0.074582234;0.053674128;-0.0517007;-0.07260315;-0.011427288;-0.12001842;-0.13824548;0.15391885;-0.08303679;0.027916085;0.011534613;0.037173927;-0.09376754;0.07260385;-0.0568104;-0.0627298;-0.07898705;-0.08542977;-0.03898878;-0.12785627;0.03814164;0.08846161;-0.24079253;-0.09769611;0.012103635;-0.08841654;-0.10496812;0.058945246;0.05236445;-0.05871919;0.05632112;-0.05918612;-0.046384774;-0.010962812;0.06538706;0.008998833;-0.030027306;-0.067387976;-0.021545915;-0.04534869;-0.11510116;-0.15012766;0.0223598;-0.17680289;-0.002059694;-0.07480335;-0.012683201;-0.115868814;-0.10188452;-0.0016026823;-0.10148149;-0.110966906;-0.056668244;-0.12182635;0.039171338;-0.019583147;0.18405178;0.17648615;-0.0003847505;0.042296708;0.119233504;-0.12207322;0.061473515;0.04045724;-0.091723025;-0.08548724;-0.061866757;-0.023256388;-0.09745384;0.0057655135;-0.080958255;0.09311438;-0.05951134;-0.11753328;-0.124310076;-0.13171794;-0.0956067;-0.0002494253;-0.05885564;-0.0936956;-0.0076410407;0.033984486;-0.06637953;-0.015849233;-0.066573255;-0.089728594;0.021307819;-0.048200827;-0.18517356;-0.026077684;-0.10523227;0.09168332;-0.09418662;-0.042492963;-0.058818307;0.03751939;-0.13863383;-0.0089039495;0.024025097;-0.025898226;-0.03841008;0.0032343369;0.017748347;0.043617047;0.11130177;-0.028432872;0.024084061;0.028568434;0.036654823;0.001720162;-0.11817279;-0.011816123;-0.08027818;0.033995748;-0.13642368;0.08534341;-0.13123499;-0.08117087;0.018722039;0.13455859;-0.018725088;-0.030535728;-0.088355966;0.033394083;0.0714028;0.030601839;-0.049304556;-0.026926221;-0.03500993;0.005910926;-0.11221808;-0.021915644;0.05467371;-0.20374188;-0.061063338;0.106077604;-0.03652785;0.073696755;-0.06816482;-0.0014272393;-0.010493645;-0.0009985893;-0.1281518;-0.14189848;0.026041368;0.017561046;0.00033080563;0.015191738;-0.04519044;-0.0244829;-0.042714406;-0.011979713;-0.032989196;0.028083218;-0.060507786;-0.093655534;0.082368724;0.016632548;0.06289929;-0.102695405;-0.030047817;0.03254046;-0.024690062;-0.05402049;-0.02467653;-0.029349497;-0.108547546;-0.06890266;-0.015372378;-0.004538997;0.04461404;-0.13147028;0.068417184;0.050794095;-0.010793157;-0.12394334;0.037713926;-0.049674276;0.058376003;-0.086863145;-0.0024532576;-0.088202275;0.005996286;-0.054877546;-0.12343904;0.22802852;0.092556074;-0.11431829;-0.09768896;-0.098543026;-0.013689067;-0.03329402;-0.0874417;-0.065307744;0.013155015;0.055282548;-0.07916868;-0.0065893983;-0.011433558;-0.009945729;-0.021911548;-0.047056206;-0.1171881;-0.06679802;-0.0034312073;0.04040268;-0.03386841;-0.08787974;0.014028954;-0.023814995;0.044992663;-0.11849367;-0.021883946;-0.14245708;-0.02819098;-0.09196143;-0.02214193;-0.069416404;-0.052541897;0.01391442;-0.09617342;0.0548387;-0.09069019;-0.011501371;0.022019096;-0.017583407;-0.101215586;0.04177348;-0.17114931;0.035004452;-0.028673448;0.009620029;-0.100044;-0.09308964;0.0032220685;0.021677498;0.008299368;0.0555161;0.0033857427;-0.10144023;-0.015275183;-0.10014426;-0.05830909;-0.11550523;-0.07287417;-0.027184747;-0.024455572;-0.016638778;-0.047575656;0.063174136;0.066863224;-0.06216562;-0.023973752;-0.085673764;0.007963652;0.037404153;-0.001489532;0.03060309;-0.10699109;-0.106729455;-0.10077079;0.026042145;0.023348767;-0.034670986;0.011367009;-0.075015485;-0.100691736;-0.07173633;-0.064256065;-0.20995456;0.061532754;-0.03168172;-0.016133133;-0.06943899;0.0013803794;0.16428164;-0.13201644;0.057359505;-0.050705973;-0.05546132;-0.08307724;-0.10664922;-0.054257613;0.028034909;-0.01630697;-0.0011711987;-0.024650728;-0.048305903;-0.029542547;-0.1063531;-0.0033072568;-0.094708346;0.060767937;0.044241413;-0.0757701;-0.07758841;-0.096540995;-0.07497119;-0.08927318;-0.13897562;-0.016454384;-0.077491656;0.014858488;0.040630054;-0.04991039;0.0052990755;0.040992074;-0.12056039;0.06579438;-0.07856654;-0.113807596;0.052796636;-0.06594707;-0.03860777;-0.054721046;-0.10405423;0.037291475;-0.10109746;-0.11923666;-0.0043130065;0.04178167;0.06277799;0.031200172;-0.06393419;-0.07045524;-0.07028529;0.036584835;-0.17311065;0.006402048;0.035115838;-0.018480897;0.014178458;-0.045117512;0.028386876;0.17178717;0.018408732;-0.06420048;-0.06968349;-0.024134489;-0.11530539;0.17772102;-0.088375375;-0.032624997;0.008963727;-0.0920824;0.023428598;-0.032558147;-0.021198189;0.0060118195;-0.10875857;-0.15466858;-0.032554217;-0.12331404;-0.074309014;0.03287396;-0.060276173;0.028841123;-0.010385533;-0.039512794;-0.12189859;-0.02806977;-0.022657918;0.14009175;-0.006001615;-0.0020838738;-0.037181668;-0.117220275;-0.056941573;-0.013564708;-0.1560602;0.0059728627;0.015385676;0.028934602;-0.03823441;0.06985622;-0.03956371;0.03463775;-0.048058014;0.017455954;-0.11431052;-0.06695627;0.07808574;-0.06946095;0.07923044;-0.08450971;-0.17571305;-0.025557576;-0.11027424;-0.09137806;0.008133085;0.040965486;-0.0077441423;0.029686298;0.13691644;-0.03885498;-0.06034223;0.01299608;-0.07399273;-0.044433337;0.00060169573;0.020454723;-0.034102246;-0.06123537;-0.08083131;0.019959928;0.03184415;-0.07125613;0.03769581;-0.03630886;0.01736603;-0.010236539;0.09295287;-0.047864094;-0.058937795;0.0036113642;0.12608562;-0.057295382;0.088744886;-0.090331875;0.035033163;0.031871565;-0.04191579;0.019672276;-0.070766054;0.018273761;-0.019907892;0.012963965;0.0051340763;-0.07692817;-0.09908017;-0.0054609017;-0.08651918;0.06265409;-0.075678125;-0.092363715;0.005402036;-0.03921805;-0.12648338;-0.012027143;-0.07933384;-0.043578174;-0.05735736;-0.07551356;-0.10471003;-0.06800932;0.042377852;-0.16612233;0.008740415;-0.06931839;-0.10697335;0.008067492;-0.052411888;0.005657968;0.07013879;-0.11696012;0.0056996704;0.044004753;-0.026643801;-0.11170115;0.037606932;-0.046577696;-0.113310404;-0.047618963;-0.04607128;-0.12385916;-0.077426754;-0.005822766;-0.075624645;-0.07041564;0.07249636;0.062934026;0.007825123;0.035891872;-0.082756706;-0.03493262;0.026757391;-0.21317367;0.04457299;0.0068387035;0.03694756;-0.03007628;0.01523763;0.04592059;-0.10383265;0.0426924;0.026063494;-0.13861354;0.015252997;-0.14741895;-0.007037457;-0.057100736;-0.035916347;-0.09159312;0.03485729;0.009352456;-0.12963663;0.13579613;-0.06607853;-0.24030103;-0.087650746;-0.10249786;-0.01520601;-0.08934752;0.00028088666;-0.11192437;0.026088426;0.0060734875;0.049318668;0.015160701;0.018711397;0.046799492;0.037740827;-0.09787955;-0.019830119;-0.03770106;-0.047125056;-0.05335133;-0.12930559;-0.031711955;0.008615855;-0.09080289;0.070427604;-0.057297807;-0.035426803;-0.049515247;-0.029369656;-0.066429816;-0.07131052;0.00909308;-0.06055372;0.16295534;-0.09047972;-0.048322182;-0.099740766;0.04105774;-0.16136332;-0.02067927;-0.07721826;-0.062318753;-0.041097026;-0.099729046;-0.012145212;0.044339478;-0.05445183;0.08065612;-0.07766111;-0.023313066;-0.09294758;0.0038274713;0.011885069;-0.017050367;-0.123503566;-0.044906806;0.008542842
-0.032106865;0.07747626;0.09513509;-0.067305274;0.014964885;-0.070113;0.10750634;-0.088945836;-0.048511386;-0.03435261;-0.075164974;0.012949727;-0.070953175;-0.0105181;-0.00941057;-0.061271094;-0.0071828514;-0.008429182;0.05625403;0.03681645;0.095442936;-0.08778488;-0.014127988;-0.07802409;-0.12916426;0.039918195;0.008411934;-0.08468487;-0.082941756;0.013119368;-0.02690977;-0.03334632;0.025339212;0.042943973;-0.02973493;0.03276516;0.008612984;-0.049471952;-0.08375868;-0.015014355;0.046205632;-0.08582033;0.016390821;0.015865041;-0.16307588;-0.008073946;0.0204828;-0.1418418;-0.025325738;0.066835076;0.054633796;-0.04683937;0.009672355;0.09550326;-0.03584711;0.08311572;0.0014104036;-0.10843501;0.03968411;-0.081937075;-0.015177132;-0.1794852;-0.079621226;-0.044972114;-0.09008684;-0.18696752;0.06854383;-0.012675218;0.074858285;-0.0073652337;0.050749917;-0.04154707;-0.13958713;-0.015643097;0.019142874;-0.022096401;-0.026713006;0.030712472;0.09770991;0.18240729;-0.11993268;-0.06824611;0.09755641;-0.09756026;0.019223476;-0.105551556;-0.060721822;-0.0657045;0.022917503;0.028430063;-0.09890203;-0.008079406;-0.04924395;0.040938847;-0.06047202;-0.12859876;-0.0108009325;-0.10366103;-0.031818796;0.015105047;-0.09349611;0.05482142;0.015594275;-0.0140015;-0.030928848;0.0600916;0.003316246;-0.077721186;-0.072460964;0.0042211134;-0.1815106;0.058735188;-0.0832461;0.029640993;-0.056988068;-0.028557321;-0.027356815;-0.02689424;-0.020638242;0.05165967;-0.0057847365;0.038373712;-0.10826947;-0.022434408;0.053714328;-0.03593654;-0.006061675;-0.10480246;0.024448803;0.0068547344;-0.035135046;0.054667316;-0.03656488;0.035441723;-0.14865936;-0.019625913;-0.15319158;0.14657158;-0.05564487;-0.06755307;0.038326714;0.19560644;0.01511358;9.67942e-05;-0.036272384;0.027187299;-0.059407096;-0.10157515;-0.015213255;0.014554304;-0.03952745;-0.022566939;0.0022555774;0.0715263;-0.020325966;-0.13276865;-0.041337743;0.042135723;-0.07037927;0.020346697;0.004698444;-0.04097794;-0.06580058;-0.045905374;-0.051221725;-0.056824867;0.016794799;0.01967438;-0.059213478;0.014923024;0.03910855;-0.06324407;0.04111108;0.14788213;-0.12566213;-0.0030979062;-0.0051906058;-0.037444357;0.17639987;0.02343472;-0.08985499;-0.14206502;-0.00049804343;-0.020923212;-0.044932395;-0.08581089;0.058375604;0.01844622;-0.042808272;-0.03185732;0.071735226;0.007949602;0.0138957845;-0.07554615;0.08480906;-0.07291439;-0.085191295;-0.12158867;-0.0680052;-0.005801096;-0.011253915;0.042739645;-0.040604435;0.0130809;-0.1225641;-0.025730522;0.0040633418;0.06200308;0.017566212;0.0018816785;-0.03427399;-0.04810878;-0.13463221;-0.10625032;-0.0028697911;-0.07178933;-0.061167106;-0.09558165;0.013397492;-0.0688497;-0.07093497;-0.052545216;-0.06810294;-0.054278973;0.02467088;0.020697402;0.08003153;-0.0704668;-0.017320566;-0.10718912;-0.085951276;0.039429184;0.05905235;-0.050591;0.050877556;-0.0748162;0.00329641;0.0077783726;-0.05587663;0.07425002;-0.12121378;-0.039717235;0.0060027363;0.033051938;-0.08809205;-0.0064251143;-0.10748412;0.046774518;0.017786171;-0.069255054;-0.037299033;-0.0077029825;0.020264903;0.11008959;-0.012622079;-0.10689616;-0.09942004;-0.030463615;-0.13739923;-0.080093645;-0.007115853;0.014240024;-0.03266568;-0.035435554;-0.01219605;-0.107169494;0.029699173;-0.054446347;-0.05703848;0.032248836;-0.11930533;0.08639096;-0.052032698;-0.036112938;-0.09442938;-0.022301052;-0.07500986;-0.054864574;0.024563387;0.04266026;0.045216866;-0.113237716;0.035884503;-0.081112504;-0.025120301;0.0042438256;-0.05409989;0.01374247;-0.03503028;0.035331603;-0.06440669;-0.11919654;-0.07105662;0.012516503;-0.08309098;-0.12776817;-0.04167255;0.0374976;-0.09523147;0.03022462;-0.023697266;0.0051039048;0.041479826;-0.035645783;-0.14546584;0.027741797;-0.0081982;-0.07694744;0.08996926;-0.0065223337;-0.052193392;0.038466122;-0.077596456;-0.10648118;-0.013081134;0.124301024;-0.022456637;-0.021984275;-0.106084235;-0.027949965;-0.038249146;-0.094651155;-0.082472906;0.072060406;-0.09015301;-0.04463736;0.011122886;-0.10118384;-0.07895546;-0.026808493;-0.025720999;-0.05434495;-0.032661516;-0.0053751464;-0.077195816;-0.078708686;0.046772562;-0.06968963;-0.07116527;-0.08675568;-0.13173197;-0.0013558789;-0.08223669;-0.023909124;0.015961157;-0.07170968;-0.050170563;-0.048828557;0.023734307;-0.117438845;0.054021;0.084447235;-0.10539618;-0.05934479;0.08901272;0.016924657;0.11729623;-0.07457001;-0.09698907;0.0050902776;-0.0037528747;-0.106020056;0.16297922;-0.09562512;0.04711206;0.012994612;0.028207012;-0.06470852;0.06312897;-0.07869104;0.04698291;-0.093446895;-0.031262666;-0.06026887;-0.111187264;-0.08216342;-0.042815913;-0.0943092;-0.09093789;-0.030895224;0.0072348993;-0.000114912735;0.037773926;0.03658122;0.1436039;0.017959964;-0.16029988;-0.1425469;-0.081642374;-0.05011129;-0.10888153;-0.08246182;-0.05493697;-0.10206699;0.04318394;0.0010180547;0.014709084;0.0011243856;0.07355261;-0.015732061;0.0069419835;-0.067764714;-0.030022083;0.08656923;0.034489423;-0.039745055;-0.013233773;-0.1810171;-0.044949777;-0.02943107;-0.09459104;-0.0139670065;0.035326824;-0.034616414;-0.024727;0.09276784;-0.016650055;-0.04264178;-0.026860658;-0.13467363;-0.08138536;-0.040046703;-0.014686773;0.048477963;0.0014670655;-0.044773363;0.010260931;-0.07066258;-0.015986778;-0.009380867;-0.09237955;-0.03411288;-0.108838685;0.03762492;-0.12771353;-0.06395048;-0.022147048;0.13175142;-0.12746313;0.054753993;-0.07632034;0.006950961;-0.04981377;-0.011775287;0.027163867;-0.048720635;0.085953884;-0.003095389;0.03179073;0.00906628;0.051357422;-0.021678425;-0.14892687;-0.09872649;-0.050906114;-0.024454845;-0.10035078;-0.04256337;-0.0058496823;-0.04619262;-0.096008874;-0.09283244;-0.029077785;-0.034341883;-0.014093643;0.0027129936;0.005742869;-0.043703754;-0.058035407;-0.07497467;-0.08121032;-0.11190637;-0.11293389;-0.0068110907;0.009283537;0.016478838;-0.01506966;0.019772612;-0.013152878;-0.047306497;0.044514738;-0.002809725;-0.106829435;0.027827572;0.024464808;-0.01736634;-0.11999539;-0.059681073;0.0025970766;-0.09691767;-0.0932438;0.15243863;0.06165611;0.08974953;-0.0024903591;-0.030160667;0.030902449;0.042637642;-0.17657717;0.08157229;0.023699306;-0.004036099;-0.07655896;0.041669816;-0.10763695;-0.0602669;-0.011087173;0.04967841;-0.11707039;-0.069604404;-0.009749961;-0.061766732;-0.042847995;-0.022223879;-0.07110489;-0.086430304;0.01363354;-0.12547337;0.043792732;-0.14920896;-0.14918344;-0.044586107;-0.009215407;-0.11084369;-0.04189702;0.026244398;-0.1228793;0.076287895;0.034489572;0.022872526;0.006386087;-0.027705321;-0.044627033;0.043409023;-0.07492986;0.012900956;0.0026071412;-0.029666673;-0.06511609;0.025231076;-0.09839828;-0.10641335;0.03305555;-0.014414763;0.010640938;-0.088613786;-0.12295853;-0.09126855;0.018380726;-0.04482233;-0.13645867;-0.088462934;0.02874123;-0.07313286;0.052639354;-0.015420804;0.018779589;-0.26345965;-0.06683376;-0.08270005;6.742228e-05;-0.13760173;-0.012994239;-0.10611588;0.041201986;-0.09771507;0.080219805;-0.051896784;0.06932267;-0.10657529;-0.063911036;-0.11872667;0.06521771;0.013437549;0.05616943;0.081768624
-0.08474119;-0.033353794;0.07609735;-0.072025485;-0.13384077;0.030344538;-0.024056807;-0.15547483;-0.10625742;-0.013892594;0.03466497;-0.0023727173;-0.032702196;-0.0092773605;-0.02240172;0.0041026515;-0.050790306;-0.016162382;0.028648188;0.0845019;0.09809477;-0.07904126;0.06556412;-0.011142721;-0.11591673;-0.09806714;-0.05299189;-0.047464013;-0.021514582;0.0007150323;-0.018619968;0.09961496;-0.07518748;0.086221986;-0.06827441;0.014905155;0.061119348;0.024531214;-0.13650808;0.0017693851;-0.054373655;-0.052232534;0.0652214;0.0452043;-0.14000699;0.008191817;0.019400883;-0.09227322;0.044502236;-0.0645698;0.02055248;0.0015680816;0.03858572;0.07650184;-0.11623074;-0.05362776;0.015627379;-0.06974157;-0.03282395;-0.12522192;0.015034471;-0.1495792;-0.06101589;-0.17421705;-0.15110256;-0.2305547;0.010783909;-0.033051234;0.037242107;-0.0685799;-0.071306325;-0.042506743;-0.17249878;-0.039881103;0.044081185;-0.10252917;0.038438916;0.046636708;0.17642815;0.10185063;-0.024959367;0.08095708;0.10239118;-0.053203933;-0.010541695;-0.09997088;-0.01942456;-0.056139562;-0.03137273;-0.0659486;-0.10063623;-0.006964345;-0.02841879;0.07978043;-0.14639056;-0.05904612;0.018950144;0.027753582;-0.13138863;-0.021222234;-0.07505056;-0.035557743;-0.08813046;-0.10080794;0.030682866;0.064339295;-0.025198255;-0.030824805;-0.008955309;-0.040571075;-0.13601618;-0.043748386;0.022968022;-0.017098624;-0.089093246;-0.0450999;0.03245869;-0.03778512;-0.14600198;0.060806785;-0.10250471;-0.016805299;-0.048486743;-0.020717014;0.009293147;-0.0650594;0.13712105;-0.03314551;-0.06457218;-0.04011922;-0.02757081;-0.006673025;-0.11608592;0.037795007;-0.20027663;-0.014119733;-0.08416581;0.1813948;-0.0071555655;-0.15976575;-0.09533478;0.10819029;0.025126034;-0.10113574;-0.058557797;-0.005588933;0.024222989;-0.02780832;-0.065484434;0.024337737;-0.017001903;0.044847447;-0.043751843;0.08091575;-0.057020463;-0.070272654;-0.12008031;0.14311619;-0.048181754;-0.032746408;-0.012697431;-0.03957588;0.07373314;0.063256875;-0.07649958;-0.0152121475;0.038560543;0.04382934;0.01361402;-0.015450035;-0.07665035;-0.003646453;-0.010949206;0.1191597;-0.12238318;0.02551782;-0.10188351;-0.036183953;0.06998663;-0.0859176;-0.10958167;-0.12195334;-0.008981543;-0.04447483;-0.08775138;-0.11085692;0.0707902;-0.06871369;-0.109139934;-0.07571915;-0.069610424;-0.08109159;-0.054024093;-0.02513786;-0.046209075;-0.07351835;-0.08350409;-0.10277916;-0.0051570637;0.10610485;-0.05330627;0.0043878257;-0.042886224;-0.0016193439;0.018371215;-0.003584025;-0.036998715;0.071807526;0.017874947;-0.04239145;-0.10848045;-0.06847831;-0.022398897;-0.054708134;0.005739242;-0.0851242;0.023390371;-0.109845035;-0.021664372;0.009174839;-0.10598198;-0.075723894;0.021592438;-0.113678224;-0.016774476;-0.01169542;0.05940832;-0.020703496;-0.031968385;-0.10381725;-0.0026421964;-0.015483632;-0.03156907;-0.14488776;0.034671113;-0.02376697;-0.0730825;-0.094463505;-0.023317227;0.08103171;-0.032592565;-0.0051646275;-0.05011996;-0.021371176;0.0094489595;0.02106147;-0.04796669;0.035036992;-0.0708449;-0.07334089;-0.18453963;0.0090407785;-0.0244907;0.10892259;-0.09740348;-0.018923618;-0.05436934;-0.021624418;-0.017123744;0.0044476977;0.033070643;-0.010654925;-0.054896634;-0.048045382;0.032565594;0.037244778;-0.048285205;-0.058363266;0.055336244;-0.020608742;0.02958917;-0.00386579;-0.088156484;-0.040906224;-0.086717464;-0.041611698;-0.0059573078;0.027516436;-0.044507604;0.039392766;-0.09551767;-0.21319616;-0.028021077;-0.10739378;0.003801312;-0.031053947;-0.07306239;0.056125853;-0.1724221;0.008604785;-0.106965914;-0.24694932;0.020037713;-0.10459991;-0.1032186;-0.07974308;0.031225776;0.10090566;-0.10379192;0.06452646;-0.052523267;-0.07045292;0.04998595;-0.1221885;-0.0818399;-0.03338349;0.08894962;-0.017250376;0.05704965;0.019774847;0.01898433;-0.10029003;-0.08338955;-0.08087705;-0.0024559153;0.02336497;-0.09319415;0.08406643;-0.067857504;0.043885887;-0.07933953;-0.14720854;-0.12693879;-0.030160997;-0.08295857;-0.029354813;-0.02656047;-0.015070524;-0.027996724;-0.13431285;-0.02997065;-0.09245633;-0.024176689;0.0009184034;-0.06825179;0.051139157;0.018283157;-0.010958201;-0.1095598;0.03890258;-0.116119005;-0.06793909;0.033940677;-0.0022570966;0.12689802;-0.1438969;-0.080674686;0.053432006;-0.098786235;-0.10164333;-0.03005724;-0.041939847;-0.06136094;-0.057280708;0.028069878;-0.09143742;0.114091426;-0.06335715;-0.09875619;-0.068369076;-0.0012059972;0.045935646;0.12012734;0.009370629;-0.094361156;-0.024947906;0.0022371637;-0.017054252;0.06454825;-0.071977966;-0.062773116;-0.026766134;-0.07446124;-0.010743794;-0.017200647;-0.09829594;0.071519725;-0.06647454;0.009956481;-0.12393525;-0.040461127;-0.07413597;0.055194393;0.06699446;0.17123702;-0.06297518;-0.1071514;-0.011804215;-0.03501738;-0.039346725;0.009092449;-0.044029094;-0.12940729;-0.07994855;-0.07472246;0.020955158;-0.0063831997;-0.14230205;-0.047268875;0.060176726;-0.022634745;-0.048968967;-0.029169122;0.1020023;-0.07421577;-0.035807688;0.022541042;-0.10730538;0.07992438;-0.109360285;-0.093506314;0.02816007;-0.0647789;0.007444946;0.10115546;0.076677345;-0.07783588;0.03389074;0.050084677;-0.1043413;0.025113575;0.037497073;-0.0018398974;0.026522147;-0.1426375;-0.012118601;0.052073393;-0.0030321043;-0.036672935;-0.047286473;-0.048144113;0.04162282;0.03248303;0.012171427;-0.17244302;-0.10628773;-0.0986172;0.12855852;-0.00078231556;0.07831913;-0.08553709;0.11497964;0.034890126;0.07426425;0.0042164125;0.07334009;0.027866142;-0.0009395006;-0.10924455;0.03709521;0.016842563;-0.07801043;-0.12930456;0.021480966;0.03350029;-0.08664968;0.041862413;0.09561999;0.01006552;-0.009899462;-0.09727319;-0.11178627;0.04088904;-0.04949052;-0.01880012;-0.09466147;-0.008707399;-0.051714193;-0.11926685;-0.041913364;-0.058842335;-0.14789495;0.028345471;-0.04288362;-0.08094401;-0.005965018;0.041894607;-0.085973635;0.052522846;-0.006363903;-0.021915192;-0.06790927;0.023359725;-0.108558975;-0.0005218708;-0.0108548;0.025981292;-0.07320506;-0.09340995;-0.086480096;-0.054249663;0.10544187;0.07299248;0.041507915;0.03933901;-0.09050667;-0.115127094;-0.009221923;-0.03513808;0.031130401;-0.046807885;0.0016911469;-0.044013813;-0.006000031;0.048345316;0.030166164;-0.10170952;0.050450165;-0.045324765;-0.11345967;-0.09905582;-0.051610634;-0.046230327;-0.06362236;0.04743006;-0.108209535;0.01972932;-0.0038040485;0.030945458;-0.16070062;-0.20198683;-0.0035272564;-0.081704654;-0.04600263;-0.037139732;-0.02053;-0.12692846;-0.021864245;-0.08575484;-0.09345032;-0.049432907;-0.1397168;0.002367984;0.035951905;-0.034365382;-0.048322413;-0.08561306;-0.18310046;-0.04741079;0.003371756;-0.13475047;0.03046351;0.04202436;0.07497699;-0.06960877;-0.08178577;-0.10018798;0.042407222;0.03849101;-0.05215898;-0.13360661;-0.04030273;0.051098406;0.04563739;0.04276514;-0.06903479;0.08332491;-0.17516041;-0.109427966;-0.016667197;0.016129676;-0.086531535;-0.04776553;-0.03030462;-0.02171925;-0.10190163;-0.0017851897;0.048470937;-0.012645097;-0.0673682;-0.017813263;-0.033362933;-0.09166137;0.033007156;0.007860128;-0.070386596
-0.057606034;0.09034913;0.10836356;0.038129006;-0.13945936;0.051770896;0.09250987;-0.13345164;0.020735504;0.0838229;-0.024260143;-0.041547887;0.05215076;-0.07289528;-0.059021045;0.0051374165;-0.015567084;-0.0229949;-0.04136542;0.007028325;0.060236488;-0.15633486;0.016578358;0.01871727;-0.09617904;0.009454483;-0.029843053;0.03439342;-0.117467366;0.059096612;-0.049841266;0.07811255;-0.02962423;0.00031786243;-0.10623578;-0.08017671;0.022070684;0.034835476;-0.098489;0.0070559615;-0.05505486;-0.08409169;0.0020825057;-0.008878661;-0.23425353;-0.023557654;-0.0952154;-0.15414202;0.0025209463;0.007194957;0.036858175;0.08433102;0.018833652;0.008841597;-0.039274655;-0.04898784;-0.05022485;-0.05905071;0.012591862;0.027664438;-0.031013437;-0.11467834;0.010575694;-0.062206052;0.0060440716;-0.2385932;-0.05801193;-0.12715584;-0.053334583;-0.044964824;0.03643759;-0.10137287;-0.16656034;0.013848653;0.040843964;-0.07292057;0.023751875;-0.06315665;0.18635939;0.17174153;-0.038787615;-0.038465023;0.17110579;-0.0133545725;-0.011471191;-0.11467269;-0.11194178;-0.03267212;-0.028637972;-0.09254806;-0.093668416;-0.040646728;-0.07280005;-0.0131261945;-0.15456367;-0.085093215;-0.07119434;-0.07127984;-0.09507539;-0.039260022;0.02101421;-0.026148628;0.030986903;-0.010803032;0.043827675;0.088042185;-0.10927295;-0.047158055;-0.059832733;-0.06493711;-0.05067031;-0.023835698;-0.007071901;-0.014708943;-0.07621117;-0.0539834;-0.09706339;-0.05604071;0.0062061837;-0.0068377373;0.026496463;-0.044362377;0.03770369;-0.106780976;0.023918785;-0.035915066;0.13867143;-0.00014786638;0.057769004;0.10674093;-0.03899306;-0.07162695;-0.087674975;-0.003995712;-0.07279449;-0.006302787;-0.14817497;0.16645876;-0.14147027;-0.048713453;0.012328487;0.09971031;0.049742322;0.05239743;-0.01336426;0.018793566;-0.046770178;-0.062226474;-0.103985436;0.0010617152;-0.067117564;0.0036998938;0.014794402;0.12132575;0.06147291;-0.16278213;-0.055513814;0.045557167;-0.018856203;-0.058758803;-0.024624713;-0.013045715;-0.031404134;-0.09930058;-0.012089348;0.0179143;-0.012131031;-0.026857225;-0.03119968;-0.01122869;-0.02960223;0.015363155;-0.09575559;0.04763067;0.0028830974;-0.046068624;0.06216497;0.017760808;0.08037448;0.019907782;-0.07789184;-0.0768931;-0.015757993;-0.067063846;-0.028356738;-0.14963993;0.0020181357;0.019138869;-0.051363476;-0.015480727;0.038369168;-0.03598816;0.005256027;-0.122669056;-0.05004601;0.04262066;-0.059577234;-0.115290046;0.0044565415;0.0015742916;-0.10033257;-0.09436851;-0.093452506;0.02970843;-0.014327743;-0.11410512;-0.12166275;0.06278889;0.07527781;-0.037309676;-0.11786448;-0.06893159;-0.10595815;-0.039421055;0.0008106841;0.032242592;-0.0869174;-0.011222467;0.051328514;-0.021407448;-0.11294211;-0.053038318;-0.04285104;-0.09355382;0.04714702;-0.0026583255;0.02560288;-0.060452357;0.023486985;-0.13354072;0.0035154533;0.0092590125;-0.022196427;-0.079729356;0.02617574;-0.062457662;0.07654503;-0.043209314;0.028725298;0.13006884;-0.052623868;-0.067871824;-0.049057625;-0.02969535;0.034800526;0.03250385;-0.0980062;0.08003427;-0.07176898;-0.0633161;-0.10101952;-0.006965944;-0.003761528;0.09840826;-0.087598845;-0.057049997;-0.08030753;-0.08829475;-0.13943954;-0.024702152;0.07880109;-0.012344114;-0.0663084;-0.010846983;-0.003056831;-0.074337095;-0.012881163;-0.12630129;-0.042907815;0.05509535;-0.12913749;0.027727874;-0.04204522;0.0032951082;0.0056282175;0.016684758;-0.027113784;-0.054068793;-0.052354928;0.10467968;-0.011762352;-0.07312299;-0.08337742;-0.010108674;-0.062384784;0.021568669;-0.082954235;-0.04244571;-0.14999488;-0.08838358;0.022810971;-0.21712936;0.05844626;-0.07495007;-0.070366144;-0.087072305;-0.04960023;0.017852796;-0.22824085;-0.00445741;0.012571049;0.012710465;0.012174255;0.008837069;-0.15733291;-0.011556091;-0.0059106466;-0.06381968;0.08496648;0.021753034;0.027978865;-0.08732654;-0.05864461;0.044593994;-0.08768766;-0.008786653;-0.0740301;-0.043693908;-0.115134925;0.048336904;-0.09374661;-0.043804307;-0.0060285307;-0.08307982;-0.057116903;-0.038295455;-0.09717402;0.018503036;-0.0184273;-0.09830771;0.12584274;-0.0025899217;0.021815471;-0.03130312;0.053658463;0.03077281;-0.030973673;-0.023228223;0.015684087;0.029547332;-0.04918343;-0.07002432;-0.03243323;-0.009638336;0.1001562;-0.084100954;-0.029202592;0.030811712;0.041155282;-0.10130835;0.015701642;-0.06100966;-0.08441668;-0.0411583;-0.012622347;-0.05004689;0.17193644;0.02201254;0.0014208483;-0.02499582;-0.037003033;0.013182428;0.16384631;-0.089993365;-0.011643306;-0.0150799295;0.047852747;-0.102060266;0.01005519;0.05714766;-0.06028384;-0.062906295;-0.14156708;-0.06886222;-0.11624474;-0.08082668;0.038708664;-0.11003495;-0.03382871;-0.14063686;0.027282877;-0.021291392;0.011347252;-0.038029574;0.12999037;-0.06383997;-0.16029081;-0.14623697;0.012447913;0.056242757;-0.05808166;-0.007381434;-0.11552177;0.036875755;-0.082292646;-0.029116558;-0.026876656;-0.1049155;-0.022813277;0.061697856;-0.09536892;0.036573473;0.04242248;-0.028960288;-0.064353734;0.08234479;0.033700168;-0.103778996;-0.05751535;0.035334833;-0.093917735;-0.03904206;-0.10196299;-0.016652849;0.045752533;0.036746055;-0.106640324;0.0009493067;0.11066157;-0.18403623;-0.08163988;-0.0897399;-0.015589103;-0.021886606;-0.049720004;0.043446828;-0.008127323;-0.026161525;-0.05931018;-0.026954394;-0.14207293;0.09174422;-0.082504764;0.018263917;-0.13914016;-0.04296799;0.022908926;0.07439303;-0.07848236;-0.0067646774;-0.075926736;0.1471972;-0.06405695;-0.043936092;0.046355274;-0.06473397;0.008579889;-0.048766494;-0.013134957;0.08869844;-0.06401938;-0.07481604;-0.08254419;-0.029037962;0.021837927;-0.006541876;0.017906738;-0.013433701;-0.06597154;-0.10911378;-0.076864175;-0.12732235;-0.068383925;0.027244445;-0.07721837;0.0071620867;0.013181344;-0.0053450675;-0.17574072;-0.098722674;-0.051130608;-0.032509845;-0.012127023;-0.069470815;0.06845556;-0.019143786;-0.043253954;-0.070652634;-0.019355103;0.008203214;-0.006956823;-0.08351337;-0.09227822;-0.07080292;-0.07770959;0.063423336;-0.14139956;0.023025151;-0.051805545;0.02838592;-0.005000533;0.07507047;0.084877625;0.12944889;0.0029968107;-0.11213678;-0.07347096;-0.028123256;-0.0724016;0.12594177;0.008712467;-0.094550855;-0.096687764;0.046529103;-0.1060156;-0.00031518083;-0.06280138;-0.032506943;-0.0466595;-0.14924908;-0.03838;0.06955015;-0.059218336;-0.08530473;0.057408;-0.014863657;0.016558345;-0.15912357;0.10615708;-0.029690804;-0.17896448;-0.09047157;-0.060366366;-0.047587603;-0.016196687;0.0438021;-0.11902202;-0.06237469;-0.023657434;0.03589508;-0.063743785;-0.15901789;-0.03236587;0.01388085;0.031797964;-0.119097464;0.017605893;-0.109900214;-0.09707342;0.011066824;-0.049304195;0.051051095;-0.035232574;-0.038432058;0.006768457;-0.03563059;-0.10073171;-0.081335515;0.03929522;-0.16804728;-0.11905886;0.059867818;0.083651245;0.038719434;0.05797;-0.06197285;0.005270211;-0.19027235;-0.066778995;-0.13024509;0.05363964;-0.16010062;-0.014407858;-0.017846243;0.027410246;0.0082652895;-0.0038081745;0.059685927;0.075578496;-0.07739003;-0.087564915;-0.08233414;-0.08625495;0.0246447;0.0059737125;-0.042814225
-0.09701059;-0.0025884758;0.04320491;0.083938375;-0.11513935;-0.04171676;0.03034681;-0.109578654;-0.06726023;0.093633056;-0.06521553;-0.025311604;0.0036517312;0.015003407;-0.064051725;0.026591592;-0.006201212;-0.12135724;0.042591956;0.053443413;0.10367283;-0.12342783;-0.06725909;-0.039897032;0.0085350955;-0.013404496;-0.0034599432;-0.0032842844;2.4975496e-05;0.12213728;0.035265733;-0.02080651;-0.02649512;-0.02545707;-0.11664012;-0.120203674;0.030815812;0.006774542;-0.15969442;0.0077269236;-0.08019911;-0.11511832;-0.05678162;-0.010067977;-0.20378336;-0.022613876;-0.007390377;-0.043185186;-0.060771953;0.06150999;-0.07864822;0.0031734505;0.04144232;-0.038127694;-0.10367366;0.043404788;-0.030744577;-0.0027998276;-0.08127571;-0.037515763;0.021163234;-0.06915925;-0.022353446;-0.11518581;-0.10426812;-0.21001725;-0.05956768;-0.062318128;0.10323198;-0.049103636;0.057253424;-0.103492565;-0.02813064;0.058614835;0.03584545;-0.03477462;-0.039591912;-0.031387772;0.13233334;0.059552807;0.020636946;0.07583866;0.1475567;-0.15048495;-0.054612987;-0.109836645;-0.057324212;-0.17464556;0.0060378914;-0.101344995;-0.11135731;-0.010585907;-0.0031783248;0.09722988;-0.10269126;0.017274845;-0.057139777;-0.072803125;-0.10871313;-0.022205824;-0.12387192;0.006122813;0.012085843;-0.05792279;-0.05554219;0.019054027;-0.06925083;0.025983261;-0.051252283;-0.03674954;-0.06133497;-0.10571657;-0.02316108;-0.0032269494;0.009933124;-0.012436857;-0.1345291;-0.09677311;-0.06780056;-0.00441891;0.009727721;0.060560975;-0.088932976;-0.078056425;-0.022611855;-0.08307714;0.12576874;-0.08462096;0.0012711167;0.02123349;0.016526286;0.06469277;-0.098383546;-0.11589089;-0.16320077;0.013241207;-0.12190923;0.13280593;-0.15312462;-0.098574586;-0.0078017605;0.15348203;0.015621418;-0.0719654;0.015009325;-0.10717603;0.06877465;0.060653377;-0.10267558;0.046059716;-0.12250493;0.015047635;-0.0450613;0.0018224408;-0.054887485;-0.113006465;-0.07045537;0.11079248;0.045294393;-0.044415534;0.025999093;0.011050399;-0.07068169;0.020163152;-0.01389342;-0.088666506;-0.011946183;-0.01907359;0.0032075292;-0.095297314;0.0061607854;0.0037796453;0.03857569;0.07040424;0.0151321925;-0.0060536102;0.06709414;0.014635991;0.053965516;0.0266833;-0.090254314;-0.066707075;-0.06728791;0.0057308897;-0.016991667;-0.070350215;0.085998856;-0.052173566;-0.023453;-0.019254724;0.03572715;-0.023848569;-0.022302952;-0.017501764;-0.069397345;-9.210984e-05;-0.0829455;-0.11867005;-0.08175267;0.016047575;0.039445363;-0.09304374;-0.056301102;0.02311548;0.017850833;0.029963102;-0.017767237;0.09337632;0.06095643;0.027900139;-0.013688838;-0.06749293;-0.10412387;0.023898568;-0.011310641;-0.012898482;0.07361286;-0.088111416;-0.020522008;-0.08346525;-0.14633754;0.0027810738;-0.006223623;0.026094502;-0.10578763;0.0759235;0.093519166;-0.08423817;-0.083721034;-0.06379957;-0.009256243;0.03192071;0.0360311;-0.14351694;-0.069329485;-0.06441965;0.00838205;-0.0052257655;-0.07511461;0.015660103;-0.10642978;-0.040840182;-0.10652394;-0.08154122;-0.09598888;0.01092718;-0.06981589;-0.008451904;0.069241144;0.02172337;-0.1018698;-0.03170656;-0.033350058;0.11482964;-0.165877;0.014642931;0.045467105;-0.07297856;-0.15479359;-0.078662165;0.03056779;-0.020180337;-0.07136649;0.011281583;-0.056656495;-0.11453264;0.027961267;-0.07509425;0.076397695;0.036400497;-0.05610982;0.07786973;-0.010085822;-0.044738837;0.020410273;-0.10805676;-0.065777734;0.06970777;-0.05906654;0.106536604;-0.045018557;-0.1557558;0.047025345;-0.12485816;0.027744515;0.013903338;0.036709007;-0.074014515;-0.19189359;0.037379164;0.02247029;-0.14613502;-0.05657659;-0.07821814;-0.10733473;-0.13526025;-0.0939305;0.03742921;-0.26110217;-0.024641123;0.044702098;-0.07342536;0.050985083;-0.00058918;-0.0424417;-0.07566334;0.03978955;-0.096839026;0.042875156;-0.01678097;0.03876534;0.043039482;-0.07256634;-0.027832868;-0.009470138;0.01970398;-0.0057831407;-0.040876366;-0.020204859;0.015885537;-0.033139315;-0.01405508;-0.005156127;0.043779045;-0.15545507;0.042613197;-0.048487898;-0.09689329;0.057823602;-0.022501448;0.084611475;-0.035890292;-0.025850298;-0.061489467;-0.07725035;0.041609872;0.01935699;-0.070171475;-0.06756682;0.024035957;-0.0954955;-0.07443266;0.029034426;-0.0713097;0.07977754;-0.011621405;-0.040717848;0.047669746;-0.091802105;-0.039422773;0.055628944;-0.048130967;-0.051642917;-0.053775024;0.060593024;0.033262756;0.18119559;-0.015104536;-0.06729109;0.005966944;-0.05051823;0.039083328;0.10549026;-0.022596512;-0.041639246;-0.10033665;-0.106763095;-0.053872097;0.026302772;-0.0534468;-0.056921095;-0.0035008353;-0.115612276;0.03654994;0.05123078;-0.07661995;-0.033286832;0.027221836;-0.0008399348;0.002808321;-0.06741414;0.034865916;0.04691392;-0.0189484;0.16510722;-0.07931715;-0.1758492;-0.10544053;-0.060490593;-0.07548561;-0.114481665;-0.06359078;-0.028932516;-0.009655907;0.067596264;0.015942914;-0.07288302;-0.026102597;-0.06856908;-0.08382954;0.031462584;0.017731158;0.012654067;-0.020381005;-0.045777112;-0.060413986;-0.0012691481;-0.06489535;0.0009912567;-0.045363087;0.023259614;0.00935112;-0.030841112;-0.07632267;-0.004385973;0.05346588;-0.12164297;-0.037266124;0.0097818775;-0.21964401;-0.018904833;0.0048883795;0.04064462;0.05163967;-0.1128076;-0.046215;-0.0776309;-0.121528305;0.09781305;-0.062397204;-0.042321123;0.01964953;0.0036947408;0.078126945;-0.05852403;-0.06844721;0.009803481;0.10564116;-0.11146237;0.08312189;-0.028273067;0.11197868;0.026222302;0.026213292;0.024421275;0.00041012748;0.0809471;-0.09853553;-0.11007172;-0.03343905;-0.08657866;0.058953583;-0.15632994;-0.030200578;-0.11824122;0.026868977;0.027692303;-0.0039520394;0.053372234;-0.09076472;-0.10047357;-0.039605908;0.06936691;-0.02001975;-0.068332955;-0.06313068;0.044522595;-0.08252619;-0.0531119;-0.10681858;-0.089522675;-0.031101217;0.032749634;-0.13521543;-0.0018620493;-0.021425981;-0.089667805;0.031358227;-0.008900736;-0.026778439;0.037979476;-0.090348735;-0.027553743;0.026606172;0.03925613;-0.064352915;0.020484218;0.0062977187;8.002684e-05;0.012213736;-0.10419967;0.007470236;0.044135217;-0.04879395;-0.011083393;-0.17045455;-0.11944524;0.040235564;-0.14390175;0.11970978;0.02552606;-0.11026072;0.015251367;-0.09802431;-0.04465841;-0.09357926;0.035408285;0.013963902;-0.026931169;-0.11294153;-0.02252086;-0.09935959;-0.027499044;-0.0048806146;-0.05658997;-0.020803964;-0.030661996;-0.04216163;0.062840775;-0.15324128;-0.26348126;-0.043289226;0.04731003;-0.036014035;0.06652646;-0.015222794;-0.048225235;0.073694065;-0.06291857;-0.09456484;-0.055292934;0.0075935703;0.008422685;-0.013950207;0.026499372;0.0061925696;-0.034159098;-0.09856123;-0.11594804;-0.12254617;-0.0019990294;0.048950803;-0.008583858;0.0031631568;-0.039307423;-0.10667658;-0.12091457;0.026127541;-0.010079109;-0.12992056;-0.025719155;0.040149964;-0.0077767055;0.027674079;-0.02996502;-0.016628772;-0.05087184;-0.13868088;0.033372723;0.032936092;0.04051367;-0.011125944;-0.09206544;-0.03498953;0.01925931;-0.07098171;0.0123932315;-0.048895817;0.045417666;-0.1787298;-0.059999634;-0.13489051;0.006923491;-0.086486906;0.01781966;-0.05527781
-0.060792465;0.040836103;0.12346792;-0.08395963;-0.0477146;0.020939987;0.098584585;-0.10483259;0.021140855;-0.028557109;-0.061308365;0.01617179;0.041582223;-0.031876862;-0.09660629;-0.033321425;-0.04869065;0.0066276556;0.07061733;-0.0022546165;-0.016512286;-0.019553553;0.01935752;0.0599842;0.01650184;-0.08108522;-0.0582744;-0.08109476;-0.06326714;0.097486846;-0.05222493;0.016013902;0.030127237;-0.08731081;-0.104036294;0.011523059;0.008507408;-0.026471509;-0.100291096;0.025698103;0.05836328;-0.1680268;0.026683116;0.041362148;-0.23175372;-0.058367405;0.008970511;-0.04100778;-0.023858624;0.03196513;-0.020838154;0.082637735;-0.014704946;0.06909051;-0.04404148;-0.0095073255;0.022915052;0.0120208;0.000527328;0.0018446497;-0.02806449;-0.06976193;0.006764021;-0.10292098;0.004507153;-0.0952338;-0.037278056;-0.14743333;0.059176173;-0.040357526;-0.03809287;0.01684296;-0.0337973;-0.073177986;-0.03023609;-0.0788702;-0.059546974;0.035602022;0.19841634;0.09831505;0.028574795;0.08121393;0.051129337;-0.009821466;0.0621402;-0.050577786;-0.089657314;-0.111949526;-0.07993678;-0.044156495;-0.021533675;-0.07354843;0.0500294;0.015557875;-0.03116687;0.0113933;-0.10542586;0.015160435;-0.06876405;-0.05896378;-0.14242129;-0.020933919;-0.039613623;0.0267933;0.046551842;0.012600486;-0.045312118;-0.079701476;0.032975614;0.024329133;-0.13332897;-0.1069556;-0.07965192;-0.0084982095;0.015318721;-0.059817202;-0.06824485;-0.031648245;-0.0964578;-0.05249697;-0.024404787;0.049488932;-0.033757284;-0.04158338;-0.07164944;-0.08549896;0.061815146;-0.10918276;-0.01125236;0.07549259;-0.09434876;-0.019837106;-0.028615749;0.024537545;-0.19202095;-0.07319044;-0.16397902;0.15322135;-0.14278495;-0.06688669;0.045557592;0.10927582;0.095584385;-0.06307424;0.04976591;-0.0783448;0.08382124;0.042246442;-0.11321246;0.027369926;0.015205901;0.0333536;-0.080734454;0.07659585;-0.028204735;-0.08631802;-0.0060188603;0.04770636;0.0583783;-0.04262377;0.056445405;-0.025058487;0.047925595;0.008601826;-0.01762871;-0.13521495;-0.013189374;-0.038964685;-0.12095426;-0.00015406808;0.07262302;-0.0053171027;-0.07227449;0.11101691;-0.11715622;0.058478825;0.010890378;0.026548227;0.1894365;-0.0068603717;-0.10873343;-0.16846672;-0.0049343714;0.010193841;0.03646651;-0.021708367;-0.02115742;-0.07192818;-0.053215448;0.034355856;-0.03061047;-0.07437337;0.03875135;-0.09084134;0.007460668;-0.06600149;-0.004372595;-0.06318065;-0.10395381;0.055335265;-0.073923625;0.021725178;0.050206766;0.034236632;-0.11862509;0.017104024;-0.080360636;0.15123759;0.059190005;0.004366212;-0.03356083;-0.08535421;-0.10514166;-0.09375168;-0.119367585;-0.084956534;0.028107805;0.010835061;0.056826722;-0.031200796;-0.05314802;-0.073680945;-0.04765171;0.013809877;-0.01816849;0.018944666;0.05300032;0.039431453;-0.08896983;-0.12057251;-0.10677323;-0.08236365;-0.042101618;-0.071334355;-0.037687324;-0.105308406;-0.007943716;-0.0851736;-0.06526603;0.0544975;-0.05857468;-0.044228;-0.0930458;0.03558741;-0.010591872;-0.021417096;0.020794362;-0.08245575;-0.048499174;0.014402894;-0.13182737;-0.09573824;0.09234674;0.10095458;-0.030933104;-0.014579481;-0.028722653;-0.045473628;-0.14217098;-0.09695399;-0.043722153;-0.004965904;-0.017220512;-0.08220682;0.022201065;-0.029808197;0.03378285;-0.0929667;0.119128235;-0.0062374673;-0.08084605;-0.046485838;0.006261929;0.017339263;0.021280576;-0.028062537;-0.066097945;-0.040369947;0.0113352435;0.09079402;-0.03557281;-0.074710906;-0.028342528;-0.06800686;-0.05845756;-0.018435368;-0.06734846;0.051147155;-0.20289303;0.035362117;-0.03584521;-0.09213631;0.05221463;-0.015876632;-0.14380883;-0.12087375;0.013271939;-0.00033549557;-0.11375866;-0.036319476;-0.0266489;0.0035011088;0.054708797;-0.07377883;-0.119598106;-0.023444926;0.02492868;0.017107;-0.039308712;-0.052890074;-0.0809891;0.034709517;0.03516873;-0.008877318;0.0032804133;0.1597477;-0.092697464;0.062409688;0.00907591;-0.034469772;-0.016564222;-0.08554741;-0.13115254;0.05420125;-0.013172622;-0.04435296;-0.08177558;-0.09638686;0.003593038;-0.12207598;-0.042700797;-0.11469256;-0.042456016;-0.098350696;-0.03085206;-0.021910714;-0.046209455;0.040876266;0.004517329;0.031884074;-0.04391544;-0.03609726;-0.025368372;-0.008704025;0.09099829;-0.15507932;0.02897984;0.0013257392;-0.03970394;-0.053296726;0.083568595;-0.05257805;-0.12833235;-0.057525277;0.017522365;-0.03250367;0.15608546;-0.067171805;-0.0090633845;-0.07459312;-0.06612603;-0.113395266;0.09050099;-0.042851318;0.004421734;-0.013139538;0.030108172;-0.078447685;0.05450351;0.01738015;-0.05674736;-0.07100444;-0.06069992;0.03985042;-0.07091978;0.0051428378;-0.052332003;-0.01376199;0.020295225;-0.08640115;0.019480202;0.009752926;-0.08737108;-0.09178115;0.053306222;-0.020044047;-0.17102158;-0.07996212;0.028872713;-0.040495522;-0.025433918;-0.039430387;0.029053688;-0.026030801;-0.007506179;-0.013695962;0.0020157688;-0.094821066;0.044205755;-0.10473859;0.011200428;-0.030099398;0.019521594;0.076614544;0.0023907213;0.041653275;-0.10615756;-0.111978054;0.0709209;-0.107544005;-0.11844519;-0.007744876;-0.10671281;0.012346675;0.029102784;0.0039366353;0.011272484;0.021078976;0.076145336;-0.16156837;-0.038925637;0.03144174;-0.019057546;-0.043461196;-0.011035135;-0.09384704;0.046532087;-0.061005984;0.1014341;-0.012832262;-0.11186709;0.07069517;0.021975309;0.014227032;-0.19307753;-0.020216947;-0.07615169;-0.0042338;-0.01280707;-0.01819631;-0.03060585;0.10744243;0.057238746;0.09091953;-0.006612194;0.087759696;-0.018157624;0.008586514;-0.009482799;0.024413226;-0.06323928;-0.0018386537;-0.10841961;0.023882525;-0.04944263;-0.05028455;-0.037321787;0.05889704;-0.045431547;-0.088038005;-0.07170334;-0.056438897;0.022012493;0.047180977;-0.107077576;-0.0128532685;0.052514967;-0.12746961;-0.20659949;-0.011247308;-0.08276468;-0.15561475;0.012985168;-0.030034477;0.0047602425;-0.10947705;0.00062436797;-0.07313366;0.0023520305;-0.074138924;-0.059547085;0.04238172;0.054792468;-0.030200485;-0.04903121;0.043280378;-0.1177246;-0.026455982;-0.11862252;-0.089303136;0.014667712;0.071915366;0.058274228;0.10559251;-0.005199866;-0.028414026;0.027587872;0.024009006;-0.16696085;-0.023777775;-0.06377031;-0.1181411;-0.1307896;-0.027464658;-0.0885774;0.032153696;-0.004976837;-0.008399972;-0.14447902;0.007866799;-0.10019133;0.039158694;-0.14016615;-0.013261882;-0.04728541;-0.12525637;0.034296725;-0.07824815;0.1635293;-0.16787586;-0.16430399;-0.044265248;-0.0069834758;-0.11112179;0.07469377;-0.038478956;-0.095528096;-0.06330274;-0.09745152;-0.013581145;-0.08950744;-0.012331047;0.007079615;0.042523522;-0.1081795;-0.026062159;-0.02523879;-0.056467935;0.030505344;-0.100412264;-0.14403832;0.057653707;0.006136734;0.0155234365;-0.096144825;-0.11556019;-0.0030121864;-0.067659974;0.032624424;-0.14826296;-0.15929063;-0.051840134;0.10730216;-0.07047342;-0.03312931;0.029421361;0.06140499;-0.15853678;-0.11101288;-0.024964444;-0.043524735;-0.10599768;0.044070695;0.045192115;-0.05558277;0.001747284;0.050731473;-0.10823402;-0.0076105515;-0.14404799;0.0031247376;-0.11037003;0.025301246;0.001192103;0.07296757;-0.022121126
-0.0039326036;0.085057676;0.11129528;-0.039115913;-0.16617227;0.037956953;0.04543462;-0.024751117;0.007987539;0.042265188;-0.03727137;-0.041044693;0.018868072;-0.046545148;-0.09251993;-0.0668427;-0.06327692;-0.121605866;-0.08393987;0.018816259;0.05487888;-0.027846307;0.018015316;-0.001955925;-0.13419664;-0.0026239625;0.02679376;-0.069499336;-0.056531437;0.0742576;-0.08763287;0.06509445;0.005887662;-0.027054714;-0.027801493;-0.11320049;-0.04542768;-0.062128697;-0.026503537;-0.111459985;-0.018466778;-0.059538215;-0.06943692;0.018506149;-0.1903604;-0.0232367;-0.060661152;-0.15833063;-0.0128512895;-0.07716207;-0.047377557;-0.023202991;-0.050258256;-0.070277646;0.0078828065;-0.027367093;0.029416895;-0.06886298;-0.06797773;0.038419463;-0.077977285;-0.1392513;0.002008926;-0.11251668;-0.14784317;-0.21949375;-0.044040244;-0.024411442;0.02133509;-0.15406561;0.041408975;-0.06414731;-0.14612615;-0.050073486;-0.049639653;-0.13276002;-0.07323558;0.056182615;0.15011156;0.11337069;-0.13659698;0.011071687;0.09077693;-0.09205028;0.048060033;-0.11633061;0.003895189;-0.09534027;0.043253016;0.04681616;0.009571364;0.010453067;0.044662822;0.1093855;-0.060751744;-0.121870674;-0.11998197;0.013991482;-0.10145731;0.00490801;-0.12928961;-0.067364;-0.08506254;-0.004215913;-0.026576104;0.052230537;-0.07779349;0.04000835;0.047436126;-0.09396819;-0.13249958;-0.11168237;0.012212193;0.051372983;-0.083678044;0.031293757;-0.12866972;-0.07414916;0.0077821496;-0.0673514;0.016542146;-0.045334976;0.029146295;-0.024884282;-0.09595258;-0.06596934;0.14588375;-0.012039156;0.041576743;0.051426146;-0.028092746;-0.014829813;-0.0879752;0.013428793;-0.07532673;-0.04167399;-0.019772626;0.14405738;-0.108153954;-0.09165562;-0.107984975;0.084872514;0.013734274;-0.056850664;0.008468403;-0.098249145;0.05348041;-0.094966866;-0.01898309;-0.09785724;-0.09504267;-0.022745013;-0.018109528;0.039550878;-0.031536903;-0.16584061;-0.102675624;0.095234536;0.031530734;0.03129198;0.031265654;-0.099465884;0.01494245;0.063558415;-0.06670036;0.00050441426;-0.086673506;-0.08899557;-0.029170396;-0.013325569;0.005355043;0.04283905;0.0006012375;-0.014000003;-0.08770579;-0.017657625;-0.009790041;-0.010758425;0.17218259;0.041047774;-0.01378931;-0.05013676;-0.09208685;0.052543476;0.007059351;0.003027977;0.009234539;-0.077594385;0.038756415;0.017092587;-0.030976133;-0.079923026;0.03884551;0.0038142186;0.054127436;0.022795686;-0.0969106;-0.008170172;0.039333154;0.032541037;-0.023026967;0.045045488;-0.092407174;-0.041469105;-0.09376178;0.027685985;-0.1217002;0.088954754;0.018726612;-0.05695139;0.00014429215;-0.020777652;-0.038125556;-0.0018943996;-0.04390539;0.013600425;-0.031361062;-0.055453267;0.0482479;-0.04715411;-0.13844532;-0.095066495;-0.017505012;-0.09791175;-0.006025628;-0.08088747;-0.031060152;0.07901612;0.012100031;-0.02742898;0.022752764;-0.057088364;-0.0026633472;-0.097863;0.026662422;-0.14046593;0.07130125;-0.11436727;0.024883388;0.033656232;-0.06936493;-0.12898448;-0.00038490185;-0.029313307;-0.09950389;0.036195345;-0.034411706;-0.0739069;-0.08095606;0.031350035;-0.14598699;-0.090587884;0.00957011;0.07030322;-0.023947055;0.01957332;0.02669402;-0.01316027;-0.09371942;-0.081940465;-0.019656595;-0.0837271;-0.08004021;0.006040657;-0.08591877;-0.121393286;0.087143876;-0.12687564;0.123870485;0.021948462;0.025518559;-0.068358555;-0.029319296;-0.06534901;-0.063507825;-0.07749941;-0.040100943;0.01110997;0.043721598;0.041010197;0.027897427;-0.202724;0.00093226007;-0.056249034;-0.0027747646;-0.046608903;0.0563744;0.057140492;-0.10869055;-0.011481456;0.03671553;-0.17936349;0.05983131;0.04321061;0.009561139;-0.097663485;-0.064385615;0.061188493;-0.0967624;0.024540143;-0.06381685;-0.06034662;-0.042257477;0.012792999;-0.12659296;-0.049701538;-0.059367094;0.011360596;0.03483337;-0.014303084;-0.008123424;0.045262285;-0.081921734;-0.082578704;-0.12954676;0.05303901;-0.12514274;-0.07795822;-0.06874601;-0.09009008;-0.07612319;-0.0134109985;-0.055575088;-0.0054521007;-0.04496076;-0.038340446;-0.02460069;-0.071152456;0.068545;0.005567132;-0.0045946734;-0.07554996;-0.06712967;-0.07111788;0.068487324;0.07401254;-0.074413635;-0.0013018877;-0.06743631;-0.067582466;-0.044875246;-0.08191737;0.005731898;0.03153489;0.07810853;-0.0069371224;-0.10178758;0.0009777052;0.039633915;-0.12130243;0.10286267;-0.0057270336;-0.06812247;-0.01064938;0.00071432395;-0.03620072;0.12922233;-0.005427201;-0.029055515;-0.07705415;-0.085568696;0.04568438;0.14636637;-0.12893644;-0.049325313;-0.079154484;-0.06546142;0.018662892;-0.06925747;0.02821615;-0.0457082;0.007161117;-0.0334147;0.05304748;-0.017113207;-0.066548906;-0.00030018343;0.015537021;-0.053846534;-0.12582156;0.044468597;-0.03212962;0.0039216243;-0.0016442798;0.06175891;-0.0370576;-0.14266899;-0.13583641;0.025642326;-0.042173676;0.0085758185;-0.110906765;-0.060380634;-0.046904184;-0.024173701;-0.036161304;0.016202215;-0.01915823;0.022705521;0.041149832;0.014201609;-0.027588228;-0.10409679;0.105445065;-0.033371564;0.020388179;0.027884973;-0.066019095;0.009546499;0.0064692628;0.01114108;0.0069777975;-0.024390375;-0.07695419;0.0139233675;0.14670444;-0.12785333;-0.08137379;0.05749652;-0.11008393;-0.08204331;0.05706138;-0.09993418;0.0056227846;-0.09357826;-0.02118589;-0.029801248;-0.0808043;0.068734474;0.040601905;-0.119501114;-0.0017313935;0.03200219;0.0016168853;-0.05423291;-0.022620482;-0.019254763;0.0006774592;0.012757966;0.011839756;-0.09056245;-0.013506778;-0.075463735;0.013489611;0.04386332;0.06932931;0.08011625;-0.028076578;-0.1136245;-0.060994986;0.016743617;-0.08496453;-0.03353445;0.0569963;-0.029948581;0.02011514;-0.07797376;0.041603412;0.009158968;-0.08274942;0.035428308;-0.06695186;0.009209581;0.044904537;0.03616566;-0.06291377;0.031599987;-0.07392835;-0.1623088;-0.12701517;-0.12205254;-0.050300464;-0.04431261;-0.0143797295;0.033789802;0.032942;0.041520536;-0.007726414;-0.0067024054;-0.0378918;-0.0784165;-0.049821544;-0.08896944;0.037272323;-0.020346457;-0.057706982;-0.1267158;-0.033445742;-0.04445043;-0.048032764;-0.0450265;0.069544986;-0.073011;0.04863104;0.060513727;-0.072084114;-0.13006394;-0.07529317;-0.122336425;0.11022012;-0.010673811;-0.05521021;-0.107013896;0.0030645884;-0.05612368;-0.023424597;-0.054418426;-0.057931207;-0.06970633;-0.1629098;-0.09679382;-0.09196117;-0.087049;-0.11033509;-0.004884601;-0.10020921;-0.065483764;-0.09174752;0.18411715;-0.1618499;-0.14646076;-0.12326061;-0.027642379;-0.10851637;0.09383753;-0.082441114;0.01061269;0.066995785;0.0077390405;-0.038573787;0.025397083;-0.11544325;-0.07354484;-0.02448778;-0.09486919;0.008594373;-0.035635717;-0.1569077;-0.022822384;0.012339989;-0.11353911;0.046744492;-0.024416277;-0.00051577203;-0.07245082;-0.06366921;-0.026540063;0.01368884;-0.07037087;-0.055231944;-0.08090396;0.012843861;0.09444333;-0.04263022;0.057430837;-0.08236305;0.058754247;-0.19024254;0.00409186;-0.088772245;0.026428819;-0.014485478;0.023722863;0.007954233;-0.07206237;-0.06667128;0.025814107;0.017015513;0.09200652;-0.12704694;0.04177138;-0.119087145;0.003938444;-0.096923746;0.07350996;0.06800423
-0.05650701;-0.00036892729;0.07074497;-0.05532327;-0.0072766053;-0.02751836;-0.01053354;-0.1300858;-0.03652741;0.044292033;0.0059864125;0.028301409;0.046493676;-0.089948036;-0.0026986003;-0.017886126;-0.039243303;-0.12462515;-0.02879096;0.035746083;0.090839714;-0.12029405;0.0032553347;-0.010789701;-0.07876501;0.016275331;-0.044250276;0.024678243;-0.08796758;-0.032606956;0.026331792;0.12513751;0.0005357227;-0.09758521;-0.09554533;0.008545268;-0.09825528;-0.057858586;-0.13257357;-0.0062959194;-0.056881487;-0.18225206;-0.085568406;0.050602242;-0.16527477;-0.024977328;-0.069449276;-0.017949913;-0.07148114;-0.087971166;-0.0385673;-0.04135225;-0.0023348352;-0.02262732;-0.0479791;0.020543396;0.053708922;-0.05089996;-0.01986164;-0.031377375;-0.07344755;-0.20273836;0.06143296;-0.08330489;-0.03297991;-0.23091912;-0.06704971;-0.12939657;-0.06760979;-0.028472522;-0.083380796;0.031279657;-0.02964969;-0.07661264;-0.07274415;-0.042062946;-0.07544712;-0.014252592;0.11607188;0.07373292;-0.06491236;0.054954;0.052579686;-0.005901575;0.055803254;-0.01544531;-0.117077716;-0.17422456;-0.052022744;-0.072092526;-0.06954738;-0.13849555;-0.06555859;0.11478915;-0.09877966;-0.076577775;-0.11059318;-0.06900346;-0.1255358;0.060081623;0.024450002;-0.042206336;-0.050055794;-0.016325766;0.012094609;0.003257824;-0.0720477;-0.002755967;-0.04361731;0.023741525;-0.12529022;0.008949411;-0.01724095;0.08036057;-0.068696246;0.039548993;-0.082636304;-0.10051325;-0.1255852;0.027601123;0.03495836;-0.060796954;-0.03496795;-0.052709784;-0.040119994;-0.076213166;0.038275305;-0.093183145;0.016093815;0.015823264;-0.006552639;-0.07096763;-0.042473953;-0.08215007;-0.13065882;0.00066629366;-0.102616385;0.09452871;-0.1030097;-0.18055035;0.04382594;0.14380194;0.02283764;-0.017818272;-0.09580901;-0.0400222;0.055841867;-0.0693231;-0.12411257;0.03147623;-0.025041698;0.004028535;0.0064965463;0.001491406;-0.0946434;-0.20260988;-0.16318925;0.08726475;-0.00031348344;-0.024497667;0.054719467;-0.10812998;-0.033480674;-0.02130118;-0.07340506;-0.11530679;-0.0030081554;-0.08030038;-0.034764424;0.01589645;0.009165229;0.034571186;0.029324492;0.050569125;-0.04508997;-0.053489145;0.08475291;0.110024095;0.015244258;-0.055948593;-0.004249458;-0.03877235;0.049128424;-0.05867198;-0.05120009;-0.12480782;0.00045324245;0.02997091;0.0043071667;0.012128529;-0.031901065;-0.052528493;-0.023747252;-0.021505054;0.01100748;-0.059484214;0.05032561;-0.06035322;0.042482946;0.09925821;-0.05848894;0.056000352;-0.051283315;-0.08993721;-0.104221456;0.013348168;-0.049294833;0.21399468;0.00810687;-0.116583765;-0.025959227;-0.0021653147;-0.0908733;-0.01660772;-0.09317386;-0.035214297;-0.07209079;0.0021059238;-0.011639655;-0.11153742;-0.04414914;-0.10864796;0.024592701;-0.021547887;-0.10549627;-0.09578253;0.05301394;0.07135637;-0.03722921;-0.09432741;-0.0975878;-0.010528826;-0.06109081;-0.061919358;-0.020291815;-0.05811663;0.06367119;-0.00027569788;0.070002794;0.004238752;-0.08216901;-0.009992299;-0.101529434;-0.12028719;-0.04243586;0.024893431;-0.12048548;0.041235954;-0.010273758;0.017637838;-0.16446936;0.014466528;0.085778214;-0.021283375;-0.12364681;0.004946115;0.0071458006;-0.009001979;-0.042815126;-0.0348195;0.0035221544;-0.13977623;-0.026271516;0.00039883118;-0.06931874;-0.020285496;0.065209776;-0.107995175;0.026013084;0.026118122;-0.01964613;-0.017423527;-0.031185606;-0.05661777;0.0036058875;-0.13008562;-0.07934493;-0.08513899;-0.058192976;-0.027040955;0.04328258;-0.16799186;-0.055243697;-0.06992908;-0.07042388;-0.056531925;0.033994295;0.039608754;-0.04713817;-0.09699731;-0.013172266;-0.14735436;-0.055285953;-0.03388237;-0.04285423;0.011770222;0.013684472;-0.0030316673;-0.18798597;-0.009004154;0.035228245;-0.10838437;-0.010869762;0.053441215;-0.1676677;0.0129417125;0.09684137;-0.1179831;0.06426391;0.033982806;-0.07493225;-0.09180878;-0.08382046;-0.09505624;-0.021568703;0.025816413;-0.04064239;-0.07139432;-0.10336928;-0.021536905;-0.050183777;-0.0012001044;-0.0642854;0.01799232;-0.16545762;-0.03020578;-0.008954198;0.0007096296;0.0069984994;-0.03688284;0.09334535;-0.039541967;-0.09246053;0.04016831;0.028158484;-0.02720649;0.031207528;-0.08663114;0.016672462;-0.08028591;-0.049801096;-0.050118607;-0.04174823;-0.041292988;0.0908929;-0.06478763;-0.08733469;0.051628444;-0.016646901;-0.025756663;0.06926217;-0.10195877;-0.06488459;0.027693706;-0.059488967;-0.06897276;0.12062054;0.036990896;-0.060108308;0.0009879728;0.009116966;-0.04068737;0.08900641;0.033111267;0.00802301;-0.09336228;0.008822018;-0.14048637;-0.00432294;0.012771516;-0.0025822283;-0.07651045;-0.05207026;-0.085163414;-0.00830504;-0.09568858;-0.021221368;-0.06648556;-0.05370925;-0.071128495;-0.010322104;-0.019533943;-0.007385354;-0.031025693;0.15169135;0.014132229;-0.16219261;-0.040101778;-0.04509214;-0.011009217;-0.09933505;-0.034079425;-0.00067035377;-0.044020988;-0.046486374;-0.03784391;0.05526522;-0.07274716;-0.02595358;0.029073242;-0.09178159;-0.07457702;-0.02380423;0.062179152;0.006537072;0.066847354;-0.03822119;-0.22209236;-0.027498784;-0.123074464;0.025282715;-0.020164225;-0.11271809;-0.053471316;-0.02266897;0.05140657;-0.009896639;-0.06797864;0.024083635;-0.14938886;-0.029114889;-0.013277033;0.048280615;0.0113858795;-0.115618214;-0.033750135;-0.012619725;-0.07881522;0.09034871;-0.030228877;-0.13070275;-0.046175618;-0.040438946;-0.01297566;-0.07149325;-0.060850438;0.0027408642;0.04440547;-0.12964238;0.037299123;0.0061601526;0.026089173;0.014539716;0.016188433;0.0064035538;0.008045662;0.07090925;-0.0496436;-0.059948303;-0.03077605;0.03569118;0.015567823;-0.08709911;-0.07953272;-0.078398205;-0.019004416;0.021841165;0.078524746;-0.070270486;-0.1181472;0.042017013;-0.04651965;-0.020108419;0.044175386;-0.08279993;0.0034247986;0.02344651;-0.012923738;-0.10129826;-0.044630725;-0.08321032;-0.14606716;-0.10875598;-0.002449337;-0.04690232;-0.09948227;-0.066769026;-0.054552432;0.060888283;-0.05100997;-0.0641426;0.032593854;-0.025262048;0.03959149;0.0066666245;-0.087157376;0.02876719;-0.022445114;-0.083357744;0.022772938;-0.044400435;0.010440164;0.013169236;0.091475755;-0.009083711;-0.054293063;-0.13032055;-0.011015041;-0.13613844;0.071831144;0.04846956;-0.118074045;-0.058520842;0.008656962;-0.1165961;-0.10556507;0.047577865;-0.083510235;-0.017191336;-0.16750397;-0.13482946;-0.0613866;-0.062968045;0.0043766825;0.03285271;-0.08656426;-0.0036261117;-0.06489152;0.04133158;-0.0556192;-0.15047316;-0.04052965;0.04818462;-0.027162168;0.037015308;-0.04820034;-0.113597065;-0.06934732;-0.06942156;-0.011799898;-0.06329231;-0.07021493;-0.07806018;0.046669647;-0.11591141;-0.039986562;-0.09505792;-0.095831685;0.019028103;-0.094592534;-0.06118117;0.02325804;-0.09062088;0.01836946;-0.06847671;-0.12365995;-0.0046617514;-0.054392274;-0.0015525866;-0.013526648;-0.14602064;-0.021905893;0.10183758;0.0117382575;-0.022527179;0.017344398;0.048480704;-0.20246173;-0.0013963116;-0.004656047;-0.073385574;-0.055635694;-0.04667496;-0.07094065;-0.0032642237;0.0012197641;0.11126194;-0.061587233;0.00050707575;-0.17121783;-0.10337431;-0.08137218;-0.00040039147;-0.05350216;0.05118953;-0.032858275
0.018089658;-0.012804321;0.04078664;-0.08854334;-0.1254372;-0.04119877;0.051994704;-0.07944345;0.01117346;0.07180469;-0.0018564509;0.03955352;-0.04549604;0.008248338;-0.029486356;-0.0026079216;-0.072826795;-0.038836468;-0.0855;-0.047546983;0.066953756;-0.10001282;0.019001033;-0.07539925;-0.041048177;0.02846672;-0.045967057;-0.025933137;-0.09265097;0.02705851;-0.005150614;0.082817666;0.0044508474;-0.08174603;-0.013974959;-0.1171319;-0.037771575;-0.105461285;-0.027488181;-0.042435847;-0.08653267;-0.16001621;-0.06726389;0.006630671;-0.23329549;-0.0043718056;-0.028202921;-0.09254447;-0.092497006;-0.07505251;0.0476411;-0.0024339003;-0.029048212;-0.107361674;-0.015382979;-0.038599964;-0.015705667;-0.04640653;-0.015606349;-0.13327686;-0.057146445;-0.049605187;0.06256043;-0.14029847;-0.10734717;-0.23159806;-0.095757425;-0.05322414;-0.07687345;-0.16409437;0.0046890625;-0.05471161;-0.14499068;0.02825484;-0.0011291039;-0.10767889;-0.026654797;-0.047534857;0.0858468;0.058324;0.0278824;-0.032613453;0.065111;-0.08012897;-0.014024839;-0.12183793;-0.01694919;-0.1612798;-0.10526628;0.061916545;-0.013828572;-0.11006705;-0.10661762;0.07354942;-0.078287885;-0.07650307;-0.12133629;-0.0016344334;-0.07853836;-0.049663566;-0.04638228;-0.07149586;0.02292404;0.034930654;-0.01627802;0.078213796;-0.12894188;0.002719345;0.010572062;-0.037046522;-0.1714969;-0.019627135;0.014333676;0.08842972;-0.027743634;-0.070478626;-0.10935085;-0.062120486;-0.0060841213;-0.045687195;-0.07408577;0.024833515;0.010720956;-0.016286112;-0.040507402;-0.057550445;0.06953501;0.024512239;-0.0042666043;-0.02495659;-0.09540925;-0.07773896;-0.03623357;0.033662707;-0.07276744;-0.040845066;-0.14724013;0.17200501;-0.07190951;-0.0020496345;0.000977218;0.17608973;-0.029290048;-0.067504205;-0.027011834;0.011010387;0.06955493;-0.007871546;-0.066088475;-0.0033408038;-0.0019853886;-0.09888868;-0.041924115;0.06122443;-0.07847399;-0.11294367;-0.12720375;0.019612174;0.03524346;-0.08471813;0.020385649;-0.041526012;0.066714704;-0.0021200315;-0.09041284;-0.017463658;-0.10411337;-0.07946199;-0.08117937;-0.056119967;-0.12111829;0.07211419;0.021345712;0.01611734;-0.12340445;-0.003172624;-0.053328466;-0.032503136;0.14961864;-0.06719599;0.027712502;-0.0031171567;-0.06993613;-0.09253904;-0.09564055;-0.022841457;-0.019013796;-0.003153093;0.005481378;-0.018533492;-0.028396063;-0.06905779;-0.08088087;-0.10284562;-0.0035998009;-0.038145352;0.040544152;-0.10988658;-0.02552432;-0.020291016;0.029241074;-0.017604863;0.0612751;-0.057945214;0.007040364;-0.0555033;-0.038226657;0.19844802;0.0077264416;0.020556688;-0.15114339;-0.010504156;-0.07209049;-0.054390255;-0.07729945;0.004877823;-0.08549379;-0.03993594;0.027788216;-0.0062117428;-0.14469245;0.03011081;-0.05696641;-0.077328786;-0.097131066;0.034682915;0.07726285;0.041439112;0.015690133;-0.13425556;0.009173012;0.024251852;0.04280263;-0.0810187;-0.062453564;-0.03898603;0.006371506;-0.115229696;-0.03392652;-0.026633855;-0.12118644;-0.025679788;-0.0045142225;-0.06062198;0.050982982;-0.08341324;-0.114257775;0.02971895;-0.09975687;0.0041977405;-0.03137212;-0.05604533;0.08580197;-0.058553144;-0.056982897;-0.044866886;-0.10374186;-0.07609956;-0.09609493;-0.044321537;-0.040808287;-0.05033319;0.020266533;-0.073008746;-0.01654091;-0.09300301;-0.043659795;-0.088977784;-0.022507844;-0.04754146;-0.07966709;-0.090774454;-0.0052823056;-0.08434436;0.05633668;-0.06663032;0.05376325;-0.0031498915;-0.02443111;-0.053131394;-0.051120244;-0.1110792;-0.0016369271;-0.009937156;0.013685967;0.016875468;-0.08112431;0.025648663;-0.084358595;0.0009441291;-0.011601236;-0.111887835;-0.0627969;0.00085620175;-0.11038336;-8.7682536e-05;-0.049894612;0.06007312;-0.13381317;0.06344256;-0.075151354;-0.09230392;0.022071272;0.0710996;-0.14848104;0.02699247;0.016201874;-0.054412782;0.034193143;-0.006136263;-0.008391635;-0.012065725;-0.09290798;0.033953425;-0.02212974;0.09634506;-0.00021940214;-0.072170064;-0.13666283;-0.1074731;-0.074937925;-0.1255567;-0.013572206;-0.00979905;-0.12835617;0.03273067;0.01238303;-0.051354136;0.021850245;-0.07855406;0.046050884;-0.07697622;0.0022225676;-0.051972102;0.020684797;-0.014974555;0.06398446;-0.016159406;-0.05803173;-0.11790611;-0.028122295;0.004894255;0.031017536;0.014791318;0.021746317;-0.05869738;0.043679312;-0.064032815;-0.05119054;-0.117529444;-0.03886695;-0.02347713;-0.025777018;-0.0051444056;-0.079933494;-0.022104014;0.171229;0.003184081;-0.097784586;-0.072862744;-0.0020924122;-0.10504685;0.13226543;-0.034172535;0.006820387;-0.030480633;0.0032263736;-0.081709735;-0.09313618;-0.10026412;-0.073037855;-0.081729956;-0.04600125;-0.07357698;0.06043946;-0.033460736;0.043507844;-0.09096364;-0.046973754;-0.02658118;-0.028471436;-0.065438844;-0.0608903;-0.009623263;0.033078093;0.027085593;-0.03296804;-0.10418302;-0.03178314;-0.045201067;0.048698634;-0.007261972;-0.06311223;-0.009389817;-0.022772243;-0.025825996;-0.078718856;-0.027299436;-0.015471273;-0.09315152;-0.046547264;0.00072390825;-0.09191488;-0.030939957;-0.017043008;-0.06744775;-0.01719499;-0.11142884;0.07908784;0.010459872;-0.1277263;-0.065977775;-0.020627543;0.007121922;0.065312944;0.08307826;-0.14364035;-0.03421064;-0.041041154;-0.08342021;0.050584905;0.052361377;-0.017072704;0.06381791;-0.0976728;-0.06536918;-0.10191787;-0.055015102;0.056586817;0.06008411;-0.09218641;0.037582293;-0.05725753;0.04984094;-0.051459897;-0.116059266;-0.12606348;0.021942278;0.020317985;0.05828903;-0.1302717;0.044980805;-0.09104214;-0.0011141342;-0.06820809;-0.05731428;0.08856663;-0.103079356;-0.11676051;-0.004319969;-0.03856845;-0.0071705817;-0.0062028584;-0.099786475;-0.010644904;-0.10192248;-0.054572534;-0.055846043;-0.010777483;-0.11392768;-0.096067145;-0.039376102;-0.020777889;-0.0033234586;-0.02652038;-0.025369177;-0.061552897;-0.1191231;-0.051730227;-0.020200672;-0.15897866;-0.165423;-0.017611118;0.00069802493;0.00037685016;0.039534114;-0.060835607;-0.04986648;-0.09756941;0.033061597;0.0024879922;-0.08918307;-0.037478846;-0.08270549;-0.063292705;-0.05958582;-0.107696734;0.038291268;-0.089059755;-0.03845287;-0.00043724861;0.08402779;0.057930965;0.052294485;-0.09783851;-0.078347415;-0.035848513;0.02302744;-0.10597977;-0.0021848183;0.039596748;-0.09836325;-0.07620466;-0.04087681;-0.08582264;-0.005753106;-0.046119157;0.051564917;0.0041176747;0.0010605315;-0.10716064;-0.08743634;-0.12780872;0.043229204;0.00063834357;-0.02779824;0.050218992;-0.067011245;0.06310372;-0.043288752;-0.089497015;-0.05889606;-0.11060399;-0.08388607;-0.015027252;-0.077381976;-0.11556019;-0.07496934;0.053898316;-0.009481009;0.03830452;-0.13177393;-0.10603656;0.050411306;0.019032283;-0.032598373;-0.11450545;-0.099562965;-0.11292743;-0.13217671;-0.09422309;0.012828082;-0.043448567;-0.047771182;-0.116314545;-0.047356214;-0.11519639;-0.051724944;0.018746125;-0.09040424;-0.042093385;0.038761884;0.13795446;-0.063264556;0.029176887;-0.008566386;0.071626425;-0.11601464;-0.021663519;-0.08160089;-0.025034811;-0.049271986;0.015312035;0.038516592;-0.096727304;0.024195338;-0.004486252;-0.003609061;0.031792603;-0.1312366;-0.020257983;-0.122519195;0.009406306;-0.059794903;-0.038277972;0.057323046
-0.109975785;-0.0065911883;0.06287767;-0.029155321;-0.069050714;0.056183923;0.07343785;-0.011958489;-0.1213646;0.06415638;-0.08306432;-0.11047853;0.034971163;-0.07542316;0.0151915625;-0.057435535;0.055773087;-0.035446394;-0.08491064;0.027945537;-0.02120537;-0.109779336;0.03585286;-0.013671031;0.019915799;-0.08283986;-0.053926498;-0.06681989;-0.06945853;-0.035315268;0.04220792;0.029314054;-0.019738548;-0.06497166;-0.06450307;-0.10816669;-0.09568014;-0.10286875;-0.032591555;0.032904863;-0.0321279;-0.10897087;0.01148421;-0.11009268;-0.13119021;-0.024640104;-0.10461723;-0.018273667;-0.026855318;-0.028773988;-0.08298632;-0.046548054;-0.044062115;-0.12083128;-0.120974876;-0.11488904;0.018825287;-0.042817272;0.024279742;-0.054745246;-0.09511343;-0.13846818;-0.027554981;-0.17440765;-0.04485902;-0.15341365;0.048755657;-0.009855651;0.07318218;-0.05324297;-0.013583072;-0.12558416;-0.0059245536;-0.00036797728;-0.09592355;-0.0009917453;-0.09838561;0.008683489;0.12296147;0.090604745;-0.0023203706;-0.06121618;0.09785374;-0.0052240747;-0.028088784;-0.03905566;-0.07990304;-0.1631379;-0.08586955;-0.037557602;-0.08112031;-0.05906589;-0.030670736;0.048817005;-0.13186501;-0.12310094;-0.08669531;-0.0019616066;-0.11207342;0.014108921;0.0014181602;-0.06084435;0.049410094;-0.054110784;0.052987866;0.032214954;-0.097269565;-0.0338711;0.03484892;-0.008151727;-0.16671155;-0.068288624;-0.06675445;-0.0040853857;-0.053138766;-0.075934656;-0.011681758;-0.09154021;-0.08937391;0.017384376;-0.081608765;-0.0805721;-0.010010565;0.008542976;0.006255028;0.0059618987;0.011477292;-0.09091559;-0.013422263;0.0061919186;0.02168404;-0.09059309;-0.027698196;0.018134948;-0.14035483;-0.09764024;-0.04973584;0.15479231;0.0038256221;-0.06100079;0.047450036;0.1474273;0.08106324;0.0011282627;0.020937474;-0.084644474;-0.0035348898;-0.076051906;-0.07161759;-0.008770325;-0.028764853;0.008423262;-0.09157748;0.020054244;-0.09959678;-0.10062611;-0.07694818;0.11294731;0.06375201;-0.08442144;0.077516556;-0.08269394;-0.04513109;0.00976253;-0.11683571;0.019702833;-0.045267247;-0.08027499;-0.067765884;-0.068046525;-0.10275326;0.0686528;0.01527462;0.08297618;-0.031579927;-0.09000391;0.028696083;-0.04265826;0.05284977;0.022767458;-0.00881552;-0.05396583;-0.08653228;-0.07282118;-0.09490183;0.01522137;-0.031979945;0.021111816;0.042604692;-0.08888088;-0.045425706;-0.08066823;0.06936661;-0.035791494;-0.064982876;-0.017089412;0.038935356;-0.02929105;-0.07748222;-0.014550492;-0.088713765;0.048343122;-0.053769197;-0.10710163;-0.008005319;-0.055784144;-0.03524532;0.21603954;0.026856154;-0.10255341;-0.14965573;0.049193513;-0.017917687;-0.0805346;-0.112183;-0.064413115;0.021532862;0.01197669;-0.097950734;-0.11650452;-0.047431134;0.0007634032;-0.04435494;0.014180012;-0.049688153;-0.03901753;0.06875556;0.083721265;-0.086043745;-0.013439623;-0.017106066;-0.07372391;0.018311445;-0.04783604;0.03276532;-0.022661302;-0.043820363;0.04772019;-0.08077918;-0.09613134;-0.12756814;-0.10652084;-0.07474274;0.008898505;-0.03421297;0.034120664;-0.13420507;-0.019030439;-0.050932;0.05089309;-0.0441723;-0.13143325;0.08059852;-0.04647532;-0.0973347;0.024815245;-0.06330543;0.030978557;-0.06204065;-0.024725929;-0.01675961;-0.062091563;-0.009018981;0.017657679;-0.08378869;-0.11150002;-0.045919888;-0.011444084;0.13605665;0.04955827;-0.07866599;0.029442228;0.015985647;-0.036675345;0.016632905;-0.10558092;-0.019877942;-0.08607283;0.034722563;-0.021764878;-0.07236828;-0.10728446;-0.013629467;-0.011286552;0.02637046;-0.076334916;-0.008959046;-0.09390009;-0.18106863;-0.07210681;0.053740658;-0.19351286;0.030081829;-0.012251636;-0.0989101;-0.10471537;-0.0442156;0.020186616;-0.23909418;-0.04093429;-0.08932973;-0.13131028;-0.031675264;-0.072623715;-0.079201855;-0.044627603;-0.0437372;-0.04599328;0.014285906;0.00043576688;-0.08214287;-0.10559255;-0.11181028;0.00081824226;0.0080607515;0.02522542;-0.08878563;-0.038851317;-0.041212484;-0.073893815;-0.10005288;-0.13853182;-0.10314001;0.047789477;-0.04204831;0.035091378;0.011162867;-0.05143587;0.023075055;-0.048843592;-0.032580834;-0.038025;-0.058362093;0.062459853;-0.04807723;-0.032770578;0.070970446;-0.032493412;-0.009220321;-0.053628787;-0.06351066;-0.055491205;0.045317415;0.022924641;0.14885019;-0.012286141;-0.05370499;0.004906275;-0.073944256;-0.15110743;0.06245379;-0.0494508;-0.12078183;-0.046286695;-0.035360366;-0.023880424;0.18866092;0.063451536;-0.009957798;-0.0019305141;-0.05146403;-0.045124434;0.040948443;-0.04031974;0.029744454;-0.094908714;0.037041754;-0.056856185;0.0351778;-0.082811646;-0.062404975;-0.055401653;-0.13035095;-0.025297388;-0.011491863;-0.060742255;-0.08859418;0.042005636;-0.08343862;-0.050724544;-0.073507115;-0.07658038;-0.09061874;-0.032786787;0.029336223;0.051927242;-0.045957036;-0.17271213;-0.027969535;0.050803166;-0.1159147;-0.0910087;-0.051252592;0.043100774;0.010794263;-0.066009186;0.0725421;-0.13947009;-0.043330807;0.047226705;-0.08468582;-0.095594786;-0.10738211;-0.016420286;-0.059487913;-0.019985065;-0.03948783;-0.20572788;0.066887654;-0.07226218;-0.069576316;0.025223352;-0.12329911;-0.01051724;0.08389671;0.071212254;-0.067064114;-0.066798136;0.09716236;-0.08814313;0.033363316;-0.030264726;-0.093780376;-0.0271835;-0.029770153;-0.031984884;-0.09827391;-0.15841666;0.041565374;0.053467993;-0.035404332;0.05999017;-0.108157486;0.055257794;-0.1775185;-0.12983572;-0.035946533;0.01015376;-0.06684284;0.083650514;-0.09060978;0.08059072;-0.0028104978;0.05495608;0.07419415;0.07438754;0.10441858;-0.12656753;-0.014746058;-0.06940552;-0.093389824;-0.01656123;-0.007712835;0.016354412;0.015532436;-0.061451294;0.031309474;0.017052133;0.051794723;-0.05664862;-0.064499795;-0.03857292;-0.049129225;-0.019910809;0.00095646566;0.04246692;-0.105478756;-0.08133357;-0.21733016;-0.10429335;-0.1191248;-0.029599987;-0.058545426;-0.104677066;0.0041569546;-0.042211033;-0.045468245;-0.061190102;-0.028623402;-0.05354848;-0.00036474434;-0.104548715;-0.066961065;0.023148168;0.06374482;-0.07836346;-0.11524406;-0.113320045;-0.042670015;0.026100734;-0.08442614;0.09137925;-0.037448943;0.0022492856;-0.03764527;-0.023608318;0.03408215;0.01573559;-0.112198345;0.114259616;-0.04046383;-0.09363493;0.012366336;-0.06366853;0.035410598;0.0304747;0.018484091;-0.08807446;-0.090871334;-0.01387077;-0.045602545;-0.045575965;-0.044962224;0.061258595;0.048841767;-0.09993469;-0.049174715;-0.033563245;0.18005922;-0.03508329;-0.10156313;-0.06715798;-0.115866475;0.020076474;0.033994384;-0.0008500412;-0.06668004;-0.034887772;0.05101996;-0.04426534;0.0067753117;-0.07939191;-0.05449517;0.02994092;-0.066264376;-0.08699952;-0.06506715;-0.026620999;0.02420792;-0.12826075;-0.03465928;0.029309725;-0.09083899;0.004461322;-0.018462544;-0.024495043;-0.0045513017;-0.034596365;-0.059203986;-0.10577751;0.00383909;-0.038522508;0.051886406;-0.03344087;-0.052944418;-0.055775948;-0.028226428;-0.19106555;0.029238567;-0.053569805;-0.101345204;-0.051320896;0.042119734;0.043731593;0.019750169;-0.07291226;0.04472634;-0.088383846;0.06473539;-0.089090526;-0.0616452;-0.059811737;-0.036795408;0.028054003;0.11345562;-0.036301382
-0.12693676;0.038768325;0.006948546;0.06764116;-0.13644148;0.06668801;0.09458129;0.0026677914;-0.12642622;0.08974544;0.033374537;-0.060049206;-0.057406526;-0.052848723;-0.016783023;0.009833388;0.062223807;-0.1630521;0.03272087;0.0051779225;-0.02027719;-0.04130123;-0.061468918;0.051735077;-0.02343692;-0.14947714;-0.071175575;-0.034458105;-0.13626687;-0.063549854;0.03764286;0.101697095;-0.06700036;0.040390097;-0.14264765;-0.02258067;0.0514748;-0.061609343;-0.079394005;-0.11952827;-0.07510386;-0.028058954;-0.09394322;-0.024063995;-0.18168366;-0.066549815;-0.030001324;-0.10421324;0.035995007;0.06763501;-0.015106812;0.021867799;-0.06779461;0.037175324;-0.04558352;-0.012724499;0.00010195121;-0.045384098;-0.007827138;-0.08060706;-0.022247912;-0.056105323;0.12712196;-0.10945196;-0.048788663;-0.20205227;-0.038833704;-0.052432552;0.04474404;-0.08381699;0.055733856;0.009453936;-0.092959456;0.04783547;0.021670299;-0.045970086;-0.033372886;0.06355959;0.065046094;0.14247619;-0.15661998;0.0366521;-0.007002165;-0.011878776;0.046925116;-0.01363931;-0.026395965;-0.072451055;-0.041395366;0.07729063;-0.04168151;-0.09481062;0.058849137;0.035918757;-0.104524806;-0.05306281;-0.085636884;0.030943183;-0.13663188;-0.0052581206;-0.060157914;-0.012523705;-0.057497323;0.019440584;0.011082615;0.021285849;-0.13260816;0.059464782;-0.011500122;-0.03350793;-0.18155363;-0.03232537;-0.049991958;0.10783183;-0.0217785;0.037460838;0.018746752;0.007674216;-0.04136252;-0.09102191;-0.04889444;0.017718753;-0.06626523;-0.1179837;-0.06971085;-0.058536537;0.052563135;-0.033174776;0.06525173;-0.04442021;-0.008158989;-0.013188717;-0.038505927;-0.015499361;-0.19516559;0.041149747;-0.07810703;0.19767633;-0.13632049;0.0029005616;-0.07302509;0.14672256;0.064926185;0.042455986;-0.040273406;-0.06277473;-0.043312978;0.0077315373;-0.124974184;0.015620939;0.01312683;-0.110688046;0.053963937;-0.04582245;-0.030500539;-0.19336934;-0.05544831;0.11863252;0.009987684;-0.031770695;-0.023769313;-0.043700106;-0.045205213;0.080029555;-0.0017845131;-0.0918717;0.015108885;-0.07931879;-0.095248766;-0.043644037;-0.07399093;0.03764511;-0.09117845;0.111033626;-0.10805208;0.01586779;-0.06275351;0.06255466;0.12865958;0.024814859;-0.13755204;-0.016128229;-0.061015278;-0.027805332;-0.10643739;-0.056402918;-0.0646232;0.032340232;-0.014766943;0.00541494;0.041704636;0.01786086;0.003614026;-0.07129175;-0.064954214;0.051949322;0.03960163;-0.02348867;-0.0049197595;0.048653774;-0.010237742;0.050298154;-0.0045513804;-0.05318614;-0.019902326;-0.07300159;-0.12103409;0.18307881;0.050812192;0.016404767;-0.12660192;0.014605551;-0.043236334;0.0028965787;0.00511235;0.017830146;-0.07850042;-0.029361866;-0.10402343;-0.046644796;-0.11262753;-0.072209775;-0.040531605;-0.10568836;0.045194842;-0.09671325;-0.0022434639;0.04056668;0.046796884;-0.020256147;0.006825267;-0.033408172;0.050409038;-0.110457465;0.0058027245;-0.12054003;0.0317485;0.037564315;0.082713045;-0.020748125;-0.016313778;-0.10621654;-0.13166885;0.01746603;0.02469106;-0.02312613;-0.079848535;0.016082931;-0.017845364;-0.031341452;-0.05329028;-0.08599125;0.0017116267;-0.04667836;-0.14097422;-0.08881035;0.0013830924;0.027173657;-0.17993157;-0.050963573;0.03012152;-0.038477276;0.028540662;-0.0071487515;0.028262172;-0.0761137;0.026121318;-0.06716034;0.15450163;-0.12712295;-0.04685371;0.045917455;0.007873481;0.034731522;0.03621764;-0.13470036;0.0059748725;-0.071507975;-0.048909526;0.03253982;-0.029865615;-0.1573174;-0.09822479;-0.05694405;-0.0027295926;0.038291905;0.02892588;-0.010267581;-0.09581833;-0.06654912;0.024309136;-0.15825638;-0.07955243;0.033487704;-0.0732687;-0.04222045;-0.06857353;0.026548743;-0.13105653;0.01643331;-0.053486675;-0.014232171;-0.079240285;0.033259947;-0.14360777;0.07840039;0.08966165;-0.0096147945;0.067847185;-0.088153675;-0.07537105;-0.015395454;0.00846759;-0.03334804;-0.121606514;0.027335186;-0.061014406;-0.080248065;-0.13993731;0.010393097;-0.036194265;-0.0667061;-0.04746601;-0.06800533;-0.076927304;0.034133613;-0.07639662;0.01857947;-0.09350394;0.0021424226;-0.066979125;-0.13366744;-0.029701415;0.0290055;0.026992118;-0.045245275;-0.075222634;0.039896853;0.033595946;-0.09658844;-0.13961126;-0.021102611;-0.089304045;-0.0005365325;0.03826287;-0.086803146;0.021657223;-0.0116813;-0.017194042;-0.13170122;-0.0150844855;-0.095841594;-0.048421178;0.069332495;-0.07437455;-0.096469544;0.0749161;-0.042015914;-0.026854422;0.02219222;-0.086130284;-0.09713101;0.1596629;-0.09341333;-0.04222859;-0.045978233;-0.03424897;-0.11823322;0.0015946426;-0.0009469399;-0.039226312;-0.07676955;-0.08200441;-0.0414441;0.021912465;-0.04486168;-0.048808716;-0.029649261;0.009242054;-0.057330403;-0.07836069;-0.011414944;-0.08265991;-0.08332853;0.080645286;-0.03811378;-0.05278033;-0.1444574;0.026158025;-0.060039487;0.037186135;0.029757353;-0.025916426;-0.020927252;-0.049019314;-0.017746422;-0.06905955;0.018431365;-0.053865544;0.0010834344;-0.057492618;0.0111940475;0.03580072;0.12941648;-0.019556865;-9.20801e-05;-0.032161728;-0.09400369;-0.027339455;-0.069150895;0.007442263;0.021611731;-0.02416568;-0.105072685;-0.03406544;-0.018478844;-0.13544114;0.013782167;0.06744922;-0.13780382;0.04847639;-0.056730997;-0.059294067;0.013604779;-0.027352907;-0.08996464;-0.023187673;-0.08087944;-0.0045929;-0.07053195;-0.1488654;-0.04229451;0.014752851;0.024296673;-0.15640987;-0.05449923;-0.015111939;0.051226478;-0.0018211114;-0.02616606;0.010151684;-0.042202935;-0.041504364;0.016598515;-0.08393031;-0.051499613;0.07564837;-0.042222105;-0.017903823;0.007232095;-0.012421666;-0.075182736;0.018985732;-0.10208933;-0.11843372;0.049979784;0.027993595;0.008845144;-0.0386799;-0.13191094;-0.08603702;-0.13322137;0.03510339;-0.04365233;-0.09395175;-0.05517914;0.029195094;-0.07039376;-0.15136336;-0.044646263;-0.08907085;-0.12052918;-0.054774843;-0.1104413;0.00012890306;-0.08947108;-0.016403878;-0.053879227;0.061784696;-0.0035014662;0.024133261;0.031468347;0.032849036;0.035927918;-0.014074915;-0.00077737507;-0.12904277;-0.122111276;-0.06750541;-0.070162855;0.041777782;0.009034132;-0.05774773;-0.04057708;0.025585758;-0.1177881;-0.08114383;-0.017536353;0.020372583;-0.011370946;-0.032361574;-0.0039627342;-0.0006241193;0.018932156;-0.08370154;-0.02030586;0.04951666;0.05254932;-0.14163478;-0.082736954;-0.030541254;0.0072396547;-0.13918377;-0.03491504;0.056270033;-0.006759424;0.04195693;-0.1644412;0.20166104;-0.09878578;-0.18644606;-0.053921353;-0.10710112;-0.04095839;0.070782036;0.021174528;-0.031819932;0.07391026;0.03645867;-0.050000496;0.053199336;-0.103583895;-0.004938908;0.055164386;-0.058922723;-0.04808345;0.01904251;-0.1438637;-0.0045737256;-0.039621994;-0.007105383;0.013803083;-0.07203301;0.06779439;-0.11215585;-0.025238365;-0.042976562;-0.026320804;0.02459945;-0.12903905;-0.04245764;0.015588976;0.05460614;-0.09794306;-0.019759478;-0.0786268;-0.027256332;-0.12245097;-0.0986933;0.014973541;-0.0055020787;-0.009791747;-0.019877842;0.021468604;-0.111340776;-0.11925316;-0.011393282;-0.04148192;-0.058407813;-0.020981947;-0.06300483;-0.16354631;-0.08547783;0.016076365;-0.0023026988;0.040028907
-0.05215865;0.042095255;-0.019246716;0.02006942;-0.14716692;-0.076074265;0.068495736;-0.032638952;-0.030495279;-0.011245393;-0.04509961;-0.05922247;0.033628833;0.043402236;-0.081737556;-0.059233893;-0.01748921;-0.1344753;0.0041458756;-0.04477469;-0.06343999;-0.13978675;-0.09205243;-0.061815754;0.031207174;-0.10320025;-0.050708074;-0.1231175;-0.043214068;0.003036139;0.03726929;-0.022415858;0.006696078;-0.006690949;-0.07702668;-0.072808824;-0.024271406;-0.019028647;-0.15963636;0.015322124;-0.052928124;-0.05902088;0.034866847;-0.10209358;-0.16244686;-0.0636496;-0.046549812;-0.041801915;0.00031408202;-0.024483887;-0.068232596;0.0639919;0.030740261;-0.12593748;-0.11543271;-0.031463645;0.009835896;0.050666522;0.034576837;0.0028907903;-0.07720155;-0.13456465;-0.027302941;-0.18900378;-0.029880673;-0.07681606;0.0021687157;-0.07362945;0.068557404;-0.15473993;0.020482527;-0.009194901;-0.12413093;0.011519449;-0.082717635;-0.05324919;-0.004187825;0.010014692;0.18344946;0.09544971;-0.018228095;-0.043284826;0.12462694;-0.087473355;-0.055353753;-0.029736267;-0.010955923;-0.10000432;-0.031737503;-0.006459173;-0.0553232;0.0028560022;0.019288654;0.071791895;0.009565401;-0.14596198;-0.024445266;-0.06809482;-0.15281686;-0.04819848;-0.059218824;-0.0014943162;-0.077801004;0.037043624;-0.058597878;-0.07256135;-0.1265342;0.05579933;0.07476368;-0.10194389;-0.080815844;0.0005567313;0.022915775;0.06000247;-0.025881376;-0.092743635;-0.043011703;0.0018480842;-0.060388286;-0.024021927;0.03134801;-0.008275598;0.0147621;-0.022378417;-0.058128394;-0.093548685;0.09377012;-0.032830328;-0.09029436;0.0039466326;-0.074744046;0.011784912;-0.085154906;-0.04354257;-0.06935795;-0.09037204;0.023012955;0.12558064;-0.12308448;-0.14598721;0.024893861;0.09896914;0.05178585;-0.070265025;-0.07087294;0.0015912772;-0.07573671;-0.033208564;0.00698193;0.04991723;-0.06500426;-0.018566754;-0.107352376;-0.0080553405;0.05271372;-0.13262439;-0.08885269;0.073847696;-0.039649617;-0.13642798;-0.04515451;-0.092864804;-0.063562565;-0.016336165;-0.009217694;-0.07906179;-0.004865025;0.03226949;-0.12860435;-0.010459044;-0.048884694;0.026480127;-0.010372402;0.08312003;-0.033029728;-0.067087054;0.03525372;0.100088;0.12626962;0.04912922;-0.022661585;-0.018882064;0.048998706;0.016157819;-0.063234344;-0.08439783;0.024932703;-0.013994251;-0.03124694;0.048969407;0.019584531;0.046486698;-0.05848268;-0.06315914;0.017412268;-0.0062051415;-0.06957846;-0.07218832;-0.0045614573;0.052549183;0.05860098;0.020007122;0.038755324;-0.06532926;-0.042558055;-0.053571444;-0.058703326;0.15987743;0.03485678;0.028954966;-0.07147056;0.03489526;-0.13905531;0.018400306;-0.115996085;0.032340705;0.056125276;-0.08596098;-0.03673882;-0.07189104;-0.054688554;-0.07762905;-0.06289137;-0.08696521;0.0035710617;0.027542148;0.003949241;0.050215155;-0.056648273;-0.093754336;0.00742466;-0.044296566;-0.053058255;-0.06055774;0.022880636;0.009869394;0.050434366;0.044899732;0.031571478;-0.07932789;-0.12111121;-0.009051104;-0.03940859;0.025823569;0.035325162;-0.04033806;-0.018915689;-0.04631028;-0.037242744;-0.021256095;-0.14887269;-0.12695032;0.124800816;0.047054127;-0.10790631;0.045722164;-0.054255795;-0.07446157;-0.0557227;-0.04728657;0.07471049;-0.10191297;-0.06540728;-0.10337302;0.05172967;-0.007354236;-0.008266186;-0.11033364;-0.00095345674;0.010473435;-0.10501714;0.06120332;0.038579132;-0.10321077;0.1084532;0.01149469;-0.037173744;0.06146815;0.030680358;-0.02819607;-0.054091047;-0.062259477;-0.011113663;0.023744866;0.04234062;-0.0151221575;0.012442305;-0.10661186;-0.119086295;0.047594976;-0.08032597;-0.1325329;-0.021412056;0.032156948;-0.041777905;-0.08497437;0.013980775;-0.024733169;-0.24447994;0.07420849;0.06789552;0.0039291712;0.038054384;-0.01826083;-0.13125768;0.055612452;-0.063721195;-0.13319503;0.024493169;0.009567129;-0.06490392;-0.07399526;-0.110354014;-0.020265728;-0.09806331;0.15033694;-0.04605545;0.054967556;-0.037257317;-0.01690632;-0.10774163;-0.042392556;-0.035824385;-0.08303843;-0.07142023;-0.045908168;0.031441998;-0.075861275;-0.03485537;0.012302784;0.075005576;-0.1433416;-0.037380032;0.04857149;0.0521235;-0.06648329;-0.06842779;0.06693088;-0.01582273;-0.11226875;-0.0483191;-0.064356744;-0.072053276;-0.046915278;0.089772634;-0.08019007;0.052191988;-0.060362577;-0.056299184;-0.065486014;-0.024435094;-0.02537254;-0.027487753;-0.045643307;-0.046397492;0.054751012;0.13302414;0.02497814;-0.12234522;0.04180291;-0.05829019;-0.0960607;0.16524704;-0.06287001;-0.007152531;0.03948278;-0.063675694;-0.017049896;0.058555365;0.030793888;0.011119155;-0.026663499;-0.123011835;-0.05709325;0.021282457;-0.0026058047;-0.082295015;-0.030577617;-0.018245555;-0.0014127706;-0.020143094;-0.07592134;-0.07067319;-0.015453104;0.025077388;-0.0877532;-0.15150505;-0.08017174;0.02146122;0.020137955;-0.053344212;-0.02221578;-0.08687114;-0.032270573;0.03541887;0.023498144;-0.086067736;-0.06554013;0.019640146;0.06381513;-0.06631359;-0.039753206;-0.055889554;0.11771322;-0.027382232;-0.06930826;-0.07469724;-0.08840762;-0.023913324;-0.08172185;-0.10104571;-0.03354017;0.020546298;-0.11502691;-0.053137235;0.067305975;-0.1398867;-0.005837046;0.09493663;-0.110306874;-0.04763741;0.0328935;-0.0824784;-0.07609576;0.005766661;-0.07969989;-0.0012774415;-0.034908917;0.07729884;-0.055047087;-0.15534227;0.04348924;0.047981497;-0.06402706;-0.023906702;-0.0049213194;-0.016187478;0.077172846;0.022562467;0.038525674;-0.05730624;0.02761341;-0.0127677405;-0.10090287;-0.01251193;0.090677805;0.055732116;-0.106822;0.0047290633;-0.12702231;-0.037994977;-0.08499687;-0.087475866;0.0023022615;-0.028974736;-0.031306263;0.033930298;0.0056582955;-0.048491895;-0.01539622;-0.046543952;-0.13613102;0.034133684;-0.06875746;-0.009238288;0.030832428;0.01858047;-0.06519589;-0.08744738;-0.0051502185;-0.036402933;-0.08802123;-0.0700866;0.034746855;-0.017075552;-0.11091524;0.020146223;-0.09565959;-0.029322743;-0.05909258;-0.08394846;0.013302255;0.051325396;0.011086478;0.06925881;0.012188103;0.022765461;-0.0046510966;-0.061301325;-0.0850042;-0.0579171;0.06953426;-0.0762076;0.06569882;0.053462088;-0.14399113;0.0070698475;0.022387112;-0.0849628;0.09317675;-0.073892735;-0.06514811;-0.04285316;0.032983124;0.0060086222;-0.08373442;-0.013430943;-0.06095039;-0.16736406;-0.005197593;-0.026092662;-0.089408346;-0.061249617;-0.0375169;0.035576496;-0.048707064;-0.025795106;-0.029602252;0.12437554;-0.11602244;-0.19877753;0.0041060443;-0.07073279;-0.091373734;0.013784704;-0.111006916;-0.117076404;0.042349912;-0.01808223;-0.011215347;-0.054428205;-0.1285933;-0.096676596;0.03331972;-0.023892568;-0.009046735;0.04575679;-0.15109614;-0.048926644;-0.12930794;-0.1269725;-0.031964123;0.029982096;-0.042633463;-0.047237996;-0.052400827;0.023658598;-0.028882481;0.032121506;-0.17097256;-0.07016358;-0.03659291;0.109714866;-0.10437612;0.011717493;0.015385611;-0.047083832;-0.25264686;0.037745442;-0.07790559;-0.013815834;0.045356896;-0.08035362;0.042625092;-0.023285413;-0.14228414;0.10731009;0.0021808618;-0.043437056;-0.18485168;-0.11872733;-0.024790252;-0.037109483;0.039124057;0.07655003;0.058878608
0.022192802;0.055146154;-0.005077055;0.026271462;-0.08759905;0.0006478094;-0.018884813;-0.025258787;-0.09453905;0.007004264;-0.026286934;0.0075564203;-0.040569026;0.028601239;-0.06101267;0.012252789;-0.061846618;-0.082557924;-0.029260831;0.024078075;-0.021499045;-0.0779414;-0.0254155;0.08643008;-0.11457618;-0.14233196;-0.092540964;-0.013644394;-0.012643331;0.040166553;-0.087949924;0.0505601;-0.057925276;0.059739634;-0.1430215;0.0061586034;-0.08142734;-0.067916036;-0.17773624;-0.1373377;-0.08602501;-0.081195414;0.003241235;-0.13639612;-0.19460142;-0.012160775;-0.056864787;-0.01180544;0.07352778;-0.06570131;-0.07735212;-0.029164469;0.0036659432;-0.082661964;-0.043294303;0.042570677;0.046782535;-0.025538383;-0.008046757;0.027532605;-0.11015119;-0.061216433;0.025895653;-0.12731494;-0.018973392;-0.23242067;0.040357172;-0.09736949;0.047397915;-0.03902561;-0.050213404;-0.06473472;-0.0095137935;-0.02087928;-0.040285327;-0.10049878;-0.0016726872;-0.012183907;0.15518834;0.07427788;-0.075345725;0.04417143;0.10327866;-0.1678895;-0.08580213;-0.15035903;-0.12190658;-0.15533447;0.026138995;0.06772407;-0.038132418;-0.01897228;0.0548811;-0.003758612;-0.098830156;-0.03431685;-0.036866933;-0.010560931;-0.067621894;-0.032356817;-0.04699886;0.0682172;-0.009764689;-0.028616;-0.10985726;0.08332061;-0.13299845;-0.041585762;0.06652442;-0.045023482;-0.13744392;-0.11205277;-0.07143968;-0.009031192;-0.048706595;0.025611179;-0.09010712;-0.043146014;-0.12741828;0.061837174;-0.00034442445;-0.043606777;-0.09152633;-0.05564783;0.06587654;-0.039196625;0.026913617;-0.015624995;-0.031278137;-0.013294632;-0.07245899;0.041123368;0.015766485;-0.06853001;-0.15729313;-0.064738065;-0.089000106;0.099901125;-0.12289506;-0.031616732;-0.049349453;0.06312206;-0.012217764;-0.025898375;-0.10292977;-0.08717549;-0.05484396;0.030335464;-0.1287195;-0.031844404;0.002292391;-0.011880803;0.039652504;0.09516471;-0.086626686;-0.038783215;-0.07537449;0.024243277;-0.036712367;-0.106314704;-0.040610265;-0.030106224;0.008057016;0.026734859;-0.07932;-0.12924725;0.049157295;-0.06738585;-0.118730135;-0.03544761;0.05463886;0.13999593;-0.052137487;0.099872746;-0.110376924;-0.08903904;-0.092132404;0.112929;0.07725312;-0.019442372;-0.14631853;-0.0928567;-0.0037943148;-0.023243042;-0.065775216;-0.054408338;-0.029845266;-0.027175905;-0.00035136566;-0.03821099;-0.014387931;-0.055497136;-0.007357094;-0.12293929;-0.053634573;0.034832343;-0.05490669;0.03663206;0.032713518;0.066865645;-0.027963556;0.059586365;-0.028834017;-0.08579604;0.013245001;-0.079961695;-0.15417957;0.09856821;-0.0079285195;-0.020534324;-0.16137297;0.057271242;-0.15046892;-0.082247764;-0.055794675;-0.063341565;-0.0122292265;-0.030168224;-0.044656422;-0.12706567;-0.12009379;0.014084184;-0.027945623;-0.118449934;-0.044970226;-0.006081066;0.07118823;-0.016065966;0.0005130473;-0.14811009;-0.06677315;-0.09010836;-0.015206357;-0.1347295;0.054468103;0.028963054;0.011262127;-0.0027042222;0.033605088;-0.013805889;-0.12864752;-0.095341355;-0.08683054;-0.025456721;0.005357142;0.03153881;-0.11322358;-0.01816227;-0.017970694;-0.06979837;-0.08002687;-0.12044898;0.14177538;-0.029320316;-0.1412917;-0.0790878;0.06929831;-0.0069073257;-0.03607855;0.03417447;0.03719086;-0.022697818;0.024926314;0.05257409;0.02243034;-0.08175265;0.12268238;-0.06466064;0.16335371;-0.020476528;-0.11042732;0.037695423;0.018306226;0.052253097;0.104094826;-0.041228916;-0.004896724;-0.05918093;-0.036388487;0.017803332;0.06146782;-0.17177494;0.024643268;-0.048904188;0.055521388;-0.099900596;-0.049004517;0.01508634;-0.08326965;0.0139907105;-0.045499206;-0.14941126;-0.049159102;-0.021232765;-0.034234844;-0.08028152;-0.062259927;0.10309617;-0.15688911;0.028232928;0.012386479;-0.12504843;-0.061314143;0.10330595;-0.047155384;0.09449198;-0.033799894;-0.14320557;-0.006755297;-0.08181938;-0.008683062;0.010437744;-0.11600099;-0.094098784;-0.13408935;0.076341525;-0.10947473;0.06436254;-0.0109671345;-0.025157353;0.04747014;-0.121552;-0.019594796;0.023983134;0.0107096;-0.08395649;-0.101291016;-0.094169;0.047164492;-0.029813815;-0.04874995;-0.11807003;0.0184425;-0.041968554;0.009725369;-0.05214973;-0.09334233;-0.057241842;-0.0063410224;-0.016768374;-0.1322585;-0.14824963;0.036829725;0.0310631;0.14873251;-0.1005709;-0.07438205;-0.03232959;0.015696948;-0.0797645;0.053253468;-0.028239582;-0.05115912;0.08243261;-0.008163433;-0.06322901;0.010088621;-0.06487126;-0.05744876;-0.039110623;0.014496243;-0.008605428;0.15517871;-0.08743283;-0.05718152;0.068227395;-0.02040508;-0.032138698;0.06474149;-0.06318806;-0.0186872;-0.07009104;-0.10952333;0.0056447578;0.0048161196;-0.0143951215;-0.005272005;-0.027632192;0.05309277;-0.022389919;-0.02208229;0.03338947;-0.084087856;0.011985167;0.10143645;0.07194989;-0.16111775;-0.032539867;-0.07164718;-0.089164294;-0.07904468;-0.04999097;-0.008423436;0.050906643;0.06174858;-0.09116077;-0.0057689454;0.012951629;0.035607334;-0.08378535;-0.087536566;0.020810127;0.03763651;0.13021775;-0.068092905;-0.07340733;-0.084706254;-0.16978252;0.068215676;-0.011793937;-0.06282879;-0.08813252;-0.10901269;0.019554898;0.018923573;0.08260184;-0.1476316;-0.009688782;0.024861615;-0.21879031;-0.020308517;0.040147897;-0.049322855;0.06923848;-0.12879974;0.039122812;0.01565233;-0.08168618;0.07644364;0.06041579;-0.16075054;0.01005968;-0.033906642;0.07176733;-0.09096398;-0.1726501;-0.042262793;0.07024097;-0.043940444;-0.044200834;-0.13290977;0.08101066;0.0014093795;-0.0072010285;-0.110719234;0.0030460495;0.06898058;0.0075652185;-0.024959778;-0.030017309;0.05739034;0.0041949656;0.0092267785;0.037330795;-0.006220129;-0.11400747;-0.044105265;-0.07328292;-0.10127844;-0.1362919;0.014830531;-0.03173912;0.0031231837;0.032074824;-0.004675131;0.043577425;-0.061577067;-0.03899985;-0.09505026;-0.12293964;-0.15728423;-0.048231095;0.041985106;-0.06593479;-0.04037156;-0.12332732;-0.04368539;0.017013744;0.01294914;-0.08161354;0.051338397;-0.038530745;-0.014978885;0.053087514;-0.028707447;0.045960505;-0.10459739;-0.028124856;-0.14059182;-0.0050351266;-0.015665518;0.00565971;-0.066398755;0.10444366;0.022697031;-0.1078964;-0.12006439;-0.06470381;0.031138072;0.098666355;-0.047753636;-0.09126618;-0.05646623;0.06444504;0.016068095;-0.09966736;-0.031651292;-0.017484684;-0.018500613;-0.014990793;-0.097775884;-0.039849035;-0.101428814;0.03866651;0.040732116;-0.16731325;0.052237257;-0.039146975;0.11512838;-0.08478033;-0.2147284;-0.15484494;0.014092904;-0.09539197;0.0017022513;0.02273455;-0.07874381;-0.077939466;-0.09620932;-0.04751982;-0.08073272;-0.12202598;-0.10840163;0.1272796;-0.100964054;-0.06927118;0.052464355;-0.16816774;-0.015248726;-0.12825757;-0.033194795;-0.09977057;-0.004389096;0.09295051;-0.1006342;-0.025663145;-0.12883332;-0.057110883;-0.05571697;-0.04333882;-0.03558516;-0.00093825755;0.12120755;0.022127684;0.007159244;-0.10730331;0.0036976344;-0.196528;-0.049546227;0.027856573;-0.031948105;0.03741886;-0.028190475;-0.06671402;-0.046221957;-0.0043601706;0.024578441;-0.043306913;0.088453956;-0.14578432;-0.10424927;-0.109471016;-0.01594454;-0.00036282168;-3.9652878e-06;0.016812827
-0.12051771;0.009601484;0.0035002066;0.0293199;-0.09612447;-0.030539367;0.10252683;-0.053138517;0.004185983;0.025925782;0.012154157;-0.048681747;0.07304083;-0.021795454;0.036166217;-0.108501144;0.023350686;-0.18381616;-0.037265744;0.07248769;0.025565155;-0.12875056;-0.019056732;-0.017565008;-0.1142203;-0.13935989;-0.067977905;-0.02236956;-0.048489455;-0.012931866;-0.06701513;0.05571336;-0.023518072;0.11011687;-0.12819807;-0.01742078;-0.0029287066;-0.013387865;-0.02877008;-0.037819695;-0.070905745;-0.061932728;-0.055920787;-0.13427003;-0.0833482;0.00764587;-0.012096814;-0.0060143042;-0.07884972;0.03561952;0.0008543283;0.056534883;-0.06618653;-0.11771998;-0.13351966;-0.104621574;0.03257465;-0.0941553;0.0018205049;-0.048556264;-0.049070846;-0.15826525;0.055608887;-0.20266074;-0.117512725;-0.085826755;0.0046941102;-0.07177824;0.07639655;-0.10225496;0.018431488;0.0016960975;-0.12913626;-0.034458872;-0.0644444;-0.034575313;-0.074021734;-0.05243528;0.058488395;0.081929736;-0.048454583;0.029790234;0.08059303;-0.06801089;-0.03583746;-0.038018815;-0.0647251;-0.08149469;0.0160686;-0.041754194;0.025883254;-0.05477671;0.02641134;0.12645112;-0.13579474;-0.08054571;0.044456415;-0.011949419;-0.03679011;0.018364046;-0.09155786;-0.01313245;0.06718253;-0.095076166;-0.08677379;-0.013563839;-0.12983751;-0.053188276;0.03575839;0.024562983;-0.1538696;-0.078933224;-0.06827268;0.076999195;0.02774133;-0.06802218;-0.11122534;-0.06844628;-0.06705715;-0.029481646;-0.01828354;-0.0038239276;0.02054707;-0.14002028;-0.05540011;0.055720154;0.108882114;-0.116085656;-0.075676076;0.025659041;-0.024017897;0.074592814;-0.0005038007;0.009763506;-0.12594979;-0.10548868;-0.060593415;0.085606255;-0.042643204;-0.15603869;-0.10457399;-0.00042332849;0.09315423;-0.09878559;0.052455988;0.053287376;-0.03063245;-0.017169045;-0.111391775;-0.036121182;-0.123317555;-0.11010496;-0.09153008;-0.0526131;-0.08656445;-0.20072919;-0.10397817;0.10585184;-0.058355663;-0.13846625;-0.008701077;-0.047204237;0.05384522;0.026730966;-0.061343778;-0.043500155;-0.061582465;-0.11892052;-0.10198035;-0.117925905;-0.043011393;0.03623819;-0.01532386;0.050038144;-0.06611782;0.031035118;0.05889804;0.12514798;0.119449705;0.062053196;-0.05170599;-0.087386526;-0.046217445;0.009005247;-0.12773116;-0.0077635907;-0.04055342;0.034647588;-0.13050269;0.049307056;-0.05360244;-0.08566759;0.006527756;-0.044278562;0.07088588;0.08092874;0.041730866;-0.04595379;-0.040944844;0.021930575;-0.022013959;-0.039047014;-0.048503645;0.019434573;-0.05857459;-0.04355537;-0.042248994;0.16187479;-0.012668246;-0.048222736;-0.0486503;-0.029534658;-0.053486604;-0.08881243;-0.094965905;-0.06572205;-0.07313922;-0.10962844;-0.0779129;0.013261969;-0.16103722;-0.016741702;-0.0085323;-0.049948566;-0.064004615;-0.0318926;0.021904642;0.016259758;-0.029342696;-0.10233978;-0.035277337;-0.09123077;-0.043951478;-0.010651459;-0.06133542;-0.11665105;0.0056582782;0.011100977;-0.0807229;0.04172031;-0.024341874;-0.06551438;-0.04403233;-0.08948184;0.0101071475;-0.011816066;-0.13896462;-0.06997445;0.068674624;-0.05594675;-0.048851434;-0.006476644;0.108809166;0.07043501;-0.055609304;-0.12001104;0.036410183;-0.130163;-0.055017803;-0.034556735;0.0016994884;-0.09757747;-0.028452959;-0.09490887;-0.080238774;0.027025163;0.06852047;-0.055180266;0.09961648;0.019369438;-0.017331446;-0.06489022;-0.06333268;-0.015961358;0.034762263;-0.110772446;0.052680485;-0.008361175;0.017836332;0.109994724;-0.07695819;-0.19446479;0.047646824;-0.12546231;-0.014419438;-0.09062719;0.04202409;-0.015526034;-0.13497087;0.026070198;-0.04371415;-0.093425356;0.03197;-0.016221784;-0.06599362;0.053110983;0.009264581;0.042907238;-0.23728146;-0.036597338;-0.044598926;0.01547457;-0.09657674;-0.04657451;-0.15609927;0.0006514949;-0.005810867;-0.08588017;-0.016604614;0.03909523;-0.012575978;-0.08080992;-0.09295558;0.056426927;-0.07322162;0.0496356;-0.0886123;-0.013398276;-0.035380937;-0.0071838545;0.049336284;-0.12540679;-0.011335293;-0.0084666405;-0.12729535;-0.06446765;0.01182859;-0.09358631;-0.0010426716;-0.119273774;0.021778002;-0.033536185;-0.034610108;-0.021139184;0.036015548;0.022808725;-0.033730507;0.006979939;-0.09737713;-0.018058844;-0.057286147;-0.07961238;-0.10490873;0.04332984;0.11329834;-0.10526854;0.028621925;-0.06934365;-0.015444867;-0.11016735;0.019074213;-0.05692178;-0.13867678;0.08840238;-0.073526144;0.0033796502;0.14459994;-0.04599599;-0.056637444;-0.07308965;-0.095469676;0.055488396;0.12967572;-0.050985564;-0.03433943;0.04336268;-0.093067884;-0.06517979;-0.055306695;-0.06997209;0.010795807;0.06055861;-0.07554603;-0.05959239;-0.010095916;-0.096539915;-0.012774221;-0.07891031;-0.005477965;-0.08162856;-0.039696824;0.02154654;0.025528481;0.013764152;0.116398014;0.07176274;-0.16743258;-0.101940505;-0.07224544;0.050838206;-0.075172335;-0.02153528;-0.0125294225;0.03477275;-0.014869328;0.03010127;0.024506804;-0.13285905;0.03669352;-0.08759365;-0.037035313;-0.030859675;0.052080803;0.080679215;0.0059671793;-0.06526619;-0.13313168;-0.17816503;-0.0029163593;-0.0059429524;-0.01498931;0.014507999;-0.075609386;0.03773445;-0.06467735;0.028415583;-0.07503642;-0.08324829;0.12067957;-0.16860758;-0.08020628;-0.049922008;-0.06969665;-0.006257649;-0.046451494;0.03301819;-0.0050102402;-0.06791158;0.043615572;-0.051268294;-0.16679308;0.0018672086;-0.0017268312;0.02046406;-0.01651612;-0.15819499;0.008562916;0.06685661;-0.08529491;-0.1164847;-0.09155616;-0.0043842406;0.012299233;-0.017798645;-0.03664635;-0.015289796;0.09552312;-0.10885344;-0.023209732;-0.13154234;-0.060878925;-0.010178737;-0.013804429;-0.027334742;-0.016821055;-0.092172414;-0.03740079;-0.06136707;-0.033079825;-0.12064945;0.032296624;-0.007673841;0.034144185;-0.038365502;-0.024085877;-0.06565333;-0.041323043;-0.1820501;-0.18196698;-0.13183258;-0.12538283;-0.16577342;-0.0038182884;0.00170269;-0.06846347;-0.02423921;-0.03523045;-0.1042835;0.029286182;0.03553266;0.033594888;0.022960402;-0.059242178;-0.011653151;-0.010300761;-0.023715707;-0.12759936;-0.08344143;-0.13953535;-0.07241992;-0.030963393;0.032466177;-0.030220453;0.083677284;-0.0010416253;-0.06368093;-0.12957613;-0.038656723;-0.015899425;0.07716943;0.030417595;-0.059716247;-0.06851608;0.05989011;-0.00587061;-0.13403192;-0.04319403;-0.08174196;-0.10998748;-0.07784082;-0.0602781;-0.0897469;-0.15184;0.067840435;-0.10358846;-0.16557969;-0.079153195;-0.039032806;0.11045612;-0.12573905;-0.16757306;-0.07483085;0.051672556;-0.07964844;0.088610776;-0.028993553;-0.040251676;0.010427207;0.018740106;0.037951987;0.025681106;-0.15852441;-0.10940001;0.07564217;-0.054203458;-0.03909215;-0.0051862644;-0.1563195;-0.12473724;-0.07009578;-0.14103581;0.01702444;-0.077296615;0.03002471;0.0045284256;-0.13817962;-0.13110599;0.031137845;0.004526166;-0.09913356;-0.15128148;-0.005095787;0.041755967;-0.07259157;-0.058905557;-0.06984776;-0.086539514;-0.2781293;-0.03858752;-0.019260578;-0.100812964;0.03567333;0.025651718;0.07526137;0.0146665005;-0.08001353;-0.007019547;-0.032774467;0.09417824;-0.16916998;-0.019583648;-0.13646854;0.0365399;0.020061782;0.13510075;0.026667457
-0.10336618;0.088206924;0.036070563;-0.025789121;-0.17343481;-0.014141977;-0.01531605;-0.073699795;-0.041431606;0.049003415;-0.0400114;0.03469799;-0.041683737;-0.026220812;0.043107353;-0.06193498;0.02246263;-0.08304194;-0.04590714;0.09235571;-0.09032045;-0.030201605;-0.036232233;0.025374547;-0.108957395;-0.1503516;-0.009383868;-0.09497578;-0.11571759;0.07485576;-0.011754317;0.08842871;-0.10969605;-0.019213647;-0.051171824;-0.14173432;0.029784959;0.039890915;-0.07631998;-0.009908683;-0.02835254;-0.08582305;-0.06119722;-0.113791026;-0.08116822;-0.098114565;-0.0326882;-0.109733045;-0.09349561;0.06171401;-0.0308189;-0.06362578;-0.106001236;-0.10979542;0.00931713;-0.013724813;0.008589694;-0.031824797;-0.091522835;-0.14353812;-0.014875866;-0.080743775;0.020888334;-0.05747707;-0.043584146;-0.14296687;0.019061659;-0.0063770935;0.033320114;-0.15953392;-0.051377047;0.017945753;-0.16404343;-0.014336849;-0.09219281;-0.020591788;-0.037926007;-0.030615056;0.043602012;0.063009836;-0.11434081;-0.06995223;0.1182171;-0.101235;-0.05008124;-0.09107493;-0.053099968;-0.06429763;0.015161628;0.079873756;-0.08037431;-0.12344231;-0.08390175;0.059510842;-0.042572767;0.005727843;-0.103333764;-0.039828364;-0.10187427;-0.077825636;-0.06594401;-0.032045122;0.033333976;-0.08400647;-0.106527746;-0.07504122;0.018226389;0.033688523;0.011015849;-0.024084585;-0.08639102;-0.0064763147;0.0019104593;0.059626687;-0.021802478;-0.088754795;-0.07315582;-0.018110264;-0.15918665;-0.06661418;-0.08180386;0.016250843;0.058848143;-0.0033929294;0.011994994;-0.007094765;-0.033841465;-0.0039771944;-0.069896616;-0.07825458;-0.04186304;-0.040955074;-0.008222485;0.04752547;-0.11332458;0.006495439;-0.04665451;0.16267739;-0.021192633;-0.041340385;0.005658216;0.009708534;-0.04772021;-0.099028796;0.0019655228;-0.068492986;-0.0038007486;0.031127615;-0.06422513;-0.030296719;0.03217118;-0.0034291218;0.03181371;-0.03495422;-0.0485853;-0.11865655;-0.03772199;-0.023775699;0.057147626;-0.08170888;0.07295222;-0.10654144;-0.06656377;0.022214318;-0.012590912;-0.064932555;-0.09439554;-0.09587542;-0.015501448;0.01396076;0.04528797;0.07482158;-0.095745176;0.10523674;0.0023674055;-0.027370222;-0.00065523403;-0.043131743;0.047588926;-0.09689417;-0.024377827;-0.023848621;0.019605715;0.04687381;-0.07257856;-0.028731018;0.031731524;-0.078575;-0.09593059;-0.017881218;-0.079782784;-0.010182842;0.037841354;-0.1406815;-0.019381644;0.024155304;0.01598355;-0.06371898;-0.081764236;0.06380353;-0.011217181;-0.06103418;0.031407233;-0.034634136;-0.046199836;0.04647038;-0.10567894;0.10247188;0.0659088;-0.06162239;-0.032236084;-0.08835083;-0.06574109;-0.059512395;-0.062601924;-0.035964686;0.015815709;-0.090318784;-0.039834946;-0.11209477;-0.05516589;-0.000765069;0.07067556;-0.019094117;-0.099837005;-0.025201011;0.102818064;0.032228198;-0.08010197;-0.004781997;-0.13235362;-0.0581709;-0.023912037;-0.027777841;0.02357036;0.046575785;0.071033694;-0.04474806;0.012716136;-0.09923;0.012976947;0.0045094094;-0.13916099;-0.10549322;0.022332229;0.008491073;-0.14225109;-0.08387949;0.023177717;-0.105038546;-0.11612429;-0.090996906;0.08645045;0.07794689;-0.13700843;-0.10381557;0.016364656;-0.05056651;-0.16308962;0.00071714073;0.09012458;-0.092654586;0.005854993;0.006669854;-0.06210792;-0.03538551;0.012230694;-0.13356325;0.1583398;-0.064534426;-0.017909417;0.027837146;0.004800951;-0.039975468;-0.017356502;0.049429856;0.028146487;0.048817106;-0.09464508;-0.082726814;-0.031933535;-0.17591608;-0.019473962;-0.08232847;-0.0818111;-0.061131544;0.011072626;-0.048350792;-0.033116974;0.050682027;0.014855541;-0.1911906;-0.06054495;-0.05090111;-0.13183604;-0.0050519323;-0.049685407;0.0009578045;-0.11682092;0.06742885;0.008320781;-0.028750509;0.026913658;0.0877629;-0.10564928;0.014555265;-0.03829559;-0.015690379;-0.05426772;0.03925684;-0.09973537;0.06259293;-0.08055665;0.035658263;-0.06745831;0.1556013;-0.05054144;0.052604392;-0.03604006;0.044088684;-0.10363645;-0.14416093;-0.0040502097;-0.028714301;0.0024176824;-0.017467363;-0.0146395555;-0.051689576;-0.027104886;-0.020326898;0.044870663;-0.07544376;-0.0028634246;0.020522086;0.0030018636;0.0195876;0.012762896;-0.02819202;-0.09188383;-0.017039489;-0.10090925;-0.10140875;0.0076656663;0.0291721;0.031917494;-0.06361944;-0.039859306;-0.0038266897;0.017216666;-0.14045592;-0.0009801468;-0.10757122;-0.047346346;-0.024361432;0.051758222;-0.052965105;0.13173951;-0.013085093;-0.09780825;-0.04260743;-0.0039816056;-0.086806;0.118897386;-0.03793552;-0.0138368625;0.014325259;0.05821844;0.016490806;-0.0035743993;0.027929464;-0.0013969286;0.056510825;-0.039518874;-0.08747028;-0.029534854;-0.06665697;0.012187414;-0.053881142;-0.060079686;-0.119096644;0.0097855;-0.048595678;0.05227834;0.0049615745;0.080732696;-0.011014392;-0.092897594;-0.09475556;-0.09759966;0.062061675;0.0384525;0.030769445;-0.047011726;0.025365202;0.078916855;-0.08035379;-0.09990502;-0.14778578;0.052576277;0.058618;-0.09841545;-0.02137643;0.015511011;0.057379715;0.01898822;-0.077871606;-0.010839871;-0.09722187;0.03716498;0.020794353;0.020974137;0.024388332;-0.005863388;-0.06641242;0.068805315;0.00024219143;-0.1436244;-0.083762996;0.012354777;-0.091909684;0.046818454;0.06776332;-0.057718184;0.03455857;-0.1147196;-0.04737907;-0.019948605;-0.08823306;0.05559572;-0.06623745;-0.17039533;-0.030470395;0.045911103;-0.0010572693;-0.10283445;-0.08940651;-0.110091425;0.0027072816;-0.079077296;-0.052724216;-0.014244197;0.11494264;-1.0906715e-05;-0.060781885;0.0010877437;-0.052793726;0.07886811;-0.110959865;-0.12044167;-0.042571414;0.034834113;0.0050523276;-0.087847315;-0.012985275;-0.061362084;0.049653493;0.02431028;0.02691002;0.05443866;-0.00878063;-0.10783692;-0.075562336;-0.044394713;-0.086418405;-0.0018272072;-0.06996393;0.01353061;-0.122492425;-0.20840186;-0.073012725;-0.13984916;-0.036802094;-0.05185367;-0.00993606;-0.072614506;-0.07649468;-0.090987235;-0.016093578;-0.03652508;0.019430308;-0.05594685;-0.043526605;-0.048344206;-0.024783742;-0.027162839;-0.025209114;-0.13228877;-0.11254991;-0.11126197;0.024943165;0.006359317;0.09279419;0.04565426;0.03178393;0.012522715;-0.13584065;-0.021469695;-0.040485498;-0.08279458;0.09933312;-0.015631696;-0.05667418;-0.13512672;0.055613805;0.012647777;0.008315115;0.014864029;0.03756419;-0.15961993;-0.0486475;-0.08668312;-0.122969456;-0.01965593;0.03642217;0.028750736;-0.07338714;0.0014832936;-0.009505404;0.18162224;-0.025887871;-0.10322344;-0.15739936;-0.10380393;-0.029862104;0.09295633;-0.08927014;-0.12929465;0.03303945;0.01610787;-0.042492896;-0.10101889;-0.15381832;-0.062096402;0.005373679;-0.042402625;0.023932165;-0.060997557;-0.16307145;-0.041854825;-0.04234976;0.0039637457;0.0051441593;0.0054288716;0.07679241;-0.07555231;-0.012863139;-0.12073209;0.02905898;-0.016620431;-0.17116626;-0.031694215;0.015602736;0.08191621;0.0417652;-0.046959635;-0.043872245;0.04340464;-0.224929;-0.053918213;0.01779216;0.0057595912;0.071081616;0.03659035;0.069740646;-0.06402558;-0.14611411;-0.0067901392;0.06732627;0.10433909;-0.07581678;-0.06394761;-0.11695542;0.08025613;-0.060022045;0.035894882;-0.035153054
-0.04225698;0.065731175;-0.021843588;0.072968006;-0.16271015;0.009189868;-0.036442805;0.0020111618;-0.06759749;0.04912572;-0.0426399;-0.11217014;0.032524657;0.0016576361;0.05334557;-0.03554604;0.029692337;-0.087809436;0.0108923325;0.08426962;-0.054184873;-0.14653888;0.04256972;-0.0863815;0.05149224;-0.04473927;-0.10131561;-0.04507124;-0.14021015;0.009831294;-0.07676725;-0.036882367;-0.0479486;0.012823308;-2.147747e-05;-0.013270763;0.011824062;-0.018581493;-0.16827637;-0.04015964;-0.06981976;-0.12511049;0.02608231;-0.043503277;-0.21368852;-0.048442263;-0.07738304;-0.15235828;-0.08974411;-0.068065755;0.049274087;-0.03200454;-0.083570115;-0.04433298;-0.033538185;-0.064372145;0.049430057;0.015877068;-0.08692643;-0.079079464;-0.096100226;-0.071930245;0.12062017;-0.044482198;-0.12053659;-0.077001356;0.035136733;-0.046733715;0.043428272;-0.09922484;-0.07004461;-0.10230734;-0.050441183;-0.026319338;0.0049270117;0.043206092;0.0063542896;-0.035459273;0.11167098;-0.027401932;-0.14055687;0.013875125;-0.029053422;-0.11769852;-0.05585853;-0.13049285;-0.024757432;-0.0823955;-0.01916662;-0.029586842;0.004618854;0.015817646;0.049656335;0.0072419522;-0.02874464;-0.05051862;-0.09288882;0.026540695;-0.06187611;-0.07286474;-0.0024324765;-0.018471137;-0.0456184;-0.036668442;-0.04610439;-0.021765286;-0.0025088363;-0.07531218;-0.015451173;-0.044421952;-0.08806082;0.052067336;0.039860457;0.045393642;0.010432063;-0.011501871;0.011313231;-0.10115309;-0.056798756;-0.0021726342;0.028557774;0.04659348;0.06255369;-0.14325935;0.0213668;0.005098411;-0.0280572;-0.10291392;-0.07959435;0.027265243;-0.034982022;-0.08242811;0.009389662;0.030995913;-0.13488112;0.048256118;0.058857277;0.004602612;-0.06252713;-0.009837339;-0.050216615;0.06816397;0.014227142;-0.09035309;-0.09223237;-0.030619282;0.060684543;-0.029398369;-0.020704616;-0.054254357;-0.094744235;-0.11747335;-0.07707097;0.004952108;-0.027933124;-0.17781982;-0.029995885;0.044027388;-0.03275254;-0.12893137;-0.024690565;-0.12382745;0.040700864;-0.028109577;-0.067300916;-0.07353057;-0.04643951;-0.09202054;-0.003882661;-0.112221755;-0.07662781;0.008908208;0.045686495;0.07290753;-0.058712486;0.0048367865;0.0045861923;0.08783461;0.15572491;0.011912088;-0.056484174;-0.10268134;-0.06297439;-0.07252814;0.024494927;0.044265006;-0.050499428;-0.051471632;-0.10390779;-0.028188674;0.0125215165;-0.05370351;-0.088276885;-0.11206741;-0.092338435;-0.022063866;0.023885323;-0.11393154;-0.07057132;-0.08912562;0.031023094;-0.051330645;-0.0911213;0.016726619;-0.096752115;-0.05788951;-0.06761294;0.15580407;-0.013850692;-0.04267798;-0.16697529;-0.026807195;-0.03740217;0.0089437235;0.008373608;-0.014716684;0.06497423;-0.14415246;-0.0156112425;-0.095495;-0.02013999;0.0166647;0.056637004;-0.012660704;-0.015884131;-0.034518417;0.0767256;0.03539008;0.0015739449;-0.013943182;-0.019495063;-0.014641532;-0.04388475;-0.022450082;-0.085154206;-0.06797364;-0.029269814;0.06475509;-0.027875734;-0.016417298;0.005861221;-0.020278707;-0.11857539;-0.05943005;-0.026793817;-0.08177825;-0.058775563;-0.08182372;-0.019962978;0.007639407;-0.09880703;-0.123706296;0.11498965;-0.060986202;-0.13492212;0.01144575;-0.04256105;-0.07243492;-0.08097407;0.032957435;0.0025085837;0.011814892;-0.099747375;0.056196578;-0.051420957;-0.047733553;0.057484996;-0.12083271;0.09941017;0.022935554;-0.10174757;-0.033635836;-0.012380331;-0.08509156;0.041288394;-0.039636094;-0.06238796;-0.09370777;0.008741811;-0.08558674;-0.03216744;-0.20424354;0.040181544;-0.0024836857;-0.049490325;0.023341905;-0.06639172;0.017369242;-0.13112022;-0.04353598;-0.07719246;-0.21441713;-0.044062383;0.042319227;-0.15615767;-0.020171877;0.013475878;-0.003416526;-0.21868217;0.01955484;0.06663201;-0.10219036;-0.11002648;0.016471446;-0.20219234;-0.019210838;0.027037509;-0.014102542;0.07594215;0.040215727;-0.030335277;0.044510514;0.03265995;0.030271113;-0.0569304;0.07572746;-0.08816419;-0.011833998;-0.04874411;-0.042900097;0.027863134;-0.106245324;-0.046482917;-0.099195704;-0.032580573;-0.020894684;-0.089542806;0.044241227;-0.09276944;-0.08498663;0.025058305;-0.10933041;-0.058687042;-0.06529667;0.09795727;-0.008720127;-0.056345392;-0.07284009;-0.09662177;0.022446295;-0.07021242;-0.11677808;-0.036351506;0.021581665;0.09809735;-0.09901316;-0.031490784;-0.06113031;-0.0066893785;-0.041875053;0.09151152;-0.10699461;-0.11732812;-0.076710366;0.03399712;-0.06785894;0.17079188;-0.0963621;-0.10344937;-0.10153254;-0.07140246;-0.047589935;0.13952336;-0.074881405;-0.00035344504;-0.032837767;-0.0048330165;0.008333015;-0.05139311;0.00759276;-0.07321115;-0.051235083;-0.06521563;0.016980452;-0.08270086;-0.030223515;0.010872231;0.040257066;-0.0017819818;-0.09140126;0.03238884;0.0011382512;0.03762237;-0.010603678;0.004375382;-0.09821871;-0.18099214;-0.082874045;-0.018197307;-0.0044512036;-0.032614008;-0.032346524;-0.017921088;0.038840387;0.086128175;0.0055217748;-0.07020227;-0.14520621;0.07163784;-0.087483056;0.026964588;-0.09583649;-0.057656825;0.11048529;-0.032747705;-0.083516344;0.013453221;-0.22310074;0.018479142;-0.11732121;-0.12438175;-0.111494206;-0.045432363;-0.006101937;0.06195018;0.13146196;-0.13364777;-0.08052972;-0.0026044808;-0.13787758;-0.09956592;0.02733372;0.046125196;-0.046369936;-0.07113924;0.011380013;-0.07100914;-0.13295285;-0.03756751;-0.06425189;-0.17785922;0.042534817;0.013118625;0.075542204;-0.06512004;-0.15147154;-0.113419995;-0.08295996;-0.11248712;-0.10749618;-0.07710526;0.078339756;0.057795826;-0.032806877;-0.06346517;-0.029312175;0.0777722;-0.094258904;0.0017624417;0.0209363;0.04130325;-0.009176745;-0.09898855;0.006940397;-0.038937554;-0.07913201;-0.049237337;-0.014944508;-0.08123768;0.005965896;0.016115068;0.0036857896;-0.017604468;-0.0028191789;0.01886779;-0.054268353;-0.091539145;-0.15604356;-0.21501535;-0.1521684;-0.031725407;-0.11457065;-0.09818981;-0.04535604;-0.04108996;-0.035715476;-0.06910722;-0.04287258;-0.106049314;-0.03314329;-0.0661264;-0.07054461;0.0658143;-0.022470914;0.08264607;-0.0325031;-0.115509875;-0.14108124;-0.04389285;-0.09427808;-0.09291506;0.050150823;0.007819216;0.106065266;-0.03580448;-0.07229001;-0.057939116;0.0044038435;-0.032461572;0.08839731;-0.068210535;-0.09433851;-0.077726364;0.049520705;-0.09418411;-0.034759436;-0.08519516;0.022620544;-0.1657267;-0.09418042;-0.08711727;-0.019344961;-0.09494554;-0.03918605;-0.0011263378;-0.11531599;-0.10150142;-0.04336111;0.061446574;-0.1103701;-0.0951074;-0.035431262;-0.07866911;-0.102929614;0.07870271;-0.022204315;-0.024092961;0.067715995;-0.01115769;0.014501785;-0.033018928;-0.07149819;-0.07325097;0.08531394;0.0012180797;-0.010700875;0.047972437;-0.097899176;-0.072538555;-0.05212277;-0.02490682;0.005092315;0.024646556;0.08611483;0.019162862;-0.11246022;0.009491954;0.0709033;0.004042933;-0.17270908;-0.14407179;-0.028964998;-0.036593813;-0.04118865;0.025605649;-0.024905682;0.030499637;-0.15324649;0.050680142;-0.11864599;-0.037569545;-0.01991524;0.051660035;-0.081134096;-0.002021167;-0.15924168;-0.032841343;0.056590594;0.14367877;-0.11555903;0.01032501;-0.0065890774;0.02776111;-0.11844375;0.09625008;-0.07472072
0.043341033;0.09383855;0.052511286;-0.025987858;-0.09130318;0.032449607;-0.009834045;-0.10401417;-0.06667228;-0.073549606;-0.019680075;-0.012583913;-0.041908856;-0.040230386;0.065740414;-0.039142907;-0.052569304;-0.115573086;-0.10538455;-0.05530306;-0.084215276;-0.12704767;-0.008995378;-0.06791797;-0.0690761;-0.05407528;-0.038816173;-0.08137156;-0.099009894;-0.07141431;-0.016604941;0.09039523;0.01632301;0.14609526;-0.1565469;-0.014658599;-0.068549454;-0.007874121;-0.16776687;-0.034629688;-0.058866538;-0.059691843;-0.07459404;-0.1087544;-0.1697644;-0.11104174;-0.09618401;-0.01629136;-0.025337134;0.025401074;-0.043594867;0.0246413;-0.053824928;-0.09828627;0.004175132;-0.08808897;0.033652693;-0.025415275;-0.07179953;-0.08599201;0.05547147;-0.14678286;0.114927515;-0.18563282;-0.0227996;-0.07308942;0.060559087;-0.13469864;-0.008429966;-0.06345217;0.0030813436;0.023293952;-0.012628111;-0.0362151;-0.11549778;0.014697427;-0.12690976;0.03156225;0.03169668;-0.03155447;-0.09828624;-0.022091018;0.07362448;-0.15274847;0.009766453;-0.084389046;0.015775828;-0.030080667;-0.06355776;0.03728458;0.036359373;-0.050552055;-0.059629165;0.122628994;-0.13790666;-0.11212476;-0.055096477;0.009247022;-0.055073615;-0.08757693;-0.042740162;-0.0861736;-0.098725006;-0.050918695;-0.08035055;-0.0910156;-0.02540051;0.0018617735;0.08731783;-0.015901675;-0.1265835;-0.019504294;-0.0019838812;0.022281552;0.069083296;-0.029425336;-0.06073446;-0.063751824;-0.013858589;-0.088994734;-0.0028157693;0.0009936683;0.04074214;-0.035680015;-0.03326483;-0.041781988;-0.035922203;-0.030383827;0.037977677;-0.079142;-0.067740895;0.054902148;-0.1107503;-0.038692307;-0.06580668;0.053546768;-0.028269475;0.15640402;-0.108732246;-0.13855827;-0.0095319;0.0154152475;-0.007192506;-0.0074535706;-0.007623734;-0.086265504;0.0064786673;0.042195432;-0.118897304;0.008488534;-0.018732002;-0.06015292;-0.08069717;-0.031859864;-0.00014731653;-0.11918356;-0.04439834;0.020509852;-0.003966969;-0.024222413;-0.033596292;-0.036491726;-0.06877692;0.01737116;0.0697332;0.023384295;0.0021386682;-0.10202059;-0.02504275;-0.07249298;-0.059800208;0.11825446;-0.04485281;0.12677588;-0.13161837;-0.06752782;-0.01639071;-0.04549547;0.00024757703;-0.064996764;-0.12967058;-0.1435512;0.058427535;0.051588167;-0.009940627;-0.113968804;-0.107794434;-0.038358625;-0.014476663;-0.02477807;-0.07800518;0.0009884401;0.020766595;-0.053932283;-0.099694245;0.0977984;0.05684004;0.00422031;0.0681217;0.008043797;-0.085288666;-0.09213049;-0.083310194;-0.1178524;-0.10650504;-0.04096653;-0.14338404;0.08409198;-0.023986999;-0.06765123;0.0049609635;0.0136935;-0.11772037;-0.038393423;0.00021409892;0.051930476;0.022588246;-0.13466117;0.008383765;-0.1511424;-0.14939736;-0.09169646;-0.034253594;0.022583969;0.057563227;-0.038438123;0.11514776;-0.027547218;-0.070171356;0.008214056;-0.12328067;-0.110632755;-0.033592243;-0.045332585;-0.055944864;0.02284487;-0.07751316;0.06176096;-0.052748874;-0.03865784;0.010930994;-0.13949262;-0.013820066;-0.1255447;-0.095454484;0.0019441508;0.008898106;-0.0734329;0.012179531;-0.04516852;-0.16487615;-0.00013565371;0.028515888;-0.000774537;-0.1757699;-0.035952616;-0.014948696;-0.119614;-0.15750052;-0.060767654;-0.015720831;-0.11265599;-0.009692677;-0.036908038;0.03491515;-0.043720108;0.08349772;-0.08351122;0.023566434;-0.02130743;0.0059257536;-0.074195586;-0.06915351;-0.0036316677;0.028684573;-0.005923247;-0.09679626;0.03308725;-0.033230085;0.0018792852;-0.08822874;-0.09984022;-0.012836887;-0.09281339;0.07047633;0.012959585;0.032685645;-0.045487545;-0.05187819;0.06833181;0.029821696;-0.20864183;0.006812238;-0.029934747;-0.12361355;0.07660486;0.010806065;0.06942573;-0.2253709;-0.10483719;-0.008527479;-0.082084656;0.053049583;-0.03595008;-0.14277126;0.052458163;0.03702061;-0.13080285;0.016658429;-0.034835875;-0.025908085;0.012169896;0.04400916;-0.062003694;-0.08367795;0.1715961;-0.0003348821;-0.085134864;-0.022089537;-0.06359331;-0.0058652787;-0.0044586384;-0.06310858;-0.09076776;-0.107897125;-0.040751625;-0.00963154;-0.06431851;-0.02034095;-0.10541693;0.010982331;-0.03318576;0.045992523;-0.07707299;0.082025625;0.018723946;-0.08925758;-0.08229827;-0.06932429;-0.025403896;-0.16410686;-0.092552304;-0.06425275;-0.038233045;0.08713307;-0.121599555;-0.016418422;-0.052048765;0.045895934;-0.078265876;0.012353298;0.0038538603;-0.077906705;-0.027352318;0.046362452;0.061356537;0.057058994;0.048835807;-0.02038708;-0.08880227;-0.014539407;-0.011606675;0.064431325;0.028731966;-0.0015123177;0.011338148;0.009348244;-0.078250386;0.02413265;-0.05951062;-0.016915195;0.017257685;-0.069030344;-0.0922309;0.045642566;-0.12970565;0.06709403;-0.020459376;0.054527666;-0.102376655;-0.013510229;-0.010078185;-0.046353508;0.04559617;0.01907047;-0.020609673;-0.037866518;-0.041196045;-0.058562357;-0.0020538408;-0.016379721;-0.05848614;0.00308439;0.07720305;-0.005233577;-0.011511053;-0.030087294;-0.10868466;-0.042743262;-0.009226103;-0.00884045;0.031572238;0.050708443;0.060190503;-0.08057105;0.048723128;-0.08027076;-0.2047822;-0.053057063;0.0035732368;-0.10075442;-0.060864005;-0.09235001;-0.0013021607;-0.0840621;0.06510261;-0.12672089;-0.04113862;0.00080231245;-0.16991925;-0.019555163;0.07699713;-0.08906697;-0.06930064;-0.09632486;0.03777469;0.049716838;-0.11928325;0.05269627;-0.08609841;-0.114966646;-0.059370022;-0.0845782;-0.045105632;0.0037080382;-0.13235769;-0.05964597;-0.01628319;-0.029294774;-0.043668307;-0.009481452;0.023679506;0.04421258;-0.0029801484;0.03817901;0.016295876;-0.028171815;-0.108918436;-0.02940116;0.021218138;0.027566914;-0.048626214;-0.011373902;-0.068947114;-0.06380205;-0.045036417;0.010024978;-0.07430539;-0.042938348;-0.07495846;-0.040420547;-0.14546546;-0.0735431;-0.0010010147;-0.08864603;-0.038893253;0.05074715;-0.058095623;-0.21157752;-0.034262855;-0.045075417;-0.13361904;-0.012300975;-0.0035509043;-0.09785932;-0.14884117;-0.0685273;-0.080428846;-0.0033005383;-0.1271317;-0.046904497;0.04872568;-0.09595138;-0.08569439;0.049611334;0.03280886;-0.041088626;-0.1465031;-0.035552815;0.027071757;-0.07665435;0.08366616;-0.07134869;0.023455992;0.02623999;-0.13726963;-0.011681719;-0.115956955;-0.029053666;0.022893362;-0.014447796;-0.050827954;-0.071662925;-0.087531775;-0.019324297;-0.12951882;-0.031187851;-0.027309682;-0.068761736;-0.1323139;-0.13355663;0.025848432;-0.07643811;-0.002002103;0.00032968336;-0.053378657;0.051397756;-0.09839363;0.14648375;-0.057389595;-0.17999166;-0.1246361;-0.048838314;0.016141998;0.07971108;-0.05910742;-0.12594508;-0.06035665;-0.009648386;-0.06401911;-0.013919954;-0.021693468;-0.038985625;0.03986652;-0.08326396;-0.0037650212;-0.04502231;-0.062121924;-0.06364454;0.0017831284;-0.056401707;-0.025523786;-0.07892147;-0.009290541;0.015680904;-0.07231647;-0.033105295;-0.0001501371;0.035924543;-0.04686939;-0.106391095;0.015561312;-0.023406062;-0.046966918;0.06497478;-0.047784105;0.019067893;-0.21872495;-0.019354181;-0.060852557;-0.017993776;0.028555742;-0.04804488;0.009794292;-0.083527;-0.11894438;0.069752835;0.03497849;0.05787861;-0.03163331;-0.05823094;-0.0044174595;0.047738474;-0.12129781;0.07781184;0.018629717
-0.09922356;-0.039136644;0.061762396;-0.0567952;-0.08422437;-0.044004004;0.064278394;-0.13517655;-0.003949283;-0.07007017;0.008408456;0.04371846;-0.06937246;0.03911842;-0.09691415;0.0035765008;-0.0125504695;-0.10434167;-0.07740905;0.085312024;0.008561017;-0.021538436;0.009068562;-0.010600006;-0.0837445;-0.16825593;-0.11808785;-0.08669833;-0.09040236;0.0759597;-0.019296518;-0.05721884;0.0125727365;0.0879197;-0.106620215;-0.14109053;0.030601395;-0.036615975;-0.119099915;-0.02371901;-0.009154957;-0.1528014;-0.010542989;-0.11286133;-0.1902786;-0.08244136;0.027946087;-0.04635949;0.014313235;0.036373064;0.043688223;0.0047743637;-0.011554539;-0.062389806;0.0068968516;-0.045904253;-0.044756852;0.040894695;0.026405368;-0.038064204;-0.056142244;-0.11758216;0.015154488;-0.032323938;-0.1090812;-0.07046838;-0.09501369;-0.040862497;-0.07821462;-0.054731775;0.058662433;-0.12259333;-0.07848047;0.048791487;-0.0530603;-0.052742515;-0.07128845;-0.023070509;0.104884006;-0.087421186;0.01165374;0.023862666;0.07996378;-0.061393466;0.00018466033;0.014738509;-0.032755706;-0.04470526;0.01216204;-0.055817887;-0.10396549;-0.042006023;-0.078043506;0.18384834;-0.15543649;-0.048388895;-0.08536986;0.029738748;-0.017841253;-0.09026451;0.053381305;-0.030756986;-0.051605344;0.03256008;-0.021128226;0.01521799;0.025780903;-0.0765716;0.10091012;-0.08097415;-0.1315743;0.034926523;-0.052282866;-0.013536339;-0.07405593;-0.05595834;-0.09823041;0.0063593364;-0.062427092;0.051005177;0.0021689136;0.06285746;-0.090714484;-0.12599602;0.040953044;-0.09936099;0.06750351;-0.004925463;0.04216499;-0.07333772;0.03507887;0.022984117;-0.08418221;-0.091408916;-0.10077447;0.034683637;0.040881213;0.09598693;-0.15772043;-0.022992225;-0.11328664;0.16256341;-0.015954481;0.0016006774;0.049666513;-0.048938848;0.0680901;-0.0105015915;-0.010898042;-0.017483994;-0.09718482;-0.061184846;-0.08764335;-0.03304248;0.030465722;-0.19312906;-0.16764872;0.02812365;-0.08562529;-0.086950995;-0.067925535;-0.015323736;-0.007827505;-0.04591686;0.051157024;-0.056392614;0.05154359;-0.0047628707;-0.13378131;-0.03170108;-0.08498988;0.05953675;0.017893547;0.14252213;-0.020878116;-0.010563829;0.019369746;-0.05117414;0.071094394;0.010286608;-0.047360033;-0.17918286;0.023417523;0.017145205;-0.06968631;-0.033122037;-0.10510223;-0.033842165;-0.11913989;0.056273535;-0.08075048;-0.05707575;0.054886613;-0.14803651;-0.04120038;0.00061713695;-0.011866166;-0.064606175;-0.033541374;0.021686213;-0.04081972;-0.08817387;0.01366392;-0.11054445;-0.08706422;-0.07296404;-0.122637354;0.22758716;0.034796633;-0.038961872;-0.08328522;-0.017209208;-0.004992417;0.012202575;0.015745373;0.03649292;-0.0012290543;-0.16356897;-0.10477938;-0.12595727;-0.062978536;-0.06528341;-0.07521327;-0.080120794;-0.055547398;-0.010739769;-0.019730534;0.023920668;0.027761186;-0.04562964;-0.055905778;-0.08751763;0.013419162;-0.033315778;-0.051482905;-0.018908897;-0.01689226;-0.0112933;-0.005068642;-0.085484765;0.0075508063;-0.09705715;-0.1565673;-0.11193853;0.0036694088;-0.00091034314;0.0025101455;-0.083331436;0.0004337525;0.03822451;-0.028525049;-0.10057709;0.10507902;0.06719714;-0.104819104;-0.014044505;-0.0417311;0.015221231;-0.17867386;-0.006475386;0.053205762;-0.007870391;-0.083067976;0.00044875496;0.01270702;-0.04665094;-0.00206009;-0.09137645;0.1452808;0.030860716;-0.121292494;-0.042125266;-0.06659718;0.012205574;0.12458063;0.0045076134;-0.016540416;-0.07773568;-0.040090524;-0.010481951;0.0030243765;-0.15251707;0.05137211;-0.10486004;-0.049283393;0.036832307;-0.03661858;-0.08361193;-0.14518805;-0.094638914;-0.012862273;-0.2192675;-0.11612376;-0.11301391;-0.051394258;0.019461555;-0.0014472082;-0.0035845763;-0.24128723;-0.08955965;-0.09188299;-0.046031266;0.037592668;-0.065810874;-0.05851494;-0.015881145;-0.057481803;-0.09580181;0.055570915;-0.091876864;0.027098333;0.019294195;-0.0004857647;0.018600836;-0.1384041;0.07459238;-0.06543435;-0.06420502;-0.026737237;0.026497114;-0.028353183;-0.0142788;-0.025621008;-0.095314346;-0.048989568;0.09077221;-0.10430421;-0.00837154;0.047136392;-0.12692279;0.013018338;-0.109994024;-0.029445667;-0.053407054;0.10903414;0.002909299;-0.07625538;0.0029056855;-0.106800415;0.0472688;-0.13151935;-0.007723489;-0.12015027;0.015399867;0.067007296;-0.027594516;0.049613364;0.053389844;-0.047821023;-0.035637584;0.025727259;-0.056715425;-0.07849614;0.05106458;0.010572401;0.050129835;0.079228796;0.025027914;-0.081376515;-0.009296923;0.025248593;0.01882099;0.1414548;0.0028841372;0.062373564;-0.020439837;-0.056741223;-0.08983235;-0.06562353;-0.065041915;-0.010605581;0.054613277;-0.04365835;-0.07398827;-0.07431875;-0.0284984;0.026438987;-0.078647956;-0.102169394;-0.0029648866;-0.012271516;-0.057756428;-0.048812255;-0.069988824;0.13393384;-0.035898607;-0.18542418;-0.18596306;0.023808898;0.006676827;-0.089762166;-0.024180157;-0.06718589;-0.015071732;0.13918555;0.031776328;0.0076796655;-0.14657614;0.10670144;-0.001624366;0.04098214;0.046411525;-0.08767441;-0.039636552;0.016375529;-0.0051416843;0.01098666;-0.21130556;-0.0642834;-0.019445835;0.0071503995;-0.041776963;-0.11410526;0.020467494;0.069387205;0.06918848;-0.029693587;0.035610985;0.026454536;-0.07909434;-0.013346319;0.12370021;-0.07289341;-0.08183823;-0.1136393;-0.022230616;-0.056692798;-0.13819937;0.022333566;-0.0028316618;-0.17312683;-0.07033889;-0.011001394;0.07205461;-0.00704287;-0.13324441;-0.022710003;-0.12461275;-0.09671704;-0.028304635;-0.12808816;0.004119975;-0.005337097;-0.05454208;-0.05135252;-0.05497256;0.041515686;-0.11113492;-0.035581272;0.06111019;0.009419943;-0.07154908;-0.0032205381;-0.07221662;-0.045683138;-0.055587288;0.035699967;0.0039606653;-0.04419232;-0.0596483;0.005082851;-0.0111947395;0.056196485;-0.07254234;0.030623944;0.02784662;0.031521022;-0.071383595;-0.22357988;-0.15145506;-0.052627087;-0.10399197;-0.11067317;-0.018433189;-0.08103257;-0.089646585;-0.021592464;-0.051179096;0.004146459;0.012159077;0.0314871;0.0009189992;-0.061911;-0.101121075;-0.0030041998;-0.08423416;0.0009806412;-0.080225654;-0.07984655;0.040066987;-0.068420425;-0.041257694;-0.08832878;0.097618;-0.04992698;-0.009191859;0.008995787;-0.100746095;-0.070603736;0.063735425;-0.0582539;-0.07871612;-0.03372552;-0.024340464;-0.030233808;-0.13659349;0.009908854;-0.016035862;-0.037968744;-0.083391376;-0.11268095;-0.07051216;-0.01567621;-0.11184332;-0.034433305;-0.07857759;0.051077195;-0.029454084;0.13477941;-0.10172336;-0.23810665;-0.083463706;0.006984426;-0.10097601;0.032686356;0.046952706;0.012167656;-0.091014855;-0.05167891;-0.02630902;0.008556441;-0.1310183;-0.10170331;0.091400854;-0.021909684;-0.10159607;-0.08830169;-0.06791077;-0.08631921;-0.030991552;-0.04092803;-0.031646114;0.02776589;-0.03640699;-0.026678659;-0.12186894;-0.1027068;-0.0050834054;0.04486346;-0.1583298;-0.1326576;0.0146089485;-0.013062436;-0.048353825;0.05935226;-0.03904376;-0.03698016;-0.2562206;-0.02014255;-0.09225554;-0.073082075;-0.05083036;0.0435711;0.041575633;-0.07697077;-0.1698413;0.09606202;0.022422582;0.031484228;-0.12877008;0.014727113;-0.097313724;0.04373163;-0.01945902;0.061041545;-0.037571076
0.0017202108;-0.024983432;-0.029447148;-0.014998272;-0.09514519;-0.029149022;-0.0030851194;-0.15351658;0.032674573;-0.023440193;-0.105336554;0.018660264;0.037258405;-0.031710982;0.015134293;0.028823193;-0.07836318;-0.13565432;-0.11172847;-0.013371475;-0.07040977;-0.07549914;0.01304665;-0.080697745;-0.06895433;-0.1411782;0.030171413;0.006262002;-0.13768461;-0.080796175;-0.059727702;0.08651183;-0.048902534;0.019204512;-0.10858181;-0.13646837;0.021668311;-0.028613696;-0.17378294;-0.06997294;-0.057187688;-0.109017394;0.038833138;-0.06965608;-0.23356076;0.026134599;-0.105066314;-0.04038014;-0.07174797;0.030531488;0.013273666;-0.0058814376;-0.0069872965;0.023619521;0.022412045;-0.028154006;0.0077027106;-0.0553852;-0.0021894309;-0.033303022;0.06308819;-0.058906067;0.13517208;-0.09325963;0.022344058;-0.1805051;-0.08860413;-0.14226173;-0.057344474;-0.17167503;0.059797917;-0.049214516;-0.10758286;0.01594216;-0.0692032;0.0071319933;-0.11884776;0.002974672;0.10976994;-0.070327386;-0.04010665;-0.0745422;0.032942075;-0.09088125;-0.008079643;-0.065594226;-0.035148595;0.013475055;0.026903754;-0.06280407;-0.06415433;-0.00036796366;-0.032488324;0.17254609;-0.034883745;-0.0017184922;0.050982025;-0.08595871;-0.052930824;-0.016402118;0.004201257;-0.002949745;-0.06744935;0.04575576;-0.058596462;0.033457287;-0.12357698;-0.05294601;0.0059889234;-0.07223472;-0.07315053;-0.06113683;-0.08532563;0.0794654;0.06473864;0.007821248;-0.031210704;-0.061199047;-0.12109152;-0.0016767224;-0.04549159;-0.0036513994;-0.0036882951;-0.08363148;-0.010247808;0.051108092;-0.03703483;-0.086524576;0.027599325;0.038334876;-0.11102705;-0.0858299;-0.12200908;-0.0795892;-0.07413783;0.008307541;-0.032802112;0.02145284;-0.03293615;-0.09392794;-0.041314453;0.049473096;0.048082642;0.01419182;0.036675777;-0.005727944;-0.037686348;-0.005797965;-0.008343367;0.029333139;-0.07126419;-0.06034601;0.03554512;-0.011346902;-0.046756607;-0.14648923;-0.15687817;-0.059596706;-0.10121366;-0.024972416;0.03480296;-0.09040945;0.041963268;0.07495254;-0.0038798423;0.00020951898;0.053589735;0.005388959;-0.10973064;-0.094500445;-0.12449987;0.107555345;-0.124822795;0.121713944;-0.0774611;-0.055783764;-0.077422835;-0.08327324;0.081877604;-0.07015105;-0.06192049;-0.040842563;0.022794837;0.031756625;-0.013671773;0.056443356;-0.07302798;0.047075447;-0.0018393892;-0.024560077;-0.021162929;-0.019494638;-0.04365371;-0.14878751;-0.031927876;0.023768626;0.045336515;-0.1029517;-0.027183266;-0.0567195;-0.09845109;-0.0043382836;-0.032817632;-0.049500775;-0.068769984;-0.07298842;-0.068122216;0.22034156;-0.029228985;0.009094406;-0.035596922;-0.05067116;-0.0037458586;9.1847134e-05;-0.12864202;-0.04200839;-0.08977812;-0.04996095;-0.111172035;-0.019375645;-0.10793309;-0.121915154;0.0017005199;-0.044086814;-0.014962931;-0.0120613435;0.011594759;0.029008875;-0.0062735206;-0.038634244;-0.10084185;0.016018277;0.047489155;-0.07390295;0.017043753;0.017700143;-0.060017727;-0.060806513;0.04506818;-0.013428946;-0.009616619;-0.05085856;-0.12472901;-0.09470151;0.008203136;-0.10106033;-0.14198515;0.0648609;0.010837813;-0.009173438;-0.15244426;-0.13178255;0.13316765;-0.033966992;-0.06298297;-0.04625218;0.027703453;-0.06509376;-0.117756575;0.04487332;-0.009442179;-0.096308395;-0.10108993;-0.023490809;0.051927846;0.038417928;0.1120664;-0.13859893;0.14794713;-0.089241445;0.001757942;-0.07810692;-0.101102665;-0.100130916;0.00861358;-0.08015812;-0.016157381;0.054535266;-0.056103792;0.026917482;0.023087317;-0.23047984;0.01810113;-0.04985434;-0.079918094;-0.050398227;-0.048020985;-0.042248525;-0.10109081;-0.016970284;0.004014285;-0.13000292;0.025118457;-0.10301161;-0.15583622;0.10572167;-0.082035854;0.0014740757;-0.2739543;0.05322179;0.015848408;-0.012575268;-0.038551223;-0.05593162;-0.08871359;0.110354654;-0.08785623;-0.12549207;0.008279358;-0.084081955;-0.041531153;-0.10694976;-0.077641785;-0.10212111;-0.13437472;0.10258929;-0.036216114;-0.033339657;0.010935287;0.052457165;-0.03507464;-0.027149865;-0.15678203;-0.051929086;-0.105745345;0.013424343;-0.07193752;0.032388978;-0.09803804;-0.1279113;0.06324562;-0.0019822808;-0.024287675;-0.061735027;-0.037270095;0.014836843;-0.15430951;-0.07988072;-0.057987165;-0.094487116;-0.117684916;-0.10088337;-0.066351354;-0.06724924;0.11278232;-0.06105392;-0.029334486;-0.06305342;-0.07507066;-0.10947526;0.04833872;-0.073933505;-0.024152083;-0.024072824;0.011801055;0.024587294;0.08955074;0.032750748;0.007953359;0.004560952;-0.07648088;-0.10562047;0.15739931;0.049901318;0.006152525;-0.08161142;0.05303963;-0.073261134;0.034579255;0.011305805;-0.024885293;-0.03935966;-0.03376796;0.037021697;-0.0480907;-0.049726028;0.06434537;-0.02082759;0.017565558;-0.024914399;-0.023220763;0.039621275;0.061368484;-0.008171617;0.075337484;-0.08034131;-0.032050345;-0.07689127;-0.09144155;0.023339886;0.0074409144;0.07823128;-0.107533775;-0.0057414584;0.04377235;-0.047209967;-0.03450168;-0.110327326;-0.04723583;-0.09962187;-0.06282704;-0.033740867;0.029590901;0.04707842;-0.041180994;-0.070064686;-0.015540741;-0.2280778;0.012746189;-0.0040525105;-0.032754995;-0.0475202;-0.09185043;-0.000119126686;0.08851881;0.11131859;-0.083900094;-0.064116895;0.07413533;-0.19854753;0.010757392;0.10608532;-0.09031523;-0.053221196;-0.03393361;0.041895904;0.03305307;0.0071938294;-0.021904461;0.02326351;-0.15742025;0.07413357;-0.10045987;0.00913887;-0.12377899;-0.030678008;-0.083015196;0.022848135;-0.006622144;-0.06861644;-0.013224534;0.027970102;0.039856065;-0.058718007;0.0437652;-0.01972328;0.0072638346;0.012469162;-0.06453674;-0.116394326;0.022613771;-0.0066679516;-0.09635442;-0.0021531365;-0.11637544;-0.011311696;0.0067594866;0.029156066;-0.049764276;-0.14435881;-0.031469844;-0.044509675;0.03605332;-0.027451266;-0.107576974;-0.055887744;0.0025496816;-0.104251124;-0.115579315;-0.10290268;-0.04550783;-0.09367806;-0.037866425;-0.11057256;0.027447436;-0.061947986;-0.053795423;-0.029020138;-0.023427181;-0.078031644;-0.010325661;-0.02029376;0.004464454;-0.064569294;-0.04790067;-0.01856815;-0.0058581736;-0.046381712;-0.032172922;-0.07032836;-0.00876159;-0.066665374;-0.030859957;-0.030032592;-0.06518167;-0.034402207;-0.064838365;-0.11142882;-0.057469662;0.09907181;0.028019013;-0.113946564;-0.084062956;0.02160489;-0.028896868;-0.041645102;0.048713848;-0.06991828;-0.16147003;-0.024746777;-0.12091693;-0.039109852;-0.018239874;-0.06701394;-0.102166876;-0.13619581;0.0014419723;-0.014673785;0.1167133;-0.08578279;-0.15461889;-0.03149846;0.022577314;-0.091425195;-0.008821947;-0.058976356;-0.010266616;0.066412054;-0.048391074;0.007430345;-0.09513911;-0.032101035;-0.09317912;-0.0029919331;-0.077673316;-0.07424425;-0.03655031;-0.0373016;-0.026854541;-0.11237348;-0.038849905;0.015836673;0.013666249;-0.04561853;-0.12805636;-0.018606907;-0.0009660939;-0.06912342;-0.03768242;-0.1097186;-0.04809769;-0.095261626;0.09916349;-0.079813495;-0.016580487;-0.051796343;0.044540532;-0.23642965;-0.020282708;-0.031334504;-0.004508126;-0.06921637;0.024541996;-0.01961383;-0.03305175;-0.12257972;0.07174247;0.013265687;-0.018592771;-0.06831439;-0.007975488;-0.062258344;-0.026758412;0.015542293;0.07805313;-0.049374416
0.017366376;0.036063105;-0.07576029;0.06937451;-0.009572865;-0.038258422;-0.016365428;-0.049998008;-0.0035967298;-0.065349;-0.020299086;-0.047584552;-0.05316625;-0.081154495;0.06760534;0.04611082;-0.0037017977;-0.150149;-0.012631574;0.016700651;-0.052869447;-0.019109583;-0.062876165;0.045184057;-0.06607991;-0.06472203;-0.06254244;-0.11785373;-0.037682787;0.06749134;-0.003677237;0.050142556;0.047256168;0.094464265;-0.053109918;-0.09755049;-0.075430036;-0.12550446;-0.050088894;-0.1207227;-0.08726479;-0.09935813;-0.050290525;-0.09337245;-0.1690856;0.007928132;-0.0011382955;-0.05347568;-0.020362468;0.02227563;0.0315086;-0.017095996;-0.060256097;0.034684807;-0.1209437;-0.021338837;0.053377643;-0.007276786;-0.0687676;-0.0061602504;0.0662602;-0.19984639;-0.0010782667;-0.18911041;0.001736924;-0.19818652;-0.0631782;-0.1313686;-0.012723456;-0.14688739;0.025674002;-0.052567214;-0.16443856;-0.10040141;-0.15312476;0.033615567;0.0027018092;0.054220043;0.0024855237;0.0113579575;-0.09759128;0.042880513;0.07804277;-0.1488876;-0.11091235;-0.110624805;-0.012168423;-0.09235719;-0.00037247062;-0.030063571;0.043828722;-0.06318302;-0.10954713;0.12889348;-0.079415984;-0.05922791;0.023367312;0.029813778;-0.17214848;0.05155034;-0.023052908;-0.04415876;0.001044192;0.0035361121;-0.033527452;-0.09735752;-0.10639438;-0.09825729;0.025564857;-0.14827144;-0.06981961;0.015231287;0.041258425;0.10916806;-0.033944678;0.027885245;-0.09623424;-0.018957302;-0.01793515;0.016691305;0.027268011;-0.07600216;0.043827154;-0.12429032;0.006228113;-0.035316005;-0.09648028;-0.10967367;-0.029169373;0.055638462;-0.09689079;0.02443824;-0.013222498;-0.0772903;-0.14129052;-0.030298866;-0.0047218953;0.029116685;-0.07093026;-0.13188945;-0.09189196;0.15620235;0.049814183;-0.06162085;-0.100936845;-0.050301056;0.00655122;0.032367494;-0.023353351;0.017419921;-0.0726975;0.0053328066;-0.09121554;-0.019223623;-0.07194627;-0.03828724;-0.054922357;-0.017777303;0.039337743;0.011759003;0.04411499;-0.029168757;-0.0062012146;0.07012318;0.005659977;-0.101972714;0.020935718;0.052595872;-0.043513577;0.01428277;-0.037757806;0.051096175;-0.046050433;0.016128225;-0.07161688;-0.009901592;-0.016592385;0.00013596035;0.1309856;-0.06925637;-0.10031814;-0.009473409;-0.02285108;-0.09511011;0.0012600605;-0.075986534;-0.11353064;-0.110918544;0.0035610124;0.046708036;0.020720366;-0.026849447;-0.012124872;-0.033889238;0.00084899046;-0.026722372;-0.08118106;-0.10207191;-0.03397249;-0.01723857;-0.004124466;0.049685165;0.06353146;0.042609606;0.014732946;-0.06506684;-0.06100342;0.14049628;-0.06591409;-0.011729615;-0.040776882;-0.0867749;-0.0063795857;0.033063807;-0.05408496;0.022642007;-0.0418898;-0.049369197;0.0022168371;-0.08378678;-0.066633575;-0.0723004;0.012253781;-0.019060329;-0.09286389;-0.08437348;0.12071942;0.051543117;0.0464337;-0.015744044;-0.017652916;-0.016348315;-0.013446888;-0.037159413;-0.08596187;0.06522922;-0.06477067;-0.07411114;-0.07910233;-0.056365192;-0.052901786;-0.032128528;-0.01917556;-0.04532065;-0.018804096;-0.0293901;-0.022485184;-0.0014144802;-0.03517541;-0.06617394;-0.12128755;0.01502705;-0.038827565;-0.05992194;-0.1416446;0.0011200019;-0.0006888321;-0.017823115;-0.012084854;-0.09270332;-0.06345771;-0.03598132;-0.110280424;0.035727654;-0.09976063;-0.030121258;0.055825595;-0.057667654;0.09779113;-0.05405745;-0.106631;0.023454193;0.004401109;-0.100613706;0.0020985573;-0.024809731;-0.086126275;0.037257887;0.028500607;0.026396802;-0.047804892;-0.15456042;0.04429224;-0.10400825;0.04253758;0.044125028;-0.041240342;-0.08198676;-0.08808831;-0.07138532;-0.015241787;-0.11263377;0.03226807;0.052494153;-0.077111065;1.2730532e-05;-0.014212087;0.17204696;-0.25920826;0.04208943;0.026257778;-0.005079232;0.017408997;0.01856448;-0.1638714;0.042954847;-0.07053585;-0.047810372;0.043644536;-0.051696867;0.0041989973;0.008690701;-0.024000706;0.021457782;-0.03974735;0.16674365;0.00037760247;-0.010602793;-0.02650902;-0.11068552;-0.030101765;-0.06275241;-0.12323719;-0.111422576;0.06421365;0.052734215;-0.08170404;0.042604737;-0.052696683;-0.0040974715;0.018816559;-0.008051113;-0.089094944;0.00650087;0.057190415;-0.06850866;-0.15843612;-0.08924906;-0.07177179;-0.0568831;-0.060220916;-0.12738857;-0.01042385;-0.0063246405;0.15679176;-0.1332252;-0.005340663;0.0150621;-0.10568766;-0.07810296;0.11227077;-0.060290236;-0.059114963;-0.05723226;0.07147;0.0592033;0.1510432;0.021685088;-0.041543715;-0.04783728;-0.049939483;-0.047183797;0.11711332;0.067567624;0.044504296;-0.10339848;-0.048384078;0.030595545;0.032084726;-0.05995951;-0.05544888;-0.082482874;-0.13221268;-0.099024735;0.0015112832;-0.054272514;-0.036757614;-0.026293037;-0.010232098;0.009952955;0.026110504;-0.08726118;0.034053832;0.077028416;0.08051443;0.011502823;-0.061053794;-0.014463894;-0.12611859;-0.0059653246;-0.09047547;-0.03909428;-0.08728694;0.04817237;0.005202931;0.017037343;0.05749751;-0.11540871;0.08811968;0.02394306;0.036282912;0.03834989;-0.09413348;0.07799342;0.027853379;-0.07386873;-0.04686588;-0.2117615;-0.01754423;-0.015872879;-0.05304257;-0.033370536;-0.031202389;0.03220052;0.03995125;0.0692744;-0.090233065;0.0061636204;-0.01807138;-0.095544904;0.014007589;0.032080453;0.013445067;-0.073557444;0.00035537683;-0.09417923;0.033426933;0.034233905;-0.06447371;-0.0941578;-0.10139542;0.09141342;-0.12097201;0.04991192;0.008120099;-0.10817128;-0.07450175;-0.11237926;0.011252085;-0.13053782;-0.08418332;0.070367776;0.030704593;-0.013631213;0.07897815;0.050508395;0.024121454;0.023544846;-0.10088439;0.008893765;0.005027852;0.058417212;-0.091920845;-0.11029658;-0.021274045;-0.08781867;0.04722419;0.03223588;-0.0022235692;-0.03349775;0.011482935;0.022139043;-0.005231283;0.04244189;-0.093077734;0.053543925;-0.047200046;-0.0947501;-0.08295985;-0.06483626;-0.12943462;-0.061355334;-0.061329924;0.046911396;0.044487774;-0.07397375;0.030688882;0.024313422;0.030028123;-0.020218618;-0.027289266;-0.045712337;-0.048328366;-0.06412754;0.096418284;-0.012315186;0.036636993;-0.04810088;-0.054343972;-0.04034411;-0.093463436;-0.107753575;-0.05065621;0.015163843;0.015659936;-0.06743675;-0.11819078;-0.017649138;-0.03423812;0.076865174;0.047734488;-0.0072878934;-0.069947556;-0.0463712;0.0070438036;-0.12295384;0.012713376;-0.044818066;-0.027529538;0.014358682;-0.06454098;-0.0824862;-0.10782553;-0.022744779;-0.07572189;-0.035408363;0.030818285;0.026458915;0.061644457;-0.100216135;-0.18336594;-0.12734371;-0.118960164;-0.07060617;0.004126081;0.018038096;-0.009834805;-0.011005091;-0.054758444;0.012054145;-0.08653677;-0.020011358;0.07092597;0.016846528;-0.060782805;0.023259217;-0.08826063;-0.08156295;-0.09388161;-0.015888188;-0.009314817;-0.08331921;0.07049064;-0.053172156;0.016298562;-0.11919181;-0.047392625;-0.021426553;0.04193015;-0.12358555;-0.0900206;-0.027985923;0.06308972;0.03232433;0.05814316;-0.01813091;-0.019120585;-0.20621781;0.02106292;-0.09700472;0.034263976;0.0059329136;-0.05438892;-0.027043767;0.031088928;-0.17152707;-0.002974004;0.011868354;0.117896155;-0.18994232;0.00095364463;-0.05282321;0.03996615;-0.043337073;-0.050304163;0.018199842
-0.043230873;-0.047530767;-0.053585023;-0.08848312;-0.04943725;0.04086324;0.053206384;-0.11816337;-0.016875394;0.0022850297;-0.011414518;-0.043686662;-0.031924263;-0.06763604;-0.08312863;-0.082985036;-0.13843153;-0.11239876;-0.08724014;0.061937455;-0.10151569;-0.12871838;-0.02900744;-0.07925397;0.013794877;-0.20114277;-0.111661345;-0.03354943;-0.13381547;-0.083841756;-0.06310885;-0.029172463;-0.073785305;0.0516527;-0.16838114;-0.052858327;-0.0575492;-0.055969033;-0.09905202;-0.0675305;0.021159772;-0.11518668;-0.09504729;0.0013442839;-0.20920385;-0.098521136;-0.04701179;-0.0494902;-0.08908068;-0.006693535;0.049238365;0.012261828;0.027661342;-0.02725643;0.03765431;-0.07131589;0.037225578;-0.034618136;0.00030552878;-0.04285276;-0.034843866;-0.0806631;0.14175561;-0.16841093;-0.0077581694;-0.09424099;-0.046567027;-0.07832318;0.016299851;-0.13228717;-0.025643265;-0.079900876;-0.04517284;-0.06523505;0.002296435;0.07952376;0.02828305;-0.089486375;0.08715757;-0.033692997;0.026591947;-0.08463354;0.06343514;-0.1198097;0.025694324;0.0133027695;-0.048087668;-0.012250544;-0.0118243685;-0.019979164;0.029816689;-0.005159483;-0.11156461;0.1888161;-0.02047696;-0.09704439;0.028038003;-0.025513856;-0.04674866;-0.10854671;0.055331413;-0.08558147;-0.015588841;0.048070006;0.049680203;-0.022660248;-0.114091516;-0.019899806;0.009955983;-0.042990837;-0.17481357;0.039276864;-0.022999188;0.041141648;-0.004126572;-0.06426474;0.017296856;-0.10089356;-0.13993298;-0.04537202;-0.005135117;-0.013288466;-0.017951861;-0.03006976;-0.07428061;-0.093033634;-0.088523485;-0.0059538516;-0.04963061;-0.052033763;0.027231984;0.028390039;-0.07185267;-0.033161446;-0.19586477;0.051129144;0.08189845;0.111806415;-0.05879254;-0.12193316;0.03366302;0.1692009;0.081805654;-0.053871695;-0.06528835;-0.031625915;-0.018033251;0.030103728;0.023953164;-0.07643161;0.013087962;0.013061797;0.0022086678;-0.035725374;-0.008256475;-0.19085717;-0.11935618;-0.08377009;-0.07835937;0.012846134;0.035655946;-0.14409064;-0.031979322;0.0974785;0.036405884;-0.049444553;-0.044292144;0.046809293;-0.07595229;-0.09061988;-0.10715474;-0.030276742;-0.034304652;0.15490384;-0.09868741;-0.06772317;0.02488402;0.02971908;0.045194805;-0.063435525;0.0032119667;-0.06279173;0.02625427;0.00819614;-0.11800624;-0.017870048;-0.16032916;-0.031377155;-0.017228369;0.019650243;0.030234223;-0.06759478;-0.022343533;-0.078042;-0.06776585;0.046156086;-0.0018506029;0.010150404;-0.031817872;0.019732405;-0.013507288;0.052101426;0.05494566;-0.102139674;-0.067529544;-0.053974573;-0.12258512;0.15617315;-0.062954836;0.028493684;-0.13120459;-0.056137282;-0.017691078;-0.043281246;-0.09310895;-0.06594509;-0.038737733;-0.096005455;-0.13383332;-0.107539155;-0.09169903;-0.11134758;0.04770488;-0.00020597025;0.046228603;-0.015789185;-0.026134623;-0.032897316;0.011972494;-0.01385443;-0.026468493;-0.006728873;0.012639833;-0.07501127;0.050526362;0.031868197;-0.08084469;0.025806326;-0.087572694;0.026994834;-0.05966867;-0.005461244;-0.030012878;-0.022804545;-0.0024837344;0.0067120614;-0.13540767;0.004765819;-0.008522363;0.012318154;-0.03077058;-0.05070475;0.11939905;-0.06998412;-0.06570367;-0.05002343;-0.051891927;-0.10136857;-0.16724591;-0.02455941;0.066509865;-0.037997615;0.042948246;-0.103977054;-0.06992101;-0.06990684;-0.03540322;-0.032945085;0.14232205;-0.09742557;-0.014045853;-0.04574513;-0.08493673;-0.02355465;0.1000242;0.0070130373;-0.05619029;-0.029568274;-0.035310067;-0.021485945;-0.031898092;-0.12515172;0.04819214;0.00534672;-0.09229835;-0.09083163;0.048934575;0.022606993;-0.024690894;-0.00040626794;-0.019338794;-0.15973705;0.0049572843;-0.003169013;-0.0038106344;0.11787365;0.017599259;0.054750465;-0.26784572;-0.04330975;0.020668466;-0.05042009;-0.08078191;0.05193465;-0.12886015;-0.018458603;-0.061920084;-0.060113497;0.08071768;-0.07291781;-0.04363289;0.02771763;0.037441675;-0.08499198;0.00952461;0.21810092;-0.03604527;-0.088824786;-0.027499493;-0.086463645;0.056251146;-0.0728176;-0.11496761;-0.04387527;0.045179598;0.030295378;-0.0011704881;0.05617692;-0.070304945;-0.069566734;-0.059072882;0.022056041;-0.04118849;0.010495999;0.09097657;-0.011116193;-0.103815146;-0.0005536557;-0.12412756;0.009968361;-0.13660742;0.022965496;-0.08085558;0.010845373;0.15495612;-0.07169417;-0.023531532;-0.11190493;-0.037945278;-0.048700973;0.078883186;-0.0025174234;0.008295833;0.05375639;-0.050813653;0.007299919;0.17331894;-0.10413425;-0.07803737;0.028431939;0.030185854;-0.050512325;0.14086293;0.00993589;-0.008174747;-0.062093303;0.059350014;-0.05851078;0.059672017;0.003330212;-0.017905796;-0.030762771;-0.042285327;0.0032174946;-0.021931302;-0.058255717;-0.08403488;0.048532262;-0.10636814;-0.087099336;-0.030315932;-0.08911006;0.07128438;-0.0045735785;0.10677507;0.027395267;-0.07445903;-0.15358251;0.0027638283;-0.096680924;-0.08383938;0.09320212;-0.029067654;0.06255207;0.11806071;0.027056813;-0.042104594;-0.039401714;-0.016140537;0.03226786;0.029952595;-0.10056914;0.050793566;0.0009813623;-0.0878216;-0.02915534;0.015496735;-0.11996187;-0.05194391;-0.08877534;-0.13583672;-0.033632547;-0.11140525;-0.07364211;-0.0005413286;0.119930044;-0.050326597;-0.07113746;-0.022269797;-0.13466164;-0.014431353;0.07303429;-0.018929275;-0.021476807;0.0048950366;0.033850696;-0.08488012;-0.1071325;-0.039708633;0.02928242;-0.030091668;-0.06638331;-0.02202002;-0.010032242;-0.09333543;-0.030598389;-0.027445167;-0.067770176;-0.10375316;-0.0861209;-0.12854002;-0.0357289;0.022868428;-0.018289166;-0.0047785304;-0.026138611;0.007827091;0.029430836;-0.04434555;-0.023814987;-0.0149437785;0.005035808;-0.033539817;-0.0039005384;-0.017801775;-0.0432431;-0.00011650819;-0.08615397;0.013219843;-0.093005605;-0.05496931;-0.052787717;0.05851025;-0.074703924;0.027803613;-0.09521015;-0.03738635;-0.15112847;-0.09349297;-0.15556896;-0.18548001;-0.13253742;-0.101998486;-0.097034626;-0.011436438;0.02474068;-0.10574362;-0.025431495;0.024508711;-0.04233805;0.018231327;0.055277903;-0.017788105;-0.09405493;0.042520184;0.045623045;-0.026395347;-0.09588563;-0.08521942;-0.071470045;0.0008878434;-0.06857806;-0.10179934;0.015992666;0.017737769;0.038669225;-0.11984053;-0.04628243;-0.03834102;-0.022863433;0.050401933;-0.0339295;-0.12877314;-0.057754997;0.011825099;-0.054010402;-0.0846146;0.04469736;-0.16599435;-0.048640054;-0.09262769;-0.088593125;-0.103429236;-0.050887443;-0.0746879;-0.15517619;-0.05714206;-0.0880218;0.19640733;-0.11133799;-0.26075688;-0.021840556;-0.12225241;0.023455875;0.042763695;-0.08003534;-0.011649073;-0.07491364;0.054118033;0.009757323;-0.064889394;-0.08873285;-0.048385512;0.10423725;-0.066418655;0.053375386;-0.011647039;-0.026255567;-0.10206916;-0.040734768;-0.12585922;-0.02687196;-0.032558564;0.070393436;-0.06413064;-0.046730917;-0.024087101;-0.012404929;0.024229415;-0.14331141;-0.014413941;-0.019249974;0.032872606;-0.07452831;-0.025693811;0.03955975;-0.0044338955;-0.21037322;-0.007529448;-0.054534357;-0.093242966;0.016367508;-0.097226515;-0.019799566;-0.0851954;-0.17104806;0.014944193;-0.016194483;0.123321645;-0.026672972;-0.091570824;-0.013175593;0.028802995;-0.06793561;-0.015371858;-0.059621587
-0.032106146;-0.035124432;-0.026114047;-0.06590894;-0.122867905;0.034694005;-0.025510203;-0.112358764;-0.049182136;-0.056205884;-0.07093738;-0.12743378;0.03547734;-0.07750852;0.07246054;-0.08629275;-0.12437328;-0.15651472;-0.04160572;0.058824852;-0.10051785;-0.06880017;-0.05207482;-0.019077316;0.02947465;-0.062082566;-0.014149021;-0.034866806;-0.011562481;-0.04945942;-0.09548091;-0.08255137;0.013892857;0.025499646;-0.14757335;0.048962627;-0.061142918;-0.042913068;-0.16413671;-0.027238911;-0.03544712;-0.06603135;-0.103433;0.008410107;-0.20973213;-0.020210115;-0.08624434;-0.035807036;0.043685168;-0.010195581;-0.052373827;-0.07267909;-0.0879791;-0.053750757;0.017180184;-0.034676213;0.05379937;-0.0039173895;-0.018494776;0.0010390651;0.022158535;-0.07468823;0.010177107;-0.0577648;-0.04961507;-0.13844019;0.005471439;-0.12720834;-0.07674785;-0.06254015;0.0050235027;0.03227571;-0.11593689;-0.057427935;-0.18525653;-0.033004813;0.010917151;-0.11433462;0.10577648;-0.14506912;0.009169977;-0.04981272;-0.05019229;-0.08851477;0.026714759;0.025851315;-0.0031886906;-0.077508815;0.012527518;0.03453597;0.03221977;-0.11889374;0.020690352;0.096256055;-0.08511917;0.021820324;-0.08734705;-0.081480175;-0.12410624;-0.116201006;0.021654667;-0.11514226;-0.05250589;-0.04616858;-0.023731261;-0.018688379;-0.05441928;0.030943053;0.07631086;-0.022537045;-0.11737692;0.026509158;-0.106551014;0.050902516;-0.088473976;-0.019641856;-0.0051138755;-0.04220998;-0.0076002213;-0.08271607;-0.013248831;-0.07534326;0.024630228;-0.099213906;-0.06932227;-0.048104156;-0.086793795;0.01943205;-0.070456594;-0.08338068;0.008020437;0.02572322;-0.08747461;0.0102021415;-0.09651483;-0.041905485;-0.034741532;0.0044451817;-0.094970554;-0.02425936;-0.08030051;0.034559272;-0.044036508;0.0614482;-0.0994228;0.029686807;-0.05614417;-0.03626215;-0.0030129086;0.005426373;0.003253539;-0.023654653;-0.020261893;-0.04882178;-0.09845133;-0.17771198;-0.010562589;0.0053595714;-0.0151842795;-0.01889879;-0.0701672;-0.13900816;-0.008969269;-0.018624263;0.00610224;-0.06715856;0.031429496;0.010742099;-0.17161454;-0.010304316;-0.13471888;-0.0052588633;-0.09336241;0.0048954613;-0.098743595;0.0117296;-0.017469896;-0.0063290694;0.07465621;-0.064241916;-0.06646102;-0.14145291;0.0144692045;-0.07437318;-0.038318716;0.047882784;-0.10239031;-0.07834452;0.028631957;0.03257905;0.053403296;-0.09584289;-0.014446315;-0.08423855;-0.024687901;0.0805208;0.038945183;-0.0063390927;0.03681335;0.014242299;-0.011920816;-0.104259744;0.042469483;-0.06088146;-0.026129883;0.017816389;-0.04398349;0.23315129;0.024614265;0.063108295;-0.017753487;0.031697735;0.052316505;0.06379981;-0.12594953;-0.058840755;-0.025261307;-0.032534327;-0.029653918;-0.0950163;-0.1334162;-0.12595493;0.004148955;0.013216029;0.012884401;-0.00281734;0.018665839;-0.016474979;0.056889527;-0.096866794;-0.051512662;-0.05546984;-0.058577724;-0.0063202134;0.011310824;-0.022467766;-0.0018610753;0.039253615;0.021076322;-0.09207342;0.027607363;-0.051459216;-0.10117509;-0.06164776;-0.059477463;0.03936459;-0.028994102;-0.07892478;-0.117465876;0.02427853;-0.117240384;-0.101738356;0.046149336;-0.04990546;-0.069825694;-0.066338606;-0.09028808;-0.040946476;-0.14490482;-0.104782775;0.0050212657;-0.0568883;-0.03539713;0.043285374;-0.032652706;-0.024366783;0.09342039;-0.015199889;0.03954322;0.02406052;-0.0021855428;-0.07080765;0.03936705;-0.059399046;0.1347091;0.047406998;0.025521893;0.03108369;0.009622184;-0.02638529;-0.092168115;-0.12308361;-0.008600508;0.006761099;-0.046086743;0.051028013;-0.074720375;0.054030087;-0.081113726;-0.019253628;-0.10696176;-0.09185722;-0.013756311;0.013407944;0.01976079;-0.03955924;0.043930333;0.10243242;-0.20661977;-0.024724491;-0.10229374;0.021162389;-0.075141475;-0.0671216;-0.04653552;0.009783007;-0.051316965;-0.08040767;0.074198715;-0.0555574;-0.021780653;-0.053683195;-0.03524362;-0.016070794;-0.04357804;0.20317936;-0.015482404;-0.072338045;-0.0051354216;-0.05895146;0.026589498;0.04532613;-0.018519087;-0.11432798;-0.008186882;-0.0001455754;-0.055759087;0.0007791534;0.043834746;-0.08669322;0.0045362785;-0.05098872;0.02372279;-0.079192966;-0.01206324;-0.07960389;-0.099313125;-0.0012077127;-0.10442524;-0.016425833;-0.17739475;-0.11395399;-0.02444588;0.035856795;0.09437577;-0.14897673;-0.098225005;-0.10386789;-0.09598637;-0.13207686;0.114255056;0.009784392;0.026308581;-0.0054916414;0.01390576;0.039257012;0.19470587;0.027449757;0.040937386;0.053026106;-0.08647403;-0.057321224;0.17321368;0.04148358;0.04228766;-0.09928165;-0.06827977;0.10500042;0.0638114;0.0339211;-0.09867057;0.044773154;-0.09094291;-0.0009569511;-0.019947;-0.109421276;-0.07756837;0.022678087;0.017627224;-0.07956655;0.02759503;-0.010720817;-0.06720457;0.13127738;0.0006215589;-0.035000604;-0.0020622707;-0.040090434;0.01768477;0.0360966;0.033032175;0.017491022;-0.058493212;0.06219291;0.058298778;-0.09444664;-0.027464949;-0.040396154;0.0060037524;0.030968485;0.05356387;-0.0020881363;-0.02572175;0.078327715;-0.061957426;-0.046194125;0.01352403;-0.17487384;-0.14574051;-0.038188603;-0.084297866;0.031364635;-0.07791169;-0.0029094096;-0.044117916;0.030013468;-0.02074403;0.020974;0.059901804;-0.108422376;0.022610525;0.035271563;-0.103214815;-0.056262042;-0.04106541;-0.06729377;-0.01121705;-0.068618715;-0.0145809045;-0.065735996;-0.056239545;0.092473455;-0.08231256;0.025893351;-0.015950944;-0.058311567;-0.116270304;-0.104687914;-0.10112745;-0.07642926;-0.012371646;0.006928191;-0.098339655;-0.094406165;0.04059941;-0.012529258;-0.08636837;-0.0878166;-0.109497115;0.003152201;-0.025579114;-0.06147142;-0.028107561;-0.057842437;0.011349688;0.038616106;-0.027609829;-0.07323002;-0.10394177;-0.1113746;-0.032447062;0.018149097;-0.032308817;0.022979578;-0.07135994;0.051183593;-0.0067197555;-0.09651225;-0.043394003;-0.040561903;-0.12788121;-0.0708495;0.030123204;-0.0991233;0.015133896;0.010817691;-0.059403956;0.019490853;-0.026373688;-0.09443526;-0.07741909;0.063664325;-0.068364866;0.052063577;-0.033685733;-0.10719872;0.0075647826;-0.03151149;-0.104255654;-0.0022878044;0.064854816;-0.044815313;-0.11952339;0.02430696;-0.118723415;0.054016147;-0.022762483;-0.10477294;0.030644283;0.09668748;-0.090717524;0.054062594;-0.06548521;-0.0501796;0.04871919;-0.12093817;-0.021355977;-0.115249075;-0.054944463;0.023157;-0.017125864;-0.025557697;-0.045459058;-0.046733677;0.03986696;-0.06780005;0.036756422;-0.061975677;0.07311688;-0.09070414;-0.15955736;0.00054272945;-0.021418702;-0.08834538;0.06805884;0.022670591;-0.06016684;0.031039286;0.10152949;-0.07179046;-0.10056439;-0.00597878;0.035936095;0.09359479;-0.12212824;-0.09502585;0.025412586;-0.077452086;-0.05440497;-0.124699414;-0.14543721;0.04050376;-0.08108116;0.075032435;-0.0361085;0.05166959;-0.034312014;-0.015272523;0.046600565;-0.10710314;-0.12244817;-0.039262265;0.109568365;0.039889712;0.0556512;-0.03367759;-0.0020726952;-0.21781391;-0.067143075;-0.13558432;-0.08945538;0.024782857;-0.0062195626;-0.0058392663;0.0018974835;-0.21922201;0.10517293;-0.046510804;0.1393358;-0.058832496;0.02007209;0.018412739;0.06467789;-0.06943691;-0.037061423;-0.06315419
0.045472432;0.03765472;-0.03640268;0.005846236;-0.016943917;-0.08454123;0.13519816;-0.022571694;0.040603176;-0.050788496;-0.053037386;-0.050287914;-0.11887787;0.026689269;-0.066639364;-0.10551261;-0.14087878;-0.018452823;-0.11373052;0.0064657633;-0.08813373;-0.077869885;0.060208462;0.023481876;0.0139119;-0.12811458;-0.06734802;-0.09073699;-0.08384877;-0.014390525;-0.0035382395;0.037854236;0.00961388;0.092281125;-0.051942002;-0.073843375;0.0033881457;-0.049592223;-0.07943681;0.027185747;-9.303333e-05;-0.14634386;-0.03902069;-0.08729551;-0.10931711;-0.083100766;-0.076073475;-0.0522021;0.046161022;-0.06011885;0.04661084;-0.058705777;-0.07016117;0.014866358;0.02183609;-0.045183733;-0.028214231;0.0713478;-0.054869805;-0.08456833;0.005477366;-0.15628295;0.12746128;-0.043040015;-0.0024610767;-0.19602469;-0.024509972;-0.06655137;-0.12974674;-0.12955314;-0.07582549;-0.022334788;-0.15866451;-0.037795983;-0.059326164;0.12257053;-0.009987424;0.002192828;0.13516025;-0.152636;-0.06726131;-0.030556798;-0.06711412;0.0072988183;-0.027817111;-0.04122556;-0.052000012;0.037683357;-0.07252169;-0.06261457;0.043606557;-0.075430736;-0.08761948;0.12403359;-0.04574704;-0.12866412;0.018780755;-0.03291457;-0.040935297;-0.09403504;-0.06931719;0.042845074;0.029385109;0.02063695;-0.0907315;-0.019669319;-0.045425843;-0.04715186;0.033664457;-0.013544242;-0.19686763;0.028163474;0.04955757;0.0040478166;0.030950552;-0.026042609;-0.053428736;-0.06890216;-0.09201115;0.031690903;-0.13171147;-0.050882906;-0.015624857;0.027985742;-0.09072283;0.0146917505;-0.16494758;-0.0077853845;-0.024078205;-0.001626977;0.038691044;-0.1002129;-0.0062194997;0.0024012835;-0.14518468;-0.043870788;-0.09567191;0.100815974;-0.032733712;0.0461688;-0.07057685;0.13381225;-0.064573176;-0.07418883;0.018726809;0.015227846;-0.11921906;0.037101347;-0.0775835;-0.09570876;-0.1017989;0.05403194;-0.04730381;-0.010846731;-0.012792344;-0.16341995;-0.105745606;-0.030406024;-0.04548406;0.007219035;0.040901538;-0.038838353;-0.11474591;0.06374904;-0.07392499;-0.057619926;0.052972227;-0.051046442;-0.04813627;-0.016564712;-0.0386412;0.057574578;0.024945764;0.13183215;-0.030496556;-0.061900668;0.06973299;-0.06736685;0.051386017;0.028414946;0.043770373;-0.103488214;0.044722617;-0.14699203;0.020808285;0.030625012;-0.08283548;0.010283495;-0.07977358;-0.07601879;-0.040272884;-0.011033013;0.017645197;-0.067284375;-0.0664493;-0.030710928;-0.07062287;-0.106316514;-0.029120417;0.015119572;0.043327086;-0.03869702;-0.08895312;-0.10097602;-0.05024611;-0.119815;-0.16726404;0.1616295;-0.027072541;-0.051894158;-0.011728041;-0.10613915;0.06475618;-0.017947137;0.008218208;-0.035655487;-0.08333964;-0.057466198;-0.050398473;-0.04402198;-0.16529126;0.022677606;0.04885601;-0.025239103;0.056398146;0.0018817633;0.030989265;0.011307895;0.06534524;-0.09691856;-0.06640332;-0.010557191;-0.035788096;-0.083790146;-0.038053416;-0.09656083;-0.051447283;0.020952692;-0.002463425;0.027937787;0.013820241;-0.12062889;-0.087802805;0.0831352;0.018422568;-0.10346782;-0.11763653;-0.09173686;-0.097547226;0.004220285;-0.07356371;0.01453801;0.08128583;-0.06454818;-0.07093029;-0.07090206;-0.06565866;-0.0056974194;-0.008373373;0.054949928;-0.038989875;0.04439446;0.025678234;-0.073227584;-0.09528689;-0.010749363;0.04555067;-0.1315998;0.054557633;0.008190144;-0.10567589;-0.088185556;0.047067247;-0.056259315;0.16005383;0.013114982;0.006665186;-0.08577443;-0.0864967;-0.09365969;8.315997e-05;-0.23219264;-0.09702187;-0.06719451;0.060677066;0.045603085;-0.052825093;-0.04667423;-0.16249776;-0.0066937525;-0.104110144;-0.19055757;0.011093515;-0.020754667;0.02759137;0.095282465;0.009415984;0.17721044;-0.13891353;-0.06474053;-0.05240514;-0.040594626;-0.010918689;0.031809893;-0.05212575;0.06204018;0.009243687;-0.11914142;-0.051814616;-0.051307507;-0.03845886;-0.07237603;0.03807729;-0.078978285;-0.05613725;0.21821915;0.025882812;-0.053795017;-0.05035103;-0.020320231;0.02669022;0.07021635;-0.058345675;-0.06994378;0.06456022;0.023765951;-0.014012466;0.029164195;0.043793537;-0.12541747;-0.10695205;-0.035374902;-0.031998016;-0.10032403;-0.022384305;0.06627049;-0.088948674;-0.06291843;-0.067309216;-0.056718025;-0.06173482;-0.11802227;-0.091530696;-0.03472908;0.1422882;-0.048777595;-0.048887867;0.03399652;-0.075501375;-0.04946484;0.082657225;0.021104585;0.035251185;0.03830202;-0.08895259;0.007785081;0.16118035;0.060571752;0.066193216;-0.074473016;-0.008693199;0.025489802;0.0455233;0.06219251;-0.07903695;-0.08378889;-0.058156487;0.04702038;-0.003924362;-0.061424877;-0.08581364;-0.044227652;-0.0056485375;-0.069113515;0.014696855;-0.08632865;-0.09902449;-0.031465203;-0.120378196;-0.094476104;0.027238647;0.020323137;-0.04803651;0.012900742;-0.0035203758;-0.04238911;-0.011213693;-0.0936574;0.018490683;0.0394378;0.051253997;0.04166231;0.034990955;0.029887369;0.041320708;0.010210534;-0.016655011;-0.1386753;0.01826883;-0.10535974;-0.0142571125;0.022974962;-0.10614948;0.061951;-0.01985166;-0.08035681;-0.027546175;-0.1746508;-0.14284925;-0.026446246;-0.041362837;-0.10629481;-0.008433085;0.0027520698;-0.102427416;0.062115006;-0.114520974;-0.099336036;0.04250407;-0.099176444;0.004805069;0.13226774;-0.02486787;-0.014461461;-0.1055602;0.014799598;-0.096958905;-0.1054084;0.07268253;-0.09262695;-0.11376166;0.10240512;-0.12030848;0.08946694;0.02338433;-0.086312816;-0.11162976;-0.15948065;-0.024089504;-0.09920025;-0.092860244;0.054841314;-0.004551236;-0.06938561;-0.016046586;0.011593699;-0.086194515;-0.03915488;-0.0125281615;-0.073439956;-0.07605686;-0.08448823;-0.0177179;-4.5748187e-05;0.017613007;0.028608376;-0.01757602;-0.13840418;0.0016292256;-0.07696829;-0.055354528;-0.043473117;-0.058733746;-0.06137462;0.0024895188;-0.033588316;-0.09117447;-0.08576126;-0.06877938;-0.11063798;-0.11552431;-0.10139006;-0.025862617;-0.06375156;-0.042636205;-0.07912977;-0.089698374;-0.021226507;-0.075322926;0.0031004415;-0.046389535;-0.02443616;-0.04452239;0.0023166796;0.09950923;-0.07431547;-0.05070409;-0.119516805;-0.06423502;-0.08382709;-0.053555947;-0.1101647;-0.058170747;0.055223227;-0.0508279;0.06408485;0.028044106;-0.011233329;-0.0002445832;0.055508476;0.06143868;0.010579325;-0.07182449;-0.0533955;0.03637823;0.028163182;-0.002910273;0.0051437374;-0.0058052693;-0.01978742;-0.0015224073;-0.16834357;-0.0044237054;0.03076736;-0.023400161;0.0063086757;-0.108212896;-0.04403079;0.13275279;-0.03197044;-0.2029261;-0.075030625;-0.017153097;-0.08077733;-0.06379649;-0.09352331;-0.06174931;-0.062710054;0.012081737;-0.056759983;0.054134253;-0.03400189;-0.021322874;0.06160907;-0.116347045;0.06222928;0.03324263;-0.020290129;-0.014313631;-0.04040662;-0.14336587;-0.0298778;0.0038381189;-0.02329633;-0.12507205;-0.014114413;-0.10991947;-0.0007890961;-0.10287891;-0.12719095;0.00079546124;-0.05091322;0.10056981;0.00024986864;0.03817679;-0.08042918;0.05505526;-0.18355083;-0.05594633;0.014958512;0.033304274;0.012507401;-0.016337017;-0.009776302;-0.006849278;-0.16412206;0.018080743;0.05143291;0.061231572;-0.10315929;-0.016350295;-0.080053866;-0.0177073;-0.12363509;-0.014500922;-0.1030288
-0.07621933;-0.060553238;-0.082168475;-0.010815981;-0.043088727;-0.057878356;0.1535965;-0.12990367;-0.038319547;-0.027385222;-0.043539036;-0.04900857;-0.10525211;0.04757147;0.017828064;-0.05607364;-0.03301429;-0.08318542;-0.118837364;0.045590807;-0.06526437;-0.12920262;-0.020113556;0.066783674;0.042170357;-0.18338554;-0.0101408325;-0.0622491;-0.10758505;0.04945654;-0.060764175;-0.0024435648;-0.08495029;0.044884875;-0.15750363;-0.037359856;0.014622521;-0.10868734;-0.112349726;-0.11438903;-0.107211255;-0.07936262;0.012946245;-0.089100726;-0.13753344;-0.07853193;-0.053355034;-0.04322928;0.0031099732;0.023620814;0.035582118;-0.13453576;-0.11181964;-0.065436535;-0.10880193;-0.020313138;-0.025017696;-0.015075419;-0.0029535547;-0.04402306;0.07187814;-0.10315141;0.14888442;-0.19069305;-0.018799169;-0.0729228;-0.0688237;-0.032406963;-0.052059967;-0.17781374;0.052151453;-0.0077422117;-0.06614971;-0.04108649;-0.12679112;-0.047648747;-0.07910777;-0.025896724;0.052849486;-0.05781253;0.029341467;-0.09130611;-0.047847494;-0.084182404;-0.041157532;-0.11254772;0.04589417;-0.111993276;0.016002169;-0.03724376;-0.06926743;-0.009572415;-0.10065388;0.12484195;-0.075661294;-0.07887061;-0.053697273;-0.004068674;-0.069813594;-0.014767142;0.03317255;0.0026081698;-0.0976594;-0.0024243852;-0.07230524;0.017505748;-0.021341806;0.04064815;-0.01722313;-0.0057010497;-0.08952108;-0.04229887;0.039529353;-0.03429732;0.004687571;-0.06287376;-0.043763958;0.0076621724;-0.040000074;-0.057137273;-0.017316863;0.038330454;0.07429851;0.019110173;-0.0033912521;-0.033593453;-0.083529666;0.02302756;-0.050215792;-0.036860995;0.0390077;-0.009306108;0.031960946;-0.01794595;-0.06866475;0.034926277;-0.079608865;0.027262643;-0.056140527;-0.070179485;-0.06308424;0.108708374;-0.05178975;-0.039887704;-0.016458904;0.02096466;-0.020207694;0.0972484;-0.060796764;-0.04541813;0.017969841;-0.11371597;-0.035286523;0.05463583;-0.05918781;-0.12402498;-0.054077994;-0.04687276;-0.03947282;-0.009164017;-0.048885632;-0.06307707;-0.079302795;-0.058715504;0.047359042;-0.033474747;-0.0809215;-0.03429823;-0.027667098;-0.09307924;-0.06444263;-0.05680361;0.04250991;0.118981645;-0.061490037;-0.12610842;0.057501864;-0.087828845;0.08958493;-0.011745548;-0.018668849;-0.017965741;0.014061045;-0.1036695;-0.06245928;-0.011235639;-0.05981936;-0.031159626;-0.058372177;0.014374488;-0.0029330659;-0.032916825;-0.09232034;-0.0726183;-0.077081494;0.06333118;-0.09502571;-0.13141565;0.007590298;-0.10110455;-0.050360993;-0.052687243;-0.079316996;-0.10503479;-0.097949125;-0.07762358;-0.17898862;0.15178037;-0.09855609;-0.011711964;-0.104341485;-0.030877637;0.0034980946;-0.07684729;-0.10685835;0.07215572;0.03463219;-0.06376174;-0.11272956;-0.0630745;-0.13917993;-0.123971045;-0.0683483;0.05180887;-0.10142188;-0.03622929;0.06737415;0.033244293;0.026741376;-0.0025231354;-0.032665417;0.0056538605;0.03582498;-0.10542181;-0.024384974;0.015164617;0.008992538;-0.04727279;-0.0386303;-0.03327262;0.0022801098;-0.060520526;-0.15967026;-0.03361626;-0.06553022;0.014792509;-0.12599224;-0.06584612;-0.10632859;0.06605741;-0.04605272;-0.08892871;0.04650099;-0.08743219;-0.065820605;-0.00023373618;-0.043804307;-0.018260859;-0.12838914;-0.09275246;-0.055406246;0.010081746;0.0005535336;-0.059332043;0.043348044;0.03351291;0.053107537;-0.07928406;0.13295679;-0.10632241;-0.10506464;0.037070043;-0.018721338;-0.09689782;0.10367965;-0.019607272;-0.017506558;-0.035080593;-0.09593685;0.028624685;-0.09737803;-0.1647279;-0.050140224;-0.118435614;-0.021904428;-0.005784841;-0.08209828;-0.08782034;-0.05643947;-0.04018683;0.04043603;-0.13193257;-0.055600997;0.03632244;-0.012795367;0.0012424629;-0.094594665;0.12900995;-0.15483704;-0.11591856;-0.0635964;-0.033563334;-0.08966268;0.05881595;-0.06011138;0.040718276;-0.04606151;-0.032629523;0.06979248;-0.012701675;0.039061185;-0.020121722;0.058851384;-0.11710019;-0.06321513;0.1502537;-0.0115472395;-0.058041975;-0.08690504;0.006011534;-0.05151207;-0.06230099;-0.06670235;-0.06135136;0.0305271;0.11252192;0.0139646465;-0.027781365;0.002244649;-0.09819816;-0.14659512;0.057618923;-0.08643821;0.023628041;0.031646132;-0.056235153;-0.071113855;0.054198056;-0.0692149;-0.07687868;-0.10058064;-0.06107909;0.0046962844;0.0076542855;0.08160964;-0.050653942;-0.08538929;-0.06930135;0.036570102;-0.1395849;0.12710969;0.026205681;-0.014513152;0.025206013;0.042199913;0.065258026;0.05558172;-0.089586794;-0.040232927;-0.020248871;-0.12734269;-0.055403914;0.1232667;0.08116147;-0.030741734;-0.04811275;0.028216558;0.02688775;-0.00014967356;-0.096236534;-0.062167052;0.047892623;-0.058295235;-0.016495321;-0.07385411;-0.033332374;0.036286704;0.057870045;0.02635612;-0.03601724;-0.09602638;-0.07375603;0.032939438;0.08935312;0.018059649;0.028830618;-0.1527171;-0.10937797;-0.09962195;-0.058412503;0.009777012;-0.015452217;-0.11682026;0.104731664;0.038532242;-0.080705136;0.06367652;-0.08385212;-0.009081499;0.0024941703;-0.0065733213;-0.06182205;-0.09239729;0.0039166436;0.027024481;-0.048373077;-0.09570861;-0.12829469;-0.13069527;0.014138705;0.0163092;-0.06142598;0.0171727;-0.09684157;-0.019185985;0.07326547;-0.0011920093;-0.10664852;-0.02728036;-0.077044785;0.016538251;0.07732187;-0.0719564;0.020183975;0.01015935;0.018607652;-0.026146086;-0.023503998;-0.040162124;-0.0877277;-0.11099485;-0.014232837;-0.07330025;0.06460376;-0.10571061;-0.0629368;-0.00018803195;-0.17427963;-0.007601664;-0.07821571;-0.0978732;0.028650135;-0.013389958;-0.03562287;0.07242241;-0.04651717;-0.121563494;-0.07695703;-0.111647554;-0.07883476;-0.072775975;-0.073167436;-0.019819653;-0.075173445;-0.07718315;0.054050606;0.017375099;-0.111188464;-0.06507324;-0.105651975;-0.03595497;0.0008414327;-0.08145139;-0.032712318;-0.11832993;-0.04779205;-0.0055828565;-0.09148868;-0.089134686;-0.1462463;-0.1722979;-0.12801999;-0.017576244;-0.01686695;0.013661617;-0.10390892;-0.08042323;-0.036763526;0.02237352;0.0052531012;-0.02762593;-0.004667208;0.026587443;-0.059075367;0.060067657;0.024241237;-0.027216472;-0.11859567;0.048020024;-0.092498496;0.061339755;-0.12219598;-0.043785512;0.053091105;-0.07416456;0.049413096;-0.11527364;-0.026084632;0.056363627;0.0011198687;-0.044348154;0.03035985;0.037454255;0.013737383;-0.06351917;-0.04790672;0.0009629987;-0.039134044;-0.098054126;-0.0389849;-0.043548044;-0.05504141;-0.122451626;-0.050079186;-0.08542309;-0.08816097;-0.0876137;-0.06385661;0.11920214;-0.12000229;-0.24309073;-0.08316345;0.02984205;-0.09168361;0.053072855;-0.012095235;-0.055895884;-0.079421036;-0.023411967;-0.039659206;0.043550383;-0.16308847;0.057159353;-0.0053724363;-0.101425976;0.025103651;-0.08810015;-0.082823195;-0.13062182;-0.08290734;-0.034696188;0.0006326026;-0.03801923;0.025700985;-0.043342486;0.040860567;-0.029794997;0.005694536;-0.038185477;-0.1512155;-0.12479072;0.006237693;0.07765202;0.056965534;0.02586313;-0.048496787;0.0703625;-0.1581645;-0.041932598;-0.04582491;0.0028757858;0.0903055;-0.03586807;-0.060371757;-0.0245798;-0.08288888;0.06835699;0.049422096;0.007182803;-0.10645422;-0.022298465;-0.07758016;0.014849792;-0.010597757;-0.1128934;-0.053911753
-0.019384246;0.02996675;-0.17854117;-0.0670894;-0.123687275;-0.05193467;0.0731685;-0.0863439;0.034860533;-0.086415686;-0.043183472;0.0010277239;0.025391629;-0.03796649;-0.0048527727;-0.0586193;-0.1796379;-0.06999854;-0.06853405;0.106386304;-0.15381221;-0.013325359;0.01930974;-0.074645214;-0.014570843;-0.06692774;-0.053735487;-0.06292139;-0.029338224;-0.044107564;-0.074369006;0.061017644;0.014038318;0.0080129905;-0.10618591;-0.036936894;-0.0975716;-0.11133394;-0.13740745;-0.06200223;-0.034773827;-0.1469914;-0.044415537;-0.0077653695;-0.07147749;-0.06967081;-0.067305945;-0.15803339;0.0013445425;-0.018098772;-0.005270311;-0.060230263;-0.098914795;0.05165853;-0.0615168;0.004159301;0.013205469;-0.059531413;-0.07241191;0.0069271047;0.044015184;-0.10858528;0.12908514;-0.12077557;0.01675959;-0.07097612;-0.06998634;-0.049077626;0.016079865;-0.14863314;-0.078822196;-0.10520412;-0.024302436;-0.08695994;-0.030853339;0.016701076;0.019415118;0.05229202;0.15522183;-0.13306901;-0.087769836;-0.09566889;0.016944679;-0.091847636;0.041524008;-0.011057393;0.039601296;-0.05499554;-0.013365872;-0.0871027;-0.10876999;-0.01074017;-0.065555625;0.16282243;-0.08910508;-0.036446087;-0.0019063364;0.019358959;-0.0056646694;-0.024543522;-0.018413145;-0.054256145;-0.07732262;-0.042179216;-0.047804434;-0.059552882;0.03761695;-0.087663725;0.07594492;-0.0803444;-0.1409438;-0.072769456;-0.057261594;0.021880971;0.052931827;0.047589943;-0.08506187;0.055958427;-0.13056862;0.052788086;-0.093008034;-0.066030666;-0.019187065;-0.10245705;-0.064403154;-0.062330004;-0.065372504;0.011725392;-0.009148116;-0.11569896;-0.01904069;0.004214079;-0.009174876;-0.0021119236;-0.08067097;-0.100926414;-0.063392736;0.03402523;-0.13597618;-0.020173246;-0.07375478;0.14993118;-0.013555818;0.036093015;-0.08345957;-0.01221398;-0.031487036;0.09511585;-0.00872256;0.04129919;-0.00013746483;0.035954036;-0.1108341;0.057591256;0.062993415;-0.12887318;-0.13651748;0.02315678;0.040749975;-0.014986063;-0.047175467;-0.028724577;-0.038496397;0.051532034;0.011689694;-0.0601521;0.045395974;-0.03949177;-0.0229444;-0.08319993;-0.0785176;0.08393412;0.021001251;0.14337225;-0.056276947;-0.054413367;-0.07761655;-0.105123885;0.12563492;-0.032156564;-0.05496586;-0.084562786;0.034918703;-0.13172407;-0.11083771;0.046698052;-0.041840628;-0.06822319;-0.06694201;-0.033232044;0.051534083;0.05346883;-0.07930713;-0.109568335;0.014494994;0.023418318;-0.06575009;-0.04416285;-0.013218834;-0.1029862;-0.048320062;-0.057141785;0.0037706988;-0.01753877;-0.04512404;-0.022561468;-0.1813172;0.095374726;-0.015061672;-0.023915673;-0.11976666;-0.076316506;-0.0042514657;0.036508206;-0.022433981;-0.0574545;-0.03845332;-0.02710007;-0.05487262;-0.037116617;-0.065775804;-0.07104481;0.015274355;0.016514309;-0.02897889;0.062524214;0.031291842;0.034676272;0.03597495;0.015502052;-0.120060556;0.024125224;0.0133685805;-0.13891016;0.030252596;-0.0045389715;-0.016210523;0.041708995;-0.09287857;-0.021206586;0.0627938;-0.081718974;-0.16024877;-0.021636838;-0.04706299;0.024585491;-0.010101428;-0.08162554;-0.008667383;-0.015991703;-0.11152054;-0.034560125;0.05316304;-0.07496363;-0.08021918;-0.004910568;-0.015030611;-0.013489486;-0.16395314;0.010778463;-0.03239524;-0.021642856;-0.10360102;-0.0070837457;0.030283332;0.016465776;0.07656468;-0.044664446;0.05112049;-0.07903665;-0.051931944;-0.006846192;-0.022246454;-0.11138822;0.06201948;0.074085474;0.0066136;0.024310898;-0.11053942;-0.0877454;-0.080366656;-0.13014108;0.0097219525;-0.06005551;-0.02018145;0.030230898;-0.0008825881;0.0047559403;-0.14746034;-0.035438843;0.011112993;-0.22487813;-0.007865256;0.056519564;-0.09226078;0.11731416;0.0041947393;0.17607726;-0.17357539;-0.06999911;0.045090258;-0.13912372;0.004143385;-0.082283;-0.1355803;0.007321883;-0.10046607;-0.007038129;0.12950817;-0.02486598;-0.024744088;0.01650747;0.05875656;-0.05212798;-0.083104864;0.099055;-0.094793715;-0.054590236;-0.09004872;-0.09940468;0.046769243;-0.054423153;-0.067329;-0.10803648;-0.022820119;-0.005246732;-0.08942856;-0.09460957;-0.018706735;-0.14753158;-0.11501293;-0.052521314;-0.07233937;-0.022755263;0.02435932;0.029391335;-0.22626396;-0.038557142;-0.11034786;-0.020946505;-0.19371536;0.004467922;-0.029073166;-0.07784583;0.15755457;-0.09553743;0.030996166;-0.08770306;-0.052685495;-0.052456096;0.14412586;-0.054328647;0.03760427;-0.07077979;0.048524622;0.011943609;0.09450723;-0.116627805;0.050062023;0.03852353;-0.08517502;-0.066313274;0.040026437;-0.03826438;-0.07770405;0.041048672;-0.040949196;0.03547253;-0.0698933;-0.06083991;0.009545501;0.023296729;-0.14230654;0.056271303;-0.040066674;-0.061868325;0.018444493;0.002463663;0.03339641;0.024962766;-0.11352704;-0.07428121;-0.049083583;-0.021980291;0.03771785;-0.063479066;-0.009121457;-0.10238343;0.0253014;-0.065189645;-0.07595178;0.11953496;-0.07810943;0.038059972;0.09531834;-0.008827237;-0.054272354;-0.11932208;-0.027173495;-0.039864942;-0.08494421;0.05346919;0.032608055;0.102949;-0.0152090285;-0.06230329;-0.09019559;-0.20706491;-0.015482696;-0.07325136;-0.04616504;-0.034665287;0.0034853087;-0.1098913;0.03947595;0.039735712;-0.12523368;-0.0010368171;0.103989564;-0.16734083;0.035170093;0.13852677;-0.07318921;-0.09794209;0.010109454;0.0063788015;0.0296992;-0.022812162;0.029689847;-0.068407126;-0.1866246;0.12503412;-0.09126415;0.061519418;-0.03148769;-0.10722056;0.012843047;-0.06241915;-0.024151564;-0.057559304;-0.05528945;0.041669045;0.009835797;-0.06401713;0.081036665;-0.037443537;-0.029985266;0.012465584;-0.039796624;0.047874395;-0.06298649;0.046968114;-0.0080048395;-0.004516116;-0.049055528;-0.09119654;-0.077044845;-0.014941153;-0.034114175;-0.07149246;0.051374726;-0.083052084;0.051306285;-0.06863869;-0.036993526;0.053016603;0.060935255;-0.094356544;-0.16794586;-0.0073641674;-0.07647541;-0.02171996;-0.12370239;-0.008406174;-0.08021939;-0.08778702;-0.06760751;-0.021502012;-0.008003915;0.03432204;-0.11312933;-0.09928203;-0.09433326;0.03795679;0.04569627;0.05321925;-0.05817434;-0.0631732;-0.05570094;0.04449982;-0.084608644;-0.012390709;-0.10944918;0.047421686;0.025725214;-0.026568962;0.024768855;-0.06730181;0.010593226;0.09424239;-0.09504011;-0.07112952;0.026786476;-0.05116748;0.091724984;0.016223187;-0.08889369;-0.029635025;-0.1371688;-0.07311555;-0.05725338;-0.031363685;-0.03363446;-0.07054245;9.53237e-05;-0.042049006;0.0418234;-0.08951987;0.057048336;-0.14933152;-0.17317966;-0.023136057;-0.08275674;-0.09317262;0.07548211;-0.06991947;-0.08202221;0.049739536;0.094493486;0.013909847;-0.06279869;-0.0815928;0.036284845;0.09735689;-0.13771532;0.015393231;0.0071212295;-0.14483371;-0.12271366;-0.049702004;-0.05616102;-0.11566947;0.02727292;-0.09297944;-0.026856557;-0.033489272;-0.10720167;-0.022440434;-0.0008272987;-0.04621608;-0.07564827;-0.09127117;0.066400364;0.034986306;-0.098174445;-0.062950425;0.0784907;-0.08688324;-0.06940075;-0.07650925;-0.098094285;-0.018845282;-0.04895094;0.015693875;-0.03347797;-0.0751606;-0.032361366;-0.032444723;-0.026488753;-0.059644748;-0.05633343;0.035735752;-0.044770245;-0.02779011;-0.04025183;0.016883032
-0.113049895;0.007530868;-0.09737686;-0.07356245;0.0005246383;-0.08382196;0.123437;-0.08713095;-0.08548555;0.072024286;-0.011222441;-0.06670351;-0.0021869913;0.011003987;-0.025439128;0.037819035;-0.16483027;-0.1268362;0.034427878;0.13964525;0.0067380792;-0.11286083;-0.017498503;0.07795376;-0.018650059;-0.14879467;0.014295627;0.020224415;-0.096130304;0.040342733;-0.057303756;0.065766566;-0.035738014;0.047460947;-0.041088022;0.051261794;0.004211508;-0.094179735;-0.110402316;-0.01587148;0.03216545;-0.10590139;0.07287084;-0.15877676;-0.10437082;0.010797745;0.03526987;-0.036740012;0.0038699969;0.06964714;-0.024541732;0.025627185;-0.071797185;0.00104218;-0.093173385;0.011966924;-0.107142955;0.059264317;-0.0056863218;0.035143714;0.12511697;-0.18118955;0.13262409;-0.13344012;-0.074063644;-0.08509731;-0.018859267;-0.06727881;-0.030985806;-0.12097053;0.021074725;-0.022618307;-0.041014142;0.033000056;-0.049236827;0.08359093;-0.09406118;-0.06928582;0.1115556;-0.0994901;-0.021426354;-0.037125923;0.0038657864;-0.10137027;0.02220619;-0.060394876;0.038043965;-0.02761044;-0.05279191;-0.09678829;-0.020904996;-0.00023374587;-0.03053947;0.0620674;-0.04717481;0.0064932243;0.018424427;0.00977645;-0.077603675;-0.10392474;0.05787643;0.007649092;-0.081543066;-0.05870977;-0.10070771;-0.050085552;-0.03616572;0.022755526;-0.004835216;0.0018447365;-0.073461615;-0.064928286;-0.082964934;0.13508852;0.07368393;-0.0626934;-0.015759485;-0.07052812;-0.146209;-0.016677538;-0.017944567;-0.09676214;0.045346025;-0.07556669;0.03127611;0.04675735;-0.05875111;-0.04667347;-0.081044324;-0.1055237;-0.03418953;0.08189865;0.025512312;-0.002008528;-0.15175748;-0.10485014;-0.022702862;0.06515261;-0.057846446;-0.06485172;-0.01575469;0.116539635;-0.038537994;0.0304907;-0.07482231;0.009679502;-0.021358572;0.037141737;0.007957667;0.059522018;-0.11550594;-0.0832848;-0.05817953;-0.02140895;-0.08464633;-0.07385821;-0.03516929;0.08772049;-0.01165571;0.0028099762;-0.021015363;-0.089428484;-0.08180632;-0.09971631;0.030602748;-0.14139248;0.03360089;-0.022024997;-0.13479804;-0.15502891;-0.15747555;-0.040019143;-0.024203656;0.037763607;-0.11241196;0.04466263;0.03893477;-0.13028549;0.087725155;-0.026680471;-0.16371077;-0.04350184;0.041755006;-0.025664356;-0.04246853;0.0839911;-0.048407737;-0.01180036;-0.103164606;-0.080554046;0.036470022;-0.0021991676;-0.04834907;-0.023996033;0.0649123;0.055286303;-0.05777878;-0.089602835;0.038860366;-0.061182726;-0.030151533;-0.015590368;-0.006020212;-0.07799277;-0.054040138;0.031260766;-0.17038095;0.16268869;0.07188307;-0.07083227;-0.16578414;0.027273392;-0.020968549;-0.04816017;-0.088706344;0.040619675;-0.05363668;-0.064950205;-0.06157459;0.013760883;-0.11535366;0.0006931333;0.046164565;-0.008301946;-0.06664096;0.06809336;-0.0194263;0.083070695;-0.052215382;-0.11677958;-0.094639175;-0.021642681;0.026519753;-0.081406206;-0.09904749;0.07376333;-0.08109927;-0.0074052457;-0.07019966;-0.043901257;-0.0651177;0.0002353657;-0.03461472;-0.04880382;0.00082314597;0.026175186;-0.010640755;-0.045381512;0.027690595;-0.08310656;-0.047087245;-0.037568048;0.10999146;0.023718424;-0.07723092;-0.03591728;0.03249563;-0.103554174;-0.13814136;-0.06018946;0.08959018;0.0029003615;0.013945726;-0.07982158;0.065297775;-0.029054917;-0.022398753;0.001075199;0.053630184;-0.11660829;0.006309894;0.037044466;-0.038895193;-0.014918568;0.072936274;0.028605815;-0.09447513;-0.0043695807;-0.05861361;-0.029020846;0.07411651;-0.15933421;0.028812194;-0.13625054;-0.034905408;0.008824374;0.04320742;-0.08932798;-0.08626424;-0.0019549683;-0.08431757;-0.12796488;-0.09449244;-0.08181445;-0.08857124;0.10669271;9.148462e-05;0.025343085;-0.31368658;-0.029722188;-0.084686406;-0.03200061;-0.00733;0.023381818;-0.062190782;0.10986363;-0.112573326;-0.056050587;0.123151235;0.018674497;0.02650781;0.0471633;-0.034708753;0.04270652;-0.021172512;0.17627712;-0.07483027;0.045755044;-0.104947716;-0.028014217;-0.10320901;-0.07574549;-0.008033376;-0.026714724;-0.025921982;0.07201208;-0.10406047;-0.06924269;0.007990553;-0.020452794;0.004111789;-0.016945908;-0.016963111;-0.05339274;-0.043996647;-0.110601775;-0.11032242;0.060194008;-0.117633805;-0.03520856;-0.16177884;-0.0050210822;-0.060410533;0.043748856;0.10618061;-0.028256219;-0.08758091;-0.09239;0.028706541;-0.0068286927;0.09165896;-0.077946246;-0.020192405;-0.035739243;-0.084091075;0.022112846;0.07611704;-0.123520285;-0.07962047;-0.07445941;-0.07494385;0.02434343;0.12759167;0.017443066;-0.0026026948;-0.031922307;-0.02510859;0.08317838;-0.044688992;-0.011418127;-0.12428584;0.05538906;-0.072791226;-0.057545833;0.008154559;-0.03564754;0.005356495;-0.0011664132;-0.03340439;-0.108313784;-0.07489906;-0.029149877;0.020413676;0.07507786;0.07959234;-0.058835678;-0.10046099;-0.14641218;-0.03635031;0.022343483;-0.094418876;0.073715456;-0.024258573;0.022000546;0.057985045;-0.0522779;-0.03356153;-0.09106872;0.02768814;-0.0693043;-0.10754959;0.011579017;0.042978574;0.01816937;-0.004779651;-0.06245628;-0.12786673;-0.22667058;-0.104278795;-0.12512863;-0.086997084;0.008930365;-0.01424041;-0.060372453;0.03802839;0.11612842;-0.08530227;-0.08823068;0.08144199;-0.1351645;-0.0052540484;-0.04104973;0.038202472;-0.085128985;-0.15117042;0.035014015;0.02137302;-0.038806066;-0.03617554;-0.035998974;-0.1372614;0.08059513;0.022767365;0.087867655;-0.03371595;-0.03567302;0.012427984;-0.06751187;-0.10488723;-0.1490439;-0.009428972;0.088826634;0.03799342;-0.0451367;0.035591602;0.0388369;-0.10249013;0.029827252;-0.011336158;0.005308571;-0.06857516;-0.06924417;0.0079525;-0.04182941;-0.10537784;0.012666347;-0.014725797;-0.07248981;-0.062811516;-0.11632098;-0.07806347;-0.014894373;0.00335273;-0.08955708;-0.0062134205;0.025384486;0.048293307;-0.1270705;-0.16284473;-0.14511214;-0.10079482;-0.008997361;-0.059887823;-0.08329916;-0.052782327;-0.07083177;-0.049440924;-0.043097965;-0.08873626;0.0037973372;-0.051681917;-0.033433735;-0.05551426;0.04389711;-0.015449672;-0.050841108;0.02552107;-0.09514794;0.024239;-0.010283672;-0.006656064;-0.09912833;-0.0025576395;0.07818918;-0.052091353;-0.03847073;-0.063488334;0.04449053;0.0011061294;0.03176391;0.034307525;-0.03443517;0.010352822;0.06674123;0.019956887;-0.11599011;-0.027568275;0.0048799366;-0.07559077;-0.05843431;-0.08252329;-0.15841058;-0.13212447;0.0031026404;-0.008523944;-0.07853241;0.019214379;-0.14167424;0.0032893622;-0.134831;-0.26942056;-0.04657;-0.0025655648;-0.02635385;0.027010394;0.043324966;-0.018082926;0.027553892;0.09573597;0.048025273;0.0750896;-0.10030216;-0.11774783;0.08256478;-0.060121328;0.06557207;-0.09452982;-0.1582285;-0.14211631;-0.037005197;-0.09373798;-0.017652672;0.07192669;-0.11167386;0.018234435;-0.059544;0.027091492;-0.055610508;0.024524983;-0.061960522;-0.10487868;0.0079663005;-0.020848583;0.01990166;-0.033126265;0.030073032;0.022025656;-0.11985468;0.0706347;-0.047893316;0.05261659;0.048826914;-0.036939193;-0.015153761;0.0042754347;-0.1751025;0.0909184;-0.00689303;0.087925866;-0.17370252;-0.061952394;-0.064741835;0.0468356;-0.079913124;-0.094058044;-0.029573355
-0.03495153;0.06643169;-0.17322841;-0.03426047;-0.09175318;-0.037483364;0.1589053;-0.11420075;-0.075806625;0.012619473;-0.11609753;-0.004032093;0.07687983;-0.030788248;0.03393844;0.03937261;-0.15789348;-0.11110901;0.00552193;0.07691637;-0.068297766;-0.1363189;-0.06751339;0.025781626;0.017347299;-0.19952382;0.034559645;-0.046487685;-0.028967341;-0.03393009;-0.08244773;-0.06160396;-0.10126604;0.15015641;-0.08944481;-0.04082225;0.055457104;0.040348798;-0.1750667;-0.09803142;-0.07465628;-0.15369754;0.018150212;-0.058141936;-0.18153961;0.004485607;-0.04984719;-0.07894844;-0.019813742;-0.032725513;-0.11217541;-0.09303283;-0.10624316;-0.010367404;-0.089108154;0.10840337;-0.05195743;-0.06917585;-0.10511459;0.014306329;-0.004063448;-0.051487423;0.12174141;-0.12644354;-0.05844811;-0.087498836;0.05013053;-0.07957256;-0.08850169;-0.101419315;0.027428387;-0.050692894;-0.0844184;-0.0011350751;-0.100503825;0.015140435;0.020443317;0.01651399;0.03262395;0.027486127;-0.10106093;-0.01110836;0.025204439;-0.14119746;-0.11492797;-0.006914515;-0.037267484;-0.047408283;-0.013938645;-0.029393438;-0.090859406;-0.09077963;-0.0042376677;0.02058384;-0.15449966;-0.08024106;-0.069504574;0.038796037;-0.028896315;-0.04944852;0.09836326;0.040554397;-0.056280408;-0.09433498;0.031626996;0.0076464512;-0.050707065;-0.05475607;0.1449228;0.018542549;-0.07900309;-0.007881154;-0.017930493;0.13064761;-0.0036577035;-0.05873324;-0.12365721;0.0026673777;-0.008643026;0.011513098;-0.08831976;0.013598562;-0.006343908;-0.027850566;0.000116275056;-0.07038797;-0.13587841;-0.0135272695;0.030715996;-0.015399727;0.052036412;0.08489614;-0.094035625;0.02714177;-0.12095097;0.028195124;-0.062037986;0.077385046;-0.058559757;-0.08702002;0.013108328;0.09255585;0.02755233;0.0065439995;-0.04941646;0.04474335;-0.0822806;0.021210285;0.03312936;-0.017152378;-0.10086741;-0.035717413;-0.078717366;-0.042055093;-0.0645112;-0.111846924;-0.10369768;0.030116871;0.060678955;-0.0039758384;0.0900831;-0.05506508;-0.010955443;-0.08251459;-0.030200858;-0.086008824;-0.026053838;0.028851094;-0.13793291;-0.087006986;-0.12747526;0.038844977;-0.03297108;0.05016549;-0.082585976;-0.09104382;-0.046144534;-0.11760842;0.0058262004;-0.071529545;-0.042927373;-0.02655301;0.09540606;-0.03599628;0.023543319;0.048851486;-0.18454528;-0.08380793;-0.042606544;-0.001046129;-0.1366558;-0.013144741;0.06346429;-0.14409877;-0.018839844;-0.02568391;-0.07638338;-0.06530721;0.0041413605;-0.044471055;-0.09296616;0.060898263;-0.06508498;-0.025304424;-0.07720497;0.030503705;-0.1549753;0.021307664;-0.025578301;-0.11915616;-0.180663;-0.049341533;-0.12494345;-0.070993625;-0.15358064;0.015502857;0.029047582;-0.023182144;-0.11648462;-0.14433773;-0.09238505;0.006647874;0.027529689;0.030270593;-0.07478271;-0.054390974;0.02240461;0.013701776;0.0491693;-0.12882456;0.0013380799;-0.08271635;0.021154054;-0.10939758;0.0107016945;0.08202482;-0.054402996;-0.008605945;-0.061797462;0.049819075;-0.10479413;-0.07114195;-0.11035845;0.017609878;-0.07072066;0.03887334;-0.07291817;0.055452786;-0.05203757;-0.046766203;-0.12005702;-0.13301715;0.0050953375;0.071262464;-0.07795557;-0.0030835418;0.051773373;0.013509783;-0.12826514;-0.078108266;0.008815663;0.002806331;-0.06322192;0.007923185;-0.044658054;0.07131677;0.120717354;-0.06776792;0.1725324;-0.057440642;0.0031769888;0.024928682;-0.08241205;-0.050764304;0.04661007;0.13848099;0.06945817;-0.029177155;0.019481853;0.031371154;0.07134025;-0.07523151;0.017309994;-0.14101943;0.01860026;-0.017008979;-0.054238446;-0.043637626;-0.012995816;-0.05400406;-0.018844193;-0.17032194;0.053572334;-0.115511134;-0.09241342;0.0405121;0.05616753;0.12595303;-0.29823586;-0.0207123;0.024531735;-0.041817777;0.021858627;-0.0070429333;-0.0958775;0.12932162;-0.039573137;-0.04956139;0.19612212;-0.024212413;0.049785584;-0.0043111313;-0.047011208;0.048355654;-0.14573123;0.16645764;-0.046854794;0.046696175;0.004569056;0.051146865;-0.07915447;-0.041001808;-0.1139885;-0.100577496;-0.10558362;0.09859903;0.043924112;0.025033714;-0.035491936;-0.00029424843;-0.020930933;-0.040877838;-0.0847119;0.055688083;-0.015574967;0.05468465;-0.116097175;-0.0176136;0.038756434;-0.001322272;-0.100148864;-0.05084715;-0.028118495;-0.06139996;0.1282394;-0.09592759;0.052880432;0.07157643;-0.087077305;-0.028953142;0.10711078;-0.051347718;-0.02570505;0.002115075;-0.07555866;-0.016891727;-0.0053461976;-0.101368345;0.042386718;-0.011721037;-0.012246481;0.03307074;0.08083588;0.019134771;-0.06774394;0.032571208;-0.0053180354;0.021419037;0.079283945;-0.039816268;-0.0738683;0.03837228;-0.18100443;-0.09293202;0.006896602;-0.12842807;-0.0118693635;-0.0008005266;0.018790124;-0.086717315;-0.102931894;0.008196637;-0.061484408;0.07024124;0.112380184;0.06330486;-0.17442481;-0.15737037;-0.1396019;0.038737606;0.029497756;0.13888045;-0.1886494;0.14397496;0.12965986;-0.027106542;-0.041012995;-0.033591114;0.073645525;0.05815708;-0.12289279;-0.07183236;-0.02134011;0.09978273;-0.068705775;0.021953708;-0.1427782;-0.11122307;-0.11769557;-0.107074074;-0.040578384;-0.04379497;-0.08388238;-0.08875219;0.071714245;0.051993895;-0.097140335;-0.08474205;0.1257007;-0.15205938;0.009557159;0.09820241;-0.05955771;-0.05639214;-0.103487454;0.008624584;-0.037783172;-0.12745507;0.08312231;-0.07644139;-0.047657944;-0.048031535;-0.019055221;0.092526585;-0.035382453;-0.024872238;0.011781818;-0.030351667;-0.10359014;-0.10084386;-0.1015006;0.056967698;-0.090531;0.08127377;0.011259578;-0.0714311;-0.13237563;-0.099062845;0.003482155;0.028006222;-0.023740882;0.011562978;-0.07311008;-0.07936537;-0.025660299;-0.007923249;-0.083482444;0.026944928;-0.09919276;-0.06500104;-0.033532247;-0.096915424;0.036079988;-0.087072685;-0.021270325;0.013724121;0.01593083;-0.06871785;-0.21820304;-0.07515249;-0.104686245;-0.12539707;-0.06981097;-0.1065916;0.065720566;-0.05708722;0.014905304;-0.105519004;-0.08748493;-0.0505555;-0.05040571;-0.030232495;0.04401622;0.021539396;0.09191784;0.005721147;-0.07570763;-0.056821883;-0.017927203;0.0034458153;-0.10101589;-0.06633437;-0.011635747;0.037915546;-0.0050159483;-0.06625777;-0.05648599;-0.1017519;0.052373365;0.08950784;-0.014061092;0.006874235;-0.005908594;-0.0036042428;0.12118475;-0.056705765;-0.056483112;0.011213071;-0.10524222;-0.1055442;-0.017936604;-0.16646282;-0.07825141;-0.017959405;0.007917432;-0.0996263;0.0016451535;-0.096752316;0.1065344;-0.0820444;-0.13133399;-0.13356929;-0.02280012;-0.14214955;0.04914757;-0.074286744;-0.13200262;-0.008965284;0.009549745;0.015221528;0.06394834;-0.12239438;-0.05406993;0.06389648;-0.05891177;-0.0012569588;0.045448847;-0.06741672;-0.088758074;-0.0594529;-0.058035135;0.0478259;0.042921923;-0.114974916;0.02840911;-0.121236086;-0.08319213;0.06413518;0.043314833;-0.12673698;-0.09337435;0.020853857;-0.02664663;-0.01910995;0.044821575;-0.0048282575;-0.007079;-0.2690362;-0.08268229;0.012220926;0.04025967;-0.087808125;-0.037455976;-0.037904844;0.017120918;-0.15974121;-0.071828626;0.070501275;-0.036908686;-0.05671979;-0.09997052;-0.048153225;0.020374345;0.025367897;-0.018626295;0.01075219
-0.007541287;0.03295927;-0.21894832;0.038195666;-0.0211302;0.027080435;0.10357596;-0.11299544;-0.08068922;0.093268074;0.028256884;-0.013095416;-0.080099836;-0.008501254;-0.09146016;-0.08481147;-0.15182844;-0.22025833;-0.1194262;-0.0088946065;-0.08773424;-0.10290907;-0.0007891398;0.0064030983;0.09446093;-0.09511717;-0.111670665;0.09238198;-0.10695057;0.013875154;0.055633668;-0.027470183;-0.0143983895;0.15353379;-0.13196374;-0.07921389;0.09972199;0.048667125;-0.071271814;-0.14842887;-0.0039890376;-0.071319245;0.05982958;-0.045136087;-0.24139753;-0.054719698;-0.026809795;-0.053060796;-0.029924136;-0.039245598;-0.036945097;-0.05333374;-0.026968636;0.101242766;0.0013840556;0.13482077;-0.062342517;-0.09568441;-0.082255155;0.07381018;0.060232773;-0.055887565;0.13375233;-0.16795918;-0.1336018;-0.0698126;-0.027099665;-0.016570248;0.009809056;-0.19256948;0.08031324;-0.08504071;-0.033600364;0.036892425;-0.03716982;0.061363053;0.00427373;0.051038936;0.14012966;-0.02952687;-0.0269242;0.019492418;0.06665204;0.0015134676;-0.040605217;-0.051688164;-0.054730877;-0.11087112;-0.048668236;0.004372286;0.024462229;-0.14370716;0.026117971;0.10861296;-0.08926133;-0.09243307;-0.015519523;0.033520386;-0.044536844;-0.066415586;-0.045947343;-0.053983554;-0.073518835;0.0019525673;-0.050784517;-0.031797074;-0.012928372;0.039775804;0.038297933;-0.04779463;-0.17234449;-0.06490937;0.0051663336;0.1325462;0.0145208;-0.025148107;-0.04823933;-0.008225393;-0.13019541;-0.0026240393;0.024073394;-0.09911159;-0.07724559;-0.11219678;-0.055441406;0.017851027;-0.13703026;0.022898985;0.053335175;-0.08498652;-0.08898719;0.09685957;-0.11317283;0.043530677;-0.21429804;-0.0712365;0.03792469;-0.0058145938;-0.12239135;-0.08563003;-0.020700468;0.13559219;0.057895172;-0.074871436;-0.03545392;-0.0058675744;-0.06471113;0.11487145;0.00763928;-0.096165806;-0.011717595;-0.021122001;-0.018893875;-0.0017236082;-0.08229849;-0.14897388;-0.13338305;0.08359308;-0.02493132;-0.07819612;0.06128542;0.010813851;0.0022371672;-0.06433186;-0.07844901;-0.12960786;0.067234464;-0.05638013;-0.1598968;-0.12133776;-0.061437007;0.00533392;-0.061811868;-0.0068978285;-0.1484865;0.008563867;-0.005404959;-0.13708809;0.09842972;-0.024075555;-0.0460963;-0.12375107;-0.014701986;-0.04857492;-0.06163819;0.017544616;-0.07950017;-0.027653625;-0.11025613;-0.05462318;0.029172372;-0.0033386159;-0.04056573;-0.04489634;-0.10624398;-0.0244336;-0.00025029096;-0.0044898707;-0.017719332;0.016475296;0.059887312;0.013749501;-0.026985206;-0.07190162;-0.029208614;0.03975719;-0.1787619;0.12900545;0.042124458;0.030448884;-0.13071269;-0.050275557;-0.12708507;-0.008230594;-0.11626527;-0.011170823;0.0428283;-0.11360236;-0.07245135;-0.07090013;-0.10479162;-0.0839859;0.049290165;0.035521764;-0.0485969;0.014416154;0.120810084;0.0008245633;0.0045502367;0.005456704;-0.12737279;-0.11650343;0.08275029;-0.046875738;-0.08600558;-4.8161288e-05;-0.033853568;0.08697287;0.0118226865;0.065239556;-0.09148385;-0.0836404;-0.03133597;0.04602945;-0.10777384;0.029621571;-0.096089855;0.053970203;0.011917137;0.040322393;-0.12794481;-0.10004886;0.043362465;0.07859347;-0.087798655;0.006603323;-0.024294736;-0.03425756;-0.14520763;-0.008458059;0.028244214;0.007475293;0.003592731;0.012017341;-0.017807709;-0.036376417;-0.00640566;-0.08951954;0.001287288;-0.07644437;-0.10660336;-0.01743045;-0.08853443;0.034612894;0.16076683;0.07838912;-0.061827764;-0.07782265;0.00771095;-0.065927476;-0.033487782;-0.20242573;0.06648465;-0.031991158;0.011686956;0.002551822;-0.028638761;-0.012365861;0.004236507;0.07715283;-0.032055803;-0.10954023;-0.028763954;-0.009200006;-0.08555842;0.059400935;-0.01982945;0.1938384;-0.23835891;-0.04353813;0.022132965;0.0015439108;-0.08478385;-0.0032153868;-0.19103561;0.12341902;-0.1037968;-0.055229966;0.12185365;-0.018803537;0.0116131855;-0.04577261;-0.031550143;-0.043041747;-0.13242581;0.18395367;-0.14730678;0.055591848;0.006695058;0.016077334;-0.07047181;-0.10777025;-0.15254432;0.019837223;-0.059044465;0.06087554;-0.08188375;-0.07309459;-0.055137794;-0.1018532;-0.13477632;0.0025335683;-0.077593684;-0.014204781;0.11051838;0.02244597;-0.13986878;-0.07709795;-0.047139578;-0.049350172;-0.17254572;-0.030888082;-0.07638188;-0.016418215;0.16162525;-0.14444058;-0.009140722;-0.055121228;-0.042480167;-0.022344206;0.038147066;-0.098370455;-0.09779393;-0.0222766;-0.099907644;0.00035249884;-0.008533857;-0.071150646;0.050995715;-0.0987897;0.01495382;-0.016454795;0.13740394;-0.024614964;0.055264413;0.021700872;0.05070044;0.025300425;-0.031474575;0.081337504;-0.05226894;0.084124334;-0.16314732;0.032708015;0.051739983;-0.09856377;-0.09131906;-0.08806404;-0.017249601;-0.1277949;-0.031979874;0.0252672;0.006234511;0.06944857;-0.022653705;0.07731863;-0.056746487;-0.08370035;-0.13831477;-0.087942146;-0.091617115;0.056435484;-0.062213294;0.18024223;0.1365171;-0.049806356;-0.051682994;-0.009634405;0.031344574;-0.080562636;-0.088986374;0.042588122;-0.065465115;-0.025756946;-0.093054935;-0.018872488;-0.02815402;-0.19799556;-0.05368353;0.0022431968;-0.10786846;0.016810425;0.00068947644;-0.020540144;-0.012438894;-0.016815696;-0.039501365;-0.12476546;0.09176477;-0.18148598;-0.059507113;-0.004227033;-0.0069053136;-0.033533312;-0.0074652727;0.03626242;0.0005102087;-0.009399083;-0.04003654;-0.05853151;-0.12338996;-0.022666113;0.010792149;0.07954791;-0.06610636;-0.02935102;-0.025551185;-0.025340745;-0.12138512;-0.05505943;-0.075562164;0.022927938;-0.048549537;-0.082204044;-0.024070427;-0.0917002;-0.13528998;0.02539715;-0.0069298497;-0.029966118;-0.101824075;-0.0012594672;-0.04779733;-0.10411722;-0.07277163;-0.048788283;0.014415023;0.049052853;-0.020495363;-0.08470189;0.031579085;-0.037184756;0.07855132;-0.009818086;0.012331758;0.03837932;-0.08519112;-0.056085207;-0.18555756;-0.15204194;-0.08170278;-0.11791284;-0.0026522558;-0.10590852;-0.013400848;-0.092357315;-0.08486449;-0.037214767;-0.086726785;0.07505822;0.039912764;-0.05326405;0.02475594;0.06732405;0.063094914;-0.04116441;-0.13207205;-0.15118773;-0.0305799;-0.096287295;0.0082075475;-0.073916;0.011723959;0.11395585;0.004364321;0.0021056465;-0.06001451;0.046217266;0.0071539492;0.09056746;0.054201823;-0.013745292;-0.14665379;0.0017492131;-0.023069829;-0.09099922;-0.06768154;0.02360347;-0.030440552;-0.022660464;-0.043495294;-0.110449344;-0.14012235;-0.0313975;-0.037796386;-0.114535235;0.03562245;-0.061560925;0.012600541;-0.17050421;-0.19694042;-0.009170096;-0.012306456;-0.0019260555;0.025146417;0.018526405;-0.013507289;-0.0398416;0.09811758;0.04460403;-0.004325129;-0.15730135;-0.09776912;0.1084935;-0.049645405;-0.01973954;0.035045415;-0.07069235;-0.13758819;-0.15907834;-0.1461356;0.0064935316;0.03584866;-0.15327197;0.032144483;-0.12444802;-0.11891965;-0.067338124;-0.06828749;-0.09033735;-0.097303115;-0.09152727;-0.07373568;0.016350493;0.032698743;-0.050381605;0.07000222;-0.17017458;0.022005871;0.013844442;-0.051784318;0.028830573;0.01720139;0.010076642;0.0028607438;-0.15575588;-0.06220462;0.013981082;0.04814175;-0.063104406;-0.082620285;-0.03945791;-0.01845964;-0.07678619;0.004925586;0.0074091675
-0.114919044;0.016363569;-0.17900133;0.018709412;-0.13388473;0.013360254;0.19466914;-0.0821434;-0.03907972;0.031082893;-0.062799945;-0.00054876995;0.037859794;-0.10218381;0.01773063;-0.045668185;-0.030344898;-0.15669091;-0.09527877;0.13110355;-0.059703678;-0.12056275;0.051961787;0.0057029384;-0.021055967;-0.10612313;-0.066636585;0.09255769;-0.13514072;0.008736401;-0.0714799;0.042540684;-0.089255445;0.14019163;-0.18959245;0.002627903;0.06525273;-0.11431425;-0.11189141;-0.025190994;-0.067248516;-0.14893778;-0.045921262;-0.12775129;-0.20743734;0.019969473;-0.012458058;-0.12845123;-0.070350915;0.015030881;-0.06110022;0.055018213;0.0147011895;0.1429097;-0.120863095;0.025120474;0.011333204;-0.08082784;-0.0071010753;0.061765198;0.08305708;-0.13938183;0.13706194;-0.108104154;-0.021251496;-0.14718308;-0.079510346;-0.013456998;-0.099076346;-0.048494596;-0.069421284;-0.00743434;-0.094793424;-0.04926924;-0.086891405;-0.052331027;-0.097533956;-0.09843626;0.0122591145;0.008036798;-0.06738234;0.0030884584;0.04424109;0.0028729874;-0.12033568;-0.13616243;0.0072226496;-0.07907897;0.002634615;0.040612448;0.02149508;-0.08225845;0.016573185;0.06082509;-0.110857256;-0.14041366;-0.00022140161;-0.0568691;-0.03089672;0.04630579;0.041282527;0.019484352;0.031689942;0.028133802;-0.05857815;0.050148804;-0.09060223;0.02249004;0.16172801;-0.109698914;-0.19378373;-0.10791549;-0.11113529;0.097482376;0.037194297;-0.047805388;-0.0022619427;-0.11631085;-0.08016392;-0.047600202;-0.010007909;0.021459375;0.059438564;-0.12802196;-0.050453648;0.06291623;-0.09175988;-0.0066347998;0.049577173;0.020251147;0.012735449;0.10618258;-0.0047678184;-0.051018354;-0.06444082;-0.096798085;0.069260456;0.08763023;-0.1568609;-0.0347711;-0.0052742576;0.09995712;0.1360371;0.028173298;0.021233108;0.059587825;-0.10430341;0.044388738;-0.133102;-0.027615802;0.023407435;0.005713519;0.021567184;-0.0052481387;-0.020136392;-0.09102807;-0.104499124;0.01786774;0.05179242;-0.013363481;-0.0021760142;-0.1341738;0.0468609;0.0021179519;0.085983396;-0.139366;0.06837761;-0.050143637;-0.076141685;-0.039200522;-0.103854544;0.12097003;0.025481462;0.11409924;-0.09599862;0.011113279;0.016532231;-0.017954124;0.048907585;0.002155158;-0.056777198;-0.13280462;0.12779061;-0.0016511666;-0.056689028;0.0751834;-0.106850706;-0.015523817;-0.09361539;0.025304204;-0.061682213;0.057663083;0.05299817;-0.10698077;3.2324744e-05;0.12517056;-0.022491336;-0.0068953508;0.05432775;0.0058179596;-0.042465393;0.06616129;-0.047087368;-0.12165494;-0.0408764;-0.10484351;-0.07260319;0.13521159;0.1244214;0.037780974;-0.13350795;0.042830527;-0.060055036;-0.081526354;-0.07129716;-0.009535212;-0.05348121;-0.13473408;-0.11177899;-0.010051392;-0.16522218;-0.029026981;-0.04501763;-0.07164575;0.025096972;0.02942427;0.16294153;0.1122455;0.035212304;-0.0069238893;-0.082604654;-0.0245471;0.04587152;-0.07261294;-0.021740777;0.036892034;-0.0031552506;-0.0594218;0.019612845;-0.039152324;0.005424507;-0.09188355;-0.006439605;-0.008035409;0.040123735;0.06689779;-0.026456177;0.082398996;-0.075214274;0.012849259;-0.08209217;-0.037900094;0.14947204;0.06621441;-0.17164607;-0.025762156;-0.0671645;-0.11447088;-0.21083309;-0.10533954;0.005431929;-0.14107153;0.013020629;-0.008590349;0.09066449;-0.04782658;0.09134001;-0.16793025;0.16068302;-0.08320611;0.0056174644;-0.0056505166;-0.028785888;-0.10493518;0.0277483;0.118435994;-0.02536157;-0.036127076;-0.08214941;0.031723782;0.01824972;-0.07804564;-0.07472442;-0.06327237;0.03251906;-0.0053833104;-0.084231846;0.013417502;0.0031151106;0.04723729;0.010513148;-0.2666535;-0.088894635;-0.029928135;-0.1802116;-0.007198875;-0.021845197;0.03564309;-0.31454587;0.039852224;-0.0067432416;-0.04567481;-0.04899835;0.05031755;-0.23196068;0.12142461;0.0019527937;-0.038667742;0.21553563;-0.088365145;-0.018070914;-0.024237517;0.051305283;-0.078232974;-0.110165074;0.033157945;-0.08303128;0.064451255;-0.027943054;0.027970204;-0.058305882;0.0069371345;-0.0711507;0.0581167;-0.07572087;-0.002064669;-0.041344132;-0.0014314514;0.013203559;0.015956422;-0.13495927;-0.026807936;-0.080042794;-0.0915578;0.067057565;0.014735087;-0.14448205;-0.051105782;-0.02826275;-0.07976911;-0.20212737;-0.0865415;-0.08979493;-0.05924205;0.191131;-0.106922016;-0.087097436;0.06627106;-0.08816775;0.00048030715;0.12350291;-0.022981104;-0.094524175;0.015990254;-0.060811937;0.10806216;-0.02989723;-0.13427901;0.041356254;-0.010648306;-0.0777682;-0.08556499;0.05952801;0.109609246;-0.0659903;0.01851021;-0.067682475;0.009288217;0.0466455;-0.043665674;-0.017857531;0.06643869;-0.17305171;0.038873613;-0.036182288;-0.11580128;-0.025201568;0.0005920422;-0.022266485;-0.012129047;-0.05610543;0.042329676;-0.043017197;0.03397076;0.1303368;-0.051778916;-0.202079;-0.055530358;0.015253986;0.008103463;-0.08442168;0.09412735;-0.05017077;0.07865246;0.0853816;-0.087178625;-0.002803705;-0.14668192;-0.0089662;0.0023981645;0.031567648;-0.003898586;-0.07647566;0.055957478;0.055524692;0.06969742;0.013485235;-0.10814232;-0.0759883;0.0041499957;-0.014795483;-0.07907201;0.00097623555;-0.098020256;0.102035835;-0.022794116;-0.07520507;-0.07870819;0.053545408;-0.19003779;-0.021497624;0.028045485;-0.0740781;-0.05351003;-0.0899408;-0.027200675;-0.045938242;-0.0804505;0.019864738;-0.059534337;-0.16960673;-0.013863264;-0.09939263;0.015352674;-0.078393295;-0.18456475;-0.14108068;-0.045662828;-0.10040806;-0.025981668;-0.099739455;0.08833566;0.04366392;-0.06783582;0.03815215;0.025716342;-0.12792325;-0.0959396;-0.1459566;-0.06798668;-0.016698515;0.06368847;-0.11568536;0.018702073;-0.11917394;-0.1145763;-0.007119233;-0.08400781;0.030940749;-0.061344706;-0.07197434;-0.044353332;-0.03444265;-0.016537573;-0.095991746;0.027259901;0.009436259;-0.13710263;-0.11736841;-0.14797518;-0.15275833;-0.07176325;-0.10878382;0.02649994;-0.017300395;-0.10098787;0.0196447;-0.063348524;-0.06614228;-0.05958741;0.05502112;-0.01384253;-0.038887665;-0.005025127;-0.077359475;-0.030732013;0.0038996632;-0.11240066;-0.07073762;-0.009750443;0.018377606;0.004417648;-0.026888438;0.073307216;0.061200734;-0.080323845;-0.09575219;-0.031554524;-0.010587955;0.077941544;-0.01970733;-0.05113713;-0.084095955;-0.057923682;-0.010093847;-0.02643569;-0.07339041;0.052112274;-0.13841501;-0.0011441021;-0.09954383;-0.015575047;-0.1513555;-0.08671628;-0.07202104;-0.06872756;-0.009765498;-0.14484484;0.05832911;-0.046087813;-0.19757892;-0.117092334;-0.10352223;-0.15607624;0.020720422;-0.049873646;-0.05065759;-0.08032961;0.021838289;-0.058747575;0.04633708;-0.20125762;-0.109927915;0.08157811;-0.048705053;0.014718683;-0.016401544;-0.17549203;-0.12736875;-0.059502114;-0.065209575;-0.08007034;0.0060684183;-0.15830114;0.030956723;-0.028052384;-0.014691929;-0.037647713;-0.09315066;-0.19905834;-0.15734436;-0.088810794;-0.07136996;-0.05834069;-0.0833367;-0.07082301;0.027631773;-0.20673472;0.054275952;0.014320311;-0.048394654;-0.068808176;-0.0783083;0.04283736;-0.037675958;-0.15244329;0.009945827;-0.04509271;-0.033731427;-0.089243695;-0.022761485;-0.074107975;-0.04627184;-0.10887804;0.05296095;-0.037918113
-0.0040455563;0.020294609;-0.080306485;-0.039655283;-0.10398225;-0.0046345294;0.19026248;-0.062487703;-0.11501244;-0.04471641;-0.03612171;-0.0058724014;-0.04390779;6.1817525e-05;-0.0457815;0.003743131;-0.119876675;-0.23169991;-0.051150896;0.16209699;-0.08986314;-0.08048826;0.014555793;0.0062594283;-0.013654537;-0.15493976;-0.012435279;-0.0026588342;-0.08207448;-0.08106195;0.043259036;0.02536595;-0.009088351;-0.004756201;-0.068486705;0.006440914;-0.044678945;0.024422593;-0.18309584;-0.15180467;0.06366997;-0.19482945;0.027373895;-0.077603236;-0.2530382;-0.025387522;-0.0954875;-0.17770633;0.012474303;0.004683775;0.028863002;-0.08080371;-0.0486391;0.020933254;-0.1238566;0.06130962;0.050611343;0.020543218;-0.071147926;0.033288147;0.02320495;-0.05772668;0.19092059;-0.20612459;-0.13774067;-0.23465356;-0.06295042;-0.005075092;0.045199268;-0.122119136;0.0087561;-0.1230997;-0.095355436;-0.08629584;-0.03143232;-0.0849988;-0.1267533;0.029746963;-0.004659052;0.025415149;0.01239297;0.00073266;-0.048942827;-0.031316586;0.00797228;-0.013779228;0.00034948063;-0.10430089;0.011292553;-0.03381587;-0.027519664;-0.009497408;0.025848644;0.096728936;-0.023866987;-0.12835762;-0.018983746;-0.08415903;-0.015887044;0.04983744;0.056376655;-0.057314735;-0.029574538;0.037305534;-0.052477784;-0.09194588;-0.00805792;0.02626226;0.12899955;-0.045857564;-0.116213016;-0.028189775;-0.060839746;0.15033273;0.025559384;0.0834352;-0.06286956;-0.11742486;-0.0053361044;0.023604142;0.043247063;0.026917836;-0.04444659;-0.12236858;0.0066968966;0.054121275;-0.15639219;-0.05296315;-0.033633802;-0.045903932;0.050555304;-0.048661802;-0.052597936;-0.10248195;-0.221873;-0.011126637;0.10221473;0.05020787;-0.008361757;-0.065176934;-0.1147602;0.13380265;0.09501977;-0.08568631;-0.05425523;-0.045101788;-0.11024281;0.028687045;6.924105e-05;0.00513795;-0.056681942;-0.11132928;0.009563793;-0.047851656;-0.0029530097;-0.056658685;-0.15980875;0.04619681;-0.024009924;-0.10997864;0.0342584;-0.11997461;0.072754055;0.027079446;-0.008056217;-0.0032645117;-0.058824494;0.032527644;-0.08757923;-0.016017687;-0.12871428;0.059828516;-0.10041962;0.105861045;-0.14279184;-0.02346683;0.040929664;-0.114107095;-0.020755686;-0.0791034;-0.14611359;-0.033065286;0.06204778;-0.051791575;-0.06647432;-0.023694322;-0.046690144;-0.054573562;-0.061845176;0.029926162;0.01094028;-0.061211403;-0.020256216;-0.064519495;0.006672592;0.08914445;0.01979846;-0.012813344;-0.05681914;0.004641603;0.03329824;0.047293622;-0.03644159;-0.021516312;-0.09257247;-0.09722098;-0.16023324;0.029948348;0.101605184;-0.009264105;-0.058024112;-0.02056749;-0.1395118;-0.033762354;-0.09804132;-0.06850282;-0.005286294;-0.05960173;-0.11060116;-0.10090931;-0.058287803;0.007121142;0.017424835;-0.0762571;-0.03438867;0.016255913;0.1154341;0.019781664;0.024110612;-0.07394145;-0.04118871;-0.09778674;-0.006839742;-0.030432701;0.008921337;0.043289684;-0.011350891;-0.053709306;-0.0028832392;-0.04474214;-0.02632946;-0.042629726;-0.075201415;0.0053865667;-0.07891825;0.0810306;-0.06847131;0.08145483;-0.06943408;-0.078942895;-0.07459018;0.007698606;0.116028555;-0.061833765;-0.118560225;0.034510557;-0.025429757;-0.06094958;-0.07027084;-0.120614596;-0.027950183;0.012467722;-0.1025508;-0.07784195;0.075529784;0.078062885;0.03985261;-0.094747685;0.017171595;0.0012532666;-0.0068078386;-0.0018092401;-0.09521633;-0.08376625;0.119907044;0.0062309187;-0.08137075;-0.044807106;-0.038026113;0.053677455;0.033391174;-0.1372276;-0.07860692;-0.06510939;-0.06472612;-0.04890763;-0.04535937;-0.09253984;-0.06337496;-0.047745124;0.014708476;-0.22502844;0.069811404;-0.0788927;-0.09990495;0.13172165;-0.07005728;0.18640783;-0.28291914;0.05906646;-0.075927414;-0.12196039;-0.07070082;0.09365509;-0.16053332;0.161545;0.010030729;-0.16633919;0.052623242;-0.043771174;-0.09586211;-0.021071846;-0.02342096;-0.0962437;-0.012270364;0.017940061;-0.03112981;0.044759557;-0.017399993;0.037847616;-0.046853464;0.021800188;-0.14518288;-0.001372982;-0.09688749;-0.047076665;-0.029415363;-0.028486997;-0.0118709775;-0.010148022;0.00090070395;-0.089904256;-0.0013460096;0.053385984;0.10787189;-0.08780551;-0.13079384;-0.052792914;-0.034955997;0.01253203;-0.13525979;-0.14369848;-0.1200776;-0.013433576;0.097793676;-0.14183916;-0.09943288;0.06819408;-0.05618158;-0.026113534;0.059353255;-0.018059153;-0.012761355;0.090638615;-0.0351457;-0.02961733;0.10596306;0.007881636;0.056893226;-0.010925937;-0.14332105;-0.049219616;0.15997326;0.045294218;-0.007357251;-0.053957045;-0.043265626;0.037331145;-0.012199204;-0.05803034;0.011850843;0.06532579;-0.10447986;-0.056615807;-0.060847223;-0.069382764;-0.080343656;-0.10331104;-0.009221474;-0.009525303;-0.09259147;0.0042608418;0.039863955;0.10172136;0.0030086748;-0.040764414;-0.13794316;-0.085072555;-0.056931857;-0.05758337;-0.01693234;0.0667913;0.0027711643;0.15231985;0.06513991;-0.019497197;-0.03242506;-0.110796124;-0.03212087;0.019494362;-0.10780042;0.054785732;0.06510948;0.07145094;-0.08783795;0.074574634;-0.05491738;-0.22043456;-0.024775613;-0.07072513;-0.084477104;-0.08419388;-0.1283216;-0.06701006;0.08493902;0.062288295;-0.12077633;-0.06903403;0.0909329;-0.23662853;-0.055629373;0.105092734;-0.011205748;-0.043544944;-0.0019712641;-0.0999642;-0.02039765;-0.11487989;0.0635062;-0.076485865;-0.19186762;-0.0023943526;-0.06014056;0.013156622;-0.12618656;-0.036577426;0.0038341836;-0.099426344;-0.1208936;-0.05797148;-0.04078096;-0.05466755;-0.039152466;0.035471532;-0.026893297;-0.07066132;-0.13328464;-0.047434337;-0.005501281;-0.12251815;-0.055709995;0.057426427;-0.0659986;0.028098637;-0.04102021;-0.057926375;-0.091671824;-0.072472125;0.06184128;-0.14131911;-0.054864883;-0.037495848;-0.0034219492;-0.017855277;0.031464156;-0.016463622;-0.060506083;-0.20754042;-0.14887977;-0.14623533;-0.035053104;-0.17141357;-0.03262018;-0.08823335;-0.012701736;-0.03023383;-0.044752583;-0.012490483;0.034211095;-0.05981333;-0.030873239;-0.0074766437;-0.035747793;-0.015326526;0.09460066;-0.028192312;-0.11894586;-0.0783078;-0.05278667;-0.08101561;0.0046716537;-0.11196824;-0.076411285;-0.020948365;-0.058898214;-0.03723594;0.023543784;-0.104718186;-0.04396348;-0.0068894415;0.07987423;-0.018008785;-0.017919308;-0.00042968427;0.06536068;-0.13629599;-0.056801695;-0.022767069;-0.12964231;-0.1273821;-0.032603677;-0.080679074;-0.08104575;-0.060177665;-0.044121698;-0.114312515;0.01431601;-0.07432727;-0.03387835;-0.084093325;-0.23391275;-0.022172596;-0.11583782;-0.14589877;-0.003009802;-0.08934313;-0.051882934;0.06880209;0.027597144;-0.090243;0.06688379;-0.17099003;-0.035312925;6.800544e-05;-0.04057599;-0.05300635;-0.026043264;-0.016329315;-0.07430604;-0.08318817;-0.06679946;-0.10221257;0.06818504;-0.082881674;-0.11219178;-0.01577197;-0.10089018;-0.022517161;0.047847297;-0.107347205;-0.13699216;0.04046955;0.0015637382;-0.010567931;0.020045124;-0.02873182;0.0022197855;-0.180845;-0.025776824;-0.0181257;-0.057673693;-0.102336176;-0.012857792;0.00861648;-0.06168747;-0.12844737;0.03443238;0.049415566;-0.106028;-0.053806867;0.0065226867;-0.12355789;0.06624827;0.009357437;0.036423407;-0.011049741
-0.015451337;-0.05674523;-0.1690561;0.035255745;-0.032405943;-0.02570707;0.18203682;-0.06694231;-0.01045769;-0.0010930359;-0.035845954;-0.10708368;0.02604028;0.028107936;-0.09675601;-0.048401296;-0.11601184;-0.09967375;-0.12084515;0.09651852;-0.06914416;-0.19282214;-0.04752829;-0.04675247;0.047507722;-0.087783396;-0.09731076;0.029597672;-0.050948504;-0.00991246;-0.064435825;0.032765884;-0.01277307;0.04171217;-0.14949429;-0.043890715;0.002338547;-0.0048929956;-0.110704966;0.011937124;0.0068361564;-0.1333684;0.00073644397;-0.17617849;-0.11131954;0.008521374;0.03577978;-0.023309024;0.0006009655;-0.08499639;0.006020375;0.020050857;0.0005698267;0.0034079184;0.010010425;0.0016394948;-0.028986592;-0.09570488;-0.030546453;-0.03890387;0.12080967;-0.1579135;0.048469353;-0.07736319;-0.06267381;-0.0931584;-0.026230974;-0.0014665307;-0.11312939;-0.122521535;-0.02569132;-0.0882797;-0.06211101;0.036534652;-0.03857464;-0.013980714;-0.124323554;0.016056316;0.11616805;-0.114612974;-0.09713558;-0.057565838;0.059248213;-0.089321025;-0.091877006;-0.138659;-0.087186575;-0.09962993;-0.05756785;-0.0506517;-0.05026926;-0.13880353;0.056890897;0.17318092;-0.031890098;-0.062662676;-0.019461486;-0.101253085;-0.008325272;0.02483589;0.063957356;-0.030578217;0.001642037;0.0034731468;0.0046349615;-0.11945436;-0.11635392;-0.01381137;0.04630759;-0.03625213;-0.11586539;-0.09661139;-0.07688404;-0.0039882907;0.04973396;0.04567909;0.018198598;-0.11191073;-0.12127772;0.022810733;-0.042518243;-0.019877106;-0.04063786;-0.11700082;0.06531519;-0.07857873;-0.056200776;-0.0025403537;-0.027478581;-0.15592107;-0.07888011;0.010594739;-0.058717642;-0.0703095;-0.2106597;-0.038743157;0.034091115;0.020287614;-0.04222261;-0.0021514904;-0.047918532;0.15426125;0.011302563;0.047919035;-0.07578191;0.032524448;-0.05323678;-0.022984358;0.031685356;-0.08579823;-0.07430561;-0.030212956;0.042247187;-0.013326032;0.061658364;-0.16615273;-0.07586139;0.09782866;-0.044949967;0.040507488;0.050590865;-0.03998087;0.008558475;0.04327176;-0.005391303;-0.09931854;-0.10016215;-0.016597182;-0.1250182;-0.087315485;-0.16659985;0.096173;-0.05413965;0.13222092;-0.11627841;0.015671767;0.055651154;-0.1800012;0.008970452;-0.092632845;-0.121016875;-0.082271054;0.1140925;-0.11481176;-0.12010526;0.042153273;-0.11836961;-0.029237783;0.025356881;-0.03410157;0.037777018;0.057490736;-0.095649585;-0.17471807;-0.09008608;0.009969744;-0.053718325;0.009738738;-0.016200382;-0.086285934;-0.09632344;-0.05328417;-0.006627387;0.031659395;-0.035357524;0.0046845246;-0.089534864;0.20282894;0.110140726;-0.046037458;-0.011146551;-0.016544133;0.00905175;-0.023273025;-0.04779137;0.036656927;0.06259199;-0.03736985;-0.06665283;-0.14602543;-0.03584256;-0.12732853;-0.0080798995;-0.007418993;0.041441895;0.06656088;0.12798733;0.11019091;0.03352308;-0.10352201;-0.013010107;-0.13945451;0.005515914;-0.03755074;-0.08828834;-0.04919599;0.043113314;-0.017844688;0.0009933087;-0.09327125;0.039055023;-0.05831079;-0.087406956;0.042789783;-0.11630854;-0.019130979;-0.14245021;-0.054051746;-0.08087245;0.025544034;-0.009619935;-0.004694205;0.049715314;0.0004458135;-0.03598707;-0.09921374;-0.048870828;-0.05761196;-0.19631809;-0.043557905;0.065189295;-0.031995013;0.0041833734;-0.0078781275;0.041007385;-0.006781645;-0.0008625699;-0.15081568;0.08712046;0.0030186654;0.022415156;0.046712786;-0.04622985;-0.015950963;0.15646136;0.06995199;-0.033270333;0.07162702;0.040068544;-0.030314691;0.002477797;-0.09468612;-0.0075524934;-0.13330904;-0.03500876;-0.045353595;3.137165e-05;-0.08141153;-0.0047262083;-0.014301978;0.010319356;-0.1549946;0.036827285;0.023082895;-0.013436841;0.11716822;-0.061352517;0.18581282;-0.317167;-0.06415112;-0.03307523;0.010276639;-0.04178583;-0.028572679;-0.06675353;0.07829272;-0.11919847;-0.110944405;0.115186825;-0.08641438;-0.035393443;-0.034721572;0.024687553;-0.03927773;-0.14018162;0.15362595;-0.033633195;-0.038949937;-0.003480245;-0.009558794;-0.046573553;0.058816154;-0.08548513;-0.021493055;0.010617917;0.06721934;-0.12165279;0.030533163;-0.0656493;0.018492619;-0.044138625;-0.006457521;-0.06968242;0.048488785;0.03586983;-0.057044823;-0.14200719;-0.07738049;0.004298343;-0.09444703;-0.11918998;-0.0061875866;-0.020997982;-0.04059556;0.15627594;-0.1331095;-0.008151541;0.021628888;-0.09437629;-0.033726785;0.094964646;-0.07794075;-0.1073794;0.06561372;-0.01619175;-0.051361736;0.038418878;-0.047734976;0.07345096;-0.023386313;-0.04302546;-0.08980619;0.18917604;0.032779694;-0.07445088;-0.017741999;-0.038215008;-0.008188872;-0.011621476;-0.019121438;-0.11083979;0.0072846063;-0.06936852;-0.04534791;0.045990482;-0.000116526266;-0.031673297;0.023764804;-0.03837627;-0.04805077;-0.11016595;-0.033807755;-0.05909422;-0.06473865;-0.053820346;-0.05768514;-0.13620514;-0.13310748;-0.13766733;-0.062790565;-0.010696525;0.17190363;-0.13385838;0.08019616;0.10624234;-0.10045218;-0.07145472;-0.035187643;-0.00029075134;0.027547723;-0.0013289311;0.04052179;0.03864325;0.10117379;-0.06849006;-0.023160364;-0.12416425;-0.08650151;-0.012278863;-0.10681605;-0.05090825;0.0035393569;-0.09847819;-0.12220239;0.002758847;0.09778361;-0.09980029;-0.095308766;0.083517715;-0.09777581;-0.029092502;0.03541433;-0.06327579;-0.082638256;0.009332787;-0.009975514;0.039015744;-0.14040045;-0.071610704;0.048801515;-0.1689957;0.09886661;-0.09659058;0.05976736;-0.03814282;-0.10095814;-0.080292776;-0.10673613;-0.064132586;-0.009647073;-0.12696344;-0.080623664;-0.0006945582;-0.044351663;0.13038017;0.020374732;-0.06878523;-0.00049872574;-0.057305556;-0.048209827;-0.080557026;-0.096043155;0.00021322168;-0.0065995506;-0.047849797;-0.029722206;-0.11477341;-0.109232716;-0.06253665;-0.14456058;-0.0842581;-0.069180556;-0.075438716;0.026543254;-0.0148275625;-0.0024864026;0.045867965;-0.21983652;-0.12754111;-0.14636314;-0.054229155;-0.11372245;0.006396701;-0.11519228;0.03885126;-0.084502205;-0.021760955;-0.016105728;-0.060062222;0.023728028;-0.014591008;-0.07343868;-0.07544206;0.0019043535;0.0035428049;0.03329741;-0.035678502;-0.10824179;-0.05123372;-0.050712213;-0.063642874;-0.018642893;-0.092013896;0.0067163506;0.0056323824;-0.043293424;-0.03567916;-0.011742609;0.05344086;0.101776004;-0.036040433;-0.062774405;-0.030252334;-0.058599334;-0.046203464;-0.13797976;-0.058884736;-0.086506;-0.10121003;-0.017895762;-0.026315775;-0.07416842;-0.08685953;0.014451901;-0.10805742;-0.043175425;-0.0903375;-0.104241766;0.10223398;-0.09290742;-0.23536786;-0.11727039;-0.08518606;-0.13614397;-0.102328666;-0.09942056;-0.018495535;0.05270454;0.0972763;-0.0049314997;0.03993464;-0.07752154;-0.08668366;0.11512192;-0.04482638;-0.03220116;0.025199782;-0.081162095;-0.12189343;-0.029135589;-0.051917776;0.050069228;0.038309302;-0.043756735;-0.0013449128;-0.046392344;-0.09492881;0.047250286;0.021465383;-0.061395947;-0.12846677;-0.09560385;-0.021885501;0.026973343;0.057010703;-0.047772802;0.05115408;-0.24521163;-0.0035309137;-0.08339978;-0.04474116;-0.05305524;-0.0034507127;-0.007776678;0.013291812;-0.15769413;0.04993653;-0.057687365;-0.016662816;-0.10014604;0.019544702;-0.05441089;-0.056129254;0.015070155;-0.0039339815;-0.048573893
-0.05295262;-0.10294917;-0.16270392;0.021214494;-0.053269237;0.015875902;0.058748808;-0.16903144;0.028523685;-0.0648021;-0.11249338;-0.06868525;-0.06021982;-0.08196576;-0.06271365;-0.089530334;-0.11099258;-0.10370229;-0.08886478;0.10663793;-0.120302185;-0.14366224;-0.0695329;0.051110804;0.06685926;-0.12366855;-0.118110925;0.003576464;-0.15859677;-0.096546896;0.013699966;0.025893418;-0.08008881;-0.037101462;-0.13379376;-0.09030126;-0.05058917;-0.026569664;-0.06822172;-0.064290114;-0.08036869;-0.051024932;-0.006472666;-0.119956195;-0.10808261;-0.03720378;-0.008146572;-0.0708085;0.04844033;-0.060581766;-0.012549191;-0.078026526;-0.08438324;0.099025734;-0.033444617;-0.040168624;-0.08824752;-0.068379335;0.01383336;0.09295996;-0.018213745;-0.12331374;0.028072532;-0.19545142;-0.13757499;-0.09066987;0.05181776;-0.02291291;-0.050636895;-0.19268633;0.065077655;-0.038920406;-0.033873715;0.060296305;-0.099268585;-0.07299773;-0.08369549;-0.0041757133;0.047835052;-0.16630197;-0.092521414;0.021509867;-0.047914375;0.0016009137;-0.07356724;-0.11868092;-0.10361616;-0.027392713;0.060945123;-0.007563264;-0.062598795;-0.027543548;-0.07461523;0.119045675;-0.14088148;-0.13207965;-0.087811686;-0.07337232;-0.15081821;0.04637814;-0.004482295;-0.03718656;0.028900852;0.040348288;0.032083075;-0.120941624;-0.017685909;0.05076887;0.09661935;-0.056181062;-0.13946582;-0.082558215;-0.0377243;0.0539691;-0.034409747;0.06645281;-0.041324604;-0.07462363;-0.1297959;0.07274769;0.031244442;-0.02237069;0.070942916;-0.17302394;0.06838239;0.035708386;-0.17355414;-0.0029599348;-0.062646896;-0.08682991;-0.079994686;-0.0042548445;-0.06013915;0.02399495;-0.17821427;-0.037085883;-0.012428874;0.00021779332;-0.118356705;-0.09546353;-0.0781028;0.074472055;0.04592961;-0.01957733;0.05026282;0.05761134;-0.13598895;0.057038747;0.035377145;-0.020051807;-0.12555675;-0.02290441;0.025027849;-0.01624507;-0.0936244;-0.18616934;-0.16243364;0.115433216;-0.05569938;-0.105783224;0.079588704;-0.14035654;-0.017447377;-0.0591219;0.041067366;-0.0297928;0.03961139;-0.10227856;-0.1807936;-0.0917812;-0.15531579;0.12926608;0.0068743704;0.014137252;-0.15944234;0.005978289;-0.057367533;-0.078007795;0.044068806;-0.099410675;-0.12036811;-0.18098912;0.13929024;-0.02547908;0.01053162;0.068979055;-0.03102899;-0.0014447598;0.007611214;-0.03180755;0.007042288;0.04050168;-0.012428279;-0.06959677;-0.054651216;-0.034239974;-0.08679418;-0.03681405;-0.08397153;0.024451451;-0.08455721;-0.07242086;0.05141276;-0.07869266;-0.103258885;0.03120127;-0.10938691;0.19754456;0.08443674;-0.11005567;-0.04186943;0.0020863889;-0.120397046;-0.07779494;-0.112180375;-0.033812564;-0.055997074;-0.078370884;-0.10450586;-0.0071719307;-0.0666528;-0.040884342;0.04307252;-0.061640453;0.014340455;0.01172635;0.092322126;0.087522976;0.04112178;-0.096719325;-0.049141582;-0.1378134;-0.026899982;-0.15430126;-0.0028755886;-0.037606306;-0.0044846567;0.052588522;0.017788555;0.02600079;-0.074917674;-0.079276755;-0.05319677;-0.0974697;-0.05984274;0.061291777;0.014855125;0.069380745;-0.008745728;0.05372217;-0.020138182;-0.09654023;0.03859602;0.05173268;-0.06952337;0.0383253;-0.084749244;-0.058307618;-0.17248243;0.020853883;-0.04972641;-0.051591597;0.03872721;0.0036492767;-0.050776098;0.032006554;-0.008091755;-0.110775515;0.12288876;-0.05363613;-0.09050649;0.0009120105;-0.12674245;-0.081262745;0.12287022;0.15334854;-0.09524605;0.06674087;0.021523206;-0.108107306;-0.047709644;-0.18041548;-0.06302594;0.0029405;0.018786851;-0.040112425;-0.026605502;-0.002715184;-0.05047017;-0.017075988;0.013233815;-0.19041336;-0.0945096;-0.04839301;0.0042783865;0.042983428;-0.020947965;0.071899995;-0.32953927;-0.047077518;0.061753787;-0.13088918;-0.043323617;-0.0144000305;-0.198872;0.17240934;-0.12945792;-0.0847925;0.13762183;0.026953408;0.03757461;-0.043563798;-0.057085562;0.021392694;-0.08558138;0.113436215;-0.08542551;-0.073349774;-0.0033803922;-0.012374487;0.056193564;-0.0070922445;-0.14117552;-0.08088817;0.023408199;-0.015524697;-0.124360755;-0.012888822;-0.06549971;-0.046256416;-0.09397073;0.021474794;-0.049381893;-0.013999923;0.03458413;0.05660538;-0.15121868;0.027659588;-0.038275752;-0.074922174;-0.18389922;-0.12410994;-0.026767138;-0.07634436;0.07319965;-0.122955866;-0.00027876406;-0.0770649;-0.056820992;0.051194906;0.09313661;-0.096508525;-0.090907454;0.027959699;0.023604913;0.07455599;0.020444479;-0.12272753;0.09028074;-0.09690487;-0.036752645;-0.016483512;0.16781709;0.027519282;-0.08766823;-0.027425503;0.06728891;0.012692833;-0.028291626;0.04129465;-0.10417336;0.059864234;-0.08848685;-0.042547315;-0.029919568;-0.07534316;-0.07537432;0.048499152;-0.006467029;-0.1457321;-0.025935698;-0.06420303;0.05615513;0.059617303;0.035947006;-0.009023599;-0.0866306;-0.16269445;0.012372593;0.0474347;0.044872742;0.058428638;-0.048263323;0.10643224;0.017848618;-0.1111092;-0.038586233;-0.10052861;-0.011137879;0.050137833;0.040794414;0.008559174;0.050222177;0.075486556;0.01660109;0.047267538;-0.09951712;-0.2345188;-0.026626822;-0.0730188;-0.0019245766;-0.07628873;-0.040372446;-0.0024304218;0.02400455;0.06683935;-0.16749914;0.023467047;0.056023322;-0.1524888;-0.045117103;0.103256546;-0.06471512;0.051125642;-0.0738161;-0.110069476;-0.042483002;-0.013987575;-0.057749927;-0.027126677;-0.11528495;-0.012408521;-0.016412152;0.08470804;-0.09137151;-0.084870525;-0.029751314;-0.03520168;-0.09023076;0.0069026384;-0.0515962;-0.021523658;-0.042671587;-0.10061504;0.039019592;-0.017765587;-0.11428881;-0.02204104;-0.052391093;-0.0044889967;0.013103919;-0.023998782;-0.1059477;-0.06911836;-0.083893016;-0.010054596;-0.071673125;-0.08307145;-0.038705908;-0.021839857;-0.09459935;0.037537124;-0.055781312;0.03551714;-0.02606464;-0.025049444;-0.03421178;-0.20241073;-0.15026157;-0.074190855;-0.12244773;-0.061202597;0.016055776;-0.006528857;-0.0063668173;0.026127769;0.01585769;0.02301003;-0.019656114;0.062440384;0.027143033;-0.046005804;-0.029432151;-0.10386926;0.015625317;-0.035101;-0.026552586;-0.11499225;-0.11347087;0.027669705;-0.0071612764;0.0126448665;-0.08469536;-0.0035269961;0.050007287;-0.0021432354;-0.08560376;-0.010244817;-0.05590305;-0.012152657;-0.06727707;0.0076495167;-0.11582835;0.031999666;0.021797184;-0.028337197;-0.09071316;-0.07122359;-0.14211752;-0.04991541;-0.039334662;-0.14809607;-0.03991309;-0.021592094;-0.07453945;-0.05975658;-0.0703086;-0.052945845;-0.011371315;-0.08511833;-0.1955629;-0.018735424;0.02773125;-0.13642716;-0.04368836;0.018011222;-0.04993075;-0.004782207;0.058182735;-0.050159246;0.054762542;-0.10689733;-0.03278401;0.018972894;-0.14287785;0.014126293;-0.06880087;-0.039180256;-0.06705255;-0.07629979;-0.17151795;0.027174124;-0.017322157;-0.120234415;-8.986535e-05;-0.061707843;-0.020634254;0.0730387;-0.08649807;-0.07775133;-0.079721875;-0.05783114;-0.02153589;-0.074299514;0.0039161267;0.034011107;0.08614934;-0.21741812;0.05975059;-0.08986382;-0.080105655;0.008164909;-0.014329986;0.026702944;-0.035497114;-0.17099607;-0.005947281;0.027052714;-0.11799213;-0.19694267;0.03835431;-0.11848101;0.04878149;-0.092937425;-0.0026057963;-0.035854816
-0.023732413;-0.091055505;-0.26997566;-0.007169559;-0.09140091;0.010394399;0.0005654433;-0.15837131;-0.03028498;-0.08605984;-0.040042706;0.017138598;-0.08412764;-0.005349903;0.054977827;-0.09307485;-0.115677126;-0.12831037;-0.12732874;0.12167753;-0.13048518;-0.12387056;-0.083222315;-0.08095814;0.10967242;-0.09298837;-0.008873269;-0.116526246;-0.035490267;-0.011354705;-0.057914514;-0.030299122;-0.08231372;0.01759969;-0.04604425;-0.0538605;-0.025789347;-0.038777445;-0.019614378;0.031864606;-0.06683511;-0.13178867;-0.10902152;-0.12637517;-0.058004938;-0.045692496;0.024410216;-0.060095526;0.03630282;0.0028332022;-0.05954788;-0.12567191;0.014233764;0.05750455;-0.04607077;0.0039899293;-0.028083589;-0.078963175;-0.100425966;-0.00968563;-0.0035515311;-0.037622932;0.16420776;-0.1903528;-0.03733575;-0.04720245;0.051740866;-0.1467274;-0.03951308;-0.078006566;-0.026163602;-0.10762209;-0.041015945;-0.12403174;-0.05256071;-0.06936037;0.04588837;0.012732903;0.079912975;-0.053600047;-0.07630826;-0.10321554;-0.0075337477;-0.06125244;-0.06712349;0.023862805;0.017729593;-0.06329476;-0.005081149;-0.061293945;-0.040622067;-0.10541654;-0.09408537;0.08752712;-0.0075244084;-0.017982475;-0.016573377;-0.06344717;-0.120198354;0.007268318;-0.05378265;-0.10578144;0.025968302;-0.049509738;0.005842739;-0.028147472;-0.048563357;-0.06604727;-0.040085953;-0.1403833;-0.04729403;0.0264493;-0.09099903;0.08833992;-0.04835714;-0.045644596;-0.069628716;0.0320189;-0.0833134;0.04482612;-0.12897283;0.02675303;0.020939618;-0.14195774;-0.024582978;-0.015389402;-0.09419377;-0.09475402;0.026853932;-0.060272243;-0.11509916;0.05975932;-0.041776493;-0.016808646;-0.15167429;0.062204003;-0.06412253;-0.06888278;-0.0631894;-0.0394127;0.012062822;0.065284535;0.094854556;0.03525449;-0.028513178;0.0056460863;-0.17246273;0.05469322;0.003149612;-0.106802955;-0.103605814;-0.006365488;0.049714692;0.05052903;-0.040750362;-0.07137093;-0.09159704;0.0978501;-0.06410565;-0.043192666;-0.09850591;-0.06233902;-0.035161395;0.043321665;-0.03656593;-0.012085964;-0.0050862334;-0.0063381535;-0.13453415;-0.056064732;-0.1929791;0.10131031;-0.023315288;-0.021826383;-0.14810221;-0.048413057;0.012978332;-0.090005465;0.08423471;0.014390385;-0.04530405;-0.0022941786;0.08244129;-0.025352186;-0.025591949;-0.028365316;-0.20079836;0.02235466;-0.06772715;0.022684248;0.001970323;-0.02746669;-0.0113793835;-0.1672604;-0.09490757;-0.07133113;0.020187763;0.0031229472;0.00961274;-0.110658586;0.052556053;0.0033745249;0.0044315606;-0.0014492428;-0.006928869;-0.1416266;-0.16492222;0.22220486;-0.0422898;-0.010329778;-0.022178005;0.010534797;0.047488652;0.040348478;-0.02689315;-0.064494126;-0.069260605;0.0047015892;-0.033916093;-0.1528688;-0.07409159;0.017098306;-0.055278525;-0.06262299;-0.099195875;-0.08151059;0.016327621;-0.036999527;-0.0751147;-0.027842054;-0.058146823;-0.066971056;-0.049107052;-0.013576813;-0.047689836;-0.081105724;-0.09688357;-0.071408145;0.047769494;-0.12610467;-0.02204042;-0.0018192247;-0.06130538;0.017149027;-0.022761857;-0.07055875;-0.11469568;-0.07983873;-0.10320569;0.004835013;-0.105177574;-0.08698777;-0.040540986;-0.035234604;-0.091298066;0.0056162905;-0.10934912;-0.008157817;-0.087175615;-0.09838223;0.0372325;0.0123461215;-0.070701964;0.013649568;-0.10695709;0.004842946;0.046197932;-0.10168752;0.06619019;0.0018361955;-0.008895901;-0.065573044;-0.09718905;-0.09299933;0.13162051;-0.0060023535;-0.08148005;-0.08708798;-0.073591076;-0.051694315;0.00018877441;-0.1504847;0.013333713;-0.09331869;0.020983528;-0.026845789;-0.09665494;0.055980586;-0.08006189;0.0040424326;-0.018453095;-0.17343774;-0.034472134;-0.0060304874;-0.10078162;0.017456064;-0.02837817;0.09373833;-0.18342495;-0.07213326;-0.06550434;0.014236753;0.064059295;-0.030948361;-0.16498518;0.08060276;-0.06846262;0.021220664;0.006568084;-0.10444259;0.05372635;-0.004165189;0.04930859;-0.034621947;-0.025087025;0.22835505;-0.043977518;0.032728974;0.020032372;-0.090651035;-0.047221005;-0.0068280427;0.006239897;-0.033661146;-0.02703618;0.13439414;-0.09517499;-0.00448722;-0.10439143;0.015826253;-0.09320859;0.033499356;-0.07652124;-0.038275614;-0.020569766;-0.05505589;-0.17749566;0.01547191;-0.10486877;-0.11133723;-0.15117502;-0.024242623;0.0087471185;-0.0794293;0.14239581;-0.037305422;0.052991387;-0.06552062;-0.04128321;-0.085832134;0.012841442;0.040682178;0.034579106;0.06888875;-0.031796783;0.015068754;0.124206424;-0.01304227;0.14856194;-0.051575832;-0.084934376;-0.075352766;0.16539158;0.0029273804;0.018215379;-0.07619989;-0.012642879;0.08322141;-0.07329882;-0.09826668;0.0017591061;-0.004061455;-0.1278057;-0.020539895;-0.0512737;-0.09549507;0.038363066;0.022226883;-0.0060505047;-0.103853785;-0.07401007;-0.065373555;0.013922398;0.09251101;-0.005979256;-0.0061096093;-0.08088562;-0.1387859;-0.045729965;0.033744127;-0.049652766;0.1317984;0.010141454;0.18202798;0.029325921;-0.09413456;-0.098048456;-0.038274307;-0.11854831;-0.031155705;-0.02539699;-0.0119460225;-0.109634705;-0.063351735;-0.10510142;-0.0017264682;0.020715553;-0.20159635;-0.13780183;-0.09025875;-0.1528542;0.023807157;0.010567546;-0.05826088;0.006508696;0.011571425;-0.12535883;0.0009928842;0.005616092;-0.068870984;-0.009643508;0.12780334;-0.04745125;0.0037481785;-0.09820431;-0.08373918;-0.08025969;-0.12315306;-0.023099229;-0.05669221;-0.1620722;0.096612476;-0.09027687;0.033027217;-0.07096381;-0.077514976;-0.09196877;-0.15078838;-0.0657506;-0.064933315;0.025131702;-0.09226307;-0.045118082;-0.09200075;0.14146522;-0.11756498;-0.17450076;0.0111134155;0.024866423;-0.0014648736;-0.023097632;0.048892926;-0.09481607;-0.08113014;-0.09873165;-0.041530818;-0.085904844;-0.004880868;-0.050087452;-0.10865723;-0.016196845;0.07463554;0.045128766;0.03447479;-0.055690877;0.04416287;-0.0017086399;-0.10324232;-0.19213071;-0.13126151;-0.12249836;-0.02338787;0.025688183;-0.043331224;-0.06652628;0.07711057;-0.013066592;-0.004120604;0.014252378;0.06863767;-0.047661122;0.0054938532;-0.07760424;0.035004698;0.0473921;-0.026034195;-0.03663887;-0.091495536;-0.121275574;0.021203605;-0.05059873;0.021939905;-0.14958908;0.07579282;-0.033626884;-0.08898517;0.027691819;-0.054600522;0.0076612644;0.08462104;-0.018822748;-0.042746563;0.027643198;0.006941709;0.031855162;-0.082853355;-0.038555972;-0.00688835;-0.13134153;-0.0713964;-0.11559533;-0.19878004;-0.049324002;-0.0016486922;0.018370725;-0.048825756;-0.07043598;-0.045933697;0.16739851;-0.1571979;-0.18685545;-0.044994425;-0.08845395;-0.087339096;-0.10702847;-0.025099391;-0.0911666;-0.08841053;0.061981216;-0.10390578;-0.034709174;-0.14121553;0.042228255;0.049440555;-0.061237358;0.026194554;-0.062305234;-0.14672007;-0.016745133;-0.035275087;-0.07231735;-0.0648667;0.0014944578;-0.1236346;0.028459806;-0.045118976;-0.07765739;0.041681748;-0.065957814;-0.053454384;-0.10341576;-0.016064899;-0.053201035;-0.08664937;0.02980132;-0.050732493;0.057377484;-0.16230069;-0.07098827;-0.10534624;-0.06527171;-0.016971163;-0.0137490425;0.032349918;-0.018608214;-0.2034421;-0.053766057;0.044983666;-0.0039667673;-0.1602014;-0.058797713;-0.08760102;-0.07219493;-0.10178286;-0.007905908;-0.0625304
0.045661926;-0.06445106;-0.28326133;0.049527813;-0.016839826;-0.07113267;0.04131527;-0.104656346;-0.018969117;-0.0108142225;0.02762164;0.03867731;0.009337563;0.047072463;-0.038029093;-0.02994089;-0.19572651;-0.12894897;-0.055847425;0.13255101;-0.123171724;-0.15420991;-0.086349525;-0.032089915;0.079424694;-0.18570015;-0.06382551;-0.0046257237;0.0022788448;-0.10082845;0.04249708;-0.13113202;-0.09022197;0.004942835;-0.08444692;-0.025496203;-0.044984873;-0.0110708345;-0.026449528;-0.12720172;-0.015900623;-0.050943386;0.043875173;-0.1577052;-0.09095788;0.031710826;0.042527124;-0.15554544;-0.025740627;-0.0020652115;-0.044633802;-0.15009041;-0.004478883;0.052587826;0.015466524;0.028167952;-0.00020518815;-0.043128826;-0.013472568;-0.02352839;0.055253245;-0.04818795;0.10029672;-0.16977534;-0.026483122;-0.17634965;-0.06788775;-0.12847672;-0.123235084;-0.159621;-0.07524574;-0.049174123;-0.08534167;-0.027402798;-0.11864452;0.0885108;0.011227373;-0.01244605;0.09184749;-0.1149158;-0.04445644;0.00022528914;-0.07837673;-0.111296736;0.01650601;-0.10176083;0.023563182;-0.020169474;-0.038249347;-0.07333998;-0.04392071;0.019576836;-0.037978154;0.07954531;0.018350761;0.005094616;-0.13269019;-0.069630235;-0.02454402;0.029350601;0.0013483162;-0.07587042;0.049496777;-0.08865215;0.018222885;-0.15100473;-0.048794277;0.017456062;0.04791067;-0.059320934;-0.18952896;-0.04189723;-0.047934555;0.09536675;-0.056748457;0.02812214;-0.12117923;-0.013171766;-0.0019256325;0.044480816;-0.07074018;-0.092237644;-0.06848179;-0.010387351;0.01952677;-0.08661907;-0.1096069;-0.08739093;-0.06859688;-0.14261802;-0.0919591;-0.02531831;-0.10610107;-0.085563615;-0.21541837;-0.028293356;0.055049635;-0.0024562913;-0.05412852;-0.016676886;-0.02479012;0.15939334;-0.054188248;-0.004120332;-0.001216721;-0.08802571;-0.021788886;0.086846106;0.0026099053;-0.022024037;-0.11507213;-0.06702061;-0.020979274;-0.049520593;-0.027709963;-0.16564631;-0.13122432;-0.005506917;-0.0135275535;-0.04761906;-0.10860401;-0.075876705;-0.06982416;0.085531004;-0.106526926;-0.13295597;0.0068852534;-0.06959835;-0.12678427;-0.14345719;-0.13169198;0.05056854;0.035008963;0.07433527;-0.108802356;-0.12823948;-0.019724462;-0.19004174;0.11034675;-0.033384237;-0.12510957;-0.14384672;0.10881306;-0.0039065345;-0.09676426;0.00055673555;-0.14585504;-0.041089326;-0.023811359;0.03783583;0.025670748;-0.03432575;-0.09705997;-0.17718937;-0.16852985;-0.029551493;-0.0962099;-0.010596418;-0.08538502;-0.13542943;0.014797683;-0.051716637;0.00191219;0.017349008;0.023437783;-0.0202367;-0.10028477;0.15499672;0.013095223;-0.03857012;-0.16678452;-0.058711976;0.019434204;0.05285046;-0.073317215;0.00023655916;-0.10105131;0.033931524;-0.038554672;-0.15318424;-0.003746878;-0.06416016;-0.032459684;0.006704459;-0.120425254;0.010520575;-0.06324797;0.06203887;-0.031658545;0.020369254;-0.094750166;-0.12220341;-0.03699039;0.0034926538;-0.06956278;-0.1147305;-0.10763022;0.058989972;0.0754899;-0.071313806;-0.072813675;-0.08582414;-0.0068163895;0.0071028033;-0.118395984;-0.0758446;0.019074513;0.019730218;-0.1487936;0.019940322;-0.070371225;0.022225944;-0.0004961694;0.00510392;-0.0024117809;0.055898353;-0.04522372;-0.12358526;-0.077710226;-0.09879421;-0.023098651;0.019149272;-0.05096373;-0.06251415;-0.02823038;0.027959798;0.0076006623;-0.074197404;0.0647238;0.059825197;-0.13422596;-0.019895183;-0.04277928;-0.051041927;0.17488536;0.10217251;-0.00937755;-0.0651309;-0.011232158;-0.0074204863;0.05930095;-0.17632875;-0.12706928;-0.04630888;0.008362141;-0.08142044;-0.073279664;0.0012543144;0.0056220456;0.041200634;-0.009880571;-0.19284418;-0.015668882;0.0023305968;-0.12287205;0.034008175;0.05308263;0.19206499;-0.29088628;-0.11403216;-0.06962112;0.011610307;-0.028210491;-0.0063270903;-0.20511977;0.045022666;-0.16460338;-0.13826875;0.15388721;-0.06248743;0.016158883;-0.04795418;-0.006212302;-0.029008007;-0.060280092;0.18471487;-0.05219231;0.024932895;-0.049477108;-0.10873977;-0.003758576;-0.054707013;0.0066204434;-0.11617222;0.004960191;-0.0056128404;-0.08457948;0.021157699;-0.01741335;-0.06701466;-0.17277876;-0.10390714;0.023420798;-0.11383907;0.0126878405;0.0153796645;-0.19906679;-0.025908438;-0.10509473;-0.08793972;-0.15873495;-0.078513056;-0.081466936;-0.071074225;0.07624974;-0.12214477;-0.06826588;-0.07008153;-0.021557383;-0.008450685;0.023058375;0.08632309;-0.10896581;-0.07065815;-0.08024244;0.009092534;0.05712966;-0.017428374;0.0113513945;0.006059747;-0.040155176;-0.061742328;0.08351422;0.03438005;0.02508658;-0.018530361;-0.010444413;-0.055754077;-0.0903306;0.019114085;-0.0068846997;-0.093364656;-0.061040275;-0.07165106;-0.0076054437;-0.054854512;-0.0010482746;0.09027871;-0.12251696;-0.034223147;-0.12790397;0.0504281;0.0418235;0.068640895;-0.098697;-0.021196311;-0.03440728;-0.01913236;0.0032080067;0.010043639;-0.058452457;0.044708427;0.03009043;0.09466648;0.027507134;0.023272272;-0.00048655813;-0.085962296;0.027432444;-0.0018159758;0.0095788445;-0.10070755;-0.02399223;-0.045517605;0.032487758;-0.020064276;-0.06253637;-0.21285212;-0.0343713;-0.03966395;-0.112563424;0.024049597;-0.11449701;-0.02513871;-0.09712198;0.03461839;-0.007757995;-0.10929111;0.07294116;-0.087201685;-0.08872637;0.09947829;0.042135514;0.03751835;-0.10467539;-0.105261356;-0.004491516;-0.06915203;-0.043585166;0.003770398;-0.16233826;0.096519075;-0.12740311;0.04278446;-0.02273508;-0.14509253;-0.109882474;-0.13403901;-0.0928651;0.048780598;-0.08413871;-0.04944593;-0.09390428;-0.091301315;0.004797336;0.0040748706;-0.13888423;-0.010538641;-0.06003778;-0.0064597502;-0.022664273;0.036437344;-0.0929922;-0.09570313;-0.068666585;-0.06835567;-0.04887709;-0.021544987;0.016747;-0.008234549;-0.016577285;0.027825015;0.014215569;-0.06850406;0.021309037;0.0029374238;-0.06794343;-0.21165147;-0.09809407;-0.053532004;-0.12968077;-0.07467603;-0.09815662;0.026878139;0.010326924;0.08709777;0.012692128;-0.031308934;0.0032954102;0.075472295;0.01702901;0.0025786145;-0.06604021;0.045048676;-0.009972621;-0.09274361;-0.005098121;-0.054880913;-0.14091013;0.02250316;-0.05391527;-0.059657738;-0.0318619;0.05819142;-0.062252484;0.009188123;-0.022338111;-0.057481404;-0.0511931;0.026383458;0.04480505;0.014509054;-0.02387433;0.015069134;0.008489262;-0.11184989;-0.122592255;-0.103351355;-0.051587205;-0.100498684;-0.084804535;-0.2135383;-0.011524351;0.04258809;-0.1222754;-0.16837177;0.00033725842;-0.07453625;0.15038195;-0.016840387;-0.2116994;-0.048598904;-0.036167435;-0.0856424;-0.18004306;-0.03855704;-0.014189524;-0.06885224;0.06635187;-0.024829153;0.033337437;-0.015388276;-0.014045163;0.07188581;-0.059239384;0.03328532;0.03332896;-0.065461844;-0.047709957;-0.096356265;-0.16208269;-0.050888915;-0.06017187;-0.09456054;-0.068046495;0.040223714;0.020893136;0.0044412534;0.03736688;-0.053165596;-0.033059627;-0.11114461;0.019340867;-0.004049442;0.05476588;-0.070757695;0.033125952;-0.23581438;-0.051378123;-0.06071169;0.030958062;-0.05001563;-0.11471812;-0.04866089;-0.0088368775;-0.1469245;-0.050328974;0.054428197;0.037171163;-0.18824555;-0.07678007;-0.061754864;-0.033071704;-0.11802136;-0.05114904;-0.0630264
0.038377944;-0.029600708;-0.32337877;-0.04645819;-0.106074825;-0.06262583;0.06378238;-0.16061518;-0.070355415;0.04135963;-0.041167118;-0.0677621;-0.0051232018;-0.05814432;0.009810358;-0.030366711;-0.16468069;-0.028240493;-0.1373951;0.083468184;-0.16439858;-0.16168557;0.009276301;-0.022110883;0.10448619;-0.14602242;-0.09771322;-0.02743631;-0.1250103;-0.04258448;-0.08660016;-0.09493321;0.044117827;0.026220495;-0.050797433;-0.0070637907;-0.08216394;0.011080676;-0.06410473;0.007882599;-0.080815285;-0.09262597;-0.013575214;-0.09619909;-0.12863684;0.0063389284;-0.041563414;-0.036819372;-0.11395152;-0.10253437;-0.06633191;-0.17421424;-0.021472707;-0.021981224;-0.06619788;-0.023007225;0.07915672;0.050503407;-0.059727002;-0.10090736;0.0052236347;-0.10294325;0.10679851;-0.11598945;0.022386976;-0.13498375;-0.0064447783;-0.046528768;-0.02887019;-0.10089264;0.014087462;-0.03621404;0.011966758;-0.005226371;-0.075775556;0.08528461;-0.009531595;-0.05539149;0.09445873;-0.053721715;-0.0057800817;-0.04608587;-0.018440785;-0.07606375;0.021230053;-0.02556311;-0.10135611;-0.029139817;0.026221817;-0.07116394;-0.039162207;0.022916025;0.011627029;0.17049663;-0.07690236;-0.11100425;-0.07495084;-0.13223225;-0.10611144;-0.0038903034;0.01898692;-0.10807004;-0.09949575;0.027406592;-0.037760105;-0.0681178;0.045115497;-0.07949168;0.022793962;0.003654236;-0.06317127;0.005742287;-0.0025977683;0.09274787;-0.10264277;-0.058462877;0.030747741;-0.013973698;-0.042241257;0.036362305;-0.05944381;-0.0639185;-0.029145464;-0.070205756;-0.050087605;-0.042697247;-0.25457639;-0.086030744;0.022932105;-0.12569329;-0.0012159867;-0.04276443;-0.00021100353;-0.059419405;-0.14382361;-0.0783509;-0.08983675;-0.059327867;-0.12991501;0.03216166;0.023489151;0.09068902;-0.054788787;-0.08469178;-0.09557222;-0.11958834;-0.10613313;-0.0072134966;0.028436596;-0.04554467;0.03045378;-0.07890222;-0.051350027;-0.03905683;0.058521513;-0.17693134;0.0009216625;0.05922704;-0.031771906;-0.054488547;-0.008670933;-0.11374462;-0.03110854;-0.014302761;-0.089735016;-0.0154636875;0.03685836;0.048047114;-0.13564618;-0.10929877;-0.19826423;0.031798985;-0.075000666;0.07734028;-0.1032884;-0.12831081;0.025802126;-0.15172969;0.041220732;-0.03835525;0.03293843;-0.14350203;-0.004671066;-0.15425718;-0.0011019085;-0.062276743;-0.1673955;-0.066886336;-0.04788571;0.028120011;0.010182503;-0.034134787;-0.0841568;-0.14871979;-0.08059721;-0.08566429;-0.028041515;-0.08103638;-0.014687393;-0.09757458;0.074726306;-0.086880736;-0.0637934;-0.10400904;-0.10142519;-0.098173924;-0.023514325;0.16219674;0.0433362;0.04733783;-0.027257126;-0.08346533;-0.07257651;-0.08278314;-0.1300876;-0.003960475;-0.07704513;-0.03055547;-0.17364022;-0.085768;-0.092938945;-0.016796226;-0.060841713;0.04626958;0.010959061;0.033094224;0.027669502;-0.044804726;-0.07783098;0.007853881;-0.08495725;-0.026928905;-0.10355613;-0.08404643;-0.0100152;0.0077592093;-0.053595416;0.0076946737;0.009136599;-0.122502364;0.009948523;-0.11041375;-0.11861391;-0.054034673;-0.11379339;-0.05210355;-0.10990118;-0.045406733;-0.10592312;-0.049595717;-0.072956935;-0.11747575;0.046153538;-0.055448174;-0.0127676865;-0.10320732;-0.018388363;-0.0277984;-0.13154241;-0.08317667;-0.011112585;-0.013454352;-0.09793082;-0.05136903;-0.018865708;0.037845526;-0.0064787394;-0.08487343;0.03725763;0.009644647;-0.08122898;-0.03588649;0.03369167;-0.04753622;0.06610257;0.03465472;-0.055720113;0.0345961;-0.0070470106;-0.0011512273;-0.04185931;-0.16460052;-0.12998173;-0.025862973;-0.0039537796;-0.083118275;-0.063234195;-0.02497386;-0.07729816;-0.057178408;-0.063442685;-0.10073969;-0.08246935;-0.04133186;-0.01593067;0.04254617;0.05456446;0.14183883;-0.16555896;-0.19465168;-0.10353444;-0.12949227;0.0690973;-0.087881744;-0.07350196;0.023126032;-0.05138339;-0.12379719;0.080393225;-0.12682569;-0.048936855;-0.05152638;0.04595966;-0.07393226;0.06470235;0.22638008;-0.0577766;-0.08218441;-0.13016894;-0.058894392;-0.05414125;0.012536335;-0.05185256;-0.061512794;0.08960843;0.054367196;-0.11741693;-0.0786176;-0.050831374;-0.12508559;-0.15465556;0.014183997;-0.13754402;-0.04624367;0.0699478;0.05295732;-0.21402399;-0.056579944;-0.097785264;-0.11477188;-0.05477573;-0.11996209;-0.08062969;-0.031675108;0.071083054;-0.04391731;0.016887607;-0.07655531;-0.08299344;-0.08560123;0.0736059;-0.033648897;-0.060583666;-0.08867968;0.0032450834;0.021546343;0.1878292;0.037717722;0.100500554;0.041284546;0.022223903;-0.09221132;0.108270206;0.0019959258;-0.031838335;-0.0031507327;0.038137488;0.059986457;-0.03672362;-0.004486214;-0.08571678;-0.0993993;-0.14980827;-0.0073598977;-0.04370215;-0.045194622;-0.06597914;0.04113097;-0.035651397;-0.081431404;-0.062499616;-0.074983455;0.05153741;0.10644714;-0.08686763;-0.09902585;-0.0009980313;-0.043818276;0.020266885;-0.07583883;-0.028263474;0.03016305;0.030581342;0.24125491;0.10052764;-0.07976933;-0.04007492;-0.15283619;-0.00030815584;0.039280515;-0.04474502;-0.042894382;-0.020021938;0.026822235;-0.12401028;-0.1089996;-0.093628995;-0.09533969;-0.12140177;-0.003869994;-0.049787115;0.03132228;-0.04120878;-0.0059921616;-0.0029925997;0.14500841;-0.09335384;-0.02013427;-0.049557146;-0.084272996;-0.12215359;0.12636891;-0.040762793;-0.089323096;0.011535926;-0.00436961;-0.07599869;-0.004070277;-0.06653128;0.026834464;-0.12213173;0.036996584;-0.03789367;-0.007927763;0.09106257;-0.05988106;-0.103370056;-0.121196456;-0.03849598;0.037479553;-0.120072484;-0.037041564;-0.10484042;-0.06475083;0.10163163;-0.12303301;-0.15098886;-0.004114373;0.036334816;-0.026948355;-0.13627924;-0.0693758;-0.01681681;-0.08208785;-0.0554243;-0.06721636;0.026678434;-0.1453437;-0.065995395;-0.14635956;0.07301461;-0.002095871;-0.057359785;-0.09205988;-0.11631007;-0.018956589;-0.10307818;-0.21123002;-0.19217688;-0.10925859;-0.12285906;-0.085280344;-0.053190526;-0.121232815;-0.08686631;0.010088439;-0.071045145;-0.009158472;0.018404962;0.0012768151;-0.026184266;-0.081361346;-0.077927776;0.041761532;0.043416433;0.022291433;-0.0016918612;0.0047192127;-0.13456514;0.046720546;-0.046644013;-0.13587488;-0.024008987;0.06110788;-0.11831079;-0.09799457;-0.055143412;-0.0209213;0.031050133;0.05681284;-0.047325894;0.04094236;0.028355198;0.004402953;-0.020133613;-0.040855445;-0.12653588;-0.081045665;-0.012969175;-0.06008153;-0.003763917;-0.16688496;-0.15442227;-0.011339547;0.014407433;-0.059701756;-0.084535174;-0.12645337;0.08811791;-0.006135496;-0.2496075;-0.061418302;-0.02443554;0.001081808;-0.058709484;0.0013779335;0.021251401;-0.10887693;0.14464885;-0.032401156;0.061630294;-0.09531123;-0.05475944;0.1604338;-0.029722929;0.03873503;-0.060417052;-0.07738179;-0.04110455;-0.14353018;-0.098090544;-0.035437785;0.044213336;-0.08474062;-0.040978123;0.04689721;-0.09704332;0.0047787386;-0.10097114;-0.08626874;-0.13251238;-0.10473031;-0.03803994;-0.038887013;0.029673897;-0.102803566;0.07480557;-0.26375693;0.010038776;-0.11350468;-0.007547989;0.064615585;-0.10244517;-0.021255666;-0.06750281;-0.21048084;0.0007979799;-0.0407661;-0.08793171;-0.14485922;-0.103630565;-0.010365688;-0.056470256;-0.11685668;-0.039962113;-0.110411935
0.056469806;-0.17899911;-0.07429594;-0.010701157;0.08603292;-0.025898188;-0.002718047;0.09235135;0.11361684;-0.15927035;0.012701861;-0.009259608;-0.1177521;-0.018652605;0.124348246;0.045934513;-0.14127119;0.14937016;0.0012270585;-0.07721926;0.06501532;0.019713597;0.008730441;0.03653186;0.29373774;0.14786777;-0.024556542;-0.034554254;0.03692725;0.10866941;0.04274454;-0.059119456;0.05654344;-0.14329006;0.12471521;0.057740953;-0.13023192;0.050479826;0.16955309;0.023851195;-0.046052065;0.10365407;0.0973131;0.2037409;0.16935109;-0.0880051;0.013427759;0.11064346;-0.009462793;0.091150716;0.06166403;-0.10565682;-0.019315843;0.004348981;0.08980577;-0.05042552;0.20275703;-0.03969188;0.008774299;-0.05190376;-0.07922926;0.1429045;-0.15282954;0.16963007;-0.11725368;0.07617701;-0.013998125;-0.0038366811;0.08922245;0.13344525;0.0073770573;0.07698842;0.17066827;-0.004773937;-0.06186894;0.01629254;0.049524754;-0.064717345;-0.035734307;-0.06830667;0.1753803;-0.04132542;0.015699305;0.018526899;0.20752254;0.04983976;0.11070926;0.19591588;0.085866414;-0.08328207;0.14987496;0.12202757;0.036640204;0.050196838;0.03534683;0.1701538;-0.090833865;-0.050303593;0.1314634;0.02607648;-0.106261626;-0.027928635;-0.043975323;0.03660708;-0.026932746;-0.069768555;0.03839472;-0.0073426375;-0.09336459;0.10114678;0.121203065;0.09758192;0.10740317;-0.029592814;0.04097365;-0.051751323;0.13198979;0.009086556;0.17665052;-0.0015380972;0.04320449;-0.016074678;-0.006104793;0.10380758;-0.013431111;-0.029716073;-0.16436437;-0.0042841765;-0.09824557;-0.061718483;0.004553083;-0.15020125;0.11073558;0.020083087;0.15757468;-0.03047014;-0.17930369;-0.058719542;0.18394978;0.25846615;0.08916665;0.07307544;-0.1456044;0.06878627;-0.071995564;-0.033092678;-0.14551596;-0.0514951;0.1311252;0.008497197;0.03533032;0.04266982;-0.081380375;0.0011839034;0.0973308;0.18334085;0.18411934;-0.119517714;-0.075243846;0.16814649;-0.028375229;0.12836623;-0.03617761;-0.07493536;-0.16386625;0.04295272;-0.05939226;0.1354396;0.067242436;0.17587733;-0.19620886;-0.22581917;-0.059446853;-0.1610249;0.124589734;0.0014728389;0.21720248;-0.15452889;0.10392351;0.04862645;0.14384519;0.14721492;-0.036309216;-0.09430695;0.086963356;-0.05460754;-0.056264747;-0.02590543;0.08317367;0.07855082;0.093886256;-0.061937362;-0.02386051;0.1794455;-0.14039856;3.1591735e-06;-0.057188097;0.10318383;-0.0140693085;-0.121801935;-0.022243617;-0.029281689;-0.057700027;0.053602815;0.063461296;-0.07472147;0.059771005;-0.094198905;-0.081237555;0.04502065;0.118571915;0.049400505;-0.0075479727;-0.017906968;0.045582965;-0.07598386;-0.057778098;0.142646;0.029442431;-0.0017093037;0.048444845;0.032960188;-0.0134842815;0.13641414;-0.02705957;0.05191521;-0.13719112;-0.122029305;0.025677113;0.1568521;0.057914;-0.0039853663;0.026673185;0.09319206;-0.034227673;-0.13144244;0.076610416;-0.13977635;-0.07592098;-0.090575345;0.056681633;0.10811184;0.066986516;0.103336915;0.05966985;0.014081506;0.1619048;0.044144254;-0.0026792123;-0.09018786;0.1041525;0.10053979;0.0156737;-0.08700458;0.09805269;0.12687607;-0.09250612;0.0898815;0.051400065;-0.012634823;-0.1217007;0.13848512;0.08274081;0.05921293;-0.08276121;-0.0060697417;-0.013057783;0.14734873;-0.14072323;0.25652206;0.15713795;-0.087046236;0.09075797;0.05301323;0.19268396;-0.0034322233;-0.10464148;-0.0011558796;0.0994153;-0.018576244;0.04121189;0.08610228;-0.13082103;0.16036358;-0.041210018;0.063152716;0.050697558;0.11327405;-0.045909844;-0.102470085;-0.11510313;0.11246363;-0.021243256;-0.019186592;0.13146307;-0.04309899;-0.04533101;-0.122927316;0.14715084;-0.026823992;-4.2885255e-05;0.03674913;0.12690182;-0.030788999;0.15602084;-0.091072574;-0.056813393;-0.019107325;-0.044859286;0.06024179;0.072548024;-0.05601555;0.04699138;-0.010612764;0.14501452;-0.049896147;0.13205248;-0.10908825;0.06160748;-0.06709603;0.0011799933;0.24278529;0.14343108;-0.03816053;0.009558204;0.12178881;0.020157304;0.12697889;-0.03739405;-0.005723414;-0.16873464;-0.037944384;-0.08168247;-0.020202687;-0.17971797;0.09602056;-0.09593232;-0.033802737;0.019270318;-0.06393708;0.09276176;0.10433683;0.12373401;-0.09601399;-0.12972887;0.12257714;-0.006638757;-0.1212615;0.011475623;-0.035307445;0.23897885;0.12272552;0.1376539;-0.03253556;-0.06751687;-0.021669647;0.061891634;0.14143537;0.0695348;0.020552484;0.07458093;-0.020631367;-0.075789444;-0.06703635;-0.09837304;-0.085682586;0.037571587;0.1177678;-0.09638687;-0.08309336;0.0074129193;-0.108962916;0.19044267;0.082062155;0.0051903655;0.04483977;0.020385804;0.16008218;0.050641425;0.078215286;-0.007805019;-0.060002223;0.044066593;0.17002197;-0.023623085;-0.07843443;0.13736282;0.07884018;0.050820872;0.018178454;0.09512252;-0.08177383;0.02113446;0.13316214;-0.051055353;-0.011841129;0.29838413;0.10986308;-0.0532694;-0.060136784;0.10352816;0.0070571657;-0.023005614;-0.018810444;0.047320347;0.013748476;0.14615478;0.0922489;-0.123158805;-0.023795253;0.067883484;0.06407647;0.13623767;0.03201808;-0.044380564;-0.038830422;0.08894227;0.04139546;-0.012061559;0.21580766;0.049957182;0.14596671;0.005835454;-0.06315724;0.04544705;-0.05812272;-0.07108922;0.027298199;-0.12887223;-0.09407135;0.18244801;0.1025211;-0.012608346;0.17545477;0.05269117;0.10679608;0.12629062;-0.047502372;0.15014768;0.08604237;0.12107042;-0.07681724;-0.14628293;-0.0067515736;0.10647194;0.0059545212;-0.051360417;0.023479583;0.13878591;0.11235315;-0.07657502;0.046348784;0.19420327;-0.07704227;-0.037945095;0.08610203;0.08309584;-0.06959192;0.012289073;0.04699848;0.022376562;0.11067667;0.08887853;-0.030877845;0.09236134;0.09829935;-0.04546169;0.08373531;0.16491626;0.0912843;0.019022858;0.11815389;0.055078726;-0.035059113;-0.021064004;0.13510142;0.026952619;0.10389338;0.05109912;-0.057703692;0.016054574;-0.036926676;-0.066718705;-0.03608614;0.07581746;0.023635074;0.104744986;0.09050367;0.05456983;0.06164008;0.09347005;-0.075058;-0.113927156;-0.21716286;-0.06793559;0.21987304;-0.004227092;0.033516023;-0.13780823;-0.2060625;-0.0907471;-0.020792773;0.0074817226;-0.03031002;-0.049109563;0.11063096;-0.047931697;0.056574874;0.18040122;-0.05371795;0.16310728;0.023673931;0.08413756;0.0029600405;-0.08530973;0.13400106;-0.04421871;0.010957289;0.06541022;0.13900062;0.14342251;0.064939484;0.028432513;0.072753266;-0.18275055;0.08431644;0.055007577;-0.019220222;0.08719595;0.043664522;-0.014745043;-0.0041685444;0.1662527;0.10173232;-0.007304335;-0.09848934;-0.067624845;0.1912212;0.111779414;0.13511315;0.048572578;-0.031167803;0.015596304;0.21491255;0.13148072;0.17536944;0.080472015;0.015023644;-0.016318055;0.09315085;0.19077429;-0.075284295;0.0835845;0.11594756;-0.078350455;0.04471682;0.0596961;0.1634093;-0.045145087;0.0023362543;-0.07825644;0.13686521;-0.048642572;-0.03639333;0.124519676;-0.07769431;-0.14188313;0.023598263;0.037110746;0.10786871;0.010154226;-0.0062253242;0.013977367;0.07180104;-0.17010075;-0.16320549
0.020627169;-0.040406503;-0.06490344;0.004310332;0.007713474;-0.008786949;0.017885083;0.14086553;0.018562019;0.032035;0.0071749366;0.0044124583;-0.06661588;0.07069651;-0.0062528737;0.021056974;0.045523103;0.12956035;0.07382104;0.11023648;0.12547609;0.05393382;0.07095646;-0.035392966;0.11409002;0.04539936;0.013532372;0.017675346;0.032175403;0.07412309;-0.03175088;0.08398246;0.05931843;-0.014003002;0.0540275;-0.08688515;0.07300478;-0.046392065;0.16550486;-0.0013232877;-0.07551376;0.03915261;0.033122584;0.06243264;0.036964312;0.009692702;0.0015746851;0.020710975;0.00049501884;0.102942765;-0.044608526;0.049735434;-0.0054626074;0.07612366;0.09399513;-0.00040043824;0.06777899;-0.04526339;-0.040588316;0.01210689;0.06393336;0.047829214;-0.050642088;0.14859444;-0.059791327;0.09811141;0.0129719395;0.101842016;0.133752;0.15316392;0.07333337;0.112404704;0.04814085;0.0319239;0.07894265;0.0482299;0.02468864;-0.025537033;-0.025043147;0.08660951;0.058387343;-0.07521708;0.09786264;0.03954358;0.09393435;-0.047404107;0.05046847;0.04652535;-0.014187923;-0.07748012;-0.005208333;0.13000658;0.07550834;-0.047345076;0.14693616;0.09504502;-0.011262972;0.06982929;0.016796479;-0.024168957;0.12007948;0.02737228;-0.022458598;0.089871965;0.091812626;0.078800745;-0.031346597;-0.043231584;-0.10682565;0.049745284;0.07742686;-0.0044861636;0.105667956;0.08727089;0.090432286;-0.062558115;0.057740193;-0.051766615;0.13044669;-0.016549364;-0.03777082;-0.077862985;-0.10005487;0.11253919;0.05260302;0.0021801079;-0.06942272;-0.04050294;0.027420778;0.17013374;-0.014693166;-0.08304092;0.06370214;0.019169226;0.18859799;0.045686476;-0.12137395;0.097167045;0.058132805;0.23758069;-0.012206881;-0.098937646;-0.09068883;0.10229748;0.03975652;-0.09235461;-0.059217148;-0.0031261204;0.112933464;0.058126356;-0.016792905;0.083186135;0.04473452;0.09363939;-0.03554812;0.069646426;0.017461272;0.041017625;0.06752753;0.014545081;0.06430735;0.07742995;-0.046657696;-0.04537876;-0.06618439;0.06610844;0.044784296;0.02518743;0.11132601;0.0371256;-0.12431718;-0.11826303;-0.026968269;-0.052645825;-0.0064661196;0.026551586;0.15972787;0.017888991;-0.08416257;-0.017876007;0.050336905;-0.015111696;-0.02154235;0.039897446;0.10537958;-0.05555444;-0.05165619;-0.037672374;0.015041189;-0.045756582;0.033187952;-0.038378716;-0.035540957;0.01026921;-0.07137107;0.12449499;-2.2294662e-05;0.0015348704;-0.061978254;0.0007630274;-0.019133646;0.08529246;-0.009630314;0.056891732;0.012905719;-0.040334385;0.041982196;-0.1352607;-0.060800888;0.03861686;0.02828646;0.0012146077;-0.00671807;0.08465981;0.09308392;0.059304606;-0.089220226;0.043181043;-0.0405263;0.11810873;0.038284387;0.10024135;0.062279977;-0.033499517;0.051090658;0.07470423;0.009485686;0.12231152;-0.056066193;0.016695691;0.12061954;0.091833524;0.102811836;0.03141108;0.08052313;0.034950875;0.09605579;0.00024019656;-0.14511845;-0.0035895307;0.07867096;0.097481646;0.048009932;0.10281156;-0.0026047258;-0.027151963;0.07921093;0.01322088;0.019506084;-0.056735396;-0.0039052886;0.09116844;0.02214228;0.019902876;0.07925902;-0.03640182;0.027560033;-0.019364644;0.13087873;0.10492924;0.018351538;0.00467704;-0.020063037;0.07506081;-0.08926546;-0.09256896;0.07433352;0.15669255;-0.1564068;0.12812556;0.13038693;-0.016484149;0.045516994;-0.029234642;-0.030221013;0.016539354;0.047761396;0.053284425;-0.014443411;-0.0767389;0.088350385;0.14173485;0.02437671;0.00044658442;0.077077694;0.052332494;0.040299308;-0.019623216;-0.044950977;-0.051232196;0.029783493;0.059139807;-0.05827807;0.014020922;0.017672861;-0.020529283;0.033139866;-0.05900744;0.08590734;-0.00055234286;-0.0031661692;0.08497878;-0.032475162;0.036157224;0.15026441;-0.014244131;0.033657216;-0.027951237;-0.029926186;-0.054327253;-0.0041351793;-0.07461638;0.042328503;-0.015521208;0.033955947;0.008386912;-0.0361125;-0.068265766;2.3275741e-05;0.03379903;0.07362669;0.084797345;0.118789166;-0.019251999;-0.11236185;-0.005108348;-0.019878939;0.085510276;0.010160607;0.05513123;-0.015919516;-0.019608673;0.05740789;0.036652613;-0.05465441;-0.029278765;0.030377561;0.0055149463;0.06718491;0.10529272;0.06558131;0.13080302;0.024533939;-0.10417372;-0.06601506;0.06417355;0.059869833;-0.066177614;-0.03790966;-0.009722686;0.16023664;-0.026152823;0.06100019;0.058289185;0.0152526125;0.093894154;-0.060288336;0.052467845;0.06366454;-0.0032430908;0.020014336;0.0059605595;-0.14886425;-0.07755641;0.024171991;0.026764696;0.005612127;0.03833991;-0.0034338296;0.012458128;0.1158417;-0.0493366;0.03676307;0.073138766;0.06625621;-0.014380319;-0.0087952735;0.108653575;0.075374216;0.04099071;-0.05790054;0.061100032;0.07741283;-0.032890618;-0.046736192;0.04729471;0.039142642;-4.22702e-05;0.0018449137;0.09142389;-0.029373955;0.10110327;0.028586185;0.09374795;-0.04511883;0.08978635;0.100489;0.12988488;-0.060806427;-0.05214989;-0.04900944;-0.022922684;-0.02918031;0.08332365;0.022804966;-0.013129389;0.01799664;0.18539207;-0.041105323;0.0094431965;0.111537576;0.09315411;0.021508018;0.032950435;0.06416633;-0.103267305;0.036390703;0.044880245;0.061574187;0.09593272;0.0839542;0.04931251;0.0042607905;-0.07257349;0.089177646;-0.047665168;0.032669164;0.052408215;-0.048415195;-0.036007915;0.05261799;0.009476686;0.03971122;-0.015558081;-0.08181518;0.04052837;-0.024625374;0.04573391;0.09674372;0.09822421;-0.00042375963;0.0637263;-0.06987413;0.09982519;0.07957326;0.036374804;0.036628418;-0.020689204;0.058250736;0.11365687;-0.02204995;0.063974075;0.07182228;0.086611874;-0.12482499;0.07421456;0.10728321;0.081479155;-0.024807561;-0.017665146;0.07432628;0.15836664;0.009794605;0.0425195;0.08103581;0.075377375;0.00749289;-0.043243304;0.07596032;-0.0127147585;0.1314493;0.100908525;0.062623195;0.077547945;0.03783268;-0.022678636;0.11639672;0.007471458;0.02629295;-0.047461104;0.039219145;-0.028881399;0.02327547;-0.0510873;0.119991995;-0.060261663;0.0922991;0.021282507;0.123357885;0.019569632;-0.03480625;0.02138617;-0.073892266;-0.15688047;0.046993583;0.10928988;0.053759713;-0.075414546;-0.060126644;-0.029488629;-0.031268764;0.08709562;0.00966371;0.016162232;0.0106203845;0.010536768;-0.050984602;0.037130963;0.08448003;-0.12249672;0.10634826;0.21119124;0.021510586;0.07588931;0.026378939;0.023934;0.08010038;0.111512914;-0.11369311;0.055374872;0.19235612;0.03552876;0.08922335;0.04721317;-0.079122774;-0.025458584;-0.017911224;-0.04112594;-0.004433167;-0.02314845;0.028397422;0.08833326;0.044622973;-0.015399855;0.09081051;0.061560813;0.009332899;0.09634069;0.115167476;0.10359937;0.05876295;-0.011209087;-0.012600242;0.12752487;0.08016688;0.06761106;0.053107146;0.051713657;0.062728874;0.03057645;0.15145963;-0.029399587;0.005762758;0.11198218;0.09961303;-0.019245364;0.029771063;0.1069873;0.0043904013;0.008050419;0.0007671295;0.06717333;-0.06404902;-0.0765066;0.027460337;-0.11323593;-0.0642144;-0.024441218;0.09028171;0.092017494;0.072728105;-0.12150039;0.12494922;-0.058784142;0.01649004;-0.03723601
0.008240186;-0.07460245;0.038952023;0.0066376585;-0.041670017;0.09119392;0.015238077;0.12815456;-0.04811368;-0.07800963;0.023291798;-0.04105342;-0.07495044;0.07860571;0.0037903176;0.089417405;0.03270071;0.067947;0.0116876345;0.025196379;0.09610026;0.033825602;0.017522441;0.11955459;0.032933854;0.09365971;0.002694111;-0.014485558;-0.007006348;0.081963;-0.034022067;0.059366968;0.009974299;-0.020231342;-0.026643319;-0.08574563;-0.029907884;-0.054047212;0.010379813;0.09639721;0.015096981;0.09257027;0.10788593;-0.07519388;0.041839924;-0.054341953;0.020070435;-0.029984184;-0.025439007;0.031229714;0.07777629;-0.017809672;0.06474543;-0.012396069;0.09539596;0.09087091;0.0100911865;0.07350486;0.10640167;-0.04799519;0.065820456;0.023753613;-0.056807503;0.08832708;-0.21185161;0.15363836;0.08130776;0.089718185;0.102549985;0.1021059;0.06663784;-0.0006985663;0.18620113;-0.0135184415;-0.06574994;-0.007812779;0.073689096;0.038763486;-0.057853203;-0.005197429;0.08024266;-0.011047221;-0.016413586;-0.024277084;0.028794382;-0.018084038;-0.06561123;0.13226403;0.10964951;0.07745584;-0.025324097;0.06160324;-0.051390488;-0.0134494705;0.030629229;-0.016329031;0.050020594;0.039153256;0.079226926;-0.029064609;-0.020702656;0.0005408588;0.07083308;0.04551405;-0.018266033;0.15376455;-0.016652292;-0.00057562935;-0.11223903;0.030757502;0.09577881;-0.0071516233;0.042236593;0.06331108;-0.030804262;0.0006226941;0.054195337;-0.107255615;0.1287157;-0.028674757;0.021794941;-0.055872273;-0.033531636;-0.05089983;-0.03672683;-0.056720056;-0.011497013;0.085082404;-0.031240722;0.0054093827;0.0007925612;0.04025718;0.0060511543;-0.03173878;0.10895781;0.082023844;-0.061238367;0.05052392;0.065997384;0.106813125;-0.0025854486;-0.09135605;0.05139289;-0.048555713;0.10257334;-0.044837616;-0.03645064;-0.09831764;0.039498087;0.08141879;0.08169793;0.0013406825;0.069747895;0.113000944;0.0066986918;0.0397834;0.075544365;0.07993996;-0.008063027;0.08652876;0.021639606;0.029943617;0.08584735;-0.097830504;-0.046774622;0.011270131;0.103050195;0.028429369;0.10746907;0.060443733;-0.027195841;-0.08732405;0.06078315;-0.037600346;-0.0045823287;-0.056759126;0.14904323;0.08406656;-0.10487728;0.08594144;-0.015900346;-0.026411274;-0.017074438;0.08349323;-0.010279313;0.016486268;0.054612298;-0.0004446983;0.058192607;0.040657956;-0.06892844;0.03153762;0.043374296;0.12451338;-0.07181606;0.066928014;0.025263032;0.08012398;-0.037715703;-0.051036876;0.008648795;-0.0138793355;-0.012360015;0.077668324;-0.014943992;-0.05391576;-0.0051399693;-0.019854164;-0.050828625;-0.009525333;-0.036223773;-0.043808073;-0.018696548;-0.03253606;0.124727726;0.091673955;-0.066472806;0.092145436;0.038458705;0.025463844;0.05471481;0.05805958;0.09163175;0.05468883;0.007978204;0.012452391;0.07592397;0.14866105;-0.03373596;0.14160636;0.07383713;-0.03012851;0.07857254;0.041819293;-0.04915489;-0.08104526;-0.05040507;-0.012385328;-0.03861068;-0.080520086;-0.0774554;-0.033720616;0.1364393;-0.009269249;0.10314603;-0.03240044;0.030993486;-0.024353169;-0.0074276607;0.052467894;0.104946904;0.016854793;0.046018947;-0.09262731;0.009650327;-0.012819855;0.015523557;-0.04920834;0.12665918;0.10807627;0.05642689;-0.040491097;0.016381923;0.0744358;5.409438e-05;-0.057934467;0.051375184;0.07200643;-0.13241285;0.06099223;0.049641233;0.03272883;0.042338118;0.07189748;0.039281003;0.055868167;0.06636309;-0.021373041;0.015521001;-0.019190036;0.10334372;0.12575999;-0.0076440726;0.06667963;0.00060047023;-0.078761175;0.0021593308;0.04596627;0.015956007;-0.028069818;-0.045886815;0.0025932996;-0.04353432;-0.027784213;-0.029790629;0.046560172;0.07758103;-0.17350507;0.05472706;0.0029861154;0.09994054;0.003605529;0.008764093;-0.0136209;0.055820007;0.05997972;0.026588906;0.039796274;-0.043984793;0.10009671;-0.04507035;-0.005117554;0.0072262106;0.08522307;0.058371115;-0.005165329;-0.047106206;0.14220406;0.019147936;-0.035088267;0.021153335;0.082409374;0.10006168;0.014111172;-0.09592372;-0.038786888;0.06828571;0.050894614;0.048894383;0.1014981;-0.014305054;-0.13670206;0.09954607;0.05852955;-0.0020520887;0.10847931;0.06146843;-0.061807;0.063602395;-0.009526539;0.11888057;0.03196003;0.115778804;-0.07913274;0.016478429;0.083881885;-0.04993916;-0.0087332465;-0.016343962;-0.037151355;0.034408942;-0.046727307;-0.06826189;-0.0053917863;0.0038089042;0.018214678;-0.11669422;0.096018694;-0.10780989;0.048223354;0.09217592;0.06509167;0.017329;0.016085291;0.04587353;0.013064634;-0.0510017;0.10711113;-0.05641974;-0.0030602056;-0.04881208;-0.0827716;0.0916197;0.048701268;0.11277141;0.020282095;0.006700336;0.035648264;0.07267821;-0.011897784;-0.06272125;-0.022925705;0.09197548;-0.06043718;0.09202063;0.0033338468;-0.022586012;0.027559552;0.116903804;-0.056066282;0.08193586;0.025809871;0.0022690417;0.088939555;0.024538053;0.05861237;0.16240527;0.11164504;-0.032042176;0.07441454;0.06465567;-0.008393974;0.07185245;0.08562212;0.015841879;0.07572541;0.07695556;0.13688296;-0.047838513;0.020827873;0.07354262;0.0016096903;0.119780794;0.062283795;-0.0672115;-0.11332769;0.117921494;-0.0221131;0.08607774;0.021512238;0.063918635;0.088765;0.08775877;0.060825273;0.005727224;0.04606056;0.07437495;-0.029657975;-0.099638514;0.096514516;0.02559878;-0.04855587;-0.028738555;-0.00045383477;-0.1631334;0.106833495;0.046265695;-0.042829525;0.113179736;-0.060499705;0.033237793;0.05180244;0.053442147;-0.025817486;0.012054147;0.018722437;0.015257087;-0.00071683805;0.012601127;0.13893664;0.009437369;0.06865287;0.0929341;-0.060503375;-0.09422566;0.018886385;-0.05001679;-0.050583605;-0.060262006;0.0854849;0.017519744;0.0065450487;0.03031669;0.07604154;-0.04005911;-0.016383287;0.07534941;-0.015264927;0.13345945;0.022366604;0.16134854;0.12585592;0.1281861;-0.018756982;0.0348262;-0.084002376;0.10841407;-0.024319354;0.02702017;0.10541706;0.06896814;0.048060257;0.15132566;-0.06772845;0.097988345;-0.047513586;-0.0050193956;0.0059275324;0.037889443;-0.05307141;0.06182526;-0.04355332;0.0047744433;-0.019048914;0.056562904;0.04988098;0.10155419;0.015612692;0.012238354;-0.10315535;-0.051123407;0.00050547806;-0.07461076;-0.0072001438;0.08764799;0.05483652;0.05999849;-0.036768142;0.10363807;-0.22079103;0.10731121;0.034342106;0.060500544;0.00031796555;0.06356048;0.054582976;0.04204472;0.115356855;-0.13904084;0.069740914;0.13824488;0.020517273;-0.035723444;0.021417586;-0.012653481;-0.04511966;0.06254311;0.013981007;0.050979257;0.050786212;0.060136866;0.06039078;0.05283156;0.11666658;0.08587926;0.06527814;0.11491039;0.026252246;0.0600326;-0.027235791;0.06904644;-0.08026558;0.028637597;0.13156438;0.040869758;0.083186135;0.086840376;0.05927335;-0.06281142;0.13591467;0.11505473;0.046669208;-0.026068233;0.04980272;-0.04962212;0.019621996;-0.06320558;0.061247017;-0.06272725;0.011062139;0.037012264;0.09303668;0.046765253;-0.0011083687;0.0046167816;0.05661398;-0.025765643;0.05758889;0.13470055;0.055998042;0.08388198;-0.19490044;0.069284916;-0.040427003;-0.053474165;0.06309316
0.06936221;-0.06503797;0.08908081;0.015780842;0.08694807;0.06508699;0.08863235;0.09239771;0.0074754003;0.062420085;-0.05132135;0.02405914;-0.009559687;0.07830543;-0.013202473;-0.054164425;-0.005367397;-0.022634294;-0.026213717;0.1322793;0.1354157;-0.027573997;-0.013367951;-0.01838746;0.12928091;0.044221077;-0.022999888;0.018038616;0.019182388;-0.12742193;0.006178328;-0.028910574;0.037473693;0.020332268;-0.0117012635;-0.05186768;0.0631074;-0.006718233;0.13564612;0.1324416;-0.07781609;0.13493556;0.14743772;0.03183128;0.10542036;-0.026399357;0.01187217;-0.020159706;-0.022580966;0.14706686;0.026219318;0.003348486;0.015696265;0.01618631;-0.039140336;0.12457717;-0.068901256;0.016911626;0.09755972;-0.02309085;-0.054735433;0.051904656;0.13391626;0.049255375;-0.19535658;0.1488713;0.056028876;-0.010302686;0.008132692;-0.013149995;0.102583006;0.021191817;0.1499557;-0.07089881;0.029510621;-0.038777478;-0.038358577;-0.0032148857;-0.14315404;0.061909076;-0.08252771;-0.03742826;0.03027548;0.022122763;0.09509167;0.017092042;0.0039943187;0.15225826;-0.022163263;0.09207033;0.030890707;0.07007769;-0.05317745;-0.1534919;0.07890759;-0.023428082;0.08528653;-0.01666884;0.08305739;0.029983936;0.094257526;-0.015944986;0.020772377;0.013379741;-0.049667936;0.059887074;0.050434526;-0.08690933;0.02144631;-0.057201874;0.027377918;0.03013097;0.019636348;0.006439767;0.010097227;0.044540126;-0.028099705;-0.057112392;0.022449454;0.100172766;-0.04986756;0.057814177;-0.028451664;0.10185534;0.037965525;0.11271185;0.041580364;0.0374886;-0.06778584;0.10226356;0.0019568116;0.0063724895;-0.059351902;0.062840864;0.17511438;0.029021243;-0.091890566;0.031004366;0.08391193;0.01903513;0.065180905;-0.059426118;0.057353213;0.0059803156;-0.01192939;-0.06793968;0.013213642;0.049750857;0.023292234;-0.00409184;0.09175977;-0.0037524852;0.084675364;0.13780525;0.005904491;0.071814716;0.09337385;0.14975256;0.105812214;-0.11591539;0.06224937;0.069882795;0.03327782;-0.043283753;-0.005062303;0.067220695;0.050629638;-0.008485692;0.027039465;0.10283791;0.081882924;0.08784994;0.004129855;0.052784026;-0.0059340587;0.07376657;-0.0074003027;0.053394973;-0.07398581;-0.04956758;0.09282094;-0.020736193;0.054718237;0.10355551;0.11332668;0.07442218;0.0807249;0.011953417;0.104398884;0.0043223347;0.027256811;-0.0026905567;0.076487765;0.07585876;-0.042791963;-0.019732758;-0.012885352;0.10131026;0.050745822;0.071568415;0.0049695643;-0.052397557;-0.004526181;-0.014023101;-0.0020440372;-0.013351887;0.0121425;-0.11892076;0.15133455;0.10041926;0.03192864;-0.020595862;-0.039508514;-0.023262106;0.0047638463;0.04130382;-0.049122036;-0.00144062;0.050463174;0.087038234;0.07648691;0.027900906;-0.027286397;-0.012436923;-0.014351578;0.025717398;0.034379486;0.13619481;0.08193553;0.005571248;0.066638015;-0.039135054;0.01933686;0.07005424;0.040428538;-0.06870532;0.05077686;0.054748304;-0.06424215;-0.08691003;-0.053536244;0.070210084;0.022007098;-0.10809267;0.070342675;0.04444191;-0.03933417;0.056542724;-0.015777748;-0.021411145;0.05057017;0.05910658;0.03055548;0.10978785;0.03568355;0.006393226;-0.044997703;0.09908696;-2.0843672e-05;-0.037895393;-0.0003883543;-0.016591422;0.08981762;0.018533254;0.0011279633;-0.017674608;0.07948555;-0.002172705;-0.063749254;0.03297305;-0.013767459;0.0821866;0.0653221;-0.06437624;0.07028303;0.09935637;0.08583323;0.07058654;0.11780131;0.07507159;0.029818993;0.16369088;0.043842584;0.02749128;-0.064465895;-0.07372897;0.072975785;-0.0021472278;0.06763543;-0.020763248;0.065811425;0.116110675;0.06196083;0.03751072;-0.021284489;0.032911945;-0.036744017;-0.18732913;0.19643368;0.08705324;0.019888435;-0.008966418;-0.052709926;0.12923063;0.06480823;0.12737411;0.13667351;-0.019719757;-0.014592794;0.087977014;-0.0012693777;0.0939833;0.027819267;-0.012770571;0.029483588;-0.15343446;0.038614564;0.18186016;-0.0035996137;0.056208197;0.021171644;0.06588952;-0.017542677;0.10102374;-0.11826754;0.009882629;0.0053175595;-0.052321814;-0.036548086;-0.022344049;0.0025899378;-0.14974375;-0.065755494;0.017502902;-0.014509642;-0.08654364;0.13979039;0.06592746;0.08786947;0.06950789;0.0008179197;0.037438724;-0.016350472;-0.033380922;0.103808805;0.058243904;0.07145387;0.048779365;-0.06461977;-0.021911709;0.062228974;-0.1545187;-0.10389545;0.08849897;0.09716791;-0.01038917;-0.14063007;-0.04373052;-0.026137875;-0.0017749033;0.084916614;0.09910563;-0.05865712;-0.032516234;0.0035282052;0.027085029;-0.025543084;0.02029629;-0.073170796;0.090263985;0.08856469;-0.08006783;0.008094216;0.053695578;0.024665194;0.064723685;0.00048359734;0.07915014;0.10714483;-0.08262459;-0.04189031;0.02145106;0.012810036;-0.0047805826;-0.034233727;-0.08707762;0.113791235;0.09612884;0.09491572;0.037720963;0.05640851;0.06470152;-0.04269761;0.10563398;-0.02845993;-0.037291978;0.087457456;0.08542365;-0.030352043;-0.06483149;-0.022010105;-0.019220194;0.0762016;-0.0039999946;0.025788832;0.13483815;-0.023435421;0.0541783;0.03411408;0.05415752;0.043858457;-0.0070173847;0.058189753;0.10883902;0.13879086;-0.069151804;0.09161594;-0.040039103;-0.020626813;0.13076307;0.115962416;-0.039181195;0.0048656;-0.05477055;-0.02753545;-0.03540526;0.05258667;-0.075333394;-0.11371801;0.07030869;0.11974643;-0.096681625;-0.012243658;-0.09621482;-0.122618265;0.0878041;-0.0444175;0.060109355;-0.03767797;0.043763727;0.08705962;0.05112142;-0.04204567;0.013175927;-0.073539026;0.046436563;-0.017417613;-0.015585335;0.09015697;-0.019557243;-0.019265912;-0.01780878;-5.999653e-05;0.08577335;-0.21383846;-0.05271796;-0.05363835;0.07419084;-0.06814901;0.0926422;0.032260813;-0.047182202;0.081672326;-0.00063895935;0.07302724;0.07972448;-0.0380557;-0.11111494;0.029947365;0.046127792;0.07714909;0.0808479;0.071278855;0.04628513;0.0046709203;0.029594777;0.054071665;0.02919625;-0.035243608;0.054967623;0.026557242;-0.045115855;0.033830997;0.02457875;0.07039533;0.036522523;0.06979673;0.007802795;0.13122724;-0.049718708;0.097183526;-0.00652599;-0.07614836;-0.0501179;0.020591944;-0.050876714;0.0200198;0.019487586;-0.055288572;-0.058669776;0.050606553;-0.039327744;-0.05287506;-0.011144717;-0.010823781;-0.0051368736;0.05662987;0.06494769;0.0012731869;-0.12633193;0.030548941;0.04831744;0.078916155;0.09542529;0.025328323;-0.013420879;0.024062097;-0.016916327;-0.1401448;0.0068666437;0.14150058;0.10644486;0.035337407;0.014568556;-0.067445904;0.031170713;0.009418941;-0.0013757374;0.026445992;-0.020731196;0.051625855;0.024895722;0.0688319;-0.043191537;0.016406514;-0.018971106;0.0050113206;0.16930386;0.1034541;0.046120986;0.13022484;0.049071517;0.027372342;0.06456554;-0.035907824;-0.008399088;-0.03543144;0.011472546;0.022063699;0.08609744;0.09880123;0.090407826;0.037795868;-0.0021858737;-0.0256669;0.05908173;-0.055878203;0.020515777;0.046383735;0.03926044;-0.041231;-0.008594049;-0.0209357;0.037063688;-0.0032571403;0.0035514382;-0.054781325;0.00042182155;0.03869314;0.008382211;-0.01982783;-0.13440543;0.11524044;-0.059088748;0.06019237;0.02308761
-0.038893204;-0.07975186;-0.06442039;-0.023148466;-0.06634846;-0.0044299364;0.009736756;0.093452275;0.02198889;0.011488697;-0.047535624;0.11220526;0.03406427;-0.049806494;0.068374045;-0.021309186;0.09274705;0.006943965;0.03416006;-0.019707896;0.19193527;0.0010867198;-0.0028916288;0.0153693715;0.030684413;0.036748625;0.07562914;0.101996;-0.038572785;0.0033035348;-0.017790101;-0.10025628;0.078577235;0.042984508;0.01281439;-0.047294136;0.13409173;0.009307972;0.058482815;0.06314739;0.016018463;0.10169556;0.016222421;-0.007817607;0.13199371;-0.03743319;0.042394623;-0.066444896;0.078163125;0.08878709;-0.0044471645;-0.029541072;-0.017864628;0.005241702;0.056471623;0.067292094;-0.075860724;-0.04302651;-0.04557591;0.06655709;-0.04120851;-0.0021802492;0.02748638;0.08254098;-0.1371971;0.072928615;0.043331202;0.0140807675;-0.06395434;0.07181273;0.10197534;-0.013305668;0.105649546;0.062009357;0.014333257;0.031450238;-0.014738247;0.074043185;-0.050570462;0.1283128;-0.010139583;-0.002913285;-0.02379709;0.0030469361;0.08944679;-0.037879102;0.026623597;0.04208447;0.0063610324;-0.0050929636;-0.026967047;0.035795875;-0.03373003;-0.104228385;0.0511609;-0.00777544;0.0042587845;0.04782811;-0.047377363;0.032323387;0.049780436;-0.004976372;-0.00982763;0.006644667;0.069996364;0.0509658;-0.024679286;0.0042142663;0.04833316;0.0050372696;0.04936028;0.06490091;0.03429809;0.053264022;0.05596934;0.023792079;-0.00042005873;0.0025844497;-0.03110781;0.060700327;0.06510352;-0.022472369;0.030566411;0.03772859;-0.047226712;0.15433162;0.042906195;0.044152874;-0.07565506;0.11409843;-0.03676199;0.10952233;-0.0054289843;0.056375593;0.0025928498;-0.069519475;-0.0009824403;0.012336244;0.069018625;-0.020672362;0.06919859;-0.027663859;-0.08269237;-0.07867875;-0.005534928;0.043377638;0.10020876;0.015791453;-0.10832032;0.0849187;-0.021078192;0.00051602663;0.040778935;0.07865399;0.01807783;0.07187797;0.0073281694;0.133054;-0.021944748;0.019466812;-0.010192418;0.12131638;0.10120106;-0.10826669;-0.104823776;-0.003848153;0.07150521;-0.046464127;-0.025601864;-0.0070686825;0.06533045;0.019120906;-0.015976077;0.048639357;0.031200657;0.040134665;0.017564368;-0.022225296;-0.11568853;-0.05802451;-0.010966557;0.085951686;-0.04400888;0.14590652;0.030975822;-0.029337715;0.100086726;-0.003151921;0.037771866;0.047503825;-0.034721415;0.03387797;0.05597753;0.09528571;-0.022377674;0.0480827;-0.014512931;0.06746445;0.07323105;0.09260565;0.010566258;0.046739835;-0.007303027;0.023126801;-0.034993097;-0.00092140725;-0.036456104;-0.12503047;0.18215744;0.07831952;-0.04211828;-0.02554559;-0.023449685;-0.055629726;-0.0021418373;0.020717608;0.041755248;-0.051317774;0.0077026533;0.07262443;0.06481743;-0.029755434;0.06907129;0.0014856989;0.0052032606;0.03871149;0.08250249;0.05183867;0.0040013487;-0.03235362;-0.03855683;-0.045818273;0.14893998;0.023155708;0.03381538;-0.028250903;-0.028164636;0.068115965;0.0008504858;-0.011009095;0.009502847;-0.02290586;0.04651139;-0.1295511;-0.035736695;-0.03181211;0.02203182;0.1154069;-0.04643058;0.003741205;0.07317047;-0.062507726;0.11516727;0.00854374;-0.017310368;0.09268894;0.08164132;0.049557403;0.013069521;0.080289185;0.0325234;0.077735305;0.032098643;0.079003796;0.08276082;0.047924194;-0.0067933183;0.018886331;-0.10620369;-0.108784236;0.03054635;-0.012864187;-0.08289023;-0.04518802;0.038445335;0.10387972;-0.047763146;0.086616345;0.00062477303;-0.06130656;0.090159476;0.048382062;0.03136995;0.032567848;0.062138554;-0.042439573;-0.034916066;0.092214085;0.0941374;0.044121083;0.07170829;0.013102693;-0.05293204;0.058362186;0.016740456;0.021519464;0.012348072;-0.19731687;0.115551256;-0.016149472;-0.018534768;-0.005780734;-0.03998019;0.016034655;0.06481811;0.07403557;0.11116046;0.0026009905;0.005979324;0.090706535;-0.07590696;0.028699141;0.06796232;-0.029688558;-0.10597236;-0.03453841;-0.027755711;0.16979471;-0.0032921897;0.022092069;0.039086625;0.08646913;0.108915515;0.12589018;-0.04767294;-0.004875475;0.07438216;0.032725103;-0.004061091;-0.03397155;0.019707048;-0.16354805;0.096433334;0.063186236;-0.027152682;0.04117885;0.0883647;0.015058138;0.034950905;0.1150429;-0.0026567252;0.04444173;-0.0023001758;-0.031875014;0.13777111;0.103111155;-0.055652402;0.010522719;-0.038104378;-0.055694137;0.085581146;-0.16140778;-0.06663137;0.042340163;0.0035909666;0.030506792;-0.108118944;-0.0038576967;-0.13695197;0.07581365;-0.025044676;0.1038772;-0.11559399;0.08368771;-0.020680359;0.06285812;-0.06400485;0.036300186;-0.043199435;0.15741687;-0.057525877;-0.007591314;0.0017300447;0.032726202;0.07797264;-0.029794957;0.04841674;0.08892578;0.0079931235;-0.046743035;0.0079791155;-0.031549;0.07055958;0.039428856;-0.07986006;-0.030850919;0.09961062;0.047967866;0.053140286;0.06369651;0.08323403;-0.054584876;0.08306362;0.06135586;0.059969325;-0.0018302328;0.103122115;0.041113157;0.06197175;-0.021194374;0.06553985;0.085776314;0.05447444;-0.042288944;-0.017453687;-0.0010253978;-0.047446143;0.052840773;0.0015198162;0.07834962;0.11324535;0.025373675;0.05751851;-0.050843116;-0.0037021777;-0.11368505;0.10136323;0.05625857;0.102934815;0.15122433;-0.04909314;0.03138315;0.0030575108;-0.01719016;0.0652722;-0.024673028;-0.047053374;0.054342713;-0.096349634;0.06607424;0.057451095;-0.08270411;-0.0048013343;-0.19110705;-0.11842791;-0.008201605;0.023792885;0.02145133;0.06308952;-0.011367085;-0.029245943;0.14871475;0.014398254;0.03135774;-0.022155486;-0.043437324;0.029060865;0.012469002;0.02515299;0.07187551;0.043999445;0.017937014;0.033892818;0.090395845;-0.16835445;0.008398558;-0.030599631;0.08129539;-0.022774221;0.102230966;-0.071253605;-0.015902575;0.0138749955;0.032678496;0.007332434;0.027729424;0.06421407;0.060911667;0.026750488;-0.011638874;0.049613144;0.122033685;0.11200728;0.029992335;-0.024823293;0.025153542;0.042774912;0.05147285;0.04826853;0.064324886;0.016136508;-0.028296363;0.09878917;-0.02977214;0.05090397;0.009092564;0.046932705;0.05125173;0.06959913;0.07385876;-0.040873077;0.007259452;0.051101156;-0.008826195;0.08318403;-0.013206504;0.08815209;0.1030254;0.012002097;0.0049535735;0.093209766;0.041509934;-0.090572566;0.073795296;0.07218792;0.09429687;-0.04772256;0.096665666;0.11666324;-0.20628406;0.051204704;0.16942917;-0.0032335296;0.0133875115;-0.024457384;-0.008422446;0.046227124;-0.030772388;-0.08887287;-0.017980123;0.07434374;0.07724119;0.01999664;-0.025779707;0.041364238;-0.04372859;-0.03795612;-0.035214685;0.102759615;-0.06223974;0.07444655;-0.017459476;0.074511394;-0.111115456;0.117458634;-0.020127753;0.12400941;0.023092536;0.03745079;-0.056610644;-0.0084625585;-0.06792118;0.06472493;0.13460629;-0.026837155;-0.042615514;0.09487037;-0.013886728;-0.07273174;0.047196586;0.05787984;0.08367956;-0.00013938604;0.050909758;-0.0003221151;-0.011041588;-0.08365678;0.05281622;-0.010375397;0.09134073;0.012339517;-0.06697487;-0.07170487;-0.047793478;0.013597738;-0.024606265;0.013786687;0.034544565;0.014644837;-0.036138173;0.037524905;-0.21168423;-0.011031859;-0.0033125621;-0.008894159;0.07486673
0.08057969;-0.06425212;0.06071625;-0.022428283;0.054905906;0.016072793;0.0053303926;0.12892301;-0.051278643;0.04232925;-0.051133465;0.028719386;-0.035190586;-0.03941548;0.0026563734;0.040309265;0.017701464;0.072904386;0.027695332;-0.04179369;0.122381106;-0.018517599;0.1036477;0.10426873;-0.054942872;-0.063697234;0.061210178;0.073043205;0.07583912;-0.011028823;0.07920082;0.083686225;-0.01805413;0.036122292;-0.0082544405;-0.020955017;0.051491078;-0.044115096;0.070621714;0.0172129;-0.02908102;0.08354781;0.11595874;0.008288521;0.1489279;0.04352148;-0.033522453;0.01785918;-0.023976984;0.11503851;0.048487227;-0.11977225;0.010962061;0.008417838;0.03027162;0.13407673;-0.09022206;0.06274384;0.06374847;-0.079001166;-0.05177869;0.07014335;0.06522841;0.10228459;-0.07395727;0.10596859;-0.020861782;0.11995951;0.046330143;0.009940106;0.05152379;-0.002276816;0.102855444;0.036114164;-0.03322062;0.07403477;-0.0023084015;0.0014730132;-0.03270648;0.11402191;-0.005272501;0.04431009;0.015330031;-0.017401965;0.02931812;0.0677776;0.07080349;-0.009040689;0.055279642;0.03367107;0.030445773;-0.052239046;-0.008134473;-0.11564154;0.051929366;-0.045414627;0.11320444;0.09605433;-0.017671006;0.059935905;0.019591236;0.004849208;-0.036517944;-0.03694335;0.08374678;-0.020850161;-0.038700722;0.09439527;0.031601783;-0.07122684;0.07596861;-0.034564283;-0.025818437;0.07718636;-0.033509716;0.04728221;-0.019163681;-0.061935056;-0.022743482;0.044447944;0.0706803;-0.02115054;0.05761451;-0.029027399;-0.0013522084;0.027354777;0.030142564;0.037127998;0.06961508;0.10147511;-0.025907064;0.015982635;0.007916987;-0.03525178;0.149135;-0.047249913;0.07395085;-0.09699052;-0.05097015;-0.0030280617;0.0204697;-0.08750462;0.058881663;0.082258224;0.005290271;0.06717222;0.0049354355;0.050046958;-0.16101307;-0.0797651;0.04254182;-0.02154545;-0.004924037;0.051344667;-0.061795577;0.086558074;0.102639176;0.11124735;0.012298564;-0.065415025;0.027628466;0.08002472;-0.044746112;-0.032767825;-0.01585742;0.07065469;0.0835717;-0.008024361;0.08459005;0.05307815;0.1377284;-0.024365053;0.033030756;-0.050214935;-0.032431908;0.0438095;-0.07083102;0.040586144;-0.08452408;0.09282984;-0.0046475325;-0.048157208;0.04179385;0.062053323;0.0645032;0.12818858;0.016945332;0.08801298;-0.030145952;-0.063292906;-0.05947372;0.08225755;-0.054742202;0.033554606;-0.0029274633;-0.009025391;0.057145506;0.1033301;0.013942952;-0.033679575;0.042114336;0.07001684;0.01572429;0.027817182;0.0374489;0.08552261;-0.026235325;0.038328364;-0.022118902;0.07692877;0.08031061;0.00012223572;-0.073443756;0.06362166;-0.022513812;0.015930435;0.022331892;0.06117065;0.07030118;0.0027938627;0.08218341;-0.02173025;0.081573255;0.06014201;0.03243024;-0.04060329;0.07693606;0.08412013;0.006568163;0.067648314;0.06837933;0.0043809596;0.053068403;-0.020502906;-0.0011186748;0.07170733;0.014801532;0.009083659;0.07472045;-0.030039709;-0.040848564;0.055299018;0.023527035;-0.0497986;0.042869817;0.04039182;-0.029787391;-0.02627608;0.06407637;0.06531116;0.07290086;0.08744593;0.11926001;-0.017168632;-0.0123041775;0.05862601;-0.070234284;-0.04606843;0.022842946;-0.017281372;-0.054927815;-0.021381563;0.059328575;0.06876682;0.046941098;0.08249135;0.06747817;0.048634917;-0.06287154;-0.03501431;-0.008575596;0.047351655;0.03207092;-0.03720256;-0.110517755;0.0003820298;-0.06437643;0.07086681;0.12960052;-0.09664103;-0.043295283;0.15473227;0.03716246;0.07828791;0.07908232;0.009971489;-0.060239147;0.043887664;0.0134636015;0.018958678;0.11829756;0.13737118;0.0067848396;-0.0607144;0.07534573;-0.017683806;0.04453097;-0.12086668;0.08682477;0.08301097;-0.0021158096;0.091652945;0.070376866;-0.041990355;0.080801;-0.07637336;0.08498363;0.06059978;-0.12849873;0.03736709;0.02127898;0.0077987416;-0.014960291;0.074501336;-0.0011017107;-0.10417547;0.02715208;0.10575626;0.06351547;0.017195541;-0.04117463;0.03339761;0.039099794;0.061520595;-0.018736407;0.047465876;0.10348039;0.064106874;-0.019397773;0.08255601;-0.023305707;-0.11568003;0.08314128;0.001991909;0.021554947;0.085662216;0.022573648;0.010148918;0.091541275;0.015297797;0.13237903;0.058636934;0.015293941;0.018940609;-0.04093214;-0.0021687339;0.08350442;-0.024464266;0.028951617;0.023328235;0.04212758;-0.11653809;-0.043099783;0.020366762;0.00347909;-0.009998891;-0.0869752;-0.0894937;-0.09713905;-0.016612386;-0.008332381;-0.034450084;-0.13271995;-0.07380097;-0.008332639;-0.06683302;0.022364082;0.008066739;0.016345877;0.03208499;-0.0103614;0.0018582096;0.12566724;0.050196204;0.021971809;0.08010753;0.071217746;0.033669658;-0.024244731;-0.016384482;0.07159092;-0.020482184;-0.054322116;0.1174818;-0.14451635;0.030733941;0.026586173;0.012612918;-0.01711571;-0.005331662;-0.03382609;0.071069025;0.05344641;0.0023978213;0.03700583;0.014537922;0.03343598;0.05712726;-0.0064980974;-0.00062850787;0.030788127;-0.053514868;0.01585593;-0.023560125;-0.026109388;-0.0008014757;-0.045648288;0.11685327;0.0491644;-0.006022971;0.022631956;-0.054312542;0.06985792;-0.040275183;0.035595786;-0.10050145;0.10283448;0.110922575;-0.033848565;0.14124915;-0.014536259;-0.04082128;-0.042477444;0.09183076;-0.049686424;0.0325628;0.0023739105;-0.08837528;-0.055250693;0.012497806;0.038664814;-0.018165655;0.022446126;-0.076272465;-0.17737652;0.029465485;-0.03489759;0.033638954;-0.052837722;0.034959674;0.0012356512;0.004757322;0.09730427;0.11955395;-0.016625324;0.031567305;0.016823513;-0.06339159;0.031486083;-0.0542592;0.011162506;-0.05362074;0.021235941;-0.010627804;-0.18978398;-0.027934333;0.08706101;0.01213403;-0.063175395;-0.012426259;0.012852862;0.025178177;0.047074564;0.014682075;0.062738754;-0.05783156;0.0021358922;0.025540564;0.13090648;0.0033444976;0.13426073;0.09593726;0.04262474;0.031529903;-0.018637054;-0.06897635;-0.033892285;-0.045012012;-0.012590651;-0.044800933;0.030543657;-0.03916422;0.0068416614;0.08596737;0.04839449;-0.033751257;-0.037119273;0.057298016;0.078464456;0.027912177;0.06460635;0.050952215;-0.059997372;0.014778913;0.053766765;0.044060256;-0.0013628628;-0.06120326;0.093949616;-0.02617472;0.0021130508;0.09404484;-0.021369318;0.025994055;-0.040718075;0.058850233;0.092231005;0.002266297;0.10765907;-0.18154891;0.13357684;0.12144476;0.05089975;-0.026775269;-0.016372893;-0.018041434;0.032331303;0.009268701;-0.018375115;0.0068657696;0.015734522;0.104356505;0.067805044;-0.0466632;-0.051608477;0.036150128;0.0858435;0.07595608;-0.017132783;0.092981316;0.05063662;0.05175605;0.0147773195;-0.037934937;-0.017008241;-0.01778461;0.001989277;0.06291735;-0.046272866;-0.002133573;-0.014875064;0.061846152;-0.014726269;0.082089484;0.0029311543;-0.03297788;0.012685191;0.0028779279;0.07685736;0.055891234;0.046049554;0.0052022324;0.08489336;0.07139509;0.0031030057;0.035475694;0.02646112;0.14246622;-0.024926461;-0.027440453;0.07015498;-0.015716154;0.086546846;-0.017650347;-0.034005236;-0.025647009;2.9997012e-05;-0.017592227;0.0665049;-0.016647885;0.056396388;-0.22736096;0.024275929;-0.0044068154;0.06988787;-0.014278721
0.042471714;-0.03880064;-0.015230958;-0.028535234;0.11005946;-0.041110873;0.057464246;0.1547174;-0.058288954;-0.07686131;-0.03548643;0.046370346;0.051341582;0.010655993;0.022303853;-0.043879144;-0.018316891;0.0793455;0.06060197;-0.10095037;-0.048471335;0.085178144;0.018729942;0.07295061;0.08236517;-0.01640666;-0.0049011833;0.08627618;-0.0021357005;0.114588425;0.09514368;-0.0480633;-0.055548973;-0.1454067;-0.03993779;-0.066753194;-0.04763316;0.006703613;0.117712945;0.10004507;0.05712428;0.029889926;0.09504329;0.010101901;0.12007765;0.066844776;0.06262389;0.10580386;-0.024139706;0.04250818;-0.06690652;-0.059448965;-0.051282365;-0.03117242;0.119132236;0.037941493;-0.010388171;0.04488161;-0.0389283;-0.05583633;-0.039127614;0.14927256;0.029060721;0.01699684;-0.1648625;0.0763752;0.021601072;0.102799654;0.0127353;0.031340703;0.07215351;-0.0021821486;0.19789045;0.07518182;-0.038459174;-0.04440459;0.0891923;-0.015303047;-0.02598247;-0.1262471;0.03921855;-0.013874047;-0.009167077;0.038511347;0.12555434;0.025347302;0.06551036;0.13375908;0.0226342;0.011528843;-0.03941489;0.053839315;0.065047435;-0.030261667;0.081741616;-0.030305412;-0.0060068644;0.0039291293;-0.00058597047;0.08782177;0.049989805;0.001738743;-0.03019334;-0.022482408;0.07255198;-0.017637832;0.019357665;0.056822672;-0.051052846;-0.037745614;0.067434356;0.047548864;-0.0012715531;0.005360528;0.089561194;-0.045290228;0.057990335;-0.099080145;-0.023231238;0.026273407;-0.020261748;-0.06697953;0.051757727;-0.058717847;0.05953228;0.09499298;0.09452874;-0.023325605;-0.005476289;0.026657617;0.04783958;-0.049998336;0.0714157;-0.031587638;0.076606736;0.0092701325;-0.04648601;-0.040341925;0.11542009;0.04043559;0.04123996;-0.07671666;0.027377551;0.018492848;0.015700392;0.019925859;0.022066036;-0.02300044;-0.107645065;-0.07170285;0.10554791;-0.03786166;0.07317499;0.044062123;0.072585694;0.11529962;-0.004504444;0.018107241;0.022365911;0.006001781;-0.03897758;0.045471;0.072735816;0.040752348;0.02904237;0.06855143;0.037823547;0.10264547;-0.0132859275;0.08804342;-0.058849398;-0.0049318173;0.092316434;0.027894283;0.032506075;0.07942661;-0.06593132;0.0470158;-0.014014013;0.03107736;0.0729118;-0.02707694;-0.025878632;0.0862726;0.06844293;-0.054580778;-0.0257234;-0.057476923;0.00015366402;-0.009452327;-0.035618246;0.05555502;0.009363429;0.10729636;-0.023459155;-0.016217725;-0.06427821;0.07033885;-0.030523311;0.0876615;0.07047731;-0.038428437;-0.03942074;-0.002904507;0.088792205;0.011076362;0.08090526;0.008046665;0.012513445;0.053581618;0.0065102205;0.035181284;-0.037262723;-0.063287236;0.101401106;-0.027871178;-0.10036409;-0.07132739;-0.038718186;-0.0456776;0.12304248;-0.022514109;0.09546474;0.013686272;-0.0070831846;0.08932402;0.014817675;0.057778444;0.09937606;0.014326421;0.110057965;0.01778127;-0.020834489;-0.044649996;0.018202988;-0.002447569;0.038255848;-0.07186153;0.08169891;-0.033635963;0.06844051;0.10087146;0.03899331;-0.07414523;-0.007068284;0.042453863;-0.014928681;0.08145282;0.061399926;0.036562532;0.11545712;0.03102132;-0.011545164;0.06390223;0.062483575;0.02434912;-0.05519167;-0.04399685;0.13545933;0.023908207;-0.06155683;0.025272107;0.032765966;-0.007959494;0.055375323;0.030653853;-0.03923109;0.023565268;0.0032011834;-0.08437884;0.030694216;0.08150961;-0.0017889501;0.08877065;-0.03586202;-0.03559993;-0.06627272;-0.010124293;0.026256047;-0.032050576;0.03172316;0.17073263;-0.062724054;0.093931325;-0.015721738;0.07725249;-0.07610379;-0.0034474034;-0.018234735;0.005021177;0.13021725;0.067910634;-0.072979264;-0.04007732;0.09125103;-0.06961853;0.039668355;-0.045779325;0.11148005;0.10331735;0.022058068;-0.005269641;0.08113175;-0.06430878;0.12370213;-0.04370695;0.06299512;0.09137672;-0.16997486;-0.06319292;-4.8114212e-05;0.08164765;0.009462137;0.009624759;-0.030827617;-0.07439527;0.0016741336;0.110571004;0.08156668;0.05041765;0.060144063;0.12892093;0.11584697;0.074785024;-0.10996218;-0.009615673;0.022415094;0.059703078;-0.018320972;0.020679226;0.057067156;-0.011283177;-0.07381199;-0.049870852;0.084917404;0.12698615;0.084532894;0.045149162;0.008719688;-0.04427698;0.04900174;0.121920064;0.05599473;-0.029379046;-0.07048159;0.086177304;0.042390846;0.018577034;0.086742654;-0.020902514;0.1032413;-0.08193036;0.039796535;0.059483998;-0.112872355;0.05073741;-0.1366672;-0.06001074;-0.040933505;0.009499973;0.07491927;0.011909965;-0.029653734;-0.0047251666;0.06339344;0.088148214;-0.048481263;-0.014788735;-0.00512776;-0.01812818;0.053731263;-0.015523474;0.011129383;-0.008582349;-0.037434544;0.095443375;0.009934486;0.1503087;0.09547457;0.07834885;0.08940966;0.087238334;0.08025925;-0.00075552403;-0.17039445;0.05304031;0.1285709;0.106792934;0.057537965;0.011675612;-0.05779514;-0.053617563;0.06863589;-0.022257574;-0.036968533;-0.049351826;0.01055994;0.09905793;0.084450066;0.05296185;-0.054245118;-0.03548016;0.0058442676;-0.007376148;-0.059837077;-0.073122546;-0.051852822;0.17280579;0.0043556415;-0.02985818;0.12397792;0.09388118;0.08935791;0.10610909;-0.0042460044;-0.10052984;-0.0058055623;0.05790901;0.032472033;0.13705455;0.019334044;0.0007941167;-0.02394977;0.00021717748;0.03906172;-0.020639712;-0.076587945;-0.00756368;-0.080317855;0.03999727;-0.025520606;-0.064707726;-0.033069037;0.033157144;-0.16303156;0.06433655;0.07795683;-0.06602456;-0.019699415;0.051303606;0.033210326;-0.008448694;-0.05384771;0.09363944;0.018250613;-0.06182783;0.04142878;0.055729173;0.08261567;0.016956639;0.0940265;0.054217882;0.114944115;-0.021731023;-0.028219236;0.06157283;0.049651776;0.036807768;0.043913566;-0.020602895;0.053263467;0.087308675;-0.037929483;0.038734358;0.008731781;-0.019362623;-0.008603196;0.13516456;0.08418769;0.069174394;0.09871165;0.12265538;0.12849814;-0.0432904;0.042413108;-0.0050330884;-0.047154024;0.033364028;0.07598822;0.04504154;0.07206467;-0.036676947;-0.014333244;-0.02141271;0.16985579;0.07104561;0.089921564;-0.031912815;0.028846804;-0.01945778;0.025941504;0.06357542;-0.073515244;-0.08537687;0.070490696;0.12305164;0.10973972;0.06758278;-0.054371372;0.083963186;-0.0069792187;0.06496392;0.043690536;-0.032653585;-0.037889734;-0.013782731;0.029393656;0.016465722;0.13186155;-0.14378355;0.025376495;0.14382292;0.07932767;0.0971566;0.07067024;0.14478739;-0.021624545;0.06618502;0.0116922865;0.06938896;0.08934462;0.048210837;0.027749816;-0.026733976;-0.0446573;-0.053784505;-0.037810955;1.8849056e-05;0.10266772;-0.05377851;0.05481815;0.071847685;0.07229461;-0.07207852;0.08856071;0.06419947;0.016249154;0.08971443;0.0896532;0.040154416;0.0012301;0.069618344;0.05740226;0.07396232;0.03422274;0.028689658;0.049743734;0.04050526;-0.045016024;0.08251979;0.0057077743;0.07646519;0.121145256;0.010314432;0.045925155;0.09559202;0.019239146;0.042724;0.0014743634;0.056558132;-0.0047433027;0.0013128717;-0.014244833;0.04480269;0.08462524;-0.04639651;0.02173822;-0.04037387;-0.020200264;-0.03018989;-0.024496334;-0.14133914;0.12718752;0.064949326;0.078947276;0.01250849
0.13509527;-0.025000144;-0.0048009763;-0.0125606675;0.05973525;-0.06511876;0.033493288;0.12661624;-0.060238227;0.02985679;0.100699365;0.038185786;-0.05461474;-0.051027805;-0.055919662;-0.06294375;0.07759368;0.02900518;-0.011210535;-0.03010993;0.026755592;-0.047733307;0.0406409;0.069697425;0.0053259027;0.056397006;0.0016989968;0.0017769048;-0.033601843;0.06762831;0.022047678;-0.052179;0.07005664;-0.029598868;0.048497543;-0.08264391;0.068249054;0.099466875;0.016025657;0.11152186;0.08021738;-0.02325677;0.122158244;-0.089696206;-0.02544355;0.08235745;-0.04196347;0.045450896;0.025759527;-0.015043269;0.05785818;0.078875735;0.045825396;-0.038022213;0.038667012;-0.043637004;0.06322846;0.01642166;0.03761389;0.031836975;-0.00565971;0.038157824;-0.0033006275;0.034815785;-0.1459119;0.08278744;0.00101658;-0.011855816;-0.043340374;-0.028589524;0.02404903;0.016675798;0.09984185;0.050765768;-0.06393341;-0.0040902323;0.0035880995;0.09322512;0.005948058;-0.11284229;0.077896275;-0.030781101;0.050839495;-0.03560836;0.0101672;-0.028815582;0.09814158;-0.008845197;0.06915331;0.0026792688;0.01376245;0.01725205;-0.081758335;0.003010735;0.09781262;0.073391475;0.073854506;0.070891105;0.098633915;0.017804265;0.07734759;-0.066466115;0.08686589;0.0071354494;0.08143928;0.027975222;-0.071777776;-0.0033458702;-0.045672473;-0.023031931;-0.009150077;0.06385711;-0.05922387;0.030661928;-0.040614363;-0.07892955;0.019803166;0.042541776;0.044067707;0.05065433;0.044320613;0.010564914;0.054126095;0.051030718;0.03732698;0.12702335;0.00012665853;-0.025402421;0.0029568407;0.008277682;0.06270851;0.038992647;0.07154827;0.026663454;0.017844772;0.09282914;-0.0032321864;-0.019697268;0.080644146;0.04515142;0.056041602;-0.009964692;0.0725825;0.029489676;-0.049327854;0.06840532;0.09326952;-0.018969985;-0.11115455;0.05839869;0.08138832;0.04586982;-0.060842533;0.12879972;0.037424;0.077256456;0.04770063;0.039834898;-0.023671122;0.08166389;0.089232355;0.017077029;0.043793228;0.07872811;0.010414235;0.067077234;0.0517502;0.045008004;0.06651114;-0.0020617303;0.030514173;0.048854135;-0.07597969;-0.05406877;0.08346504;0.115395285;0.033694573;0.017937897;-0.0023827688;0.035198748;0.16282345;0.05974458;-0.019283574;0.064446226;0.015623674;0.059351575;0.06064772;-0.055657435;-0.014171717;0.08428149;-0.027333213;-0.05719209;0.07094399;-0.042229056;0.056530654;-0.010611211;-0.0035716149;0.043491933;0.065400705;0.029805426;-0.0013473418;0.008380612;-0.06826621;-0.034959078;0.084630795;0.037127413;-0.028027173;0.049653817;0.027819164;-0.0592871;0.06762835;0.076118395;0.04919012;0.056310907;0.004135174;0.102577284;0.050606973;-0.055425916;0.097580194;0.066115424;0.0020877426;0.04393771;-0.030795066;0.008438728;0.013299491;0.07076869;0.004598209;0.06381104;0.039601922;0.005541718;0.061594445;-0.07443405;-0.017003266;-0.05189603;-0.008133434;0.05003485;0.021728707;0.049482245;0.08360603;-0.04370821;-0.001996572;0.058226142;0.121572115;-0.064050585;-0.036923695;-0.076786526;0.008616238;-0.0064100316;0.08978994;-0.034356654;0.09690648;0.023291728;-0.03637079;0.09614858;-0.05949227;0.06309594;-0.062295984;0.067817375;0.031887203;0.09843058;-0.02391527;-0.017351206;0.06571308;0.038593885;-0.08930759;0.1269048;-0.056112103;0.13053964;-0.121663675;-0.15143344;0.018272333;0.17903893;-0.001488751;-0.047782972;-0.15407853;-0.059578963;-0.06834054;-0.027645873;-0.0016359455;-0.073295265;0.07970392;0.07330568;0.08685423;0.04837971;0.071697764;0.047928695;-0.00692758;-0.00927448;0.1092458;0.06050684;0.13590617;0.1448754;0.0048996625;-0.05645565;0.06330101;0.032248016;0.04237936;-0.008432974;-0.02009129;0.09871062;0.019985806;0.03827182;0.037298243;0.02292568;-0.003945946;0.015073374;0.11002019;0.047474895;-0.09433884;0.0982702;-0.0032114831;0.059739552;0.047961026;0.0153858075;0.007873338;-0.10130136;0.047599282;0.031741306;0.07844842;-0.057828285;0.0011959142;-0.009114915;0.059017148;-0.041479178;0.025305152;0.06375018;0.088640794;0.026488386;-0.050278753;0.0349066;-0.002837935;-0.09326674;0.075345494;-0.02734303;-0.05841594;0.027701024;0.08908124;0.099852316;-0.027315384;0.13985203;0.1490516;-0.010533366;-0.026683144;-0.06704074;0.010807234;0.021556323;0.07881652;-0.052726023;0.047306854;-0.013213012;-0.025295014;0.004245353;-0.062379383;-0.048026677;0.04810633;0.045375016;-0.013387712;0.05664007;-0.08869545;0.0734143;0.08801099;-0.06129975;0.040694382;-0.037214074;-0.03385628;0.0017452026;-0.066559695;0.111502185;-0.022456853;0.051221367;-0.007102528;-0.043648973;0.118223354;0.016281638;-0.04183448;0.104024485;-0.022262428;0.14588621;-0.056053273;0.029413184;0.0828682;0.060123306;0.018491885;0.15785737;-0.09508284;-0.05320755;0.055221103;0.11695396;0.11429107;-0.0042514317;-0.055615004;0.092114024;0.17096941;-0.020797357;-0.0118667185;0.049947206;-0.12409841;0.10765952;0.097796105;0.03714092;0.055291627;-0.049540125;0.05669177;0.014279473;-0.048132613;-0.038703155;0.078903735;0.053450048;0.01836779;0.08227737;-0.035548788;-0.007021301;-0.019122206;-0.046617873;-0.121834196;-0.122375645;0.033688094;0.04120043;-0.029219635;-0.012841185;0.07158385;0.07037359;0.01635812;0.057107832;-0.029078558;-0.007638661;0.02649075;-0.067939155;-0.07493483;-0.025548944;-0.026134858;0.022045834;0.00070226;0.038139332;-0.15987922;0.08956856;-0.040952206;-0.056717817;0.06252779;0.029057335;-0.003824366;0.0013083585;0.07598647;-0.00042472643;0.080249235;-0.047719188;0.033992227;-0.07013607;0.0601725;-0.027154483;0.1215938;0.05428956;0.089563906;-0.036279544;-0.1583203;0.037426475;0.06024458;-0.014430656;0.037153874;0.014112162;0.02953317;0.0015982917;0.079242066;0.0010228404;0.101930976;0.037380606;0.06338413;0.0992523;0.14221925;0.031945296;0.025129458;0.031542413;0.011266132;0.07960876;0.0349539;-0.07140022;0.09186178;0.038470514;-0.0062680095;-0.017562736;0.052813143;0.07592276;-0.03266832;-0.0459862;-0.018459452;-0.04512153;0.08419055;0.048772853;-0.023449196;0.07059323;0.02051575;0.030608973;0.03724892;-0.07097222;-0.005627557;0.09683623;-0.02710043;0.07834493;-0.0032979695;-0.07791888;-0.019677727;0.059063036;-0.0189258;0.06786119;0.022150801;-0.03231254;-0.018192118;-0.015377258;0.009336406;-0.07704016;-0.016629992;0.009362762;-0.013897332;-0.064134814;-0.0063204067;0.13160573;0.00040593545;-0.05646497;0.0508018;0.02394637;0.07375279;0.072389565;0.039083254;0.063796744;-0.10581439;0.0070762928;-0.024812542;0.021241948;0.15864688;-0.021989899;-0.0033689523;0.0005712449;0.103948;0.021892639;-0.009680957;0.09764845;-0.027300607;0.05049856;-0.014207858;0.08428718;-0.015879726;-0.06026588;0.028275345;0.1392218;0.06534038;0.0787921;0.062517956;0.09595883;0.017255269;0.10514911;0.06325016;-0.03250909;0.102149665;-0.048711244;-0.031102903;0.022647686;-0.0025173817;0.092972755;-0.015305299;0.02838225;0.07981616;-0.0036540332;0.019227596;0.0709874;0.09543289;-0.01001384;0.09051981;-0.0109614665;0.047341235;0.09846547;0.026266985;-0.09748828;-0.035740454;0.0042653275;-0.054067604;0.08695716
0.16560738;-0.09368872;0.04972391;-0.061912276;0.10374124;0.040864915;0.00795518;0.030625502;-0.022192048;0.010067965;0.030546235;-0.054655917;-0.06811179;0.045546938;-0.020418905;0.08127422;-0.017717483;0.17841378;-0.009240522;-0.14151104;-0.03474641;0.04235106;0.04986626;-0.018814936;-0.038136203;-0.054449275;-0.02558692;-0.032108814;-0.0463103;0.03880967;-0.03794054;-0.043741707;0.08032661;-0.08791292;0.119353995;-0.035751242;0.032954168;0.07103592;0.014564314;-0.01460036;0.002503677;0.016755339;0.15782525;0.04237776;0.04215828;-0.0077852965;0.0032124396;0.043562617;0.08616864;-0.020278271;0.013475735;0.052866325;0.07116496;-0.05310184;0.051953997;-0.075331174;0.09957308;0.050956707;-0.004698279;-0.011255328;0.0589852;0.13077627;-0.076863945;0.00077234814;-0.06830232;0.118172325;0.0066912;0.024163444;0.04329521;0.13487214;0.020825004;0.10991453;0.104767196;0.047610212;0.0035303922;-0.06029798;0.00631725;0.081852086;-0.028032204;-0.15054359;0.050600573;0.030654535;0.0036183735;-0.036825694;0.15165089;0.0029942987;-0.004805697;0.13376568;0.08672629;0.030358046;0.005900384;-0.049768917;-0.04253065;-0.032277793;0.010141216;0.09695132;0.027761843;-0.067650296;0.09297584;0.008043995;-0.011970483;0.02600679;0.04420155;-0.003991644;-0.027502878;-0.020680722;-0.054250218;0.007893563;-0.06641645;0.040494636;0.07256267;-0.0010040485;0.032506146;-0.07440302;-0.001022792;0.011847067;0.05299327;-0.060406074;0.041252986;0.028359279;0.0084498795;0.028979763;-0.0162687;0.08064351;0.023516256;0.061417;-0.0361267;-0.028255492;-0.0714283;0.052176733;0.0070098788;-0.074497364;0.0686068;0.0914052;0.14696054;0.07658743;0.015449246;-0.006960903;-0.035892624;0.08882765;0.073029004;-0.039874703;0.03865047;0.06270942;0.0012678141;0.04616419;-0.038047183;0.0060457787;-0.10685299;-0.041835107;0.093621425;-0.021684023;0.03299388;0.049801376;0.060325425;0.14453238;0.12404581;-0.053039093;0.07245473;0.100320265;0.051443297;0.11576257;-0.081546076;0.11238487;-0.024906402;-0.054027777;0.041762605;0.0063610026;-0.013599502;-0.022016225;0.08242189;-0.038132783;-0.057815135;0.0041150763;0.027365904;-0.056191947;0.055947423;0.007596415;0.05303377;-0.00085118134;0.050170667;0.09339009;0.066252515;0.046518773;-0.0097438;-0.085911706;-0.0896829;0.005569038;0.089835376;0.036280878;-0.052706614;-0.057935826;-0.07416331;-0.032517936;0.036465265;-0.0022762646;0.011571603;-0.0039600767;0.062017355;0.029321235;-0.06683945;0.020084487;-0.020925019;0.04660612;0.0762895;0.05070275;-0.034183193;0.099418536;0.061845075;0.070636235;-0.0035221654;-0.015197065;0.0391699;0.07896001;0.121348396;-0.022586314;0.014176734;-0.044756718;0.023391146;-0.05945489;0.05318577;0.029346233;-0.046530012;0.03416844;0.062685005;0.058733378;-0.042792022;0.011642156;0.035423502;0.12288049;0.009506837;-0.057092313;-0.038194306;0.07682461;0.0074842595;-0.11762589;0.082773454;-0.06360477;0.04956637;0.025696088;0.017454896;-0.010954225;0.035587166;0.057640806;0.01895596;-0.055213105;0.10658926;-0.08268919;-0.06616113;0.034497134;0.06413132;0.10247008;0.04468937;-0.11133711;0.08597116;0.029686544;-0.00951;0.06635851;0.07722198;-0.042535733;-0.054066524;0.033300053;0.08937794;-0.047737926;-0.06403889;0.11631422;0.03566063;-0.0028183428;-0.129397;0.008756979;0.042391494;0.00881077;0.0502811;-0.046622988;0.012547733;-0.12482285;0.056377232;-0.039394073;0.12210301;-0.0326593;0.011224878;-0.011807222;-0.056258444;0.13406001;0.0336042;0.05503806;0.03292903;0.059953652;-0.006768773;0.039440732;0.081215575;0.19676043;-0.075795814;0.008418152;0.03502345;-0.12693527;0.07437848;-0.13287005;0.11257155;0.050284285;-0.048442848;0.0019339131;0.09278384;0.028154211;0.03540179;-0.06683093;0.049086306;0.094997026;-0.1852823;0.059852343;-0.055564214;-0.054949116;-0.035215635;0.07353691;0.09904429;0.0064135673;-0.011544285;0.13458024;0.08203037;-0.0053899363;0.044734847;0.07595687;0.06192424;0.03238564;-0.019578034;0.08865322;0.032845013;0.016096964;0.03245833;0.12834325;0.09069418;0.059169162;0.0372904;0.055753555;-0.06692077;0.16391607;0.08142361;0.00455549;0.10572576;0.052581184;0.16021131;0.003405588;-0.033309918;-0.115185946;-0.12036326;0.10416373;-0.05883872;0.072651215;-0.020245928;0.04892071;0.12243647;0.019170122;0.053868175;-0.054091513;-0.05773214;-0.09332293;-0.0682444;0.042460624;-0.018653983;0.106564544;-0.050757468;0.0058400314;-0.059269756;0.041012067;-0.015392576;0.052783113;0.008805809;0.13080013;0.023087079;0.011024017;0.07157084;-0.04327741;0.009934988;0.095673814;-0.08259798;-0.038434707;0.055275552;0.16336225;-0.013123428;-0.0015203297;-0.040001415;-0.005167792;0.062291097;0.16086164;-0.062178474;0.01882143;-0.0023054292;0.0971026;0.005067565;-0.01404619;0.080895044;0.0402359;0.22024009;0.027068108;0.032169357;0.108232036;-0.016174542;0.08459123;-0.05466396;0.0050297105;-0.042336237;0.06579684;-0.07605198;0.060942095;0.018331535;-0.08633423;0.07888907;0.09078605;-0.05271214;0.09689265;0.08885381;0.08748772;0.09575845;-0.01065171;-0.09224167;-0.105770975;0.010924212;0.010492655;-0.025475863;0.10383295;0.041017257;0.060087275;-0.03425729;0.09880361;0.057976644;-0.058927923;0.005239452;0.08471613;0.029210132;-0.07762873;0.07703862;-0.027719023;-0.034720086;-0.041599743;-0.0971111;-0.008962517;-0.043532766;-0.06288573;-0.0071844175;-0.019480122;0.049230564;-0.038500868;-0.057890885;0.042465128;-0.009697426;-0.03201592;-0.016791506;0.044060428;0.07258201;-0.062181436;-0.0073368703;0.073403955;0.116270274;0.06393122;0.014358222;0.09480683;0.06420197;0.025675707;0.074595325;0.10907474;-0.01626598;-0.0020377417;-0.047460422;0.06695984;0.05612172;0.06364098;0.057742644;0.094475225;0.06913652;-0.030374516;0.10124664;0.13422011;0.03308029;0.027009951;-0.074625134;-0.03233501;0.011905792;0.012378398;0.062792875;-0.09479183;-0.04576943;0.080416754;0.037693366;0.047394983;0.12095934;-0.045891177;0.0541636;-0.02447266;-0.092990905;-0.025201462;-0.05609149;0.07110876;-0.06945125;-0.116852745;0.043674342;0.012010764;0.0244908;-0.06587084;0.03585374;-0.02069011;0.056126047;0.017543912;-0.018441267;-0.09402015;-0.005798213;0.1284403;-0.056513634;-0.053209465;0.09083456;-0.11349353;0.04470963;-0.12776802;0.021457836;-0.026978584;-0.028122671;0.11623121;0.057584543;0.034333624;0.057928234;0.0016755443;0.14296208;0.08599697;-0.031890005;0.0923277;-0.020877296;-0.012709533;-0.039596457;0.06889191;0.10584795;0.08303169;0.039640024;0.072707556;0.12580383;-0.06364358;0.091679774;-0.030912392;-0.072889514;0.054539274;-0.017334448;0.022131072;0.06451614;-0.07826156;0.08920301;0.16632026;0.0032284823;0.08098398;-0.03449081;0.06851111;0.017694697;0.025565503;-0.008864348;-0.013263468;0.15487462;0.018437745;-0.07031;-0.046725135;0.05066347;0.038113203;0.0678185;0.08793454;-0.045774598;0.16275759;-0.03363683;-0.039142955;0.043877535;-0.08988829;-0.08447069;0.035592113;0.0843648;0.0481397;-0.03900341;-0.14463045;-0.039410375;-0.042281758;0.062999;0.07000104
0.017691031;-0.06582055;-0.08047512;-0.043388326;0.03816359;0.07709126;-0.08099203;-0.012860179;0.038123492;0.049988154;-0.06052999;0.021605454;-0.0006807575;0.031293035;0.089382075;0.0750128;0.027142413;0.13412139;0.041350655;0.00592436;-0.08162243;0.110825315;0.006820547;-0.04442339;-0.019536342;0.02917648;0.015452824;0.04913498;-0.06886925;-0.15543227;0.09037914;-0.023958705;-0.03272922;-0.033660978;0.0836557;0.08284225;0.04748244;-0.0032444908;0.13032952;-0.015007507;-0.0058924044;0.0016358999;-0.025362216;-0.02211039;0.03824674;0.08538931;0.11552853;0.08501098;-0.015423754;0.0726787;-0.03382456;-0.028515039;0.002869329;-0.026886187;-0.013817069;-0.032367665;0.017094782;-0.05768513;0.042945724;-0.062382378;-0.0041868077;0.046852384;0.07817571;0.010780322;-0.17130789;-0.038295336;-0.018468225;-0.05411449;0.0050425036;0.12996027;-0.08829695;0.050233793;0.038063843;0.034566734;0.009660256;-0.08355884;0.07889324;0.042029355;-0.025961602;-0.052810498;0.04659646;-0.025158074;0.045521203;0.030073894;0.051008016;-0.051390044;-0.04132935;0.07222201;0.03443253;-0.02250146;0.041493148;-0.012956323;-0.06365891;0.051882498;0.105898015;0.06767615;-0.071222775;-0.01905583;-0.057593297;0.07710237;0.03994561;0.032233622;-0.05620614;0.014329114;-0.011857251;0.0030937179;-0.021285329;-0.057574812;-0.06080588;0.107086055;0.0024151946;-0.03621706;-0.004337167;-0.075275294;0.019328272;-0.000671175;0.07486045;-0.10153655;-0.032704026;-0.07592889;0.0059399963;-0.01959767;0.03691592;0.098430924;-0.0052152164;0.012061609;-0.09125104;-0.022275731;0.025596881;-0.06455365;0.05741228;-0.08924143;-0.00079299824;0.027281675;0.068940476;0.053885352;-0.05589571;-0.14776567;0.103217356;0.07013069;0.008971181;-0.039432295;0.03589886;0.088180184;-0.05186843;-0.0043215402;0.029127149;-0.09703278;-0.04926423;0.07909963;0.064089745;0.08977938;0.054724693;0.101117395;0.0011386473;0.026836837;0.11115813;-0.033704787;0.037366647;0.13450246;0.05243171;0.116111375;0.035258297;-0.05306021;-0.0035630637;0.015827084;-0.0533163;0.09882128;0.122496046;-0.0042744447;0.11181122;-0.0726522;-0.08622549;-0.07989508;0.052775927;0.01824359;-0.05662671;0.015243338;0.0009282786;0.015182945;0.14999351;0.10634889;0.039256427;-0.06281655;-0.054855995;-0.051390454;0.0119102225;0.07675413;-0.020340472;0.04156266;0.02846939;-0.023267863;0.059449244;-0.0087165525;0.015891273;0.017704263;0.07502433;0.08934786;0.03369214;-0.052822873;-0.05146813;0.05483229;-0.047096968;-0.0058486965;0.049652547;0.012087789;-0.0115854805;0.04740603;0.13350321;-0.0018787144;0.01185259;-0.05848311;0.07430085;0.020275591;0.05257446;0.059049025;0.005206223;-0.07148789;-0.04008799;-0.01880464;0.04970393;-0.009288565;0.027380247;0.08404913;0.027749207;0.07759096;-0.04677185;0.05750151;0.039835196;-0.009465197;-0.023244858;-0.074180156;0.030708214;-0.04370888;-0.0051764688;-0.0756962;-0.019235497;0.057776786;0.050932825;-0.14481997;0.037782054;0.0856204;0.10658393;-0.08263248;0.052723896;0.026735272;0.028272372;-0.027411249;-0.008088547;0.023561183;-0.026317766;0.10974977;-0.02069842;0.11912483;0.04607073;-0.021340184;0.054647334;-0.041317753;0.11236879;0.080029435;-0.010806387;0.06926635;0.06467566;-0.053002097;0.028165963;-0.01096094;0.040255357;0.09737781;-0.08839711;-0.006932314;0.0863193;0.047285855;-0.0067081363;0.0011126908;-0.01076985;-0.011355421;0.03148625;-0.021110946;0.12046931;-0.106994055;0.026400408;-0.0063232663;-0.03148596;0.106695116;-0.01546235;0.08685604;0.03607829;0.027420366;0.06965007;0.02079279;-0.070560135;0.07286467;0.029675268;-0.053142212;0.037567053;-0.024541214;0.092387006;-0.014200315;0.044997897;-0.01797909;0.03456202;-0.040614277;-0.01634011;0.08493974;0.06484044;0.0107206665;-0.11429257;-0.015098243;-0.00031081814;-0.038933318;-0.02633746;0.0041457945;-0.06761319;0.011015672;0.029040566;-0.048883844;-0.009839877;-0.023052461;-0.018570708;0.01608929;-0.05298172;0.007371258;0.043576024;-0.05065078;0.026998814;0.09129106;0.06348491;-0.046770405;-0.010344627;0.10236483;-0.031005295;-0.03674527;-0.057134863;0.06711448;-0.048903674;0.12951367;0.081116125;0.01335583;-0.03571276;-0.0056193373;0.04292763;-0.0030475399;0.103255056;-0.003697552;0.012485337;-0.03142032;-0.080993816;0.020616893;-0.05597763;0.008982219;0.031599015;-0.05706593;-0.055714853;0.033814393;-0.05823063;0.073621765;-0.00030374748;0.08491552;-0.007529309;0.022972068;-0.034571283;0.036104277;0.022562483;-0.044334944;0.026280293;-0.058690947;-0.08469228;0.17898819;0.042013366;-0.052610364;0.014314935;0.06562367;-0.005406271;-0.024602698;-0.101555474;-0.041277636;-0.062749974;0.17897165;-0.0004952912;-0.051859044;0.0063585057;0.08090733;0.053338565;0.08265217;-0.053237114;0.0027179145;0.028921722;0.0112888925;0.062759586;0.023247996;-0.019508542;0.12346311;0.05195911;-0.06363593;-0.011410256;0.025036022;-0.13995568;0.097770385;-0.06669648;0.016817626;-0.03435571;0.066583306;-0.018085375;0.012042137;0.05135801;-0.005635843;-0.0065220934;0.012067611;0.0011852112;-0.015008024;-0.049532074;0.065953664;0.09739932;0.05694603;0.10396995;-0.03669264;0.017460702;0.07694945;0.0012410947;0.029586151;0.036437523;0.09758204;0.038760204;0.045964774;0.09501186;0.06851625;0.04482466;0.018174583;-0.03118782;-0.045413885;0.10107465;0.020882456;0.07153987;0.04031663;-0.15795976;0.12317788;-0.04906717;-0.024708882;0.025567006;0.011878446;0.08360438;-0.03094601;0.035242334;0.06749463;0.042743925;0.022902265;-0.059483662;0.09123692;0.06843116;-0.0844702;0.08847216;-0.012579632;-0.0028790685;0.027875839;-0.02537968;0.01012859;0.045033917;-0.03451721;0.054702252;-0.05230854;0.033357497;0.051346198;0.066450745;-0.046969112;-0.015188536;0.10942024;0.09530461;0.007393942;0.015676264;-0.04718214;0.03849244;0.079143316;-0.10730627;0.0343912;-0.077632815;0.01127359;-0.04403694;-0.060556747;-0.03475212;0.04724642;0.017678173;0.0049792523;0.010285736;0.08638139;0.016423149;0.0031630239;0.055956215;-0.062262077;-0.018263077;-0.018797124;0.056562636;0.056529198;-0.07058866;-0.034926243;-0.06303341;0.11694006;0.09918648;-0.05767508;-0.11037809;-0.14535306;-0.033398174;0.044116475;-0.054011337;-0.098741844;-0.020836184;0.02378808;-0.016728142;-0.021410208;-0.0022060615;-0.17840096;-0.014263535;0.04188286;0.113159694;-0.06476354;-0.047830027;0.0945785;-0.054326944;0.046406224;-0.05655183;-0.058226034;-0.0022950638;-0.02247961;0.051220153;0.050881498;-0.111569025;0.0013834415;-0.026946109;0.010128623;0.13483344;0.000987616;-0.03987734;-0.024322208;0.070921496;-0.10048552;-0.025981152;0.07245528;0.056557342;0.14824067;-0.021133924;0.08399128;0.08890155;-0.040618334;-0.045712613;0.12675482;0.012556012;0.035600908;0.05412373;0.016444251;0.0566939;0.0047739116;-0.017178457;0.060250755;0.16090925;0.10935912;0.08205838;0.04054111;-0.08828486;0.0661674;0.03087669;0.00027604686;-0.034918;-0.006852868;0.037292443;-0.018253362;-0.025670711;-0.09589883;0.06725675;0.021641077;-0.026770806;-0.0063262493;0.0010248418;-0.062416382;-0.080644146;-0.012847108;-0.026461799;-0.02656965
0.116672866;-0.05252405;0.066761345;-0.03708342;0.015532686;0.032840494;-0.074639335;0.097072825;0.02736834;-0.015175922;0.050729953;0.06443527;-0.058984406;-0.015627543;0.032768458;0.032809436;0.021306163;-0.026183711;0.06685939;-0.031255666;-0.12777033;-0.009825499;0.07876079;0.093525775;-0.102059685;-0.13271433;0.006185946;-0.081746645;0.05426862;0.017520612;-0.033842813;-0.09284943;0.08437605;0.012054166;0.06869573;0.059726052;-0.0698784;0.040650498;0.067713544;-0.0064847274;0.06451405;0.08530688;0.07331074;0.011611353;0.0036420403;0.020095475;0.08688693;0.1220592;-0.03412561;0.07311676;0.014543022;0.14089005;0.007960813;-0.058140613;0.005369629;-0.101935714;-0.03134516;-0.04321828;0.09982393;0.016743965;-0.00018733935;0.11337242;0.029404627;0.10961157;-0.16841295;0.062411845;0.07619869;0.04443689;-0.06193775;0.11506892;0.03358255;0.05515568;-0.005168054;-0.06171;-0.10527196;-0.1666915;0.039689973;-0.022779703;-0.11059577;-0.12350671;0.0817253;-0.06932183;-0.09170882;0.010082871;0.11541022;0.0038994686;-0.012541508;-0.029621452;0.021630408;-0.022025304;0.09572636;-0.006710399;0.050970297;-0.027442768;0.10042975;0.052111402;0.061404213;0.020244643;0.09177221;0.006646543;0.052109454;-0.05405013;0.057329006;-0.008415314;-0.04307704;0.09358832;0.033055004;-0.04916344;-0.038781386;0.10718273;0.1210122;-0.032499656;-0.02506866;0.09895031;-0.06384891;-0.007080715;0.030611847;-0.10490803;0.009771544;0.0012349111;-0.02077603;-0.058241617;-0.017850734;0.12176529;0.011144001;-0.014032615;0.08965756;0.09309881;0.09640104;-0.0868698;0.0016579942;0.038365837;-0.02192665;-0.059396405;0.10393564;0.083649404;-0.044260867;-0.009052755;0.04939035;0.024556905;-0.0018858364;-0.07899834;-0.05730693;-0.052249946;0.04617563;0.026195364;-0.06224572;-0.036696218;-0.0404719;0.06612671;-0.016234418;0.11969967;0.09933524;-0.010141966;-0.043887176;0.02771506;0.042195257;0.022031616;0.025084877;0.02322677;-0.045110967;-0.03145472;-0.08947964;-0.03325462;-0.049646728;0.05671954;-0.03824224;-0.008431719;0.105372325;0.014398096;0.10553682;0.03384554;0.09043889;-0.096256696;0.09684824;0.07269508;-0.075664714;-0.028044328;-0.11367106;0.05595828;0.031130647;0.008210263;0.060953762;-0.036344726;0.087933235;-0.059915718;-0.077404924;-0.0040395404;-0.012148011;-0.052464977;-0.041609406;0.09287757;-0.08946273;-0.0146844825;0.013338827;0.045759138;-0.040761404;0.04115545;0.012341663;0.050484326;0.08244138;0.03017585;-0.07554022;0.04184293;-0.039222144;0.07470562;0.026514953;0.046233572;0.058477253;-0.05632194;0.10771493;-0.039837588;0.014761722;0.062148694;0.09337009;-0.038792055;-0.06622093;-0.02123146;0.022777444;0.0021224082;-0.0025151928;0.08462157;0.03620444;-0.047291633;-0.03181664;0.0042922935;-0.023195678;0.053700823;0.0323933;0.095823206;0.004690837;-0.108844034;0.039354153;0.07237678;0.025847279;-0.02557143;0.014249097;-0.0081295315;-0.0054187668;-0.14822057;0.03996723;0.011382507;0.031593885;-0.0051330216;0.0071875593;0.06266057;0.007919379;-0.02531891;0.05795044;0.11547606;0.05864875;-0.03799403;0.099437654;0.050291736;0.022942303;0.09703441;-0.01889236;0.019157019;0.07876387;-0.034712855;-0.13020842;0.026080878;0.021058645;-0.066599295;0.068898104;0.029991891;-0.032158066;0.08468223;-0.124684066;-0.028842293;0.05768996;0.078986116;-0.04489558;0.08182113;0.087726936;-0.055938832;0.011666013;-0.033302277;-0.027570557;0.006521713;0.060886107;0.11531027;0.019263579;0.09975196;0.102349155;-0.016887607;0.0025603573;-0.03685566;0.051926162;-0.06721252;0.024342908;0.047080494;0.009456267;0.034974117;0.11062327;-0.035307426;-0.03903257;-0.059179734;0.039846137;0.07815081;0.036175903;0.08848085;0.052668914;0.13137017;0.083369195;-0.03791491;0.0026909662;0.031637046;-0.11000067;-0.041861843;-0.0025854523;0.08382375;-0.04306131;0.06805907;-0.05413256;-0.108357675;0.04403407;0.0632509;0.025484718;-0.029698892;-0.0479207;-0.0074149384;0.03274322;0.003103036;-0.052083753;0.121062234;0.008043082;0.09170942;-0.058740944;0.14365162;0.05003421;-0.093776196;-0.043307174;-0.057447918;-0.10682877;0.08876536;0.09917571;0.09385614;-0.025930699;0.04791006;0.15886478;0.06690392;-0.03788449;-0.08342653;-0.010784852;0.043815717;0.06775923;-0.050083037;0.03336517;0.0644353;0.06766288;-0.039351437;0.004447175;-0.014739767;0.06997832;-0.05990301;-0.087800354;-0.05451677;-0.009316365;0.108575575;-0.025703775;0.013115094;-0.070124835;0.026839353;0.0435892;0.06506455;-0.015743712;0.051335823;-0.06845147;0.018382804;0.04509255;-0.034829315;0.108121395;0.00075629307;-0.06445125;0.021757584;-0.0059884023;-0.03181924;0.0153210955;-0.001411164;-0.03697426;-0.012353006;-0.09136607;0.17240782;-0.038777135;-0.010038047;0.062317804;0.0740164;-0.011600402;0.087103836;0.053398672;0.14438282;-0.002120865;-0.060298547;0.0067711077;0.029004063;-0.11214137;0.00016411507;-0.08465558;0.08338596;0.08341159;-0.07767242;0.057227455;-0.045401663;-0.033463668;-0.07124303;0.085572004;0.10399305;-0.037367217;-0.020050244;0.070969656;0.04065315;0.034414463;0.0147939725;-0.06296558;-0.16936973;0.07970617;-0.042201106;-0.035773702;0.020670056;0.0014485172;0.025280237;0.029633492;0.013432383;0.05280122;0.009092091;0.024793463;0.0068034725;0.055125445;0.08229229;-0.0013669094;-0.036206506;0.020177336;-0.07687318;-0.16120283;-0.0077088308;-0.0162455;0.030261936;0.079984725;0.08183892;-0.013815629;0.04777466;-0.015170157;0.0076833023;0.10957241;0.02631837;-0.08199329;-0.059464946;0.025758505;0.00754139;0.005973308;-0.0076015997;0.041853726;0.004362157;-0.10675757;-0.022149755;0.09588575;0.010062745;-0.0110879;0.026608037;0.013046897;-0.03766795;0.01900359;0.04159662;0.008859241;0.06733666;-0.019754613;0.03772576;0.01863616;0.023411805;0.063649096;0.041244708;-0.06324576;-0.033494912;-0.010480853;-0.04854998;0.078698434;0.023963623;0.0023578058;-0.03202871;-0.007843297;0.030493911;0.06440755;0.09202631;-0.010018403;-0.02338172;0.05144865;0.07097695;-0.10702484;0.037267376;-0.006903508;-0.009402474;-0.07107095;-0.09626571;0.039520092;0.044471696;0.098936826;-0.037966404;-0.14643042;-0.014706377;-0.020502115;0.05340021;-0.044617508;0.058106374;0.063804425;-0.01151372;0.019311178;0.09934721;0.06604788;-0.12313461;0.08531047;-0.0606213;0.123669624;-0.06571348;0.015454047;0.05579391;0.007062844;-0.03091787;-0.084847875;0.053951465;0.032374315;0.011800704;0.013588171;-0.049634397;-0.036834765;-0.021872358;0.08487221;-0.002566186;0.13302346;0.02173855;-0.05560695;0.10139851;0.13734521;-0.10987674;0.04306446;-0.0989945;0.014349675;0.010189083;-0.0006087309;0.04332889;0.11203044;0.0150581505;0.032255992;0.090095446;0.011312214;-0.011151632;0.058174115;0.07167746;0.07536239;0.13393486;-0.04175239;0.018291755;0.072516836;-0.0392441;-0.067551605;0.07232562;-0.08594789;0.073822774;0.0021052822;-0.015689174;0.046678796;-0.024849214;-0.055141464;0.034272075;0.10014214;-0.084629714;0.017332517;-0.029136585;-0.12841405;0.11927006;0.0061786543;-0.096098766;0.042410064;0.012882751;-0.006838252;0.003608102
-0.06420551;0.027891543;-0.012743656;-0.00542277;0.11986908;0.038070805;-0.004795657;-0.019435786;0.04768664;-0.04184806;0.07531173;0.0793041;-0.07723769;-0.052923538;-0.019382901;-0.0054476983;0.01002859;0.073443405;-0.048049323;0.07688142;-0.101955265;0.03964932;0.08088624;-0.048695453;-0.056906026;-0.035282716;0.09107854;-0.08319034;0.10258585;0.11995177;0.0020576196;-0.0006109195;-0.048898257;-0.036936846;0.028665429;0.06586891;0.061553106;0.07688636;0.07750107;0.12184256;-0.027329097;0.116766036;0.039255418;0.07651103;0.0030179108;0.022361374;0.031742472;0.07515832;0.021645987;0.024559084;0.06052398;-0.0051574158;0.040411152;-0.039226662;0.02580827;0.027167963;0.11568685;-0.0530238;-0.014286179;-0.026873408;-0.019350938;0.036614995;0.028741186;0.059482757;-0.0388928;0.009568447;-0.0071440483;0.10261766;-0.024847321;0.10308379;0.07559856;0.06752847;-0.05438498;0.036477335;-0.0016191863;-0.087639205;0.10435757;-0.027724525;-0.08970732;-0.11710835;-0.0041000787;0.064646274;0.03751661;-0.0474797;0.12440049;-0.03422033;-0.0009242274;0.022850085;0.0607805;-0.043364104;0.043278582;-0.00843137;0.007994593;0.06902294;0.123629384;0.032197565;0.05419865;0.0376761;0.0064071203;0.06990526;-0.04940745;-0.0064860247;-0.010677831;0.047239393;0.072366334;-0.02996341;0.0020620115;-0.058831774;-0.019843973;0.094397224;0.0078504635;0.00508784;0.037839178;-0.03829946;-0.027123643;-0.005582189;0.045852777;0.07700276;-0.03526118;0.013335267;0.0666334;0.012827191;0.02257647;-0.014157706;0.0872559;0.035219334;-0.057599574;0.09147854;0.0464657;0.026078487;-0.07781837;0.050072707;0.049090005;0.080141135;0.11295153;-0.02734091;-0.084606454;-0.09250226;-0.0013686534;0.050678205;0.09562428;-0.047829423;-0.06771906;0.031877067;0.07876226;0.05931152;-0.060420312;-0.036528148;-0.097697385;0.01970526;-0.010422767;0.042798;-0.05609493;0.06924977;0.050120566;0.01346273;0.00900776;0.042152002;0.069124855;0.08665487;-0.0152224;0.10736649;0.02406413;0.06236855;-0.030459452;0.014220248;0.083750986;0.024153056;0.1199819;0.08989212;0.06450727;-0.044023246;0.012226381;-0.026667159;0.06548904;-0.054443937;-0.046774972;-0.03377199;0.0030237222;0.03413704;-0.02262995;0.08260831;-0.027693719;-0.0572395;-0.0429267;0.055671833;-0.12683007;0.014055795;0.04730187;0.053260073;0.018051546;0.055091202;0.051958036;0.095721565;-0.04323628;0.010760464;0.07138575;-0.0049692155;0.046189513;0.035271905;-0.0094647575;0.07271915;0.030245483;0.10832394;-0.024282241;0.108756706;0.11814147;0.017781708;0.12784667;-0.053126696;0.09755812;0.024919951;-0.04474791;-0.04591264;0.060954582;0.011535957;-0.035231233;-0.044542797;0.09994997;0.09322477;0.06463946;-0.048209775;-0.019898402;0.02716358;-0.043711103;-0.02899229;-0.033272006;0.04964858;-0.038490944;-0.019753087;0.03248011;0.0013068662;0.040980373;0.034118693;0.023874892;0.015152629;0.02437124;-0.0539097;0.007936258;-0.103453435;-0.008915695;0.0974265;0.033740595;0.06601693;0.02729809;-0.07315145;-0.028873174;-0.077323474;0.058990646;-0.020252407;0.028635511;0.07635701;0.0661964;0.016016692;0.01865949;0.0050105155;-0.06602784;0.10001415;-0.030112939;-0.022118032;-0.19648431;0.027273418;0.102846615;0.037714683;0.05734431;0.054752894;-0.06911249;0.040879305;-0.11713397;-0.09254458;0.00462043;-0.0109345885;-0.046785664;0.008919244;0.14470947;-0.023896247;-0.0002908973;0.073687546;-0.017233187;-0.054623123;-0.06017277;0.11478975;0.003909691;-0.002057985;0.059405856;0.04812126;0.049475446;0.05208622;0.11123464;0.010115257;-0.023331413;0.07504254;0.04871115;0.052872334;0.012008156;-0.056514695;-0.03408061;-0.037811432;-0.030483048;0.0067439093;0.0048985267;0.085217126;-0.042881735;0.095539145;0.011793809;-0.11994076;-0.032338087;-0.04698939;-0.17739348;-0.021165129;-0.04996557;-0.0680737;0.078898385;-0.08397042;-0.0041117487;0.057012796;0.0782724;0.081947535;0.037066653;-0.04184513;0.0037043707;0.081327185;0.06389049;0.021906966;-0.041148957;0.11632175;0.066302076;0.05433294;-0.009669484;0.034501087;-0.037731763;-0.03017511;0.031519033;-0.032364916;-0.10168091;0.08029519;0.07027796;0.0032697835;0.117808335;-0.014423344;0.052956272;-0.018158287;0.060521234;-0.07589973;0.016265417;0.049919475;0.026406106;-0.05574589;0.077763245;0.06061125;0.0067425924;-0.08619282;-0.063714124;-0.04820898;0.090235546;-0.05463925;-0.032537494;-0.065735415;0.058393024;0.015491275;0.07071346;-0.07759103;0.047850914;-0.07853016;0.029196143;-0.0016070304;-0.06586181;0.09014066;-0.040027242;-0.019664995;-0.03182935;0.026119052;0.11578403;0.004703115;-0.09718454;-0.033553705;0.021760266;0.06890193;0.056104127;0.0032229;-0.014888426;0.06820194;-0.038044382;0.13309366;-0.14142835;-0.015885465;0.062024616;0.011077522;0.0037520956;-0.061132878;0.063686535;0.004194073;-0.057287168;0.12925552;-0.02154452;0.003928591;0.004725008;-0.015183353;0.04047633;-0.005092779;-0.00073005026;0.013118281;-0.026619634;-0.019058865;0.069696486;0.059890926;-0.03579032;0.1454232;-0.06727602;0.043155514;0.10734758;0.051037975;0.019256907;-0.029699901;-0.08067808;-0.17577131;0.06803088;0.018460533;0.06235842;0.06850999;0.07135044;0.14161438;0.06149832;-0.0141384015;-0.049979433;-0.04933093;-0.0046003;-0.0406912;0.08359203;-0.08094764;0.070758864;-0.09386122;-0.033126168;-0.048096485;-0.0985107;0.017899273;0.01738559;0.01669101;0.0014210949;0.04606188;0.095502384;-0.035942044;0.048088048;-0.05417656;0.13650131;0.068942755;-0.091232955;0.035367366;0.10242269;0.035856534;-0.056277614;-0.0008112383;0.056435812;-0.03237838;0.038860895;0.08595781;-0.04476086;0.070935175;-0.060855493;0.07344338;0.009665957;0.12902139;-0.0075716428;-0.013879255;0.037869047;-0.0030826107;-0.011888206;0.015639199;0.12090078;-0.042128988;0.0053287125;0.10119016;0.08472918;-0.014554855;-0.062623054;-0.046682075;0.028152552;0.01894899;0.08463017;0.06183045;-0.046396814;0.07897247;-0.08373832;0.07164268;-0.04421942;-0.059497155;-0.047394723;0.064092726;-0.054400194;0.09189742;-0.059378628;0.065007426;-0.10875121;-0.010379238;-0.09460475;0.1191382;-0.026543327;0.0821841;-0.16682705;-0.076687925;-0.0668203;0.075021856;-0.007716089;-0.03329671;-0.034713566;0.13077965;-0.027219813;0.058735315;0.12969188;-0.15347506;0.09723035;-0.13326448;-0.020092273;-0.044687778;-0.07956753;0.04054728;-0.06245591;0.081939094;-0.061223812;-0.021126755;0.10750321;0.03614912;0.027121615;0.05539219;-0.08840937;0.026187671;0.06345286;-0.041533157;0.07197409;-0.025580803;-0.015930057;0.10739492;-0.07130363;0.08131311;0.026453966;0.007684226;-0.06921428;0.053775217;0.043351054;0.09131142;0.023501014;0.010381709;0.080289125;0.04482925;0.014569382;0.08710914;0.081587054;-0.012794033;0.04022423;-0.013165895;0.05445187;-0.022122446;0.09049181;0.11029636;-0.0073014735;-0.010559556;-0.052033402;0.056986935;0.05621642;0.048212845;-0.016821152;0.00082085724;0.04979579;0.022067111;0.040876605;-0.09130901;-0.044386785;0.069195434;-0.03999971;0.025521321;0.07915886;-0.14023109;0.06307366;0.090013124;0.04449152;-0.06061873
0.10210972;-0.01928954;0.041639037;0.03323277;0.02631505;-0.026180359;-0.014418354;0.014331211;-0.015267569;0.07096327;0.024993883;0.06396195;0.03294106;0.03218717;-0.05401139;-0.010366829;0.023391575;0.07992428;-0.02329407;0.037267607;-0.17006983;0.031652734;-0.0149012515;-0.031153604;0.06258051;-0.04527624;0.042413555;-0.090330414;-0.003378176;-0.09694725;0.03915631;0.02519934;-0.0015700588;0.06178583;0.0098720975;0.011244321;-0.075738765;0.023240231;-0.0035775085;-0.027208142;0.059382062;0.12846461;0.0906621;-0.047824908;-0.0010299173;0.05875448;0.042901304;0.06810652;0.044907074;0.07711623;0.055487044;0.05873047;-0.07139119;0.019105392;-0.01804676;0.058736246;0.067640565;0.076169685;0.1017921;-0.1190948;-0.04140559;0.040079825;0.07924473;0.096031085;-0.03449504;0.051362343;-0.04579751;-0.017074633;-0.06979696;0.06370056;-0.008800136;0.008883433;0.030522872;0.003699619;0.087701;-0.06867397;0.023934402;0.03222537;-0.0075407615;-0.021522932;0.0074705854;-0.033058673;0.06308782;0.025766117;0.0073088724;-0.060426217;-0.03390124;0.107622564;-0.017854847;0.030422254;0.044883784;0.038022775;0.07284545;0.007884062;0.08071054;0.01637605;-0.066328235;-0.0071651093;0.025439424;0.044140432;-0.09253022;0.077169314;-0.045315;0.013370049;0.07879889;-0.025590155;0.069793426;0.03525049;0.10940429;-0.035664722;0.026313;0.09690731;0.07622662;0.08513077;0.072185285;-0.025406491;0.003687663;0.05618523;0.1054573;-0.0467158;0.023909448;-0.034536794;-0.004334524;0.066467114;0.06064441;0.040333528;0.027331552;0.0187344;0.055133715;-0.07274936;-0.04315674;0.08264726;-0.011256539;0.08376886;0.06983098;0.065326676;-0.13587052;0.0552881;0.046854533;0.09836211;-0.023552544;-0.1427357;-0.010969675;0.07716942;-0.054049786;-0.011682822;-0.016926676;-0.10877657;0.0011258807;-0.032844048;-0.045653585;0.029829765;0.03162384;0.017744971;0.03819979;0.053114623;0.0373441;-0.04155038;-0.017411124;0.033444528;-0.07714628;0.09098516;0.044021912;0.075707324;-0.021432236;-0.067726076;0.05171908;0.0065485854;0.0019139033;0.07062006;0.01361282;0.082490094;-0.046520382;-0.021022491;-0.010550821;0.03072855;0.0018904713;0.0774401;-0.07142246;0.008875015;0.032339733;0.008481698;-0.050559495;0.05011794;-0.0022697586;-0.026099969;-0.06136021;0.06294735;0.1042618;-0.036296807;0.005590991;0.004334263;-0.039143488;0.101076946;0.021317823;0.02400465;-0.017558984;-4.7611633e-05;-0.040978577;0.02095434;-0.015436287;0.032275725;-0.051740136;-0.007392559;0.030580705;-0.020722616;-0.01930516;0.07163977;0.098452725;0.08583723;0.077528976;0.0015536558;-0.04334337;-0.043241344;0.05135391;-0.032408666;0.0115122;-0.01802679;0.12251138;0.026861764;-0.025924185;0.09538322;-0.08578541;0.030772151;-0.057970945;0.07045401;-0.062489152;0.005068577;-0.04383049;0.12235215;-0.010920051;-0.103553005;0.088376015;0.10097917;0.08877164;-0.030990487;-0.060469437;0.066526;-0.06794784;-0.14167954;0.068505056;0.023958376;0.104423694;-0.009112686;-0.018872147;-0.08254925;0.0742633;-0.07207552;0.012507856;0.023937864;-0.012690418;0.03941302;0.048733085;0.071131006;0.03640486;0.07352244;0.046029788;0.09120369;0.037055895;0.023415102;-0.12787615;0.10485155;-0.0054150363;-0.12230481;-0.030500611;-0.08157606;-0.07697354;0.04723698;-0.052301463;-0.03377584;0.1126107;0.059186224;-0.027049484;0.086468935;0.07561619;0.042592917;0.08381346;0.040684227;-0.0047801016;-0.029772805;-0.0699825;0.14278422;0.07020606;0.032522626;0.0132785225;0.059464626;-0.08371386;-0.041413907;0.13619551;0.024920456;-0.04689355;0.11816998;-0.0010267713;0.093394645;-0.04643659;-0.028956836;-0.054426923;-0.092465855;0.088012695;-0.020931039;0.021147132;0.05040716;0.0059502465;0.08853311;0.024699252;-0.041427366;-0.06339861;0.03713395;-0.13914494;-0.014838628;-0.047581308;0.048994247;0.035902996;-0.049725167;-0.039511196;-0.02127354;0.054128867;0.008523427;0.062601544;0.088403866;0.022374094;0.037918244;0.055666856;0.09646127;0.03148743;0.04604798;0.049170915;0.038797844;0.018580364;0.009575472;0.083847985;-0.06275787;-0.07896458;0.048652053;-0.057589922;0.07716019;0.025122197;0.053485565;0.08479537;-0.038765166;-0.022709288;0.11462223;0.008468875;-0.1337357;-0.041099;0.049526595;0.06397558;-0.060798865;0.02226076;-0.061195232;0.058973815;0.004703762;-0.039997887;0.033981774;-0.013183836;-0.01672015;-0.0914103;0.094497114;-0.08145752;0.083246134;0.080795914;0.084657215;0.06072353;-0.06981353;-0.0055144024;0.072437026;0.068948105;0.067986794;-0.042551212;-0.040410586;-0.020803459;-0.017891826;0.011402545;0.053196624;-0.064993426;0.014283153;0.006235749;0.052828263;0.0101631405;0.0398031;-0.020444259;0.041525487;0.016972471;0.11812396;-0.11852631;-0.08697804;0.08528814;-0.0061949347;-0.03523997;0.06325652;0.020808566;-0.007115638;0.07208132;0.0709917;-0.03965874;0.102746055;-0.08740737;-0.017162155;0.008950897;-0.03844735;0.024426911;-0.024225352;0.016960181;0.07692332;0.02312147;0.121800736;0.0012760985;0.068477176;-0.015001198;-0.03107973;0.04033788;-0.025680382;-0.016662499;-0.029113617;-0.017663997;-0.18861017;0.029661966;0.05808078;-0.06338105;0.0011353333;-0.03210473;0.013787884;-0.025458697;-0.030738445;-0.025782622;0.0531371;-0.012371824;0.060075626;0.030554257;0.054548822;0.08168699;-0.092323184;0.044709533;-0.06640168;-0.10162386;0.07319836;0.09437337;0.00048294227;0.034212627;-0.007464481;0.033558406;-0.042926483;0.013354155;0.061063536;0.047221273;-0.041525517;-0.100808114;0.089476146;0.008036533;0.031546623;0.0034848165;-0.013032478;0.038582858;0.074011356;-0.0058936966;-0.026295915;-0.02488444;-0.007730036;0.08776746;0.09668773;-0.021038385;0.047842193;-0.08205212;-0.008936285;0.06774178;0.10321133;-0.06796362;0.01355234;0.053689577;0.012079165;0.051325917;-0.02149161;0.095704824;0.06264867;-0.03251879;-0.11748205;0.0690784;0.10542775;0.055041227;0.026228113;0.0052400054;0.08443642;-0.012952286;-0.018274719;-0.099730305;0.053729903;-0.028322035;0.016017651;-0.024110442;-0.024729755;0.08293157;0.03465023;-0.027734922;0.03342161;0.021128861;0.06265987;0.027426053;0.08715532;-0.104634054;-0.06388574;0.032037515;0.09960685;0.102019325;0.019447684;0.043659505;-0.040376253;0.039988916;0.025211027;-0.01853435;-0.07393812;0.053673837;-0.082190886;0.051605564;-0.050647575;0.01871081;0.07482509;-0.014291539;0.118946165;0.01607494;0.08660829;-0.008091104;0.028343817;0.10870787;0.0733709;-0.05959331;-0.023016848;-0.008672747;0.053632874;0.13016517;0.09142354;-0.08178869;0.04627309;0.052633807;0.113971636;0.091920905;-0.081372574;0.0035624;0.050161697;0.018559568;0.060275897;0.06464548;0.07089102;0.025158461;-0.018981153;-0.017557453;0.050707255;0.050904546;-0.042186406;-0.013104042;-0.0013227139;0.10749385;0.013145357;0.04468524;-0.012897153;-0.0142938765;-0.028880771;0.06968245;0.040850606;-0.07106821;0.041541092;0.07044784;0.13640542;-0.030828297;0.037333;0.09627496;-0.08010716;0.1071827;-0.06914435;0.07958334;0.111914426;0.06061103;-0.08170656;0.036588054;0.046208326;0.1383021;-0.04958164
-0.04114982;0.0059429733;0.08274276;-0.01003838;0.09311497;0.09210733;0.10291898;0.100283295;0.07211787;0.101162225;0.11070374;-0.053918004;0.080628194;-0.00013510832;0.058432586;-0.059490025;0.044666547;0.07724042;-0.05947551;0.121069;0.020213395;0.014023798;-0.01567338;-0.0014685505;-0.015415411;-0.09420847;0.113544814;0.054950483;0.065806724;0.03256863;0.07036862;0.07772101;0.07549295;-0.007041827;0.019551117;-0.032724738;0.105356865;0.00081937935;-0.014825644;-0.0035003927;0.04194151;0.08708828;0.026771272;0.07389941;0.09888048;-0.0075101177;0.079487726;-0.022398682;0.08287679;0.048936818;-0.007025843;-0.010584445;0.0095853945;0.03411602;0.017384043;0.0006803723;0.05026763;-0.016516635;-0.021342022;-0.034497168;-0.11831318;0.066611014;-0.06825889;0.036458634;-0.15649757;-0.029590225;0.07965568;0.04139155;0.09427105;0.019735193;-0.044569407;0.06716704;0.055424962;0.09519495;0.13164133;-0.06982862;-0.052547213;0.085133724;-0.1249292;0.0138860885;0.0023906839;-0.035437237;0.13104834;0.106848255;-0.099036135;-0.0030380173;0.0068710353;0.051579773;0.018314004;0.023682527;-0.03546687;0.017630657;0.08286867;-0.02130566;0.065224566;0.07384717;-0.054393888;0.005789337;-0.068250954;0.047363658;0.051275954;0.06727194;0.05600627;-0.035358395;-0.04275335;-0.03217832;0.06282785;-0.04226905;0.0720687;0.11320756;0.082171984;0.008977853;0.050825857;0.11044767;-0.046196308;0.08036811;0.053460646;-0.095808305;0.038425118;-0.04229668;0.03635408;0.08188516;0.040827617;0.09112059;0.030263094;0.012676828;0.028061625;0.012147311;0.10733615;0.048756164;0.09126831;0.072080426;0.061708253;0.014480306;0.10116233;0.004377588;-0.0011853932;-0.02273153;0.02785365;-0.01666364;0.054493826;-0.08021623;-0.012919103;0.076450735;0.056000948;0.0122173475;0.062247287;-0.08536315;-0.056747727;-0.06608802;0.082556784;0.015886331;0.009625396;0.14473175;-0.015001903;0.121500395;0.0028803519;-0.017624022;0.049316764;-0.012347196;0.03340148;0.0888707;-0.035039514;-0.0243709;-0.084002726;-0.016078757;0.024062363;-0.022732463;-0.027685313;0.11292059;0.0033889536;0.081002526;0.0822152;0.042830996;-0.020385357;0.096793704;0.0007352581;0.112718664;-0.034202244;0.0859284;-0.012725999;0.10790863;-0.020405529;0.069754705;0.061056677;0.054671094;-0.018367529;-0.05134418;-0.015137024;0.051959798;0.1395238;0.059256725;0.028569473;0.06453356;0.04104666;-0.05391123;-0.062041547;0.10457646;-0.022575397;-0.042398673;0.060692795;-0.033654112;0.03329108;-0.021697218;0.047325723;0.010091552;0.13444147;0.016578123;0.055030394;0.077534445;0.061260033;0.020688798;0.047255248;-0.014058544;0.02270813;-0.055255968;0.0002105005;-0.12619972;0.061175387;0.034918334;-0.009274206;0.09501646;0.044264846;-0.0021648626;-0.006191697;0.01643432;0.06678248;0.08124629;0.035312306;0.101251386;0.07180169;-0.055552427;-0.02006922;0.07578618;0.013125847;-0.027643045;-0.003740348;0.06276111;0.0066744285;-0.040504612;-0.06578308;-0.034505643;0.06215355;0.052657936;-0.020721298;-0.07811877;0.090041935;0.04997498;0.11684239;-0.03507885;-0.053339556;0.057178374;0.10588581;0.019477967;-0.009042527;0.021390246;-0.0007222362;-0.043827344;0.08785358;-0.047906056;-0.13684505;0.056935705;-0.020158762;0.05686995;0.0766721;0.039233446;0.033552315;0.055452917;0.009160262;0.033157386;0.09943175;0.12809753;0.04625925;0.009720038;-0.04904335;-0.03938925;-0.0704152;0.031988475;0.070554145;0.042999025;-0.025930943;0.14181052;0.047406573;0.03892025;0.07195692;-0.016433384;0.047247943;0.071648456;0.16977715;-0.029437492;0.13118932;0.06292053;0.11222234;-0.011823389;-0.040509026;0.020768313;0.048625346;-0.09970285;0.076141424;0.058676895;0.060680903;0.008395385;-0.050530896;0.030012911;0.11259907;0.101249516;-0.04899957;0.08364214;-0.12407431;0.08637091;0.006747715;-0.039328385;0.0632352;0.066317014;-0.17499025;0.0034914478;0.021884663;0.14755836;0.06985546;-0.01133719;-0.050957404;0.0019019536;0.035721365;0.03283873;-0.09411283;-0.02024009;-0.05339358;0.06678515;-0.00839384;0.09415273;0.05642493;-0.07702172;0.011192841;-0.057097815;-0.1336753;-0.09212513;-0.02352397;6.327664e-07;0.018250817;0.07475996;0.10378178;0.09410974;0.066748805;0.010176677;0.054385014;-0.0040829256;0.028811961;-0.027648084;0.08528141;-0.0049131424;-0.009777782;-0.014928317;-0.02072711;0.0675051;-0.041426692;0.05665694;-0.08396689;-0.07577045;-0.05717571;0.0073627634;0.02861145;-0.019574873;0.0019856628;-0.036454562;-0.0019268544;0.08445173;0.017685702;0.16152766;0.037691604;-0.01906269;0.0106888795;-0.015982484;0.09769669;-0.047792863;0.016720038;0.10806168;0.06014959;-0.098767675;0.06777708;-0.00015312356;0.039733753;-0.02471119;0.016762428;0.15393913;-0.03203017;-0.0655959;-0.011978528;0.07772334;2.077071e-05;0.10005756;-0.04963697;0.024042247;0.0018537468;0.118364275;-0.011984638;0.0143522695;-0.05251539;0.04617494;-0.06401514;-0.040675584;-0.025828265;-0.0086716795;0.0657589;0.11098345;0.058167145;0.029792462;0.056385506;0.10835975;0.081411794;-0.025678586;0.078917384;0.035057623;0.025400493;0.02123642;0.008726948;-0.22054538;0.070337;-0.043018755;-0.018733092;0.09826717;0.043039475;0.031095892;-0.04230176;0.09234098;0.03654421;0.024672372;-0.021337822;0.010293569;0.057917915;-0.03809873;0.08869289;-0.1300416;-0.009211104;0.067608826;-0.12698126;0.014142038;0.025074104;-0.01968757;0.0142454235;-0.08631152;-0.011510799;-0.0066714827;0.04981789;0.089659706;0.11820068;0.020924913;0.04816839;0.01916135;0.049019642;-0.09712235;0.010468591;0.021774491;0.02125769;-0.0122437645;-0.04566315;0.051819615;-0.057398375;-0.032661915;0.09839634;0.0021321638;0.055772014;0.07744221;0.053526822;-0.032918446;0.0044199736;0.044226695;-0.03147612;0.048896722;-0.023437284;0.10294043;0.015148963;0.006538058;0.0067339344;-0.028498745;0.008356724;-0.07685803;0.041542526;-0.00966022;0.0011529374;-0.039430156;-0.0107543515;-0.01210694;0.07202316;-0.0798699;-0.043492235;-0.020713745;-0.06878686;0.053679276;0.0005014012;0.009985643;-0.04487007;-0.020954585;0.034801763;0.016039342;-0.093415596;0.10244372;0.020588074;0.08384372;-0.07696741;0.08563102;0.081311524;-0.034328677;0.024485841;0.057806708;0.069436796;-0.051609404;0.07776529;0.07099328;0.058710895;-0.15702242;0.05624554;-0.08177842;0.00022596208;-0.07379954;-0.0246734;-0.071125746;0.0579314;-0.014235181;-0.13853131;0.071036436;0.119594455;0.06780463;0.0092840195;-0.018921854;-0.11482741;-0.043567337;0.020881359;0.07889718;0.08163737;-0.038679183;-0.029771378;-0.006839277;-0.084384546;0.024645314;-0.029556137;0.052359264;-0.02162931;0.0027583968;-0.012052447;0.061212387;0.018722672;0.0045187795;0.072459765;-0.10371312;0.028106127;0.052515626;0.05993476;0.06160138;0.10355006;0.07809665;0.05459721;-0.03069763;-0.08593105;-0.037600733;0.079853915;-0.047266796;0.056217127;-0.007256891;-0.066411614;0.004798405;0.033319924;0.09142768;0.048418917;-0.0306281;-0.011486605;-0.08794172;0.062328994;-0.01957966;-0.0063846544;0.10612122;-0.026505943;-0.17810354;0.056297854;0.09158293;0.044112112;0.007595327
-0.07097653;0.07178641;0.11114508;-0.014053741;-0.04658313;0.04149728;0.07809084;0.12188696;0.053657588;-9.2959075e-05;0.07196814;0.039821964;-0.03188592;-0.005842054;0.04975032;-0.053156313;0.058557704;-0.054430097;0.07665566;-0.012055808;0.07274641;0.06954864;-0.039926786;0.02541231;-0.04344597;0.06308535;0.08302625;0.029568896;-0.01165086;0.029905032;0.0857913;-0.038246352;0.027845152;0.01252206;-0.008807021;0.032842383;0.033590328;0.0069007035;0.009405706;-0.022906719;0.07501904;0.07714919;0.020724608;-0.073552325;-0.005997177;0.016863793;-0.009606258;0.027018616;-0.06287164;0.10488097;-0.011541456;-0.1204551;0.08079585;0.08595636;0.006625873;-0.035325292;-0.020571688;0.00048890384;0.00725277;-0.07317954;-0.06466933;0.12682952;-0.021190822;0.08572054;-0.03279812;0.050759833;-0.00036029983;0.04939205;0.09330175;0.090407126;-0.038090743;-0.03744481;0.046960182;-0.030411677;-0.048075195;0.09415073;0.047641218;-0.0016262138;-0.08041595;-0.011438399;-0.034809113;-0.06292291;-0.018161386;0.06911126;0.08115487;-0.020723194;-0.0070142136;0.07981221;-0.019501673;0.02754335;0.015519498;0.034584224;0.027029455;0.11562856;0.0648249;-0.016424645;0.08632128;0.05018314;-0.049764004;-0.026715295;0.12985909;0.0759256;0.055023212;-0.06509208;0.059584066;0.026559675;0.021417372;0.057969764;-0.07546362;-0.059733562;0.07788098;0.041162524;0.09170574;-0.0102592455;-0.07667443;-0.045028504;-0.011060382;-0.04108279;0.1017755;-0.03270371;0.10442868;0.05923792;-0.08542127;-0.020189362;-0.0400916;0.093031615;0.10331468;-0.048949394;0.037690558;0.066390246;-0.007783541;0.07257172;0.0016767896;0.09789447;0.021060191;0.039069887;-0.060335383;0.030003885;0.08278838;0.06852738;-0.032963414;-0.11800062;0.043412942;-0.013716333;0.035056904;0.002236604;0.09575211;-0.022491207;0.0662381;0.039726835;-0.0016311854;0.05952591;-0.08128162;0.12700494;0.01064376;0.13192809;0.112841286;0.025577346;-0.036046162;0.07008456;-0.033939324;-0.0076877526;0.06650352;0.07160745;0.046299685;0.0022479347;-0.021296939;-0.06749248;-0.018880066;0.112499945;0.15827353;0.015423012;-0.048890673;0.08508935;-0.033874672;0.04925774;-0.023472982;0.07273396;-0.09944523;-0.004226309;-0.039127637;-0.015412812;-0.04854128;0.07449681;-0.04693348;-0.00454598;0.043161783;-0.08208326;0.013157474;0.018209146;0.13613263;0.007565757;0.032700714;0.03544515;0.0044571403;0.06436836;0.050937667;0.017137999;-0.022169858;0.023329899;0.043034952;0.05337028;0.065668665;0.027282894;0.07608117;-0.058249567;0.056859434;0.014626222;0.15896162;-0.021861393;0.05029157;0.026054455;-0.022390062;0.08334759;0.03367994;0.025048316;0.06904737;-0.02322743;0.005832182;0.08778455;0.017297003;0.073048435;-0.058715425;-0.053606126;-0.0034827073;-0.026955353;-0.0023532708;-0.081079595;-0.06341596;0.009280668;0.002862205;-0.061167143;-0.03926108;0.08967371;-0.04823151;-0.04013166;0.01499468;0.038805734;-0.0662624;-0.11257111;0.05641753;0.013255028;0.09990063;0.102307096;0.07585697;-0.05953435;0.10508354;-0.047240347;0.09186033;0.076115854;-0.03311974;0.056703806;-0.032226603;0.0037180956;0.1007933;-0.020236466;0.020075185;-0.014918817;0.11384654;0.091834374;-0.0790109;0.02283163;-0.01812138;0.002739308;-0.0138750905;0.014259464;0.09243138;0.08356671;-0.014818217;-0.15074874;0.07296715;-0.041112036;0.009575047;-0.03064258;0.013640668;-0.060894612;0.071071975;-0.092361346;-0.05420492;-0.040339906;-0.014161954;0.032411683;0.07242706;0.041816298;-0.024915764;-0.043730054;0.037975498;0.010967739;0.08144359;-0.049026452;0.12888463;-0.010132484;-0.024683153;-0.013527505;0.10318485;-0.05522102;0.046349097;-0.12188509;0.09549811;0.10306201;0.05419958;0.00789428;-0.018186126;0.08770013;0.13093609;0.018743448;-0.010881549;-0.02740666;-0.12497255;-0.062216476;0.062006228;-0.016648823;0.06657941;-0.002140757;-0.00864812;0.015792675;0.016531304;0.0077180597;-0.004159952;-0.07157723;0.06439367;0.09725712;-0.017499907;0.02151981;-0.028766595;0.08313618;-0.04648453;0.024191594;-0.04606086;0.054105528;0.004740552;-0.07242486;0.06838684;-0.039792564;-0.06402394;0.057006314;0.05777611;-0.0043563507;-0.010262438;0.003953975;0.11610067;0.12334225;0.052894637;-0.020495294;-0.014994789;0.08524712;0.0827504;0.042229205;0.03415873;0.025252912;0.03688138;-0.09066089;0.0012615777;-0.06439632;-0.0074495636;0.052277647;-0.09388911;0.0057068677;0.101305574;-0.041604593;0.03245671;0.09108554;-0.08534922;0.03319578;0.08442963;0.009299052;-0.0013516528;0.0451257;-0.062054947;0.12269352;-0.02846671;0.0057690814;-0.0008076075;0.08116776;0.07669324;0.027055545;0.07496927;-0.057559803;-0.0040018875;-0.041004173;0.07961164;-0.050111994;0.06732328;0.13351505;-0.011568067;0.038124368;0.012688557;0.012581022;0.067781605;-0.009480416;0.075673886;0.07913278;-0.11665194;0.017582648;-0.025223609;0.0010179154;-0.024522843;0.0719639;-0.040870722;-0.038450956;0.06822579;0.055063833;0.05564085;0.04747422;-0.016931916;0.039264116;0.0060107308;0.089408584;0.05920864;-0.04838191;-0.007828868;-0.0009886828;0.04818129;-0.013646557;0.043701414;-0.10344506;-0.031981744;0.06806857;0.09545751;0.15618922;-0.055427052;0.036216035;-0.021048209;0.0799947;-0.01749366;0.059190266;0.055179276;0.051811077;0.063593686;-0.06338066;0.12783347;-0.027094588;-0.018206414;-0.06563707;-0.074436;-0.014792651;0.078310065;0.057472132;0.00482199;-0.06596101;-0.0323139;-0.030760821;0.00013091331;-0.018181223;0.051135994;0.08107093;-0.08692704;0.0045715068;-0.051333006;0.013610414;0.0912127;0.035845824;-0.06454665;-0.035936248;-0.049719535;-0.009284781;0.093091406;0.075969644;-0.018482393;0.08488226;-0.010720979;-0.046683487;-0.0694055;0.029599022;-0.032181;0.03687591;0.052353185;-0.07427783;-0.0078077074;0.08818458;0.12129031;-0.008812867;0.010073267;0.024902446;-0.04958025;0.008454688;0.035958935;-0.005254099;0.08007633;0.08773359;0.050310966;0.013615129;-0.03824646;0.039456382;-0.014864922;0.004616379;-0.040143304;0.025794495;0.06439374;0.02421079;0.030655522;-0.033027522;0.021716552;-0.08428885;0.06488408;0.075634755;0.052159052;0.031610895;-0.09142902;0.055171203;-0.046920896;-0.031790875;-0.01193317;-0.067493685;0.07194344;0.09486359;-0.04582563;-0.035442762;0.11938095;-0.14842927;0.00633829;0.117695436;0.03958508;-0.00040677123;-0.028354088;-0.023665082;-0.026602622;0.0877902;-0.11858571;-0.025236128;0.14332041;0.06251997;-0.022775358;-0.029156705;-0.13070871;-0.04314926;-0.05433813;0.08090317;0.16290204;0.030581856;-0.001071007;0.044967107;-0.09798706;-0.09535489;0.0067438376;0.09672041;0.043288596;0.114583686;0.0665078;0.074499294;0.054865956;-0.044569533;0.028494308;-0.037630234;-0.04440972;-0.010289883;0.05417683;-0.03710187;0.1128266;0.09492375;0.051415112;-0.033756454;0.022510804;-0.035590403;-0.057156537;0.0057286955;0.05556548;0.045644805;-0.032145534;0.034976266;-0.044938367;0.054107953;0.044169813;0.035691995;0.04030962;0.036893215;-0.019850487;-0.0668951;-0.03721544;0.06725484;0.09801883;-0.09620837;-0.044471167;0.09153555;0.077733755;-0.05172124
0.059830405;0.10299641;0.08746924;-0.0428565;0.046762306;0.046874996;-0.004317289;0.023692794;0.04592535;0.061270304;-0.016234482;-0.07258585;0.08461573;0.009654582;0.043230746;-0.0010933309;0.0047251247;0.032979626;0.0064461315;-0.13444632;-0.0329756;-0.052550383;-0.028511154;0.03809555;-0.03016303;-0.005125506;-0.0334686;0.04378995;0.052962046;-0.009529175;0.01622084;-0.07798732;-0.037603926;-0.075078964;0.07472658;-0.10253349;-0.055678166;-0.009749712;0.07055515;0.06798141;0.049418252;0.095365904;-0.08646588;-0.091640204;-0.00028987622;-0.015298903;-0.044949964;0.03692281;0.03681135;-0.04430824;0.094988994;-0.025803516;0.07506243;-0.082058884;-0.013591928;-0.088241614;-0.07972423;-0.06094839;0.0046448684;-0.030076532;0.05038751;0.031863656;0.018644514;-0.07095567;-0.0608876;0.0021769195;0.048297603;0.11547291;0.041947667;-0.0025363113;-0.03680908;0.08202277;0.03442538;-0.034201097;0.05113664;0.09656839;0.043279868;-0.034797113;-0.13049142;0.0956115;-0.0650958;-0.08255996;-0.08573263;-0.017778633;0.06389375;0.041481517;0.042994905;0.09377193;-0.026552144;0.011076632;0.06746399;0.09073389;0.068525106;0.16828232;0.060359266;0.05883225;-0.011945781;-0.043729164;-0.044413343;0.054467954;0.059317645;-0.012961454;0.07109565;0.018108584;-0.062049083;0.12336335;-0.011655739;0.0683625;0.14006968;0.07443795;-0.0074314205;-0.023916274;0.055911265;0.027917137;-0.07662148;-0.068564035;0.095764525;-0.09021047;0.044525117;0.0057007903;0.06793071;0.034257166;-0.08433087;0.016291928;-0.027372194;-0.019980976;0.18621843;-0.049394555;0.082861304;-0.026128676;0.03441044;0.09661423;0.048476644;-0.047494188;0.035133734;0.02944353;-0.08244228;0.014236163;0.09729439;-0.101365894;-0.04011795;-0.16293114;0.022858229;-0.03760169;-0.04949597;-0.042064283;0.0525961;-0.08888731;-0.006373867;-0.096201815;0.0109696295;-0.0418622;0.04569287;0.12157719;0.048199896;0.1519897;-0.05062081;0.055048365;0.07934854;-0.088172145;-0.01959465;0.0021674547;0.048584428;-0.024658546;0.04575124;0.068518415;-0.063064866;-0.00074844685;0.052942317;0.043849103;0.17050514;0.11327668;-0.004507897;-0.004370268;-0.039477713;0.06338885;-0.119710535;0.14326313;-0.033996854;-0.06921866;0.07704434;0.09158886;0.004723921;0.06537815;0.07817225;-0.008895086;0.06776056;-0.037404623;-0.04753784;-0.06657892;0.06988801;0.028924797;-0.0067074504;-0.03326268;0.12027416;0.024758501;0.042367883;0.084106945;-0.026458623;-0.031216228;0.040947862;-0.0053326115;0.00490558;0.023063201;0.0026527469;-0.037231874;0.11661906;0.06453356;0.11967486;0.041051153;0.0006555477;0.013332132;0.0065838303;-0.050553266;-0.01947086;-0.06780391;0.066422276;-0.07224548;0.07311041;-0.012603895;0.09224511;-0.012010103;0.04899381;0.06241973;-0.038000274;0.07537706;-0.03337046;-0.066929124;0.05473;-0.010193373;0.034857027;0.003250606;0.08305048;-0.03428893;0.09272163;-0.06262985;-0.08320387;0.077006474;-0.10430991;-0.123226896;0.055011686;-0.054085042;0.038691975;0.01826729;-0.07399054;-0.07993397;0.053072494;-0.0002713137;-0.05181015;-0.04423455;0.019156128;-0.011979371;0.04866139;0.121305294;0.09999687;-0.003722633;-0.046734;0.071564175;0.012049567;0.09354101;-0.08560073;0.060700506;0.036722694;-0.024183236;0.064886704;0.026775155;0.048310664;0.07969748;-0.09219821;-0.070813976;0.11414249;0.030880095;-0.061501306;-0.033501726;0.0021441372;-0.0014215661;0.024285285;0.048041664;-0.036456466;-0.0700132;-0.040085055;0.06988295;0.022303313;0.021452878;-0.054278903;-0.06242081;-0.06905912;-0.023687145;0.0138635;-0.07973328;0.09368528;0.103260756;-0.012845081;-0.005050128;0.012109814;-0.093583755;-0.041266743;-0.13896503;0.12117143;0.15409324;0.03012289;-0.013248435;-0.05071832;0.09981133;0.01871724;-0.021977657;0.06033295;0.004206669;-0.09819882;-0.035906807;0.041528344;0.013746593;0.05883509;-0.029251099;-0.034564357;-0.09687538;-0.010434001;0.0937437;-0.007817109;0.059514657;0.08978136;0.040951286;0.09936609;0.12183109;-0.049262386;0.013049779;0.08580881;0.0051956577;0.069847174;-0.028175551;0.059384827;-0.007592221;0.053036142;-0.050266776;-0.042720962;0.0051523745;0.028827883;0.00098306;0.028928138;0.06864703;-0.052501608;-0.028096745;0.01801212;-0.041608732;0.017066713;0.0741816;0.064514495;0.065410934;-0.06683906;0.032927237;0.010533676;-0.11014138;0.07227162;-0.038166787;-0.0148926955;-0.07813063;-0.07660445;-0.010567457;0.05792584;0.02491593;0.09031764;0.041760966;-0.12323193;-0.058141362;0.030335447;-0.083189756;0.079041496;0.06376544;-0.05821263;0.0033948794;0.10196856;0.06223973;-0.004621195;0.055113107;-0.05369276;0.014459285;-0.036479168;-0.023070134;-0.05317687;0.035969116;-0.036869604;0.054917984;0.019595759;0.12508503;-0.029310538;0.066177495;0.10345696;0.01386167;0.045751702;-0.009228324;0.06640658;0.06828868;0.037939277;-0.050334226;0.09920248;-0.017191792;0.045298785;-0.045774896;-0.027129447;-0.0054513784;0.026914628;0.08645905;-0.0039311256;0.07211339;0.045727093;0.09733858;0.03374106;0.051030602;0.020764535;-0.017913066;0.094924;-0.016830271;0.08937288;-0.031805728;-0.012542033;-0.19108246;0.03442257;-0.042113822;0.08857721;0.072079584;0.015764868;0.034706537;0.09594912;0.04927652;0.02729025;-0.017016636;0.025263755;0.029174715;0.013562202;-0.046038616;0.080474384;0.02404574;0.044881083;-0.15950105;-0.020872073;-0.03502894;0.019715318;0.031382;0.053690553;0.008031962;0.055373993;0.016540382;0.038416915;0.08042815;0.06092368;-0.07053248;-0.021320969;0.003705941;0.004055157;-0.018300947;0.046211302;0.004053454;-0.051688697;-0.059338227;-0.08917037;0.063057;0.07703237;0.08043023;0.06315253;-0.0038092972;0.058751054;-0.008821665;-0.05120596;-0.07494729;0.059600394;-0.03967674;-0.07665135;-0.11440669;-0.008548928;0.074393824;0.11222445;0.034400523;0.12294042;0.07518584;-0.04408863;-0.026842052;-0.017882746;0.09877843;-0.077227086;-0.07518871;0.02168519;0.06398414;0.0916569;-0.09172411;-0.033543415;-0.0646731;-0.023684418;-0.059589393;0.052531477;0.04032938;0.07916984;-0.024571229;0.0604872;-0.029747548;-0.07858578;0.0030251718;0.012159012;0.08259954;0.04848394;0.0033552912;-0.052935466;0.014794162;0.009560799;-0.030152136;-0.0079689305;0.10115748;-0.06537984;0.09217212;0.110072844;-0.13627008;0.096010484;-0.018809656;0.043760903;0.0738746;0.06837616;0.10510313;0.033161525;0.083580285;-0.08019674;0.030912608;0.13889791;-0.018103844;0.054715358;-0.014285378;-0.13697147;-0.039331138;-0.020064984;-0.019694027;0.07126775;-0.053003635;-0.061795235;0.05416225;-0.025000537;-0.057394873;0.08219606;0.07885328;0.08682788;-0.050381836;0.108296365;0.110170156;0.05758093;0.015914045;0.0049466696;-0.026659183;0.041088875;0.03368423;0.105338655;-0.043379683;0.035066325;0.02400396;0.12655018;-0.015207593;-0.05161946;0.020878766;-0.02837342;-0.03615141;-0.088374585;0.082213834;-0.09507235;0.032430544;0.02882395;0.08644999;-0.00090311223;0.014071551;-0.009178957;0.027699307;0.15472813;-0.022943005;-0.0350782;0.040390767;0.038542483;-0.054482546;-0.026315456;-0.010302631;0.21217413;0.040200785
-0.029846277;-0.06108408;0.00631168;-0.07594451;0.10566884;-0.05452228;0.047554523;0.015274488;0.020092454;-0.034915455;0.019400705;-0.076479204;-0.032952767;-0.01875906;0.04564258;0.02225606;0.09838521;-0.005800073;0.06691574;-0.110787734;-0.04461863;-0.07218856;0.08349084;-0.03461722;0.00089600764;-0.015814885;-0.0041118176;-0.05411832;0.015973004;0.01708127;-0.05476928;0.01311469;0.0705873;-0.109790206;-0.042456947;0.0008613178;-0.06358492;0.020115798;0.09508402;-0.00656887;0.041987754;0.06431133;0.03844814;-0.07073444;0.017369421;0.026580628;0.007523887;0.02172488;-0.03945538;-0.03450143;-0.0280642;-0.053346075;-0.049357247;-0.11187752;0.01834912;-0.078050286;0.018495876;-0.014496398;-0.00013373459;-0.14890431;-0.05025324;-0.025267081;-0.016208552;0.107548416;-0.091880925;-0.025154933;-0.05391512;0.082571596;-0.06262874;-0.0144133195;0.05484801;-0.02444244;-0.0051634903;-0.042239506;0.09646221;0.03273415;-0.043963537;-0.019702006;-0.16743807;0.09892341;0.04401017;-0.057901334;-0.0050275335;0.118433446;0.10693123;0.05432733;-0.022814617;0.08719763;0.03302917;0.006581176;0.08854446;-0.020657713;0.03841649;0.13922714;0.0783946;0.07002106;-0.044199947;0.056625497;-0.0016168614;0.02913451;-0.005924916;0.08515876;-0.053692073;0.06384963;-0.040887758;0.061117705;0.041874886;-0.013033566;-0.022892369;-0.037403747;-0.0042848974;0.004952496;0.0792922;-0.016583316;0.051199768;-0.0028233703;-0.029087787;-0.023380037;-0.0066852067;0.055243846;0.018664258;0.0059251315;0.03928155;-0.041499775;-0.070450164;0.09749398;0.10141233;0.10858516;0.082042806;0.004349072;0.027807897;0.0889472;-0.020965494;0.06804583;0.030775983;0.0012245694;0.02710849;-0.01745037;0.060560808;0.0409382;-0.018057466;0.026588315;0.06827487;-0.0027925733;-0.06915326;0.048305422;0.01065201;-0.10625164;-0.073858656;0.0036765765;0.054970976;0.00096307584;-0.034823712;0.08908618;0.030140039;0.11591661;0.11337926;-0.026679575;-0.03178949;0.058524627;-0.022192603;-0.050653026;0.01994718;0.10319979;-0.08206069;0.054843295;0.033176225;0.08000343;0.11276385;0.010278012;0.007468043;-0.05196127;-0.006768523;-0.14838593;0.014134131;-0.048862856;-0.06290476;0.009648212;-0.10320263;0.07879693;0.12888364;0.037747756;0.02089808;-0.08858895;0.069547735;0.05957002;0.05962392;0.048663136;0.06490054;-0.003512794;0.045682024;0.027670393;0.019173432;0.06493753;-0.0062973057;-0.004202223;-0.066255674;0.06280409;0.065563515;-0.034002118;-0.044755153;0.035688482;-0.06613515;-0.062050097;-0.015513934;0.035141427;0.07487636;-0.108666725;0.004789996;0.033852544;0.046894033;0.06565184;-0.052615907;0.00641839;-0.0035189812;-0.08381604;0.078763336;-0.03763327;0.048599318;0.061299413;0.07959928;-0.028616574;-0.08537162;0.049082953;0.06760493;-0.06813989;-0.052620314;0.061580546;-0.029976146;0.081997976;0.07403229;0.016501117;-0.045008652;-0.009238392;0.077425435;-0.06431205;0.06948156;-0.106044665;-0.1210105;-0.108725384;0.0020077084;0.09725514;0.069698796;-0.041630287;0.02841291;0.07661049;-0.020572415;0.03749031;-0.035137706;-0.05308842;0.08404902;-0.030875875;-0.022584394;0.07306262;0.06248258;-0.026628194;0.007980511;-0.049415562;-0.029931027;0.013187599;-0.030580357;0.036846463;0.052097764;-0.0018184235;0.03677529;-0.036002323;-0.069619745;0.11978641;-0.07043008;-0.032563254;0.059625354;0.086542726;0.035775207;0.022572702;0.08488187;-0.08531004;0.014829488;-0.0747658;0.006158488;0.022596946;-0.07669764;0.0067663086;-0.060656145;0.06179473;0.09804144;0.023228552;-0.06907131;0.10715044;0.06497013;-0.08715119;0.07580272;-0.0057177437;0.089958325;0.067075625;0.023161625;-0.09589744;-0.020997254;-0.10110907;0.095900945;0.004801748;-0.016048655;-0.031583775;0.026354149;0.07256547;0.021779582;-0.08021008;0.020769605;0.0738389;-0.13983057;0.057879157;-0.03717507;-0.011989798;0.037341792;-0.0207401;-0.085934386;0.031696256;-0.066128075;0.061283052;0.06206742;0.060535025;0.10481253;0.12379707;-0.036488134;0.03321178;0.025536114;0.023536278;0.023761984;-0.06745975;-0.032338917;0.031979986;-0.00176536;0.0290543;0.033521336;-0.06159603;-0.06957178;-0.018418308;-0.001177492;-0.010476755;0.025341822;0.08406055;0.00674876;-0.03326907;0.011039276;0.019364571;0.01909512;0.03861898;-0.00057287194;0.07006097;0.033762455;-0.0793046;0.020547794;-0.07695974;-0.040770978;0.047547176;0.013948862;-0.057048734;-0.13130987;0.030422632;-0.010514009;-0.012551892;-0.0018969971;0.014052725;-0.08031778;-0.06391056;-0.064758435;-0.06729206;-0.056198765;0.08994603;0.073975705;-0.096986964;0.046033055;-0.05169611;0.019762184;-0.02440532;-0.011117665;-0.0046337754;-0.008689415;0.09218734;-0.06394784;-0.05678734;0.04838989;0.04090317;-0.07216625;0.12733287;0.0720906;-0.04439691;0.099944696;0.061529208;0.10099389;-0.058022488;-0.071033895;-0.0009309667;-0.005673882;0.013804013;0.052382693;0.010407896;0.055811215;0.024544448;0.015416461;-0.0149786575;-0.015791623;0.029143311;0.051717173;0.06460278;0.032198183;0.0068608476;0.08782739;0.025285227;0.12696075;0.09305346;0.09170738;0.021243976;-0.025198095;-0.0020429692;0.10241203;-0.014228808;0.055748157;0.025400277;0.06090973;0.028247537;-0.0019859246;0.048533984;-0.031893592;0.035658404;-0.044496186;0.02394315;0.057578642;0.012656805;-0.049028415;-0.029343808;0.10494713;0.044157833;-0.0024950793;-0.08727641;0.0064072935;-0.035444286;0.039026853;0.017585833;0.01100983;0.09493729;0.06628397;0.043033574;-0.022851016;-0.017832527;0.025336595;-0.047364935;-0.082151085;-0.056373544;0.08743452;0.081456296;0.052151963;-0.017444467;0.09153799;0.04549373;-0.009857983;0.0059261126;0.019379446;0.011027168;0.07497239;-0.0106285345;-0.014764844;0.012372642;-0.05238944;-0.02426462;0.08687926;0.045002487;0.074199796;0.009883504;0.11048096;-0.04722413;0.003930593;-0.0014290948;-0.01807995;-0.065530874;-0.0005176737;-0.04693076;-0.01021616;-0.009906991;0.035791047;-0.08532537;0.04432561;0.06545229;-0.024793923;0.0038513262;-0.06041412;0.044253208;-0.011189445;-0.06873279;-0.025136221;0.08954764;-0.048957307;-0.011798599;-0.060487308;0.0031202387;-0.075668104;0.121907555;-0.009810357;0.01275789;0.041745137;-0.0076823626;0.03793353;0.09124705;0.0768479;0.06175224;0.065047875;0.08544182;-0.095660746;0.09693734;0.06582746;-0.07586376;0.11526886;-0.019420927;0.12630236;0.04152913;0.08470039;-0.006927782;0.034008544;0.01013318;-0.0717934;-0.01875992;0.03691556;0.008814634;0.008540242;0.0035601258;0.00467745;-0.0154342195;-0.0033412564;0.05387848;0.03756257;-0.026468866;-0.08059954;0.046713967;0.068090364;-0.08221845;-0.011990589;-0.0017933598;-0.049984384;0.05886072;0.07835222;-0.016163284;0.004353322;-0.06337289;0.0070763584;-0.0013690905;0.044562522;-0.019647745;0.039013695;0.042130835;8.479068e-06;0.009474242;0.025361132;-0.07728044;0.12372557;0.0053317067;0.031815983;-0.04033331;-0.07868987;-0.023669017;0.017291185;0.032307353;0.019840036;0.06729934;-0.035512295;-0.01782476;0.016043972;-0.081216075;0.076858394;-0.011665095;0.066999815;0.017886305;0.07765811;-0.026128076;-0.053112917;-0.0074705076;0.13903621;0.049131252
0.07667952;-0.05465225;0.07249054;-0.0004219528;-0.007646716;0.07692917;0.0059482767;5.497431e-05;-0.0025988906;-0.040661972;-0.022438925;0.072470084;-0.076272964;0.053306762;0.007859205;0.07418477;0.087121844;0.02585411;0.023248851;-0.09146356;-0.034538448;0.068012685;-0.01694241;-0.062930964;0.11778119;0.001657131;0.0003003529;0.034255423;0.070133105;-0.07231977;0.036779664;-0.030026717;-0.015259078;-0.0144835105;-0.0038250037;-0.05693181;-0.042768784;-0.0026667474;0.07679174;0.09372098;-0.026279278;0.0016623056;-0.012572894;-0.023561241;0.08098038;0.023962067;0.08693644;-0.0064849234;0.054591473;0.045817476;-0.04702696;-0.1000994;-0.07355522;-0.14805233;-0.010794158;-0.0056061116;0.032479126;0.042766184;0.08709952;-0.17818943;-0.09227321;0.09695708;-0.058711044;0.07233729;-0.14051053;0.018351639;-0.03238118;0.09025356;0.037053462;-0.02493815;-0.023237923;-0.00894934;-0.060754858;0.043549567;0.013494009;-0.042953502;-0.03118401;0.0742529;-0.021599988;-0.009356461;-0.045937143;-0.08084933;-0.064720795;0.062063716;0.043825578;-0.014329721;0.037685916;0.042900313;-0.001202133;-0.0035420095;-0.017987953;0.044192422;-0.0016976813;0.06180766;0.08448465;0.084238894;0.01324866;0.01018424;-0.024114223;-0.07390385;-0.021515429;0.07596323;0.047514036;-0.012841137;-0.07010925;0.025750887;0.045226716;0.024147179;-0.030973505;-0.0064705866;0.01892503;0.015684783;-0.029518196;-0.03296418;-0.040714473;-0.017752068;0.07642207;0.036934417;0.027138054;0.055877406;0.007779352;0.05179079;-0.069704756;-0.022340873;-0.035860587;-0.029541673;0.07273978;0.030163677;0.08490408;-0.041283317;0.01945941;0.020723365;0.08840391;-0.0678312;0.07157748;-0.052402966;-0.09871661;-0.07857947;0.04137159;0.058874086;0.04316199;-0.045084167;0.030025199;-0.009283255;0.04959676;-0.0026676985;-0.042308234;-0.027827555;0.03728754;0.038561646;0.08417826;0.03071719;-0.055708595;0.06688514;0.031799648;0.061617088;0.08513822;-0.012958957;-0.009460879;0.06523321;-0.06874858;-0.041423522;0.015410031;0.00078471797;-0.07041517;0.07013891;-0.06825239;0.09409662;-0.027633598;0.07694207;0.12577465;0.05758381;-0.063371934;-0.08342722;-0.03243429;0.011651717;-0.09079435;-0.035868414;-0.084857486;-0.042147085;0.06608308;0.014272112;-0.11594899;0.04059059;0.06287722;-0.016242316;-0.012712992;0.07499127;0.06903373;-0.07372011;0.071640134;0.043755427;-0.053558186;0.010329645;0.01471945;-0.07554169;-0.01542595;0.0729092;0.06338199;-0.007915983;0.011735863;-0.043322;0.04780643;-0.06650368;0.054138947;0.048221547;0.14880182;0.031948864;-0.019825105;0.04820698;0.040928148;0.026457556;-0.0013374286;-0.0012264426;0.009903418;-0.077731974;0.075366184;0.036741294;-0.04880293;-0.035729934;-0.039532136;-0.0064274967;-0.059452932;0.024675958;-0.022376567;-0.051969994;-0.0288685;-0.012981249;0.0049998304;0.08744993;0.07874781;-0.008712842;-0.047918003;-0.0027446232;-0.008525153;-0.06594951;0.047668695;-0.035318993;-0.03331382;-0.18766785;-0.011419361;0.07859304;-0.021407513;0.030263854;-0.041024018;-0.055283863;0.005621027;0.021964263;0.060588915;0.06916701;0.09876926;0.088964336;0.07226785;-0.017266411;0.09479568;0.030554557;-0.012029197;0.011520504;-0.03912442;-0.014219716;-0.0016046471;0.089094624;0.051094484;-0.114194885;-0.0448711;-0.08133708;-0.017428163;-0.019074744;-0.12721695;-0.09708704;0.0021332076;-0.03149362;-0.03968116;-0.017498564;-0.01497665;-0.07099314;-0.07180639;-0.029226027;0.05944717;0.012911443;0.016162012;0.009281326;-0.028554898;0.061735626;0.05920789;0.017700868;0.006427953;0.044875883;0.06631016;-0.09379194;0.06605359;0.13941874;0.043417804;-0.032976113;0.087517835;-0.11415946;-0.059216276;0.006370042;0.06893712;-0.003710196;0.033799972;-0.022654708;0.029334059;0.11645723;0.12771644;-0.0017500635;-0.009345186;0.038460515;-0.07195068;0.071653694;0.017409896;-0.058081284;-0.06362524;0.049709313;-0.04356958;-0.05460362;0.02844466;0.028387992;0.022910018;0.051850658;0.064420514;-0.011709686;0.018317956;0.12483919;-0.049513977;0.06547268;-0.06512804;-0.049330577;0.023664573;0.039956935;-0.060934305;-0.014483075;0.04827682;-0.018179584;-0.12431961;0.058932446;0.024029693;-0.07889736;0.016795306;0.037582617;0.061010186;-0.055643458;-0.047543257;-0.05831449;-0.055247877;0.09750951;-0.01972957;-0.0017608354;0.03892544;-0.063728854;0.008548571;-0.006042429;0.0663792;-0.024786785;0.03598341;0.06028978;-0.095648125;0.06501895;0.038181517;0.052760493;-0.010125739;0.034448467;0.0138886;-0.06563459;-0.06753828;0.052182086;0.025858875;0.117294796;-0.09163896;-0.04819933;0.061116498;-0.073710114;0.075469;0.10418103;-0.11283565;-0.042047795;0.09695852;0.054037746;0.02459008;0.038073193;-0.0108555695;0.04780627;0.03183477;0.1064568;-0.06681501;0.04261529;0.052192878;0.12943688;-0.0532046;-0.057587676;0.034151044;0.021697924;-0.0095718345;0.13370773;-0.005036278;0.0717642;0.101351164;0.05825171;-0.023824718;-0.056005213;0.06976514;0.03507609;-0.058625367;0.063695066;0.004544995;0.07011629;-0.05216278;0.021619992;0.097814955;0.019791258;0.037919052;0.051559687;0.032414284;0.00648087;0.082147144;-0.06483842;0.049933404;0.08990947;0.013543649;0.012215654;-0.004777478;0.12048214;0.052781016;0.008124415;0.087855004;0.08309676;-0.011660083;0.028357008;-0.050505158;-0.07020364;0.07546042;0.03195034;0.05340984;-0.041965462;-0.048367828;0.11684244;0.08349274;0.12991066;0.030060085;-0.06659256;0.075712286;-0.13548902;-0.08579695;0.025648935;0.13222946;-0.022980306;0.003907149;0.060205393;0.10318507;0.028057834;0.057181407;-0.0021945124;0.11131984;0.038420558;-0.048872884;-0.04982185;-0.062719226;-0.02427402;0.06657418;0.030811414;0.07868148;0.05088957;-0.022634633;-0.017037522;0.10308478;-0.008223211;-0.0598583;0.0030898675;0.11766464;0.11566937;0.100850746;0.02149862;0.009683428;-0.0065072975;-0.06772739;-0.10042345;0.03848351;0.083542496;0.05254683;-0.009911008;0.055546887;-0.04355601;-0.031948224;0.056447193;0.073926;0.024104843;0.057307594;-0.06408692;0.0644851;0.07870634;-0.046134584;0.08149489;-0.046438176;0.13019128;-0.002898463;0.11163248;-0.038107693;0.014737599;-0.06640321;-0.034276936;0.07860075;0.07304329;-0.009508223;-0.063639574;0.027978541;0.056412842;0.06417212;-0.047861528;0.021541772;-0.13361275;0.019642988;-0.053090215;0.034615997;0.05898821;0.0438022;0.13312934;-0.0025563065;0.09942905;-0.00040225283;0.12391664;0.0040232274;0.0889986;-0.034584515;0.10640958;-0.08374864;-0.03627649;-0.005925387;0.04232148;-0.017476272;-0.04328555;-0.056820814;-0.0038598916;0.02278701;-0.103544496;0.0625511;0.050447997;0.007893793;0.07259181;-0.04137521;-0.012112273;0.07316137;-0.054248367;-0.090962395;-0.043898728;0.105805375;0.008953443;0.119819604;-0.05929662;-0.0143191805;0.0017254789;-0.010142768;0.06119847;-0.021081507;-0.048511293;-0.02485056;0.056795344;0.031805277;0.020834405;-0.02140327;0.046634838;0.025063625;0.0935976;-0.044379644;0.0066286367;0.049364816;-0.06239859;0.13927254;-0.060416862;-0.08299672;0.0018755032;-0.061385322;0.0058084684;-0.054772384;-0.0014514959;0.01140635;-0.06854312
-0.03940538;-0.12139122;0.114256285;0.010353026;0.017163392;-0.06819736;0.08047157;0.107250705;-0.052195802;-0.0075920653;-0.028691644;-0.018408671;-0.051716514;-0.066541605;-0.02202876;0.006918435;0.040737003;0.08004151;-0.02238925;0.05780503;0.04097688;-0.033318274;0.031642374;0.0030100476;0.12318597;-0.009789476;-0.031573683;-0.026499271;0.08974751;-0.04649168;0.04218479;0.00030462054;0.027957225;0.019028101;0.042641938;-0.15687759;-0.1145261;0.07044485;0.12723197;0.04732855;0.05840161;0.02512823;-0.05045982;0.010208247;0.05777065;-0.081857584;-0.03597687;0.103992425;0.070416614;0.053370237;0.06006579;-0.047394533;0.06345099;-0.10077425;-0.005883498;-0.12689254;0.06225095;0.04696144;0.102877825;-0.046096906;-0.030819284;0.0065043326;-0.0537297;0.111126535;-0.0191577;0.11187;-0.07538337;0.12422761;-0.07417681;0.08430101;-0.010366868;-0.012640275;0.005797901;0.0051390384;-0.035887;0.041878324;0.002427624;-0.047965802;-0.044621423;-0.04437296;-0.0061572776;0.05809997;0.06037755;-0.01570986;0.015512274;0.025373911;0.03462585;0.0721959;-0.096148014;-0.08019427;0.023172176;0.05931242;0.00697495;0.074063666;0.051365517;-0.015662787;-0.044148933;0.025579711;-0.00553788;0.00844802;-0.07655773;0.009402623;-0.010328514;0.05549894;-0.007537511;0.030129613;0.08418554;0.07684246;-0.11342162;-0.016417433;0.06013065;0.021621734;-0.034952197;-0.025178513;0.060059913;-0.0825939;0.00917687;0.08578583;0.04724907;-0.02154087;-0.06784524;0.014733327;-0.062349945;0.061267067;-0.08583652;0.011167447;0.10091627;-0.047567483;0.050297353;0.024858223;0.045641914;0.065050766;0.08705497;0.055798534;0.13261475;0.043709543;-0.04386208;-0.000576371;-0.015186211;0.05065309;-0.054436125;-0.03225409;-0.07299037;0.038234126;-0.07027994;-0.056972567;0.01138777;-0.027586637;0.05194339;0.027532466;-0.02291899;-0.020693563;-0.07163606;-0.06935506;-0.021176517;0.009731231;0.018404773;-0.009207547;-0.056644823;-0.032557826;0.00547989;0.040030092;0.0006201895;0.06629214;0.06186033;0.07581536;-0.061225154;-0.051769912;0.11250849;0.052070018;0.094034754;-0.017495118;0.0013913071;0.06553859;0.042110547;0.05826966;0.071511455;-0.0045402097;0.02593878;0.034413565;0.037324328;0.012726356;-0.055667955;0.026856858;-0.02186389;0.04492612;-0.024303956;-0.010627943;0.08844971;-0.019949645;0.017097313;-0.018632388;-0.10083852;0.044325583;0.07087032;0.0848565;-0.0417405;0.009284846;0.05954777;-0.09370677;-0.04760873;-0.01371585;-0.055994354;-0.039010845;-0.024305314;-0.038012937;0.10018069;-0.04251111;-0.11432377;0.02085626;0.005843057;0.059154306;-0.016391495;0.06837061;0.059979405;-0.014625053;0.037750307;-0.031407386;-0.03436545;0.08984719;0.08961349;0.040393133;-0.0795398;-0.012443911;-0.087183006;-0.07737069;-0.031942405;0.103277035;0.021542283;0.053377524;0.06352056;-0.009825334;-0.091925345;0.10086658;0.019389601;0.017510783;-0.05386997;-0.044670805;-0.052500155;-0.034539316;0.076309845;0.06412762;0.06398798;0.021789208;0.009606973;-0.03240275;0.080157615;0.025967285;-0.030767076;-0.05844756;0.07799595;0.009462182;0.07103627;-0.09699002;0.115234286;-0.022568898;-0.020848788;0.008762551;0.07514729;0.023847653;-0.09015529;0.07457525;-0.01065071;0.007847777;-0.06616067;-0.11447045;0.07575341;0.050360687;-0.0039495775;0.08784697;0.0727069;0.02645997;-0.04588649;-0.009823107;0.20104538;-0.00018164163;-0.02799615;-0.103964075;-0.034550566;-0.10449201;0.023991266;0.10808636;-0.03009502;0.07936779;-0.0024374689;0.052975863;0.06910335;0.038447376;-0.110683754;-0.081641644;0.058985475;0.14358822;-0.032478806;-0.07111457;0.048968676;-0.063961156;0.0870706;-0.20388353;0.1671721;-0.0020254725;0.08257033;0.10999336;0.026782583;0.020781701;0.04776661;-0.012355247;-0.059832178;0.06682055;-0.118850425;0.019581972;0.03191822;-0.07102943;0.07532637;-0.017711213;-0.007977348;-0.005166105;0.03439746;-0.035873536;0.046179406;0.0022174665;0.052286208;0.1755512;0.0024557495;-0.02092205;-0.06541098;0.08337145;0.04637924;-0.06853659;-0.06768617;0.015644306;0.060839;0.036066316;0.025491176;-0.019281968;-0.051067036;-0.049992535;0.08429223;0.02367134;0.097818054;-0.055758946;0.06427795;0.060620863;0.10300722;0.02804715;-0.104079165;0.11382736;-0.09600198;-0.040343404;-0.061938263;-0.027831346;-0.029568767;-0.025468681;-0.025187418;-0.03774279;-0.01998629;-0.0029848083;0.02977632;-0.06424622;0.04006721;0.026351176;0.07202728;0.04108113;-0.15771678;-0.0306719;-0.010512049;0.037337095;0.0395884;0.060803108;-0.057461582;-0.11242915;-0.03265896;-0.009858395;0.100403115;-0.0019179654;0.07044488;0.10336904;-0.07198541;-0.046646163;0.03838519;-0.04554786;0.0834294;-0.0016253622;-0.100835726;-0.057783127;-0.0064110644;-0.011988217;0.05843576;0.061522733;-0.024259517;-0.045101635;-0.02111774;-0.07637222;-0.035803117;0.11876709;0.036569778;-0.038940396;0.07997809;0.0728205;0.011366083;0.029589482;-0.06946202;0.0014479698;0.03204671;-0.04355985;-0.08613125;0.013991572;-0.039325863;0.13913687;0.00037071097;0.005858387;0.017053004;-0.033574067;-0.0350932;0.08482527;-0.054015446;-0.029779827;0.093425676;0.046808228;0.03978123;0.13375059;-0.08412569;0.15967993;0.10656669;-0.03543724;0.021688955;-0.022222474;-0.003037004;0.07331468;-0.097078405;0.029177323;0.06531956;-0.18427686;0.08215918;0.10573867;-0.021007154;0.084306166;-0.02038521;0.05309036;0.05878487;-0.06702025;0.054769833;-0.14927277;-0.015546862;0.06302442;0.06904836;-0.06034637;-0.15129164;-0.007708088;0.063859805;0.074749246;0.036281038;0.0026661064;0.1456235;0.061920892;-0.14008555;0.07192826;-0.0325828;-0.05848058;-0.07257966;0.046973865;0.034704555;0.0015970275;-0.063452825;-0.072903946;-0.023076659;0.047945727;0.043267787;0.06735149;0.16098548;0.0436294;0.09499889;0.08316998;0.005324483;-0.028350657;0.046034448;-0.14495529;0.048306607;-0.019898692;-0.002992051;-0.057351407;-0.09383211;0.06931801;-0.016302291;-0.07857902;0.044837855;0.007408898;0.016268745;-0.04867141;0.037136998;0.013209712;0.0027854638;-0.04587753;-0.04274564;0.07493168;0.022921529;0.10341798;0.012597231;-0.022160731;0.05073489;0.008496168;-0.043770947;-0.040956415;0.0464463;-0.037886556;-0.030368742;0.0048398473;-0.06697233;0.047136545;0.007872314;-0.08387519;-0.027740428;-0.007988053;0.05629412;-0.06517969;-0.016796634;0.06529401;0.10556693;0.07665047;0.007897127;0.04802208;-0.014922366;0.030859945;0.06937847;-0.025803914;-0.041964855;0.087984286;-0.0034383459;-0.0206927;-0.08382732;-0.03604626;-0.048893306;0.03842704;-0.03070316;0.06713566;-0.018029563;-0.082895674;-0.011754562;0.12774527;0.027492391;0.068856426;-0.019337784;0.021986019;0.08648629;0.10394005;0.108545125;0.075431064;0.08767223;-0.015161065;0.020106621;0.13176581;0.08637209;-0.013673807;-0.041600283;0.09753364;-0.0046182103;0.038835537;0.0346292;-0.016491333;-0.067229934;-0.039811537;-0.0006629329;0.03862207;0.0392693;0.0051099514;-0.0009165165;0.02736206;0.107076444;0.0016958247;0.10366415;0.025662517;0.027956305;-0.11836112;-0.008836175;-0.057300936;0.11702582;0.041925393
0.06992178;-0.042575967;0.0876278;-0.027040523;0.031143906;-0.049690284;0.04831742;0.06645317;0.034534104;-0.052371945;0.07127183;-0.0051356927;0.024819415;-0.06132879;0.10101564;0.09823688;0.06131143;0.04453742;0.046865527;0.091947936;0.033778142;0.09819058;-0.012210059;-0.047726598;0.119402684;-0.033976935;0.019969396;0.024623366;0.06802668;-0.08891218;0.03926557;-0.025280891;0.026143732;0.014294997;0.042624805;-0.10656728;0.003224934;0.010705752;0.013998835;0.007042571;0.07224671;-0.026541492;0.011847132;0.03846278;0.14697163;-0.0026122802;-0.010857793;0.012351969;-0.0076994514;-0.008090681;0.02439401;-0.026721617;0.010205422;-0.0064567067;0.11175457;-0.049212098;-0.015428004;-0.05776126;0.06524298;-0.039172832;-0.05163198;0.1214279;-0.05127202;0.034881443;-0.094567806;0.10425202;-0.056133136;0.07237098;0.028108066;0.056778874;-0.08075295;-0.004345584;0.09340871;-0.04106691;0.008173821;0.016343223;0.011976644;-0.0027788023;-0.11768212;-0.0652514;-0.028920095;4.7442736e-06;-0.0038140353;0.019692611;-0.05733043;0.07831338;0.0118816495;0.059978697;0.06581192;-0.0827135;-0.010294905;0.051871676;-0.07368549;0.039582334;0.015709972;0.02841232;0.06481872;0.014474918;0.058742028;0.036569465;0.03061949;-0.010754348;0.072076365;0.027491782;-0.036513682;-0.09506071;0.026361851;0.085136555;-0.03766714;0.069113225;0.028929004;-0.012448766;0.062262405;-0.037808314;0.03135805;-0.08891827;0.11696014;-0.038888574;0.07916267;-0.00013870116;-0.0696396;0.04196729;-0.039121773;0.043943554;-0.023645945;-0.060552776;-0.07239024;-0.026434967;0.0113170445;0.07911476;-0.0730893;0.072611526;-0.026962752;-0.05374127;0.07037054;-0.055147;-0.022384766;0.009447413;0.10369174;0.18493012;0.01577966;-0.08067885;-0.13681957;-0.052010935;-0.07310477;0.041050382;-0.09813664;-0.0638725;0.00998317;-0.10536748;0.10336633;-0.017601395;-0.09866718;-0.051959384;-0.05022901;0.10373792;0.010985593;-0.10847204;-0.061306663;0.048959624;0.0097210705;-0.022799429;0.056364134;-0.059401114;-0.07216671;-0.004103053;0.005843103;0.013473547;0.09518921;0.07037412;0.026404334;-0.007731929;0.022008196;0.09699163;-0.017917026;-0.052003533;-0.030827865;-0.096651986;0.045402467;-0.049451582;-0.053340133;0.062741116;0.0051494413;-0.034002542;0.073013134;-0.0024681417;0.050949622;-0.080173455;0.06287245;0.035363283;0.009739821;0.084055774;-0.030057242;0.10135233;-0.16378883;-0.05495952;0.027362557;-0.031435374;0.02576876;-0.037528016;-0.054593183;-0.034021724;-0.06434743;0.07903832;-0.0010804445;-0.005975394;-0.004623287;0.021227092;-0.08310725;0.008154831;0.0060003237;-0.049003493;0.040155973;0.072046004;0.092383586;-0.045720093;0.030732092;-0.04769127;0.032387655;-0.037107073;0.10712486;-0.05548339;0.048847705;0.068405114;-0.048975393;-0.06281635;0.046660323;-0.0061001587;-0.073614694;0.12083526;-0.056877114;0.018379908;0.00962591;0.019151552;-0.08218742;0.047112677;-0.023734156;0.033197783;-0.09182099;-0.055464342;0.06702126;0.048930172;0.092117906;0.115092754;0.060363013;-0.06177359;0.04994933;0.0073867724;-0.06906698;-0.06404843;-0.02933799;0.082566865;0.07131321;-0.006552399;0.097435325;-0.052648272;-0.005047547;-0.010275268;0.10860581;-0.042933162;-0.10543105;-0.008911529;-0.04533393;-0.09208016;-0.029219007;0.019409167;0.050130077;0.07662587;-0.083132885;0.11563122;-0.016541706;-0.113593385;0.004971186;0.008438763;0.15548329;-0.011784612;0.033907346;0.026846297;-0.032291673;-0.15483657;0.052441414;0.039615657;-0.023245178;0.0022430404;-0.024664862;0.0439266;0.062910914;-0.033985134;0.032602664;-0.0080242315;0.07193128;0.14808133;0.06401116;0.02254743;0.1357696;-0.04032911;-0.047724474;-0.06541332;0.14211752;0.06674892;0.06394595;0.06887234;-0.016027251;0.019566227;-0.008152169;-0.09573024;0.022132697;0.1350266;0.0030489333;0.04008102;0.021804545;-0.08829027;0.037015483;0.06523924;-0.013304076;-0.07270774;-0.01996578;-0.083348654;0.029772524;-0.06925225;0.012202496;0.11197676;-0.015452892;-0.021713024;0.018055903;0.17146388;-0.025443548;-0.0718319;-0.04361776;0.025225857;0.06919555;-0.05343407;-0.018552816;0.03900877;-0.091374554;-0.024953097;0.013130163;-0.016848512;0.08181655;-0.04562532;0.039326444;0.09087894;-0.04621315;-0.09029587;-0.10448333;0.004200539;-0.019776283;0.0118064685;-0.033707004;-0.08989621;0.013098633;0.056379113;0.06356104;-0.07572642;-0.030619347;0.058008406;-0.109234884;0.057475515;0.02531599;0.038931984;0.09662176;-0.071768194;-0.07974434;-0.070295244;-0.01971872;0.033592362;0.054833483;-0.0026016403;-0.07214047;-0.06193051;0.012051338;-0.087474614;0.0844406;-0.044920348;-0.017393865;-0.040062927;0.024868902;-0.062022347;-0.054225225;-0.03355287;-0.039266475;0.049484376;-0.022566164;0.042127803;0.0041589164;0.010928626;-0.0012644355;0.1463424;0.022153078;-0.055115588;0.042603143;-0.09919778;0.015444718;0.15840788;-0.116602026;-0.044394817;0.08140205;-0.0370964;0.06406245;-0.024213998;-0.021696603;-0.066311374;0.037882447;-0.06286127;0.0054283957;0.08972708;-0.060456093;0.1353171;0.10887875;0.036632378;0.011154493;-0.014235199;0.03463387;0.12350323;0.028398901;-0.021914586;0.10803015;-0.019813823;0.0558768;0.10323926;-0.09451869;0.1529674;0.09631431;-0.04453291;-0.04989751;0.05675866;-0.0648507;0.040567614;-0.029641243;-0.019995132;-0.002679623;-0.09053129;-0.06388887;0.02342191;-0.06636509;0.07933611;0.0040123;0.049681712;-0.039346404;-0.054118883;0.061940454;-0.13289644;0.02504042;-0.033320405;0.18362023;-0.059120666;0.02781676;0.015109031;0.021338424;0.11273572;-0.033331305;-0.03619383;0.0262767;-0.07166825;-0.10604037;-0.010954154;-0.038696952;-0.019396514;-0.002057562;0.10155278;-0.021592258;-0.0041544386;0.055162705;-0.01141045;-0.011291769;0.09492791;-0.052504696;0.07361271;0.10713842;0.036575515;-0.03212116;0.10352958;-0.011479319;-0.02334363;0.018476326;-0.019223409;0.03532648;-0.047296856;0.037640184;0.025113354;-0.07351266;-0.05411;-0.047628798;-0.01310626;0.099683516;0.053519566;0.042738486;-0.024387127;0.077209145;-0.0042616334;-0.0033424702;0.06438933;0.0021886863;-0.05638901;-0.054997385;0.11526053;-0.032168213;0.060712732;0.039256684;0.0055717085;-0.08754841;0.00167514;-0.015948221;0.011136336;-0.06595216;0.110867016;0.048589572;-0.027283616;-0.015272191;-0.11599996;0.011132343;-0.012988404;0.12574683;-0.016814062;0.0007473683;0.005486747;0.070818275;0.0027365384;-0.066398025;-0.0064557292;0.019112762;0.11760686;0.019056235;0.026049804;-0.1534582;-0.043808594;0.058545474;0.013467345;-0.037877448;-0.0012279549;-0.044304486;-0.012576742;0.06890373;-0.059214402;0.0841361;-0.05880541;-0.032963376;0.09387405;0.0335766;-0.03195809;-0.018341184;-0.080515146;0.05972475;0.06876277;0.11380675;-0.02342466;-0.018118497;0.0012783903;-0.02594312;0.048695315;0.091980055;0.0100095505;-0.08246187;0.029343983;-0.029169675;0.068683945;0.016077427;0.023854265;-0.034917995;0.0930305;0.036235966;-0.017090995;-0.021406163;0.04702956;0.08102872;0.011061692;-0.0074297404;-0.006925441;0.05580557;0.13160188;-0.052123193;-0.12777849;-0.065637514;0.081633285;0.07346806;0.059291016
0.08329557;-0.071475066;0.05409893;-0.023794299;0.08860549;-0.02950999;-0.043910176;-0.016924715;-0.042773657;-0.038822923;-0.049819272;-0.04086308;-0.10882521;0.10253365;0.021100035;0.06925543;0.10089308;0.07606607;0.07157672;0.021129742;0.08454097;0.062462635;-0.017837625;-0.019175781;0.20169023;-0.027322097;0.09809026;0.08304751;-0.0084784385;0.044955682;-0.061622594;0.019671673;0.088996544;-0.055444326;0.055853255;-0.06790753;-0.10068621;0.0689884;0.008890653;-0.0046224687;-0.020822478;0.07040109;-0.10683202;0.05743332;0.03510614;-0.08316138;0.011805619;0.0005730044;0.028366195;-0.10470816;0.026196465;-0.1629969;-0.10739116;0.037378874;0.09408932;-0.039094787;-0.021554023;-0.036785115;0.06058884;-0.14569087;-0.07250441;0.1589041;-0.10098368;0.0016137155;-0.07783027;0.08335377;0.062744506;0.09671584;-0.0895156;0.017133147;0.066488676;0.11502375;0.09326767;0.054294538;0.027050214;0.10584305;0.11147649;0.08936612;0.04514941;-0.10705353;0.1009307;0.010513033;-0.016686993;0.123193406;-0.02292216;0.0017348919;0.060265414;0.010764083;-0.08974271;-0.029434713;0.06436545;0.07449128;-0.018151086;0.079560354;0.10271293;0.047321297;0.06113705;0.03702297;0.03294039;-0.05040409;0.053996246;-0.032329153;-0.070782274;0.045530602;0.038861442;-0.05519482;-0.011078846;-0.04506716;-0.0042302296;0.03807455;0.021664776;-0.007046711;0.048078813;-0.053859115;-0.01135266;-0.036973786;0.112658545;-0.03835013;0.03886445;0.018407628;0.0741326;-0.05672067;-0.099160336;0.10503428;-0.109328285;-0.014005713;0.042075817;0.06595251;0.071148805;-0.08377966;-0.09846886;-0.002760992;0.12385585;-0.060004853;0.08086423;0.07016454;0.052282613;-0.070998296;0.038783766;0.15747792;-0.017184485;-0.07842667;-0.059941985;0.036806777;-0.07484046;-0.017130982;-0.03364782;-0.10905738;0.13123475;0.021391725;-0.009296321;0.00268638;-0.04325904;-0.02419645;-0.05572824;0.09608011;0.07794199;-0.06968743;0.05265745;-0.04091016;-0.024797272;0.015085145;0.045965616;0.050931066;-0.08369462;0.07015468;0.013151457;0.03779598;0.0919889;0.08488781;-0.02807877;-0.0302358;0.055999283;-0.03951005;0.058797356;0.026156433;0.11333044;0.057931744;0.056488782;-0.054620635;0.10349781;0.044512503;-0.05646769;0.012995067;-0.040876295;0.067933045;-0.048816986;-0.017322613;0.0008912128;0.00084272976;0.013163496;-0.038928464;0.016281022;0.004992216;-0.07072295;-0.044121396;0.049408596;0.00326191;-0.047320656;-0.11154288;0.014004185;-0.050823543;0.051448666;0.060850013;0.006720713;0.02525026;0.14708312;-0.050637517;0.026657272;0.015072326;0.1292035;0.032926343;0.0684073;0.017049517;0.113284655;-0.079651564;-0.024257848;-0.10356835;0.006918323;0.007335832;0.13045871;0.09212204;-0.058740154;0.049153127;-0.10020691;-0.10685104;0.03463908;0.01494612;-0.012814599;0.123523496;-0.0455227;0.039378863;-0.11741374;0.02621058;0.04543176;-0.10343414;-0.034972508;0.032699436;-0.15585649;0.036693443;0.010451712;0.056699816;-0.028927356;0.034655396;0.044833317;-0.049368534;0.112333454;0.039027303;-0.010817487;-0.010932134;0.09804735;0.053732306;-0.053454712;-0.031650063;0.12124041;-0.0099274535;-0.050699014;-0.018271262;0.030497123;0.013643092;-0.1483103;0.012586932;0.010260527;0.04971565;-0.02993053;-0.047830727;0.011803783;-0.007294357;0.020718224;0.1094179;0.09844277;-0.117102854;0.053514447;-0.0016982601;0.03358645;0.004032906;0.054820623;-0.003450161;-0.046850577;-0.11531933;0.059976228;0.14623062;0.011618434;-0.0052087377;0.086898066;-0.07220311;0.054869436;0.0017210344;-0.09010712;0.031543758;-0.019488944;0.19904487;-0.018339984;0.011790037;0.11515777;-0.12050009;-0.033080056;-0.16222996;0.119943194;-0.087270424;-0.056614835;0.13002527;-0.027561756;0.01389263;0.084409334;-0.14925033;-0.017185543;0.089206465;-0.07801238;-0.114918806;-0.034431335;-0.056785587;-0.04430166;0.070198655;-0.09064826;0.037357442;0.05964908;-0.1001239;0.030975997;-0.027911795;0.035385925;0.1388491;0.12100782;0.0027775555;-0.050183777;0.12493097;0.023252057;0.08151999;-0.053947933;0.052181955;0.048114672;0.0697463;-0.08716099;-0.041693836;-0.014089376;0.05269609;-0.11687421;-0.04841737;0.09038348;-0.045141693;0.031219294;0.13285539;-0.02048642;-0.009749259;-0.07995429;0.09321591;0.019358173;0.05615579;-0.013256992;-0.116609365;0.12902229;-0.029609205;-0.025567222;0.0017647523;-0.001414024;0.003131628;-0.11127977;0.13559741;0.005650187;0.07588459;0.08733036;0.0637113;-0.16342866;-0.043822233;-0.019390648;-0.07871908;0.028790208;0.030916158;-0.08066577;-0.037545934;0.081293546;-0.075934656;0.06516266;-0.03159457;-0.0007644384;0.06102273;-0.09541329;0.10990846;-0.088711575;0.03573056;0.029095989;0.047050104;-0.11485337;-0.005354258;-0.12676881;-0.020453317;0.057838045;0.00602579;-0.0004915812;0.035786893;-0.028253904;-0.13958558;0.017535273;0.09124123;-0.023416987;-0.0396991;0.047135614;0.05237416;0.0658647;-0.0808859;0.007424249;-0.08850945;-0.010934359;-0.09159018;0.017087612;0.0016404073;0.04480887;0.13930057;0.072094865;0.10056451;0.030292338;-0.020290704;0.09825848;0.035279848;-0.019126212;-0.08410067;0.032826148;0.04522489;0.03195481;0.044010412;0.017680915;0.18033405;0.034185134;-0.037816267;0.030354565;-0.050071046;-0.06053854;-0.022892868;-0.029157465;-0.027510067;0.09974845;-0.13295317;0.011264929;0.029781923;-0.03938063;0.09162035;-0.00911192;-0.028558023;-0.0028961417;-0.029691491;0.06449901;-0.15729578;-0.023283068;-0.08297144;0.045258444;0.020308016;-0.0661322;0.017476937;0.016281148;0.1399516;-0.044230524;0.0028227752;0.013419212;-0.02534386;-0.09024717;0.032834537;-0.048038114;0.07557511;0.00840948;0.076074384;0.11242247;0.059744745;-0.08719145;-0.043250702;0.08297098;-0.015028935;-0.09206585;0.02864648;0.08421438;0.046024706;0.05931408;-0.0034411715;0.101778574;-0.06552562;-0.10851211;-0.01888162;0.07220853;-0.043163627;-0.029135333;-0.061253384;-0.026629904;0.06489337;-0.034211107;-0.01653295;0.07869192;-0.07191754;0.021094887;0.067557946;-0.08815503;0.04356952;0.035304837;-0.017448407;-0.09109263;-0.10520283;0.016138995;0.10756985;0.06436035;-0.032644946;0.034220427;-0.13903809;0.0026457184;-0.018686445;-0.027425345;-0.08248572;-0.06259198;0.02893787;-0.04586487;-0.03930617;0.12641141;0.0331592;0.043415137;0.08599742;0.14664228;0.0011281791;-0.051411487;-0.0055458862;0.053868163;-0.018570434;0.07390808;0.06689702;0.055436548;0.12992619;-0.0100664515;0.007297392;-0.058041736;0.07888201;-0.036965564;-0.03427566;-7.8838624e-05;-0.03553669;0.01912822;0.073470086;0.03258839;0.02997103;0.0075203823;0.018734291;0.014478057;0.11878763;0.037980802;0.12080648;0.018024176;-0.055296548;0.034398474;0.07116527;-0.04435747;0.07041434;-0.008378833;-0.081666574;0.007970738;0.11268195;-0.018396955;-0.013568603;-0.062229954;0.04238096;0.018703025;0.09745085;0.021038452;0.14974417;-0.07232702;-0.04652287;-0.01180255;0.051306907;-0.02045886;-0.11006199;0.06841904;-0.0065432107;0.023746403;-0.11915833;-0.0043828827;0.077427685;0.097154;-0.07262638;-0.0075284457;0.07047017;0.003765563;0.0043717227
0.11352638;0.01896979;0.10268224;-0.043947518;0.028745087;-0.00082876836;-0.074661955;-0.0088769505;-0.049699143;0.103548646;-0.032193393;0.032829463;0.07557087;-0.051066708;0.05180593;-0.029814448;0.04136413;0.1391094;0.04531258;-0.03296324;0.01376286;0.035935234;-0.041044593;-0.022287166;0.050299663;0.018195173;-0.039353848;0.0711639;-0.00087249145;-0.1238117;0.026799008;-0.018432584;0.036068007;0.06813992;0.07919775;-0.0829062;-0.07926816;0.08039127;0.038304385;0.06974166;0.026283698;0.012559368;0.059129804;-0.08164817;0.13627516;-0.053594925;-0.06826838;-0.005314187;0.09005956;0.09204803;-0.005865858;-0.09404141;-0.062229976;-0.09134787;0.1036593;-0.0016077235;-0.026767407;0.046719052;0.023795875;0.016655158;0.011644758;0.023118889;0.1050448;0.022920398;-0.10619026;0.06580985;0.0672577;-0.0037474346;0.07526468;0.09025835;-0.06398225;0.050540764;0.047466017;0.056665264;0.00669889;-0.01953716;0.079654776;0.004122394;-0.12718482;-0.021463115;-0.069864504;-0.05443323;0.07922256;-0.0063651795;-0.12600383;0.028931336;-0.03744941;-0.03291248;-0.0635897;0.064985216;-0.015088192;-0.0075651705;0.004145545;-0.019114474;0.07491052;-0.007862086;0.035689294;0.03468798;0.05229074;-0.03652251;0.05554719;-0.012607476;0.042713154;-0.01853107;0.08451708;0.016678363;0.04147706;0.035011005;0.06392589;0.07060737;0.066841155;-0.043857682;-0.04871267;0.055249475;-0.04542683;-0.026618127;0.030542146;0.018909926;-0.07468204;0.054578014;0.0390598;-0.058290675;0.031653047;-0.028766036;0.07901485;0.031299684;0.03194596;-0.058843423;-0.02714293;0.07389413;0.07653671;0.14184725;0.07204552;-0.058083408;0.08374369;-0.048537813;-0.04455946;0.038462162;0.0075092893;0.017541127;0.02301123;-0.09814559;-0.0071370206;-0.058897555;-0.06256802;-0.06548303;-0.026624275;0.07165997;-0.018050756;-0.04953188;-0.08120195;-0.04094547;-0.029345484;0.09769938;0.06211032;-0.005837236;0.09161918;-0.04817457;0.010629737;0.03461822;0.0056175357;0.083842106;0.01645558;-0.023653395;-0.11881073;0.028912736;0.018930592;-0.0020367305;0.069530144;0.0706186;0.14787073;0.03891793;0.024902979;-0.07568304;0.10048915;0.010392999;0.052550144;0.11855895;-0.07950526;0.0064256308;0.02259416;0.09246978;0.06530822;0.0048792385;-0.010783714;0.023562387;0.051042628;-0.06825715;0.06889328;0.067732766;-0.06361159;0.02811233;0.08667609;-0.042982385;-0.055671815;0.05101142;0.032140356;0.053963292;-0.0069637536;0.08615543;-0.050927944;0.03743808;0.07091738;0.08718278;0.06408372;-0.0008660973;0.10276401;-0.16253223;0.051354207;-0.029365119;-0.04119198;0.005289097;0.028845496;0.075567484;0.056077957;-0.005203994;0.054275557;-0.009122735;0.08897643;0.013994198;0.054706875;-0.0039466326;-0.07179256;0.019025106;0.032944534;-0.1074878;-0.0018489432;0.09265808;-0.05561336;0.12196341;-0.040197242;-0.044911966;-0.0069202245;-0.03845335;0.01270849;0.029560195;0.017797457;-0.046247207;-0.078464136;0.024039403;0.07530483;0.087997906;0.041349187;-0.07785868;-0.035956543;-0.073812485;0.0382173;0.03666506;0.005175741;-0.069101065;0.063837774;-0.07812464;0.062791996;-0.031521272;0.023467142;-0.04228295;0.06645448;0.07088947;0.065025195;0.08896276;-0.003824948;0.0701073;-0.03603405;-0.077244595;-0.018828426;0.0037001597;0.058279898;0.027227592;-0.08874467;0.11903821;0.00945214;-0.036631703;-0.011561153;-0.022751108;0.05970418;0.0054680314;0.05711661;-0.00014994392;0.03258193;-0.09887508;-0.0708504;0.11718631;-0.017436337;-0.024263099;0.081000194;-0.036249183;-0.06657026;0.07045744;0.12478588;0.019588744;-0.088796385;0.09476352;-0.03530445;0.02099781;0.039955094;-0.06306931;-0.048609417;-0.124233656;0.08955325;0.02288813;0.025909243;0.011824766;0.08231422;-0.011276651;0.04292276;-0.022418069;0.09789094;0.035435904;-0.061772667;-0.024235575;-0.029684456;0.06409318;0.05085123;-0.026995996;-0.13356654;-0.16360177;-0.029050173;0.03094816;0.042273037;-0.021020142;0.019654982;0.074828655;0.022689711;0.09831442;-0.07853532;0.00088521;0.0028201255;0.042888828;0.013011434;-0.044565845;0.024023509;0.040155172;0.09933336;-0.049476273;-0.028494177;-0.040299956;0.083800435;0.06713512;-0.027904881;0.053348176;-0.007989916;0.10808433;-0.049181323;-0.035974674;0.056953654;0.05018763;-0.010554016;0.06710625;0.08283255;-0.06620643;-0.0068000047;-0.12612708;0.009186719;-0.017772598;0.05351761;0.06684379;-0.15070389;0.0003359327;-0.0750256;-0.008055708;0.01353304;0.049902536;-0.17917795;0.04903015;0.042372145;0.06023573;-0.016788512;0.003136223;0.07163081;0.06131145;-0.05029832;0.018274527;0.041384805;0.01004387;0.073244154;0.111417525;0.04375819;-0.009212129;0.0070989584;-0.058650605;0.070003845;0.05484432;0.041856073;-0.040289972;0.03994144;0.058494333;0.106245354;0.010758544;0.019581147;0.06413885;0.06954762;-0.056526944;0.048881587;0.026682053;-0.080646776;-0.05093148;0.026983984;0.07990878;0.08194977;0.024998637;-0.010319043;-0.053087924;0.00093686685;0.019452905;-0.051401246;0.03722833;-0.037205532;0.12135436;0.032968022;0.017653223;-0.049039554;-0.034499682;0.08090219;-0.023511376;-0.018613966;-0.04776338;0.023366693;0.09093607;-0.013844371;0.080762625;0.002824346;0.10815258;0.030033806;-0.0047641997;0.09652333;-0.06558311;-0.048176132;-0.069266625;0.013637588;-0.01800642;0.005269572;-0.17988923;0.053316113;-0.013563424;-0.024534471;0.08104562;0.08889809;0.028102772;0.005392496;0.038322303;-0.065945715;-0.00113485;-0.039657984;0.13758649;-0.07860734;0.060796686;-0.057682328;-0.0270671;-0.07515611;0.0004483086;-0.041362014;0.008614614;-0.032792907;0.051899537;-0.09192818;0.06301694;0.014744686;0.067882374;-0.03787204;0.0765055;-0.048072718;-0.07535155;-0.017455747;0.08074091;0.051143445;-0.026127327;-0.07325512;-0.006665158;-0.053537704;0.09947083;0.023769915;-0.019486971;-0.03615442;-0.064985305;0.07586377;-0.09484877;-0.014295077;-0.037715577;0.06677546;0.028204659;0.0025646526;0.013176496;-0.041605417;0.012846921;0.057928544;0.0063642086;-0.08017984;-0.0015652791;-0.025262898;0.051814172;0.04079073;0.024306985;-0.03919878;0.16755816;-0.03807899;-0.038542654;0.077451944;0.08869643;0.013469937;-0.087840684;0.012028002;0.023473486;0.05312297;0.028234217;-0.07307647;-0.01705285;0.0076144133;0.035984386;-0.013402171;-0.13773167;-0.018702284;0.043859046;0.10605145;-0.116220795;-0.016944503;0.07209462;-0.035952576;0.103256375;-0.13866377;-0.0021347501;0.10884018;0.053948667;-0.038619723;-0.021308182;0.024279311;0.05345515;-0.069462545;-0.072356634;-0.10531152;-0.010909426;-0.08982331;0.0032164245;0.073858984;-0.035850864;0.0033563892;0.042453717;0.05621957;-0.014907474;0.012411283;-0.01795814;0.004741905;0.055983964;0.0043062307;0.035141237;0.089309044;0.033225026;-0.04560789;0.011690162;-0.00469842;0.070825435;0.06533185;-0.0014343641;-0.13525485;-0.0065230806;0.052178755;0.071438715;0.027751975;-0.003262334;0.08946746;-0.02576102;-0.05601499;0.07630958;-0.06916176;0.042283766;-0.0076966663;-0.0649777;0.08305642;0.036159355;-0.04760942;0.074762106;0.0047374675;-0.16304897;0.029817943;0.033394903;0.07786916;-0.049488734
0.09378876;0.09879519;0.072631404;0.020645604;-0.065413274;-0.05018137;-0.05892532;0.06611926;0.041127983;0.08800139;0.017139344;-0.056258276;0.07128295;0.060659707;-0.03274126;-0.029700702;0.021271478;0.17475457;0.026838576;0.05384564;0.023556268;-0.0296202;-0.021773314;-0.021283284;-0.024880864;0.07410142;0.06282823;0.11705131;0.021660343;-0.06684006;0.052915342;0.0912117;-0.06161055;0.0539502;0.10193243;-0.12748231;-0.013416663;0.06012605;0.14043818;-0.026194774;0.078066036;0.055157367;0.05683426;-0.045708008;-0.012185393;0.028238157;0.06396439;0.12307981;-0.026860336;0.057581555;0.0965682;0.026968788;0.055832278;-0.07864188;0.041694164;-0.04723664;-0.06772592;0.064362064;-0.009845159;0.04679577;-0.02403631;0.03216139;0.16499195;0.028135365;-0.08296078;0.03606178;0.06041312;0.059415113;0.089338124;0.08317474;0.0600871;0.06823017;0.01899696;0.077395275;0.010659103;0.09709547;-0.033836655;-0.010333753;-0.08915194;0.021349436;-0.06835705;-0.03030181;0.1356391;-0.04667025;-0.040979944;-0.02918257;-0.029649911;-0.057258442;0.026353024;-0.035791043;0.039674927;-0.072934955;0.00986406;-0.0105672665;0.004678837;0.022620628;-0.074503005;0.009300103;0.057493918;-0.04365222;-0.062392477;0.017008925;-0.0361628;-0.06943382;0.044547394;-0.02730869;0.049875412;-0.032395795;0.16109408;0.0786182;0.033211175;-0.060078625;0.018890237;0.03037364;0.07255775;0.010106154;-0.04183625;-0.06343534;-0.013398554;0.103460014;-0.03325307;-0.00490767;0.037316516;0.0782228;0.0055586165;0.12463469;0.08683503;0.08812715;0.08402548;0.01618365;0.020256653;0.08953862;0.021242509;0.087922014;0.09853204;-0.049054477;-0.035135042;-0.00017771899;-0.033374805;-0.022460144;0.018343445;-0.18009195;0.02446659;-0.062652506;0.03226086;0.081104785;0.035404034;0.0007880627;-0.019312512;0.08186316;0.026539013;-0.036330886;-0.021053046;-0.027191218;-0.008933957;0.12081413;0.033961136;0.06468678;0.07998048;-0.09642614;0.01945676;-0.021757629;0.011882464;-0.024971427;-0.0794836;0.09239699;-0.0071095126;-0.09184883;0.07231491;-0.066364475;0.2080529;0.13198219;0.04259006;-0.05176893;-0.011938141;-0.035209823;0.029550377;0.08446912;-0.08676375;0.041046627;-0.0003332845;0.09874735;0.060303744;0.035030562;-0.061858878;0.10385122;0.07945265;-0.066471376;-0.0074321716;0.06592001;0.005465277;0.05222131;-0.014670741;-0.020189205;-0.054327656;0.052559413;0.09141222;-0.014917776;0.052031104;0.098825164;0.032307945;0.067199595;-0.023305189;0.028916318;-0.016069898;0.07956825;0.10046503;-0.09862065;0.043339644;0.008736098;0.0050139898;0.044046424;-0.018243708;0.023927461;0.08447516;-0.062739044;0.06183043;-0.042690244;0.12922588;0.013078834;0.043468717;0.022941925;0.057552896;0.021278895;0.022011675;-0.035884067;0.13869067;0.015363579;-0.032107722;-0.035792287;0.07574363;-0.009720894;-0.021542188;0.04032998;0.02667549;0.0727368;0.048783664;0.056603666;0.050139662;-0.051079705;0.038417365;0.09870075;0.02298824;-0.1566417;0.064516075;0.033158123;0.039214317;0.02915215;-0.05543626;-0.050727755;0.10658148;0.058168743;0.028721103;0.0149555225;0.099142864;0.07108644;-0.0440393;-0.023669904;0.0061197905;-0.046435013;0.031522952;0.03754894;0.06530974;0.045211714;-0.03480605;-0.03735435;0.13652351;-0.023034433;0.08680136;-0.00270559;0.07176843;0.03400246;0.061027713;-0.037946105;-0.07331344;-0.014457083;0.12324871;-0.043273803;0.09397288;-0.05189619;0.021941898;0.09938598;0.086896665;-0.022255618;-0.021834604;-0.063062124;0.05394231;0.0844001;0.14880164;-0.039778378;0.020138884;0.14525399;-0.041504912;-0.00102952;0.00664082;0.0032181204;0.023675513;-0.076760985;0.1397054;0.056727562;0.07504181;-0.036635876;-0.027385734;0.07999958;0.003522177;-0.024836978;0.07138277;0.038792346;0.070648;-0.07087228;-0.05135987;-0.012511023;-0.0062123113;0.07158883;-0.11774575;-0.11267119;0.06800437;-0.029193377;-0.01787336;0.005643069;-0.057870016;-0.08742168;-0.0074812616;-0.032884732;-0.039269265;-0.02584794;-0.016266532;0.009069972;0.07112698;0.04444643;0.16979225;-0.0041065835;0.06950192;0.027666407;0.044599723;-0.07364585;0.027065333;0.040443975;0.016567813;-0.011634376;0.032002218;-0.008021277;0.0019211221;-0.069164254;-0.043617513;0.004136733;0.01976274;0.09743888;-0.018994419;-0.09417555;-0.06806271;-0.07228786;-0.06896035;-0.0410328;0.08765714;-0.022593837;-0.1262515;0.11933728;-0.04862042;-0.011227373;-0.0035513246;0.0567263;-0.11464707;0.0022602638;0.09161375;-0.014852996;0.07588518;-0.00048607588;0.07432641;-0.010582637;0.027915556;0.10637194;0.07311968;-0.026421465;0.082956105;-0.0381182;-0.017158283;0.002637412;0.05571833;0.066566706;0.022248015;0.058484238;-0.09074591;-0.04851605;-0.039687485;-0.05501587;0.027562343;0.02389453;0.020432511;0.0072073042;0.06453196;-0.10722306;0.060462136;0.02646305;0.07153376;-0.017318051;0.07635587;0.072715364;0.115006655;0.08913611;-0.041175235;0.076967984;0.071220145;0.12881379;0.0116231125;0.031962734;-0.06392619;0.09012651;-0.005380217;0.024553165;0.0577987;0.082630895;0.06213072;-0.060159616;0.08791493;-0.16168766;-0.09351629;0.019355949;0.026968025;0.13240972;-0.023955489;0.040423457;0.07331774;0.040406197;0.0056894994;-0.049730223;-0.045263547;0.01070598;0.06301676;0.073315226;0.016071985;-0.08579576;0.09310317;-0.10279015;-0.19447187;-0.040255696;0.0775056;0.03713932;0.0762509;-0.09557273;0.06208572;-0.02200468;0.04922082;0.08362001;-0.10979937;-0.010301379;0.08436912;0.03263808;-0.062459275;-0.030897005;0.0144419735;0.006149114;-0.019957215;-0.0062611187;-0.1703617;0.07274855;0.07925932;0.04003079;0.032462813;0.07532522;-0.08116511;-0.09476782;0.07862252;-0.009698274;0.093571566;0.07625992;0.057734884;-0.05868423;-0.0004271557;0.1122384;0.09307442;0.10100433;-0.077183075;0.06472926;0.09516534;-0.16763952;0.0017448851;0.038284235;-0.05262761;0.041777425;0.028585838;-0.014828272;0.016360141;0.06811065;0.10656706;-0.01862985;-0.08147202;0.09385574;0.08444323;-0.06992274;0.07543318;0.13277963;0.10805528;0.0753732;-0.012555803;0.021917172;0.053847864;-0.002477921;-0.045982953;0.0032415139;0.018307116;-0.017425943;-0.072521076;0.031823765;0.0070077786;0.08443061;0.0730533;-0.01446419;0.024223208;-0.1338426;0.07052431;0.08166655;0.12136823;-0.057513814;0.019423947;-0.071208544;-0.030769693;0.01786834;-0.08154722;0.05272867;0.010068614;0.090621665;0.01737866;0.0036859636;0.01777595;-0.053218048;-0.018689608;0.107293;-0.13389005;-0.06842235;-0.02842398;0.023346977;0.027591499;-0.088428214;-0.022063503;0.06913238;0.010591206;-0.05255749;-0.041510906;-0.05390148;0.03557;2.8399158e-05;0.11463747;0.13743919;-0.046114072;-0.06633649;-0.008025206;-0.008401305;-0.052084155;0.065662526;-0.010627144;0.022693919;-0.13327022;0.018007375;0.07670713;-0.053004693;-0.10648836;0.010491531;0.04475721;0.10899427;4.1442323e-05;0.06741312;0.00106328;-0.013336216;-0.025135934;-0.016724901;0.0573167;-0.067475356;-0.0061472477;0.05140078;0.023927528;-0.08128866;0.07269075;0.05289551;0.09548661;0.012168667
0.003208042;0.026677586;0.045463186;0.05572273;0.06648252;0.031120077;-0.008206551;0.073742986;0.035500184;0.019305667;0.047672242;-0.008605964;-0.0145640895;-0.056626745;0.056592762;0.06901727;0.05397033;0.08518375;0.07003447;-0.020829482;0.04714666;0.04238082;0.020824462;0.08717534;0.09297636;0.0027049794;-0.022761393;-0.0072866213;0.07251123;-0.053923793;0.0645041;-0.035833627;0.07214007;-0.065591455;0.057975072;-0.039165217;0.0060097743;0.014348077;0.13703384;0.05696597;0.06023824;-0.0013623729;-0.10770721;-0.0859545;0.11011177;0.02442516;0.09669267;0.092077196;0.0010170983;-0.063108504;0.073671296;-0.03200588;0.029805642;-0.06872971;0.050439004;-0.040350173;-0.08895595;0.019129053;-0.027245091;0.0064296606;-0.17155871;0.12744245;0.047444493;0.06733305;-0.10264725;0.11095077;0.06713701;0.00056272437;-0.029836431;0.12755403;0.04045855;0.015005781;-0.0093277525;-0.04417294;0.019843841;0.040741224;-0.041956067;0.08952855;-0.14302078;0.05228906;-0.018613014;-0.062116295;0.012684024;0.0058265594;0.0178949;-0.04629606;0.025878811;-0.03273736;-0.035843737;-0.012713364;0.033418566;0.09472934;0.012428799;0.06273763;-0.05125681;0.07703047;-0.0022980743;-0.050898775;-0.007263771;-0.011958521;-0.016076382;0.008442679;0.047597036;-0.074824385;0.0103282975;0.104177415;-0.039013408;0.07031386;-0.03669619;0.06443341;0.13743128;-0.06084452;0.09303259;0.08467443;-0.08719297;-0.07194479;-0.038663015;0.07784807;0.085374735;-0.07035875;0.027513864;-0.021171864;0.01328079;-0.052767254;-0.09450524;0.06448775;0.019706042;0.07544421;-0.02038889;0.05663932;-0.053714883;-0.024715124;0.05855195;0.02865295;0.042351317;0.077382594;-0.06570707;0.0002070619;0.07090827;-0.060791083;-0.024470769;-0.08408629;-0.010961448;0.05987985;0.0028456554;-0.032283854;0.058895543;0.018901814;0.12334657;-0.0724023;-0.028909646;0.0177694;0.046227466;0.020129178;0.08471816;0.04637671;0.0069823656;0.025549246;0.06896323;-0.08321915;0.06531693;0.03545596;0.09443985;0.055198226;-0.068298064;-0.003805315;-0.068271615;0.014257677;4.1335315e-05;-0.060455807;0.077966236;0.040708486;0.05257052;-0.012440811;0.08654485;-0.062291052;0.11103316;-0.028247043;-0.12777093;-0.009038179;-0.04192829;0.07734805;-0.07319052;-0.035489634;0.05197731;-0.04156724;0.101330966;0.047100272;-0.06033765;-0.03542775;0.022841714;-0.019088404;0.03376085;0.110248774;-0.04707487;-0.054196764;-0.0054108007;0.07905458;-0.026718773;-0.053463116;0.033496533;-0.0018395891;0.072903514;-0.03014421;0.0780607;-0.042155355;0.031515036;-0.16943115;0.12781492;-0.017373035;-0.009246325;-0.005604506;0.008888252;-0.017759694;-0.026832942;-0.087075524;0.002730583;-0.13981766;0.058429793;0.07057718;0.04271964;0.050355356;0.016385125;0.02711398;0.05650567;-0.07038083;0.091298856;-0.1043882;0.041207;-0.016284231;-0.011579793;-0.04174066;0.06493451;-0.04863661;-0.0012916183;-0.026040442;-0.03152662;0.07212243;-0.1392111;-0.13420543;0.06023977;-0.03743569;0.0028317997;-0.10314567;-0.05093107;-0.07297591;0.010597891;-0.0440017;-0.0535541;-0.086177744;0.119737744;0.007186023;-0.03847279;0.026148008;0.08508268;0.058072526;0.072993524;0.029307598;0.113620006;0.023027798;0.039607268;-0.05690844;0.019531619;-0.03652015;0.015360292;-0.04509955;0.03844429;0.031152379;0.07140294;0.033012792;-0.0035173534;-0.068693705;0.06221072;0.0757779;0.038953207;-0.007801641;0.009566576;0.033997174;0.0036234898;0.07090367;0.069090396;0.04981362;0.08499606;0.0682411;0.065044425;-0.04986691;0.028730778;-0.032670125;-0.037282154;-0.057153817;-0.10374156;0.053478297;-0.019127565;0.069160685;0.047625475;0.056326516;0.033988368;-0.015202899;0.12297373;0.02510082;0.07513594;-0.05780939;-0.001965373;0.08747632;0.022309905;-0.11615862;-0.02807382;0.08567023;-0.08422752;-0.011732595;-0.01033931;-0.053640414;-0.027253017;-0.0070398864;-0.123033404;-0.092844166;-0.0029699397;-0.075699635;-0.03110143;-0.027095424;-0.03446421;-0.0311347;0.09946693;0.06728566;-0.031339515;-0.061686467;0.048570093;-0.04267312;0.0726729;-0.035651688;0.011020588;-0.035446297;0.09769812;0.0017769128;-0.08932406;-0.08608434;-0.0068115685;-0.081495546;-0.02908572;0.024748001;0.08576725;0.020042844;-0.025210546;-0.031078214;0.037429757;0.060507827;-0.04057767;0.011682686;-0.03885995;-0.13880286;-0.06752535;-0.12922266;-0.0158581;-0.017303815;0.06739305;0.00028289732;-0.09189311;0.0640079;-0.17041682;0.038863417;0.017021755;0.03327005;-0.19100216;-0.021487042;-0.0035567812;-0.0012057539;-0.012332002;-0.09215143;-0.058178574;0.08329567;-0.039692163;-0.027385354;-0.026356585;-0.07121441;0.08676206;-0.010859976;0.009478417;0.0991087;0.022890344;0.034157295;0.10293753;-0.06340698;0.018987702;-0.0692169;-0.10411471;0.011862053;0.109510146;0.013090726;0.014982324;0.035547882;0.042495478;0.046460465;0.1070645;-0.042252146;-0.11893501;-0.0082891425;0.10589914;-0.0054517067;0.057700105;0.05037099;0.007488884;-0.063091286;0.059221067;0.058660936;-0.042819556;0.036849786;0.05895558;0.072041675;0.092680275;-0.012085095;0.09926112;0.0444993;0.08546248;0.056736425;0.005684257;-0.15475449;-0.059075296;-0.061782345;0.01855255;0.10009821;0.022491755;0.08295718;-0.078669615;-0.017415678;-0.05282629;-0.041797742;0.016222488;-0.0058018514;-0.104503475;-0.07163082;0.01851778;0.016207144;0.056485012;0.0740646;-0.099223144;-0.05453563;0.054205786;0.06647877;0.09696697;0.019839428;0.06067582;-0.022787748;0.008440134;0.02083949;0.012605472;0.029922085;0.020186106;0.03303875;0.0032204252;0.06433389;-0.01933419;0.07184189;0.032706086;0.036371168;-0.16063261;0.068074875;-0.06937749;0.08315586;-0.073617145;-0.03199182;0.0020020318;0.05670062;-0.0658723;0.036288306;-0.059248265;0.016248612;-0.01747465;0.020225935;0.08976797;0.08923281;0.028539127;0.07549924;-0.020192226;-0.07140253;0.06828557;-0.04248277;0.02009664;-0.06390178;0.053531308;0.026190424;-0.044350956;0.053329498;0.048928507;0.005128463;0.07471202;0.019254731;0.05769253;0.08411007;0.015921058;-0.020772206;0.010214369;0.011032258;0.016125487;-0.0004556189;-0.03947941;0.108124755;-0.0066885287;0.07437453;-0.08070599;-0.06846838;-0.090080716;0.0553399;0.04937173;-0.0008177408;0.017165452;0.08936935;0.03633042;-0.061704684;0.12240244;-0.17575777;0.12344018;0.12633128;0.048711784;-0.007222225;0.04312525;0.06163729;0.06607471;0.025308292;-0.050668318;0.14780158;0.14386453;-0.057925716;0.019801274;0.020662215;0.0009443198;-0.05377939;0.032648645;0.029193899;-0.0076913103;0.014457852;0.03517459;-0.02358884;0.15364762;0.019186016;0.101628795;0.072031945;-0.027082859;0.11211323;0.09481645;0.098342285;0.045470383;0.064815454;0.016406436;0.041282825;0.039837927;-0.033356752;0.08455997;0.037898526;-0.010066775;-0.030662553;0.04183894;0.03430795;0.0056937113;0.010127773;0.04678512;0.06050086;0.061027918;0.059802193;0.009013954;0.081596084;-0.056895036;0.11175345;-0.061276935;0.030146433;0.038415216;0.06731145;-0.031064525;0.018351601;0.053142607;0.07633653;0.07834905;-0.03683764;-0.043212313;0.07042277;-0.016706422;-0.045989208
0.030526865;-0.058209192;0.10662201;0.020988805;0.06476834;0.0198097;-0.085602164;0.049833734;0.013336545;0.02156807;-0.008748872;-0.038792085;0.047059268;0.019515598;-0.020452658;-0.05386478;0.010272278;0.055851668;0.09762265;0.03690659;0.030190857;0.02697821;0.089276955;-0.00016904248;0.004409884;0.15030327;-0.015257161;0.08269805;0.008643186;-0.032543954;-0.058490198;0.012670292;-0.040498327;-0.0285943;0.15323848;0.02251791;-0.016326921;0.0043377457;0.012609816;0.05287824;0.06934472;0.11956612;-0.11340316;-0.015438104;0.02540387;0.0072529186;-0.025664687;0.095660515;-0.03140054;0.040258616;-0.030022614;-0.06246992;-0.0356084;-0.079575256;0.008798007;0.004520005;-0.044072233;-0.05382047;-0.026950965;0.0048561227;-0.14122957;0.021886647;0.09157112;0.07624429;-0.18511054;0.11457555;-0.022164911;-0.021202559;0.047125746;0.012209379;-0.06550438;0.028971031;-0.017177364;0.00038492656;0.042497005;0.03387788;0.07189693;-0.04584018;-0.060977846;-0.071502924;0.07633703;-0.025035376;0.08960344;-0.002108551;0.02178193;-0.06458681;0.08332445;-0.04782753;0.0055871923;0.048037358;0.021916458;-0.032489337;-0.0027589742;-0.121006005;0.08906098;0.01938834;0.048885997;0.009886288;0.06318537;0.036861047;0.04963763;-0.052129064;-0.02330845;0.015118106;0.06552935;0.054381296;0.0075985305;0.006825314;0.021032797;0.017931888;0.12805222;0.043135732;0.04807525;0.021674914;-0.046297062;-0.050230782;0.017380739;-0.028832994;0.055187825;-0.03547318;0.047172572;0.0039138254;-0.029849011;0.069564;-0.035515606;0.032398544;0.033262525;0.104796015;8.3396735e-05;0.027262567;0.077615984;-0.03206494;-0.021358155;-0.05376906;0.014871252;-0.0091987895;0.028795145;0.014586889;0.0022913804;-0.015008344;0.10008192;-0.13507345;-0.07975089;0.039875563;0.025237096;-0.09008094;0.09229631;0.0026907495;0.043814663;-0.00041892094;-0.04401525;-0.013427118;-0.04160471;0.006562585;-0.00015284483;0.0072276355;0.0018163861;0.029038556;-0.03411208;-0.11563539;0.09609995;0.05914106;0.020076236;0.09213164;-0.04988895;-0.035877742;-0.07300262;-0.028841479;0.113461964;0.08167053;0.03333046;-0.015351153;0.0072349333;0.1041354;-0.037100546;-0.009807773;0.086259745;-0.066106625;-0.15449437;-0.038268317;-0.018176777;-0.0074493974;-0.025891313;-0.03401611;0.012176822;-0.022233043;-0.0140945995;0.035310443;0.009728521;-0.018891474;0.02074213;-0.0019595188;0.010413877;0.092633806;-0.10719735;0.03313487;-0.0069939885;-0.02241699;-0.08779044;-0.04184047;0.0219022;0.08580347;0.0012214166;-0.0063160527;-0.025453186;0.018310672;0.12537211;-0.19191208;0.009264072;0.055337414;-0.037341088;0.03042131;-0.061079573;0.09845506;0.018934933;-0.0153409215;-0.035209384;-0.031070355;-0.0237907;0.11708965;0.1206849;-0.00071192277;-0.056798853;0.010239712;-0.041686717;-0.037082013;-0.0040403507;0.07667774;0.07982523;0.042657994;0.084980935;-0.065419935;0.047383502;0.06674562;0.013494302;0.06748391;-0.041110925;0.021013057;-0.07913693;-0.08140693;0.013339841;0.019517021;0.012147713;-0.101051375;0.030491125;-0.042126615;0.083895415;0.027333466;-0.062200602;0.04423856;-0.026808394;0.07613117;-0.030009266;0.047996346;0.039050832;0.08466849;0.028960155;0.11040607;0.10633545;-0.024303693;0.039950527;0.093614325;-0.0065103294;-0.06521682;0.047657162;-0.08933998;-0.015806045;0.038136657;-0.019783227;0.012910876;0.037452176;-0.0077626365;-0.05470049;0.06815266;0.03315636;-0.048631255;0.037369262;-0.07730932;0.03283102;0.05165161;-0.014486023;0.009078914;0.0017453209;0.0030718981;0.014855206;0.055771;0.024536902;0.020773057;0.08059372;0.0037794446;0.001037454;0.1587366;-0.0057286494;0.024591975;-0.039633553;-0.10447911;-0.04302652;-0.055991847;0.14612728;0.052938603;0.07331414;0.07133578;0.02489522;-0.07714335;0.041784078;-0.013996867;0.016052889;0.007469354;-0.059762705;0.031353895;-0.009588018;-0.037479218;0.042578552;0.044108637;-0.0074679973;-0.06465381;0.012169902;0.06493694;-0.018315373;-0.051483277;-0.04800947;0.020639429;-0.023362653;0.0066539617;-0.11685779;-0.01579461;-0.05472819;0.063506976;0.011027943;0.01112739;0.08056304;-0.07313822;-0.059516713;0.04186477;-0.034206875;0.041943636;0.079432815;-0.022517927;-0.037935726;0.07928922;0.017092291;0.04621657;0.010321406;-0.08262806;0.09300424;0.12528938;0.049414687;-0.025771987;0.0684074;-0.07250044;-0.036804106;-0.046027858;-0.035245623;-0.030065529;0.021821095;-0.043461014;-0.060985733;0.010134833;-0.15030873;0.07123341;-0.0032275766;0.055541903;-0.18214321;-0.07054449;0.01786358;0.03749649;0.05249151;-0.040484045;0.09372498;0.048299495;-0.0310265;0.005334588;0.08454498;-0.024714986;0.04592233;0.10471883;-0.026606826;0.04066426;0.053584408;-0.036587957;-0.023381973;-0.013444451;0.06273238;-0.11255008;0.018117845;0.065700635;0.022039205;0.12428196;0.07732016;0.0308708;0.0021052628;0.009645489;0.10155573;0.062419754;-0.027609752;0.07224868;-0.0088008;0.06885569;0.10994505;0.020497162;-0.0049689533;0.069474466;0.020000102;-0.039280657;0.07631414;0.032010328;-0.060401425;0.1086913;0.0752441;-0.011856139;0.0424533;0.0144869005;-0.056943055;0.058551434;0.08919055;-0.13580173;-0.057375323;-0.008860822;0.015747057;0.071200594;0.08524155;0.0019007456;-0.014703607;-0.044942077;-0.015565086;-0.01961739;0.08311717;-0.037671633;-0.036260374;0.06152955;0.04472683;-0.0066682496;0.035081413;-0.03554282;-0.0627713;0.03921317;0.073228605;-0.023184508;0.109206624;0.0716017;0.037286486;0.03365157;0.054317128;0.02962848;-0.028400244;-0.05025886;0.097133406;0.04736677;-0.030012922;-0.010468762;-0.016069409;0.025660854;-0.00082807924;-0.07272853;-0.07442824;0.060631506;0.049425557;-0.048044864;-0.057735797;0.10885802;-0.05268843;0.013009092;0.03511629;-0.006342773;0.06818643;-0.00556362;-0.0024334104;0.051176574;0.07221212;0.08823297;0.09271629;0.11849601;-0.027722124;0.048568323;0.030690707;-0.049228918;-0.010478782;-0.05166995;0.030632807;-0.08860418;0.021894697;-0.021102715;0.03450916;-0.049308106;0.06842428;0.03575656;0.08581498;-0.024224777;-0.0438448;0.071949646;-0.0475642;0.11473704;-0.041427165;-0.04853693;0.0014757162;0.058651578;-0.028528707;-0.004667628;-0.011527803;0.050218634;0.06573589;0.047114916;0.08284463;-0.013860307;-0.055581298;0.021619095;-0.012619592;0.014880495;0.090865776;-0.1451059;0.09340063;0.059245296;0.023051137;0.048862137;-0.07190576;-0.058305115;-0.07203165;-0.0060315467;-0.110343106;0.033593792;0.06403128;-0.027111098;0.06557909;0.08590708;0.047985487;-0.029297352;-0.051224034;-0.037697367;-0.11184615;0.024731528;0.048655443;0.010269985;0.0908051;0.08865652;0.0963846;-0.0055803815;-0.03623344;-0.014424906;-0.022401964;0.04689354;-0.008771056;-0.00040891624;0.026587656;0.15179266;0.010383919;0.05400878;0.10065113;-0.022831528;-0.03045071;0.09140372;0.020516373;0.00029493877;-0.0074449563;-0.036876317;0.01577192;0.08734368;-0.004687006;0.14111118;-0.042621285;0.05391247;0.038339913;-0.011256234;-0.009068366;0.045869477;-0.057682052;0.07360957;0.0563683;0.05827908;0.07874581;0.08693174;0.084508754;-0.113224804;-0.051991794;0.0737608;0.025733678;0.03022739
0.08759904;-0.044544134;0.07347311;-0.039977368;0.00044648483;0.060657814;-0.086554095;0.00023329287;0.08681227;-0.05691968;-0.040972356;0.021269506;-0.038090643;-0.04323748;-0.07313115;0.042260192;0.029699558;0.074860886;-0.022577716;-0.047969524;0.008640092;0.0048364536;0.010902427;0.08779912;0.03220573;0.115040995;0.0287727;-0.0032389043;0.08695316;-0.034192547;0.012543529;-0.049667444;0.078456916;0.0329173;0.09933104;0.0131425;-0.067166336;-0.05344729;0.077093035;0.019929338;-0.035619605;0.016777484;-0.1432157;-0.1080812;0.1230708;-0.026151005;0.06274583;0.028793255;-0.058075085;0.07785816;-0.006381403;-0.103428386;0.064250596;0.019907707;-0.012907616;-0.05151889;-0.0007891027;-0.022019245;0.057482366;-0.011801617;-0.10158179;0.034267657;0.14077802;0.07623024;-0.21349141;0.08385151;0.034954384;0.10474179;-0.042428043;0.12209423;-0.081690066;-0.009068513;-0.021651147;0.05772434;-0.048690535;-0.0020251859;0.048907056;0.034610886;-0.15882763;0.08155179;-0.030751353;-0.04052755;-0.030991247;0.089261524;-0.039429635;0.012110182;0.000665205;0.08267873;0.042203184;-0.029336603;-0.037671335;0.002479448;-0.058194827;-0.059382398;-0.062258076;0.081254534;-0.10431272;0.063371114;0.031882215;0.060298316;0.10396227;0.016282214;-0.038609367;-0.06379532;-0.053180266;-0.03285975;0.06446531;0.06607486;0.024230251;-0.0153192105;0.07818741;-0.024190873;-0.062739395;0.008145055;0.042619187;-0.01663545;-0.014212544;-0.02702237;0.058613535;-0.032365546;0.011010702;0.048997134;-0.08766531;0.08407885;-0.10432492;0.109444186;-0.044558328;0.024484236;-0.06456545;0.012875534;-0.030657599;0.055789918;0.055867665;0.06307864;0.061319318;0.008600831;-0.021734381;0.005693637;0.058722377;0.07045324;0.0760042;-0.111971624;-0.0021186078;0.02404943;-0.023683023;0.06657777;-0.052623607;0.016334798;0.040576477;-0.015693273;-0.059809964;-0.06380107;0.011947858;-0.0011720804;-0.08110478;0.041216817;-0.025671287;0.050393533;0.076471806;-0.04393089;-0.0048352294;-0.038022425;0.08226608;-0.00916911;0.0071972194;0.10018724;0.063031845;-0.07241951;-0.010537534;0.020143617;-0.013014582;0.022144975;0.08626129;0.07712574;0.09494627;0.0075819003;0.021168234;0.03836241;-0.07541052;0.08080822;0.082016066;0.1475909;-0.118563116;0.06337247;-0.02006315;-0.0024559794;0.037929863;-0.07138762;0.027136555;-0.065557264;-0.12359682;0.021693911;-0.0119906515;-0.030276606;-0.06464845;0.08439405;0.001875341;0.02852386;0.025452718;-0.02022587;0.03328508;-0.05845106;0.021341622;-0.0073479284;-0.0405779;-0.038290612;-0.032058097;-0.19421321;-0.0019349314;0.02566577;-0.007299365;-0.0020763793;-0.010913419;-0.047356956;0.06727999;0.007071941;-0.038044866;-0.060026947;0.09091035;0.0121631995;0.11711461;0.08490649;-0.046780217;0.08973205;0.029718727;0.0081591355;0.04006298;0.026667979;0.078787446;-0.038561307;0.013140958;-0.07613049;0.01494261;-0.021548983;-0.056118;0.022433458;-0.08526783;-0.043985516;-0.10698719;0.04219345;-0.058077842;-0.042238656;0.053880647;-0.023218306;0.07270887;0.043503802;-0.037964072;0.0143829;-0.08556744;-0.0070933425;-0.010820238;0.015064607;0.09468263;-0.008993192;0.020300569;-0.020625161;-0.020611364;0.07838387;-0.04332982;0.091545455;0.050712418;0.0090758065;-0.031244399;-0.064102344;-0.018366514;-0.105980985;-0.035289004;-0.00089746807;-0.024293566;0.024422826;-0.051972277;0.06515133;0.065384574;0.005447651;0.024154529;0.050432313;0.058297183;0.020374427;0.06890209;0.014307297;-0.011555759;0.061873537;-0.0024339077;-0.037485547;0.009539988;0.017866796;0.037723035;-0.014016945;0.046716;-0.08772212;-0.032569673;0.100677304;0.10247191;-0.0280924;0.02227641;0.04496794;-0.011569596;-0.13481851;0.15062551;-0.013915584;0.009028414;-0.022126032;0.02047794;0.056663536;0.070495024;0.010879446;-0.062728114;-0.009066664;0.08578559;0.00025834274;0.07686085;-0.027231077;-0.043943938;0.0061797355;0.010699983;-0.03326127;0.076039106;-0.0076291906;0.11504315;-0.020435229;0.05818972;0.05525943;-0.0014235879;-0.082021326;-0.092837445;-0.008860921;0.09204621;-0.06971101;-0.07083196;-0.05601265;0.030799849;-0.049347617;-0.046112243;0.007284525;-0.07898865;-0.07167559;-0.006115748;-0.017875206;0.035701428;-0.053444453;0.056187104;-0.0176032;0.027790267;-0.03283105;0.03892403;0.09066363;0.0359116;0.05547664;0.063412815;-0.17281748;-0.04916037;-0.14472482;0.027209507;0.01634977;0.053116065;0.03899715;-0.15753946;0.07534577;-0.11328245;-0.0740654;0.02078479;0.0466585;-0.15975675;-0.08830325;-0.032951225;-0.077501595;-0.040150177;0.0053964187;-0.026521578;0.107840315;0.013184866;0.08212433;0.018053459;-0.003439806;-0.029110672;0.06619982;-0.06493658;0.10582932;0.098348595;0.01711479;-0.04318472;-0.037541147;0.07496695;-0.046755277;-0.10047742;0.036629178;0.10115537;0.038683694;-0.035362545;0.019398058;-0.020206548;-0.07312704;0.09482327;-0.07256066;0.02411108;-0.04179588;-0.006736868;0.072160654;0.0989458;0.051526714;0.035411358;0.06657846;0.02285353;-0.040905867;0.03159436;-0.015437685;0.008339349;-0.010729803;0.030839266;0.048158504;-0.007682585;-0.01281382;-0.0038779941;-0.025927586;0.056157984;-0.08823031;0.035054848;0.053715367;-0.04849845;0.099582896;0.05288126;-0.05651163;-0.0725194;-0.040856306;0.01497181;0.077405445;-0.04681429;0.05729869;-0.009552806;0.048240643;0.077072464;-0.007060154;0.029100867;-0.089726634;-0.061123405;0.117050156;0.012909641;-0.014364921;-0.041139927;0.09162611;0.012389422;-0.0039246506;-0.017656684;0.11253339;0.027468495;-0.014501261;0.0065455674;0.037134197;0.017915923;-0.028528906;0.10977377;-0.060804382;0.07189944;-0.0287675;-0.103033915;-0.005336604;-0.070150554;0.07894236;0.017305743;0.11295711;0.08646255;-0.03551366;0.007439471;0.018014694;-0.020347157;-0.011477522;0.06878414;0.077007204;0.07690987;0.016185246;0.10074682;0.0391406;0.004968879;0.0047073397;0.057835214;-0.049657293;0.022570642;-0.07157219;0.022729643;0.068949856;0.06335418;-0.011899509;-0.063452594;-0.0836996;0.06738461;0.011782326;-0.02245603;0.024114303;0.10742297;-0.059762824;-0.02976768;-0.0007382688;0.055489607;-0.02752384;0.080610625;-0.054234058;-0.048776887;-0.06354552;0.0646241;-0.033944953;-0.058600172;-0.03286044;-0.06716078;-0.022357056;0.07055331;-0.009164448;-0.086277686;-0.042530145;0.03812131;-0.13495782;-0.0020058276;0.14273408;0.10030746;0.0861794;0.06917296;-0.020059621;-0.03542089;0.06740787;-0.21683204;0.07637272;0.08025685;0.033923697;0.11459064;-0.016127914;0.031075936;-0.037567258;0.014264762;0.08530508;-0.10096839;-0.012336152;-0.1022386;-0.003738196;0.08863388;0.06110913;0.07069119;-0.023515439;-0.061067387;0.09309008;-0.037697654;0.099015534;0.0067936652;0.04603356;-0.026380451;0.031030426;0.04657826;0.0963583;-0.00095946336;0.017282948;0.04616402;0.0014098857;0.03660562;0.017533515;0.07646446;-0.054737523;-0.009937025;0.031222066;-0.13329083;0.02855394;-0.013665073;-0.005214235;-0.028697643;-0.03288155;0.080298565;-0.020988774;-0.004170592;-0.059364658;-0.05501842;-0.10411087;-0.0011905567;0.1416368;0.020180613;-0.15101703;-0.05744927;0.057185788;0.056493692;-0.05615644
0.14997874;-0.1616496;-0.008714889;0.06782583;0.0364078;-0.0009471533;-0.11382101;0.121007845;0.012705219;-0.080976404;0.09153778;0.008422178;0.012712935;0.05767816;-0.0011293238;0.02126306;-0.0015863485;0.08609335;-0.0398258;0.060667478;0.022649048;-0.022058785;-0.07404124;0.08517932;0.014704546;0.18632862;0.1295933;-0.08411482;0.058877878;-0.08358764;0.09831518;0.0238879;-0.052800234;-0.06953318;0.02179738;0.021901414;0.06991819;0.00011267219;0.11057861;0.06456309;-0.0065089976;0.011880287;-0.007252137;-0.055247594;-0.006729058;-0.044989422;-0.020255677;0.06427117;0.06620026;0.044491887;-0.013810186;0.06388933;-0.00745599;0.025390921;-0.01775529;0.05298645;0.05975643;0.06819898;0.08076394;-0.10934072;0.0027439753;-0.019094238;0.0032104116;0.12534885;-0.19683948;-0.01681504;0.014216338;0.10279161;0.026325418;0.06681496;-0.05415707;0.07830702;-0.008234268;-0.0020946434;-0.05697847;-0.014965606;0.0847936;-0.028217709;-0.098193236;-0.030788997;0.100931264;0.07342893;-0.14731015;0.10256885;-0.06368183;-0.00200506;-0.029339338;0.005585473;0.081327274;-0.026000923;0.0143589275;0.097619414;0.022725005;-0.07229358;0.041422952;0.100377716;-0.12195815;0.08988721;0.029943433;-0.056841314;0.036331043;0.09627963;-0.048366666;-0.035221312;0.07833168;-0.03593058;-0.021473948;-0.0481915;-0.00697819;0.06330976;0.08843299;0.05139203;-0.055307142;-0.021076405;-0.050204873;0.058074176;0.08252912;-0.008630992;-0.02407564;-0.06626763;0.045230903;0.08377234;0.01787111;0.11733663;-0.022929585;-0.043116946;0.030130183;0.03822897;-0.00039786723;0.03136954;-0.054746475;0.052339338;-0.023005951;0.021028783;0.06708842;0.08764716;0.06853445;-0.049722426;0.09854006;0.08241248;-0.0032851268;-0.12293862;0.006034333;-0.0024572378;-0.059425455;0.054054882;0.0029427183;-0.09957889;0.03858524;-0.067793004;0.06171629;0.041941155;-0.020688059;-0.03851299;0.052916616;0.083467126;-0.034562826;0.022926718;-0.035702173;-0.02432004;0.040792227;0.019547135;-0.060313717;0.17853436;-0.11084732;-0.0700478;0.029961891;0.021050986;-0.0094133485;-0.04127545;0.049391128;-0.022348033;-0.05769621;-0.031130979;-0.018927926;-0.014243236;0.020060189;-0.0032412042;-0.14547423;0.08182466;0.123896696;0.06676611;0.008129511;-0.027550938;-0.028632639;0.07425135;-0.12455607;0.0057609696;0.0063004964;0.041738242;-0.043895114;0.04924568;0.042912595;0.09379956;-0.05267489;0.0022681246;0.052882776;0.015695391;-0.015314097;-0.0031576497;0.0042998656;0.04560434;0.09418681;-0.0056384197;-0.061431807;0.09202656;0.052539792;-0.14827813;-0.07756831;-0.014549747;-0.012590915;-0.06589228;0.022645906;-0.037650477;0.04982211;-0.04048158;0.03170284;0.039146345;0.050398227;-0.041844226;0.07589837;0.03450114;0.06641749;0.046944868;-0.011817399;0.057262328;0.043409575;0.015387454;0.042285714;-0.039234135;-0.040506836;-0.027639128;0.034482777;-0.0149138905;0.06743363;-0.01913384;0.02910466;0.009850914;-0.074402064;-0.0073748063;-0.041528393;-0.06319131;0.033861544;-0.11221179;0.046826966;-0.010834364;-0.009073451;0.055965867;-0.07698848;-0.021624051;0.05388534;0.06999828;0.09092806;-0.04422409;-0.011016966;0.05181707;0.06684778;-0.022244593;0.041102875;0.070341714;-0.0840392;0.09546854;0.09438269;-0.08713786;-0.054306712;0.012604968;0.013171204;-0.017524883;-0.011642042;0.0032216297;0.046451278;-0.027376642;-0.06442625;0.0730647;-0.04401248;-0.041115146;0.09788004;-0.08340104;-0.031059317;-0.08469524;0.084827095;0.11169527;0.064701565;-0.051878516;0.007836137;-0.079413265;-0.08432291;-0.07466529;-0.06327867;-0.06528059;-0.049967162;0.09887237;0.08193342;0.094599836;-0.097786844;-0.105667226;-0.006328633;0.012585811;0.0832653;-0.01001442;-0.04300421;0.07863288;-0.019736083;0.02330693;0.08900393;-0.09769415;-0.08156327;0.07229382;0.06651557;-0.047723427;-0.012230572;-0.036099963;0.019268947;-0.00046579857;0.034418777;0.010991605;0.039651573;0.107168265;0.027551109;-0.04748464;-0.05702967;0.022662958;0.07910873;0.012997552;-0.087600544;0.00980198;0.032256458;0.06800563;0.03405968;0.096699685;-0.0025234767;-0.051604204;0.085908316;0.021178558;-0.11316088;-0.06059973;0.04551702;0.064724065;0.0732212;0.0024124805;0.021314781;-0.04136395;-0.045896538;-0.042106844;-0.025278948;0.024074739;-0.018335368;-0.0051412224;-0.027529147;-0.01841316;0.033698082;-0.066314444;-0.016230647;-0.025776112;0.0009572812;0.04034236;-0.17434691;0.06546235;-0.11875395;-0.03175455;0.07884405;-0.0047504227;-0.17066063;0.011884771;-0.036502387;-0.0049235187;-0.054286476;-0.00868976;0.06541494;-0.06851669;0.018079866;0.051787402;-0.018721402;0.01446291;0.066238746;0.062016472;-0.098018885;0.031032553;0.008913073;0.06429337;0.022458963;0.08748304;0.040898066;0.017431593;-0.023723105;0.023579046;0.09652735;0.09816155;-0.035728656;-0.03532605;0.08987964;0.030296212;0.042419665;0.09449255;0.030688237;0.088547714;0.023008035;0.029890943;0.03422756;0.079836726;0.08576466;-0.072256826;-0.087285295;-0.03827144;-0.020448701;-0.04832832;0.103791475;-0.03459865;-0.04967279;0.060395822;-0.014815231;0.051236052;0.079749;0.07784428;0.06628453;-0.023568576;-0.042655565;-0.021421667;0.013871861;0.10140354;-0.010149019;0.052497525;0.09107716;-0.025440414;-0.0070243212;-0.075630195;-0.04390611;0.0066766287;0.045407154;0.021206217;0.014520485;0.060234208;0.06470136;-0.099636;-0.11098615;0.111888945;0.09266149;-0.122699715;0.06711516;0.06469326;0.038041823;0.02361674;0.0558285;0.08065999;0.027521633;-0.06250506;-0.0034993072;0.024989;0.092694476;-0.033333078;0.042032577;-0.07514761;0.07143623;0.09516976;-0.20817566;0.041248444;-0.043030698;0.026416415;0.0043281172;0.059307627;-0.056592125;0.0072980076;-0.07362547;0.058229357;0.009279497;-0.008994696;-0.04312129;8.919034e-05;0.12709801;-0.021735322;0.028482066;0.059330765;0.010786262;-0.005472986;0.04958798;-0.03345526;-0.038662147;0.056471422;-0.047700163;0.015420101;0.022509158;0.042931743;-0.0041583404;0.010610595;-0.08912189;-0.037732963;-0.032315727;-0.00072374096;0.004282233;-0.050594617;0.066007;0.0451604;-0.019076733;-0.0069575873;-0.008961222;0.05181509;0.095568135;0.058734823;-0.10478687;-0.0017571466;0.07320187;0.06520201;-0.026462879;0.0017088564;-0.020778384;0.0039607314;-0.06813525;-0.070515014;-0.03437762;-0.15807523;-0.016249735;0.1088164;0.008481625;0.06291863;0.0698843;0.008840069;0.057658035;0.06414872;-0.17033786;0.01676153;0.15257925;0.034248035;-0.051494934;0.079815686;0.059359804;0.009555539;0.06975088;0.047776613;0.014016457;-0.051012155;-0.013459167;0.032584753;0.15026197;0.04087921;0.08277038;-0.08726093;0.028907305;0.13332246;0.03140326;-0.00779013;0.0041155843;0.056851357;-0.015374126;0.20340914;0.00047864963;-0.0036585468;0.050062057;0.00936333;-0.027833309;-0.017549649;0.043541335;-0.034689326;-0.0073713963;-0.0002716844;-0.058683302;0.06735548;-0.018264484;0.072844714;0.028679268;0.041469272;0.014113153;-0.05139951;0.067302585;0.06880088;-0.010720159;-0.10144865;-0.024980765;-0.08839749;-0.0046124817;0.06413232;0.021859294;-0.073518015;0.032868;0.021905048;-0.061545074;-0.074293956
0.12891513;-0.16724671;0.0033628766;-0.06920304;-0.030390885;-0.030117631;-0.069519006;0.121715456;0.07418182;0.05051671;0.07260591;0.049985055;-0.017151533;-0.0006658714;0.06869185;0.06359504;-0.098678485;0.21135497;-0.0145323565;0.03904324;-0.06411546;0.036548655;0.059047576;-0.0735801;-0.051833786;0.098239556;0.0714572;-0.110783875;0.11183685;-0.08199077;0.08511818;-0.10654801;-0.058640245;0.01873038;0.057183813;0.076115154;-0.032584954;-0.036763243;0.03156993;0.06734134;-0.037418764;0.11900095;-0.023887224;-0.071879014;0.079038724;-0.08103611;0.026463011;-0.032637987;-0.09078202;-0.08987688;-0.047205456;-0.08421948;-0.097935855;0.015824515;0.08785085;-0.07128115;-0.042953037;-0.081421316;-0.023288788;0.036605332;-0.009753513;0.0068093627;0.0011485276;0.091182046;-0.12856637;0.15050566;0.039368507;0.121587686;-0.0921599;0.019230917;-0.031785592;-0.052353363;0.09782814;0.01429126;-0.014510653;0.18774682;0.09980608;0.015079456;-0.031002518;-0.0019020351;0.04879852;-0.061077513;-0.11707919;-0.015774583;-0.02321111;-0.0370328;0.05997936;0.052225284;-0.05082218;-0.017421415;-0.0261488;0.08461353;-0.042631883;-0.044765223;0.0142878;0.0062080445;0.03257255;0.07509773;0.057890303;0.034023426;0.049414996;0.048693676;-0.0730999;0.044841114;-0.0049105184;-0.049031515;-0.0016237657;-0.04024004;-0.05094612;-0.03906154;0.0909031;0.08413486;-0.024402335;-0.04063591;0.07737662;-0.016686678;-0.0074023814;0.015435868;0.07242206;-0.050097726;0.043215625;0.008021765;0.042142466;0.05360705;-0.06470844;-0.08497289;-0.07529944;0.061725546;-0.08287739;-0.09478757;-0.1036797;0.03493561;0.08230238;-0.04758402;0.036260698;-0.028478682;-0.00922724;-0.030318208;0.08292934;0.029177837;0.044576574;-0.015913;-0.03744868;-0.019581318;-0.08586933;0.007675997;-0.07088698;0.023247436;0.0072343214;-0.025252631;-0.04498597;-0.021274177;-0.059927918;-0.13834482;-0.033180412;0.101790965;0.13225809;0.05586847;0.009241844;0.02007119;0.030153045;0.052268583;-0.078695714;0.12513807;0.038101915;0.081505544;0.03166462;-0.0038831325;0.001309813;-0.033472653;-0.039318364;0.057474583;-0.07497592;-0.027193956;0.023738122;0.06186559;0.0022789603;-0.10232912;-0.07589844;-0.054922923;0.1566513;0.12385782;-0.070911035;-0.015142397;-0.01720632;-0.05063975;-0.12952274;-0.028792866;0.012813986;0.023089048;-0.16456972;0.020559525;-0.03751191;-0.0025039522;-0.009704798;0.06452508;-0.009620456;0.04182524;-0.020170422;0.004713871;0.06642657;-0.04532045;0.030661738;-0.024678007;0.074346885;0.08483769;0.14705154;0.0073105693;-0.1389268;-0.050350796;-0.05042115;-0.042585384;-0.051112298;0.029323453;0.028943447;-0.07643863;0.013003062;-0.094222635;-0.034810267;0.0748286;0.058587894;0.105408415;0.0651805;-0.0061997967;0.0012506861;-0.05220882;0.064436905;-0.059422996;0.043651287;0.033914577;-0.032559402;0.04050729;0.04757029;0.035760157;0.0390698;-0.0933413;-0.049739517;-0.059813183;0.07803013;0.022008898;-0.048952106;0.06991833;0.036652617;-0.082548045;0.073164284;-0.001840741;0.025787279;0.0013837657;-0.039839942;0.022674413;0.13507597;0.0009316685;-0.03820244;0.054835603;-0.021833234;0.061224606;-0.09439919;0.019865166;0.06450812;0.012072551;-0.050933633;0.102161795;0.040856075;0.0516978;-0.10581919;-0.017697355;0.013466773;0.08899376;-0.025451958;0.09558927;-0.03970195;-0.039496634;0.05309787;0.08218752;0.12867469;0.051275924;-0.020063948;0.052506655;0.007336711;-0.097205386;-0.08571125;0.17132461;-0.06161359;0.0039955764;0.013138616;0.0057931207;0.061440725;0.07070846;-0.0947495;-0.062182005;-0.028781895;0.15646377;-0.07079435;0.0073255803;-0.013025638;-0.09735357;-0.0049152244;-0.049221866;0.2196879;-0.0700938;-0.053288072;0.073127635;0.07731213;-0.074946046;0.012137716;-0.041831795;-0.07295617;0.015732853;-0.043402318;-0.055291463;0.095967725;-0.014300918;-0.044588517;-0.04196926;0.038456228;-0.06468939;0.05938885;-0.054287415;0.087654926;-0.06399672;0.015514359;-0.023933494;0.06549633;-0.099140614;0.022979943;-0.05481321;0.06791325;-0.081104696;0.0808283;0.055899937;-0.0034346902;-0.0808789;-0.0721528;-0.08570273;-0.12283101;0.01759454;-0.074875705;0.010250141;0.091164306;0.04781392;0.11778255;0.115402326;0.08332102;-0.11536796;-0.027468938;0.12010711;-0.02036913;0.07963313;-0.06398406;-0.08219013;0.03677881;-0.117067225;0.009178777;-0.09407276;0.025241304;-0.07904302;-0.08543713;0.20620066;-0.13905455;-0.04496325;0.026940515;-0.009753029;-0.11617515;-0.06653946;-0.081351966;0.022243572;-0.07695634;0.14994094;-0.016005738;-0.0076236175;-0.039788075;-0.08175446;0.056104068;0.06192601;-0.021380382;-0.028685385;-0.06350342;0.16178025;0.012638167;0.065102674;0.095453754;-0.0074304016;0.020399326;0.11667403;-0.1927843;0.037416346;0.14934702;0.13329288;-0.0084968;-0.042544596;0.07511933;-0.03946518;0.13846134;0.045403354;0.037455644;0.076381624;0.070804924;0.091691785;0.060392823;-0.05159237;0.08184537;-0.0799731;-0.06285612;0.038721025;0.054179024;-0.07842016;0.03881053;0.042162117;-0.09738399;0.0481112;0.09777297;0.091254465;-0.015053193;0.11653817;-0.00036492472;-0.018189155;0.062138148;0.077268295;0.023597172;0.039505046;0.026967723;-0.045869842;-0.06163695;-0.049493466;0.08041872;0.03470517;0.018488396;0.022496318;-0.07045046;-0.054744206;0.04379671;-0.0041871257;-0.009628345;-0.00449518;0.0281648;0.12512025;-0.032187533;-0.09272765;0.056831874;0.093061425;0.069929756;-0.089541264;-0.116876185;-0.023384906;0.061541725;-0.057472095;0.011100092;-0.041842245;0.10902535;0.04542276;0.013853613;-0.07112382;0.11378966;-0.078128345;-0.1690826;0.03782757;0.009229436;-0.021732358;-0.03470828;0.022512183;0.051580645;0.061364237;0.0017619033;-0.03090432;0.07723163;0.029200565;0.062359583;0.064434126;-0.03419267;0.11587819;0.16491425;0.10190768;0.14591892;0.047220793;-0.046550736;0.012734984;0.01452122;0.0052057495;-0.024910985;0.016109264;0.023915563;-0.04647359;-0.08632381;-0.04542288;0.12895733;0.06593159;0.007132511;0.08198147;-0.104646884;0.017013805;-0.039797183;0.03772686;-0.06883331;0.039731845;-0.08854715;-0.04437553;0.09762613;0.000742628;-0.02331908;-0.020481091;0.049237296;-0.050333664;0.038690146;0.030591136;0.012090997;-0.008506068;-0.006916297;-0.019684946;-0.031173993;-0.033315584;0.102103874;0.0071704243;0.13913956;0.14137113;-0.060181074;0.12919135;-0.073803194;0.0936067;-0.057823066;0.034924947;0.18264218;0.121623315;0.029621992;-0.025986744;0.040434547;0.03782219;0.04094962;-0.083598055;0.10365499;-0.013153683;-0.018918335;0.031483736;0.11405161;0.112653255;0.026364682;0.072295375;-0.06966535;0.121102065;-0.04992542;0.084954;0.07703309;-0.007464102;0.08534152;0.09969932;0.019327616;-0.016842954;0.00053249544;-0.047031697;-0.05558522;-0.018860344;0.028286904;-0.002951338;0.0020407212;0.013743004;-0.014695092;-0.047966126;0.0028791858;0.029001344;0.05699464;0.088629685;-0.04506534;0.08448139;-0.0392314;0.028191498;-0.032696802;-0.098462455;0.03715935;-0.029329848;0.0666611;0.1283058;0.04561395;-0.11081481;-0.074422106;0.08899271;-0.02471588;0.017114162
0.06908458;-0.100477606;0.023295825;-0.02784897;-0.014931984;-0.08272691;-0.028099425;0.096287854;0.03556886;-0.0133440355;0.06859877;-0.014043649;-0.0077087944;0.05528375;0.069621205;0.09411436;-0.114946865;0.12683024;0.013896687;-0.0756653;0.1044791;-0.0020438388;-0.0060765725;0.016871084;-0.014990106;0.054961056;0.1096981;0.088158175;0.10090568;-0.117915235;-0.046628155;-0.0071275933;0.017165717;-0.013081311;0.02918883;0.13237646;-0.06710569;-0.018370215;0.061721314;-0.0408976;0.049025707;0.09890767;0.07362923;-0.017237732;-0.043324966;-0.03449101;0.0038758018;0.09300373;0.018334096;-0.11572044;-0.004913858;-0.08622983;0.06442124;0.04108256;-0.061982844;-0.05643298;-0.08033215;0.042445105;0.020519575;0.07618319;0.028845288;-0.031494025;0.090605535;0.030929625;-0.14907825;-0.006099154;-0.050635215;-0.015702603;-0.06929165;0.09629922;-0.00418523;0.07119821;-0.056012295;-0.017038606;-0.09238255;0.063539125;-0.02832786;0.03055083;-0.10902075;-0.0660024;0.06429153;-0.017383622;-0.0044966014;0.048234094;-0.006036849;0.014861771;0.079176754;0.043767605;-0.0016287671;-0.055044904;0.049036328;-0.018288458;-0.0528294;-0.035776448;-0.05673683;0.11599015;0.004779344;0.009508687;-0.04339967;0.02931498;0.043032248;-0.0005636208;-0.04484338;0.0023154914;0.023313355;0.024061559;0.032627963;-0.04977358;-0.04081998;0.050261516;0.034319058;-0.022357415;0.0058306498;-0.03962677;-0.06365931;0.02493108;-0.041658837;-0.07503031;-0.0045918496;0.0049657067;0.009384445;-0.012419444;-0.08768954;0.059069905;-0.035870653;0.0016086783;-0.0703819;-0.020566218;0.058873024;-0.059270654;-0.046652474;0.1051584;-0.029815752;-0.031190287;-0.01546473;0.058134012;0.060646955;-0.054539476;-0.032461453;-0.048960947;0.076980524;-0.03818367;-0.00443952;-0.048260733;-0.052454002;0.08114142;0.04875133;0.0397521;-0.12811026;0.09012481;0.040083397;0.060449682;-0.009492463;0.01116007;0.05636185;0.013944147;0.01243805;0.016594464;0.0071947766;0.005769094;0.051944297;-0.040434133;-0.067101926;0.011534466;-0.014239439;0.053479776;0.019257149;0.026813092;0.0076576276;-0.04371969;-0.017861191;-0.032727323;-0.022186644;0.010745367;0.038892917;-0.08890616;0.06467952;-0.034696884;-0.0317213;0.064560644;0.1682053;0.050098073;0.08304518;0.08729608;-0.047704544;-0.07905864;-0.06195465;-0.020155663;-0.024600139;-0.03722682;-0.14233932;-0.02732755;-0.012210298;-0.027723953;-0.08975378;0.07065746;0.0022293483;-0.041429054;-0.034977164;-0.03899017;-0.042673655;-0.06741087;-0.051363748;0.005965168;0.01936865;0.004432749;0.020885034;0.015338378;-0.034380276;-0.013564185;0.06256089;0.016640607;-0.05774761;0.017608624;-0.0374168;-0.067122616;-0.04339927;-0.07551883;0.10392018;0.015575758;0.013701295;0.07536748;-0.035184935;0.07959599;-0.010725954;-0.016781447;-0.034017928;-0.044118173;0.015415901;-0.000951909;0.011600167;0.04212955;-0.018144755;0.0943724;0.058843773;0.05842157;0.0052328636;-0.031994335;0.05371564;-0.046145942;0.0111129135;-0.04328147;-0.020071225;-0.06804391;0.017970953;0.06554038;-0.046485975;-0.076995745;0.10304049;-0.0029536146;-0.020399826;-0.022273185;-0.003193393;0.053907152;0.032480884;-0.06661848;-0.06195223;-0.0206131;0.09716503;0.0038643149;-0.08050592;0.07032175;0.05893397;0.06804796;0.045072485;0.09378806;-0.013165141;0.025209175;-0.02953875;-0.0641149;0.06516358;0.09813793;-0.020433635;0.07682854;0.074007615;-0.107269876;0.009572049;-0.054288372;-0.051723238;-0.037705995;-0.034855247;0.09844739;-0.044654522;0.08803195;-0.021830218;0.015828874;-0.064178094;-0.010203602;-0.030606043;0.03202591;0.061912637;-0.012246062;-0.054710906;0.0340773;-0.0035841966;-0.026888037;0.098510616;0.010936042;0.046941243;-0.09329488;0.07992364;0.0031022804;0.08921516;0.084592976;0.023750117;0.060100563;-0.0060101068;-0.0058886386;-0.11850219;0.0542276;-9.853701e-05;-0.012541986;0.053837053;0.006799127;0.018749965;0.031365473;0.09424229;0.03835818;0.07847628;-0.0064833458;-0.033487193;-0.036108896;0.0043819095;-0.07919354;-0.065046996;0.06405192;0.031424537;-0.066879384;-0.034516342;0.08237071;-0.092186645;0.0033851352;0.06838169;0.04403375;0.0029844916;-0.0057559237;-0.06174268;0.0742637;0.07706613;-0.024507735;0.07420419;0.03225707;0.0236156;-0.012976053;-0.1069242;0.092055894;-0.062916115;-0.08167301;-0.023113068;0.11317182;0.0577804;-0.07851332;0.028653573;-0.060995728;-0.08709421;-0.08436243;-0.10433318;0.07318934;-0.046099193;0.09577288;-0.054607294;0.034394354;-0.12351727;0.056035448;0.0057685645;-0.009205973;0.045387577;0.13712882;-0.04853055;-0.028848909;0.05534374;-0.028647576;0.045978274;0.077428244;-0.013981572;0.0655082;-0.08042155;0.014025123;0.031735647;0.093947455;-0.004519057;0.030839583;-0.046678063;0.1457696;-0.17185073;-0.033872653;0.09334225;0.109043114;0.08617283;0.08394517;0.0565061;0.057503432;0.11941593;0.021701584;-0.016803483;0.037868146;0.0031005219;0.013188378;-0.057193954;-0.08555575;0.06793022;-0.036906153;-0.060711987;0.01718521;0.041767977;-0.04788751;0.088484734;0.06667074;-0.088680096;0.007252301;0.014574388;0.09086217;0.017323924;0.03574515;-0.0653132;-0.122819826;0.07007917;-0.041492864;-0.04756443;-0.012472353;-0.047914363;0.05025604;-0.01808991;-0.011531015;-0.029433219;0.06751211;0.033667017;-0.0140730245;0.030437006;-0.018570375;0.06642891;0.045129996;0.05168812;-0.0052739717;-0.13310748;0.055151403;0.0545092;-0.06994366;-0.017675638;0.0054002753;0.048254285;-0.10369026;-0.030739265;0.09058903;-0.018567776;-0.056954626;-0.06306316;-0.052525442;0.028099924;0.11422384;-0.011989232;0.056342736;-0.007028329;0.03803206;-0.09282838;0.07679412;0.008546182;0.04091493;-0.04032816;0.0691787;0.033127658;-0.047536474;0.029933894;-0.061459374;0.03421271;-0.0012376521;-0.012361291;0.0084503805;0.03885169;0.06633968;0.09484249;0.025451811;0.06215388;0.07933492;-0.055530727;-0.11968188;-0.0144212665;0.00918151;0.0114490185;-0.09273089;0.021268627;0.055579383;-0.029591704;0.04981645;-0.05326324;-0.01805196;-0.012162207;0.101548836;0.05671045;0.013446718;-0.04015483;-0.11400897;0.022779848;-0.036957722;-0.021772379;0.017197885;0.07152749;-0.066227816;0.08687503;-0.050355554;-0.00767702;-0.017036704;-0.059439298;-0.03373906;0.0370498;-0.018976642;-0.10511381;-0.05634564;0.06923614;-0.1810631;0.024748417;0.08730745;-0.024815993;0.09063431;0.0015831807;0.024437908;-0.052523524;0.0067368713;-0.074158736;-0.00030689297;0.0738655;0.021008877;0.037709285;0.08552589;-0.05289085;0.0538763;0.102408275;-0.0636418;0.13054378;0.03910545;0.047293793;0.025854036;0.1135056;-0.02362034;-0.032524727;-0.011730795;-0.05072914;0.023329506;0.0740624;-0.07539242;0.03026408;0.060866024;0.07355848;0.16411231;0.056815043;0.021358602;0.028467549;0.032455176;0.054862104;-0.007983793;-0.03553317;0.022380637;0.09208548;0.082749955;0.021479068;0.013361788;-0.044444587;0.079975575;-0.00037472515;-0.037014615;-0.031374354;0.10093733;-0.05939511;-0.07648344;-0.009388783;0.014338804;0.06535353;0.04284686;0.12096081;0.081524976;-0.031944413;-0.08519511;-0.019288236;0.08932839;-0.042365383;-0.061316144
0.03458643;-0.03566687;-0.055935685;0.013090908;0.061027646;0.058779757;0.042925727;0.06816526;0.052674856;-0.07944849;0.07694659;-0.053641625;0.013987884;-0.012801225;0.011908295;0.06214491;-0.04747745;0.060657438;-0.038577974;-0.06569859;-0.0644038;-0.0022931674;-0.049331117;-0.0043409085;-0.017932786;-0.012130873;-0.042122778;0.10914782;0.079273485;-0.0039543416;-0.03654956;0.08598555;0.064581245;-0.10978708;-0.072371036;0.09772724;-0.085556895;0.056819074;0.0011707547;0.049381536;-0.043623447;0.08555345;-0.032702066;-0.096268944;0.08683818;0.06707744;0.025025947;0.081813484;0.05701502;-0.11047669;0.048435353;0.04739049;-0.052797146;0.030687522;-0.022751242;-0.04092942;-0.038073104;0.076952666;-0.019595701;-0.022501333;-0.016117785;0.040898897;-0.05386615;0.024838127;-0.10086621;0.014634028;-0.054632075;0.041342933;-0.06471833;0.110159375;0.07060871;0.07950865;0.07085523;-0.017398471;-0.0251026;-0.05052746;-0.0031998623;-0.0669506;-0.09691725;-0.11754526;0.013228647;0.072031185;-0.15891694;0.093247555;-0.058950316;0.009200964;0.085522965;0.07860642;-0.022623757;-0.042503946;0.07432276;0.0051167137;0.054970037;-0.12447278;0.03221414;0.09204534;0.11576707;0.050387233;-0.0052109472;0.032959025;0.1483988;-0.054519646;-0.08675475;0.019650307;-0.03222197;-0.03549512;0.040879592;-0.055173483;-0.10711334;-0.045699183;-0.038883775;0.055554356;0.09802071;-0.016731422;-0.06519249;-0.050088547;0.10652933;0.00033983713;-0.019546203;0.056041975;0.034809433;-0.025773916;0.036726978;0.008904735;0.063568965;0.100641124;-0.0145875;-0.059091244;-0.06520096;-0.049848437;0.03652893;-0.0027325104;0.06865833;-0.026053341;0.05469796;-0.062924705;0.04311165;-0.08593379;-0.02634255;-0.11471875;0.014378842;-0.016699318;-0.09615499;-0.07419823;0.05453265;-0.051619526;0.04351573;0.03519923;-0.1402182;0.029717933;-0.010246981;0.039574;0.065369636;0.022453116;0.044312336;0.06281536;0.064152375;-0.095119126;-0.07583513;0.050574586;0.021495098;-0.018133603;0.015128648;0.08367829;-0.062487036;0.0008793842;-0.050066598;0.03871484;0.08288359;0.054283883;0.11144314;0.03246539;0.03596142;0.02874579;0.026790034;-0.0169424;-0.08047031;0.050890215;-0.051280137;0.02559311;0.11065679;0.05606647;0.094888546;-0.0381446;-0.028196594;0.02557034;-0.14462888;0.028049307;0.048840307;-0.040436536;-0.04198234;-0.023554139;-0.037864584;0.008206916;-0.09771696;-0.10067459;0.030554028;0.021787878;-0.0011935048;-0.007352466;-0.055732492;0.052221708;-0.032583036;-0.015541318;0.011038476;0.014812331;0.057407763;-0.05283851;0.002919397;-0.0021279966;-0.042170946;0.02767501;0.07398088;0.075397864;0.055709176;-0.06769023;-0.045214225;0.040351797;0.083891846;0.008531339;0.02667634;0.07595136;0.036433857;-0.06579913;-0.07333994;-0.065030314;-0.023410609;-0.083704464;0.008498117;-0.023006614;-0.03542754;-0.07001249;0.042492684;0.10553604;0.04887427;0.034543063;0.072770014;-0.03737913;0.083047524;-0.08656462;0.037865426;0.044931933;0.08160696;0.01674606;-0.07647582;-0.060081966;0.0043062577;-0.0266612;0.02202225;-0.05840885;-0.0369431;-0.050259423;-0.029599018;-0.03030041;-0.008949126;-0.06557016;-0.026614983;-0.044416167;0.052020513;-0.046957187;-0.0066210725;-0.0275982;-0.012862289;0.07588056;0.025850426;0.035101827;-0.063346095;-0.040211108;-0.035893142;-0.049247593;0.043587558;0.003946738;-0.055843644;0.033950325;0.014982808;-0.07792528;-0.006094558;-0.04468911;0.004552578;-0.1491288;0.091541745;0.07193445;-0.036746208;0.030858733;-0.05255769;0.04593422;0.06892467;-0.042130273;-0.04719087;0.075085476;0.029022438;0.03806547;-0.09609992;-0.017882442;-0.078113616;0.092543;0.09282864;0.060332272;0.10304031;-0.048206773;-0.039850943;-0.00534853;-0.00628777;0.1107987;0.089664064;0.06426702;0.091173574;0.10655727;-0.038999088;-0.04468217;0.08832345;-0.014303514;0.07378574;-0.03742729;0.0498679;0.052649383;-0.029493874;0.07349151;-0.021332003;0.046346128;-0.026272874;-0.047046814;0.0982862;-0.055478435;0.010329872;0.06790829;-0.03536614;0.005098005;-0.04264356;0.003989524;-0.09303094;-0.12512536;-0.045338742;-0.012604681;-0.051102795;0.0126635665;-0.030100768;0.078604795;-0.0014069632;0.08431092;0.0495226;-0.012714568;0.02352029;-0.07166163;-0.04801686;0.0958551;-0.0023067796;0.03204431;0.00050245895;0.07682547;-0.0022636943;-0.07399087;-0.027951438;0.011256753;0.017898953;0.034544438;-0.0792994;0.052654713;-0.09602715;-0.014535629;0.02946671;-0.04332651;-0.11201228;0.051700197;-0.051776953;-0.0037931083;0.033663284;0.06676078;0.017083317;0.075423904;0.09377586;0.066907376;0.09349161;0.019230584;-0.027926221;0.057181306;-0.07459433;-0.06854902;0.05984047;-0.029434077;0.07066204;0.096507974;0.0038097387;0.034275476;-0.20161387;-0.013676415;0.060655743;0.10202344;0.02177343;-0.04059907;0.06318952;-0.005653616;-0.03239895;0.016924923;0.044260997;-0.06323675;0.04438019;-0.07325899;0.0046472186;-0.030273445;-0.04577174;-0.039768327;0.051728427;-0.022112144;-0.064012766;0.06746607;0.069869384;0.097961664;0.048594516;0.04879821;-0.029422147;0.029234847;0.03682372;0.10687735;0.036900632;-0.12774369;0.09042198;-0.054419708;0.04719934;-0.029257258;-0.06066536;-0.001960524;0.04687139;0.005005613;0.08840222;0.04993745;-0.024878955;-0.060653817;-0.091966964;-0.019380061;0.07693966;0.035626512;0.07334715;-0.022695148;-0.102717556;0.10420881;0.046504974;0.004678343;0.08631067;0.045502447;-0.04814184;-0.10224367;0.08019775;0.03950451;-0.029029094;0.0031136943;0.051266156;-0.020136515;0.07749517;-0.017763942;-0.019882454;-0.078677006;-0.0088839205;0.032702696;-0.1558777;0.05064139;0.050850436;-0.0011679449;0.01714746;-0.017338429;0.08238909;0.03334666;0.042563904;0.054530658;-0.010817399;0.02216213;-0.036665626;0.045964297;0.091346174;0.06274339;0.048732266;0.08406585;0.06119007;0.058320582;-0.029124735;-0.054521617;0.0060335915;-0.059639644;-0.025618067;-0.00735053;0.045625333;0.0059513324;0.05574638;-0.010245748;0.014111604;-0.010040332;0.05810552;0.010283064;-0.021574581;0.037603024;-0.022464924;-0.111667484;-0.013289553;-0.14930832;-0.0371206;0.065318614;0.041896462;-0.015341033;-0.01056977;0.10558386;0.02333308;-0.06766293;-0.060862716;-0.01240181;-0.07232277;0.029706826;0.04145482;-0.0024867165;0.052704673;-0.14788102;-0.039342266;0.034010034;-0.030223303;-0.03727257;0.029754816;-0.01713593;0.038873125;0.08478184;-0.014967253;-0.006472244;-0.009138158;0.08628265;0.08220149;0.042841915;-0.081412174;0.0125742;0.0001220845;-0.03255733;0.06452664;-0.03748989;-0.022738755;0.047976084;0.066842586;0.0045377947;0.04545239;0.0027027046;-0.011385692;-0.04742169;-0.06534809;-0.06112624;0.061802894;-0.0046160063;-0.06625002;0.10479039;-0.01634732;-0.030477175;0.07747983;-0.08816879;0.022828378;0.0026729354;0.02347618;0.037640996;-0.07070383;0.02215533;0.06397818;-0.013606338;-0.059478194;0.10429475;0.052252546;0.013095486;-0.07393445;-0.007415755;0.007327452;-0.077496156;-0.024222175;-0.11146587;0.063910365;-0.098824084;0.08758291;0.028210714;-0.06335636;-0.13100174;-0.007200449;-0.013726206;0.01917648;-0.08072628
0.053019617;-0.10244854;0.031693053;-0.019775182;0.008662706;-0.08948972;0.025261134;0.044621766;0.026307577;-0.018705256;0.014139071;0.07815769;-0.060983572;-0.024720905;-0.07316061;-0.009823464;-0.017951393;0.005550398;-0.06758807;0.029574918;-0.044378947;0.07768189;0.0002556298;0.084111035;-0.051625177;0.09760038;0.024182461;0.028335378;0.03497293;0.0614449;0.096874565;0.07127336;0.01540271;-0.009569973;0.04357563;-0.011767369;0.00487268;0.00019712962;-0.0046764775;-0.03554757;-0.0035833109;0.024781417;-0.03410724;-0.12037861;0.10848133;0.07464939;-0.05920472;0.05522174;-0.06347128;0.025168229;-0.054527786;-0.085930996;0.08644977;0.093177296;0.07765391;0.03362223;0.0024547363;0.04800197;-0.02347716;0.009499485;0.019930352;-0.06428511;-0.0796757;-0.037478887;-0.0773908;0.017859738;-0.09131364;-0.0148621835;-0.082511164;0.0018817972;-0.0018051167;-0.056389436;-0.059669554;0.064550556;-0.026719853;0.104083076;0.05943573;-0.04486747;-0.10248433;-0.08460928;0.06301376;-0.074064344;-0.1605902;0.072242655;-0.00016521988;-0.00011626559;-0.058562107;-0.029015675;-0.001592516;-0.08156132;0.06948543;0.060631637;0.05427969;-0.05468938;0.09903674;0.015755596;0.034810804;0.0412872;-0.017732069;-0.02264526;0.02205369;-0.010281666;-0.008407136;0.026831955;-0.08856971;-0.046077974;0.07125507;0.0499706;-0.08188676;0.03844819;0.055681705;-0.0034920492;-0.0044595846;0.06742114;0.033335675;-0.02884518;0.058631018;0.0547093;0.048560042;-0.006338026;0.08557746;-0.026358243;-0.11202789;-0.073889956;0.005176554;0.00045144578;-0.091701485;0.040438715;0.06527555;0.08320179;0.0008652948;0.027011592;0.041217644;0.031482182;-0.007529456;0.04630122;0.06901185;-0.11814836;0.039111547;-0.07287055;0.045392167;-0.10261957;0.0014108903;-0.005783332;-0.05501795;-0.055811696;-0.060045175;-0.05473413;-0.009755125;0.0007390104;-0.06942439;-0.045916654;0.010379709;0.0027393205;0.06357592;0.03622052;0.03794527;-0.038200054;0.03624916;-0.060913518;-0.07862278;0.041859962;-0.038885336;0.030389898;-0.06501528;0.028002137;-0.06616855;0.057573784;0.015824694;0.09800968;-0.049737334;-0.11866925;0.056963854;-0.047861736;0.04918005;-0.08067131;-0.013352912;-0.042712778;-0.06338962;0.061219044;0.07502175;-0.045568865;0.0040868237;-0.0017423176;-0.042975247;0.010250305;0.045196302;0.0061573773;0.09522212;-0.049573015;-0.114997774;0.07021612;0.013593531;0.09679194;-0.023143379;0.030428166;0.06449142;-0.055138234;-0.07761712;0.0685673;0.018282682;-0.066045836;0.06429686;-0.008108854;0.0964072;0.052202933;0.059977744;-0.027487261;-0.06065625;0.0064132335;0.09627919;0.09768667;0.022836378;0.041683115;-0.017041681;0.05669616;-0.052326445;-0.01539919;0.025358545;0.0439418;0.026822124;-0.017630924;0.00495988;-0.04987848;0.048815973;0.0036464462;0.023982858;-0.12502821;-0.060180597;-0.03864276;0.08354992;0.030391715;-0.018941065;-0.049191;0.021318318;-0.07137626;0.016526714;-0.028351784;-0.071887575;-0.030093877;-0.020238422;-0.0041542593;-0.05365538;-0.05397973;0.023837904;-0.003660595;-0.023120575;-0.018969234;0.09604232;0.0812228;-0.009853236;0.008562161;0.045943137;-0.04148368;0.082269385;-0.019253246;-0.015141239;0.08025325;0.049141157;0.011064707;-0.034594543;0.00055641617;-0.04635159;0.020898014;0.07663356;-0.045252334;0.08749949;0.03093511;-0.19539927;-0.016682299;-0.02643187;-0.0707901;-0.025248153;0.06925831;-0.0415077;0.008702237;-0.08603004;0.06494216;0.084269635;-0.095245406;0.08090464;0.044471875;0.014429824;-0.022636017;0.033016488;0.03474027;-0.010841667;-0.018295698;0.085644305;-0.020515254;-0.011694453;0.13337255;-0.018789543;0.08186137;-0.042881865;0.042346083;0.037263226;-0.050248377;0.058538776;-0.042166047;-0.047823466;0.046821;-0.058429863;-0.015982063;0.041308504;-0.088582665;-0.04282788;0.04878226;-0.112802394;0.05406785;0.02607428;-0.0897079;-0.0074459147;-0.07786721;-0.046297792;0.02343589;-0.030981287;-0.029218247;0.10232222;0.0609175;0.081063986;0.034343936;-0.008261078;-0.033736523;0.022960916;-0.054620877;0.042566158;0.024755917;0.005863116;0.024949;0.0025051336;-0.06186887;-0.04475988;-0.009706057;-0.014075166;0.054522052;-0.006828661;-0.0028373166;-0.039499216;-0.036937177;-0.027607476;-0.010068535;0.06799997;-0.047808085;-0.03356295;0.054918874;-0.020258563;-0.050952885;-0.0269126;0.02391564;0.08118263;0.005469327;0.06137263;-0.090456784;0.0025623867;-0.0585299;-0.12862816;0.096388675;-0.066683844;-0.010146877;0.038155712;-0.0031787888;-0.12167496;-0.069255926;-0.0013245262;0.06101333;0.047904722;0.08450353;-0.008277246;-0.06319452;0.0044161296;-0.02387867;0.04789205;-0.04275198;0.028950693;0.023038434;0.046223324;-0.09221056;-0.03899579;-0.0062943716;0.04753316;0.043874864;0.043355245;0.10157621;-0.18759045;0.0639685;0.0050354493;0.07248017;-0.0037331185;-0.0068187146;0.0240318;0.049765788;0.05873289;-0.038336355;0.043343745;-0.050739672;-0.048126657;-0.027219888;0.029178007;0.011088825;0.07841543;-0.0065576565;0.044188358;-0.019398041;0.027538562;0.009067154;0.039320286;-0.034553055;-0.048481703;-0.05347081;-0.066610925;-0.055747494;-0.008016853;0.07305937;0.049584202;-0.06974766;0.05521808;0.06687736;-0.046390645;0.054947183;0.02364329;0.047346026;0.04374754;-0.0634014;0.012001934;0.024296526;-0.04965042;-0.027150163;-0.033365674;0.08086286;0.0059976964;0.05307704;-0.004046864;0.019503593;0.0017144642;0.04288161;0.008251415;-0.0006950138;-0.051959626;0.038055472;0.07895899;-0.014704007;0.04066262;-0.035578888;0.113301165;0.014160617;0.08631674;0.09452643;-0.04244001;0.028900122;0.08899509;-0.062772095;-0.057302035;-0.025826355;-0.11810627;-0.067761295;0.07680372;-0.03990716;0.07536406;-0.035916086;0.014486104;0.11300705;-0.03135194;-0.016877197;0.0077153584;-0.008175733;0.009926753;-0.07447768;0.10308325;0.010456557;-0.026754543;0.03113635;0.003281326;0.0032138918;-0.0013522232;-0.045535654;-0.021611022;0.0150031885;0.054346114;0.023633316;-0.018234989;-0.05104719;0.0768985;0.04446034;-0.0666857;-0.061811496;0.049971126;-0.062079705;0.051558573;-0.050065074;0.06269451;-0.016484123;-0.017294018;-0.11259534;0.05632706;0.03735261;-0.0421008;-0.05239527;0.050410025;0.08186867;-0.03270239;0.009122066;0.023545332;0.05362031;-0.00044352483;0.019403908;0.077771485;-0.063353434;0.047637854;-0.030740242;0.04632946;0.10206412;-0.011437857;0.006418728;-0.020152055;0.07857754;0.07975225;0.0686002;-0.0039466056;0.10319474;0.1617364;-0.06004961;0.062620275;0.101949655;0.007090276;0.044574644;0.05069502;0.0022670531;0.075049914;-0.021266932;0.026333656;0.02778365;0.02692547;-0.06658032;0.0820918;0.08000439;0.0042824657;0.06339276;-0.0057797986;0.013014047;-0.016574241;-0.0008670957;-0.014708569;0.033210076;0.02464861;-0.011490534;-0.01997651;-0.03938757;-0.045926414;0.0678982;0.095907666;-0.047036525;0.07560868;0.047338672;-0.056008197;-0.06287049;0.079287075;0.08897885;0.10159506;0.10079953;0.08349464;-0.012468467;-0.07792474;-0.010793623;0.028856352;0.02299389;0.014866322;0.0147800045;0.022322387;0.048574567;0.0648676;-0.15827008;-0.057537857;0.075318046;-0.03494924;-0.037232354
0.1322581;-0.05166448;-0.02152418;0.10156216;0.050668746;0.043759316;-0.018640168;0.05495493;-0.06530582;-0.06407807;-0.008526233;-0.062377427;0.078304395;0.06253701;-0.018211821;0.008577005;0.08598255;0.11635066;0.08472747;-0.07531273;-0.000913703;0.032243162;-0.020106547;0.06698191;-0.061630152;0.0010499412;-0.04940286;0.04853154;-0.05401519;0.04540746;-0.03632571;0.0563805;-0.049464036;0.084733374;0.023163833;-0.09122485;-0.020460723;-0.046080504;0.08318578;-0.07006604;0.061069496;-0.027600165;-0.03943559;-0.09022507;0.053852145;0.0085714385;-0.037864767;-0.024330264;0.073163144;0.010259791;0.024620892;-0.03466189;0.01862376;-0.028809546;0.033283614;0.1393956;-0.12617873;0.08703472;0.045620106;-0.0013887685;0.030204246;0.05541274;0.07263321;0.004246681;-0.1085027;0.07715893;0.008314329;0.10352147;-0.067770705;0.07597414;-0.06226984;0.033204746;-0.005456172;0.042479746;0.06337937;0.061853807;0.02541829;0.043742783;-0.07584873;-0.09129946;0.062426604;0.0043733516;-0.009729803;-0.024239833;-0.043945875;-0.04759984;0.0065500913;-0.011615486;0.09408121;-0.016098375;-0.04379546;-0.05005177;0.070525944;-0.06679882;0.033443246;0.033696357;0.10405222;0.0696646;0.04798653;-0.01590655;0.15350597;0.0563721;0.07318615;-0.013651796;0.022687938;0.01740447;0.0011746802;-0.029903822;0.037587997;0.049803093;-0.046873957;0.009196282;0.07763302;0.025807302;0.10336411;-0.05186931;-0.039690662;-0.007977546;0.023164302;0.076600805;0.065704174;0.06586321;-0.0151117565;0.05642788;0.047716178;0.047815822;-0.0425417;0.08162883;-0.020162638;0.055388406;-0.07049353;0.07006597;0.121585146;-0.018916877;0.093543574;-0.008376304;0.092106335;-0.08814709;-0.005810231;-0.105193034;-0.019005885;-0.005315075;0.062814936;0.054412015;-0.07384522;0.06563254;0.011842915;-0.019889647;-0.09536625;0.07887061;0.015133728;-0.022347536;0.02509939;-0.04002265;0.07510958;-0.009026276;0.08927421;0.021645345;-0.023671873;-0.10512079;0.058254987;-0.0129437065;0.0714633;0.10646638;0.022752402;-0.03557243;0.042528044;0.0072721574;0.044894964;0.055326033;-0.020310646;0.033517223;0.021520898;-0.07158971;-7.649712e-05;-0.049103983;0.03958784;0.00518455;-0.09022425;-0.04079366;0.01629603;-0.031382304;-0.013141917;0.010900918;-0.055823326;0.07224056;0.08895023;0.08922387;-0.052796267;-0.0023788756;-0.16695978;-0.067136966;-0.037826512;0.04961793;-4.2525076e-05;-0.04649545;-0.08430802;-0.03552971;-0.060096975;-0.019300053;0.080446646;0.051315337;0.05516723;-0.0034252172;-0.067533195;0.024698786;-0.055545103;-0.09855897;0.0028575675;0.018346643;0.07157078;0.0549169;-0.07004186;-0.0721084;0.08907322;0.00536455;-0.03135546;-0.0046887514;0.018042896;0.041927777;-0.07348562;0.030649688;0.06522573;-0.006288176;-0.050199702;-0.028936343;0.004370706;-0.09430388;-0.08815117;-0.02410862;-0.03154278;-0.061099157;-0.03094299;-0.050078366;0.054844517;0.014546775;-0.02953229;-0.08010681;0.047574196;0.07074868;-0.05137718;-0.065119594;0.022608466;-0.0206094;-0.035395034;0.023499098;0.0166575;-0.056564447;0.04258373;0.04108453;0.08723279;-0.06912016;0.017623007;0.057639204;-0.01890549;0.0028862609;0.0047139;0.0705673;-0.014317245;-0.079807594;-0.06652274;0.06086493;-0.037895676;0.098166294;-0.06879836;-0.05439045;-0.040832732;0.06325914;-0.095016725;-0.0065059485;0.019669997;0.086943574;0.05044608;0.040696062;-0.05010501;0.07576282;-0.060889363;0.004960823;0.08835399;-0.091152325;-0.059432626;-0.025243128;-0.06666918;0.0006668782;-0.05895293;0.0068914904;0.06365998;0.017385475;0.020107921;0.07361684;0.022163834;0.16701773;-0.032969944;-0.06735904;-0.09703416;0.11005606;-0.039506096;-0.0322819;0.11440006;-0.061569683;0.027220251;0.06776415;-0.03919662;0.08172241;0.013459471;0.059280727;0.13374616;0.016036786;0.048316263;0.07242162;-0.048531234;-0.015332714;0.08183346;-0.04243736;0.042920142;0.031543024;-0.058391333;0.13675155;-0.04304134;0.0568299;0.07705961;0.007652904;0.057432286;0.0203945;-0.038877252;0.07603123;0.04310973;-0.037243683;0.07035006;-0.050299063;-0.026296085;-0.026111793;-0.014602904;-0.009248342;0.025899056;-0.04137733;0.04025677;0.0043283543;0.059258692;0.07358282;-0.03469717;0.011956252;0.04957613;-0.03799488;0.02472132;0.024518445;-0.0013749611;-0.0087569505;0.00803015;0.063819475;0.07631506;0.011522099;-0.073218614;-0.07275555;0.06353348;0.041523702;-0.020318065;0.14608285;-0.11127946;-0.024910122;0.07871095;-0.050123546;-0.07868038;-0.00060650834;-0.025773002;0.07888465;0.06018561;0.049086917;0.08202552;-0.062160034;-0.06577311;0.06687095;-0.008628859;0.066717304;0.05052251;0.04975386;-0.0094301645;-0.07167561;0.013913959;-0.03474171;-0.013711681;-0.03319579;0.026901074;0.113485254;-0.1067784;-0.027908137;-0.052653704;0.088771835;-0.07451814;-0.014208219;0.0030223595;0.079187445;0.07008951;0.008826606;0.014903004;0.052627757;-0.07431061;0.06036879;0.047213573;0.04844275;0.027934082;-0.058936067;0.057781365;0.082176395;-0.07424001;0.02879531;-0.009870294;-0.008239272;0.050509755;-0.020961883;-0.01862367;0.044105537;-0.006650865;-0.06385626;0.1513499;-0.11170715;0.015046238;-0.0035369885;0.10572815;0.045124564;-0.05280994;0.009313339;0.10414934;0.020074105;0.06930896;-0.05800308;0.098893434;0.060332924;-0.09394069;0.072850384;0.05762047;-0.03581808;0.04855013;-0.08610419;-0.029336339;0.0641911;0.048353627;0.013766402;-0.062747695;-0.09630819;-0.014358437;-0.06858507;0.04659266;0.071710646;-0.008064977;-0.030727776;-0.013328135;0.054342695;-0.04939399;0.04043383;-0.05158479;0.037970938;0.029323762;-0.042109665;-0.10900124;-0.06889601;-0.005139797;0.09498581;0.010534009;0.04850397;-0.03146598;0.0011573795;0.0021576018;0.07924815;0.075439595;0.045791328;-0.011470817;-0.10625836;-0.05376933;-0.011521948;0.062644795;0.01830739;-0.011015626;0.08828422;-0.021653218;-0.0067653493;0.08526752;-0.016006153;0.034054395;0.089388594;-0.043832377;0.06933736;-0.042312354;0.029019555;-0.12755802;-0.062443394;0.065487444;0.06704742;0.08311809;-0.05843151;-0.09537867;0.021940071;0.041716363;-0.077981;0.085472606;-0.06437172;0.010970051;0.07837401;-0.026811073;0.12368222;0.059032176;-0.041775826;0.06717049;-0.05258541;-0.06606266;-0.019452438;-0.04149302;-0.053114716;0.050300777;-0.2010266;-0.04284752;0.039870754;-0.05328183;-0.1145091;0.025016071;0.008320309;0.07481919;-0.07269237;-0.003195284;0.09211879;0.12421026;-0.03964743;-0.029982256;0.020524824;-0.021962035;-0.078376174;0.03410972;-0.006357508;0.08435295;0.056365974;0.058061276;0.012864744;0.09424259;-0.056230705;-0.032401055;-0.062199622;0.055326764;0.03672627;0.041113637;0.01646855;-0.058367725;-0.002610705;-0.0024279235;0.0024319303;-0.03667043;-0.030274509;0.06610628;-0.072287075;0.09103171;-0.023170447;0.025449043;0.101417154;-0.10886267;0.04881805;-0.012493836;-0.009996043;-0.020550305;0.12288964;0.1147184;0.052002285;0.064985044;-0.09249099;-0.0043883086;0.005756521;-0.045489755;-0.058819074;-0.12520847;0.061868712;-0.12527098;0.028556267;0.05816331;-0.11594711;0.0046535465;0.067836985;-0.0053051757;-0.09014381
0.04622484;-0.10614409;0.055927098;0.0024826871;-0.08460452;-0.08550283;-0.084137686;-0.015959794;-0.07056422;-0.009163075;0.012809829;-0.07010183;-0.037043087;0.030168429;0.07402506;-0.032674145;-0.09083564;0.022186955;0.030117728;0.03839528;-0.0019263525;0.008684353;-0.0024708924;-0.042308476;-0.03942516;0.041010957;-0.031072523;0.0057701594;0.04843239;-0.05003171;-0.034955803;-0.017571505;-0.0034474714;-0.027333103;0.0053684013;-0.02595156;0.07705336;0.047597762;0.0024818468;-0.069244474;-0.061574273;-0.05905018;-0.008379454;-0.07678487;0.034605555;-0.04999273;-0.059403162;-0.08364253;-0.015731977;-0.053058382;0.06783598;-0.06897495;-0.007837724;0.02985794;-0.062315397;0.04764948;-0.1438715;-0.046723273;-0.0675865;0.03880445;0.023441773;0.037855774;0.05690167;-0.04128767;-0.061080188;0.0065368856;-0.0466;0.09322904;-0.09066398;0.027726062;0.067938596;0.038551677;-0.0056513133;-0.0047487845;0.029485721;-0.027795564;-0.049475767;0.032996282;-0.1855503;-0.08643155;0.015519557;0.05610385;-0.075661436;0.07037142;-0.016578019;0.05677008;0.08643669;0.11318915;0.07930258;0.016617382;-0.07039393;0.06731652;0.050620813;-0.043308973;0.074534275;0.08782344;0.12021444;-0.043974735;0.07143523;-0.013421662;-0.017718082;0.051132843;0.04306259;0.02818375;0.054759055;-0.058901243;0.0453069;-0.017588662;0.04397953;0.0062377965;0.080264;-0.073851034;0.035031002;0.115430094;0.058089457;-0.08594731;-0.060183134;-0.049461626;0.008433246;-0.049969546;-0.06829819;-0.055544455;0.038771763;0.018101213;0.035726756;0.08063277;-0.10030442;-0.07865743;-0.07691154;0.083683476;-0.046495214;-0.045871004;-0.009617482;-0.03455559;-0.025710445;0.02036841;-0.021955477;0.034760743;-0.018297577;-0.09725285;0.017564068;-0.14146623;-0.09816154;0.064505175;0.029272074;0.040803928;-0.041969717;-0.07019178;0.05700332;-0.027323307;0.0352202;0.0073132496;-0.038750045;-0.07800634;-0.073884524;0.07467145;0.07356197;0.015278357;-0.013241973;0.04082502;-0.047913097;-0.04301528;0.061649416;0.001908634;-0.013360353;0.0023848822;0.047201216;-0.08046063;0.064940184;0.0046382886;0.04890411;-0.096115366;-0.00066697557;-0.06731404;-0.0431557;-0.07652885;-0.031426907;0.009845919;-0.14868386;-0.04263604;0.05115733;-0.044653393;0.100578144;0.096737996;0.059928317;0.045766085;-0.092503935;0.08594755;-0.06885546;-0.0049946522;-0.09978379;0.027029712;0.06496992;0.04315654;-0.078899145;0.029928735;0.04115015;0.002488005;-0.044286773;0.025852008;-0.026120618;-0.0099892;0.013338782;-0.01054159;0.022071688;-0.05561988;-0.0036782906;-0.0029128261;-0.016644226;0.021444313;0.011146131;-0.06758864;-0.022860758;0.0496878;0.05788654;-0.03533039;0.030847656;-0.054906346;0.025349278;-0.03801252;-0.011271657;0.10179765;-0.067544594;0.060564883;0.04196164;-0.027139584;0.0736037;-0.059732575;0.056065597;-0.028283807;-0.048905462;0.09017402;0.049691796;-0.0030296694;-0.02761488;0.027791338;-0.053971794;0.044973455;0.027144609;0.050284144;0.049513202;0.07324619;-0.03079491;-0.07672081;-0.0475376;0.050944064;0.05802004;-0.038646895;-0.036851496;-0.03998734;0.0023873416;0.066413835;0.041829996;-0.017237559;-0.05014653;-0.04173699;0.057008445;0.04018281;-0.08934222;-0.05507395;0.05123917;0.072432324;0.017063005;-0.07494401;-0.059351396;0.046521164;0.010066405;0.089824826;-0.08272944;0.037489865;0.06123816;0.06186776;-0.06314407;0.03429295;0.07997556;-0.05164681;0.027667606;-0.04469713;-0.042057443;0.062598735;0.02060642;-0.07826481;0.02953617;-0.08005613;0.029903578;0.027914444;0.064299695;-0.010259862;0.05216712;-0.08045272;0.046342153;0.059462458;0.032808363;0.04842652;-0.08509205;-0.025774058;0.06910371;0.1095728;0.08485018;-0.11590926;0.031100636;0.07206164;0.02350718;0.04398765;0.010433868;-0.07267216;-0.020949988;0.059072945;-0.048702836;-0.08377235;0.06019759;0.046011426;-0.07917403;-0.015480363;-0.026252633;-0.035668634;-0.046082146;0.004560129;-0.031396464;0.010391081;0.07814002;0.041824758;-0.004880536;-0.045410357;0.024279429;0.042472817;0.08633537;0.06306505;-0.029426256;-0.05213934;0.0698157;-0.05920555;-0.05715586;0.08317398;-0.028467437;0.06357079;0.0015824583;-0.05648907;0.06980249;0.07207103;-0.0255826;0.06873877;-0.006374697;0.024463994;-0.0053460114;-0.010795587;-0.011933523;0.019258367;0.040472496;0.03424515;0.014998645;-0.124299765;-0.019762753;0.039309468;0.04846937;-0.034123547;-0.14760874;0.08063048;-0.02308807;-0.046642203;-0.058108788;0.018993061;-0.16488443;0.059127938;-0.04464277;0.0012431842;-0.008186526;0.080968946;-0.05078227;0.08593499;-0.06009021;0.08902301;-0.013067318;-0.0066855326;0.09817641;0.08541891;-0.05401589;-0.09610607;-0.04832433;0.05736859;0.048371747;0.00028772416;0.04680045;0.07708498;-0.11536621;0.02277655;-0.050295778;-0.0402287;-0.042528193;0.08590805;0.044149548;-0.011837746;-0.019636918;0.061952565;-0.06560895;-0.061312933;0.062326055;0.050835498;0.0038958287;0.06726835;0.025950214;0.046701558;-0.08625032;0.049163748;0.087775186;0.011857344;0.06874758;-0.04084257;-0.028419176;-0.0626683;-0.07979676;-0.05420251;-0.015348916;-0.052290495;0.05149508;-0.074618615;0.07689523;0.04103669;-0.0033132636;0.052874483;0.016234403;0.07414877;0.051033203;0.083892964;-0.018231926;0.085729815;-0.010187592;-0.02607531;-0.07382463;-0.031671207;0.050058097;0.030523142;-0.041975006;-0.10237592;0.0039469427;-0.039815206;0.020638842;-0.09210378;-0.011197421;-0.044229817;-0.016413702;0.008238728;0.063987166;-0.03998093;-0.03795867;0.054272227;-0.007876689;-0.0021181093;-0.02799362;0.045925636;0.08401997;0.009849722;-0.041885335;0.014634933;-0.0812413;0.033807065;0.07738882;-0.0419361;-0.037005402;0.025334962;0.04233123;0.008715068;0.0030238202;-0.053619415;0.05366202;0.06736967;0.01041503;-0.06717933;0.11326278;-0.017146911;0.057281166;0.08331039;-0.017474758;0.063284054;0.033391017;-0.08149452;-0.037574865;-0.044236656;-0.0072604204;0.032315362;-0.06368517;0.0066716634;0.07751289;0.05573138;-0.20518276;-0.007027032;-0.009407109;-0.01395349;0.06451187;-0.03198571;-0.018665276;-0.021317802;0.02990041;-0.08157447;-0.009801218;0.059168518;-0.006664826;0.053560067;-0.06395691;0.075433426;-0.046733033;-0.058255203;0.06940008;0.07077507;-0.072523355;0.014988599;0.049715713;-0.048536073;0.010377018;-0.10225893;-0.066358715;0.041252606;0.066835456;0.0382267;-0.03612135;-0.057211164;0.00095672364;0.018320689;-0.08745902;0.09993945;0.06255364;-0.03940369;0.089745216;0.02984829;-0.11371548;-0.011255231;0.011223774;-0.05823373;0.09591025;0.017408136;-0.03698327;0.0026227443;0.10060335;0.004899986;0.0055937967;-0.043751232;0.05405505;-0.031078976;0.064295426;-0.048224997;0.0045600515;0.054378223;0.0028024807;0.10784141;-0.026145658;0.022375869;-0.011637004;-0.050609328;0.04552964;-0.042120673;0.050281785;-0.054003686;-0.037617985;-0.0628467;0.06598333;-0.024039948;0.03335771;0.062530465;0.01924978;-0.028672043;0.029814932;-0.07985332;-0.07980024;0.009449665;0.0829647;0.029357841;0.047777094;0.09833781;-0.074157245;0.014587139;0.068597235;-0.15138417;0.007121255;0.033064228;-0.055452127;-0.07358526
0.097580366;-0.042547617;0.0023523879;-0.004131216;0.067161575;0.019463995;-0.019568399;-0.059190523;-0.026016567;-0.046079095;0.00392466;0.03936002;-0.029941276;0.061534163;0.0030555392;0.054932144;0.02273909;0.0041094064;-0.083891205;-0.1035799;-0.1251174;0.079431735;0.026165543;-0.05636204;-0.012407902;0.06774475;0.08697028;-0.017615182;0.012021765;-0.034655083;0.006746838;-0.013733398;0.02315174;0.13925797;-0.046375737;0.01635819;0.054319017;0.043388207;-0.061120767;-0.03703902;-0.08284618;0.05500731;0.049909424;-0.16140875;0.07160201;-0.084462665;-0.072888575;2.634021e-05;0.035502795;0.017874235;0.0010144283;-0.08899908;0.031236047;0.027292801;0.0006137394;0.009210468;-0.08719481;-0.05043538;-0.075959705;0.109764;0.12174108;0.048938923;0.06456836;0.05399529;-0.12346719;0.09076497;0.003981746;-0.020031322;-0.051830642;0.005144104;0.090536825;0.05505061;-0.062843144;-0.030445984;-0.018450899;-0.06894275;0.03749817;0.02106905;-0.18865623;0.058743436;0.0326927;-0.039523926;-0.039429896;0.014441581;-0.059370935;-0.06460847;0.043197468;0.018476177;0.022404809;-0.036160156;-0.044950202;0.058380242;0.060700808;-0.07929265;0.054713003;-0.05935449;0.10600412;-0.041820258;0.077715755;-0.049412888;0.08899252;0.082519375;-0.023342576;0.017593443;0.0182138;0.07832494;0.031684577;0.016832413;0.08339239;0.026079243;0.08531438;0.00496421;0.006453689;0.11996398;0.011086211;-0.05315666;0.07277772;-0.059377506;-0.054547694;0.0189282;0.06272711;-0.037529413;-0.08072975;0.026072493;-0.06765754;-0.072319835;0.0045750253;0.027971052;0.032705832;-0.057932254;-0.0027023237;0.048819445;-0.03284872;0.08175127;-0.045219455;0.028407527;7.419093e-05;-0.054298285;-0.078519516;0.015722606;-0.07060676;-0.12871923;-0.000482115;0.048224576;0.044406902;-0.045508556;-0.06454473;-0.023853201;-0.024244415;-0.0014015286;0.015316752;0.061594076;0.03925464;-0.08689799;-0.06328025;-0.036019005;0.067356385;-0.09564419;0.029979808;-0.0074758125;-0.021864975;0.07940485;0.01899825;0.095655575;-0.016514804;-0.011682144;0.048559163;0.011853831;0.06666422;0.10783882;0.05399435;0.06083901;0.091673866;-0.15926576;0.09658414;-0.07230855;-0.07572855;-0.033474125;-0.067262374;-0.059467368;0.063193485;0.05037815;0.058957107;-0.0234882;-0.053135876;0.07416044;0.030022755;0.09546766;-0.067381814;0.061971586;-0.03423249;0.044892833;-0.039201096;0.017780013;-0.11413559;-0.049346786;-0.035600085;-0.036781915;0.07470317;-0.06896593;0.0842572;0.0038332948;0.068646654;0.048849378;0.054657474;0.08074466;-0.020256601;-0.013936691;-0.017291052;-0.06376756;0.045132417;0.0823796;-0.046262704;0.059855245;-0.013091598;-0.0077311737;0.06707455;-0.099087335;-0.015839767;0.057408977;-0.015932763;0.08681078;-0.061700083;0.053381026;0.07025621;0.007150553;-0.030502124;-0.03796578;-0.0029554856;-0.060926087;0.06924874;-0.04534423;-0.061346237;0.026120357;-0.06404758;-0.026628433;-0.013581288;0.10405403;0.0016068565;-0.09974912;-0.07210836;0.093359776;0.076493636;-0.05214746;-0.033797797;0.059015855;-0.052106902;0.05440333;-0.035926398;0.0067282617;-0.03868957;-0.008083595;-0.0051726187;-0.04518815;-0.051189236;-0.04338174;0.055754885;-0.06145195;0.08517182;-0.030507207;0.100900285;0.08349058;-0.07460933;0.027734494;0.08206832;-0.048884664;-0.0018092323;0.042106703;-0.0117341885;0.03214462;0.077905804;-0.062065337;0.003950403;-0.015920965;0.15488467;0.03280097;-0.017621411;0.06797554;0.043427177;-0.06656567;-0.010918199;-0.0032264215;-0.07278887;-0.013417321;-0.056079406;-0.0585321;-0.024734108;-0.050717514;0.03599124;-0.07794205;0.030491447;0.07246853;-0.04775869;0.050972983;-0.080407925;5.7405457e-05;-0.0646912;-0.060350273;0.008638345;-0.04056608;0.092383444;0.050272163;0.004551537;0.053599294;-0.06169902;-0.055783328;-0.052863892;-0.015378058;0.032011677;-0.09098879;0.002020833;0.04883859;-0.058994703;0.050564323;-0.038393736;0.041316647;-0.022480866;0.05313971;-0.059227698;0.085310645;-0.011977213;0.046794042;-0.031438436;-0.07654268;0.009763695;0.11005585;0.04123483;0.043344982;-0.058263186;-0.060164776;0.07703314;0.033150986;0.014947287;0.08396346;0.02297597;0.091148205;-0.0014528811;0.05745827;-0.06737482;-0.030892963;0.0050446675;-0.028179433;-0.077356264;-0.046454173;-0.0875278;0.042719148;0.06478996;0.019703176;0.051303986;0.01569448;0.05034517;-0.030296443;-0.08699407;-0.020529065;-0.05598821;-0.07177217;-0.06001376;0.052960023;0.0028659985;-0.0118275285;0.0856698;0.065480836;-0.15198404;0.06365747;0.0055553145;0.013612517;-0.0028561724;0.05300375;0.030508539;-0.060081802;0.034694538;0.09989634;0.016875735;-0.008867997;0.0286671;0.0014810838;-0.034756377;0.0016842027;0.023561848;0.008964277;-0.063568026;-0.041847654;0.062262394;-0.05640333;-0.061268747;-0.05291466;-0.030126013;-0.034394644;0.011840547;0.08546014;0.08364591;0.0302721;0.068578266;0.13601382;-0.010373242;0.044276968;-0.018795997;-0.02736973;-0.05365107;0.0022334014;-0.01334515;-0.060422033;0.025261424;-0.0048101977;0.009499096;0.027793422;0.0110699;-0.05555682;-0.0133639965;-0.027165277;0.029796349;-0.059829775;-0.01663146;-0.04208986;-0.057601668;-0.1028818;0.05784281;-0.03151029;0.09896047;-0.05694662;-0.023736348;-0.03685694;0.062369;0.044128317;0.06146841;0.058682337;0.06284546;0.08705201;-0.06596323;0.061488237;0.032434415;-0.017433504;0.0671239;-0.050338507;0.051053904;0.04045383;0.001970016;0.0059477566;0.042058207;-0.017035455;-0.021332463;-0.12550378;-0.02216151;-0.13357407;-0.03012029;0.097502396;-0.013228058;-0.014197893;0.098316774;-0.004497913;-0.022588367;0.0564013;0.09288978;0.012785244;-0.03734209;0.011859797;-0.06264623;-0.038710833;-0.056084957;-0.015054674;0.02486973;-0.031191157;0.10094806;0.022072213;0.010217131;-0.050514318;0.047813658;0.03522166;-0.016803484;-0.00032836688;-0.023718216;0.0015023514;-0.043644454;0.08884951;0.023364738;-0.10587829;0.011163145;0.05438934;-0.06412053;-0.053821154;0.009099028;-0.055296604;-0.05509949;-0.03417348;-0.088039294;0.04881926;0.014541389;0.049194768;0.002371913;0.046583828;0.022484144;0.023467993;-0.048980873;0.007046913;-0.08100452;-0.06663251;-0.0052883253;0.095363855;0.08106834;-0.055106968;0.08400447;-0.031418182;-0.06523687;-0.014021557;-0.04435322;-0.06314575;-0.04937662;-0.048172113;-0.042019647;-0.08142491;-0.0409242;-0.086953074;0.04874301;0.005382422;0.06338791;-0.05470565;-0.03567723;-0.03261421;-0.10779042;0.07303541;-0.027413934;0.099000946;0.044801414;-0.032476526;0.07634576;0.043257028;-0.058476303;0.04055171;0.11172087;0.025411189;-0.055022426;-0.050968148;0.022349592;-0.1226243;0.0018494771;0.00028355265;-0.0633063;0.11332414;0.0065591144;-0.032667343;-0.009149783;-0.06216769;0.030371137;0.099831976;0.03441233;-0.0010633506;-0.06336516;-0.08116529;0.052648477;0.014430248;-0.011204813;0.0026741726;-0.029325018;-0.069086015;0.10024814;0.071132235;-0.07268948;0.10634392;0.0041466807;-0.059486326;-0.0071212477;0.02710879;-0.036605425;-0.02227532;0.030845167;0.06947945;0.050336897;-0.028286075;-0.046776183;0.06029292;0.05981323;-0.09149247;-0.08183911;-0.007419684;0.015512203;-0.082359746
0.12556519;-0.116434686;-0.08412041;-0.02770534;0.063354984;0.0074251886;-0.09843968;0.07243791;0.07975383;-0.06171936;0.045145225;-0.021621441;0.056182783;-0.005807736;-0.060900055;0.00568501;0.06958522;0.08350509;0.033173062;0.005592444;-0.18769808;0.02688547;0.04466625;0.06221723;0.1010126;0.0704237;-0.012428623;0.0684782;0.034860354;0.035242204;0.0026386387;0.019932486;-0.008344321;0.09778422;0.10006638;0.038119823;-0.054544516;0.090602234;-0.032311056;0.0061930665;0.008307876;0.015783472;-0.07253851;-0.07677387;-0.043028556;-0.0031178868;0.04768844;0.02012176;0.027393088;-0.12368362;-0.025810104;-0.027525827;0.07876501;-0.14278641;0.08177518;-0.11283316;0.004591287;-0.06424475;0.0299857;0.056905493;0.11129677;-0.06259885;-0.089946926;0.13974907;-0.113339275;0.097142786;0.058176976;0.10039192;-0.032336183;-0.034184188;-0.07884712;-0.047413647;-0.063079305;-0.067492776;-0.1520069;0.047463752;-0.053215586;-0.008037681;-0.08995911;-0.05140252;0.040361118;-0.0069949245;-0.1693705;0.05994209;-0.008807797;-0.02057426;-0.026247488;0.14253058;-0.025089325;-0.07793337;0.040948555;-0.036088757;-0.01754892;-0.08573946;0.038774557;0.106633395;-0.10115182;-0.026274445;-0.058517016;-0.049866244;-0.033965435;0.04059975;0.043389976;-0.049878895;0.025798962;-0.08310021;-0.0028066905;0.046323575;-0.017605448;-0.0025671571;-0.009513903;-0.029657146;0.087867446;0.061563976;-0.0026666068;0.04100131;-0.052374505;-0.045806974;0.05062871;-0.041481342;0.05498516;-0.041659374;-0.04720792;0.07164398;0.017036922;-0.12572986;0.050056256;0.050179686;0.018861238;-0.06485218;-0.03858895;-0.05807507;0.030940365;-0.008344648;0.0054742047;-0.060124934;0.07191483;-0.06639469;-0.07479096;-0.04189194;-0.055294;-0.053939607;0.04786549;-0.013010928;-0.08025285;-0.022231191;-0.085783295;-0.008399407;0.12028161;-0.0033847517;-0.023472993;-0.04071955;0.05778066;-0.13021232;0.05579702;-0.030931149;0.03561283;-0.12604508;-0.06389207;0.091296405;0.045858003;0.03617349;0.005290096;0.13730732;0.04510418;0.08135745;-0.08446537;0.0032250897;-0.023067247;0.0853909;-0.07083052;-0.024142846;-0.04997567;-0.112339176;0.10854799;0.03790882;0.10810636;-0.023281729;-0.14583194;-0.04983697;0.10183385;-0.017472968;-0.023222271;-0.06195916;0.08121195;0.038941547;-0.020145368;0.08552194;-0.004145238;-0.003364456;-0.052817028;-0.052128702;0.032529682;0.10420084;-0.02260307;-0.028637836;0.044474617;0.056848492;0.017020395;-0.10582562;-0.035817564;0.07055395;0.028170314;0.07170401;0.019745898;-0.050049298;-0.0045815934;0.013001154;-0.03578104;-0.07284035;0.025898032;0.067047946;-0.039767195;-0.05793644;0.079925805;0.05174549;0.0077413297;-0.017960941;-0.0017331925;0.04098908;0.0038132404;-0.047309723;0.004150117;0.040251218;0.06224275;-0.026996678;0.065450266;0.03575286;-0.009328769;0.03802653;0.028891398;-0.009861352;-0.09771043;0.10475894;0.033324547;-0.058554925;-0.06750651;-0.07776235;-0.054729305;-0.102315634;-0.025188604;-0.04985283;-0.046359632;-0.03299424;-0.06863425;0.06266212;-0.04545521;-0.0880142;0.017625691;-0.03706759;0.036315672;-0.041326255;0.020882681;-0.13883261;0.0067412853;0.020522945;0.07272178;0.090266496;-0.0008617831;0.047227573;-0.0029958147;-0.041496627;-0.023522327;-0.084557325;-0.05241113;-0.011325259;0.056865975;-0.028049441;-0.14879727;0.110991724;-0.061144486;-0.03376706;-0.06762033;-0.013810133;0.07320598;0.02545878;-0.08933583;0.04390284;0.011103813;-0.06901102;-0.009936964;-0.0024751958;-0.093524836;-0.033903867;-0.052922606;-0.023041915;0.029515775;-0.016577838;0.0049899444;0.06841364;-0.076408885;0.14284535;-0.022608796;0.0777208;0.04034761;-0.06828357;-0.056684364;-0.017923668;0.12179973;-0.10948375;0.07016267;0.045105692;0.06178626;-0.014091038;-0.025003538;-0.14642237;0.050859362;0.027583642;-0.060227267;-0.09317198;0.06241563;0.049507;0.03174747;0.06766749;-0.109357275;-0.07013824;-0.042629737;0.06750246;-0.044003;0.06312301;-0.029881073;0.11357257;0.13138439;-0.12655485;-0.018486671;0.09858977;0.04613976;0.024782225;-0.06296753;0.06609633;-0.100947395;-0.094539575;0.057687048;-0.059304442;-0.056626797;0.09804009;-0.024236865;0.057054583;-0.03836498;-0.04235741;-0.041588675;0.028143266;-0.001328632;-0.08104438;-0.0340579;0.076925755;-0.017880477;-0.0079625845;0.06314206;0.0703236;0.18300886;-0.0011264893;0.027702997;0.014429896;0.047635585;-0.05580877;-0.076707534;0.057075705;0.07248433;0.07272191;0.04340217;0.015073255;-0.07985973;0.039885208;0.009042539;-0.08573324;0.018523552;0.116665125;-0.088384256;-0.14473036;-0.009222341;0.0607748;0.01393909;0.030109832;-0.088319756;0.02860289;-0.10991305;-0.07166656;-0.055015773;-0.04600238;-0.020871514;-0.04946663;-0.07213446;-0.014681618;-0.060833037;-0.015811116;-0.025923511;0.11319392;0.022907881;-0.034933046;0.046668947;-0.006769766;0.077443175;0.24631588;-0.086495645;0.0031262443;0.067392886;0.076428235;0.0022156734;0.05015886;-0.0045250608;-0.023172285;0.04000946;-0.018200014;-0.04951655;0.08021046;-0.044914134;-0.002701381;0.052231424;-0.025068365;-0.03486435;-0.00072030677;0.09938503;0.08015885;-0.07483768;-0.13833882;0.022638813;0.08504609;0.06980004;0.072634086;0.055713583;0.016965322;0.07918697;0.021712208;0.04871048;0.0313694;0.045254145;0.040340625;0.019295327;-0.059632283;0.0011498176;-0.09264617;0.076333955;0.021894397;-0.008749862;-0.007818207;-0.03422973;-0.057383455;0.07943554;-0.012572898;0.030764926;-0.14263457;0.05362528;-0.13215683;0.054425694;-0.019565202;0.05224738;0.07245536;-0.021280322;0.11242619;0.0147258;0.076814316;0.09247948;0.04415717;-0.0088041015;0.017310368;-0.02851467;-0.1258284;0.0035324777;-0.022541089;0.035338465;0.03963486;0.013585579;-0.01144735;0.04662353;-0.0152968615;0.06291765;-0.015356951;0.14066394;0.053998567;0.011423779;0.09412041;0.09399154;0.018892646;-0.03220109;0.034253202;-0.0036567363;-0.0622159;-0.084768735;-0.091014326;-0.0030941034;-0.050710082;-0.07565443;-0.06949571;-0.22472826;-0.03705791;0.07550021;0.0021894013;-0.019791028;-0.012492985;-0.0070739216;0.018480275;0.0004394178;-0.07224874;-0.018239828;-0.06918482;0.056294717;0.063904405;0.0026045416;-0.07430755;0.072470725;0.008301205;-0.025645703;-0.060788546;-0.05750828;0.04332133;0.02324785;0.070651144;0.056767944;-0.12442957;0.055609606;-0.2063208;0.055462983;0.022720339;-0.016997546;-0.051804733;-0.06108873;0.08292083;-0.04650694;-0.058697026;0.07596773;0.10359667;0.094195604;0.009622882;-0.114695236;0.015270869;-0.03820772;-0.086167924;0.0012650132;-0.074593805;0.09100731;-0.021663917;-0.008067059;0.048510365;-0.025359558;0.043592174;-0.12192157;0.05688058;-0.030614682;0.0682516;-0.094086885;0.028427666;-0.08429396;0.1774502;0.04411161;0.03299268;0.07004274;-0.09598114;-0.012186887;0.05680559;0.10006016;0.072398886;-0.070679635;-0.0026825548;-0.07024163;-0.057454083;0.049681727;-0.01772455;0.07297919;-0.032733224;-0.041916095;-0.015877245;0.04508333;-0.065636724;0.042445723;-0.06317976;0.045954168;0.100054786;0.09833791;0.061744716;0.072204925;-0.14511314;-0.010692729;-0.03610512;0.015419786;-0.14714806
-0.06600827;-0.044452116;-0.01558318;0.09437222;0.017828526;-0.023833308;0.03944724;-0.019134207;-0.02114311;0.007934873;0.059597395;-0.07009043;0.07988493;0.03482727;0.04833873;0.06164449;0.09769225;-0.040548477;-0.016230268;-0.060814496;-0.10762604;0.040707864;-0.06739471;-0.05781576;0.035455342;-0.12816547;-0.0038830298;-0.0045956513;0.020288276;0.06538806;0.07835496;-0.02295354;0.08153039;0.10388201;0.007164911;-0.02965;0.025177173;-0.01275162;-0.035135314;0.026572702;0.013780243;-0.07367084;0.14594598;-0.11193542;-0.0029572889;0.024546837;0.025005357;0.0007616863;0.019144036;-0.040527277;0.023028763;0.07157794;0.07911882;0.056321993;-0.044442322;0.11875763;-0.024133664;-0.03413182;0.058924265;0.12926155;0.089471474;-0.08196162;-0.041172553;0.07814969;-0.031725924;0.048266742;0.027747748;0.031484917;-0.066640094;-0.03181951;-0.03206121;0.0095249815;-0.12018577;0.06284792;0.02044673;-0.09078408;0.036476523;0.095513456;-0.12698261;0.049734723;0.041035056;-0.04284004;-0.07579015;0.057931002;-0.028918358;-0.015453262;-0.04707761;0.10022022;0.05274141;0.050288707;0.026279125;0.029402493;0.062083364;-0.04557676;-0.009987204;-0.043071464;-0.021566149;-0.04990176;-0.008111124;-0.05593154;0.023916272;-0.024870338;-0.026251366;0.08659755;-0.032710508;-0.04224211;0.04233013;-0.063485235;-0.09125477;0.041890666;-0.014583966;-0.00032722263;0.086500935;0.12844263;0.025702212;0.04762675;0.042851534;-0.07266334;-0.06368537;-0.04187693;0.06902091;-0.0042887214;0.006222504;-0.0680441;-0.0091143465;-0.0471789;-0.030422037;-0.007873764;-0.0073305992;-0.006896866;0.07208275;-0.05567108;0.0476798;-0.022278218;0.046703182;-0.033844177;0.05317312;0.046962846;-0.089092694;0.028772885;-0.0046509877;-0.019392982;0.04269674;-0.08778744;-0.07110109;0.05921015;0.08179589;0.038573273;-0.019399012;0.008754131;0.07461323;0.07650337;0.09593576;-0.02298573;-0.058847144;0.04178456;0.048128285;-0.1271191;-0.08888703;0.053545013;-0.016190311;-0.015498399;0.02578669;0.07312901;0.056205545;0.03749014;-0.013832524;-0.09913016;-0.059773907;-0.044604246;-0.017154898;0.0035136326;0.06595882;0.023472298;-0.018473795;-0.037355028;-0.07701579;0.00011571953;-0.15282264;0.026050847;0.014927786;-0.053001784;0.10512504;0.07694523;-0.055928588;0.079718746;0.09756461;0.1053699;0.042106207;0.06754786;-0.13228405;0.057525348;0.0016765646;-0.004446269;-0.007320643;0.048635375;-0.053373963;0.038829934;-0.016606275;-0.022208437;-0.043795995;0.09702406;-0.035546187;0.011645429;0.048934013;0.030248292;0.019588053;-0.051431514;-0.076406665;0.014457999;0.023887172;0.06662166;-0.019283174;0.06749783;0.027621012;0.091338255;-0.011536355;-0.005973909;0.12034331;-0.06860571;0.024657637;0.059049994;0.10960143;-0.090564504;-0.019783687;-0.024875954;-0.010406251;-0.00660957;0.0762643;-0.0023092236;-0.055158243;-0.048663512;-0.0064229504;-0.025262652;-0.0070507224;0.024191543;0.05746741;0.008320263;-0.031154733;0.009319028;0.067051984;0.011872773;-0.0002990262;0.022068882;0.03985639;0.04310444;0.030518023;0.0424555;0.12511933;0.026808748;0.089902036;0.023133116;0.11728632;-0.13595732;0.01820895;-0.029768988;-0.026722113;-0.033065423;-0.08455845;-0.00809021;0.0645931;0.039890163;-0.03130392;0.0745562;0.06606309;0.10972479;0.103147715;-0.017192828;-0.011748603;0.029414445;-0.029839102;0.051711418;-0.051609617;0.094384;0.15364933;0.15208443;0.014900213;0.04639732;0.028100643;0.038756628;-0.019347288;-0.036805745;0.043971527;-0.049405515;0.045253407;0.051429752;0.07400973;-0.05189165;0.044580944;0.08349962;-0.003045541;0.056622043;-0.05416696;0.07890399;-0.14478834;0.038358763;-0.04282669;0.03831191;-0.021668807;-0.0054258774;-0.02069188;0.03852296;-0.006322376;0.075015575;-0.06622335;0.03255117;0.10050081;-0.0035348004;0.023936592;0.024055602;-0.029950587;0.040445216;0.03874586;-0.022351084;-0.12118706;-0.14311501;-0.03491883;-0.02106066;0.0017434078;-0.014832623;-0.013705806;0.036094967;-0.038983114;0.02618753;0.025939906;0.11393439;-0.0181746;-0.0743435;0.078286365;0.12345329;0.06921026;-0.09251215;-0.05646213;0.02740276;-0.10641786;-0.058231633;0.0042026425;0.027120458;0.02577222;0.035305835;-0.051019367;-0.031523783;0.025937038;0.021976607;0.014998503;-0.06373965;-0.05041949;0.016276443;-0.010285036;0.091693535;0.03174336;-0.13698526;0.02631757;0.033301007;-0.020099882;-0.036818095;-0.18477318;-0.10840699;0.0435245;0.038437992;0.08115102;0.03237398;-0.005949716;0.012824802;-0.02646805;-0.00010605522;-0.03968808;0.03060241;-0.036551014;0.03259179;-0.026991121;0.09141461;0.057345245;-0.030211;0.06510318;-0.03996319;-0.01597287;-0.037577838;-0.03615819;0.035706747;0.008075089;0.12066051;-0.006423088;-0.023052841;-0.14059976;-0.025431868;0.057180624;-0.04466561;0.04093852;-0.04850985;-0.028994543;0.021348918;-0.09771593;0.17546564;-0.06637469;-0.07780323;0.08937784;0.015197008;-0.050393548;0.08347185;-0.009052604;0.06818498;-0.021954192;-0.00037835626;0.019072982;0.040797416;-0.079153225;0.0679551;0.09598301;-0.048120957;-0.029308695;-0.057856087;0.0054824706;0.02493646;0.023017945;-0.15634926;-0.023286955;0.024134876;0.12362545;-0.043747257;-0.0648969;0.11446544;-0.0329735;-0.06691063;-0.06620243;-0.016014855;-0.023721859;-0.06081894;-0.07758812;0.013217877;-0.03381116;-0.06120775;0.044548977;-0.096664704;-0.118056566;-0.09655752;-0.077240966;-0.09741107;0.05450868;-0.12910196;-0.07413017;-0.11846369;0.07452106;-0.17687473;0.028210524;0.003370607;0.029725185;-0.07999336;0.03394567;0.1122537;0.0796382;0.08018205;-0.07460549;0.016345683;-0.10994632;0.05674983;-0.02614515;-0.069805436;0.04834019;-0.020635562;0.024138795;-0.07716709;0.08679174;-0.015041243;0.0013788937;-0.021116104;0.05207043;0.045261357;0.099576525;0.06740095;0.03225512;-0.007522127;-0.08026557;0.09634736;0.001652566;-0.037436444;0.046247046;0.008340247;0.049661625;0.062384073;-0.02160373;-0.004967714;-0.029160723;0.08212626;-0.26101235;-0.013142964;-0.019868016;0.09430171;-0.022184148;-0.02144721;0.060661692;0.023086892;0.034080576;0.06278591;-0.053947754;0.019249305;-0.060662337;-0.032526728;-0.008608405;-0.02666589;0.059187673;-0.07674941;0.08867025;0.032674402;-0.017367646;0.04682695;-0.0114775095;0.083137915;0.089359745;-0.12462655;0.06599972;-0.062443823;-0.07232886;-0.10782333;0.033028092;-0.10147871;-0.10521838;0.0532273;-0.15103224;-0.06822694;0.0441699;0.011402424;0.009752709;0.03871925;0.006770022;0.085101284;-0.0060366946;0.06477355;0.059726253;0.03246306;0.041256767;0.064527266;-0.12478819;-0.050511695;-0.009991182;-0.013957033;-0.02098383;0.07105107;0.060275394;0.008241908;-0.1567921;-0.08389718;-0.04175313;-0.055771627;-0.056933768;0.07656412;0.077442504;0.0876148;-0.013951947;0.061749753;0.081048526;-0.045947835;-0.15992673;-0.03391799;-0.0086231455;0.07202816;-0.10002075;0.0684947;0.093611956;-0.019858297;0.03481298;0.040828947;-0.08631738;0.021230245;-0.071379155;-0.07389491;-0.07150507;0.048974585;0.014414594;0.009339669;-0.04721806;-0.16093475;-0.045191135;0.022968374;-0.008780975;-0.091632694
-0.07525884;-0.06965021;-0.048427064;0.023394953;-0.03167948;0.05593605;-0.045753956;0.01849352;-0.0045320517;-0.048496645;-0.06787231;0.02113406;0.05869576;-0.05611134;0.049082894;0.019455498;-0.006010953;0.011041754;0.027818063;-0.050460685;-0.073288105;0.029000929;0.024726339;-0.019209867;-0.012510568;0.038594224;0.030979065;0.030342946;0.025964364;-0.06835577;-0.008921616;-0.1073781;0.038680356;0.10114749;-0.018301517;0.07134217;0.034746666;-0.054667115;-0.06511094;-0.044379383;0.03182835;0.062069174;0.05541383;0.04862653;0.0674453;-0.0533682;0.016275698;-0.0013603691;0.070395134;0.062111396;-0.047801483;-0.0519116;0.0970168;-0.018827803;0.075677425;0.0039533926;-0.009266709;0.1169556;-0.0339125;-0.055686947;0.106602974;0.04724184;0.012157449;-0.047915086;-0.09065075;0.077662475;-0.060559712;0.048033915;-0.05892951;0.08769214;0.047982268;0.026340833;-0.16736019;-0.013273431;-0.009962274;-0.017540315;0.03642171;-0.06484188;-0.14374605;-0.021538567;0.06709046;0.024335641;-0.11433079;-0.0045206593;-0.09493712;-0.019667532;-0.020827519;-0.017371632;0.12422241;0.026573539;-0.04844859;-0.027000038;0.025602385;-0.03143859;0.03483905;-0.02454391;0.047037166;-0.012881829;-0.06775471;0.010881534;0.04989088;0.049565386;0.007012287;0.009366741;-0.051838573;0.04668885;-0.027768172;-0.06183289;0.058704957;0.02167348;0.094271734;0.06476927;-0.053224124;0.070411995;0.07248049;0.07508743;0.07484593;-0.021783778;0.01536012;0.032314368;-0.0388563;-0.033418514;-0.065710045;0.039122824;0.063161306;-0.0071753482;6.449101e-05;-0.05216204;-0.05325817;0.055585537;0.048854224;-0.0815761;-0.020283569;0.084349796;-0.040035572;0.074656904;0.08884462;-0.021485813;-0.0456805;6.221961e-05;-0.021305963;0.014650598;-0.029830448;0.018447971;-0.08438438;-0.013499376;0.040075604;0.08374261;0.09321531;0.0861269;0.013743958;0.023974465;0.017712489;0.0020109003;-0.035655327;-0.034205213;-0.06127199;-0.12279378;0.029981658;0.0924526;-0.05061708;-0.059922665;-0.01518977;0.055244036;0.07034793;0.055051547;-0.039006304;-0.042514145;0.02521486;-0.051969167;0.061034244;-0.0106099;0.051026475;0.033603568;0.05935604;-0.013498649;-0.085115165;0.026784927;-0.13263272;-0.06334882;0.05616048;-0.07955619;0.003603898;-0.053175893;-0.006959949;-0.014327744;0.02219453;0.05654936;0.061202783;-0.027447283;-0.06378349;0.0108524645;0.042461567;0.042978168;-0.073013976;0.080462724;0.020988725;0.0022661118;0.08343285;-0.031129044;0.006849211;-0.011259545;-0.026870122;0.0065952335;0.07191851;0.0763436;-0.009766022;-0.10916063;0.06132077;-0.0582443;0.08655745;-0.00030059388;0.07121929;-0.013058906;0.0700726;-0.029803907;0.04916723;0.061352078;0.069324985;0.090595335;-0.02035294;0.08534197;-0.019691434;-0.067255594;0.053889494;-0.052524496;0.110672176;-0.04476842;-0.06766909;0.045978874;0.06613074;0.109799944;-0.078853786;0.05995676;-0.007646071;0.08348612;0.023596715;0.07528015;-0.1000791;0.13169369;0.061690312;-0.041697923;-0.07850832;-0.031720642;-0.023198884;0.06046278;-0.054964297;0.10075422;-0.047108795;0.1140142;0.09527395;-0.008763654;0.02942686;-0.07368987;0.013488795;0.020537913;0.08080671;-0.005712337;-0.05967831;0.035574272;0.043189;-0.06813265;-0.061556857;0.012897032;-0.038313515;0.05693311;0.02174564;-0.03669855;-0.11220424;0.058560185;0.012820284;-0.031596657;0.022080526;-0.0027086749;0.148517;0.13401419;-0.018418927;0.034050193;-0.039349798;-0.05745183;-0.015721176;-0.03835;-0.0721993;0.03314834;-0.019071216;0.023951426;0.07403069;-0.008087891;0.09916406;0.058789186;0.005019508;0.015786145;0.00972324;-0.06922242;-0.11446298;-0.0139112035;0.019833272;0.06331983;0.099646404;-0.08282992;-0.05221786;-0.05721337;0.06579499;0.055287365;0.034977876;-0.0013808635;0.11728157;0.061234687;-0.10224508;-0.011020214;0.073876984;-0.055546314;0.0773061;0.055430606;-0.034348242;-0.06949734;-0.056898635;-0.0115735475;0.019913452;-0.040524703;-0.05333702;0.017324116;-0.03778826;-0.094267555;-0.044516966;-0.008589727;0.020291291;-0.018763412;-0.04757812;0.06314046;0.0459974;-0.046825077;0.046040893;0.0703601;-0.024495833;0.03440453;0.02642403;-0.01197009;-0.029726317;-0.033379156;-0.024935322;0.0482363;-0.020782528;0.0016559705;-0.038656335;0.05338045;0.042108335;-0.056293055;-0.0059598438;-0.01048903;-0.0061510256;-0.13443963;-0.0028581275;-0.06468723;0.026055485;-0.04323487;-0.04810636;0.006232502;-0.0025050468;0.019092547;0.016494801;-0.029123189;0.01660634;-0.014121398;0.02377845;-0.007865955;0.03106444;0.12612684;0.0786008;0.0550597;0.04247687;0.106107414;0.0061833025;-0.061262302;0.02126888;-0.01382826;0.050999373;0.03725879;0.051248103;0.06820228;-0.023689438;0.046827305;-0.06292776;-0.013692404;-0.10255643;0.04657742;0.040815074;0.024376782;-0.03818579;0.048588432;0.066495635;0.00024758148;-0.07720098;0.15048532;-0.04726443;0.054227237;0.02236444;0.027927233;0.019275766;-0.035189804;0.02602776;-0.05241629;-0.028228572;0.08236594;0.066668764;0.03590448;0.04780211;0.052881807;0.06643208;0.08846067;0.049954295;0.09418159;-0.06031134;-0.06738446;0.019379897;-0.07828351;0.053118203;-0.022464916;-6.866619e-05;-0.04113176;-0.0827298;0.08971767;0.018101841;-0.029993063;-0.015494968;0.06823313;-0.040103566;-0.05224646;-0.027449552;-0.070242174;-0.019468797;-0.1089571;-0.0016747738;0.029754648;0.008012251;-0.044982564;-0.032122362;-0.051307287;-0.048586946;-0.07704779;0.0031917624;0.06621698;0.032898612;-0.12576379;0.12109998;0.0005281186;0.012679493;-0.05293177;-0.006336535;0.03111418;-0.025175942;-0.04031333;-0.036815498;0.031295728;-0.11244772;0.0018417998;0.08108935;0.077371374;0.03135299;0.08818838;0.004335396;-0.06517824;0.112985805;-0.074991636;-0.041901354;-0.012501141;-0.025465002;-0.0042903265;-0.05201113;-0.0357772;0.007753958;-0.04448317;-0.08542585;0.008409681;-0.0072622057;0.039413996;0.07104335;0.006255838;0.021703064;0.09157979;-0.024148706;-0.05812442;0.03280763;-0.012820417;-0.11179136;-0.037279908;-0.06210452;-0.032550793;0.090984754;-0.036721636;0.04992078;0.022547266;-0.005547029;0.045773543;-0.01596406;-0.052181594;0.064577915;-0.042016566;0.09824883;-0.08248499;-0.061546963;0.08053113;0.020153519;0.072954975;0.0052033537;-0.024184898;0.0706882;-0.03798195;-0.05309308;-0.08216101;0.092470944;-0.06389071;-0.017579854;-0.12111913;-0.056973983;0.025725063;-0.08239133;-0.008442001;-0.022640029;0.0937149;-0.021807175;0.013264681;-0.05469281;0.008008709;-0.014708104;-0.010138855;0.066442676;-0.08454865;0.06006804;0.028292693;0.022610093;-0.029509362;-0.08427541;-0.03351585;-0.060607906;-0.0040593245;-0.06696144;0.042285427;0.019218422;0.07330977;-0.12109873;-0.064163506;0.04206398;0.037426297;0.04970809;-0.015851544;0.036530837;0.030063098;-0.06143144;-0.04883424;-0.051966216;-0.027514033;-0.08921067;-0.0033776965;0.012010674;0.072524585;-0.065844245;-0.044900034;-0.018817032;0.046074543;-0.026524322;-0.06192236;-0.0536338;0.0030696266;-0.016712498;0.020271467;0.027207987;0.060249772;-0.10873637;0.012673405;-0.0736573;-0.07202371;-0.011766302;0.0027434248;0.0458955;0.03128963
-0.05812457;0.01297847;0.00049655826;0.091543406;0.070353486;-0.03003388;0.10859571;-0.034080256;-0.03173376;-0.05248704;-0.061225954;0.023595065;-0.004185926;-0.046433438;-0.057120003;-0.019250635;0.0011638784;0.028347533;-0.015906457;-0.11154308;-0.008429633;-0.03801551;0.06562183;-0.004829115;-0.020572692;-0.023737041;-0.030372044;0.16687769;-0.0063121184;-0.11017466;0.034043632;0.03006664;0.012955815;-0.00391744;-0.025818227;0.004460354;-0.06679296;-0.0131930495;0.0029624621;-0.008293105;-0.04364988;-0.05025879;0.000117850504;-0.0708059;-0.03918009;-0.06652728;-0.05882051;-0.05487099;-0.040032625;-0.008671176;-0.02701458;-0.068830535;0.051898886;-0.064947896;-0.003415493;0.12508905;-0.06978677;0.017927751;0.03816756;0.0011685797;0.13000676;-0.043933183;-0.06439915;0.08672877;-0.043456983;-0.0076621245;0.041174553;-0.04140728;-0.042388063;0.038935676;-0.054311357;0.06271765;-0.13923535;0.07812399;0.057654556;-0.0103929695;0.016780851;-0.06358821;-0.13422306;0.012547593;0.0042468756;0.07254231;-0.066354066;0.027102249;0.014702327;0.03732093;-0.04844653;0.021063605;-0.00797249;-0.08363233;0.020356249;-0.06878834;0.0021504865;-0.10599353;-0.039064854;-0.04179726;0.17115207;-0.0402151;0.031564932;0.06266564;0.121057525;-0.028308988;0.024394913;0.0150455935;0.054189183;0.082281165;-0.057396904;0.033454735;-0.06724323;0.03042983;-0.061988506;-0.013054003;0.06747731;0.017882809;0.072451636;0.04017043;-0.02978215;0.027582752;-0.0089524025;0.0692263;0.046124708;0.08155113;0.0033804977;0.023414778;0.077785484;0.024755308;0.047476992;-0.056530524;-0.019779796;0.12576523;0.10350052;0.036314387;0.024647195;-0.021765979;-0.0016937462;0.03951796;0.11056167;-0.11147992;0.02397399;0.015118621;0.0024518897;-0.011802541;0.048568368;0.026782755;0.050212592;0.08208824;0.021679843;0.0012264933;0.010201339;-0.027064458;0.045808718;-0.016465418;0.047506347;0.124399774;0.008014235;-0.013600794;0.054325614;-0.09085385;0.029698698;0.05977921;0.03269669;-0.045754503;-0.03811405;-0.05815453;0.10695155;-0.052993074;-0.025972286;-0.0018261949;0.0894429;0.05982169;-0.066405594;-0.1417206;0.008819725;-0.052416775;0.07151987;0.045814198;0.042747132;0.06885165;-0.14962068;0.06589883;-0.053399134;-0.0059255813;0.030602293;0.021744305;0.057862204;-0.005258378;0.014957879;-0.052088987;0.029351316;0.057413;-0.0030845518;0.00840496;-0.050874677;-0.039527386;0.03350516;-0.0681462;-0.0009323807;0.06268937;0.05634369;0.029756632;0.07490835;-0.0480032;0.06031767;0.06164326;-0.021643907;0.007608966;-0.056113247;-0.0035065194;0.05594745;0.06346534;-0.060457706;-0.03371294;0.034325812;0.02589353;0.029017987;0.06678583;0.028766373;-0.022319123;0.059175294;-0.052765846;-0.029891288;-0.0018680585;-0.064047895;0.041044492;0.042774417;0.05967812;0.11049905;-0.018486386;-0.09128878;-0.02260112;0.06300219;-0.011649946;0.021846855;-0.024318459;-0.06829811;0.07490096;-0.002738548;0.09326745;-0.04676193;0.09430672;-0.0656513;-0.042964727;-0.062261846;-0.101936705;-0.03774424;-0.048823025;0.06488981;0.13531934;0.026332906;0.071697645;0.050678637;0.07321348;0.12031201;0.097280994;0.030935729;-0.060965393;0.0027049507;0.030809658;0.035374917;-0.06194133;0.1218048;0.0087693995;-0.035780467;0.047172517;-0.035074975;-0.0055769347;0.10739627;-0.040698335;-0.06203608;-0.020345543;-0.03804747;-0.044749428;-0.042343672;-0.037405595;0.07543048;0.047567274;0.0068426584;-0.012029746;-0.03930195;-0.021876283;-0.062041696;0.00086440705;0.038624898;0.056006182;-0.079747185;0.051058862;-0.0034626434;0.07646528;0.044625137;0.014387654;0.07003164;0.01523537;0.032533534;-0.04091905;-0.07635198;0.08917057;0.0026340014;0.013118456;0.024915589;0.0036351169;-0.028531505;0.00032095466;-0.046449043;0.0072468994;-0.055206656;0.06248211;0.15412745;0.072393;0.037293147;-0.08389993;0.03425136;0.06592697;-0.03262987;0.031817764;-0.08536133;-0.09413046;0.016623104;-0.08049297;-0.022454556;0.0741902;-0.023167824;-0.011666637;0.028130364;0.0463885;-0.007271652;0.10995235;-0.005729621;-0.062331486;0.06899614;0.022987498;0.071931966;-0.033638343;-0.045493606;-0.0015699946;-0.011016835;0.09362165;-0.068109475;0.07423035;-0.057023883;-0.00032998086;0.0915628;0.012983162;0.07049753;0.013619728;-0.0461112;-0.054136246;0.09086669;0.043784887;-0.045921333;0.110105276;0.054354254;0.0010399678;-0.06844606;-0.049456812;-0.07887237;0.07670987;-0.03742417;-0.094997525;0.044091698;0.03640991;0.044060946;0.07600675;-0.019890634;0.0455639;-0.0674538;-0.06744025;-0.013111674;0.082020305;-0.098333605;-0.0018502759;-0.035861533;-0.03937568;-0.03660628;0.03555894;-0.08062169;-0.010414791;0.01314798;0.08353286;-0.048740458;-0.035406936;-0.019194474;0.015788866;0.07391672;-0.04645164;-0.12601627;0.0010229843;0.008389634;0.021862242;-0.029431809;-0.041863743;-0.026766932;-0.038373943;-0.115586616;0.08978936;-0.09346711;0.018346025;-0.04945952;0.07756935;-0.031839866;0.090185225;-0.042492192;0.03886063;-0.067253835;0.046516187;0.011107374;-0.06863211;-0.034074485;0.07704876;-0.016362773;-0.017858813;-0.01044146;0.060354546;-0.057564624;-0.05294811;-0.048349548;-0.14223474;-0.049590185;-0.062323764;0.024518374;-0.021771299;-0.017876344;0.0685063;-0.035183042;0.028463637;0.04758956;-0.038802087;0.06646262;0.04860982;0.042122748;0.049894337;-0.041530617;-0.08365274;-0.0109077655;-0.01803823;-0.13070488;-0.033116095;-0.014700357;0.10104027;0.049919564;0.006907031;0.08559282;0.0915655;0.079176374;-0.09110432;0.12564996;0.031415183;0.12227151;-0.030999945;0.0077323797;-0.02894075;-0.056874964;-0.066736676;0.03502893;0.010781186;0.018244335;0.08769218;0.015104079;0.04654759;-0.054008804;0.070156775;0.070623174;-0.062442582;0.08765091;0.050642863;0.0877274;0.03788886;0.03310614;-0.04086738;-0.024590554;-0.040722337;-0.071551844;0.03589739;-0.057510886;-0.029206324;0.009618305;-0.058118396;-0.042412825;0.054016158;0.06122019;0.059406146;0.021948522;0.059142202;0.07790607;-0.024214616;-0.19505814;-0.0031955184;0.07180567;0.034608286;-0.01846703;0.046527527;-0.07999316;0.057128184;-0.0061161737;0.009731895;0.032383095;0.041025195;0.085991696;-0.021760594;0.11321904;-0.08716181;0.085171066;-0.06315376;-0.026817452;-0.07963172;-0.034650914;-0.0021345778;-0.009680004;-0.0480229;0.015911134;-0.11557601;-0.034307983;-0.015696138;-0.037336074;-0.08564504;0.03869712;0.0175691;0.013863801;-0.016782861;-0.036191132;-0.0100958;0.04063432;-0.05171999;-0.037940376;0.055486772;0.02234062;0.06955875;0.076358974;0.027908856;0.084382735;0.044398386;-0.057653762;-0.010048445;-0.008057154;-0.14706576;0.027258765;0.0393164;0.024020977;0.08792158;-0.016410716;-0.059671912;-0.087871455;-0.010651402;-0.0398905;-0.10417458;0.036020648;0.09031483;-0.0033839878;-0.05857749;-0.0640309;-0.041538563;0.010456321;-0.031124938;-0.044097353;0.055734023;0.07207601;-0.014355955;-0.1391712;0.03705906;-0.0063477606;0.069591574;-0.051749256;-0.10138794;-0.051960193;0.059691828;-0.053521696;0.11283853;-0.050311293;0.08689624;-0.16889586;0.04802514;-0.063736595;-0.13968909;0.015962757;-0.07450191;-0.068795115;-0.060634952
0.087554246;0.031687886;0.11168751;0.079771616;-0.008894081;0.08439191;-0.035014436;-0.005632148;0.061633084;0.07440498;-0.05685391;0.013983971;0.079548866;0.071788624;0.036362037;-0.063565865;-0.022229841;0.07387951;0.10870573;-0.077162065;-0.05684631;0.080808826;-0.06112304;0.0020276392;-0.024807796;-0.060777027;-0.032046445;0.117924295;-0.01792874;-0.12292341;0.030635925;0.025601588;0.05639362;-0.044911254;-0.08737186;0.056249328;-0.03994305;0.0675686;0.06286863;-0.0598795;0.06556914;0.0085681295;-0.0014157287;-0.1050045;-0.01688281;0.12022243;0.053074896;-0.0109997485;0.072119;0.025434466;0.060129862;-0.04304867;0.040228248;-0.0016012688;0.066786;-0.008039216;-0.045325905;0.042218227;0.058499426;-0.079152174;0.086137764;0.07179956;-0.052828096;-0.0017672981;-0.04054308;-0.02030611;0.04500921;0.020204179;-0.11523789;-0.09278333;-0.051413566;-0.063560784;-0.024440836;-0.037774254;-0.03713567;0.08671357;0.07307245;0.09230068;-0.035121754;-0.07663025;0.044025347;0.08581107;0.010397392;-0.0564552;-0.030988375;-0.013455607;-0.03706182;-0.10506322;0.02258979;-0.010858003;0.048240397;0.019959785;0.0058213877;-0.0789954;-0.02094253;0.06351616;0.14057215;-0.05330775;-0.027814671;0.0006064631;-0.008707561;0.037328385;0.018665016;-0.015280528;0.017751202;0.080152325;-0.010303379;0.0655368;-7.04629e-05;-0.07154368;-0.045257304;-0.049243197;-0.021467375;0.12474416;-0.04959976;0.02339713;-0.06373127;0.06304593;-0.03299414;0.05845027;-0.036103044;0.09205363;-0.05829851;-0.0850534;0.028486723;0.02478374;-0.044160116;-0.08104653;0.07611841;0.080868945;0.061141234;-0.0053265267;0.007283511;0.0030723864;-0.009711802;-0.012721324;0.15129183;0.0008540394;0.046326555;-0.069589995;0.06729244;-0.14858681;-0.034758624;0.07123595;-0.08392654;-0.00036225747;0.008909492;0.11021424;-0.06382645;0.042335797;-0.03516417;0.08586099;-0.06985595;0.037905928;0.05813431;-0.035127617;0.06217642;-0.0035468002;-0.07402842;-0.0013822096;-0.020906257;0.05529726;-0.024613552;0.045583613;0.09819826;0.045255203;-0.071714975;-0.08570368;-0.045794148;0.0018678388;0.040179707;-0.04702452;0.040316686;-0.10921007;-0.0725753;0.054994877;0.03742606;-0.015232438;-0.12037948;0.05834026;-0.05862666;-0.072017305;-0.028226253;0.0015068233;0.064705394;0.10940791;0.13949229;0.10629151;0.054944724;-0.058030255;-0.008521719;0.007091298;-0.014048625;-0.069236256;-0.028246628;-0.072691485;0.0861834;0.034749612;0.002547315;0.089213274;-0.020288698;-0.03659695;-0.00084433804;0.07162417;-0.03339686;-0.021183074;-0.016418658;-0.0575828;0.012625708;-0.05141818;0.040341303;-0.02373895;0.007112642;-0.0693079;-0.06337171;-0.025543034;0.046154603;-0.11570792;-0.07155657;0.04458052;-0.041186456;-0.059587266;-0.063834056;0.03823586;0.06181035;-0.0383662;0.07865547;-0.083467096;0.047299437;-0.06730464;0.04915465;0.0028058605;0.0061405655;-0.056478214;-0.010493441;0.020420924;0.011099933;0.06638558;0.031002687;0.09302196;0.059920944;-0.03633667;-0.08622231;-0.041778535;0.08697987;0.05245238;-0.06391872;-0.031339888;-0.09145476;0.014852685;-0.052895643;-0.056180973;0.11709624;0.08720945;-0.08584905;0.03087666;0.0716793;-0.030690363;-0.07047172;-0.05069455;0.12137533;0.07522454;0.055804297;-0.008225287;0.029701931;-0.030103896;0.096388906;0.05698536;0.06250182;-0.10117014;-0.079226576;0.019452691;0.08759329;0.012384365;0.010624558;0.052696977;0.0979447;0.0648455;0.0028353059;0.016562171;-0.0622538;0.018235665;0.046584286;0.07668052;0.019156812;-0.029515581;0.01468587;-0.01127877;0.15203393;0.04299905;-0.03615039;0.08119673;-0.006198319;0.014500288;0.021617318;0.1497671;-0.044821937;-0.046716873;0.049943794;-0.087582774;-0.032061685;-0.035174754;0.00952609;-0.0237552;-0.061955515;0.046888214;0.099281505;0.06348194;0.03319758;0.061128728;-0.019004622;0.030149631;0.076890655;0.03443286;0.028221244;0.017968623;-0.023088723;-0.05200197;0.08399313;0.038574226;-0.04016351;-0.07792399;0.048197046;0.08031803;-0.046329565;-0.06626655;-0.037166644;0.018584475;0.025699455;0.0016211554;0.06748997;-0.11081674;-0.019715693;0.07087499;-0.056294236;0.08485993;-0.00977918;-0.021492094;0.004824343;0.10295258;0.00012532523;-0.028337728;-0.052775893;0.1205198;-0.08014474;0.046423487;0.092473656;0.061538592;0.054748926;0.0032095914;0.006134361;-0.04877874;0.051622085;0.08365218;0.0031196242;0.06875859;-0.13512878;0.021545248;0.0757125;0.07401434;-0.09371514;-0.037803173;-0.08222874;-0.009159892;-0.037067436;-0.07861304;0.021358762;0.03911477;-0.03633915;-0.07686421;0.025098072;-0.03472516;-0.04796058;0.07850864;-0.06066143;-0.048332956;0.061094757;0.06674609;-0.020733299;-0.034311797;0.044078786;-0.026868938;-0.04820834;-0.0026600962;-0.113738805;-0.05709822;-0.035496555;-0.0145989945;0.015245373;0.03391373;0.0015746185;-0.03888042;-0.016501853;0.08396145;-0.09575601;0.013787731;-0.062030215;0.03566908;0.09282025;0.047952667;-0.025443027;0.076201566;0.07483938;0.016336918;-0.054453593;-0.01456255;-0.038888715;-0.022290913;0.10155909;-0.04359003;0.0015222615;0.020160027;-0.022221735;0.013039514;0.040931202;-0.10289651;0.025322383;0.02480822;-0.035142057;-0.012478135;-0.040455975;-0.032385647;-0.034613058;0.06072299;-0.054986473;0.0055659753;-0.048787344;0.01635266;0.110562;0.026089292;-0.09589067;-0.07765321;-0.026846318;-0.020899862;-0.08845676;-0.0669686;0.03374009;0.028572023;-0.033693362;-0.04868182;0.016124034;0.0907825;-0.015969537;-0.026463015;-0.023331784;-0.01977873;0.13433348;-0.0055869864;-0.051394347;-0.03842706;0.08870946;-0.006672923;-0.0456748;-0.024211293;-0.082655765;-0.050030656;0.005884611;0.045976967;0.02722011;-0.053431243;-0.08522402;0.047829602;0.02100184;0.08946944;-0.010933046;-0.02820187;0.0853112;-0.032848444;-0.058459517;0.08055924;0.029644938;0.047416855;0.04013686;0.09342888;0.044872228;-0.029922457;0.0058579575;0.038227852;0.005986182;0.06675231;0.08520826;0.008730509;-0.009650545;0.08694013;-0.09376254;0.09006304;-0.040087793;0.04641472;-0.034825075;0.064977676;-0.040615506;0.09912343;0.027993454;-0.02990148;-0.018465608;0.052797418;0.06422057;-0.053303786;0.052295152;-0.044975277;-0.007568559;0.032160584;-0.0042770538;0.04596445;0.008377216;0.009570754;0.05242695;0.05112935;-0.006879232;-0.15260744;0.013541263;0.019098163;-0.062022332;-0.032979865;-0.0101734875;0.060136605;0.00023687072;-0.015794018;0.0061655985;-0.053636312;0.07528312;0.057037704;-0.01034739;-0.0080911;0.02446892;0.013701903;0.04552603;0.013784759;0.123786606;0.07205722;-0.0067102024;-0.086074114;-0.0135368435;-0.13817236;-0.058888264;0.046179414;0.015553346;-0.01944736;-0.035209496;0.060658704;-0.026122265;0.06988173;-0.033784583;-0.09168994;-0.014419348;-0.0046870643;0.055291817;0.013815908;0.041229475;-0.08282335;0.053525858;-0.014822669;-0.031384155;0.010295599;-0.035580963;0.03247631;-0.15113097;0.04920708;-0.008731935;0.05255816;-0.030676296;-0.11277039;-0.030629031;0.0530095;0.030992841;0.1073103;0.030507833;0.017638309;-0.12756589;0.03810705;-0.07086053;-0.026437456;-0.031757593;-0.038563557;0.050846055;0.1201505
-0.027727256;0.102311715;0.039008446;0.0552513;0.025622647;0.017543836;0.03219029;-0.08264217;0.038528804;0.07849497;0.07658507;-0.0033969146;-0.015557771;-0.0668025;-0.029751921;-0.074082084;0.0028345704;-0.023644673;0.09334474;-0.056899887;0.01090825;-0.057892915;-0.045967646;-0.011664718;0.042188197;0.018275779;-0.046867337;-0.0005126815;0.049606226;0.04652149;-0.051855262;-0.07663377;0.052795872;-0.09749972;-0.06429589;-0.019092841;-0.08689272;-0.018693635;0.027356084;0.034573205;0.05165833;-0.06982522;-0.09948718;-0.083883956;-0.08076116;0.12078456;-0.016018126;-0.023574041;0.08573694;-0.10567627;0.048154257;0.012353699;0.09747171;0.05782204;-0.07182482;-0.017891493;-0.028580159;0.02593186;-0.043713443;-0.018294891;0.060115747;0.00088283146;0.0047169873;-0.06957149;-0.16652155;0.02030972;0.06900247;-0.04080879;0.011042953;0.04015629;0.069609255;0.052664336;-0.16821496;-0.02887171;-0.003991779;-0.086756825;-0.03399009;0.07673493;-0.14164913;0.08360212;0.0054794936;-0.014797974;0.008560133;0.017653111;-0.038603712;-0.02626643;0.015255613;-0.0814027;-0.045751028;0.073212236;-0.05569042;0.06809014;-0.024815124;0.008092735;-0.0018727597;0.046971995;0.03020438;-0.013815612;0.010057315;-0.032705523;0.079704106;0.018462766;0.08315075;-0.02798007;0.014135497;-0.03388505;-0.013731735;0.018255372;0.024899768;-0.019219734;0.002578337;-0.047868807;-0.07514996;0.12908559;0.062658355;0.118491;0.018472183;-0.095987394;-0.0444745;-0.06336101;0.011428474;0.020803286;0.07256919;0.0421371;0.0596133;0.14891711;0.14698781;-0.06621162;0.043056734;0.022062972;0.017243303;-0.029421134;-0.06314849;0.037645366;-0.062640846;-0.03684377;0.07393496;-0.010712536;0.05786582;0.058658198;0.07121391;-0.16097942;-0.050060805;0.02192306;-0.023579994;0.034949765;0.0212585;0.05774553;-0.012088637;0.008074225;0.031045679;0.079228245;0.0031067496;0.04349766;0.045302514;0.07706546;-0.08624255;-0.11198977;0.03108341;0.04687135;0.022025742;-0.04683577;0.051906407;0.0236476;0.070361614;-0.06837213;-0.0060712416;0.024578303;-0.07363503;0.07860792;0.11059545;-0.067941315;0.081198074;-0.031151472;0.024718883;0.046563424;-0.04595872;0.16779414;-0.07709237;0.057325304;0.07189461;0.04992397;-0.13174658;0.09975629;0.056857307;0.17952166;0.16476025;0.101678684;-0.00072704244;0.0021627585;-0.15450172;0.08077782;0.056306574;-0.012663588;-0.054755986;-0.031064617;0.0046549663;0.046837788;0.04330624;0.046831112;-0.042458687;0.040094763;0.05277994;0.023287166;0.011534297;0.08294542;-0.09974701;-0.027014295;-0.016721543;-0.009516972;-0.049013507;0.06155595;-0.011097367;0.038038593;-0.02832623;-0.004448866;0.010540905;-0.047398183;-0.037574545;0.013213111;-0.029271053;-0.07023816;-0.045707013;0.03641629;0.055792518;-0.03657077;0.14573775;-0.11518895;0.027953725;-0.049725913;0.01822238;-0.0014978222;-0.01220832;-0.04522042;0.09783858;0.09657972;0.04468084;-0.044853497;-0.037175335;0.14333595;-0.08501027;-0.046301585;0.0139096035;-0.051572245;0.0717511;-0.030728417;-0.06739919;-0.0206597;0.016314693;0.07390258;-0.061866887;-0.059345886;0.108548954;0.04991846;0.052808307;-0.0456526;0.056341235;0.07673444;0.07670564;-0.03518306;0.11068719;-0.05039159;-0.057520445;0.03343894;0.10874645;0.008176172;0.11147764;0.04463562;0.11896372;0.048270933;-0.025031058;-0.06429774;-0.06693092;-0.045056272;-0.0040024114;-0.03113735;-0.009589972;0.004617455;-0.0040481165;0.039575607;0.032145243;-0.04115365;-0.04167432;0.009772898;-0.062272977;-0.022983994;0.07077235;-0.04304447;0.1299058;-0.027908029;-0.05900738;0.07240992;0.03395623;-0.023088984;-0.13672468;0.13028409;-0.0071269223;-0.029415132;0.008079044;0.060456663;-0.04292781;0.01319475;-0.06992175;0.08803046;-0.009980102;0.07962157;0.09986042;-0.0075919693;0.062006697;-0.02091964;-0.05194472;0.09158207;0.025465831;-0.07776203;-0.1100915;-0.088013105;-0.057585347;-0.03847517;-0.051795166;0.046002664;0.005208319;0.04865061;0.01476569;0.010412773;-0.052676678;-0.033295464;0.018189749;0.035338115;0.085155465;-0.06748658;0.04195672;-0.0297873;0.01777282;-0.032106392;-0.0555953;0.0024505986;-0.06077839;0.05775755;-0.031472575;0.0052210735;-0.037209738;-0.015990267;0.05929895;0.098696575;0.014741376;0.06298824;0.013838879;-0.046116743;0.042402185;0.11298525;0.01506152;-0.08054282;-0.10015123;0.05276949;0.012328023;-0.057614043;-0.15193078;-0.06421919;0.007922928;0.06766604;-0.046016756;0.00055587286;0.00498137;0.02359881;-0.029137045;0.020234171;-0.01590399;-0.049971815;0.0013436474;0.053509444;-0.04405059;0.023783403;-0.04260241;-0.07337742;0.08073784;0.07669363;0.068430245;0.022098824;0.069914706;-0.07108035;-0.009025879;0.090709396;-0.05180406;0.024093335;-0.08578363;-0.007022277;0.027419573;0.00022811303;-0.060737245;-0.021047633;0.07539824;-0.024621692;-0.045017317;0.012853782;0.0019773918;-0.03106647;-0.03041494;-0.034946557;0.067698464;0.079958536;-0.0565839;0.020730289;0.0054975105;0.07139979;-0.053813297;0.04709454;-0.028645717;0.020647112;0.012001268;-0.053472694;0.024837079;0.092711106;0.015071271;0.056917667;-0.08410002;-0.06252283;-0.04725853;-0.05452087;0.07021189;-0.032258812;0.081683315;0.063054524;-0.00087183056;0.06319328;-0.017136525;0.07383246;0.0569268;0.0049013156;0.0047825463;0.025420954;0.07347624;-0.03403595;-0.019442039;-0.062257353;-0.14218819;-0.01869533;-0.009575909;-0.035388302;-0.016359402;-0.016639628;-0.050289262;-0.058107946;-0.0008776714;-0.10106145;0.01345733;-0.025202278;0.058335446;-0.022504732;-0.06413529;0.063591756;-0.013885401;-0.064656384;0.0338044;-0.05935786;-0.15767948;0.026633982;0.035565156;0.009763443;0.058363356;0.017549643;-0.0810511;-0.029382333;-0.01989055;0.06635579;-0.001658365;-0.022024048;-0.020780023;-0.12981264;0.07685253;-0.068228275;0.054436114;-0.05303793;-0.14979574;0.048281442;0.083515204;0.068782076;0.0037319108;0.06559274;0.036814615;-0.0629114;-0.0178453;0.03830828;0.087432116;-0.04587762;-0.1858961;0.047758378;0.0331845;-0.019156596;0.106863335;-0.00090720726;0.02995718;0.019804085;-0.0038298282;0.07959611;-0.0252628;-0.02196804;-0.011039784;-0.008515671;0.18251541;-0.08635804;-0.02420919;0.02234411;-0.007722464;0.008830602;0.07937345;-0.07083391;-0.0042864103;0.051038153;0.040287975;-0.08776892;0.07244463;-0.042085543;0.03058164;0.005860096;0.03922071;-0.042801335;0.026027976;0.03390428;-0.02867574;0.050152585;0.015599186;-0.034095667;0.010637111;-0.08731055;0.12246132;0.08900866;-0.002875961;0.017563913;0.061433345;-0.025347294;0.035344467;-0.06906899;-0.022558842;-0.04803234;-0.06483381;0.13227104;-0.040377848;0.025706;0.0067599076;0.07808975;-0.12048186;0.017927613;-0.022517787;0.051959176;0.023932971;-0.095518395;0.03593922;-0.020965185;-0.07819887;0.064885825;-0.04328148;0.032223992;-0.04448825;0.01102309;-0.013622609;0.07202477;-0.0839177;-0.077631496;0.027589606;-0.08986725;-0.016919406;-0.114718415;0.061626658;-0.01373133;-0.04079595;0.10532375;0.13011397;0.07746659;-0.07131844;0.026416823;0.051763285;-0.10480811;-0.03997625;0.06768438;0.05130536;0.05047429
0.06836568;-0.0053219693;-0.015180884;0.067502014;-0.050151877;0.05284284;0.0922677;-0.0670274;-0.02533755;0.031958394;0.08046039;-0.0018915841;0.05380987;0.04693136;-0.004217144;0.026647346;0.062763795;0.08674787;0.052621357;-0.07230685;-0.09999486;-0.009549249;-0.03427446;-0.058054056;0.12956207;0.01794564;0.0418836;0.039482575;0.03133722;-0.07157928;0.0052884254;-0.0822858;-0.04473546;-0.09773795;-0.020438585;-0.094858;-0.07770981;-0.028200086;-0.023823176;-0.0286866;-0.044570446;-1.6670434e-05;-0.041828297;0.004934417;0.007882284;0.09167081;-0.06883176;-0.027618892;0.046455495;-0.07185029;0.09848691;-0.11254551;0.054577943;-0.02062535;0.07562538;-0.04047624;0.07252992;0.045001555;0.0042663165;0.05067688;-0.027315117;-0.022749536;0.09687431;0.026225347;-0.104630284;-0.035165105;-0.047186565;0.039429717;0.036543973;-0.038084712;0.02849797;-0.017051246;-0.12981631;0.076416515;0.043704513;-0.031811245;-0.064649075;0.010448174;-0.13749298;0.058047358;-0.009283771;0.076806135;0.0100352885;0.059031162;-0.051544774;-0.027858587;0.0027828065;0.059120275;0.041605238;0.00970663;-0.051323514;0.050233748;0.016623221;-0.117333956;0.028416831;0.028424308;-0.0035345466;0.05427371;0.039305452;0.013096379;0.00061539;-0.077410504;0.07199042;0.036999438;0.008482395;-0.035704993;-0.008948478;0.012569155;0.05487985;0.077564284;-0.0067118164;-0.041815292;0.025743928;0.023232527;-0.06300138;0.10028983;0.028504267;-0.023482384;0.067872286;-0.042128693;-0.0067879204;-0.057387333;-0.06767908;0.014396565;0.07657009;0.06957212;-0.05150095;0.06810224;-0.04342386;0.041068397;-0.066597864;0.035339326;0.015771337;-0.06903933;0.059329532;-0.042692494;0.13058905;-0.058426883;-0.031079793;0.1307418;-0.07403185;-0.061563946;0.079448596;-0.04597127;0.07677579;0.062420953;0.057730753;-0.015352303;-0.030620912;0.045476865;-0.019717248;-0.011165757;0.0248674;-0.033291686;0.0093976185;0.07969787;0.015688578;-0.048423443;0.042403713;0.06346402;0.04433769;-0.057462923;-0.035900287;-0.0355677;-0.03165914;0.064457245;-0.00064269896;-0.015876856;0.0066094236;0.020171113;-0.015146415;0.09969693;-0.05411574;-0.08274581;-0.08120957;-0.041408252;-0.019293224;0.01070733;-0.08076315;-0.017515492;-0.013321846;-0.05227885;-0.10913889;0.006685426;0.03561248;0.037515007;-0.027461408;-0.046478473;0.029875748;0.060710292;-0.082828686;-0.0005728681;0.052255318;0.083268;-0.07540433;0.06688588;0.025949612;0.059419036;0.09256753;-0.013276999;-0.009812927;0.09314735;0.055692673;0.07432468;-0.05668377;0.019337192;-0.034141365;0.03153901;0.083479166;-0.0101993;-0.056457277;0.0206779;-0.052155398;0.030570952;-0.033067994;0.10970684;0.08828197;-0.12571143;-0.035596438;0.0431289;-0.05635566;0.019650962;-0.014420794;-0.034357253;0.0054684496;-0.03212927;-0.0021264937;-0.0027391356;-0.022268444;-0.038938712;-0.050731283;0.051869854;0.017551545;0.026204148;-0.046950556;0.05203432;0.039132055;0.02587929;0.048608273;0.028400375;0.0005048035;0.03331724;0.03472368;0.020235345;-0.05758327;0.039059337;0.07797825;0.08967327;0.049819637;0.087930575;-0.027296036;-0.070900016;0.046369523;-0.001222968;0.06684755;-0.03914976;0.07084699;-0.053149443;-0.06535689;-0.056736555;0.0069679287;-0.026920961;-0.06897915;-0.044073112;0.013959797;0.06581084;0.022175305;-0.051152397;0.030555468;0.06164934;-0.028131476;-0.01684197;0.016255017;-0.064443946;0.08174078;0.020462034;0.081995316;0.05646626;-0.039771073;0.047740053;0.06107859;0.057570037;-0.037656136;0.006275021;0.043637782;0.033174146;0.034210645;0.0049642297;0.00070669624;0.09497499;0.04621511;0.07430446;0.028412612;-0.069957525;-0.03236358;0.018444436;0.052243672;0.060573414;0.05358671;-0.007645596;0.044659223;0.03006675;0.015033728;0.012629506;-0.007865717;-0.017201435;0.0714087;0.041019525;-0.06452599;0.023090068;-0.039665285;0.00217797;-0.030567437;0.07081024;-0.012892706;-0.03371674;-0.044271246;-0.050618503;0.050520398;0.058834426;-0.019237025;-0.04445932;-0.0050508077;0.061736647;-0.012211935;0.11997474;-0.023545336;-0.018635787;0.085991465;0.033861134;0.023940967;-0.036488477;-0.03957936;0.047397543;0.006088426;0.12523913;-0.059013862;0.058828544;0.045020565;-0.022104537;0.044266045;0.05838455;-0.031185385;0.024854045;-0.02181449;-0.024751307;0.059963074;0.02535882;-0.007806371;0.12794383;0.05506755;-0.09035193;0.008648105;-0.040243752;0.008452529;-0.02101774;-0.012051317;-0.047850683;0.05805032;0.0062240027;-0.034651097;-0.04529979;-0.07633229;0.1217557;-0.0571206;0.009887804;-0.032930106;-0.024847768;0.044599663;0.006362189;-0.041074783;0.021490132;0.005921876;0.026695978;0.057771325;-0.059636466;-0.036748335;-0.09253634;-0.075052366;-0.033162933;-0.047674745;0.102704346;0.055865098;0.013954856;-0.06437521;0.08194777;-0.021310452;0.05357665;-0.0052589756;-0.0038699256;-0.0687385;0.02915428;-0.010243577;-0.011287533;-0.055114698;-0.03285134;0.11931955;0.054148167;-0.031126555;0.06382345;0.004355489;-0.062231697;0.0055502155;0.07576829;0.089999;-0.002832369;0.04444906;-0.07333974;0.04227478;0.0027814228;0.025744803;-0.047376946;0.03196393;-0.04657228;-0.08600458;-0.13571963;-0.0060764356;-0.034209173;-0.035193916;3.382816e-05;-0.02941125;0.05360536;0.06774178;0.045740683;-0.0036454739;-0.0272647;0.110120274;0.011997128;0.0639926;0.028633052;0.018355854;-0.0740255;-0.04997706;-0.008445144;-0.039379954;-0.050095666;-0.07394467;-0.009672541;0.04733799;-0.05519939;0.028415238;-0.09466079;-0.06901359;-0.09786325;0.05669003;-0.003973031;0.004160987;-0.04860507;-0.063223474;0.046560194;0.075242974;0.079785295;-0.042951908;-0.033267338;-0.06701222;0.05915907;-0.015824003;0.064659365;0.04895247;0.03407882;0.047417916;-0.05082905;-0.02171032;0.00064132793;-0.014471146;-0.055652853;0.008079719;0.038635377;0.021508195;-0.058447424;0.08643883;0.062307544;0.033997785;0.11128562;-0.07519925;0.04837972;0.048703056;0.017323496;0.008792768;-0.0319284;0.019011287;0.072511;0.001486478;0.008307825;-0.031825177;0.10071002;-0.000841524;-0.010600419;0.042086147;-0.00014096708;0.02723179;0.115823634;0.021619873;0.049366947;0.020483889;0.073015444;-0.075029664;-0.010352971;0.09321373;-0.035596143;0.04389213;-0.052277472;-0.0065893317;0.016049333;0.025377182;0.019510137;0.09759711;-0.04950858;0.0012969879;-0.09936969;-0.0077378266;-0.03969791;0.08949133;-0.04039091;0.051904652;0.036703855;0.01841846;-0.024582267;0.043284833;0.0024480356;0.06598388;-0.054728948;-0.039911166;0.008668154;0.12909044;-0.017873658;-6.741423e-05;0.007996901;0.064095564;0.04865548;-0.018512165;0.08197199;-0.024849277;-0.07006507;-0.049873844;0.1074069;0.051478323;0.071035154;-0.0060520107;0.081112616;-0.02764234;-0.014213625;-0.022678623;-0.090750806;0.022460375;-0.05799495;-0.028549932;-0.058087543;-0.039930057;-0.017042289;0.022825206;0.0927068;-0.10026138;-0.03744281;-0.061765023;-0.014030496;-0.07702849;-0.0010645624;0.116380095;0.072869174;0.09240733;-0.060261507;0.066988066;0.056910306;-0.022098152;0.017548587;-0.056362715;0.046310414;0.0026345733;0.040142104;0.02129593;-0.06569081;0.056366157;-0.05394874;0.04529757;-0.023737358
0.022945993;-0.052547514;-0.045423638;0.058873396;0.066710554;0.032788012;0.048151925;-0.014417584;-0.016052706;-0.07828026;-0.030406661;-0.08502931;0.089072876;0.047407188;0.07553947;-0.024884224;0.032297418;-0.027752226;0.01723414;-0.007846438;-0.057222307;-0.0059453603;0.028199244;0.060304996;0.0859972;-0.13092096;0.011867518;0.09127101;0.043998115;-0.10347298;-0.04038948;-0.09070817;-0.035149537;-0.08088844;0.05507501;0.0051917876;0.013574386;0.009292072;-0.061821595;0.02512638;0.014267134;0.06821617;-0.020840265;0.005986445;0.056374457;0.010992111;-0.01247166;0.08459301;-0.08101532;-0.10337755;0.06473706;-0.058215182;-0.002088169;-0.039041404;-0.023335326;0.031403;0.06500048;0.029086802;-0.0648776;-0.06079151;0.071888365;0.027513059;0.043315087;0.064238936;-0.13487129;0.07980136;-0.006470995;-0.038688764;-0.03144692;0.08262707;-0.013439467;0.007903032;0.020898908;-0.061842643;-0.07404241;-0.056638896;-0.042651415;-0.062325895;-0.11603037;-0.13107628;-0.034370307;0.059746563;-0.075085156;0.06270429;0.024426991;0.03154451;0.00034310238;-0.007941689;0.00021636236;0.036388837;-0.038522586;0.08667354;0.022783708;-0.0044626137;0.0041280165;-0.036893267;0.11454715;0.03436744;0.044386595;-0.009806392;0.08133987;0.024081256;0.088772565;0.06048559;0.05911164;-0.063817896;-0.015588391;0.10569677;0.07866099;-0.06777451;-0.000972492;0.07484201;0.059488617;0.07121526;0.049652178;0.07747616;0.06519758;-0.06287627;0.022319853;-0.020368302;-0.021965431;-0.012781374;0.017480027;0.012467912;-0.036936864;0.10090203;-0.069775425;0.062695965;-0.013069581;0.017362589;-0.018092321;-0.043565203;0.06423656;0.0057753865;0.06620493;-0.04236818;0.13260177;-0.020925839;0.017100321;0.027270347;0.0038987112;-0.073210925;-0.08134628;-0.0020197504;0.016864272;-0.00010749945;0.066670164;-0.054152075;0.07218715;0.07708194;-0.0784513;0.03904102;-0.025067762;-0.021083126;-0.05350329;0.036160193;0.02084149;0.0074178297;0.003854603;0.029213088;-0.041663557;0.036147747;-0.03569271;-0.008006597;-0.027798513;-0.055864766;-0.070176475;0.063206814;0.05663919;0.070916936;0.040309776;-0.02424144;0.07531164;0.041189708;0.05433784;-0.07966344;0.07903576;0.049730316;-0.0294382;-0.042875722;0.05337126;-0.0033933518;-0.10190868;0.021301359;-0.072007835;0.12807503;-0.0024708635;0.05649694;-0.013367527;0.0012887525;-0.048845347;-0.054379147;-0.018299725;0.061745897;-0.12695171;-0.012270044;0.04085322;0.020623406;-0.016069097;-0.10996466;0.021128573;-0.0067009428;-0.015792703;-0.06281481;0.059179;-0.049907543;-0.008967683;0.02100614;-0.023514722;0.041493103;0.03395719;-0.017817192;0.0942728;0.014025864;0.043640994;0.027383162;-0.06619558;-0.007995087;0.05593782;0.032513805;-0.023146702;-0.04774561;0.082837574;0.008682288;0.07499053;0.026327496;0.083851844;0.010881298;-0.02939371;0.08995354;0.052027415;0.08014315;0.04762593;0.01393916;0.050093666;0.10756868;-0.027871422;-0.007677122;0.026054272;-0.09687893;0.06603068;-0.0457317;-0.0045952196;0.099921815;0.012619024;-0.0010604037;-0.04467486;0.06731156;0.027212108;-0.04556552;-0.041030273;-0.04558274;0.10927983;0.008180984;-0.02453229;0.01560736;-0.03029391;0.076817304;-0.06637923;-0.052274525;0.06036154;0.012437571;0.04285731;-0.01215897;-0.053001553;0.06675897;-0.045312393;-0.029836794;0.07992197;0.10140453;0.04513587;-0.034185167;-0.017582739;0.003758311;0.063126735;0.022464355;0.015242103;0.015568342;0.04144794;0.06876397;-0.0704545;0.06452638;0.031009464;0.03955089;0.041041918;0.07890659;-0.080775484;0.00023689045;0.13135333;0.028565498;-0.050724965;0.060698424;0.08660464;-0.07115021;0.07433277;0.07721067;0.01638777;-0.06557227;-0.027257156;0.013835134;0.06026325;0.033368688;-0.060392164;-0.024488643;-0.00433089;0.05917597;0.11377062;-0.047885567;0.0021757449;0.055589825;0.042103674;0.025836058;-0.02545237;0.033447772;-0.07700904;0.009709627;0.03618676;-0.061551318;-0.06212995;-0.037042852;-0.05335584;0.057996124;0.013651857;0.067786105;0.0050652632;-0.02456438;0.07411023;-0.04440035;0.012239224;0.005843157;-0.058010224;-0.02227681;-0.022897176;0.0035668933;0.028026257;-0.0044688513;-0.10531369;0.026079712;-0.02284154;0.01793461;-0.058557216;-0.008594299;0.06465121;0.07717717;-0.08449559;0.046725538;0.030218463;-0.07086658;0.062470216;0.067039385;-0.046298955;-0.0633786;0.075668044;-0.05738538;0.0033659942;0.03694807;0.0033001765;-0.08065627;0.07837483;-0.02571771;-0.023383912;-0.04055668;0.025467055;0.010926401;-0.048568077;-0.0635522;0.039709635;0.0125121;-0.071973175;0.03637187;-0.039658383;0.12682523;0.009484933;-0.0020780645;-0.07680847;-0.066338725;0.02926851;-0.016928054;-0.067747846;-0.0034818016;-0.0040225415;-0.010354636;-0.05011075;-0.08903921;-0.10801835;-0.029657714;0.066797175;0.081232466;0.04042296;0.08122729;0.07930077;0.023499643;-0.08447995;0.057221726;-0.019577082;-0.014370333;0.07590488;0.0788413;-0.0013451935;-0.008912091;0.0014391725;0.062125053;-0.06838383;0.07836423;0.019290688;0.0515665;-0.06518879;-0.053757455;0.04072191;0.07900096;-0.023258662;0.033901412;-0.05132477;0.06686027;-0.036243033;-0.038845625;0.020037463;-0.058125254;-0.035891086;-0.042972017;-0.056995384;0.11568106;0.034347456;-0.053242903;0.043052495;0.086705126;0.020714084;-0.06414804;-0.021251287;-0.053529177;0.1028029;0.012349365;-0.047843363;-0.04195923;0.037010532;-0.080277786;-0.06244764;0.057539694;0.0073563997;-0.18359579;-0.04048503;-0.108274095;-0.02780568;-0.095883414;0.026302557;-0.020816788;0.03824451;0.075541936;0.03392988;0.033233557;-0.006726706;-0.058248598;0.089878105;0.07215116;-0.06498852;0.04813343;-0.0783186;0.033730455;-0.027707132;0.0670089;-0.06780011;-0.014935335;-0.008180215;-0.07106862;-0.014650236;0.029099956;0.06998229;-0.020705232;0.031947117;0.048232976;0.09640197;0.0838238;-0.095422;0.013532196;-0.03663532;-0.105336845;0.057538725;-0.05883848;-0.081687585;-0.042354442;0.049477607;-0.064434655;-0.039844062;-0.015444761;-0.103543244;0.012611692;0.04479927;-0.024631819;0.06623058;0.019946804;-0.07017119;0.11250263;-0.010569823;-0.07679929;0.06978202;0.116578385;0.045865502;-0.03658833;-0.024875943;-0.09113687;0.070256695;0.062443875;0.045249633;0.06610881;0.07291913;0.026846604;0.048479382;0.016742876;0.03653863;-0.12796855;0.016248604;-0.14135711;-0.02476349;-0.1024817;0.041038144;0.05442456;0.018428305;-0.009975237;-0.040178232;0.07532175;-0.024442839;0.07718478;0.03071976;-0.03798226;-0.06695018;0.0768302;0.09218265;0.031981036;-0.043472815;-0.03914219;0.026100338;-0.07472835;-0.080117464;-0.041868612;0.010550481;0.05934751;-0.02260524;-0.06921844;-0.047281917;-0.021244489;-0.05606947;0.074387014;-0.058218364;-0.09899857;-0.014692468;-0.03717089;-0.07661977;0.03636679;-0.052611504;0.07069903;-0.01991766;-0.012379024;-0.03171707;0.0053513767;0.037889555;-0.004215505;-0.01178218;0.089729;0.084435485;-0.02726369;0.07491478;0.05854946;0.07987338;0.08624684;-0.053448956;0.043980084;0.057381425;0.075924225;-0.03657823;0.046991657;-0.027192593;-0.04391766;-0.030589376;-0.04438086;-0.053417537;0.020140765
-0.07483439;-0.047601365;0.015432375;0.06657828;0.033200786;-0.04334042;-0.02114277;0.0011296241;-0.006094876;-0.0009941811;-0.05519994;-0.035396963;0.099885784;0.083205484;-0.053160775;0.017462362;-0.03742336;-0.035655383;0.04647458;-0.017518854;0.017617052;-0.012113734;0.020328948;-0.04386127;0.015470642;-0.008949809;-0.021161083;0.1591512;-0.020784572;-0.018743627;-0.014387628;0.029942254;-0.057534385;-0.01363124;0.05701898;-0.12395054;0.05120213;-0.07152908;-0.019952197;-0.07721133;-0.011309723;0.0074245925;0.040625904;-0.040996864;0.07329905;-0.0036626477;-0.040053573;0.026302822;-0.058194805;-0.045366026;-0.0031641256;0.01438828;0.06758312;-0.03711345;0.074043594;-0.0083006425;-0.043055087;0.02708604;-0.058111724;-0.0019145256;-0.008001755;0.04851732;0.060374193;0.020149508;-0.11720041;-0.026272923;0.068676025;-0.023303019;-0.0784417;0.050085;-0.056157894;0.019952327;-0.092104875;0.0018858166;-0.058185954;-0.018937169;-0.046716414;-0.019517398;-0.052553028;-0.04312571;0.031138042;0.007447389;-0.015004941;0.026322972;-0.0074759256;0.016595935;0.019481806;-0.03909719;0.051005468;0.11065038;-0.07473259;-0.04558085;-0.058162235;-0.070537694;0.03361931;-0.009443903;0.12053382;0.084240034;-0.06666465;-0.009766676;0.1312744;0.04407896;0.05194599;0.053412255;-0.06672929;0.07791891;-0.07529229;-0.054989446;0.036247198;0.07510655;0.0056765485;-0.0405534;-0.04617942;0.0016571948;0.058638148;0.09715721;0.061874494;-0.016168427;-0.053034566;-0.053941835;-0.049134415;0.09384268;0.08214441;0.019204993;0.03232372;0.066081196;-0.0396672;-0.0076249233;0.027316013;0.09291111;0.0092094485;0.0128749665;0.022776164;0.08647841;-0.06274388;0.030246861;0.11055804;0.0017217956;0.05559601;0.0644532;0.010236506;-0.054641448;-0.030260328;0.008223882;0.006142667;0.0802618;0.04547925;-0.0172154;0.105037235;-0.05102221;0.013664853;-0.08381629;0.064226896;0.013309903;-0.071156956;0.049596276;-0.015061004;0.08604667;0.025503408;0.00066976115;-0.0038377184;-0.006893085;-0.016446492;-0.08444128;0.14019765;0.07626436;0.06377443;0.039874464;-0.057047676;-0.07037116;-0.044942345;-0.052762855;-0.009638468;0.017419431;0.07846736;0.0023417377;-0.06369718;0.047185387;-0.057014108;0.021270925;-0.15448669;0.008474826;0.021778641;0.07368672;-0.021106133;0.14527744;0.11082033;0.04680453;-0.0058156657;0.042843167;-0.045602523;0.032422848;0.0816062;-0.009025596;-0.05966528;-0.0014244862;-0.07598931;0.024906605;-0.024390899;0.06665181;0.02029224;0.1047714;0.0260707;-0.07872221;0.018988507;0.07874293;-0.07591183;0.073625036;0.102167524;0.06326359;0.032167494;-0.013489972;0.024853818;-0.035295602;-0.038779642;-0.02944252;0.0063485615;-0.05323089;0.026209224;0.04390198;0.04998893;0.032431565;0.011227056;-0.008264434;0.038486194;0.088860124;0.13054194;0.05830482;0.024464034;-0.042965747;0.03442798;0.04444896;0.047505572;-0.06496869;-0.083538115;0.1425687;0.01013891;0.07942435;-0.0072065024;0.062299497;0.045084354;-0.050043967;-0.07096263;0.008306475;-0.055998206;0.009815801;-0.034488946;0.05639326;0.061471533;0.04073765;0.08338191;0.022471081;0.022565741;0.028430315;-0.08052593;-0.020639665;-0.02006423;0.044880386;0.019487679;0.038809706;0.053705882;-0.014492444;0.031567987;-0.025457611;0.05299629;0.057116512;-0.017330902;0.0828925;-0.009886234;0.026472436;0.01210565;-0.05572727;-0.03296518;-0.018262142;0.10133371;0.13420308;0.036494784;0.07825528;-0.03159866;0.093693614;-0.01453159;-0.063192405;0.08028696;-0.022607267;-0.052817836;-0.03799724;-0.05616289;-0.03033837;0.056580912;0.0062725674;0.09069961;-0.019068666;-0.013705613;-0.07796228;0.051615503;0.10116392;-0.05156151;-0.026765883;-0.039483618;-0.022919497;0.007128458;-0.06396181;0.059205074;0.02282765;-0.05041267;-0.004542267;0.047620926;-0.021414038;0.055602964;-0.027855258;0.022001656;0.08905391;-0.021182248;0.0005376064;-0.18610914;-0.093372315;-0.046010774;0.083023116;-0.06654598;0.0034103764;0.0249243;-0.0638291;0.005782801;0.046437867;-0.063764505;-0.0402312;-0.025498968;-0.009163222;-0.029874453;0.050802775;-0.039484482;-0.091587916;0.041032568;-0.042053323;0.13523729;0.039606597;0.015584891;-0.035624433;0.06483167;0.018057298;0.015812993;-0.025050778;0.05575494;0.11838878;-0.021004763;-0.06073548;0.022614598;-0.0023031705;0.027403966;0.09839349;-0.090361215;0.025529796;0.06467385;0.10586325;0.09519426;0.0053448025;-0.07291983;-0.13261506;0.08771636;0.020242281;-0.047222767;0.08228681;-0.055227194;0.057447143;-0.061950263;0.05682248;0.059278823;0.014553777;-0.028971314;0.005604524;-0.026447006;0.10435118;-0.02570658;0.00652609;-0.02071805;0.011495168;-0.03652667;-0.099082135;0.05308798;-0.045745388;0.088918604;0.04097863;0.038485475;-0.058255695;0.03548072;-0.055290665;0.05673174;-0.029716635;-0.017484713;0.042910576;-0.046957392;0.0643406;-0.1312374;0.10316007;0.029209625;0.010936191;0.061822347;-0.06496549;0.015828496;0.09416306;0.020656092;-0.0278576;0.06995779;0.058064852;0.017599147;-0.018232815;0.018338533;0.06974988;0.039674945;0.0058425297;0.0753663;-0.06627344;-0.07571142;-0.025603369;0.076361;-0.11220706;-0.031867556;0.0020433278;0.13066407;-0.043971904;0.0036411504;-0.05359941;0.063267484;-0.060165755;0.022739539;-0.02281854;0.08646088;0.034280915;0.0063514938;-0.052725144;0.06499977;-0.028850015;0.063573755;-0.013052406;0.028794784;0.03236032;0.005321107;0.07865241;-0.0011093968;-0.2115502;0.015567089;0.05344486;0.011101299;-0.031061443;0.022688406;-0.037180983;0.075828426;0.013568672;0.027682748;-0.09217838;-0.042348314;-0.06571113;-0.016447712;0.058996305;-0.07884471;-0.076952405;0.006183667;-0.012258121;0.08090608;-0.06534669;-0.039064147;-0.0035740293;0.09702673;-0.066511214;-0.035953145;-0.05676333;0.08788723;0.011943967;0.018652711;-0.008004316;-0.040640146;-0.039167635;-0.11181761;0.0945561;0.085011564;-0.07994085;-0.046572324;0.04864348;-0.076540634;-0.0021979113;0.058740165;0.039555937;0.018799994;0.02501285;-0.00581122;-0.023748273;0.013423779;-0.009920945;-0.0046181073;0.006812812;0.0712579;0.10989021;0.030078819;0.073580906;0.08996015;0.10434048;-0.053760894;0.059919536;0.031119855;-0.00022224375;0.043682624;-0.060474586;0.014801514;0.044596545;-0.04620122;-0.07826577;0.09695021;0.063081555;-0.023825988;-0.17937703;-0.006655863;0.0037577953;0.10119496;-0.14490798;0.09166503;0.019587187;0.04586236;-0.022416884;0.01640259;-0.018093131;0.01253356;-0.010049519;-0.05345505;0.012791121;-0.040101234;-0.0048609623;-0.008023109;0.0017865794;-0.057950545;0.06312801;0.109668925;0.021094104;-0.092982195;-0.17713314;-0.010022821;0.103062645;-0.06660589;0.0144933835;-0.06583594;-0.071547344;-0.017120315;0.052750222;-0.028507672;-0.074655406;-0.01745188;-0.04538728;-0.046882432;0.07462415;0.04551329;0.06303716;-0.072254926;-0.022218416;-0.20822771;-0.010016213;-0.019460268;-0.024781952;-0.08006591;0.008608709;-0.019851321;0.0031246208;0.01985754;-0.015588257;0.0016197537;-0.04207261;-0.09500359;0.04994138;0.027092062;0.097799644;-0.11785922;-0.075479425;0.037054148;-0.11007403;0.0749593;0.0072555654;-0.056959018;-0.019584853
-0.015580288;0.05612159;-0.14812733;0.005053085;0.07809855;0.024863068;-0.051252604;-0.065237924;-0.03947272;0.05771895;0.0083305035;0.021731855;-0.06175107;-0.03176439;-0.06916136;0.0385788;0.06125312;-0.09468464;0.04591393;0.053834315;-0.10512054;-0.04214138;0.04038885;-0.00903079;0.14830855;-0.1219925;0.08823095;0.053370643;-0.028455;0.09220515;-0.049621686;0.0059488863;-0.007766791;-0.027660975;0.014092237;-0.018826963;0.0027025025;0.07984049;0.009194118;0.008947782;0.013808128;0.051520817;-0.061611854;0.07856253;-0.03634022;-0.02025213;-0.0051233754;0.08538278;-0.035683967;-0.02362125;-0.05696238;-0.12913617;0.030691601;0.049906023;0.052210297;0.101023704;0.05531378;0.059024308;-0.0031099059;-0.04382616;0.04857655;0.061505668;0.014099958;0.08296812;-0.14765306;0.031413943;-0.06411834;0.011903935;0.004949366;-0.03080657;0.00956753;0.0760043;-0.03197997;-0.03987777;-0.013591244;-0.12062836;-0.039438643;-0.0186338;-0.025939854;-0.13736552;-0.086065575;0.0787554;-0.14330123;-0.032850362;0.03844602;0.0102206245;-0.05316004;0.104267746;0.11460642;0.10710325;0.08645347;-0.048753068;0.07362949;-0.12311372;-0.06778701;-0.070219785;0.1591752;0.060751192;-0.029682886;0.045850437;0.09256717;-0.051842388;-0.039106198;0.059391532;0.036643445;-0.04084832;-0.033182036;-0.058502436;0.04440056;0.0324964;-0.020020256;0.032503545;-0.014280445;0.033675138;0.081857346;0.09791254;-0.0019699119;0.049259365;0.06996719;0.039846174;-0.046674747;0.05293207;0.038736463;0.0581953;-0.034271527;0.0885943;-0.050302956;0.030127626;0.041698936;0.009955775;-0.020233877;0.060283378;-0.022442717;0.025221424;0.016834872;0.015954003;0.17821686;-0.06919793;0.0053932006;0.06276363;-0.0016016243;0.0041347686;-0.036667127;-0.03833351;0.053962424;-0.03543813;-0.0263101;-0.0008641273;0.04059501;0.08800302;-0.0018235925;0.018704575;0.040682323;-0.022811642;0.050473288;0.0074903117;0.04820714;0.010348137;-0.071041964;0.07867916;0.093836546;-0.013178285;-0.038246173;-0.03521534;0.13256623;0.054974884;-0.036374472;-0.06800431;-0.0623767;-0.05806847;0.06779488;-0.041585866;0.031199709;-0.02382715;0.048721105;-0.00040930853;-0.040719282;-0.08155258;-0.027886467;-0.053148765;0.027481921;-0.03423442;0.023493897;0.03464152;0.04371904;0.1789379;0.06801659;0.10263937;-0.037115328;-0.0063665016;-0.044062547;0.05318029;-0.044484954;0.05130097;-0.06450992;0.030466108;-0.07312059;0.018054234;0.020646429;-0.015796827;0.056426283;0.051236946;-0.015616501;0.00063126907;-0.023325851;0.057599973;0.010541261;0.031156758;0.0382598;0.08853639;0.02174576;0.022412518;0.09406964;-0.020226609;-0.06440811;0.051456764;0.028105542;-0.06959083;0.024100637;0.10783706;0.0104996925;0.046398155;-0.000637966;0.024650386;0.054565825;-0.062529676;0.007748289;0.015972415;0.070901334;-0.03720593;0.045728523;0.07467444;-0.025277685;0.09726043;-0.07825948;0.10219646;-0.01875585;0.07731175;0.09798141;0.018754592;0.005139738;-0.008899272;-0.05481273;-0.06719345;-0.05277985;-0.0012750188;0.079902396;-0.012959028;-0.034748398;0.07485947;0.03338654;0.07447046;0.103889056;0.0306121;0.08059088;-0.033035565;-0.008080204;0.025850972;-0.036919273;0.06788992;0.023852136;0.0733521;0.005920125;0.060733445;0.09009081;0.034820493;-0.007984024;0.03020444;0.116926916;-0.07357394;-0.054347318;-0.047903027;0.040516812;0.0012708695;0.01001166;0.063571684;-0.010378113;-0.0001740015;-0.013348878;0.089755;0.068483;-0.03219129;0.02584441;0.033250738;-0.036039315;-0.04314353;-0.055615913;-0.07643387;0.04751246;0.034664027;0.07276875;-0.010864127;0.009500165;0.065391876;-0.0077742194;0.02120262;-0.05544464;0.041104864;-0.017029762;-0.08903312;-0.047413595;0.04064937;0.056326907;0.116841905;0.08893783;0.11934998;-0.00083558867;0.0057757813;0.08360954;0.015664533;-0.021113615;-0.059791543;0.034478087;0.022396475;-0.050695483;-0.0652037;-0.037275217;0.038026426;-0.034626324;0.021345811;-0.057478927;-0.03544883;-0.07538498;-0.03711801;0.07753553;0.06811659;0.026845207;0.06936004;-0.036701627;0.0751167;-0.08280944;0.054281477;0.041283187;-0.04233807;0.024288366;0.012857055;-0.0043493346;0.03830178;-0.058371454;0.04367243;-0.049773026;-0.036950637;0.08650302;0.023804802;0.0036679164;-0.06388929;-0.06436715;-0.027973317;0.011549865;0.11981379;0.014518689;-0.041140318;-0.02404831;0.06124233;0.017600812;0.098745875;-0.15168163;-0.16632293;0.07484475;-0.08689136;0.021889143;-0.066390485;0.006601295;0.12708034;-0.015556102;-0.002168147;0.013843918;-0.0983282;-0.07663408;-0.01782049;0.06174648;0.10702275;-0.057049364;0.026517201;-0.0005456005;0.09430209;0.09983647;-0.12312972;0.03154761;-0.018640334;-0.008959151;0.00769778;0.0010191053;-0.13995367;-0.076575994;-0.055125922;0.018161263;0.08642989;0.066068344;-0.06461394;-0.024565214;-0.05024196;-0.14905979;0.0594645;-0.10141626;0.03247949;0.11963705;0.056454312;0.09324782;-0.037524726;0.0012608996;0.045079634;0.088145345;0.087535664;0.018192464;0.02879368;-0.060593955;0.05822357;0.04128231;-0.05495015;0.020872148;0.013430924;-0.058666043;0.028594224;0.107798815;-0.013990175;-0.0042616613;0.07050028;-0.008768749;0.10186992;-0.07221847;0.06233518;-0.03787032;-0.0069430666;0.05727863;0.009291704;0.003358192;0.069147125;0.10325696;-0.037155725;-0.03996889;-0.057449512;0.011306541;-0.06246169;0.07543576;-0.041252825;0.093641065;0.08398142;-0.06729903;-0.099367864;-0.0030678457;0.07791892;0.032753054;-0.048321;0.1406504;0.093176;0.016897382;-0.034372453;-0.0046768817;-0.087443136;-0.0011901797;0.022472102;-0.049800348;0.068733245;-0.029564723;0.0072951624;0.0056625493;-0.022452423;-0.007305032;0.06042705;0.04833882;-0.015164471;0.07413002;-0.080363534;-0.064132035;-0.04272074;0.01496101;-0.011843677;0.105517596;-0.03273706;0.027623251;0.022336736;-0.0022074482;0.08656205;0.08177785;-0.07409167;-0.00207992;-0.03995225;-0.05318576;0.038782306;0.06444242;0.07910983;0.06303496;0.035436552;-0.15266947;0.037184857;0.04070297;0.0397277;0.1145649;-0.021224566;-0.019996567;0.1469125;-0.014024821;0.07310589;0.0042948467;0.012455983;0.057147786;-0.0051627243;0.055982467;0.021421526;0.019794693;0.055343337;0.09011913;0.034189835;0.07954856;-0.06639178;-0.018633146;0.0626886;0.043930102;-0.051210735;-0.00746673;0.05705029;-0.006893389;0.02171494;0.08192971;-0.09901768;-0.09825578;0.055316534;0.09624734;-0.0498731;-0.054565184;0.053018764;-0.027759103;0.06668006;0.0019589749;-0.021412594;0.053719882;0.015906338;-0.10646755;0.013448553;0.0019307625;-0.0030371784;-0.111195855;-0.036355603;0.008958081;0.071258545;-0.03897494;0.07587402;0.057167895;-0.028451893;0.00022824049;0.014547917;-0.061118264;0.032996703;0.042230934;0.024223322;-0.07104123;0.0368607;0.0038442526;0.023920566;-0.023795413;-0.0535686;-0.105156384;-0.036202636;0.023990445;0.0029514206;-0.06510979;-0.033360623;0.098929115;0.028732127;-0.0077088345;-0.066349305;0.014047192;-0.037920706;-0.047404714;0.14153874;0.01965672;-0.0012538566;0.0004999262;-0.034117036;-0.0077861347;-0.14493191;-0.037487913;0.009087108;-0.0783616;0.09684381
-0.025681317;-0.039432358;-0.064050615;0.035781454;-0.039916232;-0.039047055;-0.020881891;0.091031544;0.112015754;0.005714508;0.09098625;0.044079043;0.03958338;0.09332192;0.034585092;0.08852331;0.032727547;0.011121824;0.053269703;-0.0867391;-0.14554338;0.12999913;0.06578678;-0.028621731;0.16657364;-0.06525446;-0.052674178;-0.017509636;0.03676908;0.08871271;0.09411898;-0.057400335;0.068124786;0.062032748;-0.033478927;-0.029647093;0.08483543;-0.06330674;0.07747078;0.049973674;-0.0016402552;0.060687084;-0.10531319;0.08463675;0.036829136;0.095509894;-0.010386766;0.03463047;-0.054369334;-0.097251914;-0.024662724;-0.0118193785;-0.011542155;-0.089408144;-0.027665548;-0.047824495;0.10294251;0.013453431;0.012326019;0.038354803;0.0022185198;0.01010488;-0.115195915;0.093502395;-0.053029563;0.03752873;0.011613602;-0.019761926;0.011053318;0.062209442;-0.018050289;-0.035476085;0.063605495;-0.023022454;-0.008442159;-0.12159427;0.04278216;0.05831089;-0.010948459;-0.08987529;-0.048796725;-0.025144443;-0.09751365;0.018024404;-0.06741476;0.099799424;-0.028518781;0.043349367;-0.010999834;0.034031283;0.04707723;0.02774853;-0.06520094;-0.0053122817;0.06149656;0.0094171595;0.04935185;-0.012789375;0.07216652;0.062719285;0.081894755;0.03935702;-0.0068364143;-0.03158994;0.014849087;-0.07339646;-0.028325975;0.0313422;0.090054594;0.0030042485;0.08843598;-0.023506701;0.051552046;-0.03159417;0.027917607;0.06888808;0.07563449;-0.00962643;0.102876544;0.028856792;-0.094216;0.042985387;0.044307657;0.030073892;0.041672885;0.12930141;0.013421544;0.066901885;0.07213666;0.041689787;0.027635008;0.010649243;0.0028776452;-0.03351716;0.005502343;-0.0068230275;-0.011472705;-0.08221536;-0.02406951;0.15259032;-0.041385885;0.03218838;-0.08513926;-0.028197994;0.06053638;0.012961689;0.06048556;0.085920475;-0.013578175;-0.01345788;0.087372035;0.0217392;0.069068216;-0.032493733;0.011716943;0.10252499;0.018531654;-0.083200656;-0.051842995;0.05393573;-0.07142687;-0.02352705;-0.050678466;-0.05645723;0.06078542;-0.043982815;-0.04890444;0.07999965;-0.0641862;-0.008368917;0.037005175;-0.11727946;0.010686157;0.018178666;0.07603329;-0.05882165;0.0018016396;0.004056854;-0.12217953;0.009198203;-0.07735915;-0.025111228;0.011220454;-0.100350335;0.07842897;0.073852345;0.07282728;-0.022952477;-0.055440463;-0.012543807;-0.011041994;-0.052197192;-0.025476677;0.019415757;-0.04686994;-0.031610943;0.06974387;0.0029538446;0.08606209;0.042952348;0.009912335;-0.03693354;-0.03168348;0.021103574;-0.013475236;-0.015999665;0.06841041;-0.03914449;0.0876081;0.10407396;-0.020063106;-0.06760856;0.11745359;0.0891325;0.012160479;0.08195251;0.04228135;0.10188382;-0.08382197;0.056870148;-0.029146962;-0.037990417;-0.02997528;-0.009675595;0.004161742;0.0731857;0.088941365;-0.09024842;0.071954265;0.09431485;-0.052827645;0.015018083;0.031997;0.11262119;-0.04450243;0.0856071;-0.006666306;-0.0018225822;0.0033388503;0.020966444;-0.041627213;0.0058864984;-0.0011515215;0.09651639;0.019549202;-0.011182124;0.095928416;0.0885666;0.013092427;0.03454117;0.061513525;-0.015205819;0.08831512;-0.100431405;-0.0050519346;-0.05458585;0.06499688;-0.024253817;-0.043674674;-0.050160374;-0.024567693;0.045793496;0.07373844;-0.05425739;-0.03314109;0.10848095;-0.04130333;0.028241042;-0.019569336;0.04778083;0.055247888;-0.0055240863;-0.004917364;-0.05233188;0.06847854;0.08606015;0.039881002;0.060213108;0.06046267;0.00094848435;-0.08884626;0.047918312;0.02596916;0.0118861925;-0.022167582;-0.034901883;0.07437512;0.048842125;0.01981043;0.028498692;0.02516754;0.021619923;-0.062978186;0.0013967889;0.10570913;0.03490281;0.028850302;-0.10608165;0.12535422;0.036150947;-0.062931076;0.012716258;0.04590742;-0.020595321;0.048770588;0.035046645;0.010092181;-0.01870561;0.007902281;0.028914807;-0.03158749;-0.037159096;0.049923997;0.08374792;-0.12670499;0.0340234;-0.0025042698;-0.08874649;0.0013095913;0.016474247;0.014402703;0.094949625;0.05420539;0.06453804;0.028778901;-0.001788583;0.056797646;0.07332299;-0.0765872;-0.0030298294;-0.06901661;-0.06294704;-0.02602994;0.03495877;0.11116483;0.13320391;-0.09585155;-0.038689174;-0.046737384;0.051264256;0.01521163;0.07007837;-0.010478979;0.088152744;0.033229206;0.009090994;-0.048968997;-0.035613835;-0.04033749;0.113031484;-0.022583116;-0.04081989;0.006288486;0.0054390063;0.06001905;-0.0025342344;-0.10044277;-0.07205389;0.11137567;-0.04143907;0.035455137;-0.03066065;-0.10520566;0.10163355;0.06737277;0.051435355;0.0046096495;-0.15631895;-0.07644317;-0.06727747;0.024385849;0.05101223;0.02344254;-0.0699503;-0.028887982;-0.0312753;0.026790831;-0.09310927;-0.03217383;0.10613357;-0.03891508;-0.04949188;0.017959267;-0.15070535;-0.0866909;0.06616655;0.028753096;0.026813947;0.075646564;-0.04204133;-0.019041056;-0.032828353;0.054233234;0.12085264;-0.0159094;-0.065056056;0.11069609;0.02101133;-0.040304296;0.073857576;-0.04671229;-0.019051077;-0.0725061;0.05493029;0.061696842;0.029042603;0.097486585;0.035980146;-0.041649215;0.06952625;-0.038424525;-0.047687203;-0.033907183;-0.04882194;-0.008302413;-0.017287446;0.09051309;0.042833794;0.090703234;0.095596865;0.07012926;0.051884007;0.04358088;-0.05685478;0.02481493;-0.028055914;0.035233118;0.040365543;0.09911985;0.0375702;-0.022576725;-0.07907448;-0.0053333105;0.01168332;-0.0017499621;-0.054742124;-0.04321791;-0.03761916;-0.053540174;-0.085767694;-0.051177975;-0.08847685;-0.041507445;-0.058814183;0.1202701;0.03738457;-0.0462798;-0.03261797;-0.024204437;0.0024027575;-0.07255877;-0.03964277;0.036485214;-0.0027015677;-0.042391796;0.001098013;-0.00088091125;0.05027799;-0.030199401;-0.06455086;0.050929714;0.09717358;0.08482049;0.058067158;0.014712454;0.088045515;-0.03214131;-0.087724425;0.13559592;0.06984568;0.07319591;0.051750116;-0.010301593;-0.05334519;0.067228526;-0.10094488;0.046763945;0.09390751;-0.0646324;0.044043276;0.013425316;0.016024616;0.030256268;-0.064261466;0.00385615;-0.005512265;0.085264675;0.022417296;-0.0226621;-0.030543316;0.0935399;0.02704229;-0.078074865;-0.07273828;-0.08589862;0.018050672;0.057039715;0.064242125;-0.022545474;-0.027421571;0.053502295;0.06413444;0.08038091;-0.028032683;0.01744745;-0.0540551;0.031633433;0.007921538;0.029173046;-0.123252206;-0.028316336;-0.027015714;-0.017772678;0.0642751;-0.053933088;-0.07334577;0.010483077;-0.05834028;0.09526235;0.05742788;-0.027675083;0.017125184;-0.010133226;0.07242732;-0.01874231;0.075124465;0.06776433;-0.0675381;-0.017651338;-0.014479981;-0.021246662;0.0752132;-0.018943962;0.070305444;-0.04703638;0.014064042;-0.03481992;0.022323143;0.081946604;0.015628457;0.038142495;-0.01038726;0.046258513;0.1115292;-0.011096228;0.099040784;0.030002385;0.06629446;-0.010618464;0.03948446;-0.02939301;-0.06602354;-0.14066324;0.037743118;0.017701883;0.01231635;-0.008348917;0.10167053;0.008871795;0.045195583;-0.017882027;0.039571103;0.04569422;0.027502054;0.09367051;0.12949747;-0.095050454;0.06258586;0.05490148;-0.016029773;-0.048626367;-0.106389254;0.044580013;-0.011607198;-0.045794897;-0.015380342
-0.08252147;-0.035160758;-0.0802611;0.06385779;0.020375002;0.050195668;0.04095477;-0.008291135;-0.011023361;0.04733929;0.026999906;0.015447492;-0.07047459;-0.029070819;-0.06519936;0.079136774;0.08144514;0.09602625;0.0075841458;0.08150948;-0.09093604;-0.00094720785;0.052141618;-0.056587663;0.15372239;-0.03591653;0.07314258;0.0041390876;0.049130723;0.02613462;-0.030577479;-0.12109474;0.0019034039;0.08245873;-0.068406925;-0.035546195;-0.048816577;0.061411113;-0.043727707;-0.0049530882;-0.014015986;0.09951707;-0.016111514;0.050124574;-0.0050970986;0.045192994;0.0756818;0.09724945;-0.0069147456;0.025850307;-0.058404204;-0.056552734;0.00942076;0.023639295;0.015222339;0.02163097;0.028732663;-0.017711941;0.010939128;0.07108484;-0.021600261;0.0074596503;0.022042675;0.09092223;-0.022084124;0.017853415;-0.032095242;-0.01163953;0.018743966;0.060857385;0.04680261;0.02580738;0.076525785;0.016999844;0.075275525;0.047038104;-0.010633055;-0.055750538;-0.13188817;-0.011195955;0.014279361;-0.03995651;-0.08515421;0.04532;0.09480164;0.0657828;0.061340634;-0.056649372;0.018873116;-0.0530471;0.0048205834;-0.047411483;0.08580898;-0.022330264;-0.06566007;0.06257473;0.17887379;-0.07224062;0.07522909;-0.039341617;0.08897012;0.013550319;0.086920924;0.02378359;-0.087369286;-0.095682375;-0.0144178085;0.064536;0.104907;0.051089667;0.024018439;-0.053913258;-0.022581976;0.11674158;-0.046627805;-0.04821893;0.032181077;0.0124064125;0.024348225;0.05797585;-0.021986077;0.059680954;-0.03333937;0.056781966;0.059616167;0.07069634;0.075313546;0.05668446;0.021728046;-0.019229246;0.08369164;-0.02876071;0.07973396;-0.07197876;0.06576443;-0.02062137;0.15298907;-0.12337003;0.057774175;0.048682906;-0.018129954;-0.15877432;-0.1378805;-0.021963114;0.05006536;0.098933294;0.056446187;0.008289108;-0.06837937;-0.030404713;-0.003930284;0.06358107;-0.01757819;-0.0355292;0.05003901;0.08868901;-0.058020335;-0.030396825;0.050246257;0.001629024;-0.021575566;0.03125847;0.037167214;-0.039485507;0.0010804266;-0.06384923;0.089861736;0.020385055;0.037156705;0.0019478203;-0.07066567;-0.033906557;-0.02512843;0.022180099;0.0077405195;0.031582013;0.017216992;-0.03283809;-0.16447741;-0.031160584;-0.15269108;0.066877276;-0.061470687;-0.015094585;-0.014083874;0.09867875;-0.022613611;0.09827074;0.037736665;0.060859874;0.056904025;0.022607278;-0.0018258021;0.058043133;-0.09616493;0.019350389;-0.080598675;0.012469406;0.09810404;-0.024673946;-0.052730802;0.004008399;0.010479138;0.066471934;0.06049782;-0.034614474;0.06033194;-0.038361505;0.10113369;0.0054494883;0.017342623;-0.05507624;-0.024853019;-0.005084884;0.05148216;-0.010515292;-0.020808006;0.04998435;-0.033257753;-0.036096305;-0.027586734;0.077106215;0.0027944974;0.044035114;-0.045102272;-0.00026765116;0.096794255;-0.07972263;-0.049304627;-0.012218495;0.027571587;0.08457858;-0.047378972;0.067053184;-0.037621655;0.065525174;0.0073389304;-0.010269543;-0.03316642;0.05209845;-0.0021606006;0.05313416;-0.062371038;-0.017977728;-0.02316955;0.027832499;0.08157584;-0.0418404;-0.06658637;0.10826786;-0.064454265;0.073619336;0.068830445;0.050877478;0.10727275;-0.035118114;0.035192475;-0.030676432;0.052114204;-0.019994196;-0.023048287;0.026803166;-0.0373553;0.0022770984;0.0428809;-0.03721309;-0.042133052;0.072166584;0.035952955;0.015364087;0.073772736;0.014400226;-0.012266142;0.048878957;-0.0647277;0.107579425;-0.04432618;-0.02039883;0.10104323;-0.05595811;0.05993743;0.099170625;0.054829106;0.057262465;-0.033220056;0.0047090044;-0.012717683;0.006199019;0.16050103;0.019514706;0.021588845;-0.046290204;0.0076343673;-0.06880527;0.022840993;0.06512451;-0.031412017;-0.107675605;0.063039914;-0.060004637;0.026766261;-0.07081686;0.05704795;0.04275286;0.09401446;-0.040628653;0.03068527;-0.0027146516;0.067709394;0.07687161;-0.035594516;-0.034452014;-0.04909372;0.031134687;-0.12359525;-0.10978724;0.01854428;-0.05553819;0.048459917;0.096332505;0.05578232;0.06564292;0.050544493;-0.054578412;0.011792983;0.0784009;0.0071116504;-0.07277994;0.07487084;-0.037627533;0.087280124;-2.8214708e-07;-0.013780804;0.08432669;0.0214437;0.052958354;0.027466372;-0.040039778;-0.038543195;-0.046839174;0.09579653;-0.009863468;-0.05310472;0.08905576;0.02643316;0.047160435;-0.032186013;-0.06319677;0.018241545;0.124396555;-0.06367187;-0.022644384;0.04397847;0.07083687;0.051939193;0.038068432;-0.06996058;-0.09466026;-0.013231068;-0.03020343;-0.01784873;0.060521558;-0.08832432;0.008118778;-0.010781441;-0.0418286;0.05906089;-0.15045476;0.018799152;0.015466153;0.055893492;0.037198517;0.023419438;-0.06908342;-0.0895307;0.0541759;-0.030776024;0.013446294;0.057336025;0.084743805;0.0019316113;-0.009957487;-0.058513463;-0.08478727;-0.01468632;-0.046878308;0.060711004;-0.003206815;-0.017862752;0.04789948;-0.05240281;-0.043482695;0.09122558;0.06695629;-0.056926448;-0.067263;0.096994705;0.09319407;0.13640797;0.008285144;-0.044587184;0.01303354;0.061331436;-0.027105426;-0.004249888;-0.002763411;0.06989027;0.046867453;-0.04049398;0.045287907;0.011536654;0.03836264;0.082892895;-0.020697886;-0.07497498;-0.11867301;-0.084400125;0.01828687;0.04284246;0.10430945;0.07334423;0.04952495;0.071040645;0.009910294;0.05263398;-0.005022064;-0.03027087;-0.018644664;0.01957739;-0.0107080955;0.07139506;-0.06721524;0.0016625655;0.050722;0.07969324;0.05240924;0.079806276;0.0398126;-0.0062148958;-0.03299887;0.0011577266;0.030873194;0.07937422;-0.019059163;0.054707233;-0.026499512;-0.013866929;-0.03794656;0.07639573;-0.0347154;0.0002772687;-0.061216693;0.016920626;0.04230866;-0.0072586564;-0.0016643979;0.061085038;0.07255939;0.024774063;-0.010372638;-0.037081577;0.07882185;-0.059411924;0.0711475;-0.052057646;-0.025081767;0.026792299;-0.05544713;-0.045537423;-0.046488516;-0.04738551;-0.026532404;0.09768637;0.036052674;0.048275087;-0.046919506;-0.039650626;0.058495026;0.04163922;0.027105931;-0.020172039;0.010904858;-0.026418703;0.07371511;-0.018578427;-0.035827756;-0.069738224;-0.0031871735;0.021126905;-0.019850114;0.023871407;-0.015976861;-0.04613762;0.000980841;0.09261981;-0.03301509;-0.008454304;0.061140195;0.025141979;-0.0074354433;-0.0060755056;-0.013454249;0.014857896;0.029060064;0.0038555574;0.07684509;0.079453036;0.06351962;0.031452302;-0.06343548;-0.04114249;0.003622146;0.079633184;0.04495071;-0.05575539;0.029918518;-0.08893378;-0.06260252;-0.07653608;0.08735945;0.08037367;-0.054526474;-0.008463384;-0.05124105;0.10692033;0.025451172;0.0028514885;0.038859755;-0.17747788;0.028849617;-0.030640597;0.085473284;0.020231692;0.019070383;0.0678605;-0.034595758;-0.027602822;-0.008529997;-0.012049413;0.097331375;0.07947249;0.08546435;-0.0074013756;-0.02995412;-0.02885488;-0.04358341;0.024943255;0.016325658;0.059268706;0.06894991;0.024407085;0.015254267;-0.14973742;-0.08454214;-0.046152826;0.012960409;0.0745635;0.05131611;-0.009049682;0.022305757;0.058588203;0.079825476;0.05656116;-0.033256378;0.05343194;0.045581866;0.0498953;0.07039641;-0.01357727;-0.009094691;-0.038605057;-0.07315076;0.053870987;-0.049666494;0.015135404;-0.035116408
-0.032695513;0.0102676125;-0.0593419;-0.030751966;0.038219362;0.07318858;-0.06236251;-0.006715916;0.009260718;-0.036888085;0.080957144;0.09192543;0.028629733;0.04083505;0.06535622;0.022076065;-0.10070316;0.1516108;-0.008898332;-0.005707699;-0.09161115;0.11381678;-0.044074867;-0.053511504;0.08485364;0.060130652;-0.066757955;-0.12879187;0.052273523;0.062089287;-0.06482636;-0.00984879;0.093956865;0.015995098;0.007331298;0.08898571;-0.08066688;0.08425145;0.05952191;0.087124854;-0.04918059;0.055669066;-0.08475528;0.028301196;0.02985692;0.029927025;-0.029607743;-0.024770325;-0.0011462006;0.025401453;-0.038441423;-0.14593442;-0.00467371;0.0034582056;0.06152358;-0.0050519523;0.09904797;-0.02995802;-0.01521431;-0.09954887;-0.0125482585;0.017241482;-0.097855985;0.107756175;-0.10218555;0.069833286;0.06935703;-0.03297306;-0.042971168;-0.02678758;-0.06788954;-0.03792096;0.019933961;-0.008087669;-0.07111013;0.0041062403;0.040881846;-0.019161105;-0.018657744;-0.12309969;0.054638285;0.07757325;-0.19632891;-0.0044173677;-0.015158964;0.057225283;-0.050750144;-0.024854047;0.079813436;0.011078338;0.048450112;-0.006564159;0.054475475;0.014549838;-0.032934576;0.120601036;-0.024897609;-0.038151905;0.0077574784;0.066988364;0.07796506;0.035814952;0.07325639;-0.018479003;0.033535182;-0.1093126;0.0059562996;0.060395133;0.04579311;-0.030997332;0.012488591;-0.012205119;-0.06504056;0.08101337;0.053237446;-0.009383824;0.013873441;-0.021257943;0.028594185;-0.06975369;0.060196735;-0.017228115;0.058573004;0.021492533;0.028670635;0.078736134;-0.0869541;0.049034305;-0.04095595;-0.046542544;0.016044557;0.042626277;-0.03660586;-0.01846991;-0.015974674;0.02546496;0.074076995;-0.17022371;0.066067204;-0.0010324287;0.08155007;0.0056001944;-0.122840844;0.013875405;-0.06123632;-0.027904198;0.069632135;0.029550513;0.024820521;0.026118053;-0.021572588;-0.0034144649;0.02763478;-0.012681707;0.017191144;0.017397296;0.026685845;-0.089055635;-0.04052469;-0.0016813736;0.051805813;-0.021360625;-0.031917237;0.027229175;0.055969283;-0.05189584;-0.014414239;0.07620654;-0.052727826;0.043686196;-0.055279724;-0.014130481;0.03526755;-0.10227362;0.07442695;0.065363795;0.09407842;-0.08723036;-0.08167942;0.046308145;0.0029529468;0.10327238;-0.05596975;-0.087226644;0.031965487;0.056970954;0.047614843;0.097421035;0.10086205;-0.010874561;-0.06973373;-0.07617299;-0.05458187;0.022583583;-0.0775142;-0.099175826;-0.08891654;-0.0035438754;0.046423875;0.018628264;-0.08107466;0.085914254;-0.07287092;0.083490655;0.0011388717;-0.0033867664;0.07159277;0.013958353;-0.03552824;0.0577328;0.07368964;-0.017223509;0.12018814;0.05312566;-0.043140035;0.04710024;0.038697828;0.050751667;-0.07956179;0.045225695;0.10759686;-0.03994378;0.08437518;-0.04495494;0.007223496;0.030010972;-0.007578973;-0.123018324;0.013456307;0.0011282382;-0.040420573;0.027350258;0.00999853;-0.034656804;0.025550194;0.0046302904;0.008884988;-0.059798025;-0.06479803;-0.05967643;-0.045208197;0.060601745;-0.018286342;-0.08167989;0.018799713;-0.022085411;0.076847985;-0.05853023;0.014738854;-0.024335684;0.10562355;-0.068415746;-0.043497697;0.003470005;0.102567345;-0.027279297;-0.02781294;-0.032000616;0.0018496898;0.04655449;0.0047744494;-0.025534777;-0.015850725;0.007182763;-0.097831905;0.039130356;0.07035708;-0.0528993;-0.0742834;0.11840974;-0.07387121;-0.034250636;-0.0075442665;0.05962446;-0.039585523;0.03443841;0.028156707;0.053453635;0.048563164;-0.022947108;0.041730516;-0.009425569;-0.057963148;0.0117894;0.027864937;-0.04911699;-0.04134948;-0.03521052;0.0760424;0.09278517;-0.04222457;0.08404979;-0.10746501;0.037893433;0.014805591;0.039143052;-0.06865957;-0.089190535;0.0660404;-0.115308814;-0.036447566;0.029522546;-0.06386082;-0.035708647;0.06479242;0.032305278;0.059170544;0.08812716;-0.12753277;-0.07092111;0.0929568;-0.040301107;-0.043676555;0.031060347;-0.025387805;-0.058821436;0.11306334;0.063477725;0.035445414;-0.016146995;0.022853162;0.04992302;-0.033691123;-0.018737733;-0.023628574;0.020755442;-0.03983088;0.073493235;0.03371628;-0.029222464;-0.058272377;-0.006759268;0.068561696;0.011227179;-0.008379069;0.033314288;-0.0037082764;-0.035566624;0.049383923;0.0017131076;-0.026354462;0.019827662;-0.05154594;-0.034025013;-0.016296288;-0.0057172915;0.009258386;-0.04571708;0.09857473;0.100625664;0.068845734;0.07852151;0.0050045704;-0.07406158;0.039929997;-0.062063027;-0.070645936;-0.019288383;-0.029417247;-0.045955878;0.07249908;-0.07191959;-0.064890526;0.013786429;0.07846452;0.024774697;0.045059804;0.019067269;-0.061353963;-0.04140302;0.061893046;-0.004200479;0.110268556;0.08290049;0.004034449;0.020857248;0.073742695;0.081466995;0.00835347;-0.0034529069;0.02553787;0.07574162;0.02783428;0.034149382;-0.051640794;0.043566864;-0.013851584;-0.031706613;0.03913337;-0.020247802;-0.044762317;-0.06139928;0.057049714;0.14060205;-0.08134046;-0.04062552;0.08576871;0.013064582;-0.021709625;0.0128188385;-0.039157048;0.011488427;-0.040663052;0.005292694;-0.06804082;-0.08637007;0.08346695;0.13563983;0.064712085;0.0046984;0.037814114;0.030244958;-0.03798639;-0.0010335369;-0.13854702;-0.07634935;0.04330807;0.042033877;0.075795874;-0.024867378;-0.07435009;0.0522673;-0.045528438;0.061041858;0.015922531;-0.015242036;0.035978097;-0.017244034;0.029347222;0.066012695;0.09325912;-0.09136974;-0.041135233;0.1151635;0.083490856;-0.04854372;-0.01387911;-0.033033732;0.10146947;-0.08136439;-0.015284785;-0.036417175;-0.009556595;-0.09727136;0.067631505;0.044976234;0.015171031;0.11280526;0.04343707;-0.030487293;-0.0101818135;-0.010615153;-0.067978;0.018476456;-0.00750468;-0.07609314;-0.031836767;-0.08598883;0.028940327;-0.0096677225;0.042178955;0.12585905;0.037537213;0.027376546;0.08527556;-0.053999383;-0.01481754;0.06337226;0.10079914;0.07152588;-0.0428312;-0.042200897;0.105744414;0.082278214;-0.03607221;-0.070346445;-0.047588967;0.046210896;0.00804853;0.07143349;-0.035015684;-0.027440267;0.06369263;-0.004130368;-0.06789027;0.08534673;0.04831092;0.05944997;-0.030931376;0.013598486;-0.047254063;0.02200728;-0.006784873;0.043719895;-0.010132375;-0.0061828294;0.0036492643;-0.0073106643;-0.010533999;-0.055541903;0.012311634;0.0037053698;-0.012534094;0.048636008;-0.08350261;0.054487515;0.005909295;-0.034703203;0.016733203;-0.10345463;-0.018263152;0.014854824;-0.03854809;0.017044663;0.08484412;-0.07589965;0.06273551;0.060865477;0.09499505;0.072223365;0.058084615;0.078008175;-0.027710943;0.08028225;-0.08258435;-0.061103523;0.06397242;0.02864474;-0.09023779;0.014704616;-0.08783944;0.07982037;0.10793991;0.11204391;-0.0627165;0.08067355;-0.08000116;-0.0105204955;0.07809004;0.028831717;-0.026106857;0.03875389;-0.035141893;0.072260104;0.0012869373;0.04868374;0.0166904;-0.034568872;-0.011850927;-0.036378074;-0.051727623;-0.07238014;-0.1250422;0.02786387;0.07297585;0.0657691;-0.025812706;-0.036208645;0.03636545;0.09203352;-0.012101155;0.00988157;0.07625391;0.045871813;-0.013383657;0.01976814;-0.06987541;0.016014887;0.001577567;0.0035061168;-0.004468064;-0.06763143;0.02847793;0.05335951;-0.03505624;-0.07162391
-0.061128348;-0.02543168;0.084732205;0.0830797;-0.055497486;0.07713376;-0.036522485;-0.032084953;-0.04913662;0.01619343;0.010444323;0.033872116;0.04865207;-0.076451525;-0.021117564;-0.048564702;-0.04525311;-0.053226184;0.10906517;0.12531318;0.06279845;0.04516148;-0.009450542;-0.017706273;0.08722619;-0.019269293;-0.029419895;0.07190723;0.053935084;0.04278067;0.038995683;0.11707906;0.010545163;0.10854339;-0.038762603;-0.13552345;0.096629016;-0.01433776;-0.04351694;-0.049781322;0.061585568;0.09800612;-0.0023979512;0.01537139;0.029398374;0.06966946;-0.025142523;0.07274669;-0.027152915;-0.0004407116;0.07480237;-0.08578036;0.07713035;-0.044625375;-0.07853517;0.131717;0.06685615;0.06660297;0.035050884;-0.081819534;0.048433956;0.081300125;0.0480103;0.062382918;-0.045323182;-0.038889993;0.052368574;0.015843442;-0.028392278;-0.05621721;0.009857451;-0.05152539;0.035887275;-0.034211867;0.10461945;-0.09089568;-0.07835658;0.014231858;-0.12362445;-0.08203245;-0.0658696;0.097664796;-0.052394323;0.103968635;-0.09647577;-0.016117286;0.07044236;0.05807566;0.023117112;0.05653789;0.0010502102;0.038053714;0.101605006;-0.19848399;-0.040005073;-0.06404973;0.12689576;0.08326984;0.019291036;-0.007514163;0.011263999;-0.041974757;0.029283328;0.01491212;-0.016938219;0.057273477;0.05617537;0.10141114;0.08218038;-0.041161567;0.0074219867;0.04057728;-0.049462184;0.026452374;-0.012695857;-0.0023509648;0.03927195;0.030834889;-0.041302867;-0.030732509;0.05176302;0.062206406;-0.069254085;-0.008559964;0.06859194;0.12016449;0.06679418;0.00012163878;0.04353656;-0.031803608;0.026542619;0.051803377;0.0146117285;0.01340536;0.031704556;0.017357392;0.14972425;-0.07924055;-0.021882933;-0.03715082;0.05571054;-0.11606379;0.029501094;0.05996813;-0.025544118;0.09576515;0.052858725;0.086709775;0.12069777;0.02889889;0.05547942;-0.061568677;0.00614439;0.048640568;-0.05247688;-0.00692161;-0.069846064;-0.005112393;0.0014924224;0.0017267286;0.0760365;-0.009861509;-0.023893414;-0.06742458;0.11524559;0.055396665;0.10319889;-0.047073565;0.06404324;-0.040671043;0.082169026;0.03881016;-0.008422067;-0.011258094;0.031346764;-0.046893436;0.019044844;-0.0026020375;-0.21346815;0.08127075;-0.11446248;-0.062440094;-0.023884503;0.04859253;-0.07339756;0.14033586;0.01712908;-0.006821173;0.08882216;-0.07877517;0.04297283;0.0069281124;0.07300148;-0.021060476;0.081925906;0.06371137;0.052504167;0.059779014;0.024770895;-0.061299425;0.081553034;0.04829226;0.071079426;-0.027300054;0.081179105;0.10828344;0.0060898145;-0.1687369;0.09641936;0.027934544;0.05088714;0.09773514;-0.0329832;0.06868382;-0.07691574;0.024838602;-0.0107015455;0.016543387;0.10515021;0.06391962;-0.004824796;0.021273604;0.09921327;-0.04570419;0.049677186;0.07794808;0.1389696;0.046553005;-0.049307633;0.02053749;0.05307639;-0.022573858;-0.031170724;-0.051080722;-0.10003423;0.067984164;0.049185127;0.006886712;-0.048496604;0.061379533;0.018128831;0.050873112;-0.058529653;-0.11799728;0.009147012;0.076748915;0.043701515;-0.017472235;0.046731483;0.01739818;-0.04682521;-0.07556576;0.11665826;0.064499244;0.022973664;0.045374103;0.084138565;-0.002416339;-0.027449397;0.06658547;-0.078404;-0.04972798;-0.032577172;0.11485736;-0.042082507;0.011098624;0.027182056;0.08906995;0.057645336;-0.026973423;0.021796891;0.0452824;0.028804092;-0.029336;-0.011726701;-0.010566858;-0.044351798;-0.047652565;0.025236944;-0.064175695;0.036869824;0.09715136;-0.039964434;0.08412263;0.036868427;0.09223536;0.07187364;-0.06873003;0.05577598;-0.046332713;0.10252938;-0.07851842;0.026293261;0.023238469;-0.02049252;0.104138985;0.06765475;-0.09688086;-0.0050151246;-0.041741848;0.08598827;0.054550704;0.07681337;-0.02563358;-0.020031035;0.060569044;0.06143577;0.019334985;-0.024658222;0.07981025;0.09796436;0.006040572;0.068574436;-0.048932225;-0.11710551;-0.042512227;0.046570923;-0.042307496;-0.0020075822;0.03500435;0.0067964327;0.08334512;0.04133498;0.085338816;0.09840996;0.043414317;0.07984967;-0.01843838;0.009098574;-0.023830863;0.0016881074;-0.084499605;-0.03935785;-0.016418496;0.083236225;-0.014336692;-0.030365707;0.063684404;0.059187546;-0.01995012;-0.030401919;-0.044468768;-0.07577332;0.03774458;0.009180522;0.08155491;-0.035150126;0.037692584;0.08975992;0.012114756;-0.057995602;0.05249278;-0.07140241;0.0422498;0.08526101;-0.007409588;-0.214872;0.028559225;-0.08388963;-0.07395862;0.04200234;0.0651638;-0.21108791;0.06677389;0.057326928;0.0013642401;0.019908544;-0.12488771;-0.033527445;0.021968437;0.06901599;0.013677068;0.05460404;0.057311736;-0.08514823;0.025829565;0.06459862;-0.022100324;-0.038920473;-0.060781647;0.06141802;0.04556401;-0.06958581;-0.06402382;-0.03276684;0.07667146;-0.07259274;-0.04067663;0.070014656;0.039294995;-0.037574418;0.03225613;0.02005743;-0.0007079829;-0.02723964;0.082792275;0.003693677;-0.051091228;0.11420587;0.011375565;0.05929498;0.10085282;-0.044287145;0.030307215;0.021494187;-0.00018586824;0.07953251;-0.012741283;0.09029659;0.06885101;0.010785704;-0.05978115;0.03351893;-0.0886802;-0.11350473;-0.11338093;0.07581911;0.0171584;0.09314573;-0.047442403;0.033514734;0.074608676;-0.08157305;-0.018502904;0.03759631;0.09998129;-0.048915945;0.0026851287;0.0032911159;0.065542124;-0.00096393574;-0.12247432;-0.02411961;-0.051301982;-0.06525167;-0.061486214;0.054192826;0.09553511;-0.05373115;-0.13020647;0.07501386;0.11168168;0.064671375;-0.04015336;0.013416508;0.08915875;0.03528574;0.08186792;-0.015765784;-0.047684304;0.014820826;-0.022962488;0.030887663;0.061094154;-0.16405748;0.02147303;0.06568975;-0.0016985659;0.046526402;-0.034601018;0.059269138;-0.010606931;-0.05976946;-0.03487073;-0.0067911306;-0.027029246;0.0015463408;-0.06850601;0.0046895323;0.061777662;-0.037847374;0.053759947;0.00944391;0.010648867;-0.010591148;-0.20947109;-0.052684482;0.02292347;-0.03930701;0.07508955;-0.06671938;0.054218456;0.08967718;0.10682699;-0.07450339;0.02202966;-0.07365676;-0.031502414;0.0022123992;0.039237984;0.057763908;-0.025736276;0.05541801;0.11305039;0.046102595;0.028806854;-0.068485275;0.035629664;0.037878394;0.053073496;-0.06952404;-0.04167565;-0.019384833;-0.03351495;0.103446506;0.030602358;0.048029933;0.07729158;-0.0511775;-0.09612863;0.08132258;0.028455446;-0.020969298;0.024167726;0.050686248;-0.049927592;0.06471644;-0.040985465;-0.03586811;0.0030043721;0.067268625;-0.031616334;0.045160424;-0.08263782;0.01577215;0.014685059;0.036226436;0.016509604;-0.15022804;-0.0073118214;0.04432762;0.06353819;-0.02489302;-0.05875078;0.09048883;0.053679414;0.047772393;0.049919505;-0.0190565;-0.032914594;0.034574866;0.060813915;-0.062259898;-0.011034221;-0.02164025;-0.020168453;-0.0039777686;0.033396497;-0.029446857;0.03514032;-0.059072103;-0.021884799;-0.06856109;-0.053188283;0.016545214;-0.034843393;-0.07630499;-0.053718988;-0.027547568;-0.032440495;0.06528629;-0.007260742;0.04083038;-0.02398782;-0.08572844;-0.011741729;-0.03590276;-0.047450926;-0.12386384;-0.049348745;-0.059336927;-0.14323922;-0.004382345;-0.07017479;-0.01899973;0.10636839
0.088993356;-0.018036766;-0.03380464;-0.022808159;-0.036537774;0.061252028;-0.0139592085;0.044907175;-0.05721333;0.05787654;0.04309846;0.057180792;0.0022146772;-0.062390286;-0.05647997;-0.06704315;-0.063481726;0.09313584;-6.793036e-05;0.016009483;0.0038298212;0.027174806;0.09873152;0.057182986;0.0963163;0.058039226;0.10984505;0.05683048;0.04850421;0.07346284;-0.031987436;0.020046797;-0.042118166;-0.02633117;-0.03287912;0.005691537;-0.011041408;0.036696825;0.022248901;0.015726035;-0.009670438;-0.0461771;0.036884576;-0.02809824;0.025334926;-0.0367706;0.08819592;0.011506795;0.013957841;-0.057347313;-0.00570221;-0.114522666;0.0016537803;-0.032443527;-0.06814301;0.066874996;0.07070309;-0.096702255;-0.07422929;0.034117058;0.08167468;-0.022058947;-0.075812526;0.09155579;-0.1458998;0.036162026;0.051131196;-0.004252828;0.018544586;-0.0507943;0.06913368;-0.025016228;-0.10630204;0.06258947;0.007240694;0.035745583;0.022550147;-0.0030464616;-0.11024416;0.02862026;-0.06551831;-0.039607786;-0.015649641;0.09312432;-0.14269902;-0.04121006;0.021726418;0.06530823;0.022137469;0.066184625;-0.079471245;-0.037518166;0.06118948;-0.03950532;0.024992052;0.054533187;0.072128385;0.055413313;0.08114594;-0.026237873;0.034447398;0.052091185;-0.024190752;0.027353982;-0.057878576;-0.028623547;0.091040224;0.0007723703;0.058640316;0.08965014;-0.032726888;0.004560263;0.04844842;0.08251287;0.03589412;0.081105575;-0.05534439;0.0024232548;0.014086254;-0.019846415;-0.01490361;0.05978951;0.032548215;-0.010560633;0.053229414;0.15611093;-0.011628519;-0.017568175;-0.03681304;-0.021274285;0.10556247;0.011267089;-0.011930353;-0.06465297;-0.0224249;0.045169644;0.07633212;-0.11538358;-0.01398948;-0.029413221;-0.037060525;-0.055748012;-0.117269196;-0.005762842;0.034053393;-0.0049896953;0.05991601;0.020865694;0.16997074;0.0325343;0.014345881;-0.048587196;0.09730366;0.061721843;-0.07562957;0.081486836;-0.030837914;-0.012218241;0.07366595;-0.10381655;-0.011335622;0.082899205;0.0016953669;0.063587114;0.14357536;0.049187668;0.006519583;0.027500063;-0.011209001;0.0072260927;-0.09407583;-0.0014177172;-0.012773278;-0.032493133;0.035441753;0.08096312;-0.04393547;0.07167717;-0.13162036;0.058151573;-0.036867492;0.03364425;0.0137960315;-0.056764692;0.028515311;0.120917626;0.058058623;0.035241254;0.011253498;-0.07332057;-0.023857232;0.025060201;0.07190756;-0.0100776;0.020801172;-0.060437396;-0.07221884;0.026864551;0.009315018;0.024842015;0.0055461023;0.028743053;0.06939616;0.0060475115;-0.01841298;0.008680122;0.013297589;-0.16405496;-0.008005731;-0.04736224;0.016810186;-0.026644347;-0.0749706;0.068869136;0.06735021;0.021690102;0.05990933;-0.042146295;-0.0361373;-0.016047193;0.06947773;-0.04464126;-0.04711987;-0.060258117;0.06631848;0.029355736;0.08676863;0.0061704586;-0.024779253;0.02382836;-0.08252988;-0.03241216;0.0607661;0.003319794;0.0337077;0.07726476;0.0002892825;0.088295676;0.02420505;-0.06840352;0.03125898;-0.056306154;-0.020169422;-0.11446957;-0.044335335;-0.0061214333;0.045121945;-0.008666467;0.034154404;-0.04026231;0.041254196;-0.01657471;0.097315334;-0.022696482;-0.032501716;-0.020348586;-0.029570324;-0.06682145;0.042145364;0.06415013;0.027958738;-0.03703669;0.0653807;0.09122353;0.048681952;-0.0011928673;-0.012995611;0.06699908;-0.042454533;0.0645608;-0.008263912;-0.0670294;-0.064852774;0.07204418;-0.016479852;0.10348627;0.0006731008;-0.06583661;-0.047919538;0.09684835;-0.061833;0.09337667;0.101530075;0.017194148;-0.019921891;0.065147154;-0.06374598;-0.060836386;0.032065533;0.07898807;-0.03446126;0.044405308;-0.014582561;-0.08686778;0.020627499;0.085755944;-0.010854014;-0.11227422;-0.009773109;-0.047755346;0.04025365;0.03891788;0.053777132;-0.09141299;0.10520284;-0.0112821115;0.04779769;-0.032929797;0.046326067;0.011514428;-0.013594269;-0.005218032;0.009932948;0.032924373;-0.024806818;-0.005112285;0.008447823;0.0020250694;0.057935845;-0.010898972;0.030358568;-0.02182605;0.061615575;0.014018793;0.02982054;-0.014626658;-0.05088;0.019010806;-0.011014737;0.059069764;-0.023440816;-0.07829119;0.0061721983;0.10114826;0.034394264;-0.042984016;-0.06336092;-0.028791152;0.05306577;-0.014533431;0.055062372;-0.0066815335;-0.0061330535;-0.01427843;-0.06341213;-0.043787833;0.05957663;0.08413838;0.00053865835;0.015982104;-0.07068552;0.04013659;0.0699359;0.03796431;0.06808662;-0.0155666405;-0.10816809;-0.05933819;-0.07559671;-0.07131155;0.044547968;0.099284805;-0.109978564;0.046961363;-0.02543801;0.080220476;-0.063935734;-0.07925091;-0.06858811;0.027134953;-0.028877292;0.03477028;0.06530234;-0.056129504;-0.031145029;-0.057135522;-0.026503729;-0.03859465;-0.0045957635;-0.06251158;0.02410704;0.029787965;0.014179142;-0.002034629;-0.027770143;0.08928584;-0.006516605;0.09143692;0.049287044;-0.017120784;-0.029570034;0.0089676455;0.07996204;-0.0070670145;0.017520413;0.03838814;0.03102576;-0.047338333;0.029216073;0.08406785;-0.08329595;-0.038875993;-0.0040407376;0.049759723;0.010269123;0.04774472;0.04596849;0.038193442;0.053779922;-0.05511672;0.00015915213;0.046358097;0.053705856;0.033186622;-0.12204485;-0.111278996;0.015663406;0.08394102;-0.039468724;0.097056255;-0.004462572;-0.01231659;-0.07097144;-0.040145177;0.05147249;-0.017863272;0.093046494;0.041022476;0.010067308;0.055741202;-0.01679546;-0.08464463;0.041982442;0.09053522;0.008658486;-0.06482786;0.072989576;-0.06488837;0.007167581;-0.017612452;0.064856336;-0.031171136;-0.022278842;-0.012958655;0.03628251;-0.06334124;0.10833451;0.026337802;0.025628721;-0.02390545;0.07503858;0.05349132;-0.028527308;0.08443243;-0.09855171;-0.10130836;-0.015370156;0.047434162;0.038193174;-0.016660571;-0.006532115;-0.056892063;0.04280844;0.0785343;0.015938876;0.031167757;0.042771477;0.05009462;-0.07402859;-0.0024934746;0.11007958;0.08077344;0.06705711;-0.060411766;0.02664921;-0.0663931;0.06993851;-0.07410972;-0.038474366;-0.017283399;0.0822689;-0.03150932;0.00983508;0.09315476;0.013469764;0.024874082;-0.096627146;0.009667102;-0.017196039;-0.018311856;0.00399375;0.15507926;0.035708115;-0.00016181645;-0.005212498;-0.11405894;-0.02712187;-0.013890579;-0.029697305;0.09751649;-0.0022608747;-0.038623624;0.07500719;0.06444357;-0.059074428;-0.09057112;-0.0024241875;0.037803084;0.021026969;-0.14954731;-0.04933227;0.015344934;0.058733895;-0.020603329;0.01747883;0.027656993;0.043551996;-0.031799227;-0.027531259;0.07132721;0.0614521;-0.012391664;-0.044699073;-0.0384634;-0.005575039;0.075236484;-0.0072632786;0.08619625;-0.055702206;-0.04742455;-0.010962844;0.088312216;-0.06748191;0.05732693;0.021372244;-0.014609214;0.01742872;-0.044808764;0.0030898557;-0.07002976;0.012464075;0.07609481;-0.02356174;0.1565451;-0.05689364;-0.0052379193;-0.042110294;0.06705959;0.069378234;0.07241205;0.066770695;0.06436932;-0.140911;-0.014957565;0.047814082;-0.053760376;0.027615594;0.11508895;-0.080444224;0.07394898;0.029074619;0.0989897;0.06620931;0.01438339;0.0006012757;0.10983575;-0.12703346;0.04942776;0.06622789;-0.019299926;-0.031351477;-0.16630109;-0.063600466;-0.058602113;-0.088333406;0.11269773
-0.04055713;0.07274399;-0.019955631;0.0718345;0.014774815;0.01860718;0.10640367;0.044768706;0.040969145;0.07751119;0.051696375;0.06934776;0.03701532;0.06628731;-0.07301438;-0.046394777;0.08662516;0.08006393;-0.0113754915;0.070106074;0.06629329;-0.022513561;-0.010590415;0.041784216;0.10090514;-0.056115497;0.016652882;0.14207247;0.0065886723;-0.021104813;-0.034371503;0.0722919;-0.08039544;0.119552694;-0.123696096;-0.071925215;0.071083724;0.04751886;0.05669614;0.002290138;0.086480096;-0.056264836;-0.0016682384;0.035445224;-0.05578303;-0.07110987;-0.059003163;-0.01616299;0.0020696826;0.042409483;-0.08036582;-0.041669272;0.06926666;0.0867289;0.019569034;0.065579034;0.028961271;-0.04362013;0.068846755;0.09318746;0.007879164;0.009491558;0.0027736984;0.07761237;-0.053642064;-0.016130626;-0.06323498;-0.017185465;0.10804009;-0.008090606;0.111306734;-0.057294287;-0.14973213;-0.015807865;-0.0045256577;0.06756809;-0.08872985;-0.039728116;-0.16868155;-0.050869722;-0.07971143;0.017409666;-0.019648869;0.00603269;-0.10237142;-0.05333123;-0.032767206;0.02544895;0.039088767;0.06761004;0.037351508;0.008074348;0.020343171;-0.10218889;0.032786813;0.048478633;0.055462528;0.08613665;0.049317837;0.013963057;0.074215986;0.050919026;0.09514971;0.06509121;0.07582024;-0.03334924;-0.055406038;0.048469525;0.13687512;0.078447;-0.034659527;-0.017471135;-0.06522085;0.04680567;0.01588978;0.104831524;-0.056484755;-0.028296415;0.0063612997;0.058611613;-0.05219666;0.031386487;0.06784188;-0.045119043;0.045139093;0.08745206;0.10653872;0.05739498;-0.0063606757;-0.026895404;0.037507538;0.05266739;-0.04183912;0.0051728073;0.028353868;0.06276923;0.09076438;-0.030142255;-0.020943347;-0.0074726874;-0.05750235;-0.17731375;-0.14216603;-0.006744703;0.073929526;0.034614075;0.007440493;0.08713675;0.12973893;-0.014083718;0.05954914;0.013250099;-0.029217223;0.0051112794;0.050201837;-0.07471125;-0.08263273;0.03900514;0.058026116;0.030123638;0.12999701;0.08651349;-0.06415026;0.07670148;0.12798794;-0.037662536;-0.04752956;0.016781824;0.077945486;-0.05991467;-0.069443725;0.007878808;0.08033186;0.047044486;0.016205613;0.04551874;-0.061959114;0.08076182;-0.22237885;-0.030269124;-0.058349025;0.08544989;-0.0002914768;-0.03224211;0.07302098;0.040116433;-0.06315659;0.06044088;0.013519365;0.024950031;-0.14763509;-0.0046520834;-0.0406714;-0.007942169;0.03680927;-0.05107749;0.040703997;0.06768344;-0.0011598456;0.108416185;0.06740325;0.10467271;-0.030203968;0.056806955;0.013244169;-0.041196145;-0.091712005;-0.08725672;0.033127606;0.06553233;-0.052917957;-0.0017122498;-0.054594107;-0.08291591;-0.06557816;0.0096903285;-0.012289009;0.009082321;0.0027058679;0.09879052;-0.077898026;-0.06627948;-0.00045886423;-0.017301526;0.03611873;0.11499917;0.043024927;0.020322984;0.03967595;0.057275105;-0.07824422;-0.06643569;-0.06133302;-0.07386048;0.030125748;0.05573126;-0.021246837;0.0789981;-0.03894905;-0.011401118;-0.075168096;0.062385637;-0.058143776;-0.08054213;0.062183816;0.08650593;-0.023574771;-0.06434359;0.089366205;0.020506786;-0.053273823;-0.008171469;0.15438543;-0.02470404;0.038988996;0.07461776;0.04529295;-0.011911093;0.019133803;0.056741748;-0.0044188364;0.011764041;-0.05751681;-0.040237263;0.11113802;0.11079688;0.10271457;0.015476752;-0.028213594;0.024593992;-0.06530125;0.041968618;0.04360951;-0.013811273;-0.03217462;0.03950254;0.035480678;0.075985454;-0.009098031;-0.027863745;-0.056210835;-0.02726067;0.101560675;0.036720984;-0.030554462;-0.04005506;0.054538373;0.0072333934;0.11769235;0.09795468;0.09264065;0.055109654;0.122942016;0.0026507692;-0.059970196;0.030022422;-0.03160268;-0.060490064;0.0035959028;-0.028198682;-0.007643268;-0.01474448;-0.07678862;-0.07510709;-0.0133437;0.02828954;0.03738541;0.026701117;0.053887777;0.04042606;0.06305287;0.09704968;0.0047089187;-0.014731466;-0.018676592;-0.10631281;-0.09059647;-0.01980359;-0.03100577;0.06348515;-0.05812048;0.038018253;-0.059558775;0.08768993;-0.0069857235;-0.08137788;-0.036261052;0.040581536;0.022132553;-0.025570912;-0.02233758;-0.048726838;0.03710503;-0.033313196;0.19358552;-0.015994934;-0.08199577;-0.0681952;0.08516143;0.09705599;-0.06831867;0.074840195;-0.0789862;0.06774099;0.13515107;-0.053855512;-0.062553726;0.019922165;0.058045622;0.1248873;0.0018490123;-0.07232797;0.00391522;0.05961778;-0.06664569;0.04119289;-0.1589518;0.00356699;-0.09814398;0.049348943;-0.022623219;-0.018883614;-0.19681704;0.119088344;0.05041032;-0.0025600796;-0.05225713;-0.017235098;0.10292023;0.017367465;-0.02407337;0.117561325;-0.025504893;-0.024986794;0.044841528;0.06271052;0.0831111;0.034854654;-0.0188986;0.019861348;-0.067981236;0.0075756917;-0.063174136;-0.0112371715;0.10237561;0.046706554;-0.020018492;-0.051889118;-0.012648875;-0.016089974;-0.0031813087;0.02422469;-0.014294379;-0.001340931;-0.011289738;-0.03327636;0.07651403;0.0054368535;-0.005655458;0.04469026;0.030686444;0.06762232;0.09601494;0.09879214;0.045502596;-0.010327264;0.055549774;-0.075848974;0.04521078;-0.0059319055;-0.022495436;-0.054917336;-0.06353579;-0.013519661;0.022290684;-0.08627091;-0.0073192124;0.016780006;0.14999926;-0.054500863;0.015731286;0.041533843;-0.02156755;-0.014574503;0.057595365;0.06762606;0.03431947;0.06428212;0.0684689;-0.029292224;0.06798355;-0.031631034;0.035368193;-0.08719555;-0.13866268;0.04777612;0.013852114;0.037095428;-0.023353564;-0.0032934693;-0.065749966;0.10511142;0.095135644;0.054960333;-0.0493231;0.040096793;0.047061287;0.09064393;-0.106808394;0.009322994;0.04076223;0.015434992;-0.0860109;0.10503357;-0.087237135;-0.07935289;0.014651291;0.018442525;0.054888196;0.0039700093;-0.013511451;0.078209005;-0.013547879;0.0411368;0.06290677;-0.039132707;-0.043140624;0.061367135;0.019595334;0.036936108;-0.010773363;-0.08592029;-0.062061254;-0.00091894437;0.035520352;-0.088439696;-0.07801989;-0.027795795;0.08249709;0.09142449;-0.014756804;0.063675836;-0.038255107;0.102970265;-0.08381101;0.021659816;-0.008629887;-0.032508336;0.03265734;0.07206764;0.022348097;0.030496366;0.031499323;0.087488204;0.04203015;-0.031893726;-0.067166395;-0.047022793;0.115149856;0.04236473;0.013332813;0.03632323;-0.033047665;-0.0034645444;0.061850965;-0.08452398;0.088146865;0.047527537;-0.038177587;-0.10195953;-0.050889894;0.12671556;-0.010301259;-0.15278108;0.060704798;0.029061748;0.017738398;-0.07625951;-0.14243804;0.09014185;0.09105012;-0.044166017;-0.017154977;-0.048519198;0.08070334;0.013135254;0.06675432;0.03112774;0.014255527;0.081901774;0.04332691;-0.048860963;-0.025410168;-0.03153266;0.05927057;0.048340198;0.100470975;-0.011578808;-0.052245148;0.03573154;-0.09560741;0.047363564;0.0022546249;0.08242352;-0.062014263;0.060463425;0.08663774;-0.006003566;0.025211064;0.05547755;-0.048028946;0.04221076;-0.13377288;-0.08371361;-0.0010336691;0.038306333;-0.09142191;-0.046254423;0.05385107;0.08099257;-0.03428895;-0.019936124;0.042171206;0.0879422;-0.07179396;0.11532858;-0.09261368;0.038758554;-0.059388638;-0.037889335;-0.06799114;-0.05713362;0.021493115;0.059989896;-0.031633824;0.16706608
0.03762005;0.024173344;-0.085691586;-0.05865707;-0.02132556;-0.048919976;0.034259453;0.03538586;0.038176347;-0.027925115;-0.053013448;0.060844902;0.039718054;0.02420034;-0.052567516;0.02639;-0.08979473;0.012476382;-0.062575154;0.0886952;-0.00029341254;-0.021595828;-0.06940712;0.0326146;0.14889798;0.03642212;0.031769004;-0.03049168;-0.06336575;-0.04551259;-0.019636234;0.03344804;0.022581022;0.02963955;-0.124512106;0.016947292;0.040809613;-0.046681438;-0.05560003;-0.003470337;0.03971734;-0.049650926;-0.1004142;-0.056654457;0.030427596;0.077562444;0.06961333;-0.01444032;-0.018251007;-0.035268977;-0.033991408;-0.024882495;0.07135052;0.0734979;-0.058365658;-0.015862241;0.07445505;0.003593862;0.02120127;0.020274347;-0.007751014;0.08199602;-0.06977088;-0.05694438;-0.16497281;-0.0871492;-0.03038068;0.041385334;0.08567132;0.05627989;-0.03181352;-0.0650675;-0.060208473;-0.07723255;-0.027937429;0.007998972;0.06847231;0.08777703;-0.1479696;0.0014209272;-0.005060124;0.098236784;-0.056665886;0.09798488;0.011046121;0.084192075;-0.03380994;-0.045919903;0.09326419;0.1107735;-0.022584174;0.019199843;-0.03320025;-0.12989011;-0.06589741;-0.048616275;0.08844442;0.02077154;0.022027124;-0.07519144;-0.05025976;-1.9578789e-05;-0.056022123;0.001038366;-0.05931768;0.003258097;-0.055802234;0.06422027;-0.002532895;0.07224136;-0.015795173;0.014916704;0.05174785;0.097075686;-0.06700605;0.08928493;0.043746673;-0.043850224;0.011805856;0.06462893;0.06769546;0.09254904;0.083454;0.010112701;0.03469876;0.046696424;-0.008592906;0.040456116;-0.025248574;-0.05652223;0.008710811;-0.06932726;0.07793761;0.060212206;0.08129198;0.010744725;0.120389424;-0.14950587;-0.045549504;-0.043639902;0.07035105;-0.076600015;-0.0036370233;-0.061135273;0.052599583;-0.009292707;-0.044002656;-0.040547453;0.050360072;0.06690962;-0.054400742;0.054919872;-0.040179513;0.04686769;0.03616491;-0.0010380407;-0.046749167;-0.06315268;-0.04565978;-0.0058345767;0.048366215;-0.0009754185;-0.07016635;0.12587672;0.12294297;-0.074826054;-0.009953626;0.06268547;0.052980024;0.04572554;-0.05800823;0.09781891;0.068989016;0.050324064;-0.013133957;-0.047202155;-0.023565464;0.0024690388;-0.041690324;-0.0009714663;-0.0016211695;0.031966284;-0.075881;0.055682525;-0.037611578;-0.059859455;-0.10701848;-0.047519278;-0.06276054;0.003400231;-0.048298564;0.0641935;-0.088864826;-0.0226226;-0.058658343;-0.037157774;0.0821628;-0.07402929;-0.06584033;-0.06487963;-0.044130713;0.0089572305;0.028152099;-0.03958887;0.10233241;0.012892735;-0.08338268;-0.062142685;-0.024749326;0.018269744;0.035853986;0.076061554;0.07126199;0.05830286;-0.042388394;0.05590494;-0.026768576;-0.02743956;0.03128561;0.082508214;-0.019354004;0.002945818;0.05666984;-0.030667558;0.09616235;-0.017281687;0.015380131;0.01592099;0.0035054318;0.09680552;0.033698015;0.0029296116;-0.07185541;0.037718967;-0.081454754;0.014838944;0.08676294;-0.034008335;0.016196886;-0.07672346;0.04079474;0.0052353847;0.054799467;-0.08251539;-0.01998643;0.10836654;-0.076164626;0.05858038;-0.057722405;0.08845639;-0.041038748;-0.004788169;0.01122858;0.06215544;-0.038755704;-0.07147094;-0.0020903929;-0.004727727;-0.06325718;-0.07716194;-0.0023480873;-0.044529382;-0.013273466;-0.017439684;-0.04707568;0.08721725;0.06347553;-0.060512386;-0.026390279;0.10972042;-0.04670714;-0.007984412;0.043959085;0.03959101;0.08436426;0.07689685;0.060557384;-0.04024557;-0.04797481;-0.0354327;0.0356525;0.027261188;-0.023836123;0.008529899;-0.07988881;0.05848467;0.039503556;0.0732626;-0.039186098;-0.023305854;0.031555038;0.011343645;0.040337596;0.06604055;-0.085155495;0.058963306;0.06174174;-0.081982516;0.046419926;-0.063300185;-0.07464064;0.021504376;-0.02059204;0.025711486;-0.021288775;0.0881371;-0.024976797;-0.04035264;-0.06299692;0.06779662;0.0130741475;0.05591184;0.0043443115;-0.0072829644;0.027922662;-0.023653261;-0.07261165;0.013353077;0.013093619;0.008976895;0.08807795;0.095926054;-0.00042286908;-0.08814606;-0.08357722;-0.065801755;-0.06668471;-0.02296545;-0.036515567;-0.046403356;0.0724898;-0.037744388;0.06585213;-0.015378609;0.13990441;-0.024268785;-0.06584696;0.06568437;0.03367719;0.04369325;-0.0048752725;0.068977304;0.021453587;0.019138344;0.07904345;-0.01794264;-0.045513216;0.01370753;0.08577555;-0.053338364;-0.028504755;0.048120692;-0.0018891239;0.050788276;-0.069712125;-0.08687997;-0.12232964;-0.023915444;-0.093151554;-0.081944466;-0.041315034;0.04245859;-0.17548537;0.027517492;-0.015961763;0.034588605;-0.018184286;0.034013588;0.061121408;-0.022006564;0.026519358;-0.014666203;0.020994857;-0.004451321;0.007873371;0.053885758;0.053190857;-0.05284359;0.04607478;-0.023604114;-0.03845923;-0.0034876452;0.020593503;0.071459495;-0.013517543;0.021285014;0.020248353;0.07600236;-0.04905766;-0.0094933305;-0.058096696;0.057893977;-0.036003087;0.038314886;0.005783212;-0.025650863;0.042368427;0.014606288;0.022074942;-0.020262461;0.008954004;0.07943979;-0.036129825;0.0071340036;0.054099623;-0.0037141396;0.020788524;0.017399274;-0.08366417;-0.04468378;-0.009017326;-0.069873154;0.04730633;-0.03819411;-0.03918138;-0.15919194;0.086134605;0.058584947;0.054206777;-0.07682335;0.08648431;0.024165902;-0.06613626;0.07507321;-0.042856988;-0.007137246;-0.01710328;-0.0023170041;0.08894298;-0.025432738;0.015251713;0.014483368;0.028985687;-0.017297585;-0.07391576;0.09389461;0.019977212;-0.07762293;-0.0639859;-0.04596328;-0.033892382;-0.0829639;-0.04402753;-0.05157482;0.057834145;-0.06466335;0.04830565;-0.019857094;0.00042847428;0.058656946;0.08728187;0.050434526;0.034487486;-0.039572775;-0.096186385;-0.0012153883;0.003176084;-0.08618808;0.013604363;0.04268745;0.031422902;0.0073050717;0.022421848;0.0687532;-0.06680575;-0.001634249;0.0027079068;-0.022755275;0.015188252;0.07547227;-0.056933466;0.021643981;-0.059375964;-0.072550245;-0.041688602;0.047765158;0.06478174;-0.0022230444;-0.005882975;0.017056432;0.066086225;-1.29257405e-05;-0.003916428;-0.009741019;-0.07259633;-0.014220353;0.07852998;9.133997e-05;-0.038026597;-0.018783223;0.025158508;-0.024220712;0.025872435;0.0320492;-0.058635876;-0.03862091;0.015195058;-0.06270368;0.07665975;0.076053485;0.033244144;0.060551494;-0.01787698;-0.02403722;0.03718421;0.07040147;-0.028593153;0.006092675;-0.0011448512;-0.18118662;0.048236907;0.10174584;0.044039175;0.040462684;0.0358612;0.106327064;-0.054440297;-0.021295408;-0.07200193;0.02356739;0.0710342;0.06332532;-0.043618772;-0.03855877;0.14474441;0.053457562;-0.03470697;-0.03933816;-0.031273782;-0.05218215;0.041993774;0.046059158;0.11310314;-0.032148905;-0.0066899955;-0.03764719;0.058702722;0.0086548915;-0.0073656742;-0.037482888;0.084522575;-0.011047278;-0.04971462;0.0819458;0.0021219074;0.0660582;-0.008057775;0.07688199;-0.052606434;0.010150175;-0.019889884;0.024035005;-0.0064691724;-0.043863587;0.027525114;0.018793127;0.05849818;0.011444665;-0.030468935;-0.0009979601;0.08077543;-0.01895286;0.015660904;0.04377273;0.077771194;0.067445345;-0.053173214;0.02814403;0.036795683;-0.000883554;0.022303708;-0.14157116;-0.048555028;0.0036234898;-0.1223768;0.12350432
-0.01895784;0.0107642505;-0.123323716;-0.010091293;0.0659636;-0.01477955;0.09350447;-0.019718919;0.061955407;-0.036477007;-0.048360776;0.045934584;-0.007393831;0.028423086;0.06522339;-0.058466233;0.0139951045;-0.023622211;0.024070494;0.040880695;0.092032775;0.079108916;-0.070594355;0.054466147;0.0014952999;0.09771168;-0.03109369;-0.08073442;-0.05218138;-0.05563146;-0.043606315;0.07752795;-0.03988;-0.011208128;-0.011069567;0.07834446;0.07853754;0.032216273;-0.06301157;0.043636836;0.055305637;0.05589127;0.06999583;-0.14172345;-0.04848331;0.07295445;-0.022322666;0.09333817;-0.036923613;0.020200264;-0.040761754;-0.097919926;0.01287044;0.10268903;0.017517725;-0.027292844;-0.013007674;-0.043363735;-0.028903177;0.0805212;-0.03741423;0.07093708;-0.013344116;0.0041496656;-0.12946804;-0.01887024;0.027893482;-0.022115964;0.05095902;-0.034649488;-0.07044714;0.019728566;-0.12937173;-0.039810114;0.07470702;0.072807536;0.04804919;0.050543457;-0.0845486;0.08551602;0.014140327;0.02855236;0.007852812;0.09522996;-0.010206059;-0.006061785;-0.020337647;0.0597988;0.0062304274;0.013947267;0.0005155909;0.020618752;0.031585865;-0.14538419;0.072749816;0.01927771;-0.0273872;-0.0009051328;0.0063268114;0.06799749;0.07539366;-0.0025105588;-0.03886597;-0.05165072;-0.011803019;0.044247247;-0.078019366;0.035895705;-0.024627225;-0.047816433;0.048415907;0.032663826;-0.0076832855;0.11995569;-0.017636187;-0.044815544;-0.028820701;0.07016412;0.08366567;0.09058868;-0.023155382;-0.05898122;0.01885628;-0.033499688;0.046602238;0.060951207;-0.00564506;-0.011917585;-0.007562649;-0.04291969;0.062221162;0.038271155;-0.055054523;0.0434115;-0.058293767;0.048929777;0.091700114;-0.108810656;0.10033561;0.095203266;-0.032254003;-0.027749525;-0.10989925;-0.05206481;0.061082706;-0.08091901;0.054503046;0.023520693;0.0326491;-0.0074269776;0.0422144;-0.05153536;-0.0570009;-0.01188364;0.085334085;0.038409382;-0.072722584;-0.0015918408;-0.037091903;0.04554789;-0.012669625;-0.03922035;0.016501363;0.103020705;0.16688785;-0.01202694;0.09197501;-0.01582136;0.060243376;-0.1031374;-0.09686954;-0.002129105;-0.041872967;0.044607855;-0.03705165;-0.06111361;-0.021137798;-0.035206918;-0.17025074;0.08763537;0.04704592;-0.03494538;-0.06294207;-0.08473583;-0.06037805;-0.065064855;-0.0053319014;0.043237966;-0.06578163;0.033194598;-0.13651104;-0.016388508;0.06569591;-0.07603049;-0.043334484;-0.059071388;0.06711884;0.03972034;0.07229961;0.004793749;-0.040336415;0.020557407;-0.06850734;0.011932827;-0.06400907;0.038575;0.06951008;-0.100239;-0.06548829;-0.001701622;-0.018989371;0.037660416;0.033262465;-0.013877549;0.011186542;0.010279735;-0.034242965;0.09930245;0.004691218;0.010003825;0.038765892;-0.007846314;0.01861254;-0.0490019;-0.0071272454;0.081815936;0.06252391;-0.036469087;0.03176251;-0.024274305;0.06332024;0.043697007;0.031917527;-0.035656843;0.037211884;0.13539487;-0.03881891;-0.011026178;0.0284288;0.07193025;-0.09122765;-0.047654405;0.016256161;-0.042470817;-0.007058801;0.05633491;0.026606828;-0.073533386;0.024204353;-0.05355332;0.10395381;0.018156143;0.0041497084;0.064621896;0.026079988;-0.012696452;0.031132601;0.016305074;-0.071382575;-0.0006359836;-0.049722984;-0.023771048;0.029554337;-0.042223185;-0.028984953;-0.016731448;0.09548667;0.031873576;-0.061624553;0.10081547;0.016445562;-0.03823373;-0.023853205;-0.016129542;0.15795082;0.053734336;-0.0051983674;0.032503083;-0.032594964;0.012429876;0.006548362;0.060949717;0.054440603;-0.009800513;-0.04269637;0.031235097;-0.047592007;0.023600914;0.091534615;0.09218298;-0.027011601;-0.0127518;-0.006776029;-0.031858347;-0.051574312;0.13463993;0.082043126;0.015823063;0.0011773882;-0.03707765;-0.0524628;-0.033864714;-0.017106049;-0.116385885;0.018594164;0.028363088;-0.034505192;0.009773007;-0.07747021;-0.0006023475;-0.034196723;-0.05408916;0.05903492;-0.009795411;0.0467976;-0.13831532;0.018554596;-0.07101084;-0.0758952;-0.042014003;-0.042023238;-0.059702512;-0.06734371;-0.03758297;0.06069054;-0.027917951;0.021531742;0.012589321;-0.0047853794;-0.024857495;-0.046802517;-0.035289668;0.09212987;0.062194;0.035204973;-0.0039988263;0.0070086564;-0.019377658;-0.061358914;-0.04273872;0.04404791;0.038018513;-0.049301695;0.0658982;0.055987857;-0.012511609;0.012219832;0.05222606;-0.052616674;0.040570267;0.025241438;-0.044638727;0.08165657;0.07176621;-0.022818128;0.07532662;-0.15886793;-0.0055404487;-0.06834771;0.052596103;-0.01738049;-0.04061187;-0.048389696;0.042394172;0.071099035;-0.05629335;0.027195048;-0.03626791;0.07591835;0.038895078;0.021937553;-0.046044644;-0.06798995;-0.00080486917;0.0028333147;-0.01735098;-0.03168342;-0.040926762;0.0046730665;-0.058581717;-0.05832941;-0.008004792;0.020682126;-0.020933323;0.0065620383;0.038321443;0.09185678;-0.041296724;0.024744403;0.07489779;-0.043331597;0.03638409;-0.11825119;0.12630261;0.042388134;0.024333179;0.046508167;0.03444677;-0.06351976;-0.034959517;0.002079518;0.019157398;0.055222508;0.005528754;0.031243045;0.015523454;-0.07158971;-0.015484501;-0.07671176;-0.0067976443;-0.061200377;0.005746226;0.053219337;-0.061198484;-0.09053109;-0.13075376;-0.024336008;0.064325765;-0.03230129;0.018640772;-0.042621974;-0.030854722;0.028361857;-0.06706054;-0.0415236;-0.0168158;-0.04735023;0.052045833;0.06558201;0.08534418;-0.033789348;0.044172745;0.03809964;-0.05672294;-0.095694005;0.0072814124;-0.021064285;-0.03833584;0.028808255;-0.034141872;0.076493986;-0.012208762;0.09976884;-0.07759785;-0.060995188;0.0429911;0.113018446;0.08130773;-0.06787476;-0.008988263;-0.0644357;-0.073647186;0.044841234;-0.035690114;-0.020872822;-0.07838009;0.049751826;-0.0734944;-0.02897197;0.025614973;-0.044275172;0.11280477;-0.056976754;-0.012944466;-0.019728703;-0.031093717;0.068160184;0.0077070347;-0.1065745;-0.050164647;0.0969676;0.02410132;0.0027420232;-0.040757768;0.04773526;0.048042163;0.069824174;-0.02144808;0.056134336;0.013351377;0.048827473;-0.04717561;0.018108161;0.027492218;-0.009251781;-0.031249804;-0.007331549;0.099958;0.06726871;0.07516081;-0.017315805;-0.113563135;0.074046776;-0.032631632;0.018780338;-0.1310363;0.002268214;0.07585315;0.1445543;0.03479797;0.00056207663;-0.022445932;-0.03883806;-0.07275242;0.10557218;-0.031730033;0.045251228;-0.0169427;0.037874777;-0.17466328;-0.047679532;0.061641265;0.0665737;-0.08446837;0.043353584;0.02559072;-0.025440037;0.053593818;-0.059751496;-0.04212991;0.0627831;-0.025538266;0.055655327;-0.0049812184;0.02485762;0.06545175;-0.06044128;-0.030792423;0.0311772;-0.011644184;0.08821102;0.08273899;0.096685305;-0.088400334;-0.012399851;0.028016934;0.023974644;-0.019419996;0.020634081;0.034674395;-0.058848985;-0.077484936;0.01877605;0.11317303;0.061592974;-0.008679502;-0.011458168;0.035126377;-0.030343132;-0.015310834;0.054766353;0.07348505;-0.16472755;0.050257117;-0.063888565;0.08339896;0.029515974;0.11375743;0.037881967;0.023851149;0.02878649;-0.047918726;-0.039345846;-0.0020053908;0.05152901;0.05070512;-0.10991642;-0.0058663967;-0.057390515;-0.020549761;0.08350762;-0.1186412;0.02526641;0.062318638;-0.04825166;0.05757045
0.051919714;0.04571516;-0.09074531;-0.03960942;-0.027943188;0.051297404;0.10645533;0.08091643;-0.04671922;0.0006206519;-0.030625265;-0.031032905;-0.033767708;-0.052078616;0.017452559;-0.03114766;-0.0010319261;-0.025556201;-0.05423842;0.05933553;0.057276346;0.03565562;-0.08467501;-0.041122783;0.047256634;0.16001064;0.10363995;-0.02299174;-0.018369596;-0.0235969;0.006993259;0.024126632;-0.0566541;0.109721445;-0.011737669;0.07537217;0.011851459;0.026335638;0.0736651;0.05631011;0.059837025;0.004643445;-0.037372645;-0.04276135;-0.07333483;-0.0065257414;0.0643883;-0.043371364;0.08768851;-0.00051558885;0.037735738;-0.14630648;-0.017858673;0.0029687255;0.06928601;0.044274036;-0.020779762;0.028053703;0.0039561237;0.10896512;-0.0670698;0.08630025;-0.027106065;-0.08929123;-0.1391329;-0.07177575;-0.07772629;0.054501012;0.0068307924;-0.08106774;-0.08704714;0.061361525;-0.011590047;0.022950906;0.0678471;0.05544979;-0.010738133;-0.035471853;-0.13462162;-0.058898553;-0.026419181;-0.016471235;-0.085747354;0.036701635;-0.04476041;0.100540064;0.07076342;-0.02755625;-0.006700079;0.06448079;0.07654553;0.053516053;-0.034242507;-0.12123036;0.057552844;0.004754824;0.027286405;-0.076522864;0.10044912;0.014315499;0.079363346;0.038992558;0.038953274;0.035915334;0.032075822;-0.025917443;0.08986115;-0.064145744;-0.048846185;-0.019865619;0.01458855;0.063809164;-0.046017192;-0.010375654;0.046869125;-0.04606444;0.006635204;-0.01938673;0.032741845;0.037033003;0.045066047;0.062095594;0.006388819;-0.02370698;0.044047978;0.039300468;-0.030397024;0.020364912;-0.0020361748;0.0031924532;-0.057963558;0.080231056;-0.05867157;-0.060287114;0.026707353;0.08591452;0.077035666;-0.010318945;-0.025414871;0.042264648;-0.050395094;-0.14261013;-0.052924518;-0.008064532;0.013483688;0.07695407;-0.050353058;0.04781824;-0.026780624;0.040343378;-0.047321033;0.092131734;0.05149581;0.038218156;0.014012208;0.0070412555;0.06995563;-0.015629716;0.045415994;-0.08324952;0.00096778385;0.044153832;0.016019706;0.014691161;0.012356852;0.028791433;-0.06649674;0.05085051;-0.00033825077;-0.059037883;-0.09842314;0.047298957;0.026425581;-0.042806253;0.061297484;0.04675334;-0.123351276;-0.076307915;-0.026517669;0.034713622;0.025743846;0.019691063;0.04622074;-0.050160553;-0.06366731;-0.031116577;-0.053504918;0.06586465;-0.014600396;-0.057857506;0.021457622;0.034428835;-0.027165722;0.028033817;0.015650606;-0.031506408;0.07172061;0.021771237;0.051461767;0.050633;-0.044974897;-0.03931346;-0.014246946;0.09124842;0.020640463;0.070032835;0.060230583;-0.059797306;-0.086710125;0.06189059;0.021466529;0.04288636;-0.046501633;-0.0025907212;-0.025513727;0.13706636;0.022191303;0.11198851;0.01937212;0.05768988;-0.03897103;0.06410856;0.032784462;0.03329437;0.001787386;0.08194031;0.0663365;-0.06801794;0.0016448038;0.03503096;0.016075026;-0.05456372;0.06370632;-0.07671579;-0.013626099;0.022194512;0.074709795;-0.04792622;0.065256506;0.10531149;0.0660783;-0.04440685;0.08603328;0.08722044;0.058699053;0.08247266;0.038743492;0.030218001;-0.00282639;0.101987235;0.055019733;-0.0665889;0.09338113;0.03483252;0.09126512;-0.006089931;0.017558571;0.043577053;-0.048908312;0.003796854;-0.051304102;-0.04798985;0.07018187;0.074697435;-0.024056785;-0.026887804;0.03997822;-0.0633537;-0.05951646;-0.020911586;-0.07846513;-0.01575477;0.01890203;-0.06939967;0.01698707;-0.039224885;0.04540454;0.044663224;0.013690091;0.054001447;-0.076339215;0.060937844;-0.03241416;0.02446266;0.0008613166;0.0418549;-0.045722026;0.06272482;0.07915416;0.060019497;0.024017768;0.10365368;0.040092614;0.080256395;0.0011213867;0.059036862;-0.023953544;0.046513442;-0.020370917;-0.053551484;-0.009596233;0.028781852;-0.05587258;-0.0014594211;-0.012413524;0.06398355;-0.03888512;0.12942785;0.024752067;0.06891118;-0.013690441;0.029399917;0.07538114;0.002833778;0.057449657;-0.048653733;-0.029725743;-0.04928643;0.020203125;-0.03566826;0.042991556;0.091122486;-0.071723655;-0.035829287;-0.057561412;0.032999236;-0.07671026;0.06167489;0.07212433;-0.04408927;0.013193251;-0.08865711;-0.017839422;0.081703044;0.07358347;-0.007972392;-0.098049566;0.036824007;-0.06187814;0.0023603141;-0.04016899;-0.055965215;0.057982523;0.087293655;-0.046634782;0.011192528;0.06026838;-0.08645003;0.023816008;0.10503057;0.116976626;0.0026629197;0.046197128;-0.025395159;0.06941437;0.03715656;-0.16840845;-0.03306561;-0.08598653;0.05465305;0.07683323;-0.0048239417;-0.15786661;0.05895624;0.0052342177;0.0122675;0.06796752;0.114097655;0.10184774;-0.056952152;0.0055805254;0.09295497;0.046607383;0.00878852;-0.04368705;-0.0069096657;0.030432787;0.0037474658;-0.056010086;-0.009694206;-0.0717093;-0.0016126913;0.05834253;0.14816624;0.0026583292;0.055987637;0.09281269;0.094211;-0.05952694;-0.0351075;-0.042836707;0.0153714;-0.11108539;0.10100937;-0.11030356;0.06602664;0.020353349;0.028154068;0.019551558;-0.034540623;0.07131404;0.0067953854;0.059316363;0.007687797;0.01394456;-0.058109164;-0.020631328;0.031291284;-0.058023024;0.07576774;-0.0071328864;-0.06400485;-0.016840545;0.020977503;-0.0796076;-0.015045741;0.069714844;0.008753556;0.052430667;-0.0832261;-0.0016279997;-0.058797773;0.022963718;0.08407066;0.046686705;-0.00317479;0.023261212;-0.0044298014;-0.06518087;0.08012904;0.04747495;0.09498905;0.08015979;-0.040728766;-0.10813581;-0.05703698;0.038781438;-0.07013146;0.030214937;0.028511308;-0.048139047;0.09717497;-0.03034132;-0.043781813;-0.10406823;0.068473466;0.007492971;0.074299574;-0.05983402;0.0075522475;-0.036176044;-0.053947035;-0.055535275;-0.005747924;-0.105090454;-0.012418533;0.062028855;-0.14922324;0.07045349;-0.057838604;0.018197509;-0.01033936;-0.08166195;0.056541827;0.04145877;0.017839408;0.074491985;0.07803785;0.0125238085;-0.04944338;0.03712767;0.019103507;-0.03787788;-0.040650543;0.097765945;0.017193852;0.062139258;0.082643196;-0.06258083;0.06511825;-0.05394207;-0.020698812;-0.029558327;0.094787404;-0.16182187;-0.07641395;0.018559366;0.115541846;0.06740891;-0.01592742;0.023026377;-0.053743143;-0.035087958;-0.08164457;-0.021433903;-0.07585273;0.021382678;-0.0732558;0.10457264;0.04537138;-0.0326286;0.00061940955;0.07331309;-0.012256709;0.039837398;0.06520231;0.038240913;0.069106385;-0.04565385;-0.085025534;-0.027922828;0.11123013;0.032884248;0.016033653;0.052572295;-0.007964601;-0.011599425;-0.040269192;-0.05414057;0.02801126;0.041461837;-0.008127557;0.014071117;0.008106136;0.05558972;-0.0047325953;-0.029965578;-0.050437815;0.015792327;-0.029869476;0.09191552;0.043384805;0.064186744;0.047950137;0.056435533;-0.067667544;0.07072536;0.058129873;0.074081264;0.020637307;0.061345406;-0.05044191;-0.05297828;0.08124555;0.0895595;0.017315537;0.030961756;-0.077893436;-0.03910748;0.0071385824;0.0122014275;0.036739357;0.036365006;-0.036140837;0.031150362;0.010347775;0.037364796;0.031094944;0.014334209;-0.051896177;0.01957958;-0.08534056;0.07221903;0.00049414276;0.0013189965;-0.0042211213;-0.17283602;0.062703215;-0.10400029;0.07461564;-0.00044611123;-0.006562377;-0.04524513;0.04508368;-0.08358472;0.13753128
0.067848444;-0.10204477;-0.021936392;0.03720117;-0.003259156;-0.032308593;0.09630916;-0.061233453;0.064747415;-0.060975272;-0.04976859;-0.081040435;0.004890444;0.01762924;0.093810976;-0.033747897;-0.06453092;0.08753322;0.016215952;0.023321504;0.08249783;-0.01271138;-0.08167418;-0.022828927;-0.07973004;0.18675993;0.04057932;-0.05769896;0.016911794;-0.032154933;-0.060296547;0.05678677;0.06443079;0.010994173;0.06405955;0.116676606;-0.09261989;-0.012337298;0.028688775;-0.012681695;-0.042027842;0.08923993;0.0037264146;-0.058636732;-0.04433148;0.06288721;0.050447892;0.036254432;-0.013453506;-0.07359281;-0.040058814;-0.13208583;0.035831463;-0.106743366;0.028709635;0.034549862;-0.047331277;-0.05904826;-0.048160784;0.023259463;-0.14729144;0.15872298;-0.18982181;0.012251584;-0.0028636772;0.062325936;0.028798632;-0.05454589;-0.04534609;0.06270348;-0.0026245192;-0.03358402;0.06431376;-0.02391981;0.04670202;0.06099915;0.037867032;-0.016397642;-0.051726714;-0.1250892;0.08595012;0.00883775;0.009487956;0.043825034;-0.024002904;-0.015794242;0.010613001;-0.068505;-0.09214387;0.02359832;0.014389173;0.047926668;0.03827085;-0.05010803;0.017496267;-0.0016077119;0.021448214;-0.030474229;0.03576088;-0.07116329;0.0942659;-0.07571431;0.05375875;0.06337202;-0.077606365;-0.06873081;0.05037955;-0.054713413;-0.080468684;0.089438915;0.11503659;-0.017067742;0.017998021;0.029443406;-0.028351665;0.09087585;-0.0026805412;0.059599284;0.005951314;-0.05937378;-0.026372671;0.047046345;0.10173563;0.062274985;-0.008148444;0.06424867;-0.011138011;-0.060501557;-0.077171504;-0.004541945;-0.053791307;-0.048157997;0.065970644;0.03666151;0.07313452;0.013122752;0.035901282;-0.124769524;0.037689056;0.026221277;0.08935582;-0.10451054;-0.02163692;0.054708384;-0.033578184;0.06286158;-0.061136775;0.05767553;0.05593148;-0.07269354;0.05625926;-0.042735986;0.03690903;0.034447733;-0.05080148;0.046174277;-0.0017210217;-0.0007558922;-0.058889706;0.06959755;-0.08507427;0.07807767;0.087631494;0.026228731;0.12939374;-0.026168955;-0.07727623;0.0012807247;-0.053162828;0.0076473793;-0.09687719;-0.033605587;-0.08904452;0.07648548;0.0052423314;-0.065938756;-0.01571203;-0.051998638;-0.04799962;-0.06645446;0.114343844;0.12138418;-0.052289248;-0.09155188;0.0848461;0.05270442;-0.09372069;-0.07829918;-0.03883211;-0.066716;0.02171587;0.00036819128;0.03697016;0.026753485;-0.13154276;-0.08077644;0.05609472;0.06702177;-0.056537736;-0.011961652;-0.05047568;-0.087793015;-0.006234993;0.08860121;-0.059565783;0.075145215;0.025499074;0.020072078;-0.08674793;0.02883496;-0.028472237;-0.047349185;-0.016048752;0.04768549;0.0017801811;0.040172257;-0.018685568;0.0055884505;0.035662126;0.1126486;0.09687224;-0.011620888;0.010632225;-0.02247234;0.06732585;0.04205814;-0.014201907;-0.13969344;0.019455208;0.0153135;0.05659996;-0.08962314;-0.089509815;0.06860865;0.030735392;0.0643282;-0.03086028;-0.016721694;0.046455413;-0.04956333;-0.04363762;0.0010966512;0.01150485;0.053609274;-0.018817646;-0.040565263;0.067431375;-0.020368539;0.021601303;0.034718264;0.08872762;0.10055029;0.040367432;-0.008190821;0.02109804;0.03247631;0.016853914;0.049335126;-0.059089646;0.068175435;0.049960397;-0.00015717602;0.042962354;0.077536926;-0.03377723;-0.07210117;-0.06728243;-0.0008306745;-0.077780016;0.040735446;-0.03338555;-0.102417976;0.0038613004;0.03962633;-0.023404654;-0.049946558;0.018678851;0.041418098;0.015095229;-0.030890157;-0.009440474;0.081896186;-0.036570895;-0.037525773;-0.055182032;0.030489761;0.03470203;0.06834322;0.07686516;0.073482476;0.059391163;0.024735674;0.009121284;-0.064315766;0.036398478;0.053611804;0.06568903;0.0872195;0.10357612;-0.007855403;0.002441548;-0.07962463;0.005340677;-0.053076122;0.1009398;0.08429887;-0.0729298;0.024059523;-0.08928812;0.025046337;-0.023553781;0.032927502;-0.04140498;-0.04056655;0.11467037;-0.039921165;0.03252698;-0.04358488;0.10347694;-0.001017775;0.0921982;-0.07325159;0.004463311;-0.010040957;0.08193672;-0.07015355;-0.08090622;0.064014584;-0.039375592;-0.033535946;-0.046038326;0.059467338;0.06846811;0.07102227;0.12713215;0.049640216;-0.055318374;-0.044473056;0.078583725;0.0070562204;0.018774722;0.01544401;-0.030175246;-0.04451921;-0.049937304;0.05917183;-0.013475717;0.041085843;-0.06176832;0.038539205;0.07532456;-0.010021267;0.071440116;-0.03859253;0.036682975;-0.093780056;-0.037134163;0.14511524;0.038763728;-0.011048549;-0.02084749;0.05396278;-0.14163303;0.08223982;-0.02997024;-0.024528557;0.050965305;0.14951017;-0.0275291;-0.046920996;0.08449995;0.03246237;-0.048421532;0.04397907;0.00706788;0.060032297;0.02966913;0.10626351;0.048311185;0.04561191;0.06573048;-0.0061030514;-0.024720192;0.06165037;-0.07207239;0.042890333;0.024541024;-0.0139177805;-0.0188862;-0.093311906;0.09062439;-0.16686411;-0.0523694;-0.017698176;-0.08375505;-0.009824362;-0.02709477;0.06515394;-0.012068867;-0.091525026;0.06777184;-0.09316243;-0.044779375;0.08844954;0.07108275;-0.1499096;-0.030068016;0.058443923;-0.119479075;-0.034310922;-0.04506884;-0.040539984;0.048189208;0.07151807;-0.06407295;-0.062092263;-0.027796853;-0.022104297;0.06844288;-0.018850135;0.08294812;0.04704341;-0.018502565;-0.08001058;0.08247458;-0.009415083;-0.08961825;0.0015708286;0.04261971;0.075184286;0.008845735;-0.03809856;0.0061130375;0.025619779;-0.017055642;0.095529534;0.053307544;-0.07160284;0.050367758;0.20845726;0.014213558;0.057177186;-0.07028737;-0.10597761;-0.047879145;-0.06620361;0.029119365;-0.031495642;0.03027444;-0.07070466;-0.04932756;-0.07277335;0.052325282;0.013603326;-0.13482219;-0.032565333;-0.06137639;-0.088245906;0.06772821;0.052950606;0.012841927;0.059176985;-0.058532584;0.04098435;-0.008016084;-0.047617637;0.049538042;-0.0006090271;0.027890353;0.09348489;0.009532551;0.056213792;-0.023436466;0.068825155;0.025017954;0.059968084;0.0770717;-0.014372634;0.02023648;0.060820896;-0.017265828;0.032259054;-0.023505533;-0.0067017274;0.022721466;0.05561296;0.008956632;0.04171696;0.058737844;-0.08607714;-0.029815612;-0.12777716;0.016597694;-0.09018229;0.016784187;-0.06311554;-0.041599263;0.013344168;0.13046204;-0.017199922;0.012273529;0.03110359;0.019238958;-0.09663326;0.013987217;0.0734033;0.01976628;0.059822932;-0.040691014;-0.15111232;-0.00068802823;0.06415954;0.055488616;-0.024400799;-0.08691051;0.033681463;0.04172301;0.09738964;-0.107851274;0.08122429;-0.013463756;0.08255332;-0.07148301;0.07074777;-0.03027602;-0.059976738;0.019515894;0.009100016;0.13201636;-0.024274314;-0.04876989;0.07529159;0.13331151;-0.013365425;-0.06387341;-0.0616776;0.050363407;0.04341742;0.079909615;0.040114634;0.042169247;0.008475584;-0.0018407718;0.046641007;0.00881682;0.10778473;-0.019296445;-0.016438713;-0.010300167;-0.057909355;0.1020065;0.07534838;-0.06409144;0.06960913;0.06675256;-0.06999974;0.02199734;0.117762536;-0.028625665;0.0718507;0.058353905;-0.048929185;0.04803455;0.061962575;0.05209368;0.022521047;-0.18405119;0.024882734;-0.056654945;0.056424018;-0.08097921;-0.11486644;0.0052075707;0.06047322;0.035233658;0.07838234
0.07718488;-0.12189962;0.03744046;0.0841415;0.0077584437;0.015275119;0.033049803;0.024299232;0.0059388974;0.00032850014;-0.071172774;-0.026818918;-0.0449288;-0.043772433;-0.06054297;-0.0057868776;0.016784647;-0.024493346;0.07544567;0.020813009;0.061088465;0.021404121;-0.021590922;-0.07379765;-0.1215469;-0.0074430155;-0.025339153;0.07509897;-0.015363813;-0.017183019;-0.010572883;0.13803585;-0.007174228;0.05683593;0.023538094;0.1758388;-0.0039807665;-0.007739767;0.07050953;0.073718384;0.0021757102;0.054492395;-0.0149677005;-0.05311939;0.03943472;0.07584847;0.029684415;0.09650217;-0.01892168;0.009786822;-0.071769975;-0.08485671;0.093962274;-0.06551999;-0.05608154;-0.011270291;0.051415525;0.0100214295;-0.012581087;-0.03049539;-0.07637846;-0.005181124;-0.062702216;-0.09627207;-0.04423886;-0.041034948;-0.038994584;-0.054900486;-0.073245615;0.02042658;0.07872438;-0.014268522;0.04966641;0.034241214;-0.013354206;0.018801747;0.01033275;0.014289032;-0.055230483;-0.050924934;-0.025296213;-0.063163795;0.039715923;-0.042372778;-0.04389748;0.0021444343;0.054522954;-0.072717674;-0.06931256;0.006805104;-0.04926541;-0.073114425;0.018774046;-0.16843945;-0.034800578;0.046076167;0.08667017;-0.01349173;0.027719101;-0.03557736;-0.00035282935;-0.032666806;-0.08035207;0.04285029;0.025917247;-0.044728912;-0.010076879;-0.051277988;-0.004844854;0.0033627634;0.026340237;0.07409186;-0.004189504;0.061343938;-0.060382105;0.08084215;0.030949451;0.08531504;-0.01708059;0.05667388;-0.010110991;-0.014465779;0.02131592;0.009669575;-0.03579707;0.01664492;-0.10168655;-0.029385079;-0.012858337;0.1116694;-0.050658572;-0.018107874;-0.058879565;0.0148189785;-0.068155706;0.0015823873;0.119803555;0.011787637;-0.0012733373;-0.078230664;-0.013755479;-0.08363974;0.015669258;-0.017465241;-0.063128896;0.046068087;0.029278848;0.081118785;-0.02075577;-0.08318046;-0.061222672;0.031223545;-0.020537734;0.110387444;0.0660346;-0.019844906;-0.06560364;0.08989455;-0.05223442;-0.0534523;-0.08429697;-0.037104264;0.089108504;-0.030308053;0.0635364;0.041877843;-0.0355719;0.056760136;-0.06492136;0.083072096;-0.08776535;0.1242192;-0.05999692;0.12853788;0.07472276;-0.02080522;0.040691253;-0.08257188;-0.008433259;0.02283359;0.008800056;0.019027386;0.13059835;-0.09507775;-0.0033486008;-0.02571722;-0.117448784;-0.013199382;0.07717466;-0.043535557;-0.058938123;-0.0113868145;-0.010053401;0.00018441962;-0.07674624;-0.044214312;0.08613478;0.037774213;0.0007983444;-0.046964712;0.040942922;0.03794058;0.051334377;-0.048879188;0.014210477;0.02817357;-0.028491383;0.034780394;-0.049194813;0.037073977;-0.04166041;0.020772249;0.06294886;-0.062898256;-0.0050942344;0.009370511;-0.043129;0.10116062;-0.05877301;0.012915614;0.111625195;-0.06194379;-0.04901726;0.044784077;-0.022912657;0.10259776;0.08605426;0.031844974;-0.069884144;0.011741545;-0.053368147;0.09535338;0.034767974;-0.019517925;0.033317916;0.10976238;-0.021774488;-0.06333562;0.124246314;-0.07458761;0.062469;-0.06566137;-0.00899262;0.09370839;-0.041659463;-0.032294393;0.01791759;-0.07049895;-0.03982241;0.02409723;0.07136508;0.07003922;-0.00160715;0.098086715;0.059608974;-0.057602957;-0.04547323;0.085407555;-0.058632158;-0.03131583;0.01938381;0.04563032;-0.06563431;0.013824928;0.08323069;0.016250324;0.06662644;-0.05204546;-0.08742201;0.10257703;0.040711436;0.034121696;0.03256144;-0.0044533666;0.0796049;0.05065084;-0.047382534;0.037829038;-0.03857988;-0.09864737;0.062659726;-0.01941593;-0.01861509;0.08232717;-0.06140628;0.047183014;-0.07503542;-0.0072249896;-0.015663387;0.01480698;0.01109267;-0.056287616;-0.006131842;0.03792789;-0.0011702739;-0.03990807;-0.010377091;0.094481334;0.1076853;-0.017231647;0.047902152;-0.047311027;-0.064065844;-0.1132121;0.10499431;0.09337086;0.0516145;0.004641884;-0.08631815;-0.0373078;0.042891122;0.069442526;-0.060522716;0.010074021;0.071830735;-0.0526558;-0.06436966;0.029212717;0.06989098;-0.084066644;0.057313792;0.033642534;0.0880156;-0.003025814;-0.031461544;-0.10221602;-0.032654624;-0.05433542;0.06451054;0.07472907;0.09650802;0.042958107;-0.04465605;0.027683469;0.07232978;-0.07257167;-0.06869873;-0.06894224;0.08112867;-0.07318827;-0.0008334662;0.057580646;0.044022087;0.067834914;-0.066915296;0.04700885;-0.045323186;0.025883025;0.009570987;0.012506359;-0.043349322;0.06718521;0.0653195;-0.0020240596;0.040784184;0.046675753;-0.08647115;0.08349337;-0.12439549;-0.035937697;-0.048894536;-0.08233949;-0.03869886;-0.018943444;0.042002603;0.0058265068;0.049868334;0.111836806;0.0006703362;-0.017591456;-0.06393177;-0.07425784;-0.06989883;0.053623147;-0.0056111207;0.053131342;0.058447175;-0.022846345;0.021556703;0.011612006;0.033113234;0.032880813;0.10097598;0.11852214;-0.020107947;0.07943459;-0.039724905;-0.014681654;-0.06328993;0.019060377;-0.026990326;-0.0054563563;0.027233128;-0.15775071;0.042595048;-0.07344374;-0.011520079;-0.053211704;-0.02944803;-0.03474414;0.014333415;-0.08734843;-0.054564115;0.0602943;-0.039612737;0.013500916;0.059787016;0.07007448;0.04533057;-0.052314688;-0.014218475;-0.003974075;-0.03589205;-0.062363703;-0.0378146;-0.06970809;-0.00120553;-0.06354204;0.028129179;0.005770028;0.09286388;-0.037392896;0.05732439;0.036216196;0.044351753;0.078624666;-0.03742286;0.095713556;-0.04850463;0.08608336;0.11155891;0.040804494;-0.040198807;0.05653755;0.049616992;-0.055389024;0.03958919;0.039555505;-0.0040651453;0.14706175;-0.075866036;0.0064460305;0.055517063;-0.11545381;-0.025136882;-0.0019710439;0.10450358;0.08698588;0.011617335;-0.13506675;0.015049143;-0.024676036;-0.078777514;0.02961984;-0.15046267;-0.06057226;-0.076627046;-0.024614116;-0.026132213;-0.08905948;-0.061674073;0.072953224;0.05117837;0.05446381;-0.039437838;-0.024337934;0.015484227;0.055583756;-0.056884274;0.11088824;0.003131869;0.03765816;0.079545856;-0.044715196;0.021493334;0.037824817;-0.03301983;0.0028717169;-0.016162718;0.01488885;0.050943155;0.02708199;0.024714334;-0.06951306;-0.10696589;0.06710348;-0.06526729;0.08636423;-0.064582646;0.025539525;-0.024651174;0.041484468;-0.031016652;-0.1383482;-0.08476835;0.002003977;-0.003947235;-0.010322384;0.13874988;0.13966036;-0.054418817;0.02420097;-0.019540109;0.015874902;0.06287343;0.06561783;0.010413509;-0.052645784;0.0039273715;-0.12029245;0.056656722;0.071311094;-0.02264341;-0.053231884;0.01171097;0.055289168;0.05073775;0.034146637;-0.014385908;-0.024501765;-0.03685729;-0.0057444735;0.012547024;-0.010472893;-0.026765967;-0.0012104429;0.06778235;-0.028588148;0.0959525;0.048593335;-0.055404704;0.04567409;0.04341389;0.101963826;-0.060336873;0.011449521;0.08216272;-0.104025684;0.09941664;-0.024862027;0.084549785;-0.024343519;-0.013802482;0.08829929;-0.06402429;0.015722482;-0.01173309;-0.06600316;-0.019623477;-0.048652075;0.07839128;-0.043736566;-0.0939554;0.042453863;-0.07701506;-0.05552461;0.06878145;0.10598442;0.06277166;-0.027793743;-0.0009791148;0.007860619;-0.076554;-0.018031863;0.047059424;-0.059534382;-0.13865882;-0.06625049;-0.07021643;0.10534763;-0.03312425;-0.050792318;0.011930889;0.015337908;-0.012446321;-0.021920243
0.10717328;-0.10659918;-0.06815857;0.028778996;0.07761056;-0.012985819;-0.066294506;-0.046159364;0.0036340943;0.047037277;0.004644474;0.019718243;-0.056408815;-0.046450227;0.04409551;0.083473675;-0.014939061;0.024984933;-0.027379131;0.077625655;0.00030293525;0.024897091;-0.075535335;-0.07430729;-0.092893645;0.11124814;-0.053524647;-0.031191425;0.11093127;0.04623409;-0.0560834;0.07954969;0.07706772;-0.04878676;0.044799533;0.19624463;0.07740255;-0.020623261;0.051539533;-0.046675347;0.03533603;0.033310577;-0.06103892;-0.014945198;0.07178577;-0.044889808;0.025066063;0.060862828;-0.030930666;-0.04475985;0.037351646;0.0032330656;-0.034918427;-0.09516701;-0.01608894;-0.050676603;-0.06730294;0.0012281098;0.008742621;0.077456705;-0.025272297;0.020373438;-0.004129651;0.04366336;-0.066053025;0.051197138;0.004896339;-0.01979901;-0.06031401;-0.07352036;0.06276241;-0.041942548;-0.06855594;0.06274202;0.08389289;0.088775866;0.034654494;-0.008730842;-0.10601197;-0.0904724;0.11470872;0.027062967;0.010906304;0.08343595;0.06974257;-0.009591946;0.07274659;-0.08986515;-0.05401778;-0.020404328;0.000951896;-0.017354771;0.0025541086;-0.14674832;0.016777944;-0.043629535;-0.035565153;0.010355574;0.08023676;-0.030532002;-0.04673579;0.050704136;-0.08957701;0.013653466;-0.02667826;0.053777967;0.05848509;0.01651006;-0.07916993;-0.067054614;0.060259514;0.09846839;0.020518025;0.01502886;-0.06395006;0.0048885737;-0.0052115354;0.038350046;0.0008823039;0.02340101;-0.014722066;-0.07736273;-0.0034610364;-0.015788333;0.023887994;0.082512245;0.038656097;0.066766135;0.04774031;0.07030524;-0.06816985;0.08695745;0.05226519;-0.034961406;-0.07363126;0.0014765142;-0.010216524;-0.04406485;0.11437584;-0.017992038;-0.060507935;-0.1042665;-0.09034384;-0.013478881;0.09478248;-0.08099557;-0.029763298;-0.029264193;-0.027615987;0.06609846;0.046923246;0.026201826;-0.069779545;-0.05905995;0.021182403;0.03374288;0.025700735;-0.05551356;-0.039101437;0.0051166667;-0.07546797;0.043505598;-0.04206306;0.007150269;-0.0202577;0.03437579;0.007331962;0.08174242;-0.073181376;-0.017544271;-0.14755373;-0.078777924;-0.07386858;0.0715906;0.092652075;0.03616094;-0.06009742;-0.033878516;-0.09742402;-0.07466228;0.1401427;0.070796706;-0.01464586;-0.072921656;0.092905134;0.066215575;0.029663064;-0.097012006;0.042961724;-0.08390692;-0.06759813;-0.038364716;0.004531791;0.05174056;-0.08210967;-0.05486924;-0.056855984;0.0073892917;0.0013165625;0.08759774;0.0033488546;-0.03994801;0.02827996;-0.057112005;0.090187386;-0.08260394;0.09275495;-0.10748967;-0.06178733;-0.04029879;-0.03041085;-0.032637324;0.006543732;-0.071261875;0.01954322;0.09568385;0.04076498;0.053156745;-0.04278208;-0.008817945;0.123318486;-0.05497613;0.0015761553;-0.055386182;-0.006741913;0.040655687;0.09894567;-0.03200361;0.018523104;0.012765716;-0.022425754;0.052563295;0.015708229;-0.0011657014;0.012170749;0.101409614;-0.07869487;-0.0510329;0.044537403;0.047407016;0.038119808;0.04484534;0.073835775;0.017251302;0.031504456;0.04050024;0.09077382;0.026508527;-0.06875223;0.103372134;-0.016351385;0.06959111;0.10367103;0.102327205;0.032685455;0.02416026;-0.072731;0.1018303;0.086378776;-0.060962178;0.052457534;-0.007926368;0.020693256;0.075271584;0.04255596;-0.058758777;0.07217858;0.072331525;0.010907742;0.00864932;-0.050461475;-0.10201658;0.09086917;-0.06479605;0.012852899;0.023985561;0.0060346653;-0.03571495;-0.017314749;-0.0031586385;0.03855796;-0.05375067;0.06914744;-0.022295726;0.07963049;-0.0699976;0.03535784;-0.011640328;0.04632727;0.033364467;-0.055427685;-0.044318788;-0.006625375;0.07634311;-0.0504464;-0.009178313;-0.058640696;0.024138875;0.103365846;-0.019328278;-0.047284313;0.035085406;0.04326352;-0.17044753;0.117523424;0.10610027;-0.10824649;0.032472145;-0.022073308;0.031714186;-0.048457682;-0.0090012755;-0.0585186;0.046724454;0.08143373;-0.13191813;0.08322338;-0.03400304;0.10781686;0.021804707;-0.048154913;-0.0076129953;-0.015182002;0.049164165;0.08187891;-0.10844424;-0.03596493;0.03322364;0.0225359;0.03683261;-0.0047827675;0.041503485;0.05688553;0.04502972;0.08900994;0.06335803;-0.069065474;-0.0017153466;-0.009459104;0.018813167;-0.053807344;0.03196181;-0.04327962;0.01929641;0.003755239;-0.06343401;-0.04647521;-0.074517034;-0.028529769;-0.064738326;-0.015004899;0.111435585;-0.033151805;-0.04647434;-0.02296638;0.049158026;-0.09237464;0.099486254;0.003399047;-0.06730815;-0.05446893;0.0146691;-0.18864587;0.069072336;-0.08739671;0.018528186;0.087470464;0.09842119;0.037155777;-0.0060876235;-0.03160656;-0.035805754;-0.03136875;0.033871017;-0.1035689;-0.0038062565;0.017145874;0.053739212;0.004499876;0.08011733;-0.04413857;-0.013812875;0.045045663;0.048575748;0.07663939;-0.04400993;-0.013594508;0.028564837;0.06573781;0.06964643;-0.067444324;-0.1299699;-0.008066623;-0.11609477;0.014478923;0.028739084;-0.090438746;0.06679445;-0.08696061;0.013799545;0.037501093;0.03235686;-0.07404432;0.028898394;-0.011952407;0.0008702907;-0.042586397;0.038843475;0.03688794;0.017560339;0.04927701;0.068923295;0.06979445;0.03631042;0.04417421;-0.044061165;-0.004319019;-0.044740617;0.055792;0.10873481;0.06705421;-0.038010992;-0.01594279;-0.056278635;0.0023666786;0.005533358;0.021818815;0.10685687;-0.093934715;0.046049275;0.02967495;0.045661204;-0.015890174;0.028697906;0.09057889;0.021542452;0.0020129278;0.01278977;0.08041301;0.17057055;-0.045312308;-0.039427575;0.007360134;0.010503519;-0.042033486;0.08962466;0.03605382;0.0075856983;-0.006455539;0.015089239;0.05459153;-0.027701559;0.028971424;-0.046942137;-0.14239296;-0.043140117;0.007545179;0.050247315;0.011658211;-0.026986837;0.068561725;-0.020692943;-0.06015897;0.066953465;-0.044051997;0.033592284;-0.07800283;0.09810461;-0.07041015;0.034309294;-0.008999664;0.047447864;-0.050080873;-0.051688746;-0.024679666;0.008245479;-0.05085657;-0.042507492;-0.07484189;-0.00809817;-0.086546876;-0.0217929;0.06400594;0.004707247;-0.12014822;-0.004311877;0.016953181;0.09417055;0.0458928;-0.029358035;0.052876316;0.013534451;0.0049046893;-0.19056721;0.03528962;-0.030858843;-0.062481795;0.01774906;0.017000334;0.0023690877;0.020333366;0.0013979737;0.08108278;-0.03538244;-0.0035640046;0.06956243;0.07875868;-0.06011001;-0.053051405;-0.006912291;0.033545315;0.007003545;-0.025480062;-0.008602537;-0.03113766;0.05542808;-0.017022941;0.0053260727;0.0013494218;0.05634248;0.06968586;-0.10236688;0.0024855647;0.07018607;0.043691378;0.05241151;0.07843515;-0.077346615;0.06432483;0.050035026;-0.01595628;0.07726494;0.08183399;0.031137334;-0.03528134;-0.017721893;0.07635113;0.040390354;-0.033682853;-0.06051927;0.02518602;-0.006276176;0.08258221;-0.0074708606;-0.06367642;-0.007346516;0.017893808;0.012992209;-0.008960959;0.09790565;0.08232481;0.066558264;0.03187407;-0.014883294;0.027543295;0.0476476;0.06847192;0.08756567;0.053041864;-0.06455807;0.032388628;0.005353148;0.051627506;-0.06653578;-0.009542087;-0.069114424;-0.09982507;0.038188297;-0.014705991;0.07738064;-0.050408915;-0.11505789;-0.10506315;0.016972221;0.092509285;0.013857348
-0.06069248;-0.03797976;-0.011478929;0.005405889;-0.05934199;-0.029096656;0.09067727;0.02841182;-0.034238406;-0.015560531;-0.051452417;0.081525676;0.09036242;-0.028594904;-0.05805974;-0.004585882;0.02257815;-0.13726853;0.03980234;0.13434455;0.02261741;0.10320147;0.07207473;0.007013764;-0.108562045;0.043941434;0.0019360173;0.077026404;-0.0036341967;-0.10738644;-0.024502987;0.08650588;-0.041376278;-0.029104944;0.033716716;0.16934662;0.065040335;0.0008363583;0.0076265046;0.07617209;-0.07059965;-0.015573881;0.09199162;0.049829442;-0.045945253;0.021073872;-0.022389714;-0.010788242;-0.058761116;-0.03854631;0.062370505;-0.10046727;0.023138842;0.024850074;-0.029899145;0.061280627;0.03695646;0.034453314;-0.022808513;0.053574897;0.020462286;0.038708594;-0.06702639;-0.10170589;-0.15680411;0.06730966;0.00496185;-0.02448334;0.06494445;-0.0063821306;0.08277297;0.04718994;-0.029971147;0.058764778;-0.023154913;-0.016478239;0.0064974586;-0.008975598;-0.14923008;-0.12037901;0.010822399;-6.4044696e-05;-0.049857743;0.0021437618;0.03620217;0.013714488;-0.06248617;-0.07280006;-0.016570386;-0.01258762;-0.033451896;0.047243036;0.09207365;-0.15955454;-0.05766156;-0.07185396;0.12835604;-0.00694366;-0.06043038;0.025859743;0.09707741;-0.09110597;0.051883418;0.047621243;0.0074526896;0.09791308;-0.056543518;0.01488533;0.005593572;-0.006901232;0.086429685;-0.027508384;0.03368173;0.114100754;0.030351052;0.03942089;-0.019990351;-0.06156859;0.07459284;-0.02503154;0.053478222;0.048509076;0.09502081;0.0025702189;-0.015482178;-0.0014705438;-0.10328125;-0.09654003;0.026134288;-0.004722232;0.031422082;-0.0023567823;0.063064225;-0.042612232;-0.020697482;-0.016062777;0.07656774;-0.06276813;0.09017653;0.044164002;-0.07689491;-0.15637153;-0.12419838;0.021404715;0.05734856;0.07680289;0.103496216;0.026455691;-0.039951384;0.06268787;0.04278093;0.056586023;0.06848367;0.012840618;-0.017903969;-0.044394776;-0.00797746;0.1114744;0.031290572;-0.022910414;0.024857566;0.06390348;-0.053196345;-0.050557457;0.08269389;0.025273176;0.051283814;-0.08951504;-0.04146131;0.032865472;-0.04521019;-0.0026341537;-0.069400415;0.14927123;0.018500095;0.042873174;-0.14596987;-0.0023944625;-0.1321903;-0.047099303;-0.05814103;0.10516224;-0.033643905;-0.02095334;-0.033082735;-0.044393376;0.087088436;0.021049416;-0.077991135;0.042971585;-0.052521512;-0.07701206;0.008867883;0.07136434;-0.12342896;-0.08207002;-0.03694368;-0.05682307;-0.034480307;0.02442179;-0.05024019;0.018099347;-0.053965144;-0.04869784;-0.07616111;-0.06558446;-0.036249377;-0.095806636;-0.05877321;-0.025160229;-0.020448875;-0.050114784;-0.032464378;-0.044559333;0.021253765;0.1232349;-0.063470714;0.060280763;-0.053894848;0.007426915;0.037811507;0.017309248;-4.390911e-05;0.01874003;-0.0090674935;-0.016457587;0.08419415;-0.027382582;0.025771145;0.06874871;-0.04331637;0.09417928;0.07058106;-0.04895208;0.0396588;0.037407592;-0.07252907;-0.05276877;0.04188171;-0.022098701;-0.05478314;-0.041631665;0.007492973;0.10630678;0.08131439;-0.036670055;0.009123599;0.10570101;0.019824395;0.062266827;0.018780136;-0.00026707744;0.012597346;-0.0434956;-0.031091727;0.045208868;0.006559412;0.04665678;-0.026167322;0.050845195;-0.06274144;-0.0833952;-0.075523786;0.095396586;0.0918311;0.09908068;-0.029899936;-0.049446627;0.038348965;-0.0766045;-0.028789943;-0.04514078;0.0018729013;-0.010320435;0.07840526;-0.03771382;-0.0777635;-0.043020107;-0.02249709;-0.08729732;0.041953567;-0.01688629;0.06120038;0.0029955725;-0.049333524;0.032858603;-0.031927805;0.055335008;0.12663205;-0.047298707;0.0039970707;0.041817;0.012717635;0.06645818;-0.0765461;0.0018511517;-0.017338809;0.014322407;0.043191314;-0.06400757;-0.033438426;0.00480784;0.029999545;-0.08606833;0.04045813;0.013422818;0.026055666;-0.06492859;-0.07914069;0.041482802;-0.0651652;0.06341028;-0.0075303526;-0.08171287;-0.04409196;-0.15841119;-0.024504604;-0.0054339347;-0.027135542;0.043500233;-0.051652044;-0.08867952;0.0046923514;0.08774749;-0.06375286;-0.11073836;0.051443677;-0.08129846;0.010305528;-0.04477106;0.020516682;0.05047354;-0.07724148;0.03859819;-0.07349596;-0.0021024854;0.028648123;-0.020930484;-0.043453947;0.059774533;-0.020209594;0.027634958;0.065186255;-0.039800987;-0.034518506;-0.023737121;-0.0049865516;-0.049152173;-0.06642431;-0.029632768;-0.030682094;0.027700128;-0.07959928;-0.011973626;-0.002286518;-0.05560949;-0.12305165;-0.07010693;-0.09267434;-0.0059130485;0.05573474;0.0057231286;-0.053297915;0.07615032;0.06706426;0.097242236;-0.035176083;0.12698168;-0.04196211;-0.08494035;-0.03485878;-0.0385293;0.05426521;0.04840598;-0.07546494;0.040362734;-0.032929774;-0.047552977;0.031426866;0.013181982;0.07211706;-0.0014783372;0.06045507;0.062911786;0.09427193;-0.02958964;-0.02614745;3.4880693e-05;0.067886494;0.08024335;0.032497857;-0.04732533;-0.12665625;-0.05468309;0.0067676837;0.040823046;-0.10559544;-0.088364884;-0.021743843;-0.06236546;0.038725603;0.03999012;0.030464934;0.123482004;0.03805196;0.040027276;-0.07562483;-0.03911434;0.07064364;-0.0054007825;0.060869478;0.016001072;0.007096525;0.060202014;-0.07748452;-0.11306265;0.07541389;-0.038566243;0.04134286;0.01883085;-0.03523157;-0.06043321;0.049593788;0.018392814;0.05449133;0.02556262;-0.033797264;0.08162532;-0.085102804;0.022928927;-0.0063670203;0.1078532;-0.034253873;-0.062892646;0.06867578;0.012110696;0.04355942;0.1412224;0.020052122;0.04296247;-0.06377386;0.039628245;-0.057581794;-0.10598254;-0.035236474;-0.06662923;0.010694104;-0.07439513;-0.05346678;-0.020842103;-0.078340456;0.057312995;-0.07003899;1.714802e-05;-0.1577819;-0.05776685;0.025426067;0.04264533;0.016802873;0.02011205;-0.022632085;-0.0020029233;0.033338174;-0.041585814;-0.055092398;0.0024771914;-0.05688667;0.014926417;0.022236967;-0.015037807;-0.066827446;0.056171414;-0.065154836;-0.019686438;0.01892289;0.070840575;0.019385744;-0.053842235;-0.07730728;-0.025593627;0.030101445;0.058157627;-0.07276388;0.031801343;-0.07781319;-0.042025197;0.046328552;0.04700302;-0.059557565;0.037715536;0.0029030642;0.04749933;-0.060380194;-0.04773273;0.05862697;-0.09836973;-0.018471766;-0.00701513;-0.0009803216;0.13832402;0.0505987;-0.023216523;-0.033413034;0.02862015;0.07358681;-0.05894061;0.050739042;-0.061899327;0.09487536;-0.09168511;-0.08777772;0.1160411;-0.044922408;-0.099154994;-0.06323285;-0.016050527;-0.05443663;0.010513669;-0.014646138;0.0062102545;0.064809956;-0.036841527;-0.083281666;-0.04578153;-7.683881e-05;0.031598672;0.079201624;0.060768645;0.11339328;0.0058895103;0.04471764;0.00834802;0.048395567;0.055493265;0.031408668;0.066937216;0.07183924;-0.004378338;0.064779;0.066700295;-0.046676748;-0.08473026;-0.05961349;0.063683264;0.09029899;-0.057787888;0.024683865;0.06554218;0.06960854;0.05463841;-0.057208985;0.05473814;-0.06357487;-0.036318872;0.07433234;-0.021805182;0.052005164;0.031494193;-0.03138003;0.06955009;0.019598123;-0.122011416;0.062312644;-0.016496409;0.027680926;-0.011022145;-0.1385764;0.12797661;-0.13638774;0.07062299;0.02486889;-0.123335555;0.09137793;-0.06355992;-0.008465025;-0.013414751
-0.002759827;-0.09000218;-0.06006453;-0.034437962;-0.015547848;-0.073992684;0.13094757;-0.03847572;0.047313046;-0.015727604;0.05275571;-0.0052724723;0.0096447505;0.07881256;-0.061912112;-0.07883482;-0.07294625;-0.05512635;-0.031561725;0.091277674;0.041925397;0.047479115;-0.06759103;0.10467523;-0.033243787;0.01856312;-0.03697028;0.02629363;-0.010358463;-0.069989875;-0.005414302;0.06748778;-0.058900278;0.011162916;0.045045543;0.08804143;0.070321724;-0.05649632;-0.059264373;0.07261697;-0.06831801;0.07439633;-0.032454815;-0.030469952;-0.009384891;0.028229937;-0.01748769;-0.033203103;0.035818025;0.07819997;0.014798569;0.013904291;0.03435957;0.007761582;0.025796667;0.020366985;-0.072296485;0.04005054;0.085065596;0.021083433;0.06298687;-0.064268045;-0.029689644;-0.02200835;-0.12476521;0.016264766;-0.06702504;-0.0553871;0.019381858;-0.055311184;0.07959211;-0.07758615;0.011283785;-0.0417608;0.097782336;-0.07474126;-0.0506568;0.04526843;-0.18447803;-0.0762582;0.07714349;-0.041386858;0.027116355;-0.072756946;-0.07147565;-0.028201979;-0.035089355;0.0014348091;-0.032355238;-0.04415461;-0.017816573;0.052107416;-0.06337324;-0.15844028;-0.06358539;0.06565194;-0.058697004;-0.089026175;0.017102811;0.03354738;0.04882786;-0.07798452;-0.043534704;-0.022020884;0.023708453;-0.03164095;0.012142981;0.05797364;0.06875319;-0.02798873;-0.01584856;0.03061794;-0.02350691;0.10457251;0.079806685;0.009072957;-0.043527946;0.066544116;0.038177844;-0.0009190251;-0.049462594;-0.03377692;-0.015655553;-0.09270785;-0.015379237;0.063674994;-0.0070116087;-0.022030504;-0.047386613;-0.023122303;0.044411927;-0.016378887;-0.0031393487;0.04597967;-0.005289296;0.01778664;0.11419068;-0.03618991;0.071188755;0.005549958;-0.08740439;-0.16814578;-0.15045439;0.050975297;0.13142307;-0.07343936;-0.017397445;0.029982304;0.04756403;-0.0031653072;0.06579198;-0.03681639;0.07037391;0.11492851;-0.08070094;0.008920358;0.03926055;0.087867916;0.017133098;0.04583008;-0.02979795;-0.0066172024;0.021874538;0.084289216;0.036007445;0.023455774;0.034537695;-0.07634534;0.0015651013;-0.020747244;-0.10633892;0.10836427;0.035895493;0.049499687;0.0018972161;-0.026480637;-0.12709768;0.029484322;-0.13759403;-0.0008783886;-0.010266141;0.046438884;0.017607842;-0.039950993;0.050267078;0.040630437;0.054776695;-0.06501942;-0.08560614;-0.009620273;0.040890012;0.052899756;-0.07161348;-0.040419176;-0.027055912;-0.048203062;-0.023476336;0.048668887;-0.03033879;-0.045000482;0.02397575;-0.05837665;-0.018361472;0.036866315;0.057073895;-0.061046187;-0.057689644;-0.096837796;-0.010271193;0.044784058;-0.08359621;0.06785158;0.01310442;0.014778735;0.065282;0.041419398;-0.07685659;0.025107335;-0.027973777;0.038257215;0.09334909;-0.037719525;0.017006561;0.0023234596;0.046713214;0.03425039;0.06386219;0.07918553;0.07412264;-0.0022602011;-0.065281115;0.012060611;0.031957325;-0.020405062;0.03702681;0.14992577;0.07039668;0.03113553;0.096076205;0.030028142;-0.06432106;0.06254146;0.019344471;-0.072975755;0.024218846;0.018928561;-0.015833423;0.078210525;0.037121635;-0.033963855;-0.060056396;0.043197554;-0.0303372;0.028584687;0.040906988;-0.004961665;0.055576503;0.064789556;-0.0014746089;0.062236894;-0.057277896;0.007258118;-0.037593007;0.041585866;0.042184945;0.1043306;0.08243453;0.02917485;0.035463504;-0.015880838;0.06828098;-0.00096632837;0.025470132;0.06060697;0.022087106;-0.042984277;-0.051852133;-0.016627358;-0.0050163176;-0.024055015;0.050201844;-0.046531856;-0.05643061;0.020072116;-0.068047084;-0.06305446;0.05932293;0.027874688;0.10726387;-0.010495283;-0.070903204;-0.12080456;0.016049972;0.03660609;-0.056320146;0.10737037;0.058889773;0.047378726;-0.021479057;0.06777697;-0.07169933;-0.011700456;-0.07326415;-0.12427041;-0.055166017;0.18665457;0.009145923;-0.013975775;0.07829114;-0.032879297;-0.082629584;0.09039226;-0.07981682;-0.031837706;0.066089496;-0.0386963;-0.039170455;0.07918493;-0.04903655;-0.03481329;0.02577244;-0.036313463;0.013982542;0.021565203;0.07378909;-0.019686997;0.020100767;-0.07452976;0.0066398853;-0.056789093;0.0088254735;-0.047367554;-0.07219416;-0.05040021;-0.013460533;-0.03251008;0.07000209;0.0049318736;-0.02718207;-0.07786319;0.032494035;-0.062006555;-0.008933395;0.027756432;-0.06711473;-0.08652079;-0.09001083;0.082111746;0.018590929;0.057807762;0.014714737;0.00060659746;0.059082374;-0.0061962865;-0.034088794;0.06522005;-0.17489825;0.03457229;-0.0037727857;-0.0015303512;-0.035082176;0.04635609;-0.06496334;0.07937363;0.049911793;-0.014008573;0.08200552;0.02379715;-0.011672333;-0.059861112;-0.07946779;-0.040699087;0.08515396;-0.033724632;-0.037987582;-0.053612888;0.0026497387;-0.05759053;-0.055919006;0.08455181;-0.026881909;-0.017508153;-0.0038176524;0.04815585;0.06784429;-0.020652965;-0.007079298;0.035390917;-0.043585084;0.06866317;-0.009697376;0.044732068;-0.110105485;-0.1525602;0.11387763;0.045302708;-0.16420557;-0.021870244;-0.026186176;-0.031889915;0.033361368;0.08341157;0.03803245;-0.00772236;-0.07755659;-0.008968198;0.067081295;-0.020452688;-0.027187238;-0.023690825;0.06868711;-0.07766434;-0.08070042;-0.08113138;-0.02808852;-0.026582882;-0.019067725;0.045431532;0.011717379;0.05981368;0.007806634;0.004260974;-0.07088481;-0.008608227;0.008080005;-0.040522803;0.025479998;0.024085425;0.0019013324;-0.02300948;-0.027525973;0.096366055;0.034335233;-0.017881654;-0.07881763;-0.0594038;0.045048513;0.11150827;0.07047078;0.0093853865;0.045306087;0.038783018;-0.0064190226;-0.08665553;-0.013905082;-0.046877597;0.042735204;0.0003423883;-0.073458284;-0.12223615;-0.059669267;0.08105561;-0.088826306;-0.036333557;-0.15952367;-0.074901685;0.007856576;-0.027785247;0.018240158;-0.09612137;-0.06091112;0.012975471;-0.057254106;0.054128736;-0.0003605948;-0.03898139;-0.019046417;0.044341724;-0.068254545;-0.00088955514;-0.025572665;-0.1293278;-0.1252953;-0.0324109;0.09636803;0.09481221;-0.0224962;-0.023442797;0.05121137;-0.008447907;0.020813687;-0.0804189;-0.03590636;0.06532788;-0.1590039;0.0907035;0.026446296;0.008993555;0.047920313;-0.025771433;0.05548999;0.1335885;0.042505343;-0.1316241;0.06353929;-0.049550235;-0.068526864;-0.0060164644;0.13018875;0.007244133;0.057895824;0.04799548;-0.036029145;0.06477754;0.042310573;0.064383596;0.04288829;0.051396172;-0.021052007;-0.107250884;0.06444737;0.05889791;-0.111313574;-0.006218535;0.015391979;-0.07746914;-0.06309458;-0.030057;-0.07135102;-0.01600476;-0.070068024;0.012788538;-0.012661918;-0.035175048;0.0859002;0.07475679;0.052766766;0.06517865;0.033291154;0.024054557;0.10601114;0.020816507;0.08361429;-0.14388084;-0.049554545;-0.06644112;0.03502161;-0.095874846;-0.037493203;-0.0030041724;0.030216416;-0.0026718786;-0.011194973;-0.029990528;-0.019805422;0.0044337236;3.964809e-05;0.043824848;-0.038165204;0.016638624;-0.058860127;-0.039364073;0.04333658;-0.050949108;0.023734773;0.069430344;-0.0471854;-0.035592895;0.03562373;-0.08199489;-0.02952846;-0.18876179;0.07425954;0.11168995;0.064378366;-0.0011480125;-0.08635311;0.08506223;-0.1517494;-0.011641942;0.042832255;-0.11198083;0.09143496;0.033117324;0.0623543;0.0015497132
0.036550358;0.026349803;-0.1244419;-0.014502782;0.016041826;0.023020092;-0.033639893;-0.02659384;0.07213568;0.070300914;-0.055107582;0.053454287;0.076529324;-0.060734037;0.010814807;0.047262564;-0.09748737;-0.03927783;0.0035549044;0.13215479;-0.010753037;0.112275764;0.09695555;-0.04520121;-0.018904649;0.054616857;0.06497427;0.06482049;0.071250975;-0.04955028;-0.032488436;0.08692463;-0.050760254;0.12567514;0.056229535;0.11252512;0.046032943;0.060823172;0.07058104;-0.00687489;0.0694007;0.0023392423;0.0033228835;-0.0032915545;-0.012274244;-0.04665027;-0.042899847;0.020898925;0.06952985;-0.0656172;-0.018804684;-0.109666444;0.01481648;0.10025309;0.009592905;0.101503626;-0.018029924;-0.08419231;0.08353777;0.1113612;0.05699246;0.025949595;-0.14424951;-0.020683363;-0.09132824;-0.019869676;0.012272214;0.028480416;0.031188816;-0.06876202;0.098055586;0.004994026;-0.1376532;-0.04807319;0.08374752;-0.052978832;0.028944789;-0.06979811;-0.110082425;-0.049819972;-0.021161765;-0.07889298;-0.02060487;-0.02606891;0.052418064;-0.010633488;0.03944688;8.732472e-05;-0.06249186;-0.0016186546;0.018300561;0.03627248;-0.009881182;-0.032097407;-0.029079752;-0.0329586;-0.032097813;-0.07984076;0.09077214;-0.05663028;0.090552084;0.04424306;0.075434655;-0.07364558;-0.031372603;-0.04816355;-0.038363185;-0.046565067;0.08216933;-0.065430656;0.09923108;-0.07194722;-0.08157666;0.017566353;0.07074182;-0.0036934877;-0.0679733;0.021388488;-0.006935605;-0.021466102;-0.030789994;-0.097108714;0.060809165;0.026935788;0.07495055;0.067887805;-0.022756092;0.03918963;-0.041919902;0.03719774;-0.05853001;-0.0077427155;-0.07546367;0.06416242;-0.049219944;-0.011989846;-0.009174932;-0.12963863;0.07250251;-0.028388852;-0.024539566;-0.06823312;-0.021725638;0.055735976;0.14108005;0.04691607;0.068891145;0.009176631;0.050933808;-0.051306516;0.06553886;0.0036453314;-0.043650664;-0.04487609;-0.089327484;-0.04571216;-0.039905783;0.0052472944;0.022856722;0.122885734;-0.03423368;0.049987495;0.07872193;0.02516519;-0.04849565;0.038625993;-0.05280721;-0.05633275;-0.0072753443;0.03906153;-0.1582012;-0.071417;-0.06514694;0.06411441;0.072254926;0.014647829;-0.031900194;-0.075781256;3.4362583e-05;0.04399125;-0.075566225;0.0275904;0.01002819;-0.011179898;-0.08316663;-0.006533857;-0.08324161;0.028948637;0.005012848;0.04164854;-0.031043258;-0.08455782;0.02167546;0.0567458;-0.12712294;-0.045673117;-0.052027773;-0.03660223;-0.006362841;-0.068609804;-0.067372575;-0.01250765;-0.019793034;-0.083704576;0.02737991;-0.04419961;0.06858038;0.036235016;-0.125774;-0.05082421;0.019938651;-0.06724634;0.006558754;0.0100970715;0.0022963076;0.118848264;-0.081236094;0.09566076;-0.017164025;-0.05900986;0.0026139603;-0.039789096;-0.043563254;-0.04430869;-0.038402792;0.035878334;0.04443972;0.08310345;-0.031000206;-0.047883444;0.036344465;0.100135155;-0.030998947;0.06435958;-0.047402214;0.0148396315;-0.08154568;0.10915035;-0.058366828;-0.08607512;-0.07070661;0.05448173;-0.032121353;0.0686058;-0.058546692;0.036168866;0.04439363;-0.002702019;-0.08898883;-0.054017566;0.06410182;0.0041545746;0.033189397;-0.025043862;-0.014870253;-0.020559162;0.016784301;-0.023456639;0.071131214;0.045956247;-0.02173973;0.0479843;-0.0060983426;0.05503011;-0.059864573;0.023142312;0.0840867;0.061351024;0.06339178;0.011585514;-0.07586393;-0.027082054;0.082431845;0.019945253;0.13817239;0.06175991;0.022265516;-0.08201062;-0.020223022;-0.10550593;-0.060907118;-0.060883246;0.042275563;0.054541685;0.0830399;0.08499189;0.012528167;-0.007917402;0.046522696;0.00028033776;0.013599578;-0.021463946;0.064570725;0.0043383;-0.013315254;0.09726694;0.032404736;0.02424734;0.019320553;0.029869325;-0.048759345;-0.06347415;-0.063283205;-0.0010368691;-0.018721854;0.007901111;-0.0915755;-0.042546794;0.092921995;-0.046690293;-0.022732876;0.022269763;0.004018948;0.02361452;-0.0030259914;-0.13902915;0.01711232;-0.070803575;0.05629046;0.079006776;0.014953967;-0.063438326;-0.027913498;0.025617536;-0.03242905;0.07147241;-0.03046344;0.021677906;-0.017981257;-0.091788016;-0.049414255;-0.08639767;-0.05325812;0.06082662;0.015385157;-0.024755644;-0.008675959;-0.053388998;-0.04150553;-0.051632103;-0.0018590289;-0.040140856;0.05404482;-0.002803178;0.044184543;-0.04881584;-0.035537835;0.004196478;-0.06342503;0.014467113;-0.0530616;0.065003425;-0.064629495;0.085043736;-0.061751883;0.004373494;-0.10340414;-0.08601526;0.049406722;0.0032271957;-0.011415042;-0.051668204;-0.045357876;0.09497573;0.0616794;0.07018567;-0.0081716105;0.104977526;-0.02398078;0.05232608;-0.002328391;-0.06597575;0.032796748;0.025327338;-0.005915949;-0.036473647;0.060479607;-0.031993948;-0.0018527542;-0.015492521;0.009811147;0.022978485;0.022021234;0.00032726576;0.13463296;-0.008894155;-0.044926815;0.016034557;-0.033118293;0.03356381;-0.012338635;0.028796421;-0.15470646;0.042243443;0.04702798;-0.06496608;0.0030355044;-0.08223202;-0.10715623;-0.02230877;-0.056322306;0.051025707;-0.06255835;-0.0050728037;0.022058807;-0.028887583;0.068638965;0.058192164;-0.08430248;0.028674725;-0.0035644325;0.055592358;-0.027360823;-0.03769484;-0.045287233;-0.03661717;0.00880579;-0.055541474;0.059489988;0.05548343;-0.044785097;0.015062721;-0.02558176;-0.055878762;0.02652011;-0.054384477;0.052479267;-0.034677744;-0.07979845;0.0145203965;0.04787636;0.013052091;-0.080208756;-0.071098045;0.04880421;-0.032663397;-0.054837503;0.063130274;0.023474481;0.11309418;0.06349419;0.10234484;-0.05885887;0.014534304;-0.08684619;0.04628797;-0.06057827;0.07747769;0.024130568;0.008129986;0.04938325;-0.018824572;-0.081772394;-0.046473715;-0.01836501;-0.016133936;-0.043669224;0.03714902;0.027920352;-0.06264311;0.019504694;0.045478355;-0.01558487;-0.04165764;-0.04006974;-0.031072896;0.08011045;0.06208614;0.113356814;0.08287189;-0.036088753;-0.1264844;-0.1916171;-0.038587406;0.06609414;0.07543586;-0.0022102902;0.053619526;0.06523939;0.081479765;-0.06628695;0.046284884;0.017623547;0.013099521;-0.054514572;-0.05910091;-0.037475165;-0.079488754;-0.13941921;-0.08007566;0.003171614;-0.03930909;0.048662137;-0.10619489;-0.073111124;0.04008643;-0.041548323;0.004329863;0.03891053;0.08136559;-0.02534914;0.013718482;0.02863722;0.04236887;-0.012037799;0.069493264;-0.04980863;-0.021049267;-0.058714874;-0.08846175;-0.08471215;0.07357154;0.030020814;-0.020787474;-0.03548494;-0.0073169344;-0.024555316;-0.07093384;-0.041059032;0.067750685;-0.053137396;-0.06101924;0.06612907;0.04368099;0.05610668;-0.06745263;-0.04257478;0.08983918;0.11460967;0.068089455;0.04084873;-0.048482522;0.0066517023;-0.067870766;0.074503765;-0.05290608;-3.8147322e-05;-0.07311412;0.07405764;-0.035075225;-0.09388116;0.06548403;0.034359347;-0.023771841;-0.015944276;-0.014506268;-0.06643946;-0.06431035;0.076174445;0.08103154;-0.021954006;-0.011310004;-0.059868675;-0.058397874;-0.051573083;0.07195311;-0.06251058;0.06637638;0.052314952;0.012245321;0.010334225;-0.17614727;0.0440595;0.09520844;-0.05397525;0.010524361;-0.061916213;0.05858897;-0.07833795;-0.036238194;-0.059691224;-0.14434718;0.087641165;-0.06982843;0.0026358045;-0.0054981806
0.062621824;-0.07679841;0.004425591;-0.059257627;-0.00927859;-0.051708095;-0.048098493;0.016939208;0.015788257;-0.024972856;-0.054146614;0.02223887;-0.03625083;-0.01459417;-0.046263117;-0.002603632;0.013723341;0.041907687;-0.045385584;0.13672073;-0.018500486;0.07657129;-0.07068959;-0.05149652;-0.015983379;0.16985585;-0.04706636;0.098705314;0.034959696;-0.12814468;-0.013257051;0.053722482;-0.009306934;0.08143574;0.089190334;0.213063;-0.008135544;-0.05811612;0.10260136;0.018320384;0.054771185;0.08268969;-0.04066186;0.008025967;0.040892236;-0.07815456;0.06344013;0.082566716;-0.03621336;-0.023147115;0.04326224;-0.055058327;-0.070862815;0.07888073;0.0066833645;0.078001365;0.0047981357;0.05779835;-0.0022290663;0.040249787;0.019579764;0.011852102;-0.10531847;0.06260788;-0.11433829;-0.057166744;0.01354056;-0.044378094;-0.0630727;-0.059148345;0.033594545;0.005004786;-0.096535146;0.039442472;0.07841445;-0.04184578;-0.059022363;-0.046545684;-0.13771777;-0.0021478513;0.08235646;0.027093025;-0.08468371;0.03329101;-0.051805492;0.07403323;-0.048256435;-0.04582825;-0.036866184;-0.0029836844;-0.07368501;0.0322386;0.0060338858;-0.050350085;-0.04986635;-0.0786137;-0.055414032;-0.029051391;0.059759844;0.012815425;0.004738633;0.030629545;-0.078641646;-0.07068011;0.06563904;-0.027214775;0.0034715454;-0.043347273;-0.07034119;-0.060134813;0.03361235;0.013261791;-0.045472495;0.011874463;-0.05774558;0.013913689;0.022784945;-0.046115514;0.04009924;0.08158398;-0.06720918;0.035076775;0.063818626;0.011447609;-0.01491383;-0.01363163;-0.027364679;0.049337983;-0.069561325;-0.07981517;-0.018123118;-0.051315844;0.0739597;-0.032906737;-0.050391182;-0.029939314;0.029328443;-0.040048253;0.037488453;-0.05096766;-0.08351921;-0.012382854;-0.019486057;0.0056026047;0.020630576;0.055016477;-0.08489516;-0.010575108;0.11004411;-0.035593428;-0.0830877;-0.053030323;0.008818503;0.020629503;-0.049664542;-0.06475729;-0.09162345;0.011106968;0.032766633;0.087884374;-0.022423973;-0.059537333;-0.054711703;0.043030117;-0.09116195;-0.016058002;0.07705292;-0.053109977;-0.058040548;-0.00094024144;-0.16773123;0.024288261;0.0005028343;0.11089159;0.026111722;0.042270835;-0.008713005;0.0025923916;-0.14159909;-0.07438277;0.08883035;0.011865259;0.061437666;0.030230345;-0.006724516;0.039666254;-0.044002634;-0.031815983;0.030644925;0.053709522;0.05855246;0.040847674;0.056670286;-0.07384767;-0.025680793;-0.0013162707;-0.011061414;0.032777183;0.0036026726;-0.050039306;0.0015467562;0.05011006;0.03035213;0.0024792838;-0.058030784;-0.022419997;0.04330003;-0.07343275;0.008376555;0.040822726;0.056013163;0.0015547528;0.026137553;-0.0025608493;0.0020488845;0.07639974;0.022293188;0.03794486;0.0027393473;-0.03156023;0.03667237;-0.047229253;-0.055002097;0.017714808;0.0012913126;-0.061242603;0.0935373;0.07732258;-0.020740153;0.04018818;0.06675061;0.0048775566;0.07034529;0.040903054;-0.010284575;0.056654874;-0.021238355;0.08935688;-0.060183693;-0.070287116;0.022257514;-0.013412819;0.064321265;0.00485176;-0.06802548;0.061258096;0.009276767;0.0019248306;-0.04354406;-0.0036391453;-0.0076223942;0.026185859;0.078199625;-0.08759009;0.0074657095;0.028141888;0.04483771;-0.06493095;0.08846621;0.052173052;0.1270823;0.00652909;0.019018589;-0.04976946;-0.05377196;0.0046087573;0.017801719;-0.0011771641;0.080410674;0.0834152;0.011602708;0.01860858;-0.057342455;0.045171186;0.13401802;0.06329198;0.052002605;0.050890148;0.027786825;0.0059154388;-0.025898578;-0.016216531;0.029044313;-0.023271808;0.059622608;-0.012152316;-0.017306868;0.072797775;0.004772516;0.053633966;-0.10320898;-0.079298764;-0.018362992;0.048141014;-0.030861344;0.051280905;-0.059629936;-0.049062483;0.031323154;-0.056498583;0.06712478;-0.08184659;0.07236094;-0.036529124;0.12800202;-0.04891693;-0.04501645;0.029750025;0.05155206;0.011376165;-0.043163523;-0.008988329;0.06722301;0.037590012;0.031231062;-0.04496289;0.016426625;-0.016026812;0.008576703;0.02790205;0.027642174;-0.06169257;-0.081410766;-0.01799734;-0.038891736;0.03280564;-0.08194894;-0.06322385;0.012747883;-0.05084558;0.01471289;-0.07020771;-0.027563173;-0.057429217;-0.0633828;-0.017529193;-0.069489725;-0.020999242;-0.008685328;-0.03329845;0.038809925;-0.0130583625;0.010302339;0.060201142;-0.006467983;-0.04296484;0.016440671;0.045330983;0.06760995;0.005527042;-0.10351113;-0.071537346;-0.01512444;0.007756488;-0.089322686;0.13349612;-0.099733934;-0.011947482;-0.0060195196;0.07910305;0.066143714;0.004316454;-0.057904787;-0.0035588187;0.056402434;-0.012352305;0.055050686;0.03431433;0.0026870044;0.05341184;0.023518404;-0.01008245;-0.02086395;0.037029415;-0.008352059;-0.043492444;0.022208598;0.047144964;0.008620691;0.053143386;0.026924636;0.058611333;-0.05802009;-0.021989848;0.14060381;0.044279777;0.09356802;0.06309074;0.032629866;0.043482907;-0.028351134;-0.014888648;-0.08895811;-0.076772265;0.070882626;-0.06130881;-0.02690564;0.018102314;-0.033428825;-0.02135081;0.020803578;-0.015251448;-0.03263677;0.033464972;0.009867629;-0.034532677;-0.07990868;0.032952037;-0.109502375;0.094239004;0.056225706;0.020774383;0.04046655;-0.03073326;0.046903476;-0.087117285;-0.05130805;-0.015067807;-0.050770227;-0.018052302;0.025098637;0.07465259;0.006520983;0.07833691;0.04451018;-0.04982049;-0.03755927;0.047516014;-0.10060687;0.027572459;0.026249912;0.047459677;0.06454493;-0.0040152213;-0.0696646;-0.026364986;0.020885572;-0.045763716;-0.010760206;0.045643985;0.068539806;0.0012764032;-0.08624928;-0.09695532;-0.02381613;0.08804763;-0.09068203;0.012672124;-0.056512956;0.07687532;-0.031734902;0.036324665;-0.011823916;-0.057517447;-0.09249653;0.047592815;0.062112257;-0.087611884;-0.05302972;0.06878162;0.023794169;-0.02887756;0.02914136;-0.030161986;-0.02466605;0.080550455;-0.033203848;0.083712265;0.073938645;0.057912137;-0.096282504;-0.0761876;-0.041165728;-0.05098998;-0.071472935;0.08153781;0.007709794;-0.017343514;-0.041419767;0.08431744;0.009312643;-0.07757447;0.007386737;-0.07102652;-0.16245615;0.0822953;-0.010712038;0.05605125;-0.094739005;-0.057071783;0.012351721;0.10623783;0.049885746;-0.041933108;-0.057815313;-0.03274247;-0.014969885;-0.032263767;0.020864397;0.002367966;0.035950236;0.035009556;0.008833817;-0.038421605;0.044889677;-0.040000185;-0.03205159;0.055692244;0.058425527;-0.061347477;-0.024317723;0.06400182;-0.10673311;0.0007363204;-0.073464975;0.0023923174;-0.08378042;0.095931396;-0.14789385;-0.02418114;0.024010431;-0.060832266;-0.0050340034;0.05700802;-0.030615857;-0.056367107;0.056393426;-0.08140056;0.051310837;0.017796025;-0.020130685;-0.01719464;-0.0066248938;-0.10676203;0.05515924;-0.05737548;0.060398456;0.050624922;0.061075706;0.014933938;-0.050136648;0.058871154;0.005910216;0.02635658;-0.038215905;0.049629897;-0.06007917;-0.04343418;-0.045463957;0.07366184;-0.061946712;-0.0018634542;0.03995858;0.015497551;-0.04136051;-0.031505104;-0.0041502076;0.07045391;0.072374456;-0.03892622;-0.036507457;-0.17027833;-0.06168172;0.065726146;-0.07894199;-0.054084048;-0.084515564;0.053348426;-0.15795179;0.124738574;0.0028190447;-0.0205314;0.07456066;-0.023334613;0.0098250415;-0.0033132704
0.047902685;0.03634636;-0.11527986;-0.0059582815;0.03357313;0.06998266;0.03545833;-0.008628314;-0.015722698;0.039833866;0.05891887;0.023670953;0.010505635;-0.04577808;0.05122723;0.051297914;-0.02451095;0.103803165;-0.099535316;0.07934506;-0.038063355;0.045720253;0.002143401;0.018273726;0.01180762;0.09072636;0.07626489;-0.0023598464;0.0054611294;-0.1796901;-0.058899272;0.031750664;0.075055145;0.041875344;0.011251411;0.1001134;0.0501832;-0.05484177;0.057577156;-0.069095336;0.031367935;0.047436733;0.004233895;-0.029999858;0.03810634;-0.032870755;0.0030647952;-0.04705991;0.043494806;0.05837985;-0.048384458;0.022967214;-0.07417557;-0.023825845;-0.06013546;0.11372571;-0.021850213;-0.02558914;0.07708736;-0.028704345;-0.011371487;-0.04753402;0.032660123;-0.033503264;-0.040016253;0.06469322;-0.08578669;-0.048356272;0.08179424;-0.07449381;0.016843673;0.057646815;-0.16220862;-0.037236847;-0.014210151;0.050528847;-0.08503332;-0.06607365;-0.16702054;0.019684033;0.043574307;0.025006518;0.026843831;-0.046627052;-0.09815178;0.09584889;-0.013986623;-0.057406798;-0.023740264;0.057359423;-0.03292539;0.03877292;0.016717138;-0.13597554;0.0014089738;0.034861706;-0.024952026;0.014907996;0.072296776;-0.05871033;-0.005924146;-0.016692743;-0.07486221;-0.07443047;0.025449416;0.0013567697;0.0070280903;-0.050784584;-0.033321556;0.038195413;-0.010944533;-0.051930368;0.012731231;0.0027735063;-0.013674266;-0.04448722;-0.032217227;-0.06309366;0.088124745;0.04262836;-0.08063165;-0.00011865059;0.0028726493;0.031711;-0.012571143;0.06644228;0.031971976;-0.02846895;-0.042948343;0.007998767;0.025266442;-0.08063559;0.06601664;-0.025321778;-0.06924573;-0.058894258;0.047875997;0.09598811;-0.055158798;0.018640844;0.04170342;-0.10707313;-0.047682695;-0.03612125;0.022960424;-0.015979707;0.028397951;-0.027063187;0.04565116;0.09505537;0.01004621;0.0016770517;0.056383256;-0.07680371;-0.071515374;-0.010019209;-0.01246954;-0.031239418;-0.05788573;0.13727562;-0.008822894;-0.03972747;-0.046337675;0.048476156;-0.025403565;-0.07934507;0.01435347;0.052804474;0.03131408;-0.01954659;-0.04701163;-0.0430437;-0.09008266;0.09213438;-0.043947782;0.06637727;-0.14756183;0.0323697;-0.08625977;0.03824018;-0.07044347;0.017829971;-0.012148444;0.050862387;0.021347314;0.042268377;0.0006702547;-0.0016910429;0.028142143;0.003344942;-0.11171839;-0.04156227;-0.024058461;0.05141669;-0.015235745;0.078265555;-0.04303289;-0.042293116;-0.077819206;0.059791565;0.0777323;0.01291863;0.060323685;0.029203324;-0.05528448;-0.021090714;-0.005887124;-0.11813999;-0.06176594;0.049029253;0.04530393;-0.010384862;0.082027584;0.05611864;-0.06960883;-0.044954624;-0.023665514;0.07816331;0.014504778;-0.06563506;0.025127469;0.003948815;-0.04221149;-0.01727677;-0.04942256;-0.025110627;0.06911152;0.04752097;-0.06912295;-0.05554784;-0.041359957;0.073167324;-0.05335456;0.055358034;-0.03812577;0.08345871;0.070230305;0.08694518;0.048550848;0.12030598;0.026791342;-0.009150417;-0.088627405;-0.08630976;-0.039179396;0.10729433;-0.05893949;0.018797312;-0.036103833;-0.030656952;-0.007777959;-0.00487503;0.06341821;-0.041569807;0.025738915;0.07228425;0.017056521;0.049177133;0.05586698;-0.0037101177;0.036706384;-0.04487677;0.023035908;-0.0854388;-0.013884232;-0.018173942;0.007715223;-0.047694605;0.09994287;0.031311832;0.010214347;-0.01244422;0.027754882;0.030386;0.14347869;0.012428323;-0.040185187;-0.08339638;-0.04428909;-0.061839968;-0.024640573;0.08738572;-0.068279035;-0.044718042;0.007223842;0.039498754;-0.057475753;-0.07912606;-0.037515305;0.018447436;-0.040827643;0.040368013;0.1021508;0.05835678;-0.09128945;-0.054123987;-0.038989354;-0.07402518;0.10242336;-0.011602699;-0.020204451;0.013461691;-0.02803515;-0.108324684;0.03848977;-0.0070138625;-0.03386061;0.095353045;0.04317633;-0.0647894;0.030608917;0.0062352885;-0.066688836;0.039433043;-0.02897032;-0.11376612;-0.06931503;-0.04761354;-0.015314869;-0.044624902;-0.054518178;-0.006877491;0.004679348;0.025922418;-0.038510345;0.033064008;-0.0727279;0.06136535;0.011933252;-0.08105645;-0.07541009;-0.019182788;0.03177203;0.07372228;0.017834859;-0.021268843;-0.05039979;0.030386908;-0.08437512;-0.0606633;0.03310705;-0.011344845;0.06518075;-0.013639031;0.048202332;-0.04931424;0.05343689;0.0034690606;0.038715314;0.042367086;-0.0061581996;-0.086482316;0.07112711;0.089496285;0.012943276;0.07282167;-0.11125559;-0.04155891;0.031516716;-0.018520044;-0.07154608;-0.038096916;-0.12195028;-0.036725476;0.055211823;0.047174208;-0.07867195;0.12013523;0.10820149;0.025428653;0.03882555;-0.06314409;0.041370086;0.014008455;0.06342226;-0.056709837;0.015534408;0.108899996;0.0414652;-0.03399631;-0.026714286;-0.03253906;0.014819576;0.05072407;0.14512676;0.051105514;-0.06075308;-0.063229606;-0.06536814;0.080361865;-0.08389041;-0.080785386;-0.17797606;-0.030482646;0.096089266;0.0805211;-0.012361405;0.026580835;-0.06360475;-0.006712505;0.056007106;0.06536099;-0.004523231;0.09618264;0.05214784;0.058986023;0.07217091;0.05738482;0.02123906;0.023920735;-0.012546429;0.0045420444;0.00257214;-0.016131189;-0.08931856;-0.16004272;0.020374943;-0.08634893;-0.018600348;0.057126783;-0.0642998;0.07062079;-0.041821163;0.042180993;0.063834295;-0.027355317;-0.052917156;-0.027021654;0.011228085;-0.076996915;-0.052672677;-0.03575862;-0.012635629;-0.1340099;0.056769382;0.03190441;-0.06000841;0.01960686;-0.053158186;0.03841752;-0.036259864;-0.07942919;-0.0062132976;-0.04527348;0.039510787;-0.07064855;0.051132515;-0.08450426;0.079738446;0.005264226;0.07003696;0.07108047;-0.10821919;0.0551974;0.0058223945;-0.06669422;0.052069608;0.027985647;0.0038705424;-0.017198408;0.021560643;0.05012888;0.043201964;-0.039274238;-3.385463e-06;0.004316924;-0.04539614;0.03991783;-0.024504468;0.013920499;-0.012717977;-0.041014116;-0.10651644;-0.027885092;-0.049182117;0.0148936445;-0.023462636;-0.020211732;-0.030405743;0.043964997;-0.034805182;-0.033417117;-0.034433782;0.0762647;-0.21002847;-0.030543588;0.08768236;0.09966024;-0.17335942;-0.09358475;-0.008517439;0.025019104;0.00042383999;-0.039537854;0.06425025;-0.035872705;-0.03639702;-0.04709526;-0.037555475;0.041104447;-0.072410055;-0.025829332;-0.055012014;-0.054983284;-0.048970312;-0.064094216;-0.053512257;-0.08615526;0.06427514;-0.033453297;0.010244252;-0.042728964;-0.027152305;-0.116463125;0.047552586;-0.04449222;0.048308652;0.0795441;-0.1743047;0.10054117;-0.0450276;0.009212329;-0.0715053;0.022589367;0.0983371;-0.046786446;0.058167495;-0.0182676;0.025391335;0.026413709;-0.014345377;-0.086746365;-0.07918862;-0.1273131;-0.055129256;-0.0050039487;0.040972162;0.07012035;-0.036538623;0.100884065;-0.04142897;0.07690813;-0.013313479;0.08487124;0.03927366;0.010260643;0.051135495;-0.025077;0.081967615;0.038203184;0.048885684;-0.08418001;0.017237414;-0.068588525;0.0039315666;0.05864728;-0.12343466;0.00067810284;-0.048011687;-0.04623595;0.013501764;-0.15312968;-0.021380113;-0.0069250697;-0.020123595;-0.070478186;-0.036070272;-0.05763572;-0.11707541;0.027303712;0.057639103;-0.067170136;-0.012526655;0.061773036;-0.004517469;-0.011259095
0.105820775;-0.0016626165;0.038900696;0.012907171;0.06311254;-0.008701279;-0.11029551;-0.038644776;0.034698546;0.04474063;-0.079850085;0.041719843;0.0503732;-0.0058853487;-0.059390724;0.028713863;-0.016524643;0.0127101885;-0.042887274;0.014947302;-0.054300297;0.08741378;-0.04100841;-0.054147787;-0.06107575;0.11307691;-0.044221316;-0.0027716428;0.101237744;-0.050153192;0.005853804;-0.022137228;-0.027573906;-0.045406274;-0.0064533115;0.11546229;0.037944645;0.06308941;0.0052674366;0.037869837;0.05114634;-0.02194834;-0.0945106;0.009696582;-0.06288064;0.05689634;0.0685375;0.07527687;0.021962456;-0.10593849;-0.050988782;-0.057480548;-0.027426198;-0.057977308;-0.056166384;-0.024481788;0.029970966;0.07321756;-0.019064616;0.04395762;-0.00015951117;-0.06190575;-0.14155717;0.014584019;-0.083724424;0.0152350115;0.0070409225;-0.06714319;0.07910648;-0.07028318;-0.050036814;-0.0044735125;-0.13773641;-0.047150932;0.06320765;0.0100669805;-0.062361863;-0.06383995;-0.14373219;0.07392304;0.05456842;0.07182337;-0.06486733;-0.0036024053;-0.05043211;0.09612921;0.055697866;0.03552892;0.039856844;0.05700953;0.054911997;-0.026607381;-0.019479888;0.022624597;-0.04899943;0.10136926;0.027630089;0.009204851;0.08839602;-0.026554564;0.0103611415;0.0057396763;-0.006332936;-0.036699362;-0.039221846;0.020718127;0.098383605;-0.052656054;0.083844796;0.063949995;0.075108886;0.037543822;-0.028624048;0.03134496;-0.059221596;-0.0056694425;-0.077355176;0.02402896;0.008104053;-0.029704042;-0.043875936;-0.044077355;-0.025419805;0.071657576;0.013327425;-0.12743807;0.039427593;0.0466406;0.023248214;-0.049604032;0.048206914;0.0074047376;-0.048533116;-0.01223122;0.057103373;-0.06326251;0.07093799;-0.05907814;0.07001281;-0.05207449;0.0035815884;-0.070064515;-0.084042065;0.077181526;-0.021070005;0.04187453;-0.02280342;-0.009275769;0.012304481;0.015218879;0.037804734;0.027979413;0.012969399;-0.056194663;-0.058789905;-0.011146504;0.037997674;-0.09113674;0.000607414;-0.02318901;-0.0031646653;0.100908026;-0.034005526;0.0040296447;-0.071406245;0.050567452;0.0032892337;-0.0036915112;0.015660148;-0.06290286;-0.11151073;-0.051754564;-0.005488339;-0.006802719;0.011551812;0.061454486;0.03911142;-0.034463275;-0.09732464;-0.03713102;-0.006217464;0.078485645;-0.096131496;-0.014718725;0.0087027615;-0.03439277;0.07790949;-0.0469041;0.026084598;0.0710466;0.07011493;-0.076241784;-0.03079903;0.015002819;0.029507356;0.07582615;-0.059293326;0.059137013;-0.033942647;0.080695026;0.020036148;0.041215062;-0.059417516;0.04787453;0.049053073;0.061699566;0.032434296;0.0218242;-0.0049516973;-0.06530108;0.10370326;0.047305483;-0.0143821435;0.032441735;0.0736053;0.07695157;0.023309493;0.08181522;-0.0651295;-0.04834163;-0.040220965;0.018348884;0.08183229;-0.0280675;-0.010980072;-0.040319048;0.07231128;0.04357488;0.023627765;-0.021851983;0.020576006;-0.005135822;-0.051678;-0.013374762;0.05883234;-0.009084716;-0.01897965;-0.003833662;-0.12558118;0.038804136;-0.012349563;0.02672798;0.0025764278;0.009654673;0.037848923;0.058626197;0.09091528;-0.0026008363;-0.072721265;-0.066123165;-0.021976968;-0.054669213;0.084368035;-0.062213022;0.094445914;0.045848116;-0.053078867;-0.05185967;0.017868828;0.07669114;0.11137521;-0.02865684;0.013192545;-0.011822643;-0.052903105;-0.016187085;0.08662354;0.06936676;0.05957135;0.07154926;0.01313472;-0.074200965;-0.05148169;0.0132246595;0.108970635;-0.09179288;-0.040957816;-0.033845488;0.01106043;0.021355094;-0.038371004;0.069673724;6.793649e-05;0.026599474;0.024829645;0.015260562;-0.048845276;-0.04827339;0.113343984;0.043629833;0.017784782;0.08662714;-0.03216519;0.047321275;-0.030078437;-0.039324354;-0.018853474;-0.062046237;-0.01916197;-0.07222896;-0.013482041;-0.073173106;0.061565377;-0.14444524;-0.03782391;-0.08809824;-0.11024137;-0.031287506;0.008627595;0.056008406;0.014342452;0.041652426;0.043414805;0.016062254;-0.08479007;-0.07419354;0.0848207;-0.02052137;0.04266049;0.07893627;-0.04188287;-0.018777128;-0.054334935;-0.05250562;0.08598939;0.07409621;0.05998566;-0.040430434;-0.0025100212;0.018320294;0.08083111;-0.03311802;-0.09419748;-0.08690955;-0.024487589;0.120433465;-0.10625241;0.059951827;-0.0022686203;0.00083800446;0.09691468;-0.03346646;0.016762938;-0.01266043;-0.086109124;-0.009039557;0.00036616717;0.036126506;-0.04748336;-0.0027122288;0.10017177;-0.0016215151;0.07137034;0.027561404;-0.0023597616;0.109385714;-0.08218242;0.091037676;0.09991324;-0.0108991675;-0.026922638;0.012100064;0.004384674;0.02227687;-0.015800504;0.025834285;0.063376576;0.06847344;0.115873344;-0.13230766;0.06516816;-0.036697596;-0.01927567;0.03679121;0.029038507;0.08837323;0.013411572;0.07440819;-0.08737637;0.034259014;-0.04238729;0.035377994;0.011424684;0.072617926;0.08726941;0.03916551;-0.00061709236;0.05430085;0.08238806;-0.07744105;0.0081342645;-0.027262343;0.004934617;-0.019998847;0.012539819;0.06812192;-0.067693755;0.06280884;0.053870443;-0.007012581;-0.04895675;-0.029108584;-0.03192553;0.008244835;-0.046908535;0.00843983;-0.07811066;0.050905194;0.03563897;0.07115859;-0.004264294;-0.046745714;0.057984833;0.062722154;-0.13990255;0.015172057;0.034025736;0.0033401856;-0.039447293;0.0016504833;-0.012617414;0.10181895;-0.0056309067;-0.044919044;-0.048021477;-0.010045465;0.008514368;-0.006886096;0.021469396;-0.08143114;0.08889952;0.06446177;0.06076837;0.021423487;-0.06197458;-0.04097747;-0.048975416;0.07151535;-0.042569246;0.1379741;0.06689646;-0.071895204;-0.03131144;-0.05039837;0.06448979;0.03266275;0.04411609;0.050706487;-0.068861395;0.04225021;0.025412785;0.054453455;-0.031199295;-0.026328944;0.0377781;0.08128334;-0.03898503;0.020004053;0.029342562;0.006165998;-0.008218065;-0.029015629;-0.009706855;0.024241023;-0.069283284;0.036839455;-0.014193802;0.1138699;-0.02572692;0.10022506;0.053325236;0.067088485;-0.039834507;0.0029088834;0.047017686;0.09451498;-0.070124775;0.045632355;-0.0019007328;0.01770769;-0.020241803;-0.012205929;-0.031441633;-0.0783808;-0.10275017;0.05581231;-0.0401008;-0.060180258;-0.14899209;0.04949901;-0.0794992;-0.08481479;0.022666227;-0.17691456;-0.014176763;0.057680782;-0.009570241;-0.015239522;0.12661737;-0.08184117;0.018122753;-0.05573679;0.10503085;-0.034205306;0.0031777886;0.07591199;-0.013568972;0.027880637;0.062482104;-0.002952504;0.070422664;-0.09466409;-0.041202154;-0.00278953;-0.07366821;0.011032961;-0.08151098;-0.005326681;-0.15645272;0.06646315;0.013231725;0.065407895;-0.05479363;0.011472405;0.0290809;-0.045185063;0.037920777;-0.068202354;0.043222003;0.00886545;0.06920513;0.014515064;0.040147286;0.052484576;0.082575366;-0.0029981297;-0.055851977;0.07051674;-0.0032881186;-0.012512347;0.023617592;0.06198998;-0.038524147;0.1057259;0.025303707;0.04181736;-0.012828934;0.0067564873;0.012945886;0.04666819;-0.00709041;0.03485115;-0.054432858;0.08021341;0.008632953;-0.028424818;0.12951206;-0.03500505;0.041312445;-0.061707266;-0.010928956;-0.045633763;0.019560631;0.0005149263;-0.059427645;0.12051063;-0.01909453;-0.07155518;0.07906327;0.024525434;0.031984627;-0.0397769;0.018064182;0.0326025;0.11958323;0.04781911
-0.0511314;0.08813857;-0.09213088;-0.011699594;0.0100812195;0.047388554;0.07905457;0.039879806;-0.027426085;-0.03646957;0.04936791;0.04326663;0.024367416;0.07074981;0.02655559;0.062258687;0.03443309;-0.03034575;-0.008026546;-0.03543456;-0.051809836;-0.04453866;0.09659146;-0.07735857;-0.024310691;0.11384342;-0.072789945;0.0680357;0.0670386;-0.014211124;-0.018580701;-0.04098114;0.0631884;-0.0722867;-0.03277499;0.03337024;-0.031874057;-0.06751904;-0.05058793;-0.045659814;-0.007257988;-0.01467119;-0.09039147;-0.012523797;0.02435692;0.07390072;-0.060158443;0.029898698;-0.03977414;0.025935378;-0.033464268;-0.12292465;0.014998096;-0.057348788;-0.031280443;0.02129827;0.053761557;0.08083863;0.058993917;-0.06300993;-0.03008665;-0.057211585;-0.13195181;0.0066018556;-0.014155597;0.012213537;0.011737803;-0.075255625;0.01418718;0.057629544;-0.091846325;-0.022616899;0.011961141;0.031019913;-0.019944988;0.09644104;0.04102778;0.008832797;-0.14759804;-0.031884454;0.033207525;0.02594013;-0.04994701;-0.012993723;0.031692225;0.09127676;0.04287157;0.03142867;-0.050157327;0.025592515;0.0892132;-0.07722918;0.005527459;-0.013353361;-0.057130925;-0.06899683;-0.090579234;-0.04202607;0.0056005563;-0.06402699;0.1015378;-0.048526723;-0.019583436;0.012572482;-0.018812403;-0.010296171;0.096200496;-0.03249551;0.11556754;-0.040308584;0.08985639;-0.043774;-0.039558064;-0.00085739314;-0.033456054;-0.053644165;-0.010185273;0.041856766;0.08393694;-0.056714453;-0.06612396;0.06585091;-0.011769856;-0.049290724;0.0732469;-0.0024703625;-0.028042112;0.074805096;0.02336961;0.026629087;0.0075394944;-0.0346758;0.055653702;0.07688578;0.073297754;-0.06572505;0.13758163;-0.07637414;0.050404478;0.051432196;0.05787379;-0.03796194;0.018389653;0.06257;-0.04403967;0.053610194;-0.08992591;0.007572168;0.008687114;0.060848165;-0.029463729;-0.042329192;-0.0008288477;-0.056174908;0.06146045;-0.048114702;0.000916983;-0.02076008;0.065649405;0.069119275;-0.043161023;0.07674148;-0.08909189;0.057771068;0.029151188;-0.049677555;0.03041655;0.041982654;0.053362813;-0.035535116;-0.08320563;-0.14991823;0.040126003;-0.04547838;0.062186178;0.054004714;-0.08550811;-0.020794345;0.020622676;0.0069109136;0.062299397;0.029136727;-0.032362778;0.07900081;0.06355491;-0.058126353;0.062787645;-0.06917312;0.024882395;0.03190827;0.03877719;0.05993359;0.004613173;0.05041408;-0.08493942;-0.034691453;-0.057269007;-0.047534287;0.052716333;-0.019581582;0.030961113;-0.005232701;-0.016834212;-0.0018022829;-0.067754574;-0.047988575;0.07983896;-0.07542531;-0.05853355;0.008290949;-0.017214809;-0.08765891;0.0040944605;-0.0327005;0.055396013;-0.017914383;0.076548696;0.028420635;-0.004906782;-0.015138069;0.0038956313;-0.047438223;-0.03506792;0.07847794;0.08892824;-0.045230098;0.110356286;0.016671464;0.04417844;-0.05759709;-0.05123618;-0.04620849;-0.03459858;-0.04934068;0.040743887;0.1325013;0.071396954;-0.014974377;-0.041038457;-0.0646861;0.06703969;0.0067666234;0.0076611326;0.12260868;-0.014217099;-0.08001896;-0.04740315;0.002400235;0.07126968;-0.057323333;-0.008957801;0.061668072;0.074222915;0.04471999;0.10243259;-0.05571179;0.06857932;-0.024295788;-0.017787065;0.029016888;-0.021275753;-0.038261004;0.07125266;-0.026046488;0.016478982;-0.039776895;0.09977983;-0.06686568;-0.022990907;0.065485135;0.058303785;0.013164673;0.0025240423;0.042045325;0.039068975;-0.11133071;0.014482453;-0.070208706;-0.034738295;-0.09834313;0.03027985;0.01215626;0.06298332;-0.05874732;-0.05794381;0.0143732615;-0.009886127;-0.045560542;0.040834542;0.027152918;0.05024499;0.07110398;0.043613374;-0.033096682;0.09162391;-0.05130873;-0.01773305;-0.051573493;0.060667068;-0.05399775;-0.049278323;0.012990674;-0.0373799;-0.042714003;-0.007451159;0.04139303;-0.08355898;-0.050113097;-0.08926325;-0.05788048;0.044011373;-0.0032344516;0.059712093;-0.010975671;-0.06971648;-0.09116767;-0.03402566;-0.063393466;0.07780218;0.010962226;0.08159668;-0.02111165;-0.02209469;-0.055093024;-0.045894887;0.10252893;-0.0574731;-0.055226978;0.012123439;-0.053420365;0.017247293;0.011213935;0.0031093836;0.050092693;0.06643138;-0.0041552316;0.034057084;-0.08996065;0.02018575;0.043928694;0.046916317;0.0021387741;0.0275564;-0.057487637;-0.09290131;0.0045510996;-0.04328338;-0.0280915;-0.07386058;-0.05191638;0.015114783;0.00452689;0.05141686;-0.013315591;-0.017418303;0.012360358;-0.16356963;-0.020355007;0.09035391;0.02623454;-0.038445424;-0.047420867;0.014745232;-0.026532115;0.061567727;-0.07713605;0.008661481;0.12892646;0.0342036;-0.048221745;0.05258573;0.048689444;0.03478693;-0.03198932;0.025040701;0.0063840584;-0.04970921;0.08451676;-0.06576461;0.1002498;0.05932211;-0.0652324;0.031980075;-0.052387837;0.07873003;0.014191715;0.03596621;0.063387506;0.0100200875;0.024912471;0.03793957;-0.057629727;-0.030892858;0.08353746;-0.06403134;-0.009471751;-0.0032630307;-0.06573878;-0.035775393;-0.028169613;-0.038305003;0.027042562;0.00047219006;-0.013078162;-0.008596379;0.0697262;0.008347029;-0.008259568;-0.031289205;0.068755455;0.04467882;0.011503157;-0.049012914;-0.013402627;0.039172422;-0.13628103;0.09209771;0.021510577;0.050388675;0.09082118;-0.014536422;-0.04369864;0.020130718;0.032213118;0.09430049;-0.081475794;-0.05844239;-0.003825351;-0.020747438;-0.08410774;0.025860257;-0.0477411;0.06486573;-0.05990593;-0.022533398;0.08435231;0.013592557;0.07530263;0.04132115;0.1407689;-0.014653362;-0.017356103;0.077784725;-0.028760374;0.12288333;0.059226517;0.07443228;-0.008817189;0.03923761;-0.047657695;0.05172774;-0.026681857;-0.03034993;-0.048562434;0.053685844;0.03785514;0.06866549;-0.024438517;-0.06575289;0.043321174;0.021264229;0.040568095;-0.060138635;-0.055311866;-0.08630157;0.043184638;-0.014952868;0.11007141;0.109252825;0.00805114;-0.08917042;-0.0052384497;-0.10415869;-0.011561291;0.012144125;0.068407804;-0.014058425;-0.044298414;0.044499934;-0.051171176;0.022120154;0.055961207;0.04528381;-0.01736792;-0.13592936;-0.008012668;-0.049116343;0.07514118;-0.13729674;0.074149355;-0.07186211;-0.079626635;0.075353906;-0.07225878;-0.06394634;-0.041094854;0.07136461;-0.0027578666;0.06968817;0.08497299;-0.060337152;-0.00372329;0.032702975;-0.044487957;0.0501068;0.021913208;0.039745837;-0.02003047;-0.06656099;0.015937207;-0.033261295;0.1390684;-0.043399062;-0.0204331;-0.046284426;0.05336388;0.04661962;-0.00047101371;-0.0662133;0.06981735;0.01629567;-0.042813074;-0.054764055;0.06469835;0.0066339294;0.0111927865;-0.0240561;-0.048244502;0.041619495;0.07233675;-0.052681867;-0.080772944;-0.0061338656;0.005818535;0.014347836;0.036498986;-0.07379177;0.05422852;0.061163392;-0.02762924;-0.069155775;-0.06811997;0.014643201;-0.036537275;-0.0080073895;-0.06976021;-0.08565211;0.054264054;0.08672639;-0.00469027;-0.04565511;0.034101687;-0.06359423;0.066315025;-0.032924242;0.04210961;0.07666989;-0.044280443;0.051588777;-0.010757431;-0.044497978;-0.108656816;-0.08467153;-0.005105145;0.07571207;0.13302988;-0.004729516;-0.071823776;-0.10040213;-0.04108638;0.053901754;0.0022488232;-0.01639702;0.06226927;0.02141394;0.047390427
-0.087948106;-0.050490476;-0.020943712;-0.10290706;0.04156348;-0.05998785;0.050316755;-0.021692457;-0.02098491;0.043765232;0.021056945;0.010727592;-0.00028022937;0.054247934;-0.050098773;0.009233864;-0.019475468;0.14741275;-0.086701125;0.04838392;-0.06857696;-0.023122653;-0.014328632;-0.014719382;0.11503697;0.16830918;-0.057312436;-0.11361344;0.037177622;-0.018953232;0.018308295;-0.06832364;0.077455595;-0.057548348;0.023731802;0.08041536;0.05310144;0.022670573;-0.032813992;-0.04118665;-0.04030886;0.059371002;-0.17243479;0.117997125;0.007435396;-0.109404854;0.068666294;-0.03243201;-0.04791278;-0.13235447;0.057039812;-0.10652033;0.052723505;0.03095652;0.031597536;-0.11672457;0.010567963;0.08268018;0.036945112;-0.16745894;0.07043019;-0.010785207;-0.049312957;0.060030524;-0.056364946;-0.021430548;-0.07361159;-0.05994558;-0.05486161;0.03958121;0.047419153;0.03652517;0.044777736;-0.035912186;0.08104772;0.059573915;0.06003247;-0.021088587;-0.13272919;-0.08486317;0.029454326;-0.08232383;-0.08422793;0.023270663;0.036222585;0.046490207;-0.033251036;0.096115924;-0.070257396;-0.069039226;-0.0040295175;0.049325123;0.0021007892;-0.0035534922;-0.061068423;-0.0022874896;-0.1781279;-0.048856568;0.060639776;0.0385047;-0.030095648;-0.028411249;-0.105739154;0.004376376;0.052754156;0.052853912;0.05702338;-0.072219074;0.034266785;-0.046965476;0.08139871;0.043881398;0.079083;-0.007290079;-0.08552578;-0.045306504;0.10747351;0.10826791;-0.049322493;0.014749734;-0.05603587;-0.03310673;-0.03546824;0.022595685;-0.047013607;0.032367177;0.08104223;0.022209963;0.011504948;-0.10315689;-0.031268004;-0.10155909;-0.019354237;-0.04890266;0.092585854;0.020934416;0.049614456;-0.21025108;0.05824749;-0.034404706;0.0975431;-0.026150284;-0.010034055;0.08613385;-0.080993205;0.021394564;-0.0060051507;-0.010984526;0.07334808;-0.073202886;0.021733565;0.014368178;-0.076428935;-0.0060801194;0.073744394;-0.052056346;0.0921556;-0.05315127;-0.069877006;0.14200975;0.03661299;-0.0112935705;-0.016998716;-0.04892643;-0.12776658;-0.046751652;0.039464466;0.05099785;0.07126822;0.051491268;-0.08202593;-0.11228045;0.0015559644;0.016646845;-0.060805824;-0.03057896;-0.026579011;-0.012034804;0.05190519;-0.030992087;0.023844726;0.018561453;-0.067159064;0.026197635;-0.04939055;-0.05583483;-0.011601179;0.02515301;-0.016330665;-0.046089876;-0.035944395;-0.03505684;0.024900945;0.05971297;-0.071002275;-0.00393473;-0.093408994;-0.056462914;-0.02360513;0.041023795;0.090460986;-0.043601982;-0.04509387;0.061325658;-0.022396747;-0.07388855;0.050946314;-0.051230323;-0.067378975;-0.031444702;0.036413625;-0.053386543;0.060772132;-0.019418536;0.0039904374;0.034065086;0.0032251007;0.01946954;-0.06489252;0.02966912;0.011270308;-0.017109983;-0.051957183;0.024465203;0.0680288;-0.06678307;0.06645564;0.035517406;0.023858458;-0.008823832;0.09881866;-0.011226633;-0.09285722;-0.0067891455;-0.05996696;0.02248379;0.05652599;-0.041210502;-0.0965333;-0.0761789;0.09791045;-0.07558815;0.075651646;0.00867742;0.028120263;-0.008778075;-0.049602676;-0.0073978403;-0.07346808;-0.057768993;0.04972384;0.08041079;-0.077401996;-0.04522503;-0.026010148;-0.0056829634;-0.07171874;-0.023542235;0.09152585;0.05589559;-0.05562981;-0.036433388;0.04892607;-0.060220197;0.06107374;-0.03229678;0.06544277;0.05300809;-0.119381495;0.093775295;-0.030382352;-0.1085695;0.07866748;-0.072073944;0.093876734;-0.038231876;-0.09517065;0.04265071;-0.032838378;-0.06036458;0.0021677453;-0.009529757;0.028633986;0.036610574;-0.051402498;0.03993692;0.06551481;0.049464043;0.056089688;0.04428661;-0.12253103;0.08219872;-0.057682388;-0.06444056;0.05511205;-0.1493748;-0.053343125;-0.0057319445;0.12218432;-0.037746157;-0.059032094;0.034402333;-0.031113818;-0.08583439;0.07563352;-0.005751176;-0.08367274;0.07746761;0.003942201;-0.03146551;-0.01196177;-0.09688441;-0.0017448298;-0.10511809;0.066768594;-0.01217602;0.107352674;0.006459178;0.0662022;-0.03953938;-0.023128372;0.035724126;0.020935288;0.05052479;0.044006806;0.114809535;0.050992146;-0.015217038;0.022667652;-0.06702823;-0.09048487;0.075440876;0.047785565;0.026072118;-0.0526186;-0.028210402;-0.06072115;-0.05560988;0.01097372;-0.054871634;0.083192386;-0.002918304;-0.047098897;-0.02866062;-0.12940869;0.023847565;0.08986978;0.056051943;-0.07696026;-0.002247179;-0.027581723;0.03334776;0.0142625095;-0.014590575;-0.009041936;-0.07820297;-0.100729845;-0.098539785;0.017602086;0.08860652;0.023643034;-0.030284997;-0.03019128;-0.013399426;0.06317419;0.038172074;-0.01672818;0.07182708;-0.024948131;-0.11510279;-0.02177088;-0.07877796;0.0075862813;-0.008388769;0.033887777;-0.04639844;0.022749813;0.032738935;-0.07947482;-0.014643463;0.04748736;-0.076581724;-0.041296914;0.072458714;-0.0049197767;-0.0676726;0.0049549867;-0.019301593;-0.061141115;0.004728166;0.07996743;0.0495282;0.02782432;0.01875303;-0.0023948674;0.10764433;-0.019962478;-0.09122199;-0.12120769;-0.07356959;0.037328847;0.055472083;0.01710933;0.048252016;0.017647726;-0.061450124;-0.007187793;0.07823234;-0.07735306;-0.007700122;-0.09977395;0.029872032;-0.04916611;0.044767253;-0.12739639;-0.088315524;0.047097266;0.034269437;-0.0874419;0.1171436;-0.1059242;-0.06423858;0.0769622;0.013151864;-0.016566187;0.007866581;0.08265531;0.028438363;-0.09342362;0.04383011;-0.012991789;0.13734023;0.044636507;-0.07900185;0.08962488;-0.036134817;0.019322515;0.060878515;-0.027418064;0.034390092;0.029567866;0.034449954;-0.004345426;-0.14373566;0.09824288;-0.008406256;-0.08277903;0.083793946;-0.0017318676;-0.015769936;-0.09318255;0.060342632;0.046736505;-0.03868792;0.057939902;-0.013025465;0.07260535;-0.11260367;0.045252085;0.070896715;0.040369377;-0.0010260096;0.013967001;-0.016946044;-0.09074594;0.025179684;-0.10024254;0.12199724;0.026457371;-0.0106675755;-0.011594457;-0.029018966;-0.050161965;0.08385071;-0.0986539;0.16182932;-0.07404421;0.10679153;0.03287515;-0.008824951;-0.0547148;0.065687954;0.04039622;-0.004883922;0.0068315365;-0.01804332;0.08286582;0.11148438;-0.12630056;0.039824344;-0.0240464;-0.0259582;-0.035909206;-0.21778145;0.014276042;-0.043502066;0.027356803;-0.05604261;0.10450243;-0.002062394;-0.06048069;-0.033510026;0.12380927;0.035303716;-0.033172633;0.017861146;-0.012714552;-0.018179398;0.09257813;-0.026503185;0.0068720155;0.044814814;0.012873131;0.029494036;0.0035642765;0.060273092;-0.09516128;-0.042363305;-0.004345504;0.006381413;0.09524391;-0.029051779;0.0059151184;0.100987054;0.0017082292;0.091766454;0.0031401862;0.03614611;0.0843299;-0.07128137;0.061300278;0.10562262;-0.029807894;-0.038956903;0.09122648;-0.05673789;-0.07044864;-0.07955161;0.08311556;0.09230172;0.033770546;0.046722237;-0.0017106695;0.00043507613;-0.0010996656;0.023674218;0.0047667446;0.041838676;-0.027786247;0.029731218;0.035184495;-0.045506697;0.119950816;-0.03812053;-0.06983803;0.07615225;-0.044316288;0.009160532;-0.03438781;0.076018214;0.06086797;-0.07913597;0.030884953;-0.08867941;0.057423487;0.049716875;0.058681738;-0.0746701;0.039319824;0.052473072;-0.019259108;0.042959534;0.005057022;0.02074259;0.034417085;-0.04553607
-0.035780214;-0.010158625;-0.039409395;0.031186374;0.016569383;0.011056652;-0.03540099;-0.062558785;-0.0022211068;0.050302837;0.049953908;0.03658648;-0.052511577;0.08759084;0.036014866;-0.013267488;-0.08690485;-0.027913578;-0.017407434;0.03204933;-0.13234355;0.04653587;0.069814816;-0.065925606;0.023713684;0.07371062;-0.052847344;-0.041346792;0.05504864;-0.045924243;-0.074398614;-0.016379727;-0.056487408;-0.10126873;-0.031145813;0.1446057;-0.00020284444;0.04218262;0.055190295;0.09069322;0.045327693;0.057567455;-0.07362875;0.08818732;0.040273964;0.027932988;0.063565545;-0.012379443;-0.048428454;-0.09456687;-0.021601142;-0.13487756;-0.023723526;-0.031919237;-0.06408156;-0.07919155;-0.003644688;0.004770299;0.08285282;-0.03418721;0.026048271;0.122450866;0.03312654;0.030879796;0.033723697;-0.05491036;0.008157842;-0.056781124;-0.020116625;0.05368313;-0.052617278;-0.0060442397;0.06671142;0.057937447;-0.05603324;0.039381094;-0.006255186;0.0036369415;-0.13163315;-0.12234445;0.053803656;0.009410327;-0.09056631;0.10864993;0.11896087;0.005616705;0.0423381;0.075471535;-0.06862517;0.053187378;-0.026698299;-0.059404377;-0.1020471;0.08750178;-0.023592126;0.017379453;-0.16373913;0.061903138;0.059532233;-0.045381;-0.06521349;-0.018658483;-0.06505078;0.05218155;0.055377807;0.0136679895;-0.007255355;0.06366872;0.034277573;-0.050179414;0.10951365;-0.019011809;0.01730978;-0.0522847;-0.030558513;-0.034464743;0.032168724;0.1172944;0.053867716;-0.0074381717;-0.04550137;-0.082144804;0.0217534;-0.006535192;-0.012537938;-0.021325938;0.0067685097;-5.849647e-05;0.019225143;-0.19439952;-0.043358687;-0.065858155;-0.059873685;0.03597484;0.04614419;0.07164254;0.05414921;-0.023907496;0.08032099;0.040969074;-0.012361285;0.0017732369;-0.00063178485;0.033994544;-0.055510785;0.051178608;-0.016126635;-0.021814192;0.03831918;-0.101233065;0.0057329293;0.036681183;-0.04246847;-0.06949032;0.040230487;-0.02573611;0.074098065;-0.016692545;0.004946904;0.1064301;-0.10904357;0.027718447;0.037043903;-0.045332614;-0.08368234;-0.02772244;0.0047156527;0.10367563;-0.0017967112;-0.077164926;-0.04239472;-0.030399928;0.03691155;-0.0062886374;0.07426627;-0.07763054;-0.027930945;0.02301981;0.06834365;-0.07880452;0.0555041;0.085165866;-0.004998733;-0.05549141;0.09502309;-0.0074562994;0.023289746;-0.04338416;0.056831162;0.019285135;0.0736171;-0.051396124;0.0005541827;0.09308544;-0.1767129;-0.085924;0.011529434;-0.06557705;-0.027762836;-0.03215778;0.05223852;-0.08773349;0.06940573;-0.06447586;0.06454727;-0.004622011;0.07361171;-0.046239957;-0.026965208;0.03924658;0.07098063;-0.06013283;0.008784788;-0.03961882;0.07624952;0.03117947;0.03620659;0.04049479;-0.05632166;-0.044837162;0.0055140345;-0.04490363;-0.02848279;0.06376267;0.054446567;0.029561222;0.049700055;-0.053907327;-0.08449136;0.037236396;-0.053772695;0.13469414;0.08042574;0.11848217;0.074594446;0.026559006;-0.04026206;-0.029627252;-0.1231745;-0.12530485;0.028210646;-0.028192796;0.040581618;0.03510743;-0.024295315;0.011835032;0.06919716;-0.014493058;0.024002574;-0.008569532;-0.03910886;0.020773249;-0.028089762;0.07351188;0.03120676;0.080275014;-0.027670035;0.09779308;-0.00789873;-0.031084897;-0.042668678;-0.035028476;0.051082864;-0.1061552;-0.09375673;0.0028397932;0.0649213;-0.010042558;-0.08887562;-0.004216618;-0.011948946;-0.124575816;0.04523365;-0.076242104;0.0668562;-0.1211304;-0.07750477;0.020651609;0.017359134;-0.06659126;0.03357112;-0.023680463;-0.052113827;0.038658284;0.055182263;0.004203439;-0.00303184;-0.018254856;-0.10743142;-0.012086465;-0.13302948;-0.01111183;0.020866394;0.018454233;0.024961837;-0.082733646;-0.0012040205;0.02685857;0.12151011;0.0028716717;-0.019389;0.020293439;0.004047394;0.046310995;0.084785;0.04050314;-0.08516314;-0.03378497;-0.0013177142;-0.020968707;0.002977096;-0.105403475;0.07786365;-0.04916883;0.055248916;-0.05912642;0.0134499995;-0.048065815;0.08486479;-0.028815517;0.08621865;0.0017700747;0.006739043;0.072664455;0.069490194;0.1323946;-0.053441674;0.04703433;-0.080583096;-0.13606843;-0.047416;0.028759178;0.029656796;-0.10314841;0.023706665;0.14563444;-0.019458305;-0.016059216;0.0035893063;0.054240707;0.10477933;0.02696766;-0.03168363;-0.14280576;-0.074988976;0.075457275;-0.054016266;0.025461629;0.05325358;-0.08363651;0.071926944;0.10868032;-0.019706259;-0.008233972;-0.025588127;0.07264432;0.0051935385;-0.10122566;0.20805833;-0.062332727;-0.046277836;-0.101620674;-0.050487746;-0.03294408;0.0663525;0.01124918;0.05911905;0.07398711;-0.012333813;0.055700317;0.0043391543;-0.088549875;0.083181836;-0.056930047;0.02002927;0.040361732;-0.06411828;-0.025611294;-0.097258255;0.1236588;0.053142473;-0.089286834;-0.08065576;-0.02354112;-0.06772374;-0.04899753;0.051544152;0.031755324;0.07813298;-0.0843878;0.008236672;0.018918086;-0.016187878;0.016001048;-0.09983437;0.029665072;0.04162786;0.076312505;0.0076539903;-0.013827591;0.03980834;-0.08859183;-0.063905776;0.030872863;0.021048391;-0.098218314;0.048924092;0.025115633;-0.039401863;-0.032692716;-0.025816455;-0.035617396;-0.028698077;0.07623253;-0.12695786;0.007407225;0.07692115;-0.07470887;-0.090754345;0.020412372;-0.086691976;0.0075337235;-0.05347272;-0.052689306;0.05126523;-0.012581116;-0.009313548;0.12609452;0.02064884;-0.11178434;0.06428797;0.08313478;-0.0077828253;-0.0023954525;-0.015216941;0.11300343;-0.029896118;0.08503905;0.07728552;0.044541232;-0.01332777;-0.00022111829;-0.042053707;-0.044394836;0.026054928;0.019004045;-0.14104009;0.036466427;-0.009560505;0.062417984;-0.021946032;-0.027890153;0.06527366;0.030504081;0.034448627;0.019761708;-0.049701937;0.012628997;-0.008340246;0.018087845;-0.02779892;-0.005647596;-0.13190226;0.04891217;-0.018443339;-0.038350753;-0.095508404;0.02340807;0.0474284;0.06730968;-0.043649316;-0.061028432;0.0052538207;-0.040763993;0.024935761;0.0025759516;0.03985034;0.0684826;-0.051945508;-0.10729953;0.042642638;-0.002382706;0.053758986;-0.014180269;0.025063233;0.0567553;0.0052986117;0.06687053;-0.17835267;0.03822075;0.07598451;-0.071400255;-0.0015030665;-0.16184428;0.012320028;0.020547098;0.05358584;-0.011047867;0.056487087;-0.023076208;0.040620834;0.084225595;0.04567386;-0.104182914;0.06584331;-0.07202173;-0.07252405;0.010607648;0.0012196292;-0.011446228;0.055743143;0.09357381;0.039438784;-0.032407135;0.0327009;0.026471911;-0.11799723;0.08363543;-0.07819728;0.086523995;0.0770511;-0.01658455;0.035558555;0.036385324;0.024654642;-0.011019405;0.03711942;-0.107854046;0.16073233;-0.033424757;0.007426409;0.058742054;-0.03924918;-0.076017775;-0.034653757;-0.020648325;0.0009548803;-0.047106043;-0.008751013;0.10367274;0.11787084;0.017938334;0.038963612;-0.040064096;0.06721826;0.10445958;-0.006541931;0.03666051;0.027233137;0.042668827;0.10245876;-0.03622937;0.036641832;-0.031985424;-0.07449394;0.049786072;-0.038849864;-0.020769238;-0.09957357;-0.08246987;-0.095526844;-0.11031073;0.022686766;-0.07728776;0.007348265;-0.068242826;-0.09014121;-0.02495314;0.05973616;0.039634537;-0.05203769;-0.058968544;-0.058761224;-0.08176384;-0.018439626;-0.106373794
-0.012695464;-0.028654028;0.0074068485;-0.01597262;-0.008971508;-0.071384124;-0.05521878;0.052938517;-0.02652267;-0.08539282;-0.06283423;-0.05230572;-0.08007959;0.034548745;0.020393781;-0.064110324;-0.08137675;-0.008491613;0.00022754062;0.07300971;0.07798477;-0.0061450824;0.03912724;-0.069193125;-0.031669334;0.06105556;0.0011920026;-0.13683136;-0.06269008;-0.08849762;0.047610294;-0.058792885;-0.07208497;-0.11538294;-0.011725891;-0.04372812;0.071622565;-0.063453205;-0.018369267;0.061447777;-0.054840848;-0.027460393;-0.12594375;0.025914324;-0.046580885;0.019437118;0.07758464;-0.047003265;-0.07930844;-0.038735442;0.029226093;-0.018102607;-0.005995527;-0.033864953;-0.0134786405;-0.09219734;0.022140058;-0.04617138;-0.06016041;-0.04904063;-0.0045905397;0.011599976;-0.009317832;-0.007007375;-0.0755319;0.049004953;0.010658291;-0.018780097;0.09287684;0.006937548;-0.03844324;-0.05861848;-0.0036426196;-0.012266468;0.055660985;-0.049085535;0.015471761;-0.01683259;-0.12860578;0.01043712;0.021008953;0.042714372;0.0329349;0.030218406;0.048362665;0.12279615;-0.029294493;-0.058560308;-0.03875333;-0.039160717;-0.06410369;-0.05322915;0.053768415;0.073713444;-0.03402071;0.0037423298;0.04807504;-0.056480225;-0.056777783;-0.09150447;0.029947305;-0.07480699;0.043225653;0.0013915825;-0.047943;-0.017760849;-0.011612668;0.01492929;0.056389414;-0.07526055;0.030034227;0.04960877;0.025772;-0.005612181;-0.039741147;-0.052906927;-0.040019125;0.06002068;0.084906995;0.00447062;0.019441163;-0.048595596;0.048798915;-0.03584885;0.0023846352;0.027805442;0.083590955;0.06286189;-0.027204812;0.029698078;-0.028176459;-0.11803399;-0.021442141;-0.008452125;0.09453813;0.008952842;0.042780504;-0.11446404;-0.059443768;0.07966473;0.09134911;-0.033659607;0.0077096126;0.05270711;0.088340774;-0.010045482;-0.062314045;0.063647024;0.174348;0.008403051;0.052420504;0.072900735;0.0204608;0.024022928;-0.045662712;0.062632866;0.020290742;-0.048896376;-0.05590982;0.116889454;-0.06036422;0.091914475;-0.055869397;0.0026943972;-0.031910777;0.08139081;-0.01933428;-0.02241983;0.041563556;-0.007133683;0.0064833728;-0.10449476;0.0069545177;-0.023569195;0.05434137;0.06154171;0.089446135;-0.04872254;-0.120776504;0.0671779;0.07664965;0.073269345;-0.0755685;0.004680564;0.008882727;0.033657998;0.021537807;0.05311044;-0.040650453;-0.05139865;-0.0114139095;0.07097578;-0.03091023;0.050782405;-0.0082087135;0.033464644;0.026939446;-0.017680999;-0.025685782;-0.024570074;0.08167659;-0.09513489;0.041893385;0.06172639;-0.02111964;0.049611107;0.010202548;-0.028440371;-0.13283946;0.0061694607;-0.013551602;0.04216062;-0.004948835;-0.022532104;0.021696104;-0.06663076;-0.04818212;-0.020817753;-0.1068184;-0.035496805;0.012966659;0.083031684;0.04419019;0.003208122;0.046610497;0.051947035;0.02076548;-0.048477687;-0.080307804;0.0782342;0.059376903;0.0709655;0.02735477;0.0814745;0.06997126;0.044603836;0.058665447;0.044965256;-0.07116541;0.007898757;-0.029503496;0.027588978;-0.062575825;0.012307449;-0.0462907;-0.014171498;0.05413255;-0.03908127;0.018892542;-0.035287745;0.0724547;-0.014367802;0.011486247;-0.046807095;0.007263425;0.034184586;0.010783311;0.040999837;0.100870535;0.02868753;0.022327863;0.029515238;0.073545754;0.044861365;0.016309436;0.015181962;0.048143946;-0.018427556;-0.047581345;-0.020578533;-0.022783056;-0.13501519;-0.03635281;-0.07603315;0.05928826;0.051037576;-0.054718874;-0.027045306;-0.07257469;-0.058330704;-0.06282393;-0.079885595;0.031625353;0.07378307;0.0107289925;0.07746354;-0.002211744;0.057852212;-0.072523974;-0.020829683;-0.06157324;-0.07124207;-0.10021145;-0.014819695;0.007714408;-0.0033616207;0.061810896;-0.12078546;-0.010165521;-0.0013747517;0.022042146;0.013412319;0.020034054;-0.09304916;0.03161542;-0.057571482;-0.08197399;0.06555367;0.05428946;-0.05931465;0.06386164;-0.07923159;-0.018880494;0.026693355;-0.015877178;0.039443932;-0.038211387;-0.04024034;-0.05544421;0.051975932;0.043388315;0.09795807;0.044932507;0.04235214;-0.02708084;0.10770167;0.07508711;-0.013393415;-0.010456981;0.038656972;-0.043881625;0.08016007;-0.04693208;0.03402797;-0.00066555856;0.029505515;0.057715952;-0.022984635;0.043390747;0.052731458;-0.014898193;-0.014818481;-0.040295247;0.025305605;-0.15041243;-0.07067564;0.09212154;-0.088815846;0.0520101;-0.0011716239;-0.044673696;-0.056273412;-0.019565456;-0.040536698;-0.053541217;-0.032465875;-0.10783208;-0.017457534;0.13915704;0.022766514;-0.0037249976;-0.06764551;-0.060704134;-0.08714809;-0.035006706;0.059709333;-0.070730396;-0.0065289554;0.09695291;-0.0071137007;0.07339674;0.06852466;0.036852583;-0.026681665;0.0071989093;0.030985063;-0.048822373;0.022603927;-0.052202724;0.10111048;0.019820109;0.009908346;0.048879478;-0.03030797;0.032320287;0.048293646;-0.014142168;0.06137881;-0.05944501;-0.08310904;-0.074682266;-0.04248856;-0.10817705;0.04028396;-0.062227506;-0.0742415;-6.5352135e-05;-0.02077743;-0.009691054;0.020250415;0.003921864;-0.03815821;-0.07521558;0.10399655;-0.05119958;-0.11200909;0.048613347;0.003660627;0.028421296;-0.047428146;-0.07202979;-0.077077545;0.012393542;-0.0411805;-0.02409985;-0.12421528;0.04697469;0.009544746;0.08562409;-0.051593248;-0.048811626;-0.024333978;-0.015111565;0.011800105;0.05207942;-0.04470735;0.07284374;0.024913182;0.028551375;0.028967358;-0.0035563516;0.044407316;-0.01308629;0.0071024955;0.07272784;0.021608876;0.0049732123;-0.06443873;0.011694353;0.010823641;-0.041317843;-0.028575359;-0.0013323638;0.017334718;0.01133429;-0.047026698;-0.08052313;-0.0037002284;0.07976375;0.012820003;-0.033081494;-0.035542242;-0.04094902;0.018416328;0.014500367;-0.05960641;0.006205754;-0.025601001;-0.070175335;0.0020820703;0.056855142;0.039698727;0.024042042;-0.06501433;-0.032457992;-0.012748951;-0.06802258;-0.029257016;0.07517388;-0.0074722334;-0.07445449;-0.07021786;-0.13907741;-0.050848477;0.005356419;0.088359155;0.021478187;-0.023368055;-0.10217671;0.0058720475;0.035529934;-0.041983176;-0.052638795;-0.056262918;-0.024705973;-0.00898615;0.065870576;0.059249513;-0.15549369;0.071977206;0.011227401;0.023509886;-0.0061141895;-0.08676275;-0.015663981;-0.02421281;-0.041405596;-0.0054674577;0.13456562;-0.08837361;-0.061675835;0.038933598;0.08079966;0.068824954;0.0742611;0.008200584;0.015624239;-0.057080723;0.035555653;0.0007408013;-0.0688229;0.04305804;0.0066661835;-0.021106428;-0.0669476;-0.0153520955;-0.024975184;-0.05887732;-0.08290114;0.0049107177;0.0031435061;-0.029887512;0.06250317;0.05861065;0.07935289;-0.040237617;0.09021108;0.050456878;-0.016426284;-0.064936355;0.015682383;0.008507246;0.0070324293;-0.07707062;-0.062609494;-0.046186298;0.026554206;0.010518944;0.049247798;-0.017790329;0.012198427;-0.053165834;-0.03966422;0.07794681;-0.044390935;0.03859154;0.053796094;-0.0817057;0.0024431595;0.09105528;0.04230256;0.003237729;0.0118044475;-0.081446715;-0.02232354;-0.016931128;-0.0037298165;-0.019289907;-0.008459323;0.026018389;-0.015729658;-0.14235368;0.05446038;-0.026427638;0.03199784;0.026182255;0.02818844;0.04347552;-0.008417646;0.054644004;-0.08443969;0.005695671;-0.03545627;0.022606352;0.040463418;-0.064140595
-0.013921905;-0.10690366;0.02400404;0.03585959;-0.09871729;-0.024248427;0.008369852;0.08781626;0.1012738;-0.0034712795;-0.06637566;-0.056379866;0.002616487;-0.0525378;-0.05356532;-0.0071641663;-0.08877607;-0.084290005;-0.06389136;-0.07087976;0.040449172;0.059773367;0.012914993;0.0063892296;0.0546897;-0.004889569;-0.07414321;-0.06018844;-0.0141074825;-0.1313929;-0.061217435;-0.06649247;0.029964563;-0.009492801;0.08515128;-0.10007103;-0.06402316;-0.012300121;-0.03118773;-0.034534685;-0.005523008;0.008449613;-0.10124339;0.046888545;0.044527583;0.035554312;-4.9121598e-05;-0.04571705;-0.020204928;0.009475817;-0.048950903;-0.12792118;-0.093716085;0.046819627;-0.06311151;-0.04646239;-0.08104835;0.022005444;-0.058454234;-0.037506383;-0.07335759;0.07975618;0.00010590415;0.006287523;-0.05352479;-0.0529401;0.033776324;0.079894066;-0.00038234727;-0.053783257;-0.019561;-0.029651815;0.0059863087;-0.057992212;-0.031327046;-0.07513577;0.01249298;-0.020234259;-0.20631823;0.052876007;-0.0741092;-0.02707292;-0.09465203;0.060921937;0.023134494;-0.0031116018;-0.03701563;-0.04474205;0.025217604;-0.06953606;0.012013964;-0.029644674;-0.08673076;-0.0783255;0.0771643;-0.06906892;0.007895349;0.005274899;0.04810307;0.02219506;0.025181979;0.022528203;0.08325342;0.047207695;-0.087855525;0.040019687;-0.04302894;0.0057117767;0.10311728;-0.012457039;0.0383452;0.02238357;0.078002386;0.122796;-0.07583449;0.029650459;0.023516983;0.08581942;-0.05512346;-0.05469588;-0.077443816;-0.0573679;0.07595628;-0.06886592;-0.049268495;-0.057501413;-0.048231196;-0.018718;-0.10541867;-0.0818676;-0.026902057;0.005696702;-0.059548583;0.0411242;0.106544666;0.05072658;0.04897185;-0.1526363;0.014622276;0.0958066;0.024199016;-0.1450982;-0.10261859;0.0029155952;0.024464171;0.004537499;-0.044412974;0.047807988;0.14234717;0.043605734;0.08623614;0.031059282;-0.06193522;-0.0168247;-0.032064926;0.066953905;0.05734912;-0.05244783;0.06197645;0.11660402;-0.00945236;0.060403198;0.013684796;-0.089089215;-0.12520654;-0.05760703;-0.037715875;0.065976664;-0.008563357;0.061942354;0.027537972;0.02336543;0.054776195;0.007670967;0.020677961;0.04596818;-0.02181085;0.021165432;-0.120914906;0.03630544;-0.057948515;0.0056920135;0.0014933842;-0.030145586;0.04044381;-0.032616872;0.040732395;0.04193311;0.00225137;0.05401948;0.082769506;0.007732982;-0.056204922;0.0011336586;-0.08996275;-0.040215723;-0.023414938;0.017307993;-0.02529703;-0.082282394;0.038062006;-0.009825584;0.08315081;-0.05563431;0.023208858;0.07894605;0.033548456;-0.076446205;-0.04755829;0.061605047;0.06845674;-0.010009926;0.04691146;-0.059289265;-0.037770487;-0.065039955;-0.03845764;0.1451166;-0.06431398;0.009339611;0.09635238;-0.006568846;0.0575506;-0.04809236;-0.08247632;-0.008269379;-0.009255065;0.042093273;-0.0857004;-0.011807233;0.07627118;0.06850821;-0.050276797;0.0031023698;-0.0021388785;0.010274178;0.06959882;0.050987322;-0.09669968;0.009642534;-0.028669314;-0.02850092;-0.013369866;0.044838924;-0.0393548;0.08968699;-0.017388113;-0.06498267;-0.07182185;0.005167917;-0.045280926;0.05683213;0.025363473;0.07001271;-0.007828184;0.05368412;-0.059770327;0.0029508336;-0.015377499;0.074446164;-0.04120415;0.031404722;-0.044080302;-0.02652058;-0.0066146157;-0.07697513;0.049617965;0.055917375;0.036604837;0.06192135;-0.01946405;-0.20036721;-0.05051686;0.06530141;0.112431526;0.030376619;-0.09653983;-0.01358913;0.004206342;-0.14892377;0.000979223;-0.09213122;0.033844758;-0.04019646;0.03257068;-0.024946336;0.054691013;0.026163971;0.095285095;0.047930736;-0.04147551;-0.03875036;0.055774976;0.03523407;0.010673451;-0.0086961;-0.005558661;-0.091167174;0.042810652;-0.080365114;-0.05071589;0.069534004;0.08757824;-0.021692935;0.014072846;0.0104016485;-0.0904947;0.009940525;-0.034112845;0.043865036;0.052974686;-0.0035992176;0.08280264;-0.04815426;0.042433113;-0.07000712;-0.013409631;-0.0081159435;0.03117133;-0.06967484;0.052784465;-0.06415363;-0.045445453;-0.034356885;0.09998034;0.115351565;0.039651595;-0.013536802;-0.03585818;-0.0038241588;-0.033409424;0.06518055;0.06384504;-0.0600732;0.0362187;0.04448778;0.05085998;0.029303608;0.007286233;-0.09281368;0.047474608;-0.00038582017;0.07810052;0.07758209;-0.115999356;-0.012110435;-0.044020023;0.050063424;-0.006122462;-0.028975366;0.0016213292;0.018816907;0.017256167;-0.012965619;0.08142724;0.01988946;-0.13067743;-0.025520205;0.061094847;-0.026496928;0.06814737;0.0035034614;-0.06866463;-0.09388979;-0.077535376;-0.07143775;0.031756904;0.03976234;0.086768486;0.066219494;-0.040635932;0.009105408;0.030638317;-0.015384776;0.09385761;0.08553625;-0.053024724;0.05438635;0.03331575;-0.043524485;0.014462291;0.04381565;0.013274658;-0.047290638;-0.08564053;-0.076748505;0.08045364;-0.023771796;0.071133904;0.031881418;-0.0293963;0.019324549;-0.061306167;0.013758492;-0.06461878;-0.04001381;0.015519393;0.028131962;-0.07660105;0.06281105;-0.053027656;0.06961437;-0.057218794;0.04095464;0.0124601945;-0.09892285;0.023589628;-0.047733538;0.01155289;0.034533113;-0.012756842;0.06770059;-0.06096315;0.028445646;0.015064739;-0.09156577;0.09690005;0.042530295;0.05000703;0.02217027;0.04065432;0.051453177;-0.056667976;-0.019930052;0.00710139;-0.047811378;-0.020129317;-0.06473426;0.093657166;0.009758425;-0.01376613;-0.08406006;0.05116732;-0.083470486;0.05773728;0.08565218;0.072332755;0.12923792;-0.026007693;-0.07011188;-0.033549875;0.022135817;0.028813763;0.097249396;0.0989269;0.023525616;0.011493598;0.07336168;0.022397386;0.04849302;-0.09295501;-0.04235792;0.04617197;-0.061176643;-0.10658299;-0.013866438;0.020898066;0.02100151;-0.051652648;-0.054942172;0.024711557;-0.053432662;-0.08306041;0.056987237;-0.10390685;0.036376916;0.05344908;-0.032308713;0.0662555;0.09278306;-0.05162628;-0.08723365;-0.14868183;0.0115659665;-0.07018577;0.027120156;0.0016502385;0.07384636;-0.0333164;-0.10175446;0.0067291134;0.029813796;0.009045802;-0.030383218;-0.0055117765;-0.0453824;0.0125092305;-0.025167042;-0.10639704;-0.0027395186;-0.05760367;-0.09094412;0.062884666;-0.09326606;0.07428625;-0.05348297;0.006795793;-0.023433309;0.072197445;-0.040741377;-0.06905972;0.070166126;0.071440004;0.06213004;-0.0575185;0.05483621;0.057002466;-0.0503108;-0.074624486;-0.09288406;-0.06886347;0.013750355;-0.06637301;0.0035411662;-0.0033260167;0.1442894;-0.035425756;0.092743196;-0.05506821;0.05168313;0.054750368;-0.002988449;-0.045296587;0.04618289;-0.029134098;0.050849453;0.08667662;0.029731708;0.049604513;0.06527802;-0.011952082;-0.09342423;-0.065435134;-0.09143983;0.02162918;0.043284893;-0.06936157;0.0006052201;-0.03926819;0.028471641;0.06876818;0.007378844;0.04952136;-0.060443785;-0.07171303;-0.05497639;-0.05764125;-0.050520696;0.07625788;-0.009783199;0.068153694;-0.015254725;-0.0916902;-0.031990744;0.034244936;0.037794694;0.032076076;0.03845369;-0.071972266;0.03742389;0.0290594;-0.058767058;-0.0701304;0.053927336;-0.01507021;0.013701951;0.09664303;0.002686804;-0.078607194;0.077900484;-0.0004745355;-0.103718214;0.03324553;0.057821512;0.07373371;-0.012996226
-0.038606633;0.020827413;0.017148875;-0.0964919;-0.054093614;-0.05167156;-0.08574159;0.024511682;-0.038406905;0.06921098;-0.0073494352;0.03559692;0.047560275;0.029246433;0.0015281513;-0.017502325;-0.069276646;-0.017315973;-0.06784603;-0.069742106;-0.05207228;0.043720555;0.069238245;0.07831428;0.12231464;0.058014695;-0.062826;-0.107271165;-0.028246317;0.017880483;0.06531445;-0.008018319;-0.028008407;-0.031640165;0.052457836;-0.057647277;-0.014239548;0.0697901;0.055463083;0.04261015;-0.09131045;-0.06006714;-0.1085292;0.14237332;0.07342921;0.006700798;0.028625658;-0.06957735;-0.0003381687;-0.027792644;-0.036405124;-0.06506783;-0.08916342;-0.038356863;0.06444;-0.10893573;0.09351448;0.03229313;-0.012046414;-0.020752162;0.045752034;0.038030874;-0.032505717;0.039131142;0.047700137;0.05479938;-0.004357452;0.07258088;-0.05150235;0.08724624;-0.033804275;-0.0028610125;-0.13430451;-0.012732438;0.0021892812;-0.14902881;-0.0520761;0.0269757;-0.17955332;0.005100816;0.058883462;0.022047386;-0.124993324;-0.019501973;0.0012513029;0.004027912;0.06158649;0.07046993;-0.017778572;-0.014238868;0.03646827;0.0010503376;-0.03604656;-0.04658762;-0.058169495;-0.049028117;-0.087863676;0.06833037;-0.025729215;0.07107252;-0.027733698;-0.056641404;0.016006405;-0.00066711754;0.053694207;0.049736153;0.016804393;0.0058116512;-0.037394922;0.03403412;-0.01084739;-0.010945734;-0.058268555;0.11366832;0.033094227;-0.022779508;-0.06738404;0.044147387;-0.03793169;-0.08370499;0.026273478;-0.0637596;0.03290104;-0.0077059446;0.039653618;-0.018766513;-0.042659145;-0.017378174;-0.10301208;-0.083807915;0.04590346;-0.089902386;0.027990915;0.08937659;-0.04986243;-0.068591446;0.10756197;-0.086570844;0.09082931;0.044733264;0.029983638;-0.13288507;0.071187876;0.022770349;0.08198629;-0.027540766;0.042701457;-0.01607659;0.16208017;-0.09633921;-0.025988733;-0.043401852;0.04529216;-0.06627105;0.006122576;0.071604654;0.06886996;-0.07878971;-0.018433329;0.075502835;-0.0053157327;0.09212336;0.06262474;0.051291786;-0.006835748;0.076042816;-0.024170378;-0.049905315;-0.02681668;0.069174625;-0.05460752;-0.0689083;0.043421675;-0.017947309;-0.010025744;-0.07703362;0.114236906;-0.00038531472;-0.1001941;-0.05486711;0.01622313;0.05945482;0.050250906;-0.020396711;0.041295644;-0.078075446;0.0927191;-0.0282731;0.041125868;0.05597661;0.100813694;0.04821339;-0.014046061;-5.9178587e-05;-0.08404043;-0.0146771455;0.045676745;-0.085292;-0.087940596;0.020572862;-0.065126546;0.02440411;0.05179364;0.06428715;0.0008946749;-0.049122076;-0.03693226;-0.08178371;-0.13589483;-0.0016998035;0.0060507767;-0.05052929;0.026068972;-0.042791937;0.004798054;-0.053842958;0.015971523;0.1248142;-0.03754435;-0.0126130795;0.017893763;0.07667839;-0.06803236;-0.010019532;-0.03449373;-0.009837946;0.06455437;0.0046029007;-0.0004593023;-0.06875117;0.0070213387;0.09193837;-0.062498655;0.061322033;0.04448424;-0.08884016;-0.043825064;-0.030321984;-0.0029635064;0.053227767;-0.05059834;-0.024295924;0.08337907;0.13845448;0.03780672;-0.047878575;-0.022084756;-0.01975069;-0.067966245;-0.010366683;0.02618823;0.013659907;0.11717922;-0.03898182;-0.035669506;0.046259567;-0.053775683;0.07502067;0.13898551;-0.031435963;-0.05440209;0.036465954;0.07894508;-0.06921086;0.072691046;-0.052964967;0.103578106;0.039249264;0.074205816;0.04270141;0.05498599;-0.12523612;-0.0051011494;0.048335973;0.11721442;-0.010395792;0.06308458;0.049516574;0.0076776436;0.052664936;0.055431716;0.06283365;0.047985036;0.08290088;-0.030566577;-0.013738411;0.023943232;-0.044737287;-0.009030887;-0.0511771;0.008446771;-0.027275166;-0.09166791;0.024710627;-0.059439655;-0.06198913;0.032577574;-0.15807834;-0.0027741063;-0.09566106;-0.048050746;-0.055337865;0.019405952;-0.07543781;0.067336656;-0.12730892;0.025193576;0.002034148;0.007017302;-0.025840878;0.04021339;0.04044619;-0.04542628;0.054929096;0.06543396;-0.18499593;-0.025550868;-0.15036117;0.06294375;-0.031777952;-0.037002232;-0.029003292;-0.05538263;-0.017814202;0.06712191;0.096744314;0.07219085;0.030017352;0.03704947;-0.0089814095;0.05113091;0.044693176;0.045917172;-0.05349853;0.14191361;-0.047938786;0.08814164;-0.0790019;0.028801536;0.04713516;0.10037337;0.013548514;-0.035938893;0.029946147;-0.12668946;0.010930236;0.012728134;0.056146566;0.028659675;-0.10434959;-0.10852934;0.034116752;0.026720176;0.06348861;-0.08503851;0.056324057;-0.06560941;-0.11431661;0.12498149;0.05316811;0.008337209;0.072648965;-0.15384668;0.04987569;-0.026823761;0.01374253;0.0449114;-0.005044347;-0.029367918;0.019297985;0.032879785;-0.04257228;-0.02984226;-0.016527278;0.082072586;0.070456006;0.014321333;-0.09714151;-0.016993785;-0.019049475;0.048520625;-0.0959543;-0.010240267;-0.13276665;0.007761012;-0.019401118;-0.072550155;-0.08062601;-0.020631714;-0.057208;0.071498714;-0.07226693;-0.030156178;0.14270633;-0.040280994;-0.041693684;0.15367457;0.062207483;-0.02359252;0.009019346;-0.010509231;0.016888162;0.019000528;-0.019500544;-0.031016808;0.054312933;-0.004728996;-0.029948661;-0.07184915;0.016607037;0.061914492;-0.016693953;-0.035072926;-0.021204436;0.003151482;-0.16420095;0.072467245;0.067599006;0.03889842;-0.035222027;-0.013571908;0.08350446;0.05653504;-0.06878126;0.023330886;0.05470461;0.02881032;-0.0526344;0.014287155;-0.037768513;0.08291078;-0.00036937557;-0.066000745;0.06804571;0.095143646;0.02380303;-0.005266302;0.08747547;0.070855014;0.00946474;0.05345862;-0.039989643;0.050209604;0.10192227;0.13949269;0.03324161;0.028638715;-0.0011199339;-0.0034342397;0.061918933;-0.08366215;0.063571475;0.05205252;-0.014914949;-0.117795445;-0.039968647;0.03905557;-0.023628443;-0.009049373;0.05411507;0.0025050046;0.02879239;-0.07257534;0.036953628;0.03254405;0.028155267;-0.005193462;0.04466825;0.10894697;0.085677415;0.006674762;-0.007684723;-0.114957966;-0.08853727;0.047195915;0.0891025;0.030655045;0.0765124;0.06244323;-0.06084216;-0.048838038;0.060505267;0.0048686536;-0.106218025;-0.1818585;0.0029459293;0.022842262;-0.04176399;-0.050427854;-0.024422169;-0.06623471;-0.12417541;-0.011220963;0.0019082801;0.044940997;-0.049172126;0.0020212051;0.04936304;0.14376186;-0.10459181;-0.013115034;-0.052491706;0.06884106;0.056859996;-0.04172369;-0.06832431;-0.0032030323;0.04864366;-0.06810115;0.046049926;-0.056230813;0.025808912;0.015658662;-0.044259086;0.060410585;0.15832789;0.03496267;0.01031135;-0.031474747;-0.017944967;0.081145406;-0.0068754223;-0.0074620578;0.05941403;0.0058516706;0.026735881;-0.01310913;0.021798903;-0.053754687;-0.07409349;0.012155615;-0.038216583;-0.03930694;-0.115230896;0.07860134;-0.0075626606;-0.062970385;0.09128966;-0.026777985;0.061046578;-0.08612891;-0.045574427;-0.07790324;-0.0007540193;-0.051705353;-0.036228143;0.049611386;0.07253945;0.04049829;-0.07322881;0.0273388;-0.039980788;0.072306104;-0.01959038;0.039271973;0.021838142;0.13144596;0.100950055;-0.055195294;-0.033527844;-0.074552864;-0.007754678;-0.0023554917;-0.07983295;0.0006357813;0.02734054;0.07237906;-0.044675924;0.029061213;0.079716444;0.047627755;-0.082274064;0.047828075;0.004891944;-0.034019995;-0.023490848
-0.13926323;0.008568079;0.06787992;-0.06866406;0.026658481;-0.05337062;-0.04202627;0.066866614;-0.069401726;0.051086154;0.040326636;-0.06618386;0.00991422;-0.058960967;0.075665876;0.05267564;0.09499836;0.11305735;-0.07660551;-0.038141448;-0.0360156;-0.041893534;-0.017195681;0.0299489;0.06541642;-0.029472949;-0.004662559;-0.14215988;0.008107969;-0.034743294;0.007463325;0.12904914;-0.057221133;0.10220032;-0.08868915;-0.055262215;0.078227155;0.044742677;0.035773262;-0.044564478;-0.08100376;-0.0670532;-0.08261162;0.092010885;0.013878237;0.012164158;0.06358267;0.0282941;0.102315605;-0.028846135;0.024164286;0.03702982;-0.118067846;0.043541882;0.05227617;-0.03338084;0.09488747;-0.026949063;-0.04977361;-0.03905738;0.057251886;0.0068570348;0.09203054;-0.07980608;0.014721203;-0.03714619;-0.009332826;-0.023842966;0.13443363;0.07781628;0.049329657;-0.027278874;-0.12190382;-0.04998121;-0.03411622;-0.1332005;-0.027433336;-0.05192996;-0.22786188;0.07375887;-0.052251603;0.08995605;-0.03579026;-0.06261337;-0.11702431;0.0077717644;0.032070212;-0.046311997;-0.049931746;-0.032906234;0.02115335;-0.03798835;-0.026210232;-0.14476894;0.007942933;-0.0360774;-0.0432395;0.025490293;0.045343123;0.04599753;0.1116978;0.032355532;0.07099845;-0.053307083;0.005623067;0.06276574;-0.059639897;0.07768484;0.04035485;0.07558949;0.048062097;0.04775872;-0.03352839;0.116325796;0.0562219;0.06514404;0.054939616;-0.03153122;-0.08009909;0.06787504;0.034549717;-0.048110414;-0.053215142;0.0650511;0.0036743442;0.01079616;0.15872519;0.051228657;0.036338847;-0.08117659;-0.032587763;-0.07840216;-0.08095546;0.044488445;0.039815847;-0.09314651;0.13178115;-0.006143522;-0.04391422;0.016204223;-0.0009207963;-0.2524447;0.07620169;-0.031883653;0.07968908;0.016945738;0.051030494;0.075906605;0.011732621;0.001610392;-0.07686067;0.021891922;0.0036607643;0.07488785;-0.030897792;-0.037840508;-0.06784309;0.03547314;0.0020069939;-0.0078070485;-0.03196511;-0.03067599;0.03547285;0.01641736;-0.03962859;-0.020067928;0.00900494;-0.05733597;0.056893986;0.010381012;0.009724619;0.04463214;0.07994469;-0.08852106;-0.0472799;-0.06777608;0.07044594;0.036631264;-0.11265969;0.05708036;0.030596327;-0.051107533;0.111228995;0.05466744;-0.008539193;-0.045682907;0.11591947;0.008057255;-0.068592176;0.06483851;-0.070899926;-0.048532154;0.080198534;-0.06299368;0.091665804;-0.051955182;0.02568574;-0.039133687;0.018841738;-0.051949564;0.026905812;-0.03944464;-0.05688617;0.030557837;0.012757787;-0.02714173;-0.02490017;-0.12337729;-0.0095998915;-0.012653885;-0.021514395;0.044966336;-0.011468142;0.0036571699;-0.03743805;-0.013440114;0.08907459;0.051409837;-0.039410986;-0.019631838;-0.014236066;0.034247942;0.07897775;0.006505341;-0.03469484;-0.013643541;0.096029125;-0.031648196;0.069068566;0.00848582;0.012779932;-0.060370233;0.06430725;0.091970645;-0.026939781;-0.08145168;-0.04473773;-0.003026072;-0.029970061;0.08655314;0.022133311;-0.042412933;0.06660681;-0.05844835;-0.021787984;0.012946726;-0.02654397;0.005368357;0.07675525;0.07271126;0.03945945;0.052922834;0.00051111786;-0.0928182;-0.046242252;0.05240597;0.05826515;-0.016696315;-0.006798386;0.04190342;-0.03088771;0.04001524;0.06018848;-0.050920527;0.067892835;-0.06630501;0.09453318;-0.013100082;0.103246935;0.03251039;0.06461475;-0.06741608;-0.07095952;-0.04485047;-0.040723264;-0.102081604;0.03271373;-0.10140407;-0.012584832;0.0892277;0.020790791;0.0038092856;-0.053789467;-0.072265014;-0.06437833;-0.085593574;-0.08741436;-0.08380853;0.063290805;-0.04748204;0.023969673;0.021629535;-0.014399659;-0.016360654;-0.11949546;-0.075728424;-0.022771649;-0.08329281;-0.026234303;-0.081674986;0.08602683;-0.09422551;0.001400327;0.0071170707;-0.025399964;-0.009839209;-0.016225768;-0.06327459;0.070215784;0.07542614;0.010531475;0.0052478984;-0.011139031;0.055877797;0.026639918;-0.2321137;-0.050652407;0.0058218865;-0.06568536;0.010566576;0.07726997;-0.06992298;0.09553768;0.05816191;0.041659806;0.061962724;0.027386367;0.018963251;0.032895956;0.039525144;-0.026842786;-0.053457476;0.03755491;-0.040479567;0.1403734;-0.02507711;0.04706207;0.06816874;0.047761958;-0.08020559;-0.024039634;0.05840102;0.023064619;0.022609374;-0.09064564;0.07115453;-0.035985652;0.078875;0.0027589991;0.027856948;0.008234835;0.10904303;0.08596839;0.07977083;-0.05516279;-0.05248298;-0.26319778;-0.056103542;-0.073069096;0.057624947;-0.021805828;0.03421311;-0.16736834;0.03065444;-0.036002498;-0.04895732;-0.031387165;-0.09381073;0.107372284;0.053230777;-0.03472992;0.08570583;0.054817025;-0.055826;0.16882731;-0.07394581;-0.04911726;-0.08163753;-0.015767742;0.027573435;0.054142486;-0.09836845;0.016012384;-0.07887565;0.07287067;0.058196936;-0.026919995;-0.025268516;-0.032731768;-0.050538205;0.021301901;-0.04263767;0.058881745;-0.03313272;-0.059621032;-0.021157123;0.087613076;-0.039765146;-0.101582214;0.09860366;-0.025949398;0.0009791822;0.039483994;0.056031536;-0.04175546;-0.025075259;-0.03347173;0.038118802;0.01992682;-0.05740631;0.037967473;-0.06572233;-0.08155927;-0.0582725;-0.0059436657;-0.1351634;-0.07778707;-0.0056102737;0.07499273;0.073247604;-0.029485306;-0.018374946;-0.03503134;0.07337352;-0.06476579;0.08311668;-0.028919905;0.07298505;0.06928069;-0.052578665;-0.057975538;-0.10712021;0.07575412;0.071424104;-0.013770863;0.030216003;-0.048413277;0.06884083;-0.03407226;-0.035939068;0.030072719;-0.019012656;0.07477735;0.07866548;0.024308365;-0.047616124;0.030739758;0.009656887;0.037403356;0.044895064;-0.008678442;0.0008615336;-0.057337295;0.04791106;-0.083071545;-0.042544566;-0.06308013;-0.0409371;-0.018637348;-0.03357609;0.019464167;0.024879007;0.0032436757;0.018224992;-0.05732945;-0.05824112;-0.0070593823;-0.051427092;0.013352241;-0.0036788685;-0.05634532;0.048263036;0.022983449;0.0566073;-0.031087572;-0.0667538;-0.02472094;0.037812553;-0.0011552657;-0.0927668;-0.056437247;-0.024242267;-0.058791853;-0.0924225;-0.082174405;-0.005858328;-0.043219473;0.03238518;-0.13266286;0.03917784;0.03788869;-0.100027785;0.14070924;0.047230717;-0.018599082;-0.026043719;0.04980991;0.0010853768;0.12344353;-0.04536665;0.05986438;-0.00036866058;-0.027431492;0.061308384;0.017189087;0.030298458;0.015135665;-0.08202924;0.04840234;-0.07657639;0.005317984;0.11276144;-0.035710044;-0.13405593;-0.04680937;-0.037766263;0.05762704;-0.073463894;-0.21386124;-0.014903364;0.019606307;-0.00744071;-0.0067415475;0.023728304;0.04318198;0.06405857;-0.05494383;0.006275406;-0.1340367;0.039141357;-0.026419489;-0.0432327;-0.03012219;-0.08825232;0.03544785;0.07479167;-0.072645396;-0.03910209;-0.009428667;0.036756355;-0.057770986;0.018973934;0.007882137;-0.0074320557;-0.08487637;-0.09863543;-0.025858307;0.012616608;-0.038507663;0.03658788;0.017726468;-0.0031140374;-0.09420279;0.037310876;0.05942536;-0.01438711;-0.0026345202;-0.079466656;0.047854375;0.06325085;-0.06021071;-0.092333;0.05467637;-0.012909524;-0.05739934;0.014499937;0.03499041;-0.09044881;-0.01522751;-0.05197245;0.06391921;-0.09631305;-0.0035918236;-0.03237608;0.06897997;0.023845214
-0.08194719;0.06275481;-0.06141572;0.06637833;0.035295542;-0.062338993;-0.14217302;-0.008607468;0.053559244;-0.0236073;0.051924348;0.07462495;-0.035082128;-0.027580192;0.056062777;-0.03687802;0.00682953;0.07453555;-0.1158258;0.03048684;0.04476419;0.05510761;-0.0501853;0.014891409;0.050557848;-0.035231847;0.06229123;-0.024284482;-0.047655422;-0.012197055;-0.041628428;0.02388713;-0.080735564;-0.008069257;0.038488366;0.02086854;0.060285013;-0.07084706;-0.043205626;0.03432493;-0.06218239;0.07518339;-0.084199406;0.11267759;0.043209106;-0.108787484;0.0316097;0.031622134;-0.049662877;-0.0923249;0.026285473;0.05155968;0.023779146;-0.12184398;-0.01635411;-0.1279553;0.06810622;-0.057854477;3.7798294e-05;-0.08642629;0.006659948;-0.082238175;-0.0031949088;0.06445485;0.012759472;0.05041644;0.02497117;-0.015318829;0.040326163;0.0029548244;-0.08996468;-0.06429532;-0.14111638;0.06470471;0.0580318;-0.08841305;-0.028771633;-0.04766084;-0.15552498;-0.05567368;0.023563601;-0.019537646;-0.0745648;0.06426974;-0.08362112;-0.04012825;-0.045009147;-0.026481133;-0.029232647;0.013116452;-0.016325545;-0.006535372;-0.06062477;-0.06963565;0.06604788;0.07690789;-0.09452222;0.070065044;0.06489956;0.020366438;0.11789552;0.04058123;0.08861684;0.040206186;0.047963116;0.044555027;0.059445728;0.08511419;0.13883965;0.010017006;0.046698403;-0.053182457;-0.015505773;0.048098832;0.063605875;-0.039186984;-0.009138924;-0.015878586;0.059340548;-0.019501789;-0.05461918;0.018433949;0.0017253197;0.0026533476;-0.014463212;0.10787351;0.045646474;0.025185829;0.059324056;0.048338708;0.05393436;-0.092707165;-0.017667638;-0.06675914;0.043422878;-0.08001367;-0.0064041982;-0.0978414;0.038744725;0.14520484;0.042695206;-0.2280148;-0.00034291658;-0.07808317;0.0057905004;-0.059249498;-0.0012452276;-0.03606401;0.13236931;-0.017156348;-0.037812736;-0.016918689;-0.084949225;0.03827319;-0.009637043;0.04856478;0.0766866;-0.16572082;0.08111235;0.07136952;0.010396059;0.02314837;-0.042136226;0.12415382;0.0696695;0.022483552;-0.058086094;0.022723084;-0.05271715;-0.06147933;0.050566163;-0.08573324;-0.058149815;-0.07285048;0.058065042;0.044988334;-0.00015994329;0.041605394;-0.17466123;-0.043249633;-0.02447595;-0.0028305445;0.023941562;-0.059679665;-0.0124660805;0.043384545;-0.017486865;-0.008563092;-0.006884617;-0.07995736;0.020461444;-0.066727065;0.071277566;-0.045352012;-0.06088051;-0.0048165927;0.039024353;-0.082755186;-0.047384605;0.016185828;0.037323054;-0.06935678;-0.037517566;-0.07085516;0.055409603;0.09488887;-0.039059322;-0.03094643;-0.0890279;0.022463623;0.0081142625;-0.07378351;0.08343477;0.06358287;-0.013558487;-0.017228756;0.06218428;-0.01195892;0.056337476;0.055234093;0.0048683537;0.030811679;0.046194162;0.027090548;0.020185858;0.05673876;0.0015434452;-0.06967613;0.0025022367;0.042580843;0.02480793;0.017191498;-0.012537769;0.038319793;-0.010857295;-0.06228199;-0.0116956895;0.0021234134;-0.043825503;0.043084435;0.031506784;0.023302514;0.036505334;0.034513656;0.013334349;0.07590201;-0.06334592;-0.05238441;0.016897352;0.034645136;-0.009953068;0.031100709;0.11323732;-0.046962496;0.04781078;0.07058863;0.034101456;0.047244027;0.008745674;-0.038162153;0.019959427;-0.006806148;-0.069484286;0.039680462;0.029443387;0.05017501;0.058582857;-0.019957487;-0.033846285;0.020535093;0.009117341;-0.05711951;0.027244857;0.05523464;0.07151206;-0.06991289;-0.058898106;0.009419798;-0.0665764;0.09709047;-0.08001793;0.0072236885;-0.0035685918;-0.02277091;0.025509862;-0.04597073;0.021919094;0.057412397;0.048469014;-0.019503238;0.040580407;0.052225675;-0.06157905;-0.01765528;-0.0980436;-0.09934226;0.042192735;-0.03703418;0.10895279;-0.029143047;-0.030592736;-0.016913008;0.03057957;-0.0099666715;-0.027399922;0.023782108;-0.04218991;-0.019627942;0.031954255;0.026104447;-0.029335802;0.0733532;-0.00451255;-0.0380942;-0.04409195;-0.13639638;-0.043880645;-0.024588091;-0.07192973;-0.0023731822;-0.025321366;-0.056322433;0.007584787;0.001014444;0.13103445;-0.029722922;-0.058801115;0.04554834;-0.00041238076;0.014132823;0.002579987;-0.043321595;-0.0063790996;0.014586666;0.10906497;0.0075886417;0.06857986;-0.024458116;-0.047441754;-0.041753095;0.09531431;-0.005541286;0.060334392;0.028088402;-0.095828734;-0.019703228;-0.05459189;0.002837862;0.03435385;0.08351022;0.061218277;0.064572826;0.065304816;-3.1267256e-05;0.026512234;-0.08860918;-0.24526453;-0.07861629;0.0019835802;-0.06737036;0.0631366;0.03607831;-0.24863756;-0.0020125504;0.06745623;0.045195974;0.05963107;-0.13267282;0.074915364;-0.019417275;0.03559421;-0.016324816;0.067134894;0.012851151;0.010871483;-0.046946738;0.050702646;-0.05471931;0.00092488667;0.118032955;-0.031864814;-0.07416037;-0.003648671;-0.13242632;0.079393215;-0.028333375;-0.059079614;0.0099741835;0.06356019;-0.09296541;0.035441253;-0.017931178;0.13211316;0.0011528993;-0.060626175;-0.008672701;0.15541023;-0.07274507;-0.11586011;-0.030713754;-0.008692238;-0.034098327;0.069780365;0.053242598;0.025727157;0.06221232;0.06968224;-0.071944945;-0.048418187;-0.041860025;-0.045810807;-0.08560535;-0.033933435;0.06427272;-0.15698145;-0.08117217;0.041006505;0.05312573;0.030178724;-0.0358448;0.10541306;-0.011875107;0.061315153;-0.006272411;-0.054682594;-0.077366605;-0.036731184;0.018839505;-0.07254938;0.03909085;0.0017414301;-0.045583747;0.08059154;0.0646987;0.06491364;-0.058804587;-0.029068477;0.029418124;-0.03173449;0.016291795;-0.071340494;0.074233934;-0.021565702;-0.06973499;0.06086356;-0.010687096;0.060668692;-0.08163371;-0.065849;0.12046827;-0.01516895;0.033904575;0.062240448;-0.018145513;-0.0031935296;0.0680145;-0.102312624;0.034826253;0.056974925;-0.022937708;0.03752356;0.039174356;-0.12019503;-0.05722886;0.03488221;-6.229355e-05;0.07063988;-0.104703434;-0.040187113;-0.021704754;0.067638054;0.030488322;0.045958348;-0.037901577;-0.07006839;-0.025306266;-0.014099585;0.04498336;-0.051801503;-0.028889816;0.004007864;-0.07333161;0.034022737;-0.05926186;-0.066797204;0.02607364;-0.015227281;0.013578488;-0.065106384;0.008267634;-0.039868657;-0.05986175;0.07722428;-0.13456686;0.06631346;-0.033447422;0.048843045;0.06915952;0.1323178;0.056784723;0.042780925;0.079970255;-0.03848439;0.04186565;-0.052911498;-0.0495123;0.036504187;0.006166771;-0.08232544;-0.027273756;-0.0071314434;-0.007839405;0.05372508;-0.090379015;0.0010939576;-0.029309088;0.08852508;0.0978287;-0.037051406;-0.028682703;0.020798363;0.022801183;-0.019971788;0.059813373;-0.0076097366;0.0505964;0.100928925;-0.04826369;-0.096108735;-0.04289345;-0.029710623;-0.032688368;-0.0055736187;-0.032157026;-0.042443745;-0.004113313;0.04470991;-0.02271854;0.064949214;0.024668075;-0.056016166;-0.026798418;0.04464687;0.07574021;-0.041211225;-0.022147711;-0.09342791;-0.027700238;0.014513423;0.045802824;0.021069553;-0.038555395;0.02358732;0.016913608;0.03934049;-0.07751137;0.0133266775;0.034542874;0.028547704;0.008988363;-0.02758101;-0.07381714;0.026246509;-0.028228953;-0.030393269;0.09465742;-0.08930137;0.02857014;0.0302964;0.06382003;0.06886704;-0.104161106;-0.08792851;0.04661399;0.12743457;0.012238323
0.0173195;0.013001603;0.011655835;0.04601544;0.025565362;0.06582171;0.055040732;-0.030872196;0.048257984;-0.017168002;0.056602884;-0.072542086;0.049462926;0.07732205;0.0096899895;0.029449845;-0.0410664;-0.047206413;0.07125794;-0.03934545;0.098687;-0.020640248;-0.050800797;0.0154945245;-0.018219901;0.053840935;-0.053057954;-0.01487549;-0.0661743;-0.08339263;0.04495049;0.013663905;0.046685558;-0.034613747;0.015819142;0.042819317;0.02520889;-0.04680038;0.023674311;0.039655905;0.01413056;0.03790313;-0.095547095;-0.055625204;0.029883984;-0.064018376;-0.052288715;0.025781306;-0.030818837;0.047949657;-0.00926695;-0.01941542;-0.07324695;-0.07236846;0.029305149;-0.016026128;0.065931395;0.051421132;-0.015356244;0.042192847;-0.07991769;-0.05985843;0.0018579653;0.05937982;-0.14142084;0.03709586;-0.0437698;0.026567696;0.101711504;0.021196436;-0.0791215;0.06037707;-0.011079258;0.03364132;-0.04379933;-0.011453754;-0.014994188;0.04425416;-0.26501134;0.086200036;0.04639574;0.11652782;-0.03197337;-0.018200671;-0.14404581;-0.0531017;0.005661983;-0.06803443;-0.028752727;0.077679396;-0.005021113;-0.023043117;-0.03902753;-0.12941898;0.05019107;0.060887963;0.01838122;-0.04570739;0.024398169;0.07210123;0.12484898;0.0805851;0.0805458;-0.027741272;-0.021853449;0.025041986;-0.042843524;0.018345848;0.061422486;-0.068625614;0.026999196;0.06783851;-0.09399439;0.09281667;0.031529956;0.021641636;-0.041129876;0.029800413;-0.003449492;-0.066096716;-0.035043813;0.06321538;-0.05106413;0.029230317;-0.06559068;0.11892846;-0.01150949;0.022833483;0.0841172;-0.025571119;0.12625578;-0.07992701;-0.031117965;-0.01776154;0.08024052;-0.009356371;-0.007496348;-0.07880157;0.023774078;0.03307867;-0.04231663;-0.1385798;0.08202127;0.022398045;0.07752731;-0.07335389;0.044128176;0.033940036;0.1230898;0.019342907;0.04917358;-0.040320385;-0.0039106905;0.038965832;0.083303615;0.0032948046;-0.046674788;-0.041619513;-0.02661473;0.015814438;-0.021953173;-0.07982556;-0.028682975;-0.070811264;0.10440044;0.024584077;0.028217534;-0.07357153;-0.070349805;-0.017450718;0.06774593;0.03274378;-0.0050212117;0.008425847;0.071913786;0.022845171;0.013999272;0.05923262;-0.13707948;0.022543907;-0.11016167;-0.047880694;0.045229018;-0.011728301;0.00784649;0.11439007;0.056468386;-0.06788517;0.068885185;0.05194248;0.045704685;-0.05280816;-0.0320985;-0.056932624;0.1110609;0.037406217;-0.030657608;-0.059835162;0.049108844;-0.050373748;-0.0798512;-0.060648568;0.07414427;0.06561191;-0.04023343;-0.04561327;0.060170844;-0.14396636;-0.12125114;-0.08896345;-0.0070047127;0.028173035;0.059322014;0.061533835;-0.064780265;0.057716157;0.03126819;-0.014462511;-0.06649768;-0.012791559;-0.08111692;-0.0054176315;-0.055043507;0.023969896;-0.062078785;0.005751033;0.03350773;-0.07702824;-0.0347212;-0.07730014;0.038591973;0.010232207;-0.05250136;-0.028550789;0.028540928;0.08765024;0.030692052;-0.017780304;0.028709441;0.02929789;0.06945427;0.03767153;-0.01679264;0.080445826;-0.033375353;0.031110046;-0.047512934;-0.053287208;0.0118504055;-0.06855588;0.07124648;-0.058454957;0.009066994;0.011943699;-0.023080494;-0.02144504;-0.013265727;-0.08076816;0.081677325;-0.061072707;0.0010855754;0.006627802;-0.007601258;0.03431223;0.004336882;0.024188433;0.08006162;0.057161488;0.051292244;0.0019061925;0.040738657;-0.08215242;0.03030885;-0.01062689;-0.008119707;-0.049618084;-0.045917727;0.037732836;0.0039125453;0.0069672484;0.060914855;0.02737437;-0.02494468;-0.08125273;0.025206372;0.036148544;0.07247894;-0.041599955;0.108035184;0.08058057;0.08753584;-0.05774426;-0.01935782;-0.061244827;-0.00069666427;0.073952936;0.036702584;-0.03788434;0.058578268;-0.092171535;-0.05398253;-0.0020300585;-0.071433604;0.06295638;-0.04060203;0.10113269;-0.011382893;-0.030870762;0.10028619;0.009604057;0.03753454;0.064111464;0.046370424;0.033772524;-0.07843481;-0.12775946;0.06888675;0.028686356;0.0049343132;-0.087355435;0.032065168;-0.018997565;-0.05597315;-0.032418083;0.036585547;-0.022093562;0.06102304;0.06378083;-0.044692475;0.07724271;0.0053102523;-0.07240918;0.002933114;-0.0481625;0.18055375;0.043497223;0.057715233;0.029961241;-0.070225954;0.029941771;-0.0580417;-0.049592763;-0.024053836;0.1292322;-0.012661042;-0.032825943;0.08925116;0.033502553;0.031868078;0.06941016;-0.10636531;-0.09858533;0.007166999;-0.0017343945;-0.031421397;0.018536171;-0.20054351;-0.07044714;-0.03572282;0.057828903;0.030989928;0.026614148;-0.14944036;0.11343814;0.057763524;0.003844157;0.10431341;-0.103251286;0.10780732;0.15852912;0.02738556;0.010503921;-0.06471057;-0.089154236;0.036037035;-0.039925843;-0.02793918;0.04742745;0.01014873;0.029081775;0.0695344;-0.09513015;-0.07605146;-0.16905166;0.030386731;0.088735566;-0.011517036;0.05044586;-0.07853714;-0.038744684;0.017000567;-0.0700046;-0.13717462;-0.050351884;0.036639698;0.07019412;0.093355924;-0.08564879;-0.06565032;-0.028306827;0.062926635;0.011722433;0.08894603;0.1111136;0.011971618;0.008614528;0.045366142;0.050120335;0.0644434;0.034661405;-0.08324319;-0.062235765;-0.0022647514;0.046037015;-0.023203311;-0.1979643;-0.010093325;0.057434205;0.11831624;0.08145827;0.100843556;0.04558562;0.037174784;0.022905583;-0.016259596;0.067540504;0.036705993;0.013414073;0.068397604;-0.07450748;-0.052849006;-0.071080856;-0.008705538;0.05225026;0.02345078;-0.048774224;-0.0021800017;-0.023419678;-0.0026879497;0.016046857;0.002485756;0.085144006;0.0191137;0.07694168;-0.023139685;0.020941732;-0.039047223;0.010556753;-0.014062428;0.0148834465;-0.04622832;0.039921038;-0.07903954;0.05046405;-0.15026008;0.022113772;-0.08485116;-0.010722543;-0.060345612;-0.0028498147;-0.048404206;0.05983771;-0.021011705;-0.012192181;-0.016779143;0.014215448;0.03493002;-0.048167508;-0.014522971;-0.06935024;-0.0073225396;-0.10394495;-0.14174782;0.05266563;0.008738235;-0.16209097;-0.039050903;-0.045188814;0.06437343;0.08756576;0.067281224;-0.00426732;-0.048664756;0.08362238;-0.041530512;0.027755478;0.06456593;-0.003725848;-0.049144685;0.021673426;-0.000752444;-0.09760224;0.16051883;-0.059005238;0.075353175;-0.114669636;0.017779823;0.079946905;0.07917304;-0.046436403;-0.010180206;0.07805779;0.072372064;0.043677624;-0.070069894;-0.003603249;-0.022804022;-0.03932919;-0.023258356;-0.10842813;-0.038227215;0.10179488;-0.021882826;-0.09964243;0.036411006;-0.030579392;0.08996466;-0.061561465;-0.23293082;-0.01479756;0.15795986;-0.06055784;0.04716226;0.03643255;-0.04156174;0.017350001;0.010268107;0.020609325;-0.057176176;-0.03295374;0.07240919;0.044706706;-0.1071428;-0.03506311;0.039308652;-0.0025087756;-0.0018661703;0.04370192;0.051502317;-0.039455198;-0.099455535;0.07709804;-0.071967326;-0.017450962;0.09172272;-0.05167987;-0.05468607;-0.04325928;-0.024536854;0.032042455;0.059159838;0.040004015;-0.0633933;0.015152066;-0.037462354;-0.043098625;-0.0034199439;0.057371933;-0.01804071;-0.015334777;-0.04797176;-0.046247154;0.026185498;0.042727415;0.036404196;-0.0076760263;-0.048407555;0.00045119913;0.0632269;0.10989059;0.035328496;-0.0563091;-0.015036694;0.02749176;-0.041018248;-0.020975476
0.083854936;0.07355778;-0.02772583;-0.040688906;0.055546787;-0.07157343;-0.0029304957;-0.04284731;0.073367454;-0.0028529752;-0.040085547;0.06351642;0.050505873;0.03726237;0.076607436;-0.024442647;-0.008143605;0.080745794;0.040750097;-0.041870058;-0.09201264;0.0008701978;-0.05549152;-0.0052012475;-0.014926448;0.0800224;-0.021441445;-0.1662133;-0.035853487;0.06145133;0.071797036;-0.05591837;0.036437068;0.0004393418;-0.011058776;-0.008855431;0.050591595;-0.019143423;-0.023738021;-0.027564848;-0.08955088;0.032281727;-0.0516221;-0.035253227;0.10002608;-0.046441782;-0.026782017;0.013555806;-0.02672633;-0.073678926;-0.04452137;-0.1354601;-0.09872114;-0.018730827;0.045749426;-0.09750892;0.090240285;0.05945075;0.023109602;-0.09994767;-0.061524674;-0.04486895;-0.06529339;-0.07689322;-0.062401626;0.042692214;0.07628818;0.04520512;0.0701492;-0.07196003;-0.09362085;-0.00039526974;0.03050015;0.025125967;-0.030048078;0.0130647775;-0.057970382;-0.03451951;-0.1350591;-0.02710416;0.0027964364;-0.004235822;-0.25847512;-0.016096145;0.048414126;0.0043562506;-0.022445884;0.013566508;-0.08240209;0.004601117;-0.0449953;0.03508183;-0.03442392;-0.025884464;0.04459969;0.06680951;-0.12131954;0.0014572422;-0.016379645;0.07339093;0.02592476;0.019379016;0.057448044;-0.06263822;-0.059119098;-0.04845447;0.09774497;-0.06093859;0.09718544;-0.02549122;-0.030266685;0.054889575;0.014641814;-0.022515066;0.020328049;0.0044983895;-0.057131704;0.102782585;-0.04219548;-0.10493732;0.02031318;-0.032474782;0.03028889;0.011894688;-0.0013056571;0.041382696;-0.015538887;-0.09637197;-0.04161019;0.0058271633;-0.05955101;-0.16534194;0.090931065;-0.07085049;-0.004052882;-0.0065873894;0.058514807;-0.1774386;0.031622496;0.047567047;-0.07469017;-0.17968583;0.010481221;-0.033934355;0.047468036;-0.07785134;-0.032070488;-0.07693824;0.11440757;-0.09160617;-0.018930454;0.00044103898;0.028350836;-0.12728883;-0.082775995;-0.012614816;0.0075028036;-0.16908348;-0.0272816;-4.751388e-05;-0.08304851;-0.07345219;0.062436458;0.09951285;-0.08975557;-0.042180825;0.05864022;-0.017307999;0.02039595;-0.07613377;-0.06852198;-0.06541422;-0.04417348;-0.13505179;0.020817598;-0.03634142;0.0033421272;-0.052452516;-0.11194524;0.026422797;0.022967804;-0.04571417;-0.04068615;0.02319435;0.019336225;-0.0072701373;-0.04923473;-0.0896906;-0.015219299;-0.032769557;0.020055456;0.064181335;0.05227458;-0.018267509;-0.07385948;-0.024954708;-0.046304412;0.048889562;0.06497983;-0.13110495;-0.014185484;-0.065696985;0.019278113;-0.077004045;0.05101345;-0.05011392;0.052250966;-0.09462603;-0.23212099;-0.07803392;-0.023567228;0.043805595;0.106566675;-0.08960103;-0.027190922;-0.019891152;0.041058186;0.1020842;-0.01779093;-0.042811144;-0.059031617;-0.01990016;-0.015135384;0.03967857;-0.010409467;0.09738018;0.08202747;-0.013394461;-0.047606487;-0.010040644;0.050418045;-0.07448133;0.03146156;0.09576275;-0.084662534;-0.09010944;0.00091346167;0.07815664;-0.120674916;-0.06566382;0.033818066;-0.033579383;-0.017062953;-0.0098981485;0.06559352;-0.053668387;-0.019913482;-0.0023393854;0.049353357;0.03255283;0.043379776;0.056824323;0.088637404;0.0012200183;0.07885544;0.012217042;0.08153125;-0.06537375;0.015766144;0.04352124;-0.08748153;-0.060239337;0.043581888;-0.03864723;0.030706212;-0.11756911;0.035912976;-0.029322572;0.06542784;0.03651121;0.014577903;-0.17706935;0.07163939;0.06449476;0.034055386;-0.03518264;0.00055662915;-0.037167788;0.02272137;-3.0039919e-05;-0.026498301;0.0480752;0.06820454;-0.005246382;-0.004311023;0.041776672;0.054966748;0.016459499;0.010549819;-0.0033884621;0.02499873;0.06435879;-0.026589347;-0.022718567;-0.076324254;0.026715016;-0.06959462;0.062230512;0.074596815;-0.09534516;-0.06833835;-0.002220109;-0.04427339;-0.0031668155;0.11739992;-0.0988966;-0.066185154;-0.028421866;-0.10176235;0.047797088;0.07936128;0.06468212;-0.025946828;-0.0029278882;0.07189182;-0.08952425;0.028081117;-0.1318041;-0.021946378;0.027826432;-0.012235418;0.030684732;0.0039415224;0.022203432;0.046548817;-0.010153812;0.047184605;-0.05441659;0.07652187;0.013661839;0.042471312;0.029741408;-0.03525912;-0.059692904;0.06399912;0.03435967;-0.021288963;0.027041439;-0.031690955;-0.09385853;-0.028939566;-0.033474334;0.0031106027;-0.07220594;-0.15915672;-0.036115732;0.06770077;0.057112146;-0.0271122;0.035160467;0.0446251;-0.030943535;0.012396586;-0.0023886194;0.054431643;-0.1756983;-0.1702085;-0.05552026;0.043253787;-0.075351536;-0.028933307;-0.0007489134;-0.045056835;-0.054052368;-0.017656388;-0.047225825;-0.059669502;-0.05337418;-0.0021614367;0.06157369;0.07728869;0.014642996;0.0530577;0.06414366;0.09517564;0.053047992;0.031989727;0.08536871;-0.07978742;-0.030625178;0.025053196;-0.031991884;-0.11454746;-0.073844515;-0.012275701;-0.022215458;0.017762426;-0.004359727;-0.04498908;-0.10658545;0.029695343;0.019144414;0.012527202;0.072736636;-0.08086408;0.05849804;0.06845158;0.023942592;-0.04797517;-0.013743874;0.008512057;-0.016221957;-0.022845453;-0.05867801;0.012108261;-0.063249044;-0.046176653;-0.025137829;-0.026576336;0.026152322;0.026038371;0.047657643;-0.021974765;-0.047660697;-0.15245198;-0.012881716;-0.007781017;-0.08686974;-0.027801953;-0.03285515;0.01400123;-0.003593171;-0.04497689;-0.07129287;0.028105475;-0.069509305;-0.031437777;0.04083349;0.08356849;0.01638469;0.09607152;0.04781441;-0.060084168;-0.027865293;0.10717747;0.08247391;-0.0037192644;-0.12622322;0.07166773;0.18782803;0.061455872;0.0954832;-0.043208968;-0.07960684;-0.009877848;0.10770197;0.05802425;0.07433364;0.0035735467;0.04555761;0.033959392;0.019395947;-0.029174082;-0.01457733;0.028350133;-0.072038196;0.063868664;0.0021244874;0.007283099;-0.0032673131;0.010682955;0.0056694034;-0.06258033;-0.06555891;0.062188018;-0.09577331;-0.031576205;-0.011942379;-0.06541468;-0.0537174;0.108124234;0.046505846;-0.03122479;-0.08218493;-0.0059205173;0.032961294;0.07524365;0.007615416;0.06822021;-0.008365811;0.042706694;0.053133912;-0.02114328;-0.0024759932;-0.04355744;0.013405368;0.06648088;0.019201258;-0.16813302;-0.012860934;-0.012862479;-0.0852113;0.015604373;-0.08886797;-0.07027088;-0.049433608;0.004493402;-0.0575401;0.123173065;-0.12773032;0.013593134;-0.07970833;0.046065457;0.03332174;-0.046009116;0.0538015;-0.060687263;0.011296729;0.019060133;0.060294956;0.049077954;0.007311557;0.09673781;-0.087528445;-0.05256241;0.004352014;0.018426958;0.0909234;-0.16734962;0.09504969;0.08115842;-0.009780694;0.0054413313;-0.03667764;-0.044229474;-0.07122059;-0.0026462907;-0.071257494;-0.08285541;0.061948813;0.004711418;0.03557885;0.0622328;0.020689478;-0.027316706;-0.02619374;0.022799915;-0.087792225;0.06720322;-0.020738957;-0.062393647;-0.013617509;-0.112107724;0.11621704;0.04825619;0.07307771;-0.034196764;0.0337745;-0.072144076;-0.035338815;0.0855378;0.066085905;-0.0392107;0.06832456;0.05645336;-0.08206242;0.028533207;0.07996335;-0.04807764;0.026626095;0.06593086;0.088463165;-0.05356732;-0.090148635;0.066010125;-0.049436435;0.013671968;0.025158279;0.15130231;0.08493705;-0.008658931;0.010612766;-0.07755843;-0.02962707;-0.012901718;-0.02780747
-0.29696932;0.08482094;0.061252594;0.060183343;0.033764053;-0.037689555;-0.07565627;0.05319008;-0.007860978;0.008831802;0.09487015;0.03469474;0.02857729;-0.10143701;0.06432214;0.017342672;0.100902535;-0.10277277;0.062273297;-0.0682726;-0.12972243;0.029201625;-0.0195716;0.05701695;-0.20730284;-0.09125657;0.08149435;-0.15957461;0.08678333;-0.28193662;0.014305841;-0.18675123;-0.015922084;-0.117316954;-0.013944993;0.16854525;-0.052811492;-0.0661432;0.07772626;0.009895776;0.015519117;0.064115055;-0.072288185;-0.27183318;0.053746507;0.081922434;0.08191648;-0.044833697;0.13403162;0.072619274;-0.013520368;-0.08174443;-0.15803666;0.10597591;-0.04211992;-0.09545839;-0.11281937;-0.029552758;0.08384523;0.12280327;-0.24134777;0.0661222;0.21052502;-0.023308955;0.11247298;0.103423245;0.09922557;-0.009241732;0.06497281;-0.030222772;0.07271091;0.011822863;0.14306301;-0.035586648;-0.10493693;0.10096517;0.044497345;-0.022541031;-0.07421397;0.097980306;-0.026668824;-0.014857736;-0.024248965;-0.057813987;-0.019474056;0.09791692;-0.005312705;0.1269598;-0.05423148;0.03897052;-0.0224924;-0.017808298;0.021558816;0.00097631523;0.10085463;-0.024077863;0.16566043;0.009690864;0.10625149;0.06783778;0.067508295;-0.011071129;0.10852264;0.061862487;-0.09050265;-0.056887515;0.058725778;-0.11901369;-0.043841235;0.02736668;0.16096468;-0.0007624885;-0.028493306;0.07462667;-0.021415353;-0.07336503;-0.04384303;-0.038266577;-0.07529193;0.09806283;0.035252593;0.015813474;0.043123033;0.01824719;-0.009845692;-0.017746812;0.028559843;0.091070764;-0.053871132;0.12953742;-0.1374642;0.17416738;-0.047005247;-0.03272762;0.019630404;0.061490756;0.21107474;-0.014700025;0.046087798;-0.37118086;-0.03182997;-0.013838081;0.050363943;-0.041663017;-0.05198967;-0.022006925;0.0882125;0.20516114;-0.2911803;-0.14340274;0.041179836;0.050929736;0.033616256;-0.28645533;-0.0710038;0.081721574;0.030775025;-0.20888396;0.07714039;-0.023043986;0.14913806;0.041469224;0.10449415;-0.031069916;0.12139752;0.070149876;0.07479237;-0.004445946;-0.024711873;-0.10825282;0.13019775;0.101446815;-0.051332906;-0.047460087;0.018835336;-0.047677886;-0.27955332;0.073915884;-0.04345838;0.041926082;0.05142208;-0.08057707;0.124917455;-0.09943013;0.010171097;0.16197455;0.07892711;-0.09079559;-0.03661675;-0.021947637;-0.054530505;-0.054046914;-0.06663579;-0.07766727;0.031677753;0.050423224;0.053759187;0.026680432;0.04143801;0.033913694;0.10338648;-0.083386004;-0.033543896;0.039973963;-0.00082909694;0.065655746;0.07757472;0.05086026;-0.26123843;0.09458913;0.022198247;0.051368516;0.015301337;-0.060786404;0.05018382;0.11114436;-0.086482845;0.05868386;0.08727773;0.07515186;-0.04744534;-0.05546044;0.047560357;0.0037331574;-0.018571462;0.10828657;0.07540786;0.16515717;-0.02690745;-0.08069738;-0.026063565;0.015468524;0.12997247;0.053489514;0.085557096;0.07471219;-0.009967574;-0.080278575;0.21545808;0.1160753;0.0046607885;-0.00903709;-0.025156086;-0.049117316;0.028122075;0.07484945;0.041505374;0.03121822;-0.14233336;0.04936351;-0.0015316823;-0.04077556;-0.03605819;0.1632094;0.003710463;0.07090238;-0.012512148;-0.0006869326;0.088109955;0.097714;-0.17852531;0.066004656;-0.0023588056;0.05622204;-0.022471422;-0.010790684;0.11390707;-0.004909176;0.17417493;-0.31235057;-0.013181477;0.16823672;0.0013014487;0.06567635;-0.012966192;-0.09611565;0.09297956;0.003979482;0.061278813;-0.13235605;0.10528615;0.14409171;-0.023217663;-0.029826608;0.015874922;0.06448843;-0.017523287;-0.05069827;-0.21751878;0.0030036548;0.18518881;-0.08242589;-0.020386213;0.03634165;0.02962368;0.1749259;0.088785216;0.15474026;0.10287535;-0.0847967;0.046059065;0.13236439;-0.05547716;0.0644572;0.05319425;-0.12658677;-0.057808474;-0.024681812;-0.2050138;0.12416031;0.110129856;0.013971855;-0.021534158;0.06600304;-0.032178145;0.26710066;0.08607918;-0.09609599;0.04643032;0.033776544;-0.0012743415;-0.13795003;0.008016428;0.13804011;0.1405138;0.08802251;0.07695653;0.01977098;0.07874113;0.07835892;-0.014184279;0.094208814;0.019644026;0.070926525;0.29565492;-0.17361219;0.07694435;0.03667288;0.051919214;-0.07623599;0.07438217;0.031800274;0.09428876;0.07663268;0.12724678;0.11521407;-0.04467413;0.045942273;0.03351135;-0.16085716;-0.30587217;-0.042171694;0.0146234585;0.10290132;0.05796235;-0.11189655;0.033037454;-0.3037277;0.06372586;0.05964342;0.035544198;0.08607891;0.11780389;-0.0301709;-0.002526271;0.055169668;-0.020600218;0.07532527;-0.05824642;0.033255983;0.009669721;0.040593415;-0.027004607;-0.0324248;0.052482415;0.06423558;0.027543455;-0.0469777;0.108529896;-0.026936775;0.06831131;0.112985976;0.09434165;0.16769864;0.021455592;-0.028471613;0.14580575;0.15957615;0.06448864;-0.07085342;-0.028785719;0.034252595;-0.019932432;-0.061151065;-0.05089336;0.005481924;-0.46468514;-0.02705554;0.16811246;0.049148664;-0.06886704;0.031514972;0.06783405;0.092782065;0.081558704;-0.14220294;0.022187978;0.10651932;-0.2059421;0.08368211;-0.037327472;0.012329278;-0.009002477;-0.030285906;-0.13723934;0.047524553;-0.11546805;0.084424086;0.10693597;-0.04352325;0.011315281;-0.2965704;-0.027853897;0.044270467;-0.10535825;0.019448496;-0.046546713;-0.023494257;0.10065168;-0.05651592;-0.09932193;0.018599525;0.022023575;-0.21204199;0.117429346;-0.056910787;0.08822134;0.034500167;0.027068317;-0.14893164;0.057498448;0.25140882;-0.037405636;-0.040620394;0.005385329;0.05798221;0.098507226;0.06666878;-0.026638642;-0.111823075;-0.03336306;-0.06290924;-0.06780764;-0.056433015;0.008566603;-0.084401816;0.010065081;0.042452272;-0.014915719;0.024813402;-0.030206384;-0.0042551174;-0.041614868;0.028033968;-0.019803695;-0.020969907;0.08206215;0.04745717;-0.2158041;-0.0062061534;-0.015435529;0.11691328;0.05699425;-0.03851653;0.13367105;-0.09655067;0.03169022;0.040750198;-0.068365425;0.12033935;0.045244947;-0.038473476;-0.07150467;0.006797417;0.08939368;0.05310747;0.07672078;0.021873241;-0.24926847;0.056648336;0.005920106;-0.245462;-0.03700677;-0.13576128;-0.04695578;0.06803859;-0.03559019;0.04606384;0.2156223;-0.19036749;-0.008537417;0.0065579936;-0.07116573;0.019742154;0.025672175;0.03267697;0.0064912136;0.082977764;-0.006276603;0.0014428144;0.061351947;0.0028597165;-0.031323366;-0.049525145;0.028329141;0.15721305;0.039176844;-0.13958512;-0.09619656;0.068313666;-0.012738317;0.06296272;0.07778678;0.00097180094;0.17964852;0.034044236;0.08794288;0.05394178;-0.0014728499;-0.03348795;-0.042646244;0.07732074;-0.3666064;-0.13902113;0.115080796;0.09836072;0.06781489;0.07836841;0.062316567;-0.05219494;0.19548738;0.02056429;0.09169549;-0.26951715;0.09654839;0.04716757;0.011760188;0.023883823;-0.055722088;0.04871582;0.043577928;0.109601974;0.04106788;-0.03401669;-0.05174846;0.071935914;0.060458105;0.06026288;0.028935196;0.060086045;0.07139288;0.10115647;0.011553807;0.010522632;0.03061767;0.037470948;0.09634986;0.014690278;-0.07072842;0.047247805;-0.09635647;0.13774294;0.008788081;-0.0064950488;0.044513855;0.13388233
-0.065500826;-0.09282077;0.017941793;-0.033913072;0.08363459;-0.0004902024;-0.153868;-0.009641018;-0.006324686;-0.13543846;0.067900084;-0.011275106;0.017224418;0.080154695;0.08670316;-0.010903471;-0.05895392;-0.07427232;0.024416171;-0.1978188;-0.2491328;0.22355375;-0.10908322;0.068853416;-0.10903023;0.05730758;0.066844866;-0.26584837;-0.03593055;-0.13298401;-0.049086034;-0.2555423;0.05936599;-0.40797195;0.12081785;0.16680604;-0.14657009;-0.031429794;0.09924159;0.07277142;-0.041974396;0.16358148;-0.13779463;-0.008647494;0.011503572;0.075074814;0.011693927;0.07874051;0.10689668;0.06483608;-0.0029494525;-0.1970355;-0.07044834;0.09500104;0.092346445;-0.18242098;-0.105190895;-0.026271367;0.041924417;0.08325051;-0.31205094;0.103942044;0.086028226;-0.03124334;0.19137307;0.0042382726;-0.010583048;0.02144415;-0.09036483;0.020336669;0.014232394;0.016824659;-0.07206094;0.04117282;-0.16951878;0.032992072;0.06614377;0.07442883;0.1266206;0.10740692;-0.019688863;-0.011562788;-0.17268622;0.10695024;-0.060776234;0.016534375;0.0010388436;0.10252812;-0.07900859;0.060784657;-0.05807434;-0.05700839;-0.10670533;0.014112266;0.029490648;-0.029538369;-0.09571139;0.03920776;0.052174814;-0.024651136;-0.092012756;0.022944996;0.093575895;-0.059123367;0.05821704;0.10470801;0.03948624;-0.033682384;-0.12961201;0.039114248;0.024069143;-0.039299507;0.014428676;0.042026963;0.019993372;-0.11465969;0.11773188;-0.0028557337;0.023680147;0.041145187;-0.04240953;0.019707907;0.13791518;0.113052085;-0.103790104;-0.16523136;0.056628916;0.0031671047;0.05305033;-0.108695135;-0.1571836;0.040544536;0.10398767;0.095516056;0.020393332;-0.021753;-0.10161324;-0.26258817;0.018999014;-0.232475;-0.039579965;0.100825906;0.1420154;0.029997194;-0.027611757;-0.008368146;-0.12953869;0.093358666;-0.006969808;-0.048839483;0.014372306;0.10123706;0.11868263;-0.33664924;0.016917579;0.020704338;0.0037175657;-0.1873089;0.018388083;0.028937232;-0.078191206;0.06135719;0.07037211;-0.037180766;0.10122385;0.031552;0.03422783;0.10098965;-0.017628213;0.06789357;0.08349031;0.06265749;-0.1353808;-0.31325388;0.079896756;0.04477737;-0.122716285;0.014357426;0.021471562;-0.07284297;0.15645863;-0.038740538;-0.054656684;-0.052974828;0.1090333;-0.011949945;-0.020465808;-0.052455235;0.013602673;-0.016333727;0.15182447;-0.06909683;-0.06043866;-0.008116759;-0.0058076126;0.10249193;-0.029914564;-0.048195012;-0.07893657;-0.11281524;-0.043644197;-0.040997874;-0.02431129;-0.069652215;-0.04112048;-0.0057989634;0.0995833;0.2048816;-0.20279987;-0.00069011375;-0.013333326;0.034326844;-0.009464264;0.06524896;-0.007852954;-0.04532638;-0.10348475;0.040917464;0.026913533;0.074907355;0.08588978;-0.06241636;0.057157986;-0.04738741;-0.07771076;-0.07402749;-0.012370826;-0.062898286;0.045917768;0.07035205;-0.005118744;0.06270485;0.13562459;0.091671064;0.0686939;-0.13343658;-0.03163794;-0.111717254;0.09391282;-0.0074648904;0.12071573;0.035196945;0.07298669;0.097625166;0.056202784;0.052626077;0.076067;-0.07224439;-0.20027134;0.09249572;0.10956677;0.042050514;0.00077503175;-0.1112276;0.072992;0.08275301;-0.08690752;-0.043405186;0.0727112;-0.021759018;-0.125173;0.073313855;-0.031984128;-0.07594043;-0.013073081;0.025199706;-0.052233692;0.029839616;-0.10504243;-0.10506432;0.07996083;0.1302036;0.08406091;-0.039303813;-0.0053474973;-0.10654747;-0.002520137;-0.07125437;-0.04385969;-0.122544356;0.032157462;-0.008091021;-0.07191655;0.05980288;0.016472822;0.030503234;-0.01616071;0.004538138;-0.29097483;0.050291274;0.073840186;-0.0007269494;-0.01925048;-0.0329824;0.15802895;0.18824276;-0.01302642;0.18067959;0.06839188;-0.012883928;0.036005326;0.019225882;-0.030196758;0.0030385423;-0.061780687;-0.19208558;-0.10001615;0.09938317;-0.20680133;0.027058743;0.039363652;0.017691547;-0.034619417;-0.0124709755;0.0073769623;0.12961906;0.024165934;0.010377781;-0.0313009;-0.05447955;0.0028527786;-0.014338102;0.13411663;0.08187926;0.10243609;-0.005025836;-0.07785344;0.100246325;-0.019054675;0.10893366;-0.14980598;0.042104363;-0.10370876;-0.04466147;0.19237797;-0.012907248;0.05081839;-0.0364952;0.007413294;-0.12002148;0.14821006;-0.040838245;0.09271717;0.09360983;0.07856217;0.006618801;-0.0952727;0.0017034194;0.025443837;-0.026289403;-0.113479234;-0.011085523;0.016808774;-0.05971423;-0.05051273;-0.0714477;0.0062869242;-0.14039919;-0.020494297;0.055252638;0.052481275;0.040632553;0.07925638;0.056552287;-0.057808056;0.03518204;-0.025096478;0.10587054;-0.05133873;0.0546218;0.053873047;-0.048598543;-0.026264071;0.005653624;0.14397037;0.075431675;0.03186075;-0.048126295;0.06751533;0.078075774;0.06970888;0.10428783;-0.051843308;0.14731148;-0.08186766;-0.06177527;0.07268751;0.058419485;0.06821876;-0.024875889;-0.054839604;-0.010599595;-0.17890182;-0.063480824;-0.024250293;0.09280235;-0.3402998;0.0265727;0.10675936;-0.045625586;0.013586242;-0.04483019;-0.09908867;0.05740637;-0.01678085;-0.12317222;0.008454704;0.11776177;-0.22133668;0.0050202147;0.03326251;-0.016317105;0.09658267;0.042009287;-0.14991324;0.066406876;-0.007421157;-0.049907688;-0.009090617;0.12449628;-0.061823983;-0.09218049;0.045350492;0.05551774;0.05419163;-0.07735186;-0.048010334;-0.029550983;0.10677841;0.04706217;-0.025838306;0.14640906;-0.013061392;-0.062434006;0.17430578;0.09807778;0.04576211;-0.0685122;-0.023457196;0.12777372;0.050565172;0.07701417;-0.053578265;-0.020967415;-0.011702241;-0.031065963;-0.14226858;0.068816476;0.08412023;-0.1457733;0.05131691;-0.009810595;-0.04842866;0.015829487;0.11620138;0.091723986;0.061411176;-0.07610527;-0.083009414;0.029776206;0.12155102;0.11075572;-0.0006562152;-0.0949392;0.12182951;0.06802592;0.0050706025;0.22413756;-0.025219215;-0.028800901;0.03415048;-0.01969994;-0.02144783;-0.05913857;0.08472428;0.037445363;-0.03894619;0.061209273;0.030253151;0.10277477;-0.05503486;0.00557086;-0.048593536;-0.001930043;0.04714816;-0.050847728;-0.0069612954;0.028082177;-0.27373317;0.008195676;0.067517005;-0.31305793;-0.13966146;-0.07907213;0.06459063;0.08831712;0.105650246;0.032904673;0.032856382;-0.34390333;-0.08285478;0.0024450435;-0.020663375;0.036919657;-0.01136696;0.050309677;-0.016406758;-0.05372919;0.056489564;0.20015459;0.040915668;-0.24253318;0.13281299;-0.08074329;0.011929208;0.062254217;0.03567108;-0.010015629;0.13480297;-0.017166086;0.05869491;-0.03289995;-0.009732644;0.0042152014;-0.04174065;-0.043276187;0.036245666;-0.053690307;0.120284185;-0.038157478;-0.016313849;0.011216599;-0.15451954;-0.22559837;-0.02148254;-0.031595826;0.06841055;-0.04901589;-0.009017947;-0.03355713;-0.022155095;0.060245786;0.13680221;-0.1543426;0.041889492;-0.0037124583;0.06949572;0.04311023;0.0013263326;0.001168275;0.056002513;0.0634827;0.055104885;0.0921203;-0.10182703;0.103830874;0.22783597;0.1777961;-0.0074914745;-0.050328482;0.028290814;0.11042509;-0.04297247;-0.034532454;0.016485784;0.029879907;0.026018597;-0.018458482;-0.13630736;0.042302478;0.032689586;0.11564774;0.0010388558;0.06556059;-0.017088024;0.08169156
-0.16906288;0.07028413;0.17736223;-0.06895782;0.122813985;0.048568774;-0.32611308;-0.07512117;-0.0046594576;0.018769547;0.0494353;0.039895523;0.032269765;-0.035320148;-0.016243635;0.05982386;0.09044832;-0.10425135;0.1198013;-0.24288268;-0.012082651;0.11284995;-0.041710988;0.042120796;-0.15276352;0.11467514;0.042508025;-0.014606141;0.043848846;-0.12416819;-0.007613839;-0.06438471;-0.11269172;-0.10488062;0.0804748;0.071091436;0.0070419037;0.004338951;0.022835396;-0.049607016;0.061338454;-0.04244336;0.02795512;0.023329334;0.048980586;0.09834108;-0.038948026;0.070782125;-0.06485362;0.023489274;-0.009728952;-0.06397576;-0.031904884;0.030265734;-0.04112875;0.117328845;-0.082954;0.08625753;-0.068529196;0.11648278;-0.17655362;0.02209377;0.040374197;0.025948983;0.057309832;0.033336826;0.044531405;-0.009623658;0.008945021;0.010209273;0.07607639;0.044137646;-0.16818452;0.025696822;0.002415735;0.022399254;0.0139223505;0.021343969;0.062454343;0.14379498;0.0053853313;-0.088571265;-0.013146933;0.051405303;-0.19232574;-0.037398122;-0.042015813;0.044741333;-0.00420643;0.08501466;0.017409688;-0.05636639;-0.012206041;0.062960826;-0.0673635;0.047232192;0.08467074;0.05296767;-0.033248134;0.022003297;-0.05493554;0.050909538;-0.07585174;-0.07777847;0.026972443;0.07159285;-0.025028316;-0.04464268;0.025136424;0.10672869;-0.09162921;-0.0012880226;-0.065790854;0.07392208;0.03288692;0.04286526;0.0065225353;-0.027181597;-0.0760157;-0.017011037;0.018530307;-0.06604055;-0.060192;0.0033491277;-0.002254082;0.06443236;0.03368962;0.010859021;-0.07469958;-0.0020152116;-0.09024667;-0.049551744;0.046839263;-0.0057024905;-0.042835414;0.029208928;0.0007384693;0.05768112;-0.061049335;-0.26921475;0.074990265;0.0005831096;0.18349975;-0.025737656;-0.08364262;0.073476955;0.028181396;0.0042803986;0.021947065;0.09050683;-0.05796785;-0.045985755;-0.01619218;0.002842326;0.045358934;-0.07511779;-0.014315562;-0.060850266;0.02759593;0.0032771635;0.055971637;-0.02116928;0.0445195;-0.033433937;-0.010160545;0.051312685;0.07272624;0.0012689511;0.042100172;0.016980825;0.13482212;-0.053063866;0.03001112;-0.14571343;0.025839271;-0.08304869;-0.022967825;0.032293048;0.007866036;0.07281771;0.12465366;0.056911107;-0.061855603;0.13378695;-0.060009234;0.006028144;0.20202644;-0.038244553;-0.08702367;0.06002358;0.012186636;-0.02605624;-0.054331798;0.010157398;0.09874015;0.094289854;-0.048528507;-0.02417622;-0.017394252;0.07930055;-0.04749077;0.04122393;-0.008986521;-0.031013142;0.008613505;-0.07152548;-0.046541523;0.025005074;-0.16939978;0.003323193;-0.09953962;0.028988935;-0.0048768693;-0.06911315;-0.07666869;-0.007642101;0.058355324;0.043058272;-0.0041282205;0.0588674;-0.001716005;0.0030610864;-0.011220806;0.0654327;-0.033002224;0.056552384;0.0013392312;-0.043035205;0.08233899;0.0842365;0.06439083;0.14300598;0.054620527;-0.07626933;-0.005694942;-0.122068614;0.01484925;-0.11272597;0.12587781;0.15576215;-0.028311932;-0.028466865;0.0071355933;0.033377547;0.020189745;-0.035403363;0.06835025;0.040608604;-0.06911899;0.010278302;-0.0040116874;0.050411906;0.08517875;-0.05292194;-0.10691172;0.060924526;-0.06381724;-0.028596096;-0.0463019;-0.05965004;-0.04546685;0.03292735;0.046281613;0.060021773;0.0604337;-0.007143696;0.03227485;-0.046323344;0.05207356;-0.04586757;-0.035102293;0.1446244;0.016460128;-0.016487231;-0.16065308;0.0779376;0.050319847;0.009910949;0.09664355;0.021746408;0.08281767;0.008624948;-0.05607425;0.026346603;-0.020313954;-0.03387207;0.061191387;-0.034016468;-0.11997494;-0.002551546;0.013684708;-0.086876094;-0.06922061;0.08036618;0.08629492;0.03658598;0.05270436;-0.028803166;-0.12755945;0.05493797;-0.047708105;-0.0630537;0.020044357;0.10321168;-0.025568496;-0.114782795;0.035063587;0.01570624;-0.22491178;-0.035965823;-0.041672733;0.02066977;-0.009981906;0.07003922;-0.083693385;-0.04085888;0.022035316;0.048091546;0.08059756;-0.049998302;-0.059153862;-0.13344045;0.008867459;0.12914898;0.097497515;-0.14369337;-0.032216284;0.018729905;0.039465737;0.11583558;0.15878992;0.11821094;0.054985546;0.020943707;0.090896204;-0.18883611;0.093665145;0.05193627;-0.06259677;0.04493891;-0.07462111;0.032243397;-0.0464455;0.023770653;-0.018141737;-0.032751504;0.05254323;-0.00679206;-0.04925077;0.103599355;-0.29123554;0.016431548;-0.012445222;0.037832238;-0.012413062;0.015513605;-0.035300482;-0.06520402;-0.15153152;0.031506523;0.084058456;0.067382045;0.053795636;-0.047756683;-0.03800875;-0.05891191;0.07694848;-0.031949077;0.082810946;0.075359024;0.05959331;0.015824229;-0.08689121;0.07953141;0.13772593;0.024278613;0.054556556;-0.10331987;-0.060208;0.059585307;0.08943387;0.081042506;0.021966321;0.09253909;0.109126136;-0.025121836;-0.081447475;0.08930537;0.08486255;-0.031823717;-0.07493782;0.041299418;-0.26352775;-0.14393772;-0.05659636;-0.04200355;-0.3431859;0.014771681;0.1336383;0.093901925;0.012723917;0.0063637663;0.021038271;0.023931826;0.04353012;-0.1544022;-0.0022678333;0.059941355;-0.023832288;-0.043514155;-0.014732944;-0.050683748;0.037245944;0.046457984;0.016415419;-0.04135589;-0.044923104;0.0024002146;0.043622408;-0.052271713;-0.0015846608;-0.17824267;-0.007685813;0.029899223;-0.051303275;-0.025933376;-0.070996284;-0.00074118277;0.093001336;0.08262865;-0.04835754;0.00063358265;0.030197568;0.063964896;0.22383597;-0.06890124;0.023176372;0.037727986;-0.036338575;-0.032372136;-0.011662177;-0.12411949;-0.011489485;-0.04436044;-0.12984757;-0.009720488;0.03848789;0.089103624;0.06949169;-0.14977881;0.007710755;0.0971405;-0.08273558;-0.046241943;0.11841041;0.066933684;0.0055517694;0.042512063;-0.05593303;-0.039496776;0.035472874;-0.0691144;0.04394677;-0.08002391;0.05043037;0.050065964;-0.019759962;0.0891044;-0.037064496;0.036368527;-0.019528663;0.102286614;-0.20987433;-0.006530042;-0.0473313;-0.022632653;-0.016811311;0.07558927;-0.028161246;-0.057787843;0.042616326;-0.08913218;-0.0043018344;-0.079746895;-0.08711153;-0.019125149;-0.039116174;0.016196007;-0.064841084;-0.05737566;0.014454387;-0.102518305;0.056556787;-0.11330808;0.060452897;0.006913299;0.0066624274;0.006711006;0.09670943;-0.1929371;0.019865936;0.014643072;0.030335663;0.030882832;-0.011039362;-0.017084913;0.037085433;-0.011227187;0.025946116;0.115946874;-0.0509319;-0.102882884;-0.019854534;-0.030501176;-0.019888699;0.04295088;0.085683465;0.03983097;0.07528972;0.094565414;-0.023771629;0.014273187;-0.04829249;0.052912824;0.12616879;0.049511302;-0.038329124;0.009687657;0.0483937;0.085846774;0.105581395;0.026311513;-0.22684215;-0.12650813;-0.045753673;-0.035772484;-0.028148837;-0.019622725;0.10539201;0.02079659;-0.07969164;-0.05689629;0.025334226;-0.07765803;-0.0058294074;-0.0005490885;0.031414866;0.04545907;-0.047552086;-0.024706706;-0.04633106;-0.0058704647;-0.050912037;0.05491722;0.06037403;-0.0060712127;-0.039996788;0.16136153;-0.052934963;0.07389969;-0.032417167;-0.105091624;-0.00027261538;-0.0016937306;-0.028579498;-0.065816954;0.121670656;-0.051415086;-0.15453817;0.12394269;0.061012406;0.114116326;-0.041489158;0.053904295;0.12547141;-0.09035488
-0.2923231;-0.029899698;0.1002111;0.07237709;0.09414814;-0.024046432;-0.06494575;-0.07389657;0.0057181697;-0.12664022;-0.05608767;0.0619779;-0.059549637;-0.05636795;0.029574247;0.11151474;0.013756562;-0.3222362;0.059379146;-0.21853143;0.12073173;0.12947382;0.062448643;-0.010457234;-0.19288553;-0.07320139;0.04063243;0.04063584;0.00902412;-0.025606403;-0.010393283;0.038630098;-0.05191915;-0.17561975;0.102296524;0.25999168;0.04293551;0.0910254;-0.103789754;-0.040115375;-0.047760654;0.035409868;0.02837668;-0.10898875;0.035352148;0.00407903;0.021764524;0.10628476;0.024787428;0.15284441;0.022877302;0.12403727;0.0704663;0.0024724642;-0.0033938838;0.034748584;-0.15739673;-0.033443283;0.03834453;0.04296625;0.011239797;-0.025553096;0.06326483;-0.1016751;0.13825905;0.07214925;-0.08167648;-0.062898144;-0.00032192137;-0.027697772;-0.0056506675;0.04577244;-0.24401918;0.057775393;-0.14610319;-0.040892787;0.06937751;0.017222011;-0.020683518;0.05014981;0.100910164;0.027037784;0.12496137;-0.056058615;-0.11825791;0.040065352;0.07949823;-0.024564978;0.12843603;0.082088545;0.03614451;0.036750633;-0.04661515;0.15090948;0.059297666;-0.03544336;0.031118413;0.018553227;-0.07140297;0.04656265;0.15585896;-0.013098144;-0.07885693;0.054888744;0.0046359;0.14073524;-0.010582871;-0.06143023;-0.056768898;0.09601959;-0.08324432;-0.027852153;-0.046704393;0.032291155;-0.022062767;-0.057269253;-0.06458724;-0.08963112;-0.06425697;-0.067428276;0.0020746207;-0.10445228;-0.021765294;-0.058019843;-0.035969894;0.091151945;-0.014492571;0.0065999366;-0.038086023;0.042181287;-0.06278307;-0.075930595;0.05411769;-0.002714073;-0.084404945;0.057060823;0.14107247;0.13313897;-0.04842985;-0.19355352;-0.06235323;-0.028236078;0.1443928;0.09318262;-0.018349912;-0.09485579;0.0103937;0.127614;-0.04308871;-0.08534284;-0.10847211;0.07263789;0.0035462372;0.20022179;0.0197215;-0.014617792;0.030720906;0.15125671;-0.042624634;-0.0042667473;0.023911623;0.009700888;0.015323393;-0.058758836;0.16462424;-0.091001414;-0.016748713;-0.042847287;-0.019156558;0.05381146;0.1947896;0.009174749;0.066593505;-0.059415255;0.04970499;0.0726174;-0.05421771;-0.00048119607;-0.006777125;-0.07808077;-0.0844431;0.00529886;0.026493184;0.12612498;-0.036292538;0.027874146;0.09300328;0.094337806;-0.047007542;-0.03027703;0.07658273;0.044498812;0.014549789;-0.010527091;0.06564565;0.1280719;0.062449984;0.035900045;0.05038247;-0.037803113;-0.019771244;0.01230942;-0.03086696;-0.0039674053;0.040710162;0.011459113;-0.06091207;0.17253754;-0.10000618;0.08053174;-0.03885788;-0.02400004;0.05695238;-0.06148238;0.035105586;-0.07028861;-0.023079284;0.01613194;-0.041454587;-0.029203862;0.068519205;-0.014717441;0.021345275;0.055941988;0.06127681;-0.0044084135;0.09057446;-0.016811028;0.04637248;0.09029437;-0.065705925;0.04953776;-0.008885227;-0.013064798;-0.020968033;0.00828576;0.007811318;0.029198583;0.026503935;0.079648405;0.024411803;-0.019358424;-0.074401684;0.086864665;0.08004797;-0.09397538;-0.02186527;0.014740544;0.022275643;-0.061604872;-0.032154094;-0.0033706443;0.04855745;0.22008757;-0.059081126;0.056609377;0.055295143;0.08090766;-0.079578914;0.07191805;-0.04017026;-0.06475989;-0.003996208;0.038819965;-0.06546829;-0.097099744;0.12636775;0.013109692;-0.020580476;0.06651522;-0.027404204;0.15903011;0.07230223;0.03158178;-0.21582808;0.12785375;-0.0067611;0.09026192;0.040350612;0.008338885;0.09081688;-0.089281715;-0.009783162;-0.053187784;-0.053961813;-0.064868905;0.040616825;0.002135207;-0.114922434;-0.05872006;-0.040883005;-0.079232305;-0.016623111;-0.041700978;0.03604484;0.14784461;-0.07164884;-0.025913207;-0.10526612;0.096658155;0.066289276;-0.011528381;0.081163704;0.026885644;-0.10422075;0.040751215;-0.07292628;-0.004478674;-0.2531073;0.013848572;-0.060205612;-0.08197466;-0.053934578;-0.023398848;-0.12399526;0.19626859;-0.040349443;-0.1039555;0.032828882;-0.0060113813;-0.043592192;-0.047277175;0.027046636;-0.067221515;-0.021395214;-0.1576466;0.0803683;-0.030411521;0.030930962;-0.0017198035;0.08287514;0.0783202;-0.030937659;-0.05528518;0.109577134;-0.058051344;0.088824004;-0.041397642;0.0613767;0.09156093;0.031541746;-0.01997406;-0.08053229;-0.03350559;-0.10250211;-0.057895366;0.033975273;0.03886746;0.08425499;-0.062297646;-0.44913238;0.18565086;0.017811198;0.036339078;-0.10365614;0.13498129;0.07264505;-0.2111399;-0.06330147;0.030787753;-0.010841449;-0.03772295;0.1973869;-0.13333154;0.0438841;-0.042171575;-0.000910576;-0.08502164;0.10960621;0.19160615;-0.07284855;0.050518773;-0.07087704;0.024968734;0.10743997;-0.07804784;-0.09332163;-0.16289683;0.027420199;-0.014372866;-0.0169622;-0.033794567;0.042261757;-0.014038287;0.11090511;0.008551617;0.008123358;-0.057044744;0.07398605;-0.07633139;0.059108578;0.22965318;-0.33919;-0.4370047;-0.04097132;0.08473264;-0.389543;0.00063102506;0.13802992;0.044062085;-0.04481031;0.013532319;0.06318411;0.098772325;0.007532095;-0.16454446;0.0015998187;0.010739227;0.18002918;0.07023728;0.036444932;0.07604809;0.029939987;0.026192216;-0.010114049;0.05622647;-0.06682979;-0.037403475;0.11729108;0.030219352;0.0275826;-0.3053946;0.04912632;-0.030382296;-0.02634038;0.0028990991;-0.0014583218;0.035101045;0.24040668;-0.09275791;-0.026103625;-0.028944807;0.06217294;-0.016685216;0.22047792;-0.05868069;0.088754594;0.23776035;-0.054407306;-0.04168318;0.052397586;0.032834977;-0.028393764;-0.020044722;-0.20316994;-0.0040887296;0.18598905;0.087648705;0.029932547;-0.21445173;0.032962836;-0.07513145;-0.17636105;0.013528305;0.05819501;0.08396661;0.050565634;0.16390732;-0.024523916;-0.046098504;-0.03054236;0.10517392;0.03819467;0.08147338;0.068890154;-0.051952314;0.0100724865;0.13104239;-0.057414986;-0.07190675;-0.051118895;-0.075478144;-0.13570985;0.052226145;-0.041300293;-0.06557207;0.004961795;0.038320977;0.040139165;0.033700846;0.0631036;0.008420841;0.12893836;-0.007689799;-0.11929079;0.017762957;0.041317515;-0.008384246;-0.19529314;0.05825699;-0.039522335;-0.041532118;0.0196838;0.0057743113;0.15112594;-0.0802587;0.015593812;0.042201463;0.10001539;-0.091910616;-0.04399726;0.043995272;0.010818408;-0.027253503;0.1109764;-0.03903905;-0.008633818;-0.043294802;-0.027393354;0.047028754;0.06662785;0.09693306;-0.07846389;-0.18785863;0.0145412125;-0.09875232;0.11001997;0.007806833;0.18262473;-0.029515045;0.108729824;0.02938205;-0.035190493;-0.06018583;0.09544968;0.06588358;-0.05233348;-0.10468759;-0.019030446;0.03574516;-0.04987105;-0.08567698;-0.2058451;-0.182916;0.047929574;0.004375009;0.14051099;-0.08353889;0.092830695;0.011035282;-0.15592396;-0.052010216;0.09892038;-0.3137709;0.054230954;-0.06891062;-0.011377402;0.08993851;0.009484218;-0.02413321;-0.080271944;0.009571942;-0.07860753;-0.020419613;0.043965906;0.05301495;-0.04750575;0.15273766;-0.03703127;0.065506764;0.029948069;-0.021341963;0.002544091;-0.05488657;0.060395245;-0.02611007;-0.0034493965;-0.0907483;-0.17814316;0.014107;-0.01847137;0.09849922;0.16228405;0.08838884;0.0028283915;-0.04084611
-0.22129276;-0.042004336;0.18402323;-0.0002352702;0.0061971443;0.04604523;-0.33492678;-0.03843907;-0.064185284;-0.15111634;-0.039068274;-0.064591385;-0.037131395;0.073420264;0.02704448;0.026394544;0.010979402;0.097232625;0.012091345;-0.063088164;-0.37331924;0.18774123;0.10414114;0.05810403;0.10309199;-0.08271382;-0.017227566;-0.081474766;-0.08994794;-0.086215205;-0.028844234;0.2658591;0.072099656;-0.006646236;0.16462074;0.101384334;-0.14191914;0.0012537335;0.091570735;-0.026029807;-0.06658221;0.018438088;0.0646329;0.1943499;0.08844005;0.03912495;0.05449685;0.04947372;0.002447402;-0.1472961;0.029589862;0.05902125;0.0045108967;-0.16117352;0.1091331;-0.10738147;0.19802028;-0.07196222;0.051181402;0.14592455;-0.12614992;0.13832329;0.13428834;-0.027926048;0.027020684;0.088435076;-0.016382577;0.07476774;0.16150308;0.023818307;-0.012662836;-0.0376621;-0.121625006;-0.06385896;-0.03252359;0.027734;-0.021527776;0.04247709;0.023899317;-0.08641849;0.14167655;-0.09754048;0.1501453;0.07159664;-0.24780656;-0.024512686;0.079608336;-0.034034494;0.058036417;0.047806382;-0.026453562;0.05827069;0.023626741;0.14815886;-0.0054372293;-0.012769064;0.13929167;-0.06576246;0.047303192;0.061248396;0.07844453;-0.100026004;0.12890373;0.04914955;-0.014018961;-0.018438691;0.038472336;0.094741195;-0.06748039;0.11051606;-0.03396018;0.06795577;-0.019371316;0.108310945;-0.058698118;0.09480519;-0.039454743;0.0078271255;0.014048018;0.032180373;0.06686974;0.02253986;0.024501504;0.029841509;-0.008135768;-0.23667024;-0.0022667265;0.012033359;0.025193596;0.24397978;0.02730774;-0.15807614;-0.029605675;0.00077777146;0.036195714;0.014340178;0.050631434;0.13379927;0.11609471;-0.048775826;0.053521693;0.027890516;-0.029842973;0.03018394;-0.034621846;0.028158516;-0.0698921;0.025204975;0.14378732;-0.11218621;-0.02762272;-0.04728808;0.08307484;-0.18600956;0.08885984;0.048872538;-0.080530494;-0.34618354;0.045699585;-0.084550686;0.1325668;-0.06352025;-0.0015991944;0.12580332;0.16764304;-0.09174282;-0.013660502;0.10401818;-0.047168676;0.09446188;0.22756992;-0.16398613;0.1319115;-0.24423023;0.1022329;-0.010554063;0.15038002;0.039892953;-0.00027804676;-0.02629633;-0.13515663;0.074107386;-0.066058874;0.013003394;-0.04984946;0.005144415;0.11167667;-0.058027465;0.07198628;-0.042391848;0.1390354;0.035286546;0.05850012;-0.07788287;0.13826391;0.15248938;-0.037477184;0.07239991;0.04229387;0.015469347;0.023846885;-0.06878129;0.0356607;-0.012661048;0.08649415;-0.052303962;0.018336175;-0.010766117;-0.42581716;0.06647571;0.007851502;0.04265738;0.06328594;0.011812058;-0.011993981;0.06581259;-0.08938613;0.10602263;-0.002124683;0.070286356;-0.0018580116;0.0710677;-0.0010442537;0.028849524;0.016344586;-0.033412836;-0.015870104;-0.053215716;-0.046736535;0.15299444;0.06929123;0.021897478;-0.1492228;0.050535526;0.05993146;-0.058262553;-0.009372344;-0.08138299;0.19070283;0.06985936;-0.002590642;0.022380976;0.042640038;0.17960487;0.0072981254;-0.02482851;0.11150552;-0.097884186;0.0631133;-0.07483399;-0.026218265;0.028144099;0.024887828;-0.16564074;0.03072081;-0.08407605;-0.017895104;-0.019075017;0.042751376;0.023698274;-0.18930154;0.07631117;0.055066764;-0.0078027938;-0.0063087875;0.03709477;-0.059291646;0.03863299;0.10102866;0.32607162;0.027028287;0.07408019;-0.013494434;0.084235825;-0.0954593;-0.19300394;-0.08933439;0.06945626;-0.0028628884;0.11168613;0.0100707235;-0.010696991;0.0076027787;-0.06777842;-0.04098922;-0.05953298;-0.042307153;-0.008469952;-0.17968807;0.0048699616;-0.07792863;0.1413556;0.031410467;-0.036122713;0.07231722;0.08457648;0.056039583;-0.06619479;-0.05673111;-0.049929325;0.077861026;-0.012049132;-0.05875994;0.026526837;-0.019337146;-0.30767012;-0.087599985;0.0038101282;-0.28006795;0.07757343;0.06665854;0.080551825;0.09607567;0.02122956;0.0779508;0.16673003;0.0126775345;-0.05916581;0.09242492;-0.022172274;0.006253637;0.10698472;0.1502823;0.019536953;0.004132195;0.025457833;0.021489289;0.049290925;-0.06932779;-0.063844755;0.22136222;0.12386088;0.015553963;0.029006764;0.1911579;-0.12890162;0.07485696;-3.078192e-05;-0.04204838;0.056068644;-0.060097456;0.03997999;-0.024744397;-0.0051026493;-0.16184734;0.027976936;0.05053981;-0.042365886;-0.012254737;-0.16625908;0.009532192;0.18094032;-0.02952157;0.0327028;-0.033733808;-0.17333674;0.08377643;-0.09440587;0.04524675;0.044239238;0.11194368;0.043511927;0.08196363;-0.13337415;0.002504987;0.13910761;-0.046308406;-0.1323276;0.055771984;-0.31064215;-0.07246672;-0.09553954;0.010170717;-0.0554171;0.12847541;-0.039495125;-0.0255904;-0.24709888;0.06522778;0.073985174;-0.07355434;0.14105788;0.07850049;-0.20420839;0.16001806;-0.007833174;0.020068849;-0.009591115;0.0010313701;0.012874439;0.011361609;0.19754735;0.0064053084;-0.03786465;-0.06867367;-0.03791737;0.1026644;-0.08499732;0.07376911;-0.039722715;0.08732441;0.06527124;0.00404814;0.080444135;-0.09093901;-0.13082282;-0.009028673;-0.0073623373;-0.04230445;0.047045663;0.043777276;0.0051993495;-0.013680755;0.002893137;-0.21808302;0.07124717;-0.039742645;-0.040128436;-0.005604103;0.05561202;0.09123155;0.01783088;0.053430412;-0.01645685;0.013219834;0.06344006;0.03214838;0.05544534;0.13984515;-0.03132438;0.10794116;-0.05500858;0.060981914;0.30843446;0.12761554;0.07018152;0.06839278;-0.13196185;0.08565799;0.0060662595;0.09796645;-0.28992018;-0.10573369;-0.3939893;0.022419471;-0.10777154;0.18669267;0.013515541;-0.022291917;-0.053589813;0.0038500188;-0.045655675;0.11860405;-0.03077206;0.10887691;0.065956615;-0.001660337;-0.071809314;0.01811019;0.019942122;-0.0003027027;-0.037732124;-0.014188207;0.005482611;0.02128478;-0.07236185;0.018044123;0.00062113913;-0.047831256;-0.024189312;0.03194266;0.016527362;-0.00052263896;-0.011079972;0.00307818;-0.14343521;0.007491817;-0.05393253;0.006478286;-0.060718536;0.008610534;0.0055093365;0.05976628;0.013451906;-0.035134625;-0.069019414;0.02422799;0.0502328;-0.31766596;0.044789538;-0.03993872;-0.038660847;0.016649855;-0.03329553;0.016155008;-0.09228903;-0.041127976;0.04836567;0.17431162;-0.09956054;-0.050207216;0.03802601;-0.015484635;-0.05936966;-0.030799543;-0.04629797;0.075626895;0.044011973;-0.00815302;0.036262974;0.017622622;-0.2469031;0.08297032;-0.11173603;0.015229427;-0.030101715;0.02201948;-0.003901665;0.03247832;0.020246051;-0.033216327;-0.018918125;-0.012598698;0.05514047;0.037752714;-0.037073158;0.03457546;0.08170404;0.05346691;-0.058977384;-0.0048724837;0.15025248;-0.16941275;0.16898023;-0.030060966;0.076095186;-0.11317009;-0.11016742;0.070084125;-0.0013051578;-0.033936005;-0.0025255522;0.044686608;0.019927463;0.07204955;0.08413424;0.03730539;-0.0062457523;0.019676039;-0.007700064;0.07649682;-0.013603344;-0.16277377;0.105130404;0.043447353;0.06230287;0.054531112;0.14218509;-0.037196614;0.0744139;0.02490519;0.08165383;0.0027311894;0.048477355;0.0722575;-0.09688179;-0.059239138;-0.1049858;0.1394894;0.07993575;0.08048714;0.1358171;0.093689695;0.0671579;0.024043765;0.050015673
-0.14118;0.077000104;0.10772497;-0.043052267;0.066294245;-0.069233164;-0.08303688;0.090949506;-0.03579869;-0.01749064;-0.017275667;-0.023712493;-0.018235201;-0.014221458;-0.023391988;0.0077893706;-0.00061336305;-0.0836292;-0.03182049;-0.13778552;0.1019942;-0.06297683;0.046141095;0.024578916;-0.06999943;0.027039053;0.03374278;-0.13051406;-0.05441931;-0.34527466;-0.025262117;-0.0640128;-0.024252884;-0.013834054;0.2178701;0.0842872;0.17570895;-0.06964923;0.04297304;0.023545923;0.027704526;0.09731414;0.177065;0.018546266;-0.096996374;0.03502672;0.05884711;0.06581577;-0.042552218;0.13788462;-0.0016596357;0.0069388514;0.07715256;0.18645945;0.016213963;-0.012079271;-0.05430155;-0.06153666;-0.045634557;0.1877087;0.034754608;-0.004922668;0.14779113;-0.045055375;0.0504323;-0.036950283;0.010078715;0.04684367;-0.03633102;-0.031071829;0.04825999;-0.005604417;-0.18673195;0.004793222;-0.21808681;-0.10792346;-0.057938885;0.0046211067;0.006290171;-0.01881319;0.10315535;-0.09110951;0.1234984;-0.061962374;-0.11518663;-0.05636768;0.020892609;-0.052549247;0.061225537;0.0034374185;0.03312367;-0.051496245;0.02620285;0.2769248;-0.02571645;0.07246508;-0.014783272;0.08855106;-0.072375745;-0.020898575;0.054112073;-0.00194507;0.034233015;-0.061677903;-0.010507285;0.10665123;0.0064958604;-0.0707374;0.03225894;-0.036342334;-0.062810704;-0.01836057;0.012092891;0.06293544;-0.011304662;-0.015413412;-0.07950682;0.06160248;0.023077274;0.020206453;-0.05971745;-0.009916553;0.02007755;0.088978775;0.06502521;-0.14573982;-0.124932535;-0.07356702;-0.056444265;0.087225795;0.082423575;-0.033676773;0.07466745;0.10494697;0.03965993;0.023464013;-0.04569786;0.10886291;-0.034251638;0.00038769233;-0.047292102;0.0007928823;-0.0008131267;-0.05453308;0.07955552;-0.12384622;0.050064787;-0.06255269;0.16160382;0.16753572;0.056662682;-0.06321755;-0.044706866;-0.007919095;-0.022315977;0.029483074;0.06814601;0.16072664;-0.11540206;0.028057003;0.033803985;-0.06592613;-0.057484;-0.08148792;-0.048949383;-0.0620834;0.060151033;0.044035286;0.05440332;-0.07157964;0.1110535;-0.10238856;0.062376693;-0.09455351;0.0144558875;0.06354651;0.04079559;0.010000712;0.04840526;0.0016132455;-0.2261806;-0.08255875;-0.09892014;-0.055866957;0.038459167;-0.059503693;0.00067379134;0.0865078;-0.03274316;-0.0048918333;0.094014145;-0.07037404;0.024755409;0.035917185;0.14749894;0.19865853;-0.09694471;0.03848486;0.055626415;-0.08305623;0.1257239;0.062768206;-0.01099864;0.058850877;-0.044234667;-0.0026881166;-0.05346913;-0.031191595;0.0027205157;0.00285225;0.028838558;0.040260557;0.030648293;-0.018243978;0.029812071;0.012519805;0.02023834;-0.05715863;0.1471877;0.090017326;-0.04678925;0.080093116;0.006065966;-0.033419866;0.11595282;0.070359156;0.13557822;-0.029106937;-0.069251224;0.051888246;0.0018191237;0.0021159681;-0.020781908;-0.054179814;-0.08736536;-0.20746842;0.021250155;-0.08288176;0.07455033;0.021947518;0.07790882;-0.06729931;-0.06435506;0.119846396;-0.046901517;-0.0116425995;-0.018446827;-0.079754576;0.05697039;-0.10558889;0.015564882;-0.007084057;0.02447331;0.08984457;0.07268823;-0.071442634;-0.05574904;0.049750067;-0.08380282;-0.07296562;-0.15672714;-0.0059933374;0.021939244;0.0631192;0.09264257;-0.051942162;0.0428238;0.08133825;-0.0014187801;0.13975681;0.010847306;0.1402459;-0.037141725;0.087615795;-0.034044273;0.0021258963;0.021369373;-0.02806741;-0.059941124;0.1056125;0.040677372;-0.009086672;0.043521553;0.05409174;0.08726703;0.07081154;-0.019126564;-0.013884738;-0.13071291;-0.08227384;-0.17460449;0.058633175;-0.03422152;0.057345364;-0.08232834;0.11754771;0.068012215;0.07888846;-0.114933066;-0.087458365;0.030249624;0.0004961891;0.07882478;0.166026;0.074096486;0.061677754;-0.12081505;0.08191965;0.006420395;0.052402467;-0.05191378;-0.076085255;0.007970881;-0.099580586;-0.13080586;0.10818679;-0.02237996;0.124571115;0.007931134;0.048488077;-0.055472396;0.038251214;-0.009527826;-0.066435635;0.030543873;-0.008565107;0.038394056;0.085423894;-0.08378152;0.004816836;0.15868355;0.081239365;-0.055353206;-0.017456654;-0.059174255;-0.06012026;0.029652987;-0.023303667;0.004421677;0.0048614955;-0.047079165;-0.09893939;0.011490559;-0.053436954;-0.089806356;-0.08606855;-0.016510103;0.042836558;0.045946795;-0.06633119;-0.19454817;0.22879727;0.05079316;-0.058693804;-0.031548936;0.029066054;0.039589133;-0.22251552;0.024286086;-0.072846845;0.10460019;0.022407528;0.11006879;-0.0044871145;0.014425205;-0.024242403;0.045361448;-0.04807024;0.013564919;-0.09937462;0.07127904;-0.041216504;0.07376128;0.06193855;0.20226106;0.066502586;0.03457362;-0.11653428;0.026139112;-0.09292412;-0.004296716;-0.03557737;0.014988897;-0.06915102;0.09479121;-0.028492497;0.002488324;-0.105398886;0.037209567;0.121752724;0.028007388;0.25749737;-0.32933515;-0.21052508;0.044105858;0.07968898;-0.0027583328;0.010613961;-0.054253776;-0.0384963;-0.03616278;-0.022321636;-0.030231295;0.061248746;-0.06729243;-0.064895146;0.06296059;-0.1281401;-0.027637795;0.036652032;-0.017998675;0.012017868;0.052623868;0.059063103;0.01845681;0.064309;0.054674476;0.026462624;0.09577366;0.03389795;-0.048543207;-0.03040065;0.024704823;-0.06392577;-0.08399118;-0.021097561;-0.050987586;-0.026769675;0.09938698;-0.028029473;0.07219974;0.08245747;0.04132987;0.09882384;0.059954107;-0.036508255;0.02896943;-0.08236339;0.030483201;-0.021959053;-0.009692659;-0.030880664;-0.0708582;-0.1389649;-0.06545044;-0.08895099;-0.0069288104;0.016052622;0.00011169906;-0.20713528;-0.0085339425;0.07777707;-0.08380564;0.04124737;0.04698167;-0.032978434;-0.0016037999;0.062384635;0.09096121;0.0037864267;-0.080989294;-0.0625784;0.081329845;-0.048743144;0.02009978;-0.02838342;0.06429431;-0.10974751;-0.027781656;0.021232184;0.044915088;0.08525869;-0.15348037;0.0051341425;-0.041228075;-0.010445255;0.018909654;-0.016154729;0.022746772;-0.026881192;0.09397451;0.0715673;0.12219848;0.044411894;-0.11294953;0.07094189;-0.009089597;-0.077617444;-0.05547811;-0.016950967;-0.037441336;0.057662178;0.029537098;-0.0391897;-0.04843874;-0.112816356;-0.020529669;-0.0099448245;0.09738079;-0.11786493;0.03912771;0.014796507;-0.018634444;0.009213619;0.0687613;0.033266842;-0.07909975;-0.0033522353;-0.034254413;0.12535931;0.06316357;-0.07137979;-0.008850461;-0.012938613;-0.0062454063;-0.16203848;0.07930215;0.015674757;0.019716367;0.019717477;-0.06428267;0.005795189;-0.01351754;0.06736563;-0.048710953;-0.032308374;-0.07455616;0.0598045;-0.022306621;-0.031774964;0.0024678549;0.079848014;-0.098962426;-0.19319831;0.044721436;0.06664634;-0.025684694;-0.078576334;-0.0005617541;0.0072994637;-0.16642858;0.030797273;0.09220178;-0.030329028;-0.028672528;0.03061918;-0.03327067;-0.029182645;0.043070838;0.035125226;-0.03471821;-0.05715129;-0.31458566;0.015955461;-0.03519005;0.06361797;-0.07527263;-0.08676693;-0.016531179;0.032189142;-0.0063669654;-0.07330623;0.08431335;0.048227146;0.045053773;-0.012097364;0.042508274;-0.05151371;-0.1459843;0.0077567585;-0.024145762;-0.00032326803;0.016117437;-0.0060221455;0.05415371;-0.08108982
0.16805987;-0.0068186955;-0.08217524;-0.0481075;0.11521187;0.0061409986;-0.23099932;-0.017923992;0.08296857;0.017364867;-0.06625202;-0.05898704;-0.06374994;0.09820106;-0.0005632526;0.010619419;-0.031450137;-0.0049356236;-0.0011484865;-0.10168914;-0.12342472;-0.02558266;-0.112248965;-0.00042406606;0.054713797;0.014411048;0.06406951;-0.3775773;-0.006293041;-0.1847573;0.049457207;-0.034618795;0.011419981;0.097106084;-0.077208236;0.14711875;0.07613842;0.01610838;-0.02975339;0.027626099;-0.0574457;0.0126722045;0.055308156;-0.029488534;-0.111489594;-0.15339856;0.035114035;0.09678704;-0.10182089;0.03558065;0.021960197;-0.013229026;0.0098307235;-0.25212923;-0.021750322;-0.09882184;-0.01455039;-0.051441994;0.08220978;0.050841488;-0.028868854;0.027649099;0.0020321703;-0.08629265;0.13172781;-0.06856836;0.03232025;0.009839019;-0.08475489;0.047149073;0.0022767277;-0.0062605063;-0.17482825;-0.05742189;-0.4356911;0.009984728;-0.023468748;0.033527233;0.14788307;0.13435926;0.07673105;0.016125232;-0.1452614;0.05785323;-0.055079453;0.108279966;0.031966534;0.12006552;0.07277898;-0.10623372;0.081587225;-0.06181373;-0.060902033;0.13579069;-0.019548755;0.027094167;0.10215963;0.040454634;-0.032584943;0.003536629;-0.1160926;-0.0035311277;-0.09329208;0.073963754;0.09584417;0.08072534;0.0041529313;-0.07046104;0.05133139;0.10606428;-0.044726323;0.088175155;0.026203457;0.114668444;0.027694399;-0.075979084;0.091361344;0.11868344;-0.011992208;-0.040606845;0.026815506;-0.039838716;-0.069146775;0.107701726;0.0019350324;-0.20952883;-0.10442271;-0.05478598;0.046447083;-0.0052651563;0.09931986;-0.19792105;0.103402555;-0.051441807;-0.13568592;0.0028612542;0.015674122;0.09160188;-0.015622833;0.01992854;0.075761974;-0.00953204;-0.1703077;-0.034254458;0.009085549;-0.025088873;0.025589205;-0.1327852;0.10590024;0.07551417;-0.067043655;-0.03407638;-0.061965916;0.058038827;-0.04820581;-0.035311475;0.013949974;0.039361957;-0.06842779;0.029704554;0.04189812;0.017898077;0.015821828;0.077080086;-0.026848802;-0.052181304;0.028185967;-0.033708602;0.037367444;0.026826244;-0.02216085;-0.13198398;-0.14935702;-0.18025443;-0.046990614;0.02573656;0.09523567;-0.09638355;-0.076879;-0.08472126;0.050681863;-0.011639526;-0.033483468;-0.09807299;-0.01852146;-0.21721348;-0.050463047;-0.021084942;-0.018840075;0.10550703;-0.05555639;0.0056514475;0.06717965;-0.0593308;0.06725015;0.10780859;0.06863928;-0.069789626;-0.0037463503;-0.08663539;0.046915833;-0.04642733;0.021132277;0.091496386;0.036254495;0.025557516;0.05091608;0.0959249;0.08262642;-0.0051373523;0.03748363;0.02225283;0.06765747;0.067479186;-0.017074002;0.032436296;0.027668692;0.050374202;0.056598246;-0.017033469;0.014803151;0.0071242894;-0.06357319;0.043301076;0.05082781;0.0066766525;0.102493316;0.17640996;-0.06574064;0.0796175;-0.009478852;-0.0152495615;0.079950415;0.071029335;0.015237339;-0.3668665;-0.06419307;0.015111493;-0.024979232;-0.19921122;0.08121087;-0.032589957;0.027831994;0.07075252;-0.024222929;0.0065675587;0.047018245;0.018621007;-0.13599509;0.04437242;0.030138008;0.06921666;-0.0022007169;-0.014929308;0.009640124;0.0018561867;-0.013524055;-0.036384854;0.004862518;0.008652051;0.0702648;0.029930653;0.068832256;-0.018553684;0.014041096;-0.09079247;-0.019798443;0.031299807;-0.030529505;0.12765412;0.060810525;0.09620121;-0.0004434114;-0.04170504;0.025427295;-0.013414752;0.10510422;0.040703446;0.0149462335;-0.034400437;-0.004598972;-0.07051304;0.0752711;-0.06260727;-0.04274112;-0.041126378;0.048097983;0.1491789;-0.09993962;-0.14762478;-0.2626551;0.03571652;-0.064742476;-0.0027298382;-0.15301435;-0.088570796;0.0023242529;0.22884159;-0.0783907;-0.07553127;-0.07143065;-0.045899373;0.07121501;0.19515343;-0.08799898;0.082673095;-0.18889567;-0.017095555;0.12883419;-0.0122879725;0.07556823;0.07994635;-0.0058572227;-0.0121696545;-0.011008609;0.05850581;0.0921122;0.04982807;0.010687976;0.049079757;0.0813001;-0.0558246;0.041772682;-0.0752389;0.093246244;-0.0036416743;-0.023646485;0.07993978;0.036222346;0.036036715;0.01730544;0.1150553;0.07919907;0.05418657;-0.056175627;-0.07563499;-0.100883506;0.08915729;0.06384391;0.14355364;-0.07575209;0.051036652;0.044613145;-0.11416896;-0.20305902;-0.015700966;-0.022270124;0.048864607;0.0037061607;-0.19661924;0.15598923;0.14418493;0.04164116;-0.010771367;0.0288342;0.025799539;0.014658402;0.15732;0.09442402;-0.014566789;-0.036523037;-0.058011357;0.049714975;0.020364404;-0.032778222;-0.05950217;-0.05928145;0.17804995;-0.12480655;-0.17179044;-0.009629293;-0.10484349;-0.11441842;-0.049206838;-0.014636502;-0.05242915;0.04116106;-0.17408797;0.041201726;0.035686225;0.070771426;-0.03259735;0.07071983;0.06973276;0.09154799;-0.04840409;-0.012628497;-0.046928182;0.03731149;0.13353872;-0.037030555;0.057479247;-0.07755215;-0.08643427;0.0040560067;0.016740382;0.06132787;-0.09865479;-0.03551472;-0.06777891;0.022351947;-0.0010352771;-0.048766334;0.034897912;-0.075385675;-0.12229828;0.05478043;-0.14137287;-0.15023702;-0.023360102;-0.04178064;-0.016284684;-0.044890523;-0.046481293;0.06754961;0.080268994;-0.08863819;-0.07744688;-0.043191724;-0.08127878;0.058748845;-0.097189166;-0.06596312;-0.0022237399;0.0604057;0.069422655;0.008430423;0.095576935;-0.0142746195;0.019759178;-0.008286077;0.2890607;0.058987785;0.072828375;0.05602271;0.06318672;0.036033582;-0.07712439;-0.05636094;0.23495375;0.042657565;-0.057251897;-0.24110486;-0.07820285;-0.0042157234;0.040528197;0.13202478;-0.0699409;-0.02907181;-0.04900436;-0.052977063;0.00325196;0.0737969;-0.005391205;0.007324214;-0.047681395;0.040909313;-0.14438179;0.013457283;-0.036444705;0.08887601;0.06287547;-0.052848604;0.033604838;0.00528273;0.046911225;0.04764403;-0.19326253;-0.018286718;-0.026572736;0.0013465193;0.13032061;-0.08969535;0.098415606;-0.09674116;0.04767385;0.09153557;-0.021099502;0.052981023;-0.08363845;0.045677807;-0.0029840064;0.13462998;0.010171121;-0.24689542;0.062493306;0.0352124;0.0901202;-0.037240297;-0.055471264;0.12307671;-0.067143835;-0.18082051;-0.013782255;-0.027133795;-0.18821946;-0.033048186;0.056918778;0.06379406;-0.28335667;0.054786947;0.08795899;0.028512936;0.03841454;0.05128198;0.027271908;-0.028045874;-0.027324168;0.011576088;0.13548313;-0.00851057;-0.2649386;-0.10717608;0.111527234;0.051258847;0.011512988;-0.097914234;0.08700083;0.098094985;0.02165735;0.006509925;0.007199004;-0.042669557;0.04182111;0.06071851;-0.023679076;0.10376686;-0.035824653;0.19618845;0.01812719;0.07521243;-0.0007257244;0.17151424;0.10669595;0.017618503;0.10338098;-0.017385595;0.0068832515;0.005329192;0.022957738;0.028265605;-0.055784665;-0.039463792;-0.07697443;-0.055779472;0.020945892;-0.04240573;-0.08958597;0.05225972;-0.0013290168;0.07386946;-0.08201018;-0.11780195;0.09969417;0.0014248274;-0.04891614;0.05175826;-0.044493113;-0.047762137;0.08949893;0.04230711;0.02674502;-0.011587834;-0.033642642;0.03933851;0.02292031;0.07587319;0.16362503;0.07774379;0.17655607;0.054392476;0.0792085;-0.19387606;0.035982355;-0.043793686;-0.012751592
-0.19186534;-0.04426237;0.10839773;-0.09936981;0.078090824;0.032809522;0.042125616;0.07727669;0.022299306;0.1603205;0.07163648;0.01492829;-0.07331008;-0.0005791143;-0.056974854;-0.008533264;0.07728842;-0.1835649;-0.053553555;0.08917267;0.15424924;-0.07727341;0.10570413;-0.008803563;0.09438757;0.00975371;0.100844234;-0.12633201;0.12427107;-0.15174925;0.016373385;0.104419224;0.041421913;0.12066506;0.15289481;0.06393383;-0.059730113;-0.08232911;0.029962322;-0.009906038;-0.06336336;0.18647957;0.008514521;0.01120242;0.05009093;-0.17773306;0.050577704;0.12854187;-0.07753573;0.12483268;-0.042232282;-0.24990427;0.0119888345;-0.0064958706;0.049211513;0.013526394;0.11679457;-0.014771477;0.0044861143;0.09045255;-0.22610112;0.092950225;-0.023359366;0.0028373867;0.08883542;-0.017500762;-0.020190699;-0.060699392;0.04004779;0.07063769;-0.07680033;0.052010085;0.12772468;-0.048817858;-0.19115895;-0.05625864;0.046632722;-0.087534934;0.04738295;0.20053898;0.024022188;0.0049694474;0.03720431;0.017049534;-0.09611656;-0.075312085;0.04087353;-0.07036875;-0.019560777;0.0040539782;0.019305816;0.040528346;0.06329375;0.11499959;-0.013280593;0.0019151894;0.06626167;0.087138206;-0.07703797;-0.04410268;-0.11001446;-0.009772711;-0.14304255;0.0033295506;-0.082100995;-0.06326008;-0.057740193;0.02205798;-0.017268522;0.011906916;0.062713616;-0.03288191;0.09750554;-0.0072707394;0.06317019;0.07273983;-0.0011475713;-0.03805678;0.013405959;0.04156806;0.030114997;-0.07506179;-0.10186185;0.10846836;0.056535;-0.049372386;-0.10040543;-0.062891096;-0.0965624;0.05128228;-0.025008228;0.10057208;-0.01800098;0.017161204;-0.0697985;-0.036100995;-0.04383693;0.0207513;0.12100855;0.10057333;0.075781934;-0.03741603;-0.16038962;-0.017537184;0.098099224;-0.11052243;-0.048415367;-0.072398625;0.13599946;-0.03792608;0.045439217;0.04356441;-0.09030919;-0.02445143;-0.05755791;0.07934702;0.07826437;0.17961347;0.024292853;0.03879892;-0.08768109;0.07100443;-0.07329122;-0.084640026;0.0528449;0.025885757;-0.038730565;-0.040080708;-0.06170202;-0.03401723;-0.060000844;-0.06699311;-0.018211672;0.2012672;-0.048033047;-0.004791458;0.13903081;0.079104654;0.053771418;0.03676448;-0.23456469;0.11541284;0.016124189;-0.03070987;0.06726028;-0.22313637;-0.18474919;0.02440245;0.048931807;-0.036209036;0.05532684;0.06179845;-0.028948467;0.050638076;-0.16378808;-0.020053243;-0.053235907;0.03133767;-0.021202452;0.017123815;-0.018698476;-0.020110074;-0.014758745;-0.06567207;-0.070039876;-0.02058106;0.18935084;-0.11220347;-0.09051486;0.03899407;-0.1383836;-0.030084917;-0.08716478;-0.012621911;-0.030240623;0.023120418;-0.0751889;0.012190842;0.037002012;-0.0024632607;0.09391726;0.005504345;-0.022481443;0.0057099406;0.025153127;-0.025643937;0.010059563;0.100695394;-0.048164237;-0.052619804;0.082358055;0.13148792;-0.033607528;0.02054667;0.050801568;-0.044121813;-0.011345312;0.081950456;-0.19944927;-0.29129168;-0.056140147;0.011849508;0.06628726;0.19203289;-0.010251155;0.008330258;-0.06813866;-0.013977362;0.027969357;-0.035625152;0.0484002;-0.05741955;0.10921342;0.031480726;0.059715636;-0.0008796866;-0.098420195;0.017815338;-0.017912775;-0.07331399;-0.0049032625;0.098091885;0.043515723;-0.086534105;-0.052231435;-0.120409824;-0.032931395;-0.067745924;-0.066474386;0.10345558;-0.0153962355;-0.0002070363;0.10312397;-0.051044475;0.25211373;0.049649395;-0.003250066;0.008924025;0.045760974;0.07085683;-0.09456462;0.099644616;0.07401056;0.072395295;0.09639205;-0.059976816;-0.10058947;0.080795646;-0.03386893;-0.07428682;-0.23051666;-0.08581252;-0.020093257;-0.06716518;0.0028742417;-0.035431214;-0.030957349;0.060011882;0.020854866;-0.12994336;0.055038903;-0.07824605;-0.04933042;-0.045457363;0.035736036;0.13178743;-0.0072571053;0.11573686;0.09144487;0.047579892;-0.049057208;-0.040244874;0.031955466;0.06391453;-0.18515526;0.10376278;0.015138054;-0.05182079;0.059613038;0.07028189;-0.010687725;-0.12830327;-0.044385243;-0.089229226;-0.013625294;0.029053193;0.00022683934;0.041019972;-0.09590057;-0.0021690296;0.012983172;-0.042914916;0.057631835;-0.025802454;-0.10216839;-0.22498797;-0.20153217;-0.08549455;-0.0013247969;0.0039901068;-0.10037122;-0.015896447;0.079191424;-0.13495609;0.016298795;0.051129945;-0.033627726;-0.096073166;0.05004399;-0.32216117;-0.20545867;0.11904012;0.003097135;-0.033784237;0.030715927;-0.11064125;0.004597835;-0.10297495;0.009283603;0.0021116785;0.029311001;0.061528224;-0.10009922;-0.043802816;0.056024328;-0.0018449916;-0.1025492;-0.16018848;-0.065589175;-0.014569425;0.03493346;-0.1185252;-0.06704266;-0.05859888;-0.07951564;0.023971895;-0.02837509;-0.1089205;-0.002089915;0.03180359;-0.03054293;-0.12929592;0.0012481302;-0.086284384;0.09276502;-0.05108039;0.08421067;0.03526687;-0.025467535;-0.005763771;-0.057124846;0.0058836997;-0.20870395;0.044585083;-0.1355757;0.02888831;0.063657574;0.032974683;-0.07481401;-0.05498756;-0.032515436;0.011716268;0.06098339;-0.019001208;0.008871625;-0.07975817;0.011354441;0.10043478;-0.025265336;0.024908625;0.031359043;-0.0025229268;-0.0102500785;-0.016452573;0.15597838;0.069083594;-0.016882412;-0.05162514;0.12898727;-0.0134372;-0.035245065;-0.14983194;0.022356253;0.040180698;0.024103709;0.020821886;-0.049888298;-0.057708893;0.047601048;-0.070235446;0.11842824;0.047730874;0.035709944;0.0051723486;-0.018008195;-0.030453198;-0.022718411;-0.014578825;0.033165507;-0.14933905;0.08077028;0.11580007;-0.052783616;0.03633655;-0.07537405;0.03411665;-0.061185427;0.020189844;0.016754033;-0.1594725;-0.012561487;0.041729;-0.08335866;-0.04282962;0.030856498;-0.01083554;0.06401654;-0.050063748;-0.003454446;0.08412433;-0.026950596;-0.023219362;0.06564573;-0.02543253;-0.034551304;-5.731815e-05;-0.049191207;-0.104802705;-0.007192931;0.015303848;0.1174417;0.010323539;0.04201001;-0.080187224;0.048723307;0.022175686;0.101280086;0.09326944;0.027776329;0.0134239895;0.057305254;-0.06268579;-0.1245659;-0.11059449;0.041542158;-0.10283954;0.044993307;0.07406927;-0.058876064;-0.008163999;-0.052051805;0.02184874;-0.12274667;0.024167176;-0.10873211;0.09293231;-0.043215945;0.04567824;-0.082010515;0.051822316;0.018931814;-0.015441292;-0.10214504;-0.02294966;-0.074356675;0.029044082;-0.036077335;-0.050829567;0.077554196;0.008508316;-0.014292428;-0.06715279;-0.047922727;0.19730273;-0.075296454;-0.086126395;-0.104197145;0.09180053;0.08027055;0.01713349;0.10973349;0.054020982;0.030279089;0.038053907;0.18502298;-0.069531165;-0.028917331;0.101706766;-0.05209342;-0.011179881;-0.03690556;0.0066926107;-0.24114436;0.078997456;0.012732957;-0.09131682;-0.03310826;0.06720155;-0.021536665;0.001663743;0.2572797;-0.045564927;-0.13892066;-0.18985775;0.029908558;-0.03987877;0.11892992;-0.08587873;-0.05762722;-0.052117437;-0.0543602;-0.050520696;-0.25813;-0.020715533;-0.029130321;-0.036485877;0.07244169;-0.066104464;-0.10744447;-0.028569529;-0.0070902943;0.020707587;-0.08455731;0.046621416;0.04374566;0.036850747;-0.056123305;-0.022354161;0.03917199;0.051775713;0.00019257699;0.070589975;-0.044168122;0.0065894863;-0.073149815;0.10473058
-0.14540209;0.15240352;0.06521589;0.03788227;-0.0679402;-0.012341298;0.03054365;0.008502791;0.020342026;0.013584883;-0.045034707;0.065355554;-0.021223227;-0.026048997;-0.012726522;0.026144044;0.0005230807;-0.26245525;0.01458134;0.034475014;0.23034845;-0.118545495;0.15202159;0.01930798;-0.1040544;0.06672307;0.04478231;0.049916446;0.101299874;0.010684149;0.08947817;0.20184228;0.033685047;0.07164705;-0.038199544;-0.07860371;0.09346838;-0.06543052;-0.11513696;-0.07741636;0.09069691;0.11953279;-0.050362878;-0.030214416;-0.001088607;-0.0120434025;-0.09295415;-0.054767042;-0.077798754;0.0964769;0.037384328;-0.18113714;0.062145837;-0.044201147;-0.051392872;0.15944245;0.088900834;0.08425009;-0.06860705;-0.06474908;-0.13831428;-0.039111212;-0.16994777;0.019822594;-0.04090241;-0.02239316;0.012656605;-0.03831395;0.101007245;-0.0696264;0.012760203;-0.033140115;0.050710876;0.009918353;-0.02968193;-0.12233584;-0.0333566;-0.0035115299;-0.09083764;0.21225508;-0.10131647;0.05444218;0.017137418;-0.027601851;-0.09964607;-0.0472815;0.031554006;0.058711007;-0.06230405;-0.019186547;0.057168975;-0.020214748;0.034115907;0.096691325;-0.052555576;-0.06322745;0.1850612;-0.0067431247;0.030225402;0.03263017;-0.13616994;-0.052297935;-0.14601165;0.024810618;-0.015375834;-0.09955018;-0.14435954;0.011244119;0.1077073;-0.08580479;0.011358344;-0.0894977;0.049025726;0.18191521;-0.001714946;0.05128478;0.006657668;-0.03088505;-0.052559018;0.1224243;0.0028538646;0.11200889;0.048426904;-0.027032027;0.07631294;-0.1542844;-0.01882037;-0.0060066166;0.07226769;0.30722374;0.093571305;0.03800454;0.04400077;-0.087829314;0.003731035;0.018755056;-0.023652414;0.20188402;0.12799473;0.015127317;-0.058634143;-0.027612824;-0.07117164;0.061120443;0.10345701;0.043706074;0.120237686;-0.07244693;-0.08941701;0.021396589;-0.0635644;-0.034758795;-0.026963761;0.046645686;0.1106696;-0.02757377;-0.0075606005;0.15290529;0.029244285;-0.029413937;-0.015091248;-0.058264297;-0.03804166;-0.13865037;0.042764597;0.026793782;0.013952517;-0.08958389;-0.090122156;-0.0902269;-0.17302167;0.03720087;-0.0039025529;0.16564433;-0.09841811;-0.043009177;-0.051854044;0.083061285;-0.0075518503;-0.057626832;-0.1736738;0.095085464;-0.028704755;0.047254335;-0.09212521;-0.18119068;-0.18787982;0.022198888;0.013623499;0.012033274;0.08956419;0.0138504105;-0.014615213;-0.038086604;-0.019347109;0.023400173;0.0135373315;-0.030828387;-0.032536626;0.04787126;-0.07793876;0.03316363;0.056211233;-0.0015696542;-0.07888971;-0.104005106;0.060460757;0.07123159;-0.18162352;0.018574255;0.0070831836;0.020790592;-0.13448383;-0.06930629;-0.08583947;0.06797533;0.030278621;0.0733729;-0.043660495;0.0979108;-0.03997947;0.07521211;0.015284144;-0.056290485;-0.042628895;-0.027146373;0.08649966;0.05779666;0.07604746;-0.12192904;-0.01599169;0.009723003;0.0100673735;-0.11061656;-0.04677775;0.10293484;0.03804245;0.082618855;-0.1374905;-0.06338814;-0.04890283;0.07060663;0.0058491295;0.09088078;-0.017208176;-0.013508507;-0.05348224;0.053065117;0.04828395;0.069414034;-0.06682384;-0.08550084;0.1800448;0.24746063;0.11866307;0.0110384235;0.04147796;0.065109685;-0.005181556;0.01901824;0.0017417636;-0.006834488;-0.049487524;0.0829912;0.1286002;0.079329394;0.13818277;-0.03670953;0.0844255;-0.047201615;-0.045949046;-0.107273206;-0.062442597;0.06944458;0.055643585;0.13962585;0.055702638;-0.07175841;0.043054983;0.052148852;-0.03182229;0.044618826;0.0008422891;-0.046989065;0.0022701472;0.02625308;-0.07390509;0.07792521;-0.11856573;-0.037450604;-0.114483535;-0.16294827;0.03864548;0.015033722;-0.048165545;0.03769563;-0.025003165;-0.1276517;0.04506077;-0.1015903;-0.03479499;0.0053858394;0.08254438;0.021895828;-0.058942076;0.122133456;0.09949804;0.06729105;0.015592715;-0.083520606;-0.048466817;-0.046723254;-0.0049056243;-0.061884914;-0.1822091;-0.114691086;-0.09449958;0.017202642;0.03287176;-0.058648728;-0.0052592093;-0.057131186;-0.06708985;-0.083826914;0.0005737838;-0.09489461;-0.013743728;-0.043875605;0.028897125;-0.1443194;-0.108124964;-0.10068636;0.026981102;0.024176657;0.020130785;-0.17407443;-0.033181045;0.082880735;0.064062186;0.03413148;-0.05943197;-0.14455806;0.0334345;0.05292067;0.008244897;0.050232153;0.014528934;0.04073265;-0.020043405;-0.21738584;-0.17172007;0.08519658;-0.091669336;0.02179599;0.09202877;0.07889323;0.01822786;-0.119382195;-0.07028215;-0.06459504;-0.053443734;-0.042450324;-0.17026812;-0.020242378;-0.016796399;-0.03640964;-0.056878127;-0.13441448;-0.047947638;0.0709468;0.009889551;-0.15702398;0.03516123;0.04563817;-0.20929453;-0.027777111;0.07805885;-0.21163665;-0.057858385;-0.071900226;-0.0043738666;-0.07061865;-0.056394093;-0.061516482;0.107085496;0.0056918734;-0.05933593;-0.054247055;-0.024983287;-0.07444301;0.06756236;-0.107218824;-0.35535854;0.03643477;-0.14704718;-0.0514947;0.0873791;0.041486736;-0.0616764;0.0902805;0.0097963;-0.06283899;-0.026318396;0.0607162;0.046324126;0.023305427;0.03891008;-0.071538076;0.035502862;-0.034216717;0.050731074;0.0100380685;0.050761566;-0.09624572;0.26592636;0.11943333;-0.004135779;0.06440523;0.09918159;0.033770733;0.036140237;-0.17989619;-0.019426787;-0.03982539;-0.04161065;-0.017193412;0.07966944;-0.13355573;0.015330346;0.0852755;-0.021008205;-0.018597735;0.04831041;-0.13836913;0.0043943753;-0.0085411705;-0.02343971;0.08515639;0.0741488;-0.041649226;0.012311039;0.14046168;0.024543032;0.21545656;-0.040862374;0.08896547;0.13060348;0.05069017;0.06275365;-0.13208854;-0.008143105;0.07745577;-0.1561247;-0.055876866;-0.13318786;0.04116986;-0.07752854;-0.0636364;0.086592875;-0.019475292;-0.09934861;0.06695556;0.06928714;0.004609555;-0.015695972;-0.05464002;0.060003176;-0.21442498;0.039481584;0.06162778;-0.04205641;-0.10756503;-0.112622984;-0.05751894;0.15191017;0.08694186;0.0073838606;0.021865062;0.028006835;-0.045373976;-0.0016315122;0.039079048;-0.057604294;0.0132820895;-0.039979335;0.0028704018;0.0018594946;0.07297683;0.23572613;0.03880289;-0.011369008;-0.15684144;-0.0067363773;0.024940286;-0.020767892;-0.087758884;0.033951323;-0.03871859;-0.024012947;0.029396337;0.014706544;-0.04004429;-0.13997291;0.060078338;0.05136761;-0.09894317;0.032828525;0.086081475;-0.040556088;-0.006443875;-0.008149124;0.22113392;0.034264907;0.023065167;-0.034105625;-0.10826441;-0.04655714;-0.026064206;0.067613624;-0.014024579;0.07522097;0.039420668;-0.0057535665;-0.0036400876;0.15410465;-0.010506412;0.07447026;0.099400304;-0.08754111;-0.030826686;-0.044695757;-0.11330554;-0.2251593;0.025094662;-0.03461728;-0.067008056;0.09227976;-0.056194086;-0.07522172;0.06839701;0.111486845;-0.013310707;0.038944583;-0.18440673;-0.057792656;-0.084110975;0.11596739;0.055674158;0.03085194;-0.07194951;0.01825458;0.056125846;-0.31200176;0.0022956205;0.068193994;-0.073814675;0.014644765;-0.09237993;-0.0037649432;0.048585884;-0.033717245;-0.15906298;0.0034936548;0.04703907;0.047385454;0.03476172;-0.013182271;0.037200928;-0.005310005;-0.010044284;0.045309003;-0.13595603;0.064994;0.015355248;-0.090607345;0.15791999
-0.20944163;0.23357406;0.118358076;0.06780572;-0.002616983;-0.0024894404;-0.034214407;0.044568934;-0.038191356;-0.02895421;0.035268225;-0.030899422;0.063729286;-0.038341608;-0.020747794;-0.02271966;0.17686285;0.0041994886;-0.041279763;0.074868694;-0.086194314;-0.04476675;0.03431857;0.057221778;0.2881485;0.011588588;-0.0038958313;0.07098962;0.084372915;0.3868508;0.018507278;0.069310546;0.09934977;0.16668163;-0.061925568;0.0080712;0.117505245;-0.07737009;-0.049014073;-0.083290905;-0.06571422;-0.056093864;0.2024265;0.23313992;0.018898426;-0.019264435;-0.03089862;0.03612394;-0.051148184;-0.15643911;0.11638346;-0.090702884;-0.046027314;-0.046331383;-0.054683;-0.023672111;0.15834223;0.032395482;0.034458157;0.18826419;0.0029574148;0.07305064;-0.12468298;0.050503254;-0.063749306;0.084837645;0.013881517;0.12342529;0.10377516;-0.0005513311;0.08554647;0.07420217;0.014697666;0.06917478;-0.12874323;-0.04926036;0.008529555;0.06097023;-0.024129057;0.16288096;-0.022818094;-0.026306188;-0.10370275;-0.05140193;-0.09259314;-0.06152146;0.022650529;0.083659515;-0.07479709;0.02901714;-0.066308975;-0.012226108;-0.027213734;0.003726094;-0.09283045;-0.09085888;0.18128875;-0.06764586;-0.07658324;-0.06850364;-0.13488232;-0.031189773;-0.0031555155;-0.029667946;0.055568233;0.021744136;0.019339614;0.02912015;-0.04074279;-0.03874772;0.022394948;0.034153834;0.015586776;0.005328409;0.06637882;0.082203455;-0.019706352;-0.0016391694;-0.041355006;-0.06420763;-0.019444609;-0.036132064;-0.0287283;-0.033638578;-0.012889968;-0.17739798;0.11614199;0.08360996;-0.007435529;0.2126045;0.07784639;-0.16018683;0.028095497;0.011889004;-0.09544309;0.021106541;0.14326283;0.13346559;-0.047063157;-0.04392716;0.06627323;-0.13434868;0.09712218;0.00075812987;0.07025101;0.10535602;-0.057671074;0.046895504;0.033616878;-0.07785141;-0.060473204;0.041847646;0.029741473;-0.296256;-0.057798486;0.07347127;-0.017938597;-0.19624014;0.061503112;-0.124918975;0.08111556;0.023736585;-0.048650194;0.124993496;-0.00036771665;-0.031637777;-0.0019082646;-0.03807385;0.043708798;0.09172701;-0.0013829556;0.0021436699;0.033111125;-0.07125615;-0.116755955;-0.08448953;0.08289865;0.20439467;-0.12439643;0.022799164;-0.19853795;-0.08495942;0.16870463;0.04122289;0.050323557;0.016813759;-0.029432543;-0.010714714;0.025293149;-0.03955053;0.050611213;0.007899398;0.09273569;0.054771725;0.03582257;0.07231583;-0.023119532;0.10413172;-0.041097544;-0.13963044;-0.057136003;0.005898988;-0.0683906;-0.033904165;0.026496222;-0.041977275;-0.026520524;-0.012287647;-0.39955246;-0.0016251059;-0.03639971;0.05629374;0.041696757;0.053776;0.026441334;0.072743885;-0.022714548;0.043866694;0.14829274;0.085893065;0.058670036;-0.08011026;-0.07730808;0.07261431;-0.0368648;0.0838209;-0.004816688;0.034986705;-0.002872639;-0.04132507;-0.02823346;0.16173977;-0.020100972;-0.013903319;-0.037670083;0.014861824;-0.006444328;0.02013446;0.0112588955;0.17927994;0.012767832;-0.0634794;-0.017648818;0.18825145;0.025582332;-0.10970191;0.050978307;0.08052512;0.061953187;0.04059278;0.06354941;-0.06281709;0.0699966;-0.2789031;-0.09468602;-0.044488527;-0.00047099314;-0.004334178;-0.005558471;-0.035849564;0.051662166;0.06316486;0.010667499;0.11953302;-0.063540414;0.049952872;0.14867142;-0.073947676;0.034970753;0.19436818;-0.06462162;-0.0051549417;0.0667067;0.013968335;-0.051236007;-0.052456755;0.009889315;-0.07637376;0.00083402277;0.026481513;-0.039074373;0.09985392;-0.04976806;0.010083765;0.09253549;-0.040041238;0.042407118;-0.04830091;-0.0031453257;-0.037150063;-0.097723104;0.07440104;-0.13501406;-0.031494193;-0.1753858;-0.009469482;-0.035178717;-0.013435538;0.10895315;-0.01026524;0.0023187003;0.07286954;0.054672293;0.04786663;0.08023692;-0.28666094;0.10577623;0.05008072;-0.00047994044;0.008599041;-0.060963683;0.024352709;-0.0327415;0.075568706;-0.29297087;-0.11545297;0.049899958;0.14123853;0.049578633;0.035870083;0.058112383;0.1076884;0.017343728;-0.08917448;-0.06395876;0.124765046;-0.061595283;-0.06105064;-0.105439775;0.009196267;0.0340809;-0.034293387;-0.019919459;-0.08733341;0.1355559;-0.058795262;0.037513766;0.049961742;-0.0059087365;-0.03726917;-0.08385979;-0.04012388;0.06520749;-0.018552924;0.00069386704;0.025290206;-0.031203775;-0.07568115;0.054387588;-0.0822586;-0.003039824;0.121868506;-0.016754676;-0.10038201;0.052999593;-0.064814694;-0.062387384;-0.13194653;-0.013044138;0.013550416;-0.073905125;-0.057929315;-0.07711749;-0.043040216;0.013656546;0.01261402;0.059105195;-0.21682794;-0.0658719;-0.1359487;0.07316103;0.0008948673;-0.015473686;0.080308706;0.045813225;-0.03341252;-0.0028193134;-0.171711;-0.023587298;-0.049185142;-0.023379516;0.045179505;-0.0067060865;-0.20230435;0.09477017;0.07456641;-0.058865312;-0.050477657;-0.07181603;0.008425199;0.0071444004;0.094156824;0.069202594;0.3103602;0.07317461;0.0073993183;0.26589376;0.032524105;-0.039030563;0.07521909;0.037402768;0.010351681;0.040175386;-0.0072352323;0.053923137;0.14226866;-0.00033862412;-0.08170566;-0.042546313;-0.012880621;-0.03756743;-0.062428568;-0.041905098;0.0186647;-0.1976997;0.027954873;0.076154426;-0.0037172511;0.016594809;0.08179317;0.05015848;-0.060863234;0.007982915;0.0458133;-0.05917014;-0.049187794;0.09068004;0.009963905;0.07191671;0.004555161;-0.037095957;-0.058801662;-0.00026459037;0.1947784;0.056691065;-0.052074105;-0.071340166;-0.053146955;-0.0075456644;-0.18925123;-0.042737108;-0.09642773;-0.032532748;-0.19459198;0.18460232;0.054190297;0.043076515;-0.00573479;0.060392104;0.22567958;0.029117258;-0.030411663;-0.010588869;-0.10435859;-0.05638646;0.05019465;0.047910504;0.0042295796;0.059831534;0.040613916;-0.018141191;-0.11765542;0.039239984;0.0077040195;-0.06700499;-0.023478748;0.023287373;-0.041195378;-0.009536431;-0.0003448103;0.0125153605;0.044239014;0.3626701;0.056972917;0.0063952697;0.046347298;0.083823286;-0.014336096;0.01892113;-0.12671673;-0.06871174;0.07498874;-0.038162284;0.06937756;-0.09914748;-0.028431844;-0.034169544;0.019501265;0.026005656;0.029539278;-0.0047103595;-0.09372081;0.07776943;-0.1430305;0.029568758;-0.07969703;-0.015462296;0.019923916;0.14549658;0.09020394;-0.07124941;0.09353486;-0.10173045;-0.051090337;0.020720439;0.010747112;-0.045249444;0.04702586;0.069183476;0.002240692;0.024877263;-0.070710436;-0.09943834;-0.14219676;-0.0052981833;-0.15067773;0.022152068;0.117156185;-0.10145212;0.019269142;0.10390155;0.059196454;0.05210018;0.044886544;0.15699665;-0.0043796045;0.02776401;0.10362724;-0.26595744;0.045994487;-0.05369861;0.057158872;-0.19450589;0.38579056;0.035328925;-0.012487647;-0.17257853;-0.016565222;-0.031107174;-0.05575102;0.01117299;0.010352004;0.034192573;0.05689913;0.029934114;0.041612435;0.062301714;-0.07437338;0.09360704;-0.057771984;0.019260736;-0.058751788;-0.3249152;0.009785149;0.033255644;-0.0035955794;0.09759923;0.07960385;0.08587678;-0.05257404;0.049589075;0.18985862;0.023716033;0.06356495;-0.025998838;0.044685904;0.028781658;0.022805845;0.41459933;-0.078534506;0.022764176;-0.045206103;-0.0060141725;-0.070410565;0.18987945;-0.008545061
-0.008115314;0.03831326;-0.11514042;-0.065797545;-0.06405583;-0.055969365;0.099999525;-0.017189965;-0.009039758;0.066602804;0.055266052;-0.0015590914;-0.0013268158;-0.04001716;0.06988955;-0.042984065;-0.16223615;-0.052732453;0.09147154;-0.15464568;0.19262731;-0.0656482;0.10125625;-0.039658673;0.054449916;0.10863531;-0.026844023;0.040289756;-0.03154824;0.105851725;-0.06331193;0.1360547;0.05909489;0.047302883;0.06710657;0.08831968;-0.006934864;-0.01571073;0.025816208;-0.049007025;0.03837298;-0.07301268;0.090785086;0.023866143;0.064438395;-0.062158406;0.015466937;-0.007963769;-0.006624135;0.048724398;0.10861074;-0.16252102;0.079817414;0.07436025;0.04636674;-0.029177105;-0.049603652;-0.047021568;0.07785493;-0.019813485;0.12468455;0.0039983653;0.009652402;0.00072307035;-0.054235797;0.06742857;0.06878059;0.08601189;0.06102851;-0.06648985;0.054127067;-0.056420393;0.09207795;0.01801206;-0.18892966;0.20257136;0.00029280805;-0.048439648;0.053726632;0.28099498;0.03598558;0.07771644;0.027117623;0.027343359;-0.030073823;0.030829951;-0.017230587;0.053060085;0.049440812;0.021392867;-0.04113466;-2.7044394e-05;0.027255276;-0.14406186;-0.045247342;0.033255413;0.18340085;0.075504914;0.023521863;0.035992667;0.06861785;0.027968684;0.012948269;-0.015309806;-0.025518082;0.14134057;0.03290792;0.0094947275;0.06766821;-0.07080009;-0.03094278;0.10119436;0.001369338;0.111988075;-0.024013117;-0.035140634;0.035886593;-0.082852185;0.019252922;0.084394;-0.11005744;-0.053947657;0.012055631;-0.05825839;-0.09139813;-0.17951216;-0.040497962;-0.009909782;0.03642538;0.099550076;0.056113787;0.055821076;0.08134293;0.018400798;-0.10836166;-0.0077339737;0.15130936;-0.013091204;-0.0036394945;0.030704506;0.06256027;-0.05190385;0.03762355;0.036398534;0.016441066;-0.05904824;0.06688186;0.02001026;-0.0022116993;0.11647138;0.017966844;-0.055349056;-0.007409645;-0.10005292;0.01086531;-0.0054480648;0.049449157;0.10361905;-0.06263096;-0.0344322;0.013216107;0.06668893;0.081545345;0.029830843;-0.022972582;0.04124229;-0.07045235;-0.0629848;-0.041934747;0.019541645;-0.18720675;-0.008952873;-0.09917479;0.020331375;-0.11839128;0.14236975;0.10695426;0.018931063;-0.11185988;0.031605326;-0.14451586;0.005368094;-0.015228016;0.050281357;0.06232039;-0.08853647;0.057122782;-0.008788504;-0.014708351;-0.039734524;-0.004917752;-0.017226586;-0.05454773;0.055627774;-0.021830663;0.021774694;0.050618365;-0.055973444;0.015332737;0.13415803;-0.043867867;0.06656189;-0.052179813;0.059235167;-0.016778106;0.006082464;0.017097486;-0.02305058;-0.015662162;-0.081681855;-0.056745365;-0.025451627;-0.00023540691;0.023378456;-0.009863531;0.033920977;-0.054045122;0.07503006;-0.09529532;-0.02540918;-0.034061514;-0.061682444;-0.019580733;-0.004702036;0.0100826295;0.101352446;0.05793718;0.023783032;0.009302456;0.07918545;0.0735496;0.15201116;-0.009197562;-0.0059279557;0.062177826;0.01806265;-0.04395653;0.104817115;-0.014365872;0.045893256;0.06246587;0.0014917046;0.060514092;0.107811145;-0.09179786;-0.08451997;-0.019353688;0.06268142;0.018461332;-0.0027289165;0.040661555;0.021718606;0.109907836;-0.04227526;0.022533331;-0.072319694;0.07414056;-0.048322223;0.02340454;0.034192473;0.21723577;0.108150594;-0.0035502936;0.10610347;0.050871957;0.05927266;-0.011060559;-0.07734723;0.031854264;0.16390382;-0.091272734;-0.03659139;-0.0021825756;0.007975925;-0.18746541;0.09275701;-0.075741656;-0.085685596;-0.031072;-0.027593635;-0.050060872;0.03870338;0.06594425;-0.06967798;-0.04425915;0.07473465;0.042306993;0.049463604;-0.1035831;0.02955188;-0.031944014;-0.03566879;0.025806362;0.05186854;-0.039410535;0.1354997;0.013835043;0.13114363;0.19111776;-0.042295866;-0.08179761;-0.03391372;-0.041305896;-0.08095736;-0.012977024;0.06993895;0.08943042;0.030704651;-0.011848519;0.010315635;-0.037404977;-0.06908968;-0.049145494;-0.042310435;-0.027364835;-0.03127409;-0.0099898325;0.12698165;-0.018330636;-0.011359189;0.031596787;-0.082117565;0.11898621;-0.12918366;0.05411938;-0.16229278;0.06598458;0.07503556;0.05313488;-0.1500576;-0.07680881;0.0542869;-0.05048406;0.04308976;0.0038724015;-0.06118055;-0.020895144;-0.06758243;0.0067045195;-0.03897308;-0.034456432;-0.07035069;-0.04385177;0.08235973;-0.24753563;0.07561843;0.036755223;-0.05583605;-0.047520794;0.008769369;0.002397127;-0.04531401;0.05030391;0.0800325;-0.083126016;0.08002925;0.0044558155;0.1566213;0.036142096;0.037877917;-0.019303976;0.0049470374;-0.14049406;0.043202408;0.10105333;0.06484564;-0.084251486;-0.21400781;-0.017172994;-0.029602574;-0.051342003;-0.15109818;-0.02931037;-0.011722136;-0.031958316;0.010852481;0.086421885;0.043732382;0.003523933;-0.061205335;-0.10032027;-0.057308614;0.06921661;0.0021683893;0.123189524;0.09236926;0.03347673;0.13797152;0.0042014103;-0.0038409494;0.048781388;-0.06832813;0.031451803;0.058436453;-0.1028113;0.07450879;0.15823898;0.05474382;0.07110427;-0.07074292;0.09309968;-0.0059686243;-0.023060847;0.0745617;-0.012218711;-0.024240922;-0.066784754;0.05264999;-0.029812038;-0.02483611;-0.009797342;0.072599344;-0.061254308;0.040453218;0.09020498;0.09107683;0.05662415;-0.08908138;-0.0034136826;0.083130114;0.0015941686;-0.122530825;0.04069402;-0.04058725;0.03853802;-0.006585273;-0.012809417;-0.0901616;0.06393771;-0.0050321077;0.027378337;0.15038207;0.015745347;-0.015665436;0.056263916;0.016297044;-0.03487127;0.1725039;0.06438879;0.010379352;0.019948574;0.13022272;-0.06754304;0.050390225;-0.003131759;0.05296806;0.041998964;-0.011183532;-0.02321677;-0.06655659;0.033563577;-0.048303276;-0.08159995;-0.058574043;-0.044265077;-0.02625039;-0.011336108;-0.08460806;-0.07811067;-0.064389504;-0.045329317;-0.009484046;-0.07490456;0.08977013;0.0016814006;0.03849791;-0.026221907;0.04646254;-0.042583395;0.015550852;0.03046561;0.09994731;0.11655198;0.07228424;-0.03655814;0.13351972;0.055613596;0.03720379;-0.014309059;-0.0043681045;-0.045025792;0.013496322;0.08286359;0.053130597;0.018460823;0.039659437;-0.052262265;-0.030035455;0.22036955;-0.049541365;0.04215097;-0.07337808;-0.07430676;-0.037746564;0.0010454266;0.021321671;0.026487235;-0.022646815;0.2897051;0.082055405;-0.05747479;0.03368766;0.062477566;0.022947121;-0.053857356;0.02522404;-0.05592909;0.058417622;0.026204491;-0.001069637;0.097632974;0.21359536;-0.059709705;0.0327222;0.045878656;-0.017631236;-0.09836387;0.09900684;0.0505998;0.10838608;0.12432592;0.005599489;0.03002963;0.05161721;0.16171691;0.047329474;0.04253289;0.05798718;-0.1197292;0.035237066;0.08421472;-0.0560221;-0.052757982;0.18251574;-0.07217129;0.14061314;0.03282731;-0.021326553;0.001135046;-0.029567456;-0.07190108;0.08619211;-0.06219467;0.028228527;0.07444696;0.0088843675;0.06333872;0.10664655;-0.040632207;-0.0069922684;-0.05721953;-0.012791176;-0.04714932;0.08766596;0.06184183;-0.09473182;0.10459429;0.021548636;-0.03773427;-0.061465573;0.021366434;0.11672997;-0.03424193;0.064036496;-0.017642578;0.04797151;0.055808645;0.032662883;0.2099609;-0.07851431;-0.06579819;0.051644027;0.07547487;-0.041866153;-0.047944006;0.114150755
0.12260325;0.059159376;-0.06386347;-0.05510281;-0.00042969055;0.009404621;-0.028608765;0.12567362;0.005863209;0.037793744;-0.0030419473;-0.033876084;0.03610292;-0.036826964;-0.06444098;0.003774797;-0.0056233853;0.091928825;-0.024543015;-0.22247152;0.17643444;-0.05937884;-0.07878587;0.00938007;-0.09803051;0.100046;-0.06325136;-0.014460977;0.0403045;-0.13140535;0.017733954;-0.06170251;-0.032129515;0.0022650629;0.19836017;0.066209726;-0.05346866;0.025915641;0.007274099;0.067359805;0.055463444;-0.030527381;0.060686972;-0.1010566;0.19306256;-0.056991693;-0.06982742;-0.046779275;0.016292043;0.072610684;0.026192855;-0.09059513;-0.052738618;-0.08692102;0.03371553;-0.10257803;-0.05167204;-0.05918301;0.03236305;0.04851042;0.13111341;0.089195564;0.09744704;-0.014497971;0.042669624;0.13238102;0.033240233;0.040905092;-0.035668492;0.040973365;0.022596516;0.0638317;0.19931008;-0.043542035;-0.18147838;0.10465843;-0.0028087003;-0.013583137;0.035350055;0.21393774;-0.019765541;0.026339553;0.05225859;0.011364779;0.07938294;-0.09515552;0.05343814;-0.045506854;0.00082596455;0.023522254;-0.0483171;-0.024980742;-0.036616676;-0.10738365;-0.027432885;0.09144645;-0.08429864;-0.014149586;0.02955545;0.022164093;0.08818682;0.066791676;-0.027236488;0.015029574;0.0357851;0.0022158914;0.005575445;0.038464632;0.04468565;0.03126467;0.0967384;-0.05504157;0.059711643;0.14068906;-0.03891996;-0.005169237;-0.05005763;-5.7808298e-05;-0.006060242;-0.009462805;-0.0107867215;0.014402848;0.03127551;0.05327445;0.00032290554;0.05471646;-0.10105822;0.08700342;0.026898585;-0.123329125;0.023734698;0.03541145;0.063462764;0.059890743;0.110589236;-0.06862875;-0.044734057;0.0004644439;-0.0030317432;0.11830222;0.046803858;0.0048960974;0.04546867;-0.015828578;-0.012837236;-0.057462703;0.04274166;-0.05267584;-0.055303693;-0.058716573;-0.018463122;0.04574343;-0.029733906;0.046275686;0.0080911815;0.11437615;0.123383634;0.1896864;0.020837687;-0.023607174;-0.029591281;0.026387425;0.037486866;0.0052012713;0.11598039;0.046319466;-0.07386637;-0.040772412;0.07773458;-0.0516529;-0.06919058;0.030449193;-0.05511424;-0.009120895;0.008050597;0.025933638;-0.027182152;-0.11289741;-0.08743876;-0.042491805;-0.12833922;0.010653591;0.09077408;-0.05082508;0.0328979;-0.12831332;0.048794724;-0.04888677;0.030559247;0.030742828;0.00962234;-0.10303035;0.0683343;-0.026314495;-0.04521398;-0.047298405;0.035502158;0.03829805;0.062275507;0.119725786;0.09070012;-0.055608295;-0.009320806;0.04138834;0.059622876;0.056523554;0.034099773;0.090146884;-0.01420567;-0.04500056;-0.08034942;-0.08491222;-0.0018051493;0.05460719;0.03282241;0.0031065554;0.031131253;0.034689113;-0.11547138;0.03392607;-0.010863351;-0.00629144;0.057833057;-0.05472944;0.0012899636;0.006983386;0.014280764;-0.10311159;0.023041906;-0.034659505;-0.022702692;0.14438087;0.008693825;0.017579649;0.015938703;0.03925108;0.05711102;-0.05619803;-0.089271165;0.08626804;0.035229594;-0.039870404;0.07104146;-0.012286011;-0.06871655;-0.08616654;0.03813436;-0.051295105;0.06947146;-0.0017382643;0.1062825;0.011375068;0.048508283;0.108019926;-0.03592852;-0.05377491;-0.04148271;0.044522185;-0.07559435;-0.056577235;0.09264751;-0.012796052;0.007075338;-0.07909953;-0.047091953;0.037974957;-0.024850624;0.04574873;0.0002819046;0.10266116;0.018688451;-0.09842788;0.0328514;0.045994937;-0.1602332;-0.00844799;0.019320063;0.020017384;-0.07457934;-0.0077360524;0.04604905;0.14997238;0.022200577;-0.080366105;-0.00933488;0.028240036;0.048679538;-0.10467519;-0.17173527;0.028764775;-0.05072001;0.18202698;0.043018334;0.0437486;-0.049458586;0.02844078;-0.022068655;0.12629873;0.2195924;0.057562537;-0.038021617;0.018823626;-0.010865454;-0.06296498;0.0665257;0.18050194;-0.010001305;0.12727399;-0.011925548;-0.0044741016;-0.07063522;0.021039953;0.031957623;-0.045962747;-0.09303319;-0.049427222;0.023709822;-0.0062370994;-0.059017785;-0.045271087;0.026840301;-0.018303772;-0.031460557;-0.011760249;0.037648417;-0.15109605;-0.002949175;-0.019448845;0.0205507;-0.026916457;0.0666404;-0.100506745;-0.02191643;0.023895586;-0.052272122;-0.11144906;-0.15310961;-0.07334893;-0.052689597;-0.036130134;-0.052891854;0.095606826;-0.037088398;0.010873557;-0.25165114;0.05597582;0.078024164;0.056194704;0.03726998;-0.12079185;-0.13339159;0.10271691;0.020429656;0.09306525;-0.082112275;0.053251617;-0.017270265;0.051329855;-0.09452557;0.018677864;-0.0060085813;-0.022379354;-0.049898878;-0.0057749543;-0.06924186;0.023823025;-0.042635713;-0.16790591;-0.07775273;0.09020224;-0.05127345;-0.0830228;0.06824814;-0.036495887;-0.13634983;0.042745836;0.014076102;0.02008792;-0.08382123;-0.061881162;-0.079525754;-0.09214728;0.06437813;-0.06440122;0.08302421;0.0028180832;0.15083438;0.15649582;-0.0043208627;-0.025745561;-0.051518;0.0102852555;0.212549;-0.07498114;0.02652111;-0.030091692;0.013069233;0.07480567;0.016404793;0.037215915;0.085551634;0.06660802;0.05998562;0.056381527;-0.035022274;0.028403644;-0.07203949;0.06404899;0.0048236945;0.01695278;0.06486518;0.039753813;0.092874564;-0.01635221;0.09000803;0.08026912;-0.047772385;0.02787966;0.04860042;0.0115818605;-0.0057657813;-0.1852286;0.049272664;0.0662682;-0.0797015;0.07469424;0.07383964;0.009201127;0.116714895;0.0719984;0.059796583;-0.007006994;0.05544799;-0.024055274;0.07516963;-0.02780295;-0.042324238;0.023769217;-0.061166644;0.017515697;-0.066010535;0.16172388;0.018242463;0.013892152;-0.2628764;-0.117070876;0.13249725;-0.035631068;0.049528886;0.020901684;0.07908829;0.04006409;-0.025945354;0.028466493;-0.0014195082;-0.042066183;-0.019893058;-0.0400647;-0.076508716;0.019648317;0.051383384;-0.0044664196;0.003897596;0.060128164;0.059215944;0.042853445;-0.039487317;-0.0009332793;0.020439137;-0.018735725;0.031950932;-0.0027724965;0.19136274;-0.037024487;0.006733669;0.1029482;-0.05190499;0.04269497;-0.006145727;-0.15784591;-0.07831502;0.07613933;0.028764699;0.03515841;-0.013194322;-0.11542224;-0.02669401;0.019493952;0.23171079;0.07606727;-0.025970988;-0.079679474;-0.08214787;0.059305362;-0.097118445;0.053780578;0.073582575;0.012536218;0.04985943;0.050887406;0.020478897;-0.07423645;0.03974854;0.046730045;0.02319283;0.036044102;0.03771823;-0.05185449;0.011861526;-0.004190864;0.0717246;0.055982754;0.020536657;0.17696702;0.064617276;-0.11716613;0.047243442;0.0754459;0.010989907;0.077422634;0.11290392;0.036575366;-0.045452837;-0.0012662528;-0.052665778;-0.0660753;-0.05105453;-0.09233036;-0.21647619;0.02389607;0.027737355;-0.012254512;0.020171013;0.06912675;0.039116103;0.13579254;0.0981491;0.001699303;0.08055092;0.06552942;-0.053033303;-0.017840138;-0.09389978;-0.030772384;-0.03819086;0.06324641;0.0455691;0.005679292;-0.06314071;-0.080725625;0.12334658;-0.04805467;-0.059165064;-0.013312521;0.067284085;-0.041199975;-0.004779285;0.13182898;-0.11018439;-0.09950116;-0.034881346;-0.010629831;0.07536988;0.048215173;0.04470404;-0.048852358;-0.031342715;0.0068719955;0.00047185813;0.01221561;-0.06178599;0.034864884;0.0061758193;-0.0045142337;-0.022871077;-0.04224517
-0.050333466;0.06115694;-0.15733074;-0.041389238;-0.082091875;-0.07198297;-0.008788468;-0.011160822;-0.073719464;0.022889383;-0.06162963;0.03676367;-0.08013733;-0.015624584;0.004618163;-0.08691721;-0.053687643;-0.13053913;0.05710644;-0.2330388;0.35540557;0.054224487;-0.10347737;-0.0037229953;-0.09141403;0.07265165;-0.02122099;0.20370787;-0.071250714;0.07443581;-0.011176688;0.07124513;0.07524905;0.081121795;0.20549661;0.05906045;-0.113786116;0.050902504;0.033244263;0.035100494;-0.06765793;-0.050685156;0.07702006;0.012643369;0.094431914;-0.11375058;-0.080395214;-0.041550674;0.05171048;0.023346832;0.030422995;-0.2235704;0.05288515;0.08992563;-0.07644562;-0.10947124;-0.08372191;0.009647941;0.0383372;-0.012183419;0.12291679;0.061581485;-0.07760733;0.07933244;-0.017308703;0.05037897;0.03912107;0.045840822;-0.1278308;-0.0159607;-0.021656806;0.07605443;0.100454405;0.02704305;-0.17259292;-0.0054156664;-0.020887215;0.03238695;0.10985712;0.0521929;-0.12234372;-0.03069049;0.013242082;-0.04715857;0.23912515;-0.013768718;0.01165312;-0.052916247;-0.066477954;-0.0070778984;-0.04074012;-0.09173471;0.016165355;-0.0039291396;-0.0074562305;0.07423749;0.16791666;-0.011287218;-0.03835405;0.034772802;0.14212316;0.03174141;-0.041389678;-0.045655243;0.009090519;0.02077618;-0.11855956;-0.06035056;-0.15980074;-0.08284395;0.010697138;-0.051555816;-0.048859503;0.07108019;-0.018012159;-0.089538395;-0.027683394;0.021169804;-0.054943327;0.04525899;0.049058486;-0.07129663;-0.11319565;0.033754837;0.04146733;0.13007027;-0.17866066;-0.030594155;-0.031864934;0.11899672;0.011036269;-0.13735285;0.030167677;0.06063618;0.07797277;0.04240233;0.13099818;-0.004308524;-0.0427691;0.11783887;-0.058235284;-0.03869183;-0.1494089;-0.001993932;-0.001282938;0.054504685;0.061304037;0.18812549;0.068805024;-0.059226982;-0.049907573;-0.05116444;-0.111159235;-0.098235816;0.011767349;-0.0101555;0.0490277;0.20962034;0.027228322;0.13156623;0.07399523;0.037345584;-0.08871512;-0.17210351;0.16735049;-0.039354485;4.201313e-05;-0.049693156;0.039667662;-0.0816306;-0.06533314;-0.13806748;0.017375948;-0.06337247;-0.07819239;0.04023499;-0.1635992;-0.15298697;0.044128187;0.03532552;-0.2199303;0.024339532;0.13413508;-0.06978477;-0.0209253;-0.015848642;-0.056888465;-0.08859329;-0.06343498;-0.010692792;0.072665736;-0.08123137;-0.0036675548;-0.020134313;-0.12419045;0.019872632;0.06889166;-0.06310729;0.027575098;0.0763836;-0.08791159;-0.09284242;0.03974039;-0.0985856;-0.08460285;-0.0277955;0.07843392;0.12820642;-0.018517494;0.009923834;-0.032221314;-0.090510465;-0.03198557;-0.054668073;0.07893892;0.0117662605;-0.029776715;0.07920864;-0.036406055;-0.09887134;0.059357572;0.068369985;0.06913743;-0.012213558;-0.036712542;0.040007796;0.04815141;-0.232214;0.07042015;-0.067523636;-0.014476143;0.1558379;-0.16765234;-0.114325255;-0.10074796;0.21936543;-0.069468476;0.02999843;-0.03225665;0.06362482;-0.035301402;-0.062402476;0.02873024;0.09353175;-0.008874748;0.0008091632;-0.06836566;0.045326646;0.026710255;0.0057455716;0.104030125;0.0071483175;0.054988287;0.0728031;-0.005145712;0.07893014;-0.007686899;0.06318389;-0.13629653;0.032167148;0.05810781;0.0058933315;0.06249491;0.09214254;-0.005746949;0.1251441;0.06931801;0.0009837617;0.10271139;-0.0067684487;-0.039119087;-0.028385133;0.005655556;-0.009942663;-0.23798344;-0.09782656;-0.05759144;-0.053585038;0.061069753;0.13561308;0.017639052;0.10008545;-0.091823995;0.011475228;-0.020454258;-0.069113925;-0.024498446;-0.106195875;-0.13622576;0.053067513;0.017583955;0.05363124;-0.014567616;-0.011964216;0.07232366;0.05921877;0.019885492;0.042753767;0.16951178;0.004161452;-0.089531176;-0.054934807;0.0014120392;-0.20884252;0.08262064;0.08738462;0.08869364;0.011127873;0.020004787;-0.0023755506;0.042011563;-0.017181229;-0.013723333;-0.05256784;-0.12533815;0.06517453;-0.04093808;0.03277645;0.074468054;-0.09061007;0.071070306;-0.076441795;-0.09313028;-0.14123362;0.018043734;-0.098525606;-0.020971248;0.08043371;-0.038832206;0.020248903;-0.032234237;0.005929949;0.005679652;-0.021911222;-0.05588049;-0.13864297;-0.20846093;-0.117207065;-0.09609255;-0.13235894;0.0814608;0.0022443742;0.062888816;0.18899901;-0.21287693;0.0017893855;0.037801493;-0.01402528;-0.08551849;-0.027627667;-0.27605546;0.090703316;-0.081066735;0.0020023293;-0.018719343;0.032071162;0.001962924;-0.034734104;0.04970442;-0.020367477;-0.024150593;-0.013535145;-0.011568865;0.030749375;-0.08476949;-0.09017519;-0.04932482;-0.2983455;0.040516976;0.17450365;0.015074988;-0.08119069;0.07202849;0.05333431;-0.15660259;0.067728244;0.07239719;0.114008866;-0.078603834;-0.026415776;0.0219157;-0.06955544;0.07650419;-0.19226785;-0.0020000283;0.0077690734;0.04540161;0.1576327;-0.020243123;-0.004000881;0.0077078696;-0.06448558;-0.031893957;-0.26990822;-0.07809794;-0.04712697;-0.028256208;-0.028841052;0.04689011;-0.060214892;-0.058223482;-0.062809885;0.048281662;-0.008768648;-0.008420154;-0.16126233;-0.10648974;-0.02000023;-0.019412542;-0.060228862;0.040356975;0.05998765;0.08758845;0.041670337;0.025338653;0.13919555;-0.02270027;-0.0021978754;0.06569102;0.12438458;-0.03970684;-0.2241749;-0.09507108;-0.049213562;-0.057960846;-0.0023716453;-0.10233243;-0.04700568;0.0006340215;-0.03030545;0.05918243;-0.07955773;-0.057232585;-0.06404422;0.05096435;0.011150187;-0.035291635;0.04167592;0.06083639;-0.002475712;-0.04120805;0.23604488;0.034216337;-0.0061439117;-0.15483421;0.078897916;0.16817231;-0.010596051;-0.038681086;0.057016548;0.0444319;-0.024574775;-0.010471552;-0.06253503;-0.066111736;-0.04391939;0.046563305;0.0056073414;-0.11896723;-0.010055821;-0.038869362;-0.06645894;0.030349387;0.07256435;-0.07937782;0.0384186;0.00281973;0.03338075;0.087480925;0.037460603;0.0030308773;-0.009715976;-0.03792194;0.062065735;0.041751545;0.008832632;-0.08832475;0.00033944772;0.016739223;-0.14837146;-0.017194763;0.0011364615;-0.070510335;0.022872334;0.21694915;0.0104774805;-0.0043163146;0.054726873;0.29507336;-0.08572123;-0.07795428;-0.11389514;-0.0637235;0.0732185;-0.005219221;0.066813916;-0.012680014;0.029202009;0.13331813;0.039588265;-0.1030005;-0.049575113;-0.062487278;0.005666452;-0.05514672;0.056667928;-0.08477507;-0.03934993;-0.07624314;-0.013202954;0.02239387;0.20499738;0.09879666;0.04392611;-0.035021555;-0.016737528;-0.13839646;0.015060918;0.1418259;0.08587538;0.1025118;0.053446658;-0.011889272;0.0461579;0.11297576;0.030541833;-0.036881827;-0.051571928;-0.30293798;-0.067765646;0.01100316;-0.052098177;-0.03692503;-0.11463121;0.09593644;-0.064358935;0.049403924;-0.08910429;0.02168574;0.035434205;-0.017374733;-0.042860255;0.013752042;-0.049774293;-0.03484547;0.008174305;-0.07631871;-0.05250503;-0.047709648;0.079716265;-0.052180517;-0.048723772;-0.10518248;0.007407285;0.022716975;0.04443325;-0.024888493;0.07948491;-0.07334642;0.02434211;-0.047395304;-0.03629835;-0.0909421;-0.010185332;0.0056303698;0.078968875;-0.24110344;-0.13832599;-0.16584393;0.020941475;-0.09180803;-0.09285251;-0.015368911;-0.04864002;-0.20575333;0.02273855
0.090740584;-0.022014933;-0.095835984;0.07378891;-0.10182261;0.015171163;-0.08689194;0.08355685;0.082310006;-0.05802043;0.039080974;0.041693788;0.03431424;-0.074952684;-0.020770144;-0.042994708;0.061853852;0.04218915;0.066428;-0.25824812;0.085248515;0.10380882;-0.1250483;-0.040727854;0.0012762176;-0.055322763;0.025377693;-0.06740383;0.029338188;-0.08944426;-0.027672246;-0.039825108;0.033543456;0.024157114;0.105669364;0.062145475;-0.034551162;0.010164206;-0.048387036;-0.047676984;-0.028404538;0.0037609953;0.023324573;0.049499184;0.012147404;-0.027790993;0.009361866;0.0075888005;0.09403672;-0.11536934;-0.07005183;-0.08817177;-0.05050385;-0.0052036555;-0.0251584;0.004071773;-0.16058962;0.04247061;-0.051485587;0.0674917;0.100574866;0.062429577;-0.065779254;0.057479486;-0.037006754;0.09764726;-0.023041043;0.060975756;-0.1131416;0.08085672;-0.0830405;-0.06294746;0.22152495;-0.011447001;-0.19448657;0.11220001;-0.047894057;-0.07059864;0.0938792;0.101460546;0.05634957;0.052727204;-0.06382889;0.020015446;0.10744003;0.017363856;-0.010958979;0.015195756;-0.023387061;0.017187592;0.079156555;0.03835861;-0.07027708;0.016909221;-0.059902284;0.005278377;0.20393321;-0.09690156;0.033354882;0.06463738;-0.009945484;0.018240642;0.029912971;0.03147834;0.010966689;-0.06980261;0.060245067;-0.037143398;-0.14148839;0.017984724;-0.0032899058;-0.018111788;-0.023247944;0.12611951;-0.010228223;-0.085236914;0.07799766;-0.06981136;-0.011982274;0.020581331;-0.08934977;0.037220344;-0.0147539405;0.031214507;-0.026985662;-0.19236374;-0.31010208;-0.013254077;-0.08278737;0.14594181;-0.056037776;-0.22103919;0.018634582;-0.019251473;0.051579285;0.033353675;0.107232325;0.05165324;-0.04671158;0.08048276;0.027861716;-0.055632938;-0.114421144;-0.0028146359;-0.09981397;0.10186681;0.019484479;0.085993215;-0.094944745;0.022327013;0.075552315;-0.052273788;0.027108453;-0.10714998;-0.10544758;0.08294485;0.007442397;0.0015304777;-0.06952961;-0.034040753;0.0031954083;-0.06315684;-0.03498864;-0.02657633;0.07623527;0.047544114;0.094798505;-0.041028753;0.04203958;-0.09471299;-0.1929296;-0.16039962;-0.049149726;0.0075404043;0.011396151;0.013797564;-0.11363113;-0.078968324;0.052084856;0.041682918;0.049348023;0.111506954;0.20558469;-0.04384867;-0.04569442;0.045509804;-0.023830261;0.07692463;0.01772196;0.07998159;-0.055359896;0.04673509;-0.027837055;-0.013243713;-0.17781396;0.003850931;-0.049308103;0.055996645;0.00601419;-0.03955307;-0.075822525;0.033743616;-0.002189404;0.04273029;-0.02422816;-0.035656426;0.11836465;0.13777295;-0.24350774;0.006744557;0.017070437;0.068996415;-0.044273414;0.035394996;0.042426616;0.011847393;-0.030885419;-0.066766456;-0.13295735;0.0071803676;0.072128154;0.06761025;-0.10085002;-0.058400895;0.004978735;-0.07708638;0.1254613;0.019377857;-0.10455851;0.020616435;0.03127844;0.066046044;-0.13270994;-0.045058746;0.027263537;0.12717004;0.053691395;-0.02077757;0.0504644;0.12790632;-0.051430892;-0.019216767;-0.0071226694;-0.032212608;0.006321671;0.019420605;-0.045678843;-0.07251586;-0.08413523;-0.071508594;0.027513715;0.051451437;0.048291907;-0.046122786;0.03484084;0.002209032;-0.09150935;0.05873897;0.015967522;0.063849814;0.020289406;-0.044150453;-0.023318883;0.039822653;0.05626608;0.13280955;0.057586126;-0.0903886;0.17486043;0.04691827;0.05028849;-0.09634613;-0.036631815;-0.092625104;-0.08347671;-0.10336653;0.011496521;0.045290876;-0.015959308;-0.02220157;-0.055364553;0.13674468;-0.034349173;0.07170527;0.0691245;0.009228821;-0.017333109;0.066316485;-0.06785346;0.07931703;-0.16546063;0.06269433;-0.10386081;0.06520227;-0.15442869;0.040173065;0.0338094;0.029485777;0.19705091;-0.060453203;0.013977686;-0.002536736;-0.0034258983;-0.016876008;0.12371035;-0.1105135;0.07302438;0.12079875;0.025327284;-0.091183804;0.042242546;0.041236952;-0.022877188;-0.0570141;-0.0062576844;0.119281836;0.08200934;-0.0054665175;0.0060151755;-0.048903942;-0.02332085;0.033236302;-0.026570305;-0.09524113;0.08894973;-0.18611819;0.05699049;-0.06525333;0.030117063;-0.03199387;-0.09199787;0.0427065;0.060627326;0.0396871;0.15036441;-0.01341121;0.008350662;0.044374365;-0.013199507;-0.07095175;-0.009931424;0.05798073;-0.0037113342;0.12275872;-0.27879012;-0.01811393;0.012689797;-0.040005077;-0.034577593;-0.0051447456;-0.1501983;0.13757558;0.039160274;-0.03109664;-0.07315206;0.040916882;0.063829646;0.09259991;-0.10598568;0.02885471;-0.019411068;-0.010251824;0.009334933;-0.00665429;-0.0042303447;-0.047080837;0.042202555;-0.18323056;0.03138722;0.1805619;0.003454313;-0.10437225;0.048499208;0.03949112;-0.18786737;-0.081249855;-0.10482166;0.045257296;-0.008374811;0.019163137;-0.083148524;0.011224737;-0.08558953;-0.23724909;-0.09206113;-0.09052501;0.16428159;0.038500797;-0.08216328;-0.028348569;0.04639225;-0.0016439931;0.100240365;-0.025357334;-0.11026073;-0.066452496;0.02041344;0.10296229;0.1635717;-0.028112961;0.062110595;-0.014650472;-0.087710746;0.08804873;-0.056738127;-0.065413386;-0.015935253;0.076138005;-0.11024813;-0.016997617;0.021475969;-0.017740548;-0.03199164;0.053567156;-0.07432931;0.17736067;0.046674013;0.0769911;0.08151812;0.028516099;-0.03976318;-0.07386439;-0.054472066;0.08291101;0.009175281;-0.021323092;0.0028428484;-0.03325845;0.029847939;-0.051102236;0.025972875;-0.05535626;-0.04581125;0.021411004;0.11962762;0.017173918;-0.027880313;-0.0054012784;-0.052493617;0.19102055;0.058424674;0.06303686;-0.055400603;0.10618406;-0.16184688;0.035276692;0.033094738;0.024161877;-0.03201056;0.16899513;0.05056716;-0.09969536;-0.054915693;-0.05404628;0.005341282;0.019857451;-0.08161529;-0.046796285;0.008041785;0.103546545;-0.06542115;-0.060907237;0.01961683;-0.05422448;-0.0483926;0.073723696;-0.0892453;0.09554871;0.04382276;-0.044438854;0.02773897;-0.0915048;-0.051616747;-0.017914;-0.03143455;-0.031202542;0.05481614;0.006772467;-0.09119553;0.054924358;-0.04510311;0.031352114;-0.032032114;-0.043642744;0.06358334;-0.018221052;-0.050952926;-0.07730071;0.085743815;-0.0581248;0.027711323;-0.010625933;-0.1654015;0.069870174;0.09858897;-0.08070284;-0.05528237;-0.0064383624;0.0432111;-0.252414;0.01140573;0.02284015;0.071114354;0.05761477;0.048129916;0.055566076;0.053683966;-0.069797695;0.04423079;-0.04042308;0.008959348;0.1898169;0.08914683;0.064729825;0.011463466;-0.0018791836;0.010575552;0.13389106;0.07465163;0.016403982;0.01111014;-0.06280131;0.035565373;0.09119235;0.07445614;-0.01736708;-0.022248901;-0.065216474;-0.24786405;0.01810149;0.0041574505;-0.07084766;0.1353844;-0.13412909;-0.053658962;0.028380057;-0.03228347;0.029860245;0.010745658;0.019379294;0.032915723;-0.05499892;0.010534967;0.15258743;-0.024402881;0.054830056;-0.061091773;-0.015714588;-0.08950148;0.0075354506;0.088182926;-0.026167246;-0.05933962;-0.039540447;0.025565565;-0.0547498;-0.19317347;0.006391987;0.11266612;0.007836277;0.018713536;-0.14212108;-0.061750527;-0.056818504;-0.009170267;0.12069001;-0.043667708;0.056107912;-0.03416552;0.064716615;0.012116403;0.05410055;-0.03281306;-0.07542377;-0.31036627;-0.06561786
0.10591669;0.12333305;-0.20814383;0.023193615;0.0020097757;0.030257715;0.02215425;-0.009227699;-0.06341147;-0.07430821;-0.027514726;-0.02135157;0.08370429;0.04276532;-0.012398538;-0.026312996;0.009997155;0.056080386;-0.009983032;0.12827553;0.05792658;0.015895734;0.0039440733;-0.0077101663;-0.07238317;0.05434462;0.052246455;0.024609052;0.07429452;-0.0689545;0.06985685;-0.09267971;-0.013566978;0.17890483;0.100560896;0.024781046;-0.04367694;0.06343887;-0.04935286;0.042187307;0.04632939;-0.08146209;0.10214718;-0.1123655;0.043059476;0.0644404;-0.043215297;-0.004231737;0.13850407;-0.08433015;-0.07135512;0.07451837;-0.100471765;-0.16768178;-0.06975348;-0.113243334;-0.15798199;0.059198406;0.063646235;0.011821306;0.2578043;0.00015086913;0.05128332;-0.054192565;-0.040210832;-0.008911356;-0.1171124;0.012838323;-0.10805219;0.033619016;0.032017693;0.000833656;0.064461626;0.06948028;-0.021968188;-0.11515886;0.008479011;0.018134538;-0.0016125255;-0.0019412219;-0.0349552;0.110853724;-0.22848818;-0.13551599;-0.0019294056;-0.11165869;0.0378908;-0.1007474;0.01972602;0.096694864;-0.0019625085;-0.0010359507;0.09234044;-0.10215667;-0.027050592;0.07945675;0.084032185;0.036256213;0.0459557;-0.07341631;-0.16705532;-0.068772525;0.096083656;-0.044209033;0.052272804;-0.08477779;-0.12681021;-0.03124189;0.023117598;0.09715688;-0.12231566;-0.05072551;0.022665758;0.16086417;-0.0059453235;0.031160144;0.072120175;-0.06832022;-0.0618205;-0.057623073;-0.07708008;0.03734171;0.038187876;2.9720286e-06;0.058147483;-0.12309933;-0.08593577;-0.086569116;0.049087767;-0.124034405;-0.06917316;-0.06451743;0.010762462;-0.038312927;0.051072337;-0.04807344;0.11602516;0.06995796;-0.08631351;0.083967224;-0.016833989;-0.026236257;-0.12645325;-0.023854079;0.05456967;0.14887443;-0.039747607;-0.024003265;-0.20721039;0.039758727;-0.046589524;-0.0023805366;0.03155258;-0.15069768;0.036558818;0.0010506689;-0.019828308;0.058307495;0.0016380904;-0.15916409;-0.15401293;0.021444576;0.096917845;0.0905352;0.027832555;-0.035840437;0.08752102;0.009597717;0.060509235;-0.07467428;-0.09740191;0.018445477;0.05485192;-0.079278864;-0.061811764;0.042334482;-0.09043164;-0.08290837;-0.032062005;0.038421646;-0.30905268;0.03406641;0.19167458;-0.0059054107;-0.067045815;0.115831174;-0.05564607;-0.03749141;0.016755577;0.052039858;-0.06818544;-0.061375245;-0.0020205777;-0.040228914;-0.087323576;-0.12085263;0.055105567;0.03968073;0.083900355;-0.015361815;-0.09267194;0.061937153;-0.0027143827;-0.0822612;-0.08832737;0.0365207;-0.06503624;0.046682443;0.011939441;-0.051634967;0.012606958;0.031161439;-0.12681553;-0.055355523;-0.06818993;0.03002566;-0.02963039;-0.014236287;0.017947922;0.008185784;-0.11311812;-0.031166859;-0.04397292;0.055629376;-0.070194446;-0.11632113;-0.0021832585;0.124265976;-0.00075094064;-0.027669828;0.027644128;0.023664549;-0.033976372;-0.102178976;-0.03274079;-0.063141584;0.087798595;0.061649226;0.2130828;-0.007872082;0.047797788;-0.09206038;-0.06801214;-0.23194262;0.062775835;-0.033556126;-0.06225218;-0.017230822;0.022159424;0.020115428;0.0475933;0.0028692598;0.11791825;-0.19362512;-0.07202625;0.0063193957;0.036492575;-0.076218635;-0.13359196;-0.06647235;0.098180205;0.03314089;-0.03432166;-0.06330072;0.05473008;0.11151026;0.12362334;-0.098586015;0.032085583;0.026853474;0.03465786;-0.009051081;0.0046601803;0.055874735;-0.097451426;-0.0052732546;-0.055461425;0.0643374;0.07183196;0.12866649;-0.029382054;0.113083735;0.09006125;-0.05546487;-0.07132882;-0.081386544;-0.010204466;0.037636165;0.19241714;0.067502975;-0.1977365;0.02147866;0.06311266;0.032794595;-0.20187053;-0.0035567859;-0.043846574;-0.10982851;0.09198349;-0.17033006;0.023321109;-0.031383857;-0.024337025;-0.088374995;0.014067482;-0.15513696;0.045936696;-0.07927113;0.23937131;-0.017532704;-0.07987683;0.022401078;0.0067752963;-0.042354807;-0.28723213;-0.02660724;-0.054730542;0.014752952;0.0010091492;0.020994637;-0.111489154;-0.046847068;0.0039331843;0.042594187;-0.012349608;-0.35483548;-0.052810706;-0.03721706;0.08103677;0.054184657;-0.021820957;0.016112847;0.049831156;0.07238626;0.18646905;-0.062883876;-0.042410135;0.09907904;0.035897236;0.018445615;0.048606984;-0.09906812;-0.081830405;-0.021423055;-0.058024604;-0.004919045;0.055923782;0.107669756;0.029965945;0.08464246;-0.2214608;0.10272993;-0.10568116;0.04128806;-0.05363873;-0.0026261504;-0.022924766;0.063546754;-0.123016246;0.0017218103;-0.08253452;-0.05304844;0.08113619;0.08018685;-0.004516082;0.07503106;-0.03596638;-0.34743354;-0.1105177;-0.08966175;-0.085408166;0.057904143;0.024679624;0.0019008984;-0.11364141;-0.018536443;0.052087158;-0.0116057;0.0068490636;0.00924862;-0.013092646;0.010549379;0.008966888;-0.3328139;0.023834022;0.07801494;-0.07785638;-0.0073966114;0.015266058;-0.028558223;-0.08253202;-0.105946116;0.2978794;-0.21089555;-0.045116667;0.005449634;-0.2615485;0.023291463;-0.024035074;0.022736879;-0.08304788;0.019228574;0.053657476;0.034996357;0.050859734;0.051879082;-0.046003386;-0.099061824;0.061474692;-0.0653816;0.023373913;0.017901622;0.056345638;-0.08813409;-0.13668388;-0.070882164;-0.1360509;0.07076478;0.15770805;-0.08102669;-0.039951272;-0.118794106;-0.0199177;-0.012881514;-0.09253262;0.03782846;0.024592571;-0.046686415;-0.058896545;0.011050089;-0.08814977;-0.06636355;0.0042829844;0.050327264;0.027008608;-0.027074877;-0.12500331;-0.029281741;-0.12203845;0.017849477;-0.05242177;-0.20015565;0.060279652;0.08933623;-0.3128922;0.014546933;-0.074734464;-0.03517175;0.005144091;-0.09571205;-0.037051033;0.007043391;-0.10610186;0.076913245;-0.0798599;0.00034873202;0.017993357;-0.012352707;0.048809227;-0.018345792;-0.06064639;-0.12439073;0.07083338;-0.01520409;-0.06875036;0.030205201;-0.0029328875;-0.043600764;-0.19261034;-0.006400372;0.11858752;-0.07328185;0.11561016;0.022360638;-0.0487183;-0.07084133;-0.074563384;0.010798533;0.063533016;0.012885968;-0.070703045;-0.05505549;-0.011722627;-0.09069649;-0.11299551;0.109080195;-0.10261664;-0.016776184;0.04582578;-0.09802241;0.017810501;0.18924306;-0.15370268;0.09279795;-0.04719018;-0.30198628;-0.093422815;0.012441189;0.15991807;-0.07536036;0.17192413;-0.07528829;-0.08943458;-0.057863902;0.039937764;-0.0992862;-0.034864396;-0.0029220628;0.032106835;-0.029301947;-0.047749147;-0.052417867;-0.08556462;-0.059980363;-0.04139898;-0.2325213;-0.04333177;0.06741653;0.11163043;-0.069258615;0.093912005;-0.0919269;-0.022195917;-0.085670695;0.15804176;0.02388845;0.030489886;-0.015099503;-0.38508177;0.07988842;-0.013627659;-0.022603922;0.08685904;0.09853623;-0.009294741;-0.1143985;-0.07278811;0.017426644;-0.09131927;0.05873512;0.0008393484;2.5495836e-05;-0.0037060843;0.22819668;0.046758577;-0.08797122;-0.08623681;0.04627295;0.045332007;0.053084645;0.04230589;0.05571487;-0.08346412;-0.0501584;-0.00852232;0.012270822;-0.2162884;0.0007041372;0.15643117;-0.087549135;-0.08184096;-0.065970026;-0.03595224;-0.027456144;-0.09686441;0.06478437;0.061797485;0.038289405;0.069309734;-0.09166347;0.04260328;-0.025726339;0.023554929;-0.056325775;-0.007273698;-0.093079895
-0.069615215;0.08042277;-0.21563037;-0.016382439;0.022742823;0.011146163;0.14138351;-0.058374435;-0.052785315;-0.043633774;0.030452803;0.01488282;-0.00782982;-0.0035911417;0.03966491;-0.024592945;0.040316433;-0.09835201;-0.04906549;0.19648217;0.10842959;0.083321735;0.06159303;-0.058428623;0.020094091;0.011502114;0.03226361;0.25200653;0.08293028;-0.08023506;-0.048641454;0.022022162;-0.03201447;0.27359408;0.0064831646;-0.031516463;-0.018029349;0.06993716;0.0058066435;0.009733346;-0.0064998423;-0.08995046;0.21275558;0.059003618;-0.054648932;0.035447985;-0.06574424;-0.10231079;0.09567691;-0.028916663;0.008402643;-0.11622743;-0.035420857;0.12410177;0.050795462;0.06855282;0.014006016;0.07313061;-0.060255952;0.13390967;-0.010352331;0.04893598;-0.03228701;0.1312721;-0.039012913;-0.07008452;-0.008965945;0.0023840442;0.015536418;-0.032788306;0.012985284;-0.0056104576;0.1590393;0.013931654;0.032480948;-0.15893552;0.01912845;0.039368547;0.07986923;-0.15949017;-0.057622157;-0.0012769566;0.048078172;-0.008379921;0.0618576;-0.09854674;-0.051011644;0.06911928;0.0030155797;-0.11982681;-0.012775391;0.021197334;-0.056448545;-0.21242599;0.066395804;0.018201008;0.08982907;0.05796291;-0.1107914;-0.05615464;-0.1351909;0.042857554;-0.0010903456;0.030227857;-0.004259439;-0.16185825;0.06835736;0.04567268;-0.092965305;-0.007604935;0.03164236;0.010235003;0.07542174;-0.013682739;0.03621237;0.106296115;0.07417684;-0.06252356;-0.045985427;-0.09300785;-0.08531409;0.08606027;0.065773234;0.05849719;0.109628186;-0.0460168;-0.28459024;0.053112794;0.01331215;0.14558998;0.021864366;0.02197136;-0.020534538;0.0039289678;0.06352464;-0.018936664;0.010740523;-0.028777814;0.0024205195;0.11436239;-0.06639893;-0.024296666;-0.27536488;0.018330632;-0.112930946;0.0668324;-0.14573069;0.05457515;0.14855982;-0.032478962;0.040460516;0.044427693;0.06214897;0.075772546;-0.0015121184;0.031098608;0.0439374;-0.08497588;0.08598861;0.041475356;0.0464646;0.048989292;0.020002928;-0.03985179;0.12284261;0.08026013;-0.046719447;0.032722432;-0.033089854;0.02432734;-0.17342126;-0.24313106;-0.003635652;0.15621682;0.0470191;-0.013820163;0.08740518;-0.29615298;-0.033014394;-0.06455133;-0.26204002;0.044057447;0.23616289;-0.017842611;-0.046820853;-0.06357981;-0.1880455;0.046754602;-0.04661248;-0.059626915;-0.07588963;0.034012653;-0.055365205;0.0014764864;-0.21957996;-0.11208759;-0.065468326;-0.02708451;-0.011509012;-0.06522858;0.020276498;0.032748863;-0.09350133;0.031627726;0.08303003;0.016689524;-0.011987652;0.011939407;0.009217277;-0.030515375;-0.034470834;-0.09286706;-0.04601966;0.0125971325;0.040170997;-0.023557764;0.10527897;-0.061993573;-0.15490697;-0.090718396;-0.018362733;-0.024936145;0.07069637;0.051701892;-0.042393476;-0.020998968;0.10788313;0.046179995;-0.0054185614;0.024266455;-0.07424207;0.00033119912;-0.121144906;0.07737764;0.063667946;0.17351738;0.07165607;0.112725325;0.08052053;-0.046045817;0.014681762;0.033264488;-0.033086687;-0.0330034;0.042856365;-0.04326508;-0.076116584;0.1234905;0.029106507;-0.068457544;-0.052940868;0.0654882;0.0069507384;-0.036181413;-0.086415015;-0.0183994;0.028722743;-0.031613167;-0.1350785;-0.01731468;0.087503016;-0.11932205;-0.030344907;0.07093342;-0.05021342;0.08965597;-0.010306316;0.013316822;0.07173563;0.12641318;0.017813018;-0.28033194;-0.02659534;0.041960575;-0.07222032;0.0022871247;-0.0527807;0.019543897;-0.07243842;0.06488402;-0.046436112;0.126411;0.038849235;0.01820204;-0.05672531;-0.064327136;-0.028504228;-0.022155166;0.017832493;-0.06925032;-0.072462924;-0.050626785;-0.10397184;-0.097468235;0.10128403;-0.04167728;-0.002556453;-0.02168788;0.0157919;-0.17305364;-0.043818437;0.01867519;-0.034431264;-0.15495075;-0.09654731;0.019038454;0.15079486;-0.030589433;0.17461927;-0.09381906;-0.05579804;0.07532279;-0.06948694;-0.053662285;-0.07174366;-0.04308664;-0.010453828;-0.16711488;-0.09445268;0.06421121;-0.020238971;0.060801536;-0.067503236;-0.06838821;0.085917;-0.099331014;-0.021889377;-0.065204635;0.0012343744;-0.058892887;-0.09873319;-0.040963635;-0.03841978;0.0057337643;0.06358389;-0.0022013101;-0.14090408;0.08345691;-0.026551832;-0.05451949;0.0947797;0.09006017;-0.094152614;0.029027771;-0.14867398;0.04106654;0.038063034;-0.07094084;-0.07900531;0.041339803;-0.14732018;0.14967553;-0.047758106;-0.031051636;-0.018292032;0.0626887;0.13214886;-0.08235391;-0.05724167;0.01734886;0.041258685;-0.057531007;-0.0045168353;-0.026367944;-0.004553234;-0.012833115;0.03939784;-0.26220593;-0.02211041;0.005149601;-0.037895232;0.050202336;-0.08403051;-0.009444068;0.017954545;0.03998201;-0.02032487;0.051732767;0.036722917;0.0026233718;-0.002521849;0.07601335;0.0021507645;-0.16539791;-0.21629496;-0.061386704;-0.015015572;0.05587207;-0.054030143;-0.070247255;0.07000898;-0.060571186;0.13473251;-0.0133169405;-0.2890493;-0.046118997;-0.097791046;-0.046648417;-0.09574689;-0.05116616;-0.011052689;0.014133035;0.06540274;0.11600827;0.00034393798;-0.06838038;0.062229224;0.018377462;0.037493717;-0.102717616;0.009763348;0.03367165;0.029879535;-0.021096183;0.023352828;0.10925991;0.013676059;0.032033373;0.008642547;0.047042888;-0.023935461;-0.039836224;0.0330721;0.08045911;-0.0031463136;-0.07629477;-0.010759893;-0.030855486;-0.15840168;-0.003066616;0.046943605;-0.106574975;0.04511163;0.20326664;-0.0376441;-0.0021307482;-0.06674975;-0.103072956;-0.039636865;-0.105821975;0.014288307;0.05301161;0.107705966;0.07265428;-0.14808638;0.08400423;-0.028929558;-0.023262126;0.0087298965;0.118432805;-0.029620567;-0.08027868;0.00010940184;0.054259505;0.05053424;-0.08896522;-0.118035704;0.08229423;0.00597067;0.0640221;0.07045368;-0.063853964;0.038360715;-0.06338357;0.04905797;-0.06007548;0.0022901988;0.058399614;0.06800821;-0.070398435;0.03360336;-0.06592386;-0.11039129;-0.057108503;-0.038029507;0.02919662;-0.05719258;0.027846694;0.05848605;0.070515074;0.033058606;0.016184008;-0.09304777;-0.017968921;0.07438783;0.015465924;-0.043725546;-0.058288332;0.014788771;-0.08507881;-0.08578373;0.18788512;-0.16845123;-0.05965866;0.071792625;-0.043807693;0.061260197;0.031769194;-0.046716083;0.035107367;0.10063323;-0.08686675;0.01564387;0.051659603;0.00054180017;-0.012333991;-0.041415785;-0.004946744;0.023236262;-0.002587187;0.08730217;0.0845721;-0.020024044;0.08281356;-0.0034511106;-0.12730727;-0.06539499;-0.13093808;-0.05825864;-0.11389887;0.072145686;-0.079171844;0.020217508;-0.08384848;0.049954783;-0.050162997;-0.12618308;-0.0061129904;-0.122625135;0.05800061;0.035573695;-0.00115508;-0.0155079765;0.01624572;-0.06182394;-0.16582976;-0.09171334;0.020192983;-0.07722871;0.056452166;0.04997524;-0.004242543;-0.0021763965;0.131527;0.0061814883;0.0066029765;0.023926508;-0.04754745;-0.049192574;0.023988206;-0.060403004;-0.009234291;-0.19076864;-0.009537581;-0.07130739;-0.036457922;-0.07161335;-0.05121256;0.13675587;-0.060444195;0.04385589;-0.06484895;-0.07218724;-0.05867747;-0.081049666;0.12082123;-0.16946441;0.12115477;0.104492;-0.044987563;0.0037802309;-0.06358199;0.14527845;-0.061968397;-0.3090931;-0.15983415
0.11220564;0.018925464;0.08042998;0.036222115;-0.059824787;0.06707783;0.044979416;0.0034489455;-0.02861519;0.1167543;0.015619117;0.032466892;0.02801299;-0.071131386;0.046349842;-0.04983604;-0.0009152228;0.06760816;-0.0060053742;0.03858746;0.04317461;0.16272283;0.015626574;-0.03255726;-0.109717704;0.036470428;0.034333464;-0.01622487;0.11079411;-0.098406695;0.052660957;0.11973835;-0.09420108;0.11897724;0.12865464;0.0023552652;-0.14634447;0.03567388;-0.07948833;0.035078283;0.023304434;-0.05208841;0.08390816;0.055059236;-0.04584953;0.015633643;0.05346423;-0.1068636;0.02194247;-0.00062504836;-0.06262129;0.03365137;0.023152944;0.009209002;0.06276855;-0.014537927;0.019139608;0.02890325;-0.022091506;0.10726041;-0.013892137;-0.04481102;0.033969916;-0.05025425;-0.07756288;-0.05168425;-0.051901452;0.03620882;-0.0100077875;0.07587851;0.08490797;0.05226864;0.063438036;0.04757617;0.023578417;-0.10826493;-0.04533318;-0.054969683;0.05956245;-0.12931457;0.031996787;-0.007992198;-0.07495347;2.486273e-06;-0.15734716;-0.035117403;-0.014130255;-0.053241774;-0.023503086;-0.011778938;0.03996061;0.021103144;0.06742864;-0.07645121;-0.077541925;0.0065240473;0.030791234;-0.0060540545;-0.01889128;0.027848957;-0.15189011;0.004003076;0.14899108;-0.06870554;-0.057050012;-0.114826865;-0.00010436262;0.042852532;0.08004315;0.0027287863;-0.07943217;0.06676118;-0.03485351;0.11133748;-0.06593445;0.07298574;-0.059042253;0.040124584;-0.0061272806;0.019001557;-0.050643895;0.03291964;-0.03255523;0.029838808;0.03370652;-0.09655642;-0.06458378;-0.036270443;0.09952435;0.067826584;0.019765923;0.079843804;0.05080567;-0.043843664;0.080558866;0.01869923;-0.040696826;0.03105198;-0.028379204;-0.12353806;-0.061132293;-0.0021485896;-0.22286233;0.05165507;-0.021069927;-0.08268121;0.028207367;0.097271934;0.07295988;0.021372514;-0.07171003;0.061058037;-0.009047395;-0.021291655;-0.03601399;0.058121145;-0.08595431;-0.06784426;0.040189795;0.009848119;-0.04381791;-0.03744519;-0.05167002;0.034654703;0.14622661;0.03713036;0.022838086;-0.0605752;0.08019936;0.046234664;-0.012887902;-0.13060296;0.09872399;0.068834044;-0.012675316;-0.03316726;0.072791226;-0.08859907;-0.12363153;-0.0052770586;-0.31818628;-0.030745313;0.2126754;-0.014090803;0.0012745241;0.016223816;-0.03088133;-0.083214045;-0.0150962565;-0.05130272;0.14216393;0.025585968;-0.1127754;0.11492602;-0.05504401;-0.15837687;0.008992569;-0.05154918;-0.0327218;-0.10065635;0.018471178;-0.00090466015;0.024486583;-0.06161817;-0.0575514;-0.021118112;-0.012217998;0.08296062;-0.012031713;-0.038939398;0.027747665;-0.09931799;0.034617845;-0.011773174;-0.011277342;-0.100018516;-0.034833435;-0.04851687;-0.046022203;-0.083725944;-0.05412821;-0.07492792;-0.042112913;-0.010067756;-0.05952549;0.034368582;-0.014136967;0.12626445;0.055886053;-0.056478918;-0.033038046;-0.11660803;0.009715984;0.03890358;0.017941965;0.1503896;-0.10948855;0.15808867;0.33177784;-0.010928734;-0.083353914;-0.08325887;0.017838761;-0.053698357;-0.08713281;0.004801187;-0.093147054;0.06800622;0.03650307;0.038188897;-0.057028454;-0.0558904;0.117256284;-0.13256763;-0.06862582;-0.014324455;-0.016101474;0.043098517;-0.04770476;0.049443193;-0.0063024126;-0.09491369;0.02101926;-0.083503574;0.027661478;0.121883765;0.08351648;0.0572001;0.07576069;-0.017308319;0.025507776;-0.1982095;-0.024734853;0.0017258036;-0.0644135;-0.027515661;0.06472991;0.06283301;-0.07510035;0.17166543;0.026442965;-0.0065171407;-0.04211557;-0.022397097;-0.043996315;-0.023725674;-0.052263528;0.046255246;0.047925573;0.014409264;-0.06365699;0.028162727;0.03225288;-0.027802765;0.07533991;-0.118050285;0.015874445;-0.23276791;-0.015035628;-0.029683927;0.035939794;-0.07314101;-0.06421497;-0.11808844;-0.101254;0.06354209;0.10541328;0.029633634;0.1234799;-0.058439497;-0.06673296;0.11816105;0.008993863;0.07113158;-0.11647322;-0.085710384;0.017461186;0.06238473;-0.028702177;0.0024577333;0.004099912;-0.0073376787;0.046911925;-0.06953128;0.07349501;-0.2307875;-0.004389669;-0.026973456;0.010956655;0.031572927;0.117499866;-0.046427913;0.0028140394;0.025191266;0.17043744;-0.062138796;-0.06325512;0.033252098;-0.047165383;0.04445876;0.028216988;-0.0058549056;-0.0047356794;0.0748698;-0.020234888;0.026971031;-0.07899126;-0.017314067;-0.041086696;0.017832743;-0.12925756;-0.0006836643;0.004476267;-0.08503452;0.070553266;-0.08519572;-0.06528283;0.05824711;-0.14969939;0.041444894;0.024515634;-0.011341888;-0.07281116;-0.008347268;-0.038457863;0.00145902;-0.008476364;-0.21981436;-0.06431346;-0.06128908;0.0057597575;0.14015122;0.063300885;-0.06377911;0.06252509;-0.006741559;-0.003370041;-0.094512895;0.028226558;-0.012720395;-0.07639581;0.07647926;-0.05410478;-0.20406178;-0.12594604;-0.055106126;0.026435869;0.009149677;0.02609828;0.02903836;-0.028649036;-0.07537047;0.15238161;0.055046063;-0.100698814;-0.045052234;-0.18365602;-0.057702065;0.018665887;0.07413538;-0.060724687;-0.08062231;0.046259496;-0.0119642;0.07379814;-0.014855209;-0.09586543;0.03283026;-0.13122602;0.023102226;-0.010630493;0.06361782;-0.07246239;-0.057560876;-0.028694866;-0.084198885;0.029484691;0.03320347;0.033681;0.051225923;0.07139748;-0.061753817;-0.024005346;-0.064681016;-0.028593585;-0.051389933;0.060145874;-0.06255416;0.03330813;-0.047021315;-0.00073455914;-0.31667033;-0.026434753;0.21482798;-0.11413831;-0.042034164;0.027770327;-0.21896568;0.034816;-0.1303095;0.0106374705;0.04981914;0.06599795;0.12574941;-0.21697119;-0.10539773;0.030256411;-0.08637334;0.05606845;-0.07483758;-0.075702585;0.06335211;0.0132524045;-0.01118565;-0.07550308;-0.035392288;0.042382587;0.0996888;-0.07796294;0.017352594;-0.03793135;-0.09083926;-0.009789689;0.047806036;-0.08827612;-0.040594224;0.041618586;0.058881402;0.013544131;-0.03803787;0.11369152;0.08524702;0.20094702;-0.09058918;0.060964264;-0.01476294;-0.13539357;-0.12083516;-0.009241153;-0.016990848;-0.06520791;-0.08087327;-0.004252979;0.006377151;0.12868668;0.0035033487;-0.09151038;0.00043106175;0.0017261804;0.05993978;0.02700343;0.15442932;0.018275395;-0.07477642;-0.051875375;-0.07128417;-0.014552699;-0.03203908;0.055701584;0.13084787;-0.10260337;0.014459095;0.010682937;0.026455907;-0.08074236;0.043999266;0.028566679;0.03515218;0.037749883;0.038908254;0.0026006277;-0.004983034;-0.0005235303;0.06830298;-0.07014726;-0.20258856;0.036919963;0.0037304007;0.08697765;-0.031308725;0.0824256;-0.106731944;0.039888855;-0.022298966;0.093977176;-0.06263669;-0.16719219;0.018465059;-0.25257558;-0.08090822;-0.09728812;0.019313069;0.11746231;0.14827026;0.013689172;-0.109182425;-0.017444799;0.051310975;0.0108474605;0.030847609;0.03591639;-0.07378009;0.08865662;0.13244489;0.030545868;-0.03470094;-0.04330267;-0.079751134;-0.009432238;0.052849926;-0.08635284;0.03376327;-0.36066338;-0.04925006;-0.085981585;-0.043146852;0.11045814;-0.065494075;-0.02265234;-0.08947015;-0.076446615;0.21920992;0.049512304;0.07251149;-0.03944609;0.1504924;-0.18296942;0.0013062387;0.080855206;-0.04607243;-0.05369651;-0.020577013;-0.016480066;0.010682888;-0.1368878;-0.026902143
0.05760762;0.09839267;0.11222995;-0.0031280792;-0.034229912;0.040497698;-0.05489214;0.018823296;0.00818874;0.119225875;-0.009122205;-0.037927456;0.06241394;-0.051544227;-0.05369025;0.07002232;0.06887637;0.28127185;0.03330676;-0.027768249;0.014701972;0.17400602;-0.031505883;0.070023626;-0.064383395;0.06399882;-0.03939687;-0.059614703;-0.114712626;-0.042927384;-0.009464481;0.029750964;0.05464301;0.06050423;-0.04606025;0.07984588;-0.039476063;-0.030672997;-0.08270691;0.092272975;-0.03526811;-0.11511428;0.027434472;0.15843551;0.049890418;0.12653123;0.041397125;-0.060206234;0.028207645;-0.014019923;0.06385097;-0.017611597;-0.056989107;0.011913619;-0.033311;0.053710274;0.17800137;0.039613638;-0.1028432;0.15242405;-0.123155795;-0.13599618;0.13534161;0.018265799;0.024587583;0.09551252;0.036363114;-0.0041972958;0.0006797865;0.113729425;-0.0142606525;-0.06854277;-0.06910934;-0.006058932;-0.0019951484;0.03654413;0.007841216;0.034682855;-0.11702456;-0.17993468;0.070884615;-0.029183634;0.12955464;-0.0887172;-0.04438836;0.02844391;0.057812024;-0.030807165;0.051903177;-0.031890232;-0.061392576;-0.011730362;-0.04704436;-0.21645495;0.07644379;0.06672771;0.085674934;0.024754047;0.005346532;-0.007394758;-0.17938517;-0.04836451;0.014646993;-0.026474044;-0.010075254;0.06150668;-0.07125697;-0.082420275;0.06401502;-0.00030255874;-0.08347242;-0.061290514;-0.042248994;0.0074133817;-0.07221875;0.019420398;0.035217077;-0.04929916;0.030480884;0.012321121;0.006402691;-0.08946893;0.043311704;0.10812791;-0.08018292;-0.17208767;-0.027182756;-0.062401418;0.065552436;0.065544434;0.06759595;0.118715756;-0.09723502;0.021335747;0.15382247;-0.0007799197;0.015422561;0.22701763;-0.059575804;0.08850342;0.00329683;-0.08741151;0.0020633654;0.08924384;-0.008893861;-0.062903166;0.012665667;0.12173596;0.13228792;-0.18008406;0.053903475;-0.0131233195;0.058871362;-0.35775363;-0.062232785;0.004960389;0.04219803;-0.16493644;-0.050861508;0.119038075;0.13049322;-0.03834992;-0.080887854;0.03868624;0.072311856;0.028315216;-0.020014755;-0.0038219541;0.12216972;0.050802544;0.09743116;-0.04291854;-0.032714162;-0.070574954;-0.021185014;-0.03902715;0.28753877;-0.0768953;-0.08695588;-0.06753075;-0.22168893;-0.06430018;0.19537191;0.026270254;0.019707141;-0.0997854;-0.030955808;-0.12233894;0.042211812;0.0019104852;-0.09176648;0.031674866;0.014279213;0.11303122;-0.08925341;0.026785847;0.01466301;-0.020112053;-0.04756981;-0.033587452;0.06900237;-0.041412037;-0.05704476;0.06462157;-0.034622133;-0.0138752265;-0.17165954;-0.013347002;-0.10208881;-0.07229074;0.09188209;0.051069304;-0.058730252;0.012743264;0.0027589973;-0.014814414;0.040023163;0.078830846;0.0592841;-0.04284942;0.043470312;0.072883725;-0.033650443;0.085812815;-0.09568235;-0.092146374;0.032387376;-0.10327148;0.001219115;0.08129466;0.0012211865;0.004443503;-0.0049869777;0.0027876408;0.090028316;0.005890281;-0.037937112;0.080843605;0.21061689;0.045516066;0.016264115;0.054179143;0.088367514;-0.14814948;-0.03071223;-0.04555581;0.024041234;-0.044706367;-0.029257363;0.0084240865;-0.004508759;-0.01076304;0.14465459;-0.0855815;0.016523963;0.032267176;-0.058942165;-0.050949432;0.056828234;0.018134596;0.06937798;0.0064059915;-0.066168465;-0.055839118;-0.042941142;0.10511757;0.12036129;0.03466946;0.22340131;0.28886494;0.08897968;-0.044023864;0.037044387;-0.0024472391;-0.0034394106;-0.021922367;0.008423196;-0.03302747;-0.030644737;0.1498165;0.019034026;0.06754768;0.056997463;-0.083835274;0.07222472;0.06388834;-0.035774544;-0.07474851;-0.25388968;-0.04607328;-0.10573814;0.13284737;-0.090341724;-0.07080459;-0.056645703;0.25722817;-0.021256553;-0.15534271;0.027622968;-0.0757321;0.022028117;0.09836793;-0.021316655;-0.09505395;0.031085532;-0.34187257;-0.032204576;0.03351219;0.056150313;0.032967474;0.051072832;-0.11036685;0.08270792;-0.08876246;0.052477963;-0.25631982;0.035376366;-0.08545038;0.021667846;0.014657934;0.008918514;0.2340019;0.048362304;0.010137931;0.0741968;-0.16446586;0.0593433;-0.0063253655;-0.0064334157;-0.06688095;0.15910643;0.023043029;0.052613385;0.03489712;0.120884754;-0.017405415;-0.12877865;-0.032764494;-0.012093741;0.022108765;0.05026524;0.014167048;0.0012948696;0.11689826;0.1344498;0.09740267;-0.04499629;-0.07180518;-0.06687848;-0.17398039;0.086407684;0.054090854;-0.062906;0.040955428;-0.017834183;-0.052722897;-0.086519025;-0.05219322;-0.17750885;0.038050592;-0.049827665;-0.027987132;-0.07780283;-0.123355046;-0.030963963;0.016152464;0.0052938;-0.18202388;0.123251185;-0.13204966;0.0011940143;0.045834243;-0.036433402;0.033808865;0.1480775;-0.014834099;-0.05368147;0.08931054;-0.0352959;0.04622864;0.05810818;0.059264433;-0.055251554;-0.08194489;0.04276028;-0.011589108;-0.08486779;-0.056023724;-0.022430262;0.019480359;-0.006240296;0.06407739;0.19490048;0.023251891;-0.07985358;0.072793566;-0.035241187;0.07224598;0.17939007;-0.012558777;-0.06993942;-0.050317947;0.029220669;0.0361;-0.0066673155;-0.14840716;-0.005946604;0.032600354;-0.09976449;-0.004742499;0.033549108;-0.10597352;-0.0398252;-0.067936085;0.09129781;-0.04645728;0.085328914;-0.068734;0.08310129;0.071216196;-0.046205312;0.03944159;0.033599436;-0.01648901;0.04581853;0.006386497;-0.036384486;-0.0007002237;-0.09635502;-0.02731746;0.04045851;-0.08470276;-0.01661861;0.072485924;-0.034620304;0.01269378;-0.074516356;-0.220381;-0.035100624;-0.14253986;0.035718013;0.20265104;0.09001507;-0.12044728;-0.111902826;0.038682986;0.11821087;-0.09649446;0.073600106;0.15874746;0.017959934;-0.048816923;0.07974594;-0.1678105;0.032896694;0.0491179;-0.039108556;0.087772734;0.008332449;0.07134999;-0.07040122;-0.08015408;-0.011285642;-0.034620628;0.013986054;0.010749156;0.030216055;0.111707985;0.15717876;0.020545155;0.12099274;0.0013797429;0.08577169;0.06689006;-0.10150126;0.034428384;-0.08538139;-0.082822144;-0.016053626;-0.08019376;-0.056122467;0.0719806;-0.018896978;-0.024306823;-0.111547485;-0.08553622;0.023062933;-0.074312516;-0.0048544984;-0.074665666;0.0013712076;-0.22457357;0.046405297;-0.09142343;0.010551332;-0.009254942;0.06470209;-0.0718365;0.06757958;0.05913423;-0.005812453;-0.034713883;0.055687506;0.021685747;0.04768647;-0.03753186;-0.027067287;-0.010144734;0.10040678;-0.07391856;0.015336985;0.018160174;-0.091016926;0.0059456457;0.026564285;-0.17511684;-0.043932464;0.03722734;-0.09468184;-0.011891717;0.14133799;0.074922085;0.059224244;0.013131166;0.20635793;-0.123986386;-0.014251798;0.03668066;-0.19408125;-0.074954465;0.011042657;0.0005336707;0.15887305;-0.11286568;-0.055094577;-0.042032603;-0.16126204;0.035950962;-0.027851414;-0.036253907;-0.14901395;0.033335518;0.10018454;0.24500032;-0.035997808;0.093441024;-0.0882544;-0.017192867;-0.008703264;0.14420693;0.026696397;0.015291143;-0.11125438;-0.056701895;-0.0069999993;-0.038410895;-0.1010108;0.11924555;-0.030205768;-0.04617792;0.02424295;0.08668954;0.057576723;-0.041060638;-0.051398743;0.22146605;-0.4038148;0.0026249473;-0.027318688;-0.09261946;-0.06453167;-0.05653733;-0.0580934;-0.004146885;-0.12203769;-0.014880514
0.19064607;0.08198306;-0.08997143;-0.0075489595;0.009232017;0.06834632;0.15928558;0.045918033;-0.08336396;0.06406003;0.042466383;-0.060138807;-0.03713389;0.009049499;0.0046651196;-0.08030835;-0.044657566;0.10975018;0.007958115;0.009011366;0.06873208;0.012490192;0.015886918;0.003023722;-0.3072904;0.052931488;0.003931028;-0.09791435;-0.019129146;-0.14693832;-0.0043358323;-0.13653767;0.060604557;-0.06107447;-0.04566476;0.22574006;-0.0009654787;-0.04171478;-0.11879048;-0.09204415;-0.055353336;0.08975315;-0.06273475;-0.10675894;0.16165012;0.03911615;0.01651698;0.03593731;-0.030718062;0.03552278;0.10327643;0.010409141;0.08656846;-0.05705423;0.020890921;0.06834339;-0.06750608;0.012708977;0.015123223;-0.0058022323;-0.15284406;0.08621704;-0.12924996;-0.047738217;0.010630242;0.07054764;0.046430476;0.03434118;0.08308212;0.07217253;0.070781685;-0.10923759;-0.00036190118;-0.040051196;-0.03820457;0.080382615;0.0069133383;-0.03344518;0.075847976;-0.20179059;-0.052109636;0.023570215;0.07129134;0.092338845;0.11507053;0.04641921;-0.09374474;0.045346484;0.022043748;-0.07064016;0.05474404;0.06661721;-0.037703887;-0.082491405;-0.017387452;-0.11721787;0.0066725654;0.067352995;0.02404557;0.009558232;0.016713182;-0.027681708;0.04805426;-0.045533575;-0.09889401;0.029504044;0.039085448;0.034470756;0.0816231;0.087315455;-0.050996967;-0.006700436;0.07253039;0.083212465;0.018559944;0.01667116;0.017287886;-0.055997577;-0.059633013;-0.0013105319;0.04707026;0.0037474483;-0.048591726;-0.10687233;-0.069439106;0.15364051;-0.05251134;0.012452099;-0.0786636;0.15678696;0.00661864;0.103582814;-0.011381476;-0.08051367;-0.06477221;0.052196655;0.1355527;-0.0959978;-0.012735509;-0.12941319;0.0036835717;-0.21280603;-0.07870098;-0.00039097577;0.047687937;0.0051673693;-0.009480284;-0.06728227;-0.34176895;-0.059631977;-0.0415212;0.0041469363;-0.03567272;0.077238925;0.022922222;0.00081609475;0.06449038;0.062998116;0.044885993;-0.011297709;0.02734003;0.03945504;0.08869135;0.25754696;-0.09094622;-0.06384419;-0.005605309;-0.003090178;0.028503481;0.0043655206;-0.07560442;-0.14648834;-0.09849109;-0.010764979;-0.047029912;-0.049607825;0.0052403673;-0.16319282;-0.027231691;0.025703657;0.13720264;-0.07990483;-0.03380265;0.02142437;0.07005183;-0.014034136;0.03727096;0.0486873;0.033392794;0.021173567;0.0606792;-0.008155074;0.008804264;-0.014876382;-0.12924168;-0.06870312;0.046444066;0.05397585;0.059365816;-0.02806458;0.082102306;0.022497151;-0.043406498;0.061540864;0.07919734;0.054483812;-0.07209223;0.06456393;0.11404741;0.009628641;-0.05532583;0.073410176;-0.022982907;-0.032924324;-0.087313645;0.067908235;0.05382547;0.17610572;0.053531557;-0.103652105;0.0010338634;-0.04970172;-0.042233143;-0.052680504;-0.04079342;-0.019201133;0.009933528;-0.09367906;-0.07081212;-0.0024510445;-0.08300941;0.06460635;0.075995184;-0.012709768;0.017926298;0.21629655;0.069770254;0.021627592;0.102419876;0.0013694293;0.047717392;0.08228574;0.068084024;0.010834151;0.08036345;-0.023565566;0.010195645;0.09079056;0.008562022;0.00939514;-0.0063453196;0.02671086;0.10781816;0.2795241;0.048339274;-0.045669783;-0.03581601;-0.08465564;0.13954106;0.029525554;0.014605697;-0.11851122;-0.0052755205;-0.017225651;-0.070885085;0.008945698;0.09701261;-0.044612627;-0.037186995;0.044822365;-0.04384475;-0.04221119;-0.030072017;0.022028575;-0.18096764;0.14041205;0.08723532;-0.008074797;0.03486853;-0.069584355;-0.033139557;0.088925034;0.0025838588;0.059382312;0.032325987;0.07978193;-0.048754815;-0.030134989;0.18328881;-0.09771085;-0.10332503;-0.031909533;-0.0009126419;0.038872737;-0.06678519;0.17560622;0.0325772;0.21075885;-0.036554743;-0.12661007;0.05770619;0.0027058977;0.012893094;-0.097147316;-0.056746993;0.016345222;0.12859926;-0.09548194;0.0456535;-0.036245644;0.0265963;-0.074337244;-0.017832255;0.06979153;0.26638466;-0.16111664;-0.006399687;0.05918515;-0.037344515;0.097752795;0.05964358;-0.22639585;0.073326334;0.112898014;0.013815274;-0.506502;-0.0014202668;-0.08635826;-0.00017396407;-0.02806787;0.05509835;0.011538146;0.08221359;0.0728735;0.037305158;-0.08018949;0.041316524;0.066315025;0.042352363;0.023192862;-0.028047256;-0.057133216;-0.035447057;-0.010808817;0.007413534;-0.04549873;-0.06247451;0.039939784;0.052026976;-0.06529175;-0.0022407982;0.08858534;-0.031142712;0.007646088;0.11359449;0.10438078;0.008795335;-0.04337258;-0.21498036;-0.1224909;-0.07797418;0.026931439;-0.051582146;0.017653886;0.044883844;-0.06305861;-0.026674276;0.087956704;0.058937274;-0.024578046;-0.031367738;-0.017676897;0.029303154;0.030030314;0.068759315;-0.11572212;0.09272128;0.09067238;0.04827369;-0.09930136;0.014269698;0.052031994;0.0638408;0.18913242;-0.132109;0.043317422;-0.021164043;0.014410001;-0.039556418;-0.111244835;0.021348406;0.07281034;0.15684228;-0.20513456;0.0579618;-0.06678294;-0.34053802;0.018184496;-0.0198495;-0.0722782;-0.0042171185;-0.07299134;-0.05081029;0.059737112;-0.084497586;-0.039627578;-0.061617;-0.023550995;0.09688509;-0.07434948;0.062166423;-0.014419397;-0.004777658;0.03873737;0.13119015;-0.0419956;-0.10781764;0.057661127;0.0021638763;0.10861441;0.040221695;-0.33853364;-0.05247353;-0.023355927;0.092320286;-0.031769786;0.0080112135;-0.04392676;-0.068249896;0.050102666;-0.03585378;0.07938627;0.062313482;-0.17959931;0.057120837;0.013721098;-0.046362348;0.04337693;-0.057956297;0.105143204;-0.046550144;0.1625052;0.030933509;0.11045819;-0.47657982;-0.002810352;0.21683356;-0.009169923;-0.05146391;-0.002356985;-0.05048291;-0.07000468;-0.16338637;-0.07207408;0.08929196;-0.09493467;0.0047043483;0.2121882;0.06344454;0.058934383;0.008752538;-0.01046872;0.061444256;0.039460268;-0.022712544;-0.014588416;0.01338263;0.0030043442;-0.15009457;-0.0142919915;0.06645908;-0.037860498;0.077613354;-0.058361433;0.027676884;0.14733925;0.072972596;0.05933327;-0.012084295;-0.020009615;-0.033374928;-0.06379766;0.05122948;0.04967147;-0.09516378;0.0032109537;0.02870301;-0.00414892;0.21008465;0.074656464;-0.028167468;-0.03536839;0.010477996;-0.07572768;0.03209282;-0.012939862;-0.016401092;0.0577974;-0.0027123108;-0.055027522;-0.04039388;-0.09443183;-0.07762399;-0.009767225;0.11087817;0.07542228;-0.040749963;-0.006811827;0.04770313;0.077730104;0.038210895;0.04904822;-0.036086988;0.120222636;0.002769052;-0.058353912;-0.09277227;0.038479842;0.15291126;0.053234834;0.1584595;-0.09601063;0.057329766;0.059712783;-0.07248754;0.02759812;0.029005295;0.09075739;0.06810385;-0.020987073;-0.06771514;-0.06756593;0.26107135;-0.020342236;-0.016632305;0.12234145;0.09709504;-0.058335356;-0.07183297;-0.12275958;0.049257193;0.08839799;0.03531692;-0.052872993;-0.07480712;-0.06445917;0.057863005;0.024247859;-0.04198999;-0.04643759;0.05221249;-0.052693438;0.051440176;0.03210658;-0.02853984;0.08224499;-0.14256522;0.049516957;0.05167643;-0.023333121;-0.026703482;-9.543371e-05;0.031518377;0.048551142;-0.023450352;0.1131218;-0.25037265;0.06320231;-0.033383753;0.03845232;-0.0025909683;-0.0070351306;-0.07429808;-0.0253658;-0.13613734;0.017501775
0.26591614;0.145767;-0.077114396;-0.007571704;0.03095179;0.052221887;-0.01832588;-0.0053479807;0.005510756;0.050319236;-0.008327239;-0.062177;0.03615192;-0.025856322;0.061723743;-0.047472566;-0.12704271;0.22730622;-0.111835435;-0.20687354;-0.12537847;0.012643435;-0.040849328;-0.021042693;-0.14948325;0.14754462;-0.06526382;-0.13373134;0.17242108;0.007852414;0.010114066;-0.060138207;0.07958937;-0.18364915;0.01741596;0.28465095;0.06787961;-0.07792947;-0.00986777;-0.023333048;0.04704535;0.026650084;-0.10107376;-0.14069527;0.1316418;0.06994989;-0.05106944;-0.033623867;-0.03429567;0.065496;0.0077749933;0.082137726;0.024914844;-0.06628406;-0.006259853;-0.08442707;0.105111994;0.0034828498;-0.045889612;0.04225632;-0.12376525;0.052142866;-0.07866416;-0.024415333;0.104877345;0.15308762;0.035653587;-0.051049896;0.07072967;0.1297356;-0.045385644;0.061411727;0.06907849;-0.015753396;0.02611975;0.14989042;0.013869939;-0.0813251;-0.09877591;-0.12078692;0.10460586;0.027457593;-0.037639376;-0.026920373;0.09805491;-0.03287461;-0.011715153;-0.0045868526;0.0083613;0.0051605976;0.07676309;0.03281919;-0.026436403;-0.23108986;0.04112591;0.055204835;-0.21595049;-0.047383737;0.086087786;-0.10635007;-0.0753383;0.016606476;-0.026461214;0.033735376;0.039916098;-0.011543709;-0.0227249;-0.04947448;0.07903795;0.07193079;-0.004133029;0.100387655;-0.077890605;0.0053558066;-0.068765566;-0.108335115;0.018314203;-0.042129606;0.08958121;0.03960619;0.07874615;-0.08533714;-0.0827279;0.051840838;0.034824483;-0.07657453;0.03029838;0.001640028;-0.09250585;-0.068745844;-0.088756114;-0.03248981;-0.036908854;-0.034669854;-0.014766319;-0.054590266;0.0035288169;0.101477504;0.028036982;0.02452341;-0.0062769433;-0.09773332;0.019603936;0.012271748;-0.028687086;-0.02209268;-0.056176435;-0.07610573;0.001522717;-0.0686312;0.0047502364;0.05803611;-0.033763617;-0.10272329;0.067055434;0.13773277;0.00802227;-0.17255262;0.021549987;0.03860445;-0.017079828;-0.05693452;-0.008365778;0.23665525;0.022445312;0.05057181;-0.09439842;-0.0042298613;0.010233113;0.1455649;0.05218994;-0.035852708;0.02706875;-0.19776097;-0.012967115;-0.08439873;0.014138551;0.042941786;-0.17530833;0.040301368;0.12101094;0.06383294;-0.11328462;0.03203857;0.045175657;-0.17396547;-0.04131258;0.03518499;-0.0138005335;0.071600206;-0.15283966;0.033643134;-0.1087981;0.04774912;0.05962332;-0.028039476;-0.11919303;0.04472435;0.06379744;0.1484551;-0.035835706;-0.019298218;0.08998567;0.06994846;0.035953663;-0.00884513;0.039942753;-0.10400092;-0.044798043;0.06014396;-0.048370358;-0.05504952;0.01984508;0.024748398;0.083574265;-0.056453597;-0.1109609;0.21473971;-0.011698775;-0.08710927;-0.007863355;-0.08013392;-0.027060531;-0.026125794;0.056688286;0.07049514;0.067986414;-0.084639214;0.019607067;0.08054927;0.054417912;0.051455893;-0.036577277;0.103197634;-0.0078558;0.031903353;-0.013223055;-0.07991374;0.12214035;-0.006086645;-0.02170143;0.075325824;0.029195704;-0.112068504;-0.07316462;-0.025718106;0.03084524;-0.17301165;-0.076929435;0.054699287;0.09812163;-0.017901542;0.0053025475;-0.016249837;-0.0047167386;-0.0035688125;-0.01718999;-0.005228574;-0.013359426;-0.06772712;0.02650486;-0.031302836;0.024845956;0.02023596;-0.051032737;-0.21586475;0.0608359;-0.01591952;-0.024604129;0.04972537;-0.025381211;0.00433878;-0.062470768;0.021920392;-0.13602133;-0.15384442;0.05690614;0.009398797;-0.08149949;0.09085362;-0.018537499;-0.0066713174;-0.05685809;0.08869078;-0.09687863;-0.053094417;0.026253296;0.032597713;-0.15617302;-0.04107722;0.012702423;-0.0047725416;0.08844392;0.092885904;-0.083084844;-0.06982874;-0.1468525;0.10444139;0.037173703;0.043401904;-0.014720406;0.011387139;0.078879885;0.18815571;0.09181101;0.030673532;-0.14320062;-0.03937589;-0.17263827;0.0325165;-0.0636742;-0.07758921;0.058143277;-0.035049308;0.15169185;-0.2865197;0.040884916;0.14810318;-0.050494406;-0.013892104;-0.053279568;-0.027855722;0.09368335;-0.0065361043;-0.017643098;-0.3254234;-0.0573534;-0.05579801;-0.00904778;0.07257063;-0.07131524;0.033837084;-0.1147784;-0.03249769;-0.017237794;0.08195372;0.045918435;-0.06332093;0.03230088;0.0005287913;0.049391467;0.08425649;0.1001483;-0.053196527;0.14513293;0.021725593;0.0075561684;-0.021040691;-0.032921296;-0.05865608;-0.0040372293;0.014067576;0.015842248;-0.08030524;-0.008029371;-0.12177954;0.0010732096;0.012343068;-0.06466976;-0.01759027;0.023016322;0.060446907;-0.09159878;-0.22279921;-0.0077804094;-0.068975985;0.014418417;0.17482147;-0.007949735;-0.19230032;0.064649194;-0.024586176;0.03914705;-0.022309283;0.07318655;-0.045592234;-0.035525557;0.14200138;-0.012951708;0.04908498;-0.09388946;0.0014010504;0.004837492;0.09707488;0.0985637;-0.08969227;-0.0024500624;0.018019924;-0.016056864;0.056702588;-0.0034103862;0.19411823;0.20674945;0.047859333;0.15394527;-0.024601307;-0.10293225;0.0318931;-0.14738415;0.047544967;0.045029223;0.020480897;0.062578656;-0.0087418165;-0.085774034;-0.017959505;-0.05023142;-0.036934137;0.00085980876;0.037774466;-0.004238986;0.01521304;0.019398494;0.10712012;-0.028302064;-0.07240619;0.0047867685;-0.009054822;-0.04512953;0.122929245;0.010483473;-0.02795728;-0.056676935;-0.0015673;0.034647834;-0.042284794;-0.044778533;-0.004330727;0.16422696;-0.07490444;0.034856457;0.17782497;0.013264599;-0.10711224;0.03994452;0.08483357;0.007648214;-0.07924177;-0.064484;0.011935939;0.0065959133;-0.005239031;0.05961161;-0.075771675;-0.2792696;0.030919496;-0.14504686;-0.034648873;-0.056749705;-0.007819803;0.012445272;-0.024779594;0.11322871;0.011090445;0.004603404;-0.023226578;0.034654025;-0.1888384;-0.10066689;-0.042099934;0.048193093;0.0032141234;-0.113050625;-0.05224001;0.010143956;-0.07600902;0.04217887;0.093868986;0.01504549;-0.011964464;-0.04835293;-0.014625004;0.08427095;-0.01623088;0.05987143;0.025977867;-0.07138136;-0.020677641;0.0030436097;-0.013874671;0.034242183;0.05369705;-0.03796451;-0.008222117;0.04951968;-0.047133926;0.039355826;-0.0057905307;-0.057612173;-0.062328152;0.05906052;-0.17215152;0.10942264;-0.17286983;-0.05716793;0.1726294;0.05197901;-0.0632512;0.044318147;0.052085996;-0.021108871;0.07418546;0.09243131;-0.0019586864;-0.03901082;-0.057987258;-0.11344339;-0.018015059;0.080946915;-0.003680564;0.0044321925;-0.13540561;-0.07455411;0.055626716;0.0031143932;-0.00010222552;-0.056349337;0.06462435;-0.09581949;0.060919292;0.20843554;0.00046820563;-0.07431007;-0.07433796;-0.056089908;0.06279264;-0.07971135;-0.0019493175;0.037149534;-0.081451684;-0.10816815;-0.05249896;0.19626693;0.016100883;-0.06399566;-0.02508504;-0.048655484;0.10324797;0.06424802;0.0040086107;0.07006737;-0.0049626515;-0.015059534;0.081044786;-0.008930614;-0.0009681089;-0.09722224;-0.06665736;-0.003939782;-0.070044965;0.0957064;-0.011621333;0.0064731846;0.06629536;0.045648612;0.04675365;-0.085866064;0.073848546;-0.1623469;-0.07019367;0.098991625;0.05489736;0.013390459;-0.0841518;0.09424887;0.17069462;-0.11446957;-0.1163598;0.032694943;-0.056068752;0.05031468;0.11248204;-0.0039171455;-0.01966794;-0.104243495;-0.13601841
0.16432422;-0.0048150187;-0.065906346;-0.01983646;-0.00414285;-0.06884052;-0.07830653;0.048713334;0.07457115;-0.021497175;0.0481693;0.03783406;-0.033626918;-0.094019;-0.076770894;0.03717415;-0.08517558;-0.060735863;-0.14052433;-0.019917628;-0.18004583;-0.053827997;-0.020747509;0.03551977;0.063434325;0.18242365;0.025857527;-0.12267276;0.024901737;0.036057517;-0.00041753863;0.01935472;-0.0037494176;-0.17534848;-0.09220675;0.18420392;-0.019023282;0.032042086;0.059193783;0.021260483;-0.0070726858;-0.07824895;-0.025035696;-0.19960575;0.1445;0.07044986;0.03645945;-0.04275327;-0.15321833;0.021056427;-0.043508902;0.07352739;0.061622847;-0.073816255;0.08019686;-0.13579237;-0.15335402;-0.11747173;0.011086642;-0.022451926;-0.14204927;-0.07468294;-0.052834194;-0.0064383345;0.012522798;0.009469953;-0.028508991;0.09295781;0.07268477;-0.007929591;-0.13955593;0.0110156555;0.038544666;0.054459475;0.082381405;0.14003329;0.09101254;-0.010555258;-0.10573911;-0.059737056;-0.02615483;-0.02120108;0.0695271;-0.012546601;0.067874715;0.04247985;-0.037937123;0.07172065;-0.10099424;0.01815177;0.04607642;0.01402568;-0.091700315;-0.12884848;0.12124512;0.003996004;-0.13261677;-0.10020484;-0.058656227;0.06524952;-0.114178665;0.054647956;-0.012308715;-0.009478296;0.025912382;-0.00015686179;0.014238609;0.050590813;0.01475066;-0.098925166;-0.023953743;-0.024472998;-0.055407155;0.03097369;-0.076829605;-0.107520066;0.024820294;0.035894573;-0.016442977;-0.034681577;0.038448825;-0.012838843;0.07942253;-0.09505784;-0.022397531;-0.22145893;-0.0586803;0.045827348;0.06659551;0.05612578;-0.012987101;-0.027304996;-0.09967022;0.0030708527;0.014891435;0.011538889;-0.076332286;0.05685062;-0.032165658;0.028405277;-0.0038788184;-0.08728799;-0.068724744;0.07700129;-0.038242936;0.0070976857;-0.0038596627;-0.048333846;0.07430488;-0.056132838;-0.06792293;-0.03685394;0.051559355;-0.18801248;0.01514915;0.020084219;0.034377772;-0.2008534;-0.1031947;0.08584936;-0.045569263;-0.010992063;-0.09888924;-0.16472666;0.06279036;-0.0078745615;-0.025915872;0.0066548013;-0.0027195169;0.09223974;0.035298612;-0.058482256;0.04457227;-0.014103778;0.013621646;0.094382934;-0.08846216;-0.107271;-0.098808594;0.0442817;0.034570925;0.0011624483;-0.1185318;-0.014807652;0.023912566;-0.15319718;-0.20065264;-0.09751133;0.03292954;0.0113420505;-0.14742824;0.045389503;-0.08802573;0.1058047;0.13688983;-0.019060796;0.04115425;-0.13479234;-0.08623674;-0.01746434;-0.037505306;-0.082459375;-0.0008687862;-0.030294307;0.05725085;-0.019587316;0.052197266;-0.111692674;-0.036344163;0.02509736;0.072221525;-0.07874444;0.000958233;-0.035530444;-0.036768526;0.07850442;-0.035190146;0.20859227;-0.0029051965;-0.029978598;0.008014151;0.07972729;0.073039845;0.045282535;0.08573138;-0.02765498;0.016193861;-0.020392034;0.050578255;-0.05558137;0.056661945;0.0249343;0.050727252;0.0028826862;-0.0366478;0.16352668;-0.094029;-0.123406015;0.0703452;-0.22412235;0.00074668723;0.065270625;0.060278278;-0.11815938;0.0030604908;0.02678018;0.04658762;-0.07425357;-0.1164809;-0.032051366;0.1013103;0.11628782;0.03980298;-0.16018406;0.03160537;0.0070723393;-0.07535084;-0.019877207;0.11546122;-0.047023218;-0.06883786;0.033961702;0.07417161;-0.04229888;-0.051073637;-0.1516974;-0.012870767;0.057006538;-0.052712306;-0.15726402;0.0056768428;0.10917659;-0.025227513;-0.05072919;-0.048001394;-0.19887024;0.021709597;-0.027435862;-0.032503754;-0.046539724;0.007994103;-0.0027249698;0.06890069;-0.00847509;0.055138964;0.038014013;-0.044256814;-0.019461632;-0.07200265;-0.025280742;0.07060118;-0.032651275;0.10494554;-0.053705268;0.16192737;0.017395418;0.023498463;0.20837218;-0.00063734106;0.115740485;0.028785435;0.038232777;0.09596665;0.13222596;0.0100442385;0.009540514;-0.18419096;-0.0075050727;-0.14711945;0.079467;0.010194094;-0.10179857;-0.061108448;0.06547171;0.25954473;-0.28762403;-0.082852766;-0.07921783;-0.04840016;-0.04396515;-0.07978051;0.098534316;0.042336173;0.06529931;-0.014340104;-0.13423568;0.05023745;0.02840123;0.025200691;0.014713489;-0.09433861;-0.009176283;-0.08203418;-0.0009479838;0.047846828;0.06331918;0.055319875;-0.0049500237;0.046170432;-0.080744155;-0.027364999;0.0622807;-0.018513463;-0.026678957;0.12123512;0.10614097;-0.0014662133;0.02105599;-0.120405056;-0.037380286;0.0120100835;-0.121069916;0.041384514;0.06170279;-0.09086923;0.011787486;-0.073863335;0.054370295;-0.07010965;0.04105775;-0.020974433;0.055917133;-0.12460838;-0.12129495;0.0013926442;-0.002663282;-0.013199868;0.10126341;0.13420373;-0.15799367;-0.018433547;-0.114777215;0.039879356;0.03723882;-0.049391113;0.03733907;0.06564497;0.17355865;-0.0450249;-0.04955923;0.047810137;-0.053508144;0.08578469;0.12396286;-0.07585762;0.02817932;0.08321651;0.024395932;-0.061473235;-0.0051098783;-0.041505028;0.16275881;-0.012219018;0.13995409;0.0264068;-0.061734654;0.030841978;0.043704327;-0.11356153;-0.034321137;-0.02999727;0.04304254;0.014503057;-0.051982243;-0.011615263;0.009822263;0.10642945;-0.04151092;-0.187208;-0.050014332;0.043437462;-0.03386858;0.060187683;0.059810262;0.1385433;0.013401869;-0.019457696;-0.04891221;0.039851163;-0.059310187;-7.004349e-05;-0.21891929;-0.0072676954;-0.007239623;0.10886568;0.031172577;-0.0714575;-0.055699907;0.10871577;0.07043029;0.0042086043;0.17441499;0.0069459053;-0.07545988;-0.0013263006;0.04449567;-0.08300094;-0.19847049;-0.0018466811;0.013187322;-0.036934953;0.07962013;-0.002772046;-0.09741409;-0.058661688;0.006457119;-0.036923632;-0.0049488293;-0.026022498;0.031023085;-0.0066367732;0.031431;0.01564827;-0.034488566;0.040726565;0.048304778;-0.01928232;-0.20756389;0.015670776;0.019627424;-0.042215843;0.066686995;-0.02033215;-0.01601003;0.034642134;-0.072080545;0.06371793;0.14772582;0.09566835;0.09621257;-0.014758292;-0.0078484155;0.06031569;-0.005846054;0.12220136;0.11735936;-0.08024994;-0.058142412;0.06429733;-0.14906812;-0.010221177;-0.076701075;0.039139487;-0.05243226;-0.0091128815;-0.016113974;0.05206987;-0.0756975;0.14313301;0.010944282;0.0147533985;-0.13693729;0.00940832;-0.060809903;-0.1427591;0.21768141;-0.02536009;-0.0632757;0.052468233;0.023853045;-0.057805184;0.034160424;-0.060833607;-0.0877845;0.042552598;0.08822116;0.07647944;-0.021909064;0.056246076;0.058864444;-0.0671741;-0.20507015;0.045660935;0.15800449;-0.061306603;0.015645782;0.06491613;0.033352554;0.020387234;0.0075729443;0.15789936;0.05778841;-0.06975635;-0.081336655;-0.19575377;-0.0052879783;0.03663036;0.15667239;0.12291449;0.077134825;0.005771166;-0.037601583;0.078581154;-0.092564635;0.06275472;-0.042495597;0.07014654;0.10772761;-0.03775844;-0.061355215;-0.07709701;-0.04190321;-0.015184775;-0.072270386;0.02376112;0.051961083;0.046269063;-0.020713957;0.028010193;-0.0455279;0.044020187;-0.059315603;0.07541011;0.037735373;0.013563313;-0.025467984;-0.09768722;0.05977852;-0.14288336;0.0024505483;0.046357825;0.033931375;-0.017723676;0.046206128;0.02898006;0.07272235;-0.119734906;-0.050218187;-0.06433123;-0.10549899;0.007601676;0.02535879;-0.04351469;0.016332513;-0.013573338;0.0374219
-0.09842501;0.033435997;-0.055580154;-0.006380376;-0.09394356;-0.05118902;0.097974375;-0.011026578;0.06325289;0.007046093;0.035144668;-0.015401483;-0.02495723;-0.10812235;-0.054858092;-0.07138074;0.017318878;-0.07883681;-0.009362755;0.046688646;0.038473595;-0.18973467;-0.05804416;-0.029698404;-0.11101645;0.1609243;-0.0040229456;0.03661807;-0.12958811;-0.11589468;-0.031747177;0.05670255;-0.031857014;0.117107384;-0.10953072;0.058603324;0.034280155;0.027803449;-0.06706012;-0.09030867;-0.0046625007;-0.1285566;-0.12029235;-0.040361032;0.10431607;0.034329973;-0.07189224;-0.0710326;-0.033358153;0.015099991;-0.07799713;0.120961815;0.030134035;0.106082276;-0.044823237;-0.03261624;-0.18831365;0.033659924;-0.0700743;0.062179774;-0.023976974;-0.09438222;0.14455733;0.03187558;0.06006772;0.0511679;-0.08001351;-0.004125245;0.006161367;-0.040189173;0.037313074;0.08849962;-0.04539681;0.007233135;0.053774044;0.00063347956;0.000110237095;0.041438185;-0.12035068;-0.047800384;-0.08366345;-0.0798893;-0.0151912365;-0.10569365;0.123227865;-0.023003163;-0.031799596;-0.02079179;-0.038459603;0.052033667;-0.05494231;-0.08038781;0.016740553;-0.22056681;-0.006072983;-0.107945286;-0.031222787;0.025503812;-0.11110387;0.050333776;0.21125677;0.035750188;-0.017865047;0.061643593;0.07368621;0.147388;-0.09090454;-0.035793103;0.10780821;-0.15301794;-0.07035803;-0.060164127;0.044015653;0.12795737;0.047182336;-0.055968255;-0.017223641;-0.07145433;0.11052726;0.09808623;0.068841755;-0.09018257;0.066927545;-0.06107894;-0.09555598;0.03984286;-0.0048959325;0.029851627;0.015176447;0.141249;-0.08214734;0.11441636;-0.05945387;-0.058880977;0.007040762;-0.07149018;-0.1236411;0.12403541;-0.040609617;0.05363697;-0.04466867;-0.046651788;0.08390786;-0.070661224;0.0016121081;-0.124436826;0.077030785;0.042768363;-0.12766145;-0.03191007;0.014498244;-0.08552992;-0.0074881;0.06567705;0.04200278;-0.024734657;0.0755801;0.12057242;-0.010966535;0.1691932;0.0037873806;-0.0433023;0.077820756;-0.22694372;0.19326046;-0.04484426;0.09230665;-0.04656152;-0.0030843657;-0.024398966;0.030150156;0.09336593;-0.06817545;0.24484742;0.019088838;0.016164491;-0.14710423;0.14429754;-0.13542916;0.0706702;0.20646727;-0.025924303;0.07728703;-0.051776066;-0.029941143;0.009942833;-0.14853948;-0.024532462;-0.028831832;-0.056251734;-0.17498079;-0.046785977;-0.06856411;0.078452125;0.15897486;0.12992607;0.06645159;-0.048124705;-0.012692636;-0.0126235;0.09458798;-0.061479125;-0.0035231076;-0.08733364;-0.047834724;0.03742317;-0.03184411;-0.10448642;-0.10095826;-0.08052797;0.055204406;0.023989836;-0.108516596;-0.047241632;0.035602733;0.03437758;0.009510173;0.028184013;0.0035293477;0.0017191154;-0.0909055;-0.02493097;-0.082083054;-0.0051585473;0.03999858;0.06557635;0.018033028;0.20685014;0.07800211;0.00023266091;0.08639153;0.10740234;0.13655983;-0.06683686;0.037027944;0.058723383;-0.061666474;0.05888789;0.1413319;-0.06915557;-0.05721728;0.041560587;0.064023726;-0.18684728;-0.034506593;0.11219534;-0.10275653;-0.0027225837;-0.07827199;-0.001130032;-0.046163194;-0.04337245;0.05589991;0.14314915;-0.10326647;0.029161597;0.028180294;-0.08189151;0.124521755;0.07452949;0.024898173;-0.115763925;0.057359833;0.033914812;0.018886844;-0.1138089;0.07489004;-0.02571824;0.0763889;-0.10796708;-0.062550895;0.10001013;-0.060551282;0.036781136;-0.23687452;0.15099262;-0.072081916;0.013428063;0.0068441927;0.17718557;-0.01255993;0.03903666;0.039609265;-0.018624343;0.10108916;0.041277207;-0.023742354;-0.08335219;-0.045171317;0.032522283;0.21430373;-0.086117305;0.0422226;0.0056811394;0.060442057;0.06247265;-0.021503381;0.014649936;0.026110329;0.13029341;-0.034923617;0.018764446;-0.017609984;0.13381419;-0.063468;0.17583026;-0.19462235;0.0042735604;-0.016826324;0.00075377204;0.013654291;0.018502207;0.04016756;0.0786641;0.14612369;-0.23976664;-0.06898285;0.06281318;0.0014828655;-0.09639549;0.043579604;-0.03963956;-0.09262828;-0.05181859;0.040724773;-0.014198962;0.010959003;0.038470645;-0.088681914;0.056925636;-0.16890053;-0.036819443;0.085001;-0.070958555;0.18789229;0.014163694;0.06296546;0.013230807;0.05845035;0.010035716;0.018680954;0.036966022;-0.08199163;0.005967371;0.08758311;0.060687777;0.035752624;-0.047856122;-0.051948212;0.05931598;-0.13690752;0.13175835;-0.012464458;0.036615524;0.04032982;0.019483432;0.006079057;-0.12929913;-0.03839235;-0.09183174;-0.05748494;-0.017112577;-0.02119243;0.0042564957;0.05582385;0.041516524;0.033140004;0.0958393;0.029610896;0.11352489;0.003314118;-0.09509737;0.017924791;-0.056699425;0.1489372;-0.06216499;0.08116004;0.11278834;-0.00089639745;-0.10068203;0.035019606;-0.037172712;0.049823053;0.21269713;0.06146334;0.008109677;-0.06545966;-0.018717999;0.064901896;0.07269034;-0.045268223;0.14336571;-0.11136583;-0.11822725;0.0869238;0.0044539385;-0.14646022;-0.018801691;0.088645905;0.005935877;-0.030252019;-0.025817411;-0.048053652;-0.02903151;0.08566779;-0.033197917;0.04852967;-0.15745248;-0.053413842;0.0048771063;-0.018341219;-0.034276374;-0.04012284;0.017420955;0.06452591;0.06928746;0.04106967;-0.030344462;0.023736283;-0.07597628;0.008939669;-0.24838157;-0.04100247;0.027680105;0.071798325;-0.0678146;0.083401814;-0.01881404;0.092817;0.0035439264;-0.057210613;0.09314345;-0.04620166;-0.26905662;0.086455666;-0.040973343;0.010575699;-0.16181442;0.06539383;-0.06188399;-0.09299487;0.120275296;0.015372632;0.029192073;0.010696592;-0.06498604;-0.12673172;-0.117774464;-0.049678147;0.044166148;0.0015243376;0.02382111;0.051432215;0.09683417;-0.039833724;0.06088645;0.0048685893;-0.14528953;-0.012873658;-0.04569074;0.035160128;-0.038446523;-0.028289579;-0.051492188;-0.08390362;0.0017852706;-0.081302285;0.12588608;0.1182338;-0.11423873;-0.12747487;0.014458498;-0.16052294;0.012112298;-0.008579056;0.040310223;0.07531727;-0.09031292;0.040877882;0.09689199;0.07823003;-0.022002637;0.07388;0.067403615;-0.1929691;0.037070863;-0.03656433;-0.03523237;-0.013876033;0.023195308;0.030519972;-0.058552753;0.03215288;-0.09614411;0.06621486;0.15554887;-0.0071295826;0.041101478;0.012860065;0.12982585;-0.010951073;0.009133111;-0.02498293;0.035490427;0.073623754;0.052169885;-0.06732243;-0.037172142;-0.07940373;0.07354786;-0.027627943;0.14759998;-0.07166375;-0.006935789;-0.0017438189;0.14786543;0.12935267;-0.001754105;0.02000435;-0.053336438;0.033924077;-0.029149422;-0.039472498;-0.01976068;-0.07107185;0.007870792;0.015553636;0.0019688685;0.16969018;-0.019681748;-0.03756927;0.067080416;0.014414723;-0.42593145;0.01638559;0.08565418;0.052215524;0.051647045;-0.05183641;0.0095684705;-0.01347317;-0.0029838558;0.056106064;-0.25332186;0.034101035;-0.04192156;-0.03147739;-0.00075385906;-0.018167533;0.048533138;0.02755622;0.036255118;0.20423241;-0.0528318;-0.042428795;-0.042734023;-0.2169569;-0.027415473;0.0038274224;-0.08655828;-0.04650445;-0.2405371;-0.01675943;-0.0048306384;-0.029999936;0.024450125;-0.069954194;0.017631702;-0.48189396;-0.09401861;-0.06804502;0.07253413;0.11798824;0.0011528794;0.05769793;0.12571113
-0.044628683;-0.26060674;-0.04107138;0.013683748;0.06831393;-0.027898023;0.046727095;-0.0036952288;-0.015778067;-0.05709765;-0.08361806;-0.07179042;0.008185874;0.03918133;-0.051463123;0.033875648;-0.011867168;-0.14720185;-0.05496001;0.07326117;0.034972746;-0.054719795;-0.1038941;-0.021623628;-0.12310363;0.17055205;-0.051420953;-0.045066312;-0.03126846;-0.024499228;0.030820677;-0.12724988;-0.01570747;-0.07385943;-0.18777403;0.10280396;0.04643947;0.060628057;-0.025446659;0.024978774;0.03816387;0.04292575;-0.16275823;0.04036702;0.03558793;-0.02497092;0.052661363;-0.08418328;-0.02565217;-0.078840405;-0.096818894;-0.042847715;-0.078229755;-0.025481945;0.008555916;0.01612043;-0.20271781;-0.01394083;-0.013890423;-0.1382112;0.09151587;-0.056741368;0.025465759;0.17566037;0.12937514;0.079978175;0.08035249;0.06740453;-0.07188293;0.10795333;-0.08876303;0.06945382;-0.18234207;-0.057444073;0.11366286;-0.11667208;0.10430481;-0.0103910435;-0.0473809;-0.23092742;0.039910007;-0.13502406;-0.011504673;-0.020562466;0.1468794;0.033261575;0.018829908;-0.0045743585;0.021207208;0.008984248;0.017703924;0.02266183;-0.012003834;-0.17808999;-0.0053845625;-0.08778592;0.07278613;0.030069934;-0.0050491164;-0.08309133;0.22134931;-0.04050629;0.00076172635;-0.0011818812;-0.064144775;-0.079619125;0.08988689;-0.020806845;-0.14212233;-0.10892512;-0.03754688;-0.041824467;0.061569132;-0.05224362;0.055311467;-0.135656;0.0435433;0.0057932124;0.033847835;-0.03233481;-0.036317606;-0.018326186;0.024266977;-0.09426949;-0.035443246;0.05561857;-0.019298559;0.05985602;0.024046358;-0.086026;0.025447974;-0.08384462;0.061487515;-0.06468831;-0.08727836;-0.049096894;-0.086111285;-0.07460595;0.039866306;0.0943678;-0.023918072;-0.048669938;-0.20038615;0.020458182;-0.15635061;-0.01250167;0.030263819;-0.022220971;0.014699708;0.049516372;0.05170884;0.020436905;-0.012726714;0.04678683;-0.040742442;0.002891973;0.0688643;0.077352;0.021509955;0.21734822;-0.042995576;0.06283909;-0.07826231;-0.13298526;0.1706901;0.011157024;-0.076390035;0.08891295;0.060741;0.013352582;-0.18690535;0.08615115;-0.0068855453;0.124976255;-0.028252909;-0.09024848;0.03435057;0.036188304;-0.037399713;-0.01606161;0.1974318;-0.010092899;-0.025628166;-0.09418742;-0.02366729;0.036327943;-0.3268371;-0.08182576;0.10577044;-0.069811486;0.15125103;0.052133236;-0.037141632;0.093584955;0.086786374;-0.043492205;-0.039665807;0.023712952;-0.10915829;0.0757737;-0.058087148;-0.0001390625;0.07618783;-0.012526563;0.03275088;0.01884385;-0.05805967;-0.047206916;0.0054080756;-0.08034143;0.18197195;-0.004297183;-0.054568637;-0.09504209;0.10375019;-0.09038796;-0.017923966;0.16517302;-0.0027962385;0.04711755;-0.06928222;0.05334341;-0.034424342;0.014297466;-0.06813768;-0.028691748;-0.03350213;0.2707607;-0.051144924;-0.04306848;-0.020599509;0.2280918;-0.075381786;-0.010068792;-0.0741916;-0.06163201;0.015937502;-0.12565492;-0.03782329;-0.09222975;-0.0046809153;-0.059406966;-0.019818582;0.07677054;-0.02403961;-0.03497065;0.030288177;-0.0120527465;0.03969919;-0.030703006;0.056598917;-0.022756029;0.00639288;-0.038322035;-0.032566417;-0.08452467;-0.08594906;0.04428973;0.16572498;0.004979707;-0.09205913;0.05354563;0.10221633;0.057963666;-0.061289813;-0.14716603;-0.096685395;0.013517839;-0.19615772;0.001070833;-0.0008606283;0.05546813;0.018271554;-0.003773447;-0.14710328;-0.00904813;-0.08729201;-0.07579157;-0.04540084;-0.10935898;-0.041256316;-0.068357304;-0.027374532;-0.06825172;0.054220542;-0.09224195;-0.04925869;0.030333783;-0.10805125;-0.055857673;0.15253064;-0.11916366;0.012030644;-0.044659577;-0.010762386;-0.05257885;0.0143767195;0.0786597;0.017230716;0.176461;-0.024219302;-0.00025730638;-0.04694889;-0.22104065;-0.021658339;0.21279663;-0.13946313;0.0127428565;0.0937923;-0.04537835;-0.08007934;0.056408465;0.0776076;0.017491387;0.1632218;0.0013005625;0.065051384;-0.12191578;-0.08018494;-0.13817926;0.012555023;0.0047759195;0.0024649138;-0.078056134;0.08248531;-0.049790036;0.02346355;-0.049075194;-0.038986947;0.027360536;-0.006229946;0.014978221;-0.017059585;-0.13194168;-1.2330176e-05;0.070219226;-0.069897346;-0.07939912;0.04945854;0.033014692;0.07130534;-0.03680687;-0.035243995;0.13169643;0.030003546;0.09523651;-0.010465319;0.050139103;0.041751724;0.1343627;-0.100098066;0.18678834;0.0888778;-0.10888738;-0.020838782;0.02817009;0.081108004;-0.031251993;0.094964;0.04064328;0.06289515;-0.1027041;0.13163307;0.033579834;0.027774494;-0.06723267;0.0554718;0.20996031;-0.112574376;-0.034222335;0.06932312;-0.14695616;-0.041280918;-0.021848543;-0.1310636;0.06011719;0.058484163;-0.0037120632;0.014364562;0.051737428;-0.006698038;-0.07698012;0.003234121;0.22882347;-0.116272695;0.06551531;0.006879658;0.0133917155;0.05864855;-0.059871845;0.04256128;0.05859615;-0.22753362;-0.14409664;0.10875017;-0.014858271;0.017235633;0.051200602;0.020431755;-0.0036311697;-0.045250364;0.030790588;-0.09209654;0.010394521;-0.014847049;-0.023967773;0.009768726;-0.0150679555;-0.06422757;0.0034680914;-0.019265927;-0.03937481;-0.025899107;0.06422566;0.118417315;0.09486135;0.015702669;0.06567083;-0.0039550867;-0.03901468;-0.0004782391;-0.20529886;0.078987956;-0.013075741;-0.017367909;-0.052542277;-0.07843566;0.05909945;0.09348796;-0.03525912;-0.055843055;0.20307401;-0.03662211;-0.16561712;0.123351745;0.14413808;0.004013567;-0.24933864;-0.015767591;0.17881182;0.05554946;-0.06643532;-0.09676664;0.043976232;-0.028078668;-0.1054578;-0.025241233;-0.071691014;-0.021707948;0.030680569;0.0003063726;-0.020992536;-0.06898503;-0.028459523;0.056180097;-0.006318814;0.023105321;-0.06392817;0.00049929;0.04172634;0.017350169;0.054936167;-0.07345149;0.009619074;-0.007247525;-0.010214071;-0.046282753;0.1480764;0.19147022;-0.09127131;-0.03269902;0.07279835;-0.14479117;0.06618428;-0.046858143;0.23955467;0.091739066;-0.05032558;-0.023782186;-0.011594525;0.028003002;0.06162815;0.0398575;0.042615447;-0.08049188;-0.05127905;-0.049003094;0.07582466;-0.07366444;-0.026303306;-0.037560616;-0.13363548;0.031857584;-0.16008325;-0.034934;0.13805483;0.09683298;-0.056864806;0.018943794;0.03177005;-0.014584937;-0.03733046;0.0048188926;-0.030742645;0.021600673;0.09196601;-0.09217932;0.041975584;0.07083142;0.13808645;0.078738086;-0.004672531;0.020750618;0.013305549;0.06127705;0.16046037;0.008224256;0.047100283;0.042925008;-0.08384373;0.11194737;0.023355978;0.015591337;0.07222851;0.0065709706;0.021080136;0.057695802;-0.12084771;0.1427815;-0.04455112;0.08333652;-0.061569598;-0.05376877;-0.2265015;0.09202427;0.047348958;0.0046376614;0.05888663;0.008583744;0.03336584;-0.01144147;0.00400925;-0.08064317;-0.044047646;-0.062133297;-0.02048244;-0.029186208;0.03733105;0.024478422;-0.06470463;-0.008884133;-0.07319715;0.28611788;0.057235394;0.06485229;-0.028041363;-0.099592105;0.008213752;0.005996639;-0.058382913;-0.109164305;-0.2776489;-0.102739304;0.036782626;-0.031079525;-0.17846806;-0.16403009;-0.008594002;-0.30494428;0.008118534;0.02439314;0.16541773;-0.024283849;-0.07839499;-0.14435808;0.09799961
-0.13129623;-0.07319214;0.07302798;-0.031239567;-0.17287067;0.06598006;-0.02489462;0.058955688;0.065075606;-0.024811316;0.004038068;-0.0043524737;-0.038799975;-0.006958127;0.083885856;0.030380175;-0.061291516;-0.10075148;-0.061302006;0.0111939125;0.032482825;-0.09396686;0.07809006;-0.06691233;-0.09414121;-0.02345374;-0.059197158;-0.00244005;-0.03180951;0.13144574;0.07909634;-0.019258788;-0.049412396;0.07011951;-0.23589782;-0.07648515;0.00914275;-0.07642802;0.0037754872;-0.112980425;0.056649316;-0.085604325;-0.07829862;-0.26716748;0.044496153;-0.02485139;-0.05361857;-0.08537778;0.08553055;0.018944135;0.0778506;0.03406404;0.027343111;-0.2440571;0.048207283;-0.10178356;-0.29907534;-0.039397113;0.08717567;-0.20853303;0.18954115;-0.024351906;0.0006672732;0.090495184;0.031576943;-0.066010535;-0.016605815;0.039104234;-0.07414848;-0.04658562;-0.108376496;-0.043559797;-0.18041772;-0.044447225;0.15727231;-0.073332444;-0.046730325;0.04582456;-0.04884981;0.009955603;-0.084805556;-0.064755574;-0.16669485;-0.04569529;0.15249148;-0.05454956;-0.067684345;0.04843516;-0.0099785095;0.01786506;0.01079662;0.06800844;-0.02962401;-0.14954843;0.08704596;-0.11773286;0.0026171808;-0.06633007;-0.106716916;0.07853003;0.03448285;-0.012802083;-0.02613968;-0.03618068;-0.046791848;-0.115125194;0.020447714;0.088688605;0.20632961;0.038692873;-0.08612847;-0.05974238;0.058806423;0.10272593;0.06712713;0.06849663;-0.09604945;-0.029850403;0.09248712;-0.0023939623;0.002670234;0.08411829;-0.038842276;-0.05322946;-0.061044767;0.14321329;0.14507334;-0.0055131936;-0.0018412278;-0.0266416;0.036923543;-0.10205582;-0.030286174;0.100094646;0.030862538;0.038622245;0.11405121;-0.06492594;-0.09716043;0.085300416;-0.034545425;0.028894398;-0.029256487;0.0069665224;-0.061481293;-0.030105801;0.01141532;-0.0867891;-0.23576191;0.10519684;0.06318712;-0.08017322;-0.03127642;0.12503545;-0.0023745403;0.08146487;0.020825002;0.044219468;0.042003684;0.07913768;0.01131974;-0.020340083;-0.04888246;-0.14820506;0.05462138;0.07375394;-0.062544435;-0.029422538;0.013288049;-0.045939505;0.14233866;0.21826558;-0.08335762;0.03501799;-0.08864605;0.00960398;-0.029298615;0.13175395;-0.027305113;0.08524096;0.20559305;-0.09421161;0.086726256;0.07083043;-0.09171862;0.13978338;-0.17098399;0.03500784;-0.064446;0.031769607;-0.13068248;-0.05400662;0.002995091;-0.058681984;0.14290826;0.004902989;0.008932494;0.032254674;0.029245857;-0.0032653438;-0.051486414;-0.009385556;-0.07444921;-0.06365837;-0.030849556;-0.08665762;-0.07745982;0.02347232;-0.075772546;-0.055395756;0.038309623;-0.050935056;-0.011202367;0.043001983;0.039851263;-0.03935508;0.057578396;0.12360249;0.000577286;-0.03834054;-0.09112944;0.021800842;0.003792943;-0.07257519;-0.07529665;-0.045170482;0.073790446;0.14580056;-0.031058863;-0.079549536;0.04195597;0.08590619;0.044752393;-0.0063591497;0.0013353288;0.03610799;0.032521192;0.07689431;0.11374495;-0.06491991;0.044373784;0.062743686;-0.053601295;-0.078119904;0.072445385;0.071085624;-0.08945944;-0.029269816;0.025141884;-0.049378477;-0.058609243;-0.021563567;0.041971356;0.08554562;-0.07207168;0.035459496;0.09562509;0.023433985;0.017602714;0.027383104;0.008764911;-0.038051464;-0.09315766;0.032027096;0.062749416;0.08742331;0.056241743;-0.0029743593;-0.12847525;-0.056504626;-0.043596987;0.11618385;0.054653946;-0.09319232;-0.19712153;-0.10040646;0.005325066;-0.0633782;-0.005147262;-0.048913047;0.05181983;-0.0870604;-0.009697375;-0.004164533;0.015514864;-0.02999213;-0.03475561;0.024864376;-0.028067168;0.06481228;0.082843475;-0.08498587;-0.09874228;-0.060208913;-0.067345865;-0.13311763;-0.02417811;0.12492707;0.021059606;0.1872527;0.06931465;-0.020308772;-0.024913767;0.1394147;0.020047626;0.14333168;0.0075442935;0.05703478;0.011979498;-0.018090878;-0.009880482;-0.019046452;-0.103116155;0.08421087;0.13403241;-0.03133413;0.022007704;-0.022981025;-0.056063436;-0.048800103;-0.02366982;-0.0050109243;0.06317619;0.028692333;0.0380637;-0.030488161;-0.014988822;-0.037013356;0.070008196;0.026680795;-0.10872081;0.0014901293;0.019808028;-0.078326575;0.2530419;-0.068453796;0.04981632;-0.026963867;-0.032525662;0.071856484;-0.11880743;0.048184097;0.009777792;0.006099434;-0.15235613;0.026245376;-0.016198985;-0.024613362;-0.057933;0.24575914;0.0029899443;-0.07669414;0.021582905;0.03839175;-0.0045152972;-0.09374079;-0.025798876;-0.12351142;0.112685665;0.027298056;-0.0033313113;0.07079004;0.040462043;0.04317242;0.05226396;0.05690588;0.005118161;0.06280425;-0.044692602;-0.02763515;0.03957961;0.030984232;-0.030018467;-0.02952589;-0.06030097;-0.020801835;-0.10027115;-0.02786449;-0.01788682;0.04250561;0.030280251;0.052264564;0.014371143;0.011668278;0.028774824;-0.030880515;-0.036981884;-0.13384502;-0.09401303;0.021036426;0.016492862;-0.024055224;-0.124925174;-0.17476556;0.22917992;0.060169227;-0.15579449;0.0703914;-0.08198972;0.012576354;0.044334054;-0.058391172;-0.007868702;0.13343185;0.036056444;0.09236636;0.0119281905;-0.19039673;-0.03925905;0.05865578;-0.03176553;0.0032610155;-0.04089641;-0.019105911;0.05467263;-0.027097417;-0.014430376;0.04981282;0.121993184;-0.018763874;-0.09059392;-0.08367692;0.10216529;0.056766197;-0.013180387;-0.028825218;-0.05091472;-0.09706911;-0.08798994;0.0040998203;-0.09588464;0.08333269;-0.06024728;-0.3106565;0.027401581;0.08839687;-0.11116513;-0.034370765;0.0674301;0.0617636;-0.07925939;-0.09315337;-0.07597965;0.29060692;-0.074781105;0.052192725;0.08584509;-0.0048307474;-0.023157727;-0.059188314;-0.06497389;0.08357544;-0.010155334;0.11395343;0.08899662;0.07443509;-0.041822705;-0.027542906;0.005545654;0.02669564;-0.047009803;0.0036761668;-0.055994347;0.040892746;-0.043168746;0.096026786;-0.09975018;-0.049650595;0.049940716;0.05822021;0.018807886;0.006185468;-0.08905876;0.05882643;0.0038136381;0.06439869;0.011432881;0.016071692;-0.018307896;0.12738515;-0.046089243;-0.029349023;0.023424892;0.0048828116;-0.16403352;0.017048499;0.03595734;0.0010259204;-0.026378915;0.0061615375;0.05196079;-0.19411999;0.1308077;-0.00788907;0.017266583;-0.09183852;0.041548446;0.10424388;0.096264146;0.033580083;-0.012969812;-0.024644924;-0.07262552;0.020291794;0.09165352;0.042904403;0.0024554962;-0.003592452;-0.066033535;0.10079223;-0.02648443;-0.09774009;0.016784176;0.13120438;-0.03535621;0.12634218;0.051351655;0.044507988;0.023370046;-0.11870673;0.035528783;0.06781673;0.07362228;0.0042600674;-0.07145414;-0.053691316;-0.05395161;-0.031176886;0.16389363;-0.067580186;-0.027661495;-0.063338324;-0.10762882;-0.08500931;-0.01130215;0.0012201043;0.16251637;0.013849972;-0.016814526;-0.045143373;-0.057391476;-0.0010427207;-0.09595083;-0.14403221;-0.06962723;-0.089688934;-0.0032172948;-0.030162252;0.073469155;-0.09378033;-0.07916832;0.10177586;0.04962268;0.021218512;0.061328635;-0.06329412;-0.0417769;-0.17231478;0.02970716;0.03027043;0.069681;-0.11865779;0.0035284879;0.030031763;-0.07380507;-0.058986228;0.00846193;-0.005145946;-0.26844496;-0.14530773;-0.028124893;0.0154967755;-0.04079169;-0.08747389;0.07025408;0.12957807
-0.090971;0.006052965;0.03027891;-0.045450345;-0.115352735;-0.086912625;-0.04690693;0.050926603;0.073319495;-0.115230374;-0.096947834;0.01983185;0.012182173;0.04580711;0.017766936;-0.033886533;-0.032118913;0.09341403;0.007632278;-0.078291364;-0.21720482;-0.12540703;-0.03850056;0.009291242;-0.04466044;0.03557055;-0.04644565;-0.03685472;-0.029470084;0.04492252;0.028922418;-0.094644904;-0.018680025;0.030502984;-0.16775662;0.042842947;-0.13170396;0.02742023;-0.15943544;-0.00092487625;-0.06566949;-0.034549113;0.07681196;-0.07484745;0.030755872;-0.0972783;-0.011920981;-0.11817561;-0.021949686;-0.13481452;-0.048411675;0.19251741;0.048740216;-0.037433762;-0.0732743;-0.13849172;0.06700721;0.02605044;0.017168518;-0.23519228;0.117751844;-0.12776276;0.0090045305;0.13316701;0.13179515;-0.013829244;0.018027917;0.0018410224;0.04687356;0.051839054;0.047501072;-0.029283574;-0.08902598;0.047176685;0.1438992;-0.14781459;-0.024022093;-0.016299846;0.044243477;-0.031974338;0.09850637;-0.06539762;-0.10054117;0.02087858;0.116846874;0.08239987;0.04203275;0.0011941182;-0.052005526;0.041398145;0.045596257;0.03419252;0.0037825606;-0.016481224;-0.06514121;0.054471146;-0.04896018;-0.021303406;-0.12571996;-0.06650126;-0.2311117;-0.022058852;-0.022893112;-0.035955694;0.032873373;-0.03484847;0.05083318;0.07283078;0.1877462;-0.0038997352;-0.08645525;0.032867394;-0.042175133;0.037762366;-0.029909875;0.030051325;-0.021452557;-0.0019093616;-0.070128925;-0.043807;0.04444365;0.090247385;0.01517688;0.060866337;-0.011093413;-0.19781846;0.24682306;0.022784686;0.11788767;-0.19725941;-0.07899112;-0.08105119;-0.027081463;-0.014082942;-0.14391012;-0.06932244;-0.25229907;-0.15783471;-0.0656846;0.12810841;0.06793461;0.06896612;-0.046136945;-0.054288216;-0.008339816;0.05420063;-0.017537089;-0.010042374;-0.032936495;-0.03128906;-0.041464623;-0.07762397;-0.049702607;-0.059184562;0.07985467;-0.074548304;-0.08468129;-0.25535154;0.021010492;0.15490423;-0.103489295;-0.073712595;-0.05534498;-0.1182897;0.016882375;-0.05944787;-0.011461729;0.0068319645;0.030815003;-0.037773173;0.1290433;0.14453073;0.009728388;-0.08852354;-0.057862464;0.023270708;0.09629618;0.21968795;0.06584951;-0.075360626;0.13743103;-0.064434126;0.21674725;-0.0090563;-0.07330402;0.14771374;-0.04975624;0.042722676;0.0349789;0.055402532;-0.087023735;-0.0035682153;0.0716724;-0.028377378;0.12670366;-0.0695902;-0.020736014;-0.040318668;0.030133657;-0.09171408;-0.06421126;0.012615773;0.060688093;0.028615812;0.038875658;-0.0065366523;-0.014380961;-0.03904946;-0.049983967;0.03751266;-0.033865757;-0.07541927;0.0643119;0.04407373;-0.06416224;-0.05375015;-0.059893824;-0.03811618;-0.0014434037;-0.12420332;-0.013432893;0.04479221;0.054374456;-0.08215842;-0.013186763;-0.06934489;0.05755281;-0.038414676;-0.037536696;-0.052639462;0.047710713;0.079652905;-0.0751218;-0.0104769915;-0.033416674;-0.041363046;-0.0073878355;-0.061760515;0.14850943;-0.14669833;0.062016696;0.021658758;0.01676835;-0.0732129;-0.0062007173;-0.019251013;-0.12701166;0.039067112;0.05948995;0.05646563;-0.05692604;-0.013571073;-0.050362557;-0.041313082;-0.030902645;-0.09924333;0.023625256;0.016160337;0.10949481;-0.08849466;-0.115325846;0.060062487;-0.031510487;-0.07022766;0.04447366;0.040915966;-0.07347032;-0.08082068;-0.1237227;0.16531149;0.010537413;0.039811797;0.01330928;-0.06355417;-0.15304422;-0.18166308;0.026652751;0.0063869967;0.016631398;0.13298109;0.061996322;0.045989487;-0.08594669;-0.06013766;-0.006628572;0.018727502;0.027685542;0.04985592;0.038988262;0.029540267;0.16162929;-0.03891792;-0.016654706;0.00804806;-0.06901877;-0.27282524;0.06911427;0.14533377;-0.17113857;0.1720232;-0.030158535;0.10452567;0.06369952;0.09945233;-0.07346074;-0.14015837;-0.122863725;-0.027700152;-0.16925721;-0.04625392;0.04126588;0.052252945;-0.0755665;0.036342006;-0.024659691;-0.05203497;0.06035291;-0.14942771;-0.08682709;-0.034414507;-0.04475744;-0.006663684;0.018220328;0.029988922;0.10388474;0.112725206;0.034935687;0.08594344;0.0024528683;0.016095689;-0.15614109;0.14917526;-0.014906842;-0.0313345;0.05679681;-0.10269066;-0.0024001892;-0.03067313;-0.030102499;-0.03642772;0.08019553;-0.038797688;0.032205958;0.014516291;-0.1591451;0.0052713687;-0.091358;-0.004315757;0.020483227;0.12572275;0.0535699;0.14999107;0.028924076;-0.095963456;-0.02130057;-0.032830834;0.11409604;-0.09681116;-0.006426094;-0.0036403313;-0.022035193;-0.087137766;0.034442466;0.11006615;-0.07129744;0.02910692;0.0032718692;0.33366495;-0.025011582;-0.0866729;-0.034274545;0.046837438;0.0135539705;0.07497177;-0.094326936;-0.007274036;-0.1315093;0.06211044;-0.044785503;-0.020403964;-0.017090859;-0.017459238;-0.08142116;0.19532216;-0.06857577;0.029834423;-0.021180566;-0.0052145706;-0.01862833;-0.044485234;0.024623396;-0.030531218;-0.21936843;-0.034927014;0.2368705;-0.041643027;0.07551813;-0.04444131;-0.068723194;0.014139292;0.06536203;0.011400403;-0.028315611;-0.044599935;0.051043335;0.0056721573;0.00096073264;-0.10758383;0.13732511;-0.040160168;0.017489213;0.07432654;0.08960977;-0.013546478;-0.1496412;0.110809;0.021085767;-0.06475338;-0.051756304;-0.0074584684;0.04022543;-0.070025325;0.0030090297;-0.0845698;-0.040166974;0.015179487;-0.038657848;0.04823793;-0.014989778;-0.067481846;-0.09617809;-0.09834448;-0.074858926;-0.2627364;0.1054251;0.10244543;0.014518795;-0.20606525;0.029989937;-0.08572692;-0.022684313;-0.1483443;-0.1324796;-0.13663591;0.016580025;0.0045223343;-0.054823756;-0.013959009;0.025605995;0.2950826;-0.017597722;-0.054431617;-0.026925212;0.10400131;0.22367704;0.06757398;0.02878095;-0.1699111;0.023275904;-0.02669648;0.011712507;-0.0057272855;-0.12764911;0.03331102;-0.0038168249;0.027903583;0.037462667;0.01898034;0.017444735;-0.03177305;0.01793582;-0.09681017;0.12093571;0.024969688;-0.011667482;0.114283316;0.019055087;0.019199442;-0.09118371;0.034979235;0.05014555;-0.02244075;-0.10534611;-0.063433506;-0.17865747;0.030319868;-0.08281234;0.08898479;-0.16282658;0.077467576;-0.022739183;-0.067841336;0.03794445;0.03404267;-0.013248876;0.011342468;-0.02284446;-0.0687091;0.07913393;-0.015078395;-0.0067516235;0.009349678;0.001888559;0.041057203;-0.06925615;-0.038181014;0.10723693;0.003481846;-0.09370465;0.23948781;-0.017172508;-0.26313218;0.045202646;0.008098879;-0.06392687;0.124432854;0.15263747;-0.037786197;-0.03877743;0.0043088854;-0.12034794;0.070408754;0.07121965;-0.032201294;-0.08289089;0.021333175;0.086745456;-0.050489277;0.306158;0.05287637;0.014714471;-0.07814971;-0.15507926;-0.10050079;-0.06003167;-0.043485526;-0.09177877;-0.09515361;-0.03797416;0.06494141;-0.12234898;-0.0025909978;-0.0364265;-0.0041821036;-0.06101669;-0.04493275;-0.057287138;-0.039640676;-0.03149813;-0.087609835;-0.13242935;-0.014028811;0.05954046;-0.048077997;-0.06900233;0.021228677;-0.032764032;-0.14895092;0.0064012134;-0.011890019;-0.049735844;-0.0010206774;0.07180634;0.04349038;0.08288315;0.061404236;0.13871421;-0.07187948;-0.07981646;-0.026111878;0.07818337;0.18364985;-0.011143971;-0.025009353;-0.056471843;-0.020327644
-0.18219683;0.105301976;0.13101177;0.037216272;-0.11112508;-0.06446317;-0.048924755;-0.1390564;-0.004365634;-0.045722306;-0.05468804;0.07188789;-0.004120873;-0.011686826;0.030297874;0.091752365;0.0827792;-0.049472723;-0.019347169;-0.124737516;-0.33495793;-0.019541187;0.04328821;-0.024909465;-0.003620211;-0.17794317;-0.14049533;0.118292704;-0.110197864;0.06994165;0.086262;0.21275544;-0.017240273;0.21120498;-0.16892049;-0.04948015;-0.12797807;0.043204702;-0.04521653;-0.019468162;0.07076093;-0.10523302;0.14307326;0.034418724;-0.08010126;-0.11516624;-0.04408056;-0.015845943;0.07038327;-0.041270476;0.05020045;0.11004312;0.07376466;-0.08168977;0.07478705;-0.114048965;0.05506579;-0.000241514;-0.0707198;-0.19750226;0.14617679;-0.16231784;-0.16411053;0.12848854;0.08605469;-0.057265207;-0.011266085;-0.06362726;-0.024601037;-0.018282222;0.007061741;-0.021397498;-0.3530274;-0.06643314;0.15115486;-0.2101257;0.019610757;-0.027173324;-0.03516542;-0.016627485;0.07206903;0.065564916;0.03625897;-0.081248164;0.010020287;0.014053367;0.02557593;0.083739415;0.0016757324;-0.12006141;-0.07753903;0.06422392;-0.0077622123;0.052204456;0.042637996;0.029873405;0.19849782;0.05991113;-0.08263627;0.045540284;-0.13281569;0.02087874;0.09037501;-0.052943107;0.07304913;-0.09230374;-0.043262105;0.120889865;0.2138196;0.018822588;-0.097525194;0.09088296;0.012062296;-0.0025331432;0.08852604;0.085344665;-0.07438175;0.029575963;0.03519278;0.05630432;0.12452928;0.09281949;-0.046554454;0.025354443;0.066659935;-0.14054471;0.2946619;0.009494125;0.016276928;-0.0221793;0.06829269;0.009259753;-0.096436925;0.040591396;-0.14895597;0.04931693;-0.09904001;-0.07229636;-0.09071912;0.088219926;-0.027996758;0.12058782;0.12227038;-0.06586984;-0.061026026;-0.047329076;-0.024721067;0.015696537;0.17348681;0.15504047;0.01597384;0.043569192;0.019969761;0.016660923;0.0043948987;-0.17264618;-0.05131489;-0.1234969;0.03423219;0.061092224;-0.085356385;-0.059897486;0.04319756;-0.46151933;0.0047479775;-0.07222007;-0.039637573;0.036381472;-0.04077552;-0.0056691826;-0.105304964;0.14095406;0.04012555;-0.0011505852;0.016960504;-0.09662128;-0.0065667685;0.23835172;0.040854298;-0.038898546;-0.00584808;-0.102856085;0.30944118;-0.10392921;-0.031633157;-0.067458466;-0.03874621;0.0777804;0.07936502;-0.063562036;-0.017476836;0.008224675;-0.0015636045;-0.04410857;0.09807333;-0.04719266;-0.03829472;0.039690617;-0.018480415;0.046827957;-0.04758255;0.09762612;0.02160857;0.028300613;-0.06608973;0.016390547;-0.012460451;0.0074719503;-0.037703376;0.046563387;5.0796145e-05;-0.043503463;0.040496796;0.04689355;-0.00761428;0.09155284;0.10556457;-0.060816504;0.032735594;-0.065577336;0.012904639;-2.3215845e-05;-0.030353125;-0.07090039;0.039050873;-0.07220163;0.070278235;0.0073767286;0.051042624;-0.0743581;-0.13007148;0.03015763;0.05117497;-0.008839393;0.010979713;0.047351506;-0.005370958;-0.020285724;0.03738712;-0.14890052;-0.039395597;0.00503835;-0.009558117;0.025620162;0.06124737;0.025388211;0.007896144;-0.00015898648;0.18025225;0.02648286;-0.059210222;-0.04190051;-0.027486978;-0.13112634;-0.06563117;-0.004575574;0.07578925;-0.023264227;-0.01541751;-0.01796029;0.036349673;-0.014658292;-0.10180117;-0.061698623;-0.032600872;0.1372231;0.032016043;0.05651531;-0.0225099;0.19250178;0.036068544;0.03822878;-0.018652355;-0.0025528006;-0.03574377;-0.13012229;0.01704335;0.0068870964;0.0055478066;0.21337625;-0.050356284;-0.055679016;0.050694395;-0.08111158;-0.031238882;-0.0013149021;0.0019720355;0.078462124;0.18308833;0.06975702;0.2484589;-0.08198275;-0.05376144;0.009583996;0.034409687;-0.08155265;-0.05197515;-0.19706172;-0.08460717;0.3108711;0.020093571;0.028796336;-0.081144266;0.05827206;-0.024848068;-0.24439229;0.14605865;-0.044956677;-0.123225875;0.02097639;0.08880582;0.057403192;-0.041254655;-0.05546934;-0.27084178;-0.11070917;0.08222445;0.038086984;0.0066292463;-0.07871605;-0.04478143;0.16460437;-0.05172952;0.0001636447;0.07390409;0.10964394;0.0043589883;0.054623555;0.08251469;0.02636623;-0.06807919;0.12885423;0.024905808;0.06285852;0.10667966;-0.016772103;-0.06457025;-0.066682994;-0.0899143;-0.08372928;0.08876048;-0.0040123034;-0.035025276;0.08670271;-0.05628136;-0.014118285;0.06886312;-0.0064261714;-0.04553831;0.19937211;0.025568174;0.088006236;0.08159204;-0.024115117;0.08430421;0.044492755;0.15374987;-0.18550444;0.13984247;-0.041117564;0.044038694;-0.08902757;0.029638413;0.19401279;-0.018698104;0.003843406;0.02781425;0.114852905;-0.021976752;-0.11393977;-0.080340065;0.058500867;0.014201273;-0.074737966;-0.077039205;0.023277082;-0.10130712;-0.18489766;-0.0008407253;0.015622239;0.03242887;-0.045686707;-0.1183187;-0.011475971;0.0227353;0.03640009;-0.12408969;-0.06258727;0.07943166;0.034210995;-0.005730576;-0.0277685;-0.26674524;0.16223344;0.14155117;0.008004996;0.08655107;-0.047108486;-0.0163221;0.0131659275;0.007660601;-0.07382705;0.01987547;0.06872616;-0.059928223;0.017285129;0.08075376;-0.026233304;0.093945466;0.07571365;-0.049554408;0.050823025;0.044897366;-0.060015347;-0.09751613;0.06450791;-0.008640552;-0.059239533;0.07730058;-0.14309117;0.01252845;0.11759456;0.021575987;-0.07615008;-0.013678403;-0.02244277;0.12023864;-0.07860797;-0.20051396;0.030508474;-0.10801028;-0.41302818;-0.080369785;-0.09976477;0.13840282;-0.061153755;-0.030237278;-0.2216914;-0.019049685;-0.31507173;-0.07617941;-0.13496669;0.009944251;0.047607657;0.11370641;-0.023553474;0.07329586;0.05454245;-0.023181632;0.2809449;0.055095628;0.0006433303;-0.040440854;0.08799268;0.20769691;0.03773489;-0.09028809;-0.07662472;0.028343132;-0.0899424;-0.03817381;3.9880968e-05;0.053251356;-0.0033696648;0.085663915;-0.008765587;-0.055616368;0.06153337;0.1359037;-0.06986262;-0.05593241;-0.07182479;0.10479806;0.044368275;-0.034666833;-0.015015447;-0.0047240662;-0.058760192;-0.02790485;0.008248066;0.040850952;-0.028092643;-0.11944876;0.07428889;-0.1872747;-0.046167858;-0.08416321;-0.01951369;-0.07568252;0.0020578871;0.0034834698;-0.0313177;0.16086525;0.065567136;0.016834874;0.020390859;-0.092689686;-0.067263275;-0.10043545;0.1058509;-0.025969965;-0.04998394;0.024046427;0.008765458;-0.12288058;-0.10028069;-0.023164876;-0.0055160886;-0.058742605;0.1312697;-0.042230994;-0.15065768;-0.040576026;-0.20161729;-0.0065031713;-0.07407748;0.10209436;-0.052332953;0.041714415;-0.0695978;-0.037199512;-0.03379061;0.036828674;-0.06130104;-0.002943133;0.019908693;-0.046252955;-0.09527322;0.054583743;0.025751876;0.033731956;-0.047932167;-0.29696828;-0.2175119;0.02626993;-0.008193562;-0.14255108;-0.028744442;-0.05654141;0.059096154;-0.096060485;0.052156743;0.0034252862;-0.03643205;-0.06466075;-0.0532088;0.0367933;-0.061036054;-0.092809506;-0.08196806;-0.13193747;-0.01901954;-0.1330267;-0.066446796;-0.0006021483;0.0051421723;0.07751059;-0.13079846;0.028142244;0.06615327;0.017852487;-0.17202936;-0.072962515;-0.059360664;-0.060035143;0.1732032;-0.023353923;-0.05164622;-0.44563508;-0.08349634;0.036652677;0.083009966;-0.09761809;-0.04778613;-0.034876473;-0.08771154
-0.1543958;0.086688876;0.1716394;0.021008372;-0.04891678;-0.021392744;0.0124929035;-0.062148884;0.06952476;0.059846148;0.0650036;-0.004652211;-0.13841823;0.06692845;-0.0049981303;-0.01730607;0.0982988;0.1249499;0.022793584;0.009682115;-0.19674529;0.20075606;0.09209616;-0.12845506;-0.0051662596;-0.06605619;-0.053013526;-0.01647042;-0.013212802;0.15770538;0.00733118;0.20051868;-0.07151664;0.13478628;0.21199957;-0.01924235;-0.1610954;0.028976768;0.14597163;0.060100615;0.022910217;-0.091175616;0.087900914;0.060244005;0.20448601;-0.19191054;-0.055648003;-0.007494091;-0.013380413;-0.120534524;0.05796894;-0.01117161;-0.011217974;-0.23735788;0.02671542;-0.22276421;-0.07174612;0.019422337;-0.009789887;-0.26803693;-0.05067803;0.05194191;-0.21452057;-0.037066367;0.22852507;0.10544982;0.06885229;-0.0009550962;0.012471999;-0.033248156;-0.06805252;0.07708176;0.36355802;0.0042940266;0.052352026;0.24176662;0.03508133;0.024394978;0.081316315;-0.045761973;0.06777084;0.07379384;0.114589415;-0.040114913;0.14086549;0.0101864375;-0.046918545;0.10487664;-0.05485951;-0.061838966;0.038511872;-0.026354812;0.06650762;0.114110574;0.14043552;0.016185138;0.015735844;0.049832348;0.10372358;-0.06256014;0.027396167;-0.030626286;0.030752879;-0.023272578;-0.07869187;-0.07514808;0.062820725;0.097628735;0.17147587;-0.123733714;0.14516008;0.005596262;0.0677043;0.0027692288;0.056062866;-0.021978008;-0.008485888;0.091452986;0.029427452;-0.09982736;-0.06276167;-0.03454686;-0.13176943;0.064556815;-0.049199235;0.06839524;0.23056234;-0.06817724;0.09774276;-0.003859015;0.055704013;0.08308941;0.015329344;0.027964309;0.11133551;0.007827348;-0.12897176;-0.16030025;-0.0033662296;0.012776519;0.06377685;0.12340347;0.056706235;0.016924806;0.018788632;0.020792305;-0.013792281;0.008836638;0.024073515;0.015350864;0.098398305;0.07992277;-0.12943685;0.14036585;-0.039984863;0.038122874;-0.027120112;-0.1569827;-0.035468414;0.09147674;-0.13126099;-0.095476605;-0.026086513;-0.2866618;-0.025458181;0.06826337;-0.024161233;0.093076386;0.069866106;-0.0017763898;-0.056234807;0.04851875;-0.07504832;0.105174765;-0.010555568;0.0003136934;-0.018407585;0.19862391;0.07932869;0.03213132;-0.08694102;-0.047300424;-0.029265074;-0.06482134;0.06686315;-0.0415591;-0.14685845;-0.025338396;-0.06447441;0.013315341;0.12393623;0.054222103;0.07146336;-0.048976723;0.19594502;-0.025486408;-0.087076664;0.07993644;-0.09415654;-0.098478995;-0.09592714;-0.09111102;0.048885014;-0.07961187;-0.03050604;0.00023948358;-0.03697836;0.055049263;0.04661535;0.03819243;0.08988758;-0.008800189;0.075021505;-0.023283942;-0.00027430127;-0.010374156;-0.030811865;0.11602064;0.018678378;-0.03430769;0.12799104;-0.097037524;-0.044879764;0.050758097;-0.0712581;-0.044810157;0.010453978;-0.030191118;-0.034395162;0.03423591;0.068200186;0.13443212;-0.20293027;-0.011026401;-0.036760453;0.0017036658;-0.019827053;0.07093344;-0.17349292;-0.257312;0.015189839;-0.021967525;0.041261464;0.13876013;-0.08395355;-0.09765504;0.09637127;-0.0653294;0.021995392;-0.07959757;-0.023268705;0.13006759;0.024333527;-0.01774471;0.03955685;0.05148522;0.036523983;-0.04113;0.045066267;0.09355944;-0.032797012;-0.029825816;-0.0042755995;-0.11818514;-0.17181052;-0.10576573;-0.03280034;0.060391746;0.039942835;-0.06376786;0.060708974;-0.00051752356;0.04029738;0.016621623;-0.1361084;-0.11984135;-0.033900846;-0.10024525;0.048295587;0.09154019;-0.14213508;0.038111884;-0.12743188;0.053227413;0.08377969;0.03818164;0.0006915459;0.054174118;0.087748475;-0.018109184;-0.03519525;0.06153487;-0.043671615;-0.045652516;0.32771048;-0.29505968;-0.019283604;-0.011729226;0.07332875;0.14288975;0.00641181;0.06832705;-0.013352443;-0.2308333;0.14489438;-0.24272342;0.0038015405;0.020594358;-0.09342033;-0.08837339;-0.04976011;-0.024941294;0.030840056;-0.0075914683;-0.14363106;-0.12193519;0.014932768;-0.14787485;0.04054609;-0.028612308;0.10060533;0.09057389;0.014608209;-0.14417492;0.046408657;0.02974496;0.01269553;-0.03380613;-0.07070944;-0.024765182;-0.04411593;0.16550258;-0.054856323;0.005836087;0.027448611;0.16090597;-0.20142776;-0.0036578279;0.026120247;-0.0897185;0.17101596;0.12018626;-0.012691542;0.015479995;-0.22063035;-0.01647402;-0.009433171;-0.1171937;0.04401416;-0.26293764;0.08402561;0.07347001;0.0025740785;-0.01709076;0.04212468;-0.15490249;0.19594236;-0.26947048;0.21968248;-0.044313315;-0.0076161693;-0.05149882;0.026731256;-0.019086665;-0.02456259;0.0228739;-0.080458514;0.066666156;-0.0700273;-0.14922473;-0.024826245;-0.094476126;0.057096113;-0.0072660963;-0.16789414;-0.049647316;-0.05866378;0.23153596;-0.059254363;0.0002659672;-0.07504379;-0.16891794;-0.13654822;-0.04471922;-0.13752486;-0.07114649;0.18174826;0.13015033;-0.00771293;-0.095108494;0.04813619;-0.2731582;0.119897276;-0.14952806;0.040501036;0.0063619604;-0.021800173;0.054919034;-0.20591886;-0.10324299;-0.0019616873;-0.06679103;-0.0061505;-0.05802168;-0.07675578;-0.07092686;0.092282735;0.16849147;0.089703366;0.06300485;0.004035131;-0.021258006;0.070401795;0.15229382;-0.11808597;0.12831242;0.08166151;-0.023115043;-0.13564731;0.039172724;-0.11076132;0.116302334;0.018098332;-0.1191364;0.0644728;0.07405062;-0.043071233;0.11638513;-0.14990945;-0.017344;-0.055795092;-0.23679751;-0.001035443;0.11266163;0.15468137;-0.06974071;0.06374924;-0.1324967;-0.07799548;-0.09937831;0.017495632;-0.08949518;-0.09191024;-0.0130400285;0.14626338;-0.021769024;-0.070064425;-0.013976577;0.011838747;0.023565276;0.03183009;-0.05746286;0.19981551;-0.020942615;0.23052318;-0.034924924;0.036250997;-0.15501949;-0.032585956;0.08051215;0.1368034;0.026045686;-0.009842869;0.102539085;0.083051495;-0.0413341;0.0037655116;0.08676066;0.10669184;0.044209555;0.0064444467;0.020949524;0.3505193;-0.14164242;-0.034442667;0.12809975;-0.023640282;0.020328285;0.025659475;-0.19363673;-0.03426134;0.08080705;-0.20600085;-0.029296117;0.27595136;0.030743722;0.12018472;-0.0349493;-0.13227749;0.01874787;-0.022295741;-0.04940349;-0.034485076;-0.037188437;-0.021147778;0.1819678;0.089627355;-0.049644947;0.031761438;0.18796754;0.011415583;-0.018994093;-0.00011411391;-0.09175398;-0.12325591;-0.005097036;0.08779871;0.011931436;0.032822635;0.27945456;0.050738275;-0.33776715;0.042476527;0.16440941;0.00014801047;0.023650182;0.08866032;-0.066400364;-0.032828152;0.07237268;-0.0021053052;0.08263403;0.0091430135;-0.07704449;-0.11230073;0.026056003;-0.046483595;0.045162145;0.06382604;-0.07178247;-0.069281526;0.13917671;-0.3119699;-0.14729486;0.018988669;-0.0917203;-0.08525234;-0.03085449;-0.053884026;-0.05330182;0.10897033;-0.037983697;-0.17639288;-0.13616107;-0.015877198;0.15023427;-0.031256925;-0.039610177;-0.08115704;7.82259e-05;0.11459521;-0.02767146;-0.14159198;0.073143296;-0.0055162036;-0.012648245;0.04068079;0.2187166;-0.09893643;-0.0078981975;-0.11320297;0.2144571;-0.025210554;-0.12682277;0.046334255;0.1821088;0.14137624;-0.0077214874;-0.22454561;-0.005872889;-0.039491244;0.28913394;-0.0150916185;0.039900016;0.024743687;0.096272364
-0.32180038;0.122492425;0.13800028;0.034921516;-0.037129503;0.07329732;-0.105144985;0.029928992;-0.049807373;0.02709374;-0.08422575;-0.0082316855;0.05905369;0.0802382;-0.07595709;-0.047608998;0.1653074;-0.2674722;0.06692582;0.020367831;-0.29009494;-0.0028612104;-0.02768945;0.065947786;0.15452723;-0.00596102;-0.069575116;0.05832406;0.004896388;0.41632745;0.0060536065;0.34585157;0.022690224;0.09929021;-0.12931053;-0.16939284;-0.029474908;0.018443562;0.022154547;-0.07396161;0.079065904;0.023435026;0.01189404;0.1657461;-0.13729785;-0.0812474;0.031401187;-0.012459139;0.15317453;-0.16214848;-0.05389456;0.21045539;-0.05750766;-0.47267067;-0.05990654;-0.23197873;0.14334615;0.14900026;-0.026070956;-0.32984757;-0.17419489;-0.071783684;-0.16403347;-0.08081717;0.17248406;-0.0037644296;0.035805896;-0.08523961;0.015428905;0.016022205;-0.05240016;-0.081299014;-0.27680776;0.04777399;0.19721262;-0.1904276;-0.050127134;-0.019500276;0.009592788;-0.103695646;0.011086351;0.19855897;-0.09986505;0.045145735;-0.0012659784;-0.06341143;0.014345011;-0.18159555;-0.0047514685;-0.02891344;0.010935813;-0.0766229;0.1473434;0.18203753;-0.034789704;-0.00952142;-0.086944215;0.01448756;0.03605943;-0.009828313;-0.02631114;0.014173702;0.20511585;0.05816739;-0.019287452;-0.1794631;-0.019603549;0.016644308;0.11302904;0.036934942;-0.05054709;0.038674373;0.024752831;-0.01763224;-0.069576025;-0.01371805;0.03394085;0.024945745;0.041345246;-0.0977997;0.14974096;0.058474552;-0.1551919;-0.019518245;0.08850537;-0.059777994;0.26924482;-0.028374547;0.03318279;0.009965173;0.08164888;0.1438911;-0.031542964;-0.008842323;0.021762805;0.06548869;-0.081048355;-0.15395434;0.023584029;0.031750567;0.050717432;0.07921954;0.19087006;-0.028487416;0.04213373;0.05222638;0.08265572;-0.036613297;0.08556697;-0.08249615;-0.049350105;-0.020430857;0.05844736;-0.08072367;-0.039681524;-0.14530313;-0.025357258;-0.29798493;-0.012606183;-0.048158824;-0.14628778;0.043373946;-0.049049225;-0.065404534;0.12112129;-0.09122521;0.045400534;0.0944481;-0.13102815;0.09906724;-0.08661407;0.014384194;0.13104133;-0.11089276;-0.01077422;-0.12487443;0.14815117;0.36416763;0.11570124;0.05398329;-0.27759784;-0.029182915;-0.07342346;-0.057182703;0.06053069;0.17283988;-0.07435012;-0.07874074;-0.04862478;-0.029827727;0.08700623;0.023248613;0.03696377;0.076254696;0.15852575;-0.28821793;0.011360407;-0.0547581;-0.044591688;0.07267724;-0.019310575;0.058522437;-0.028949982;0.006428952;-0.038264032;-0.10237275;0.03501592;-0.16640685;-0.025673091;-0.0052817645;0.0863316;0.047999613;-0.030328834;0.051756505;-0.06713625;-0.059615027;0.08292916;0.055251297;0.062162593;0.018519994;0.060820606;-0.029523278;-0.011687908;0.012557244;-0.08253821;-0.049297377;0.0015107795;-0.10739451;0.0052133957;0.056926545;-0.054814685;0.09643079;-0.14187329;-0.07020872;0.0027921672;-0.01554825;0.025026945;0.038112514;0.0006151192;-0.37484998;-0.1370342;-0.056341905;-0.03986713;0.20712511;-0.14052205;-0.005361985;-0.048010994;-0.1369944;0.13508736;0.010634659;-0.008799315;-0.00027103967;-0.045824375;-0.30121636;0.014374207;0.07816387;0.01523231;-0.011129439;-0.11889452;0.00825109;0.09322677;-0.008215141;-0.046720304;-0.11760128;0.05278516;0.014243305;0.047113314;-0.057614263;0.080376394;-0.081446886;-0.009860332;0.041587263;-0.019688297;-0.02178732;-0.08266791;-0.18630022;-0.044812232;0.07378593;0.07768813;0.143521;0.038717523;-0.1507101;-0.12011486;0.018711418;0.11812851;0.03949214;0.049170714;0.05320129;0.06415896;0.043029122;0.02026157;0.05130437;0.090515636;0.081246756;0.19570267;-0.09825911;0.047165923;-0.11538701;-0.11176198;0.15407114;-0.079186045;-0.072413966;-0.0724819;-0.11462309;-0.1123451;-0.34384155;0.23241313;-0.06358526;-0.14397193;-0.02981204;-0.007059361;-0.09335442;0.02784366;0.09385928;-0.1406243;-0.14414027;0.08911027;0.080738045;0.035266116;-0.030908061;-0.017856808;0.20170608;-0.08987405;0.024578815;0.10051859;0.22884582;-0.0070823855;-0.036447924;-0.0018472763;-0.07306541;0.17192766;0.10763835;-0.0074835266;0.062239952;0.10694206;0.17074044;0.098287806;0.0683695;0.0032992861;0.004675116;-0.054448675;-0.015955051;-0.047871444;0.05506353;-0.14871086;-0.006083765;0.032581836;-0.042696603;-0.07886041;0.07386256;-0.08136264;0.04604461;0.039297517;-0.030962698;0.08422376;-0.28035945;0.031593;-0.20283635;0.13251434;-0.010487128;0.06093796;0.018259665;-0.064904764;-0.025006764;0.08144072;0.0045097205;0.0024558238;-0.26169297;0.045155965;-0.0569688;-0.089556284;0.12940234;-0.021814022;-0.06330132;-0.065861;-0.06646108;-0.017262274;-0.109258845;0.04673221;0.033938643;-0.037763696;0.06498499;0.078951836;-0.25638017;0.07314964;0.016858792;-0.15535718;-0.111304544;0.0056081973;0.06332185;0.051711604;-0.25620517;-0.25029072;-0.08002271;0.115823306;0.042021614;0.034779534;-0.09016321;-0.042418458;-0.08540279;-0.0353623;0.03516393;0.079692416;-0.020189444;0.0013649553;0.18294752;-0.09173891;0.024988992;-0.0026348121;-0.034074057;0.040761396;0.008098102;-0.03213115;-0.06262574;-0.1568891;0.039415184;0.012575081;0.030218402;0.019719895;-0.040321834;0.0853723;0.2653755;-0.05311497;0.07485427;0.0026954357;0.012943564;0.026381187;0.011618949;-0.0027889623;0.08076412;0.020293992;-0.20849644;0.05548172;0.3129281;0.046047706;-0.1079711;0.03256201;-0.23660238;0.079471625;-0.04245041;0.0050115255;-0.023091616;0.20211188;0.20333667;0.26672366;0.099232145;0.0695531;-0.042921565;0.053971764;-0.09389025;-0.02910411;-0.009586667;0.039765503;-0.027779393;0.18615943;0.05383514;0.017176917;0.032263648;0.09177877;-0.10171341;0.00029581113;0.049480874;-0.074791476;0.11188303;-0.03640847;0.01659019;0.01854964;-0.009711671;0.09375036;0.07420904;-0.14321016;0.052109085;-0.15204623;-0.11123642;-0.044453956;0.007417429;0.035387956;0.061381415;0.017150346;-0.17677635;-0.05057372;-0.057401147;-0.04413052;0.049711116;-0.073119216;-0.053260546;-0.03286143;-0.11855705;-0.042880934;-0.0035669128;0.03540542;0.05374251;0.19580542;-0.03001273;-0.034956917;-0.02045527;-0.06053107;-0.06603966;0.025418498;0.26785764;0.018351058;0.018366247;0.041531608;-0.08027524;-0.17020513;-0.13904564;0.0358416;0.040112827;-0.060627103;0.19311719;-0.10299188;-0.20894164;-0.038944364;-0.064039014;0.031855054;-0.03482355;0.17322046;-0.11376661;-0.0657797;-0.046621818;-0.092183724;-0.019886388;-0.12135319;0.034891006;-0.034173403;-9.3725204e-05;0.012067283;0.11996607;-0.25842148;-0.09860739;-0.1706212;0.09889578;-0.18884602;-0.025153976;-0.039580934;-0.11812263;-0.124578394;-0.045943145;0.07408806;-0.050811168;0.041142628;-0.016193477;-0.10555088;0.0031911335;-0.013905406;0.022422599;-0.07255716;0.11613217;-0.07456844;0.031454884;0.00145952;0.04691897;-0.21587564;0.03372978;-0.013056397;-0.101714626;0.17584595;-0.07391694;-0.06926188;-0.05550947;-0.077461585;-0.0376116;0.040091287;-1.1756492e-05;-0.07541926;0.20388857;-0.056731936;-0.009433877;-0.07956322;-0.05379713;-0.055778265;0.09138879;-0.16335987;0.023614803;0.18351813;-0.16898322
-0.45118222;0.24013494;0.17361031;-0.028232848;0.0117988065;0.05652631;0.10874298;0.0014672844;0.068537764;0.112604536;-0.08661957;0.016123185;0.047320675;-0.03615695;0.046836864;-0.061086398;0.106031924;-0.20709291;0.11886079;0.12321342;0.14171505;0.13530031;-0.051264822;-0.05929037;0.118586086;-0.04244639;0.038728476;0.03425721;-0.091285914;0.09727687;0.08934043;0.21765251;-0.084458835;0.18645525;0.088171326;-0.17466438;0.027559197;0.021066608;0.020624556;0.00904714;-0.0047619194;0.0019611446;0.004034494;0.00016727534;3.8989558e-05;-0.11501723;-0.09105018;-0.03561816;0.051863335;0.06645591;-0.029387623;-0.018370997;0.018428743;-0.22870989;-0.032872573;0.07473438;-0.06554735;-0.050034743;0.026490046;-0.14380127;-0.072376646;-0.04940112;0.01907165;-0.14010742;0.1628578;0.044345144;-0.00907611;0.087405235;0.00071170344;0.008695382;-0.016529487;-0.0627289;0.01962943;0.06679888;0.107432865;0.2248707;-0.046123214;0.010958449;-0.006893107;0.06145839;0.04891867;0.062853925;0.13684084;0.05722722;0.08188216;0.04232969;-0.086051814;-0.11239031;0.003356198;0.0070142914;0.0320338;0.00611533;0.07614658;0.13834032;0.03837728;-0.07254153;0.07656773;-0.06587989;0.106357455;-0.07945883;-0.10743852;-0.052077703;-0.072055936;-0.064330496;0.015222259;-0.10592072;-0.039573673;0.011674914;-0.025719156;-0.08638624;0.11520797;0.005642022;-0.026352143;0.13297956;-0.03390404;-0.020374043;-0.049588446;0.05594545;0.039158937;0.021845168;-0.042369418;0.06361939;-0.10942793;-0.08246346;0.043946356;-0.101864025;0.12871788;-0.0527521;-0.08048733;0.14686438;-0.018405337;0.084258445;0.0024785958;-0.07973308;0.0019355378;-0.028953463;0.111406624;0.14912814;0.031038513;0.17575142;-0.048345644;0.046783328;0.14710627;-0.020427326;0.03246312;-0.055863965;-0.0140067;-0.03494356;0.13382734;-0.04522176;-0.10253892;-0.09270464;-0.012661335;0.06016245;-0.02878165;0.0619851;-0.0040683416;0.06666406;0.042140085;0.06698028;0.04154062;0.045121655;-0.008744202;-0.37395012;0.113227546;-0.067341134;-0.0012542299;-0.02350188;-0.115247354;-0.060283694;-0.0033627555;0.016508263;0.09190246;0.23180117;0.029144108;0.061762705;-0.04089217;0.05733636;0.038054954;-0.016475374;-0.3104185;-0.009006706;-0.061269954;-0.105837874;-0.01886425;-0.11656768;-0.11408162;0.0658883;-0.05275726;-0.030917514;-0.116519876;0.0002716889;0.02860758;-0.021633768;0.22693183;-0.20670252;-0.024134532;-0.088498935;-0.026915997;0.04717166;0.07818366;-0.04398333;-0.054395188;-0.0056864745;-0.008583416;-0.06982366;-0.014811322;0.092831895;0.03983914;-0.019394375;-0.09714394;-0.070286915;-0.003377008;0.031610057;-0.013888946;0.060006056;-0.07398198;0.12599587;-0.034085423;0.026106216;0.041843105;0.0150514785;-0.10852706;0.06401755;0.018992756;0.006163689;-0.01647461;0.11409036;-0.06693157;-0.042826075;-0.02115054;0.057385713;-0.0362465;-0.08562455;0.0065644043;0.08896023;0.07146501;0.122204125;-0.22851148;0.0193948;-0.030543383;-0.033011463;-0.10747946;-0.10146189;-0.02967148;0.08744595;0.020212142;-0.029016303;0.07069302;0.0411567;0.0020427376;-0.06435233;-0.00633289;0.007566498;0.0035653024;-0.051374793;0.0036679849;-0.063366726;0.041014083;-0.030207135;0.028148877;-0.023184435;-0.003839288;0.06793725;0.0680002;0.09965443;0.11344632;0.02175554;0.072860196;-0.10097857;0.009787081;-0.028054204;-0.0024819768;0.009307191;0.019608973;0.02590506;0.071840085;-0.026379425;-0.03463188;0.038233344;-0.038220115;-0.0688094;-0.004833644;0.013645211;-0.07575232;0.03218214;-0.028093504;0.014285905;0.11533514;-0.0828007;-0.06038239;-0.023110332;0.12554982;-0.046276134;0.18310231;0.014914738;0.023730554;-0.19839871;0.07154909;0.056859005;-0.012356275;-0.118301645;-0.051035654;-0.034908492;-0.050729178;0.020480823;-0.078490414;-0.047011204;0.08251783;0.113234766;0.07934721;-0.031116184;-0.08659234;-0.082561865;-0.14124668;-0.0957894;-0.056536045;-0.03169291;0.03684926;-0.0009991752;-0.0191705;0.06137806;0.029494796;-0.11111596;-0.06343038;0.015099837;0.041652612;-0.074426934;0.055723917;0.004921206;0.098819904;0.0924184;-0.079149194;0.05829569;-0.015375465;0.019665923;0.047669172;-0.01240466;-0.0018404775;0.018262504;-0.13702494;-0.01643726;-0.05089999;0.0014073417;-0.0046045454;-0.09566061;-0.027284013;0.07911104;0.052707672;-0.07583299;-0.080920584;-0.03524865;-0.04024659;-0.0049623037;0.027485212;-0.053991728;0.0653456;-0.37345272;0.09243457;0.054051027;-0.07717572;0.03365089;-0.07303712;0.06662764;0.008731544;0.08592447;-0.053746715;-0.31388417;0.00048248618;0.21075067;-0.011778576;0.016706698;0.0640301;0.09381148;-0.020789493;0.050459847;0.03669966;0.084085;-0.043026;0.025966637;0.0022526917;-0.07392607;-0.028556222;-0.32992476;0.100781344;0.05889363;0.032491628;0.0012690418;-0.04573082;0.01858655;0.061647307;-0.12440934;-0.2956008;0.09250854;0.0012123692;0.059518576;-0.0859594;0.08094196;-0.16696605;-0.007717021;0.065027975;-0.030479854;-0.05145343;0.117369786;0.04023765;0.06508332;0.017149819;0.06103161;0.059693612;-0.070577905;-0.054647855;-0.050698817;0.014730136;0.010003555;0.11603138;-0.0653307;0.067943215;-0.023398846;0.027637579;0.048329897;-0.006454889;0.14731674;-0.07405918;0.029394303;0.02994936;-0.024768729;0.050888572;0.05272626;0.002045147;0.044236943;0.06859527;-0.37494788;-0.048768442;0.041942306;0.15205617;-0.1038451;0.015655303;-0.028456695;-0.054784033;-0.1308175;-0.02290795;0.2509064;0.026540851;0.18005677;0.039523203;0.06323943;0.04385302;0.05995092;0.020143362;-0.01830129;0.038407214;-0.08184725;0.060162842;0.030871037;0.12927277;-0.049442906;-0.042551715;0.046325356;-0.053769566;-0.026683303;0.023819035;-0.008519241;0.11419009;0.03449015;0.10539249;0.052551027;-0.07725555;0.08870552;0.11663172;0.016369985;-0.12840097;-0.06263012;-0.16978063;-0.07306632;0.0700201;-0.012271157;0.045621276;-0.07265444;0.0004440455;0.09777617;-0.071357705;0.054040607;-0.07946194;-0.062960476;0.154811;0.005307526;0.089682765;0.0027468314;0.1351903;0.0047997395;-0.0030286352;0.09987681;0.07322674;0.090010636;0.034252774;0.23047155;-0.04666011;0.033108905;-0.10770763;0.14223622;0.01776842;-0.05680544;-0.06291743;0.013862678;-0.041863397;-0.031441767;0.08462433;-0.08411386;0.0005661259;0.07824432;0.06120857;0.07100603;-0.005602482;-0.07829839;0.07048026;-0.05154409;0.027055418;-0.14574054;-0.100343876;-0.004998775;0.10801812;0.025950775;-0.11054417;-0.081597924;-0.077349655;-0.016489161;-0.03797235;0.023205452;-0.15746218;0.0712907;-0.07797748;-0.0024982907;-0.28394124;-0.3940669;-0.048090547;-0.1000743;0.091429226;0.07782325;-0.065126196;-0.07885207;0.0510848;-0.058390625;-0.105784975;-0.30294377;0.062113218;-0.04282569;-0.07919628;0.05671064;-0.031128459;-0.0003072883;0.011554547;0.031142658;-0.3343242;-0.03222793;0.03596329;0.022562047;-0.07039548;0.15979707;0.07699618;-0.08406068;0.08780719;-0.037306152;0.048034012;0.04705218;0.022346543;0.22266014;-0.057759266;0.020501222;-0.34815636;-0.076946646;-0.0764348;0.107688725;0.050957285;0.009204478;0.1332504;0.01320825
-0.09832998;0.19794527;0.07004531;-0.03531532;0.07080867;0.03405327;-0.013391059;0.04356909;-0.039814662;0.009113658;-0.021822818;-0.07142686;-0.048943236;-0.00081936026;-0.097778305;-0.047904965;-0.0628996;0.12847608;-0.0681427;0.18746032;-0.13107231;0.12467609;-0.039676223;0.07558049;0.20184423;0.14955775;-0.031434342;-0.08692658;-0.036587168;-0.079808705;-0.020164004;0.13567477;-0.055351485;0.21758346;0.2004286;0.01617666;0.08107855;0.0035084994;0.013776662;0.028149938;-0.057508033;-0.011871176;-0.20591304;0.040601227;0.097792335;0.018645283;0.060349084;0.0052958187;-0.021436958;0.016454607;0.004588064;0.09231059;-0.16068012;-0.23430039;0.06198505;0.06905615;-0.025992833;0.012774745;-0.040043063;-0.33570495;-0.027869765;0.09271692;0.1116898;-0.08920229;0.06189627;0.20152164;-0.10536181;0.10225918;0.08796964;-0.06584539;-0.0048504914;-0.066302486;0.08481429;-0.039210327;0.15190321;0.27080315;-0.043959133;-0.081042334;0.12374104;0.022613904;0.026292147;0.0689767;0.15505987;0.12680434;-0.0025277277;0.09241427;0.04177299;-0.044078987;-0.05946302;0.01641441;-0.048762284;0.0017676232;0.061050415;0.010115254;-0.010240974;-0.053652316;-0.16808476;-0.020990662;0.012863393;0.05734412;-0.3298053;-0.0333055;-0.077363566;0.042897224;-0.006500605;0.032825414;0.057768967;-0.09272093;0.12677445;-0.028915297;0.02483334;-0.060287233;0.0042133247;-0.037847217;-0.09779499;-0.025215749;0.082883105;0.13147944;-0.04576602;0.007333889;0.02002959;0.05900594;0.07922085;-0.08107992;-0.011567594;-0.23601755;-0.050518528;0.07215547;0.03655884;-0.04906278;-0.054050416;0.033071008;0.0023985498;-0.047561206;0.02873784;-0.022233585;0.0065252264;0.18815187;0.055868663;0.28677183;-0.053858113;0.02934107;0.17777058;-0.09100299;-0.063906826;0.022905523;0.023900155;0.0363975;0.092910506;-0.018399164;0.025009502;0.020627249;-0.06351136;-0.01273288;0.009233958;0.013727651;0.06279967;0.2618912;-0.061962157;0.028682804;0.047858812;-0.0017369032;0.012651105;0.036557067;-0.06083332;0.04863613;-0.026796093;0.082544915;-0.0010726597;0.045794122;-0.11347526;0.16670121;-0.036932833;0.023267133;0.05264826;0.095842525;0.11351167;-0.04872788;0.122021586;-0.030821221;-0.09938331;0.10085387;-0.119709596;-0.101895474;-0.060467932;-0.18435992;-0.13619377;-0.02520579;-0.004877251;-0.060852613;-0.06986565;-0.00964241;-0.007915621;-0.09445456;0.048262328;-0.09144925;0.06865379;-0.0059441626;-0.015885597;0.06711717;0.06905148;-0.09102659;-0.0061438605;0.05125481;0.08054052;0.07375612;-0.07402825;-0.060255647;-0.100945346;-0.11134566;-0.008829637;0.042531263;0.09990036;-0.07831324;0.08630589;-0.11007495;0.047397323;0.049422074;-0.085165225;-0.081085406;-0.044341207;0.020064138;-0.063802436;0.013721257;0.0043088845;-0.009959118;0.012175139;0.11088687;-0.048507486;-0.018235892;-0.081093356;0.0554649;-0.0031714316;-0.101359315;-0.013080036;-0.1903816;0.06986875;0.05764641;-0.19188365;-0.14082667;0.018304847;0.10491313;0.0061309403;-0.12945929;0.061093703;0.052235585;0.057864547;0.013500456;0.027131379;-0.01891005;0.09467767;-0.037438266;0.073070705;-0.10265219;0.041423157;-0.024176164;0.025536291;0.029083159;0.03511153;-0.041525155;0.16976362;0.070386015;-0.08591205;-0.08617981;-0.06525223;-0.08529046;-0.06737688;0.07234693;0.072282515;0.013015354;-0.03991438;-0.0980562;0.051762372;0.04232499;0.08969462;0.018576564;0.0001932088;-0.05071658;0.029050106;0.20025659;-0.07730154;-0.0211738;0.034043428;-0.026010878;-0.0032926293;-0.023185976;0.023284528;-0.0041885236;0.004806834;-0.04556858;-0.14161558;0.0869919;0.055259988;0.046447255;0.16064264;-0.2624857;-0.11260064;0.010135843;0.013928867;0.002693937;0.002882445;0.05997437;-0.007465685;-0.14549482;0.1221069;-0.056245465;0.022123871;-0.14043386;0.20690124;0.06349553;-0.03331734;0.026392318;-0.06715231;-0.07915975;-0.024836555;0.016155602;0.08070475;0.008573721;-0.03338371;0.014044874;0.056405086;0.113324255;0.09800897;0.054009914;0.065207556;0.13259183;-0.068574004;-0.04446343;-0.05601738;-0.13271403;0.009011935;0.087137446;-0.10991676;-0.004177652;-0.015332106;0.057452887;-0.008928289;-0.101598576;0.0076065552;-0.12413285;-0.0764369;0.06495297;-0.032538526;0.01118676;-0.16985561;0.058022376;-0.058220915;0.019646931;-0.02535591;-0.106335774;0.20526846;0.060250983;0.088012256;-0.03462034;0.0038901784;-0.03399446;0.06566374;-0.17424652;-0.016516456;-0.049117293;-0.0047219894;0.04627003;0.05078639;0.04204204;-0.0979733;0.0011996048;0.026714882;-0.07659604;-0.03579486;-0.10224803;-0.035709787;-0.030378629;0.07556754;-0.011024659;-0.067095615;-0.00315848;-0.09183019;0.23473932;0.050870452;-0.051875778;0.057286806;-0.043406535;-0.070471;-0.16086213;0.17846929;0.017926805;0.041257963;0.06837118;0.028045647;-0.01016402;-0.04581401;-0.26022598;0.004187644;0.2578709;-0.056099903;-0.057043027;0.09076352;0.0104619665;0.02328803;-0.049657483;0.076989755;-0.017674744;-0.024294885;-0.043129817;0.015167401;0.13565825;-0.090313844;0.04891173;0.17009066;-0.045452233;0.023025755;-0.042085055;-0.02260398;-0.019767186;0.026938796;0.04566296;-0.059995696;0.063524425;0.055178896;0.060456477;0.041906632;0.15416995;-0.09181239;0.061578676;0.008543916;-0.042859685;-0.06613776;0.050108336;-0.022668207;0.02778989;0.07167762;-0.14345267;-0.0056038843;0.10109418;0.069990695;0.17989966;0.003931053;-0.17175895;0.031619895;0.06535491;-0.0042172056;0.08004212;0.017707424;-0.087995164;0.16046916;0.06463822;0.020105466;-0.07857409;0.035833962;0.031609803;-0.081153356;0.02143587;0.1747013;-0.041736804;0.16955128;0.0013903306;-0.015544244;-0.08776842;0.0035525032;0.006245739;0.011470876;-0.043969724;0.011078705;-0.04642077;-0.009017823;0.003506772;-0.07434985;0.04629398;0.006252185;-0.034886707;0.0477752;0.13075885;-0.03009471;-0.079676785;0.045001235;0.04140509;-0.08774772;-0.087290265;-0.044530343;0.0032980996;-0.03702518;-0.069078386;0.0035793541;-0.033170223;0.08428981;0.046964247;0.00979086;-0.07415423;-0.07799586;-0.0070352987;-0.004927335;0.16378115;0.11546825;0.3745664;-0.069703326;0.12719078;0.019938765;0.014306728;-0.19255473;-0.03985127;0.028050305;0.007826184;0.005943702;-0.068160065;-0.09704047;0.045513403;0.063461065;0.025979586;0.05359647;0.107383415;0.047291294;-0.15037276;0.04844631;0.09236486;-0.018808942;0.22555949;0.006702168;0.06935836;-0.1000495;0.107175805;0.1925517;-0.03172564;0.063551806;-0.050217427;0.05299998;0.021450697;0.021807853;-0.0072738673;-0.10043176;0.08720907;0.051953185;0.026279973;-0.044412192;-0.20826925;-0.024682632;-0.13339935;0.07304359;0.1381212;-0.048163027;-0.055792257;-0.053607777;0.06825365;-0.018181011;0.057211265;-0.0014947737;0.0981472;0.0599805;0.037268754;0.09863783;-0.013709893;0.036835745;0.0709979;-0.0960645;-0.062369734;-0.05274619;-0.029606834;-0.090373054;0.17564923;0.06746074;0.08331953;-0.07913949;0.022654328;-0.07506195;0.015667228;-0.0032107062;0.21673405;0.00965083;0.034445226;-0.08319412;0.052739196;0.09483306;0.20219101;0.016646678;-0.011096683;0.00962491;-0.00019868842
-0.41381782;0.13468291;0.06701632;0.04737054;0.121789075;-0.011429962;0.044776153;0.084128216;-0.07494791;0.090317175;0.06537165;-0.083197996;-0.012416558;0.017263835;0.03293013;0.06963287;-0.10700027;-0.10676233;-0.091684;0.21111764;-0.05293503;0.006251166;0.051063452;-0.037074123;0.2364873;-0.14270668;0.020059308;-0.049041577;0.026127724;-0.01415968;-0.06480888;-0.09686821;0.06890402;0.04943662;0.021771953;-0.07190045;0.026662495;-0.04515616;0.11182156;0.06021215;0.018503292;-0.04049065;-0.021077516;0.21329577;0.09625706;0.025941033;0.047200248;0.044574928;-0.08194229;0.051654372;0.04179741;0.21903571;-0.08181804;-0.13682804;-0.010696244;0.103920765;0.030573219;-0.0009201007;-0.041885756;-0.21159448;0.01982283;0.13195471;-0.063487664;0.077922806;0.14546666;0.04733149;-0.06264155;-0.047536723;-0.0568036;0.089758284;0.07118456;0.05033974;0.20313817;0.0014927724;0.21299523;-0.07358828;0.042599835;-0.029448282;0.0058508147;-0.014663481;0.06298067;-0.01048108;0.068716116;-0.07495454;0.002464548;0.002838033;-0.064827114;0.13087828;0.004583826;-0.028522028;-0.046090744;0.00028805283;-0.071226545;0.05386972;-0.019667553;0.08930984;-0.2807095;0.015384581;-0.056090243;0.01853315;-0.22806305;0.04268809;-0.07725428;-0.028067606;-0.0044924095;0.027504561;0.025452634;0.0605593;-0.10869061;0.055400513;-0.00731082;0.036079407;-0.061229203;0.095095135;-0.014751641;0.07621397;0.10134139;0.0959847;-0.01717658;0.060176376;0.012615346;-0.007502409;0.113151506;-0.020480862;0.02082128;-0.08096072;0.10699651;0.049693163;-0.09749388;-0.096104234;0.032183237;0.20229182;0.038457528;0.016025534;0.045189682;0.0005314685;-0.15347047;-0.05274037;-0.016366122;0.21874936;-0.04363631;0.06475998;0.124068744;-0.0723157;-0.04261447;-0.1080666;0.025525076;-0.048985846;0.10862501;-0.16205451;-0.005925992;0.043178078;0.10516655;-0.010878528;0.0031586243;0.06115535;0.0002977901;0.18016174;-0.017513769;0.04803452;-0.013063964;-0.016993977;-0.043623175;-0.03089852;-0.06479361;-0.0110499635;-0.045936197;0.09409102;0.06317685;0.0783939;-0.063251786;0.2062157;0.018481934;0.04780946;-0.014008018;-0.060446113;0.1221969;0.034688182;0.0154324705;-0.010962133;-0.13387336;-0.05733742;-0.1700498;-0.061250404;0.031436775;0.045011073;0.09249471;-0.082624875;-0.011921869;0.085878894;0.019153934;0.03624589;-0.04638691;-0.0147253955;0.16257928;-0.104652174;0.04562185;0.06445207;0.00753655;0.064108;-0.050646275;0.043021537;0.033322386;0.06804032;0.019192751;0.060061004;0.07492696;-0.07134421;0.003087998;0.046632096;-0.048639826;-0.022951232;0.06308148;0.052375432;0.03785406;-0.03846981;0.054306645;0.07871401;0.044743102;0.013284485;-0.03983374;-0.042857185;0.041885138;-0.048277862;0.05290762;0.008053433;0.06443684;-0.049603995;0.07699724;0.0709722;-0.003942683;0.010023083;0.017866405;0.05574388;-0.024323948;0.0018236235;-0.06067537;0.039589036;-0.03251819;-0.100366384;-0.079126745;-0.022692038;-0.035968736;0.019481545;0.012984801;0.07173754;-0.009609539;-0.02970352;0.012839749;-0.048515487;0.010804042;0.037045605;0.014135232;-0.11129021;-0.059266973;-0.051645998;0.084227085;-0.025345614;0.025677372;-0.06705205;-0.06302414;-0.05721243;0.034320068;-0.07800579;-0.06392142;-0.012759416;0.056071535;-0.04007341;0.21150067;0.1316387;0.04863944;0.12884007;-0.046263967;-0.015884092;7.982173e-05;0.040403195;0.05925131;0.038863182;0.07648508;0.18524122;-0.040895645;0.14932372;-0.07025796;0.08952836;-0.062616795;-0.060846504;0.055184662;0.046736076;0.14908855;0.10676984;-0.0014334074;0.06948453;0.06628338;-0.06481916;0.05918933;-0.26466146;0.044602014;-0.037627928;-0.023668313;0.08781104;-0.067563675;0.084111534;-0.07951833;-0.13190237;0.06489504;0.10497605;-0.08920247;-0.14876312;-0.011548959;-0.052892257;0.10247564;0.009636517;0.0049039344;0.057213612;-0.3454316;-0.016649216;-0.06770409;0.06391615;0.039572228;-0.0020611216;-0.021059686;-0.050825868;-0.02932731;0.023412744;0.11953026;0.00065119844;-0.045424405;-0.054427713;0.07133992;-0.013627878;0.00512981;0.040587798;0.05447196;0.050784044;-0.2150111;0.06176901;-0.055812445;0.07426308;0.04774569;0.09496175;-0.06820271;-0.03697563;-0.032918833;-0.046727818;-0.08610783;0.038561232;-0.06770453;-0.0031000776;-0.06175117;0.053427953;0.06497638;0.044929042;0.021936448;0.034142785;-0.03469051;0.059342604;0.048785;-0.37979382;0.048146695;-0.024852138;-0.059431348;0.033961352;0.06839523;-0.0064534084;-0.08773633;-0.061606213;-0.01249606;-0.0059042405;0.11953;0.0062382636;-0.026779797;0.010742107;0.08817689;-0.051987957;0.017283322;0.054931536;-0.034929793;-0.07476283;0.05087375;-0.011399304;-0.08246296;-0.070176944;0.07962099;-0.15603642;0.06945214;-0.08853452;0.07282367;-0.010620713;0.0015436513;0.032636393;-0.06292416;-0.12645304;-0.02131139;0.24512811;0.08552634;-0.050678965;0.2934475;0.044850867;-0.05172955;0.04042598;-0.021680022;0.045843136;-0.03532165;-0.04901526;0.040157992;0.09424079;-0.033211637;-0.042021897;0.1387688;0.047083434;0.00060110213;0.037757963;0.013758733;-0.0006670445;-0.10853627;-0.067792974;0.045019027;0.04548731;0.007821964;0.026773993;0.07108995;0.06056927;0.0016011584;-0.043808203;-0.030904943;-0.01146772;-0.0009865914;-0.08310884;-0.02286139;-0.020668704;-0.046917375;-0.27415335;-0.065594256;0.17662746;0.17826538;-0.0072807907;0.013452689;-0.014753058;-0.09233525;0.00048343575;-0.07812742;-0.044247463;0.0031473737;-0.046868134;-0.003558933;-0.069299735;-0.12087214;-0.055690173;-0.10789767;0.12814638;-0.038134817;0.018722462;0.101102;-0.003328474;0.092020094;0.07191172;0.029530672;-0.029205054;0.028039856;0.06691883;-0.06365422;0.079658024;-0.031238368;-0.09549714;-0.018197285;0.041717682;-0.044535417;0.021300374;0.12220845;-0.035102494;0.03711151;0.051141627;0.20505519;-0.103216864;-0.09554487;0.06827632;0.017543402;-0.035041016;0.011510286;0.059478924;-0.04559792;-0.02157965;-0.0047033904;-0.02385968;0.06853462;0.04416421;0.0024655864;-0.02704267;0.112750486;-0.020591851;-0.05399919;0.13692674;0.10498615;0.16225164;-0.033503167;0.092217185;0.038789723;0.018017264;-0.1908615;0.16217203;0.1044751;-0.02579249;-0.07521628;-0.03530137;0.09306779;0.0704867;0.004678871;-0.04403587;0.016010037;0.12228431;-0.0059701093;-0.052793626;0.0004936619;0.034795668;-0.070465565;-0.025748642;-0.036728773;-0.014724897;-0.17872404;-0.077689536;0.027895322;-0.031809516;0.018680006;0.0676535;-0.07649902;0.02730616;-0.118896075;-0.10330779;-0.066720165;-0.03277313;0.09901648;0.08774752;-0.3771303;0.039298005;0.0052613653;-0.011848055;0.026454221;0.041611727;-0.037596192;0.02423997;0.1240647;-0.06537903;-0.05480456;-0.05133584;-0.0023344078;-0.060000114;-0.07249863;-0.039225545;0.07059664;0.055135388;0.06254926;0.03579437;-0.1493415;-0.016365228;-0.05592397;-0.0039647585;0.002137764;0.01139132;0.0051797708;-0.015809951;-0.01601732;0.21741584;0.013494631;-0.009375504;0.0054546776;0.07152148;0.20543477;-0.0033863706;0.09090337;-0.10316469;-0.029080449;0.17611922;0.06001311;0.027751628;0.101082146;-0.014276697
-0.42994523;0.12471299;-0.09836499;-0.023529774;0.1459315;-0.026880883;0.15041243;0.049728166;-0.019320952;0.03983101;0.08163142;-0.026527518;0.038163174;-0.034917124;0.08026759;0.080915615;-0.09218911;-0.2332702;-0.054427847;0.06777543;0.06149349;0.25073582;-0.08491426;-0.05025667;0.08376057;-0.055915657;0.033508975;0.14020887;0.14312498;0.029537546;-0.0059260847;-0.14812289;-0.020851422;-0.13166612;-0.020066712;0.03535563;0.026208777;-0.06037235;-0.016526518;0.0286584;-0.06422265;0.049292333;-0.020399535;0.23721409;-0.016548613;0.017817022;0.07476868;0.020667693;-0.002849558;-0.010581534;0.069843404;0.09619275;0.0026138478;0.14890717;0.08558791;-0.05156814;0.105896115;-0.0248933;-0.05850272;0.01186712;-0.04880644;0.15054004;-0.028343141;0.050138757;0.09368185;0.09385471;-0.035878766;-0.071608186;-0.13309377;-0.076742776;0.03224453;0.056933433;0.2088557;-0.028145589;0.11138741;0.05854063;0.0037247946;0.013280709;0.00024597198;0.011972789;-0.028291577;-0.053456854;0.07161285;0.08601181;0.19965929;0.021612937;0.0613219;0.0029313234;-0.022771405;-0.046678692;0.076298006;0.05061896;-0.06611816;-0.0813016;0.03467002;-0.04420473;-0.060483847;-0.061190177;0.06690659;-0.055628166;-0.08507225;0.026613323;-0.19648004;0.036551256;0.031228738;-0.023970824;-0.0018264856;-0.08665042;-0.08289587;0.09490963;0.079271235;0.0828703;0.020286765;0.103710875;-0.013074524;-0.03597382;-0.011142316;0.05890666;-0.05225516;-0.048145685;-0.077136554;-0.09046758;0.032381527;-0.07808373;-0.039615393;-0.07753623;-0.13248962;-0.00979691;-0.038006622;0.027750727;-0.116336584;0.15901464;-0.074631944;0.068043105;-0.044763617;-0.021491585;0.018474786;0.06823566;0.026834015;0.19674261;0.003959333;0.09052344;0.09784722;-0.0031076048;-0.03360048;0.04534059;0.060551003;-0.08866217;-0.044773895;-0.02185955;0.03830721;-0.02413529;0.021441352;-0.036523473;0.006134593;0.19650126;0.0033295427;0.11752176;-0.060672652;0.07751899;0.053730432;0.02267662;0.0111873485;-0.13717464;0.017518006;0.074706085;0.024466997;0.068688616;0.012426258;-0.06926661;0.01720231;0.12795092;-0.099226564;0.18122153;0.10613553;-0.013994857;0.07090338;0.0030862244;0.1074415;-0.06718912;-0.045052633;0.09220854;-0.14816965;0.039174095;0.021742275;-0.017384127;-0.06871829;-0.02215979;0.04936119;0.0027708823;-0.017359763;0.05430192;0.011874363;0.066760436;0.16134809;-0.16417086;-0.002927769;0.08346142;-0.052324865;-0.041084044;-0.031114668;0.041971423;0.007879706;0.0331701;0.06623389;0.030950285;-0.033597313;-0.048435245;0.0010578665;0.02549382;0.007218832;0.025599103;-0.07080605;0.049178388;0.007734982;-0.062352106;0.010395813;0.083803445;-0.05620329;-0.011317071;0.030795928;0.028951904;0.009274796;-0.036192797;-0.07353549;-0.033379365;0.024985682;-0.035688132;-0.016234288;-0.055996258;0.01275578;-0.049558066;0.046035692;0.031920347;-0.08465424;0.060028;-0.05957253;-0.12471695;-0.17286694;0.034590818;-0.07812305;0.104568735;0.039454542;0.048088692;0.06609732;0.05349329;0.044611175;0.039736066;-0.17327087;-0.05084683;-0.018857298;-0.043595716;0.0851232;-0.048379056;-0.018891472;-0.035042882;-0.09460126;-0.024719898;0.13956882;-0.054323096;0.024329072;-0.030058434;0.007133594;-0.046769936;-0.097481154;0.07373027;0.08927536;0.033150062;0.16712655;-0.039744593;-0.025106933;-0.17906925;0.003430239;-0.037552755;0.053778883;0.12693258;-0.04019684;0.03180287;0.003082619;0.035009425;0.041896757;0.13977839;0.052397627;0.12628765;-0.060964257;0.009955311;0.071358465;-0.033257693;0.02791811;0.004180752;0.053627346;-0.025499145;0.059193343;0.019258272;0.1554271;-0.039909054;0.02445501;-0.19624425;0.13727342;0.06528987;0.06922649;-0.038697515;0.06533766;-0.063979685;0.16497907;0.13090041;-0.060722794;-0.1207019;0.15877521;-0.088294305;0.029251551;0.053413864;-0.0566569;0.028209075;-0.17641045;-0.11768423;0.08173302;-0.1364072;-0.065418035;-0.002090156;-0.034431573;-0.046702433;-0.04645754;-0.0087042395;0.14327228;0.09040351;0.006443097;-0.012324515;-0.024320494;-0.026822586;-0.0029090878;0.13015564;0.036605146;0.0030448502;0.005365381;0.016157275;0.032259945;0.07556182;0.060853496;0.07354035;0.08156476;0.022788279;0.02861049;-0.028958706;-0.10053663;0.029642686;0.0717436;-0.058208305;0.025214458;-0.087553285;0.06927341;0.16517204;0.016673673;0.068044364;-0.008290992;0.050575778;0.015326234;-0.47523665;0.038593568;-0.084985;0.017801873;0.0420811;0.03832156;0.05302362;-0.014709889;-0.068881206;-0.052443508;-0.11951993;0.05354461;0.028948259;0.065331414;0.096299335;0.09527311;0.096664436;-0.17757547;0.028176455;-0.002278132;0.04631407;-0.06723544;0.05812211;0.065895654;-0.020009404;-0.01382065;-0.11123872;-0.11934038;-0.058920067;0.031611007;0.0077494797;0.056090474;0.04017027;-0.018344482;-0.10986514;-0.04935961;0.11806618;-0.10300808;-0.02280208;0.14421064;-0.014872669;-0.05770766;0.029441211;-0.025159176;0.04071604;-0.004644505;-0.04003932;0.014951451;0.07764878;-0.05042203;0.1165871;-0.05907906;-0.03821392;-0.012852093;-0.011055487;-0.0277259;0.057154518;-0.06706174;-0.06953837;-0.025982367;0.08047646;0.019407123;0.0629952;-0.055333152;0.065413274;-0.01726488;-0.029226745;-0.08640284;0.07132378;0.013687072;-0.036703404;-0.05897415;0.025097704;0.026121205;-0.20412837;-0.039132297;0.018699016;0.06913423;0.03443572;0.11004097;0.13373396;-0.040484935;0.29248795;0.06322649;-0.032974742;-0.06767426;0.03399979;0.013095405;-0.015269084;-0.101996735;-0.020949187;-0.020337969;0.07954911;0.006292893;-0.04074687;-0.11618832;0.026328625;0.11279776;-0.021359455;-0.03571917;-0.036392476;-0.04551051;0.022693692;0.03075799;-0.0075335153;0.06760945;-0.036564525;-0.023704225;-0.059162017;0.107575916;0.26552492;0.04949692;-0.016674042;0.06797552;-0.06945065;0.07865417;0.048329726;-0.05492544;0.14018856;-0.006481245;0.004620629;-0.03399259;0.06930754;-0.030261619;-0.04631653;0.038132172;0.024857298;0.030126663;-0.04786956;-0.0013793613;0.07696178;0.18162033;0.06141754;0.072719686;0.07086756;-0.016857993;0.23784575;0.03702788;0.07498204;0.009723956;-0.011468215;-0.219489;0.049272664;-0.035077993;-0.03309612;0.06699679;-0.0004318801;-0.028229687;0.084321246;-0.09689684;-0.06848264;0.0012429326;0.10835507;-0.031967;-0.026451983;0.008842782;0.033093918;-0.031670105;0.17807232;-0.06519752;-0.09246233;-0.034223087;0.05179236;0.01406243;0.03176836;0.031767495;-0.04675606;0.04273069;-0.04214881;-0.05722225;-0.10063096;-0.13077483;-0.003252368;0.04630899;0.014080132;-0.44418526;0.09199213;0.013946746;-0.04597335;-0.030284122;0.10637353;-0.030358166;0.0032151218;0.0025255557;0.043443073;0.017113527;-0.14547265;0.07283708;0.044980336;0.08809261;-0.036272705;-0.060214825;0.099474534;0.08260155;-0.025871912;-0.11212161;-0.015349397;0.041161932;-0.008284438;-0.15577184;0.02723022;0.011838169;0.09540739;-0.05780755;0.069121115;0.021854809;0.011765089;0.06596611;0.083892025;0.20151657;-0.11240505;0.0021704822;0.041995253;-0.019233722;0.0180614;-0.025509572;0.06824367;-0.12109571;-0.11352444
-0.15545787;0.041782428;0.046715304;-0.060953826;0.09605124;-0.040919714;-0.09381899;0.08984423;-0.058482207;0.00047335733;-0.077783614;0.008817997;0.05256618;0.06020591;0.055094145;-0.03601499;0.13086998;0.020855036;0.036716707;0.07772108;0.015440136;0.036419567;-0.03298516;-0.050242674;-0.016858747;-0.10406709;0.048019953;0.06289668;0.13837662;0.10616962;-0.05584597;-0.18488975;-0.045124054;-0.2526809;0.12467314;-0.13372536;-0.026762014;-0.046184927;0.13205464;0.09067293;-0.005604822;0.0846197;-0.18922366;0.2667789;-0.04063416;0.012017701;0.06650682;0.058299966;-0.01668574;-0.060986225;-0.038999293;0.09012784;-0.033795048;-0.084774375;0.07472861;0.07199869;0.20407028;0.031745687;0.06168286;-0.18004829;0.08764625;0.17951606;-0.044361886;0.10230385;0.0765673;0.14896654;0.03698004;0.023136178;0.081655115;-0.069739826;-0.09059683;0.07497788;0.1692176;0.027135016;0.12510704;0.12574139;0.041957237;0.014285527;0.08707167;0.0017350309;0.042493027;-0.0909994;-0.027430916;-0.089598574;0.15351996;0.017734235;0.02104429;-0.09819385;-0.062222883;-0.0093205115;-0.04743886;0.018647755;-0.05381828;-0.14904891;0.062207;0.09248429;-0.14367028;-0.027880097;0.10125951;0.011672809;-0.024108037;-0.05523485;-0.04817344;-0.033285633;-0.015648132;0.10008841;0.031220283;-0.009732674;0.00979462;-0.029986827;0.04406825;-0.025224809;0.013353474;0.016081853;-0.047911797;-0.04394175;-0.036420863;0.09896783;0.07531268;-0.10762045;0.08369795;-0.06824576;0.029849544;0.05176818;-0.02456033;-0.088104405;0.15854083;0.044070713;0.064565465;-0.13981168;0.011508965;0.13989489;-0.07224442;0.031128256;0.022304188;0.043217983;0.03309135;-0.085412666;0.023988865;0.15522018;0.048587706;0.14789987;0.09507042;0.10153039;-0.016380234;-0.058632184;-0.019321285;-0.061804768;0.020474628;0.052134674;-0.007680057;0.07618249;-0.1322383;0.0333802;0.063515455;0.13832133;-0.006800078;-0.100524835;0.032787092;-0.025721807;-0.058880195;0.06999061;0.029171176;0.008356862;-0.15124169;0.004307628;0.009825929;0.00026193657;0.03314245;0.009014774;0.049641207;0.16949713;-0.014821466;-0.08558065;-0.04354215;-0.06678464;0.06844661;0.15841456;0.18060641;0.014415506;-0.08677118;0.13704403;-0.30403578;0.10020539;-0.03741307;0.109616145;0.15684158;-0.017095238;0.022707764;-0.07010629;0.07063326;0.08502209;-0.0014144132;0.012354982;0.16028854;0.048256364;0.042181775;-0.0040465994;0.08598033;-0.06260714;-0.021560857;-0.042756904;0.07579101;-0.016760303;0.0042777047;-0.08669754;0.042046282;-0.13125974;0.0021493663;-0.073152654;-0.10676919;0.061250445;0.040540464;0.050553355;0.037801567;-0.037329692;0.0696135;0.095410146;-0.008378631;-0.010854158;-0.02603512;-0.08514398;0.038127862;0.0367608;0.057309438;-0.06732772;-0.0029107693;-0.107078776;-0.07215247;0.05009051;-0.09193449;0.097102456;-0.04955917;0.014499564;0.0936701;-0.0100973165;-0.053296298;-0.03714064;-0.24429318;0.11133412;-0.035578527;-0.0038932804;0.02771441;-0.05542455;0.062166538;-0.004048281;-0.004691792;0.020203128;-0.03150901;-0.030260688;-0.04100886;0.00076008105;-0.046739142;0.055236924;0.042882588;0.09842152;0.045582972;0.021752011;-0.004938374;-0.010367726;0.038403362;-0.053581562;0.04997309;0.06493496;-0.07471121;-0.11748643;-0.0363674;0.0065962747;0.07993178;0.13754167;-0.02946285;-0.022802541;-0.091234274;-0.044767726;-0.08720933;0.006593647;0.07190935;-0.06049213;-0.008061821;0.039826624;0.008660441;0.14347656;0.03807609;0.05967937;0.0116221765;0.0070861974;0.014633743;-0.037187405;0.13658857;0.0040638098;0.0625404;0.04141936;-0.11266329;0.045903713;0.00040791775;-0.0034993058;0.03811723;-0.18850324;0.15516171;0.1312802;-0.069315396;-0.046273887;0.04589211;0.088126205;0.15041041;-0.116159216;0.051193606;-0.14212236;-0.05111307;0.0037271187;0.07434854;0.04322298;0.012581115;0.020417351;-0.1558412;-0.005126928;0.05591178;-0.03192495;-0.052503593;0.004775455;0.08282548;0.008297506;-0.045882504;0.13883305;-0.0064261896;-0.07258811;-0.051570605;0.07231558;0.05720992;0.050953038;0.05470603;0.09824732;0.0065579894;-0.089606114;-0.15301226;0.031310316;-0.014020122;0.022398641;-0.0535492;-0.0044676196;-0.10661813;-0.07132218;0.05634568;-0.049368676;-0.054877803;-0.027519284;0.0022184672;0.035878494;0.023272574;0.0993943;0.16196802;0.047837947;0.05699133;-0.08930696;0.08730415;0.0031199155;0.002436525;-0.19877546;-0.047667492;0.06752494;-0.05654296;0.038309876;0.098486744;-0.038421396;-0.061041713;-0.091728084;0.016036743;-0.22517839;-0.0014202573;-0.12543257;-0.056958858;0.14358425;0.109250516;-0.039752405;-0.104740284;0.029355057;0.054152284;0.06381236;0.0033229827;0.0948131;-0.10610122;0.09622145;-0.077178136;-0.21981235;-0.1062474;0.04714998;-0.02166076;-0.0396147;0.066248536;-0.13241655;-0.003282713;-0.07100183;0.16322184;-0.102217816;0.04162657;0.051073473;0.04481652;-0.036692273;0.13145176;-0.0479372;-0.007033375;-0.03550065;-0.04648982;0.04318251;-0.02154918;0.013159882;-0.035167933;0.07696515;0.102338724;0.091411114;0.044127505;0.00796816;0.09430325;-0.04254163;-0.20011534;0.030509291;0.053817082;-0.06971475;-0.03168441;0.12527649;0.046636086;0.10587348;-0.012529019;-0.0120231565;-0.023253296;-0.03136408;-0.04633837;-0.0006441929;0.04999379;-0.050314236;0.059571408;-0.2020826;-0.02304311;0.18698867;0.12706394;0.050974566;0.053747844;0.007574545;0.037047632;0.15100498;-0.09528031;-0.09512272;0.057015497;-0.023273211;-0.031900384;0.012941891;-0.15991619;0.0002556773;-0.10138235;0.12895702;0.041414957;0.043299247;0.06695517;-0.09425506;0.020667275;-0.018660367;0.02032103;0.104176596;0.0716964;-0.07637801;0.014739998;0.106658295;-0.09028146;-0.068011634;0.05957953;0.07268063;0.052435543;0.014640654;0.022928245;0.0070072925;0.09365725;0.0596351;0.18539049;0.08362246;-0.085398845;0.10888391;-0.029517205;-0.111624196;-0.0038704935;-0.011659688;0.0523515;-0.013768064;-0.033988163;-0.07401073;0.13399982;0.030887907;-0.0275997;-0.023025496;-0.032677192;0.043179344;0.02049871;0.1355851;0.033048857;0.025444964;0.038864482;0.01317449;-0.096337065;0.0052425396;-0.03924555;0.040014677;-0.064592466;0.08926021;-0.06624353;-0.0615176;-0.06726614;-0.021200325;-0.008331611;0.021326376;0.11224706;0.1263419;0.120452106;-0.060327336;-0.02352969;-0.0014151757;-0.023484452;-0.05539611;-0.0537589;0.025779014;-0.048219353;-0.06166614;-0.08024147;-0.09631559;-0.018180244;-0.048287384;-0.04087516;0.014958214;0.039148923;-0.025654485;-0.20098682;-0.034682445;0.06004956;0.0053940704;-0.08103998;0.20561805;0.10247438;0.0679996;0.05936958;-0.017805893;0.030850228;0.0012136321;-0.008108228;0.019036071;0.036170088;0.030742258;0.074045986;-0.05202279;0.015486318;-0.07179637;0.010391077;0.030662185;-0.038760886;0.0374539;-0.2724128;-0.054380354;-0.087786674;0.078740224;0.07284453;0.1114461;-0.036660664;-0.044828538;0.015857182;0.21996935;0.0031772067;-0.11634402;0.0028386242;-0.054304115;0.13904229;-0.046780046;0.18284385;0.05045094;0.08696813;0.1451348;-0.12598337;-0.044775195;-0.04133238;0.0866563
-0.09374869;-0.13384213;-0.05566973;0.052861612;0.04196068;-0.081207596;-0.00893329;0.11484321;-0.042756982;-0.08480407;0.04394189;-0.020384664;-0.04114224;-0.008397985;-0.07392272;-0.063586906;-0.08004373;-0.047281295;0.026612686;0.0404493;0.14981623;0.008868773;-0.10682638;0.048913162;0.09189557;-0.07775367;0.03576998;0.09422799;0.051053524;0.051927917;-0.04955115;-0.17902197;0.0095160315;-0.34991145;0.00019489019;-0.07144764;-0.0267524;-0.06784487;-0.026051246;0.073667094;-0.05316149;0.12648663;-0.11207628;0.10430734;0.10338605;0.07854423;0.02332375;0.09635462;-0.01798479;-0.07702206;-0.06177202;0.09490983;0.038853478;0.027067779;0.091521196;0.10042455;0.19348028;0.031421695;0.10541753;-0.080934875;0.022415826;0.00805626;0.040887382;0.081383;0.023894072;0.034215186;-0.022804735;-0.026720408;-0.07162588;0.022448687;-0.036853865;0.09155275;0.17329393;-0.002318294;0.2783825;0.022322144;0.023307493;0.05532789;0.18597116;0.044786297;0.09766596;0.01617833;0.023798063;0.025600776;0.06327538;0.099181876;-0.04898897;0.073114716;-0.059406828;-0.03799553;-0.045190822;-0.049730793;-0.09237208;-0.08538256;-0.021970663;-0.013033119;-0.30152035;0.0021332086;-0.0075084963;0.0377428;-0.110657275;0.06522493;0.002348466;-0.04596301;-0.05149989;-0.034872346;-0.021515552;-0.06478367;-0.060707558;0.07762799;0.0011574288;-0.039540857;0.0015005909;0.05615905;-0.05942361;-0.100299224;0.119647674;0.036904376;-0.060723312;-0.058051206;-0.052919213;-0.16921906;-0.0026688194;-0.028416697;-0.09647272;0.15975581;0.007125591;0.091266334;-0.009234035;-0.24943478;-0.10311492;0.07735553;-0.059270024;-0.014521161;-0.05393522;0.054361846;-0.10167176;-0.025562823;-0.0247054;0.06454884;0.07509169;0.20189221;0.1591017;-0.032475177;-0.07822121;-0.043348297;0.009370813;-0.03213018;0.07652673;-0.059399787;0.11541478;-0.061606653;-0.026613936;0.020211188;-0.03135711;0.07976834;0.05950566;0.037725966;0.041812804;0.026190765;-0.051303614;-0.009022655;-0.017441496;-0.1326549;-0.12614542;0.011419326;-0.056755845;0.105077215;0.08061837;-0.043091193;0.07696987;-0.024228066;-0.07320216;-0.05987761;-0.002309639;-0.096522115;0.13449156;-0.08731027;0.122257024;0.038271606;-0.14553362;-0.010193639;-0.20211235;-0.0043036896;0.057768043;-0.09840231;0.0708592;0.053909287;-0.012926112;-0.030491112;0.0021700016;-0.0058810194;-0.04893746;0.026230395;0.11667919;0.049269635;0.051404707;0.06057562;-0.042982608;0.06746702;0.031650394;-0.04151385;-0.08131881;-0.07637465;0.09866487;-0.030717213;-0.08168997;-0.14522937;-0.0013571338;-0.07342251;0.027853902;0.020674784;0.047758;-0.05999642;0.088573284;-0.122922316;-0.05391993;0.13877863;0.067343526;0.073676124;0.090774044;0.021914963;-0.08584933;-0.016244171;-0.010187097;-0.05292025;0.043802116;-0.051118426;0.010446981;0.054168645;0.08651257;0.1888368;0.09233607;0.07499566;-0.081808165;-0.12407126;-0.025762636;-0.19636452;-0.05061217;0.0743162;0.035066795;-0.06983916;-0.027835505;-0.073763765;-0.032735273;-0.014640611;-0.006662153;0.04965295;-0.05757113;0.045283813;-7.391216e-05;0.061865542;-0.057594363;0.1832552;0.006114496;-0.04589024;-0.07017943;0.045182344;-0.051707897;0.070711926;0.0423462;0.056407303;-0.02379998;0.050881375;0.042056598;-0.12837887;0.07364308;-0.051420312;-0.10176357;0.057696585;0.082546495;-0.080855034;0.022350539;-0.065313876;-0.16091774;0.086329974;-0.04972566;0.07047017;-0.054208726;0.13024376;-0.020270409;0.20397028;0.052745212;0.05389996;0.026789315;-0.031410836;-0.043944526;-0.07739272;-0.02084736;-0.113573365;0.10855784;0.028153447;-0.043851975;-0.028977208;0.06812134;0.062386096;-0.03848245;0.00012628536;0.19907832;-0.008566457;0.082289144;0.116778746;0.013106145;-0.097735934;0.19758895;-0.028209237;-0.075493194;-0.045544486;0.042512216;-0.07579186;-0.038332146;-0.021365186;0.06984013;-0.084299386;-0.38961118;0.112973236;-0.003083117;-0.03389358;0.05789473;-0.02905556;-0.06663222;0.01497923;0.043698825;0.058729596;0.17700872;0.0673799;0.0792484;0.023687497;-0.03690735;-0.04521951;-0.24134685;0.15476596;-0.023069877;-0.07602359;-0.23683718;0.0026356864;-0.014114542;-0.06428039;-0.04397256;0.0076315687;0.02190952;0.03020411;0.07793005;-0.117757194;-0.12547061;-0.071260385;0.043514766;-0.047373623;-0.03236971;0.23351261;-0.07030562;0.22591116;0.054829992;-0.115299486;0.013628262;0.04230704;0.15419453;-0.007165892;0.013111428;0.022511592;0.056670204;0.04616121;0.17157996;-0.02606888;0.029118994;-0.069908954;0.010405191;-0.1686897;0.08031717;0.0025424452;-0.034549605;0.09900406;0.121981755;-0.046836596;-0.17801623;0.040805124;0.048119787;0.09151802;0.050027836;0.06910806;-0.053535387;-0.029166993;-0.09013316;-0.05385703;-0.12777257;-0.09250377;0.07050571;0.0035134614;-0.029541446;0.009324219;-0.029271848;-0.10671799;0.06462343;-0.17053944;0.050216753;0.014052257;-0.14508311;-0.028942112;0.10257088;0.0023768519;-0.0091542015;-0.0499844;-0.07261854;0.065047614;-0.108202405;-0.038536556;0.057904612;0.04484931;0.07245888;0.07048902;-0.0048656445;-0.020604074;0.021312864;0.009245547;0.015140001;0.12586278;0.061408475;-0.060395345;0.03292019;0.017239409;-0.055547804;0.07124943;0.046598528;-0.0474519;-0.032833457;0.046925686;0.0068415403;0.12983756;-0.20122467;0.021619508;0.040785443;-0.11494836;-0.0138046155;0.038949292;0.19792496;-0.006963862;-0.00069576106;0.07009667;-0.0012105794;0.046441443;0.019518578;0.012487276;0.08313753;0.017325716;0.0782342;-0.06729556;-0.10769431;-0.024676906;0.051510226;0.27524945;-0.063937545;0.03563756;0.06671736;0.048712976;0.010002259;-0.044591818;0.0195043;0.11991109;0.020902816;0.012817873;0.060801286;0.14150536;-0.032828473;-0.11210378;0.016919246;0.03298198;-0.021454856;-0.0455155;0.07652677;-0.007115412;0.029600268;0.039654866;0.14478014;0.02778408;-0.04077074;-0.04494598;0.05493521;0.035324343;-0.036781494;-0.0013767054;0.010755244;-0.039112862;-0.05518552;-0.02702389;0.08775859;-0.038733605;0.047892693;0.08953123;0.10772166;-0.008855644;0.011843075;-0.024617407;-0.021303127;0.09798746;0.046203226;0.067455;0.019130077;-0.015537465;-0.13937305;-0.037390523;-0.10326847;-0.022846948;0.08062336;-0.09868778;-0.0066904193;0.08389473;-0.08878324;-0.0050988253;0.021823335;0.060231186;-0.041920938;0.021213947;0.06495169;-0.14175373;0.005176802;-0.054673143;-0.0025225277;-0.017428393;-0.018415708;-0.037316218;-0.0137682585;0.068093956;0.07423634;-0.03990771;-0.18119846;0.08352407;0.17032336;-0.1448063;-0.13426319;-0.06150342;-0.08104229;0.03149587;-0.11590943;0.08847682;-0.055263832;0.011724905;-0.075978026;0.02014256;0.06544753;0.061779857;0.102361955;-0.012899938;0.049763326;0.023005094;-0.019553388;-0.045780625;0.03004413;-0.058452196;0.023342267;0.020799782;-0.04082876;-0.07726365;-0.23394524;-0.024891036;-0.073499076;-0.010631583;-0.083622575;0.088060305;0.060335025;0.025214747;-0.017902792;0.06282022;-0.0152790835;-0.12519826;0.072230645;-0.1601404;0.059640564;-0.07901056;0.07827495;0.11459803;-0.022663191;0.066449225;-0.15114647;-0.07755432;0.040660877;-0.08714108
-0.14329895;-0.00557932;-0.11214473;0.059062507;0.12902677;-0.00305765;0.2816714;0.0012674648;0.0075651933;-0.032986768;0.06343044;0.06661693;0.0639606;-0.048153903;-0.047737442;0.06318384;-0.13659889;-0.17155254;0.031831745;0.13755298;0.26437587;-0.035714775;-0.076933;0.09307418;-0.13405502;-0.065358065;-0.045909088;0.24839088;0.0073281773;-0.03286106;0.031073874;-0.14068542;0.028982691;-0.10457473;-0.0037170176;-0.011623747;-0.0605546;-0.011427881;0.09831652;0.045025863;-0.0203363;0.056037344;-0.051603258;-0.009913671;0.02061859;0.07997088;-0.022311889;0.07491792;0.0068851793;0.1518401;-0.05855367;0.09895391;-0.08289415;0.3120766;-0.08839738;0.16833074;-0.07921071;-0.0417622;0.07964826;-0.07105175;0.104889564;-0.034058806;-0.037970766;0.07753967;0.07077271;0.06683528;-0.015077376;-0.09072471;-0.12755628;0.0089921495;0.070302404;-0.06598701;0.2231652;0.03850016;0.13849387;0.20079316;0.029203964;0.07773282;0.09699768;0.00809318;0.07572466;-0.05491482;0.061187357;-0.03526085;0.17902836;-0.034139376;-0.0745192;-0.079851285;0.046732992;-0.114277355;-0.048555862;0.04470107;-0.06303814;-0.065773524;0.026760492;0.0635857;-0.0063292114;0.0025411611;-0.08509693;-0.015179742;-0.05657736;-0.019117413;-0.12742877;0.056221876;0.052683286;0.038344078;-0.0013653627;0.014351489;-0.029404044;-0.0030569758;0.10101625;-0.08456716;-0.023094738;0.10488459;0.101178534;-0.053674065;-0.040019605;0.06403947;0.0091317;0.044294395;-0.0934906;0.052956887;-0.064646736;-0.10297855;0.020537991;0.18534368;-0.1417039;-0.07829992;0.01032102;0.10113952;-0.010190397;0.1233344;-0.051369756;-0.0019411822;-0.091439076;0.015430429;-0.10227516;-0.015115134;0.03244123;-0.013012984;-0.042220425;0.08281187;0.065057956;0.089718;-0.14369738;0.12764248;0.09097865;0.16592407;-0.016278658;0.060714293;0.00868898;0.017626747;-0.05175629;0.22079101;-0.023543198;0.077445075;0.016942587;0.09014026;-0.05917543;0.11007991;0.00453912;-0.006282559;0.03556977;-0.260699;-0.008521803;0.11395192;-0.03282626;-0.069120035;-0.027480751;-0.07343547;-0.14840548;-0.06130671;-0.01888687;0.20280467;0.002814411;0.015475774;-0.15507802;-0.2186494;0.13649602;-0.042717386;-0.008833309;0.048593387;-0.117919795;0.038306985;0.06616764;0.12136848;-0.06430764;-0.008282686;-0.044793498;0.058985583;-0.016997924;-0.055747326;0.074794136;-0.071539074;0.09738922;-0.015509596;0.03009328;0.024463598;0.031281557;-0.03302704;0.03238521;-0.05568529;-0.0023614669;0.06814871;0.057187792;0.011447466;0.08202183;-0.0048442865;0.10989627;0.05041589;-0.033020023;0.094953634;-0.015371598;-0.019798577;-0.051284015;0.044862073;0.09535687;0.08218092;0.041231535;0.053891666;0.036718868;0.041978873;0.04157829;-0.0404286;0.061497413;0.11672115;0.13649973;-0.108107254;-0.02367455;0.04172113;0.017333928;0.19283599;0.002880843;0.052148078;0.052772317;0.12777647;-0.031269748;-0.064845376;-0.11820604;0.19107088;0.039930418;0.084425494;0.027432265;-0.025031393;0.06671563;0.081897594;0.0024369997;0.07207343;0.05401417;0.016445095;0.07450661;-0.10482713;0.06914316;0.3665395;-0.0029706622;-0.0056706835;0.090929344;0.0066969125;-0.004552446;-0.05647971;0.027181152;-0.05566684;0.08153594;0.13475691;0.038752444;0.07148128;0.11819337;0.05284789;0.0046610474;-0.051602498;0.091812715;0.034770515;-0.007929566;-0.001528664;-0.20195268;0.020406513;0.055628993;0.052542683;0.06878502;0.18460858;-0.009411243;0.053909548;-0.067756556;0.07203657;-0.060991768;-0.012684199;-0.05965885;-0.015662797;-0.04556394;-0.030588618;0.024958799;-0.05723247;-0.017805818;0.020473626;0.02947094;0.13870373;0.0595911;-0.07456394;0.15273449;-0.069097094;0.10863912;-0.04159032;-0.021286223;0.09211519;0.13298565;0.1473388;-0.067600854;-0.060473513;0.12808868;-0.016663117;-0.069359735;0.048011623;0.0418962;-0.0122021055;-0.062064182;-0.11878595;0.08670557;-0.048039883;-0.020376086;0.005000479;-0.056978393;-0.0077959592;0.041857835;0.018999431;0.08144227;-0.15691274;0.009642348;-0.0017999626;-0.09689031;-0.01450633;-0.13734837;0.029837836;0.004213825;0.046275854;0.11644438;-0.023336522;-0.02558291;-0.07197295;0.106105275;0.053217012;0.041349124;-0.043650117;0.0019032345;0.07564603;-0.17222929;0.012079492;-0.056610197;-0.018829845;0.046258133;0.09698763;-0.06662994;0.112937756;-0.036526784;0.0027937933;-0.09238906;0.11008715;0.081073835;-0.2338801;-0.0044223364;-0.08977097;0.008094651;0.026411206;-0.04274188;0.093313515;0.0076808217;0.04751468;0.011424152;-0.109485276;-0.0071711293;0.19219962;-0.01830486;0.082824245;-0.03613495;-0.020662583;-0.008201339;-0.08399873;-0.07249611;0.04882133;0.083703734;0.040063318;0.068667516;0.06981042;0.114754945;-0.032631043;0.03321043;-0.017953161;-0.011993299;0.102663614;-0.037071142;-0.02918222;0.07617528;0.025429893;-0.0038098535;-0.3431879;0.097657785;-0.009860134;-0.09995204;-0.00083442824;0.17638102;0.060053468;-0.07922239;-0.081185535;0.025466697;-0.011231532;0.008802468;-0.08999655;0.05553278;0.048246924;-0.10413735;-0.045107305;0.014920354;0.055315595;-0.027562058;-0.0054740603;0.16503629;0.040111877;-0.089187965;-0.04842645;0.09110495;0.004635832;-0.032268245;-0.04225361;-0.0024369138;0.06401043;0.03782593;0.059550248;-0.049377706;0.05970966;-0.10423706;-0.033589583;0.025162643;-0.059579328;0.026470616;-0.109157085;0.11018945;-0.038270835;0.012449144;0.13261542;0.059109315;0.2046137;-0.079895124;0.0736101;-0.049511194;0.2560618;-0.12232736;-0.076794915;-0.015266729;0.08212583;-0.10869066;0.022345845;0.049408473;0.06620701;-0.057826135;-0.0012616421;0.11291081;0.07878372;-0.107885085;0.17463951;-0.07424273;0.075230464;-0.054195505;0.11807221;0.08612497;0.02375749;-0.0727962;0.0068068705;0.016714793;-0.11100073;0.05953414;0.031529352;0.027088974;0.0016032972;0.06329863;0.009726903;0.049964193;-0.093645565;-0.049122967;0.075136736;0.03383856;0.17537363;0.042446267;0.036515817;-0.0002073092;0.015852736;0.17220588;0.031733263;-0.031533346;-0.077312276;0.1280014;0.019529553;0.026270865;-0.15776327;0.024691429;0.054528702;0.015947094;0.09898302;0.034258373;0.0062806876;-0.13624394;-0.04437135;0.08148138;0.079447836;0.056604255;0.053822912;0.013834043;-0.044638377;-0.052058805;-0.029116537;-0.045540847;0.00024011044;0.0050741476;0.20692183;-0.08536887;-0.15019979;0.033256162;0.10718546;0.0772338;-0.05071527;-0.0618045;-0.027888654;0.04342219;-0.030453967;-0.017032107;-0.07654348;0.016787505;-0.01906088;0.11174171;-0.0021341608;-0.06541339;0.0639043;-0.016447926;0.021820074;-0.231519;-0.11722315;-0.009930381;0.019155066;0.02402383;-0.11907977;-0.016575728;0.12780337;0.023628002;-0.043935772;0.13837518;-0.017282989;-0.063341975;0.02160708;0.009955543;-0.010000903;-0.095065296;-0.0015806637;0.0587769;-0.023838207;0.043996874;0.009593394;0.010623698;0.050772477;-0.23390272;0.095986485;0.088962235;-0.009708508;0.0859219;0.04808111;0.0050466545;-0.00012569777;-0.070761025;-0.08467997;0.013873369;-0.09412822;-0.16466281;-0.026872674;0.06283574;0.025026638;0.12693371;0.04394504;-0.10652851;0.09304397
0.123560175;0.06950987;-0.27894676;-0.08506645;0.06384991;-0.053272087;0.08247281;-0.029589457;-0.006650386;-0.066788726;-0.048600383;-0.055185672;0.0015051578;-0.009483377;0.015910877;0.04699525;-0.124680266;0.058014706;0.07244586;0.14249715;0.07125962;0.14607227;0.03447237;0.04050552;-0.1574049;-0.0056284782;-0.07293629;-0.049713712;0.117289364;0.061985496;0.019748285;-0.0880562;0.0075461324;-0.026728539;0.121072054;0.03738834;0.005887584;0.035739284;0.074490726;-0.05431981;0.01893371;0.13721253;-0.2911289;0.11132717;0.087932825;-0.036715847;0.010690844;-0.010690077;-0.0879663;-0.068604246;-0.060662;-0.06527275;0.036368497;-0.03339048;0.052431136;0.035154548;0.13584377;0.073732525;0.01659439;-0.06139159;0.06460951;0.001098552;0.07607636;0.07270669;0.17765468;0.094550475;0.006028782;-0.006159274;-0.11721831;0.04846527;-0.045558892;0.029006604;0.26194203;-0.013224352;0.10755941;0.18859248;-0.027117096;0.05863348;0.1880168;-0.02034642;-0.009537459;0.0058921385;-0.07283797;0.004946837;0.1591782;0.03361524;-0.026079778;-0.059658673;-0.0073676514;0.029636228;0.003546495;-0.053430628;0.022926716;-0.18737188;0.0022931157;0.1346667;-0.06617389;-0.013004741;-0.018715078;0.047101755;-0.005021062;0.0040589427;0.030716676;0.068192504;0.015444214;0.077999234;0.07621877;-0.08259263;0.0014743026;0.05725197;0.10338801;0.014357561;0.021325741;-0.023806833;0.0016388756;-0.117987834;0.13266063;0.07192936;0.009744589;0.05869139;0.015010544;0.053374514;0.06478329;-0.014724078;-0.10496329;-0.051501896;-0.029045554;-0.037816428;-0.046991885;-0.15852611;-0.038140178;0.052967146;0.06748872;-0.052236658;-0.057475004;0.03153448;-0.15908946;-0.061641876;0.080374464;0.06946504;0.07503431;0.043141816;-0.00076450204;-0.020482615;0.0029184157;-0.080482565;-0.004882415;-0.06738104;-0.044460535;-0.047014475;0.01653389;0.13022181;0.056323357;0.15147087;-0.0138452705;0.16095786;0.031156337;-0.04852646;0.034014132;0.027458195;0.0359599;-0.039515555;0.013636751;0.12796886;-0.095822245;-0.04136691;0.065647386;0.04907944;0.053532764;0.09281667;-0.015135146;0.14699334;-0.058041062;0.07585505;0.075033635;0.026032444;0.12637308;-0.19495414;0.16169095;0.009595731;0.048645735;-0.0017507871;-0.1929748;-0.0011621721;0.039406724;-0.016732816;-0.09885156;-0.06727757;0.03903975;-0.016231928;-0.069428064;-0.027789617;-0.011038573;0.077645846;0.019581588;0.02028635;-0.10149865;-0.01807228;-0.066845156;0.027418904;-0.004075441;0.05570897;0.004687026;-0.062611386;0.093637794;0.020370785;0.119114235;-0.11910405;-0.008592017;0.031131502;-0.008072524;0.026271919;-0.021729296;-0.032645866;0.0104173515;-0.016453557;0.022751117;-0.07293225;-0.07863816;0.065504864;0.014177344;-0.039521135;0.06258681;0.003171612;-0.0054065916;-0.03248497;-0.10258528;-0.17587005;-0.031936623;0.046085782;0.039992053;0.11798796;0.14077817;0.1085123;0.047457512;0.026064182;-0.003280367;-0.03467386;-0.04530119;-0.14937359;0.04086744;0.01609134;0.040396336;0.042995546;-0.03492828;0.09794839;0.04262028;-0.02735113;-0.09073448;-0.05950292;-0.023636688;0.030397158;0.035160273;0.068123825;0.11489823;0.025926108;-0.0555942;0.076779895;-0.009662904;0.05016945;-0.055814918;0.026822994;-0.034347914;-0.08354505;0.0010211802;-0.042517975;-0.086446;0.10963755;0.09958843;0.07246735;0.06420328;-0.036972936;-0.03524225;0.042353343;-0.17494978;0.04200138;-0.0019177869;-0.097300015;-0.08677104;0.06426532;0.07597555;0.08489426;-0.10849161;0.075819105;0.057317927;0.042991437;0.06982626;0.01370634;0.014826137;0.0021274448;-0.013197938;0.07684822;-0.033238523;-0.07618703;0.16066566;-0.10531121;-0.038709745;0.15095764;0.09007259;0.069700606;-0.0709215;0.013409525;-0.030851426;0.10795261;0.1393581;0.019541593;-0.23648322;-0.087716095;-0.005728552;-0.0028686752;0.0400131;-0.06924456;-0.0038802098;-0.09752623;0.08874213;0.0726636;0.097265914;-0.087082304;-0.053650253;-0.077101775;-0.078625806;0.0036911538;0.11148945;0.06592164;0.1900803;0.009709377;0.061786335;-0.028712202;-0.05473741;-0.09413213;-0.18562286;0.17709365;-0.04156528;-0.06520076;-0.1224192;0.1302698;-0.07454069;0.060017057;-0.01966814;-0.11463374;0.11628674;0.032812618;-0.03576108;-0.028481249;-0.28429005;0.013054451;-0.039768104;0.034327317;0.029570188;0.015665006;-0.057392865;0.17927441;0.1244109;0.05962185;-0.08516941;-0.0612206;0.12895672;0.086429894;-0.13563614;0.06955984;0.02724012;-0.02583051;0.004037135;0.005864409;0.029911118;0.07013078;0.07908551;-0.12210368;-0.015103586;0.028052531;0.09996205;-0.096928395;0.001111664;-0.058098316;0.11119819;-0.0065211058;-0.069760345;0.015178653;-0.09176995;0.014582822;0.041908473;-0.02456352;-0.014899384;0.08800478;0.03980676;-0.021430707;0.092832364;0.021623524;-0.010742377;-0.0029374377;0.006941211;0.12953839;0.10656967;-0.23771809;0.09051955;-0.041812256;-0.09620293;0.053833164;-0.00753661;-0.03853589;-0.037000928;-0.06090479;-0.07479131;0.025806148;0.042989105;-0.100692846;0.012721462;0.12496336;-0.008501236;0.06776513;-0.03064246;-0.050190777;0.024828408;0.035209604;0.08150138;0.08015173;-0.08516606;-0.038870603;-0.06284372;0.06448154;-0.08150248;0.06800862;0.020622939;0.05214331;0.07092991;-0.004421946;-0.013326825;0.1286434;-0.008127697;-0.06810841;0.0158754;0.15218535;0.07749231;0.13360707;0.26264036;-0.05598025;0.089919135;-0.012513535;-0.024420122;0.07964847;0.00898207;-0.04353977;-0.09479664;0.18126741;0.07689754;-0.06648292;-0.2641765;0.06308014;-0.005750027;0.009065025;-0.11981673;-0.0027407128;0.020521732;0.0067433584;0.105951466;-0.082037956;0.042722106;-0.12018318;-0.02337818;0.06437285;0.06461865;0.07733447;-0.12478551;0.023300424;0.0424488;-0.056353208;-0.035556;0.03225914;0.13194868;-0.01245517;0.0936294;0.034283355;0.10843831;0.053419188;0.038753934;-0.02452223;0.0032542085;-0.026620403;-0.047073446;-0.06093349;0.059761476;-0.06308808;-0.013330744;-0.02044305;0.25602403;-0.05658427;0.077871084;-0.059229013;-0.10294577;0.057682514;-0.052667964;-0.1082058;-0.055240326;-0.025835594;-0.068661556;0.01966616;-0.009633909;0.019605901;-0.17624727;-0.049392156;-0.082138434;0.10256909;0.08890713;-0.09654497;0.024177913;0.0577946;0.05721258;-0.08137512;0.018796057;0.119920045;0.129922;0.12499542;0.009706239;0.025092602;-0.010615105;0.13532852;0.058624856;-0.0013490532;0.064261146;0.117508404;0.16873524;-0.038041987;-0.0044217217;-0.051067553;0.009824177;0.033193544;0.037050787;0.057418123;-0.03625473;-0.06671048;-0.021726912;0.0011550626;0.03199273;0.26164678;0.040824596;0.04024652;0.05914573;0.011379477;0.07293367;-0.00037556607;0.11301632;-0.04157448;0.011244827;-0.038953993;0.049214467;0.041592978;0.025311092;-0.062180188;0.007875919;0.06787823;-0.008012412;0.04033503;0.08431781;0.06880291;-0.032935653;0.023060493;-0.03084955;0.0305355;-0.10390363;-0.06254237;0.0291507;0.28371587;-0.016019575;-0.0022033288;-0.019051535;0.045667864;-0.017978504;-0.04030484;0.100441255;0.10258321;0.018551663;0.11843;-0.06336284;0.060479525;-0.07865825;0.07340899
0.00578977;0.05329048;-0.036253262;-0.021635054;0.077079624;0.06447262;-0.021211231;-0.024117496;0.056832507;0.0888774;-0.08011487;0.0129486;-0.069030575;0.04242594;-0.046440627;-0.109622404;0.06403802;-0.043842364;-0.038314223;0.058487546;0.03629861;0.03988606;0.14525646;0.044456825;-0.18820289;-0.23617978;-0.019777536;-0.017776076;0.059987176;-0.12886608;-0.007302473;-0.01516253;-0.06038687;-0.011497073;-0.05989325;-0.23686366;0.044846613;0.04002287;0.0012874015;0.04877499;-0.01158214;0.08327584;-0.15366048;0.046189126;0.13612033;0.14461055;0.041873;0.0111116;0.020857597;-0.019870207;0.02863982;0.16464391;-0.025753673;0.18590978;-0.062025618;-0.08990254;-0.06072504;-0.06765064;-0.034299113;-0.008891075;-0.073923655;0.06100127;0.06977045;0.06632036;0.07552192;0.117807224;-0.017734375;0.04541999;0.041486785;-0.012798966;-0.024140682;0.0049506654;0.22781654;-0.05800798;0.04597395;-0.003026278;0.020115506;-0.023875125;0.13828224;0.034959137;-0.049099825;-0.06533342;-0.044703122;-0.04406102;0.12224326;0.072542906;0.030593926;0.022723502;-0.029156893;0.09739192;-0.041262988;-0.07671592;-0.007854741;-0.1481622;0.09655438;0.045835823;-0.04004546;-0.04536823;0.01684361;-0.019514214;0.07095336;-0.04153122;0.19589281;0.025881577;-0.070169844;0.122179754;0.09664474;-0.050781425;-0.020972213;0.07645059;0.09470363;-0.02870787;-0.020006051;0.061070383;0.1003658;0.09031462;-0.04763467;0.0924999;0.045135994;0.014952328;0.07028189;0.12197721;0.04710919;-0.029493494;-0.007293428;0.09790015;0.07702775;-0.030323721;0.023775298;-0.022125684;-0.002260593;0.012889594;-0.0045785997;-0.074058495;-0.0071987687;0.04722941;-0.11735026;-0.030540228;0.06141469;-0.039919358;-0.042745322;0.114088185;-0.041351166;-0.0609936;0.05616087;-0.014828496;-0.08757531;0.03101374;-0.17516248;0.14911099;0.034419008;-0.022260373;0.11077913;0.114945106;-0.095489785;0.104485616;-0.03466219;0.028024938;-0.040678788;-0.18096472;0.006674124;-0.016732667;0.11879061;-0.00704809;-0.20585568;-0.065134004;-0.017481867;-0.042796634;0.023202237;0.049133718;-0.0071022687;0.20136869;0.084154345;-0.022211501;-0.017070873;-0.011444909;-0.018483851;-0.07565124;-0.01081985;-0.0067049987;-0.034810174;0.09444852;-0.09608264;0.14731592;0.0060895057;0.12255056;0.07710589;0.04949477;-0.01428462;-0.013177544;-0.07500064;-0.028509928;-0.0367926;-0.0620548;0.050827343;0.11844537;-0.110633746;-0.011905551;-0.07168035;0.039634515;0.013192327;-0.062024176;0.034540977;-0.042392995;-0.059668463;0.06472386;0.027243666;-0.08329514;0.069690794;0.07078284;0.033428866;-0.033989344;0.036989804;-0.027877161;-0.08879154;0.0053238356;-0.027999006;-0.046893362;0.06923828;0.04286575;0.047841698;0.036003802;0.01367844;-0.03493445;-0.024157437;0.039312374;0.09274425;-0.08133238;-0.026165962;0.09378985;0.042425066;0.01915845;0.15632616;-0.046751793;0.010589454;0.001619302;-0.032083753;0.03158266;0.01371709;-0.2092171;-0.051037874;-0.081462525;-0.046176646;-0.07641758;0.070936054;0.016106367;0.0012926812;-0.040685255;-0.013169611;-0.090109475;-0.02731078;-0.054333247;-0.026276717;0.20297475;0.003517317;-0.021872355;-0.033609085;0.045425553;0.03874618;-0.046166092;-0.16220032;0.020772476;0.0507872;-0.084694445;0.04544807;-0.027760958;0.07316502;-0.010080505;-0.05009053;-0.08691976;0.06992518;0.12613818;0.104431875;-0.055660065;-0.28825343;-0.12442257;-0.032929223;-0.059357397;0.053928852;0.0023581483;0.076269545;0.021680305;-0.07425076;-0.0050370423;0.021474272;-0.048529398;-0.06264819;-0.026376735;0.00096829806;0.04393898;0.13571331;0.0925741;0.09432777;0.02471151;0.05048815;-0.15722078;-0.016315723;-0.033292487;-0.054312557;0.15803222;0.010774983;-0.06564677;-0.009097574;0.15166147;0.05785529;-0.041194666;-0.19188862;0.001563699;0.07788534;0.03021625;-0.043963693;0.072717264;0.0618657;0.04950784;0.031099899;0.0015753104;-0.022341263;-0.039174166;-0.043915622;0.0342143;0.021892697;-0.07618671;-0.022527596;0.054989655;-0.01821599;-0.11659073;-0.045595687;-0.04936062;0.031327944;0.051573534;-0.036195938;0.02210387;-0.07032525;0.018036034;0.06755099;-0.074150585;0.0078051123;0.033533037;0.06678577;0.03957429;-0.022131557;0.016567443;0.05875284;-0.015025352;-0.074228995;-0.059130993;-0.053158;0.07260373;0.01316526;0.066685714;-0.0690317;0.18408492;0.005893557;0.10097116;-0.10821026;0.093948;0.070533745;0.031240884;-0.12379809;0.07125976;0.025580287;0.00088626856;-0.072195634;-0.112049796;0.025328942;0.13954945;-0.044588707;-0.27806786;-0.027497707;-0.04938372;0.08233491;0.029065806;-0.06759025;0.04276009;0.27905002;0.059242237;0.014073099;-0.04654204;0.041650154;0.018363345;-0.049979538;-0.0297182;0.02554814;-0.14077826;0.09317996;-0.030685809;-0.02769679;-0.09316983;-0.0019642718;0.058125407;-0.012740686;0.13972235;0.21929151;-0.3324947;0.19070284;0.025655897;-0.16052274;0.053978678;-0.01668555;0.033185985;-0.06796105;0.11627112;0.0026665623;0.074147694;0.0388014;0.038181253;0.02068802;0.06302635;0.0531735;0.067411646;-0.007238358;-0.0018722382;-0.058418214;0.017398287;0.13050643;0.056108207;0.018028447;0.01941112;-0.014642167;-0.0019266324;-0.036320303;-0.14342232;-0.0053146444;-0.013320895;0.013193879;0.05679034;-0.043573067;-0.023431452;0.12571684;0.035134245;-0.040893193;0.10617514;0.07972813;0.12757528;0.1760248;-0.013703948;-0.039165314;0.061418682;-0.019951057;0.0452474;0.03449875;-0.16584578;-0.032011844;0.012841578;-0.061389968;-0.0062857037;-0.14112328;0.0757853;-0.020546438;-0.09025864;-0.09596192;0.0350189;0.0038334092;0.022214875;0.053974777;0.07875574;0.04442348;-0.023378646;-0.019130895;0.046222456;0.0136730885;0.09052526;-0.08528009;-0.03999413;0.055568255;0.051908057;-0.0895815;-0.21121018;-0.026446978;0.08219675;0.15636092;0.09905831;0.14163092;-0.0015883308;0.023508212;-0.12564813;-0.06269965;0.0048132683;-0.0061713336;0.024193216;-0.015500225;-0.044415154;0.13732378;-0.042012405;0.088961266;-0.0058542877;0.056258824;-0.0047997516;0.0064108265;-0.06499009;-0.059063677;-0.089114696;0.08432805;0.10387055;0.09855606;0.029418197;0.039372556;-0.061403714;-0.012019243;0.051701494;-0.039668325;-0.053066235;-0.038185023;-0.02353875;-0.026602222;0.026055394;0.035518296;-0.021690788;0.058367733;0.12146386;0.07525561;0.07976654;0.04296111;-0.04348223;-0.04133413;-0.0678152;0.030519761;-0.009231035;0.059354004;-0.08269185;-0.031433657;-0.087680526;0.018773563;0.02769992;-0.008443455;-0.05417641;-0.0308624;0.11356545;-0.1858404;0.02370662;0.0853528;0.0558166;0.13270262;0.16201647;-0.022826118;0.033552613;0.14295556;-0.05246957;0.015738804;0.081636444;0.060991228;0.05962165;0.124869876;0.041776463;0.03737125;0.029445458;-0.06826089;0.09130904;0.11462822;-0.052070934;0.02966258;0.016982798;0.010236266;-0.04500249;0.019414857;0.055917602;-0.0075748237;0.06630761;-0.06719938;0.03662099;-0.005562365;0.114962876;-0.027676744;0.0039965664;0.0052228863;-0.07166976;0.1171282;-0.08039721;0.16709594;0.04606665;0.011890028;0.08674314;0.14510897;0.059171077;0.10978172;0.07960478
-0.041568134;0.063273735;-0.13900425;-0.06569936;-0.014858578;-0.056506407;-0.2899599;0.008360735;0.0767044;0.011906924;-0.002235726;0.002007794;0.013045852;-0.04000425;-0.004372706;0.04953292;-0.065680996;0.036915537;0.016214913;0.123709686;-0.09303343;-0.043238666;0.14558974;-0.026950236;-0.0666151;-0.08585987;0.0626812;-0.029044077;-0.02993794;0.10323368;-0.034391966;-0.075130574;-0.089983344;-0.1304483;-0.031941324;-0.22743529;0.13524769;0.067980915;-0.081325315;-0.13590999;0.0335117;0.01796407;0.08083735;0.0059537846;-0.07996962;0.045623377;-0.075569876;0.06445571;0.095641784;-0.044693854;0.0025358368;0.16652621;-0.055105098;0.11265623;-0.07472566;-0.17447844;0.021253634;-0.10464505;0.07197822;0.21883833;0.059942387;0.026258208;0.12501962;-0.16025329;0.0045040078;-0.0024441006;-0.0556197;-0.04969439;0.038188368;0.057904962;-0.07276476;-0.02000459;-0.020027664;-0.045057777;0.05995565;-0.2720379;0.0007723499;-0.062478587;0.031827576;0.041761935;-0.04830321;-0.044514563;-0.10407837;-0.030028278;-0.14428149;-0.045125954;-0.064705744;-0.11529541;-0.024602577;0.19291715;-0.008410379;0.02869101;0.04525464;-0.21777901;-0.0727755;0.052616574;-0.11264606;0.0032276066;-0.03162531;0.04888399;-0.19430113;0.006827438;0.09928759;-0.0586284;0.05040797;0.11955267;0.060760953;0.02989724;0.21723035;0.042127706;-0.033774603;-0.015322731;0.007167915;0.18010497;0.068140514;0.006902558;-0.09494394;0.012942359;-0.022454578;0.09411069;-0.00025019445;-0.019701522;-0.027889073;0.022169886;0.10264031;-0.14857237;0.050120413;0.034787387;-0.01278291;-0.22152045;0.031612504;0.021639666;0.09544541;0.010388372;0.06747304;0.0040906533;-0.07132232;-0.10900749;-0.05083544;-0.058151156;-0.05943327;-0.053415205;-0.10043813;-0.03403806;0.14502361;-0.07833617;0.015748277;-0.030287744;-0.39497587;0.12503676;-0.05295083;-0.058782414;0.15314852;-0.14090282;0.030741103;0.028272165;-0.13831861;-0.13337258;-0.0346254;-0.36798805;0.0019255937;0.044878058;0.047499806;0.09144995;-0.14490442;-0.046577185;0.02945375;-0.10884351;-0.10700058;0.01259704;0.0012819832;0.17542388;-0.033305712;-0.16399835;-0.061504092;0.11229276;0.09749899;0.0013945185;-0.0013871476;0.007402132;0.030734494;-0.09793271;0.1562614;-0.0056237765;-0.05473359;0.095953435;0.18653984;-0.0042808857;-0.07680565;0.078542516;-0.10256417;0.05878946;0.0502036;-0.06871324;0.12403745;0.11796712;0.007882304;0.0034128237;0.039433666;0.018775076;0.08806699;-0.025137927;-0.0138558205;-0.07034267;-0.07181974;-0.032779027;0.03742329;-0.07190827;-0.16674522;0.067004874;-0.06477103;0.06303465;0.039500736;-0.038930982;-0.102323346;-0.067005165;0.0152313225;-0.07930587;-0.024749048;-0.010188609;-0.059843745;0.064728916;0.15553306;-0.001651099;0.06592359;0.070635565;0.13003911;0.10557833;0.13203715;-0.048635572;-0.13027903;-0.10804765;0.10944749;-0.02808414;0.070381366;0.07074677;-0.056474663;0.0072175935;0.15927997;-0.14055921;0.042080827;0.017312242;-0.101992175;-0.13583411;-0.044661406;0.14078324;-0.077672586;-0.029606715;0.101592876;0.078873605;-0.091962874;0.01996613;0.07154243;-0.20804189;0.008587939;0.001119672;0.0657964;0.075682096;-0.01894657;0.015622075;-0.12030622;0.07584109;-0.0076317987;-0.043833986;0.06044471;-0.027387653;0.17288211;-0.101423375;0.034119062;0.025834525;-0.047298074;0.17836374;0.087799914;0.047685493;-0.24716772;-0.19296744;0.010337703;0.057597958;0.0789401;0.10635167;0.07215063;0.04216716;0.09226778;-0.0019456182;-0.018401919;0.082077816;0.094014145;0.0042699496;0.10950127;0.13092756;0.09687293;0.14013883;-0.012727577;0.023897564;-0.20955564;-0.09787256;-0.04598046;-0.14677224;-0.04987629;0.06814888;0.01962649;-0.076415814;0.03724296;0.14486477;-0.046401277;-0.25761187;-0.2885253;0.009322522;0.04895307;0.12208431;-0.046999123;0.012560914;-0.054382898;-0.021203024;-0.14796735;-0.029858453;-0.08165755;0.09078738;0.04746497;0.060149428;-0.062174108;-0.04891181;-0.070633285;0.14532277;0.0902244;-0.013571637;-0.069047265;-0.025334055;0.09437032;0.17898124;0.09595901;0.008520754;0.09566683;0.046135288;0.103651926;-0.1353399;0.1062789;-0.022621315;-0.003905628;0.057816755;-0.14351135;-0.08242405;-0.048071265;0.05440154;-0.14018153;-0.07869279;-0.010423905;0.02259125;0.05481829;0.15959197;0.06330346;0.003000061;-0.0045186076;-0.00012597263;-0.06811341;-0.017880784;0.09145095;0.052752946;-0.3184399;-0.03788997;-0.08274716;-0.023788257;-0.024878168;-0.045743313;0.14505026;0.063961856;0.023161853;-0.22404572;-0.031981904;-0.023375425;0.028853698;-0.008866285;-0.07809398;0.029064244;0.12003305;-0.10483285;0.025318095;-0.15993154;-0.018986588;0.010051215;0.06201992;-0.044180453;0.03126692;-0.039032288;0.009318874;-0.04437486;-0.099095315;-0.1277509;-0.07987919;-0.05319141;0.06008141;0.22696382;0.279818;-0.28808996;0.19314645;0.03135143;0.05643918;-0.07576455;-0.11221161;0.07164887;0.0028107485;0.102084965;0.010212662;0.1664385;0.073565975;0.14939019;-0.06024724;-0.0039789816;0.024854643;0.05537813;-0.063384235;-0.062455446;0.0067747575;-0.036120158;-0.00018528223;-0.017075855;-0.13520278;-0.07238465;0.07057646;0.03529672;0.086053185;0.0012164543;-0.046594094;0.015738009;-0.006218482;0.094857454;0.05639346;0.007874407;0.30186498;-0.0019443594;-0.06066473;-0.054553736;-0.024342604;0.112070926;0.13642234;-0.11797856;-0.027483234;-0.24051724;0.010501505;-0.064947754;0.024005475;-0.25315717;0.09136636;0.020434625;-0.113364264;-0.10752181;-0.049245175;0.028542645;-0.012786398;-0.098676234;0.07920969;0.10932646;-0.009098281;0.1786736;0.014167578;0.051924985;-0.034805298;-0.023512049;0.008736289;-0.089482024;0.058524262;-0.1038049;0.058273282;0.010859093;0.067475185;0.018863846;0.04877844;-0.03358903;-0.07843647;0.06948502;-0.00844109;-0.03387592;0.06213939;0.10063428;-0.019673256;-0.092689276;0.03139477;-0.018316275;0.0858564;-0.01874105;-0.019235536;0.030093046;0.115163215;0.071166135;0.11854768;-0.068980716;-0.04501877;-0.09774022;-0.08994801;0.05241823;0.00040594296;-0.088902414;0.04166633;0.14502148;-0.06471482;-0.2696383;0.045729548;0.01937632;0.1039583;0.017885547;0.093990706;-0.041610382;-0.04760778;0.11536698;0.050118327;-0.11763496;0.11862172;0.04091809;0.020817654;0.061508656;-0.0807478;-0.009391896;0.0670547;-0.060510635;0.0049468074;-0.044949505;0.033631336;0.022989072;-0.07433364;-0.08635669;-0.041956004;-0.08231134;-0.017503316;0.012899984;-0.14544798;-0.060939316;-0.060910802;0.027910331;-0.15478295;0.12139415;-0.032920323;-0.05128927;0.12051936;0.25372198;-0.0024585938;0.10391433;0.10526877;-0.03866624;0.019580334;0.0043780115;0.057382844;-0.023084886;-0.017228598;0.15300828;-0.060467586;-0.09766334;-0.02225804;0.0656952;0.13558;0.07735978;-0.042640395;0.046316665;-0.15053914;0.009676512;-0.08596236;0.011524141;-0.0008545575;0.030009488;-0.08518995;-0.0056155547;0.03810803;0.16269681;0.10931883;-0.03507365;-0.029983757;-0.022892782;0.17895126;0.06792123;0.32240662;0.031116381;-0.07869862;0.04459965;0.013842656;0.087672286;0.16651861;0.13765089
-0.021351196;-0.09661705;-0.2761502;-0.089997955;0.086348504;0.06176585;0.014636291;-0.03104699;0.048649073;0.05723272;0.03563812;-0.011571834;-0.07337608;0.04630092;-0.077696465;0.045040064;-0.17990746;-0.117333576;-0.08282208;0.097612515;-0.007912527;0.14965345;0.09286932;-0.09989885;-0.010185184;-0.10227014;-0.05689743;0.1097248;0.0054853233;0.024153663;-0.065176964;-0.009823369;-0.032628167;0.032638643;0.12495752;0.04546372;0.091183;0.019400528;0.040080518;-0.024717985;-0.008149187;-0.018349862;-0.021314664;0.06285816;0.11719289;-0.017143458;0.07797832;-0.015810346;-0.11345455;-0.03614404;0.031017363;0.08866988;0.043294847;0.1902151;0.03625068;-0.05946551;0.05484487;-0.097610034;-0.03316581;0.20177938;0.07468553;0.006846555;0.091811515;0.15356724;0.07682939;0.0021497372;0.0032674992;-0.008016304;0.07062414;-0.0448919;-0.035650007;-0.040342927;0.15487826;0.006516927;0.047033373;-0.02848144;-0.012317823;0.07873916;0.16505912;-0.14464617;0.09549745;-0.1433792;-0.14247762;-0.0020877875;0.033036754;0.069401875;0.023320124;0.12601069;0.0726268;-0.020176565;0.006938631;-0.032826766;0.07289361;-0.19107032;-0.025331682;0.012031809;-0.22614259;-0.049063563;-0.05764843;-0.02242293;0.014671401;0.025993856;0.07832846;-0.03691886;-0.020896552;-0.08740614;-0.048663657;0.08581324;0.09369363;0.06389158;0.015857654;0.023131719;-0.06914219;0.006992642;-0.013410203;0.07700652;-0.04345992;0.059111673;-0.07086616;0.017340086;0.039009042;0.0042832773;-0.0859241;0.023590332;0.012308094;-0.1794198;-0.10026565;-0.036192518;0.0073081343;-0.3257068;-0.11070061;-0.12026078;-0.054231882;0.06168002;-0.023687037;-0.08302097;-0.28594112;-0.15219678;0.038761243;0.040578324;0.055883273;0.076894626;-0.041632153;-0.051023398;0.09218994;-0.07609196;-0.17073695;-0.18335624;-0.31255433;0.106659114;-0.012270801;0.086362556;0.017825449;-0.15633534;0.028746977;0.105188064;0.0011380207;0.042091615;-0.061602455;-0.11960641;0.10234997;0.0072632604;0.050533153;0.08837506;-0.106444724;0.008326952;-0.057703853;0.05750251;-0.020276243;-0.044619985;-0.24871658;-0.053403635;-0.06818547;-0.057368595;0.12826647;0.09796172;-0.065174244;-0.06497815;0.122360125;-0.04310891;0.06705329;0.03234267;0.1493682;0.11821867;-0.03209744;-0.027507314;-0.06287881;-0.053711623;-0.040590793;0.03611991;-8.144998e-05;-0.028453264;-0.040360555;-0.05293484;-0.099290185;0.027678072;-0.033353616;0.038339086;-0.07580695;-0.18817216;0.03040988;0.054762483;-0.029867126;0.013865253;0.05627523;-0.019885149;0.07145731;0.06492104;-0.19340725;0.0039831325;0.082683295;-0.04398929;0.0743366;0.033488113;-0.024199078;-0.044839796;0.02816656;0.093409695;-0.03721819;0.042228427;0.0021689236;-0.021990987;0.112777404;0.081385836;0.007146837;-0.1113625;-0.033182118;-0.06752243;0.04246171;0.09617876;-0.013502041;-0.0039234487;-0.059415262;0.09719859;-0.062487055;0.042962402;0.0069521605;0.066201866;0.076905936;-0.12125117;0.056089707;-0.08605657;-0.06256643;-0.11318603;0.073873006;-0.004038157;0.048512276;0.033163402;0.07217036;-0.06721857;0.027137458;0.053731058;-0.032559004;-0.14970589;0.034166463;-0.045982692;-0.02601942;-0.041497067;-0.012596099;-0.046137672;-0.22925556;0.03775238;0.06456433;-0.040632486;0.020803383;0.050018556;0.024951734;-0.030267306;-0.14888202;0.02647884;0.020116735;0.032540593;0.015056573;0.07238528;-0.14086601;-0.03887081;-0.065336876;0.020598069;-0.018170651;-0.2161922;-0.027080297;-0.0442506;-0.046060145;-0.06716069;-0.05185474;0.03710335;0.012346839;-0.06727772;-0.013714746;0.050749563;-0.0075482847;-0.053614214;0.029444182;0.033637237;0.010775113;-0.21872322;0.07528925;-0.103043176;-0.037309643;0.03757694;-0.030910818;0.050732315;0.02675698;0.030090902;-0.012381621;-0.18280233;-0.22477835;-0.06648837;0.035678055;0.07751078;0.06774849;-0.022974849;0.0010647168;0.075163074;0.011793144;0.03726096;0.09400355;-0.035681892;0.062225673;0.0535421;-0.029768538;0.055248015;0.051746055;-0.06318703;0.13575843;-0.0049922806;0.037417077;-0.039050274;-0.029468324;0.12091555;-0.17252497;0.11454139;-0.06372298;-0.08759763;-0.08330626;-0.09195975;-0.057982862;-0.10177769;0.016622368;-0.08970578;0.04528245;-0.07193347;0.07809542;-0.24023949;-0.07785079;-0.023786098;-0.0054460056;-0.018286139;-0.07124598;0.038477503;0.010438432;0.17415492;0.07368167;0.08557401;0.043207455;-0.026386868;0.13904011;-0.018196817;-0.18409355;0.084039696;0.101394154;-0.057502717;-0.10336637;-0.0038437217;0.004909526;0.08253848;-0.0691473;-0.06856332;-0.045755442;0.06621378;-0.024099004;0.074507326;0.06484856;-0.084134474;-0.09538216;-0.061443914;-0.015648749;-0.11125846;-0.09750085;-0.0484306;0.07134456;0.028256468;-0.13790707;0.052058104;0.08935855;0.0154119665;-0.011344716;0.06917086;-0.006980187;0.0007012824;-0.009307281;0.12607332;0.026586734;0.065037645;0.14750385;-0.05575397;-0.0015356699;-0.048104536;-0.25080842;-0.03294543;-0.06370002;0.014203461;-0.084622495;0.06702552;0.0061666165;0.05100946;0.00034905464;0.122109495;-0.17659532;-0.031788956;0.060584523;0.01821724;0.09238882;0.025827749;-0.076344654;0.092825;-0.04851844;-0.0561354;0.05039368;0.066331714;-0.07854308;-0.0129937325;0.062821575;0.06866854;-0.038967356;-0.06254657;0.025932219;0.011010511;-0.1372483;0.027452538;-0.01730263;-0.046213813;-0.065592974;-0.009182964;0.3267355;-0.029341457;0.012986684;-0.15946741;-0.06663633;-0.037996612;-0.072652;-0.23748878;0.025232155;-0.02839216;-0.13845012;-0.12827216;-0.3672965;-0.027149439;0.07655404;0.14112838;-0.0022827212;0.007590707;-0.13561577;0.04560071;0.04145796;-0.025309876;-0.02440079;-0.17088313;0.07083105;-0.06151581;0.09512052;0.108822;0.0072570527;-0.044525612;0.07785833;0.07226483;0.057033822;0.1178957;-0.052424893;0.022074556;0.043208644;0.026219958;-0.009432369;0.001925376;-0.051086348;-0.080360495;0.041217998;0.050134845;-0.022675551;0.029511617;0.0063383915;0.027634162;-0.07624735;-0.041598238;0.077926695;0.041596398;0.03407459;-0.021241987;-0.027605804;0.06396538;-0.02992562;-0.10664328;-0.08243491;-0.10297614;-0.14313853;-0.088743344;-0.004184438;0.09700842;-0.2197606;0.03936489;0.103568085;-0.022820791;-0.003444592;0.04134843;-0.083658904;-0.03990329;0.032431744;0.07011204;0.04471173;-0.004312656;-0.0064673917;-0.06386142;0.06384737;0.007192411;0.063103475;0.0549685;0.0073936605;-0.028290996;-0.020686807;-0.02195181;-0.0063130576;0.014572445;0.017557247;0.03745428;-0.2153787;0.0728062;0.03363553;0.07963731;-0.05956694;0.07835657;-0.012910948;0.016034136;0.05348273;0.2746147;0.07423699;0.041730557;-0.08978126;0.046874307;-0.050717484;0.037158474;0.14775626;-0.017120417;-0.11283904;0.09909349;-0.01026636;-0.014023683;0.03453542;0.0045588985;0.04866096;-0.027601808;0.04937795;0.04606967;-0.044433273;-0.0014438693;-0.065866224;0.054674666;0.1069959;0.030299999;-0.15746924;0.11145714;-0.021761123;0.1563993;0.035554696;0.016268693;0.024465136;-0.19505422;0.11984806;-0.056763075;0.14266086;0.009189008;0.015423735;0.11073025;-0.06475364;0.01182992;-0.050775625;-0.17389394
-0.11144534;-0.009809145;-0.21271868;0.054088447;0.007039785;-0.015957952;-0.08191098;-0.03651779;-0.045652874;-0.010896117;0.035270717;0.014225344;0.078316554;0.05079721;-0.01632507;0.031366467;-0.12601984;-0.18915392;-0.06546805;0.044336792;-0.0660587;-0.08711328;0.039110884;-0.0023490787;-0.103950754;-0.08631601;0.062271487;0.14627619;-0.005120827;0.025162872;-0.024451615;0.005658255;-0.05541542;0.22070968;0.09876294;-0.034058504;0.023587517;0.0042542317;0.049538203;-0.06024634;0.06885357;0.040737785;0.08400573;-0.14149135;0.0072874436;0.027527492;-0.08109919;0.006942137;-0.065583095;0.095125735;-0.04296258;0.057548743;0.04514833;0.13029182;-0.07917217;0.15012333;-0.11003453;-0.16327552;-0.029239956;0.2424432;0.11840754;0.06514545;-0.08341331;-0.10402131;-0.064299375;0.08979808;0.0049880953;-0.0654645;0.051093694;-0.08770955;0.082214534;-0.060172178;0.102679305;0.096766524;0.06150863;-0.049772486;-0.06266339;0.0088897785;-0.03657053;0.0032211794;-0.061786752;0.0033498176;0.16394933;-0.051262885;-0.18636884;-0.08528865;0.032810796;0.021415614;0.111775;0.07585547;-0.034252238;0.0065224255;0.009114448;-0.26666328;0.06560243;-0.102974154;-0.08373001;0.090913706;-0.015477278;-0.0055796616;0.016144652;-0.0042351135;0.06948588;-0.008222183;-0.0036532679;0.05417667;0.036293145;0.006284694;0.13204564;0.006738177;-0.018025346;0.06342098;0.02929638;0.15242124;-0.047311377;0.12337647;-0.107479945;-0.11099537;0.0049911165;0.14567825;0.051066265;0.11663105;-0.057797614;0.025386736;0.13395008;-0.100006476;-0.07381509;-0.09836545;0.08104679;-0.10187555;-0.024191521;-0.0027962949;0.06553644;0.031160422;0.032173786;-0.05573657;-0.043957464;0.018238572;0.03662355;-0.11266668;-0.05277711;0.047456097;-0.1030804;-0.095611535;0.09646238;-0.0064132004;-0.0329896;0.00055589795;-0.2888257;0.021979922;-0.0493282;-0.073401906;-0.018060043;-0.15274476;-0.06165338;0.07688492;0.013548858;0.047138415;0.054623876;-0.21770868;0.038061827;0.029305572;-0.05643457;-0.12805997;-0.05507669;0.08830054;-0.02785138;0.04152972;0.006291012;0.026811149;-0.27822644;-0.10776823;0.12968607;0.095203474;0.119234465;0.08596646;-0.069785945;-0.12404967;-0.124894716;-0.046161216;-0.22374448;-0.06831685;0.10488511;-0.0074460763;-0.046774223;0.06280238;-0.0033273525;0.03753792;-0.036961697;-0.028673418;-0.12100423;-0.0718828;0.06432308;-0.056652505;0.07936826;-0.05599882;-0.07120315;-0.0127111245;-0.037918005;-0.07618289;0.011828527;0.033499707;0.035529405;-0.00483221;-0.053785022;0.03532765;0.001887439;-0.079572;-0.06682471;-0.027571144;0.07475295;0.096196786;0.025268981;-0.015989915;0.09165907;-0.0031387568;-0.0060414486;0.11744938;0.073606454;0.0060420125;-0.046006877;0.019729022;0.08090588;-0.02643677;0.049492307;0.06368275;0.05047854;0.15485144;0.05764229;-0.083941534;0.025288578;0.011688405;0.057962216;0.102109075;-0.10548856;0.15384066;-0.032696627;0.13065034;0.13767917;-0.12625411;-0.07662087;-0.09720366;-0.04988152;-0.09628282;0.008143066;0.09638504;-0.00059473387;-0.04878894;0.0024711054;0.06255733;-0.01579638;-0.052930642;0.043235537;-0.04904591;0.01899181;-0.06808299;0.006587228;0.0072285593;-0.055907115;0.008424398;-0.063902825;0.006532432;-0.038588736;-0.026834168;0.0038426882;0.07185499;0.043503243;-0.040982872;-0.12518263;-0.16867414;-0.010803959;0.053321388;0.0484842;0.004673036;-0.12812512;0.16502579;0.062297814;0.016732719;-0.021878501;-0.06155362;-0.048781432;0.015045847;0.047549948;0.01122403;0.06360624;0.054966055;0.03993363;0.012696838;0.16341317;-0.011857197;0.198896;-0.121814534;0.07420361;-0.06725389;0.07271135;-0.13216847;0.03946641;-0.30130526;0.038499918;0.00024044403;0.081759416;-0.027754394;-0.07139402;-0.00062801177;-0.07372095;0.06396345;-0.09030207;-0.011332208;0.07772143;0.048214562;0.07913554;0.02201287;-0.056584217;0.016419403;-0.1278449;-0.119074546;0.0006233634;0.04982217;-0.03806723;0.12075658;-0.011580908;0.0074806414;-0.09480511;0.08234623;-0.0352781;0.026118208;0.12554058;0.02911443;-0.048527762;0.09745488;-0.16254619;-0.0038994208;-0.017327227;0.024570173;-0.03143669;-0.24378619;0.16367415;0.09035732;0.008416036;-0.036824595;-0.09777148;0.020797126;-0.037984923;-0.09214809;0.030151526;-0.043482184;0.031935487;0.02733117;0.096485354;0.1280839;-0.053487297;-0.14712298;-0.01805428;-0.003915193;0.07158711;0.043558512;-0.11563733;-0.2223985;-0.18470792;0.008698927;0.021511938;0.04521256;-0.20321405;0.03366464;0.051826518;0.04263932;-0.11440234;-0.2154061;-0.042716634;0.17093517;-0.035319086;0.03110613;-0.076318;0.03840328;-0.09126961;0.052780192;-0.049763575;-0.1380073;0.08578403;-0.010724771;0.10528035;0.06658463;-0.050390854;-0.14089032;0.09576046;0.097387716;-0.041291803;-0.06565882;0.043642692;0.09435315;0.03942206;0.08631123;0.0036832602;-0.18858765;0.16118789;0.0027040914;-0.061775316;0.06737777;-0.07822857;0.082502194;-0.0045886026;0.07135175;0.06337108;0.12481787;-0.06990156;0.06692882;0.08110287;0.109061375;-0.016436495;0.026493642;0.0480524;-0.071269125;-0.100984305;-0.030148473;0.12925869;-0.07452688;0.016875124;-0.05349595;0.07548714;-0.10529267;-0.08093873;-0.100721344;0.039871596;0.028719505;0.009385629;-0.007708724;0.035965856;0.0703783;0.123297974;-0.01152748;0.032391217;-0.27119476;0.017605966;0.062341522;0.1401479;-0.05832802;0.0022344247;0.014216758;-0.06957277;-0.19440635;-0.009971734;0.053060852;0.090697855;0.093226574;-0.109371774;-0.105093196;-0.11637562;-0.025895922;-0.017914921;-0.17257088;0.07201313;0.012311848;-0.12854576;0.062252928;0.03712841;0.041422162;0.04223225;-0.07823734;0.049883854;0.05104138;-0.079387546;-0.038535908;0.039598577;0.028027963;0.08704429;-0.01756862;0.03923681;-0.0510011;0.004531511;-0.07241669;-0.048725102;-0.05232393;-0.067892805;-0.01942433;0.10659241;-0.06788838;-0.0033896512;0.006982494;0.025250034;0.03352875;0.056423705;-0.04511862;0.13314208;0.0535921;0.11148539;-0.039834037;-0.03268912;-0.007377461;0.12313361;0.044434715;0.010934789;-0.02825941;0.07176089;0.03987791;0.030236784;-0.066563554;-0.0068647442;0.089939;-0.0058365846;0.25159496;-0.03223172;-0.0018811378;-0.04405213;-0.015482033;0.14399758;-0.02288724;0.07414805;0.035720658;0.01917043;-0.07608299;-0.05487965;-0.008710564;-0.0675206;-0.00699331;0.079224825;-0.039333437;-0.039066646;-0.06810288;0.022560613;0.026456187;0.08124199;0.027281595;-0.03522603;0.029761534;-0.088037975;0.04310273;-0.031574212;-0.039128922;-0.12665145;-0.035941776;0.120989084;-0.007294976;-0.18073396;0.1884325;-0.02037827;0.05532617;0.079473734;0.06771709;0.0019857783;0.042136837;0.09529256;0.08058236;0.04440113;-0.15233171;0.0057516475;-0.040437777;0.07380152;0.056977287;0.073854834;-0.0727658;0.01418395;-0.018094124;-0.2813241;0.049234916;0.028720902;-0.04518553;-0.0011286209;0.09978471;0.03285162;0.017082358;0.05898805;0.027624136;0.076451495;0.111775;-0.07037676;-0.1082064;0.003445252;0.10131579;0.1708668;-0.058301326;-0.09289916;-0.09361808;0.1401133;0.027270181;-0.16740613;-0.043536898
0.01612579;-0.07311142;-0.087424584;0.036434546;-0.023219695;0.015694784;-0.10311435;-0.008434214;-0.02191529;0.033910226;-0.038675822;-0.024401072;-0.039253533;0.043451644;0.027542813;0.03404136;0.04793395;-0.07356355;-0.024438268;-0.0027791616;0.14960407;0.0037221664;0.0062238663;0.06280959;-0.16880076;-0.02187583;-0.023485463;0.121941805;0.023468325;0.09184295;0.02012754;-0.10526201;0.042674173;0.053202476;-0.0077768276;0.00065992115;0.10687953;-0.059817873;0.03328024;0.03521347;0.013202318;-0.0862188;0.13329528;0.02142408;-0.057456303;0.040632233;-0.020717435;-0.067065425;-0.0075240736;0.011009909;-0.0049710646;-0.024324965;0.081510685;0.20342028;0.018421587;0.102798946;-0.12767325;-0.055635538;-0.024974475;0.15004855;0.028919691;-0.06777868;-0.18368791;-0.059118137;0.10218302;-0.05745417;0.0024279933;0.045269635;-0.05654345;-0.064735845;-0.08716951;-0.008971979;-0.10901735;0.020058375;-0.016735522;-0.034850236;-0.044363286;-0.05687082;0.03459031;-0.05625208;-0.0147973355;-0.020737598;-0.048970267;-0.08896427;0.110004544;-0.060780674;0.020619122;-0.05250852;0.1289507;0.08795988;-0.03282631;-0.028460562;0.024947781;-0.12555777;0.022746628;0.02454161;0.03187364;0.015963277;-0.05407665;-0.035248723;0.15340987;-0.089381225;-0.06713471;0.060673453;0.033255845;0.100270465;-0.031292956;0.0420548;0.007997494;-0.01612228;-0.07387912;-0.011965676;0.016603678;-0.020159986;0.058279917;-0.04891994;0.033998888;0.01738711;-0.031211618;-0.046967205;0.00022931203;0.075931065;0.006928659;0.014446544;-0.06218918;0.1182314;-0.023590708;-0.0755187;0.0014451637;0.034066886;-0.026093801;0.024131976;0.020075802;0.043265324;0.029922457;-0.027287493;-0.047993083;0.0021426012;-0.10730904;-0.16280884;-0.029344201;0.09722793;0.04779085;0.015556115;-0.026203789;0.026363209;-0.0071782772;0.041336346;-0.19697778;0.029850079;-0.016083093;0.038643286;0.04176475;-0.006329605;-0.05171991;-0.06793217;0.020145379;0.2099597;-0.012935213;-0.098606884;0.045813184;0.0635773;0.033512022;-0.15488176;-0.10508005;0.0006874666;0.06628961;0.03199202;-0.05957559;-0.04752358;-0.059188493;-0.10366638;-0.045609497;-0.008606284;-0.052278236;-0.04167817;-0.22831172;-0.12627394;0.052351892;0.056569543;-0.029621448;-0.075879015;0.022471787;0.07808584;-0.05163612;-0.021840654;0.1947426;0.021780156;-0.04474532;-0.046824757;-0.06948862;-0.04467812;0.093458906;-0.019904988;0.04372631;0.07168318;-0.0101142535;-0.018196462;0.07740394;-0.13261436;0.056640718;0.06465398;0.07455725;0.07564915;-0.075292885;0.033484634;-0.032992743;0.0050135013;-0.029115885;0.07822903;0.009706253;-0.006191728;0.041653644;0.008741007;0.04256206;0.08161111;-0.009036246;-0.0023185764;0.1192521;0.06946998;-0.054860804;-0.054496866;-0.020964218;0.004710361;-0.036395587;0.07916073;0.09330736;0.0043419492;0.03504781;-0.08929372;0.0049322625;0.06400519;-0.049833287;-0.047116686;-0.08768153;0.1265986;0.061390974;0.084440164;0.13535203;0.09133706;-0.052792177;0.03844016;-0.042221993;-0.15390584;-0.05926825;0.036010776;-0.059736595;-0.06554727;0.07855889;0.009705995;-0.1252481;-0.08487097;0.10749265;-0.07671427;-0.05453279;0.017619455;0.05100642;0.00033764725;0.0074093365;-0.06342389;-0.03887537;-0.07016987;-0.031902563;0.005561411;-0.04818885;-0.029244106;0.08716009;0.055411633;-0.11445343;-0.30393094;-0.06364999;0.066563375;-0.047612432;0.02011529;-0.24511692;0.1380867;-0.039265625;0.055168267;0.043186344;-0.09032131;0.07978082;-0.0135780405;-0.025885947;0.032370698;-0.056488704;0.020759517;-0.026537452;-0.018231874;-0.12155114;0.03257207;0.10356378;-0.017906612;-0.075612284;0.018507237;-0.04038277;0.08758372;-0.05585884;-0.07522463;-0.053743206;0.03153939;0.038927164;-0.032177497;0.058981504;0.07502165;0.0018059693;-0.0041599525;-0.0049758595;0.045958452;-0.044847295;0.04433587;-0.019086687;-0.098496184;-0.051700696;0.032433357;-0.017809635;-0.08493742;-0.038093187;0.10446946;0.03774376;-0.020487469;0.027087415;-0.002849283;-0.13807602;-0.06854175;0.07203013;0.022616148;0.05817072;0.11615543;0.024471523;-0.05496075;-0.09447316;0.019856058;0.033861898;-0.003458977;0.07645626;-0.009636867;0.15502092;-0.00619316;-0.10693533;0.05956854;-0.010243262;0.008556993;0.036240164;-0.015959831;0.021780875;-0.04391473;-0.068970025;-0.017312795;0.01604174;0.093178146;-0.08171504;-0.022927346;0.06920219;0.04290725;0.007903864;0.11569686;0.045442548;0.050803434;-0.09735507;-0.07286105;0.0032830455;-0.034476265;-0.12330436;-0.063694656;-0.050559945;-0.07768285;0.06943567;-0.06392128;0.052311525;0.25047415;-0.037195783;0.01812195;0.052970376;-0.06298684;0.0434064;0.047334228;0.008850724;0.0552234;0.07149894;-0.008106641;-0.018221386;0.07228187;0.112900585;-0.007787659;-0.09998471;-0.013849173;0.07782531;0.032213237;0.0010956865;-0.042764626;-0.1025838;0.21294394;-0.11018545;-0.23866788;-0.0767127;-0.020512143;-0.07460875;0.038678747;-0.017796412;0.073995024;0.01795242;0.102558605;0.056341916;-0.012733937;-0.04869793;0.089124896;-0.043332834;0.006029167;-0.008573557;0.0025341022;-0.051590376;-0.036338598;-0.0100063635;-0.06630253;0.24753168;-0.086650215;-0.050180595;0.004004424;-0.035704367;-0.079199344;0.013973529;0.012893796;0.057828832;-0.08101561;0.03267216;0.04210085;0.030593289;0.06456529;-0.054543298;-0.03655202;-0.07695708;-0.0550344;-0.078935005;-0.15013722;0.10963315;-0.057022743;0.022139516;-0.04779896;0.007942842;0.035266906;0.06880144;0.12160051;-0.0059126248;-0.03914782;-0.08214998;-0.011695364;0.036170155;-0.020158729;0.059519693;0.074734025;0.07366271;0.010780642;-0.14013049;-0.054114826;0.06493822;0.027346106;0.046325233;0.067254424;0.04267895;-0.08679143;0.045367982;-0.037945434;-0.02108345;-0.053595167;0.023120254;-0.050165154;-0.066694;-0.006683894;0.0662453;-0.09485602;-0.12821376;-0.055395737;-0.149286;0.11908198;-0.0030325924;0.069545716;-0.0014136436;0.02580028;0.03746009;-0.029098783;-0.030564416;-0.049760807;0.2105825;0.07515498;-0.017928595;0.0101360055;0.008090308;0.03794214;0.049675148;0.020409247;0.009129179;-0.23332888;0.017848099;-0.05815615;0.056654558;-0.03775109;-0.053184744;-0.02606157;-0.022552397;0.051291723;0.045095727;0.02914497;0.04739422;0.017028425;-0.040058676;-0.009249513;0.04182694;-0.06473218;-0.110199906;0.08784453;-0.10992084;0.27319598;-0.018466037;-0.021941153;-0.015066351;-0.020625135;-0.06574479;0.024176113;0.11683977;-0.07147028;-0.05633453;0.06542797;-0.06514344;0.040164806;-0.22095127;-0.035304647;0.02703364;-0.072845854;-0.05991348;-0.06572052;-0.021550532;-0.06253823;-0.07038174;-0.03689478;-0.088430315;0.10354895;-0.04811597;-0.11838628;-0.020413445;0.06722418;0.0055660554;-0.036062993;0.075082496;0.12500688;0.006102873;-0.062170986;0.04648552;0.05037094;0.10013597;0.062860675;-0.039079335;-0.065190725;-0.084598616;-0.05999666;0.05526368;0.00036709788;-0.12451743;-0.04920029;0.083361775;0.011746863;0.086150475;-0.15614067;-0.025129685;0.078941494;0.029913733;-0.028141318;0.0052542905;0.02323768;-0.11754959;-0.046459787;-0.07832417;0.07710659;0.054111816;0.0023761415;0.02571704;-0.065917656
0.11705832;0.0023597647;-0.041170586;0.07998102;0.058441266;0.060168657;-0.18526416;-0.0027036157;-0.0046824943;0.0051356656;0.062723756;0.06407313;0.0027291884;-0.001528041;-0.0075792577;0.017690562;-0.05433222;0.10030431;-0.033462092;-0.11986102;-0.046068575;0.057980277;0.067793146;0.015128529;0.045010358;0.1935376;0.07195874;0.03433581;0.055651154;0.10811967;0.017118774;-0.095911235;0.084949136;-0.013149058;-0.003349563;0.02956947;-0.04173678;0.04779918;0.0448632;0.045533996;0.067526326;-0.0047689998;0.05467138;0.052598074;-0.09390453;0.07432279;0.1231628;0.07855502;0.061962936;-0.0064551136;0.024458295;0.13448897;-0.03917731;0.024124283;-0.06750259;0.00076764467;0.07926239;0.044122647;-0.04060662;0.17649992;-0.062781036;-0.051330492;0.019351358;0.04555697;0.065706246;0.06839052;-0.017925628;0.025289772;0.017008087;-0.039041117;-0.0030781687;0.0739165;0.01977461;-0.11767536;-0.028315492;0.15458235;-0.023348946;-0.024421204;0.043274283;-0.025362173;0.024197603;0.09265355;0.0042927414;0.08055884;0.10497178;0.058410633;0.090408936;0.115443856;0.08771258;-0.051229216;0.03739736;0.0016903605;0.068856746;-0.020117408;-0.025982156;0.048053987;-0.07705443;-0.022211742;-0.008576522;-0.01825596;0.019539548;0.009674716;0.037382655;0.041579735;0.041423615;0.09791178;-0.010174801;-0.09652296;-0.063199244;-0.036126044;-0.01942409;-0.0123372115;0.04604601;-0.055594765;-0.05962223;0.004621659;0.12376045;-0.02040643;-0.014680041;-0.053972315;-0.102969415;-0.14095753;0.06256725;0.076526456;0.01323015;-0.11646472;0.04962984;0.0541582;-0.107597135;-0.061713353;0.08859435;-0.08531425;0.015145228;0.076923706;0.04942477;0.0525373;-0.056933664;0.0024229493;-0.03657071;-0.14645736;-0.012757592;0.019136662;-0.00078621233;0.06299802;0.028781958;0.037538655;-0.01892417;-0.02623397;-0.22380286;0.0016291636;-0.03444729;0.003541895;0.032859743;-0.22038145;0.06387623;-0.02303025;0.025958553;-0.021187937;-0.025855461;-0.09485266;0.0022678624;-0.007123125;-0.1036082;0.080416255;-0.0680207;-0.030668195;0.062910914;0.051973768;-0.035134535;-0.029437928;-0.075036414;-0.15331414;0.026144758;-0.044442642;0.04344979;-0.06404502;-0.12248547;-0.043843307;0.12144418;0.044564467;0.04970168;0.014760114;0.08669796;-0.110209145;-0.001369972;-0.08208248;0.054567724;0.011511142;-0.010140163;0.01304113;-0.13716136;0.0058235247;0.0049436954;0.03781651;-0.049384102;0.16268803;-0.036043346;0.029455425;-0.009123051;-0.03270607;-0.032447986;0.065688714;-0.01911227;-0.0103941485;0.014635272;0.05168438;0.010308022;-0.013944236;-0.10671297;0.049959186;0.20180462;-0.01109339;0.05185193;0.058892563;-0.03386389;-0.019136954;0.05836243;-0.113853805;-0.0019120367;0.012175134;0.061803408;0.014416326;0.007907149;0.062325317;-0.037172765;-0.027441982;0.074075826;-0.09929964;-0.081225164;0.017398698;0.04862077;-0.025755629;-0.070557535;0.0461637;0.02719182;0.062619574;-0.029783396;-0.012885223;0.09376288;0.17031705;-0.029565774;0.0319424;-0.032408;-0.16651097;-0.061660334;-0.028035542;0.031958193;-0.008730286;-0.055996966;-0.053844407;-0.058455285;0.09017772;0.04912631;-0.15119396;0.07302395;0.071028136;0.034752645;-0.054082338;0.005470677;-0.04819093;0.021522114;0.056395564;-0.034923956;-0.0008478022;0.030862603;0.08113229;0.0777504;0.034645982;-0.09908989;-0.07473316;-0.034599684;-0.01756477;0.0010956386;0.029243909;-0.25579926;-0.04182576;-0.0014554559;0.017776003;-0.088853;-0.09532088;0.06930557;-0.03401302;0.02102732;-0.012855045;-0.019091753;-0.07629042;0.07187342;-0.044649176;-0.114682496;-0.031038746;0.004104337;0.06361937;0.009584331;0.028900025;0.061660297;0.056567427;0.07518854;0.0007566244;0.031476878;-0.027038114;0.050960455;0.011693482;0.07509549;0.1232469;0.060945142;-0.16591634;-0.01933314;0.11690661;0.06510284;0.015014621;-0.036081523;-0.09182849;0.016455779;-0.04296215;0.01640084;-0.012736682;-0.044440035;-0.03738231;-0.024367712;0.08683765;0.04035918;0.097308666;0.07809157;-0.0092376685;-0.06122501;0.045027785;-0.12220901;0.030128045;0.033671923;0.037697367;-0.02489168;0.080242805;-0.07422288;-0.004566965;-0.0370478;0.028420504;0.14935301;-0.029646851;-0.033448894;0.010617467;0.14121191;-0.062017947;-0.029953908;0.05273547;-0.012515822;0.06831376;0.024113916;-0.06909647;0.0478502;0.047326744;0.019940509;-0.035730835;0.00940346;0.015815618;-0.068300255;0.10375452;-0.06723032;0.011251108;-0.04657006;0.061095566;0.0005177355;-0.019253466;-0.08186916;0.07007725;-0.03948332;-0.09888778;0.0412095;-0.0551109;0.08721854;-0.0011470893;-0.004294138;-0.054065026;-0.03729958;-0.053346705;0.030380469;0.0308482;-0.025740089;0.017141985;0.043982014;-0.023667492;-0.05050187;0.06346212;0.03420782;0.101212405;0.028238373;-0.044195924;0.0008910167;-0.008639135;0.053296603;0.028765569;-0.038142417;0.17934388;-0.029142028;-0.16213702;0.033466104;0.024187446;0.024967648;-0.07696846;0.16117479;0.022325072;0.047138218;-0.043956507;0.012497261;0.075942904;-0.0025500297;-0.10103495;-0.0123350965;0.029896954;-0.107955776;-0.042916786;0.05259665;0.026741588;0.045179248;0.11067969;-0.0032095558;0.05949721;-0.01143375;0.05083321;-0.02450782;-0.07293821;0.016849082;0.06715527;-0.016835738;0.006191716;-0.011179313;-0.06672307;-0.07113976;-0.037895903;-0.13498242;-0.011771703;-0.083878204;0.0029454688;-0.08421402;-0.13339423;-0.09355549;0.045578543;0.08349821;-0.03522682;0.031080335;0.15503027;0.05421461;-0.006850772;0.007487119;-0.1093456;0.018465426;0.059054162;-0.09095283;0.00046533413;-0.05267189;0.22924319;-0.06505453;0.0061316285;-0.058513917;-0.107909426;0.010948634;0.054067936;0.013905486;-0.041388474;0.046084337;0.038946778;-0.018435186;-0.021038543;0.03796655;0.06146201;0.0745771;0.07076452;-0.07756956;0.030118559;0.085729964;-0.0065666246;0.03858376;0.06762958;-0.053435575;0.063819334;-0.062010415;0.03775385;0.06584749;0.10505086;-0.065364614;-0.04306801;-0.05686745;0.048316766;0.108659305;0.030084502;-0.02439464;0.078160726;-0.014607043;-0.08677478;-0.15832594;0.051851176;0.024188217;-0.13565472;-0.05403584;-0.07265909;0.06546741;-0.034080185;-0.0445263;-0.06918584;-0.0037787242;-0.026956415;0.016852757;0.035068817;-0.032717623;0.030584294;0.021122295;0.0046892;-0.005018482;0.07958699;-0.02350706;0.082549974;0.049339812;0.08945181;-0.009740484;0.029231118;-0.077197045;-0.033464473;-0.11938244;-0.049038313;-0.02334764;0.03701582;-0.015046413;0.05288369;-0.082073875;0.017865261;-0.10035554;0.05324537;0.078024976;0.049286976;0.009452625;-0.027760986;0.03245879;0.13907711;0.15010129;0.11789206;-0.041464888;-0.05599288;-0.17692451;-0.030106943;0.073752604;0.068050645;0.057316788;-0.025321908;0.06993588;0.08692569;-0.055758353;0.031196317;-0.09833373;0.06008182;-0.029551286;0.036000717;-0.069721185;-0.08989016;0.11531379;0.048261672;-0.04502523;0.0702165;-0.19875477;-0.013458169;-0.018624391;-0.022055933;-0.0054590325;0.10045594;-0.06080103;-0.039928246;0.09647967;-0.08744058;-0.11598146;-0.025094692;0.09204354;0.11064599;0.040713385;-0.033594962;0.045801528;0.021340007;0.014702921;-0.010033523
0.111126855;-0.03734997;0.14708608;-0.056362733;0.09830832;0.02389379;-0.17183356;-0.120102465;0.052901767;-0.10165609;-0.056888126;-0.014298987;0.011781084;0.09168677;0.031131247;0.03212323;0.039885692;0.21089418;0.11312049;-0.054367684;-0.006913172;-0.034780625;-0.036058363;-0.027736843;0.0770011;0.12569147;0.0099704955;0.01126396;0.016854975;-0.053082168;-0.09509;-0.07301369;-0.0155437775;0.0020391336;-0.014787007;0.12192279;0.06019259;-0.061275013;0.012727773;0.048051875;-0.04325979;0.021755751;-0.023548381;-0.07478294;-0.10545623;0.028364701;0.094428815;0.053203415;-0.014889985;-0.05249366;0.08337157;0.20115574;0.016823035;-0.002598571;0.006695287;-0.03411724;-0.08953128;-0.014034399;0.051920887;0.13507508;-0.061169565;-0.09160584;-0.0938038;0.11359057;0.04832403;-0.05255953;0.011590146;0.0004063719;0.10938505;2.2937656e-06;0.034075122;0.07844803;0.023140864;-0.024646863;0.030129483;0.18695934;-0.018967874;0.051769856;0.13447325;-0.016069388;0.12342524;-0.03689841;0.00562526;-0.043035332;-0.07933921;0.076237835;0.010588725;0.05390537;-0.012006273;-0.019822285;-0.035093557;-0.02990519;0.02185573;-0.07080945;-0.052237935;-0.042478506;-0.077304095;-0.0062004677;-0.08414638;0.008779211;-0.0104934685;-0.075747006;0.044268828;0.007859715;0.053484518;0.035149485;0.0050598755;-0.020652795;0.05885547;0.0087023815;-0.014094745;0.035665493;-0.027494244;0.0947156;0.056007378;-0.014356915;0.00486392;0.049411483;0.026626386;-0.0873787;-0.05401624;-0.07171721;-0.001571756;0.04960821;0.015530834;-0.21842968;0.04730126;0.09859083;0.017948668;-0.1128183;0.10925928;-0.12908724;0.11480946;0.11241458;-0.10154891;0.030942895;0.016143885;-0.13403802;0.050778363;-0.1648358;0.047334466;0.11455625;0.021842908;0.005498511;0.18571365;0.06194312;0.012401796;-0.09186527;-0.1620829;-0.040703062;-0.04972238;-0.0170921;-0.0019830102;-0.09350228;-0.027650662;0.0036109549;-0.014913644;-0.20291968;-0.02706689;-0.15182692;-0.052222427;-0.07497555;-0.024150962;0.1643299;-0.018817643;-0.10298263;-0.048069917;0.06005203;-0.011566653;0.031678293;0.08670198;-0.04427397;0.036718212;-0.14668185;-0.04309081;0.030236283;-0.13856417;-0.018839888;0.15539068;-0.023599975;0.0140750855;-0.009519285;0.025589297;0.030210195;0.1220887;0.10576678;0.22527008;0.07126906;-0.0066486634;-0.044823498;-0.2158422;0.073858686;0.117840335;0.0151675735;0.016981645;0.08306617;-0.042283196;0.002307258;0.0063085854;-0.0950326;0.04089886;0.06101183;-0.016951373;0.022501241;-0.045420393;-0.01948654;-0.017173177;-0.01956851;-0.005831576;-0.05140831;0.03451761;-0.08304683;0.06311523;-0.031084714;0.05766076;0.03468647;-0.0620203;-0.07698382;-0.057910047;-0.0845594;0.0503457;-0.085384004;0.01506788;0.003438443;0.031508673;-0.13973829;-0.024219697;0.03909122;-0.11143968;0.03315505;0.02562442;0.17914459;-0.07218825;-0.06554537;0.012299246;-0.14016174;0.082586534;0.06833259;0.0033415149;-0.054827526;0.09080741;-0.06441893;-0.09491923;-0.27610704;-0.06619223;-0.18948139;0.039306827;-0.06582662;-0.056546446;-0.0463885;-0.012718242;0.0012876288;0.053866025;-0.14912893;0.028232824;0.052584168;0.016256453;-0.06791884;0.037076235;-0.030768942;0.09958407;0.09836374;0.0138437655;-0.016445886;-0.0056079896;-0.048710056;0.08564137;-0.019371083;-0.039015606;0.01979406;0.0549238;0.023263438;-0.027124593;-0.13421828;-0.22491263;0.07132334;-0.011466361;-0.06242975;-0.04795168;0.039531577;0.023291906;0.03027804;0.03860238;-0.027452286;0.044121843;-0.0059033684;-0.07040474;0.0768926;0.113347955;-0.07430733;-0.09398429;0.06388591;-0.073579565;-0.04232061;0.0066884477;-0.059288424;0.037842933;0.119398095;-0.034744464;0.07321556;-0.09732794;-0.012176675;-0.013420582;0.0008134043;0.071241744;-0.11027618;0.11170346;0.16881749;-0.024976535;-0.026964905;0.08937403;-0.055345133;0.12441397;-0.05066091;0.10887039;0.05817512;-0.06258702;-0.033434946;0.07682555;0.11523519;-0.073692106;0.1599179;0.10637682;0.10285305;-0.12427926;-0.1737991;-0.01651529;0.040633935;-0.026130557;-0.061724644;0.14733385;-0.007416399;-0.038643546;-0.013919936;-0.21557558;0.05112406;-0.017631195;0.036700513;-0.104981266;0.04705517;-0.073383786;-0.051145498;0.069283366;-0.1582018;-0.10954062;0.07282745;0.0664859;0.048203476;0.029873924;0.21719696;0.25441813;0.02407733;-0.038789835;-0.041537594;-0.010321907;-0.015354943;0.0021428468;0.14688851;-0.16919805;0.08288571;0.056946304;-0.022060221;-0.036541276;-0.083397515;0.07518243;0.057185374;0.014306545;0.11348747;-0.07956048;-0.2549825;-0.0029498092;-0.019840706;0.04295046;-0.009026878;0.19086772;-0.030460645;-0.034056064;0.10018199;0.05121081;0.0007442648;0.01261174;-0.0148856025;-0.069110826;0.10348588;0.07060207;0.0005470679;-0.0891663;0.03077144;0.04233357;0.08023348;-0.029132498;0.13803431;0.0044313977;-0.25095874;0.09032586;0.09749958;-0.038171526;-0.10865681;0.059350148;-0.060831457;0.08382975;0.06748683;-0.075959735;0.0886689;0.044158693;0.08797492;-0.039597813;-0.026888639;0.14819282;-0.04479558;-0.058047317;0.050845075;-0.055497795;-0.027822232;-0.09324273;-0.015895935;0.06798148;-0.038173523;0.07799741;0.01425807;0.028656831;0.09452478;-0.0037674715;0.0454795;0.007070264;0.07422927;0.09228511;0.02873011;-0.16589718;-0.0055944747;-0.09540954;0.11437527;0.033621997;0.044318065;-0.18083704;-0.03042621;-0.006881116;0.08861767;-0.056632455;0.18608844;0.08128746;-0.22269894;0.016401596;-0.1446745;-0.10664808;0.034398373;0.032546464;-0.11100144;0.100992806;0.21233124;0.019694183;0.012113458;-0.11498828;-0.08465547;0.12354681;0.10723453;0.06282298;0.071171165;-0.050355732;-0.09274734;0.0504992;0.024485158;0.034442496;-0.111635014;-0.09877751;-0.0039090514;-0.042251356;0.063503765;-0.2039259;-0.003918992;-0.05419136;-0.0038573095;0.2236944;0.111497685;-0.12191564;0.11969915;-0.11192389;0.035600923;-0.05589424;-0.066742755;-0.016006738;0.084962316;-0.01705831;-0.080153726;0.0127250645;-0.0059477733;-0.010767972;-0.009337296;-0.15822014;0.027335638;0.019936912;0.073481105;0.007851889;-0.24929576;-0.10610964;-0.14206444;0.0012011306;-0.07238007;0.13580649;-0.027323944;-0.025012413;0.08263299;0.0657856;-0.01663083;-0.104998335;0.058071196;-0.054800093;0.08167996;-0.05192337;-0.004199895;0.057344574;-0.17106907;-0.056151774;0.062169153;-0.058029465;-0.051221304;0.042743728;-0.01810829;-0.014822247;0.08069371;-0.069762886;0.04817141;-0.04068484;-0.05248712;0.0015144952;-0.0077519706;0.032646727;0.006229628;0.13062908;0.09442869;-0.09000093;-0.027500737;0.13863827;0.3501903;-0.048097927;0.08010573;0.03824032;0.004747649;-0.03641386;-0.064364284;-0.05130311;-0.066276535;-0.020593293;0.20762694;0.07616292;-0.041094624;0.035851;-0.112190515;-0.069564275;0.023701306;0.08113788;0.056304544;0.13023089;0.04702969;-0.07475675;0.01978906;-0.08582364;0.05837233;-0.015353167;0.023165815;0.042138074;0.08685683;-0.00013664018;-0.01216082;-0.013843563;-0.003191382;-0.111633964;-0.021736894;0.32883027;-0.05283694;0.0066748187;0.117532775;-0.024398696;-0.11189869;0.13304174;-0.04322761
0.068178415;-0.004521268;0.2725132;0.004306679;-0.013193603;0.07833726;0.04747717;-0.026918596;0.03598616;0.051136926;-0.045349956;0.004701935;0.005198315;0.024779573;-0.09995977;0.05005845;-0.025179915;0.12029013;0.088848695;-0.08742696;0.17076197;-0.05177641;0.017692382;0.032973643;-0.3466674;0.1340583;-0.052298542;-0.12097267;-0.007880141;-0.3199348;-0.010335041;-0.040859185;0.07674898;-0.15625644;0.047977515;0.044650022;0.03287876;-0.059797615;-0.093277454;0.025174135;-0.013359488;0.057743907;0.08712123;-0.27623194;0.088376954;-0.040409047;-0.023089832;0.009431713;-0.03986072;-0.10236737;-0.014716447;0.015456827;0.0680496;-0.07201532;-0.06185438;-0.044374876;-0.28368124;0.008934352;-0.05795011;0.11246359;0.103345856;0.057372704;-0.08120487;-0.04683562;0.05379052;0.017687296;0.016466768;-0.018234557;0.021277914;-0.03593363;-0.07398413;0.08122502;0.007390113;0.04207662;0.015121029;0.2765474;0.079492636;-0.055097155;0.071048915;0.16699106;-0.0075242682;0.057310995;0.04789295;0.030851122;-0.10809081;0.04716065;-0.008352152;-0.08567974;-0.02600573;0.019527117;0.024805686;-0.018192507;-0.020591704;-0.028686242;-0.04880249;-0.07559593;-0.09810274;-0.06823424;0.065923266;0.02737219;-0.072104104;-0.05632932;-0.037585724;0.07927574;-0.021556964;0.03138984;0.0079855975;-0.016832117;0.035421867;0.037049707;-0.004458714;0.09708596;0.008113881;0.099866495;-0.031185683;0.088177286;0.052877128;0.081692636;-0.008596889;-0.049937334;-0.08994446;-0.043903444;-0.11881502;0.053227864;0.04192367;-0.029455831;0.18864568;-0.022621965;0.06506362;-0.16490445;0.105872706;0.07567483;0.041442014;-0.055022497;-0.06776022;0.07082379;-0.061378967;0.0028476848;-0.021479718;-0.24442486;-0.058821727;0.09952972;-0.09202811;-0.016164836;0.082656644;-0.094493866;0.061166693;-0.07034938;0.15730098;0.16250312;-0.010661873;0.05576256;-0.11625234;-0.14117645;-0.01361962;-0.1068829;-0.08078093;-0.18642461;-0.074833654;-0.22597793;-0.0823237;-0.0219531;-0.010475696;0.008080752;-0.03288294;-0.016529169;-0.122845456;0.051695436;0.034980804;0.030211974;-0.021094339;0.024886774;0.06518088;-0.15159595;0.05850382;0.021205334;-0.26245794;0.030352209;0.027692424;0.030626385;0.066998735;0.017315598;-0.0047739465;-0.02788449;-0.056174293;-0.13580012;0.1897609;0.042756353;0.08165286;0.10575131;-0.079990186;0.07516865;0.14728558;-0.01339484;0.06444317;0.0648559;0.11306999;0.039970312;-0.055984173;0.08838304;-0.048966184;0.04564952;-0.034896262;0.09024003;0.059184976;0.080502935;-0.014934024;-0.22074364;0.059083868;-0.027816677;0.033735417;0.020817189;0.016803807;0.010003043;-0.028843265;0.10437153;0.07418259;-0.036672104;-0.10024048;0.044055805;-0.035243094;-0.008064825;-0.0013701911;-0.015952155;-7.7614786e-05;-0.0062506096;-0.0026279495;-0.0799159;-0.044820767;-0.00019317452;0.029472131;0.1271041;0.068809584;-0.02668013;-0.018338934;-0.14342652;-0.05157292;-0.017215937;0.04875153;-0.009805289;0.07789417;-0.0164946;-0.035248596;-0.22262426;-0.011614061;-0.06111929;-0.036639668;-0.030284591;0.09223755;-0.02965627;0.07810767;0.0021195032;0.04289015;-0.14040232;0.007372241;-0.054524228;-0.09444613;-0.0066759526;-0.056603227;-0.013927309;0.05217763;0.061429977;-0.03799936;-0.025334574;-0.06394741;-0.121413596;0.00965081;-0.035131056;-0.113616094;0.008410496;-0.03514013;0.009789773;-0.020892346;-0.069488846;-0.10042453;0.005364472;0.004257174;-0.046248283;0.00033201172;0.041840352;-0.09150875;-0.13668354;-0.02567429;0.059687585;-0.06401473;0.019401256;0.075696155;0.06849429;0.05516345;-0.0006356039;-0.11091428;0.101876415;0.047094725;-0.034456104;0.108957596;-0.017191;-0.05552591;-0.06488012;-0.028363267;0.0828009;-0.037905917;0.020807367;0.03829436;-0.052803885;-0.1210648;-0.18652767;0.062842265;0.09943552;-0.046028007;0.08736867;-0.037537448;0.01517729;0.033375975;0.04908226;-0.07034066;0.1258459;0.03024637;0.06006193;0.033138424;0.09205092;0.02088539;0.13162461;0.010143326;-0.10726242;-0.085487;-0.17969514;-0.012015124;-0.010052783;0.030167708;-0.10724797;0.17852405;0.00522511;0.026992485;-0.047826648;0.00706836;-0.011632613;-0.10793778;-0.10044518;0.026798509;0.033892334;0.024298599;-0.057061367;0.07355771;-0.042951375;-0.025627628;-0.08473035;0.10039318;-0.061328664;0.0401667;-0.031234628;0.23555443;-0.14140391;0.016368698;0.013970694;0.029191889;-0.06525111;0.11858786;0.020332083;0.007225591;-0.053927656;0.058043975;-0.085200824;0.008649546;-0.03449556;0.049030732;-0.0073108845;-0.11968165;0.037107438;-0.08473947;-0.20898823;-0.049409714;0.03524928;-0.009095518;0.0680211;0.0095804995;0.052843045;0.03275965;0.22416724;0.0060549336;0.04509784;-0.013666809;-0.13556674;-0.023679946;0.10658099;0.018637273;-0.04828151;0.124235064;0.087899454;-0.011645952;-0.0062676137;-7.465105e-05;0.12218383;0.08770322;-0.19492455;0.08833444;-0.06600125;-0.19969113;-0.044808112;-0.110030934;-0.10710422;0.0891273;0.04621042;-0.10706925;0.039894678;-0.05198192;0.08966162;0.010024884;-0.030911595;0.1523054;-0.070179;0.016699024;0.0077455593;-0.06603718;-0.014294085;-0.05144623;0.073786594;0.037667163;-0.045476753;0.077586755;0.06268036;-0.088773124;0.081416525;-0.06238384;0.060253203;-0.06576056;0.09121944;-0.035969026;-0.08176847;0.025322778;0.045280892;0.11968268;-0.03753009;0.030337907;-0.12439937;-0.24170233;0.014700904;0.048666965;0.028559824;0.08872751;0.24566825;0.09145992;-0.10786741;0.0421243;-0.052830424;-0.21356595;-0.08027563;0.038164698;0.05434251;-0.0015740928;-0.024888964;-0.026885558;0.04291527;0.09720517;0.027305853;0.020049626;-0.055123456;-0.019824037;0.001309943;0.050179113;0.06210997;-0.008396836;-0.080108434;-0.07217355;-0.017246433;-0.014762781;0.0558453;0.01387663;0.19705364;-0.18993104;0.04864785;-0.052282758;0.026970835;-0.00048039338;0.01632625;-0.08224623;0.16907352;-0.07090555;-0.061489273;0.09295369;-0.15169902;0.048584994;0.059115678;-0.020585595;-0.082020305;0.15134224;0.0068767276;-0.074604675;0.03801001;0.12082957;-0.008156628;0.04828258;-0.11069947;0.098855056;-0.005839741;-0.052167483;-0.006545523;-0.08412738;0.036086805;0.023398384;-0.005624445;-0.10937174;-0.031909823;0.019544084;-0.025833074;0.005258347;-0.059266604;0.012900034;-0.03072804;-0.07669825;0.010617724;-0.0776056;-0.015223247;0.06691804;-0.008935551;0.038503014;-0.01236904;-0.059029844;-0.0031194137;-0.095140025;-0.017123092;-0.015118372;-0.038869664;0.026349967;-0.053305004;0.040560808;-0.020375228;0.04401706;0.09314461;0.058448162;-0.03174706;0.02267898;-0.013019087;0.11366861;0.03254522;-0.034616966;0.020471355;0.08730152;-0.03670664;-0.05422494;-0.08928939;0.015917009;0.028806804;-0.06120839;0.06375673;-0.053452443;0.08423737;0.016641632;-0.018903565;0.067007884;-0.033955693;-0.063787386;0.08098435;0.10105667;0.061240353;0.01929029;-0.03841532;-0.15711856;0.09987556;-0.12168632;0.04786173;-0.036866236;0.09372266;0.099903725;-0.06983774;-0.028490135;0.0022493326;-0.1970971;-0.003224398;0.18019818;0.0463818;-0.03577059;0.039715417;-0.043660797;-0.0056495992;0.21338135;0.043700173
-0.028149402;0.0993015;0.0064711957;-0.016690284;-0.032321807;-0.027501596;0.13312833;-0.03219034;-0.052323055;-0.07527378;0.014894645;0.029288888;-0.048330616;-0.01614144;-0.026760466;-0.08528084;-0.07112571;-0.048424706;0.09320274;-0.07760197;0.11487978;-0.0042861947;0.023424415;0.040598493;-0.2524855;0.24499473;-0.06347975;0.025281146;-0.052524574;-0.14674607;0.020041838;-0.050461862;-0.068722256;-0.20667942;0.08380014;0.24563001;0.0669704;0.051766407;-0.030891243;-0.017804159;-0.00966292;-0.10143962;-0.017512428;-0.23020989;0.07126981;-0.0690194;-0.09092484;0.045744944;-0.008161471;0.11330604;0.0063424734;0.10362129;-0.060097646;0.20588732;-0.07211138;0.05639368;-0.32276133;0.010005613;-0.049457774;0.040202197;0.048557673;0.03640732;-0.073629454;0.025589287;-0.037852377;0.06451307;-0.014086242;0.0067645474;0.03302629;-0.07217796;0.08930677;0.078945026;-0.047852617;-0.0470832;-0.18441445;0.31492892;-0.04478427;0.099724784;-0.039581835;0.20962772;0.011483233;-0.03633964;0.015993046;0.11459231;0.08457627;0.047723982;0.00547768;-0.06099537;0.109581426;-0.09854691;-0.039395627;0.0051940014;0.0039225244;0.026760709;-0.04472557;0.020188512;0.04872949;-0.022106128;-0.026055958;-0.09200415;0.09499042;-0.00023326665;0.013740366;0.010075897;0.036901865;0.016899971;-0.00678784;0.05643647;-0.18701383;0.0059944293;0.026135582;0.047938615;-0.036270943;0.01984505;-0.012380629;-0.0888059;0.011325883;-0.015791303;0.059782654;0.020798482;0.09026207;0.019950828;-0.022625562;-0.09481156;-0.051679328;0.16929647;-0.073885694;0.09202893;-0.059493586;0.004045363;0.058010265;-0.09952798;0.013092226;-0.05318587;0.03297717;-0.037555605;-0.13333887;0.091498435;0.039456207;-0.13051075;0.062331565;0.16076533;-0.02458085;-0.064934425;-0.07877509;-0.057108834;-0.08022811;0.01837197;-7.084391e-05;0.012333138;0.01240926;-0.020836927;-0.077776514;0.06572317;0.045965873;-0.028778158;-0.04418549;-0.0032307827;-0.025952341;-0.10612096;0.078618124;0.05295208;-0.02770246;-0.13600248;-0.18080123;0.034550928;-0.014940894;-0.0008142847;0.04641079;-0.06570741;0.016558388;-0.09575399;0.033497922;-0.023783939;-0.077135645;0.028257614;-0.43305156;0.10792532;0.1563254;-0.07154502;-0.009934358;0.06535101;0.059285685;0.023679024;0.04680915;0.06730608;0.09224088;0.01207113;0.026779486;0.06831496;-0.062037393;-0.07784638;-0.018657764;-0.025254702;0.014622764;0.108447;0.05647788;-0.015910512;0.021857006;0.041962508;0.013521041;-0.029487865;0.0038065454;0.058926333;-0.0799359;-0.07795366;-0.13554454;-0.075493865;-0.06744323;-0.08604412;-0.16343614;0.03969576;-0.09155906;0.025649482;-0.002418493;-0.033605296;-0.026966969;0.109295115;-0.124914505;0.061902404;0.05025879;0.035016656;0.027575305;-0.03620906;-0.098128416;0.011226949;0.07096955;-0.1835998;0.030751951;0.041013505;-0.10602816;0.097001545;0.084497824;-0.09253729;0.020084264;-0.1500256;-0.0046334337;-0.1183354;0.013662649;0.009694882;-0.049831722;0.08112715;-0.030571368;-0.1289885;0.0392485;0.019580321;0.014259578;0.032105807;-0.011115404;-0.092702776;0.04404384;-0.015246052;0.108230494;0.16896544;0.031235432;-0.097128175;0.023985047;0.024644328;-0.05136813;-0.04185057;-0.030599365;0.007308925;-0.03653332;-0.030990394;0.01727596;-0.12016205;0.030682763;0.024096997;-0.1272694;-0.05053807;-0.048597984;0.0020879495;0.06866619;0.03240252;-0.008038544;0.19805455;-0.096677385;-0.04214664;-0.009331769;0.03573801;-0.0034606138;-0.08750164;0.016678328;-0.039469674;-0.13215426;-0.020578174;0.047271922;-0.044534277;0.082482755;-0.13557883;-0.048302073;0.0022414564;0.03571539;-0.009376262;0.056446858;0.2056469;-0.10358032;0.13610995;-0.01565304;-0.2199569;-0.08774738;-0.028607907;-0.04227046;0.1792172;0.037871975;0.0810318;0.07595835;0.005930911;-0.07155874;0.010546016;0.048788823;-0.062320758;0.001032752;-0.013927944;0.0671763;0.23959497;0.06027876;-0.04880108;-0.04377181;0.075577065;-0.056618284;-0.08312796;-0.015843024;0.04693112;-0.0017089101;-0.11934324;-0.003314407;-0.08497473;-0.021035805;-0.08151335;-0.10503613;0.05474696;-0.04704714;-0.031778023;-0.28817284;-0.020921098;0.18955685;0.035116106;-0.061354496;0.02886988;-0.09266263;0.040448975;-0.043296598;-0.15367912;0.035307214;-0.09254215;0.040267535;0.06594666;-0.06291882;-0.059011985;0.0959955;-0.11977426;-0.08492265;0.06441746;-0.0676442;-0.044187732;0.045092158;-0.121467225;-0.1236954;-0.019620948;-0.07118108;-0.005837758;0.2205653;-0.14378127;-0.06571343;0.013350733;-0.12614433;0.23174256;-0.09228917;0.21447621;-0.039472256;0.077638164;-0.00940189;0.01058289;-0.05619651;-0.11006108;-0.005529858;0.23408277;-0.025490003;-0.05021019;0.021739237;0.03292129;-0.017385658;0.0746217;0.01305052;-0.035246063;-0.023715915;0.072642125;-0.040406078;0.0378194;-0.06600841;0.1335145;-0.37009013;-0.17586783;-0.07294609;-0.015323321;-0.089068845;0.09744125;0.055552162;0.0052269804;0.045207337;0.042476557;-0.01358481;0.112754256;0.06320397;0.019995658;-0.018621666;0.008777653;-0.022301234;0.029614378;-0.058968715;0.051995836;0.02810969;-0.07982851;0.15852606;-0.00823943;-0.039346177;0.03305366;0.06999669;0.054899976;-0.07424219;-0.010134933;0.01559732;-0.063093245;-0.058942366;-0.059217565;-0.041807536;-0.02215392;-0.29868713;-0.09230142;0.0319552;0.12450025;-0.035404745;-0.38699302;-0.24389596;0.018213553;-0.056531537;0.18638135;-0.011998504;0.16919911;-0.06488829;0.09634616;-0.08776829;-0.0071968595;-0.16110726;0.03397861;-0.14275445;0.07851385;-0.10270235;0.22577548;0.017605476;0.0535788;0.12916864;-0.06613865;0.016129037;-0.045574814;-0.061444197;-0.081334464;-0.045989618;0.022661041;-0.020521356;0.040551152;0.024043072;0.025399765;0.010455442;-0.045946646;0.010465107;0.14751191;-0.06979244;-0.029669892;-0.03641158;-0.11936499;-0.30868092;-0.045314096;0.0141901355;0.23440039;-0.011290228;-0.010504345;-0.024564516;0.0779393;-0.011864401;0.035506524;-0.026323622;0.06148877;0.03038385;-0.05786458;-0.0154186785;0.057574335;0.14380811;-0.054237798;-0.010218367;-0.005678818;-0.061531164;0.020738564;0.05326688;0.07844481;0.03169245;0.02538604;-0.03968169;-0.08280952;0.025586652;-0.1072897;-0.029805088;0.05579886;-0.049538787;0.05211297;-0.0600462;-0.031698696;-0.03166363;0.041318767;0.0027821874;0.2055302;0.044223886;-0.026366588;0.0010079884;0.092378005;-0.08191902;0.0032517754;0.03311199;0.05900696;0.15705314;-0.06849127;0.050567225;0.05697466;-0.0961046;-0.04012746;-0.03694739;-0.10756973;0.10081533;-0.022967342;-0.07529583;0.042958867;-0.11365408;-0.39233977;-0.027244177;0.09789028;-0.028859444;0.051914267;-0.067840666;0.021040726;-0.1296757;0.008585555;-0.027668055;-0.16189076;0.08787463;0.062609166;-0.008151198;0.065716684;-0.07907786;0.01085562;-0.08972127;-0.05303978;0.08061212;-0.019953754;-0.030609526;-0.011085505;-0.42162755;0.0062406175;-0.10783887;-0.024551524;0.04731193;-0.33792907;-0.058955137;0.07649326;0.06478148;-0.12070489;-0.088244684;-0.053500697;-0.34523082;0.09780192;0.063208215;0.047683008;-0.043800395;0.055635553;0.073959604;-0.09284761
0.009810366;-0.028943034;0.15372582;-0.043914884;0.08398043;-0.0023452519;-0.008101276;0.0081887245;-0.09252345;0.12417517;0.06467634;-0.013996939;-0.090186566;-0.010929524;0.0011878547;0.01057394;0.010718147;-0.040534284;-0.082937226;-0.051212113;-0.0056845476;0.011420186;-0.0005052511;-0.077421725;-0.09857035;0.19680934;0.13059972;0.05325329;-0.16506813;-0.2992413;-0.10022484;-0.003850363;0.05980475;0.07330871;0.08409908;0.23925598;-0.03719816;0.06201266;-0.03792069;0.002907076;-0.021714479;-0.07025803;0.08994662;-0.25334224;0.06081766;-0.10081721;-0.06095997;0.07823794;-0.056455396;0.0016311874;-0.008623417;0.049012963;-0.014013112;0.069279075;-0.012166018;-0.035275605;-0.13969806;-0.0847208;-0.008574632;-0.0051838774;0.0368629;0.10838218;-0.11467349;-0.017206056;0.08909326;0.002112386;-0.03201362;-0.0072873863;-0.04051469;0.018983785;-0.0070027034;-0.0919129;-0.16771394;0.01597852;-0.11431323;0.14642473;-0.0101713585;0.019199798;-0.023159215;0.10420876;0.02553221;0.0061116302;-0.08388559;0.105985485;-0.15544862;-0.07137557;-0.021131216;0.085339256;0.0070874044;-0.09578541;-0.028348995;0.10348346;0.033313803;-0.03296843;-0.054757785;0.05222967;-0.24103464;0.037119392;0.09024018;0.027201584;-0.030603608;0.080758356;0.015886722;0.002701963;0.012559353;0.025635092;-0.082340926;0.021444764;-0.121205166;-0.015035249;-0.045557685;-0.0564596;0.005854242;0.06720811;0.083424844;-0.010267801;-0.0045589777;0.040272065;-0.083173245;-0.09852904;-0.10550334;-0.017113356;-0.03788275;-0.06777028;0.046463307;0.00949935;0.03692829;-0.044323295;-0.033812303;-0.36920857;-0.03635293;-0.17172627;-0.072121315;-0.037334763;0.06788228;-0.021391382;-0.2018104;-0.108505055;0.06924336;-0.02413175;0.021096457;0.078729026;0.03198575;0.0798103;0.06399547;-0.10382853;-0.08139111;-0.14404573;0.2346482;-0.0094984425;0.056628875;-0.04711138;-0.06187623;-0.016188929;-0.01778322;-0.09335194;0.097594224;-0.00909941;0.03940693;-0.15556028;0.009422276;-0.0012081453;0.070195094;0.12935032;-0.36127883;0.029115567;0.0058843526;-0.033133414;-0.002842458;-0.07065731;0.041215133;0.01189804;0.009407599;-0.05054983;-0.042861044;-0.034102704;-0.23499171;0.1540927;0.1923603;-0.034869675;0.11749771;0.044050835;0.0022332815;0.04739336;0.058249917;0.07067453;0.045240767;0.05713729;-0.031581618;-0.05475328;-0.09819703;-0.0025819931;0.051207498;-0.07717525;0.025105389;-0.035719596;-0.0035894671;-0.117051855;-0.040118825;-0.029180897;-0.029304668;0.042262197;0.02408504;-0.01754996;0.06588101;-0.035213605;0.0031507842;-0.15350255;0.008808699;-0.069086574;-0.054898303;0.08989802;-0.008823401;0.068483226;0.010313905;-0.07343885;0.03418852;0.018705659;-0.06096039;-0.06451594;-0.027621381;0.03746366;0.05443103;-0.023216588;0.014158699;-0.022442138;0.050860625;-0.10515293;0.07440905;0.06007443;-0.039472792;0.059528343;0.06612153;0.012032188;-0.05424764;-0.22424684;0.081175014;0.01113999;0.02887703;0.021148413;-0.045841463;-0.0050472114;0.054161377;-0.08981958;-0.08663497;0.033485115;0.006298753;-0.036637627;0.10772812;0.029764289;0.12699747;-0.04659847;0.10053262;-0.11656409;-0.09030007;-0.056133684;0.02524753;0.037809163;-0.07027208;0.09608472;-0.00090217945;0.010304654;-0.06575434;-0.09372384;0.0480437;-0.0035764573;0.014662093;-0.004713786;-0.065307856;0.04162749;-0.0017044297;-0.048097257;-0.05717914;0.054949097;0.27575645;-0.032562383;-0.06346729;0.027646968;-0.025680352;0.07899935;-0.033843316;0.05904461;-0.023654122;-0.017229123;0.01870802;-0.05327466;0.061578143;0.020531554;-0.044197645;0.014702994;-0.108061224;0.09319525;-0.059198823;0.06421593;-0.07194241;-0.17519297;-0.02415096;0.009232014;-0.06476086;-0.12717628;0.003312527;0.0010974079;0.06913685;0.06657597;-0.11238258;-0.16755594;0.09683616;0.16337542;0.11593046;-0.10025989;-0.06912313;-0.04291118;-0.0064912788;-0.09096625;0.036676083;0.16908035;-0.06792146;0.004697681;-0.025636474;0.02661811;0.07078396;-0.10834012;-0.06048204;-0.040617675;-0.15854666;-0.0010651627;0.042965222;-0.03968897;-0.09274024;0.031362556;-0.12787186;0.027693935;0.047106333;0.0515596;-0.11196855;-0.09489049;0.118909605;0.013686441;0.0097975;0.014158029;-0.048217047;0.091587365;-0.01014024;-0.10973121;-0.05404866;0.02870424;-0.00021375404;0.046244945;0.025992978;-0.0019795743;0.262677;-0.0879211;0.07052417;-0.061972346;0.041349255;-0.044372503;0.14277503;-0.00056427805;0.117030114;0.054500528;0.0071736514;0.025189495;0.110031806;-0.013327765;0.027132908;0.069499046;-0.03220693;0.30311063;-0.040639546;-0.02590145;-0.07550368;0.034158103;-0.032414835;-0.036464036;0.038948238;-0.03153256;-0.03419206;0.21533625;-0.079536185;0.027924312;-0.07124329;-0.019781707;-0.10470576;0.31254315;0.061897554;0.05396986;0.113439426;0.12459163;0.1147426;0.08656277;0.0027399159;-0.07664853;-0.11756667;0.11432033;-0.029776106;0.022630263;0.06723734;0.03205498;-0.12256633;-0.01458206;-0.035751626;-0.10063784;0.03368366;-0.053788193;0.042365663;0.04105781;0.009992219;-0.06667589;0.08186894;0.06974075;0.02418197;-0.087541915;-0.023566628;-0.051824067;0.0095376875;-0.014743541;0.017355008;0.09285115;0.10402459;-0.09315909;-0.008189257;-0.09575204;-0.021223452;-0.04296598;-0.10552345;0.020525785;0.08251795;0.0634812;-0.23505832;-0.0028357373;0.07037224;0.13946216;0.089642756;-0.06722619;-0.301168;0.005383006;-0.0022787165;-0.04195491;-0.004590735;0.108038805;-0.05225414;-0.13802055;-0.049883027;0.018316654;-0.0058221365;0.000743912;-0.30021697;0.040640123;0.04942564;0.0046265167;0.028080234;-0.0878904;0.16461076;0.039609868;0.15243568;-0.045051817;0.068239205;0.04657465;-0.04501343;0.022636632;-0.02880293;0.05182018;0.070902176;-0.009562655;-0.016481742;-0.043909725;-0.005175323;0.14470178;-0.14108798;0.023097059;-0.064236864;0.030702885;-0.394456;0.022105535;-0.12576066;0.24074572;0.033891674;0.005615914;0.01951716;-0.077557646;-0.036554016;0.06235809;0.011184693;-0.020546133;0.0658255;0.051323213;0.031990662;0.06908396;-0.0041812947;0.002811877;-0.061162334;-0.0063772346;0.018060518;-0.113266125;-0.028410997;0.010189226;0.010899682;0.10349578;-0.017210905;-0.086788714;-0.00028549173;0.042326603;0.07609385;-0.012131917;-0.018625706;-0.07252259;0.028525332;0.022426099;0.04840748;-0.018906958;0.06508807;0.05931666;0.0045159385;-0.08391628;0.010646087;0.101437196;0.00056530995;0.05053946;-0.107444055;0.083076455;0.078444846;0.012033691;-0.018699164;0.06539156;0.010155523;0.043306943;0.0068436535;-0.056015294;0.25160125;-0.04590624;-0.027299846;0.020916052;-0.028728709;-0.3453874;-0.0154875135;-0.019159872;0.0022354096;0.1760318;0.06461782;-0.050649047;0.058268655;0.005631161;-0.076167315;-0.0886759;-0.058247697;-0.046676815;0.004081788;-0.0030806193;0.09637073;-0.059899077;-0.04780668;-0.02578786;0.19811644;-0.049185622;0.0535239;-0.037085652;-0.412887;0.13042332;-0.13563292;0.07345841;-0.056032706;-0.17477041;-0.040583648;-0.027284505;0.040009532;0.041678857;-0.09378021;-0.092044525;-0.2890179;0.04891054;0.07884829;0.07272513;-0.021440562;-0.04049078;0.075650215;-0.13523225
-0.14793928;0.08205022;0.029698333;-0.03400681;-0.011463349;-0.064272635;0.16579066;0.008465292;-0.05917199;0.050538633;-0.10066521;-0.0037365982;0.07308384;0.03528767;-0.009058591;0.0063066822;0.15733217;-0.11430489;-0.023839291;0.09751155;0.079743415;-0.05866033;0.07041145;0.048402395;-0.28038642;0.08660908;0.04587766;0.114112504;-0.0853499;-0.46713904;0.029198483;-0.037833225;0.008531966;0.077374615;0.012393951;0.0035530948;-0.09204061;-0.07290865;-0.016422903;-0.012960631;-0.08740997;0.05388224;0.26828974;-0.2267896;0.12043799;-0.11678796;0.023816517;-0.0036002907;-0.039476976;0.04812033;0.042260565;-0.080605075;0.0114196455;0.111477636;0.034162387;0.11024342;-0.14507851;0.005279088;-0.0039518625;0.15569496;-0.12614869;0.17584848;0.054074723;-0.14270693;-0.034638934;0.13362886;0.053820446;-0.046550855;0.06305327;-0.09395408;0.010265481;-0.0960982;-0.051022843;-0.0373194;-0.13926357;0.12847236;-0.077158004;-0.050645724;-0.021467946;0.07007114;-0.05814358;0.035694372;0.008539893;0.08848248;-0.08870222;-0.014173355;-0.0062521873;-0.0588188;-0.025105821;0.09908362;0.034966096;0.086550854;-0.062516704;-0.10533177;0.06765305;-0.07044539;0.06593173;0.051584862;0.15653439;-0.061966706;0.040221285;0.09291339;0.050067697;-0.017612617;0.07210559;-0.012141629;-0.031780094;0.014558914;-0.01669983;-0.08659031;0.04511618;-0.03948915;0.024087466;0.15622473;-0.035210133;0.18177605;-0.058187526;-0.11822106;-0.09352734;0.044069752;-0.046082884;0.025947265;-0.048155632;-0.00548114;-0.06885203;0.005860881;-0.039899018;-0.028670644;0.004459256;0.17364985;0.004540377;-0.012767273;-0.07546228;0.016106857;-0.10268409;-0.07392215;0.027294382;0.14266591;-0.06121264;0.04468434;0.068871506;0.16660088;0.098513775;-0.06950232;0.04404794;0.04476454;0.10547605;-0.017553957;-0.07052912;-0.008826891;-0.0596626;-0.011364655;-0.017003017;-0.06958788;0.06348574;-0.011622539;0.038367808;0.09838483;0.017701436;-0.15548757;0.124995165;0.049822036;0.04967851;-0.09808685;-0.10173466;0.035479292;0.051583864;-0.04901407;-0.07169751;-0.07294484;-0.05214882;0.076672845;-0.040285453;0.27801046;-0.043551452;-0.0569184;-0.2893751;-0.04270421;0.092210226;-0.07231529;0.019360134;0.01937297;0.22667703;0.10255808;-0.039781798;0.016184928;-0.025124865;-0.011973653;0.024357561;-0.07858038;0.00048561956;0.012387336;-0.0033856495;-0.054237578;-0.0086082965;0.0056449934;-0.063290805;-0.014999259;0.03518794;0.11038917;-0.07049511;0.013272721;-0.038062554;-0.075874604;-0.09813781;0.03314587;0.026875742;0.014255287;-0.073520504;0.018812396;-0.10919435;0.02921482;-0.039655536;0.04663953;-0.058614876;-0.12433124;0.07237677;0.24660642;0.051673226;-0.04691575;-0.007914422;0.062072933;0.081926994;0.06638945;0.04263966;-0.014384141;0.023675103;0.061163597;0.068916865;-0.07109917;0.026498958;0.12148289;0.046829816;-0.08125301;0.0035398263;0.09041659;-0.050310396;0.033515923;0.102804966;0.17786837;-0.13148254;0.05133623;0.0075974045;-0.081674956;0.07431363;-0.081279755;-0.091510594;0.044912487;0.072745405;-0.04949278;0.07792289;-0.095406026;0.031989526;-0.11621731;0.029299144;-0.01432499;-0.035962805;-0.028399795;-0.09641924;-0.030414298;0.08083008;0.03769485;-0.01056898;0.07873056;0.077440284;0.072963625;0.103051595;-0.04279869;0.035426486;-0.15289994;0.018504804;-0.051952396;-0.043881785;0.06950397;0.0630356;-0.023309227;0.06931441;-0.036592796;0.06124703;0.05206188;-0.04909661;0.02539462;0.06460106;0.0019782397;0.06205317;-0.09849207;-0.0011742394;-0.06416833;-0.024704324;0.06894067;-0.06622531;0.02041587;-0.0056347377;-0.004384463;-0.06284089;-0.017020317;0.014096876;-0.102170475;-0.0017436622;-0.16488607;0.025782466;-0.07356788;-0.07737824;-0.09055778;-0.12534648;-0.020473253;0.10472848;0.026363699;-0.055094462;-0.10714552;-0.06710231;-0.00097346026;-0.0677815;-0.0005137909;0.06564822;0.09599536;-0.057428613;-0.10342333;-0.033890426;-0.085334204;0.037266355;-0.07553062;-0.07620517;-0.07952276;-0.16218762;-0.17827415;0.012716899;0.061333425;-0.0056353775;0.029000305;0.06533827;-0.07867521;0.0767925;-0.021787323;-0.021243643;-0.2423511;-0.08527918;0.07013255;0.02618023;-0.03738189;-0.11016031;0.02304679;-0.07770719;-0.006179802;0.050205156;-0.058494028;0.04019628;-0.045692265;-0.07902897;-0.21270555;0.24801105;-0.20137437;-0.09549852;0.013253983;-0.050125726;0.023927493;0.12605113;-0.12392366;0.0796917;-0.07886451;-0.0407056;-0.011756784;0.066036984;0.05663229;0.037239283;-0.06090447;0.031500265;0.17934698;-0.16696163;-0.2007958;-0.029957145;0.0059545916;-0.024306988;0.044867903;0.16211641;-0.030697543;0.094064444;0.10826988;0.07384753;-0.083949246;0.02124783;-0.018954623;0.005983266;0.053137932;0.022551797;0.05271205;0.056755267;0.035429027;-0.06621139;-0.082909696;0.038409147;-0.077016264;-0.25018477;-0.24009536;0.033749867;-0.0731951;-0.046536144;-0.005230183;-0.03502271;0.059134744;-0.043067627;-0.03393332;0.065123044;0.14365111;-0.0100907;0.01341564;-0.06860283;-0.00045035727;0.0002995;-0.09133621;-0.07469915;-0.029940682;-0.027744927;0.034018356;-0.07192359;-0.061556;-0.014147436;-0.0034858943;0.051964298;-0.037274826;0.08913427;-0.08373524;0.031790696;0.061725277;-0.12393127;0.027963229;0.01451066;-0.084086515;-0.09190268;-0.04798137;-0.004049001;0.019371426;0.11201643;0.009184507;-0.17961277;0.041001175;0.036039002;-0.06878426;0.013699699;-0.016764548;-0.06062593;-0.07094045;0.09224235;-0.01028204;-0.13697787;-0.07327021;-0.058202844;-0.005126728;-0.046454173;0.054397505;-0.039953575;-0.019488286;0.06438546;0.028491748;0.03868577;-0.04402156;0.0208971;0.16962905;0.013982131;0.025340745;-0.011536632;-0.08491232;0.0051711234;0.055149037;-0.06911811;0.03138358;-0.028315539;0.06084484;-0.17626564;0.044742744;0.009128184;0.016693814;-0.38985872;0.060476653;0.055458304;0.25232643;0.019374896;0.037172057;0.021120366;0.050899163;-0.013202676;-0.09122784;-0.07683997;-0.015571073;0.1459247;0.017094383;0.053820316;0.055301208;0.097298175;-0.03063973;0.015512853;0.13064255;0.0071517485;-0.12533753;0.0058933124;-0.054150414;0.07194269;-0.027692262;0.036925714;0.08715778;0.0015610289;-0.049867332;-0.10666241;0.034736212;0.022616424;-0.0031340956;-0.073790506;-0.0021482243;-0.06750592;0.05001275;0.017870791;0.13175261;0.047364898;-0.14283134;0.058667365;-0.055184662;0.0069797398;-0.07911826;0.0050025135;-0.023210213;0.18916841;0.10409469;-0.009887167;-0.01690271;0.13648994;0.037587684;-0.1239183;0.040299036;0.079143964;0.06946861;0.056112297;0.007802476;-0.2611211;-0.32670087;0.009943375;-0.06414131;-0.0048854146;-0.025586272;0.067963935;-0.07957298;0.118997306;0.06058796;0.05731883;-0.3300264;-0.05963201;0.074560255;0.027188508;-0.06304514;0.028462695;-0.031266082;-0.09466719;-0.0820339;0.17592444;-0.05157658;0.040933624;-0.046703596;-0.15500599;0.12179336;0.07702086;0.047433905;0.04017668;-0.25627986;0.053290345;-0.03146107;-0.08667942;0.06241476;-0.124694936;-0.035640694;-0.22840828;-0.030112274;0.000751991;0.069118276;0.034582287;-0.014692687;0.0836018;0.23676817
-0.15893415;0.032380547;-0.05548044;0.08154198;0.023873251;-0.035807155;-0.048433825;-0.017624315;-0.08605172;-0.09138153;0.005104152;-0.106889695;0.048779998;0.037275013;-0.002772744;-0.022711584;0.060749345;-0.12003478;-0.09653051;0.07190223;-0.095507994;-0.021601869;-0.049990777;0.036180913;-0.13949616;0.050177947;0.111275755;-0.12126629;-0.07228752;-0.11517158;-0.065227665;-0.17015882;-0.0077498117;-0.04236878;0.117045484;0.10443325;-0.015199859;0.050374;-0.019796137;0.06325945;-0.0044324687;-0.09694807;0.1664521;-0.12030856;0.102056995;0.034654602;-0.071351804;-0.019440124;0.085786864;-0.082257204;0.0062790606;0.029575082;0.014236433;0.14897594;0.039446637;0.0114967665;-0.18033296;0.12560003;-0.017346058;0.021915318;-0.028817719;0.020015243;0.022831203;-0.014885789;-0.01192711;-0.064404346;-0.051771518;-0.06981517;-0.032790896;-0.057222404;0.020981116;0.00011763848;-0.15945046;-0.090260364;-0.04015153;0.12461383;-0.010056925;-0.07871876;0.061242785;0.02611811;-0.05299956;0.098277286;-0.22213629;0.026767492;-0.07584742;-0.04369178;-0.060200736;0.02950779;-0.020812977;0.0866206;0.07380247;0.042757504;-0.062119026;0.10873563;-0.05657273;-0.012334858;0.037157886;-0.066782966;0.016160311;-0.015768748;-0.18377623;-0.016055418;-0.007129941;-0.058183856;-0.06538347;-0.07218591;-0.016935116;0.06283985;-0.0095423395;0.025967246;0.028230928;-0.0826063;-0.021933885;0.027393231;0.0037489908;0.031032562;-0.075521044;-0.00042625988;0.024697881;-0.073085904;-0.09389871;0.0025435837;0.093703866;0.05702206;0.03692172;0.030809416;0.014294366;-0.060530324;0.041535668;-0.073536195;0.029605925;-0.018953802;0.04437765;-0.011254461;-0.05021504;-0.01707995;0.016013429;-0.07869582;-0.0016133314;0.03863652;0.015265541;0.16829184;0.16387255;0.031907227;-0.006472897;0.05819802;-0.10070164;-0.026208771;-0.24168165;-0.08729287;0.032366343;-0.039490726;0.029097263;-0.042846084;-0.04669321;-0.07383788;0.00095472217;0.09839848;0.07083988;-0.12169568;-0.037173867;0.07014205;-0.07404689;0.0017315074;-0.11025408;0.013825013;0.02772964;0.04578017;-0.022080792;-0.014118869;0.041700214;0.038437635;-0.09214432;0.015480683;-0.1112889;0.0042663873;-0.19379184;0.12134964;0.18854171;0.04757648;0.08935684;0.0798949;0.1010719;-0.0008697318;-0.0082702665;-0.07435023;0.074495204;-0.06021681;0.08433188;-0.019103538;0.018905431;0.064622074;-0.09487394;0.00048687877;-0.10732738;-0.08992179;0.07081943;0.005142092;0.025921877;-0.02539651;-0.011608106;0.036364656;0.010075096;0.0402164;-0.048520707;0.013787768;-0.025568703;0.07861936;-0.10147827;0.02644191;-0.034786943;-0.005150546;-0.03509103;0.039161284;-0.052501153;-0.10622381;0.034062814;0.04791345;0.0523448;0.07760608;-0.06972792;0.04559431;-0.03752031;0.06279902;-0.0047907457;-0.036115717;-0.013346256;-0.17388114;0.03746794;-0.005129108;-0.069840334;0.064344905;-0.10633202;0.031092135;-0.020813959;-0.15318215;0.0058068507;0.019661563;0.11778331;0.12292055;0.054035176;0.0359225;0.04044734;-0.18150277;0.0012818783;0.010767971;0.018578684;0.091978796;-0.06010791;-0.05140788;0.07778123;-0.08208068;0.0870173;-0.08665787;0.035585742;-0.006580162;0.042912535;-0.047505364;-0.073194645;0.08843777;0.091024704;-0.0031304362;-0.043301888;-0.029697094;0.07782151;0.15141574;0.093849994;-0.03985101;0.18116109;-0.057663426;-0.013453093;0.06471037;-0.06256508;0.06789556;-0.017024597;0.062322322;0.008082876;0.050676316;-0.0009046609;-0.12262408;-0.029594343;-0.06591494;-0.014642339;-0.031319167;-0.07183472;0.022668505;-0.09576872;0.02179057;0.06717777;0.11813454;-0.14401671;-0.012371979;-0.013885908;-0.014682644;-0.0310747;0.07900386;0.027702846;0.03607951;-0.015017041;-0.10914119;0.047375057;0.039773583;-0.035976786;-0.08435593;-0.11595579;-0.13154034;0.15587857;0.016403647;0.03244339;-0.0015672559;0.057482835;0.05519375;0.05973102;0.05906747;0.06709484;0.10860586;-0.08922501;-0.03192244;-0.006591684;0.0013302454;0.07063515;0.061988633;-0.03886009;-0.018726883;-0.10780907;-0.09141024;-0.0010504073;0.0674637;0.02915733;-0.03775141;-0.11377407;-0.02881;0.024861258;-0.04438258;-0.08855902;-0.17784053;-0.16193624;0.033387844;0.04957445;-0.031845078;0.04553399;-0.06339207;0.015285613;0.08107362;0.07001803;-0.09766669;-0.060684804;-0.057770867;0.04615123;-0.033049054;0.25375816;-0.25343794;0.046753906;-0.017024355;0.1017189;0.027326953;0.063380264;-0.15372315;-0.037055723;-0.07001518;-0.029315978;0.054136604;0.3042183;0.14190626;-0.056657646;-0.008619872;0.031939596;0.20023507;-0.059387222;-0.15399669;0.08093495;0.03207925;-0.03485046;0.06623152;0.09034667;0.059964195;0.035987254;0.097063735;-0.05352724;0.049760334;-0.070020825;-0.07471379;-0.045528002;-0.041152395;-0.11690374;-0.06524144;0.08453615;0.06244834;-0.05112314;-0.100471266;0.08890591;-0.096803926;-0.039626982;-0.08311628;-0.015739476;-0.050811324;0.11631889;-0.035737544;0.04993969;0.020495705;-0.069078065;-0.06931332;-0.019910613;0.051830564;-0.107325286;0.112845406;-0.038126435;0.023274181;0.00541047;-0.0016395005;0.0136592025;0.020598529;0.007931867;-0.032991305;-0.0061979317;0.072635144;0.02779679;0.036511958;0.109372556;-0.07556684;0.0765129;-0.20583889;0.030462537;-0.018388247;0.023309605;0.045855943;0.026842223;-0.05619076;-0.102966286;0.056899086;0.04160527;0.10751135;-0.033445496;-0.08603065;-0.21397361;0.079690844;-0.012547495;-0.057239406;-0.040214375;0.12566589;0.057016507;-0.009740615;0.059433453;-0.083155185;-0.041979715;0.083801255;-0.20452476;-0.01126996;0.07725162;0.040766876;-0.0333228;0.045284387;-0.025412792;-0.06399962;0.017646424;-0.034070987;-0.08739808;0.16734603;-0.064857565;-0.0052957656;0.00034956468;0.019416034;0.11089958;0.019348375;-0.07211533;-0.045693014;0.049735367;0.13841236;-0.19983992;0.00084540626;0.008840371;-0.0015256369;-0.3022811;-0.0257141;0.026244022;0.23035385;-0.009006841;-0.05865956;0.012170105;-0.06283713;-0.021847416;0.014310491;0.011544694;-0.065630235;0.13340765;-0.07602756;0.025371406;0.1485841;-0.048433695;-0.009958951;-0.00014782624;0.10925821;-0.01452803;-0.198784;0.066010125;0.017985834;0.012677392;-0.072175205;-0.029836245;-0.15192223;-0.006695713;0.083608374;0.050090253;-0.047773022;0.04414757;-0.030911563;-0.06883194;0.0894755;0.021843845;0.046270978;0.03351259;-0.20706156;0.003857481;0.11216373;-0.040243194;-0.023801642;-0.06816213;-0.06691971;0.17744021;-0.024433885;0.010138504;0.06857376;0.06685376;0.0981931;0.14940105;0.013982548;0.061525688;0.015409567;0.07438022;-0.033439495;-0.07931639;-0.09665162;-0.28807727;-0.16655059;-0.043877527;0.007121989;-0.11140672;-0.02802479;-0.03912614;-0.009904871;0.012039472;0.023068825;0.10578449;-0.2943379;-0.02741802;0.029247127;0.052077442;0.04517915;-0.03614411;-0.05737269;0.012118179;-0.021111894;0.17401986;-0.009288397;0.057926167;0.0073943874;-0.19314203;-0.009043748;0.118891634;0.0644158;-0.07095591;-0.26578033;0.045357402;-0.021193484;0.05543266;0.059948098;0.052405402;0.03201246;0.0746326;-0.019472837;0.06171825;0.13050702;0.033299588;0.07350051;0.093106;-0.09901284
-0.071531646;-0.025390582;-0.13367139;0.014482421;-0.03400011;0.004255141;-0.017960386;0.051997945;0.0070928256;-0.029204376;0.011939964;0.015737059;-0.107089266;0.055732917;0.041892495;0.015062881;0.021048717;-0.13912532;-0.093928576;-0.13434093;-0.061354887;-0.0051263147;-0.042282093;-0.091800675;-0.29878446;-3.6315905e-06;-0.027356563;-0.21719112;0.08365745;-0.23305984;-0.060536176;-0.17170985;-0.0317674;0.096737154;0.0202058;0.15493406;0.08166796;-0.04070134;0.03942165;-0.052403774;-0.012183547;0.044400685;0.20108303;-0.20717624;0.0330106;0.07698705;0.08323865;-0.00058839284;-0.07211349;0.089686625;-0.070169784;0.11764406;0.08766606;0.16085076;0.07693375;-0.027188897;-0.14168127;0.01071349;-0.022267986;0.1670737;-0.022989813;0.004763677;-0.07886131;-0.06146367;0.10555163;-0.0093131475;0.058920696;0.061163764;-0.1334607;0.080664024;0.057100516;0.023422267;-0.013838939;0.03911443;-0.0926171;0.18291888;0.06862092;-0.05614744;0.028638959;-0.14413895;-0.048329633;-0.0844603;-0.21527568;-0.0062952586;0.004215931;-0.066797115;-0.026124632;0.09555825;-0.016719317;-0.11901289;-0.0430058;-0.014082499;0.044812113;0.15050311;0.02763862;0.028695155;-0.15277667;0.03779363;0.043829024;0.011227702;-0.098092124;-0.06235337;-0.07828794;0.0075558387;0.023133097;-0.04407646;0.05227979;-0.04588364;-0.088856086;0.023274604;0.054948132;-0.016642356;0.0735958;0.0028732622;-0.09189811;-0.078022145;0.08690704;0.013810744;0.025852656;-0.019416856;-0.04613956;0.0144858295;0.051748563;0.002685519;0.0029601136;-0.07773914;-0.1375568;-0.052017547;-0.04413954;-0.121674195;-0.033099182;-0.19323799;0.045083955;-0.06289949;0.035762053;0.06982809;-0.08723611;0.036064208;0.05878195;-0.12176512;0.08028119;0.08247548;0.15439862;0.053983647;-0.065405466;0.028275758;-0.052887723;0.029185751;-0.25221148;-0.12382922;0.025176538;0.07752447;-0.116941154;-0.19531678;-0.03215073;0.016986214;-0.05606412;0.059879694;-0.022927478;0.107907385;0.008778078;-0.0552966;-0.029156614;-0.09257673;-0.08341511;0.009812677;-0.0035058418;0.023942737;0.023368731;-0.022800757;0.0022803806;-0.16166446;0.06467011;-0.06853091;0.015794815;0.01628377;-0.21796829;-0.09311547;0.11474758;0.009188384;-0.08947156;0.003398651;0.14750019;0.058887284;0.02250489;-0.14124288;-0.10369974;-0.017815473;0.025233237;0.013293038;-0.10806711;-0.03767367;-0.1710973;-0.053494122;0.023512995;0.0560572;-0.03127901;0.043591224;0.040219225;-0.06765554;0.057691947;-0.025029741;-0.018805636;0.072043456;0.024094325;0.056694094;-0.016166491;0.32133088;0.022980126;0.040970016;-0.003500954;-0.042092312;0.05236731;0.0109212;0.043500073;-0.012423906;-0.07675816;0.10341903;0.006385995;-0.04988209;-0.04385485;-0.063481;-0.02467191;-0.0149123045;0.037821274;0.049469635;0.08280095;-0.21494144;0.0383989;0.048428982;0.06346058;0.08556313;-0.04036497;0.001955928;0.041582726;-0.027070275;-0.08695425;-0.026586127;0.13716492;0.1288902;0.08368369;-0.05713276;0.024153633;-0.07047639;-0.03149657;-0.11245702;0.09033116;0.037209187;-0.019665675;0.12459309;0.088392094;0.01984483;0.011653302;-0.09326951;0.07389405;0.060987365;0.031484548;0.10193235;-0.014817626;0.037587073;-0.04002189;0.08794307;0.13432737;0.038828716;-0.06780844;-0.046506695;-0.067198314;0.064557984;0.11538998;-0.07661095;0.0115473;0.0030230675;-0.026659276;-0.080933295;0.04551074;-0.075209185;0.07931256;-0.01460498;0.004730766;0.0066167326;0.0072712973;0.006109491;-0.036480166;0.02529292;0.01435937;0.005673942;-0.00031954;-0.020547016;-0.15930544;-0.05440587;-0.096574485;0.0075570773;-0.13125224;0.06226409;-0.023869392;0.011391558;-0.06860896;0.09680363;-0.012605164;-0.18576035;0.037265353;0.033041492;0.085934326;0.030177362;0.065068886;-0.08571854;-0.016972205;0.18646619;0.08569509;-0.009025986;-0.07022148;0.061718408;0.086960815;-0.02550234;0.071630746;0.15668954;0.048110954;0.07297307;0.033386886;-0.08484619;0.014046238;0.09588865;0.018993063;-0.04155037;-0.11464136;0.050598115;-0.090149306;0.0014695494;-0.059993394;0.017278591;-0.20522738;-0.023153448;-0.057082534;0.012016766;-0.04050069;0.07632998;-0.058223147;0.09663331;0.007096047;-0.039927855;0.08608011;0.00954523;0.060593847;0.059397463;-0.041485112;0.0071437163;-0.104756765;-0.007041239;-0.0023544217;-0.0040129414;0.23224357;-0.24187708;-0.06768323;-0.0021667646;0.005689604;0.05681907;0.07432061;-0.037991516;0.1980014;-0.021452488;-0.016434561;0.019453613;0.30528942;0.06673034;-0.02766568;-0.13213721;0.11113398;0.058981925;0.054413214;-0.06314209;0.11854811;-0.0026904293;0.034229938;0.039978575;-0.0687194;0.03368764;0.037224535;0.0025818485;-0.06480331;-0.06538444;-0.0019532307;0.12346462;0.03679428;0.00082200265;0.0053340564;-0.0035070344;0.06307697;0.02132221;0.067730844;0.010169621;0.04642623;-0.0073700277;-0.053131513;-0.17341621;-0.084493816;0.0119766;-0.021498285;-0.08279733;-0.045618527;0.0046160133;-0.057408094;-0.005990194;0.03167589;0.072871834;-0.010640327;0.041595552;0.03311688;-0.03232572;-0.09050458;0.010145465;0.03779037;0.022955395;0.044686858;0.06823961;0.035666235;0.09077459;-0.010677951;0.0005287974;0.049544305;-0.03240385;-0.045911845;-0.09067558;0.05161383;-0.06175904;0.092968084;0.040733974;-0.0585613;0.043026403;-0.13157356;0.034065634;0.094426714;-0.0021929536;0.049831204;-0.20159261;-0.104833186;0.0032667562;0.1008874;-0.00474875;0.036050744;0.06735912;0.040750943;0.0032646193;-0.022215366;-0.11897506;0.046896048;0.070096076;-0.17300652;-0.0026671349;0.07671916;0.12365264;0.021361047;-0.010087329;0.004342487;0.07676466;0.13091858;-0.0060004094;-0.06395139;-0.06578412;0.0057830587;-0.037660073;-0.056294695;0.06299386;0.04209271;-0.09676203;-0.06909694;0.030593418;0.046476815;0.06286516;-0.07269142;0.07927393;0.027500337;0.12105285;-0.03017374;-0.049528744;0.054156397;0.2270942;0.061484117;0.1110589;-0.060257737;0.06327292;-0.036848173;0.08316912;-0.009130619;0.07670291;0.16042124;-0.010531054;-0.039360218;0.04963491;-0.13480164;-0.07579126;0.033950772;-0.062091604;-0.20964585;-0.094401404;-0.034502562;0.08528103;0.005806527;-0.064897515;-0.10147209;-0.09226924;0.027404409;0.0061409236;0.020567648;0.024225133;0.09076715;-0.013641958;-0.0015795236;0.05661211;-0.0472501;0.094309725;-0.018846752;-0.11260988;0.08112687;0.06255146;0.004284619;0.025607202;-0.07981043;-0.033069756;0.19518566;-0.011104936;0.10655915;0.0057398095;0.07229064;-0.07274256;-0.027948277;-0.033775866;-0.020627243;-0.14800423;0.14566414;-0.05542046;-0.0082164835;-0.06477434;-0.13713846;-0.085480146;-0.023545522;-0.08765634;-0.09244343;0.061139867;0.09456278;0.029607065;0.014879785;-0.03464818;0.028169056;-0.28819242;0.031662054;-0.030220412;-0.008382118;0.055596355;-0.07440094;-0.0043729795;0.040049683;-0.008889822;0.21014756;0.009042395;0.00037209867;-0.00278418;-0.058207143;0.0064030536;0.11588867;0.040932033;-0.03475483;-0.13779853;-0.05253873;0.052994624;0.010620478;-0.08228546;0.09868237;0.06823418;-0.07628405;-0.011444269;0.07975824;0.090945266;0.043867685;0.022169437;-0.062331423;-0.2076596
-0.1461286;0.11029737;-0.11776501;-0.001171567;-0.09550626;-0.06804346;-0.044265836;0.063247055;0.038234744;0.05463122;0.018469663;-0.03163724;-0.027707161;0.037640516;0.060909446;0.05256313;0.07817027;-0.10562226;0.05309494;-0.02657265;-0.08775787;0.02072228;-0.044753198;-0.06013675;-0.37407988;-0.021701854;0.025632717;-0.09555976;-0.017407415;0.034362245;-0.07633684;-0.10165493;0.035672907;0.13683145;0.25212768;-0.096881375;0.018826133;0.0698968;0.016305432;0.046806645;0.05051287;0.025479618;-0.014806257;-0.199085;0.14612351;0.014696392;-0.074934855;0.12331596;-0.004729953;0.03467093;0.049174096;0.08180149;-0.09039146;-0.10777019;0.01620577;0.1313783;-0.19059247;0.07375028;0.093826935;-0.0612013;0.01243567;0.08239177;0.11591745;-0.106553;0.061361432;0.053184975;-0.030408097;0.104297675;-0.013254559;-0.009540383;-0.04321571;-0.04742989;0.12177132;-0.050743528;-0.012048312;0.19629803;0.053398386;0.008860765;0.15084527;-0.15831336;-0.114019826;-0.033839885;-0.1769642;-0.017452894;0.11413008;-0.05656229;-0.03461416;-0.09136934;-0.01671753;0.041177753;0.029342864;0.033104673;-0.008481587;0.102644205;-0.054934844;0.0677835;-0.099422105;0.078547835;0.031799957;0.047464173;0.025007995;0.014917553;-0.054275434;-0.0630386;-0.10082597;-0.055007733;-0.09621501;-0.066987544;-0.11640175;0.060522217;0.18890584;-0.06780389;-0.010724297;-0.028887235;-0.07910009;-0.055729236;-0.035893485;-0.05227718;-0.080770105;-0.013114086;0.03506124;-0.01807089;-0.03309097;-0.031393204;-0.024584178;0.19199024;-0.022776397;-0.027706832;-0.08330757;0.06812748;-0.038870163;0.023445807;-0.019743316;0.060720537;-0.060063746;0.009386733;0.014394844;-0.08129302;0.09313183;-0.15112776;-0.065029845;0.08686817;0.13393326;0.0020228748;-0.1356498;-0.02446015;-0.04459859;0.040298168;-0.239798;-0.041611135;0.06891719;-0.045911584;0.04860499;0.13309845;0.04108498;0.16176577;0.017594649;0.1492274;-0.047574155;0.07656028;-0.008735801;0.018578947;0.06780022;-0.21842918;-0.09342408;-0.070248194;-0.03535044;-0.03098856;0.02805757;-0.07556274;0.11964986;-0.110188305;0.0111319935;-0.0043108673;-0.01757549;-0.065905124;-0.161931;-0.002464635;0.16068725;-0.039123494;-0.14757246;0.05938648;0.1422545;0.059106346;-0.054638002;0.037547152;-0.014471968;-0.053520113;-0.0062303534;0.051702324;0.008768271;0.009717364;-0.0028879864;0.0027989873;-0.13131283;-0.08090994;0.0510369;-0.0075372187;0.06650168;-0.10901576;0.035514895;0.053338405;-0.04246303;-0.089998305;0.016307928;-0.063008696;0.09056962;0.20622398;0.1981733;0.06354559;-0.11299304;-0.07514448;0.060729295;-0.096678026;0.039973777;-0.009301384;-0.0878613;0.0030957332;0.07075864;0.10552189;-0.06520372;-0.064786606;-0.10960214;-0.021714866;-0.06793308;0.060410827;0.014604698;-0.24833253;-0.0961154;-0.049592268;0.09281851;-0.00014507145;0.0101152705;0.0037584146;0.027593225;-0.12751049;0.08211411;-0.06629498;0.20333396;0.003116946;0.00794008;-0.095242344;-0.07197363;-0.047736526;0.020664236;-0.09024361;0.05917934;-0.029926084;-0.052205656;0.044998888;0.025661029;-0.06368343;0.04684745;-0.052496996;0.014622474;0.06906695;0.044356015;0.027419329;-0.05280695;-0.009188141;-0.042879716;-0.027591469;0.028396605;-0.03196788;-0.09027986;-0.013529716;0.045910448;-0.056178894;0.056109715;-0.33135867;0.07291574;0.10328887;0.06185684;-0.068881325;-0.004815464;0.03789426;0.0022068059;0.09713071;-0.048594512;-0.0761671;0.06268878;0.044947665;-0.0035657552;0.02254625;-0.017073875;-0.004695491;-0.07600965;-0.094089925;0.12806943;0.013202431;-0.16060233;0.04165066;-0.021739276;-0.011314283;0.12296874;-0.012892281;0.037185896;-0.033569265;0.1547622;0.0139936255;-0.0008110925;-0.04387749;0.016559198;-0.003946919;-0.012499145;0.13942635;0.00023226772;-0.005430128;0.0846293;-0.06526742;0.0012628037;-0.055885434;-0.014367697;-0.057686124;0.1174048;0.14896202;0.019064855;0.0849066;-0.038608868;-0.044211086;-0.07556246;-0.045787483;-0.010300038;-0.042135425;0.0784732;-0.10799401;0.058464725;-0.023377338;-0.00012283243;0.02107376;-0.0065277107;0.05512295;-0.00475317;0.059734713;-0.10496215;-0.06384299;-0.110366255;-0.06738216;0.06834148;-0.0073660933;0.0069251894;-0.02516991;0.0073148324;-0.067802034;0.10273439;-0.040508274;-0.034192838;0.010254726;0.017795661;0.022037815;-0.13283248;-0.037049685;-0.06454736;-0.05037042;0.098435536;0.10259284;0.110669866;0.031597298;0.058030076;-0.014879295;-0.014891309;0.026249802;0.17286918;-0.045869105;-0.0688509;-0.05248154;0.057473198;-0.06613215;0.092909664;0.30560827;0.09548428;-0.086828716;-0.099960566;-0.056320716;0.1050975;0.03816478;-0.064378284;0.12238434;-0.035740033;-0.09239647;-0.0813818;-0.003968515;0.013582914;-0.11197258;-0.0059873792;-0.02339461;0.061887793;0.117689066;-0.09530601;-0.059892904;0.0055125006;-0.038123276;-0.030286428;-0.18819179;0.0049055177;0.007308824;-0.060518812;0.019471377;0.075490355;0.0027180647;-0.023715274;0.07126627;-0.048452057;0.03858513;-0.007996528;-0.07795351;0.034292754;0.13992436;0.032951593;-0.04766968;0.053068288;0.026766537;0.00021034466;-0.028719349;0.13326289;0.017625518;-0.007872042;0.017174972;-0.012150854;0.14242987;0.04515639;-0.28016427;-0.06700578;-0.07012585;0.0013159827;-0.10794329;-0.019658893;-0.009676512;0.034002468;0.061789066;-0.02252444;-0.0071037337;0.006140358;-0.16800907;0.015051998;-0.10490767;-0.03943251;-0.047228392;0.037366614;-0.055514272;0.06930809;0.057942685;0.0036954847;0.07883118;0.009214833;0.013485372;-0.030490916;0.058439903;0.028617976;-0.018056823;0.03779646;-0.083771154;0.06471005;-0.036215626;0.061846774;-0.07065415;-0.043775555;0.19340335;-0.028556703;0.0425736;0.07917885;-0.036140397;-0.07249564;-0.05959524;0.030639146;-0.04712984;-0.01816132;0.015628044;-0.070036925;0.049333636;0.013352651;-0.0073655215;0.04726642;-0.0873776;-0.0067487303;0.13153177;-0.008339935;0.06372128;0.054953564;0.017748358;0.00048450675;-0.09094843;0.04140701;-0.04375125;0.1327383;0.023796702;0.03279331;-0.051874936;-0.12345325;-0.0032652318;0.018944908;0.20398262;-0.14526823;0.02798617;0.04264468;0.11727421;0.024914635;0.020498933;-0.10913478;0.1068239;0.043975823;-0.035546303;-0.02852583;-0.039252292;-0.08473897;0.0054954016;-0.05168285;-0.051637825;0.010720702;0.1313185;-0.06631689;0.071234375;0.1005199;0.027108317;0.050219048;-0.17655188;-0.08222936;0.082739785;0.1696709;0.0070918836;0.20794901;-0.08726105;-0.08166672;0.0055450234;-0.16737464;-0.04355687;0.10126043;0.0056774695;-0.14294198;-0.038191624;0.04280307;0.03108704;-0.18232645;0.04071178;0.1118229;-0.029969342;0.045245964;0.0012719068;-0.003929134;-0.034793872;0.057062298;0.058415912;-0.0101391;-0.4443155;0.021014307;-0.042150814;-0.045745324;-0.061784193;-0.053287175;-0.0013326209;-0.0071756844;-0.08963218;-0.0030783876;-0.04416297;0.03856058;-0.008249052;0.042206645;0.16169809;0.11935965;-0.06406567;-0.08718613;0.19015613;0.01345382;-0.048280165;-0.058453076;0.01789634;0.17197415;0.11310912;-0.16273385;0.047457937;-0.09723562;0.0490214;0.094657265;-0.016136773;0.1074709;-0.13611741
-0.2261596;0.09337396;-0.05362141;-0.028632913;0.0035628611;0.08187029;-0.11847617;0.05976976;-0.043939516;-0.015048909;0.05166876;0.06973561;0.082763724;-0.040895917;0.006790687;-0.091834486;0.10693912;0.09498113;0.037589464;-0.079694286;-0.016904453;-0.0047416817;-0.10817439;0.0747446;-0.28118807;0.033058245;0.028720366;-0.045257885;0.010549047;-0.0074655754;0.0041027134;-0.038690057;-0.07037903;-0.046685357;0.21069112;-0.15011425;-0.010356516;-0.025961192;0.098665826;-0.060247585;0.0025594158;0.03432054;-0.07703084;-0.07695935;0.05377928;0.094977185;0.048097547;0.030150026;-0.026760014;0.008537909;-0.05698578;0.1953374;-0.07594507;-0.14243965;0.023058752;0.18213218;-0.079781495;0.07192644;-0.020050207;0.10508793;0.11417811;-0.079029895;0.1368293;-0.08562379;0.02720624;-0.0024265843;-0.024830883;0.076875076;-0.05905395;-0.05322214;0.05083789;0.054391142;-0.021538248;0.03088684;-0.048581436;0.06715821;-0.07893853;0.043521646;-0.06911691;0.09437437;0.08329396;0.09766677;-0.06962281;-0.12198119;-0.07913935;0.010332415;0.04521288;-0.19765283;0.050440058;0.082035564;0.019743519;0.026657803;-0.008080768;0.024309054;0.04569978;0.1328093;-0.13913186;-0.030435145;0.053336866;-0.013004435;0.20733665;-0.05346059;0.04825325;0.075529784;-0.10178018;-0.03564691;0.030311713;0.006359331;0.0042902445;-0.057443697;0.054433826;-0.06758518;-0.09965579;0.11701685;0.071842834;0.0007499377;0.006557855;-0.11414724;0.06037586;0.020240054;0.016873408;0.024731372;0.022499092;-0.0045273104;-0.09437413;0.23558825;-0.05065383;0.020814952;-0.029559195;-0.1301444;0.03917417;-0.05098629;0.09964573;-0.065254904;0.042010367;-0.0011999792;-0.05527831;-0.02520772;-0.08011058;-0.036046244;-0.029908478;0.061356355;0.2120166;-0.037515584;-0.00093232153;0.057799872;-0.09144468;0.06742948;-0.14411055;0.1163945;-0.071442716;0.016536636;0.06597969;0.035960108;-0.031076008;0.04235051;-0.004339988;-0.0027768686;0.071785;-0.07159144;-0.028726354;-0.040792197;0.018124878;0.004021347;-0.033593632;-0.043015476;-0.070737086;0.049206726;-0.060063865;0.03309007;0.20211704;0.167657;0.10271879;-0.090633295;0.016735232;-0.024972485;0.02461906;-0.017236333;0.07954704;0.09530553;-0.12286558;0.03421954;0.021716068;-0.004735473;-0.08003431;0.079423666;0.09368276;0.021130506;-0.060778778;-0.01631591;0.006929635;-0.07372561;0.06656132;0.022031121;-0.059197288;0.013712801;0.027705664;0.1405899;0.0332569;0.0061823893;-0.08091879;-0.01901125;0.02023589;-0.0677024;-0.08260072;0.06994498;0.018100757;0.033343937;0.21644866;-0.020888796;0.05033058;-0.091373615;-0.11653395;0.05202673;0.02247869;-0.050939485;-0.061375484;-0.025595041;-0.024507988;-0.024686705;0.03616587;-0.0024530762;-0.083990686;-0.010166675;0.07615222;0.13102202;0.13530667;-0.06645248;0.10181436;0.05162021;0.02636819;-0.1628257;0.017038537;0.039790872;0.018857175;-0.031412542;0.06372001;0.061393883;0.1171651;0.097479165;-0.050961252;-0.051213633;0.031456195;-0.0042459327;-0.053312223;0.023486516;0.0035470359;0.072338074;0.1013209;0.06702014;0.052759312;-0.014091239;0.06524412;-0.009470959;-0.09848141;0.02831327;-0.03087195;-0.011441031;-0.008028718;-0.046756897;0.06085218;-0.0824567;-0.02458882;0.028842768;0.06676027;0.016542666;0.06625035;-0.02687778;0.14861326;-0.17710628;-0.024317436;0.021336155;0.057519328;0.021782167;-0.17914414;0.08431028;-0.005630494;0.040831566;0.07294112;0.119419545;-0.057579666;0.05558896;0.07490567;-0.06584118;-0.028557103;0.03331654;-0.09096232;0.043211784;0.022552092;-0.019103568;-0.03828119;0.15078959;0.09350861;0.06075721;0.07057551;-0.032900702;-0.026439905;-0.039496407;0.20395762;0.09470601;-0.046280887;-0.090314016;0.03068055;0.0754417;0.01792518;-0.011938754;0.09743489;-0.0036099846;0.19959643;-0.0906779;0.061058234;-0.014664509;0.010149028;-0.0118690785;0.06817044;0.027065529;-0.1309965;0.18671425;0.017358746;0.033744186;-0.05739271;-0.06401232;0.13406071;0.07711357;-0.025109516;-0.1110007;0.10074865;-0.08548706;0.043393567;0.07062741;-0.012347545;0.056688134;0.043187756;-0.02979383;-0.08074921;-0.0131625235;0.08349193;-0.072251804;0.0396715;0.098500654;-0.05752666;0.015556648;-0.07198116;-0.013378021;0.086739615;0.058392543;0.06222338;-0.061049175;0.08805545;0.1302568;-0.11604583;-0.039958443;-0.056189265;-0.050600845;-0.05085195;0.027096855;0.07192069;0.039442472;0.08538122;0.06732469;-0.07805627;-0.008438449;0.10931739;-0.014195728;-0.0495699;-0.085219756;0.06715542;-0.15349449;0.105025575;0.012140117;-0.04575875;0.08352628;0.027684245;-0.034226097;0.21499303;0.07025966;-0.040349044;0.09121214;-0.0076455916;-0.05171126;-0.0075055147;-0.00040823716;0.03272574;-0.3274192;-0.039708056;0.058268625;0.022970805;0.00086967915;-0.025123164;0.02914149;-0.01383039;0.024030205;0.07109789;-0.36316425;0.11499626;-0.010448398;-0.15431122;-0.041612964;0.12618014;0.051854186;-0.0031773834;-0.05049012;0.022950485;0.09745616;0.03016009;0.065852985;-0.00300267;0.051714487;0.045460902;-0.041730512;-0.03635813;0.042382758;-0.0048844987;0.02981107;-0.010971626;-0.039280843;-0.0665609;0.013062731;0.1313208;0.06672145;0.057701863;0.022046654;-0.083823346;0.062972434;0.055573422;-0.04822943;0.02143184;0.035359353;0.014917241;-0.0048412527;0.09692526;-0.10055991;0.03318588;-0.004156182;0.022823978;-0.097412266;-0.05354716;0.01248321;-0.041068047;-0.012996139;-0.029746242;-0.007132529;0.106924176;-0.0712644;-0.047870275;0.07728256;-0.0662561;-0.10809691;0.017487807;-0.10501968;-0.024746248;-0.037858322;0.0137901725;-0.036430318;0.07383611;-0.07552954;0.036752984;0.083658874;0.047144637;-0.015636016;-0.0820628;-0.09781244;0.09190573;0.10708203;-0.007540315;0.042398788;0.05645519;0.14662014;0.07366149;-0.09786922;0.08947675;0.027286869;0.008760925;-0.08309771;-0.04688357;0.09731487;0.017381404;-0.007325883;-0.0706014;0.07905146;0.0065020733;0.01869596;0.05045079;0.0071597015;-0.08764554;-0.03673198;0.05485929;-0.05764976;-0.2752448;0.042603802;-0.01337925;0.2177088;0.07600394;0.06779682;-0.005650468;-0.03382257;-0.010499821;-0.03784686;0.06461436;0.12095423;0.070554785;-0.007727629;-0.08918108;0.068261005;-0.09702002;-0.024833117;0.07536682;0.044577397;-0.05259246;0.07148665;-0.036976457;-0.08729282;-0.052139413;-0.035165787;-0.0025347327;-0.10895596;-0.035650257;-0.0003693029;0.13263732;0.01704095;0.06402106;-0.09558602;-0.027562926;0.0145709505;-0.13042809;-0.03877914;-0.0007331226;-0.086891286;-0.22850731;0.022661585;0.020051472;0.048445575;-0.0989666;-0.13368888;0.04226659;0.06178879;0.0039979904;-0.051316682;-0.06362402;0.023288941;-0.03582438;-0.017446367;0.013877918;-0.28505775;-0.06127986;0.07376616;0.036109313;-0.03142653;0.05356866;-0.084999256;0.014193956;-0.008620274;0.0722872;0.020957617;-0.05186795;-0.047386277;0.085218295;-0.02427136;-0.0016957594;-0.042652126;-0.014154417;0.105166845;-0.034900405;-0.057816304;-0.023027724;0.057982028;0.19274431;0.074208155;-0.072188064;0.00788754;0.007687281;0.026379872;-0.10278987;-0.066341475;0.19150195;-0.03627574
0.057662994;0.023139814;0.09571706;0.023700822;-0.1029293;0.015846226;-0.29353556;-0.036925886;0.094635986;-0.10501899;-0.0051804837;-0.01615914;0.04957109;0.016311396;0.025352394;-0.014908068;-0.040690754;0.0014863554;-0.015949508;-0.055027377;-0.1227509;0.07444784;-0.060462307;-0.009442565;0.08486776;-0.06983698;-0.12596318;-0.21156672;-0.033916544;0.22696728;-0.07526023;-0.12922083;-0.014325872;0.11632254;-0.04235503;-0.014253965;0.062321592;-0.08239651;-0.091474436;-0.039808687;0.03812337;-0.032757495;-0.22209384;0.21553062;-0.07668821;-0.06258234;-0.020998115;-0.021655235;-0.02691032;-0.105146974;-0.026933847;0.15387979;0.07746369;-0.22898048;0.0025307306;0.0400418;0.1435249;0.104408145;0.0038963696;0.029309977;0.11045602;-0.1387479;0.11999645;0.023327025;0.03937592;0.05645731;0.086814664;-0.013895167;0.08241027;0.12853244;0.040787518;0.0005330919;-0.044619504;0.06310596;-0.10386385;-0.11347853;0.032356065;-0.06484911;0.030148;-0.20071177;0.092171505;0.08224741;-0.039817367;-0.057106894;0.030544825;-0.018528145;0.1005244;-0.078334816;0.00088025245;-0.058206398;-0.049255103;-0.05155941;-0.010711566;0.13570617;0.0117314905;0.12046169;-0.083962;-0.023939602;-0.011427141;0.08484962;0.081499;0.024106357;0.067633554;0.0278923;-0.056462035;-0.04314639;-0.07548446;-0.030012604;0.055306736;-0.031539418;-0.035993543;0.099019215;-0.04487892;-0.00031134236;0.004442693;-0.08410604;-0.07471852;-0.0031145185;0.13126642;-0.051044673;0.1053931;-0.07658497;-0.089929044;-0.031349503;0.025331361;-0.058274392;0.046618614;0.007114172;-0.012162232;-0.16004346;0.030393196;-0.06388076;0.07135364;-0.047021266;0.07546661;0.046010897;-0.20353755;-0.13922204;0.048827946;-0.04903944;0.036225706;-0.0639555;0.14346449;0.02343787;-0.1009073;0.08401631;0.039242152;-0.060071435;0.035097685;-0.13008763;-0.01785144;-0.023810301;-0.08943439;-0.17191046;0.05597647;-0.023150008;-0.07240366;-0.057137437;-0.028588569;0.040171597;0.053000834;0.029841157;-0.08444716;0.11105056;-0.15054202;-0.060084745;0.040812068;0.011447133;-0.025031537;0.043193724;0.14375465;-0.06706944;0.026210638;-0.16645773;-0.05246107;-0.048312407;0.14811842;-0.031476337;-0.053955484;-0.048035085;-0.23943375;0.023890246;-0.118035205;0.0584728;0.032534257;0.09470546;0.030181862;-0.038759794;0.078164265;-0.01582409;0.1343523;0.07097184;0.043531086;0.04675823;0.13519739;-0.011338907;0.06544742;0.0055126906;0.040349163;-0.18123662;0.02358784;-0.011970871;0.079515435;0.04920807;-0.016362594;0.026982345;-0.048095897;0.020346662;-0.055249117;0.058711518;0.10525518;-0.03347743;-0.055045404;0.03467391;-0.054229315;0.04909186;-0.005670851;-0.17187975;0.087465726;-0.00125672;0.103156954;-0.002517752;0.0007720428;0.018538415;-0.031145558;0.04497073;0.087924786;-0.07705093;0.06741703;0.044050675;-0.047557198;-0.11474901;0.13635445;0.08061068;0.10621965;-0.30204543;-0.007881196;-0.08038092;0.040194046;0.0053543607;0.013206491;-0.023602532;0.048789505;0.10641084;0.033760983;-0.1251919;-0.04845274;-0.093636975;0.1755613;0.031732686;0.004358344;0.038360637;0.028896656;-0.37440145;0.08432287;-0.04040412;-0.0051789754;-0.04565482;0.014559642;0.033791;0.07710135;-0.0014727829;-0.041103184;0.04494656;-0.039593957;-0.14646615;0.051905893;0.08552098;0.2883112;-0.14094877;-0.00023822389;0.080238074;0.030860677;0.015798168;-0.17308033;-0.063706376;-0.10062906;0.049988754;-0.04055079;0.023867484;-0.054017458;0.043554064;0.017542569;-0.027240323;0.02225916;-0.06355898;-0.03945473;-0.04752696;-0.14384189;-0.051731415;-0.2769806;-0.020700498;-0.08384823;0.018099738;0.090501435;-0.10462491;-0.067770645;-0.11142755;0.14207773;0.03921089;0.025161188;0.033871848;0.022696594;0.07101301;-0.075703934;-0.02636402;0.039124426;0.021937974;0.0848304;0.028864775;0.027188571;-0.096636295;0.09817414;-0.044507436;-0.03652228;-0.20226184;0.01931294;0.1263537;0.081318974;0.049097266;0.07388246;0.029806275;-0.05442875;0.023894837;-0.0058915955;0.20363621;-0.045015164;0.08669793;0.004026054;0.132358;-0.033224955;-0.009418843;0.0321191;0.00089256605;-0.011243816;0.21843992;0.11917654;0.09524551;0.01892004;-0.004859946;0.08418609;0.09541577;-0.0389199;-0.019364806;0.04500094;-0.013737011;-0.004176749;-0.0043560243;-0.040723447;0.00026734982;0.04608007;-0.11003718;0.014513609;0.053763427;0.072082095;-0.06882701;-0.05371613;0.06226964;0.2580378;0.08074988;-0.034385245;-0.03236554;-0.012876572;-0.014494046;0.05433057;-0.031929173;0.0899417;-0.105432905;0.05657162;-0.15914969;-0.0400538;0.114096;-0.048023507;0.0047219605;0.22622305;-0.03387801;-0.085707985;-0.009569062;0.09810166;-0.026441768;-0.025981467;0.028540906;0.010138774;-0.2800937;0.100736625;0.03409558;-0.10257974;0.018766169;-0.06097325;-0.040808197;0.029107701;0.09846458;0.21791133;-0.050537072;0.15840709;-0.02244383;-0.027949428;0.062411208;0.03956903;0.064027146;0.03746061;-0.04515909;-0.012360264;0.06860913;0.022396;0.085513085;0.06218118;0.08922199;-0.069013;-0.048848305;0.01589755;-0.051530097;-0.027905501;-0.033654828;0.059009746;-0.18286464;-0.001028897;-0.050274476;0.092750594;0.042267844;0.07242196;0.1992672;0.03244968;-0.066803925;0.03667507;-0.04573696;-0.035311103;0.06410491;-0.106281266;-0.038740307;0.057231866;0.061851583;-0.07224576;0.22021404;-0.07372608;0.08719445;-0.03254099;-0.21232559;0.13559945;0.0878016;-0.049974106;-0.09166813;0.091302924;0.0009041413;0.17486839;0.052598882;-0.030140636;-0.050946806;-0.029033706;0.007898337;-0.0001661663;-0.04101942;-0.043077555;-0.007427836;0.1461794;-0.055138115;-0.042909678;-0.058492597;-0.032917324;0.012104892;-0.05289396;-0.0103853205;-0.050332047;-0.0414368;-0.05607907;-0.014674936;0.08102656;0.11492885;0.11277506;0.0654447;0.055187177;-0.020289933;0.17893907;0.019105028;-0.0705311;-0.020681562;-0.0017901087;-0.03291764;0.0052382103;-0.11697426;-0.04041664;-0.05673898;-0.08441976;0.05873129;-0.08047768;-0.015095443;0.058859408;-0.040990826;-0.34726402;-0.08426752;-0.07061125;-0.04278084;-0.03371694;0.0755853;-0.07206386;0.057755627;0.026684554;-0.101341024;0.029576736;0.05828591;0.028851591;-0.045715503;0.08316591;-0.041224353;-0.06260779;-0.030298041;-0.09756597;-0.010390011;0.06617237;0.10317915;0.042533822;-0.02894469;0.061532255;-0.010483547;0.0044150897;-0.017301757;0.020513901;0.072814845;-0.07762565;-0.016227541;0.004918867;-0.01910697;0.038285516;-0.00072855497;-0.10211958;0.007858047;-0.034367733;0.037468735;-0.19166382;0.030337019;0.013324886;0.05819469;0.043590665;0.0707444;-0.062815614;-0.041799545;-0.027837003;0.009430161;0.029531755;0.049476463;-0.03194498;-0.031041767;0.012066817;-0.13696866;-0.01649549;0.028816529;0.005212383;0.06433102;-0.043790292;0.12018622;0.11676265;0.0021848485;0.12541395;0.017000157;-0.016644444;-0.05579848;0.12176501;-0.04013526;-0.064146474;-0.11460596;0.052342325;0.22610888;-0.025143027;0.03779314;-0.030392144;0.070445485;-0.015236769;-0.043842208;0.16899078;0.012830869;0.0059911394;0.032587975;-0.14411192;-0.0009154948;0.19462861;-0.20361137
-0.059798233;-0.012213813;-0.08967795;-0.030068304;-0.04944041;-0.009983591;-0.2363214;-0.083017945;0.050733507;-0.009287523;0.027269809;0.030016651;0.05095768;-0.04883461;0.020238655;-0.08387017;-0.09352964;-0.052800182;-0.01933282;-0.1463807;-0.117478766;0.028803801;-0.029974852;-0.058281016;0.047917195;-0.11585383;-0.036348503;-0.15776855;0.019745063;0.11183628;-0.016617041;-0.23423672;0.04971221;-0.09306251;-0.15924281;-0.043601193;-0.022169212;0.051324073;-0.016796926;0.08261893;-0.055778448;-0.020131873;0.09886382;0.10586579;0.038525574;0.011047745;-0.007871641;-0.06792245;-0.0122514265;-0.08287458;0.037207447;0.10176469;0.0139381625;-0.13192604;-0.021566676;-0.013982863;0.097730905;-0.03638828;-0.059832152;0.07369838;0.15756017;-0.15496276;0.18416306;0.051592886;0.0143259;-0.06920718;-0.046076965;-0.007536478;0.08531914;-0.018070733;0.077017054;0.0011883953;-0.0051865545;0.029442934;-0.12864071;-0.25538942;0.05579191;-0.05538106;0.08067565;-0.084823795;-0.03270452;-0.02798707;-0.116442785;-0.07179277;0.026067914;-0.038957268;-0.0024033464;-0.0710733;0.04264899;-0.04063673;0.046973556;0.05625257;-0.004051296;0.12165156;0.044312824;0.038928505;-0.15146212;-0.009886991;-0.01126233;0.04130701;0.1381662;-0.004882358;0.028822025;0.020971999;-0.06056519;0.05779155;0.025537647;0.06558553;-0.09252737;-0.09575354;-0.08905137;0.09702751;-0.03400912;0.050830595;-0.018396532;-0.03623687;-0.0031079566;0.06255982;0.034149848;-0.06782302;-0.05512382;-0.09130575;0.093998566;0.025060328;0.053287406;-0.033592924;0.06802852;-0.042338107;-0.06924878;-0.27759027;-0.02549386;-0.02595922;0.051492702;-0.021032061;0.028326543;0.057743136;0.01002578;-0.15087897;-0.059312534;0.04154943;0.006409087;-0.030720573;0.072660275;0.06763095;0.0131732505;0.0014586202;-0.12960894;-0.0817482;0.104937755;0.0038757257;-0.0014344865;0.059853457;-0.014325082;-0.1538689;0.023757335;-0.0790214;0.02085378;-0.044387437;-0.037434;0.03280481;0.016384626;-0.02487702;0.039661378;0.0767257;-0.11781324;-0.0047842646;0.022636062;0.0044750576;0.073898345;0.06706454;-0.0005590144;-0.050629854;-0.06539897;-0.24272518;0.068593435;-0.06824908;0.23697217;-0.07716879;0.029022772;0.06525362;-0.25183555;-0.04137619;-0.07279335;-0.039798953;-0.0017033115;0.0020605815;0.10197166;0.021898221;-0.038178142;-0.051755052;0.1449146;0.08213948;0.03980475;0.103055716;0.1280099;0.052152343;0.04108062;-0.02830484;-0.06424454;-0.014579836;0.032212447;-0.014746767;-0.044093583;-0.054517288;-0.06485517;0.005190763;0.09347476;-0.13765214;0.07308764;-0.080312036;0.08121194;-0.026214741;-0.078919485;0.02873844;0.06282389;0.0075789755;0.00578284;-0.15898947;0.049036093;0.024201836;0.045497883;0.05089466;0.0916089;-0.0033934203;-0.07297091;0.01847587;-0.01745024;0.04114386;0.065477215;-0.06042225;-0.024322115;-0.07272449;-0.0021966575;0.07049883;-0.0531241;-0.22995132;-0.00059809914;-0.032438364;0.09587965;-0.15286177;0.043924395;0.021847289;-0.057707317;0.059756614;-0.07324034;-0.06136574;-0.022165405;-0.11430504;0.012228749;-0.061196484;-0.11479312;0.03363999;0.076871015;-0.15887457;-0.00489369;-0.041129872;0.03249214;0.022809457;-0.10080388;0.019198436;-0.005962411;-0.07845664;-0.019471616;-0.076331206;0.0014989143;0.050030746;0.022222979;-0.019670228;0.18025059;-0.06429392;0.0043330775;0.072185956;-0.10319279;-0.02970691;-0.07216638;-0.15442204;-0.066729166;-0.10146705;-0.042259462;-0.046246562;-0.021564486;-0.14665782;-0.03226606;-0.011673311;-0.06313917;0.084435664;-0.01162267;0.0054172375;0.07664695;0.031334743;-0.19438544;0.010233096;0.036357254;-0.038802862;0.022782955;0.032094426;0.09167642;-0.13181755;-0.03876019;-0.13257751;0.04183356;-0.020850297;-0.05708263;0.10174408;-0.014345282;-0.025315676;0.01920994;-0.032884687;-0.016260915;0.049204733;-0.035292633;-0.015627205;0.09070888;0.0090782875;-0.25069183;-0.2930076;-0.01801501;0.24817604;0.08050882;-0.036320955;-0.018248798;0.06232744;0.062815934;-0.03348043;0.07930205;0.1571394;-0.079356976;-0.006923178;0.050472844;0.05994594;0.03148387;-0.04330756;0.032551095;0.02471899;-0.006222442;0.21094485;0.1120603;0.004413227;-0.001166192;0.06982613;0.09231049;0.089509614;-0.02132203;-0.18848678;0.16242456;0.100623004;0.05717205;-0.06293825;0.025387308;0.14816105;-0.13218574;-0.048139215;-0.033595156;-0.013398337;-0.065380104;-0.11646616;-0.08892037;0.022238657;0.26072073;0.10007193;0.10201136;-0.030744694;-0.054447614;-0.08867675;-0.044767827;0.05472098;0.051325772;-0.05769143;-0.058448665;-0.007810496;-0.026378656;0.06132387;0.026174178;0.029098988;0.06477729;-0.068324655;0.07174262;-0.022645524;0.039153386;0.0044528437;0.063799165;0.04072438;0.008754626;-0.13264653;0.025566308;0.04550436;-0.051611725;-0.10837231;0.018800516;0.062827386;0.07395111;0.1899725;0.2074856;-0.11231023;0.15696906;-0.027798336;-0.11677324;0.014362243;-0.00772855;0.06012788;-0.04046901;0.012993072;0.004349775;0.020503407;-0.08657709;0.03623821;-0.03981269;0.022256779;-0.053730305;-0.050888076;-0.055462092;-0.06704424;-0.081505716;0.061327703;-0.06613509;-0.14268579;-0.0042442163;0.03158147;0.06560379;0.009277363;0.055947013;0.16222312;-0.07567169;-0.022593256;0.10362385;-0.044511106;-0.012326975;0.005886047;-0.000856581;-0.055581532;0.049043484;-0.038352385;-0.006299306;0.22422346;0.026074095;0.006597897;-0.062195297;-0.14234002;0.03703297;-0.13419245;0.055860188;-0.069161884;0.14891742;-0.16474897;0.09675842;0.025885737;-0.14431408;-0.048977997;0.063531294;-0.060555004;0.026736267;0.052181337;-0.012913888;-0.042093262;0.022612436;-0.06344182;-0.019126814;0.07507368;0.07844256;-0.0322789;0.0102529265;-0.10586648;-0.004543796;0.084879;-0.024672922;-0.041908324;0.049675267;0.032616697;0.20823292;0.017733183;0.07430125;-0.038645834;0.30079022;0.005751263;-0.12019076;-0.11815606;-0.09989716;0.01239467;0.040368967;-0.0026020762;0.07683683;0.028005099;-0.04396065;-0.019075662;0.029482784;0.037561536;-0.04684313;-0.0061089373;-0.053740077;0.05601201;-0.03116669;0.16064912;0.033311687;-0.095992565;-0.039722633;0.08714585;-0.024741285;0.039711;0.05610226;-0.09751488;-0.07938742;0.046630245;0.06859649;0.034283865;0.07142818;0.056075208;-0.09751263;0.017883258;0.018190052;0.07513068;-0.10051496;-0.05555856;0.06824433;0.036884006;0.063482195;-0.11430131;-0.038573433;0.015008983;0.0098506855;-0.023646066;-0.07786673;-0.056649588;-0.096990086;-0.034363676;-0.0027917905;-0.027677938;0.09400122;-0.08646814;-0.26567113;-0.049135126;0.06993231;-0.022075353;-0.052591786;0.18805552;0.02990717;0.017462209;-0.09981138;-0.00044205814;0.02210321;-0.040678635;-0.10830363;-0.05531411;-0.10539716;-0.1770538;0.015250467;-0.045245282;0.0074475706;0.10687133;0.047415506;0.06377646;0.009190506;0.057717666;0.099355295;0.103468016;0.022665834;-0.013117927;0.13275123;-0.022193994;0.03749872;-0.10697687;-0.019285893;0.10532979;0.062471483;-0.01676943;-0.06796417;0.033125386;-0.05508969;0.087841205;0.08505047;-0.038862616;0.0038788472;0.06200947;0.1114725;-0.05101483;0.074539214;-0.12948054
-0.101624385;0.10499541;-0.07214765;0.023012074;-0.049613446;-0.012078171;0.032445915;-0.066752784;-0.0060522263;0.04462305;0.0018835759;0.007747616;-0.03281644;0.01792078;-0.046309028;0.005304157;-0.17393564;-0.120640256;0.05060481;-0.06877646;-0.09270919;0.06944026;0.11677439;0.07421167;-0.062486645;-0.2201124;-0.043363944;-0.01492811;-0.06822118;-0.1508544;0.044397485;-0.16568653;0.08447885;0.061157197;-0.18882684;-0.11816652;0.11319431;0.046883963;-0.011509886;-0.053097244;0.0541183;-0.087643735;-0.04198732;-0.001733866;-0.08056328;-0.0471722;-0.018226866;-0.06304464;-0.15129435;0.021255374;-0.023391623;-0.104930714;0.13657226;0.054591976;-0.07016367;0.050325718;-0.056981314;-0.08735533;0.009314025;0.14926006;0.052751236;-0.09638626;0.064705856;0.02248776;0.061995268;-0.07363586;-0.06805537;-0.093383424;-0.027338197;-0.029724458;0.06426268;0.013098755;0.015813187;0.0129205985;-0.3238746;-0.03893868;-0.046286922;0.085675195;-0.1711253;0.009270782;-0.02267784;-0.05543839;0.0831097;-0.0040644016;-0.0377605;0.008412168;0.0017556562;-0.023923093;0.04050503;0.019838708;0.059455484;0.0090450235;-0.07336527;0.046504695;0.07429496;-0.036511853;-0.05175998;-0.10127086;0.039960098;-0.0013022784;0.14112619;-0.07945133;0.009727792;-0.094213605;0.08406838;-0.00210561;0.036591694;0.012986073;-0.0804753;-0.0042542852;-0.018741645;-0.068808265;0.0006511703;0.09197389;0.013084829;-0.024693945;0.0021448098;-0.01051202;-0.004840558;0.10520782;-0.023219123;0.07910842;0.0025174527;-0.0021509891;-0.061790444;0.14881906;-0.10224993;0.054854997;0.023438234;-0.19409116;0.11429017;-0.024073174;-0.04642788;-0.05439913;0.09897029;-0.055538323;-0.06794086;-0.042013012;-0.0005867251;0.016040165;-0.06817337;-0.045861818;-0.18321502;0.011469254;0.119789295;-0.09493824;-0.10538315;0.06822386;0.17139941;0.019352091;0.06707081;0.08855626;-0.024489438;0.010098658;-0.024678992;-0.09967971;-0.05546301;-0.09704026;0.017702933;0.2226115;0.028011212;-0.09544073;-0.09435636;-0.15114138;-0.22014163;0.05954042;0.06045984;-0.03270074;-0.0527482;-0.059340253;0.07424482;-0.1439765;-0.06823822;-0.0011112621;0.011043919;0.13752334;0.109371975;-0.07674501;-0.10696106;0.010126369;-0.20369875;-0.120562084;-0.016145553;-0.023942292;-0.06789089;0.018651783;0.029208213;0.031011345;0.02084919;-0.008134368;0.0116317645;-0.08777933;-0.037127554;-0.056600183;-0.086781584;0.11750921;0.0022823638;-0.0686871;-0.016079271;0.06510679;0.04419444;0.07887591;-0.006750235;0.023220584;0.06633993;0.020670136;-0.092626095;0.015258524;0.2322567;-0.05749065;-0.05748179;0.009872264;-0.03852338;0.060207672;-0.074527085;0.02391863;-0.07089354;-0.076308995;0.045527145;0.047034267;0.04491644;0.024882656;0.07105262;0.040499594;-0.066914745;-0.03571145;0.065908656;0.08252016;-0.07604949;-0.069019526;-0.09135705;0.014118445;0.036896158;-0.022914356;-0.038175825;-0.14729173;-0.068930164;0.017207298;-0.16205515;-0.108371146;-0.0066989795;-0.005939228;0.023907395;0.068160325;0.021691756;0.02654593;-0.043905605;-0.022052797;-0.13509153;0.033242032;0.04968696;0.012733656;0.12747048;-0.13239504;0.007282379;0.078219555;-0.08691337;-0.030004509;-0.077009246;0.0931162;0.07428026;-0.09217964;-0.018411571;0.047573954;-0.08001641;0.072824605;-0.020591538;0.081304595;0.11075857;-0.18619223;0.08608547;-0.016255587;-0.09289649;0.055947114;-0.003897992;0.03653708;-0.041028418;0.027756184;-0.09253315;-0.0025884449;0.021948678;-0.15053523;0.032720335;-0.0024464906;-0.02403894;0.027104648;0.034653626;-0.03876229;0.0241827;-0.005034779;-0.10934183;-0.13357486;-0.049034316;0.071435906;0.13864596;-0.0134342685;-0.0496888;-0.17322189;-0.058188245;-0.3297802;-0.029887253;0.064663365;0.06307671;0.10251759;-0.110763304;0.10308915;0.006096766;-0.01248007;0.06190169;0.09790501;-0.08076892;0.03324801;0.0068958695;-0.0019500947;0.01648986;-0.2550262;-0.103702545;0.060003426;0.024778567;0.08040309;0.078298636;0.0758316;-0.111634225;0.0040009357;-0.055880696;-0.045327496;0.032629125;0.0007642783;-0.038582675;-0.01811764;-0.032038856;0.039808795;0.028557394;-0.028614126;-0.16998568;0.11467429;0.07771843;-0.015064194;0.021454968;-0.077372395;0.07358077;0.11067513;-0.064511545;-0.19998571;0.21497491;-0.032654565;0.038566913;0.061753325;-0.020928925;0.0761022;-0.1767625;-0.10967931;-0.0106788855;-0.03677862;0.011609027;0.107835464;-0.16151674;-0.035833932;0.26213837;0.04510207;-0.033946376;-0.08012614;-0.09572914;-0.07059244;0.06196905;0.055965945;-0.06429131;-0.13442543;-0.01973129;0.11271813;0.06251601;0.030495001;-0.0023440646;0.07901392;-0.09660322;-0.0100737065;0.04756785;-0.044073977;-0.010732431;-0.046118755;-0.05138619;-0.028518245;0.023700597;-0.26352137;0.055150494;0.06268985;-0.035664447;-0.05411975;-0.007933967;0.06748294;0.034001723;0.118672125;-0.060474887;-0.012550612;-0.051568594;-0.02903177;-0.032740965;-0.09612175;0.037172582;-0.028969845;0.06159872;0.011468326;0.04625826;0.030145548;-0.07783834;0.06978608;0.037147656;0.052645367;-0.061422735;-0.03607138;0.04251724;0.017446848;0.074406564;-0.057200193;0.08734378;-0.21286272;-0.022134667;-0.03868759;0.03457479;0.0723321;-0.03378054;-0.052877277;0.059644762;-0.026451455;-0.014976836;0.040122252;-0.0110407015;-0.03259385;-0.03548808;0.0028500836;-0.05560732;-0.19603218;-0.06842868;-0.008375064;-0.047459144;0.08878395;-0.014875236;-0.055698965;-0.060474128;-0.15547515;-0.01056961;0.05303776;0.08251863;0.0031567102;0.06475127;-0.06562225;-0.17117044;0.024852829;-0.0803468;-0.02402016;0.016382044;0.05789965;-0.100491084;0.016519077;0.0023753224;0.057637166;0.023605948;-0.0902633;-0.07586423;-0.08499465;0.06656263;0.041552983;-0.0012570685;-0.006386941;0.003379059;0.0070069516;-0.04871455;0.13626686;0.07743285;-0.067522556;-0.10525576;-0.121809125;-0.09334599;0.072229624;0.035664238;-0.008122397;-0.06637501;-0.024668138;-0.04907372;-0.011916624;0.013459258;0.07652418;0.09684501;0.07030237;-0.11566678;0.009012494;0.03639751;-0.03353392;-0.12729353;-0.06545598;-0.0015621668;0.00029627746;-0.082263365;0.14001727;-0.093929045;0.008188584;0.023075946;-0.08374419;-0.13510552;-0.123818584;0.05270411;-0.03960826;0.049329057;-0.0018245133;0.13712174;-0.057409305;-0.047094453;-0.04836024;-0.077956334;0.058875937;-0.00022052256;0.046809625;0.016776768;-0.037915833;-0.006484588;0.13808423;-0.20644695;-0.01462971;-0.014181122;-0.041975122;-0.13042246;-0.0361238;0.06736764;-0.016767213;-0.012354367;-0.06486467;0.042454295;0.08506143;-0.11727079;-0.05677057;0.0013040728;-0.12414428;-0.19296739;-0.15452842;-0.08039128;0.02593449;-0.061979823;0.10778076;0.012931587;-0.022785729;-0.13832088;0.012583085;-0.040045425;-0.1908273;-0.002575657;0.06289288;-0.1074232;-0.03531903;0.003358719;0.056191333;0.0026653074;-0.013629641;0.10166146;-0.051568028;0.02993008;0.076347694;0.06872669;-0.03451636;-0.053997234;-0.042927794;0.07012814;-0.14031504;-0.029484864;-0.0720194;-0.032521743;-0.065444455;0.08764172;0.03619402;0.05548896;-0.0042931614;-0.053522818;0.082420915;-0.058204066;-0.11552775;-0.07584032;0.009102713
-0.10792084;0.063817866;-0.12698576;0.042293597;-0.06505597;0.028005332;-0.02671985;-0.012986777;-0.036061596;0.0044298945;0.0452119;-0.034484517;0.006022218;-0.06490317;-0.088465236;0.02443624;-0.21217807;-0.06742159;-0.004055816;-0.16467477;0.0637985;-0.08364982;-0.0397119;0.01985649;0.04238401;-0.11623713;-0.0026059633;-0.004084116;0.013834609;-0.064963885;0.04418207;-0.16154799;0.018058965;0.09863101;-0.021409756;-0.16972321;0.105125226;0.010911075;0.020543536;-0.032773886;-0.04342542;-0.03321424;-0.027518392;0.09641656;0.035505094;-0.0059195557;-0.058589928;-0.04383695;-0.011306392;-0.0011639285;0.02364857;-0.13833274;0.05899176;0.089294255;-0.023441862;0.13878962;0.039591383;-0.06217892;0.0071796244;0.08131448;0.12384712;0.05463131;0.109722;-0.003548233;-0.08366961;-0.092756495;0.031378154;0.03337371;-0.011106762;0.026812064;0.021294802;-0.055374995;0.081654884;0.025960991;-0.18442945;0.027114071;0.050117142;0.0026819352;-0.026504925;-0.0031111538;-0.049940836;0.0048171193;-0.22224785;0.06601465;0.093656704;-0.09134466;0.01830195;0.034610678;0.067266636;-0.052721053;-0.083629;-0.004953341;-0.03206807;0.20629098;0.048859894;-0.08876858;0.039000623;-0.01689327;-0.036488045;0.011934951;0.07373235;0.09707418;-0.00080848753;0.016407186;0.05955107;0.004907769;0.014860141;-0.040000353;0.057156965;-0.03172266;-0.031576075;0.038880985;-0.011796587;0.13222612;0.08085484;-0.003084351;0.07822593;-0.025664873;-0.067264825;0.042916358;0.075177744;0.037330326;0.0792946;0.056859322;0.055215225;0.121035844;-0.040592156;-0.07546444;0.0754457;-0.1781933;0.06278896;-0.1000674;-0.039838873;0.03651275;0.11418157;-0.07255038;0.02807402;-0.05158302;-0.081943765;0.1381054;-0.10477317;-0.08350836;-0.18257713;-0.0045487136;0.06384539;0.034106366;-0.056995876;-0.03526519;0.08043051;0.115471624;0.07362374;-0.03082349;0.0032515416;0.0086366655;0.05375748;-0.07936457;0.015948867;-0.015079646;0.08470784;0.027330814;-0.011841439;0.02629209;0.041827697;-0.12744443;-0.13821472;0.06963187;0.029663697;-0.056583565;-0.023732135;0.01917802;0.053209893;-0.12566997;-0.049421776;-0.07422279;0.009144634;-0.019275127;0.0068049077;-0.030436492;-0.09601562;-0.016966043;0.00064294814;-0.02625287;-0.082568526;0.027459776;-0.05160513;-0.0048237666;0.02134465;0.025820605;-0.010534879;-0.01768494;0.08199726;0.020469727;-0.0064003686;0.051061276;0.046923745;-0.01772718;-0.026445227;-0.04829711;0.0014692849;0.015606183;0.043036632;0.024862142;-0.08759681;0.006161632;0.048791517;0.09105132;-0.07764208;-0.093613386;0.10481119;0.0389831;0.0806054;0.015199957;-0.065876104;-0.041644324;-0.0672074;-0.014973811;-0.06925536;-0.08447338;-0.036664497;-0.06571236;-0.04470404;-0.009257771;0.12830323;0.033633143;0.051754504;0.09008898;0.10998764;-0.03983708;0.034165543;-0.039397854;0.0042041554;-0.16015205;0.06140422;-0.001925;0.015219117;-0.13191774;0.004651309;0.12044127;-0.16582653;-0.06625292;0.028194312;0.09111795;0.059473004;0.033200085;-0.06776479;0.074708916;-0.043936003;-0.025685646;-0.09457659;-0.04648901;-0.005131116;0.036937237;0.13620998;-0.050466157;-0.06235522;-0.05199416;-0.05183478;0.00468245;0.19015014;0.032317143;0.032564063;-0.13165213;0.035046156;0.07269476;0.036893;-0.019447688;0.10998952;0.076705486;0.041345768;-0.19965634;0.015382665;-0.0007708634;-0.0013948776;-0.010094492;0.031346977;0.161557;-0.10368479;-0.033821657;0.032193996;0.04693467;0.019282624;0.012995912;0.005354972;0.072691105;-0.030691193;0.071510024;0.07740428;-0.0377037;0.0014540006;-0.013532755;-0.20603321;-0.023145176;-0.06895159;0.010049533;0.07135537;0.12533128;0.017360214;-0.22681795;-0.06603843;-0.3864296;-0.018683404;0.07664055;-0.05605065;0.057691183;0.04214968;-0.0032905408;-0.046709426;0.022447351;0.09372898;-0.0055243303;-0.10959348;0.04204511;-0.011263634;0.02053538;0.065807156;-0.06879152;-0.011254593;-0.011236483;-0.03931616;-0.00042251425;-0.06128998;-0.065087534;-0.122857004;-0.013388709;0.07688397;0.06510384;0.1008329;-0.046259716;-0.043677013;-0.11816011;-0.02798279;-0.047916535;0.056994416;0.046755724;0.0048892978;-0.08658709;-0.0014053494;-0.047607224;-0.049878728;0.016315995;-0.021368545;0.08752381;0.065070845;-0.12823404;0.117412776;0.041997924;-0.10323145;-0.014029982;-0.034085676;0.01220741;-0.028248956;-0.10725363;-0.053778578;-0.009909069;-0.009613888;-0.01906838;-0.16910058;-0.19724502;0.22570542;-0.0830433;-0.0058628283;0.05832676;-0.058106672;-0.008329903;0.10856221;-0.0077241245;-0.014953618;0.12254738;-0.069564365;0.007108267;0.021460935;-0.040042926;-0.028645456;0.034115966;0.0743998;0.010728027;0.045324486;-0.015076154;-0.032733195;-0.063890554;0.062272467;-0.04775862;0.08949268;-0.05021445;0.09096893;0.07679965;-0.039565388;-0.010515992;-0.034827072;0.019587714;-0.040834337;0.012058829;0.030587684;0.072211586;-0.1260599;-0.023614744;0.009568537;-0.021577386;-0.017361296;-0.064015284;0.07817836;0.02395209;0.03931877;-0.010149633;0.07006236;0.062087957;0.0357192;0.028518127;-0.20507213;-0.01754634;0.093701;0.07002286;-0.04891439;0.003568292;0.050279286;-0.23164609;0.043902893;-0.01161755;0.06319638;0.053246815;0.06046093;0.031748507;0.042441957;0.116550945;0.015357149;-0.039879914;0.07686017;0.033348586;0.06166984;0.047732774;-0.063578434;-0.081978865;-0.099768534;-0.04900407;0.072943345;0.08611197;-0.086506985;-0.0127612455;-0.05366647;0.03846097;-0.019700125;0.022254117;0.02234974;0.020221783;-0.016985284;-0.030568661;-0.22328629;-0.0871012;-0.028233329;-0.13306102;0.022361154;0.047175754;0.040407054;-0.053949933;0.040435612;-0.08973553;-0.004773313;0.03876258;-0.0021408207;-0.020352622;-0.06077727;0.07869556;-0.048553176;-0.023329545;0.08596102;-0.04565526;0.032001723;0.025744269;0.07837573;-0.14200969;0.029762993;-0.14790854;-0.21708728;0.017159922;0.009782014;0.00038555908;0.06569283;-0.111762114;0.019514926;-0.033090673;0.030280791;0.017580077;0.04406946;-0.042893536;0.11148554;-0.06256825;-0.040957555;-0.037652366;-0.032997504;-0.05100062;-0.04457441;-0.0764355;-0.13712643;0.018012991;-0.074512705;-0.01026939;0.027897818;0.01242893;-0.008513519;-0.16081575;0.029886343;-0.089784935;0.0049911495;0.08090156;0.018497027;0.074025154;0.02036876;0.031804863;-0.036443595;-0.04873203;-0.09699479;0.031246033;-0.03434785;0.072079726;-0.03456567;0.20423277;-0.15864441;0.033812087;-0.0033148003;-0.0016925635;-0.08563192;0.09292678;0.014055474;-0.09384997;0.13784619;0.027919015;-0.04645979;0.055082772;-0.07117149;0.09175497;-0.009164034;0.009157644;-0.13553962;-0.21187961;0.06333997;0.07131758;0.102478676;0.099772364;-0.07943953;-0.047599413;0.01470729;0.025152696;0.046817273;-0.0761688;0.026512844;0.005697038;-0.018788237;-0.011256104;0.024435133;0.033153944;-0.006532347;0.005819981;0.095349886;-0.04399247;0.035621148;0.015869407;0.090987094;0.041088924;-0.054263327;0.044477645;0.07266363;-0.19836493;-0.05427658;-0.024100762;-0.05589176;0.13285628;0.039975327;0.09136174;0.07929604;0.032457296;-0.00031040388;-0.024154713;0.037326653;0.07419881;0.0054157632;-0.07551942
-0.3032926;0.1614842;0.084491275;0.080311984;-0.13225421;0.12549679;0.19335054;0.037604008;0.034496956;0.057424612;-0.0748535;0.08368931;-0.005526577;0.009799666;-0.05594719;-0.007901019;0.04275951;-0.20065376;-0.0150850415;0.04772147;0.023409527;-0.2377557;0.017074427;0.06686035;-0.011057498;-0.27737394;0.106925376;0.005517874;-0.022752753;-0.11856542;0.016190844;-0.14736976;-0.0693114;0.073494814;-0.11304366;-0.5172352;0.079305395;0.002398995;-0.11080183;0.021469716;0.021726664;0.03309202;0.014072253;0.059962586;-0.019817267;0.10614658;0.02894613;-0.017896544;0.09878652;0.04060705;-0.10210875;-0.06587395;-0.061523587;2.1681044e-06;-0.06126596;0.09609867;0.08594711;-0.0783969;-0.065501794;0.020517638;-0.08209139;-0.024727924;0.049461212;-0.032364957;0.0064577064;-0.09953365;0.005382442;-0.10023987;0.06991866;-0.052608866;-0.0033319308;-0.036360223;-0.11347958;0.003619199;0.04491612;-0.19329368;-0.0011043389;-0.007628195;-0.14278516;-0.040877882;-0.16191149;-0.009645494;-0.063961826;-0.06932924;-0.016450552;-0.13429175;0.03484255;0.0017431859;0.010988582;-0.0032375264;0.027143626;0.07618986;0.09606829;0.028144581;-0.07490372;-0.13303858;0.018627489;-0.035231672;-0.046953455;-0.04483878;0.21159452;0.0011041414;0.13540593;0.09525272;-0.014048556;0.030222077;-0.014045619;-0.0018232791;0.13421199;-0.033416606;0.0036412172;0.04822561;0.01220914;0.1317768;0.04570944;0.16714819;-0.08250335;-0.09794122;-0.049427886;0.037773162;0.11995262;0.022345822;-0.025770431;0.0113288285;0.06368405;0.19628257;0.1881262;-0.07104897;-0.04080838;-0.04555958;-0.04187495;-0.047607224;-0.10674482;0.0062000314;-0.01610497;0.022947269;0.13574134;-0.066668995;-0.042680565;-0.08376728;-0.10019978;-0.19604336;-0.045605168;0.022327892;0.10931594;0.042976484;0.037771713;0.0022577578;0.084494226;-0.010355573;-0.0056366273;0.016627565;0.13945165;0.0073170085;0.0748887;-0.060702655;-0.084256865;-0.086287215;-0.012350941;-0.10907954;-0.0605437;0.07287937;0.022176275;-0.11591762;0.04047204;0.043356385;0.04455469;-0.087957576;0.036325593;0.028774042;0.05190267;0.13903895;0.052970152;0.08108585;-0.07231226;-0.021955075;-0.01977059;0.12542468;0.009189499;0.11048858;-0.17699496;-0.07643002;-0.00939367;0.081665024;-0.004269375;0.09177918;-0.013944507;-0.030801479;-0.019977482;0.101941876;0.30947402;0.020343471;-0.012244878;0.0041290973;-0.048053607;-0.02632629;-0.060522903;-0.022413485;-0.013560007;0.03069187;-0.055112705;0.076872505;0.009883383;-0.001986249;-0.11953715;0.1078023;0.055479873;0.08069996;0.23100176;-0.11040742;0.031713475;0.05009584;-0.1337035;-0.0007129665;0.010193095;0.14615592;0.0009535131;0.03850789;0.06996294;-0.057541635;-0.15973592;0.060571264;0.024925558;-0.0068647237;0.029689923;-0.05955506;0.11724348;0.045852475;0.05730244;-0.12811719;0.0026103891;-0.25108072;0.16013527;-0.03764849;-0.061012205;0.11976226;0.013442149;0.038264792;0.058334753;-0.15905258;0.03404079;0.07831947;0.013135851;0.185314;0.055264704;0.15356113;0.013628449;-0.0064597237;0.0849496;0.08195881;-0.048605192;-0.0030739715;0.106643155;-0.018418498;0.022057703;-0.0011765566;0.09249921;-0.11708882;-0.08217017;-0.07828427;0.04128817;-0.022366405;-0.0667991;-0.028770672;0.120785885;-0.06917076;0.106498286;-0.14113753;-0.08007822;-0.3254328;-0.08020223;-0.027658844;-0.028065687;0.11108575;-0.14699645;0.1927813;0.008872063;-0.03615472;-0.00012311958;0.050176997;0.04544657;-0.069134235;0.08549158;-0.1377642;-0.010734495;0.038718235;-0.044011492;0.03287298;0.2003101;0.04511277;0.24562009;-0.21674256;0.0291056;-0.0542157;0.05752336;0.15160331;-0.017088076;-0.23626573;-0.14466281;-0.18053688;0.092092015;-0.07222978;-0.033333752;0.17848805;-0.15442348;0.18156321;0.038436692;0.038055606;0.043358993;0.041402806;-0.0010322655;0.012958125;0.07134122;0.02947656;-0.16882811;-0.075390846;-0.11878897;0.15789445;-0.12731777;0.0789435;0.0031688095;-0.11430093;-0.05316302;0.11908162;0.034935076;0.0012919861;-0.011284098;-0.012666764;0.056782935;0.12714654;0.026010359;-0.010514746;0.02715261;0.05990911;0.100221485;-0.14673118;0.06678862;0.100408755;-0.020512525;0.0032991115;0.049857125;0.019224063;0.035017535;-0.11575039;0.211403;-0.04053555;-0.017288446;0.03829548;-0.0122895725;0.21995188;-0.0005347838;-0.22507602;-0.108803086;0.028020775;-0.02071492;-0.036565736;-0.13452578;-0.2382496;0.06554425;-0.087646045;-0.033410843;0.02658142;0.043420676;0.13152304;-0.018924424;0.14255509;-0.024823789;-0.11700828;-0.08390697;0.16828886;-0.050808225;0.016691335;-0.03346891;-0.031745896;0.17994703;-0.007502698;0.020369481;-0.15963316;0.050467;-0.12618867;0.057957225;0.12585284;-0.04859554;-0.30535296;-0.14449197;0.059714664;-0.15903206;-0.020204049;-0.090927154;0.052759416;-0.08554901;0.16414885;-0.035404675;-0.02469452;0.00695219;-0.028391752;-0.16510315;-0.04127851;-0.08276676;0.016931022;0.06552345;-0.0018931999;0.073315576;0.16400976;-0.007257901;0.12706253;-0.083830155;-0.026627598;-0.04123419;-0.008391901;-0.0073594446;0.0032770736;-0.041432098;-0.050838184;0.11793301;-0.07721213;0.062283643;0.06545765;0.13792802;-0.13348623;0.066432714;-0.09288175;-0.12055009;0.09287617;-0.092626415;0.009364916;0.031097304;-0.13034546;0.20496197;0.046442796;0.059319988;-0.23748498;-0.08373954;-0.11900367;0.0064510023;-0.07628016;-0.05467488;0.116182625;-0.07042142;-0.2807658;0.03192109;-0.039938748;0.14464502;0.057748754;-0.067499004;-0.068091735;-0.0091074;0.027260456;-0.070614494;-0.21309997;0.10381784;-0.032286763;-0.008414368;0.1221205;-0.0225248;-0.021676688;0.050507076;-0.08584103;0.06793401;0.052186165;-0.06312384;-0.100531906;-0.09130254;0.03948934;0.0074465005;0.029361146;0.045806464;-0.2430855;-0.08495938;0.062478863;-0.027926259;-0.051418107;-0.3067955;0.04142308;0.016756276;-0.010309433;0.012046204;-0.047583647;0.026791975;0.09304681;-0.0054703113;-0.079550475;0.08601783;0.08255379;0.23469418;0.08180766;-0.084095635;0.07132823;-0.027589194;0.026103074;0.061876353;0.014906716;0.10154563;0.06511041;0.081645265;-0.072138146;-0.03610429;0.005220135;-0.03147688;-0.009096631;0.06692287;-0.022442605;-0.1237133;0.036607992;0.13049242;-0.02975239;0.060200963;0.08316016;-0.011250815;-0.103272885;-0.06172753;0.017243134;-0.011554714;-0.074103884;-0.063623756;-0.13332242;0.0018998863;-0.064408496;0.13015528;-0.10543499;-0.19022688;0.059447635;0.12851892;-0.08933763;0.0035014215;-0.080004886;-0.15811133;0.08033409;-0.17372224;0.017241871;0.020284856;-0.053107824;-0.30553642;-0.21459031;0.054675065;0.082805365;0.13722822;-0.031485267;0.024107395;-0.028522223;0.17391682;0.05914727;0.025648277;-0.17358716;-0.08488913;-0.13482754;0.084154025;-0.023710754;0.0059612007;-0.059105977;-0.154771;0.044814944;-0.17291763;-0.077813536;0.020531978;-0.046265543;0.15794748;-0.21421169;0.15801011;0.059394956;0.06411108;-0.28251666;0.016047232;0.120823346;0.04324406;0.09339722;0.10627228;0.12971549;0.16003567;-0.17094392;-0.03449447;-0.14464101;0.1369176;0.048391294;0.13214369;0.047015727
-0.08567927;0.17358992;0.018124986;-0.07500801;-0.016781727;0.034202896;-0.1209352;-0.05362257;0.025907038;-0.022498846;-0.046128035;0.053964365;-0.052343883;-0.010879455;0.035707247;-0.012444506;0.03808245;0.100267984;-0.059763685;-0.123474196;-0.17433944;-0.0504858;-0.050935365;-0.034875203;0.07825766;0.08476581;0.06608416;-0.13921985;-0.025232622;0.114380375;-0.033282533;-0.33592865;0.06939491;0.0006734042;-0.06091271;-0.2838186;-0.0007446469;0.07072869;0.02637475;-0.02068781;0.030140933;0.043726116;-0.031178795;0.13880055;0.019202903;0.14354698;0.004772409;-0.060016435;0.04903232;0.05430643;-0.045287345;-0.010669727;0.088584036;0.054864585;0.014216068;-0.015566805;0.031757046;-0.03867013;-0.06403836;-0.05508776;-0.05104237;0.051382333;0.041601457;0.045792013;0.011139606;0.004403836;0.081554584;0.0032580893;-0.023757804;0.06531135;-0.10979388;0.005282859;0.12049508;-0.06723863;-0.06803248;0.15220773;0.04300203;-0.07560032;-0.13993944;-0.019737232;0.023327174;-0.07517084;-0.21623562;0.11066871;-0.07064223;0.05804144;-0.052592915;0.07847801;0.06278517;0.0012605076;-0.028047612;0.047489166;0.029780442;0.134757;0.07667868;-0.04255707;-0.10808221;0.030387944;0.043284163;-0.08625677;-0.019089274;-0.03132321;-0.13029622;0.03692414;0.12567422;-0.069658175;-0.04523014;-0.061718166;0.04628024;-0.04264002;-0.012580758;0.042123307;-0.0017420899;0.050866444;-0.068201825;-0.015511067;-0.0038618385;-0.009392145;-0.010259578;0.069584794;-0.12784453;0.0024440817;0.017994659;0.03616713;-0.06484123;0.12789777;0.06663293;0.06309871;-0.05479106;-0.095678225;0.021596167;-0.10148442;-0.08291137;0.0012821264;-0.0009520731;-0.02597312;0.12636067;-0.022782842;-0.0034200437;-0.120978914;0.09852937;0.022380777;0.049549874;0.000294615;-0.018610017;0.09070989;-0.097601734;0.017366778;0.03564917;0.14773898;-0.08403467;-0.025934264;0.009200294;0.010217391;-0.024319889;0.0346238;0.032194696;-0.118738025;0.0739579;-0.049823053;0.03410586;0.02967575;-0.005478286;-0.0050410503;-0.08249237;0.013090414;0.016108552;-0.011031415;0.039680194;0.0009482121;-0.054868333;0.21903747;-0.026035253;-0.16872934;0.07928757;0.023347948;0.04498544;0.121183395;0.006931218;0.055374023;0.14756757;0.00090936804;-0.18168342;0.020661429;-0.01277977;-0.025794601;-0.037508246;0.04406019;0.014716454;0.06722976;0.18181463;-0.04669681;0.06790499;0.042890247;-0.013347413;0.009122192;0.018406317;-0.026503764;0.08760834;-0.018500816;0.056669455;0.046499602;-0.048976064;0.07439181;0.012204033;0.08287254;-0.014279575;-0.05440425;0.056141518;0.08021441;0.101989016;-0.039483096;0.056593593;-0.022783466;0.047586452;0.08369599;0.057302;-0.02204223;-0.024312198;-0.074076116;-0.08397725;-0.015554512;-0.05079075;-0.0047398834;0.069571786;-0.048194584;0.055594124;0.14729613;0.03872342;-0.047386046;0.058542043;-0.22540809;-0.05678086;-0.03926012;0.068643205;-0.1533435;0.0015237292;-0.011110575;-0.02073053;0.16306625;-0.04134051;0.0180611;-0.0126341265;0.032534685;-0.035781384;-0.06936841;-0.066213354;-0.012883035;-0.029162178;0.115803786;-0.0132658705;-0.0051471773;-0.01918307;0.07198942;0.08071746;0.048161548;-0.023607282;-0.005960188;0.105131194;0.07515764;-0.028655391;0.060038783;0.057614967;-0.051949684;0.043516923;0.0219976;0.110495254;-0.049111404;0.05036674;-0.03119302;-0.053136602;-0.07120007;0.066156216;-0.0350836;0.027883692;0.118133664;0.045473184;0.047716103;-0.049272116;0.09294296;0.0806186;0.03935742;-0.0011532952;0.004576172;-0.018653193;0.033077206;0.00089418254;0.040755738;0.10456067;0.10243135;-0.17063046;-0.02315267;-0.017859291;-0.053228077;0.081400864;0.1026405;0.045835797;-0.17144339;-0.009237608;-0.008111556;-0.038727857;0.09244656;0.06850543;0.023914551;-0.038058802;-0.031675242;0.050598573;0.13405655;0.06765171;-0.09809758;0.010351974;0.020028595;-0.019403586;0.02338857;0.015520576;0.03804449;-0.06580391;-0.102866046;-0.062236056;-0.045311105;0.0021748103;0.06568978;0.0563686;0.034857124;0.028425833;0.0841685;-0.020208433;0.0037519657;-0.04708237;-0.08031384;-0.06375448;0.04381638;0.0026287592;0.019887822;0.06595734;-0.11059395;0.018008342;-0.06398012;-0.0037931101;-0.07981338;0.12815638;-0.0045835455;0.10355196;0.039435614;0.19745107;-0.048863746;-0.00473645;0.024628969;-0.00017963682;0.10642054;0.071381204;-0.078917585;-0.056650337;0.057414975;-0.048021995;0.13037652;-0.12609766;-0.009244369;0.11038643;-0.023182625;-0.0072430074;-0.03708915;0.022856534;0.009577083;0.077577725;-0.03713868;0.060378265;0.022973804;0.16209039;0.14215724;-0.05595157;-0.02447695;-0.035792634;0.104169;-0.10737726;-0.012881944;0.092103176;0.056522727;0.067025594;0.052031215;0.07249259;0.016622566;-0.024144549;-0.010314748;-0.007999423;-0.06576897;0.0930833;0.10143096;0.082104445;0.053448033;0.00073752133;-0.006018062;0.050757512;0.12641205;-0.08489292;0.09419146;0.090796545;0.028484775;0.088149056;-0.02215634;0.0111734085;0.0043358067;-0.0575766;0.05868447;0.07622543;-0.01927471;0.02402903;0.09158324;-0.077431716;-0.008530426;-0.067391835;0.05941092;0.010556922;0.029181082;-0.02165125;-0.1910006;0.07545865;-0.057699557;0.11465154;-0.0266371;-0.03283633;-0.041235823;0.044687897;-0.064662844;0.09626849;-0.02763138;-0.072657295;-0.0073266556;0.08565386;0.0601473;-0.07934939;-0.127659;-0.015065693;-0.04896207;0.020997971;0.09030873;-0.003157878;-0.064498655;-0.0013277412;-0.07845505;-0.0039627594;-0.05564456;0.08861777;0.009225487;0.036027133;0.030008413;-0.08484405;-0.0016912383;0.07288245;0.040289998;-0.015138041;-0.002566015;0.057067093;-0.0714503;0.08624361;0.0770401;-0.031148419;-0.03124305;-0.041937523;0.01032038;0.07346434;-0.0022020193;-0.04740234;0.0026445512;0.049941797;-0.055638235;0.03111719;-0.07279144;-0.08604997;0.051183138;-0.080961496;0.050811846;-0.07874;0.1139787;0.113828346;-0.026388904;-0.07114283;-0.06050669;0.058425255;0.11750213;-0.007890218;0.042103652;0.13605824;0.066595376;0.1394256;0.06534781;0.010777974;0.10651221;-0.0809894;-0.043217134;0.036211543;-0.22497092;-0.016429065;0.06338034;0.063895285;0.09094074;0.059922;-0.028388025;0.10062765;-0.24291311;0.052331254;-0.040885776;-0.0010174384;-0.03211577;0.012207104;0.055910897;0.0064234463;0.026263632;0.045332387;-0.028631821;0.06290218;-0.07965388;0.020367425;0.04209927;-0.020402152;0.13181448;-0.0072031403;0.07008649;-0.010111357;0.06651499;0.061808854;0.026968831;-0.012466453;0.10331531;0.20090413;0.00969424;-0.029018324;-0.066621974;0.029281167;0.025453946;-0.026949657;-0.08763614;-0.13360173;-0.10462164;-0.07576025;-0.033370547;0.08688;0.07039355;-0.04272117;-0.06987695;0.097470485;-0.04711652;0.14812054;0.008243455;-0.03682119;0.00081922853;0.05627328;-0.08117068;0.02783656;-0.045991663;0.07907619;0.06758582;0.16460383;0.08273628;0.023950787;-0.017335333;0.02372397;0.114890225;0.125254;0.020913616;-0.043039497;-0.13189447;0.051533107;0.045840457;0.049089216;0.11319171;0.042554498;0.077970035;0.12485835;-0.09284647;0.009521505;-0.035503082;-0.07602603;0.074438825;-0.024389697;0.13262229
-0.13952671;-0.006828483;0.08853342;0.061211877;0.1254164;-0.040783536;-0.0772405;-0.045136314;0.02764038;-0.046524834;0.01683689;0.008761331;0.021894034;0.02011967;0.044667415;0.09077255;0.10263997;0.21686769;-0.10257948;-0.23737256;0.0055427467;-0.032697026;-0.032438096;-0.043984637;0.2652682;-0.043856446;0.039007917;0.025150364;-0.08614271;0.11843606;-0.075579844;-0.18592687;0.08287192;0.0025815333;0.050454255;-0.27693892;-0.112580284;0.028325215;0.009298349;0.05344003;0.044183917;-0.04321727;0.01584153;0.09039519;0.20699205;0.01789454;0.09421267;-0.013910998;0.062024433;-0.04959145;0.046449423;-0.10191714;0.021558782;0.12000538;0.09318385;-0.05376044;0.01700946;0.09968432;0.010182267;-0.13691486;-0.10411398;0.08421889;0.021927292;0.016175289;0.053796403;0.070472516;0.043577835;0.059651196;0.033370234;0.016432682;-0.040713873;0.10887206;-0.02934334;0.010854787;-0.09091782;0.022426637;-0.0007099443;-0.04583198;-0.015601033;0.031751446;0.0010784253;-0.0127649065;-0.12938452;0.065228544;-0.16140506;0.112875715;0.028277654;0.2107463;0.06615444;-0.05057376;0.017469093;0.027579587;0.0072772685;0.07559714;0.092602864;-0.041975006;0.1089815;-0.046290938;0.0877394;-0.078247495;-0.087529965;-0.013806646;0.01650274;0.029196631;0.10023318;-0.08439754;0.06460423;0.02551101;0.014962394;-0.03236788;0.041967776;0.024712808;0.07859125;-0.01992987;-0.034453552;-0.019337224;-0.020196758;0.024969367;0.1088707;-0.08888028;-0.04860471;-0.05795092;-0.014359212;-0.00039634222;-0.024496362;0.14592905;0.07505712;0.012250741;-0.000115658084;-0.019067915;-0.022676665;-0.23624302;0.040564638;-0.0014766115;-0.028480258;-0.06766801;0.11954587;0.10973421;-0.022997793;-0.00025837123;-0.03916565;-0.016448194;0.0039277608;0.037791897;-0.06457647;0.061284214;0.03558888;-0.025853317;0.06494872;-0.013409668;-0.011286604;0.044058975;-0.0060768155;-0.06165334;-0.0008204735;-0.048570666;0.01548667;-0.12894396;-0.022228114;-0.006940004;-0.019416675;0.09274858;-0.036480173;0.11049264;0.034716286;-0.03442199;-0.062037934;0.01594689;0.03651295;-0.0068429755;0.09723443;0.011313615;0.028294377;-0.22040637;0.01802872;0.064257614;0.07640635;0.036254942;0.059256207;-0.025118073;0.17432597;-0.025430102;-0.1632643;0.018704502;0.098568;0.054274064;0.14260003;0.028100517;0.0966643;-0.049269427;0.19843513;0.04235399;-0.0778797;-0.03483113;-0.10562159;0.06343931;0.029371746;-0.07336276;0.085628405;0.07531793;-0.049008176;-0.009678484;0.04310273;0.019288624;-0.051545646;0.058809888;-0.0060196356;-0.011240082;0.04722073;0.08730423;0.13344991;-0.013653619;0.10843634;0.037869338;0.03883885;0.031578537;0.044777837;0.057073295;-0.07376169;0.014455644;0.016795892;0.046140473;-0.06648429;-0.05204162;0.02926178;-0.07521191;0.011770382;0.037791103;-0.0342118;0.10862749;0.00955347;-0.14779457;-0.1191607;-0.0049616634;0.038693286;-0.07382067;0.1029036;-0.086441666;-0.059588592;0.2523854;0.0136473365;0.0145911835;0.07465211;0.16112885;-0.066961534;-0.033237744;0.08878781;-0.038206518;-0.07889826;0.052331503;0.11665113;0.0050106216;-0.010991002;-0.07104389;0.04349561;-0.025630923;-0.028838262;0.03305925;0.13916677;-0.041618373;0.064286046;0.0756639;-0.0026780276;0.015658224;0.051402174;0.066490486;0.045963254;-0.044950437;-0.09452525;0.035778467;-0.013887262;0.06516398;-0.01651875;0.03629998;-0.07495107;-0.017635433;0.077869296;0.011331462;0.00071483036;0.122638434;-0.023247885;-0.06386979;-0.105772175;0.014108263;0.06044671;-0.025573106;-0.06876668;-0.027305445;0.018599479;-0.015362391;-0.020149004;0.058662083;0.011907892;0.041268148;0.11084918;0.06956626;-0.049597144;-0.091920674;-0.044497985;0.024873057;-0.045990426;0.088813946;0.09211782;0.028098883;-0.066587076;-0.066725224;0.19819738;0.034397807;-0.03529211;-0.12436079;-0.039390955;-0.050508622;0.109973915;-0.049904283;0.040009476;0.026531551;0.06970573;-0.0022678105;0.009520149;0.03664268;0.099143475;0.087662205;0.11209504;0.017871225;0.038597964;0.04443483;0.021337768;0.016839722;-0.033876866;-0.07481856;0.017858526;-0.060371462;-0.08644929;0.04682373;-0.0055731367;-0.102665365;-0.07046583;0.04582677;-0.018530779;0.088737965;0.08545764;-0.06199657;0.039759506;0.08003797;0.22851312;0.091546975;0.07085011;0.03866818;-0.056766823;-0.034249168;0.057981122;-0.0023982169;-0.0073521016;-0.08290581;0.056870338;0.054818984;-0.043009274;-0.0200352;0.14739043;-0.055638444;-0.014579969;-0.0025257727;0.00076731265;0.07697435;-0.049386617;-0.06704864;0.013064866;-0.11481368;0.0016084652;-0.022062212;0.020638768;-0.070480876;-0.05867536;0.023206955;-0.117803104;0.095934615;-0.068407014;-0.07055452;-0.03359188;0.05755433;0.04499646;0.097547345;-0.04092368;-0.024879113;-0.11471643;-0.071211725;0.10030768;0.082091704;-0.045092102;0.065520294;0.08602455;-0.10483361;0.0502708;0.17457804;-0.15029523;0.07357491;0.22726676;0.07300452;0.17472242;-0.03531282;0.06201458;-0.089092605;-0.029957945;0.046196047;0.071362145;0.044985063;0.033839174;-0.016291052;0.0280142;-0.038372327;-0.07791808;-0.019815827;0.06587853;0.025804378;-0.0011373006;-0.08758978;0.03258841;0.040946685;0.028449625;-0.04944692;-0.045026604;-0.039496932;0.056718633;0.081420176;0.048124436;0.06063144;-0.05459828;0.047620118;-0.07356785;-0.071316384;-0.0036482913;0.06417741;0.07518385;0.13216406;0.15544339;0.09351631;0.05905943;-0.039712835;0.07416072;-0.024214564;0.104304455;0.048467036;-0.04317811;0.0062809894;0.06059294;0.073228374;-0.1484057;0.048457153;0.10083636;0.14843607;-0.046369486;-0.01322231;0.037974376;-0.023344403;0.055825494;0.058227584;0.062713064;0.03643291;-0.032078248;0.083352655;-0.022577433;0.042142235;0.09409735;0.02864643;-0.062306833;-0.06226247;-0.068796486;-0.10365942;-0.04587376;0.058242027;0.007637905;0.21067932;0.087515116;0.030027451;-0.0039851093;-0.06334199;0.07850007;0.048726566;0.038700037;-0.0017539122;0.022091083;0.017620092;-0.10410368;0.009657161;-0.01235058;-0.08827344;0.044696286;0.1946224;0.053158112;-0.0014793148;0.03807195;-0.16498335;0.13787012;0.011477784;0.026963785;0.032325692;-0.0042121597;0.035226997;0.03259333;-0.23761456;-0.064477704;0.10051015;0.04589494;0.056487314;0.014841451;0.062989764;0.048736762;0.074103035;0.0344305;0.053797092;0.099670574;-0.0027087552;0.09406704;0.011374011;-0.031873465;0.1657317;0.0153503055;-0.04341372;-0.059167195;0.040405586;0.013821779;0.024269953;0.08168177;0.10706168;0.087013684;-0.0027522712;0.031971734;-0.07480035;-0.017724374;-0.034938667;-0.058778334;0.11164446;-0.15436277;0.09199727;0.049878992;-0.07268978;-0.029515207;-0.02218023;0.086183794;-0.05375023;0.031755827;0.076577194;-0.012055871;-0.08576135;0.060435597;0.06475943;-0.04333087;-0.049027376;-0.06323164;0.023753159;0.0074665123;0.015834145;0.031330235;0.096182644;0.0063611534;0.04870495;0.15900354;0.101245195;0.09618179;-0.019045966;-0.023411697;0.070868574;-0.058636192;0.049258552;0.09044225;-0.010178699;0.06618394;0.025821865;0.20168234;0.09846659;0.12471832;-0.008153251;-0.069528334;-0.008688887;-0.07854976;0.050264098
-0.05020689;0.15267074;-0.047306508;0.00432691;-0.01449131;-0.028244246;-0.061297573;0.10600572;0.008514769;-0.08590343;-0.034431223;0.03506727;0.04894532;-0.0010582209;0.0050313366;-0.016497582;0.059008494;0.21956448;0.08033879;-0.27315325;-0.20220773;-0.18357085;-0.07662711;0.056220584;0.07874948;-0.04622668;0.054225247;-0.12056631;0.018107323;0.059870332;-0.0042460943;-0.100567654;-0.02537538;-0.060156044;-0.024469895;-0.16586229;-0.0062885457;0.021353774;-0.049871515;-0.020960772;0.091565885;-0.058767162;-0.015414879;0.06584778;0.09579967;0.07591732;-0.04091426;0.019591121;0.07721248;-0.03575549;0.078483924;-0.06660294;0.10797293;-0.04087522;-0.036834374;-0.13001312;0.048666514;0.09192332;-0.021783864;-0.08778723;-0.007430835;-0.03416355;0.10505172;-0.034600846;-0.09145003;-0.021599658;-0.024406666;0.058212616;-0.03277221;0.035633143;0.037033413;0.009957466;0.011663653;0.03901913;-0.017709864;0.053989273;0.0011740236;0.024703613;-0.06663404;0.025425669;0.071888864;0.04256089;0.119823754;-0.016917517;-0.1634585;0.09160814;-0.008582947;0.08176823;-0.07327553;0.07851659;0.022302195;0.0589705;0.08157991;0.041268706;0.06793932;0.055001445;0.029072443;0.09784001;0.05755845;-0.0014470564;-0.038659558;-0.0027311628;0.002853951;-0.07635703;0.06528068;0.080494046;0.06084404;0.06369211;0.09751079;0.08117787;0.047664355;-0.0016017889;-0.016409473;0.022367513;-0.03984495;-0.046051256;-0.015460279;0.046360236;0.09441831;0.055192053;0.085113496;0.07332763;0.016987503;0.009153669;-0.029433306;-0.09317699;0.012388997;0.018337358;0.02808749;-0.08099197;0.010204028;-0.055357195;0.044639014;0.048436884;-0.102984324;0.018784165;0.0019847632;-0.104912415;0.01418665;0.031278282;0.0054346547;-0.057846144;0.14086312;0.010160489;-0.07009655;0.032236233;0.024138771;0.07804731;0.12074183;0.114540815;0.0074493038;-0.035855677;-0.024111915;-0.0860885;0.02488603;-0.0208866;0.033906773;-0.22741897;-0.016381629;-0.058901053;-0.09655726;0.041230023;-0.056707952;0.13483305;0.162036;-0.003152837;-0.002026268;0.07108141;0.02698342;0.050119795;0.07242615;0.07343065;-0.037760783;-0.14368635;0.07868312;0.040540207;0.22720264;0.10289128;-0.03942037;0.041781772;0.24718459;-0.089062825;-0.030613143;-0.038592543;-0.0028657715;-0.03532495;0.008600742;0.1654721;0.06972672;0.00648785;0.07268626;-0.03029832;-0.05014236;0.06951209;0.051144287;-0.07788321;0.06127839;0.10425055;-0.04302851;0.13654384;0.099160865;-0.014679789;0.033213094;0.07894997;0.040251885;-0.030830577;-0.028633637;0.04534255;-0.008338881;0.072567545;0.14033659;0.010996195;0.006655326;-0.027309883;-0.06475938;-0.035824556;0.09749485;-0.08808056;-0.02747657;0.010833587;-0.011325962;-0.088973515;-0.079063445;0.09772361;0.013014542;0.021938091;0.08668594;0.018177504;-0.04964097;0.0056013716;0.059222188;-0.12943505;0.028915022;-0.055707373;0.062254127;-0.08028806;-0.0008831325;-0.076649375;-0.058544;0.17143044;-0.011298725;-0.045411922;0.11035892;0.13457704;0.043460812;-0.0031025845;-0.03188559;-0.068970226;-0.021539008;-0.026470069;0.107484534;0.051870428;0.09800261;0.0004893725;0.06430912;0.0047751316;0.08565767;-0.0068816487;0.09883394;0.017700635;0.060142312;0.120556995;-0.005754138;-0.023068232;-0.0011668684;0.007955712;-0.027374279;0.07724173;0.05028879;0.141139;-0.046982963;0.05730649;-0.008776183;0.054024756;-0.07208762;-0.023129033;0.0478505;0.054585487;0.06309447;-0.011542305;-0.0789865;-0.015021462;0.0056906305;-0.033364676;-0.005869327;0.108910404;-0.0030570638;0.015268759;0.048664063;0.11129456;-0.07017509;0.14698125;0.09265304;0.055820923;-0.08337211;0.021538077;-0.0012735851;-0.12133572;-0.01611655;0.0032039532;0.01486103;-0.023272885;-0.0058890893;0.11426892;-0.017952135;-0.035363156;0.109049015;0.023172116;0.049978446;0.055907987;0.10553525;-0.028017128;-0.010887372;0.08759144;0.09354439;0.000629991;-0.020919953;-0.058099303;-0.048024103;0.077099375;0.021388419;0.06911015;0.17278302;-0.008623739;0.06540186;0.056965735;-0.0031217653;0.022297526;0.048624743;0.055858526;-0.048160963;-0.08783043;-0.038442504;0.067142926;-0.027975354;-0.026632428;0.15642866;-0.0019235072;-0.016194426;-0.0069798743;0.014400079;-0.051057417;-0.027638968;0.10307838;0.0102474885;0.07421825;0.007890952;-0.050851773;-0.0011753542;0.121060856;0.17305599;-0.097402856;0.06649938;-0.026126726;-0.0016049797;-0.040242966;-0.10295543;0.116541475;0.14317071;0.09819283;0.025339816;0.025224885;-0.04719363;0.04376056;1.1186359e-05;-0.048133098;0.0620841;-0.047668077;0.059555314;-0.005746249;0.0039361147;0.03091562;-0.019662851;0.032277305;-0.0010593341;0.019220773;0.027381035;0.081227645;-0.056027245;0.02531091;0.10249073;-0.024338001;-0.020296652;0.050722353;-0.066852115;0.05860462;0.09190289;-0.023404168;0.029778814;-0.0014828114;-0.03255724;0.040166955;0.14587642;0.013680647;-0.0121862255;-0.0021032107;0.17868534;0.08865936;-0.004305364;0.04884333;0.10102354;0.07346105;0.075399935;0.014467782;-0.037441023;-0.0789783;0.06894162;0.009214501;0.057885043;0.086420834;-0.066318505;0.028179996;0.060711384;-0.008922879;-0.10793826;-0.23417646;0.027821394;-0.015346131;0.059034362;-0.04181875;-0.02709379;0.040093344;0.07321795;0.018217284;0.09151041;0.006702795;0.03440193;0.05030724;0.0021444533;-0.045370556;0.010596747;0.088956386;0.14440207;0.17179324;0.074628055;0.02948701;-0.0014691565;-0.041262165;0.07223895;-0.0990605;-0.027001642;0.008421456;0.013910241;-0.09635355;0.04210331;0.09024895;0.05376007;0.03759218;0.06582471;-0.04272692;0.06405438;-0.03629832;0.19325592;0.10571081;0.06753299;-0.03075815;0.028554358;-0.07927046;-0.00063125504;0.037815694;0.018129576;0.03656166;0.015234012;0.0026205366;-0.060340133;0.009575817;-0.009320758;-0.07025916;-0.061362144;0.055731073;0.0491531;0.11624078;0.11630308;0.04598009;0.067744486;-0.0425114;0.046125345;0.036850754;-0.072960064;0.03918659;-0.03727649;0.051527735;-0.06942164;0.03978209;0.031686746;0.010444952;0.11758731;0.14765082;0.11510025;0.015091818;0.12915379;-0.19452518;0.05439668;0.11296903;-0.012033127;-0.019553924;0.028725155;-0.024754154;0.07117691;-0.12056859;0.036670536;-0.024343241;0.01639755;0.04063743;-0.023745699;-0.038547073;0.07736594;0.037660144;-0.07200445;0.028813377;-0.021935461;-0.2042054;-0.057997268;-0.060219273;0.051620033;0.19462577;0.060363956;0.0032639299;0.06130961;0.09446579;-0.042649183;-0.0061658416;-0.039142653;-0.01783609;-0.037883945;0.04874001;-0.03109709;-0.12005641;-0.045027718;0.039273936;-0.025218084;-0.006122856;0.030086534;0.26083818;0.0055108597;0.09074453;-0.01795284;0.006938207;-0.020540955;0.0057985107;-0.0038732064;0.05018484;-0.012617435;0.021561535;-0.06609377;0.025125237;-0.056008052;0.07277743;0.08296106;-0.08523219;-0.017387584;0.04323442;0.011010466;0.012713336;0.021569626;0.017420825;0.095594734;0.12376278;0.01800059;0.07119595;0.063786484;0.27346665;0.06301546;0.012159808;0.012389975;-0.014456351;0.01090096;-0.022439476;0.22277945;0.030887442;0.019496573;0.024510052;-0.09382115;0.028068226;0.035400454;-0.036456004
0.09321669;-0.034564506;0.024793861;0.041507725;0.100881845;0.052439973;0.09518539;-0.018270154;0.015549648;0.019058727;-0.0342661;-0.05249449;-0.00036148194;0.091344014;0.01971501;0.0648362;0.17102377;0.008174755;0.032788027;0.07344803;-0.107516006;-0.16212672;0.007509574;-0.023201402;0.134558;-0.09085369;-0.0043050433;-0.1487643;0.002888721;-0.014096131;0.032433823;0.08534994;-0.035648882;-0.2215568;-0.19370939;-0.27732205;-0.05450516;0.07254446;0.053515375;-0.0189413;0.05253866;0.015398122;-0.038882148;0.199138;0.021386573;-0.05755595;-0.035821073;-0.008008834;-0.0316727;-0.09929591;0.005087609;0.055766724;0.16269097;-0.15941817;-0.048465375;-0.12190326;-0.02499059;0.18436696;0.10834958;-0.0925336;0.023915518;-0.013974536;0.13497001;-0.086068146;0.043013543;-0.032356344;0.01932326;0.060538743;-0.08699234;0.035454087;-0.06129692;0.04073444;0.12708548;0.03517335;0.082236625;-0.03887577;0.005985036;0.010248366;-0.08956687;-0.15497671;0.08896182;-0.017166913;0.22366014;0.1109754;-0.12575136;-0.016733158;-0.044332203;0.05399785;0.02647444;0.08393953;-0.021810971;0.03508457;-0.021787433;0.044046763;0.06520264;0.04901034;-0.048970737;0.04986782;0.08120084;0.016281288;0.12857014;0.09304878;0.07836047;-0.04392297;-0.03016623;-0.0123543115;-0.040932152;0.033877466;0.086279616;-0.038418364;0.08035271;0.10913025;-0.012619248;0.025747202;0.056759544;-0.009969796;-0.033330947;0.029455712;0.03409023;-0.0530535;0.04038084;0.01656525;-0.035098393;-0.020876465;0.054515302;0.055312898;-0.022895062;0.107852004;0.09065893;-0.046307195;-0.037885197;0.083210476;-0.024903666;0.04448322;-0.09064766;-0.01615698;-0.0925622;-0.054014698;0.08284543;-0.046582974;0.079347625;-0.105020635;0.015657792;0.024011444;-0.03568399;-0.055647656;-0.0075353393;-0.0007175027;0.10623513;-0.077525266;0.049010348;-0.0071207215;0.0316971;0.10787232;-0.01791512;-0.055396155;0.06836315;-0.015131147;0.018749341;-0.21529056;-0.12099191;0.030920275;-0.07216786;0.18862095;0.16322565;0.023264123;-0.017132064;0.0024736293;-0.060210835;0.09506211;0.018283948;0.13251853;0.06916856;-0.088352114;-0.028504418;-0.020839896;0.118833035;0.08346292;-0.1137557;0.03042165;0.0334125;0.08257056;-0.100090146;0.029894099;-0.028842054;0.106852785;-0.054315127;0.09488202;0.027958645;0.017012369;0.15823522;-0.014063915;0.0049532778;0.08988729;-0.014134761;0.022826284;-0.05684179;0.06215551;-0.06913033;0.11151448;-0.0006494195;-0.017255785;-0.008289857;0.021825667;0.079900116;0.0051916004;0.100197315;0.027641669;0.15209898;-0.054743256;-0.04588614;-0.037671268;0.079340436;0.00668043;0.07517272;0.0032084258;-0.007812792;-0.016563412;0.056436535;-0.0627418;0.074962996;-0.09118807;0.042729944;0.020330966;0.034223624;-0.01387301;0.012129775;0.11748692;0.049303826;0.08775153;0.052118678;-0.13872455;0.017785108;-0.08301471;0.0858914;0.018572574;0.08817433;0.024467325;0.0676081;-0.022648234;0.043392606;0.07496442;-0.021879258;0.13326773;-0.037102275;-0.024520159;0.08613055;0.039422713;-0.027341658;0.046259966;0.049595628;-0.004123802;0.14076877;-0.041288003;-0.049062356;0.13694179;0.07573634;0.06789714;0.064856336;0.075845264;0.036845926;0.07554394;-0.010029408;0.030395813;-0.017752571;0.03262346;0.061202724;-0.029510487;-0.00427314;-0.057961073;0.012849251;-0.0077730133;-0.065289445;-0.07189417;-0.17072885;-0.18722521;-0.07249781;-0.0059598885;0.06341797;0.06437148;-0.011308018;-0.06048656;0.009986962;0.04926984;-0.0071348967;0.06345957;-0.084605694;-0.011727215;0.040498834;0.0028412237;0.09727797;0.09259427;-0.01692172;0.09526299;0.046855137;0.04037129;-0.0082553895;-0.07503181;-0.15074195;0.14065683;-0.043504275;0.105050996;0.05438834;0.034283236;0.028816223;0.0862523;-0.0031380116;0.117383346;-0.11252884;-0.046297066;0.064454384;-0.0629966;-0.028046679;0.07361996;0.20220043;0.1290538;0.003718849;-0.011933364;0.02412218;-0.11112212;-0.026257364;-0.015358502;0.0908109;0.0591911;-0.10106405;0.07296172;-0.060454424;-0.0166167;0.03240956;0.1222208;-0.009058438;-0.030231263;0.09133001;0.0051840954;0.071154706;-0.065733545;0.088364564;-0.017446658;-0.010223286;0.041973665;0.068453684;0.039767273;0.026562987;-0.034783024;0.14073966;0.07806274;0.008281882;0.06338068;0.05866753;0.00492352;0.0463602;-0.05789676;-0.0645266;-0.0021337704;-0.015146152;-0.16441165;-0.12874131;0.23182584;0.08103282;0.06767987;0.010549459;0.027664268;-0.037221305;-0.03494911;-0.026183117;0.0018823565;0.0008229918;-0.17257535;-0.00924252;0.0531229;0.010752375;0.04533379;0.032826744;-0.02382388;0.075056925;-0.025460904;-0.040581312;-0.06502108;0.016690446;0.07624939;-0.034133244;0.030629849;-0.0024162927;-0.1576857;-0.13521859;-0.023876432;0.03138983;0.028282475;0.07213609;0.021967841;-0.023105362;-0.019666944;0.17257008;-0.0021985564;0.0010468698;0.048863504;0.08519413;0.0647925;-0.07013261;0.034438368;0.035569932;0.010951643;-0.05921029;0.06603216;0.055295467;-0.045496635;0.024583574;0.059554294;0.056253504;0.034651756;-0.017482338;0.0151417395;-0.0012443421;0.08538066;0.07352346;-0.16642734;0.053349856;0.01745353;0.12522233;-0.050110824;-0.0038202347;-0.006547474;0.04602455;-0.06330003;0.02627537;-0.05836261;0.018776404;-0.050372828;0.200672;0.10258041;-0.047408298;-0.0616225;-0.016437829;0.14694303;-0.049418565;0.026849922;0.111140005;-0.08482944;0.053240057;-0.13529524;0.045646608;-0.012485628;0.013247818;0.030013772;0.058041546;0.038030077;-0.04285355;0.0889373;0.0040213335;-0.21450433;-0.07776429;-0.029365573;0.13690145;0.08082207;-0.08706176;0.11892924;0.0654866;-0.107582934;0.037393846;-0.046718173;0.083920345;0.026509674;-0.08066384;0.019698836;-0.07413217;-0.03799874;0.065944985;-0.27193308;-0.07547053;0.02795492;0.07397758;0.105393454;0.20300102;0.00047891232;-0.066636235;-0.11912278;-0.03377872;0.09442546;-0.05418332;0.02308354;0.008636237;0.032690722;0.028373372;0.030018918;0.094469175;0.013120491;0.09522845;-0.004749889;0.21509278;0.010559462;-0.025648626;0.05348817;0.12543665;0.01658652;-0.0014587288;-0.06873177;0.056187503;0.047517452;0.20082964;0.12711075;-0.054976318;0.021587444;0.044033818;-0.032870956;-0.054371618;0.009215055;0.06146766;-0.05571362;-0.047124743;-0.07318854;-0.012927848;0.030704334;0.04354148;0.021960372;-0.040384308;0.02744705;0.104864426;-0.0488108;0.13893877;-0.007033319;-0.10420352;0.008332518;0.0053478777;0.029847065;-0.07164002;0.13574311;-0.020752072;0.016044931;0.011617356;-0.03572777;-0.03524435;0.046028905;0.12044906;0.20499523;-0.0011658722;0.050445292;6.13422e-05;0.04348801;0.0050992365;-0.0061429953;0.06091527;-0.013676807;-0.005333683;0.009328008;-0.005873589;0.079542;0.07150655;-0.03222248;0.030027617;-0.02577567;-0.019140983;0.051852852;0.007864377;-0.03809686;-0.04855213;0.07781703;0.2529251;0.025472762;-0.050229747;0.02226122;-0.07288841;0.3162668;0.028864361;0.046050303;0.03444526;0.11923513;0.16453357;0.0388949;0.23240368;-0.07541461;0.04550802;-0.028477954;-0.02258235;-0.036555726;-0.040421586;-0.017182402
0.06391865;-0.16603386;-0.035302963;0.007119279;-0.01187022;-0.041201077;0.092880204;0.031683244;-0.01850267;-0.041930933;0.060431622;0.06413109;0.031337712;-0.039100565;0.08086287;0.09462435;0.02013729;-0.008201875;0.04650733;-0.05751606;0.013302848;-0.04365932;0.0060581;0.030387808;0.08196592;0.0063693896;-0.005770867;-0.19015317;-0.090658054;0.07466304;-0.014020802;-0.009518796;0.041745666;-0.078822285;-0.10653445;-0.19429581;0.024580829;0.020753464;0.06886143;-0.041312717;-0.06652013;-0.05910624;-0.101379745;0.17072463;0.16669194;0.04229557;0.003784969;0.00093660847;-0.002191739;0.027516343;-0.02210372;0.011540996;0.0958518;-0.0316283;0.053922888;-0.08526213;-0.005851754;0.08246761;0.022341521;-0.08328219;-0.033678498;0.10694536;0.05957563;-0.0804254;-0.023261532;0.04574727;0.018554457;-0.071144275;-0.019056402;-0.020977022;0.07734762;-0.039590426;0.019754002;-0.019920943;0.038354054;-0.095242344;0.08993869;0.026271831;-0.015046613;-0.030677352;0.04662214;0.02043547;0.012761504;0.12987375;-0.00037498274;0.09122335;-0.036614537;0.013203982;0.029461076;0.046286818;0.10348962;0.0058389255;0.009846346;0.076889396;0.038208142;-0.09572594;-0.15408006;0.008304357;-0.026256476;-0.019827222;0.16880046;0.071894035;-0.022537163;-0.027894087;-0.06360014;0.07233442;-0.010722429;-0.07316101;-0.0400102;-0.083344616;0.02798046;-0.0035297084;0.031624343;0.058222335;0.059780605;-0.09742712;0.047389876;-0.008739807;0.098670654;-0.004128339;0.07424187;-0.020601729;-0.037991658;-0.0957693;0.030368695;-0.08843404;-0.05251074;0.08759671;-0.057645284;-0.023494119;-0.007968286;0.12967262;-0.01966774;0.07654253;0.09958504;0.07204157;-0.0097146565;-0.09172004;0.088373885;0.05572317;0.071356304;-0.13415302;0.08447808;0.022419298;-0.0695263;-0.044664405;-0.115594074;0.061930902;0.1464085;-0.01385045;0.07507363;-0.019593706;0.046899877;0.016723035;0.033214577;0.028440295;0.10605473;0.1298176;0.00501537;0.00553514;-0.08627299;0.021686058;0.012746747;0.06490704;0.030019503;0.097168535;-0.031698518;-0.0076278015;0.063696094;0.05771675;0.047222123;-0.0007451292;0.01661026;-0.01087675;0.032309797;-0.064838804;0.07681995;-0.07284422;-0.025998525;-0.07484148;0.2180482;0.11274532;-0.0377523;-0.13848451;0.09654514;-0.0141543485;-0.14245325;0.08136348;0.026159698;-0.010918692;0.23368411;0.070088945;-0.06607587;0.04982757;0.014466775;-0.08517777;-0.073717564;-0.04527153;-0.06385229;-0.037463125;0.012578747;-0.0011442128;0.078989185;-0.05072472;-0.014596666;-0.033710394;-0.0069454135;0.062199965;-0.0703425;0.0148884645;0.012995054;-0.064684056;-0.023418179;0.019828742;0.010645556;0.033165343;-0.10068675;0.05539052;0.032455783;-0.035673015;0.07212445;0.0490748;-0.04857024;-0.040823698;-0.03279718;0.103911564;0.05933882;-0.07357067;-0.057608426;0.0046200887;0.03261521;-0.23329103;0.04004039;-0.038360413;0.023206532;0.0018375306;0.0018855388;-0.037097517;-0.037275936;-0.033864833;0.08711625;0.108214706;0.063821316;0.21671937;0.022618372;0.017180853;0.012770111;-0.082292914;-0.10762563;0.07024849;-0.04703647;0.08988865;0.056557693;0.15391888;0.016426828;-0.0035372041;-0.06192853;0.06410489;0.08780035;-0.03962839;-0.019476585;-0.024532843;-0.04760361;-0.028332317;0.040353533;-0.10431258;0.03635827;0.054036163;-0.10357915;-0.10570096;0.0073208823;-0.038913198;0.0559111;-0.08733504;-0.13105479;-0.17019562;-0.12575257;-0.06305709;-0.03487781;-0.10453375;-0.037475444;-0.06594117;-0.005516452;-0.011911172;-0.041634724;-0.021438597;0.08090478;0.09645793;-0.16620994;0.04550132;0.043798037;0.049605154;-0.014711066;-0.06927918;0.07806484;-0.0072506405;-0.04337297;0.12704326;-0.07509771;0.11962199;-0.055249754;0.006881856;0.014336802;0.09543684;0.0307341;0.05721803;-0.071005136;0.05767808;-0.018211596;0.009975625;0.10007695;-0.0139808925;-0.013245;-0.010472996;0.3751313;0.096326895;-0.06253659;-0.05897602;0.021947695;0.0305732;-0.028268693;0.056908738;0.02440495;0.01986426;0.0051836385;0.059767127;-0.0388455;0.055535;0.029999677;0.013044495;-0.06706034;0.0307124;-0.07081918;0.0049832016;0.07722706;-0.07738046;0.1875272;0.088076875;-0.029330764;0.04724669;0.04436728;0.09894231;-0.008209807;0.03274343;-0.0011259419;-0.0020983599;0.056288816;0.030985227;-0.017339367;0.012661227;0.025060175;0.118978344;0.041206285;0.03855983;0.035850625;-0.0444072;0.01259644;0.17126895;0.05442086;0.07085783;0.031432517;-0.0268374;-0.09205626;-0.05187651;0.0346841;-0.037600253;0.045044977;0.04700764;0.10006266;0.22826159;0.004567812;-0.017209517;-0.006904385;0.034727123;-0.030586476;-0.023105783;-0.09683934;-0.039494157;0.006474896;-0.015958894;-0.07761545;-0.038503926;0.12866923;-0.06420644;-0.19391197;0.022756113;0.038711533;-0.008748387;0.12236169;0.047297172;0.0684868;0.06307599;0.16718177;-0.030031256;-0.10123933;0.06783091;-0.012636651;-0.054025516;-0.029757047;-0.0130247045;-0.049041785;-0.02392825;0.025612283;0.067625016;0.021607725;-0.18439807;0.021823797;-0.02865135;-0.014280457;-0.025054727;0.06904273;0.058678668;0.016776066;-0.056599285;0.14282846;-0.0124173835;-0.03922646;0.056927927;0.06974734;0.05912251;0.030114863;0.14693488;-0.075396605;0.020043895;0.077460885;0.04822268;-0.01511157;0.08743504;0.063884355;-0.050702184;0.09226313;0.18641777;0.019330665;0.049809717;-0.0024855845;0.036043648;0.10851083;0.0016514454;0.108518764;0.00978345;-0.056615792;0.23044617;-0.12002368;0.09799631;0.14341527;0.060196087;0.0003034122;0.036530953;0.006187571;-0.22943251;0.02049879;0.04261666;0.06182385;0.051972967;-0.065556124;-0.06966533;-0.009714246;-0.10864584;0.046619732;-0.009213893;0.014271057;0.04501848;0.065555304;0.07799774;0.032637384;0.08772728;-0.11118547;-0.23823933;0.088082165;0.00033090444;-0.1193424;-0.0047532176;-0.05565382;-0.007617861;0.07412752;0.03736935;0.04210415;0.018679906;-0.010035912;-0.07175557;-0.045109197;0.042484805;-0.0668104;-0.06769722;0.0038957433;-0.040896498;-0.04281368;-0.051694218;0.17999756;0.0416216;-0.0051718913;-0.20132883;-0.03277236;-0.049204964;0.067114614;0.14695957;-0.04095973;-0.049717877;0.07033301;-0.033486947;0.07521717;0.018029662;0.040262394;-0.047062647;-0.0043147206;0.0043359795;-0.071198575;-0.013885497;0.08774504;-0.008592586;-0.04025177;0.0821065;0.09408214;0.09791648;0.03774951;0.2568846;0.007512256;0.053402063;0.054830346;0.071838714;-0.031068001;0.10526474;0.014524455;-0.013617276;-0.11301241;0.09568814;0.12563965;-0.011260355;0.059607442;-0.032491103;-0.012620734;-0.007874926;0.057188753;-0.006339848;-0.026099661;-0.013533464;0.022234684;0.08340098;-0.021694506;0.040016502;0.06485208;0.033970322;-0.00096872053;-0.077032484;-0.056195576;0.065792225;0.064366706;0.08741251;-0.065937266;-0.032600448;0.070387974;-0.03361045;0.266735;0.004015066;-0.0060302247;0.029103868;0.20944577;-0.004929275;-0.085403904;-0.055150144;-0.008172121;0.0050709806;-0.090408444;0.013706679;0.087292425;0.054839544;0.055613633;-0.087555476;-0.006477354;-0.014507925;0.03776717;0.016914943;0.030051867;-0.049809907;-0.081741445;-0.17271721
-0.09724586;-0.27742407;-0.18954083;0.05791846;0.09682941;0.061688367;0.2543446;0.10998083;0.008211675;-0.055847146;0.05586879;0.0034911942;-0.040330127;0.055446826;0.059710875;0.0056821243;-0.13756286;0.019557513;-0.004348775;-0.044475045;0.2768823;0.099834144;-0.029079406;0.034120247;0.031330455;0.01295815;0.039840605;0.057956316;-0.10762234;-0.078554794;0.06316021;-0.06738114;-0.037796333;0.074874505;0.030869955;-0.20354274;0.010404916;-0.037948318;-0.019835828;0.054012824;0.00048456382;-0.035349153;-0.09401144;0.07322146;0.21921073;-0.073201604;0.05041697;-0.029363656;-0.017580846;0.07905574;-0.0009412057;0.14042407;0.042998757;0.21173365;-0.028124468;0.07048325;-0.12182895;-0.08811826;-0.07481696;0.023513457;0.073626705;0.09402734;-0.08244395;-0.02316314;-0.04197334;0.101092465;-0.08410457;0.023980636;-0.107472315;0.04584297;0.112591535;-0.035846382;0.11934836;-0.008453769;0.036604516;-0.10176069;-0.016382398;0.07228641;-0.08832475;-0.14287692;-0.011135546;0.018192817;-0.0025434776;0.07808923;-0.052872594;0.09565857;0.019810418;-0.0149134025;0.060629554;-0.14030889;0.06561056;0.03907479;-0.008087839;0.026426537;-0.0017142086;-0.0649923;0.10457546;-0.078879036;0.10258705;-0.024824621;0.062282033;0.0048760124;-0.077635236;-0.0039892555;-0.09648114;0.06355987;-0.016869204;0.04092614;-0.17287675;0.023551676;-0.04785746;-0.068042934;-0.014725174;0.08862499;-0.018936593;-0.027494367;0.010713879;-0.044455487;0.03623634;0.057453275;0.1261913;0.06802102;0.049192056;-0.016396413;-0.06614769;0.14323021;-0.23005138;0.087314546;0.024711806;0.06906165;-0.0036816227;-0.06641744;-0.037270546;-0.08048528;0.040283307;0.0095004905;-0.09185436;0.05875619;-0.05200628;0.09082146;-0.04436809;-0.12620595;0.03740114;0.01477604;-0.057726882;-0.055751555;0.01110854;0.0008013048;0.0066352203;0.036235664;0.052411113;-0.014131665;-0.0072023557;0.17140909;0.07480896;0.040100176;0.0432786;0.22944076;-0.05724351;-0.027304426;0.0047829286;-0.05406686;0.07423668;-0.018226242;0.1604668;-0.023321679;0.015848;0.04700575;-0.036129043;-0.020814333;-0.008479441;-0.03235735;0.008658316;0.15928999;-0.025112988;-0.06729526;-0.0065736817;-0.17271501;-0.054619938;-0.051932227;0.17376503;0.064513795;-0.040627167;0.0010648429;0.05465367;-0.005913907;-0.096534476;0.060126785;-0.026727892;-0.0985722;0.10347821;-0.026743125;0.027886912;-0.002526469;-0.035851646;0.021014458;0.014935556;-0.056018542;0.0074724536;-0.062007025;-0.04549383;0.057094704;0.08296394;0.078253806;0.10279511;0.00031435638;-0.101632096;0.049091525;-0.010551432;-0.03291241;-0.0022038051;0.055119466;0.00017595432;-0.055965245;0.10202054;0.006079505;-0.022793844;0.22914986;-0.02396627;-0.056376357;-0.025059363;-0.018834393;-0.08941451;-0.093510844;0.046004117;0.08808053;-0.043324776;0.11053223;0.028069956;-0.10842971;0.01163971;0.09487357;-0.00044853258;0.07372156;-0.032304898;-0.0023955537;-0.027571632;0.066320345;-0.030229112;0.07128757;0.039946362;0.10741286;0.01623515;0.29703182;-0.030147571;0.07559594;0.072066486;0.09267397;0.044045426;-0.036566004;0.092755504;-0.01834618;0.12288695;0.30277267;-0.07927785;0.08062462;0.027494002;0.06472194;0.15072009;0.08545297;-0.08712047;-0.065589145;0.01726901;0.044335462;-0.07820196;-0.047770303;-0.048512843;0.11405752;0.0029140029;-0.08471231;0.03794466;0.06754409;-0.045914166;0.026292717;-0.045158513;0.19738601;0.049414612;0.06552413;-0.052374776;-0.015864747;0.05398412;0.05081682;-0.07869114;0.100445755;0.064967036;-0.08498246;0.081714965;0.06457824;-0.17842469;-0.11855889;0.06005333;0.08376106;0.0996637;0.035375122;-0.016891435;0.10104192;-0.014555339;0.04486178;0.0069341413;0.08281027;0.004045126;0.027161079;-0.08591528;-0.1295757;0.0147363655;0.28013048;0.015967293;0.17924307;0.1691722;-0.020642607;-0.021696644;0.0506273;-0.06519513;0.012443303;0.18673028;0.10122133;-0.007282944;0.006460663;0.009223149;-0.050813336;-0.011526395;0.025221415;-0.02819419;-0.050295558;1.832702e-05;0.07817045;0.087736554;0.0018043042;0.044905867;0.016926719;-0.19545475;0.055032857;0.03848713;-0.09479272;0.010959412;-0.23138903;0.0073768133;0.02607958;-0.007944927;0.07480616;0.12529105;0.022899855;-0.051719677;0.033235595;0.14249904;-0.08965412;-0.035105113;-0.083204895;-0.059691977;0.038309943;-0.24942449;0.16066378;0.054924294;-0.11561605;0.056832395;-0.018871808;-0.0045809015;-0.0041218936;-0.030830633;-0.033594374;0.027569259;-0.043685246;-0.1266764;-0.02381845;-0.09488487;-0.009293005;0.015132565;-0.16560982;-0.029939778;0.31735548;0.082021296;-0.01655168;0.0019305502;-0.033546433;-0.21817754;-9.268707e-05;-0.116364226;-0.03119113;-0.07272421;0.039092384;-0.024116917;0.10906012;0.06319064;-0.23044015;-0.056268275;0.07120332;0.09588428;0.108925045;-0.046972204;0.05521304;-0.004576433;-0.05230553;0.04959693;-0.088581815;0.043125413;-0.016841806;-0.13625509;-0.06321785;-0.07702179;-0.03884533;-0.07868461;0.032035846;-0.037145328;0.072008945;-0.010804835;-0.13750957;0.036355663;-0.05738892;0.03080071;-0.05539239;0.048833646;-0.02378974;-0.0013861359;-0.010259447;0.25150627;0.008488301;-0.023327943;0.09665563;0.015416723;0.06738793;-0.013113707;0.0037929101;-0.07283504;-0.05609988;0.045421;-0.024831038;0.032165732;-0.005632849;-0.1830325;-0.01806369;-0.048899733;-0.08023184;0.031444788;-0.13271971;0.07522787;0.063098334;0.059027504;-0.009557035;-0.051305592;-0.18144448;0.07159142;0.31846362;-0.015888052;0.17156099;-0.007595758;-0.112106845;-0.10509839;0.036310863;-0.04498671;-0.029839126;0.0073412773;-0.022323744;-0.02821242;-0.0075086006;-0.12926099;0.030399255;0.06851063;0.011439349;0.07246523;0.044094812;0.011452917;0.06386159;0.012729022;0.027340526;0.022452388;-0.03701063;-0.009643701;-0.1486988;-0.037385006;0.021106467;-0.11802915;-0.00163321;-0.26874778;-0.124089554;0.07775843;0.08996363;0.018044442;0.006754135;-0.064353876;0.17538266;0.060883135;0.053461567;-0.05035625;-0.032140084;-0.11818656;-0.019353764;0.07074058;0.021841522;0.22070003;-0.07879377;-0.036171738;-0.051493242;-0.04773232;0.08043993;-0.059273306;-0.021641925;0.05826403;-0.0038476402;-0.16727589;0.14096124;-0.054941185;0.0628048;0.06115923;-0.022025742;0.07781341;-0.028710188;-0.12213716;-0.060635142;0.037798;0.10020549;0.004389296;0.13422784;-0.026879314;-0.0465989;0.01115649;0.12079384;-0.025902357;-0.04839964;0.025135877;-0.045905143;0.124086075;0.037583735;-0.010718847;0.12484923;-0.23858792;-0.04945544;0.060795337;-0.055632386;-0.0886384;0.053185053;-0.0056854845;0.056677017;-0.18566523;-0.23759364;0.054074448;-0.09924277;-0.11934343;-0.006569702;0.07046224;-0.062469475;-0.104428455;-0.018037586;-0.103164665;-0.038679134;0.07706782;0.031391993;-0.086983845;0.019137954;0.0148235;0.08758586;-0.08902673;-0.036263205;0.11774241;-0.057224754;0.036254466;-0.038265888;-0.021724092;0.1678917;-0.024823373;0.09873443;0.013589533;-0.26824862;-0.08887748;-0.0043294495;-0.04459169;-0.15971985;-0.063493855;0.018863663;-0.23661305;0.024061782;0.017040476;0.0425186;0.11625435;-0.047138486;-0.23325023;-0.107963115
0.14272323;-0.19340959;0.09125884;-0.08748854;0.097699754;-0.0090692965;0.09569935;0.048082296;-0.0460786;-0.0512895;-0.065736234;0.010919541;-0.056055974;-0.021736147;-0.029444676;-0.051147923;0.04615397;0.14079;-0.039939538;-0.12397285;-0.17324623;0.06578474;-0.03891938;-0.06103356;-0.02205912;-0.10394861;-0.009543576;-0.06640412;-0.0854804;-0.08645199;0.024392229;-0.14845787;0.0013528649;-0.022382777;0.024583327;-0.09500079;0.043683458;-0.016091397;0.007775199;0.03688857;0.039119907;-0.05550751;0.15155111;0.070082106;0.19954962;0.0020200908;0.058765233;0.0582449;-0.001939165;0.0011447115;-0.0035603365;0.123235114;-0.09267412;-0.12207958;0.080278054;0.036364008;0.021795206;-0.028249064;0.0034023025;0.1574667;0.04664023;-0.03744527;0.013322304;0.11759247;0.044878013;0.0086091105;-0.015705587;0.07302537;0.032791793;0.009972259;-0.008728945;-0.040480606;0.14853391;-0.06298137;0.038297817;-0.036020663;-0.031856038;-0.04628462;0.03334744;-0.06400307;0.14694394;0.014100309;-0.010331018;0.109430164;0.014930108;-0.028818885;-0.0599805;0.059120916;-0.04322452;-0.029739823;0.07950691;0.07157576;0.014889447;-0.18403684;0.07010363;0.018438315;-0.106740296;0.07052505;0.067980096;0.047775667;-0.16317254;-0.023995345;-0.04927207;0.0074796244;-0.06267422;-0.09403826;0.07400228;0.0047055366;-0.21503127;0.023944689;-0.022562807;-0.04344596;-0.007908764;0.0028127523;-0.08938016;0.06146288;-0.03789207;0.10937719;0.036024187;-0.0830412;0.030014189;-0.022692991;0.011212337;0.041188035;0.021959672;-0.12535423;-0.1414909;-0.049819704;-0.04354807;-0.07100198;-0.046741303;-0.15663986;-0.051338416;0.043891635;-0.010604229;0.087754644;-0.03437308;-0.09215845;0.015963573;0.06715929;0.08225328;-0.058388133;0.19430192;0.060944922;-0.03618429;0.06430975;0.04808821;-0.017591996;0.04689367;-0.042026844;0.09259403;0.075187474;-0.040367447;-0.099028476;-0.02834674;0.093226366;0.03944609;-0.09526728;-0.044484757;0.022963725;-0.008809651;0.005581477;0.09914704;0.09443555;0.014889318;-0.042153813;-0.06459084;0.007588473;0.059778325;-0.0035875416;0.034560483;0.051827185;0.050466307;0.10170278;0.093492456;-0.09528585;0.09886639;-0.12674461;-0.11897674;0.06334959;0.07910569;-0.041929428;0.20766236;-0.047102503;0.03258806;0.008670546;0.013082955;-0.012226171;0.031145114;-0.03971392;0.07395237;0.06757891;0.0561586;0.10405543;-0.03386022;0.059497423;-0.009200419;0.06964944;-0.05214065;-0.05603169;-0.028050495;0.055243064;-0.050090116;-0.026211869;0.02178049;-0.076916784;-0.0763425;-0.045529388;0.036447003;0.035046477;-0.036545664;0.019133478;0.02578553;-0.00872743;0.069801725;0.024703503;-0.030245839;0.16663429;-0.026414402;-0.055014394;-0.06553061;0.07113844;-0.08187478;-0.028283168;0.05528205;-0.08722461;0.034666687;0.098066226;-0.09648013;0.003140051;0.08935732;-0.018771708;0.08378263;0.14827803;-0.02259087;-0.06845708;-0.0017295256;-0.15027401;0.026852492;-0.023080839;-0.06926336;0.07667843;0.041454982;0.07590679;0.06366315;0.10372076;0.03888152;0.059704952;-0.03292044;0.052390385;0.100343555;-0.006459601;0.10713568;-0.10439955;-0.12597352;0.03396367;0.0078351;-0.07598431;0.017470373;0.05100484;-0.06819471;0.0342151;-0.0019571974;-0.12143303;-0.013737054;-0.046152588;0.10275955;0.112216376;0.066938095;0.1654337;-0.016423658;-0.05376283;-0.056462433;-0.06319688;-0.12645951;0.04756991;-0.013027312;0.045324307;0.03397561;-0.16805632;0.050984155;0.047209315;0.020588808;-0.0016355934;0.025867928;-0.043030843;-0.040620606;-0.01816493;0.037703276;-0.083886266;-0.009935199;0.19118342;0.038369976;0.10289013;-0.050056506;-0.030352373;0.02378638;-0.029374078;0.0863101;-0.026734928;0.039208274;0.00839698;-0.08036636;0.025953459;0.03495126;-0.035715207;-0.055014152;0.08139047;0.10840259;0.032125343;0.058214508;0.079284586;-0.033922795;0.0037327826;0.16852373;-0.008573668;0.0892139;0.070755534;-0.0073032947;0.034116972;0.057442598;0.039050967;0.009485502;0.0329021;0.0040142653;-0.16275969;-0.083176;0.023263557;0.0072111594;0.07943732;-0.16541506;0.08857763;-0.01698519;-0.06293166;0.025102919;-0.15939745;0.10274228;-0.08065802;0.05963222;-0.02017626;0.041998718;0.08064438;-0.06852056;-0.02168283;0.10020808;0.014922362;0.039273664;0.032525092;0.03892175;-0.08806222;-0.03153127;0.15261094;0.014553297;-0.009589117;0.07888511;-0.11125915;-0.11763809;0.12839049;-0.053733386;-0.00034891322;0.013308372;0.05047116;-0.0820739;0.10587683;0.039547335;0.014372137;0.02613062;-0.10600794;0.032942157;-0.007604142;0.035220023;0.07518266;0.061313406;0.07880261;-0.16301788;0.04351215;-0.03938777;-0.12217176;-0.026308598;0.042604785;0.0766636;-0.0030710276;-0.09066882;-0.15433782;-0.10098261;0.036533874;-0.0022629222;0.03045316;0.022641955;-0.06771597;-0.012698317;-0.03135107;0.21412337;-0.16210793;-0.028743414;0.026532082;-0.08134726;0.06270509;-0.082911685;-0.012691037;-0.0003118772;-0.028536482;-0.034020025;-0.0015431244;0.053483997;-0.0687946;0.09697539;0.0047725495;0.044156387;0.07759819;0.0042331964;-0.026869047;-0.03042136;-0.018892227;-0.060187984;0.06752965;0.04292483;0.05036284;0.024857601;0.08494913;-0.009144379;-0.027297266;0.09103484;-0.04728967;-0.0040012384;0.027685232;-0.0392272;0.0765105;-0.07032724;-0.0053726225;0.071523875;-0.036883708;0.097203456;0.008005036;0.08358776;0.07439849;-0.003493207;-0.042844888;0.04944549;-0.10909497;0.048764247;-0.08627078;-0.09865025;-0.026517604;-0.07653095;0.018666273;-0.2984574;-0.004871007;-0.03385747;0.023592232;0.09321775;0.010381047;-0.007073341;0.019173872;-0.047069047;-0.05860464;0.01088516;-0.006416076;-0.0033626785;0.06980049;0.067393765;0.011351247;0.037121374;-0.10392972;-0.049743447;0.027440116;0.0039800755;-0.038626947;0.014508651;-0.085578464;0.07199398;-0.068842076;0.14111939;-0.031861365;-0.12786922;-0.16363485;-0.02532609;0.0765843;0.06650646;0.061084226;0.07244585;-0.06611224;-0.11494054;0.017453343;-0.06845714;-0.016844105;0.08714132;0.07528127;-0.07271685;-0.00031658701;0.046836566;0.091521956;0.010747971;0.19064339;-0.06633563;-0.0012215786;-0.051337663;-0.061294354;-0.18280073;0.052439924;0.047355823;-0.043749433;0.074906394;-0.07605377;0.01776624;0.108759165;-0.07760531;-0.01140781;0.014055724;0.035041366;-0.02771502;-0.21697916;-0.09753378;0.063041516;-0.0010503045;0.15880994;0.037142433;-0.02033835;-0.07543207;0.043189514;0.1262937;0.0058432487;-0.04414982;0.1159434;-0.1448144;-0.018762289;0.082358986;-0.019618778;-0.1551166;-0.00694135;-0.005180259;0.06723299;0.23834237;0.010332866;-0.08699429;0.008028766;-0.020265482;0.14466481;0.071264595;-0.032010898;0.039439254;-0.07288582;-0.05317063;0.031385053;0.033537872;0.04400661;-0.04389556;-0.04296288;0.024537647;-0.01019492;0.016319431;-0.010292264;0.027380796;0.045175966;-0.0056083654;-0.054959428;0.07969353;0.13723853;0.005018854;-0.054126497;0.045092136;0.13463137;0.05330222;-0.030248612;0.052737724;-0.15149729;0.1444948;0.043198276;0.15507318;0.059787404;0.057595126;0.109549135;-0.09427334;0.06475069;-0.042273156;-0.06843893
0.20677304;-0.27325812;-0.03985795;-0.08005228;0.08724541;-0.028629294;-0.059703805;0.011067336;0.07758419;-0.13116123;-0.03937469;-0.114098184;-0.054003283;0.07163078;0.023967104;-0.023933677;0.019144768;0.09897315;-0.003997726;-0.19268948;-0.24203786;0.19664828;-0.06790094;-0.092244916;-0.09927612;0.06387243;0.035836596;-0.018478137;-0.0275552;0.117097035;0.005300561;-0.025779655;-0.027118914;0.055608466;0.045770627;0.021275258;-0.022111317;0.0071878075;0.011931851;0.05788245;0.024551893;0.07329749;0.024680184;0.14322722;0.13254492;-0.037952926;0.06234887;0.031791683;-0.058636494;0.073836334;0.031076634;0.08729865;-0.086060226;-0.034710743;0.084952414;-0.096633315;0.10805529;-0.065634675;0.027141294;0.09310086;-0.07324711;0.06504984;-0.29343447;-0.030158376;0.06300309;0.07983412;0.059062287;-0.03207353;-0.0727239;0.053690072;0.01299591;0.018627241;0.077200785;-0.008006109;-0.18183438;0.0008303816;0.05904323;-0.06573456;-0.03688072;-0.039035298;0.15626039;-0.017998235;0.02983489;-0.041399654;0.026499867;0.101906896;-0.067461304;-0.020591903;-0.040650055;-0.04173393;0.034504704;0.101413004;-0.0350931;-0.07287743;0.09070932;-0.066707276;0.15348554;-0.06324235;0.020839084;0.019505968;-0.021734826;-0.042405624;-0.08570967;-0.018152187;0.03537193;-0.11226378;0.01801012;-0.07278193;-0.12012861;0.0365773;0.036602408;-0.046255358;-0.02424744;0.06927591;-0.086248696;-0.045042932;0.0399454;0.059647392;0.030499412;-0.03460069;-0.08548835;-0.07213701;0.05867761;-0.07482664;-0.08981458;-0.012999038;-0.3316787;0.0030812316;-0.090056166;0.026487932;0.037246548;-0.02208154;-0.006340503;-0.02128443;0.020358553;-0.012009274;-0.09119135;0.03631974;0.100699216;0.08024086;-0.013158877;-0.14743073;0.17299557;0.09071181;-0.013410324;0.0037435812;-0.00042889634;0.024322292;0.23247689;-0.067408316;0.07191482;0.102321595;-0.10551672;-0.10908647;-0.056443073;0.13919194;0.11648987;-0.04860487;0.038242895;0.16181329;-0.01883168;-0.03339268;-0.034906164;0.18747275;0.07904627;-0.10107195;0.0353048;-0.017298222;-0.036076248;0.08890654;-0.2159147;-0.02174091;-0.060136214;0.05119563;0.051334016;0.07763114;0.28618953;-0.25067264;-0.15391043;-0.10180464;0.12983356;0.044860687;0.11251453;0.017240202;-0.023936996;-0.08650624;-0.044369854;-0.12267274;0.040069737;0.03345334;0.24223435;-0.016379353;-0.061595798;-0.00924936;0.12258726;0.089740716;0.062217887;0.064684235;0.04705797;-0.0077060075;-0.057619005;-0.10051151;-0.017492495;-0.0034633388;0.063390404;-0.09898996;-0.14475675;-0.0592638;-0.116687454;-0.036048155;0.09418325;-0.0384923;0.03656335;-0.005262925;0.071222246;-0.0050389622;-0.028521117;0.18949397;0.11326834;0.022770448;-0.010851734;-0.054799598;-0.0695128;0.0681754;-0.06718198;-0.02526812;-0.068657935;-0.04428578;-0.037641652;0.103819504;-0.054006074;0.08036417;-0.081306584;0.08042662;-0.0049528824;0.008093886;0.0057779;-0.14925538;0.16681236;0.11411583;-0.010063584;0.0016364302;0.07673946;0.2944976;0.017233774;-0.049144886;0.060331225;0.02148292;0.024261774;-0.05041999;-0.008739988;-0.034026135;-0.06631873;-0.14914444;0.014658505;-0.018324455;-0.028403837;-0.06018324;0.1288694;0.016086122;-0.026364557;-0.027948342;-0.0019660336;0.053770963;-0.071628824;0.0052748704;0.07209577;0.17166556;-0.08650451;0.045286577;-0.0221589;0.056044374;-0.024517706;0.023023587;0.03876165;-0.00695378;0.031608295;-0.03575427;0.06334074;-0.009944515;-0.051022537;0.07506024;-0.038950246;-0.010341713;0.031398833;-0.045620736;0.043795645;0.057924844;-0.020048523;-0.030569589;0.07230422;0.033171877;-0.04108084;-0.0121771265;0.11447525;0.13662875;-0.031974893;-0.056923814;-0.023627788;0.11164499;0.034634575;-0.037239425;0.0020393687;0.001888789;0.06358606;-0.06333191;0.086388715;-0.07214458;0.12770176;0.047929723;-0.037238687;0.0128517;0.07496008;0.050386358;0.22467883;-0.060460478;0.113659784;-0.021172144;0.027625369;-0.06241405;0.018778494;0.16328804;-0.002977531;-0.10220621;0.11360825;0.034903493;0.0531874;0.0015711085;0.019533435;0.009963844;-0.058073983;0.1417138;-0.042866647;-0.06680616;-0.05535981;0.054390214;0.20479809;0.029376436;0.050515853;0.025304537;0.0541709;-0.0068052164;0.022192216;0.13871968;-0.04274439;0.08170927;-0.062405527;6.754501e-05;-0.04019734;-0.1076552;0.046763286;0.2803794;0.095870055;0.022277437;-0.01629967;0.049360257;-0.11242447;0.24766798;0.034892704;-0.046791624;0.048261713;-0.040477216;-0.22160022;0.11744997;-0.029697848;-0.09536973;0.015100129;-0.10672099;0.024155699;0.15515834;-0.012386116;0.022862608;-0.01710945;-0.020450804;-0.062962465;-0.019159717;0.048562188;-0.06582819;0.012664808;0.057646126;-0.06152665;-0.019472938;-0.03980778;-0.09316477;-0.016886113;-0.09249799;0.02363607;-0.08597679;0.120819636;-0.03314234;-0.0049983943;0.045659952;0.15020919;-0.055751227;-0.018039122;0.023476599;-0.05322641;-0.021876263;-0.056807138;-0.050728552;-0.045766108;-0.0836703;-0.083232746;0.07209731;-0.119616844;-0.05944903;0.027612444;0.047032636;-0.090167;0.098622076;0.03153474;-0.026920587;0.022972994;0.084209114;-0.002922654;-0.059421152;0.14044414;0.042380374;0.068224326;0.13161981;-0.025659157;0.2267431;0.05439107;-0.023876125;0.058796782;-0.061856505;-0.10674254;0.036982276;-0.14214244;0.018411765;-0.010575198;-0.14319994;-0.046671253;0.25405553;0.14166857;0.06194965;-0.022381565;-0.09187083;0.031198252;0.115775675;-0.048607234;0.022286857;-0.03210393;0.13515538;0.033711385;0.038280793;0.031289775;0.007176816;0.025331205;-0.11335653;-0.08551676;-0.07002331;0.18088956;0.014856319;0.050755534;0.07687814;0.07771171;-0.084744416;-0.0053324467;-0.0604622;0.050462425;0.097260974;-0.035163138;-0.062003333;-0.04050408;0.054662682;0.0057587232;0.08939836;0.16240337;0.026124176;-0.060102277;0.03250044;0.031834837;-0.06808361;-0.083335884;-0.07292751;-0.011078249;-0.021769226;-0.027233038;0.05477203;0.025231745;-0.0033969686;0.04939126;0.00837501;-0.15469562;0.041215423;0.014616633;-0.031022983;0.10613688;-0.026074886;0.011254849;-0.058697894;-0.11764527;0.05807913;0.06604587;0.14196512;0.06024209;-0.09911265;-0.20557357;0.029414242;-0.027943468;0.08208492;0.02587211;-0.035112496;0.06738607;-0.04294624;-0.057780538;-0.0049853874;-0.0018857309;0.11207572;0.055835694;-0.06662599;-0.09636245;0.050396502;0.038399685;0.18510608;0.07510556;-0.054288406;-0.19309168;0.056928925;0.044112753;-0.025760846;0.024374045;0.0382601;0.062212445;0.043046154;0.11295917;-0.024315355;-0.11722231;-0.037912082;0.009834365;0.007183533;0.2437886;-0.07119059;-0.047950868;-0.12559316;-0.012738225;0.18209764;0.0006104929;-0.082924485;-0.054897428;0.038794518;0.06217202;-0.11859039;-0.06060362;0.015185778;-0.087932065;-0.078076884;-0.038988817;0.04593048;0.09064925;-0.0252523;-0.07975967;-0.06440324;0.0002607053;0.00018172097;0.2646706;0.06242297;-0.012945025;-0.055217914;-0.06809496;-0.027393185;-0.01714024;0.005368969;-0.012472102;-0.16637947;-0.05770004;-0.08998011;0.005147227;0.02697902;0.005877772;0.1106342;-0.0007033715;0.06262805;-0.3382679;0.07380932
0.16110015;-0.03573935;-0.0783432;0.08318664;0.12963885;-0.034856383;-0.0041033104;0.07883736;0.05759463;-0.0026398783;0.024187554;-0.06970973;0.087670766;-0.009092156;0.06677072;0.049131986;0.15593499;0.07644277;-0.07108788;-0.0018851969;-0.059586436;0.12503983;0.006307409;-0.09905909;-0.0693228;0.042556386;-0.08333687;0.1123065;-0.007026309;0.11255221;0.03506803;-0.04508364;-0.054183908;0.05019785;0.10482552;0.029928954;-0.09617109;0.024339737;0.054917343;-0.035859745;-0.06900714;0.01932792;0.16060033;0.09670078;0.07965574;-0.04273126;0.0071303803;-0.018888675;0.062436864;-0.029442972;-0.09387941;0.15798314;-0.031903926;0.03616159;-0.013789544;0.090257205;0.020549139;0.060459405;-0.010268734;0.169488;0.049296252;-0.072239265;-0.08890322;0.0030228877;0.049624447;0.07943618;0.018610604;-0.06940735;0.042867765;0.022902306;-0.019151846;-0.040352978;-5.4735647e-06;-0.071003824;0.09490625;-0.13534209;-0.024173323;0.05655632;-0.12065448;-0.07977692;0.0973006;0.10853662;-0.02492868;0.0028411327;0.050979067;0.07905228;0.039342362;-0.042564116;-0.12683806;0.028330294;-0.07299142;-0.04173062;-0.08508659;-0.11028244;-0.01735888;0.049023576;0.17262314;-0.03547932;0.01983725;0.061745774;-0.018221358;0.02997797;-0.069536686;0.0378914;-0.04211335;-0.15317662;0.042571403;-0.011886596;-0.02105437;0.036656037;0.029815814;0.059096064;0.061930142;0.17484406;0.005068184;0.05725553;0.0016520757;0.020835254;-0.028046891;-0.053900436;0.026166247;0.018058449;0.020531636;-0.027722798;-0.047013015;0.02038227;-0.024137456;-0.059387837;0.043290284;0.12399095;0.028239723;-0.0016366566;-0.08854144;-0.09340066;-0.011166383;-0.02253602;-0.13327254;0.08505297;0.05783917;-0.121943586;-0.08586504;-0.116645224;0.07514182;-0.021709632;-0.06466667;-0.03289599;0.064312294;-0.02340191;-0.07955761;-0.06765231;-0.034619246;0.042963102;-0.065386094;0.06852484;0.08574719;0.013937061;-0.080164045;0.049045373;0.07308129;-0.047543455;0.019624284;-0.0779649;-0.055064693;0.13270004;0.21974918;-0.0028392663;0.03370067;-0.009856424;0.11040348;0.0022372562;0.105433755;-0.07231795;0.020775028;0.0016333953;0.036633298;-0.023617005;0.21366812;-0.018236872;-0.16488528;0.04931301;0.16828953;-0.02442362;-0.02930727;-0.09602405;-0.06377744;-0.12523331;-0.11868675;-0.056543387;0.04310025;0.06502564;0.07093805;0.06058339;-0.033748254;0.017392859;0.077585556;0.040403284;-0.003940589;-0.046590436;0.04731329;0.008688505;0.03506157;-0.04487882;0.0019485203;-0.06584743;-0.06424256;-0.089569435;0.013069351;-0.24801454;-0.05305429;-0.046329517;0.00927246;0.068987705;0.049003888;0.057695463;0.05033082;0.0018689056;0.06977822;0.12465514;0.059799135;0.05366153;0.09027146;0.07124574;0.004975121;-0.033999678;-0.051495887;-0.06904942;0.11026434;0.022391165;0.06735303;0.10230019;0.061762765;-0.11950815;-0.030666267;-0.04089388;-0.0015343897;-0.028134143;-0.059096754;-0.08854776;0.08731915;0.19980176;-0.039271697;0.07004186;0.038945172;0.18936661;-0.010654047;-0.06974076;-0.020096868;0.040491898;0.083000116;0.021895075;-0.013976189;0.08682026;0.070087165;-0.06004928;2.56694e-05;-0.023743786;0.05866788;-0.037816755;0.065330796;0.012037678;0.10454895;-0.09182347;0.040213306;0.0127365645;0.053116504;0.04939913;0.007767618;0.001470067;-0.04328085;0.027655888;-0.004731575;0.08395832;0.05348666;0.08128989;-0.23514861;0.029298767;-0.008018007;-0.023630515;0.006276233;-0.050250743;-0.07267483;-0.00018529054;-0.013379768;0.031538937;0.0023799129;0.034719627;-0.035895526;0.032878924;0.046211243;0.04937693;0.15766491;-0.03681383;-0.020592205;-0.024185548;-0.0051502325;0.034623224;0.0864784;0.13235092;0.029222574;0.010277499;0.017746886;0.019368934;-0.06794825;0.0664061;0.09542672;-0.009552558;0.012642054;-0.11343482;0.060828123;0.026114928;-0.06590498;0.10044523;-0.040312488;0.037479583;0.26713818;-0.18255481;-0.04912981;-0.023632048;0.09219076;-0.14688432;0.058618233;-0.0007082932;0.07833461;0.0037263024;0.05532015;0.06851869;0.03648478;-0.029719526;-0.07747345;0.023359554;-0.09802518;-0.04012785;0.01058061;0.036610384;-0.048933886;-0.067524284;0.189438;0.012930802;0.048086073;0.049034543;-0.0763582;-0.0102287885;0.06439764;0.24590291;-0.09683023;0.034627773;-0.07704344;0.09181395;-0.0038818785;0.025412058;-0.060716625;0.09123537;0.033299413;-0.0366009;0.016081003;0.05065649;-0.082794726;0.25233203;-0.24285944;0.013717917;0.06532167;0.080069385;-0.12229266;0.14917447;-0.07496511;0.048793692;0.0066443183;-0.04488804;0.0483739;0.06215531;-0.06300257;0.05774652;-0.03280354;-0.083620526;-0.09995303;0.02768087;0.10313463;-0.004892001;-0.020349387;0.05849129;0.027355462;-0.027409129;1.1583194e-05;-0.15984997;-0.05602921;-0.03552743;-0.083743066;-0.024640363;0.024859602;-0.02061603;0.086830884;0.06892849;-0.013793072;-0.2370495;-0.103734486;0.033124413;-0.07310267;-0.0013035572;-0.06163705;0.023519054;0.0569337;0.05084406;0.048150565;0.14604488;-0.055933874;0.108600445;0.056960307;0.022793656;0.011578788;-0.041878577;-0.0092682205;-0.06492841;-0.07471759;-0.0011822555;0.032739583;-0.02526994;0.04662487;-0.06565618;0.118186675;-0.041712765;0.10934295;0.04606638;0.041562837;0.00015093677;-0.032258235;-0.08669582;0.04441344;0.08404624;-0.10550162;-0.017835764;-0.0023917502;0.06996084;-0.016480295;0.14658356;0.004285716;0.032614358;-0.027602173;0.011909858;-0.023823123;-0.015678791;-0.024192508;0.115522884;-0.04518981;0.18472166;-0.013345993;0.08302998;0.15202244;0.03667906;-0.0022421;-0.22625549;-0.0067126015;-0.059461623;0.06392749;-0.040802572;-0.1408739;-0.097271875;-0.053393196;0.02725254;-0.033928808;-0.0059739165;-0.08318874;-0.012808769;0.010096493;0.010296362;0.037299663;0.0042342907;0.107391804;-0.13915603;0.09305571;0.038973067;0.024613775;0.0896394;-0.050572112;0.0042057335;-0.003087568;-0.0026782101;0.051529523;-0.021227475;-0.03866213;0.0092158895;0.017495573;-0.0762908;0.011176175;0.048383787;-0.21057023;0.053030156;-0.019550577;0.06526438;0.14558245;-0.010275652;-0.029336916;0.02162051;-0.07366769;0.045067824;-0.008626233;-0.053122677;-0.04911309;0.10177162;-0.15457009;-0.050367434;-0.09303128;-0.0047411816;0.010338673;0.060908705;0.008230689;-0.02265094;-0.0064326446;0.044024285;0.038240895;-0.07466863;0.010828002;-0.06418322;-0.04535684;0.09407461;-0.040781677;0.13842836;0.06985292;0.03768393;-0.18953642;-0.001846064;0.09294884;0.027080424;-0.06513033;0.07706411;0.054007344;-0.033111766;-0.07909034;0.014873687;-0.06292306;-0.033955842;0.032751936;0.092599034;0.2630026;0.017466389;0.04524886;-0.1264864;0.07006628;-0.007198115;0.116744116;0.06958544;-0.023809344;-0.009289498;-0.119334795;-0.09383;0.00088094146;0.06028295;-0.055931725;0.051750813;-0.12164786;0.10831766;0.0055992934;-0.04777329;0.14099842;0.028684516;0.002642408;0.048339155;0.15471189;-0.0015189725;0.08679158;0.050058093;-0.007966393;0.016751911;-0.020679314;-0.023548627;0.023875136;0.02201252;-0.044510797;0.040918753;-0.07253965;0.10034936;-0.06268869;0.017741507;-0.009642514;0.029265873;-0.18340062;0.06211349
0.27581254;-0.03923636;-0.04607036;0.024764793;0.12775902;-0.06586723;-0.022448437;-0.00015495364;0.07977001;-0.081811436;0.01239284;0.021111311;-0.08693762;-0.003985325;-0.007119564;-0.055798143;-0.09732856;0.09995645;-0.096499994;-0.021790158;-0.14530523;0.03747149;-0.03515072;0.05234264;0.024898417;0.12356417;-0.035791673;0.010491443;0.027196456;0.2396195;-0.011339963;0.02324393;-0.074610345;0.081572756;0.03211893;0.17327891;0.05904851;-0.06977361;0.048739094;-0.06552984;-0.037530035;0.15063767;0.00070055027;-0.0033715295;-0.008660053;-0.06965793;0.11370704;0.10598202;0.06408447;-0.09042763;0.03797047;0.2041369;-0.007301;-0.13505848;0.03122337;0.09544303;0.1252751;-0.022935526;0.08126187;-0.017813541;-0.037965488;-0.010720408;-0.13114189;0.043973923;0.105622604;0.065806895;-0.07220239;0.0717348;-0.04848647;0.097200125;-0.0067263967;0.096798874;0.16228364;-0.021712089;-0.015143192;-0.018793937;0.06856745;-0.023516193;-0.039072506;-0.051929455;0.075819895;0.074372984;-0.11541333;0.057649106;0.15202482;0.056196813;0.058147855;0.06172909;-0.043295607;-0.11803921;0.03353305;-0.08878895;0.0031842573;0.019780055;0.085336834;0.021388164;-0.12138951;0.033260737;-0.04308301;-0.07414496;-0.19367607;0.0020712619;-0.049024694;-0.023502996;-0.03466693;-0.10734285;0.066894874;0.03420152;0.12371911;-0.010513673;0.06536712;-0.061189692;-0.013802981;0.03322169;0.01949612;-0.06994436;-0.05849641;0.09390586;0.024746075;-0.02496454;0.09300234;-0.039782245;0.032639284;-0.014865761;0.050465405;-0.148292;-0.13283522;-0.051182676;0.0028872995;-0.06629197;0.07495489;0.10139723;0.040666144;0.047457572;0.09383869;-0.0030525867;-0.1312059;-0.08574976;0.01559535;-0.095890485;-0.05692427;-0.016761076;0.0155102275;-0.034657855;-0.06772464;0.04307761;0.044829763;0.029525843;-0.17861398;-0.04562345;-0.03646199;-0.08096693;0.03282892;-0.09290017;0.030213583;0.0045744176;-0.0036441372;-0.030570276;-0.009939585;-0.013060857;-0.039449725;0.0041770977;-0.034934815;0.2750603;0.12113996;0.03171837;0.0636079;0.07817323;-0.037406255;-0.004138457;0.13691579;-0.025789905;-0.0437116;-0.012053553;0.0037293232;-0.04135543;0.0536829;-0.04896266;-0.0135019375;0.056752592;0.10007288;-0.013619881;-0.0064338804;-0.11699585;0.027482815;0.0030801275;-0.20854709;0.0075792004;-0.058922775;-0.009284946;0.092963494;0.083296284;-0.023474565;-0.04115446;0.04052167;-0.10126088;-0.0039384677;-0.025014158;0.05874727;0.08839473;0.026348926;-0.023085793;-0.056878258;0.08413612;-0.05231;0.08996737;-0.056540493;-0.095695585;0.023513835;0.007083176;0.044885308;-0.017321;0.02363684;0.06584104;-0.0065014972;0.07382949;-0.0021103143;-0.026927132;0.031974323;0.096503675;0.090161495;0.06506748;-0.11296996;0.00015973089;0.019962166;0.027860576;-0.03526478;0.10736264;0.023105374;0.119015336;0.0048397854;-0.015988274;-0.09859021;0.07772764;-0.08968963;-0.15585971;0.06004369;-0.021584027;0.07795945;0.017126705;0.07066864;-0.024156028;0.004216984;0.20266952;-0.04269008;0.049284395;0.044495534;-0.09259133;0.076501615;0.01958493;-0.03990989;0.09349614;0.018382626;-0.12542076;0.09302685;-0.021288797;0.07523378;-0.0033352976;-0.052409623;0.011890775;0.16392158;-0.0063146413;-0.006346293;-0.102837496;0.021826694;0.049944058;-0.028963177;-0.036215354;0.05520723;0.17371845;0.082067564;0.14936548;0.015342061;-0.012759614;-0.26136634;-0.10959695;-0.050101828;-0.08982897;-0.07842522;0.07243244;-0.1023824;0.15509596;0.013114653;-0.0052986904;0.016081678;0.10782759;-0.011387136;-0.009102114;-0.06455494;-0.07386231;0.034909986;0.057657126;0.10058655;-0.023887841;-0.021616548;-0.11361746;-0.06337937;0.16269407;0.17446826;0.027659867;-0.011686622;0.015007516;-0.09203545;-0.032585386;0.047593683;-0.13317282;0.0254109;-0.060113493;-0.07798313;-0.10445815;0.04925425;-0.038757373;-0.07604779;0.04150134;0.29388687;-0.017238943;0.06227616;0.04232628;0.09160003;-0.075956695;0.031610746;-0.10902181;0.022373125;-0.0051342095;-0.05367776;-0.12456093;0.034408726;-0.0069274805;-0.07879674;-0.061500903;-0.081422225;0.0606174;-0.08866293;0.016224945;-0.1210959;0.059902426;0.16296612;-0.030616513;0.12139865;-0.029234806;-0.029844994;0.09035136;-0.033141084;0.11162659;-0.044415276;-0.0059673735;-0.055221833;-0.07184787;0.070985794;0.044128723;0.017978579;-0.024795383;0.09626906;-0.025092218;0.009415898;-0.061300926;-0.0335942;0.28447235;-0.32194248;-0.06589423;-0.019531175;0.040462982;-0.059557755;0.11317875;0.008360385;-0.0030416537;0.031638518;0.09717067;0.07507722;-0.099795446;0.07166685;-0.02217034;0.058027647;0.017723033;-0.1891705;-0.041952156;-0.035844963;-0.04222008;-0.0886947;-0.003129916;0.10088535;-0.07625532;-0.13753608;0.05816237;0.04080849;-0.015792629;0.11542569;0.020142537;0.06831892;0.058505036;-0.0662466;-0.028140206;0.23415858;-0.11544981;-0.14470308;-0.07975333;-0.021826535;0.054932486;-0.021176122;0.007329332;-0.034391597;0.044671968;-0.01586255;-0.029470641;0.0012876848;0.071085684;-0.047959574;0.06917012;0.10100247;0.09233681;-0.00014159191;-0.011893318;0.007409132;-0.022371132;-0.16664095;-0.04759822;0.060551465;-0.032010693;0.050485767;0.04974218;0.057498686;-0.021487217;0.0030752828;0.07023661;0.014338528;-0.052803315;-0.047082566;0.08570107;-0.15190676;-0.018348437;0.044571403;0.25293043;0.09393387;0.13181946;-0.07363094;0.107603006;0.050731026;0.065444745;-0.105201304;0.18677495;-0.021052945;-0.007465559;-0.16721372;-0.10501387;-0.08358156;0.1273546;-0.0051659914;-0.05252221;-0.0523565;-0.2313081;-0.011297824;0.037263833;0.08038668;-0.021494664;-0.06488656;0.046572518;-0.10224612;-0.026558626;0.08099206;-0.057586078;-0.010858786;-0.026884949;-0.08613391;-0.0071993847;0.008277845;-0.010191142;0.0022252658;-0.017780317;-0.11058806;-0.008745956;0.12127449;0.051546346;0.24200158;-0.09543101;0.028077012;0.13636427;0.11573379;0.07714232;-0.036769584;-0.11924821;0.048572563;0.014218313;-0.119199485;-0.029486606;0.00535021;0.062886976;0.06753762;0.12375221;0.111141354;0.04116236;-0.044201437;-0.08078466;0.024707831;0.08656977;-0.03401404;-0.031714357;0.053411476;0.061274946;-0.23150621;-0.02493137;0.007830993;0.03995116;-0.02878062;-0.0075935535;-0.07500905;-0.0075603887;-0.00063072075;0.0354385;-0.02664118;0.05269526;0.03524503;-0.1129174;-0.04402065;0.15492;0.050685253;-0.0039781937;0.024519425;0.117335275;-0.013623333;0.09100608;0.050396126;0.11073863;-0.0033914237;-0.046218093;-0.04344418;0.061413094;0.106514834;-0.08394068;-0.03183006;0.030563911;-0.02666278;0.06667374;0.24836563;0.28381994;0.10175856;-0.16639495;-0.02067169;-0.06927842;-0.04180586;0.028609255;0.06201023;-0.0024284644;-0.1142767;0.0024311808;-0.013241233;-0.025480915;0.026250029;0.053385094;-0.09821639;-0.02935769;0.030771725;0.05341216;0.25054273;-0.029954214;-0.0405507;-0.0033544796;0.2129506;0.03244705;0.049616165;0.096363865;-0.06475458;0.16930595;0.062017057;0.03741302;0.038321443;0.07793114;0.10025119;-0.0581018;0.06980654;0.09289105;-0.020417597;0.10777485;-0.049939793;0.018659182;-0.20737568;0.038011327
0.112178296;0.1629525;0.08071217;0.123974204;0.028578734;0.01790765;0.12547456;0.008142168;-0.07178076;0.103966795;0.07345421;0.009439068;0.09852945;0.009777528;0.049402162;0.08060692;0.07622573;0.04173379;0.069098264;0.100269206;0.064192206;-0.07745696;-0.043890312;-0.057919253;-0.20321953;0.1240459;-0.027701795;0.16495425;0.065978415;0.22875692;0.119197205;0.12080383;0.005183716;-0.03340623;0.13413107;0.13685697;-0.069712855;-0.06986869;0.06738718;-0.09652126;0.053317092;0.12755363;-0.06924496;0.098837644;-0.06613467;-0.111768454;-0.08588337;0.045060784;-0.0060531404;-0.046166785;-0.07703181;0.09345507;0.012796846;-0.031687725;0.05594439;0.015806759;0.06986333;0.06276077;-0.050634988;0.091856435;0.05044677;0.11216892;0.01667716;0.020634523;0.016715176;0.104809366;0.049554612;-0.043428224;0.14073886;0.008750693;-0.03878854;-0.03198539;0.13728492;0.060821347;0.14013617;0.06768684;-0.038381893;0.021037351;0.054554656;0.09681625;0.020515338;-0.020009726;-0.018110957;-0.014564885;0.044552036;0.012531283;-0.073505215;-0.050316274;-0.09629643;-0.076713905;-0.032680344;-0.09848866;0.01743711;0.04618204;-0.06754475;0.02178222;0.059630804;-0.012176011;0.09302774;0.036035627;0.02062483;-0.072496116;-0.028441882;0.07983287;0.015095734;-0.005474772;-0.015539089;0.07279984;0.06292252;0.07489407;0.075468704;0.06542005;-0.030538155;0.14933725;0.062467713;-0.026197946;0.0011979116;0.015138916;-0.008864932;-0.061128613;0.11022845;-0.027925057;-0.004032706;0.07357181;0.06738996;0.16867216;0.12564713;-0.02564942;0.0909726;0.12722537;0.12426839;0.15038826;-0.0007009292;-0.0128973555;0.048298933;-0.0620132;0.046984177;-0.048171278;-0.07985256;-0.25371906;-0.06317687;-0.16220012;0.16874808;-0.077024244;-0.016674334;0.049994476;0.08257705;0.018124137;-0.015546746;-0.041971073;0.028991833;-0.022411466;0.051272858;0.090429716;0.07388831;0.0625228;0.036870033;-0.0571022;0.07477996;-0.100765236;-0.0703649;-0.08803856;-0.038620543;0.19329284;0.1526307;-0.089181215;-0.08580952;0.009927748;-0.050121915;0.015930152;0.14768077;0.069459476;0.029812036;-1.8755723e-05;0.07914158;0.013746726;0.1308559;0.037056826;-0.04247616;-0.015891092;-0.060706746;-0.039779086;-0.026630178;-0.022224307;0.032501172;0.146598;0.042912856;-0.11341982;-0.0027573162;-0.046767432;0.078108795;-0.0382919;0.006654524;-0.032189146;0.06448461;0.027296836;0.056456488;0.0544203;0.026450133;0.057057306;-0.09561657;0.08060147;0.03309412;0.012336656;0.07283624;-0.034407675;0.072439864;-0.28702378;-0.042871527;-0.010728296;-0.06589931;0.0937891;0.10197044;0.07522386;-0.052961886;0.0788863;0.013712469;-0.13889949;0.13650036;0.1267666;0.0020245493;0.02170782;0.0019206274;0.0019543397;-0.021501668;-0.04122046;0.1337417;0.020894758;-0.083257705;0.05522168;-0.08531356;-0.10127466;-0.14186448;-0.02546099;-0.061269723;-0.04019993;-0.023055345;0.1266602;-0.004321916;0.009111554;0.0034734742;-0.036201533;0.05780819;0.1203192;-0.018388337;0.07800295;0.079776905;0.049273234;0.10931084;0.045796074;-0.013689046;0.07300631;0.09149578;-0.12901008;0.04654309;-0.04895981;0.029713767;-0.0060757934;6.94315e-05;0.014493432;0.032953512;-0.025543628;-0.058100685;0.042209912;0.019214485;-0.089041546;0.0232977;-0.015684979;0.12990908;0.088485286;-0.02734102;0.17610392;-0.055114057;0.023138808;-0.37466687;0.08089627;-0.04433925;0.0315184;0.05908415;0.08913064;0.037615363;0.03928374;-0.014545455;0.030733548;0.084351406;0.017642938;0.028579654;-0.06402931;-0.04608412;-0.022118097;0.21360183;0.05058354;0.07816238;-0.06996111;-0.055083062;0.023588227;0.040805705;0.2749095;0.09961115;0.13999553;0.06624129;0.012238857;0.059595473;-0.023065932;0.055325042;-0.13862164;0.03811697;-0.18686046;-0.06477855;0.041953046;0.019279046;-0.030783575;0.017252611;0.124442756;0.15077478;-0.03171437;0.09772561;0.11412952;0.05431561;-0.037219565;0.023051653;-0.11809556;0.06340979;0.0030744334;-0.08820551;-0.19436984;0.07474971;0.058462627;0.0015811922;-0.109222606;0.057978205;0.09259459;0.099893056;-0.010457372;-0.07939625;0.028815491;-0.09980042;-0.10723936;-0.008960433;-0.016838586;-0.062181883;-0.059022263;-0.05359437;0.00880515;-0.100869894;0.025308553;0.08709398;-0.023313183;0.109551154;0.16947567;-0.24408326;-0.038440786;-0.044040516;0.012720513;-0.03298496;-0.12267757;-0.049758736;0.20253575;-0.3263694;0.052591763;-0.014043552;0.09094451;0.003033423;0.102643535;-0.041676335;0.077828355;0.07068013;-0.18926825;0.04196244;0.071345195;-0.04821775;-0.0066086585;0.0636049;0.07056363;0.012426926;-0.004718552;0.03208988;0.030626405;-0.040016457;0.06353718;0.04075581;0.009540369;0.039792545;-0.0786142;0.017852632;0.08952902;-0.051520385;-0.073937945;0.022824353;0.0050085047;0.026396515;0.036470193;0.12685505;-0.2242899;-0.0022689397;0.05577668;-0.1869639;0.040071394;0.04348666;1.5255535e-05;-0.057791412;-0.008557451;0.039935086;0.13565229;0.05688667;0.03438733;0.0054655303;-0.018176047;0.06509635;-0.015856648;0.0839923;-0.02474978;-0.026051795;0.07428051;-0.200771;0.08786244;-0.04463265;0.03232635;0.13565212;0.0040916097;0.1193863;-0.0821965;-0.09941593;-0.013866801;-0.067068666;0.06752263;0.07256396;0.05479089;-0.13915245;0.06791396;0.023354858;0.24825506;0.0008930359;0.1822772;0.008040254;-0.080754764;-0.04487912;-0.048163693;-0.023244852;0.13447422;-0.007022866;0.13153735;0.018546222;-0.028462563;-0.1286189;0.1589831;0.027743533;-0.0052578524;-0.009110436;-0.3263872;0.015163723;0.057090856;0.030644774;-0.034159645;0.056968804;0.0076347953;-0.013758678;0.13352102;0.053425472;-0.042471055;0.00850817;0.021717211;-0.01844804;0.009033275;-0.008278406;-0.03620525;-0.06018478;-0.14496592;0.005662596;-0.05097738;0.010047191;0.026384749;0.1542962;-0.04551121;0.00072700833;0.0011557478;0.07814992;-0.032458104;0.024728792;-0.03698694;0.016101014;-0.08285854;-0.12819074;-0.0583964;0.05134125;0.06231263;0.06551924;-0.03374682;0.09858728;0.07730096;0.02926032;0.14758426;0.11696187;-0.20227744;0.018582398;0.04884102;0.0349426;-0.047600538;0.029072965;0.095935084;-0.0067365523;0.0059058703;0.061765768;-0.032286875;-0.03182938;0.009137293;0.11005872;-0.06305881;0.06254896;-0.009326273;-0.00044872076;0.010257653;0.051750887;0.127241;0.03281307;-0.059971586;0.093569875;0.038103156;-0.13426484;-0.02076684;0.07876456;-0.051542196;-0.047583908;-0.07559898;-0.049648423;-0.00217797;-0.06685296;0.040391874;-0.11174493;-0.03908983;-0.035967615;0.11975393;0.19670221;0.09779496;0.07561148;-0.05689087;-0.0962254;-0.064053975;-0.0040367767;0.0629279;0.04643083;0.028034579;-0.08940538;-0.11341219;0.11303981;0.010979943;-0.019036734;0.06872001;-0.017694846;-0.016316531;0.09513972;-0.008684104;0.11219167;-0.036724214;0.087142095;-0.010345481;0.19870593;0.034506757;0.07860245;0.07597759;-0.04961351;0.11832485;-0.01832795;0.044849746;-0.03648881;0.04771464;-0.12998495;0.014315221;0.11364616;0.023203805;0.07583651;-0.02347846;0.00438663;-0.0095236255;0.053789586;-0.0808617
0.20251782;0.11316897;0.004923376;0.03072041;-0.046199653;-0.0631195;0.24485546;-0.11145635;0.05312009;-0.018735893;-0.08209604;-0.0026177694;0.050464794;0.05164454;0.030689202;0.02203691;-0.030389525;-0.04283058;0.13562676;0.15322602;-0.040841527;-0.06862366;-0.025188314;-0.0177567;-0.2218104;0.07319643;0.022223601;0.17079946;0.18176351;-0.111188926;0.054873638;0.1082343;-0.02268192;-0.0054636197;0.0342739;0.20970963;-0.09694228;0.05916319;0.05503476;0.03961333;-0.0032058067;0.06517508;0.033920877;-0.14429957;-0.092017755;-0.10091697;-0.004423733;0.020555632;-0.04246556;-0.087765805;0.0025903785;-0.010673217;0.043118812;0.010363871;0.005526323;0.06603431;-0.12833472;0.05644884;0.061462145;0.01434591;0.15801346;0.0770862;-0.072827235;0.03688796;0.005305876;-0.002193104;-0.013418183;-0.0618695;0.07100203;-0.067410216;-0.10078264;-0.035623133;0.24820437;0.05789589;0.16798976;0.021276575;0.006003411;-0.097541615;0.019254012;-0.119914934;-0.18326235;0.07213775;0.05085225;0.04788508;0.014083984;-0.004050064;0.041724883;-0.06064775;0.044265296;-0.10402616;-0.013948766;-0.1269957;-0.02670266;0.20416659;-0.07772434;-0.015044395;0.16240586;0.038775373;-0.0608068;0.039213922;0.11671593;0.077163234;-0.1047552;0.05807351;0.091715306;-0.02266162;0.05675151;-0.025675759;0.08978931;-0.045500305;-0.023094283;-0.01992967;-0.055643987;0.17243859;0.050433513;0.07439161;0.040767603;-0.049830824;-0.024379114;0.03979069;0.06905874;0.073011994;-0.07090281;0.09322805;0.019344047;0.12114267;-0.03974472;0.034002155;0.0010067605;-0.05069455;0.10515337;0.11321423;0.09761188;-0.023800787;0.0032600523;-0.05351194;0.09950827;0.0160529;-0.0005318656;-0.23854797;-0.07399955;-0.0022759875;0.026558867;0.0020524922;0.03903032;0.016461886;-0.04324854;-0.065146945;-0.023809046;-0.047181875;0.02750489;-0.049262792;-0.07860182;0.2337471;0.06604799;0.026031228;-0.046024855;-0.1596912;-0.028897258;-0.067648;-0.011401112;-0.018869141;-0.020817604;0.02198796;0.22143409;-0.015126735;0.041452605;-0.11087509;-0.055241425;0.030984422;0.09822116;-0.07647379;0.034092657;0.024327628;0.07019283;-0.06447559;-0.24199645;0.15357628;-0.0012021924;-0.09793896;-0.0722719;0.055957787;0.014592454;-0.020646665;-0.008788372;0.13597594;-0.039011106;0.11422884;-0.03677871;0.0046756077;-0.047732193;0.080047995;0.011570144;0.031912174;0.08880919;0.018578723;-0.054350004;-0.0035983694;-0.0064356993;0.044720013;0.07375373;0.026571322;0.030192899;0.005142093;0.040275775;0.0724666;0.19262253;-0.20907938;0.17939411;0.01921145;-0.085846744;-0.010250092;0.023276528;-0.07907014;-0.084622234;0.13303725;0.09881544;-0.20912105;-0.03795821;-0.036694076;-0.007588273;-0.056631178;-0.013538684;0.042904854;0.10618377;0.03540132;0.097549625;0.007176668;-0.048414737;-0.034400027;-0.0707844;-0.1808818;-0.035609704;0.07240956;-0.073820814;0.030259648;-0.031633902;0.115796626;-0.112718925;-0.10385209;0.14883882;-0.0066866796;-0.03241593;-0.14651185;-0.023849111;-0.01675297;0.07790218;-0.066348866;0.06271198;0.14025854;-0.05561657;-0.07383425;0.020833058;0.029171804;0.09027032;0.021551596;0.06517;0.06391629;-0.062210098;-0.00079860643;0.0034542142;0.03930248;-0.03134331;0.067549564;-0.018352784;-0.042090017;0.13991463;-0.043894503;-0.021509117;-0.2743925;0.01463642;0.02932271;0.055716015;-0.00071360695;-0.23869209;0.027603727;0.06719989;-0.06351254;0.065617464;0.06452735;0.010184609;0.017757418;0.072684266;0.04811634;0.06405894;-0.020903511;0.009504265;0.10642387;0.20962596;0.03577859;0.20764717;-0.042530186;0.06095045;-0.0019469891;0.08582141;-0.0969806;-0.0141037945;0.255021;0.078215696;0.03477371;-0.031706095;0.02589828;-0.03986777;0.04168163;0.036460456;0.15987597;0.03690945;-0.15317842;-0.09050752;-0.064495414;0.058031645;0.020214546;0.048317872;-0.046708375;0.14424594;0.24777456;0.0022185086;-0.009331454;-0.021706186;-0.011355852;0.009331935;-0.15119086;-0.10854196;-0.0077332165;-0.077183135;-0.23325479;-0.029526241;0.010339545;-0.08240513;-0.021661315;-0.16477056;-0.023415556;0.0045554396;-0.009178486;-0.098174915;-0.0022113468;0.0850991;0.06695899;-0.018839525;-0.036947303;-0.010824861;-0.08054215;-0.026164295;-0.11866288;-0.03779108;-0.097788006;0.07079503;0.093339555;0.025249448;0.04790447;-0.083460905;-0.13455215;0.06259925;-0.058686387;0.14932002;-0.022756208;0.043919895;0.28507838;-0.15409572;-0.043589268;0.010999382;0.0328769;0.06906673;0.029393481;-0.012887605;-0.05055081;0.06047051;-0.14434284;0.059659444;-0.10701715;0.103132114;0.017838445;0.06593742;-0.055982072;-0.052067842;0.054826196;-0.04044522;0.107402176;-0.03258235;-0.066442244;-0.02992214;-0.06716057;-0.10268182;-0.0009624427;0.015328751;0.076509036;-0.0017013359;-0.011750198;-0.013991453;0.014853537;-0.0050421967;0.014320795;-0.012230343;-0.41979334;0.047819506;-0.052334197;-0.3251044;-0.1086958;-0.073360905;-0.060068447;0.06569424;-0.09773115;0.0024241323;0.12412751;0.042998567;0.029488456;0.0050338744;0.060373466;0.2058559;0.048317455;0.034527294;-0.022454688;-0.057777055;0.0019370347;-0.34504747;0.12623484;-0.08247878;-0.023978312;0.05069262;0.051362567;0.075349055;-0.17385834;0.07346585;0.02766728;-0.012530406;-0.027224857;-0.0058393856;-0.018783476;-0.18254445;-0.050602283;0.044514876;0.16674334;-0.06456325;-0.19268104;-0.17747495;-0.10887398;0.058377564;0.09488421;0.07031932;0.11503676;-0.0062276996;0.037480764;0.04148614;-0.1806871;-0.30371922;0.020879496;-0.005463483;0.061642244;0.046022773;-0.24414055;-0.036826592;0.06861029;0.028335378;0.104819335;0.026344495;0.012970008;0.038547892;-0.084612794;-0.094138354;0.04454546;-0.021029547;0.063128956;-0.035114966;-0.017793447;0.07173156;-0.10273031;0.05193965;-0.13189694;-0.0010859009;-0.051622894;0.051518936;-0.022101553;0.13275924;-0.013346354;0.1141013;-0.13617511;0.066776015;-0.02139238;0.05607017;0.09393305;0.029155651;0.02758386;-0.1065183;0.01004824;0.30765605;-0.010685442;-0.041314133;-0.0701451;0.079095185;-0.0128589645;-0.015911473;0.06347604;0.20504855;-0.16440907;0.06870726;0.06998309;-0.0464805;0.08597687;-0.11467091;0.0020516887;0.121268265;-0.015188643;0.006931974;-0.00031237473;-0.027954968;-0.0188355;0.004130502;0.034879256;0.023163512;0.07056618;-0.009816229;-0.020859107;0.08539687;0.1262568;-0.018086819;-0.093306996;0.0686242;-0.030048061;-0.042463772;0.07772595;-0.09545247;-0.10884647;0.08056159;-0.033660207;-0.14180046;-0.06183025;-0.11762687;-0.03277094;-0.05362818;-0.03156285;0.04132962;0.016410839;0.3324525;0.052984964;-0.0022952855;0.08308134;-0.15044495;-0.096980065;0.017835721;-0.063633814;0.3006594;-0.01369565;-0.12120087;-0.3113361;0.071621045;-0.103253335;0.04338301;0.02689593;0.038461644;0.06282468;0.029693237;0.04521789;-0.0126689095;-0.04774451;0.016423266;-0.04490581;-0.021932459;0.067340255;0.1519996;-0.049196437;0.02383045;0.007854017;-0.0081059495;-0.03655847;-0.081337005;-0.02248687;-0.12738463;0.10812267;-0.16207527;0.04670279;0.014249088;-0.07194668;-0.06788631;0.05509404;-0.032346904;-0.088754505
0.22380048;-0.26992908;-0.12711047;-0.045432042;-0.034026835;0.0032361734;0.2196937;0.04313543;-0.034486715;-0.042148814;0.049756233;-0.01420983;-0.029099824;-0.0411626;-0.022480443;-0.043528188;-0.09834315;-0.20818104;0.09531508;0.10325523;-0.09653566;0.13191976;0.076890014;-0.025914421;-0.29002038;0.20787036;0.014166573;0.1871973;0.18808664;0.03919236;0.020929659;0.002137356;0.11272645;-0.18659721;0.0630649;0.16259539;-0.12354874;2.4172787e-06;0.026234493;0.062429324;-0.07973029;0.0120596355;-0.1821852;-0.070409484;-0.033435907;-0.065743096;0.020185597;0.09842417;-0.10455063;-0.11388361;0.022221256;-0.029426347;0.063762166;0.041929595;0.066978484;0.01777146;-0.024155965;0.025214445;0.03177416;0.040543947;0.14837742;0.20437701;-0.18673472;0.074965455;0.07138696;0.021443812;0.013384435;0.044834487;0.009796829;0.12509018;0.002597805;-0.01629731;0.3426111;0.04498596;0.06590822;0.06826864;-0.02045199;0.00033651167;0.20981266;-0.20976877;-0.13605325;-0.0002628248;0.07296914;0.02052018;0.2016321;0.089437276;0.00014801732;-0.017195204;-0.019009598;0.006983014;0.03536788;0.007471342;-0.011733743;0.17022543;-0.04067277;0.054368693;0.064061634;0.019462828;-0.006025305;0.07151323;-0.090068474;0.03767896;-0.09636361;-0.088608146;0.09452732;-0.10328131;-0.0050585475;0.008723887;-0.028719122;0.085193925;0.06038225;-0.03040038;-0.007875534;-0.04221566;-0.09814382;-0.043422323;0.09314174;0.10567151;-0.00048983947;-0.007675435;0.03694775;0.08496104;-0.019634578;0.09943258;-0.027469635;0.07145687;-0.068958744;0.0996906;-0.07285022;-0.04999355;-0.084458485;0.13338126;-0.010775662;-0.04094575;0.08517995;0.07106186;0.110819355;-0.013770439;0.08191107;-0.18094264;0.08474428;0.21577543;-0.24243061;-0.012368634;0.06108778;0.004081701;0.07945138;0.041866742;0.019634133;0.06771585;0.0012979897;0.10019102;0.035717566;0.21230254;-0.07056574;0.019599922;-0.012242354;-0.14340904;-0.08714784;0.060855914;-0.10622922;0.105763435;-0.07519265;0.07768076;0.07443614;0.05300351;-0.021439793;-0.036955547;-0.013724661;0.026893925;-0.2524029;-0.03498417;-0.024596754;0.09383989;0.04711245;0.0025127248;-0.06384939;-0.18160489;0.15126234;-0.0453261;0.1216987;0.022673547;-0.076063655;-0.07607074;-0.051124405;0.027379848;-0.023788584;0.080879375;0.10644034;-0.043813948;0.13494559;0.04516575;-0.038518704;0.11894015;-0.04935723;-0.11351168;-0.02329041;0.013893679;0.04319389;-0.06676781;-0.044543926;-0.106751375;0.08582014;-0.019478904;-0.0039054651;-0.033116076;0.19833046;-0.064959794;0.11343438;0.058111314;0.04524277;-0.07471639;0.13062018;-0.01601754;0.075753294;-0.08081613;0.012940417;0.08657875;-0.119893536;0.08865234;0.12633634;0.07415541;-0.055990443;0.05982717;0.07451691;0.058919657;0.019683218;0.17944966;-0.07897287;-0.02097954;0.082845874;-0.057552096;-0.050331887;0.019420817;0.079639554;0.11924006;0.07971539;0.0011719484;-0.22434948;0.014789552;0.16682217;-0.024510466;-0.07908246;0.19135801;0.016996905;-0.014360151;0.105378926;0.10694627;-0.12730771;-0.036296837;-0.022299355;0.025618915;0.066251546;0.2286944;0.030210739;0.09226363;-0.042238876;0.06855692;0.0111327525;0.11453705;-0.20144032;0.018501824;0.14057986;0.002896694;-0.045089897;-0.05284413;0.017754842;0.06837789;-0.17966187;-0.2742466;0.005644378;-0.10125471;0.049477033;-0.068965554;-0.08308809;0.09192858;0.016538482;0.064451516;0.05114481;-0.19875106;-0.046238463;-0.047195256;-0.0032974086;0.023517236;-0.048905723;-0.038724575;0.06803373;-0.033905055;0.19969195;0.010622167;0.17993036;-0.11556593;-0.039494637;0.10125291;0.17426582;-0.09438634;-0.08298667;0.278756;0.08341771;-0.017237192;-0.06511058;-0.008972949;0.057383396;-0.015216678;0.10721237;0.2350527;0.05388125;-0.05462217;-0.13753633;0.01528324;-0.0010507292;-0.023094025;-0.0039482135;-0.0069353147;0.2732319;0.29918042;0.039362386;-0.043482903;0.011321334;0.059752963;0.06726415;-0.06207002;0.014507532;0.009989962;-0.11381463;-0.081928715;-0.09709787;-0.054796357;0.058409724;-0.040236767;-0.037278764;0.044943187;0.022341443;0.04147308;-0.19708832;0.077550605;-0.06646285;-0.084252834;-0.06713735;0.04672291;-0.003427651;0.04173072;0.10833982;-0.09958771;-0.06547629;-0.048140235;0.011793175;0.01846776;0.042088505;0.054530334;-0.323408;-0.26501843;0.09705289;0.0076118447;0.0468221;0.008432128;0.15547222;0.27086598;0.10462117;0.055593736;-0.044199362;-0.0067743803;0.18815574;0.004757284;-0.08085158;-0.023526626;0.01974681;-0.034430593;0.0031711124;-0.11517197;8.250467e-05;0.014735299;0.10130035;-0.009744274;-0.0129197305;0.040424947;0.0014676737;0.16253933;-0.005034157;0.11258691;-0.0018057709;-0.001324042;-0.084475905;0.22071822;-0.08855611;-0.012499071;0.0206997;-0.00593953;0.11049079;-0.061931036;0.013687531;-0.13766533;-0.19138217;-0.31175002;-0.01731192;0.051135164;-0.3148082;-0.021411195;-0.040563673;-0.0007315555;0.05611823;0.03657249;0.023406314;0.09105471;0.030159885;-0.015945362;0.032776635;0.09814159;0.056893673;0.027661966;-0.046843912;-0.081194736;0.10343075;-0.01219235;-0.25904253;0.21220693;0.10840257;0.045940813;-0.030761246;0.0646886;-0.09743102;-0.16548982;-0.025082208;-0.07432787;0.016756747;-0.032151837;0.037928686;0.08794659;-0.16744225;0.008615176;0.012514395;0.26317298;-0.053651;-0.08439889;-0.08608238;-0.055012662;-0.021806458;0.18338868;0.12781626;0.19892092;0.074232675;-0.14692992;-0.05456701;-0.08362295;-0.061510354;-0.11501733;-0.056205418;0.07583906;0.0051639867;-0.29447618;0.06086887;-0.08708066;0.119937494;0.035317957;0.07439428;0.06936566;-0.04746543;-0.021706099;-0.031463873;0.040412445;-0.028582903;0.09031326;-0.021535506;0.009960387;-0.030288277;-0.03596557;0.01799708;0.14524698;-0.0045645093;0.055688053;-0.0891607;-0.082997344;-0.081537;0.0105104465;-0.031103944;0.116819456;-0.044597022;0.029065555;-0.0634387;0.10838098;-0.003646764;0.10390902;-0.0959312;-0.0021081946;0.19328463;-0.0010708778;0.014411993;0.00056494836;-0.06723972;-0.03932889;-0.0339168;0.17202744;-0.07186664;-0.10757084;-0.07071063;0.15679249;0.013057017;0.025970599;-0.20827788;0.09485261;-0.033728793;0.026423229;0.09214687;-0.045922577;0.016391976;0.07529893;0.024827022;-0.041223627;-0.030254235;0.053836063;-0.03273727;-0.004327948;0.08556782;0.29360712;0.0368686;0.004781044;-0.07732957;-0.012052652;0.04733839;0.07455653;-0.056428675;0.0028022667;-0.023509797;0.054911554;-0.028439103;0.10092964;0.08824963;0.09644792;0.12797315;0.023323411;-0.06175757;0.024958795;0.21676348;0.060698994;0.042790793;-0.022995522;-0.0017354939;-0.05188411;0.11586252;0.039843168;0.291628;-0.09674901;-0.10907862;-0.36536786;0.030997025;-0.03976182;-0.008840509;-0.09501136;0.07478083;0.048663747;0.04024901;0.054845773;0.1368442;0.01779137;-0.00880184;0.09544241;0.16144045;0.0706173;-0.011228827;-0.028197197;-0.017754517;0.045499265;-0.017131492;-0.06828432;-0.00067754474;-0.21350344;-0.21329832;0.062061675;-0.11298112;0.0067983316;0.025005491;0.024285126;-0.08400449;-0.027593002;-0.15507181;-0.01467299
0.122161604;-0.20662203;-0.08849337;-0.0133561455;0.042462938;-0.050753854;0.058442526;-0.07728463;-0.08974394;-0.01843968;-0.06132226;-0.035795838;0.057017487;0.059456557;0.04771296;0.016389182;-0.0518151;-0.101603046;0.057083;0.087539576;-0.016168525;-0.019381711;0.1318048;0.06319611;-0.14524019;0.14753687;-0.0794049;0.0968522;-0.056754544;0.0083289305;-0.020469522;0.1006693;0.021011267;-0.0061530005;0.020513076;0.14022028;0.07839987;0.06649141;0.13789517;-0.011764972;0.047380388;0.042773083;0.08875449;-0.17114997;0.012648802;0.068792395;0.030779077;-0.0019852538;0.024077032;0.06538946;0.060244188;0.037942268;-0.050367653;0.18495709;0.0058369604;-0.0832451;0.016884295;-0.03320385;0.0007909224;0.106048994;0.24180773;-0.01994638;0.11161465;0.010606691;0.07404374;0.080255404;0.12528329;0.03784877;-0.1129377;-0.10360784;0.031799052;-0.032332923;-0.07876451;-0.07901297;0.19831327;0.037833467;-0.07319105;0.02942219;0.029864838;0.062967576;-0.026099466;0.06019814;0.06316947;0.068888694;-0.022592865;-0.05031536;0.07129253;0.026707841;-0.011526324;0.029460274;-0.061726235;-0.04463314;0.056709062;0.21347328;-0.032353964;0.032628518;0.22590007;0.052649282;0.062080007;-0.06006092;-0.0760536;0.050391927;0.016782282;0.043401226;-0.058507167;0.08609316;0.002381804;0.072342575;-0.067444615;-0.049803913;0.030786527;0.046533786;0.02594354;0.09244022;-0.05424562;0.031563114;0.0071913796;0.070401534;-0.022660423;0.05420409;-0.10321847;0.08663431;0.10588825;-0.046908394;0.047007006;-0.10747528;-0.03844368;-0.022231296;0.08117804;0.10505244;-0.052229602;-0.008448855;0.013700186;0.062933035;0.036480147;-0.059067536;0.21008414;0.18975051;0.085130416;-0.10722159;0.07940417;0.099631615;-0.024992025;-0.00019690146;-0.02030178;0.08521544;-0.0024085215;0.043238733;0.11867425;0.0945084;-0.03333889;0.021549596;0.026528774;-0.13260879;-0.005013296;-0.004696275;-0.06788762;0.054739933;0.016192328;0.15324229;0.13370895;0.002511015;-0.016338786;-0.19671929;0.12897153;0.09350157;0.052772112;-0.06597228;-0.056056906;0.007804836;-0.17037107;0.072117805;0.017442916;0.0021903436;0.026557714;-0.011050647;-0.08374659;-0.095855586;0.10998009;0.059868347;0.08592349;0.019039426;-0.03739597;0.098950036;0.062646754;-0.046528853;0.16896686;0.028822934;0.043881647;0.083438866;-0.010445002;-0.08784043;0.035422996;-0.05748577;-0.061844785;0.15040946;0.013342296;-0.043206625;-0.03712607;-0.012732268;0.058924824;-0.06955954;0.033748206;-0.032987267;0.07192014;-0.029447684;0.049055185;-0.10167141;-0.066252835;0.06016358;-0.029844161;0.047064673;0.07558438;0.031371478;0.0027254606;0.09485898;0.046450607;0.08535475;-0.12249919;0.087943;0.027882865;-0.044064507;0.08783727;-0.019843051;0.10263997;0.06262897;0.15737568;0.0732565;-0.027644575;-0.008503899;0.048991006;-0.062220577;-0.071050175;-0.02975803;-0.07210223;0.022748364;-0.02880642;-0.04167547;-0.17276265;0.19401975;-0.09098765;-0.06986906;-0.069613025;-0.061611656;0.024435783;0.120506085;-0.03268016;-0.014935864;-0.12860529;0.065945834;-0.06359834;0.011637694;0.10600021;0.0034837672;0.07093877;-0.005605831;-0.072416835;0.054790955;-0.043275207;-0.04948503;0.14207837;0.009880814;0.015758472;-0.048101883;0.056597084;0.1332868;0.07626132;0.099101216;-0.07852305;-0.30399942;-0.017266575;-0.05021855;-0.037676945;0.008600255;0.004593103;0.124434434;0.03938866;0.102492034;-0.031275906;-0.08450299;0.004995637;-0.07537414;-0.028774343;0.052674305;-0.07474337;0.04538533;0.04564062;0.04783406;-0.0217881;-0.025467917;0.15614352;-0.08960295;-0.15360402;-0.08785818;0.047987252;0.073976964;0.0926426;0.11877507;-0.043657165;0.044196814;0.024521405;-0.038253754;0.033275623;-0.0845878;-0.04580016;-0.07366044;0.076798365;-0.025920045;0.049068253;-0.034950133;-0.014245863;0.04190397;0.034667715;-0.06840965;0.21561368;0.15838468;-0.07557067;0.052933063;-0.0153929405;0.13067146;0.07727996;0.13110253;-0.10640745;-0.03308297;-0.078647204;0.14449686;-0.046089243;-0.03263307;0.039842654;-0.0050337766;0.01341367;-0.06482296;0.10102344;0.02939372;0.023244703;0.13882087;0.021985864;0.06564827;-0.04383534;0.048558176;-0.029980047;-0.028842762;-0.06055747;0.10834391;0.018866995;0.03207041;-0.0022554048;-0.01309464;0.07557805;-0.03845243;-0.23511447;-0.1298254;-0.08497579;0.08231761;0.04157239;0.052331187;0.107331194;0.081017725;0.044459783;0.070649214;0.022157058;0.08271516;0.24406002;-0.07261243;-0.0057057175;0.0068410207;-0.13389812;0.056548383;-0.02860713;-0.23352943;-0.021388942;0.021902237;0.08052405;-0.0034323912;-0.102670975;-0.022022948;-0.03244179;0.016534204;-0.022938952;-0.04585628;-0.00992857;0.094523996;0.002826095;0.022610014;0.0626911;-0.00055613;-0.040290106;0.025873689;-0.07783766;-0.039422672;-0.026255842;-0.09925988;-0.2600086;0.046060015;0.035787355;-0.00085914024;-0.21989562;0.0039107827;0.10521333;0.07105161;0.06002286;0.04517638;0.07363468;0.0510618;-0.013723315;-0.04751409;-0.04761753;0.024490722;0.009122647;0.02508857;-0.029184379;0.05564492;-0.057233647;-0.060948305;-0.01004224;0.1222919;0.014755159;-0.046713933;0.06163168;0.07208632;-0.037158247;-0.05186656;-0.013104146;-0.045397844;0.017800875;0.08433431;0.08316707;-0.039613187;-0.12208817;-0.04887923;0.12354996;0.2618712;-0.047634166;-0.08738802;-0.15227202;-0.04702111;0.06948861;0.04166475;-0.032857183;0.05544435;-0.009190305;-0.0426369;0.03089406;-0.121641226;0.04219962;-0.028272416;0.03623298;0.061340865;-0.081062354;-0.07633496;0.038553953;0.02352275;-0.0489709;-0.032273542;0.048528597;-0.01751732;-0.036505118;-0.08763422;0.0877037;-0.007665048;0.033977795;0.03853795;-0.04084542;0.07198995;0.04762542;0.069889024;-0.0012013791;0.0822435;0.10965066;0.121398754;-0.02415705;-0.08614833;-0.10276517;0.076652974;0.03792248;0.17599605;-0.067346916;-0.057513017;-0.043892525;-0.031157102;-0.046813052;0.046499185;0.15513244;0.066457525;-0.060276505;-0.02128433;-0.0650984;0.012356722;-0.06847393;0.016755532;0.056288093;0.092089385;-0.105269544;0.0022170912;0.023442917;0.14532962;-0.013202596;0.07992909;-0.02025793;-0.004210492;0.101994924;-0.020495605;0.010972979;-0.002394195;-0.010237399;-0.028183606;0.0781545;0.02107545;-0.050368395;-0.03701354;0.02732682;-0.13401201;0.09287069;0.11243265;0.023189498;0.012702097;-0.05135903;0.03367843;-0.16305663;0.0374329;0.06681052;0.08497741;-0.0034996404;-0.024981014;0.20059983;0.02019831;-0.006291293;0.037398662;-0.022816952;0.033828836;0.08454978;0.041456103;0.17015798;0.020504689;0.053988934;0.12010531;-0.053757407;0.04672652;0.013002448;0.043191347;-0.059156485;0.025141466;0.07095434;-0.2847031;0.012956346;0.0792641;0.05413;0.05925303;0.02117988;0.11617455;0.065904304;-0.02903148;0.19374473;0.061364166;0.07425085;-0.018174393;-0.008446771;0.12970527;0.020579118;-0.03155018;0.047045093;-0.015872568;-0.04826737;0.05225978;0.046712942;-0.1000419;-0.10326245;0.1235486;-0.15641682;0.08733639;-0.0050526224;0.046496343;0.052687243;0.041171204;-0.11737903;0.12505777
0.17439237;-0.10112341;0.04983921;-0.013641754;0.016499609;0.03152189;0.00450115;0.11771311;0.059936285;0.17230517;0.052336633;0.07396737;0.062387783;-0.07306572;-0.025670376;-0.037531577;0.18365125;-0.15841787;-0.032242525;0.24283203;-0.104073524;-0.022450963;0.020847416;-0.0163648;-0.24439187;-0.042923145;0.013569934;0.04648552;-0.05334751;0.11163581;-0.028500576;0.02091261;0.070562884;0.042662736;-0.12128482;0.058566544;0.10966837;0.025477158;-0.042786706;0.054732952;-0.052472565;0.034716263;-0.029167503;-0.108964965;0.10632203;0.13152453;-0.013282544;-0.03070754;-0.035959847;0.035947327;-0.027727665;-0.009011423;-0.07615198;0.06990478;-0.06590847;-0.0032021513;0.022145504;-0.060929865;0.05300079;0.06506667;0.17194168;0.04577686;0.24332033;0.07510013;0.02404781;-0.07827856;-0.058842797;0.01900124;-0.013128418;0.04813591;-0.019954389;-0.001986044;0.12836795;0.100021966;0.16089377;-0.12981457;-0.08491317;0.043295853;0.10116016;0.18255286;-0.1765138;-0.06556501;0.20747629;0.018170746;0.054013498;-0.08567923;0.027786959;-0.010503434;-0.0011944978;0.11832096;0.018184057;0.04013172;0.09158934;0.19717902;-0.01220012;-0.07275727;0.1595451;0.09590092;0.04218585;-0.04201316;-0.05752601;0.0488431;0.12234531;-0.07079525;-0.02591331;0.20722947;-0.041618194;0.048710603;0.021098727;0.055483125;0.13896368;0.055468448;0.06272004;0.1055024;0.096216656;0.1376534;0.009988759;-0.09724611;0.05834048;0.07851102;-0.090220876;-0.057426892;0.041165546;-0.02695386;0.019804018;-0.024635708;0.07530806;0.10923101;-0.0012419855;0.11439834;-0.048320167;0.00426098;-0.093750685;0.07704989;0.09549086;-0.0495055;0.21850488;0.15386377;-0.04665734;-0.23159014;0.026139796;0.01172372;-0.06594884;-0.034429934;0.14913796;-0.024547769;0.15832102;0.11125674;-0.08115515;0.13624594;-0.0057573677;-0.08915295;0.078432046;0.030597007;-0.08729241;0.05157454;0.017508961;-0.123018675;0.0031042479;-0.017951583;0.117939584;0.077775314;0.113332875;-0.06997249;0.02092954;0.014821069;-0.038398337;-0.103626415;0.05186141;-0.035033084;0.058500163;0.09254203;0.07272594;0.0014181029;-0.051805243;0.13917783;-0.01671825;0.07984943;0.03107275;0.07193248;0.041071646;-0.0722863;0.009322814;0.11032392;0.06346041;0.02412204;0.21890542;-0.027765177;-0.07152878;-0.047532827;-0.0393204;-0.10233749;0.106917925;0.05564486;-0.12986848;0.07493537;-0.059068438;0.08688998;-0.019294266;-0.002082402;0.084412165;0.034624785;-0.057731967;0.040057003;0.019028692;-0.02783262;-0.048037082;-0.17972216;0.06603725;-0.028716557;-0.0789768;-0.009809733;-0.030399084;-0.03559249;-0.04723978;-0.044522427;0.093236804;-0.045554556;-0.0069749467;-0.029110732;0.08783951;-0.0015276723;0.035828006;-0.060083833;-0.049771823;-0.077841036;0.15472308;0.21463549;0.043275673;0.017175462;-0.05616395;-0.06386198;0.049002286;-0.015510647;0.0908254;0.19071296;0.06838854;0.06523692;-0.15677576;0.13324676;0.017778017;-0.049890764;0.011929655;-0.06823002;0.13547577;0.13948657;-0.101800084;0.11748269;-0.03787733;-0.112579644;-0.09577915;0.054812673;0.07938142;0.1507716;-0.0028288367;-0.053592447;0.045093134;-0.023549916;0.05380701;-0.05737524;-0.12545297;0.019566892;-0.0034539925;0.10010575;0.11854275;0.123034924;0.07282136;-0.039435055;0.06740965;-0.22382641;0.05808068;0.019483903;0.05552071;0.009796882;-0.08520394;-0.028661447;0.089852646;0.051671095;-0.0036026535;-0.07009497;0.052307267;0.11397008;0.08842207;-0.016298285;-0.038446754;-0.053483192;-0.00832901;0.028408468;-0.046752263;0.13981697;0.07093915;0.0050442624;0.045479808;-0.079886466;-0.039798003;0.12999852;0.012594649;0.1794742;-0.0136181535;0.14259711;-0.05551605;-0.017983077;0.059260484;-0.19049057;0.010958135;0.08858295;-0.11288932;-0.084941015;0.005892016;0.07496316;0.033457898;0.08586506;-0.05469144;-0.02575081;0.235567;0.1023309;-0.059202522;0.07028399;-0.067882635;0.030277424;-0.023707386;0.121979855;0.030365271;0.117883205;-0.23761834;0.016543666;0.020016124;0.03419245;0.04520361;0.016456146;0.13755856;-0.063783355;0.107455075;0.014611858;-0.026486479;0.042811614;-0.18535286;0.032451134;-0.0056668436;0.03692885;-0.081998676;-0.08413639;0.007821464;-0.017799698;-0.00648636;0.05749314;-0.049205672;0.0065567996;-0.057090048;0.11853599;-0.29101443;-0.2499936;-0.04233886;0.029421555;-0.10142371;0.18625465;0.09396171;0.28630173;-0.10147765;-0.060592633;-0.035620153;-0.025590355;0.15575497;0.09086134;0.071992025;0.067520194;0.028377704;-0.08469653;-0.029022777;-0.13738814;-0.012471202;0.080844514;-0.08425014;-0.04189152;0.043013606;0.071665734;0.07796616;0.02317021;0.014347409;0.042402785;-0.03804101;0.01282247;0.08600284;0.052730005;0.21569726;0.07632671;-0.030786872;-0.082964055;-0.10026089;-0.063465945;-0.03383494;-0.101711854;-0.018342657;-0.19627857;0.119236745;0.007466913;-0.3055359;0.12385878;0.08429236;0.08656403;-0.08973702;0.049484216;0.045840688;0.13758162;0.058214396;-0.047976095;-0.04725957;0.10161703;-0.13152042;0.02189279;-0.02450369;0.09227579;0.0048460243;-0.09199888;-0.21007837;0.1369429;0.085044645;0.033723045;0.07696686;0.10247267;-0.079718195;0.051682428;-0.016093662;-0.0127527;0.021196216;0.087262;0.06854109;-0.05912459;-0.01677366;-0.0095826695;-0.041611146;0.20227543;0.114781044;-0.21887605;-0.15892631;0.07369895;0.0140567385;0.100532286;0.030349853;-0.20335571;-0.047466252;-0.15041792;0.10221735;-0.28455344;0.069934934;-0.04923156;0.021773228;-0.0140021425;0.050868027;-0.18820325;-0.020287875;0.013467309;-0.027141366;0.08990796;-0.00048156438;0.022594227;0.029887484;0.022039687;-0.0061163143;0.014716189;0.00646424;-0.13284257;0.02684989;-0.049436178;-0.026724385;0.04484363;0.00037722304;-0.04728686;0.09082997;0.12806812;0.026478514;-0.022851255;0.19175342;0.06987484;0.006465104;0.19691852;-0.024764817;-0.0030871213;0.077589676;-0.047259253;-0.026759915;0.037799187;0.08583033;-0.04403767;0.15503912;0.016709244;-0.023525435;-0.04630295;-0.14194527;0.080782995;0.0073819547;0.021899858;-0.010481679;0.07191196;0.10840058;0.09117714;-0.059144985;0.062372997;0.1280764;0.14982119;0.0014625211;0.07247371;-0.04654509;0.117931895;0.030099163;-0.055005133;0.062378146;-0.008721493;0.099066444;-0.07462024;0.038944498;-0.1874568;0.036144033;0.2404279;0.027588053;-0.016896468;0.05359636;0.054266207;0.06388418;-0.027756672;-0.078620754;-0.006776861;-0.038572725;0.060339026;0.24280643;-0.03768993;-0.072127216;0.029328194;-0.100207575;0.09040923;0.10358386;-0.13479598;0.26632744;-0.047737263;-0.028366301;0.069995314;0.13760309;-0.03359764;-0.0689638;0.0653255;0.07059349;0.07429651;0.18839462;-0.22067045;-0.054311782;0.04777122;0.073256135;-0.06292421;0.0079584895;-0.016896572;0.020844985;-0.020896226;0.16346155;0.006163888;-0.038732193;0.057378832;-0.09474688;-0.025150858;0.031758595;0.080185205;-0.0024305254;-0.040517945;0.082257785;0.11560761;-0.027426185;0.0123108765;0.07713306;0.015009972;-0.0926861;-0.107261755;-0.04838428;-0.008730565;-0.0075152037;-0.00796068;0.14451234;0.27266815
0.18744947;-0.1734766;0.08214098;-0.018545985;-0.07084345;0.096431985;-0.27190608;0.057017792;0.077918455;0.0066895327;0.021827979;0.08075833;-0.06269039;-0.008185885;-0.042488664;0.040164944;-0.0067475885;-0.25890222;-0.04857125;-0.069831915;-0.18515055;-0.09851987;0.0047371048;0.10144958;-0.17781945;0.091341734;-0.03095185;0.1363314;0.07483871;0.24745892;0.029039206;-0.009434423;0.052937407;-0.032735944;-0.27918592;0.003128177;0.042498514;-0.013247786;-0.065675415;0.124988265;0.09255231;-0.011096915;-0.020846533;0.021909675;-0.08937375;0.13557996;0.05187927;-0.05085697;0.14066021;-0.004608424;0.057159863;0.060583375;-0.028727373;-0.031040799;-0.037552264;-0.025336018;0.11981125;0.012419993;0.03615786;-0.11309839;0.1259404;-0.13296957;0.030491611;0.049218703;0.008118969;-0.14132218;-0.049638126;-0.08349266;0.021126512;0.1291198;-0.064983204;-0.04156227;-0.21885085;-0.01591737;0.018186197;-0.2908467;0.06210159;0.04205175;0.1723754;-0.06938035;0.030255318;-0.07184874;0.29018024;-0.00010880697;0.107699744;-0.05932958;0.03863749;0.095615044;0.09865525;0.006698395;-0.029675962;0.077094205;-0.023617074;0.20200421;0.109745204;0.040194806;0.11214908;-0.08645951;0.012043089;0.008993041;-0.106713;-0.031294357;-0.05096985;0.05620056;0.12193163;0.055949453;-0.044196233;0.011032796;0.05857905;0.021945456;-0.013493892;0.04901281;0.07032319;0.18380511;0.086587355;0.09169858;-0.034836736;-0.11597324;0.113058046;0.0021854066;-0.082220905;-0.032987326;-0.0090032015;0.034165584;0.0423477;-0.027321972;-0.05459976;0.017120278;0.051829133;-0.01761973;-0.016051717;0.030744605;0.04255115;0.03415866;0.08738978;0.09856751;0.04936353;-0.019509189;0.14872412;0.010695354;0.09399495;0.025612693;-0.016274905;-0.01187069;0.10763372;0.0049077426;-0.007607983;0.09747519;0.14257766;-0.016305102;-0.020845657;-0.00674551;0.069326274;-0.009104902;-0.052055687;-0.02294554;-0.08812165;-0.12400774;-0.037130035;0.072130375;-0.030336648;0.11965155;0.045190617;0.08168148;0.0065295305;0.0010243249;0.0055883173;-0.069744006;0.038476944;0.05913399;-0.090215966;-0.07188716;-0.009081073;-0.05427794;0.10746391;0.10175323;0.16839494;0.008202021;0.039390802;0.035943825;0.061211642;0.073042944;-0.11085402;-0.006614896;0.080551155;5.943687e-05;0.24808967;0.048154745;0.026545977;0.043001696;0.22881484;0.02273984;0.05558608;0.015141164;0.028075933;-0.0091972435;0.061790973;-0.0035669378;0.030944863;0.067294806;-0.032498486;0.029455505;0.012029342;0.0736886;0.03284613;0.07668439;0.042166084;-0.048889376;0.00953239;0.06668667;0.12982363;0.07836996;-0.105781496;0.0268636;-0.038257252;-0.009689576;0.026452124;0.03861266;-0.020011159;-0.0086363815;-0.031116439;0.0015897005;0.07395458;0.04183356;0.03634842;0.008805839;0.11511363;-0.0862492;-0.00872391;-0.046429764;0.031504955;0.06741861;-0.04723421;0.080409594;0.023405336;0.10451758;-0.03994834;0.059862487;-0.2236173;0.12327051;-0.10051506;0.084547475;0.012591782;0.18971954;0.047902066;-0.047141787;-0.03233739;0.04828651;0.09096707;-0.04357983;-0.06745077;0.04793457;0.086779706;0.0901282;0.13119046;-0.0014629046;0.05810736;0.022937618;0.08071444;-0.07636073;-0.010580741;0.061090097;0.050379273;0.03796072;-0.0024217821;0.09196898;0.105411135;-0.030175114;-0.07499676;-0.2641428;-0.046187885;0.096834674;-0.018498357;0.0058644954;-0.048752926;-0.06551693;-0.017385727;-0.05457864;-0.032798316;-0.12350623;0.06380123;-0.0535309;0.064695396;0.012037016;0.03168179;0.04986535;0.055630174;-0.056719203;-0.11731299;0.048845172;0.0032397585;-0.19888817;0.025752481;-0.023242518;0.0044974056;-0.08466451;0.031746387;0.11428722;-0.17250036;0.0397078;-0.026828319;0.023105951;-0.0154762035;-0.16849634;0.08601385;-0.17757843;0.028217293;0.016164133;-0.010124095;0.05779952;0.044724822;0.050483588;0.07644367;-0.030548977;0.37663385;0.06007304;-0.07047811;-0.09195841;-0.012354377;0.028422933;-0.026571518;0.08968791;-0.069373354;-0.0024994367;-0.10306675;0.2778383;-0.0478822;0.059545588;0.030404499;-0.08104761;-0.024856854;-0.012018087;-0.06606942;0.07213957;-0.07678773;0.20567931;-0.23910312;-0.02817967;-0.009226712;0.012358099;0.06589721;-0.017239349;0.05235599;0.05877551;-0.13999149;0.08574842;0.092443526;0.08994545;-0.057534717;0.16281286;-0.2185903;-0.26024184;-0.08180756;0.038779404;-0.060708582;0.10667054;0.17469402;0.37483612;0.14020146;-0.05591146;0.13483033;-0.079257436;0.16740721;0.015277841;0.10106901;0.023038276;-0.09060343;-0.16966616;0.0868896;-0.27589524;0.07622691;0.0495206;-0.07829092;-0.027735632;0.03717851;0.029151846;-0.008609025;-0.31293654;0.08726837;0.033007033;0.052979317;-0.06091454;0.017856024;-0.081320554;0.052382436;-0.0643468;-0.065147586;-0.22661805;-0.07176367;0.051100016;0.057844497;-0.17012018;-0.266248;-0.062827095;-0.024716727;0.07225318;-0.20317093;0.020970311;0.05835441;-0.027710821;0.076548465;0.028116515;-0.011243799;0.052009374;0.05081057;0.15375407;0.07252529;-0.039157704;0.059803393;0.014381441;-0.066562675;0.03284225;0.0046681813;0.06030979;-0.0870916;0.07716043;0.13039988;0.02115098;0.010019182;0.0062779025;-0.015141885;0.16268991;0.058992393;0.034430217;0.09890293;0.07286201;0.01965561;-0.054561254;-0.034960672;0.08341735;0.14481114;0.257757;0.002377546;-0.09127717;-0.21535048;0.08255679;0.024993699;0.10404333;0.020360176;-0.18296584;0.074867696;-0.32829154;0.034689724;-0.11656918;0.31920886;-0.096761875;0.043485653;0.030743998;-0.02165621;-0.20838435;-0.075733565;0.05226513;-0.07483216;-0.048489027;-0.097034;0.025949104;0.057819232;0.05106879;-0.004333439;-0.04491688;0.021157239;0.055533893;0.0709122;0.03718084;0.06709685;0.0739614;-0.08591917;0.0016786004;0.25459373;0.056546614;-0.07139616;-0.079480894;-0.074197955;0.16315347;-0.054083034;0.06730144;-0.011360426;0.06587223;0.0068050236;-0.047618877;0.03848005;-0.026601862;0.106836446;0.035783257;-0.2676649;0.032218773;0.010047547;-0.029557811;-0.10299584;0.021336729;0.0451998;0.040510975;0.107958324;-0.04223636;-0.019893304;-0.0025129265;0.019733083;-0.04355344;0.052341934;-0.12080691;-0.0876826;0.06318594;0.0042130966;0.0357821;0.00022776061;0.069840886;0.08236694;-0.02883611;0.079810575;0.02024339;-0.124579936;-0.2720232;-0.048149187;0.203221;-0.047958884;-0.031798277;0.0582884;0.13749328;-0.047837347;-0.05088869;-0.10947682;-0.011944475;0.039140437;-0.012205189;0.18482679;0.082774766;0.09496427;-0.027491;-0.048266213;0.069428585;0.08713431;0.023260312;0.2490584;0.15596311;-0.049580578;0.08448065;0.046787813;0.008772785;-0.0215531;0.062627204;0.092735164;0.05685164;-0.013372874;-0.2716835;0.058970414;0.004650323;0.039926976;0.013327984;0.01301946;0.11060898;-0.017025243;0.054809567;0.14849374;-0.014174668;-0.02485015;-0.0047700964;0.2500594;-0.09232365;-0.07995436;0.050855264;0.035847478;-0.23514736;0.10071726;-0.022986388;0.07085016;-0.03813133;0.026374687;-0.08652949;0.021157471;-0.011925399;0.018129367;0.02452662;0.012778893;0.0069137723;-0.12258534;0.07276643
-0.88649577;-0.5049291;0.06606754;-0.0115387915;-0.16456077;0.08497676;-0.028662443;0.0004997421;-0.0631289;-0.13297458;0.077024445;0.0024653142;-0.067653105;-0.08273774;-0.089714475;-0.065613575;-0.80496544;-1.3333467;0.080708854;-0.66659033;0.050095573;0.13209645;-0.036401674;0.051031467;0.31109294;-1.4979092;-0.010679797;0.14074446;-0.29439837;-0.32714814;0.100674815;-0.14288092;-0.012193666;-0.08338526;-2.1565318;0.5215995;-0.34512964;0.023451637;-0.14748622;0.0575075;0.12080614;0.013005018;-0.7499809;-1.0441247;-0.045734636;-0.00066647073;-0.024328437;0.03110179;0.06862847;0.104692526;0.012478605;-1.2271626;-0.09429989;-0.14120501;-0.07957979;0.14127432;-1.3391782;-0.024190716;-0.040603165;0.20045452;0.94352895;-0.13265711;-0.22982417;0.049484596;-0.35821906;-0.037800647;-0.024075279;-0.03256286;-0.030211832;-0.17337853;0.14922962;-0.006258902;-0.85153294;0.026244644;-1.3077054;-2.5702562;-0.16439907;0.053032923;-0.47277582;-0.5127498;0.94707125;0.11236039;-0.2651997;-0.007149397;-1.0680795;-0.13795337;-0.0059009213;-0.13470188;0.15844062;0.028784059;-0.10888699;-0.09813132;0.048555665;-0.8287645;-0.11249343;-0.07986539;-0.41793588;-0.00031206803;0.038754284;0.0070316535;-0.14798686;-0.00229563;0.01091124;0.10913121;-0.15275614;0.018613592;-0.13708097;-0.017034996;0.3861196;0.12407988;-0.054417565;-0.0695026;-0.052297615;-0.05652178;0.0739739;-0.035395686;-0.098472655;-0.1882255;0.018939342;0.100183405;0.10791996;0.01234956;0.0038052276;-0.09307792;0.12438257;-0.5890878;-0.5672716;-0.041551758;0.038133774;0.8074443;0.13001996;-0.37995765;-0.019391472;-0.006808067;-0.08951052;-0.018685067;0.32900515;-0.9249468;-0.070060685;-0.08380656;-0.10067415;-0.5086425;0.26948965;-0.12319676;-0.045608073;0.021968925;-0.32113856;-0.19269529;-0.5189381;0.025082871;0.004093844;-0.10263186;0.06398491;-0.565994;0.07212149;0.012434607;0.004529525;-0.3083857;0.10370134;0.41871765;0.04581914;0.053602256;0.110406995;-0.6897764;0.33879808;0.06797232;-0.023229148;-0.253685;-0.038004413;-0.030812241;-0.6010061;-0.8081798;-0.075082414;-0.21559459;-0.1189698;0.101364195;-1.341922;0.24135931;-0.35566935;0.09880624;-0.16627754;-0.09374481;-0.42269954;-0.28592348;-0.13915944;0.12328874;-0.68473387;0.09921043;-0.028960958;-0.09234131;-0.3482326;-0.08322775;0.10288242;0.045876496;-0.055196863;0.21527605;0.071155;0.09905596;0.049082685;-0.17926058;-0.061151035;0.09194319;0.0049837437;-0.13266023;0.023213737;0.054967318;-0.281676;1.3735989;-1.4110374;-0.033931985;0.28691506;0.10580297;-0.08083636;-0.10061315;0.037269402;0.2855653;0.004985827;0.35881066;0.17600584;-0.005711727;-0.22786205;0.07804666;0.12812412;0.06427827;0.17126547;0.015757374;-0.082407005;-0.52703846;0.102168515;-0.06748407;-0.1506734;1.201538;-0.35614654;-0.14160356;-0.046660677;-0.35058406;-0.015668923;0.6891271;0.9164366;0.62308;-0.36622342;0.07952766;-0.027241439;-0.14070117;-0.0045957365;-0.18539172;-0.11378751;0.21040346;-0.19417857;-0.08412571;-0.18560681;-0.11003032;-0.119983666;-0.1811362;-0.022370456;-0.09822147;0.11123067;0.045224085;0.0064701107;0.040989757;-0.4151924;-0.048131894;-0.0067295874;0.30202073;-0.059542786;0.39127642;-0.0059247045;0.00065125216;0.49476042;-0.07097251;0.0064592576;-0.014659298;-0.0122364275;0.10780443;0.11842278;0.24817458;-0.16216266;0.07073269;0.04726238;-0.6538189;0.029458622;0.0656286;-0.013576209;-0.20345025;0.13765551;0.0028075879;0.060907032;-0.2348109;-1.6520405;0.035172153;0.6588546;-0.09808889;0.008030257;0.014732517;0.21084188;0.2671687;0.039956566;-0.0025034866;-0.15187563;-0.46197605;0.11380684;-0.118987136;-0.025543587;-0.42863128;-0.10114007;-0.49527466;0.31860206;0.5872619;-0.11455339;0.037591774;-0.094663136;-0.15119553;0.015503113;0.084118135;1.1789134;-0.44580463;-0.2167512;0.43861505;-0.035709385;-0.024041338;-0.108232066;0.41560432;0.06022176;-0.09581887;-0.10956135;0.100266084;-0.009666477;-0.1072691;0.11018355;0.09624945;-0.85249;-0.16890085;0.09991239;0.111098595;-1.2308652;-0.4342351;1.2822392;0.041778505;0.106075846;0.5024353;-0.021505162;-0.09191189;-0.032346044;-0.18297485;0.06796926;-0.09394244;-0.07140497;0.0005687067;0.15109731;-0.3573604;-0.7293347;-0.40335178;-0.17566648;0.11673526;-0.05055097;0.21473254;-0.62741256;-1.1343557;0.67376757;-0.074588284;-0.04027069;-0.018062416;-0.92702127;0.7551733;0.13743336;0.1663643;0.043702006;-0.11551151;0.24257559;0.4364354;-0.11190112;-0.14019634;-0.1047078;-0.06697698;-0.62378705;-0.005550946;-0.043441217;-1.988679;0.119709715;-0.014051648;0.08146346;-0.029247917;-0.0016140228;-0.15157624;0.05278815;0.058590267;0.081273995;0.06859697;0.0259232;0.091337346;-0.12335958;0.21931428;-1.3905686;0.32593602;1.1375792;-0.058122642;-0.41932702;-0.0010477293;0.29491025;0.013025971;0.010298181;0.008807818;0.10863484;-0.07395453;0.0904905;0.09653539;-0.11096507;-0.16941813;0.020827789;-0.016660793;-0.013373499;0.0012662528;-0.16913244;-0.17055841;-0.61058795;-0.44765073;-0.105607;0.07388571;0.01819687;-0.15941787;0.17793976;0.29318282;-0.06157955;-0.0042488007;-0.08654699;-0.01663876;0.041861635;-0.18061404;-0.63448864;0.09640048;-0.008757911;-0.94447744;0.022516416;-1.0271678;-0.5552871;-0.27427605;-0.058660686;0.48389208;0.042118788;-2.3715303;-0.14274725;0.73055166;-0.2096743;0.71037877;-0.37040913;0.11293913;0.114935115;0.03493856;0.0016740004;-0.0913825;0.046967793;0.06319386;-1.234109;0.07723303;-0.2023395;-0.05964368;0.032853078;0.0012048716;0.09592186;0.026324736;-0.13387999;0.05764856;-0.19981658;0.05061864;-0.030630356;-0.005714543;0.032980405;-1.0198498;-0.6627382;-0.038894128;0.13934003;-0.058424596;-0.855762;-0.12420845;0.028147243;-0.375292;0.027238846;-0.029280707;0.115499415;8.235463e-05;0.06443884;-0.15129766;-0.060419165;0.083468154;-1.6385357;0.07107579;-0.21119049;-0.056056444;0.29622272;-0.07154991;-0.045599964;-0.9483894;-0.14961536;-0.34275627;0.111974865;0.10168388;-0.14961068;0.030733513;0.4500984;0.4109656;0.026691452;-0.036520995;-0.17246716;0.060601633;0.062201813;-0.077641025;0.033935294;0.0632938;-0.16547695;-0.23887193;-0.07108942;0.58199096;-0.40388554;-0.2602091;0.06730498;-0.24746564;0.03775276;-0.45809996;0.6641978;-0.0963371;-0.062104687;0.040534254;0.00031780842;-0.071169235;-0.04877442;-0.0028439397;-0.0032584404;0.06136786;-0.6421647;0.06481198;0.012538891;-0.43019986;-0.724692;-0.1131064;0.013410368;-0.007383715;-0.022656305;-0.05288155;-0.07303234;-0.046432137;-1.2381572;0.052334655;0.00065387116;-0.76455206;0.05912133;-0.1485614;-0.052603893;0.042310465;-0.07513891;-0.032524697;-0.13884513;0.022935014;-1.1519381;-0.075838275;-0.15866171;-0.052000035;0.41853794;-0.085407354;0.10956861;0.11496029;0.04209194;-0.5753964;0.090463065;-0.03395672;-0.16716401;0.08592385;-0.78831685;0.09299488;-0.3487863;-0.071222074;-0.061628282;-0.16422316;0.18408145;0.14139;0.081630275;-0.057344362
-0.14719376;-1.1149333;0.33257228;0.004445076;-0.072175786;-0.06332006;0.17170367;0.00037456452;-0.06452886;-0.38737863;0.061948683;-0.024141867;-0.16308057;-0.07259073;-0.030900469;0.06435602;-0.37506226;-0.9657612;-0.1699196;-0.28443962;-0.1098296;-0.021894662;0.041955475;0.017076287;0.22896342;0.4956037;-0.12618469;-0.89731556;-0.19506465;-1.0804727;-0.08196384;-0.5298145;-0.05933946;0.4531374;0.5867801;-0.4547488;0.073987775;-0.025504284;-0.028323855;0.042421643;-0.007678669;0.040444758;0.24225113;-0.1719299;-0.008594523;-0.010482238;0.0011741167;-0.020462096;-0.01153765;-0.66223705;0.014878404;-1.2423487;0.023640726;-0.45960894;-0.04536442;0.12010767;0.21093686;-0.06938492;0.05704688;-0.58387965;0.735922;0.04920108;-0.67731446;-0.15301466;-0.3245776;0.07259976;-0.06596473;-0.09253964;-0.116598345;-0.014939226;0.03519131;-0.017777434;-0.55807185;0.038321465;0.5871166;0.34121266;0.025875041;-0.04242899;-0.56968737;-1.2963779;-0.35069057;0.029921105;-1.4060225;-0.0006599333;-0.13103442;-0.22434545;0.035632685;-0.17787527;-0.020713106;0.16835749;0.009873214;-0.013256797;-0.07322939;-1.0271362;-0.003625793;-0.08248317;-0.2902513;-0.056209277;-0.02013818;-0.09214553;-0.20405011;0.0053875293;0.34319183;0.03853046;-0.04782396;0.045914102;-0.11560317;0.052707613;0.025217721;-0.06417635;0.038076133;-0.056912903;-0.043487377;-0.112203985;0.034229163;0.03658278;-0.11667584;-0.21667261;0.068451315;0.018759577;-0.05665637;-0.119051784;-0.030676669;-0.010107246;-0.005483823;0.11901038;-0.022330312;-0.044973146;0.042031974;-0.19265282;-0.091722034;-0.2862075;-0.07523153;-0.011006143;0.032069843;0.009163781;-0.03072328;-0.6418926;-0.018035352;-0.12921235;0.038245127;-0.45359176;-0.20587522;-0.040226195;0.060686518;-0.021702467;0.15749586;-0.75183696;0.16457385;-0.012637481;-0.09296039;-0.01691861;0.010496422;-0.28253722;0.007153145;-0.03948872;0.089433044;-0.084518164;-0.012932065;0.20121258;-0.17560913;-0.03710252;0.17538212;-0.03612896;-1.2570215;-0.09426279;0.008589211;-0.06498933;-0.08720149;-0.06926438;-1.2795709;0.5726577;0.009741345;-0.69232404;0.036823276;0.045073915;-0.7191129;0.3794975;-0.44129747;-0.044335254;0.3363396;-0.025108598;-0.12667458;0.5341925;-0.026018865;0.0031225043;-1.9381715;0.04462127;-0.0025018821;-0.040832274;0.0015931871;-0.002408746;-0.08239608;0.073651224;-0.0068904646;-0.47649592;0.044484623;-0.04173076;-0.12164414;-0.31924406;-0.070036374;0.009403653;0.05402485;-0.004364733;-0.054336727;-0.074648365;-0.052272715;0.20469163;0.11716952;0.086857826;0.0050356407;-0.06840233;-0.13921146;-0.0486293;0.12755708;0.06293812;-0.09160952;0.76172;-0.069229744;-0.090778045;-0.0623882;-0.022283219;-0.029944545;0.024033314;-0.022234043;0.014288325;-0.12401567;0.2991365;-0.0021630193;-0.053448513;-0.0036463086;-0.6396823;0.012479867;-0.14925388;0.042805217;-1.0709505;-0.055536967;0.38497412;-0.017839096;-1.2977148;-0.71328986;-0.04282642;-0.029108744;-0.62521213;-0.047030255;-0.7807419;0.012409843;-0.03694722;0.099017575;0.050951734;0.03261097;-0.033469062;-0.20261312;-0.68417585;0.0781474;-0.07816174;-0.017171396;0.03304799;0.03885223;-0.02870999;-0.3711905;-0.03599668;-0.052118197;0.1034092;-0.14982855;0.19582686;-0.19029915;-0.027305033;-0.722806;0.18879962;-0.08375445;0.17601106;0.019007016;-0.05722856;0.4810812;-0.091408566;0.05450341;-0.0018434353;0.017311454;-0.90486145;0.021214083;-0.09325121;-0.025617728;-0.01407971;-0.06328896;-0.063220106;-0.06540888;-0.018174889;0.32780778;-0.058665525;-0.18840653;0.06895703;-0.609946;0.043090127;-0.4146214;-1.0963259;0.010217413;-0.51196176;-0.12486777;-0.31858978;0.013665313;-0.0076762466;-0.04184408;-0.62327296;-0.10044886;0.7270516;0.30694914;-0.21354422;0.46875283;-0.11884925;0.055934016;-0.20477727;-0.07056553;-0.10014172;-0.7172658;-0.6986063;-0.17318189;0.7012849;0.07144265;0.024297427;-0.042474255;-0.2668143;0.035476994;0.012378631;0.039773;-0.7469673;-0.056612268;-0.019135166;-0.012482885;0.33836547;0.4257954;-0.16234775;0.00038634829;-0.017994286;-0.28759298;-0.37346628;-0.45480374;0.05823419;0.027694102;0.044855207;-0.23017016;-0.047437828;0.034832913;-0.504766;0.31260931;0.07311163;0.013704377;-0.019594753;-0.04210125;0.37269998;-0.29403338;-0.52800524;-0.1756696;-0.042285565;0.061316054;0.028037315;-0.39730626;-0.24529257;-0.37675738;-0.06578121;0.035411775;-0.011177906;-0.61927783;0.16633493;-0.020842955;0.0033938242;-0.035953954;-0.05863041;-0.034973178;-0.09464539;0.030855471;-0.49719942;-0.041867122;-0.084048055;-0.14984001;0.0025397362;-0.09894484;-1.0131856;-0.008928619;-0.13149405;0.006616372;-0.017624892;0.073426194;1.554823;0.06264975;-0.080499396;-0.0059742806;0.056622766;0.0070568905;-0.09986836;0.085265346;-0.16625914;-1.4530659;0.12444385;0.6666744;-0.06526595;-0.15060797;0.01807939;-0.5503197;0.011939757;-0.015489693;-0.006531926;-0.010826128;-0.14661606;-0.098253086;0.65798485;-0.07935735;0.06403425;-0.025255123;0.03713398;-0.012813586;-0.07472552;0.0240454;-0.10664061;0.8133919;-0.3770979;-0.004680712;0.024283983;-0.12378627;0.004692459;-0.11680704;0.04843656;0.03188401;-0.016991574;-0.00039820198;0.040741134;0.033794265;-0.19140674;-0.5940598;-0.027695825;-0.027987706;-0.27862677;-0.069557175;-0.83843476;0.04399483;-0.2526658;0.037736118;-1.7973541;0.020675039;-0.4385568;-0.04542834;-0.07075128;0.064922325;-0.025993511;-0.6006214;-0.041667834;-0.5777363;-0.0053668325;-0.029430782;-0.3826529;-0.09562096;-0.032897256;-0.24424541;-0.05802646;-0.26546073;0.006855735;0.051763035;-0.16760805;-0.055568233;0.0758434;-0.14560427;0.008892534;-0.023165148;0.01667279;-0.045204937;0.18009691;-0.036147445;-0.7272473;-0.6511239;-0.025165677;-0.003801573;0.058339745;-1.0610368;0.07005689;0.21030356;0.17904022;-0.027826965;-0.019391853;0.005601324;-0.06908964;-0.056392692;0.009517901;0.0044900374;0.04866267;-0.5697279;0.002294279;-0.056769945;-0.018380499;-0.032108326;0.083390824;0.00061619264;0.23466478;-0.474242;2.7380476;-0.0774906;-0.78243226;-0.005351277;-0.04313243;0.022089604;-0.64736277;-0.058252327;0.050958093;-0.11256683;-0.07430231;-0.67375046;0.006028851;0.02542368;0.061169337;0.046638526;-0.38429227;0.043311656;0.060853895;-0.13807268;-0.3541283;-0.04450444;-0.074226744;-0.40326515;-0.14263818;-0.5696952;-0.06982626;0.007019316;0.06938054;0.06652776;-0.039644845;0.2847183;0.056618012;-0.018902147;-0.026131734;-0.2005209;0.03935612;-0.078207865;-0.27403295;0.25753754;-0.69225216;-0.06935709;-0.03867968;-0.16984136;-0.049024273;-0.007721007;0.074391924;-1.3275627;-0.07441977;-0.09211427;0.62715137;-0.032085262;-0.0004510417;-0.099827;-0.09728496;0.07904537;0.07463434;-0.025817461;0.008394057;-0.17656656;-0.0030901858;-0.1817557;-0.08300677;1.2853935;0.044776842;-0.07605939;0.010145051;-0.040353972;-0.44717288;-0.034229416;-0.088369794;-0.060995888;-0.3472133;0.72856086;0.032094244;-0.7739426;0.070854686;0.0771773;-0.26870754;0.16986215;-0.02300051;0.64000237;-0.6475181
0.40581697;-0.80577236;0.27100754;-0.11129181;-0.33826536;-0.27369055;-1.4810859;-0.0024376945;0.054835714;-0.34580684;-0.082646765;-0.28085107;-0.62624353;-0.039645787;0.030413808;0.0058738464;0.48285684;0.37706035;-0.23417693;-1.2479757;-0.42838228;-0.6814703;-0.0072210017;-0.04254594;0.4959197;0.26655558;-0.3889951;0.21265331;0.853496;0.6852956;-0.07990883;0.25447085;0.042220127;-0.37708756;-0.101969175;-1.1299826;-0.3510842;-0.03723838;-0.04229595;0.27602917;-0.20762424;-0.018281868;0.33058056;0.35262334;0.015372393;-0.038962916;0.09677647;0.0639322;-0.13516332;-1.5609567;-0.013654068;-1.5209658;0.019204527;-0.95193976;0.076738216;-0.43432266;1.1691407;0.008314008;-0.0060287486;0.42597392;0.0057121776;0.1787929;1.221454;-0.119178005;0.089763254;0.101547435;0.06498058;-0.04597405;-0.4015725;-0.00784277;-0.035593648;0.12212774;0.3233522;-0.49598226;-0.33512667;-0.23807383;0.15514721;-0.10130626;-0.102356136;-0.79933226;-0.009555869;-0.09413638;-1.8358116;-0.022155596;0.86691064;-0.00790863;-0.025519866;-0.18752605;-0.32901973;0.17176998;0.03824127;0.027914144;-0.010209071;-0.5793901;0.133714;0.07355836;1.3624744;-0.23452912;-0.07135296;-0.14520365;-0.9873799;-0.32298768;0.42559087;-0.08414034;0.10886689;-0.0925092;0.16208489;-0.07016868;0.72232676;-0.085704684;-0.046554063;0.091026165;-0.0063534114;-0.71962875;-0.10675873;0.084471576;0.122478195;0.08711706;0.060688846;-0.3164367;-0.017506516;-0.08741945;0.013900372;0.06329454;-0.18231262;-1.0839492;0.20677291;0.03430537;-0.089843065;1.3213085;-0.22614771;-0.20219064;0.031395927;-0.04946523;0.085191734;0.08444227;1.4276873;-1.4053434;-0.033564787;-0.09687641;0.059945215;-0.23009573;0.56483597;0.10863429;-0.03901604;-0.010333419;0.07073468;0.30380186;0.11859934;-0.052882;0.0903129;0.1891381;-0.039019;-1.0335664;-0.075143434;-0.08079922;0.09050914;-0.8181784;-0.024971304;0.68424815;-0.72368234;0.01783989;0.18209727;0.60512877;0.11377085;0.02248448;-0.12413833;0.17723113;-0.04102324;-0.0147275375;-0.45394707;0.21992494;0.0860696;-1.2393327;0.0043394375;0.037736185;-0.071685955;0.40984264;-0.09350405;-0.19397394;0.70294553;0.5544306;0.89919907;-0.012971984;0.03303394;-0.071639836;-1.0208876;0.02786982;0.02407321;0.024461696;1.2529649;0.00057127007;-0.12116681;0.22040121;-0.883891;-0.4694334;-0.044975147;-0.10713614;-0.17263241;-0.25201082;0.07018469;-0.35147822;0.09716633;0.09826621;-0.025147023;-0.36188257;0.48636073;0.79454285;-1.7850221;0.15794618;-0.23834468;-0.28952196;-0.013479092;0.0934255;0.4344268;-0.03473068;-0.4332259;0.7645193;-0.19207916;-0.062726736;0.10224858;0.008285956;-0.0044917814;0.27864856;-0.18051685;-0.029091423;-0.7937179;0.05195905;-0.053860374;-0.01089383;-0.007299124;-0.80796146;-0.0021370081;0.03815252;0.0997296;0.529366;-0.07048152;0.25208148;0.85155433;0.28747353;-0.07446697;0.01024231;-0.097282864;1.2765715;-0.056256738;-0.8050138;0.121844046;0.0741035;-0.63684285;0.087697394;-0.01653059;0.057185248;-0.8128664;-1.7503291;0.07318854;0.0795721;-0.3957445;0.06551407;-0.13496281;0.022487808;-0.5789426;0.08920427;0.040290937;0.10358538;-0.7169113;-0.111775756;-0.8123829;-0.04994985;-0.11170997;0.54664207;-0.007260314;-0.4345566;-0.046259437;-0.12783182;0.75061226;-0.15897901;-0.6303226;-0.054010853;0.035370428;-1.2117547;-0.08314769;-0.11016976;-0.44634995;-0.017007628;-0.13467672;-0.03700041;-0.006691864;-0.03575809;-1.4924529;0.05232473;0.3661678;0.08553909;-0.7163727;0.02374932;0.8576008;0.1878224;0.025106732;-0.9182303;-0.18659514;-0.28884825;-0.012944974;-0.040164404;0.09404192;-0.08432071;0.0354673;-1.014522;0.3279416;0.24627198;0.2673064;-0.09666276;-0.029986821;-0.16437642;0.007771936;-0.10333452;-0.77050585;0.81448096;0.045389578;-0.113631666;0.080977485;0.0025101996;0.10063985;-0.18163213;0.0001820498;-0.106075734;-0.07923654;-0.6712179;-0.4164204;0.036354844;-0.07308267;-0.27617314;1.0800133;0.09133896;-0.4957109;-0.34405133;0.21713477;-0.79826933;-0.1650712;0.024650676;0.030644407;-0.30588162;0.66599184;0.00065514917;0.00672464;-0.4514583;-0.6510505;0.13366635;0.0013304579;-0.4183714;-0.18411766;0.6997599;0.5560346;-0.54175854;0.06477896;-0.16666575;0.06535922;-0.30473173;-0.13455209;0.30278513;1.0062518;0.15361297;-0.055216823;-0.39518887;-0.34320593;-0.09466563;-0.10844008;0.045913756;0.004893539;0.30557093;-0.14793684;-0.89510804;0.028024223;-0.8800937;0.2702106;0.033817086;1.536696;-0.08193763;-0.06335984;0.8015134;-0.19369209;-0.0149362525;-0.12027301;0.08818699;0.058927674;0.71548676;0.10461992;-0.44056326;0.660498;0.22906369;-0.01567049;-0.03934398;0.05400209;-0.81150585;0.47285515;0.541144;-0.94847924;0.005370793;0.19794102;-0.17773129;0.20413288;-0.42083612;0.09572236;-0.070837006;-0.538207;-0.8089584;-0.23491457;-0.85295415;-0.030282002;0.094911106;-0.024647135;0.037886657;-0.08093363;-0.03453767;0.07291321;0.060527164;-0.1279499;-0.021435028;0.057383273;-0.11571351;-0.81408316;-0.009781042;-0.533599;0.09465013;0.27457464;-0.13290995;0.054564726;-0.11178841;0.0442923;0.11806661;1.3896064;-0.033268567;0.08406869;0.29793328;-0.041862097;0.11174361;-0.7188993;-0.18988739;0.09308821;-1.8235643;0.0721904;-0.092183106;0.044103064;-0.81766874;-0.45537132;-0.5035157;-1.1024175;-0.16786681;-0.054622404;-0.04941756;0.48825404;-0.28439623;-0.21440066;-0.027220318;1.3464867;-0.0952512;0.12189644;-0.019896077;-0.0055320426;-0.08616114;-0.07824284;-0.039760422;0.2244455;0.55835885;-0.39391968;-0.1441063;-0.08632892;0.34952718;0.0029075693;-0.4515711;-0.36739284;-0.06774521;-0.104486905;0.0133020505;0.4336843;-0.050882373;0.5391703;1.2845567;-0.13910306;0.039172746;-0.07625913;-0.09617637;-0.4212861;0.13356404;-0.026016355;0.0019058323;-0.75340706;-0.1794434;0.09067854;0.07220477;-0.6469999;0.15746199;-0.027883992;-1.1384596;-0.25480425;0.16429414;-0.2001171;0.64685696;0.11437383;-0.39962703;1.7659166;0.4002091;-0.1008956;0.04703061;0.035677966;-0.54185456;-0.124899894;0.027457507;-0.049190406;-0.005695735;0.13007122;0.21818376;0.0322728;-0.69613373;0.0057229777;1.1686306;-0.28661573;0.025245331;-0.1918541;-0.47209644;0.9139156;-0.03991981;-0.03580154;-0.036139283;0.015143626;0.1017421;0.6002025;0.026810044;0.5050259;0.0009968737;0.14905015;-0.05101114;-0.04023441;0.2130465;1.1879466;0.6007164;0.028017486;-0.16185886;-0.32160956;-0.08093151;0.0701943;-0.048155732;-0.16316739;-0.08873364;0.001157949;0.9858388;-0.04735895;0.11313448;-0.09144966;-0.0071477774;0.00642204;0.070771664;-0.055014998;-0.02495893;0.023512132;0.08737664;-0.35145786;0.05271909;0.6749149;0.061578065;-0.108271085;-0.011070221;-0.10153218;0.4938441;-0.09868037;-0.5888384;0.070531115;0.6725141;1.3694744;0.063927695;0.40192428;0.005309297;0.061275102;0.21945201;-0.13944276;-0.045124877;0.38968697;-0.39264408
1.3076127;0.1537921;0.4157117;-0.058324866;-0.54063594;-0.11283066;-0.5622067;-0.039965387;-0.07358956;-0.3050522;0.013658586;0.00092927396;-0.05821655;-0.06545095;-0.00621838;0.02229886;-0.003928095;-0.15148625;-0.06985511;-0.672451;0.07971885;-0.67524785;-0.0030215308;0.0077177845;0.18696053;-0.69711095;-0.23928888;-0.43959665;-0.16979204;-0.37159908;-0.019382821;-1.188551;0.032143418;-0.76981634;-0.064032726;-0.20945726;-0.047719903;0.028332807;-0.1404032;-0.004060166;0.011428698;-0.09842373;-0.11460559;-0.223283;0.052606806;-0.012175993;-0.037875514;-0.0028538408;-0.14863037;-0.48600397;-0.054133862;-1.0459933;-0.06749532;-0.24641751;-0.072423466;-0.0792707;-1.7008225;0.038027532;-0.05185182;0.3459757;-0.71432066;0.0388205;-0.8137324;-0.23413707;-0.36350095;-0.056598213;0.013689362;0.022490323;0.38013744;-0.050693788;0.085110456;-0.029291047;-0.3506563;0.036232352;-0.22519493;-0.37693772;-0.09532483;0.0790511;-0.39566675;0.740414;-0.6362295;0.049056847;-0.27426445;-0.08610315;-0.081490435;-0.20998687;-0.092637;-0.10566081;-0.33740184;0.16960849;0.023643307;-0.06097631;-0.044960737;-0.23429495;0.039968174;-0.050551932;0.6712695;-0.14625384;-0.008349041;-0.05615901;0.34057543;-0.10936342;0.37234902;0.08024347;-0.06544133;0.02650911;-0.10440677;0.0638476;-0.0036062368;-0.035523232;-0.07815119;-0.0860216;-0.08181872;-0.09392778;0.088946275;0.014975657;-0.07919193;-0.2791518;0.028760802;-0.4435476;0.012141872;-0.018006796;-0.016980859;-0.06455261;-0.046084043;-1.3510042;0.62080395;0.025974145;0.11846493;0.8899718;0.0252597;-0.2123895;-0.1307823;-0.0026448497;-0.10887702;0.04588641;1.4813725;-0.059733145;0.029426457;-0.25821567;-0.082457304;-0.2316889;-1.1711838;0.033650745;0.047462765;-0.008269524;-0.13902898;-0.12903148;0.27771357;-0.0019891728;-0.08368001;0.037556663;-0.033793967;-0.6726578;0.03375551;-0.00045129145;0.119053535;-0.2182054;-0.019718;0.76900834;0.0019342691;0.05707219;0.26682314;0.6321761;0.85086125;0.08307556;0.012617401;-0.11953508;0.018512145;-0.044238284;-1.2964019;0.8518969;0.009327382;-0.85661995;-0.050526444;0.06950719;-0.5434772;-0.30389467;-0.0806597;-0.06623272;0.71318847;0.32855716;-0.3190831;0.26987547;-0.010622685;-0.020853307;-0.123568706;0.050229385;-0.089238904;0.0020041107;1.7099109;-0.06473243;-0.062374324;0.038107563;-0.21654093;-0.26771623;0.0072665736;-0.008399193;-0.057554867;-0.017732482;0.05182666;-0.018432725;-0.07042622;-0.073689975;-0.035245705;-0.024042055;-0.26871756;0.44072178;-1.4472041;0.057447005;-0.31277663;-0.026317284;-0.18087782;-0.014708899;0.13563746;-0.4305426;-0.01569213;0.44317025;0.16047047;-0.068255335;-0.054275658;-0.030096702;0.07294348;0.1150023;-0.07564593;-0.0056348764;-0.15189438;0.51004857;0.04825426;-0.075907715;-0.08433052;-1.0593126;0.031384353;-0.04510209;-0.05135362;-0.11959842;0.008094791;0.10406973;-0.0016529288;0.6031165;-0.49765143;0.03174972;0.01966741;1.2314229;-0.017683601;-0.34416673;-0.04651277;-0.14353283;-0.39316955;-0.057097975;-0.004452487;-0.0716178;-0.0028577968;-1.9286399;-0.053560983;-0.091470934;-0.05417002;-0.0792147;0.08738536;-0.08042384;0.38180134;-0.024992337;-0.036798928;0.18613195;-0.10733933;-0.20922554;-0.119540356;-0.09831631;-0.50908613;0.9213714;0.015382607;-0.029989151;0.03921988;-0.022969976;1.4208158;-0.0058073355;-0.52265245;-0.017503245;0.08724851;-0.08765652;0.027654741;0.01366022;-0.06256272;0.04232215;-0.01855328;-0.060161494;0.011322103;-0.01595466;1.4233048;-0.008515948;-0.92986894;-0.12336286;-0.17889598;-0.07133727;-0.1900408;0.42351565;-0.021560756;-0.7656143;-0.011538653;-0.37363905;0.028681176;-0.008942137;0.0015377526;0.32448506;-0.10163086;-1.3638977;0.29216582;0.04343754;0.9126621;0.10628522;-0.0018825356;-0.18526085;-0.05709462;-0.025939118;0.35626632;0.20032386;-0.054000963;-0.014010656;0.020155912;0.084523246;-0.03557567;-0.12525381;-0.046667624;-0.060156018;0.046915803;-1.6620018;-0.07456965;-0.07287261;0.07401453;-0.67598224;2.6051528;-0.2567687;-0.08163052;-0.085053965;-0.7724785;-1.1426643;0.50435174;-0.07033755;0.021030232;0.023354607;-0.002239714;-0.013762484;0.044936914;0.4041464;-0.14816263;-0.0050871545;-0.047337636;-0.08171573;-0.04122214;-0.5101365;0.41441113;0.27294633;-0.26320642;-0.2003311;-0.03154313;-0.06498957;-0.2822518;0.7774625;0.7164386;0.015819566;-0.06155112;-0.046582256;-0.58357054;-0.49586344;0.066445544;0.07561315;-0.06714668;1.13213;-0.066037565;-0.5465689;-0.054907896;-1.5079608;0.1903088;0.0048809103;1.6472536;0.01190917;0.04528892;0.28308296;-0.00043777446;-0.12536481;0.07204974;-0.008624236;0.0077467468;0.6363656;1.3632098;0.055186667;0.13723028;0.021515131;-0.011701957;0.12181349;-0.09487935;0.38759226;-0.09476216;0.44073746;-0.68895257;-0.09173654;-0.09741763;-0.04899506;0.16944976;-0.05882648;-0.07849069;0.061357327;0.014312106;-0.12139971;-0.13519682;-0.1969924;-0.019741233;-0.049535006;0.11371495;-0.056848586;0.10246273;0.082337916;-0.061864;-0.02882438;0.68465817;-0.25603068;-0.004432984;0.014982963;-0.12607454;0.05574926;-0.008449032;-0.19204435;0.047793813;-0.024429457;-0.04346936;0.08290747;0.04415728;-0.047368083;1.9570996;0.07609545;0.033806052;0.3073246;-0.03918312;-0.35124445;-0.7054423;-0.24109185;-0.05828484;-0.5449113;0.0030663845;-0.11633862;-0.085690506;-0.3266791;-0.1736591;0.73821956;-1.4426631;-0.13952313;-0.377684;-0.04759602;0.04953215;-1.7633829;-0.104832746;0.0028528667;0.36159882;0.05484222;-0.3511657;0.048704915;0.054881915;0.38833925;-0.15599383;0.06615619;-0.13470413;0.06761059;-0.02810597;-0.007851986;0.049724422;0.13151047;-0.07290246;-0.6951857;-0.58212054;-0.09067417;0.02710895;0.00056052057;-0.31528363;-0.09089551;0.61815333;0.6613742;0.07175872;-0.037729967;0.07716236;0.07772711;0.0062121516;-0.06881665;-0.042222984;-0.025094524;-0.7977061;0.008374606;-0.12805241;-0.08730892;0.017120268;-0.054348987;0.04738901;-0.8692375;0.36894387;1.2536906;-0.020673485;-0.1746588;-0.057488546;-0.095071375;0.26467493;-1.0915358;0.06713578;0.03134338;-0.10068798;-0.014755785;0.25628486;-0.05509665;0.054798372;0.025214389;-0.018226162;-0.41373426;0.0403552;-0.052244186;-0.12507683;0.5883066;-0.008140949;-0.14924611;0.052871343;0.06892271;-0.9346073;-0.019878387;-0.07663476;-0.06794557;-0.054639485;0.015169553;0.59191054;-0.043756433;0.078785725;-0.026450818;0.28602296;0.017579488;0.03896054;-0.5393737;0.99366087;-0.5132157;-0.035162274;-0.013119955;-0.09895074;-0.032551862;0.04185851;-0.0036607375;-0.9121387;0.029316938;0.03495901;-0.200656;0.057095163;-0.04753119;-0.06892959;0.04022888;0.062037826;-0.042418227;-0.0043111076;0.053436548;0.065666415;-0.027168483;-0.20747475;-0.017963702;1.333643;0.016162004;0.051489126;0.060947333;0.00026967225;-0.14424047;0.10650986;-0.022171626;-0.10344538;0.7300553;0.66513914;0.03997841;-0.30956772;-0.16946037;0.011511739;-0.2945354;0.084494665;0.09625776;0.8376678;0.4662634
0.19132215;0.11015375;1.330051;0.027497726;0.34922844;-0.23499715;-1.0355619;0.028437354;-0.080002055;-0.39880875;-0.06561554;-0.13227041;-0.43500352;-0.024650736;0.07288433;-0.004376415;0.10409658;0.3563155;-0.100085005;-0.899496;-0.37964538;1.115482;-0.034523617;0.008397822;-0.082352415;0.51934344;-0.18269725;-1.4899639;0.50193274;0.49088833;0.009275621;-0.2876575;-0.023873914;-1.4826465;1.7577847;0.85897386;0.450966;-0.07268823;-0.021903882;0.08104512;-0.033292983;-0.06363774;1.9335778;-0.08149575;0.0060929344;-0.04093701;0.10356271;-0.05332932;0.050246935;-0.4707421;0.072663225;-1.8337337;0.031631436;-0.12443235;-0.027058568;-0.17116465;0.08445785;-0.09845325;-0.011370581;0.61121964;0.9330054;-0.020459205;0.82968223;0.04838271;0.27593234;0.009606006;-0.049256433;-0.0050267656;0.14603385;-0.03997352;0.11630851;0.03399929;0.29495984;-0.30501175;-1.2692298;0.5109196;0.19477543;-0.014034617;0.57960355;-1.0041007;0.058710694;-0.028586807;1.1789458;-0.028699055;1.0563449;0.113565244;0.0059175985;-0.24898607;-0.038379956;-0.008134186;0.097023696;0.038429625;-0.06261128;0.07795932;-0.0041223457;-0.024108695;1.4805199;-0.13383792;0.06646818;0.0024815055;0.059212655;-0.09290515;-0.008495209;0.048374794;-0.028147683;-0.004132586;0.19515191;-0.05204765;-1.8022053;-0.06500443;0.0887735;0.015637843;0.025905376;-0.5909243;0.049215753;-0.000117795025;0.10164093;0.309096;0.043699693;-0.24771816;0.014651702;-0.050919097;-0.08658856;-0.1014883;-0.117928624;-0.9505519;0.25542936;0.018080134;-0.07195579;2.0874045;-0.021929199;-0.48551252;-0.0233669;-0.031444572;0.063988335;-0.053219337;0.8791996;0.27333686;-0.0016818432;0.454048;0.06654028;0.76841605;-1.1877433;-0.06924085;-0.017661683;-0.024405003;-0.123048365;-0.5306918;-0.13307855;-0.004447577;-0.020502374;0.112578616;-0.102342576;-0.3482464;0.050063394;-0.037619703;0.04866733;-0.17929082;0.030920012;0.89099926;-0.28167602;-0.060425993;0.14951926;-0.5387579;-0.35548094;0.007752384;0.020871438;0.23188134;0.021538101;-0.09918967;-0.4031791;-0.16920723;0.06178117;-1.6067076;0.01399344;0.062647924;-0.7661921;0.038451377;0.45359457;-0.03158561;0.074605085;0.21725321;0.31968024;0.5330791;-0.006302162;0.027333118;0.68758774;0.08613179;0.012800215;-0.049530994;-0.42314726;-0.039768744;-0.06012139;0.013826303;0.56162566;0.03579493;0.084191024;0.017386192;-0.092050195;-0.07387672;0.007156628;-0.08000733;0.069095455;-0.05941041;0.049137387;-0.18088457;0.36442637;-0.2602328;-1.0811644;-0.031124093;-0.7428808;-0.14379093;0.112416215;-0.019570148;0.39994475;0.063127704;-0.10344223;1.390224;0.6264571;-0.0385137;-0.030014995;-0.084514596;-0.072600916;0.12218184;-0.09949766;0.038580973;-0.6127488;-0.017021386;-0.015084625;0.0770209;0.04900645;0.003395625;0.8163264;-0.04109062;-0.0163203;-1.9179584;0.078767225;-1.1905043;-0.01691451;-0.2835343;-0.18238737;0.017550537;-0.046806775;0.30481714;-0.0062885648;-1.4057494;0.06346604;-0.0048414427;-0.690621;0.025462383;0.04240152;0.1343339;-0.6384212;-0.7695453;-0.042991098;-0.08143193;-0.06390147;0.052262727;-0.32645068;0.033566564;-0.09722947;0.009243122;-0.013114469;-0.016476534;-0.51475894;-0.3173854;-0.5774831;-0.050989367;-0.16260634;0.24816068;0.06467998;0.58076096;-0.020284329;-0.062214468;0.74557954;-0.21796308;-0.5612281;-0.10405965;0.0390638;0.5271584;-0.011631814;-0.060646255;-0.31051832;0.064197;0.017488267;0.050318703;-0.019959137;-0.070201606;0.041250072;-0.20452048;-0.6682901;-0.035854813;-0.13592878;0.030697873;1.1306129;1.2323363;-0.0436491;-1.0842165;-0.0011695427;-1.39618;-0.07289456;-0.016583312;-0.0137580605;-0.28938758;-0.03203263;-0.7011376;0.15718788;-0.32668;-0.031354073;0.015803799;0.05834677;-0.36776388;-0.062132724;-0.053168286;-0.1553649;-0.30029714;0.3879818;0.88090205;-0.038115714;0.05010202;0.081773795;-0.30711964;0.06208968;-0.12119304;-0.2384906;-1.4706907;-0.22804873;-0.05197913;0.014125946;0.07484625;2.9160433;0.20292832;-0.37236828;-0.092924096;-0.44126096;0.5159575;-0.044277135;0.0754144;-0.03117491;0.22482102;-0.24440078;0.008625282;-0.01584662;-0.66845816;-1.4604552;0.080298044;0.007029087;-0.29790446;-0.092667036;-0.3744658;0.072552696;-0.041273125;0.12453338;-0.2697788;0.03768621;-0.052453857;0.6816255;0.6336544;0.095973305;0.08955678;-0.0327106;-0.22935502;0.58597535;-0.66222996;-0.03241969;-0.22784345;0.06198117;-0.22675571;0.056289017;0.21426539;0.07080937;-1.6446909;0.16615088;-0.023940718;1.2909591;0.046496313;-0.051747568;1.0007335;-0.08760608;-0.02012491;-0.015071127;-0.057130966;0.1059302;-1.0337243;0.9112183;-0.14496697;0.71603984;0.30410635;0.033460252;0.029766845;-0.0741614;1.715377;0.3044586;0.47012767;-1.4042112;-0.07272253;0.26848724;-0.108918;0.68265545;-0.14034796;0.044021904;0.073460974;-0.39160675;-0.59215844;-0.124488614;-0.80655205;0.005503868;0.088215984;-0.002897663;-0.06900879;-0.040199563;0.006727393;-0.004649954;0.16511141;-0.19083229;0.65105516;-0.093324564;0.017543854;-0.6522093;-0.042691477;-0.08468149;-0.43692473;0.09813155;0.059496745;0.008218004;0.0010455378;-0.023120897;0.14441217;1.1428083;-0.0021132238;-0.009383519;-1.613774;0.029359045;-0.013672031;-0.55408025;-0.3944443;0.08133685;0.3326809;0.061897513;1.4861599;0.053903084;-1.2523608;-0.32815218;-0.42404366;-1.365948;-0.020085562;-0.02253137;0.00047482128;-0.057000786;-0.23992376;-0.04315928;-0.07288562;0.35736755;-0.028464515;0.34345204;-0.10100484;-0.017246053;0.5100948;-0.09275073;-0.089194715;0.25024188;0.50432146;0.10135396;0.051239856;0.0048884037;-0.06951928;-0.077376276;1.3564895;-0.15975384;-0.07738586;-0.06643291;-0.0032980393;0.35178554;-0.05545468;0.5020345;1.0372894;-0.057841804;-0.019648839;-0.06058563;0.06526352;-0.23989329;0.00024043034;0.025422158;-0.044936717;0.9755114;-0.0566699;-0.0074708713;-0.0052640247;-0.6475227;-0.009238354;-0.020336105;-0.4260887;-0.7949953;0.4633913;-0.021434981;1.084706;0.012595211;-0.11750805;0.7945866;-1.7838746;0.017306896;-0.016765986;0.14641465;-0.4977033;0.23399086;0.019131782;-0.07305673;0.053635255;0.05919399;0.30980614;0.037241135;-0.579672;-0.0020959198;1.2110549;-0.006978199;-0.38844863;-0.22825779;-0.25698024;-0.77593064;-0.026350316;0.07530272;0.006378942;-0.04695554;0.031009868;1.5886811;0.03714773;0.3170593;-0.0391901;-0.28801903;-0.103186205;0.03852987;-0.11260277;0.3548511;0.28913552;-0.025268832;0.06932048;-0.029032053;0.052882005;0.07657158;0.04705799;0.43845534;0.06628445;-0.098898925;-0.034140676;0.04913377;0.15616368;0.08301049;0.036953032;0.06486955;0.08509637;-0.055341654;-0.01701218;-1.3057499;0.06222126;0.04789173;0.04797784;1.4481298;0.07772184;-0.09035307;0.035060167;-0.00895129;0.35040703;0.025370577;-0.57292485;0.12177858;0.3757319;0.6504156;0.042607762;0.096207306;-0.058856644;0.055253472;0.31117353;0.2235149;0.046206776;1.273607;0.52334344
0.40225637;-0.6289186;0.66212475;0.002839865;-0.14797951;-0.15909502;-1.0010272;0.06647143;0.015694037;-0.5560451;0.084860325;-0.098878145;-0.17276974;-0.08938001;-0.014596115;-0.083326824;-0.5221733;1.5054586;-0.15127027;-1.0053933;-0.22987378;-0.62687355;-0.038524218;0.03072389;-0.2976337;-0.80289745;-0.03279498;-1.6268977;-0.1269312;0.32097015;-0.054954093;-1.5173167;0.015743777;-1.2922977;-0.37293634;-0.727167;0.033180736;-0.006063958;0.027843447;0.13371159;-0.08405865;-0.054920312;0.7300636;-1.4780884;0.0224401;0.020168725;0.07888263;-0.025052637;0.05015188;0.7620431;-0.06497077;-0.7256366;0.042106993;0.6199782;0.052909564;-0.2266476;-0.6325673;-0.0552714;0.0615516;1.4171231;1.1181091;-0.0055772588;0.63412386;0.06934481;0.010724645;-0.005946806;0.051878486;-0.022224795;1.0182381;0.025780784;0.047615204;-0.07196952;0.0390039;-0.09624991;-0.5712369;-1.4990343;0.08407475;-0.064558074;-0.49815822;0.9856961;0.35836798;0.015883572;1.3184358;-0.051740203;0.9310121;0.005703108;-0.019664643;0.088230155;-0.008531181;0.23384514;-0.05222352;0.06468782;0.03078351;0.16054039;-0.065590754;0.045649283;-0.9080611;-0.049795046;-0.048985217;0.08837022;-0.7539946;-0.050490916;0.35899377;-0.05613648;0.0036203319;0.076200694;0.02862083;-0.045178734;0.0065394165;-0.054250274;-0.07306808;-0.04328189;0.005471468;-0.20612058;0.022083387;-0.027350388;0.023240633;0.070003204;-0.022416152;-0.04550065;0.080360025;0.109952;-0.04279491;-0.052631147;-0.06439593;-1.0630959;1.3475085;-0.071671635;0.098630965;0.22502871;-0.008648959;-0.33205116;-0.0811578;-0.04701156;-0.06930134;-0.02760496;0.8747232;-0.35508624;0.037764743;-0.018529639;0.060441494;-0.15755233;-0.5891093;-0.041502718;0.05024062;0.001952274;0.028437084;-0.15457812;-0.79875356;0.008539848;-0.023339374;-0.057366442;-0.059786476;-0.49522564;0.05315432;-0.082176715;0.04738522;-0.2167137;0.056987178;1.0303121;-0.13015458;0.028623316;0.30908665;0.5371146;0.96613896;0.13428122;0.012944099;0.026232824;-0.016660336;0.060237817;0.63281643;1.3081839;0.01659108;-0.70664966;0.031639274;0.10518184;-0.79106987;-0.64823264;-0.36218202;-0.02884307;-0.6375147;0.1499518;-1.239705;1.2063692;0.031385086;-0.050078314;2.4091425;0.089633994;-0.021346072;-0.048909824;0.732761;-0.06572845;0.037760887;-0.04090453;-0.63249695;0.8866069;0.035007033;-0.0151118515;-0.06662677;-0.029467538;0.045403656;-0.1443488;-0.049081486;-0.031405758;-0.026010048;0.072848976;-0.1940031;1.8254967;-0.59096766;0.023648335;-1.0173362;-0.047615714;-0.033119164;-0.08046771;0.3571824;0.032996215;-0.08716416;1.2311022;0.91435564;0.030218966;0.07365074;0.004184457;0.03865545;0.065709144;0.11608414;-0.07329681;-0.1594223;1.7193879;0.06178608;0.023083825;-0.007180271;0.9820461;-0.012588367;-0.09986451;0.014444454;-0.9559522;0.05325703;-0.54812205;0.5983913;-0.08679851;0.16226098;0.047685213;0.014573672;1.118207;-0.033471618;-0.28594264;0.00038769294;0.10282991;-0.1429852;0.04310589;0.011679147;0.09260493;-0.24331547;-0.8613122;-0.058459926;0.0154054165;-0.078900404;0.022549674;-0.35701463;-0.0046026795;-0.2226374;-0.048907664;0.058948666;0.33667108;-0.13487129;-0.18808188;-0.2775698;-0.0050641987;0.18364824;1.1670852;-0.049561314;1.7719333;-0.10216095;0.036746178;1.8605902;-0.15394953;-0.6995429;-0.062251348;0.020269051;-0.54540014;-0.011635957;0.025812257;-0.12400464;-0.017359365;0.07025562;0.028031796;-0.0066241347;-0.09373925;-1.456183;-0.046081427;0.6012621;0.037170675;0.0953253;0.0054820892;0.30848804;-0.00028015074;0.069364965;-0.6718399;-0.036199372;0.94180727;0.08431209;-0.08059764;0.055124115;0.40386564;-0.0750119;-0.82577187;-0.15507327;0.41375443;0.8544848;-0.051354006;-0.027925428;-0.12672937;-0.01950398;-0.026562892;-0.54164934;-1.0977317;-0.07387551;1.5581913;-0.052628692;0.09308966;-0.04619814;-1.2881323;0.041063808;0.06724094;-0.27880394;-2.0165687;-0.10198286;-0.037524465;-0.03345949;0.46589586;3.3137255;-0.1280639;-0.21436079;-0.10563648;-2.231734;-0.5145311;-0.87367135;-0.0664286;0.024752049;0.31250125;0.5762631;-0.030916225;0.050660618;-1.6071345;-0.6204353;-0.058599316;-0.047001082;-0.07857835;0.06490756;0.5726489;0.26876178;-0.29286295;-0.09581715;-0.059735216;-0.09108371;0.39460275;-0.4368115;-0.74491096;1.5600268;-0.08315682;-0.047721226;-0.10403947;-0.7123206;-0.6275478;0.024013706;0.11368533;0.03065451;-0.020565566;0.34834644;-0.45249438;-0.025613237;-0.65119094;0.012339055;0.005628332;2.0633519;-0.02339691;-0.048761275;-0.82260954;0.030299315;0.06176063;0.023138816;0.029039567;0.030422032;-0.66816795;1.3208456;-0.15325174;0.58579934;0.359724;-0.07516637;-0.025745658;0.03880165;1.9680023;0.5658978;1.0696696;2.7721841;0.052923407;-0.0983233;-0.016316665;0.7010468;-0.21722199;-0.030569285;0.017254647;-0.17266005;-0.19307432;0.0002868452;0.51139873;-0.08111382;-0.14198549;0.035792217;-0.0722217;0.08198797;0.042131744;-0.0049638283;-0.026539085;-0.9035659;-0.3115578;-0.099117614;-0.016358225;-0.1702364;0.006444009;0.11532326;-1.1836144;0.0481634;-0.019958545;-0.070162;-0.04237711;-0.030174946;0.056561;1.2704366;-0.022302747;-0.10398183;-0.9799191;0.043239173;-1.108084;-0.38452235;-0.0061433585;0.0047835778;1.670914;0.048776984;-0.48071116;-0.07306079;-0.94800586;0.0102040665;-1.1595439;-1.4330057;-0.1170373;-1.3751937;-0.076788664;0.24916872;-0.122954704;0.07396348;0.087828025;-1.2837713;0.105961226;-0.09508719;-0.0055270754;0.022450116;0.41031423;-0.026275879;0.044240206;0.044432867;0.2639612;-0.22081982;-0.047326185;0.06517005;-0.09208448;-0.0641132;-0.6317877;-0.6552512;-0.032011814;-0.05895199;-0.048292242;0.27869907;-0.023494117;0.19809073;0.92727023;0.080009736;-0.044107985;0.03156936;-0.009200481;-0.09560357;-0.024326447;0.08391352;-0.034587976;-0.7035767;-0.09508207;0.10916346;0.09853499;-0.3240599;0.010962935;-0.033327583;-0.14612141;1.1740743;1.2544386;-0.078049816;0.53955907;0.057096895;-0.1348626;0.3990042;-1.7081804;-0.03365702;0.020546706;-0.012173793;-0.20240502;0.3336494;-0.06902594;-0.05417623;0.08910907;-0.09842692;0.022560915;-0.0048018983;-0.30711263;-0.068687476;0.87120247;0.030716958;-0.49395368;-0.12990926;0.17373314;1.2925501;-0.03656461;-0.029935038;0.070326045;0.026433099;-0.06724712;1.4102991;-0.07348526;0.5250381;0.06523491;-0.13457158;-0.050829794;-0.044450212;-0.4040926;0.54948866;-0.022055667;0.03183275;0.10423676;-0.041540463;-0.007683813;0.058873802;0.002744854;-0.55802256;-0.00843639;0.1056003;0.9299215;0.000104469036;-0.052719038;0.022953203;0.036550242;-0.0015655573;-0.0023617733;-0.09103256;0.074298754;-1.4029895;-0.014698503;-0.054462228;-0.020183891;-0.8758535;-0.113034464;0.00441835;0.02379033;-0.03412551;0.13256311;-0.046322662;-0.1494987;0.054040212;-0.72398365;1.0338761;0.035722304;0.098270185;-0.03747545;0.0069113043;0.05056186;0.0046694763;-0.025286477;1.9643992;0.024832122
0.017070653;-0.97607934;0.8243307;0.028864464;-0.27769732;-0.1322361;-0.7179008;-0.016227923;-0.039850134;-0.40479913;0.041150995;-0.12251666;-0.14700842;0.07478891;0.012967627;-0.080868155;0.47453365;-0.8544577;-0.05419417;0.48785275;0.19180088;-0.30937794;0.016788429;-0.0580777;-0.73029584;-0.32951176;-0.09379415;-0.78895044;-0.18992263;-0.56352866;0.028348306;-0.62819403;-0.04568441;-1.2240081;0.7293859;-0.28085336;-0.51561576;-0.05082689;-0.008267998;-0.010297523;-0.110976234;0.06211064;0.45193046;1.5671449;-0.07316424;0.01544184;0.012842756;-0.008242211;0.0095374035;-1.0945575;-0.095278084;-0.21079949;0.11573657;-0.9920321;0.0932275;-0.49588317;1.6215281;-0.04262114;-0.04800628;0.8306939;-0.24382028;0.01988091;-0.03268429;0.02221038;-0.17563473;-0.050506897;-0.02861228;0.06328745;0.11458851;0.03638069;0.024728108;0.008844783;-0.041273367;-0.05588071;-0.3228671;-1.096539;-0.040536802;0.054252703;0.29807216;-0.92328006;-0.30083156;0.031202866;0.042309463;-0.049848292;-1.6582129;0.056068037;0.0020607961;-0.23301657;-0.20983128;0.044429153;0.015054091;0.013047045;-0.05450682;-0.1395264;0.061525874;-0.047082692;-0.5836788;-0.17079322;-0.054619636;-0.019823078;1.4590671;-0.05670615;0.29366177;0.028403202;0.03037468;0.008913651;-0.016429644;-0.050496943;0.2744807;-0.09006758;0.005613692;0.07417529;0.0755694;-0.22127844;-0.001189911;-0.028680086;0.09809753;0.009888252;0.052497946;-0.39361107;-0.021454094;-0.03464877;0.006683817;0.023647228;-0.048224077;-0.50873786;0.74247706;0.004480975;-0.017219322;-0.36762968;-0.09892301;-0.089769505;0.06429466;-0.034510974;-0.07586781;0.028421536;0.2047725;-0.8948457;0.06618841;0.17998075;-0.029857738;0.19301553;0.30263028;-0.06335627;-0.07003944;0.0011164274;-0.39406943;0.124366954;0.7338776;0.0017940438;0.04446876;-0.044977404;-0.082888134;-0.26509142;0.036892273;-0.0743778;0.12004525;-0.79644054;-0.044679083;-0.3077756;0.19060786;-0.030156195;-0.16010122;-0.7066605;0.9526993;-0.00715815;-0.044746682;0.018675549;-0.059411135;0.0696399;0.96711236;0.6692035;0.052478563;0.277417;0.0074071633;-0.04322756;0.6102278;0.7939527;-0.09854812;-0.06848055;-0.7979447;0.28276882;-1.5729991;-0.4161481;0.029766783;0.032485783;-0.021156115;-0.04944926;0.08043059;-0.009889917;0.25381;-0.00489693;0.0021059096;0.19387273;0.74192464;0.09045847;-0.038155228;0.033955667;-0.15406136;0.13844885;-0.004911572;-0.08236524;-0.02007725;0.01828474;0.06846811;0.052510288;-0.021834947;-0.57406944;0.13590878;0.041682843;0.35253063;-0.06845614;-0.07099715;0.015648358;0.16634968;-0.1218078;-0.08361275;0.068873055;0.6940294;0.08881464;0.05898695;-0.029603763;-0.06711748;0.09943203;-0.08718754;-0.0030355717;-0.20579468;0.60373855;-0.018513262;-0.06475476;0.049429834;-0.45337588;0.19666584;-0.023898963;0.074351534;-0.55230415;-0.08101571;-0.14882281;0.20286758;-0.48441908;-0.2772773;0.07775271;-0.047304805;0.18694784;0.02169672;-0.40616596;-0.030346127;-0.24327531;0.29433626;0.043214157;-0.000686709;0.0021267363;-0.15831776;-0.23353985;-0.023074012;-0.028822323;-0.18052611;0.0051951758;-0.3203369;0.03210638;-0.94958997;-0.034283176;0.060008697;0.051045313;-0.16608742;-0.31749395;-0.18551221;-0.033201806;0.76602185;0.05219428;-0.021295909;0.4428455;0.09944829;-0.0116809625;1.9625732;-0.39659244;-0.4867449;0.01814982;-0.0267919;0.80111015;-0.01660999;-0.11364408;-0.07229909;0.074230425;-0.0641943;0.025998848;-0.058329705;0.049910028;1.6501044;-0.02484515;0.7122339;-0.07366151;-0.015435155;0.021862345;0.29864156;0.66311264;0.055382185;-0.006415561;0.01936386;0.22360834;0.051890552;0.0021804466;-0.026734402;0.8432044;0.039357245;0.89242834;0.10208383;-0.19259836;-1.3683183;-0.065047525;-0.05384993;-0.14563331;-0.041241106;-0.048870225;-0.31111574;-0.16631198;0.08613744;0.77823997;-0.043842506;-0.005806029;0.072235875;1.0118892;-0.054859772;0.036135703;-0.14373323;1.3745617;-0.051983684;0.05714017;0.04994028;0.23680991;1.0639255;-0.16230273;-0.11987993;-0.088832825;0.3335441;-1.1323264;-0.475664;-0.073067196;-0.10780994;-0.0926891;0.12085527;-0.04962953;0.06240269;-0.19292071;0.901296;0.10616897;-0.08494776;-0.18559368;0.032444675;-0.34760916;1.1948478;-0.0057780594;-0.084077746;-0.30029133;-0.01679722;-0.65930265;0.0790469;1.0928891;-1.159585;0.05128337;-0.00426918;-0.07912283;0.16644432;-0.7384745;0.013087604;0.040275898;0.032272317;0.27904928;-0.17397098;-0.80073017;0.05091569;-0.07495993;0.11828423;0.038396977;0.8423867;-0.034612447;0.07522106;-1.0209177;-0.032461103;-0.033846818;-0.07359051;0.07274113;0.07110783;-0.22264406;-0.012006304;-0.19687662;-0.24453615;-0.497473;0.08590709;-0.02497579;0.063344665;1.1619897;-0.024888122;0.44561607;0.556299;0.0044698007;-0.1625822;-0.10710952;0.11900223;-0.07833809;0.036736473;-0.07027237;-0.18912293;-0.17063068;-0.023321018;-0.2893104;-0.06899368;-0.00045270193;0.07357693;-0.028738055;-0.044399243;0.052750755;-0.045515;0.06359395;-1.3048303;0.2569029;0.012664749;0.06722297;-0.1174034;-0.051119782;0.10770528;1.8953239;0.135341;-0.011373535;-0.041565686;0.012477453;-0.04272108;0.002154151;0.92593324;0.0022952864;-0.054144114;0.42972478;-0.1194646;1.1777581;0.05014115;-0.2864835;0.07408882;-1.0665798;-0.078653045;-1.3908154;0.0735753;-0.7132574;-0.03817177;-1.6545779;0.9766425;-0.056147244;-0.8925523;-0.07467872;0.10030371;-0.44302678;-0.04352172;-0.02087458;0.8601659;-0.06305844;-0.23918188;-0.07557427;0.04736644;-0.28886375;-0.07124889;-0.07965882;0.047237694;-0.6155736;-0.23315814;-0.04552082;-0.059662502;0.16408424;0.026776334;-0.68042296;0.6314514;-0.072592646;-0.08733216;0.030478286;-0.19453546;0.06502887;-0.22474983;-0.84052163;-0.010778144;-0.013896111;-0.091644935;0.0547875;-0.162498;0.07173387;0.0016030733;0.06455228;-0.12624522;-0.051292147;0.20161223;-0.113183364;-0.2929451;0.06498318;0.0032430417;-0.2644267;0.4295779;0.13359956;-0.14481218;-0.015727328;0.12130531;-0.058423545;0.13102862;-0.34478533;0.018482057;0.057630673;0.00058307016;-0.05221893;-0.4718451;-0.00021956646;-0.0008150018;0.060498994;-0.047475882;-0.12919502;0.0031475304;-0.053778082;0.05782153;0.682052;-0.06736884;-0.18540935;0.0032365876;-0.13689812;-2.1633258;-0.07144735;-0.08888906;0.030505138;0.030381812;0.0037216577;0.31083003;0.034700304;-0.5283946;0.14089428;-0.13315281;0.04608416;0.00048190085;0.806804;-0.0674968;-0.0014572181;-0.083360516;-0.012853429;-0.12540603;-0.0476512;0.033263266;-0.062889814;-0.06202521;0.010762611;0.061026324;-0.09701979;-0.06674761;-0.042395756;0.06738842;0.03378396;-0.0043928833;0.040510662;0.052486073;-0.098694846;-0.7242163;0.09480391;-0.14872175;-0.05315696;0.15514643;-0.02076242;-0.075240634;-0.01783029;-0.06884295;-0.18964905;0.046626113;-0.1674537;-0.03002971;0.05233991;0.8867115;-0.08641305;-0.019612778;-0.051972985;-0.04977989;-0.19084112;0.055126216;-0.043109957;0.041813128;-0.05461994
0.7182838;-1.2038842;0.069928564;-0.003222857;-0.029608736;-0.12737586;-0.81959695;-0.007227851;0.009888676;-0.5889257;-0.02325387;0.0006857862;0.069700815;-0.056412984;-0.057555262;0.08611684;-0.078294866;-0.47008282;-0.068496585;-0.4592136;-0.036727693;-0.23650236;-0.08730872;-0.003089724;-0.14614762;-0.377338;0.022044983;-0.040178936;-0.20434493;-0.22899568;-0.06179865;-0.24752623;-0.046801917;-0.056647465;-0.67966497;-0.15226087;-0.40181193;0.01589203;0.08694913;0.08653858;0.0233223;0.031512585;0.14356104;-0.03004618;-0.022904733;-0.04240538;-0.045247946;-0.07964242;0.01778157;-0.562226;0.029662123;-1.0173506;0.081875555;-0.82060534;0.07052205;0.4063344;0.22599885;-0.06491643;0.017559214;0.4829535;-0.67678577;0.059411503;0.4698425;0.024586098;-0.35755605;-0.046207383;-0.0031001347;-0.037007906;-0.19172423;-0.060484707;-0.064999685;-0.041179933;-0.073996015;-0.03483671;-0.37695107;-1.0437154;0.053538945;0.04830492;-0.21356948;-2.1952875;0.2555363;0.042560983;0.24136871;0.04960284;-0.6765712;-0.046529993;0.061105486;-0.24094509;0.1416487;-0.08086273;0.073971875;0.08626639;0.015886141;-0.67201334;0.04383655;-0.0033058529;0.63281155;-0.051643483;-0.017743967;0.026389346;1.2160705;-0.09742061;-0.3805239;0.02503535;-0.039196927;-0.04939967;-0.12805167;-0.04489955;-0.17806254;-0.07600456;-0.044937767;0.0571387;-0.06351745;0.020206684;-0.06377777;-0.04718588;-0.047331695;-0.23296425;-0.03269352;0.047767915;-0.0103312;-0.028220184;-0.055351052;0.08093016;-0.03326474;-0.7475575;-0.49069232;-0.022753164;-0.09835984;0.5571173;0.031772077;0.033285815;0.024777206;-0.027836233;0.058652166;-0.06862793;0.35028037;-0.30023468;-0.063740045;0.011370116;0.0066142036;-0.32048914;-0.071762376;-0.03559875;-0.007109079;0.060576852;-0.0041448073;0.38834688;-0.28351974;0.0035504254;0.06877237;0.022892242;-0.016605789;-0.67425764;-0.06889501;-0.07468289;0.08030752;-0.8073489;-0.08196787;-0.32617646;-0.45854458;0.074911475;-0.22079846;-0.026717324;0.5184281;-0.004188984;0.0017394177;-0.2187793;0.043213557;0.07703531;-1.0515828;-0.7905118;0.08703936;-0.42334017;0.015417076;0.030061148;-0.33923304;-0.23955418;-0.19234453;-0.050350327;-0.39492035;0.06864216;-0.4708129;-0.63875026;-0.05694595;-0.01470206;-1.568463;-0.07001537;0.045753837;-0.042184122;-0.5741014;0.011383589;-0.10312045;0.010265532;-0.8435822;-0.32014087;0.0032837752;-0.087261125;-0.079894416;-0.021114277;0.033193417;-0.028826827;-0.019082155;-0.057883326;0.0011806967;0.031006876;-0.03824848;0.61985826;-0.6621424;0.005096837;-0.38168573;0.034562536;-0.07349577;-0.065735504;0.0483346;0.15404838;-0.10388337;0.0024412565;0.2119507;0.037630387;-0.04813048;0.046083573;-0.04108541;-0.09730339;0.03873526;-0.06012661;-0.04224814;0.28559223;-0.07774373;-0.07411792;0.07749919;0.5667869;-0.2488673;-0.11783576;-0.008379103;0.38436615;0.006536809;0.5075562;-0.23627427;1.1146929;-0.28889716;0.03151671;-0.050146442;-0.17602107;-0.06983739;-0.14579222;-0.06473594;0.11444802;-0.014579687;0.03421266;-0.06250981;0.036019206;-0.011070124;0.02602157;-0.002757122;-0.043542884;0.024587046;-0.051702008;0.038333222;-0.009867544;0.11852691;0.04382557;0.020626571;0.15166032;0.032274485;0.14274862;-0.0010492698;-0.05045718;0.9870462;-0.537817;-0.057255454;-0.012136152;-0.03950544;-0.04348715;1.1946113;0.06692658;-0.22192392;-0.015385956;-0.04275432;-0.024474086;0.01932723;-0.034542497;-0.0020556685;0.01605448;0.011255191;0.06303551;-0.059518762;0.025814205;0.87025005;-0.11877411;-0.3049812;-0.07656205;-0.28541076;0.046813086;0.6423026;1.1581488;-0.066279955;-0.8178245;0.028464176;0.37437657;-0.031336695;-0.076412536;-0.07616242;-0.5583232;0.028003477;-0.19971317;0.037585746;0.095301054;-0.8529504;-0.106048465;-0.044070397;0.013099093;0.05508002;0.019409131;0.41803318;-0.2933782;-0.074020796;0.6868777;-0.06166448;-0.02269301;0.012566609;-0.04869622;0.026283333;0.06612017;-0.15916708;0.8112769;-0.11667666;-0.06401153;-0.07493032;-0.08821049;-0.22268137;-0.14054595;-0.02802827;-0.080412075;0.022763012;-0.37225795;-0.028943945;-0.03634951;-0.04866972;0.1801942;0.17293213;-0.066814326;-0.029049866;0.113000765;0.7738645;0.029405229;0.032306414;-0.0638604;-0.031623326;-0.16837376;1.1829195;0.12526725;-0.24860594;0.038211253;0.064530626;-0.06366696;-0.2558271;0.9297333;0.38916153;0.037849747;0.07375676;-0.12191856;-0.46187967;0.17927507;-0.079699785;0.04353757;0.029198576;-0.32707438;0.085028976;-0.8678415;0.091818795;-0.34931335;-0.026332976;0.07461394;-0.83118904;0.066323355;0.018517472;-0.60618234;0.06822589;-0.12030089;-0.051163282;0.043600116;0.056055278;-0.12659155;-0.5293838;0.013325258;0.29010102;0.018959636;0.041196268;0.011082911;0.09020722;-0.68269885;-0.13500063;-0.55655444;-0.18010925;-0.06692821;-0.06172995;-0.05637409;0.25026885;0.005992593;0.018037122;-0.08322919;0.027426556;0.027712367;0.021850472;-0.65762097;0.083874844;0.016971676;-0.034830384;-0.051048648;0.03763461;-0.073718704;0.048074555;-0.06499968;0.35661918;-0.12466452;0.08140486;0.01164226;-0.070134714;-0.053498782;0.13263875;0.73708546;0.051676042;-0.0036965082;0.016611256;-0.051206242;0.07764345;-0.108853176;-0.083797194;0.024070725;-0.07684683;-0.16428134;-0.046567023;-0.015505153;-0.3014296;0.18476383;0.063295625;-1.3670268;-0.031103278;-0.80714506;-0.023155052;1.0922166;0.07399629;0.6009854;0.72446734;-0.1097184;0.10958668;-0.06303313;0.0680749;-0.31660607;-0.07481848;-0.053255398;-0.03627099;0.011216148;-0.21552512;0.033186793;0.083822854;0.02335081;-0.09936737;-0.09443857;-0.07759046;-0.0239242;-0.06097426;0.00396644;0.019856583;-0.17789862;0.069798395;-0.74297976;-0.14981614;-0.0029283194;-0.05503103;-0.050696198;-0.14486192;-0.009249512;0.030767053;0.1469793;0.027081622;-0.069815524;0.024518266;0.0037911488;0.0047760312;0.082025655;-0.0005946947;0.026726639;-0.19132087;0.06470542;0.035322875;0.0063461503;0.9227471;0.085866295;0.06928855;-0.049882684;-0.6720328;-0.27114284;-0.07412739;-0.03189324;0.013671979;0.034514353;0.02909936;-0.43230742;-0.045705475;-0.0140391365;-0.06467257;-0.05468659;-0.061757036;0.07285255;0.041983113;0.043834284;-0.060211938;-0.3381484;-0.007997611;-0.11194274;-0.06619538;0.24357788;0.025181802;-0.21013808;-0.3020341;0.24569403;-0.06672498;0.018481134;-0.066918686;-0.034498997;-0.037608813;-0.01744681;0.5457491;-0.0038863493;-0.035902146;0.007141408;-0.30322304;-0.010670195;-0.05319947;-0.13598613;0.089245364;0.30988115;-0.065121666;-0.016611595;-0.1456238;0.042709984;-0.04385973;0.07571782;-0.08059066;-0.04598293;-0.11301426;0.2870322;0.0015702366;-0.004144699;-0.020965615;-0.0442231;-0.07476258;-0.040713195;0.05428942;-0.07791891;-0.044086732;-0.0001308752;-0.02554587;-0.0302717;-1.4735949;-0.009939002;0.052276086;0.026927862;0.0040144655;-0.21136917;-0.0072892094;-0.077418886;-0.019298902;-0.59996724;0.044175908;-0.0004025438;-0.1889311;0.0854185;0.016874459;-0.2911934;-0.06427371;0.060655747;-0.8630743;0.14029387
-0.007228455;0.17065851;-0.7193867;0.109569535;-0.044482294;0.22411905;-0.06140523;-0.06320761;-0.05733446;0.049640954;-0.047509454;0.09472478;0.31220704;-0.015510426;-0.028075188;0.062226146;-0.62689775;-0.04862275;-0.6707974;0.18542564;-0.67036384;-0.2234266;0.06429591;0.07477763;-1.2503607;-0.28533027;0.14538074;0.06736385;-0.18232694;-0.48123312;0.11363032;-0.066843465;0.023537112;-0.11285082;-0.86024094;-0.5266604;0.2054975;0.0578549;-0.004690285;-0.18154316;0.03186436;-0.00924646;-0.004835626;-1.2383457;-0.024185693;-0.07438789;-0.13291489;-0.05548617;-0.11385926;-0.46663675;-0.09846531;-0.15386859;-0.05857649;-0.28728327;-0.020074707;0.2639988;0.7819279;-0.025605274;-0.045166902;-0.25940174;0.17342772;-0.119877726;-0.15263662;0.16419397;-0.7008185;-0.11796093;-0.05315794;0.059923723;0.6946152;-0.1216169;-0.078684986;-0.10012383;-0.48896843;0.21504949;0.22890602;-1.4190127;-0.11142072;0.06578401;-0.37465677;-1.0062776;-0.26266426;0.046764486;0.02529369;0.054640185;-1.9318866;-0.2762692;-0.0155684445;0.37798172;0.21659304;-0.21764857;-0.11469301;0.03007975;0.044549823;-0.3547771;-0.09582518;-0.1114549;-0.69924957;0.06895548;-0.0011829393;0.09385074;-0.5730011;0.17021614;-0.07753011;-0.032930553;-0.007794388;-0.0679475;-0.31169888;0.015631286;0.17871211;0.05855194;0.053903222;0.0015930259;-0.07773997;0.46539226;-0.049530584;0.012555725;-0.12238239;-0.4373847;0.0577043;0.20073897;0.021244617;-0.012451574;0.008705361;0.14560984;0.1292672;-1.1160927;0.4724267;-0.07564802;0.05045619;-0.89551216;0.061185945;0.33549535;-0.034713846;-0.0132612055;0.04793759;-0.034628697;0.040862102;-0.15097184;-0.0036859545;-0.6899725;-0.05630169;-0.58996534;-0.3830372;0.0033433584;0.054897167;0.038276795;-0.3985671;-0.060156714;0.71316004;0.037026074;-0.100132436;-0.12308295;-0.017393455;-0.64762384;-0.0467389;-0.07487918;-0.15757981;-0.18147257;0.04795019;-0.82435393;-0.052053165;-0.09923302;-0.23763844;0.14524104;0.338341;-0.19730991;-0.062253848;-0.32213104;-0.05291896;-0.0346224;-1.2449872;0.6154671;-0.108164474;0.14291318;-0.05130145;0.09890617;-1.3055431;0.31794372;-0.38452512;0.07001006;-0.6545021;-0.5896034;0.012730586;-0.13616684;-0.060896687;-0.07500267;-1.8297117;-0.0031685669;-0.04713323;-0.054100797;-1.4742194;-0.035013475;0.052524786;-0.051778678;0.5490837;-0.046790443;-0.058533885;0.05657802;0.11883768;-0.13164754;0.006156989;0.08329191;0.06640465;0.011497757;0.05702408;0.3120791;-0.16783783;-0.018350594;-0.2665015;-0.20873892;-0.0375649;0.10434715;-0.2908083;-0.061671793;-0.058886185;0.0020818904;0.11101509;-1.1467355;-0.10207806;0.04586409;-0.10233114;0.022147635;0.037088934;-0.19934207;0.04656387;0.08850873;0.46677625;0.7853589;-0.0047364836;0.021053167;-0.0027501988;-1.4961509;0.18266177;-0.057881113;-0.06628099;0.09233086;-0.047679946;-0.09981073;0.02385468;-0.5283129;-0.40748525;-0.0475974;-0.031191466;0.21737345;-0.047485683;1.1745201;-0.04157085;-0.06961753;1.1825757;-0.036102116;-0.11318217;-0.019623049;0.49319002;-0.47209445;-0.008455895;-0.049935874;0.12721953;0.046538852;-0.23181824;0.04018296;0.06911392;-0.14845447;-0.054405283;-0.21708053;0.3156279;0.10054868;0.47629786;0.032307424;0.69742423;0.34004292;0.016369559;1.0538865;-0.0016323787;0.12357469;2.4551036;-0.12010938;0.36290348;0.05995181;0.075734146;1.4750489;0.017946828;0.10111422;0.30324295;-0.23469962;0.097050555;0.043859504;-0.07556571;-0.28592572;-0.7008765;0.04083017;0.32100394;-0.035852738;0.3798385;-0.077332266;-0.69568557;-0.5883404;0.0032146638;-1.2798129;-0.01190095;0.83876127;0.07604685;0.035844028;-0.05501469;-0.08117166;0.011582493;-0.19331804;-0.3701369;0.1598663;0.22613138;0.07389823;-0.06674344;0.12706485;-0.06762958;0.032229897;0.17169479;-0.79547226;-0.26175654;-0.72015387;-0.037695963;0.074773714;-0.054556075;0.1784674;-0.022637334;0.08137769;0.117183395;0.101878084;0.18108205;0.031694014;0.01618366;-0.2132651;-1.8473383;-0.55404276;0.3160207;0.08352414;-0.1779472;0.1192034;-0.11646507;-0.018759886;0.06965263;0.25306514;-0.32602122;0.011604272;0.021590643;-0.10489198;0.5681693;-0.068901226;0.010844473;0.18099897;-0.0059171757;0.024576008;0.644392;0.17519973;-0.42779148;0.19302168;0.0691773;0.28956637;-0.55043447;0.22420384;0.017003505;-0.08388586;0.05314596;0.17167567;-1.2216722;0.6150701;0.064102195;0.02008742;-0.07054469;-0.6580646;-0.0031430332;-0.30246806;-0.04762285;1.0705464;-0.4095154;-0.042020876;-0.42940745;-0.0064120656;-0.09775298;-0.8098143;0.0047623836;-0.22453971;-0.0031434093;-0.020223238;-0.18387362;-0.58206105;0.7903792;0.21394008;-0.12073122;-0.40818572;-0.055373788;0.07189354;-0.07407078;-0.06554505;-0.07369762;1.1120579;1.4336165;0.0052459566;-0.47150892;-0.034171294;-0.38951832;0.25695094;-0.06226086;0.01998167;0.24938908;0.46078122;0.12848593;0.65812194;0.037250537;-0.12574947;-0.0013757414;0.027403478;0.06682153;0.012018679;-0.121740475;-0.17354497;0.40876094;-0.30943602;0.0357842;-0.026020499;0.37649587;-0.119678766;0.49997476;0.8795354;-0.025128186;0.12691452;0.003851408;-0.066260785;-0.067341395;-0.16964573;-0.94893944;-0.026632056;0.017122833;-0.30970782;0.033616144;-1.2065564;0.00073884754;-0.07993963;-0.006086005;-2.3298182;0.03959459;-1.547373;-0.040603727;-0.15365866;0.27103037;0.3739494;0.056812458;0.108218886;-0.25348276;0.071654566;-0.19986092;-0.09674542;0.13229622;0.009869923;-0.12112191;-0.031018095;-0.68151915;0.06968503;-0.038636286;-0.5119963;0.1326592;-0.021662503;-0.2722241;-0.5767791;-0.023057388;0.017082488;-0.034751013;-0.25521472;-0.058993913;-1.7015797;-0.25137427;-0.021186313;0.028802257;-0.023632074;-0.026808038;-0.00079369347;0.015253111;-0.869881;-0.05407889;-0.031442136;0.06568762;0.09850187;0.22751918;-0.04597766;-0.023876855;0.022625439;-0.26173988;0.09925049;0.014306347;-0.10039439;0.712162;-0.06407135;0.05137961;-1.7494413;0.3022117;-0.17790478;0.1281372;-1.4340698;-0.08258846;0.08735279;-0.47709453;0.78020656;0.019533493;0.059044823;-0.2182374;0.2624639;-0.12411604;-0.05629198;0.03249939;0.023281235;-0.05372464;-0.61358833;-0.015334126;-0.19203067;-0.23440588;-0.6963059;0.108483545;-0.31831667;0.4458203;0.003100374;-1.2421876;0.06811138;-0.027454488;0.07552959;-0.06018879;-0.0021396326;-1.5969772;0.036259897;-0.6475893;-0.016091507;-0.5186762;0.010691542;0.05229562;0.24910507;-0.38982725;-0.2947348;-0.07973046;-0.0923565;0.046589337;0.062039234;-0.060702503;-0.047396906;-0.6400618;-0.04481802;0.050127562;0.75314784;-0.0397903;-0.14812297;0.047098607;0.068248615;0.016778763;-0.018895688;-0.088265695;-0.013479024;-0.2177882;-0.02096778;-0.120000966;-0.047845937;-0.96626556;-0.0032766787;0.04059038;0.01879682;0.0005253527;-0.4056528;0.03900783;0.38439894;-0.046506044;1.092674;-0.6791412;-0.058259543;-0.17470291;0.04705336;0.057815377;-0.637959;-0.024464838;-0.026950028;0.07230352;-0.23618276
0.25802854;0.5939921;0.45268762;0.030527363;-0.22066052;0.15607406;0.8922629;0.07709829;0.017769342;0.11559428;-0.019190665;0.07337637;0.3497459;-0.004889124;-0.12514879;-0.008957279;-0.095718525;-1.6254783;-0.004125128;1.204075;0.67045665;0.59723;-0.0014816858;0.02505409;-0.55928135;-0.32777166;0.07494402;0.017943969;-0.12403554;-0.45802978;0.057481106;0.6703912;-0.09310452;-0.062192302;-1.2501907;0.34686118;0.6799896;0.17782345;-0.116399795;-0.12776674;0.14454393;0.04545114;-0.98246;-0.5630782;-0.12116006;0.027426274;-0.15604663;-0.04854755;-0.095108286;0.37728423;-0.098483615;0.734639;-0.15948513;-0.268442;-0.12755372;0.39783216;-0.78113496;-0.08443315;-0.015530558;0.9149796;-0.23702393;-0.1710819;-0.38094172;-0.18115634;-0.45084557;-0.07950478;-0.070934914;-0.033712618;0.15171756;-0.10653044;0.00738324;-0.08991508;-0.32942653;0.18500862;0.20295426;-0.8072485;-0.13358045;-0.041989516;-0.03063683;-1.0059955;-0.24958181;0.022904389;0.19830547;-0.036433004;-0.20823327;-0.20762658;-0.0071924143;0.07253274;0.18077981;0.020062432;-0.111996785;-0.15753838;-0.05489319;-0.10388179;-0.07486961;-0.1453263;-0.6589015;0.1886771;-0.067367725;0.040883716;-0.31134602;0.107953176;0.11287299;0.1401038;-0.16001831;-0.029739318;-0.23122051;0.08854213;0.07077662;0.063691124;0.02580967;-0.083817534;-0.10113838;0.57973665;0.058183286;-0.04523524;-0.06814733;-0.28891027;0.0085149715;0.34632587;0.04322829;0.060762558;-0.034414947;-0.17151445;0.20820394;-0.12403642;0.49350435;-0.13244165;0.027363649;0.09004657;0.1572738;0.057214677;-0.02261503;0.042442974;-0.013908512;0.028254382;-0.18279383;-0.43512863;-0.0328356;-1.1323771;-0.016311785;-0.146328;-1.2776335;-0.07087508;0.0695844;0.025146006;0.050409835;-0.30050328;1.1728867;0.10582062;-0.09173852;-0.11774136;0.14391683;0.18937717;-0.05797652;0.04065463;-0.07684678;0.4489537;0.020745926;-0.50653183;0.11183322;0.072868496;0.35591102;-0.38412648;-0.018976618;0.11993527;0.12258602;-0.35850972;0.098527625;0.002060932;-0.01843618;0.69808435;-0.09833495;1.6711664;0.0153807895;0.20178576;0.47369084;0.15508811;-0.19015153;0.16825594;-0.5196806;-0.12297651;-0.57273686;0.2793837;0.0005146995;0.056418054;-0.3407326;0.06780303;0.03479562;0.030910796;0.043169856;-0.10011908;0.08209289;-0.17496857;0.77335495;0.32111526;-0.044089667;0.10295769;0.14354154;-0.011159883;-0.03149036;0.09442268;-0.085322;-0.23942064;-0.06542778;0.024432722;-0.16347708;0.4404426;0.20248802;-0.065321244;-0.49463212;0.1268117;-0.13972886;-0.10548792;-0.045170084;-0.22495088;0.1340475;0.5953059;0.6832945;0.07578355;-0.17208992;0.086819604;0.09914526;-0.20626557;0.09355262;-0.05176314;0.6049025;-0.8502984;-0.026250828;-0.034690093;-0.055435177;0.42818192;0.91133696;-0.19544193;-0.124854386;1.41098;0.094529726;0.18735813;-1.0541528;0.24097033;-0.018513873;0.036137428;0.04083191;1.9068278;-0.0287377;0.3372761;-0.14073405;0.23209232;0.33176157;-0.0027157257;-0.14856198;-0.068947904;0.5671009;-0.21092059;-0.12600528;-0.029396588;0.21026796;0.052635048;-0.17037871;0.0024131949;0.28431028;-0.046577193;-0.066112846;0.058142077;0.50395536;0.02534915;0.54407007;-0.014781863;-0.44632545;-0.6463316;-0.034903806;0.49885216;0.0718566;0.11235646;1.1242597;0.09171007;-0.013294228;0.1908984;-0.03089345;0.53063273;0.11709863;0.016568866;0.20589837;-0.01500638;-0.064939894;0.0034765704;0.14838667;-0.10123176;0.37478748;0.090752974;-0.20443808;-0.104135506;0.53235567;-0.0930082;-1.066763;-0.56334007;0.097815245;-0.37554318;-0.07334145;0.5589515;0.0841101;-0.05516306;-0.0647188;0.8010509;-0.084741995;-0.13310234;-0.03833184;0.17621735;-0.102930605;0.16674104;0.036990386;0.1743446;-0.10812612;0.019612767;0.2880866;-0.2818641;-0.18221763;-0.11169904;-0.014582967;0.02139484;-0.09587225;-0.57005244;0.061861727;-0.07313302;-0.46121195;0.60536647;0.21826743;-0.09326488;0.12022319;0.4137735;0.54681444;-0.32413307;0.19776338;0.17147993;-0.59257656;-0.25245282;0.6909667;0.040818654;-0.02041477;0.06920304;-0.397436;-0.022082347;-0.019355152;0.012598024;1.8386487;-0.06571777;-0.018841045;0.17439733;0.045315094;0.0926635;-1.0863613;-1.0488952;-0.29924384;0.18473935;-0.023156706;0.25337523;-0.10320332;0.30603373;0.9124948;-0.16844556;0.034506664;0.30514607;-0.152577;-0.31277847;0.04157805;0.16994528;0.04074455;-1.0149693;-0.12641078;-0.2568211;-0.078050554;0.028378358;-0.11277507;-0.089251764;0.72223413;-0.049761996;-0.024625538;-0.94352734;0.115221135;-0.13632476;0.056602005;0.028492635;0.058760047;-0.6533546;-1.269175;0.16654761;0.0633972;-0.033125315;-0.08017975;0.05564518;-0.09574866;0.34631523;-0.7282778;0.9116829;0.44197753;-0.121948555;-0.40518218;0.04894647;-0.8058884;0.16446604;-0.0049208193;0.0035616718;0.28081727;0.62725997;0.13896261;0.5619824;-0.04782803;-0.15964976;-0.0027802011;0.005163479;0.122070685;0.092484005;-0.08916043;-0.11089334;-0.914555;-0.0330954;-0.063340485;0.055865664;0.62469083;0.015628964;-0.06356192;0.5190998;-0.069179244;0.10593502;-0.15412384;0.12389979;-0.04215715;-0.101373814;-0.26016092;-0.014301294;-0.046685345;0.023619309;0.11014865;-0.5976241;-1.1756663;0.0013851937;-0.105357595;-0.8405629;-0.053978365;-2.032271;-0.09475831;0.34212062;0.3179638;1.2634029;0.63009757;-0.049503133;-0.11877193;0.01595376;-0.40682745;-0.2571504;0.16458976;0.15498301;-0.67966324;-0.036445677;-0.5120719;-0.08102224;0.006838532;0.26072344;0.20540477;0.018960418;-0.12650937;-0.20932327;0.034897376;0.17191954;0.0059677195;-0.3825777;-0.008704215;-1.1157776;0.180554;-0.033555076;0.11738895;0.0014208547;-0.76015985;0.037118606;0.29476187;-0.54660445;0.08707797;-0.017935483;0.085879065;0.15095985;0.25747094;-0.17655714;0.07460057;0.05169091;1.2870866;0.13299176;-0.26216942;-0.16082229;0.82636;-0.16350213;-0.06732126;0.22556387;0.23811087;-0.56220675;0.20194882;-0.78580976;-0.17873588;0.098596066;-0.28203237;1.0911527;0.040539686;-0.1012765;-0.09623069;0.372707;0.03227984;-0.014311164;0.13127923;0.05085206;-0.031784233;-0.56521004;-0.03682562;0.54163045;-0.04863442;-0.43837196;0.21298243;-0.17844233;0.11875386;0.14711493;0.71912885;-0.07253631;0.0106370635;0.041140366;0.013870975;-0.056184694;-0.8830359;0.0006398842;-0.3586225;0.04097829;-0.58753055;0.036766075;0.01373206;-0.49568084;-0.6627883;-0.8828806;-0.027892187;0.04680101;0.06514467;-0.08797582;-0.028346399;0.06579332;-0.2432395;0.014485838;-0.013911953;-1.20534;-0.017392568;-0.15923038;0.023348924;0.1057493;0.043457814;-0.06993147;0.05647114;0.07575114;-0.19837204;-0.13436191;-0.019245155;0.018171407;-0.30800036;-0.012017183;0.15109687;0.15771657;-0.021703305;-0.2892519;0.020289844;0.50392;-0.04900009;-1.2117758;-0.8414442;-0.059815913;-0.454418;-0.10320693;-0.09574895;-0.5229215;0.19757944;0.16599907;1.2142923;-0.08349214
-0.06898512;0.32755965;-0.3746498;0.0523445;0.22905628;0.08321432;0.11720173;0.0027340625;-0.06894744;-0.467661;-0.072337724;-0.0138232205;0.3013393;0.022922164;0.07078366;-0.06720493;-0.30580112;-0.42656073;-0.0842984;0.5212251;0.5593331;-0.24342783;-8.002798e-05;0.08632124;0.117660545;0.5141083;-0.15814325;-0.9455402;-0.23147552;-0.5810811;-0.05820094;0.24810272;0.026266765;-1.5394661;-0.27173805;-0.4037682;0.1922064;-0.014949219;-0.021389864;-0.038690712;-0.09137057;0.048210718;-0.9336775;0.6351929;-0.029000908;0.02182561;-0.06717859;-0.040543128;-0.09504531;-0.57177925;0.052059315;-0.14495796;0.018569838;-0.8894352;0.037355505;-0.08384127;0.14102429;-0.008613395;0.035719417;-0.9736695;-1.1590525;0.10045324;0.015884003;0.19487552;-0.6091583;-0.0053140908;0.089656994;0.006472107;-0.053795792;0.044044252;-0.069408685;-0.09838577;-0.6956755;0.09412371;0.4556624;-0.060005788;-0.077241644;-0.011322066;-0.013470361;-0.34958377;-0.31111217;-0.12837155;-1.7716907;0.018435983;-1.0527424;-0.16470455;-0.005756863;0.068032496;-0.009688222;-0.07562308;-0.038658213;0.077086836;-0.02024023;-0.032997664;-0.03520999;-0.09598161;0.1509317;0.04179223;-0.024020232;-0.06426203;0.14364102;-0.011924227;-0.17945375;-0.020013902;0.07690069;0.06547324;-0.1128273;0.011650038;-0.54267377;0.029079376;0.05407128;0.0752736;0.082052425;0.46841714;0.05603377;0.02092419;-0.031287517;-0.31725734;0.020182312;0.017974133;-0.012855342;-0.12348468;0.048939146;0.018586706;-0.07653859;-0.011283045;-0.76134664;-0.07150042;-0.07162577;-0.19367154;-0.080282845;0.17293888;-0.0650383;0.026909832;0.04802465;-0.07110491;0.6120554;0.058277283;0.058668748;-0.57231265;-0.01775758;-0.30847868;-0.034191374;-0.061017048;-0.037337244;-0.050429665;-0.3292803;-0.2652164;0.17546749;0.017052932;0.062094603;-0.06989378;-0.027009835;0.8560977;-0.044078544;-0.06705662;0.058840778;0.07746255;-0.022157611;-1.1298252;0.18483004;-0.07038995;0.14985278;1.1168513;-0.5741665;-0.107682936;-0.031675413;-0.23386586;-0.022589862;-0.05652342;-1.40897;-1.0291592;-0.062697254;0.09880038;0.020500733;0.07137861;0.48746085;0.65065235;-0.03839593;-0.030721158;-0.66045475;-0.26892662;-1.4021733;0.14276569;0.046553392;-0.04233215;0.54729253;0.029527148;-0.08054943;0.0690434;-0.7734473;-0.049185514;0.03336043;0.11579754;-0.09745302;0.3284713;0.0673758;-0.105776764;0.048004184;0.13752092;-0.0768447;-0.06125695;0.025853982;0.07514854;0.056823123;0.012760611;-0.049346622;-0.7564924;0.2797934;-0.0112963235;0.036595736;-0.036778856;-0.15390687;0.061415225;0.14453524;-0.30005282;0.090983056;-0.46226805;-0.07722201;-0.043993082;0.0467098;0.04250544;0.045948204;-0.029500682;-0.062315844;-0.04425598;0.44182354;-0.58113086;-0.0387874;0.027079301;0.06177158;-0.41488203;0.024099091;-0.16225314;-0.04137788;-0.28906772;-0.042126562;-0.30097336;-1.3496301;0.15894175;-0.28985173;0.027276117;-0.0831536;-0.067012474;-0.06955368;-0.67800975;-0.04189314;-0.045097195;0.093231216;0.052179646;0.04148109;0.156533;0.52293795;0.00052402477;0.010427711;-0.0044813077;-0.033264138;-0.011347639;-0.22544098;0.08398485;-0.053212203;0.071848914;-0.026495673;-0.1818667;0.42496216;0.12454105;0.5305724;0.07267678;0.23387475;0.46173027;0.008543579;0.021218376;0.01443528;-0.095122375;0.55789256;-0.100387484;-0.19235805;-0.07229542;-0.056810576;-0.34322962;-0.022104073;-0.12985718;0.073537454;-0.0009255191;-0.004609001;0.06408045;0.017068837;0.11186363;-0.22250073;-0.07592225;-0.14143813;0.06081896;0.02875739;-0.04474385;-0.95235586;0.5722717;-0.039641883;-0.050375115;0.040637027;0.009092056;0.011268307;0.019438734;-0.023010725;-0.29889295;0.032361407;0.17229341;0.03328234;-0.26743037;-1.3357152;-0.06508546;-0.035957538;-0.1775456;0.058137733;0.024615422;1.3639642;-0.35855874;-0.14188184;0.25625622;-0.029199978;-0.060869742;0.034463726;-0.16610882;-0.02904453;0.031987824;-0.30505255;0.69271743;-0.06544624;-0.022589482;-0.07538788;-0.24237677;0.7343269;-0.34320658;0.08253297;-0.050498962;-0.3671997;0.34655607;-0.9736949;-0.01365089;0.029625373;-0.01012083;-0.31039274;-0.037684023;0.05131952;0.5016271;0.01778848;0.07033744;0.04673409;0.08982499;-0.018307842;0.1615553;-0.3966217;0.14206201;-0.25435868;-0.066112205;0.011131821;0.15507026;-0.08129287;0.43299735;-0.5450352;0.05128186;0.0033296489;0.07219558;-0.31873935;-0.248752;0.027624937;-0.09053496;-0.06403367;-0.5611801;-0.26988208;-0.40102768;-0.026302876;0.20058882;-0.03581565;-0.0008560075;0.47243732;-0.05261613;-0.050363433;0.28638625;-0.06277818;-0.1133469;-0.041938055;0.0184964;0.044317305;-0.5966778;-0.4132904;-0.017002689;-0.2405676;0.03032764;-0.059008725;-0.02805236;0.0020120451;-2.1562867;-0.61056036;0.47464627;-0.5090716;-0.0029473915;0.117441736;-0.10639865;-0.17339617;-0.014634887;-0.012397037;0.016729023;0.14774415;0.43881753;0.013623812;0.14675733;0.04376892;-0.039801843;-0.0034548794;0.031216277;-0.020591823;-0.0136530185;-0.103195764;-0.084493056;-1.6842413;-0.1445259;-0.060175277;-0.07041885;0.55651665;0.041886065;0.08987515;0.8170108;0.11478522;-0.0461681;0.01919674;0.06522769;-0.004736012;-0.19597352;-0.35275292;0.067808926;0.030700922;0.20105547;-0.06127731;-0.80602103;-0.20533517;0.236038;-0.009851896;-0.073565885;0.051564626;-1.4326929;0.05046027;-0.3078731;0.3385821;-0.3235057;0.21573032;-0.11247605;0.30813596;-0.0021312677;-0.19744113;0.6245778;0.026260355;0.03246994;-0.25025928;0.05674301;-0.6071471;-0.00771445;-0.055546753;0.31851256;-0.09545706;-0.03311648;-0.13579914;-0.7739506;0.008163373;-0.06390629;0.044556018;-0.118358836;0.008777138;-0.8828541;0.04982381;-0.01669407;-0.0036817805;-0.05900346;-0.57474464;0.057386015;-0.26800182;-0.77734554;0.019914987;0.038041655;-0.087333374;0.018425472;-0.021816785;0.10135073;-0.07493406;0.065431565;-0.4213099;-0.075256556;0.15786381;-0.10957646;0.11092711;0.01908038;-0.073616825;-0.07695623;-0.34531975;-1.082861;-0.057361037;-1.058294;0.0022861261;0.038471907;0.91601396;-0.12054017;0.035768397;0.082002774;-0.060099576;0.2818737;-0.29664835;-0.0064777127;0.01970083;0.011602529;0.08602589;-0.56216615;0.0066887233;1.0311444;-0.1420216;-1.3609359;-0.030689124;-0.23528917;-0.3253036;0.07989308;-0.13344473;0.021810273;-0.03538469;0.048570886;-0.024525926;-0.070897266;-0.52536863;0.040649626;0.010603908;0.06396012;-0.6141119;-0.039296977;-0.062301688;0.31254297;-1.3301053;-0.41488934;-0.07870423;0.03194607;0.026058277;-0.033794276;-0.0681018;-0.037642784;-0.39663318;-0.10303079;-0.027987998;-1.0467261;-0.05403873;-0.12697022;0.011669362;-0.07786727;0.08210876;-0.019060796;0.062113937;-0.037916563;0.101490974;0.011285518;-0.11820019;0.061858382;-0.5440584;0.07029472;-0.13345718;-0.062225748;-0.014776846;-0.44767717;-0.017369581;0.3073123;-0.11000251;0.18262139;-1.1417829;-0.0637993;-0.28131703;-0.058494616;-0.009535733;-0.5351687;0.09875469;-0.058245637;-1.5311465;0.39283177
0.15301095;-0.112767555;-0.57183224;0.03939007;-0.052205913;0.009829452;-0.19867279;-0.01150251;-0.06989244;0.43853077;-0.010063637;0.02345668;0.2037454;-0.085211284;0.00035728444;-0.010029853;-0.29506063;-1.5213076;0.1478881;0.34683865;0.21829516;0.9946398;0.00016761487;-0.0014477363;0.70863366;-0.07591595;0.036024634;-1.3878214;-0.08210669;-0.53773046;-0.02133403;-0.13303356;-0.0070457687;0.7306413;0.9955391;0.23287718;-0.0732538;0.08885729;-0.043613862;-0.050334774;0.11157448;-0.043268494;-0.5556239;0.16129942;-0.085188486;0.02440914;-0.0391068;-0.025064295;0.079857066;-0.18355685;-0.07012392;-0.53372043;-0.0021168063;-1.6296397;-0.029611344;0.045082502;-0.6863979;-0.088889204;-0.04544288;0.25024414;0.21666104;-0.008816561;0.28892922;0.08184786;-0.3147631;0.04862533;0.05411235;0.039423622;0.03043252;0.027638832;0.073933505;-0.039148565;-0.32175618;0.1636455;0.13288799;-0.5491493;-0.069120616;-0.0022367025;0.14990692;0.74102867;-0.5519546;-0.050270792;-0.35367805;-0.007257112;-1.3617362;-0.07948065;-0.0012308895;-0.31381807;0.12868792;-0.24263507;-0.036440074;0.012259404;-0.013163106;-0.46444502;-0.060831904;0.0009759051;0.015201232;0.09274315;0.0121263005;-0.017389001;-0.6025276;-0.0020379317;-0.46772578;0.09291101;-0.0490828;-0.06312844;-0.07599172;-0.02173536;0.7064947;0.09216361;0.057593983;0.037723087;-0.027802717;0.21280189;-0.015756309;-0.07750696;-0.017034052;-0.24492417;0.05946647;0.14728928;-0.019376352;0.036609873;0.037430525;-0.06246842;0.047088094;-0.31303936;-0.25400013;-0.060285058;0.058418214;0.12584132;0.05830281;0.04985515;-0.053743035;0.01601598;0.0142001435;-0.011164692;1.2861562;1.1000133;0.007853657;-0.72509617;-0.025184289;-0.11947483;-0.97396356;-0.020452289;0.042582758;-0.06390457;0.142998;0.16865031;0.43065476;0.05356618;0.033675577;-0.09886993;-0.05341999;0.7043952;0.00870308;0.029286155;-0.07268119;0.2846302;-0.041224144;-0.8148612;0.14105532;0.048696905;-0.118120104;-0.49250734;0.048552193;-0.14286262;0.020648574;-0.22302091;0.05552786;0.007565202;0.41180718;0.17055139;-0.101811044;0.07502939;0.06637245;0.017218525;-0.99188995;-0.18983935;0.056975603;0.02263606;-0.14567712;0.052655887;-1.3768938;0.03176689;-0.083988994;0.08329902;-0.65183216;0.07944345;-0.082114354;-0.025359096;-0.49194497;-0.0036017364;0.089035116;-0.06701832;-0.75780183;-0.0562457;0.08731527;0.008214182;-0.007632757;0.25353056;0.034985755;0.10904547;-0.05728712;-0.12265922;-0.089040555;-0.07748936;0.19316071;-0.2684285;0.023460615;-0.047720082;-0.14308876;0.13398996;-0.1883427;-0.09071211;0.0771658;0.24897148;0.025636178;0.2044168;-0.23242587;-0.028106533;-0.13910028;-0.0741087;-0.030740978;-0.18712935;-0.029004524;0.09958081;0.15316144;-1.2368603;-0.087395474;0.0014086146;0.017471446;0.9059538;-0.02704724;0.06415776;-0.027088283;0.20829827;0.07539938;0.10107742;-0.78153014;-0.07222453;-0.2876862;-0.025821751;0.030334286;0.6244159;-0.026284754;-0.19453537;-0.0009670173;-0.0100608105;-0.6734497;-0.09299145;-0.052817833;-0.18283552;0.20991226;0.20749353;0.044800587;-0.06430638;-0.006301922;0.030481936;-0.004820944;-0.063161075;-0.034501355;-0.031112483;-0.064139836;0.06655011;0.24392411;0.012829207;0.22640146;0.07558578;0.0062458627;-0.039483856;-0.047097262;-0.5264352;-0.042512853;-0.029175276;0.61129653;0.17416182;0.044142984;0.044235975;0.046809826;-0.16420709;-0.022529095;-0.016336929;0.0105916755;0.05523695;-0.15587175;0.070341825;0.049456697;-0.10243312;-0.097814865;-0.065078355;-1.3291888;-0.07911104;-0.60514295;0.022846388;-1.5701636;0.2163914;0.042308036;0.32149172;0.011151863;-0.02626632;-0.03138911;0.042894483;0.012102352;-0.110672005;0.03179959;1.0474424;0.050055206;0.17952305;-0.90429825;0.045396492;-0.026894193;0.0389809;0.010467659;0.051700447;0.38234362;-0.50602007;-0.10005718;-0.22029121;-0.0955532;-0.048470184;0.039715268;-0.53162897;-0.012650006;0.011168369;0.73104185;-0.5979197;0.09755133;0.058667503;0.02231798;-0.45174253;0.60262346;-0.12604307;0.07914191;0.091655664;0.49387982;-0.27253503;-0.8530658;0.0056323926;-0.06739955;0.039159194;-0.41222018;-0.08180152;0.0431823;0.19561307;0.04546162;0.00023110355;-0.08460975;0.13045596;0.018851122;-0.3524593;-0.14690368;1.1137419;-0.14909558;-0.05166899;-0.015117408;0.20091395;-0.017953193;0.1979938;-0.034220297;0.043231662;0.04338253;0.077149324;-0.3746982;-0.014915757;0.07042504;0.07482429;-0.067513265;-0.18337804;0.114291124;-1.0350991;-0.04782718;-0.17603603;-0.0267276;-0.05762139;-0.48811567;0.052670345;0.033558406;0.24969181;-0.016267871;-0.0526886;0.0065738554;-0.07767273;0.008072609;-0.28643066;1.164566;0.047656864;0.32710662;0.05283646;-0.013597191;0.017844915;-0.07389704;-0.17011827;0.5078938;0.7513949;-0.08584076;0.01529071;0.48222473;-0.047510847;0.28578395;0.121972084;-0.008728871;-0.012370773;0.135228;0.18952449;0.103541106;-0.60838544;-0.025200445;-0.08959901;-0.01613023;-0.08809061;0.061263725;-0.069995224;-0.062259994;-0.048496053;-0.3937964;0.032036223;-0.038994007;-0.034951385;0.2828767;-0.022453573;-0.15683876;-0.5087703;-0.17432787;0.07176308;-0.058212638;-0.013406274;-0.03816309;-0.12354696;-0.18055488;0.03993253;0.042943712;-0.19249338;0.019121034;-0.9233741;1.2203509;0.059945118;-0.009846913;-0.5399183;0.020920394;-0.6310463;-0.017869966;0.40643284;0.22023994;-0.8810059;-1.1349952;0.09534811;0.7481594;-0.035103314;-0.23252203;0.17986624;-0.029751722;0.06608644;-0.35404515;0.08109065;-0.30292484;0.044034272;-0.018410763;0.029322334;0.018375434;0.020151172;-0.0886769;-0.43867832;-0.04092993;-0.06320768;0.0609644;-0.33000615;-0.020130722;-0.5403087;0.004500999;0.066438146;-0.037676632;-0.014037567;0.37452137;0.012300862;0.09607611;0.19639814;0.014730161;-0.06141439;0.08707628;-0.04003044;0.04694684;-0.0914675;0.025534756;0.032821946;0.5199193;0.014714305;-0.18070546;-0.01475754;-0.49480414;-0.052495334;0.0050363624;-0.35054794;-0.16062815;0.57627875;-0.021392414;-2.7029321;0.026306445;-0.018011166;0.071385995;-0.67754483;-0.051726803;0.06182665;0.0035798894;0.11408116;0.24269296;-0.0114434855;0.08900488;-0.03355756;-0.031384632;-0.24983022;-0.06786896;0.5065529;-0.22302559;-1.5835137;0.10157845;-0.036502324;-0.20163068;0.010173714;-0.25288135;0.017889867;0.09649203;-0.06188711;0.05440722;0.06826217;0.712921;-0.08484106;-0.60923046;0.008362703;-0.3160027;-0.012741117;-0.017035326;-0.10963443;-0.18969317;0.7106796;0.010941471;0.028793553;0.12981518;-0.042069376;-0.058577918;0.076284334;-0.3179276;0.07063199;-0.08676213;-1.558374;0.07853479;-0.091303565;0.037630014;0.073170915;0.03329627;-0.07183965;-0.060243364;-0.027707657;-0.39262486;-0.02136167;0.04688053;-0.016015382;-1.4357944;-0.032699123;0.044247758;-0.044675265;0.06779304;-0.15819798;-0.056601636;0.15331885;-0.053823426;-0.06335145;0.07356574;0.036175445;0.41640577;0.03553606;-0.08796278;-0.36195424;0.11225981;-0.038682513;-0.5960446;0.2187187
-0.53723174;-0.37545642;0.4107049;0.11529615;-0.006764131;0.10229376;0.2612558;0.030891094;0.0026892615;-0.12550767;-0.030877078;0.113894545;0.2711135;-0.08473596;-0.06739305;0.02874926;-0.07330814;-0.6498065;-0.09841773;0.25762266;-0.1456312;-0.4923023;-0.0071007395;0.038224384;0.21776001;0.73877513;-0.09052613;-0.13304159;-0.005683845;-0.50545084;0.09433732;-0.61050695;0.04818403;-0.80888134;0.045586433;-1.0402681;0.3417986;-0.030907819;0.030477064;-0.011566949;-0.0035405487;0.02640456;0.40974584;-1.0206712;-0.020366685;0.034529693;-0.009591003;0.058888834;-0.05522094;0.03319883;0.026317274;-0.29907802;0.027608225;-0.80886865;-0.025803667;0.5609619;-0.13489303;0.0073341276;-0.06433607;-0.054447997;0.48197865;0.044239923;-2.0568707;0.15074416;-0.48894015;-0.060115438;-0.008223061;-0.027991464;0.14031704;-0.016395012;0.07852473;0.010353264;-1.1088192;0.14239283;0.3633091;0.616667;-0.10370693;-0.04227229;0.06555027;-0.14977972;-0.5061547;0.067709;0.35370103;0.051971376;-0.90689665;-0.17070924;0.013571961;-0.19742762;-0.031546213;-0.20284046;0.00040139118;-0.050216172;-0.006964062;-0.3119806;-0.09908297;-0.113550946;-1.4947222;-0.005129628;0.039420508;-0.029691387;-0.27106187;0.0877213;-0.34474206;0.022557773;-0.023808185;0.00091983215;-0.26349875;0.067308456;-0.57387406;0.021216387;0.016455987;-0.059615817;-0.053515006;0.19673158;-0.055170648;0.020590203;-0.035115454;-0.35114777;0.018775655;0.037789196;-0.04645325;-0.08462054;0.047491547;-0.048444435;-0.004054944;0.19368365;0.39691067;-0.050021812;-0.024304245;0.40240255;-0.048174467;0.20750743;0.050363038;0.06707955;-0.067857675;-0.08410273;-0.46692643;0.62523276;0.028482186;-0.60035056;-0.11093575;0.099852346;0.3684115;0.021426342;0.08546171;0.0998544;0.04382966;-0.92669946;0.3599961;-0.06627679;0.022374267;-0.10475528;0.09748231;0.6954283;0.07562096;-0.090969585;0.044673223;0.10525136;0.06754998;-0.102927044;0.109935485;0.0258262;0.2924847;-0.62049127;-0.92056674;0.08845955;-0.012521586;-0.36919984;0.035843052;-0.066110715;0.91802114;0.14103898;-0.080159105;-0.37122706;0.05429161;0.060968846;-0.027383244;-0.4940993;0.015384371;-0.023724107;-0.34313282;-0.11352131;0.119629025;0.18555711;0.019088486;0.10892207;0.1922394;0.008326904;0.051142216;-0.00395194;0.72328997;0.06534544;0.07902045;-0.033469573;0.26230186;0.47374693;0.042417675;-0.018393071;-0.042251065;0.022700217;-0.077847324;-0.0030599264;-0.097106375;0.002001841;-0.04045256;-0.20139603;0.111161634;-0.077827126;-0.09976362;-0.06410653;-0.27304873;0.037225958;-0.17407769;0.012434665;-0.0104837455;-0.16138233;0.14948562;-0.25892207;0.63053244;-0.013579386;-0.20776582;0.08273422;0.06878005;-0.015217402;-0.021874309;0.09503924;0.33920264;-0.57207674;0.07632928;-0.013949435;-0.038119722;-0.38892302;-0.13126802;-0.20716834;-0.0625333;-0.32947552;0.020916969;-0.19334449;-0.5095976;-0.00032352027;0.087285094;0.047230337;-0.07677446;-0.90901107;0.054557174;-0.117930196;-0.05674784;0.075724244;-0.21554323;0.04284826;-0.1066663;-0.08946595;0.20543106;0.086848564;-0.07310546;-0.06047337;-0.008853353;-0.032169607;-0.24649519;-0.051265184;0.24150102;0.051735234;-0.06390421;0.09095568;0.26956335;-0.08267309;0.29122162;0.005193834;-0.27471867;0.011984277;-0.043764435;0.787751;-0.023746574;-0.08200351;0.8848781;-0.061523568;-0.23530066;0.053031806;0.08767985;0.040291887;-0.014388434;-0.092475556;0.18785864;-0.017571522;-0.051371247;-0.029397156;0.035727255;0.09558694;0.123444624;-0.0659266;-0.30094433;-0.021185782;-0.12857462;0.017322784;-1.2042904;0.23252308;-0.07403599;-0.45420253;-0.044498846;0.21051171;0.04138863;0.011258117;-0.0958725;0.14526562;-0.010512609;0.8126311;0.11576829;0.035923097;-0.40813792;0.10286414;-0.051621407;-0.070307;-0.11672568;0.020447524;-0.29484186;0.09224;-0.16716151;0.27050054;-0.10439869;-0.069086105;-0.08536911;-0.12230682;0.05545725;0.10395297;-0.46289936;0.2924923;0.057169996;-0.015623221;0.019205615;0.11164569;0.2558357;-0.38479313;0.17778328;-0.029165233;-0.6894936;-1.8488295;1.095683;-0.08086522;0.040915765;0.21986873;-0.24503699;-0.0312168;-0.08551439;0.051518798;-0.633397;-0.0047006216;-0.04385023;0.06546221;0.0005455801;0.5341384;-0.31483802;0.15126833;-0.33237997;-0.15807137;0.02765511;0.08141828;0.019029068;0.19112524;0.9605309;0.023884526;-0.08935559;0.16134834;0.4117064;0.28976673;0.012141007;0.16724077;0.07024765;-0.5533135;0.15597731;0.15095398;-0.027287913;0.23294745;-0.080181785;0.010859539;-1.2564533;0.02569429;-0.019989152;0.7112468;-0.039369013;-0.063833214;0.06708399;-0.0041892477;-0.016812451;-0.4469231;-0.34319112;0.08363283;0.15949811;0.019041281;0.012172677;-0.048186515;-0.021978239;0.39027837;-0.37323433;0.9437091;0.6682022;-0.010329011;0.036996517;-0.020473385;-0.22651081;0.061107013;-0.0789991;0.11449972;0.17861009;0.3609997;0.052276626;0.1208595;-0.017191816;-0.113081194;-0.0019662746;-0.10316636;-0.05823605;0.025668586;-0.04441301;-0.12417911;-0.09010021;0.037858237;-0.069466874;0.074618466;0.21113114;0.051347073;0.047457777;-0.26066703;0.018862726;-0.039884288;0.052663;-0.0069552744;0.0062933145;-0.20051964;-0.2749281;0.008175602;-0.055809233;-0.030375205;-0.0406062;-0.94477177;-0.20717372;-0.026139788;0.042204782;0.13231534;-0.06297649;-1.2203519;-0.08614706;-0.29554796;0.27477056;0.63137424;-0.09662525;-0.06719065;-0.035426747;-0.022457823;-0.11318398;0.9407567;0.02201035;-0.02352119;-0.39169466;-0.049725898;-0.53769195;-0.017939549;-0.044013213;0.32000762;0.00896189;0.021999631;-0.12528488;-0.2761933;-0.10578468;0.004291831;0.055828404;-0.024420941;-0.048261635;-0.83482814;-0.40021834;-0.078702085;-0.048904352;0.040706296;-0.42578873;0.03302057;-0.0027527018;-0.6381415;0.0242768;0.065400876;0.10479672;0.010679337;0.10964991;-1.3242215e-05;0.0577859;0.06542878;-0.81126857;0.09371141;-0.09350119;-0.17319971;0.03577339;-0.045910627;0.024498766;1.0064745;0.06272617;0.49725837;0.0039882204;-1.0523592;-0.03859329;0.06786555;-1.723047;0.19918182;0.009508135;-0.0010170147;-0.06103128;0.27562436;0.25950733;-0.09542356;0.08477669;-0.05336287;0.0038933293;-0.5228167;0.0012026709;0.16957715;-0.22072446;-0.50357336;0.072242275;-0.12250096;-0.44109517;-0.22450048;-0.3525716;-0.040501866;-0.082038596;0.004415875;-0.025316626;-0.08826167;-0.7571618;0.06346746;-0.18990684;0.13271521;-0.50890553;-0.01508747;-0.058380894;-0.23814288;-0.5670238;0.00062672445;-0.021517122;-0.05102389;-0.07194594;-0.095684245;0.063506514;-0.04046563;-0.42535245;0.0949058;-0.046185963;-0.5347283;-0.02308734;-0.21199925;-0.01475762;0.06915838;-0.0754438;0.018754557;-0.008165514;-0.0044867285;-0.35488904;0.0021046496;0.012842383;0.058015384;0.22810102;0.053538177;-0.040232897;0.0507687;0.035805833;-0.21566547;0.09263778;0.2798895;-0.12037379;0.93669873;-1.1679052;0.07553905;0.042187314;-0.116417125;0.028307438;-0.4399143;0.11759951;0.074534304;-0.0924312;-0.14737293
-0.5817478;0.1413626;-1.6926811;-0.01909913;-0.18800794;0.056844886;0.93879324;-0.053216517;0.0071842214;0.26334018;0.077581234;0.10299227;0.23663174;-0.0036183356;-0.06008097;0.04838072;-0.5719773;-0.3178136;0.30876338;-0.24848242;0.27146298;-0.14499104;0.0152748935;0.009040656;-0.0441461;0.5082528;0.07114647;0.8171135;-0.11512242;-0.5386253;0.06782908;-0.39128095;-0.017067099;-0.5975504;-0.37313163;-0.4212274;0.5115516;-0.017333293;-0.011903069;-0.12735547;0.026557144;-0.04319075;-0.23003322;-0.84269994;-0.12859486;-0.056882456;0.009305185;-0.07087622;-0.09557627;-0.03791285;0.013054719;0.42551494;-0.02277651;0.1311458;-0.04085424;0.4094448;-1.9422553;0.049999278;-0.049005665;-0.059427917;0.66079086;0.015467072;-1.1626467;-0.13103873;-0.46745774;-0.053185724;-0.09840073;-0.012246144;-0.48612812;-0.07657971;-0.042058304;-0.07894571;-0.9359666;0.14411193;0.25618246;0.6544687;-0.072740614;0.045666274;-0.43236327;0.08508889;0.038149234;-0.008763208;1.4993603;0.007718979;-0.6739364;-0.12487623;-0.05179585;-0.06537671;0.08855299;-0.17557262;-0.02840257;-0.017208986;0.029331572;-0.093089655;-0.024511738;-0.02580273;-0.5423701;0.114690736;-0.019929407;0.0759274;0.059116013;0.06247035;-0.52382785;0.021746328;-0.08664633;0.017392542;-0.10190555;-0.023819504;-0.3457231;0.11158578;0.02567059;-0.1010069;-0.023849348;0.38924164;0.05225451;0.050541446;-0.12922691;-0.35094777;0.043048702;0.14860918;0.018569723;0.02046083;-0.037950892;-0.06497672;0.036130402;0.20384063;-1.4333519;-0.0060574664;0.021316113;0.39782375;0.0059306333;0.12048223;0.019851996;0.011760057;-0.034746747;-0.02909444;0.15970688;0.63911307;-0.0989123;-0.43952954;0.014579897;-0.26687595;0.19616589;-0.09109577;0.027250838;-0.013247972;0.054786246;-0.023808343;-1.5028682;0.10641122;-0.027503094;-0.053379018;0.095460735;0.18172622;-0.009248937;-0.034703832;0.18148218;0.8224212;0.12126313;0.075012326;0.02511197;0.050581627;-0.051101178;0.9490948;-0.75020736;0.07978981;0.020958375;-0.34219953;0.043530006;0.045951344;0.05339866;-1.0363694;0.048668973;1.0932127;-0.094906464;0.04707065;-2.1179397;-0.98992515;-0.25378653;0.06867615;-0.36730853;-0.030600011;0.11026608;-0.036829077;-0.11250509;0.11490399;0.87862796;-0.037656672;-0.03909445;0.032146566;-0.6815049;0.043533593;0.06620794;-0.024449352;0.7697425;0.49932253;0.0015049038;0.1365006;0.059450503;-0.011668786;-0.0115154805;0.0884737;-0.11669328;-0.09555501;-0.007962529;-0.017151732;-0.4913921;-0.46255052;-0.17388113;-0.06420594;-0.17028673;0.07843717;-0.18599343;-0.10742145;-0.090699755;0.16425984;0.20576927;-0.5669939;0.37254605;0.008139074;-0.17073528;-0.028831834;0.006942785;-0.0036193924;-0.02942435;0.040822886;0.39247546;-0.3647635;0.0586142;-0.00487631;-0.064318664;0.17878583;0.0754806;-0.1464966;-0.052745298;-1.3524553;0.09836903;-0.567052;-0.91510856;-0.28653243;-0.07780488;0.012639105;0.04079891;-1.2258089;0.08307201;0.51173586;0.021113923;0.032442145;-0.8984561;0.052578505;-0.06122552;-0.24052764;0.34168306;-0.9008064;-0.099407725;-0.07624532;0.08673818;-0.08159722;-0.14115882;0.04519625;0.45009083;-0.14936627;0.014511283;-0.1750938;0.19803947;-0.1367858;0.3295845;-0.023478115;0.18143493;-0.5272224;0.012520278;0.74410915;-0.064982705;0.14668351;-0.5445729;0.3303668;0.022178123;-0.008053318;0.021732386;0.283458;-0.016647814;0.01717178;0.1376722;0.029453052;-0.06597814;-0.006491843;-0.0026305516;0.07305723;1.7446924;-0.08644848;0.91361046;-0.10863573;0.00906427;-0.07207842;-0.8841241;0.7331854;0.08590469;-0.35237956;-0.05229733;0.6126713;0.12651818;-0.0070628994;-0.012672847;0.5702779;-0.00094011193;-0.17404123;-0.33164567;0.16502373;0.05032776;-0.016025124;0.049235597;-0.094425924;0.012731298;0.015826518;-0.55909526;-0.58991545;-0.17074303;0.42465672;0.014787753;-0.021953017;0.0025638628;-1.0409324;0.060627714;-0.0119522335;-0.24712518;-0.6960926;0.19482867;0.012535768;0.055011924;0.06508372;-0.5397594;-0.22826047;0.22463302;0.1229925;-0.63173896;0.007056433;0.9062776;0.07594095;0.0037071358;0.3368703;-0.42388684;-0.061804857;-0.100410715;0.036557667;-0.3062362;-0.11388306;0.0044566817;0.09370931;0.003711447;0.37158042;0.13500345;-0.08132789;-0.17565142;0.095340475;-0.01732431;0.3585381;-0.33141115;-0.14091615;-0.16052866;-0.13862298;-0.054826226;0.10666928;-0.26898444;0.49951488;0.052180443;-0.025201522;-0.05154447;-0.4363749;0.2477106;-0.5516164;-0.033447172;9.336657e-05;-0.15217555;-0.0867841;-1.114126;-0.009787428;2.4690087e-05;0.6784561;0.11709946;-0.031899888;0.059178106;-0.063140646;0.06912355;-0.4026714;-1.5443853;0.15362297;0.34204033;0.37005445;-0.015847636;0.103727914;-0.030026522;0.3189144;-0.6125242;0.49746993;-0.5440165;0.024672054;-0.42772624;0.11095761;0.290435;0.089310445;-0.09192043;0.029429555;0.13915297;0.36570856;0.010755227;-0.3843055;0.046058204;-0.061300907;0.06900101;-0.04715643;0.039215606;0.07329551;-0.055227958;-0.16953762;-0.50868887;-0.5292526;-0.08369751;0.08990033;0.41445428;-0.018098438;-0.030809619;-1.9615718;-0.124243475;0.05480276;-0.04992896;0.0038864776;0.017880434;-0.16863091;-0.61407995;0.042735755;0.013046939;-0.3844692;0.013182678;-0.5935535;-0.11215387;-0.20989423;0.022470845;1.2901527;-0.03443381;-1.1106741;-0.09601333;-0.08920195;0.2543882;0.41443726;-0.9903925;0.022539334;0.24641296;0.029028332;-0.2168627;1.9722228;0.08749581;0.037570883;-1.2514116;0.10988891;-0.4097269;-0.095971316;-0.083372064;0.14714777;0.103751585;-0.019447293;-0.17696087;-0.2030367;-0.110346004;0.07808482;-0.014366063;-0.14396259;-0.017200708;-0.56081206;-0.4921439;-0.04088844;0.075192295;0.044715405;-0.47190404;-0.08117398;0.01162123;-0.14198576;0.105565116;0.0057904897;0.012005517;0.11774304;0.07682635;-0.089445055;0.030036174;0.03737627;-0.98857313;0.01729038;-0.25453818;-0.12342517;1.0146226;-0.0970812;-0.102695584;1.1010698;-0.42506695;0.18836875;0.022381676;-0.78390634;-0.10979087;0.17251615;-1.2692825;0.20638634;0.06937791;-0.023305776;-0.10386463;0.21915771;0.47088704;-0.011418841;0.065702334;0.07867815;-0.119080365;-0.41500646;0.021963172;-0.041946527;-0.16071105;-0.282138;0.08754545;-0.17781724;-0.41295496;-0.19040753;-0.2988979;0.023058321;0.042514395;-0.07995971;-0.016477065;-0.13272522;-1.0005131;0.047669645;0.056899857;0.0034987668;-0.33658904;-0.018727994;0.10397463;-0.6508148;-0.2111996;-0.14014193;-0.04346876;0.023642218;0.0392558;0.035071265;-0.076379225;-0.0440717;-0.81077623;0.13454811;0.06452607;0.30352834;-0.060857862;-0.111074455;0.05960123;0.007444405;-0.0891719;-0.047589436;0.027418206;0.04133746;-0.24633926;-0.11325825;-0.002971762;-0.017527035;-0.16975133;0.017234853;0.05696718;0.043802954;-0.0071913786;-0.33748794;0.05677917;0.30322865;-0.055025723;0.023175804;0.90930927;-0.041735183;0.30405036;-0.10575573;-0.08377093;-0.39115292;0.03466752;0.13247468;-1.841755;0.21981892
-0.72965366;0.47713628;0.58009154;0.05306013;-0.21106678;0.06246744;0.055176064;0.051528577;-0.061170135;0.6290111;0.0586834;0.17275445;0.27106628;0.0096628945;-0.09118949;-0.008996793;0.048613157;-0.10530542;0.14243239;0.2482324;-0.5431583;-0.20077209;0.054968186;0.018282922;0.173289;0.58568573;0.11355748;0.026098218;-0.32787228;-0.07841995;0.013936877;-0.03203206;-0.04692402;-0.22355306;0.82827556;-0.09220981;-0.099720314;0.0953543;-0.10447078;-0.067625955;0.15579289;0.012026861;-0.029402647;0.48423788;-0.08741445;0.003021209;-0.030600112;-0.052195832;0.0239204;-0.5059633;-0.068920895;0.044842064;-0.08553181;0.39592814;-0.056371022;0.14533812;-1.6118854;-0.09601786;0.038169138;-0.32332417;-0.41328582;0.0035145204;-0.4092703;-0.10540525;-0.4299065;-0.032177094;0.05216312;-0.033045504;-0.06524243;-0.0385953;0.011465616;-0.04212656;-0.84610987;0.22173087;0.38286924;1.0214628;-0.16931553;0.0074162427;-0.6713997;0.5793962;-0.7428105;0.03322207;1.0693865;0.003727634;-0.8970498;-0.17877387;0.029504808;-0.5212052;-0.029119795;-0.042422574;-0.0776985;-0.06231625;0.050109833;-0.29317522;-0.05632423;-0.07571478;-0.05092241;0.050590802;-0.08320573;0.15181488;-0.19520812;0.05915265;0.056129932;0.12148452;-0.13665837;-0.07596622;-0.14325322;0.0076283123;-0.52442014;0.01573982;0.012620166;-0.040407978;0.03655898;0.46409652;-0.006674208;0.048354637;-0.09697331;-0.31861302;0.049515627;0.008701115;0.033013526;0.028232155;-0.05267288;0.02135981;0.14693332;-0.07013429;1.1587543;-0.08781097;0.009305217;0.33244428;0.08296845;0.051001955;-0.073127784;-0.078358896;0.0023933959;-0.075573064;-0.59994674;1.0163535;-0.001231129;-0.34426633;-0.029463165;-0.46618375;-0.10772583;-0.10792688;-0.04821543;0.08288536;0.22268434;-0.08036447;-2.230047;-0.040399738;-0.12862313;-0.009853119;0.13224149;0.19826116;0.060788214;0.016511006;-0.07720783;-0.5074239;-0.010568921;-0.7440339;0.17760418;-0.05082176;0.022920342;0.4359875;-0.35294417;0.12362248;0.12543109;-0.3365016;-0.035846688;-0.04420376;-0.019474601;0.24993108;-0.07714531;1.777147;-0.0138999345;-0.009952084;-2.3220496;0.40348542;-0.51464814;0.08486026;-0.4195948;0.032923322;-0.31797096;0.34430656;-0.0034853886;0.041151207;1.358839;0.029860577;0.02289658;-0.015952954;0.31655484;-0.045441657;0.11867583;-0.058207385;-0.108150505;0.11720892;-0.029098932;0.06546027;0.114380166;0.1633881;-0.08298599;0.120928176;0.00083014567;-0.07951404;0.021211548;-0.05038366;-0.2007659;-0.66371924;-0.03190246;-0.07950593;-0.33823168;0.14782041;-0.24780308;-0.03632739;-0.15293857;-0.08073881;0.124902174;-0.22760957;0.077701546;0.041293707;-0.3016979;-0.06425354;0.0030334059;-0.2165692;-0.015863415;-0.056587003;0.3790087;0.1111178;-0.05531753;-0.013444259;-0.06290399;0.21063578;-0.0713909;-0.0830039;-0.1040822;-0.34773034;-0.0065182643;-0.07661378;-1.2231385;-0.25198194;-0.43181664;0.06176421;0.0021806192;-1.7720283;0.068692245;0.33251563;0.00034701853;0.12036883;0.10652645;-0.041119486;-0.19381535;-0.12396632;0.50129426;-0.0013790778;-0.089099385;-0.07788042;0.04987095;0.0032034635;-0.14098723;-0.03789529;0.17853577;-0.03133123;-0.077627234;0.0380225;0.410251;0.08864194;0.44303355;0.0352781;-0.43529516;-0.7728233;-0.10790593;0.25380296;-0.009740001;0.18718195;-0.84376746;0.028096363;0.17957933;0.008263927;0.09700264;0.13543177;0.0007282684;0.1515238;0.2648742;-0.08397481;-0.09287958;-0.054963365;0.09869389;-0.05854657;0.90278804;0.08527537;0.42225257;-0.06445259;0.35129684;-0.035255525;-0.46099856;0.3614977;-0.053527378;0.020858001;-0.074211076;0.8244786;0.12847462;-0.038065847;-0.108329765;-0.39358938;-0.0947687;-0.62369746;0.20122644;-0.083809644;0.5839059;0.055916708;-0.06404633;0.124419644;0.0060779755;0.06662877;-0.6249054;-0.39610723;-0.10114449;0.24442586;0.005486739;-0.062699914;-0.040422995;-0.6236987;-0.0029474583;0.043419167;0.49883994;-1.693174;0.12409294;-0.03455417;-0.028836077;-0.119019404;0.34529138;-0.34599438;0.11476992;0.04547208;0.03859707;-1.33117;0.42157856;-0.08109911;0.068781115;0.0053999363;-0.39538538;-0.07247351;-0.074125394;-0.28355402;0.027563225;-0.0999582;-0.08765231;0.10920517;0.10611329;-0.36554086;-0.24702473;0.4181501;-0.32047236;0.086636946;-0.03754162;-0.10221699;-0.5349418;-0.2583967;-1.202921;-0.14551565;0.005213383;0.12477513;-0.48047277;0.06288952;-0.009106965;0.20621917;0.05737142;-0.56554794;-0.16396718;-0.4413121;-0.04278795;0.11359598;-0.17393917;-0.07111766;-1.1866621;0.0037510078;-0.034560986;0.1551601;0.08579028;-0.030048061;0.13396785;0.07840317;0.059133716;-0.4408338;-0.8895966;0.19771151;-0.09543253;-0.093425475;0.003990436;0.11263841;-0.038713858;0.23258163;-0.6067373;-1.3797343;-0.19729303;-0.101216674;-0.36087403;0.011893058;0.24149245;0.11359878;-0.040982094;0.050258238;0.21546352;0.4854761;0.15832798;0.007934013;-0.03274873;-0.089591146;0.031037558;-0.07127677;0.001572727;0.0677068;-0.034675624;-0.08620343;-0.61802626;-0.81164896;-0.13008447;-0.021428553;0.47321633;-0.103769705;0.011403384;-2.0262022;-0.05396689;-0.009542064;-0.07479655;0.026447378;0.06032389;-0.07608296;-0.48590866;0.08951287;-0.037181523;-0.4143665;0.010964054;-0.38587824;0.4371688;-0.12462766;0.0069886534;0.89312947;-0.081717014;-1.2424335;-0.052395362;0.016286613;0.2570249;0.7215012;-2.2518318;0.04619479;-0.029051272;-0.02462516;-0.10199844;0.8942673;0.0775307;0.06056272;-0.29393435;-0.03027023;-0.4365579;-0.007101967;-0.043616164;-0.07579055;0.039928094;0.06737496;-0.07870435;-0.68035173;0.02012948;0.06975262;-0.065737136;-0.039373517;-0.07824281;-0.94697577;-0.83677274;0.0675585;0.101074226;-0.02521931;-0.97873217;0.0005559931;0.109563835;-0.5544993;-0.023151198;0.033679146;0.09889572;0.1226745;0.13849872;-0.0140954675;-0.036143705;-0.039466165;-1.1200808;0.04845765;-0.1663199;-0.15191174;0.7430719;-0.11291883;-0.04735394;1.74003;0.0003120553;0.43979946;0.026094953;-2.4908512;-0.059942313;0.053102326;-1.2170382;0.31603128;0.037550792;0.010809068;-0.09954434;0.3132088;0.2558481;-0.029498724;0.031619072;-0.043949116;-0.086453;-0.48257282;-0.09849832;-0.111254156;-0.27436793;0.56072646;0.12277406;-0.12424943;0.023335252;-0.33922496;-0.23151843;0.0018092754;-0.060588624;0.0012709025;0.04446098;-0.105714105;-0.36848903;-0.07765942;-0.18128216;0.1334479;-0.45246196;0.02572099;0.019043632;-0.4170596;-0.20393842;-0.049504317;-0.008604738;0.050306458;-0.056167968;0.01804947;-0.022008955;-0.09370581;-0.81872296;-0.030152407;-0.052920587;-0.30828798;0.080109626;-0.16653562;0.08849914;0.08834207;-0.017316042;-0.011249399;0.047393143;0.0443088;-0.6458441;-0.15455297;-0.0036071748;0.06842698;-0.6925591;-0.059650127;0.1551947;0.12737983;0.040467896;-0.3503233;0.14671601;0.3223411;-0.040200286;-0.7550207;1.0980531;-0.05139133;-0.020692958;-0.07016062;-0.06964921;-0.4172707;0.006617514;0.13296735;0.28021255;0.25223184
-0.29242527;-0.014197711;0.7666693;-0.07072106;0.28970328;0.07829678;-0.032426126;-0.012347258;0.049633108;-0.1954817;-0.02358906;0.06355479;0.15277095;-0.03250353;0.029496985;-0.003634111;0.25778267;-0.29657447;-0.24391328;-0.11962953;0.32706907;-0.18074366;-0.02403316;-0.04087131;0.81261075;0.7519933;0.044282027;-0.6625839;-0.19939049;-0.41494524;-0.070046075;-0.9634781;-0.0516615;-1.702968;0.3014914;-0.16032356;0.12333384;-0.035907753;-0.056771446;-0.2869728;0.10123612;0.037786417;-0.32004538;0.621348;-0.0008365558;-0.05772541;0.05983419;-0.06976083;0.0077918684;-0.19359085;0.075040475;0.05662207;0.022779807;-0.50501263;-0.0046229763;0.07235031;-0.279644;-0.06945984;0.026984518;-0.5316718;0.48926955;-0.019876307;-0.2727414;0.18495233;-0.21012457;0.022666523;-0.079458095;0.0051644435;0.122012846;-0.062487;-0.041654203;-0.09113861;-0.57929176;0.11523132;0.2280221;-0.0861702;-0.020611998;0.024959533;0.20562568;0.11189524;-0.22192973;0.044645216;-0.41453227;-0.027416885;-1.5035688;-0.065093696;0.02798087;0.26152655;-0.040554162;-0.037525404;-0.091093555;-0.064999446;0.06161627;-0.2511427;-0.04705142;-0.008284985;-0.4562611;0.003386747;0.03210819;-0.040979512;0.14203534;0.13807333;-0.012998608;-0.06565829;-0.0069081127;-0.026897538;-0.04229855;0.07663354;-1.2533417;0.03320366;0.023232069;0.06786148;0.040153515;0.42156574;-0.07408838;-0.024318544;-0.10081362;-0.12090967;0.055954117;-0.030024081;-0.038526047;-0.02671273;0.01996419;0.1154563;0.010111848;0.21201786;-1.0428623;-0.05440595;-0.038470358;-0.26417953;0.034729473;-0.028645586;0.006974331;0.055560566;-0.069840804;0.009225829;-0.18880346;0.9121135;-0.044294026;-0.6890354;0.048723817;-0.058395177;-0.46178254;0.062625624;-0.021642802;0.028947365;-0.041078717;-0.5014988;0.0007232689;0.04277769;0.046145715;0.019798975;0.06373319;0.26718077;-0.003057933;-0.106523015;0.0050609005;0.258366;0.028024392;-1.5040902;0.20988056;0.05752957;-0.070990264;0.80673885;0.061582793;-0.10218101;0.011386803;-0.1619435;0.041211557;0.0072639915;0.5832887;-1.3715765;-0.023435034;0.04192401;0.035307005;0.042518295;-0.88845295;-0.2931181;-0.16101362;-0.04715368;-0.29956138;-0.37605968;-1.6125491;-0.082672946;0.042725958;-0.032174688;-0.24761488;0.04243362;-0.0036129863;0.060443297;-1.7336729;-0.024628358;0.020790998;-0.12972586;1.4234146;0.3601978;0.06091016;0.00075565925;0.050271846;0.26065356;-0.04580707;0.019513212;-0.07141685;-0.02550516;0.007039921;0.08723397;-0.169898;-1.5260811;0.13675103;-0.167882;-0.10510919;0.0724539;0.0058051706;-0.0135635985;-0.076726735;0.0014422755;0.006505189;-0.87733907;-0.22022876;0.06780106;-0.14869656;-0.04171687;-0.05207353;-0.2647999;-0.0034312496;0.006000773;0.40254256;0.37125373;0.06756305;-0.07682334;0.027021538;-0.16753983;-0.08213363;-0.0665085;-0.019809084;-1.6463646;-0.067438714;-0.48016748;-1.7614008;0.047788564;-0.20602004;-0.10389248;0.06093588;-1.4006983;0.054382157;-0.34602353;-0.03004147;-0.13783884;-0.23330718;-0.0466978;-0.05234333;0.006376459;0.3508584;-0.7955037;-0.041451216;-0.07427194;0.095233016;0.008033606;0.03143846;-0.018709308;0.50193834;-0.043866597;0.07051905;-0.053632867;0.25602353;0.017196942;0.32586396;-0.010845122;0.43003568;0.69411933;-0.014836814;0.026788117;-0.054935154;0.06528966;-0.42410594;-0.2544011;0.18404993;-0.018828271;-0.05320833;0.359691;0.022848822;-0.05104716;0.14666559;-0.17345442;-0.026652042;-0.08218294;0.06405301;-0.060742784;-0.85754275;-0.030355917;-0.93138856;0.056613907;-0.108060926;0.07324329;-1.2760721;-1.0283469;-0.0140285;0.553512;-0.05394777;0.21256772;0.04674599;0.058810126;0.06155125;0.08253734;-0.07185625;-0.57301384;-0.028708475;-0.3713879;1.1797836;-0.05343495;0.053054456;-0.06326057;-0.08530541;-0.055049382;-0.2908905;0.497142;0.032696586;-0.19474171;0.0138736265;0.045440126;0.033516116;-0.47793397;0.033721544;-0.02116736;-0.15349053;0.35726392;0.10292381;-0.070025235;-0.016329708;-0.09234422;0.22310233;-0.20800973;0.17777908;0.014150131;-0.09768323;0.31795213;0.21754202;-0.0736852;0.014733736;0.049339272;-0.31430903;-0.07769748;-0.05911122;0.090430915;0.05157561;-0.07730228;0.022065956;0.18710227;-0.011134933;-0.3187385;-0.932712;0.526024;-0.13158868;0.014468174;-0.0020768591;9.693696e-05;-0.06993089;0.010323045;-0.80766344;0.019594567;0.013486806;0.14364432;0.006293321;-0.45348778;0.01785409;0.027680187;0.06172799;-0.23656546;0.104158126;0.21856968;-0.07580259;0.5213783;-0.28010857;-0.013576692;-1.0272286;-0.014798118;-0.023747781;-0.49329805;-0.046605285;-0.088759206;-0.052163895;0.051673006;-0.07750404;-0.3453724;-1.0768805;0.105521366;-0.44039416;-0.2845806;0.061736066;0.054248594;0.049568754;-0.69814044;-1.3039228;0.4939136;0.35835505;0.06720731;-0.38555405;0.034409095;0.06946777;0.005126207;-0.052441813;0.030275498;0.09326561;0.28317302;0.06240918;0.09467202;-0.0010767579;-0.038397837;0.0129475165;-0.08806532;-0.05254954;0.033993963;-0.07959971;-0.035547476;0.17796148;-0.14011036;0.05232747;-0.021358153;0.39973572;-0.0870184;0.28080308;-0.3668742;-8.609479e-05;0.04134562;0.039212104;0.07912251;0.04414742;0.016301444;-0.13777079;-0.021153893;-0.027862517;0.16213669;-0.06487033;0.63975084;-0.12646478;-0.0100385705;0.004479693;0.08292313;0.034031805;-1.0909932;-0.012246115;-1.054358;0.11177316;0.29303792;0.5662822;0.033291765;-0.6929877;-0.018135453;-0.03237891;0.15278049;-0.061727345;0.07367596;-0.008217598;-0.022145687;-0.2146781;-0.052463695;-0.05632;0.053916026;-0.021115046;0.05870433;-0.11137211;-0.72446084;0.13304973;0.04312999;-0.079997346;0.035837058;0.006831802;-0.50608295;-0.38785014;-0.0714183;-0.050858386;0.06774955;-0.5840756;-0.048768148;-0.1757949;-1.806235;-0.030064652;-0.060804788;-0.056261823;0.029074427;0.039986134;-0.052891266;-0.035774074;0.032177053;-0.4772936;0.0052109715;0.004930695;-0.05637988;0.73812264;-0.013101719;0.069803916;-0.56137836;0.20319927;-0.31018636;0.04030277;-1.4189597;-0.105583854;0.008237002;-0.2664083;-0.4160343;-0.02825647;0.03880089;-0.12820561;0.13108799;0.12410599;-0.06332922;0.051725835;0.068678245;-0.023036549;-0.27153194;-0.04154635;0.49201086;-0.08200232;-1.8069549;0.0123561155;-0.06242604;-0.21885093;-0.2950539;-1.5793215;0.078947924;-0.0095755095;0.035930883;0.006018113;-0.09107761;-0.0036345264;0.04365336;-0.19219995;0.13487007;-0.1439574;-0.07549447;0.04757874;0.47302997;0.15101136;-0.13925724;-0.06700314;-0.09250997;-0.0053475033;-0.056310024;0.012916382;-0.03554689;-0.5502543;0.003923851;-0.086863615;-0.61870897;0.048791576;-0.046266157;-0.055492833;0.0634514;-0.03952802;-0.061352666;-0.06818458;0.0646766;-0.08618711;-0.04299269;-0.010035208;0.06375509;-1.2341;0.02826477;-0.027843857;0.07067563;0.014971866;-0.25488892;0.035778828;0.34638438;-0.10759564;0.45399448;-0.019585706;-0.04183525;-0.5119766;0.024842525;-0.016090931;-0.27947688;0.023909139;-0.041318223;-1.4589839;-0.48581004
-0.12946929;-0.51131105;0.49616364;-0.057249643;0.116768025;-0.3499253;-0.5905277;-0.06245251;0.058086492;0.18231393;-0.06384283;-0.25159305;-0.22979295;-0.0406207;0.04177296;0.062235713;-0.4006247;-0.55064905;-0.16025166;0.05092767;-0.07298928;0.53199154;-0.094696544;-0.01718444;-0.28460327;0.32700288;-0.2534893;-1.3341143;0.020106917;-0.21319517;-0.030267132;-0.03354972;0.02492204;-1.2216727;0.1914402;-0.82239527;-0.2924122;-0.14577116;-0.00067300256;0.27748668;-0.14834407;-0.07862847;-0.4772941;0.8667094;0.030479172;-0.062992;0.07982656;0.018477913;-0.1749489;-0.13555081;0.098153405;-0.9703308;0.06192649;-0.12648845;0.029580262;-0.14369184;-0.46857086;0.08678912;0.04994121;-0.3408615;-1.1462795;0.07803224;-0.6583358;-0.109136984;-0.10624874;0.09919723;0.08264033;-0.07525274;0.13963509;0.0149404155;-0.009664154;0.10737114;0.28169203;-0.2471681;-0.27771422;0.7214542;0.13709244;-0.006323411;-0.20832725;0.33547804;-0.7364554;-0.08297882;-0.9563795;0.010245981;1.0536394;-0.08764185;0.08934029;-0.014801856;-0.32211366;-0.20095624;0.13884963;0.07910381;0.03484782;-0.5841634;0.10260506;-0.009688812;-0.2792243;-0.21728712;-0.046198633;-0.24267925;-0.10013113;-0.35247847;0.29332688;-0.07457715;0.18959083;-0.053071458;-0.057289086;-0.027605085;0.25847858;-0.09179773;-0.015133812;0.11445036;-0.015645238;-0.19151743;-0.098406225;-0.08358898;-0.017766695;-0.048982807;0.04276146;-0.47299495;-0.048708525;-0.044786505;-0.016017664;0.008591501;-0.2351421;-0.54782796;1.3094453;0.08078274;-0.010549646;0.9522847;-0.20535205;-0.051156063;0.04716582;0.02592769;0.04104472;0.069292724;-1.2412654;-0.547514;0.029304175;-0.38306057;0.050991457;-0.040054854;0.37058777;0.051858276;0.045782093;-0.07521158;-0.04949506;-0.65427756;0.02294454;-0.09367158;-0.031622794;0.14606155;-0.13893983;-0.36030295;0.013035992;-0.07874141;0.12454109;-0.8501887;-0.20496222;0.36796725;-0.27935678;-0.009924617;-0.25773966;-0.45861375;-0.9823806;-0.120019995;-0.14886469;-0.15656497;0.0025604283;-0.00106308;0.98595977;-1.2462398;-0.02369529;-0.41053125;0.04855779;-0.11323736;0.028306706;1.0994915;-0.03259126;-0.24937251;-0.23843016;0.4168864;-0.30527866;-0.011495651;0.021021588;-0.19671753;-0.1593278;-0.11633082;0.061371975;-0.055622242;1.3702936;0.016802063;-0.21752276;0.27485293;-0.9837281;-0.23934978;0.028937697;-0.12394793;-0.22335568;0.1785631;0.11149136;-0.2524027;-0.016706798;0.1954739;-0.031228058;-0.3162366;0.17832682;-0.87008214;-0.39472893;0.15307425;-0.014298223;-0.2480126;0.0017348437;0.07883718;0.2930934;-0.6361953;-0.2414596;0.77900267;-0.37748888;0.0028435977;0.20029156;-0.027265409;-0.1395784;0.11661361;-0.13879444;0.04659589;-0.2299942;-0.21664913;-0.11681625;0.049539745;0.22363314;1.5010175;-0.14179598;0.37968698;0.033508003;0.38684127;7.016562e-05;0.04449362;-0.46744388;0.051079128;-0.055490255;-0.093778096;0.017144391;-0.16829129;0.061495904;-0.988671;0.098635025;-0.2372444;-0.448554;0.006392708;0.14384139;0.105629906;-0.11672482;-0.14482917;0.039720252;0.073443055;-0.2615705;0.054727003;0.0004196868;0.08816635;-0.31944132;0.10815963;0.13562027;-0.11181403;-0.19649462;-0.17171471;-0.20126297;0.049527835;-0.36772358;-1.0110822;0.06605736;-0.68648946;0.015721502;-0.23873183;0.27450904;-0.43039456;-0.50358486;-0.13518882;-0.05549482;-1.1856488;-0.26166096;-0.22035982;-0.2577395;0.07730253;-0.13902894;-0.08729895;-0.16040982;0.20667987;-1.459344;-0.060168218;-0.8760255;-0.10262714;-0.51660925;0.03744003;0.4846704;-1.017125;-0.0721373;-0.06665816;-0.008458464;-0.22590382;-0.042248838;-0.01420143;0.05506646;-1.177251;0.054391913;-0.43276572;-0.15687165;-0.24195835;-1.1052351;-0.08181818;0.03272225;0.09154658;0.046341643;-0.09826816;-0.22963475;-0.283064;-0.0447203;-0.14442736;0.0534535;-0.0348983;0.058693174;-0.25417194;0.043393802;0.02265909;1.6822283;-0.02876784;-0.33161253;0.111895576;-0.17600766;-0.5024394;1.1651809;-0.082486056;-0.18480386;-0.2566708;-0.7324556;-1.3318566;-1.3807747;0.009161309;0.013374413;-0.45270753;0.011372358;0.077731274;0.076819375;-1.2795278;-0.31563178;0.17883404;0.03268121;-0.18732587;-0.23725684;-1.1224813;-0.08699522;0.97441727;-0.07447053;-0.29506212;0.02880761;-0.5134318;-0.22113425;0.43225387;-2.2504036;0.22437766;0.013559081;-0.284163;-0.1357073;-0.53297955;-0.049920946;-0.3315356;0.018936893;-0.28556678;-0.55953485;-0.29401386;0.07687036;-0.5737201;0.40300873;0.05461448;-0.42931283;-0.012695113;-0.0056992196;0.087222636;-0.27184135;0.054563146;-0.14832225;-0.05089697;-0.010513282;-0.08799092;0.24259429;-0.32862842;0.05340212;-0.2695862;-0.030247405;-0.063049816;0.11505126;-1.7250923;-0.70072573;0.627401;-1.0026118;0.039045047;-0.33731458;-0.23591417;-0.446721;-0.3092042;0.058732435;-0.10724371;-0.28332087;-0.08877155;-0.19777088;-0.054219052;0.0209744;0.085556395;-0.06412569;-0.024863709;-0.08833234;-0.048774604;-0.0010265749;-0.004887542;-0.37726226;-0.19179793;-0.027715515;-0.16331545;-0.12815958;0.020284206;-0.13308682;-0.4052596;0.19841531;-0.018877158;0.093245745;-0.0788975;0.0013662732;0.043862503;-0.08000356;-0.17001028;0.07866949;-0.054559484;-0.10175192;0.08760085;1.9208231;0.07723391;0.11103628;-1.4955577;-0.002988548;-0.881054;0.11091457;0.4298345;-0.041733738;0.067099534;0.090093195;-0.19337516;0.7300735;0.06432551;0.16818388;-0.2169785;-0.25258675;-0.022211226;0.5790099;-0.041838355;-0.24998549;-0.049717467;-0.034186076;-0.027581804;-0.33962435;-0.07713564;0.022098923;0.25061482;0.1565061;-0.13943465;-0.068053834;0.28281713;-0.06123571;-0.635924;0.08326395;0.13920398;-0.2601074;-0.028353732;-0.61186606;0.07492051;0.061967503;-0.21446227;-0.060780197;-0.038791098;-0.18605141;-0.15648514;-0.3006992;0.16065371;-0.0129655395;-0.11611512;-0.279151;-0.23665088;0.2039276;0.048916858;-1.046423;0.034527477;-0.0004225757;-0.6086205;-0.021265417;0.2968009;-0.26868734;1.0672202;0.23021695;-0.28435853;-0.14712387;-0.7575831;-0.077834465;0.020307899;0.0485773;-0.19129847;-0.4238854;0.08706881;-0.112163015;-0.05376049;0.06044919;-0.19046073;0.04042528;-0.3412212;0.0911626;1.1508248;-0.2855433;-0.05681175;-0.35417253;-0.22268073;-1.394623;0.034681078;0.014751164;-0.057772286;-0.1453489;-0.0051608095;-0.8421743;0.0044208313;0.3766725;-0.10277121;-0.16804887;-0.12217905;-0.08526312;0.15028837;-0.03430633;0.13826953;-0.01958632;-0.04452671;-0.18280657;-0.035159867;0.014510298;0.033205338;-0.41214526;-0.15049298;-0.07950303;-0.9931638;0.070134744;0.07755112;-0.07663059;-0.14143793;-0.065677956;-0.011313854;0.010712082;-0.06646036;-0.16381127;0.1695598;-0.368659;0.07772429;-0.5118482;0.06903341;-0.13879775;-0.21636525;-0.13069195;-0.431369;-0.186598;-0.16951257;0.04356468;-1.8833594;-0.63799673;-0.03723412;0.033991802;0.020840826;0.0978874;-0.16952325;-0.097959906;-0.08779878;-0.45082662;0.030723814
-0.0008877696;0.48886225;1.5144233;0.12871565;-0.37569562;0.04764452;-0.46584764;4.7400394e-05;-0.00235967;0.72202766;0.0053432127;-0.0325321;0.35662973;-0.009004641;0.0017772702;-0.041179944;1.0419929;-0.23511353;-0.3784929;-0.5781236;-0.69265103;0.108377196;-0.047742736;-0.023269722;0.24847974;-0.025636341;0.23203307;-1.2395908;-0.12943341;-1.1435956;0.08242414;-0.61187893;-0.11336456;-0.024865901;-0.007091078;-1.107046;-0.6201624;-0.062395748;-0.00658538;-0.09772926;0.11258332;-0.08909269;-0.16628923;-0.34722546;-0.08153254;-0.014960125;-0.01766919;-0.077820815;0.083497725;-0.67864174;0.02707311;-0.3225441;-0.18559143;-0.5823187;-0.06991053;-0.7474203;-0.76513577;-0.071104825;-0.05890809;-1.0312384;0.2927059;-0.013158325;-0.08936108;-0.257357;-0.66193604;0.022011843;-0.022175452;0.04100716;0.5697179;-0.1374825;0.0003534087;-0.09378692;-0.61353695;0.23395757;0.2749427;-0.3121754;-0.10970421;-0.0032353415;-0.6371665;-1.4866893;-0.818804;0.06872016;-0.9569055;0.04378251;-0.77037877;-0.1931873;-0.06876819;-0.06499369;-0.09256696;0.08689886;-0.13271621;-0.09604285;0.039656386;-0.35604772;-0.10400482;-0.05621546;0.18810697;-0.018028973;-0.066398546;0.06852888;-0.8012267;0.07732445;-0.24182591;-0.035464562;-0.00370086;-0.020599453;-0.24545369;-0.06438996;1.0721875;0.05699844;-0.047502257;0.0248401;0.008361831;0.46414834;0.02592914;-0.057328787;-0.03603844;-0.3297004;0.050244965;-0.034845646;0.09822711;0.041503716;0.06692366;0.0035363003;0.05559231;-1.3869647;1.1829569;0.04258705;-0.03092229;0.63362736;0.011307318;-0.09113511;0.028842283;-0.09297775;-0.06385901;0.008690432;-0.31114045;0.10372173;-0.07746516;0.29875338;-0.1046183;-0.45286706;0.28558174;-0.0135343;-0.019056767;-0.02162532;0.34274554;0.39457625;0.8683775;0.065052316;0.03576529;-0.08701098;0.105920516;-2.0361629;0.013267374;-0.038424198;-0.2930131;-0.9971049;0.041144833;-0.56114596;0.11737222;-0.0076668994;-0.03790864;-1.277114;0.7905597;0.19769885;0.07619981;-0.30263233;0.049489845;-0.051528912;0.25326815;0.43483192;0.015658943;0.07782119;-0.066687636;0.100811794;-0.054571785;1.6226218;-0.40648934;0.024723949;-0.69444126;0.08824592;0.7032499;-0.46168357;-0.10820545;0.07425029;-1.99351;-0.05107846;-0.0041960934;-0.06213287;0.5767543;-0.0722592;-0.022654468;-0.029624937;0.34831327;-0.20605937;0.0037067013;-0.0012786937;0.05488512;0.32659277;0.028909238;0.05938975;0.027022203;-0.037475254;-0.10253041;0.09418504;-0.09694038;-1.3648021;-1.1148006;0.010464476;0.25045776;0.012920062;-0.1396695;0.05134501;-0.21122612;-0.17615087;0.060335692;-0.53159624;-0.15284134;-0.057509374;-0.1888772;0.06922195;-0.024455128;-0.054744996;-0.114954084;0.06533467;0.5617407;-0.16071628;-0.05641557;-0.05789816;-0.092753366;-0.95809084;-0.06770856;0.16409342;-0.09014172;1.7687045;0.05287975;0.76872534;0.8417804;-0.18685254;-0.07513368;0.06361389;-0.017099181;0.025279945;-0.032559313;-0.30514967;-0.114080764;-0.119270466;-0.16383389;0.015673267;-0.05947125;-0.091996595;0.51894265;-0.4390047;-0.07869955;0.03099295;0.083999366;-0.0026544202;-0.19665442;0.050985053;0.15731512;-0.001325528;-0.011424859;-0.08353455;0.40800714;0.04904623;0.48896927;0.0033177256;1.1698834;-1.0428222;-0.005129536;-0.34716725;0.044632323;0.0027181741;1.2141554;-0.50008655;0.19317834;0.098994926;-0.0042879805;-0.11490996;-0.024070775;0.025495328;0.24189632;-0.08509848;0.056190252;0.064184576;-0.061975174;-0.1495781;-0.87708104;-0.012723448;-0.9100375;-0.016089505;-0.4728624;0.010102625;-0.2915236;0.2989334;-0.029101476;-1.061008;-0.12827547;0.30971152;0.09415889;-0.094926745;-0.08769692;-0.6097937;0.027355457;-1.4387892;-0.10955565;-0.22083598;-0.72751874;0.024605712;-0.03873967;0.1012594;-0.11048844;-0.037910413;-0.52432966;-0.33934703;-0.29796627;0.08815595;-0.046995424;-0.058770325;-0.11310069;-0.29573482;-0.012545342;0.08457828;0.6320374;0.39319867;0.04826227;-0.03127308;0.036131684;-0.026179213;0.9190291;-0.4709829;0.11707725;0.062786564;1.1667725;-1.2238499;-0.84998703;-0.060048737;-0.028121471;-0.13854174;-0.23274899;-0.069306545;-0.09155699;0.6276556;0.016919222;-0.069374196;-0.037736434;0.13174699;-0.02438853;-0.2746673;1.6022713;-0.7559144;-0.25783145;-0.013473686;-0.06628216;-0.2327859;-0.5552889;-0.46567842;-1.0492555;-0.12397176;-0.011643595;0.21315363;-0.45288444;0.10309921;0.08391334;0.04875619;0.03313366;-0.5631818;0.0011286637;-0.21720177;-0.016843703;-0.07400884;-0.17352986;0.047507916;0.36965072;-0.019891739;0.06590642;-0.50768137;0.10536724;-0.052463982;0.05107148;-0.038252078;0.0511957;-0.6189726;0.32325867;0.1723534;-0.7197544;-0.3424193;0.025712823;-0.06688478;-0.014410534;-0.4044089;-1.1377827;-0.06871358;0.5965624;-0.013022757;0.50012505;-0.005780858;0.29228893;0.07882661;0.0063903835;0.03805189;0.19974391;0.4511827;-0.01324471;-0.09509238;-0.052942358;-0.12147675;-0.013308781;-0.0029743605;0.065139055;0.013339441;-0.01917517;-0.08662775;-0.65421116;-0.76351535;-0.03709378;-0.022107672;0.59184426;-0.04839469;0.06258978;0.067120686;-0.093009606;-0.0039768293;-0.049558472;0.08092042;0.08563177;-0.09902054;0.74429244;0.042252913;-0.06829746;-0.6220122;0.030373745;0.15787537;0.25266227;-0.18169789;-0.036856893;-2.6083987;0.012253796;-0.6117417;-0.047533475;0.8774429;0.17873;0.3226468;0.36487836;-0.004567085;0.94092494;0.014887722;0.111836836;0.6577243;0.097562365;0.058293287;-0.07302169;0.031208454;-0.42020285;-0.046030127;-0.008831549;-0.089579664;0.06995336;-0.05428768;-0.13891691;-0.90176874;0.049866755;0.036990922;0.044451766;0.05740215;0.0061055617;-0.5711656;0.23744735;0.07231996;-0.018466823;-0.01210942;-0.89060986;-0.04623976;0.20251472;-1.4340082;-0.02066752;-0.07231713;-0.032386295;0.016061442;0.0971102;-0.05015059;0.04130823;-0.05003963;0.6025017;0.05439751;-0.024586204;-0.12823834;-0.08757244;-0.0737251;-0.060196254;-0.808187;0.38850367;-1.0124441;0.064475924;-1.0442889;0.0009814776;0.11063746;1.133378;-0.545937;0.031040363;0.070315324;-0.043394215;0.23372346;-0.021857202;-0.100010894;-0.036205262;0.07748621;0.027141819;-0.64012665;-0.019887794;-0.6002007;-0.095627144;0.3095316;0.10850286;-0.18729383;0.25168732;0.07019321;-0.1728571;-0.08719035;-0.04095588;-0.008128578;0.10804224;-0.06961581;0.23131214;-0.08696127;-0.33003622;0.1366301;-0.5837218;-0.024170512;-0.0090502165;-0.3944302;-0.015457716;-0.63081443;-0.0075210887;-0.057785492;-0.14395578;-0.061462533;-0.0046186117;0.008170105;-0.2043447;-0.015174394;0.059831813;-0.0630073;0.021613818;-0.22713685;-0.021714838;0.0971221;-0.074609056;0.016790153;-0.020849759;0.023474343;-0.352421;-0.10507816;0.07710237;0.07294346;0.17952472;0.027027382;0.08138494;0.10873182;0.07801594;-0.36471465;0.038516942;0.34844774;-0.073645286;0.92900187;-0.8958558;-0.011187456;-0.7071552;0.027284725;0.05511798;-0.5312237;-0.11015148;0.102102645;-0.3474567;0.27331924
1.1531446;3.1416197;0.81424963;0.04738573;-0.05980941;0.42538396;-1.6695815;0.06577801;-0.11660264;0.3911906;0.018748548;0.16911198;0.76608974;-0.03857391;-0.025194388;-0.08362519;0.007082055;0.9017662;-0.06393801;-0.6289777;-1.3530114;-0.15481222;0.03619658;0.08490939;-1.4071002;0.28648192;0.24999315;-0.52370936;-0.4373106;-0.788419;0.1375982;-1.8733708;0.0005965637;-0.9837014;-0.57872546;-0.226287;-0.07595576;0.19352737;-0.082932524;-0.18494155;0.17949627;-0.113369465;-0.45012945;0.152182;-0.12000621;0.038131706;-0.07804098;-0.01829345;0.25809485;-0.27585214;-0.092788115;1.6368799;-0.16766655;-1.108622;-0.15267646;-0.067699656;-0.8026184;-0.04527694;-0.07363225;-0.9022446;-0.7676744;-0.19101396;1.0012943;-0.24439819;-0.7633665;-0.32256085;-0.09659191;0.07856593;-0.29234973;-0.11523599;0.07643675;-0.04658684;-1.2044121;0.4739129;0.5649791;-0.7207714;-0.1094125;-0.0054298136;-0.34511012;-1.5201644;-0.3590922;0.20613045;-0.43854457;-0.051561408;-0.7223877;-0.23312767;-0.027555982;-0.09544773;0.058988456;0.26171845;-0.11161603;-0.17467748;-0.07108654;-0.21247412;-0.02608903;-0.17507477;0.29794404;0.24633913;0.06807891;0.18387431;0.9174589;0.26836482;-0.21499793;0.080427036;-0.16203894;-0.030810192;-0.33505425;-0.008043928;0.6721097;0.11291214;-0.019167684;-0.05273089;-0.14268388;0.98198956;0.079636574;0.063281335;-0.11701062;-0.34857836;0.043057505;0.3132145;0.12323511;0.21004488;0.032203767;-0.10001758;0.20010532;0.6085174;-0.06222311;-0.011075827;0.04808353;-0.52381295;0.3350142;-0.099470586;-0.15370595;-0.07811918;-0.115448005;0.0043831435;0.73127276;0.50880194;-0.113357596;-1.549349;-0.1432122;-0.55065936;-0.28534472;-0.09029242;0.089899674;0.15668504;0.056656595;0.37012535;-1.8591174;0.037890095;-0.1294867;-0.1590054;0.25035542;0.5628086;0.042449836;-0.102756225;-0.27801457;0.63632816;0.09645617;-0.7947755;0.10350803;-0.022944931;0.36000785;0.34524876;0.7753933;0.16347994;0.17936951;-0.4009602;0.081406824;-0.10525815;-0.9994442;-0.053424437;-0.08200692;-1.0093085;-0.05286305;0.07213636;-0.98108315;-0.006728113;-0.37759998;0.1735872;-0.8144187;-0.23375668;-1.6410663;0.29948974;-0.053660654;0.17526615;-0.6454673;0.13669688;0.015345211;-0.040587742;-0.037367523;-0.10576168;0.19998017;-0.33359262;0.9017397;0.36665386;-0.035541367;0.23013796;0.2333874;0.6277117;-0.054056622;0.2783874;-0.12252483;-0.19590604;-0.06909293;0.4125142;-0.44245368;0.7913654;0.3802541;-0.2740712;-0.5443908;0.27742317;-0.23033993;-0.18267956;-0.3817359;0.1986806;0.3149236;-1.366589;-0.18380976;0.07238929;-0.26937702;0.099942364;0.081177965;-0.36760676;-0.017520228;-0.10652536;1.1023076;0.57581484;0.10056847;-0.07287409;-0.21308331;-0.5028397;0.87801415;-0.08681374;-0.12699668;0.7826089;-0.0039327387;0.41519246;-0.5600013;-0.47022972;-0.30562726;0.059823904;-0.04726653;-0.44847655;0.14622836;0.13536501;-0.17456637;0.084486954;-0.2658844;0.027707087;-0.320969;-0.34689206;1.0632533;0.96634763;-0.11046355;-0.102917135;0.37428716;-0.11540263;-0.27417463;-0.14277978;1.1600306;-0.23811035;-0.14366065;0.06989702;0.8537326;0.06913619;1.0236079;0.023494385;2.949586;1.2127683;-0.10893646;-0.2764933;-0.07453067;0.30400157;-0.90211;0.018718211;0.44367763;0.27984208;0.11051792;1.1596742;0.19792883;0.2861654;0.39390436;-0.12369907;0.111158326;0.03533815;0.20518996;-0.2446733;-1.064983;-0.049584433;-1.3482909;-0.14485388;0.040816158;-0.10455185;-0.81312513;-0.13629411;0.06037851;-0.2340665;-0.12942548;1.1841514;0.13324693;-0.027455067;-0.09734123;-0.26220563;-0.10690866;-0.037408553;0.1837978;-0.06876132;0.95480126;0.22404817;-0.04841944;0.105029106;-0.09567356;0.06979263;-0.7566168;-0.06885013;-0.1273396;-0.6881243;-0.03233484;0.097243436;-0.056720756;-1.2310809;-0.0321561;0.029483004;-0.015617384;-1.8751881;0.3692918;-0.08741384;0.067140654;-0.05031647;0.85870534;-0.4704327;0.4474482;0.28805092;1.7586222;-0.6587699;1.4908392;0.069346696;-0.017892847;0.058657307;-0.48208734;-0.059839647;-0.06666989;0.8725604;0.77819765;-0.18291573;-0.101873666;0.37381193;0.312344;-1.2742697;-0.33404028;-0.18593001;-0.2500571;0.1998894;-0.10775559;0.42356008;-0.4847927;-0.7347084;-2.1309967;-0.24183719;-0.0070337583;0.43412688;-0.6921351;-0.38535348;0.10276167;0.13013628;-0.04271206;-0.7720964;0.2598655;-0.30660015;-0.101551734;0.43484557;-0.3985035;-0.0788736;-0.5315482;-0.07532098;0.13936926;-0.1270208;0.23224579;-0.09332945;0.09746876;-0.042187765;0.045118816;-0.86146677;-0.56538117;0.39770994;-0.19829361;-0.07535601;-0.047906127;0.07118616;-0.17046191;0.5564314;0.059673794;-0.4492167;0.0059035337;-0.12163024;-0.83522934;0.13042645;0.24241285;0.43341872;-0.19867624;0.04021507;0.48324972;1.0882292;0.3142918;-0.23834328;-0.11695058;-0.2437022;0.11394533;-0.08717833;0.13286574;0.0419716;-0.17415944;-0.20544685;-0.8167115;-0.73955315;-0.15143004;0.22831538;1.0423716;-0.0810028;0.04226435;-0.41806766;-0.3360706;0.18133983;-0.25336543;0.057573088;-0.008555567;-0.12933876;0.52763873;0.083637506;-0.056406863;-0.38307723;0.1573934;0.19757344;-0.7367727;-0.12208331;-0.025918812;0.46894366;-0.08295907;0.6223283;-0.26426965;0.08183394;0.36566544;-1.316264;-1.9818528;0.034922507;0.664856;0.029482774;-0.37144724;-0.54638386;0.22917895;0.048695397;-0.6648026;0.05126914;-0.4754453;-0.033118103;-0.05648607;0.29640272;0.2884262;-0.025408076;-0.22084966;-0.5533641;0.19188952;0.1225499;0.119867325;-0.2322345;-0.052911513;-0.8492528;-0.8461928;0.06291708;0.12962808;-0.073398925;0.06218576;-0.02842358;0.42568716;-0.57550085;0.096401796;-0.058663677;0.21916108;0.093516;0.40496975;-0.22055435;-0.0648911;0.09102063;-0.117901415;0.2742186;-0.36663255;-0.2631291;-0.24235551;-0.13899;-0.034304067;0.36806315;0.20425981;0.60053515;0.3106765;-1.4665875;-0.3066294;0.36267173;0.97817665;-1.9533986;0.05813945;0.051580235;-0.096890695;0.6947627;0.4847148;-0.052300543;0.14091943;0.038217235;-0.15303211;-0.76527596;-0.022779413;-0.5127774;-0.103848875;-1.324724;0.17604765;-0.08909772;0.117345385;0.24219066;-0.06662829;-0.04781038;-0.049882926;-0.055421583;0.13632704;-0.1450131;0.89187866;-0.13548474;-0.02354823;0.088114224;-0.51078737;0.021458622;0.06404393;-0.4704691;1.3870901;-1.5514258;-0.03872946;0.1321737;0.05363374;-0.06296257;-0.08728504;-0.008567906;-0.32137161;0.109021336;0.07166037;0.44630307;-0.05499422;-0.2128455;0.08565863;0.08845844;0.04441063;-0.12523013;0.04213276;0.07486785;-0.6445262;-0.116467;0.28511617;0.049869005;-1.6736512;-0.109159485;0.13249364;0.12843965;0.15474048;0.3105272;0.11957403;0.9353498;-0.12821859;-0.13793612;1.3736069;-0.06269819;-0.9927744;-0.07652716;-0.005077089;-0.5767456;0.019403744;0.07927542;0.24563478;0.21949145
0.6966087;-0.28964564;-0.19639155;-0.037123606;0.009307679;0.060327146;-1.0211608;0.034269914;-0.025911989;-0.17987393;-0.08037412;0.0071194903;0.31135336;0.06680034;-0.044374656;0.023848468;-0.46111614;-0.95474076;-0.070543505;-0.7999431;0.29603913;-0.36487076;-0.011047279;0.027142456;-0.7000348;1.296369;-0.01953422;-0.2839285;-0.0836714;-0.4597768;0.00057593244;-0.5987112;-0.048031524;-1.436278;-0.85037094;1.016353;-0.06180076;0.02859333;-0.070971444;0.08473775;-0.025544072;-0.011962655;-0.12985964;-0.97636485;-0.06743539;-0.015470806;0.006025456;-0.09390996;-0.12810332;0.31424263;0.027288869;0.5825861;0.15020235;-0.30163056;0.011379025;-0.36711422;-0.9417113;-0.063218564;0.054865174;-1.0744605;-0.46704316;-0.0009619171;-0.9729084;-0.16281526;-0.43585446;0.088146426;0.022517651;0.03378214;0.30953237;-0.087810226;-0.0058571943;-0.013601238;0.0042888676;0.118986726;0.78856486;-0.28725466;-0.16228151;-0.08578018;-0.77251667;-0.55164045;0.058655214;-0.08182324;0.78577024;0.01781449;-0.26049706;-0.17165346;0.05528636;-0.38800204;-0.13665605;-0.09971847;-0.038208902;0.10349906;0.015970225;-0.15231311;-0.023608163;-0.01427113;-1.2582076;-0.04212198;0.013678491;0.026638595;-0.37648416;-0.01882452;-0.26271465;-0.028129887;0.03855255;-0.011446363;-0.16164613;0.024215564;-0.44937614;-0.06698666;-0.028511109;0.039716814;0.023390569;0.2539331;0.07644158;-0.054779574;-0.006821684;-0.26560017;-0.05308841;-0.06487919;0.016046667;-0.00056021544;0.0031408595;-0.07185276;0.04924928;0.7525892;1.5457985;-0.016227735;-0.07015395;-0.6151179;-0.052363455;0.26394272;-0.024997229;-0.06298495;-0.045886062;0.019681212;-0.6991148;0.39275837;0.0062943245;-0.59767044;-0.021488579;-0.6177119;1.2576581;-0.06449212;-0.024933336;-0.08924391;0.11880885;0.26138562;-0.0058968356;0.042764135;-0.02177324;-0.10081361;-0.068612516;0.4092395;0.041941352;0.015951386;0.22395097;-0.72543526;-0.06808993;0.5595126;-0.17167684;0.04749964;0.48650354;-0.11493843;-0.6252075;0.07555516;-0.10715592;-0.21859305;-0.10443529;-0.0700536;0.3773913;-0.12648869;-0.014743634;-1.7440404;0.0020779518;-0.16235536;-0.68610126;1.3099418;-0.45071983;-0.062678844;-0.67619866;-0.2115781;-1.7798258;0.15501302;-0.03977301;-0.08458486;-0.24393596;0.04277741;0.07541343;0.06769991;-0.1077986;-0.06934712;0.02255849;0.03445151;0.2975718;-0.23044749;-0.0022898817;-0.041766543;0.007535067;0.51552767;0.058046527;-0.013650924;0.05611882;0.07193898;-0.004798955;0.07646944;-0.304128;-0.68089354;0.111853555;0.0056318818;-0.6064571;0.03661677;-0.2854733;0.033787947;-0.05186126;-0.11302664;0.030926183;0.35251787;0.44625953;0.005011152;-0.12019162;-0.081665225;-0.03563343;0.21213967;0.05054607;0.034604557;0.26236042;-0.87213606;0.06654116;-0.079057686;0.06512968;1.0616249;0.22358415;-0.09005208;0.008555831;0.46342376;-0.030045254;0.018398788;0.22645845;0.91331524;0.03324668;0.055021588;0.048810605;-0.56178266;-0.09004458;-0.011745208;0.03473313;-0.2600041;0.50987524;-0.089075595;-0.06227318;0.041901443;0.3321719;-0.5408872;-0.053327408;0.06474532;0.07896392;0.04667967;-0.3152948;0.065221176;0.11354297;-0.004108801;-0.08663128;0.07206003;0.25753096;-0.15623216;0.4033529;-0.07544677;0.17903765;0.10522478;0.055817142;0.45373946;-0.08385185;-0.08052129;-0.31877002;0.10737748;-0.047742266;0.0007884356;-0.022755075;-0.15814924;-0.07821153;-0.09546634;0.113926746;0.056522135;-0.003034121;0.04624142;-0.07123461;-0.01979097;-1.0830505;0.039721977;-0.9692966;-0.09479534;0.739566;-0.07414613;-0.36102483;-0.8210261;-0.0075572506;1.387663;0.04613147;1.0243042;-0.017833628;0.06400213;-0.010493463;-0.552717;0.04032476;-0.32266065;-0.10401032;-0.24790768;-1.3722425;-0.05363145;-0.06677275;-0.17563812;0.04493247;0.012500008;-0.0656157;-0.43852106;-0.25622708;0.28685665;-0.019655205;-0.06920734;0.047685586;-0.3045118;-0.0023576962;0.042374283;-0.5235074;-0.4783423;-0.021342296;-0.08038003;-0.062468942;-0.21964559;-0.83492565;-0.34501037;0.18967585;-0.04118781;-0.2720746;-0.86906016;0.40001115;-0.09507945;-0.017520085;-0.15003525;-0.41089347;0.058253504;-0.10165391;-0.1108824;0.40691853;0.026974084;-0.036332488;0.16125341;0.0026871897;-0.88094896;-1.5613503;-0.4194515;-0.25782362;-0.08932563;-0.07213253;0.10106661;-0.6082578;-0.45940417;-0.3549266;0.08393892;-0.017676707;0.101635955;-0.6322439;0.09278693;0.041888975;-0.21836965;-0.041030034;-0.6782546;-0.11087586;-0.8032145;0.07178725;0.12573273;0.08629649;0.027437285;0.23612243;0.049620967;-0.023485603;-0.82318187;-0.0681625;-0.048769392;-0.058716796;-0.043894794;-0.03732998;-0.8753968;1.45277;0.093567155;0.09934221;0.21523593;0.015422106;0.033458818;-0.070506915;-0.5285074;-1.528777;0.40010512;0.34053493;-0.05036954;-0.38403746;-0.084366225;-0.54925996;0.116493545;-0.093954965;0.036344226;0.16370767;0.3977574;0.052447617;0.5737271;0.041693326;0.029548867;-0.06069362;0.018418029;-0.06448898;0.004922211;-0.069057435;-0.16181077;-0.36874074;-0.7279245;-0.033002142;-0.021283463;0.29881084;-0.07818565;0.052000094;-0.73629504;0.06777862;0.007587166;0.034532066;-0.06316628;0.0008580642;-0.077565104;-0.7907139;0.060672194;-0.09098701;0.13982522;0.008192963;-0.6506756;-0.047241766;0.16746546;-0.014225435;-0.030615868;0.04931246;0.08952408;0.031146353;-0.4448623;0.3588774;0.3500778;0.11722358;-0.11708692;-0.6752848;0.03911055;-0.2667483;-0.9214571;-0.0708994;0.06580025;-0.7341841;0.050334994;-0.37001103;0.052556023;-0.02107398;0.036327258;0.019620221;0.005689112;-0.12664688;-0.3753891;-0.2731244;-0.09404017;-0.08248765;0.003349907;0.045010336;-0.9847044;-0.13588548;-0.06426372;-0.035536118;-0.083292484;-0.9865395;0.050529253;0.013276954;-0.67857105;-0.025085889;0.053162;0.035676926;-0.03633334;0.07236569;-0.027992161;0.002601865;-0.07788325;-1.3203136;-0.08834557;0.11746591;-0.15032153;-0.67307323;-0.08035074;-0.053610463;0.55898476;0.9379988;-0.7228634;-0.0093702795;0.43777442;0.04225902;0.085858844;-0.696159;-0.786535;-0.023884946;0.05053316;-0.12186669;0.23597158;-0.12105797;0.026269324;-0.08927094;0.061077766;-0.08254317;-0.41836163;-0.05830309;-0.04952899;-0.07252665;-0.2395001;0.025612963;-0.16622572;0.024528958;0.07772571;-2.1702716;0.01702089;-0.006338302;0.029467855;0.012148013;-0.039591085;-0.4075401;0.008933294;0.27389604;-0.0067319674;-0.76956844;0.04907852;0.0013846306;-0.5768023;0.51398325;-1.2470497;-0.057354;-0.01940192;0.06420289;-0.07961383;-0.030880492;-0.008858819;-0.6037526;-0.034400247;0.012664726;-0.41878706;0.024422135;-0.116495825;0.04402583;0.01637958;0.03263214;-0.04060289;0.027952543;0.023006955;-0.4507264;0.023524063;-0.015506964;-0.010519347;-0.22258641;-0.10789848;-0.03977031;0.04018205;-0.0035985596;-0.6276484;0.047618102;0.35244906;-0.15202145;-0.2371504;-0.48932126;0.0073249904;-0.92263216;-0.026632357;0.029646978;-0.45417508;-0.082964234;-0.07029201;0.84030914;0.12936401
0.43871713;-0.47603044;0.5748144;-0.09825726;-0.25780943;0.0673398;-0.7442862;0.033720534;-0.023185637;0.57410336;0.030060451;0.043283455;0.2844108;0.015452062;0.052771077;0.07503722;0.09114064;-0.28075066;-0.31614527;1.2708106;-0.6299146;-0.47440863;0.009637508;0.05638624;-0.75704587;0.261572;-0.09656379;0.18438815;0.09339523;-0.3717135;-0.0360342;0.1774385;0.020848125;-0.60426253;-0.63654053;-1.6973184;0.27361262;-0.034882;0.051684793;-0.50312763;-0.04740888;-0.06991337;0.87088776;-0.97517395;-0.023131367;-0.016351456;0.028766138;0.020555656;-0.025364716;0.076664165;0.07813367;0.43439078;0.11974785;-0.8831267;0.10215028;0.5849367;-0.31451046;-0.049002517;0.0072848615;-0.19790266;-0.87669593;-0.11339827;-1.0912666;-0.19382592;-0.53762746;-0.022762675;-0.04053244;0.0077415276;0.05194726;0.04451612;-0.10106755;-0.09786217;-0.1593266;0.21680087;0.5349512;-0.36839664;-0.033004474;-0.05244058;-0.4017133;-0.07974901;-0.22745186;-0.013480697;-0.098905675;-0.017337061;-1.9356271;-0.11293315;0.09289434;-0.52902275;-0.23203747;-0.01820729;-0.040911395;0.078632094;0.053503014;-0.49236366;-0.0034329;-0.1143736;-0.8240534;-0.0022699179;-0.04985264;-0.010111634;-1.1234896;0.08613552;0.025622899;-0.03724886;0.113317944;-0.0328313;-0.18246752;-0.03025033;-0.13705005;-0.04098681;0.03261435;-0.04583951;-0.058326192;0.36585683;0.042903706;-0.040907525;-0.01819309;-0.29022875;-0.040919658;-0.07347909;-0.024376573;0.06328547;0.057969883;-0.10214834;0.033096388;0.22582111;0.63375133;-0.008174975;-0.00703883;-0.05251351;-0.03872315;0.3610742;0.07713918;-0.035377663;-0.08121626;0.04921395;-0.14562942;-0.11816681;-0.06811832;-0.64525044;0.07742821;-0.53183305;-0.4862241;-0.06873858;-0.024310857;-0.05911551;0.214826;-0.016855644;-0.41802028;0.019503376;-0.024066119;-0.06226638;0.019466596;0.39224043;-0.07283122;0.038561534;-0.36167496;-0.3341877;-0.075823136;-0.32767385;-0.15248668;-0.08130721;0.17326467;-0.16990566;-0.51134795;-0.115719356;-0.09281387;-0.36424756;0.0056230375;-0.038621742;0.8400102;-0.66483665;0.05158967;-0.04772329;-0.015209318;-0.09979058;0.07760997;0.21877125;-0.5939947;0.01860497;-0.5775679;-0.29013976;0.10204335;0.40907544;0.0064509083;-0.033634175;0.58823186;-0.081099205;0.064732246;0.077110074;-0.16560072;0.054716047;-0.09653267;0.070185386;-0.6041123;-0.6539411;-0.07107905;-0.12588568;-0.022300594;-0.045500126;0.03845139;-0.029454403;0.09033856;0.06567302;-0.044845425;0.19852632;0.11598118;0.3627973;0.30945304;-0.02945181;-0.50025827;0.06971936;-0.15474966;0.021632774;-0.064961225;-0.1805372;0.16148777;0.048768908;0.018733568;-0.061575465;-0.0136792995;0.027676793;0.03241942;-0.018745454;-0.07873832;-0.018581685;0.36822775;-0.46702945;0.0347488;0.0111916615;0.059212215;-0.7281176;0.19421318;-0.07339759;0.05394257;0.7741634;-0.013965824;-0.013540017;0.29754913;0.06992186;-0.22603635;-0.058587432;-0.02308985;0.03772578;0.0537296;-0.030966058;-0.03309902;-0.10395081;0.35812426;-0.039057422;-0.0098867;-0.03752626;0.49126652;-1.297141;0.009289127;-0.010939205;0.06699234;0.08986849;-0.14346798;0.02401042;0.17744948;-0.030636532;-0.020898042;-0.38654447;0.3317321;-0.24730171;0.36494878;0.05376309;-1.5375769;0.70698094;-0.02401815;-0.7111521;0.022477338;-0.0806873;-0.5448878;-0.20235397;0.15767083;-0.10265267;-0.055376485;-0.12727313;0.0017213253;-0.09676935;0.18730374;0.019000575;-0.05865252;-0.052958358;0.0011805373;0.082916036;0.40988374;-0.039369628;0.6899477;-0.029828615;0.27619243;0.06529003;-0.13398296;-0.30693275;-0.05724846;-0.11606609;-0.14223775;0.40005612;-0.10290022;0.08957785;-0.044676103;0.0575468;-0.029166486;-1.0898774;-0.009297634;-0.101126164;-0.07961846;-0.117926724;-0.04838424;0.027492475;0.010576145;0.041155796;-0.4721427;-0.34675437;-0.19299167;-0.5647486;0.08238766;0.036354948;0.056477994;-0.08398263;-0.07391478;0.066917546;-0.12590335;-0.5143467;0.055032365;0.007904793;-0.11749603;0.21437389;0.8383365;-0.37295866;0.12750834;0.042471007;-0.41287106;-2.5318422;0.6087451;0.00048798867;0.0050006383;0.028749513;-0.24026524;0.028615808;-0.06837571;0.22962914;0.34476858;-0.050473377;0.023025535;0.068753965;-0.057046935;-1.108344;-0.6720503;-1.5228631;-0.27116838;-0.040299755;0.01122784;0.06334878;-0.3166511;-0.28237802;0.60696846;-0.008593534;0.021845559;0.11962445;-0.28425208;-0.09256026;-0.09741751;0.061836015;0.038589172;-0.68058;0.20249696;-0.03718839;-0.00535467;-0.10067135;-0.2862917;0.031091683;0.17030375;0.029920675;-0.03275081;-2.383237;0.008275121;-0.07974693;0.12813847;-0.036528274;-0.12611297;-0.7275012;0.039869227;0.086581014;-0.8713478;-0.542245;0.025130272;-0.029948752;0.05185579;-0.7423002;-0.4467528;-0.32735246;-0.8843111;0.01430713;-0.5127927;-0.10147891;-0.9164923;0.120772615;0.048143502;0.014650211;0.27246362;0.3660944;0.058913566;-0.11553821;0.009906129;-0.019513335;-0.037967026;0.028712038;-0.011759325;0.051110614;0.007312842;-0.10509252;-0.032055207;-0.4454705;0.019778522;-0.06961996;0.48446545;-0.031419393;-0.17516777;-0.68266845;0.04130498;-0.03713929;-0.0015748664;0.016848272;-0.0879169;-0.1917085;0.43651766;0.016400091;0.04470135;-0.53358805;-0.044100404;-0.37519947;-0.021892795;-0.34626374;-0.029493192;0.26491803;0.009892871;-2.028947;0.10984755;0.0062823575;0.35299215;0.5866669;-0.54639804;0.023821304;0.17776439;-0.015605548;-0.038928777;-0.63992065;0.001129095;-0.07193898;-0.7595089;-0.030670732;-0.47184607;-0.008900468;-0.03776546;0.30266255;-0.083868094;-0.0038840293;-0.16793649;-0.25453433;-0.24469051;-0.07613838;-0.052098714;-0.092894755;0.029125603;-0.71607035;-0.41824946;0.03849276;-0.010620665;0.0430289;-0.014624683;-0.021873754;0.1801585;-0.75173193;0.02385025;-0.0041407226;0.024674673;0.028350886;0.15476269;0.048461463;-0.0017620432;0.014465481;-0.20360433;-0.012451986;-0.07098776;-0.109013855;-0.013503071;-0.09211172;-0.028559528;0.46579173;0.4046343;0.1777846;0.07679975;-0.6298612;-0.0040725707;0.010488294;-0.69675505;0.46207973;-0.01899875;-0.026502054;-0.032057945;0.33817807;0.13434677;0.019164158;0.01384424;-0.09462122;0.11325538;-0.6027502;0.025278773;-1.0925981;0.00047362482;-0.661235;-0.07435102;-0.30730915;0.082299426;0.37897438;0.40372497;-0.07486455;-0.079806454;-0.00027194037;0.009552516;0.03314912;-0.37684062;-0.033176765;-0.4329278;0.03912645;-0.61628824;0.037969213;-0.03171688;-0.2136139;0.47498575;0.10046513;0.0076639317;0.04136496;-0.14141846;-0.016070984;0.06727742;0.050060354;0.03133525;-0.067199;0.04520345;-0.061473884;0.07099194;-0.061047766;-0.09301735;0.019175684;0.03793384;0.089137286;0.009161338;0.034612354;-0.62380457;-0.033236984;-0.081466444;0.064687684;0.85785526;0.04026316;-0.08703942;-0.009318905;-0.017699337;-0.4837919;0.028622009;0.40586776;-0.10614653;0.30669528;-0.35905647;0.011928669;-0.18099488;-0.06397028;0.00159752;-0.56206506;-0.18175657;-0.06880202;0.7525585;-0.030174697
1.3661549;0.5593706;-1.034336;-0.063011445;0.0733472;0.08079462;0.31554362;-0.06662799;-0.07896981;0.5175808;0.057234786;0.03824814;0.2261365;0.026785841;-0.039320096;0.08257789;-0.5984062;0.31501526;-0.09110314;-0.53099585;-0.34226933;-0.22811268;0.00018026243;0.009501896;-0.73857605;1.1349813;0.22723566;-0.6454035;-0.32528916;-1.4942473;-0.022953307;-0.9847206;-0.031284086;-0.8986563;-0.7106421;1.6109607;0.6172238;0.00029696935;-0.031336244;0.008626395;-0.07558133;0.0054917997;-1.7341547;-2.6778867;-0.033908386;0.050517272;-0.01786701;0.04318371;-0.069488995;0.2662351;0.09095112;1.1840324;-0.075762905;-0.16249287;0.02799449;0.1324715;-1.5974923;-0.013189698;-0.082880825;0.2111315;0.65120304;0.012863319;-0.09898243;0.034378532;-0.24366054;0.032638054;0.083339594;-0.07583535;-0.06628686;-0.057095077;-0.009817212;0.020242859;-1.4897326;0.14053321;-0.7260506;-1.2514256;-0.11424106;-0.0670756;-0.4699534;-0.63862944;0.33999294;0.05041263;0.49942732;-0.07571482;-0.08035224;-0.041310072;-0.01134854;-0.027808387;0.13696124;0.11260839;-0.066664234;0.04029611;0.04969143;-0.32776698;-0.052723974;0.021058556;-1.3628615;0.046229035;-0.07517946;-0.043369092;-0.057319503;0.026575042;-0.3226458;-0.01688905;0.06404819;-0.05723219;-0.09169278;-0.046859544;0.020846125;-0.03658042;0.009633832;0.07041139;0.03453966;0.24003945;-0.032522358;-0.039642405;0.01964692;-0.22427626;-0.015920253;0.2890932;0.027014181;-0.04195496;-0.008686651;-0.0061540403;0.023336105;0.1803324;-1.66427;0.00760614;0.03643686;-0.43013588;0.005477367;0.038784016;-0.052810382;-0.008460449;0.030779166;-0.054210998;-1.168964;0.5022763;-0.045907978;0.2102506;0.030102732;-0.48152155;0.33370498;0.07005302;-0.020685615;0.011551066;0.54628754;-0.6213993;-0.14628446;0.016459744;0.016789807;-0.053645708;0.044100177;0.16179703;0.020256307;0.02918279;0.028752012;-0.33431703;0.076829426;-0.11508957;0.16685717;0.04842159;0.50815046;0.8240125;-0.44055447;0.057534765;0.04961165;-0.14570548;0.031968776;0.070230976;-1.0442127;0.32894993;-0.08889139;-0.58558416;0.031728923;-0.13055499;-0.5399972;-0.10897511;-0.28610942;0.0029279937;0.7188014;-0.3660697;-1.8968202;-0.20883727;-0.07552843;-0.084801696;0.88184863;-0.06952496;-0.066757426;-0.029187981;-1.9470677;0.06154971;-0.05652653;-0.14153224;0.7219742;-0.097378016;-0.066073604;0.055681128;-0.06857211;0.43203175;-0.07277439;-0.080532864;-0.01051455;0.026797201;0.010573613;0.20926468;-0.35996822;0.29758406;0.13311192;0.040622953;-0.012434164;-0.0025146694;-0.19264296;0.034343656;-0.04064354;-0.05372671;0.06986459;-0.46099952;0.0128338905;-0.034713905;-0.061875276;0.07798904;0.045793146;0.08444064;0.030173529;0.07214015;0.31312072;0.43017402;0.00062917016;-0.02492392;-0.06726078;0.16754876;1.2732722;-0.04030109;0.050625157;-1.2159147;-0.04710697;-0.13588579;-0.7057024;0.1310618;-0.114371434;-0.046098515;-0.08632096;-1.3321737;-0.07788406;0.24997179;0.04856496;-0.22774635;-0.50278157;-0.07040169;-0.05996976;-0.017694972;0.19812377;-0.23982716;0.03056785;-0.07666105;0.00047964;-0.004984941;0.46295696;-0.027641673;0.79351974;0.051152535;-0.08509401;-0.4704967;0.2636521;-0.07993096;0.28266668;0.06584275;0.20013276;1.3359661;-0.04140354;0.35842934;0.021506133;0.0023043451;-0.40138072;0.06561773;0.36053798;-0.03762863;0.048356473;1.0560856;-0.009258076;0.026054645;0.13940428;-0.07645323;0.076400384;0.06545111;-0.08022544;0.015345337;-1.998174;-0.07545948;-1.3687208;0.06691726;-0.017899912;0.052411072;-2.2446835;-0.35958824;-0.006604871;1.0148901;0.027223667;-0.52530015;-0.049065426;0.068234034;-0.040018804;0.71191436;-0.07330306;-0.22162382;-0.31580502;-0.13189287;2.1033616;-0.02603819;-0.08399942;-0.36889824;-0.04569113;0.07586899;-0.1447083;-0.48769355;-0.20866847;0.12862627;-0.014771568;-0.03934627;0.031130211;0.056110468;0.026698394;-0.09441682;-0.10394982;-0.4229487;-0.048058603;-0.08285502;-0.045404345;0.16183963;-1.3231399;-0.28962353;0.07623577;0.07149346;-0.5215006;-0.008606838;1.6098058;0.05476725;-0.001702497;0.26377493;-0.33742386;0.05099022;0.05212951;0.27028033;0.031934414;-0.001134764;-0.029663859;-0.0010239825;-0.002748908;0.5367204;0.5372936;-0.09021893;-0.16426124;0.043375485;0.009991003;0.5021726;-0.033638023;0.2015465;-0.37455106;-0.0070701586;-0.016806081;0.14536977;0.06873397;-0.0057142917;-0.023165671;-0.34330884;0.040494468;0.7538628;0.19233502;-0.19234692;-0.015981155;0.32721788;0.14737603;-0.06487374;-0.05938713;0.023758765;0.030760238;-0.46548027;0.030854687;-0.032141525;0.03275234;-0.04448464;-0.01610864;1.0367119;-0.52598566;0.05065447;-0.18063511;0.20399211;-0.08864883;-0.06679017;-0.05069461;-0.19008958;-1.23487;0.2823309;0.23957393;-0.016402245;-0.22007242;-0.08896102;-0.676085;0.0029401272;-0.070047215;-0.043650825;0.119184;0.3126199;-0.024647592;0.66611135;-0.047900375;-0.037737418;0.062465418;-0.030146495;-0.009438061;0.0041315164;-0.10936642;-0.037823487;1.8632666;-0.297167;0.044041365;0.0041548456;0.28492436;-0.06634164;0.24263602;-0.36780444;-0.26633716;0.02918746;-0.047362987;0.03503014;-0.062552735;-0.11678872;0.8146499;-0.01837651;-0.06820587;0.6058364;0.14044502;-0.2984775;-0.35854864;0.5275976;0.06954051;-0.3598314;-0.045101274;0.81826;-0.043788616;-0.10464691;-0.032582667;1.4280196;-0.2635613;0.08255078;-0.30710042;-0.020089442;-0.37285298;0.26292595;0.10215245;0.010020701;-0.5677502;0.067607045;-0.22526444;0.05880845;0.029035194;-0.24283156;0.05505367;0.058567714;-0.15245852;-0.043600004;-0.0031937412;0.0038273877;0.022031143;-0.22253461;-0.0028224192;0.5190685;-0.04057658;-0.031305782;-0.046422686;0.06391855;-0.20447811;-0.019547425;-0.2582653;-0.53706795;0.06379903;-0.041751027;0.043584604;-0.012024428;0.039627;-0.04115705;0.048608962;-0.08621774;-2.3785284;0.01591296;0.11781106;-0.11122564;-0.26470995;-0.07016556;0.04089427;-0.10755552;-0.27990755;0.29151094;0.0064785387;-0.62258154;-0.038069524;-0.025963016;-1.5442761;-1.2879351;0.00062560657;0.019857772;-0.13544327;0.15237768;0.35935375;-0.023535443;0.0103267105;0.009473307;-0.12739599;-0.32550472;-0.012324558;0.20036113;-0.15297914;-0.2837889;-0.002739811;0.3022844;-0.18496656;0.68633157;0.023754764;-0.07010692;-0.07539764;0.07582585;-0.00769396;0.06775059;-0.14732638;-0.04873774;0.059550684;0.011956118;0.682843;0.02858962;-0.057896696;-0.42123592;1.1168509;-0.5018402;0.07207342;0.03505093;0.09451638;0.034065083;0.01590151;0.081036456;-0.5099894;0.07082827;0.055445395;0.40114996;-0.034532055;-0.08283967;-0.06823111;-0.035668876;0.04711736;0.06729265;0.017195871;0.013946319;0.83081657;0.01212256;0.26413742;0.02105964;-0.8106481;-0.1038428;0.06217764;0.04800312;0.0073518553;-0.24123506;-0.060292207;0.28336245;0.009299273;1.3543575;-0.024105892;-0.044401675;-0.28679988;0.08837832;-0.07499727;-0.36950776;-0.26494572;-0.0826973;-0.9026552;-0.025171211
0.01744122;-1.3624463;-0.7949915;-0.037524987;0.14060995;-0.22857797;-0.92190737;-0.017844113;0.06063088;-0.1575225;0.030846989;-0.07769494;-0.028148526;0.064150505;-0.011714252;0.08060063;-0.26671445;-0.38538346;0.10238654;-0.15543953;-0.046029143;-0.15824607;0.04951665;-0.12964723;-0.28435475;0.31814498;-0.034926336;-0.4171514;-0.17360112;-1.0398945;-0.07090214;-0.33329928;0.08954955;-1.8774112;-1.3466209;0.9175061;0.23279598;-0.20341595;0.04169065;0.20485471;-0.11380326;0.09084702;-0.23084086;-0.026703954;-0.025083024;-0.07293765;-0.009556209;0.0074793333;-0.023119772;-0.28531396;0.045610994;0.88879216;0.09672229;0.16121797;0.08686329;-0.11452199;0.4526951;0.08363755;0.09434201;-0.05866727;-0.018043872;0.071360685;0.15016767;0.28473887;-0.30311817;0.13096125;-0.0561028;-0.029020876;-0.42338407;0.06547385;0.0077334405;0.104961;-1.4219227;-0.09768736;0.012805019;-0.6415548;0.065578006;-0.046125982;-0.4232992;-0.1847527;0.34240785;-0.03622923;1.1910424;-0.03022357;0.69681334;-0.117064506;-0.030481037;-0.07577219;0.008855515;-0.13691899;-0.022919139;0.09910728;0.024176225;-0.27686694;-0.017205734;0.036435936;-0.9863093;-0.104435846;-0.038034607;-0.08471501;-0.113596484;-0.20447166;-0.5259594;-0.05768854;0.091766186;-0.11868629;0.0023318068;-0.052199863;-1.0027442;0.002326547;-0.02768939;-0.051313255;0.0990267;-0.06567565;-0.032248862;-0.03816749;0.08212534;-0.076852515;0.07757296;-0.12966359;-0.09997283;-0.07159125;-0.016713392;-0.06724395;-0.23266378;0.5199979;-0.68345684;0.009243703;-0.07704235;-0.50551265;-0.23221369;0.28197467;0.108316205;0.026284697;-0.040543087;0.07373242;-0.6945139;0.33641922;-0.008867268;1.1058033;0.11036285;-0.4043923;0.534522;0.013361374;0.046831697;-0.12365759;0.15318632;-0.40832993;-0.01587243;-0.047078174;0.09977003;0.028001383;-0.0819473;0.0019418353;-0.049762394;0.06949372;0.20383455;-0.33759663;-0.038553577;0.6814275;-0.047681674;-0.044063933;0.10748851;0.1637449;-0.29263708;-0.07039173;-0.10920854;-0.097452395;0.008172517;-0.008091612;-0.92738205;0.08259922;-0.02715532;-0.83949363;0.053586747;-0.07786588;1.5551957;0.004826996;-0.34976512;-0.17038865;0.23335621;-0.4510989;-0.4408279;-0.7802423;-0.023310985;-0.18314052;-0.07397273;-0.112233326;0.0032438464;0.0090611195;-1.1193402;-0.0410901;-0.16434458;0.13691346;1.02277;-0.024188256;-0.05337423;-0.08556825;-0.2133356;0.040743027;0.009756303;-0.21171744;-0.024468584;0.19847237;0.03790401;-0.18645608;-0.25458267;-0.5466014;0.00045381064;0.109779805;-0.105979726;-0.15975924;-0.12188375;0.15246946;0.21995237;-0.09961736;-0.09414297;0.22307746;-0.29797736;0.033174187;0.07844702;0.053046554;-0.00011879178;0.057280432;0.023035511;0.05768632;-0.17487659;0.24037898;-0.06890982;0.08560253;0.05817308;0.545623;-0.046921607;0.044599455;0.05990282;-2.392018;-0.09988825;-0.5543224;-0.3398523;-0.99279517;-0.14750133;-0.09455181;-0.11488165;-0.57364357;-0.06647225;-0.13225348;0.093796276;-0.21144897;-0.2140964;0.0816602;0.11559342;0.2055238;-0.0186298;-0.31797576;0.011050335;0.05742769;-0.22605847;0.031269;0.051957965;0.008371335;0.102630325;0.17326908;0.07846387;-0.23645161;-0.07667271;-0.3045781;-0.104243465;0.07977614;-0.27803674;1.5148764;0.09593399;0.65191966;-0.012737763;-0.11381919;0.547443;0.1440204;-0.05764699;-0.2271923;-0.06252591;-0.15837955;-0.071174495;-0.13662378;-0.16107889;0.16795765;0.023640502;-0.069874495;-0.13580889;0.037553392;-1.9995123;-0.028470282;-0.6573175;0.027781885;0.15247141;0.095710814;-1.941764;-0.45999926;-0.088892214;0.34318188;0.0014494059;0.8685709;-0.04340446;0.006738732;0.07365639;-0.8599266;0.07038682;-0.08107988;-0.2782702;-0.0010478772;1.1522794;-0.13093656;-0.03775493;-0.32435995;0.008376091;0.0121845445;0.03292988;-0.20224813;-0.042495314;-0.49932984;0.121824525;0.013214728;0.101262756;0.6025895;0.056908157;0.029790131;0.104307994;0.09962501;-0.12721735;0.032882694;-0.14893198;0.24967213;-0.3024254;-0.25845408;-0.060011413;-0.20609836;-0.8277159;-0.23301455;0.63946927;-0.0034676937;-0.0113848625;0.049992036;-0.09191578;0.038778607;0.0061113443;0.014822003;-0.2597168;0.036775824;-0.038809806;-0.19689687;-0.15327969;1.0001407;-0.06030606;1.2021037;-0.0615094;-0.13481122;-0.041084345;0.18078534;-0.2045326;-0.25797066;-0.70399004;0.0645931;-0.056075566;-0.12863207;0.27166268;-0.034665827;-0.03788308;-0.47935373;-0.07103201;0.40424454;0.015178203;-0.5196326;0.092521474;0.6831882;0.2185955;-0.05436381;-0.7166492;0.0070660547;0.011149985;-0.5608974;-0.17426996;-0.013045537;-0.077704325;0.016272947;0.086605504;0.3512192;-1.084742;-0.13148306;-0.27510896;-0.061539248;0.0025469249;0.0028483202;0.005380279;-0.35236007;-0.8725339;0.33952385;0.69611454;0.00279289;-0.2575896;-0.099935226;-0.038763832;-0.22002426;-0.024285238;-0.053510338;-0.18980311;-0.016321808;-0.1293162;0.77521825;0.101345934;0.12176103;0.04646441;-0.0132980645;-0.15330057;-0.12097507;0.081848145;-0.027550625;-1.279286;-0.27043504;0.077719554;-0.03507463;-0.089386724;0.09307939;-0.0048167678;0.18405338;0.10922957;-0.03227267;0.15584481;0.038914096;-0.09498783;0.042509533;0.047822352;-0.11866405;-0.006966577;-0.3106589;0.010898952;-0.30742922;0.86890674;0.2816298;0.09917364;-0.21366166;-0.025458546;-0.4977036;0.09253226;-1.4912428;-0.044675678;-1.2730601;0.41526166;0.026750024;0.04127746;-0.013500659;-0.14519244;1.3240161;-0.16937658;-0.05093278;-0.50849885;0.012817593;-0.2064099;0.034331992;0.0545102;-0.251834;-0.14264205;-0.06589625;-0.10989125;0.12805527;-0.085307375;-0.17645739;-0.04088873;-0.08695952;0.06883414;0.14100918;0.46040905;0.0067697195;-0.20182937;0.072043724;0.20301606;0.024068605;-0.6179136;0.3032762;-0.009272786;0.0057149087;-0.1314872;-0.09052756;-0.1616072;0.1272068;-0.030607425;-0.12370884;-1.7482197;-0.23778166;0.1685147;0.021811366;0.1438399;0.07605152;-0.030549504;0.20099542;-0.39233297;0.028670618;-0.2520018;-0.5730974;0.09037378;-0.19475488;-1.5153086;-0.94196624;-0.07105708;-0.03435894;-0.06823206;-0.1742758;0.07516772;0.07121312;-0.041813847;-0.07062517;0.069511995;-0.21586896;0.06362715;-0.15186158;0.0109939845;-1.1418895;-0.086893626;-0.018385263;-0.20762733;0.06299658;-1.0546905;0.08263061;0.04701503;0.06502718;-0.10258229;0.07186698;-0.41066977;0.06624587;0.13677987;-0.13760152;0.10253443;0.016140282;0.019689085;0.15890546;-0.11273135;-0.12102539;0.0004872101;-0.01966304;0.025427893;0.008014073;0.028676894;0.03842757;-0.42439407;-0.07244246;-0.06849466;0.19072218;-0.071706265;0.0036429781;-0.014998771;-0.09336323;0.035642643;0.018397758;-0.06183675;-0.023751562;0.20768183;0.11907298;-0.15229179;-0.071709;-0.589062;0.10157076;-0.08650533;-0.029689675;0.008997883;-0.46541983;-0.06895921;-0.09199444;0.0250036;-0.9960543;-0.019220315;-0.007626083;-0.050679345;0.12112793;0.0064198524;-0.217366;-0.066634275;-0.023999395;-1.3857912;-0.69568306
-2.1237206;-3.2885625;-0.87458026;-0.027404364;-0.016178854;0.016863823;1.3312765;-0.008171065;-0.042792898;0.13550487;0.017074177;-0.017815048;0.006085109;-0.057822905;0.029938558;-0.0620598;0.22184208;-0.8648043;-0.008462541;1.1611439;0.13630135;-0.30664638;0.079560086;0.09538377;0.03142928;-1.9281363;-0.10149025;1.8454187;-0.10898876;-1.0177912;0.10425578;0.7029556;0.054802395;-1.2196236;-0.4120608;-1.5792888;-1.1335206;0.042997062;0.033980563;0.11790027;0.101223;-0.037566036;0.48172146;-0.728017;-0.0798441;-0.0001546643;0.04297042;-0.05946139;0.033271264;-0.35333544;-0.02055809;-1.5864656;-0.04156017;0.41777214;-0.08843582;0.64420384;-0.7649642;0.004719939;0.027442204;0.67088455;1.5913693;-0.103699066;-0.83025527;0.056566235;-0.21588291;-0.11008268;-0.0653819;0.07173058;-0.6531675;-0.06385318;0.00544097;0.04528909;-0.34798658;-0.028805176;1.6518108;0.17153472;-0.11025598;-0.014685334;-0.24227543;0.022861112;-0.31501448;-0.05579484;1.5571935;-0.086128056;-0.7654739;-0.044605408;-0.06626801;-0.46305913;0.0077216695;-0.15862428;-0.0523245;-0.05790241;-0.03577265;-0.15877536;0.03150425;-0.00616846;-1.1527956;0.050843857;-0.050885916;0.001310451;0.73555255;0.09281392;0.5121279;0.097910814;-0.12199047;-0.054310653;-0.14800851;0.054496426;-0.85835344;0.1018054;0.0056839245;-0.011306107;-0.049437538;0.15579441;0.05496744;0.018308077;-0.10702601;-0.083721474;0.009812672;-0.062269982;0.009805068;-0.026358208;0.059268218;0.05836157;0.13297638;-0.21175477;0.08924169;-0.06573719;0.026098428;-0.66090506;0.048854023;0.53140855;-0.04824971;0.06278671;-0.08736268;-0.05350755;-0.061134953;0.0752161;-0.09562965;1.4595897;-0.015914736;-0.19051592;-0.40675834;-0.088460065;-0.015823811;0.05344116;-0.27221826;0.04086258;-0.5390088;-0.042050276;0.027154177;-0.07079059;0.10306451;0.20323159;-0.021252083;-0.059108984;0.042204957;-0.20508012;0.10398089;-1.2376825;0.0015411177;-0.06628757;-0.24962245;-1.2481729;0.85321087;-0.04224867;0.12149169;-0.14854835;-0.008214167;0.05129263;-1.6754477;-1.580591;0.036056314;0.9828471;-0.06816032;-0.0032631096;1.9081769;1.3304507;-0.12159772;0.04841426;-1.9164699;-0.06858275;0.7340865;-0.7317813;-0.049476057;0.13595985;-1.043023;-0.035740912;-0.010002172;-0.062480275;-0.040992666;-0.046388235;-0.033907514;0.09664837;-0.92567134;-0.043752037;0.023450242;0.044561166;0.10438412;-0.31365055;0.027355483;0.024736159;-0.063564576;-0.15358123;-0.077999994;-0.074834935;-0.16000047;-0.6612937;0.018508019;-0.032837033;-0.94888896;0.12510292;-0.05955225;-0.12195208;0.058154047;0.10373581;0.048957378;1.0178657;0.5723097;0.03826344;-0.051687814;0.020117402;0.061107866;-0.22630306;-0.05715018;-0.0664238;0.26034147;0.25884923;-0.011352033;-0.064408034;-0.072730556;0.8199838;-0.81114584;-0.100665286;-0.081456274;-0.031874698;0.020006016;-0.11670371;1.1272069;0.36612603;-0.11025291;0.08769063;-0.01160663;0.037624072;0.06939608;-0.03553913;-0.09780353;0.30104855;0.14032568;-0.001378947;-0.070178926;-0.07295753;0.12070576;-0.7075447;-0.10196413;0.038975686;-0.006043621;-0.09119283;-0.77016985;-0.018178884;-0.5261998;-0.15499498;-0.102642395;0.16019548;0.051736694;-0.088378154;0.13515685;-0.055261232;-0.82904434;1.3540418;0.010318254;0.8830409;0.052698124;0.026805371;0.22073336;-0.119082734;-0.5243617;0.09061353;-0.03446361;-1.7952465;0.013099789;0.025952386;0.075510554;-0.060573094;0.04016953;0.055434424;0.0074772052;-0.056146562;-1.8261988;0.075040236;0.9589363;-0.028207297;-0.2342681;-0.029935619;-0.49483505;0.111431345;-0.04000594;-0.2998601;0.008194151;-0.23416482;0.1005728;0.02425001;-0.06083964;-1.5468515;0.035742152;0.3129925;0.06377406;-0.12538296;-0.6214152;0.050089087;0.04479103;0.053270925;-0.035608813;0.043798395;-1.0576264;-0.38903788;-0.044973798;-0.10880572;0.010557654;-0.022789523;-0.08851061;1.3923889;-0.032902244;-0.096207835;0.12415803;-0.07120496;0.05027748;0.032947883;-0.013776808;0.45818865;-0.6695822;-0.2136731;0.012822524;-0.015615157;-1.0833948;-1.7595807;-1.2861834;0.052434985;-0.046055205;0.2649812;-0.1859775;-0.050004043;-0.02345125;0.14867991;-0.14580804;0.012908925;0.017550332;0.100709714;0.041975114;1.032256;-1.9173586;1.4990723;-0.06989466;0.12598175;-0.04638112;-0.38323712;-0.36415076;-0.8192052;-0.07416905;-0.033339858;-0.048761066;-0.03995254;-0.14642793;0.033791948;-0.016666068;-0.12617315;-0.035735473;-1.4961609;0.22166377;-0.33727878;-0.07616666;0.5527245;-0.052516043;-0.039345928;-0.12816308;0.026504047;0.047109082;-1.9292797;7.74268e-05;-0.07147446;0.080186866;-0.012428911;0.010921744;-2.014508;-0.92930734;-0.00023160233;-0.34961554;-0.29811865;-0.028055945;0.10430076;0.0045524314;-1.0437433;-0.3660426;-0.008534487;-0.8540123;-0.032440405;-0.18566899;0.063800104;-0.015035375;-1.1067183e-05;-0.073477395;-0.05701966;0.06106777;0.26247966;0.07583454;-0.12000443;0.015993342;-0.12454117;-0.047420744;-0.050408337;0.020131353;0.08958308;0.038971797;-0.08741061;-0.5543647;-0.27229914;-0.076126866;0.067416064;0.20905837;0.029494863;0.045547273;-0.3613319;-0.03192231;0.036110956;-0.08311073;0.073374055;-0.01943497;-0.013202375;-0.3993986;0.004552884;-0.098130606;-1.3151385;-0.05054131;-0.0117160035;0.7550723;-0.6468364;-0.065135635;-0.66888535;-0.03179227;-2.133287;-0.04006791;-0.7694343;0.17778344;-1.2050583;0.3881509;0.008604342;-0.838042;-0.07748471;0.03332033;0.20004174;-0.029659212;0.022767864;-1.7206166;0.045123823;-0.25195572;-0.08041907;0.037448827;-0.04081819;0.0990779;0.053898018;-0.07834297;-0.07363021;0.11584504;-0.037330024;0.018769216;0.08425053;-0.06039646;-1.0179012;-0.046475943;0.068591565;0.075233705;0.06716187;0.7901833;-0.066829324;-0.027774796;0.14670181;0.09228681;-0.027475553;0.09502029;0.019672148;0.039520077;-0.10021278;-0.060493518;0.026515478;0.87396234;0.012485836;-0.13198245;-0.00991282;0.01886828;0.026509477;-0.07075161;-0.08804999;0.20254554;0.24467193;-0.0031927007;-0.8921288;-0.07300318;0.097117804;-0.10679956;0.5358321;0.0011361227;-0.04557977;-0.019196616;0.08833599;-0.044868458;-0.10249962;-0.025951253;-0.014941353;-0.04294602;-0.25814494;0.038656298;-0.01341517;0.13300018;0.07149224;-0.021488542;-0.6970493;-0.023268132;-0.7987242;-0.8784345;0.027048718;0.033132285;-0.027916333;-0.055802148;0.043344878;-0.52445626;0.05451533;-0.116278954;-0.13755615;-1.488173;-0.010537562;0.09112171;0.36276382;-1.1474307;-0.24775378;0.07447199;0.05096906;0.031222057;0.00017215047;0.060015954;-0.031881105;-0.2251315;0.044106375;-0.033205368;0.5770455;-0.025714003;-0.059345495;-0.056605022;-0.03510874;-0.034657553;-0.033006866;-0.07957525;0.042467065;-1.8767272;0.031071829;-0.073005475;-0.01708546;0.28388712;-0.12285956;0.075507484;0.0761224;0.074251026;-0.12702984;0.04751541;0.11794594;0.0016243695;-1.3070704;-0.6015183;-0.016718838;-0.22267585;-0.03816012;-0.0006066209;-0.32236674;0.10613075;0.08721303;-1.3208926;-0.3682479
1.1804811;-0.40268606;-1.9509063;0.060992457;-0.15728173;-0.06042046;-0.5874629;0.046494026;0.05651474;-1.2088352;0.0718559;-0.06137404;-0.10369688;-0.087994106;-0.079703815;0.0015400441;-1.2534275;-0.8171978;-0.14732082;0.6927232;-0.55151737;-0.37768358;0.06431827;0.032720674;0.022425314;1.3122153;-0.020362496;-0.5342727;-0.11499484;-0.8791798;-0.015725313;-1.5172553;-0.024150662;-0.08637941;-0.29755104;0.3774667;0.3353969;0.08938288;-0.10444184;0.1894398;-0.06707984;0.065915726;-1.0528923;-1.1736625;0.067658484;0.077050604;-0.049593657;-0.073673375;-0.14478567;-0.12173818;-0.10718003;1.5184237;-0.08068662;-0.124565475;-0.028316844;0.4329912;-1.5160701;0.049514502;-0.060877822;0.45868012;-0.5744241;-0.014692179;1.7315125;0.18292357;-0.11405524;0.038375624;-0.10722819;0.0073538744;-0.0072796894;-0.05444233;-0.03987448;0.05399717;-0.39652222;-0.013739003;-0.1442915;0.056250148;-0.07819174;0.052983694;-0.3504952;1.4381942;0.060652494;0.08279013;-0.9438622;0.005711772;0.9166433;0.00061767414;-0.10267988;0.3259003;-0.01877906;-0.050897714;0.023482244;0.0156029025;-0.056658033;-0.1333367;-0.03351542;-0.015887152;-0.60838795;-0.08077551;-0.07915455;0.10133943;2.931555;0.00696845;0.05455747;0.026112355;0.027004534;0.031326775;-0.015313842;-0.010512801;0.44167885;-0.020449586;0.06375993;0.056537792;-0.014556774;-0.27717233;0.087690696;-0.014869397;0.014268641;-0.13580456;-0.024100663;0.02771621;0.07148028;0.007840759;-0.01611147;-0.08209953;0.073012896;-0.67615557;-0.8528757;-0.07893091;-0.006869001;-1.1542679;0.0297828;0.039394524;-0.040455952;0.04863453;0.04249732;0.05087783;-0.72576815;0.030604254;0.02925212;1.3411443;0.07375181;-0.32315618;0.88728344;-0.009837486;0.037979327;0.005911819;-0.1666164;-0.4699705;-0.49271512;-0.03701911;-0.011028485;0.057761334;0.07714295;-0.4719327;-0.037968304;-0.04900252;0.0833562;-0.58065104;0.10490104;0.3752317;0.23705816;0.039826132;0.12595735;-0.5716406;-0.9831009;-0.009770023;0.10376625;0.010839801;-0.06980595;-0.03508725;0.34502652;-0.052073345;0.026615715;-1.6503915;0.0429562;-0.039038785;0.9229131;-1.0248207;-0.24450247;0.04245098;0.9466112;-0.14975764;-0.20333268;-0.1158766;0.044137906;0.056641553;-0.38703305;0.035667505;-0.06671307;-0.062246498;-0.46852025;-0.086891934;0.11423572;0.019274995;1.7251165;-0.017785799;-0.05874872;0.034642145;-0.065152;-0.017196314;-0.074901834;-0.0012783479;0.037867624;0.018548457;0.017413998;0.04172445;-0.0833106;-0.8752722;-0.6438593;-0.16954611;-0.25361165;-0.039046012;0.043033555;-0.13399196;0.08463534;0.19508329;-0.04557145;0.54566187;-0.10378596;0.070889875;-0.16662495;-0.06361892;0.05335811;-0.0032334854;-0.031962343;0.06424366;-0.3085402;-0.840439;-0.0064406185;0.0055487356;-0.078578144;0.3493433;0.9344293;-0.077659234;-0.06351539;-1.22187;-0.05896673;-1.1103876;0.39387834;0.32364258;-0.1515647;0.01790205;-0.051905327;-1.7192813;0.061061148;-0.08922686;-0.044593535;-0.040094417;-0.41268364;0.025093302;-0.12248053;-0.016527675;-0.21649185;1.5908695;-0.05694753;-0.06848598;-0.10236385;-0.015976842;0.34644112;0.037355915;-0.18437333;0.0027386516;0.041560546;-0.1806233;-0.19241264;-0.068602175;-0.29901794;-0.024261907;1.1330383;0.48650062;0.0065261703;-0.35717773;-0.038348615;-0.027116016;0.041533142;-0.19514203;-0.15543443;-0.016701728;0.044735044;-0.8377542;0.11228539;0.120088905;-0.08843499;-0.024998656;-0.07395055;-0.040581524;-0.014949317;-0.00295276;0.062719025;-0.048441555;-0.057316132;-0.046635572;-0.23270662;0.018353563;-1.5816127;1.6311953;0.063757636;0.866054;0.0085985055;-0.719964;0.10685567;-0.030007832;-0.059569385;1.186608;0.02931457;1.3423437;-0.40509617;-0.036683816;0.59236896;0.10254485;-0.014644892;-0.016188323;-0.048845105;0.027191332;0.2594549;-0.39406097;-0.12250777;-1.2554857;-0.10460476;0.08990518;-0.09220374;1.0045278;-0.08653272;0.06461251;0.035138313;-0.5801967;0.0058418424;0.0071209837;0.063499935;-0.24841826;-1.8272419;-0.058203965;-0.07164549;-0.0022281224;0.56942964;-1.165756;-0.61084247;-0.05693899;0.047238097;-0.0925537;-0.2907373;0.03316415;-0.08157795;0.052456904;-0.28880802;-0.00017820261;-0.065086454;-0.1412277;0.04934828;-0.25688115;1.1110867;0.56324154;-0.025485577;-0.001608761;0.059168324;0.07913746;-0.43956134;0.015741045;-1.6124833;0.011322217;0.054221038;-0.06368707;-0.25332528;-0.03236341;0.014391269;-0.02941243;-0.05977661;1.84332;0.21558334;-0.3209913;-0.05353226;0.21900633;-0.031585462;0.0080054775;0.4745386;-0.050103202;0.12062135;0.41283244;0.0611198;0.05112175;-0.022124087;0.08077724;0.042476725;1.8184806;2.0990458;-0.08671356;-0.42146787;-0.07629649;-0.048190527;0.019537216;-0.044921253;1.0484467;0.31053627;-0.0045223935;1.3387328;-0.038030867;-0.035708576;8.3672654e-05;0.9026549;-0.03770177;0.029413756;0.06472353;-0.056384735;-0.21923414;-0.08515076;0.4970198;0.0059065195;0.005046094;-0.020753583;-0.015866991;0.033584386;0.12010815;-0.015901051;-0.046113245;-0.7806178;-0.4534783;0.037570387;-0.026483009;-0.27212134;-0.04673176;0.44577473;-0.13182789;0.0079431515;-0.05032959;-0.086343445;0.0037766723;-0.026747467;-0.09584914;0.9571661;0.027148932;-0.03618925;1.2769114;-0.028394122;-0.25214452;-0.45327142;0.33144027;0.026483735;-0.8789933;0.06193426;0.89452386;-0.05416646;0.057712436;0.002897517;-0.42507854;-0.8569705;0.076431595;0.021737317;-0.019711442;-0.26050708;1.7368683;-0.032875825;0.08514259;0.6064707;-0.0113820955;-0.11912712;0.04136411;-0.026963541;-0.35250562;0.0029449365;-0.07338138;0.072364196;0.51669574;0.041787907;0.11980399;-0.0013501141;-0.046613686;-0.03093607;-1.0048679;0.11365826;0.048967723;0.085911706;-0.02280845;0.90772104;0.055802938;-0.13580772;0.9714992;0.08926101;0.02370172;0.106897205;0.0838959;0.005270055;-0.08731877;0.032914143;0.069287606;-0.8420412;0.08368681;-0.0602516;-0.20952398;-0.6173336;-0.023349065;-0.04191802;-1.5074781;0.20501487;1.047505;0.017907554;1.501738;-0.014349402;-0.012302858;-0.7006412;-2.0273955;0.026721757;0.06829375;-0.08504225;-0.17137924;0.31081718;-0.013152057;0.11738528;-0.028855653;-0.062363934;-0.17694496;-0.061308023;-0.6738032;-0.12138749;-0.42807177;-0.07626132;0.21267638;-0.017299969;0.38152912;-0.9953653;0.007494538;-0.014339456;-0.070792556;-0.057477534;-0.090779915;0.20365159;-0.044941574;0.32181406;-0.1437558;1.5912929;0.02078649;0.08922171;-0.4505146;-0.6288091;0.3391188;-0.030114874;0.015275578;0.13687791;0.07539252;-0.04114125;-0.018395735;-0.3797623;0.008865723;0.01136569;-1.9758563;0.022205915;0.07509935;0.08964203;-0.012470883;0.011188624;-0.06060488;0.0073684654;-0.046519544;0.7003933;-0.046098772;0.06553197;0.032662336;-0.15271297;0.012850147;-0.044820063;0.123486914;0.115448445;-0.11828175;0.09422723;-0.19200121;-0.062330898;-1.4648148;0.794976;-0.02347625;0.28041688;-0.09106348;-0.08973063;-0.11600929;0.09623244;0.10199599;1.1985278;-0.22610216
0.5250309;0.41034764;-1.3923526;0.012219896;-0.047439735;0.041877206;0.75927806;0.022337142;-0.03164541;-0.69032896;-0.034371734;0.052203443;0.044694055;0.018145587;-0.02966223;0.052696723;-0.7974713;0.8333775;-0.014030688;0.9404488;-0.3270123;-0.13194795;0.059642088;0.02527447;-0.15295008;0.8884571;0.017002407;0.58071107;-0.11796702;-1.7728548;0.022595981;-1.5524824;0.05764124;-0.104861334;-0.6097775;0.05754132;-0.73967135;0.03135246;-0.014621835;-0.001030437;0.08922223;-0.044832934;0.615417;0.52404964;-0.031501714;-0.014070133;-0.019827623;0.01919391;-0.004896043;0.1361445;0.0602327;0.75470036;0.0062336726;0.96278065;0.006051539;0.092847936;0.09400349;-0.053157784;-0.05526809;0.028274657;-0.2483033;-0.019584855;1.318037;0.01911871;-0.50526386;0.0027318704;0.04308191;0.05382858;-0.25682813;-0.028212015;0.070055015;0.030455232;-0.8307884;0.09598884;0.6986331;-1.0833553;0.014572501;0.01179337;-0.7329536;-1.4897921;-0.13356829;0.08301164;0.78562844;-0.044861812;-0.12862673;-0.1108428;0.006164911;0.12519439;-0.1257695;0.02240126;-0.047709484;-0.095155396;0.026032954;-0.20933616;-0.09038805;-0.06683017;-0.4448384;0.027130341;-0.053039875;-0.0022533808;-0.56842047;0.04859062;0.059657518;-0.026304318;-0.099649325;-0.034385078;-0.16844797;0.0022263322;-0.06217755;0.08771573;-0.065492205;0.054383665;0.057589646;0.13489373;0.09261931;0.034133125;-0.08522405;-0.25046027;0.019634005;-0.13047783;0.086589724;0.030680418;-0.009059729;-0.07762383;-0.042411532;-0.34574446;-0.20268378;-0.0694502;-0.013773673;-0.93010765;0.029493364;0.58776593;0.008310889;-0.031035325;0.012423681;-0.084153205;0.95040596;0.1447436;-0.020391531;-0.5460274;0.015811715;-0.63899577;0.4431443;-0.012196838;-0.07179585;0.054362588;-0.028047662;0.050867546;-0.71896464;0.028835872;0.09973861;-0.10482263;-0.00054511445;-0.057061337;-0.0009879989;-0.006444905;-0.03898692;-0.05975452;0.045861308;-0.355554;-0.07147187;-0.0056031025;-0.28122985;-0.2124218;0.22914208;-0.11678158;0.05016449;-0.15511018;-0.00825454;-0.0012565199;-0.5237135;2.406687;-0.01933187;-0.28493968;-0.034234654;-0.0015440014;-1.7716812;0.3638262;-0.4485136;-0.03441673;-0.13535234;-0.23011586;-0.5868647;-0.9297515;-0.08278464;0.12376081;-0.7312519;0.092374094;-0.057825204;-0.021708068;-0.6528032;-0.08284906;0.0037811478;0.11048241;0.46854934;-0.08355091;-0.051186558;-0.049847025;-0.030918524;0.010382548;-0.042311173;0.038029592;-0.05473167;-0.010744323;0.04448362;0.064718194;-0.23231642;-0.16090097;-0.14877924;-0.17178157;0.09120809;0.070980445;-0.05522445;0.033416554;0.027914321;0.06269044;0.014662331;-0.89250696;-0.0065228837;-0.034913965;-0.01606447;-0.0029192052;-0.058528386;-0.13056001;0.007491978;0.02375833;0.19106609;0.46286786;-0.015595525;-0.06712823;0.03986433;0.85624146;-0.6038671;-0.026074857;-0.0018628552;-0.22090499;-0.0646442;-0.3049973;0.037511986;0.8039076;-0.12020933;-0.048151754;0.011199154;-0.8527184;0.07033417;0.2109342;0.038641896;0.038877036;0.016130175;0.052600253;-0.054711495;-0.056490313;0.14781027;-0.42489308;0.042125843;-0.05484387;-0.017363876;0.022507928;-0.019399235;0.062908605;-0.09449351;0.02993385;0.016650159;-0.20503747;0.072630376;0.097519726;0.20789368;-0.0125311455;0.9749357;0.6655188;-0.008941286;1.5725632;-0.05227499;0.0657116;0.8951651;-0.08977292;-0.15865318;0.009210426;-0.055619903;0.6658332;0.054708872;-0.049500365;0.09513804;-0.10053887;-0.04678951;0.04547692;0.06831788;0.015758105;-0.8935904;-0.044025365;0.4393965;-0.07921526;0.14858533;-0.043806322;-1.4773129;-0.3748784;0.03970298;-0.053763874;-0.013185143;0.7773989;0.07296269;0.06915788;0.05778057;-0.31631115;-0.037478272;0.28215167;-0.2251042;0.09890822;0.6518672;0.0034382732;0.06644517;0.01856441;-0.00099536;-0.0005272706;-0.45438784;-0.76220447;-0.23735224;-0.34717447;-0.008822278;0.0003723861;0.051959734;-0.16001233;-0.06854242;-0.007095303;0.37170926;0.10247976;-0.029425139;0.060161076;-0.052162975;0.16599198;-1.7187531;-0.3574572;0.116597906;0.003683787;-0.76681;0.26263538;-1.0849684;-0.08343066;0.025668776;0.10759617;-0.10376677;-0.06716548;-0.017029662;0.5975013;0.837948;0.019081034;-0.07138366;-0.031869683;-0.010887598;1.3222411;2.1151502;1.0902303;-0.2640117;0.092342615;-0.07043355;-0.34791812;-0.4339853;0.02707248;-0.24113825;-0.083955236;-0.05031935;0.034067634;-0.49072525;0.39652848;0.001984824;-0.05632229;0.075413845;0.79164207;0.33358917;0.03611747;-0.045868192;0.61726;0.025088822;0.07446709;-0.2586755;0.011121847;-0.015836641;0.16408238;0.03067634;-0.081472844;0.04551303;0.036557313;0.021158643;0.6406163;0.49776605;0.018109113;-0.5006993;0.037856758;0.0010175034;0.09478034;-0.069239035;-1.1858995;-0.8252954;0.7721623;0.9296449;-0.063252546;-0.26265812;0.083807796;0.9158296;0.10022098;0.047066234;-0.006096658;0.06717543;0.11968689;0.07187705;-0.33641073;0.0006796719;-0.0943996;-0.04624064;-0.06690921;-0.02807188;0.0296892;-0.0053742235;0.043081082;-0.6073452;-0.7689838;-0.09171653;0.025080161;0.10136872;-0.005922712;0.27705392;0.9221966;-0.042747296;-0.018882977;-0.031934414;-0.039835013;-0.036548726;-0.14106894;0.41837624;0.006930837;0.027200839;-0.5439619;0.07013784;-0.3022301;0.72352266;-0.048102826;-0.089240335;-0.74560225;-0.049655385;-0.8428873;0.059772898;-0.5204737;0.05088911;-0.28334433;0.0132139195;0.07908022;-2.8137956;0.032180242;-0.09500494;2.4596736;-0.022075834;0.056197014;-0.30412364;-0.052027103;-0.4271118;0.07653211;0.010739467;-0.22692302;0.013716309;-0.04773442;-0.004433361;-0.62533647;0.1713473;-0.033187672;0.039081696;-0.14922716;0.0033518064;-0.21587834;-0.4072385;-0.06452264;-0.027119571;0.02793548;-0.9748362;-0.08834293;-0.21978138;-0.031484414;-0.01942107;-0.018844884;0.013527011;-0.030979877;-0.046597254;-0.010318515;-0.033213355;0.062212594;-0.74797714;0.08872232;-0.001614982;-0.0158762;-0.031489037;-0.025305845;0.021522842;-1.5321828;0.46996784;0.3453288;-0.056736764;-2.645724;0.02395229;0.092106156;-1.5466596;0.63885826;0.06679903;0.060479317;-0.1514975;0.021879904;-0.41664302;-0.091287754;-0.04449759;0.0757935;-0.019226534;-0.4167949;0.036182154;-0.14090087;-0.1417871;-0.85444593;0.005378518;0.009792164;0.13946192;0.00677937;-0.61036915;0.000636677;0.02540949;-0.009672735;0.0031591572;-0.032313254;0.14347363;0.005581518;0.049285006;-0.007831056;0.37230656;0.07499381;-0.041464917;0.3520746;-0.39798275;-0.083049625;0.049364902;-0.015902588;-0.15221685;0.056187373;0.008221443;0.026391825;-0.53989774;0.054686945;-0.041209564;0.812132;-0.031042553;-0.12091097;0.039067637;-0.055486493;0.016062405;-0.097477056;-0.0017863375;-0.04788916;-0.4676542;0.053921815;-0.003055632;-0.062258672;-1.0537537;-0.07789905;0.014143531;-0.0482967;0.08727742;-0.28751183;0.029466603;0.07218471;0.028621852;-0.24873485;0.009050599;-0.033111457;-0.21048106;0.016074233;-0.08981876;-0.3331544;-0.05092208;-0.050914362;-0.41648668;-0.47810146
1.2524576;0.9125152;-1.0605259;0.047303457;0.0069549526;0.061296582;0.688609;-0.04301208;-0.019522619;-0.74941975;0.00793681;0.07626441;-0.12879486;-0.053164087;0.0068199444;0.050900422;-0.38163722;2.3939674;-0.17855391;0.50560576;-0.47995493;0.061566133;-0.018570993;-0.00670775;-0.3577487;0.39738396;-0.07164195;0.18796343;-0.10542336;-0.7188348;-0.03757493;-0.5131846;-0.07582402;0.5929695;1.0785434;0.97854346;-0.22317976;0.060962718;-0.04052954;-0.09761787;-0.013700529;0.016370887;1.3134444;-0.33789787;-0.058919035;-0.013444014;-0.13045825;0.0630809;0.047853246;0.10521691;-0.02036985;-0.22269711;-0.03445385;0.36312136;-0.02726093;-0.32088128;-0.36892828;0.07858236;-0.07182534;1.1180385;0.43917736;-0.074319676;0.3319636;0.26229462;-0.35236531;-0.06686896;0.020466447;-0.021271547;0.33755687;-0.06394709;-0.057861738;-0.12070902;1.7038013;-0.084932245;-0.19838019;0.82671505;-0.16222268;-0.021869633;-0.5447498;0.5753255;-0.1771244;-0.08865431;0.10808315;-0.077471115;0.35650307;-0.29744092;0.0613516;0.5823475;0.08642716;-0.1164404;-0.03846362;-0.003950579;0.04817777;-0.56711286;-0.11749613;-0.024061134;-0.25958803;0.067448504;0.00233797;-0.023513481;0.1283362;-0.0657529;-0.3456858;-0.0872892;-0.026111323;0.03820019;-0.28462622;0.07699021;1.0556576;0.0727908;-0.021379953;-0.0025864155;-0.031926088;-0.32685274;0.032136362;0.02986184;-0.05998593;-0.5088524;0.009257318;-0.053582422;0.075516574;0.009747462;0.09771286;-0.039647363;-0.011902632;-0.8395153;-0.6859066;-0.04332533;-0.053168204;-1.5350792;-0.07653022;0.20051631;-0.0619699;0.018635368;0.05293854;-0.079330534;-0.005490287;-0.44532588;-0.0011678515;-1.2901095;-0.051031545;-0.66887265;0.8832066;-0.07186699;0.08000513;0.09543305;0.080410294;-0.42961645;0.6624214;-0.030312868;0.11767678;-0.12159995;-0.008915199;-0.26704147;0.06865814;-0.06264986;0.0061353925;-0.5574485;0.041597303;-0.87480164;0.02539583;-0.013665362;-0.14917263;0.25886518;0.27787015;-0.09114312;0.043781023;-0.3126229;-0.0505408;-0.024040675;-0.9026256;1.8524462;0.04780034;-0.4301714;-0.03938469;-0.103885554;-1.6717577;1.1294961;-0.53530455;0.06298862;1.6647577;-0.31272057;0.56170815;-0.6041576;0.002213067;-0.0384211;-0.6532061;0.08437061;0.014256601;0.022628535;-0.6322023;0.07541833;-0.06746087;0.023916518;1.1239359;0.15280536;0.015902916;0.05204898;0.048365775;0.27183205;-0.066144824;-0.06609769;-0.021811359;0.03952467;-0.04629917;0.021334786;-0.15488023;-0.69333243;-0.37780622;-0.03148225;0.21748306;0.03454038;-0.26889682;-0.03226906;0.19054079;-0.07327391;0.023443485;-0.69919467;0.2752131;0.026299959;-0.050510213;0.011194348;0.018273646;-0.011524617;0.09186503;0.066448204;-0.36651608;0.27756292;-0.07062051;-0.045363598;0.055481415;-1.2237846;0.062739074;-0.059265547;-0.06600959;-0.59841496;-0.07556575;-0.009150555;0.7558388;0.1774219;-0.32756475;-0.031736962;-0.075837694;-0.46444878;-0.063859686;-0.18760341;-0.09434778;0.21545961;0.35398722;-0.034469157;-0.013298106;0.07567033;-0.3636462;-0.3685983;-0.04525039;-0.02920682;-0.081097685;0.046225686;0.27732712;0.07495925;0.20936646;0.034472223;-0.08042642;-0.047615662;-0.2290995;0.07782808;-0.36397904;-0.032204196;-0.15176456;-0.24053407;0.035010774;1.266625;-0.12728345;0.03388296;0.35914382;0.062093478;0.049902897;-0.078382276;0.038777184;0.81289864;-0.013658109;-0.04121501;0.056231257;-0.08363713;0.106928796;0.0018583469;-0.045492455;0.0055717076;-0.20213008;0.076485984;-1.0703585;0.09657596;0.008803637;0.052022085;0.46078148;-0.40821207;0.064163424;0.09816967;0.059318386;1.0367244;0.07518282;-0.040783998;0.029142605;-0.67678183;-0.12038224;-0.5088164;0.119609155;-0.12722531;0.84438944;-0.069519676;0.05151134;0.0040528467;0.048543606;-0.045664676;-0.09595205;-0.6091697;-0.37101403;0.12474365;-0.00872345;0.01045728;-0.04616795;-0.9059933;-0.060216606;-0.040758148;-0.100133896;-0.7072339;0.020321138;-0.07105018;-0.035263587;0.7254411;-1.1375157;-0.41910014;-0.031671144;0.06344645;0.9852272;-0.94700825;-1.5080503;0.0238201;-0.059980948;0.045836326;0.09896078;-0.069842145;-0.09998171;0.17737405;0.1218323;0.037081648;0.04456309;0.041182835;0.066726804;0.5428953;1.8829557;-0.91177076;-0.44566065;0.090481594;0.040140938;-0.12707041;-0.71183306;0.36889282;-0.40651277;-0.021692269;-0.06037224;0.04835724;-0.5185322;0.12572432;0.036603384;-0.2523215;0.03498674;1.8672498;0.26179338;-0.7796006;-0.008458451;-0.021833338;-0.052927803;-0.071603626;-0.3390418;-0.056850605;-0.06035559;1.5218357;0.01443777;-0.11645138;0.07388212;0.0050147353;-0.11053306;2.1441407;0.2746881;-0.022692446;0.002263293;-0.00023245928;-0.06293976;-0.024086505;0.06321948;-1.1140286;2.1213675;0.10977674;1.3975841;-0.031606086;-0.30403012;0.05672238;0.15494728;-0.076666646;-0.06078001;0.055519868;-0.12357;-0.41018242;-0.08160292;0.5156304;0.008318531;-0.059313346;0.00055324857;0.009335321;0.07220836;0.058639895;-0.051851925;-0.1648329;-0.80299765;-0.48381668;-0.032586105;0.035208162;-0.33548903;-0.07283418;-0.023409676;-0.42298853;0.056883376;0.074040964;-0.026346995;0.00028840866;0.07202839;-0.28609112;0.44697687;-0.008853443;-0.089896925;0.82776576;-0.07273139;-0.5244107;0.26604307;0.13342363;0.049499523;-0.28224862;-0.05831099;1.0007398;-0.003357732;-1.4090582;0.21005763;-0.17453688;-0.65662974;0.0035375035;-1.0627273;-0.075241804;-0.021884998;0.8767317;0.05165363;-0.08322912;1.7542864;0.027032398;-0.44444507;0.082547225;-0.07103404;-0.24073204;0.13389215;0.04047648;-0.25810876;-0.38795677;0.14015011;0.04553541;-0.027663315;-0.13523568;-0.015449688;0.1870783;-0.5961666;-0.11726345;0.022467202;-0.062448822;0.8704064;0.09428841;-0.15552431;-0.70397997;0.032075245;-0.09003396;-0.020973317;0.053565472;-0.08886155;0.05655927;0.022546776;-0.0012371925;1.4183555;0.0058691967;0.10176242;0.2856345;-0.2980099;0.062893815;-0.0789266;-1.2849072;-0.9061533;0.61616325;0.0007428599;0.2089337;0.0017077472;-0.026822994;0.69806325;1.3619839;0.043580085;0.0602302;-0.17762896;-0.05938116;-0.6156501;-0.038253818;0.0031774838;-0.062217012;-0.07544692;-0.31193018;0.041385986;-0.5880426;-0.11695149;-0.49250287;-0.0104022;0.40124893;0.026412014;0.15359;-1.280542;-1.0226631e-05;0.005295609;0.04094287;0.049638323;0.006359656;0.035604663;-0.029767139;-0.25345585;0.038384438;1.5055076;-0.079034545;0.030968549;0.40663058;0.15976399;0.24502428;-0.028934961;0.07131756;-0.08208237;0.07511466;0.027499137;0.036802;-0.17317793;0.046170127;-0.03578443;0.11313114;0.05696052;-0.09133763;-0.07515979;0.041563846;0.02493678;0.02175582;0.06419051;0.024494797;0.082818165;-0.05265289;0.10098797;-0.008681603;-0.059359137;-0.014433075;0.022135714;0.0062393127;-0.07607529;0.92454505;-0.018752556;-0.16988887;-0.13356446;1.1251454;0.010227051;0.09333334;0.25651494;0.06471921;0.012548807;-0.38472384;0.042100362;-0.048251163;-0.6972551;0.23470324
-1.3748965;-0.5016854;-0.7618809;0.102521606;-0.1921364;-0.09456975;1.2283727;0.012050203;-0.052356448;0.47676045;0.06076477;-0.026080394;0.09539419;-0.049821842;-0.05192824;0.030222172;-0.20389855;-1.761981;-0.012298841;-0.05307871;-0.45105132;0.4103142;-0.036468364;0.07196728;-0.26216844;1.1673266;-0.16602464;2.764729;-0.11172836;-0.93024945;0.03402264;0.99709547;-0.071408354;0.5990243;1.0266455;-0.4595941;0.05727671;0.03289616;0.01785134;0.042471495;-0.034178838;0.004824607;-0.7735728;0.23286088;-0.05791238;0.03968011;-0.044361487;-0.06771528;0.061292667;0.019272406;-0.023227325;0.30192256;-0.12822458;0.06962467;-0.09540505;-0.15305705;-0.08405261;-0.028937541;-0.015165104;-1.4665829;-0.31787574;-0.07417469;1.090574;0.08530552;-0.38006592;-0.10329539;-0.009613173;0.04953435;0.12045186;-0.12090728;0.041987017;-0.08997228;-1.6436973;0.016613463;1.1033298;-0.30022895;0.03316146;0.098723225;-0.6084034;0.8553967;-0.6993491;0.06381056;1.7861933;-0.024805723;-0.39919037;-0.10849887;-0.013660995;-0.18135452;0.0017843043;0.08157512;-0.055954337;-0.03195972;-0.02142352;-0.20508908;0.013819866;-0.090604395;-0.65203923;0.0203693;0.068260804;0.02583197;-0.18559267;0.0056190235;0.13222356;0.12365464;-0.11331439;-0.005570566;-0.24067065;-0.018584803;-0.6500734;0.06855727;-0.051278435;-0.055572156;-0.016883796;-0.07770987;0.026378995;0.082277365;0.047619548;-0.31125134;-0.019528296;-0.17982718;0.0031926674;-0.0066735116;-0.08271471;0.061433148;-0.017023226;-0.18862136;0.37141117;0.027543126;0.062016223;-0.21763624;0.009826022;0.26149717;-0.059228368;-0.05107108;-0.018116804;-0.06930052;-1.5818408;0.9241414;-0.07789554;-0.5046883;-0.07107499;-0.45824978;-0.3405686;-0.04371961;-0.015650745;0.00384768;0.3191492;0.38134155;0.5678949;-0.005901451;-0.04530592;-0.085521124;0.09839462;0.08004807;-0.038106214;-0.08582831;0.1082251;-0.53746325;0.057543278;0.63236624;-0.16038626;0.030080022;0.4348229;-1.3175408;0.020052437;-0.020888386;0.05763985;-0.05401979;-0.063529514;0.036996607;-1.8465537;1.1737863;-0.07751998;1.5318623;-0.05230248;0.12973584;-1.0913582;0.10902863;-0.44201612;0.09718304;-0.3561546;0.12202634;-0.091281585;-0.0432276;0.01519222;0.0104172295;-1.3807025;0.007925014;-0.0831508;-0.067467764;1.4323117;0.048392817;0.09452563;-0.0022131396;-1.3556578;-0.8635806;0.06012062;0.013273591;-0.0013857129;0.7535446;-0.039559167;-0.019834677;0.022835366;-0.11883002;-0.066657536;-0.10109731;-0.10415735;-0.28754136;-0.16415767;0.027434578;-0.6658845;-0.016883867;-0.09998397;0.0037596931;0.21659009;-0.32535607;0.001932738;1.5285307;-0.81107396;0.07862005;-0.12687585;0.066961154;-0.016750345;0.050608184;-0.13164145;-0.04243722;-0.04596794;-0.45683753;0.04327069;0.05596771;-0.035347674;0.7256806;0.09329552;-0.007688784;-0.14560118;2.384106;0.09925666;-0.14351825;0.039527554;-0.22997731;-0.17071882;0.07820657;-0.019606259;0.41707146;0.0182514;0.62195086;0.021167845;0.32094964;0.3880652;-0.032851245;-0.06964276;-0.015753277;0.041971304;-0.27886122;-0.02131991;0.029215453;0.053512048;-0.02770584;-0.5175992;0.037026737;0.8306407;-0.08575794;-0.062913686;-0.09060263;0.05050265;-0.10341196;0.05383868;0.06609238;0.06727898;0.59038526;-0.0029902598;-1.773294;-0.009774844;-0.050032765;0.23795615;-0.083983034;0.15793018;-0.03030857;0.088227585;-0.019543495;0.044897348;0.07779437;0.023316879;-0.08260894;0.2276281;0.077411704;0.07101062;-0.028940069;-0.95177025;0.12719132;2.444372;-0.100946344;0.83637846;-0.09361108;0.5021451;0.2752723;-0.048484307;-0.6194203;-0.071636446;0.7331826;-0.008228624;0.027880814;0.031822704;-0.9435164;-0.08594026;0.19606715;0.18027797;-0.045345187;1.2500564;0.12830615;-0.025570612;-0.05579433;0.0013104097;0.034341287;-0.31516522;-0.78811795;-0.13699208;-1.7837696;0.03740213;-0.0068921335;0.049987495;-0.6645853;0.065781236;0.059292477;0.20684366;-0.43521294;-0.07201505;-0.044765398;0.06356282;0.0034608804;-0.5051725;-0.29779774;-0.006481998;-0.07444344;0.16943969;-1.6749021;1.2864321;-0.07554184;-0.053992596;-0.13057338;-0.6091714;-0.007904248;0.0051424196;0.7477308;0.4014912;-0.050423;-0.049274083;-0.081585586;-0.013761318;-0.43104807;-0.5924497;-0.3480539;-0.12112819;-0.025971841;-0.029430881;0.024248367;-0.60805905;-0.22169597;0.455585;-0.031363238;-0.0689829;0.014722727;-0.52476984;0.017154176;0.0086654015;0.19100916;0.054433238;-0.2601927;0.05551861;-0.20332392;0.010226408;-0.16574375;0.020542176;-0.09756892;-1.5496616;-0.024926245;0.020311454;0.2499993;0.031594854;0.017263794;-0.026438974;0.04805714;-0.094303705;-0.45710814;-0.7920638;0.027683381;0.1113989;0.14580159;-0.082648635;0.00064709963;-0.09571732;-2.226028;-1.6555457;-0.028999047;-0.3090903;-0.100093074;-0.24441645;0.05358287;-0.37431824;0.018507302;0.020343393;0.0016573494;-0.07495375;-0.0058072014;-0.009707876;0.07685562;-0.004037831;0.006905584;0.13094604;-0.019508893;0.03013609;-0.033967473;-0.0892218;-0.046518836;-0.3343199;-0.43101463;-0.11779301;0.09594565;0.07983995;-0.016824434;-0.22586885;-0.40731627;0.038188238;0.06437132;0.005269001;0.030741572;0.044329032;-0.116417795;1.0487198;0.03290029;-0.08606317;-0.9427349;-0.039107583;-0.43836588;-0.056939326;-0.55745846;0.010019511;-0.55847174;-0.07797625;-1.5471585;-0.0053879027;-0.06932984;0.12811504;2.2317355;-0.44907564;0.00844458;0.16793482;-0.007091438;-0.32126677;0.03184928;0.06560375;0.06021862;-1.3061016;-0.011350234;-0.33608812;0.02507685;-0.009527157;0.08466485;0.09605474;0.008809659;-0.06472472;0.06629522;0.18962969;-0.01181311;0.0022952738;-0.018803164;0.014507974;0.04571903;-0.28208074;-0.014669716;-0.024739748;0.024956675;-1.10344;-0.085311085;0.30313995;0.91016394;0.033884984;0.057578716;0.120987974;0.039098985;-0.047530733;-0.062271025;0.057850134;-0.045047715;-1.301851;-0.042912208;-0.045022324;0.18015817;0.05884836;-0.04770003;0.012873549;0.17689125;0.037940055;1.2311237;-0.058060203;0.29523754;-0.06488072;-0.06512324;-1.1356007;2.0466342;-0.0013979971;-0.08587698;-0.009215756;-0.023635091;0.38373372;-0.05643593;0.021928286;0.10082267;0.008792526;-0.28065574;-0.03226605;-0.13122484;-0.09920704;0.6134308;0.065787256;-0.23502225;0.28742707;-0.57406986;-0.5374922;0.028599279;-0.06713457;-0.0133152865;0.051633913;0.049524277;-1.1526631;-0.063883536;0.10230079;0.07028052;-0.22297944;0.04165448;0.1274133;-0.013193517;-0.11935253;0.028980391;0.09377879;0.042783935;0.100101754;0.04850338;-0.0113033345;-0.09073124;-0.054043557;0.07404047;-0.022552814;0.24323854;-0.015881803;0.012880454;-0.046787877;0.017247593;0.039023854;-0.043194134;-0.01558109;-0.050690893;-1.7191131;0.0164842;0.13767862;-0.057234444;0.4086362;-0.10774896;0.11010252;0.12441827;0.07847854;-0.7167759;0.08797897;0.03530635;-0.085975125;-1.2682604;0.7642924;0.05030316;-0.07406781;-0.060021088;-0.059705775;-0.3793864;0.0906971;0.11467899;-0.117484614;-0.35447082
-0.24075544;-0.16737643;-0.10260422;0.117692314;0.011616142;0.23515135;0.084162265;0.008324931;-0.06712579;0.38348627;-0.005036609;0.20019472;0.27078193;0.029174356;-0.029217696;-0.0821067;-0.61460286;-0.12730607;-0.03164026;0.25827044;0.15142615;0.33673984;0.045438856;-0.0077300603;-0.16397607;0.64334214;0.11896525;-0.9089889;-0.16393565;-0.9560441;0.01176353;-0.38348746;0.03854928;-0.38333556;-0.17777024;0.6439634;0.61623156;0.18928933;-0.12342044;-0.07659048;0.115139514;-0.02544191;-1.7023687;-1.7515901;-0.0025546458;0.08787591;-0.12808481;-0.08026086;0.037772346;0.17076921;-0.084935725;0.9167233;-0.15476274;0.45541036;-0.011135297;-0.15309252;-1.0913513;0.057828482;-0.027342035;-0.051265508;-0.44409367;-0.0636449;-0.6941344;-0.015021037;-0.4678673;-0.09818778;-0.06773817;0.068087906;-0.047856558;-0.0008839645;0.08853599;-0.046598755;-0.71473396;0.31477702;0.92520356;0.2684869;-0.1458494;0.046570446;-0.50933135;0.92320216;-0.1255635;0.11682156;0.8567086;0.06500659;-1.5543871;-0.13286793;-0.09256393;-0.018890407;0.15520062;0.055251047;-0.11091693;-0.098092064;0.0010809905;-0.24410303;-0.114344835;-0.079147294;-2.2280374;0.18118925;0.07069222;0.098349415;0.22146015;0.113776036;-0.49168834;0.07744476;-0.1574878;-0.080386795;-0.15545945;-0.035685237;-0.5752844;0.11058265;0.019883417;0.019846423;-0.007285237;0.3898647;0.07304866;0.07855066;-0.11663152;-0.17496124;0.06741145;0.22237322;0.12551285;0.070461735;-0.09654381;-0.13700141;0.20434651;0.05341773;-0.1996036;-0.12835266;0.14364544;0.07255298;0.18670285;0.2556221;0.01085712;0.055866007;-0.015793314;-0.030062847;-1.5046192;0.17287803;-0.05675921;-0.5020684;-0.06355258;-0.49938104;-0.055296402;-0.11351987;-0.007905652;0.015534222;-0.05728702;-0.06489708;0.75318813;0.053653136;-0.0054449798;-0.16101873;0.16987854;0.22810678;-0.084908664;-0.023189891;-0.0652014;0.09597459;0.14799307;0.032637347;0.2078186;0.062231142;0.37444505;-0.08694264;0.18882139;-0.07306571;0.1723021;-0.19351831;-0.012598027;-0.07648578;-1.0318514;0.8201175;-0.099781245;-0.27240655;-0.008699773;0.083515465;-1.0389613;-0.862008;-0.3630944;0.141366;-0.25096202;-0.30824915;-2.2948666;-0.43175784;-0.0559946;0.16189802;0.17477612;0.01288084;0.06313063;0.040852733;-0.9562269;-0.061801475;0.056795206;-0.2307213;0.44084096;-0.4341828;-0.022483794;0.15089373;0.09821426;0.3953822;0.014510176;0.20739293;-0.05683323;-0.20668454;-0.09821056;0.20103209;-0.25106546;-1.0441711;0.091962926;-0.08993217;-0.13759735;0.259028;-0.14888805;-0.11429144;-0.18322772;0.10032211;0.26874787;-0.13198262;-0.11037684;-0.009629956;-0.22925162;-0.05783266;0.10000689;-0.024679422;-0.03193708;0.05940423;0.4726564;-0.21242785;0.047478493;-0.12580323;-0.20052302;0.078767546;0.645713;-0.1462066;-0.05660965;-0.16941713;0.081581436;-0.22711639;-0.5777905;0.9216271;-0.184624;0.040678803;0.047823463;-1.0076782;0.05485161;0.7018757;-0.036936335;-0.0032612751;0.5919832;0.021474317;-0.20759563;-0.1642336;0.44782063;-0.067356676;-0.017686458;-0.10189883;0.22457716;-0.03930216;-0.038765226;-0.0376619;0.239333;-0.110382274;-0.041541446;-0.10037959;0.43314022;0.070823826;0.45035315;-0.0247968;-0.056465898;1.1212704;-0.06971462;0.53838205;-0.07437134;0.19548723;-0.3132417;0.095984176;0.40504795;0.10792115;-0.020800784;0.34947845;0.062429994;0.15238328;0.30146065;-0.15632279;0.14823247;0.031428732;0.04290511;-0.08259356;0.32475802;0.026179234;-0.3809045;-0.12251817;0.62922305;-0.12518382;-1.0675765;-1.450153;0.05903477;-0.14836128;-0.08583076;0.3301769;0.12703411;0.03988347;-0.10742011;-0.16136317;-0.022004224;0.009127874;0.08664109;-0.14671344;0.621211;0.10626344;0.011047022;0.14972697;0.011210971;0.09357339;-0.24598938;-0.66444325;-0.13054647;-0.04850971;-0.083706915;0.023337204;0.043394208;-0.3790768;-0.07020816;-0.08714261;-0.4227223;-0.27818105;0.27625245;-0.09117611;0.08450447;0.12215211;0.0020124495;-0.24196313;0.27117693;0.16608709;0.6089264;-0.7267946;1.0701072;0.07022866;0.037446633;0.023232248;-0.49005488;-0.07557047;-0.012659484;0.4222282;0.48747107;-0.11193377;-0.04849592;0.26093975;0.10946141;-0.1925238;-0.13834551;-1.3118992;-0.14010575;0.15743007;-0.05652343;0.3215802;-0.5534906;-0.30269778;0.604324;-0.09746984;0.0032427786;0.15473871;-0.93471676;0.17932098;0.12630685;0.038064297;-0.023513548;-0.23154804;0.12229217;0.8850332;-0.11659335;0.53549606;-0.17352264;-0.07631262;-0.35611728;0.013611802;0.11712461;0.4924992;0.062474813;-0.006844009;0.029423399;-0.020686578;0.05432575;-0.32332873;0.94519645;0.25382945;0.13159695;-0.06319074;0.010804368;0.04228809;-0.048177995;-0.16657512;-0.8627403;0.036758866;-0.30204073;0.010971956;-0.2762033;0.14996992;-0.6863539;0.19615412;-0.13491751;-0.020533206;0.2004867;0.36509046;0.058949143;0.84744686;-0.07950783;-0.16248818;0.07623973;0.002285833;0.15291068;-0.0028321813;-0.13681875;-0.08329484;0.5281556;-0.7718957;-0.04155939;0.1053494;0.39765105;-0.1091797;-0.009765903;-0.35910654;-0.20792814;-0.010553956;-0.13530336;0.07353181;-0.059080318;-0.15075842;0.2673286;0.1013982;-0.078512006;-0.43151513;0.04637261;-0.6006896;-0.98951;-0.06707528;-0.016659541;0.44057736;0.05483774;-0.44109002;-0.15907879;0.24022841;0.24371494;2.1999843;-0.3032607;0.03099625;-0.6233417;-0.059771635;-0.42527255;-0.024234906;0.16414522;0.08020511;-0.1689987;-0.02151055;-0.3901239;-0.079328336;-0.08512452;-0.020598583;0.17903279;0.09450404;-0.20340267;-0.33810776;-0.03112126;0.028144864;0.11725171;-0.43959895;0.014336847;0.13991633;-0.008151252;0.027176062;0.12751058;-0.03038407;-0.7573203;-0.099692635;-0.41925243;0.5207792;0.13001025;0.017963901;0.12877826;0.041433614;0.15130343;-0.18662232;0.020407734;-0.041882243;-0.22889851;0.17329752;-0.1273824;0.3259027;0.20383283;-0.024481956;0.017796215;0.34629798;0.043544848;0.95275897;0.20291737;-0.18260494;-0.118613705;0.21463539;-1.6143188;-0.5967633;0.08434693;0.014243559;-0.17890346;0.3219922;0.22505675;0.007404307;0.059277743;-0.027370678;-0.05282721;-0.35419783;-0.032043837;-0.017801119;-0.14426659;-0.25476786;0.20936023;-0.08287848;0.3554905;-0.13583112;-2.5779383;-0.022064565;0.08216847;-0.07574559;0.029827444;-0.09265602;-0.571709;-0.031113148;-0.15943722;0.026874255;-0.25712043;0.03530762;0.06318171;-0.21233186;-0.33660468;-0.32838625;0.082611844;0.06618058;0.2092543;0.0063708737;0.058398552;0.06012914;0.21953541;0.06893699;0.016610311;-0.10476201;0.0043669958;-0.18674567;0.086559854;0.011401359;-0.077437066;-0.15597844;0.0033003415;0.06273082;-0.4796246;-0.066821754;0.18686987;0.0087358905;-0.82313526;-0.07120222;0.03706073;0.14401995;0.01654297;-0.16669945;0.08339145;0.3771751;-0.11294587;-0.6806336;0.72410065;0.054773554;-0.3521806;-0.07666795;-0.10954562;-0.3615583;0.004898635;0.10245912;-0.9481808;-0.35113832
0.06297652;-0.27832767;-1.2389419;0.05556379;0.005892474;0.1262146;0.038674485;0.047341567;-0.08406377;-0.011151165;0.04750927;0.030440986;0.15146826;-0.07686171;0.048430715;-0.005818234;-0.5692849;0.269871;-0.108529925;0.3298051;-0.11420047;0.18579711;-0.027815042;0.044957243;0.36931285;0.013122936;-0.0033699805;0.48628765;-0.013887829;-1.2847525;-0.06324486;-0.38203815;0.057738822;0.29301068;-1.0459421;-0.23660457;0.53665286;0.09208007;0.0044639804;-0.006951387;0.052575927;-0.056759063;-0.47722027;-1.4587376;-0.0577409;-0.07181412;-0.05616837;-0.021171462;0.024705756;0.21082325;-0.06487537;0.8491315;-0.18765147;-0.25386995;0.06881359;-0.093798704;-0.325271;-0.0117588425;0.07883002;-0.793512;0.79462564;-0.018005498;-0.8179076;0.17829846;-0.20598772;-0.05395412;-0.012526193;0.0114214085;-0.0035356013;-0.0060151815;-0.0053018727;-0.07808136;-0.3712309;0.058700778;0.8737118;-1.1490703;0.019530572;-0.025454525;-0.66752046;-1.3504401;-0.03589373;0.08521018;0.44469738;-0.0377813;-1.2251724;-0.0049914443;0.04396519;0.2868047;0.17941895;-0.027202025;0.05166809;-0.04228051;-0.025450401;-0.20996208;-0.04616022;0.015170768;-1.232922;0.01464214;0.021218589;-0.014246331;-0.3584476;0.10415794;-0.34180072;0.0073196334;0.004523001;-0.036942434;0.013111861;-0.016440028;0.023175843;-0.024357831;-0.09070513;0.06647836;-0.04332114;0.17498173;0.014175275;-0.03348757;-0.0734248;-0.079333566;0.019035231;0.008536476;0.026402213;-0.04150986;0.003013802;-0.034656167;0.058415987;-0.16017698;-0.9881962;-0.089657314;0.07144331;-0.0118341455;0.09695126;0.2685868;-0.08836181;-0.06655672;0.05623831;-0.034796357;-1.5107642;0.22035438;0.033093326;0.20809317;-0.04692636;-0.38310802;-0.8275496;0.070717625;0.051186837;0.015142931;-0.24108258;0.30539313;0.74842;0.015253198;-0.08103342;-0.0057678563;-0.03249301;-0.031657558;0.07800506;0.029693915;0.008361757;-0.009229124;0.033833686;-0.16523364;0.08668177;0.050222673;0.15280789;0.37124547;0.30321673;0.061690748;0.1120313;0.0077007045;0.02734906;-0.010812808;-0.18562482;-0.96287334;0.018413978;0.7961831;0.06922086;-0.12560241;-1.1760942;-1.353399;-0.40281487;0.0050341664;-0.08604419;-0.2961698;0.06937104;-0.75850606;0.057277802;0.013636617;0.19400065;-0.05151136;0.009447365;-0.06811716;-0.23532282;-0.06448922;0.033702258;-0.13319269;0.010830919;-0.20775399;0.06204022;-0.033614147;-0.018427225;-0.07153359;0.054408498;-0.032812484;0.013314812;-0.012464847;-0.053234473;-0.042752635;0.019975025;-0.71952045;-0.21543556;-0.104079;0.42064342;0.039162718;0.0052807545;-0.007519118;-0.07532356;0.1411649;0.04261668;-0.5604817;0.12007811;-0.06799679;-0.19736087;0.07892253;0.061750274;0.12468035;0.07249497;0.051744953;0.1272012;0.57865584;-0.01577466;-0.026996695;-0.038223363;-0.22035934;0.27559716;0.016386077;-0.033127032;0.020650182;-0.050358113;-0.12547572;1.0498736;0.76436394;0.073914744;-0.013950375;0.08272437;-0.94466305;-0.05320091;0.034625836;0.075471744;0.113934055;0.523211;-0.06662144;-0.032391325;-0.09817114;0.19420943;-0.4019214;-0.08608501;0.044167615;0.08053957;0.046329584;0.051531423;-0.018952627;0.18120049;-0.015008094;0.06761558;-0.18567842;0.15251043;0.13733034;0.21136558;-0.07036743;0.263685;0.96715623;0.015472943;0.5475619;-0.014254091;0.009651167;0.036555834;0.11917471;0.16741927;0.029819982;-0.03138963;0.20979334;0.06566804;0.04647196;0.13080767;-0.064893305;0.14673111;0.020752901;0.033946186;0.015394435;-0.15939146;0.0032869894;0.85813683;-0.047023162;0.18995257;0.05875492;-1.5702186;-0.9875649;-0.025267124;-0.8434429;-0.020001179;0.18867725;-0.069136366;-0.02130451;0.0023909858;-0.21924077;0.017697798;-0.15845221;-0.20365676;-0.04620911;1.1760703;0.014474337;0.06482624;-0.0047839824;0.032959472;0.083043985;-0.10831067;-0.624317;-0.13503705;0.11903533;0.021369286;-0.060622614;-0.06427553;0.56466824;-0.04587134;-0.015730072;0.049195923;0.7271247;0.065023065;0.07019782;0.073486604;0.39301637;-0.079755485;-0.1586386;0.08593787;-0.020578286;0.39994708;-0.32245612;0.45094308;-0.08913753;-0.041494343;0.032809373;-0.0028324393;-0.046260826;0.034615163;0.4713981;0.5731142;-0.019569907;0.0054240944;0.08973268;0.039722715;0.5477223;-0.3285967;-0.7905219;-0.035243396;0.1588059;-0.08262903;0.105100006;-0.39795592;0.12580055;0.33664855;-0.03096042;0.016282748;0.108524576;-0.9083962;0.08960752;-0.008610213;-0.0705311;-0.059704706;-0.069468714;0.20741773;0.4652514;-0.05385458;0.36890137;-0.025434734;0.017034743;-0.301209;-0.055293757;-0.044907965;0.0025884002;0.012169744;-0.0801032;-0.04779145;-0.07722835;-0.03013992;-0.13213836;-0.5151873;-0.022337718;0.2058222;-0.21696737;-0.055391103;0.09559088;-0.090930656;-0.09443926;-0.20737122;0.5796296;-0.06749041;0.07482164;-0.24631232;0.029184008;-0.35309815;0.061279804;-0.006398521;0.039780274;0.13184175;0.12882204;0.046063073;0.5015791;0.03846137;-0.08974063;0.07473977;0.06800402;0.014065975;0.06324957;-0.023802435;0.00083573075;0.1744758;-0.56226134;0.0836918;0.027135337;0.20095828;-0.07437557;0.051911816;0.48462486;-0.020887429;-0.08267402;-0.079952985;-0.01818289;-0.06274322;-0.064002156;-0.67325366;-0.024253149;-0.046863023;-0.060919974;0.06657077;-0.119825765;0.6131046;0.06517863;-0.079028495;0.03638436;0.0041647637;-1.4696194;-0.0238949;0.67229205;-0.03371616;0.57423;0.920433;0.11708793;-0.3616539;-0.017407607;-0.31160757;0.12913112;0.0011111683;0.06340454;0.6680327;-0.06368088;-0.10191896;0.055721726;-0.02979864;-0.023132319;0.0647388;-0.06659039;-0.059501607;-0.088601604;-0.0048139314;0.026385633;-0.02432517;-0.28781894;-0.040004116;-0.25790218;0.065711744;0.08590262;0.09853812;-0.05491074;-0.7196421;-0.04478498;-0.35800183;-0.82011026;0.054685168;-0.0076180124;-0.0051158615;0.080039516;-0.01644841;-0.07828538;-0.027405294;0.005470727;0.42892003;0.052981563;-0.02553822;0.28961664;-0.10593021;-0.008914218;-0.045108914;-0.5600516;-0.29587087;-0.004362739;0.0971684;0.009166571;0.004149157;0.1409369;-0.54106885;0.39959848;0.009242888;0.078827046;0.05960308;0.1342192;0.35993573;-0.042863782;-0.027884936;-0.07010762;0.02133041;-0.23570728;-0.010599958;0.24078664;-0.10883939;-0.9376977;-0.013551992;0.03537687;0.13224639;-0.00012079067;-1.8805411;0.079215735;-0.05640594;0.050083503;0.026349407;0.030447967;0.09136235;-0.086243145;-0.24607293;0.015818985;0.0037399386;0.06996442;-0.0071187173;0.0018729663;0.038128413;-0.08815399;0.013098969;-0.08078096;-0.00561176;0.067039944;0.03349007;0.016989488;0.45904154;-0.027520115;0.07682875;0.23255572;0.04140234;0.032576736;0.07816827;0.07578045;-0.008367631;0.036340583;-0.078256115;-0.032125495;-0.50742435;0.073237404;0.05336206;-0.008079514;-1.1888689;0.0145581;0.045248687;-0.022871168;0.0014518343;-0.20064758;0.05475598;0.20338398;-0.0034054865;-0.5375157;-0.5711859;0.036697015;-0.053526707;-0.06614642;-0.00093230495;-0.16370657;0.07239332;0.07411909;-1.1580508;-0.011378698
0.009529948;-0.14393069;-1.2418302;0.029923113;0.05944392;-0.08323846;0.07069976;-0.016367728;0.06961165;-0.28080267;0.070763916;-0.014685187;-0.061165866;-0.024271999;0.10070107;0.038190536;-0.218889;-0.10966078;-0.1166979;-0.5132721;0.045599878;-1.0455626;-0.051672198;0.019642321;1.6148063;-1.5276724;0.060896046;-0.24391013;-0.03161367;-0.15114182;0.054122258;0.7468428;0.08161811;0.9086264;-1.8432809;-1.5491773;0.22407992;-0.16669601;-0.04230955;-0.006150073;-0.10840728;-0.03201478;-0.5299598;-1.0341103;0.010410073;0.023054328;0.030976374;0.044097837;-0.10198199;0.105805375;-0.008704438;0.66941196;0.15880144;-1.0519977;-0.028158804;0.15178116;0.34254745;0.06594177;-0.038170986;0.07936645;0.7789874;0.019982459;-0.8405815;0.14491251;-0.19410999;0.13433802;0.017010875;-0.061644025;0.6827263;0.09584194;-0.034754604;0.10904215;0.307714;-0.02403721;-0.33518186;-0.6025188;0.08156705;-0.07772711;-0.5472289;-0.7177861;0.23714302;-0.103323065;-0.5796832;0.0028366563;0.05420076;0.0030661372;0.077909134;0.40794137;-0.063681714;-0.06972967;0.06966415;0.07751931;-0.06889082;-0.15064439;0.10867938;-0.053478237;-0.84259987;-0.056516483;-0.08576307;-0.13331243;-0.20009638;-0.13339339;0.102242805;-0.07963398;0.110823065;0.029612131;-0.04094257;0.047668148;-1.0269954;0.009457188;0.007362828;0.09124363;0.021021524;-0.18754639;-0.11611864;0.051994033;-0.014815393;-0.16676679;0.07096641;-0.12044673;-0.055310097;-0.076973036;-0.03303455;0.031718493;-0.0633406;0.041698765;-0.83363926;0.041610006;0.035975426;0.12308333;-0.1394689;-0.03424708;0.040680163;-0.054564584;0.06446437;0.056030024;-0.64099026;0.13312772;-0.043123137;-0.3598451;-0.003655324;-0.4173806;-0.5227968;-0.027871316;-0.08795659;-0.12485152;-0.11566284;0.15479246;0.025468666;-0.036600508;0.05791079;0.03408843;-0.11574338;0.106500424;0.015823908;-0.04189727;0.07441953;-0.102085;-0.06590178;0.3595047;0.4568337;-0.001094205;-0.31428975;0.18631552;0.56461185;-0.14190981;0.022873506;-0.037309587;0.0406851;-0.012428697;-1.2504361;-1.3427396;-0.01636668;2.0928638;-0.039545756;-0.19991364;-0.3594661;-1.0954455;-0.43896726;-0.08317773;-0.048703402;-0.10884951;-0.1726758;-1.2041417;0.11332115;-0.15618707;-0.4788398;-0.020254303;0.017400684;-0.07731337;0.8589588;0.0074726753;0.0009932145;0.086256534;-0.5180336;0.3409099;-0.008881056;-0.013010271;-0.14381497;-0.54321015;-0.032338984;-0.048405502;-0.043125134;0.084100366;-0.042023573;-0.18089183;0.04833301;-0.41991493;-0.83537364;0.16022928;1.0160456;-0.15219326;-0.071243204;0.15082933;0.23599176;0.07891593;-0.12639166;-1.0307856;0.5271276;-0.036637604;0.2110307;-0.01689086;0.026118021;0.22486384;0.009639177;0.011943843;-0.13376097;-0.39698255;0.0038375196;0.04325721;0.06248871;-1.7479526;-0.5157242;-0.07846099;0.10785356;1.3133624;0.020984739;-0.56374294;0.5607417;-0.3244657;0.24834847;-0.05061691;0.047748826;1.0151935;-0.030039923;-0.47854972;0.0056075966;0.15269522;0.24774691;0.035910092;0.037121125;0.05740004;-0.07713138;-1.0932568;0.025772855;-0.04088165;-0.10727353;-0.058572836;0.023904007;0.054417133;0.15133776;0.14257613;0.0015521103;-0.11288231;-0.0557289;0.15282252;-0.0734721;-0.015076249;0.72377807;-0.20341957;-0.026097737;1.0549952;-0.059893228;-0.12966597;-0.34025943;-0.048648912;-0.118896306;-0.13524069;0.002314262;-0.6293467;-0.101346605;-0.05259861;-0.08061467;0.09517002;0.10234909;-0.01702605;-0.013622649;0.17281485;-0.8322699;0.04252676;-0.3643422;0.07960999;-0.1889421;0.0309034;0.7346162;-1.6326187;0.06304311;-0.30973494;-0.051251803;0.046033993;-0.017939596;0.09025405;0.026535086;-0.5568541;0.0038163564;-0.55398166;0.059742395;-0.12818754;1.4978553;-0.04871481;-0.00233635;-0.1796746;0.04016705;0.02717542;0.2450099;-0.40723985;-0.085843295;0.25618938;-0.0334072;0.012248034;0.095485225;1.7521789;0.042032685;-0.025798762;-0.2090067;1.3147409;-0.18736458;0.035040442;-0.00075256766;0.50041336;-1.0809392;-0.0822792;-0.111143865;-0.18134308;-0.019789506;0.42447165;0.36810488;0.044036712;-0.06277183;0.21060397;0.42535147;0.028626064;0.078929104;0.9363839;0.18006653;0.079093456;0.07956449;-0.007693231;-0.18742208;-0.39315128;-0.28937656;-0.89531225;-0.09614445;0.23105118;-0.023126429;0.016060637;-0.44416368;0.052251827;0.5614756;0.15192223;0.042818926;-0.008786157;-0.7554788;0.3551269;0.033805706;-0.21700412;-0.00479721;-0.10284233;0.15950759;-0.13543786;0.073747724;-0.02671222;0.124885455;0.05676302;0.29348853;0.006329083;0.039597567;-0.4537699;-0.11918123;0.0074163144;0.02493838;0.019606795;0.022674257;-0.17137192;-0.887844;-0.110058464;-0.063793726;-0.14849897;-0.028395157;-0.07678858;-0.014087504;-0.06698466;0.44322512;0.633683;-0.808412;0.08960288;-0.118450515;-0.106447645;-0.42515773;-0.0072975312;0.095025785;0.013947506;-0.054734815;-0.10639494;-0.041544735;-0.34083006;-0.026436722;0.039610233;0.026752213;0.07302714;-0.0023930692;-0.08465792;0.0689661;-0.0015989038;0.29665285;-0.5278664;0.095466934;-0.079501085;-0.088463545;-0.017736215;0.35096753;1.708698;0.23749402;-0.08218208;0.13791537;-0.042932346;-0.03409379;-0.044320777;-0.82689136;-0.07675903;-0.048531156;-0.19145696;0.019442545;0.38287377;0.5895269;-0.021314371;0.09746204;-0.3802567;-0.05653094;-0.17475791;0.013041267;-0.8602306;0.11066497;0.42062792;1.3905742;0.10595639;0.17179684;0.008173484;0.25089654;-0.055703156;-0.03878619;-0.0013589356;1.7095666;-0.08670102;-0.15518533;-0.054428443;-0.0007927313;-0.13257311;-0.106848;-0.06429971;-0.07487568;-0.024532909;0.10215068;-0.13277937;-0.031189192;0.30768263;0.027882846;-1.0087413;0.27988333;-0.033234958;-0.13724588;0.078337274;0.20323116;0.056787863;-0.36734837;-2.3739114;-0.09300704;0.032100618;-0.08108328;-0.08815968;-0.06944605;-0.0072811004;0.056080636;0.033853605;-0.41215795;-0.036307123;0.18388397;-0.06340415;-0.116909064;-0.03922775;0.05710749;-0.3275908;0.33822763;-0.6128199;-0.048333384;0.116177835;0.11509732;-0.19784513;0.11353913;0.19475462;0.05784505;0.020695645;-0.056142505;-0.08231814;-0.032698754;0.05069917;-0.10538674;-0.037790507;-0.009077966;-0.13210927;0.039413117;0.0714276;0.027020918;-0.08285089;-0.06690485;-0.058507804;-0.3131404;0.043179773;-0.578131;0.056038566;0.029639991;0.035555586;0.038812023;0.07430933;0.5501577;0.055397492;-0.1930646;-0.10940467;-0.070815176;-0.08386915;-0.0368204;0.8697627;0.07027664;-0.17286669;-0.023735037;-0.08098835;-0.08864719;0.0031879016;-0.053439923;0.06952794;-0.060708355;0.02995629;-0.039760973;0.3767751;-0.0145215485;-0.007866417;-0.06425129;-0.011767486;0.0053329617;0.017825292;-0.026642092;-0.08549199;-0.013567045;-0.004190242;-0.005137319;-0.043273464;1.6290061;-0.044842266;-0.07278263;-0.07573696;-0.037775718;0.03549536;-0.010902356;-0.04510065;0.0032327317;0.41264027;-1.097529;-0.055228427;-0.12013598;0.02589052;0.013787705;-0.26771358;0.055048678;-0.0010758955;-1.8762817;-1.012924
-0.006918023;1.0980921;-1.5542349;0.03916574;0.10316749;-0.0967511;-0.3866657;0.09148631;-0.018333176;0.3532483;0.08861295;-0.04275602;-0.11056927;0.07006224;0.058950335;0.036305588;-0.7101375;-0.32188997;-0.34635678;-0.22909756;0.25329065;0.55375767;-0.031592283;-0.023591038;1.2658777;0.15607174;0.037724335;-0.40147874;-0.0071633165;0.21534562;-0.031180851;1.858797;-0.026702559;0.6499105;-1.065177;0.47863603;0.11775109;0.09155183;-0.006060095;-0.10656908;-0.02493897;0.03621518;-2.1584334;-0.094917245;0.0071721347;-0.07791675;0.027684735;-0.071594276;-0.026347743;0.982308;-0.11959439;0.11152643;-0.031079017;-0.83460003;-0.05615441;-0.40091473;1.2796493;-0.030090816;0.05785329;0.08435266;1.1908251;-0.09025498;-1.1127181;0.37115046;-0.119069174;-0.06890668;0.011789108;0.017704997;0.7063782;0.096112095;0.03815901;-0.05793742;0.6346992;-0.085823074;-0.5540354;0.07357465;-0.027685625;0.049047694;-0.58899647;1.738434;0.606089;-0.027699374;1.1731992;0.045946095;-0.6225141;0.00035955882;0.057781175;0.3078625;-0.031100383;0.015212258;0.015977329;-0.010199207;0.033472292;-0.18483624;-0.06468904;-0.04292212;-1.1370202;0.022396263;0.07964845;0.055076227;-0.0023735068;-0.021758964;0.18707503;0.02411549;-0.086728804;0.03294932;0.046207238;0.08425384;0.08035627;-0.039771315;-0.08589809;-0.05950968;0.02835472;0.032683127;0.01175262;-0.009004233;0.058351;0.04294465;0.04545278;-0.20642892;-0.050688677;0.011683927;-0.056148276;-0.08814255;0.041446343;0.02410539;0.18708;-0.055500045;-0.02322295;0.026538715;0.045652974;0.0862154;-0.0027615346;-0.011287622;0.034021486;-0.0554227;-0.09713167;0.5014683;-0.043573808;-0.4909272;-0.0045714634;-0.49689752;-0.02996076;0.06638582;-0.0037260149;0.04362779;-0.5752085;-0.3141764;0.9692133;0.094862916;0.03226762;-0.03829431;0.10288932;0.13906655;0.07465006;-0.023573756;-0.133884;0.1550327;-0.033806134;0.60119903;0.58027107;-0.058700114;0.19919391;-0.2953991;-0.29785675;-0.06659993;0.032467104;0.045858085;-0.015652118;-0.00855451;-2.9767466;1.3992976;-0.016815184;1.6702069;-0.01508631;0.031650994;1.0757463;-0.8646634;-0.35324654;0.06834256;0.07182691;-0.24944629;-0.2869455;0.38475135;-0.042866837;-0.030728895;-0.13328053;-0.06685332;0.057638634;-0.08160503;0.89262277;0.059385523;0.06606151;-0.14652418;0.8201884;0.6616788;0.038784795;0.06847117;0.07660834;-0.3902444;0.038133703;0.023414481;-0.08658717;-0.10281444;-0.026334038;0.15103175;0.12612921;-0.52228516;-0.4310725;-0.084873505;1.0956445;0.03260163;0.06598804;-0.04051465;0.0876692;0.3845539;0.011806279;-1.2914587;-0.5942657;0.03372293;-0.055525273;-0.06707619;-0.036406167;0.052310828;0.059258904;0.032536484;-0.034299575;-0.27263334;-0.022162149;0.05514308;-0.0511507;-3.1851158;0.30247724;-0.0733864;-0.04113705;1.8019109;0.08141076;-0.36836454;-0.99963576;-0.023784451;0.06537622;0.04639357;-0.0660422;1.3265058;-0.054437723;0.3020935;0.017585047;0.24635185;0.79829204;-0.0821855;0.0077284095;0.068469726;-0.0829189;0.20698288;-0.043436524;0.03167972;-0.06880116;-0.025821356;0.4553457;0.058641218;-0.118567534;-0.038913243;-0.035715457;0.23737365;-0.07828859;0.10427439;-0.1116658;0.054926526;0.75968516;0.09682168;-0.03351197;0.20039514;-0.08704882;-0.051386185;-0.23991449;0.10942954;0.003150025;0.044661846;0.02976501;0.9186375;0.12368499;0.12109163;-0.07262098;-0.06740987;0.14616926;0.021825725;0.055991396;-0.048109297;-0.3633355;0.053987317;-2.084793;-0.06633695;0.1608105;-0.038802806;1.0064583;-0.86557525;-0.024435176;-0.51636;-0.0027006906;-0.08416318;0.023749437;0.01327561;0.056058086;0.5963667;-0.057277236;0.41792414;-0.010859257;-0.17077485;1.1929595;0.085433535;0.08068108;0.004748798;-0.047709182;0.061301917;3.0550933;-0.56422925;-0.020091768;-1.5545963;-0.03166623;0.0077829766;-0.04177777;0.9651521;0.02894744;0.07066922;-0.16963252;0.18121551;-0.07196479;-0.03780772;0.10288952;-0.24657005;-0.37355927;-0.043414894;0.007414125;-0.039476946;0.64386135;1.2655574;-0.36277524;0.045123782;-0.0913795;0.16364595;0.5960749;-0.060440984;0.019051267;0.3579297;-0.27794167;-0.052441724;-0.029159954;0.0101499185;0.100251004;-1.1607791;-0.981422;-1.6404567;-0.06279668;0.19071968;-0.09717691;0.28905246;-0.445865;-0.0074563087;-0.15962468;0.021531854;-0.07330651;-0.07183586;-0.6484755;0.04520928;0.08426877;-0.16843818;-0.023698036;-0.4720181;0.17278907;0.10898334;0.03266774;0.24266402;0.014294393;-0.008847995;-0.82399255;-0.05637203;-0.015990036;0.37293133;0.040455185;0.05006224;-0.030778551;-0.060448874;-0.04579478;-0.31307337;1.2963363;-0.09895827;-0.4076433;-0.48895195;0.01331245;0.000156578;-0.059828013;0.49275634;0.7112325;0.9154973;-0.009607533;-0.04041063;-0.116165236;0.05974628;-0.69309855;-0.036234137;-0.02558511;0.01801592;0.026397076;-0.11117225;-0.024634583;0.1688848;0.025850164;0.005489581;0.045556184;0.039829478;0.029680947;0.06346749;-0.07313336;-0.01255879;0.24467734;-0.55797124;-0.055485945;0.09120375;-0.06812623;-0.061267294;0.35962802;1.0153062;0.02719418;-0.013485641;0.041494504;0.06848384;0.010987604;0.0019834095;-1.190373;-0.011209088;-0.037385147;-0.04371618;-0.06432619;1.2956544;-0.4659785;0.43216416;-0.084579915;0.13670656;-0.037767585;1.965186;0.017802315;0.07564329;0.035445802;1.3830448;0.1780123;-0.03850827;0.7213985;0.03866505;0.24130927;-1.781218;0.09035784;-0.007916604;1.09461;-0.06933135;-0.059564587;0.05479138;-0.08354147;-0.055360403;0.0023791792;0.010799635;-0.014339121;0.12751123;0.20273334;0.08069208;0.02127448;-0.06693307;0.037920993;0.90336806;0.1078303;-0.013502938;-0.013624102;0.04594434;0.2936;0.05149974;-0.44838536;-1.380025;0.05472548;-0.086218394;0.043110266;0.060243938;-0.111464106;0.03500195;0.064797156;0.08443254;-0.8534057;0.113093205;0.12882534;-0.25011197;0.16059004;-0.11244723;-0.02562481;-1.2202806;1.0641481;0.5114079;0.08699269;0.8188684;-0.0703676;-0.047031943;0.2977316;0.33350885;0.048496578;-0.059309456;-0.037983;-0.01639678;-0.1254207;0.04458744;0.049290285;0.06511889;-0.03119891;-0.069078825;-0.09722795;0.057115685;-0.12459947;0.57975787;0.10815348;0.4344413;-0.098751806;0.04052918;-0.6953791;0.065601766;-0.06138831;0.03027328;0.06671953;-0.058201868;-0.09232965;-0.10458121;-0.7287341;-0.0049451184;-0.12245057;0.047552582;0.08785454;0.6655235;0.11008982;0.001882199;-0.03258823;0.0323715;-0.0076891053;-0.05106708;-0.0020377652;-0.05054001;-0.044542704;0.10317129;-0.023178041;-0.58755666;-0.04006201;-0.0050056744;0.0013734058;0.027923647;-0.040632956;-0.027671337;0.045289405;0.031430613;2.0279481;-0.052895784;0.0827672;-0.024827698;1.06774;-0.036737952;0.08817547;0.08999425;0.0150352735;0.05786375;0.095955595;-0.106672496;0.08522295;-0.010304882;0.36662358;-0.070385545;-0.033335187;-0.05195008;-0.085940294;-0.077132136;0.0113930395;0.06606928;-1.2148925;0.036764123
0.4950609;-0.55198103;0.74223846;-0.08604019;0.36127993;-0.40489623;0.808922;-0.095609374;-0.006578785;-0.17774294;-0.065173104;-0.15244041;-0.5066228;-0.0069116177;0.11159253;0.04472259;0.041369215;-0.4691699;-0.19451495;0.15797819;-0.118688725;0.15512267;-0.07680169;-0.05300232;1.3233352;-0.16290958;-0.29253656;0.11428629;0.28445128;0.100978166;-0.14910398;1.2580507;-0.047396965;-0.60179543;0.78811765;-0.26831537;-0.9396606;-0.122096136;0.006935199;0.048932232;-0.20157999;-0.04250446;-1.4742457;1.271119;0.0416509;-0.0703847;0.12269255;0.11346937;-0.09498697;-0.04012946;0.0027697582;-0.40183294;0.17934732;-0.9329879;0.052373435;-0.54925066;1.3648106;-0.009163355;0.0965484;-0.80529165;0.1273546;0.052606817;-0.43681782;0.15224487;0.38412583;0.20644458;0.0011986376;-0.07636322;-0.4914224;0.080220334;-0.023833722;0.15936397;0.12915654;-0.44226116;-0.29167336;0.20008937;0.2771705;-0.052300703;0.12421962;-0.69707566;0.7905368;-0.061129563;-0.43158293;0.048072193;-0.5921932;0.07317264;-0.03020815;0.21318085;-0.40565583;-0.21925971;0.10719623;0.18523146;0.003930242;0.23984225;0.06590874;0.05975656;-0.46173483;-0.26428893;0.029856956;-0.17596012;-0.45865068;-0.36186558;0.26899797;-0.12630914;0.08119849;0.01454838;0.2581612;-0.10584464;-0.5771378;-0.1786197;0.012927244;0.037599485;-0.015931789;-0.670928;-0.11817174;-0.076160796;0.16602768;0.17211181;-0.04262427;-0.67736006;-0.16343592;-0.10807165;-0.021463046;0.09853094;-0.15961702;-0.25203085;0.006240427;-0.015550245;-0.092857204;-0.5939612;-0.2571557;0.24782372;0.019674402;0.10592837;-0.0043847114;0.051562905;-0.7750677;0.2651972;-0.0100737065;0.422053;0.008727512;0.07267739;1.587671;0.0424587;-0.10204188;-0.18367368;-0.36376327;-0.48999366;0.168302;0.018115688;-0.06269768;0.21685159;-0.14365563;-0.46905842;0.0075502545;0.04156498;0.046647828;-0.7678597;-0.15487523;0.30746248;-0.35818052;-0.048155017;-0.47093573;0.37510538;-0.2549497;-0.15947568;-0.16336365;0.22604564;0.05443801;0.10082586;-0.39680538;0.0066755693;-0.0012906637;0.8118503;-0.00702553;-0.16262417;1.1366969;-0.25084674;0.17438847;-0.22739182;0.4909548;0.19588716;-0.77740866;-0.94526666;0.051500697;-0.09460864;-0.49158147;-0.04361925;0.09954374;0.042470124;0.8100809;-0.03781958;-0.06917981;0.21774495;0.49377826;-0.2026811;-0.08426005;-0.096807845;-0.25667468;-0.49906242;-0.033383485;-0.34058052;-0.011441746;0.2254535;-0.031157983;-0.2417417;0.44536376;0.58594584;-0.2342049;0.21702754;-0.0783124;-0.26251513;0.07394522;0.11118352;0.42169917;0.13600388;-0.3446027;0.82503307;-0.03054263;-0.10604313;0.20409478;-0.023940198;-0.1312782;0.31253088;-0.0003579818;0.033949565;-0.7165154;0.27012238;-0.021184383;0.03348031;0.13909586;-0.62743455;-0.52048975;0.029031267;0.07159251;0.602861;-0.106964156;-0.7312611;-0.38312426;-0.58197194;0.18537349;-0.086648695;-0.10539597;0.38557002;-0.10824;-0.17936994;0.1400443;-0.15629525;-0.62037;-0.043302573;0.16613568;0.25959685;-0.7762078;0.3902499;0.03683861;0.06465544;-0.31445208;0.047503177;0.18782559;-0.011065421;-0.34179872;0.2406477;0.12973243;-0.22124845;-0.55215627;-0.10112272;-0.76410085;0.04935165;-0.080583535;1.0904446;-0.047921125;0.977034;0.04358588;-0.19616021;1.224842;-0.05116825;-0.61841494;-0.10442402;-0.0821442;0.6098609;-0.24736914;-0.24856578;-0.5372884;0.1436779;-0.021670222;0.077184364;-0.057001952;0.14295882;0.96162254;0.052209876;0.32663524;0.11332498;-0.059044532;0.07723564;0.6488126;-0.2646719;-0.0068984786;-0.16350475;0.023303896;0.081900015;-0.15071464;0.11502176;0.043935206;-0.29882067;0.05380294;0.74781024;0.08556911;-0.018848237;-0.551162;-0.17890836;-0.009941872;-0.16102217;0.04836307;-0.10398877;0.44439673;0.13710941;0.13130231;-0.027486252;0.10538625;0.051823962;0.11556432;0.8199683;0.031882398;-0.037428394;0.1454875;-0.09340108;-0.4273787;0.05086896;-0.13835542;-0.00044049742;-1.0636457;0.2341381;-0.52204126;-0.3574137;-0.17007567;1.0003818;-1.9923342;0.013915119;-0.040505435;-0.020748008;0.61958665;0.0002668612;0.08008772;0.0010186045;-0.25778747;0.14647955;-0.04180223;-0.5456872;-0.128481;0.5435905;-0.15326005;-0.24115151;0.24166594;-0.10610991;0.104430415;-0.48028466;0.20317289;0.57192284;0.4140632;0.17043641;0.0014315915;-0.43796694;0.18695864;-0.049450587;-0.109496556;-0.3283803;0.031963628;-0.13543981;-0.057013065;-0.65786606;0.11872235;-0.24948123;0.1341381;0.06583341;-1.3385904;-0.07877679;-0.121114306;0.61047035;-0.13909331;0.11359738;-0.09610582;-0.07901804;-0.05833642;0.1671071;-1.2179756;-0.4324203;-0.04332137;-0.18809642;0.10380293;-0.022265945;-0.009063891;-0.56155026;0.18398468;0.84643936;0.28944173;0.00020362457;0.30394745;-0.08653042;-0.28337875;-0.41656888;0.08731118;-0.040827252;-0.48935714;-0.7503611;-0.2199368;0.066851005;0.061036874;0.18739021;-0.07677424;-0.016416656;-0.15262221;-0.10508455;0.18277302;0.21899198;-1.2472851;-0.059003226;0.08690978;-0.17597957;-0.6611028;0.0734354;0.15786923;0.48014015;0.2789374;-0.14871602;0.100314714;-0.05520948;-0.056676805;0.15121655;-1.3634106;-0.07719911;0.13331215;0.5061081;-0.061820276;1.6962342;-0.055425968;0.18753721;0.1057757;-0.7971474;-0.07024463;1.0534662;0.119497694;0.89789957;-0.39405003;-0.37566647;-0.093302384;-0.07761299;-0.2647877;0.066401035;0.52775335;-0.41078207;-0.16166757;-0.09791035;0.78514326;-0.028699508;0.16972516;0.07351481;-0.03608917;-0.42181125;-0.24986155;-0.04681217;0.1898145;0.6668309;-0.10865325;-0.16228344;-0.081;0.2820323;-0.06364936;0.47599214;0.25571978;-0.072234884;-0.13792606;0.03790603;0.50215507;0.011477842;-0.22688502;-0.26742786;-0.049485337;0.067913435;-0.04751178;-0.08959549;-0.49703428;0.09766354;-0.08433494;-0.033260584;-0.4872903;-0.28885755;0.29761198;0.010052058;-0.4560116;0.09205402;-0.003946417;0.7946712;0.26032767;-0.45125794;-0.22806752;0.10254056;0.24113214;-0.3399395;-0.23491527;-0.05709911;0.04301451;-0.059195165;0.23824261;-0.5356366;-0.030685322;0.06237911;-0.15866156;-0.045133132;0.13157417;0.32051978;0.102717176;-0.52813244;0.18115081;0.09713854;-0.30248952;-0.017973332;-0.12318572;0.2042421;-0.034783337;-0.021580847;0.00859246;-0.044151843;-0.08598596;0.06859992;-0.87243843;0.08298823;-0.2473067;0.038815506;0.2625452;0.009336345;-0.09243357;1.0268657;0.58526736;0.54661065;0.053583287;-0.03496755;-0.12765011;0.08541127;0.010217813;0.06374926;0.47670352;-0.154566;-0.05183005;-0.32167286;0.030781522;0.25408205;-0.012453071;-0.13268808;0.029092897;0.15161717;0.0865707;-0.028802555;-0.20143239;0.15900202;-0.46202514;0.067343235;0.79788476;0.06646358;-0.24743207;-0.14679472;-0.084193565;0.09639791;-0.18315262;-0.66267323;0.16281766;-0.58914775;0.06529518;-0.026141344;0.49622896;0.15013479;0.058136474;0.4060677;-0.10631552;-0.10799135;-0.64594495;0.21539442
-0.64385134;0.98386127;0.6754496;0.17995797;-0.2209823;0.25088835;-0.28066027;-0.011765404;0.010890629;0.46516356;0.0693188;0.27484885;0.43358132;-0.08033639;-0.06779022;-0.064268015;0.14106104;0.1541072;0.40391132;-0.59060246;0.13935584;-0.04450774;0.016291283;0.17902084;-0.95194465;0.017951421;0.06512108;-1.3808936;-0.26115066;0.025750222;0.028653605;-1.74779;-0.112301566;-0.25542927;-0.3708373;0.58484685;0.041683037;0.26339135;-0.1250464;-0.19072096;0.13941088;-0.0057472265;0.25178254;0.10079394;-0.150924;0.039524496;-0.19949004;-0.024380231;0.015264895;0.74972343;-0.1560637;2.1796718;-0.18394752;0.39699173;-0.02242266;-0.08103189;-0.67774475;-0.052202407;-0.029940875;0.80849415;0.41412088;-0.17486823;0.7826111;-0.088352636;-0.67896765;-0.1886944;0.04733718;-0.033366784;0.37768298;-0.05532968;0.044441264;-0.067044504;0.2690286;0.34364235;0.7473931;0.08613196;-0.2516788;0.023453126;-0.6564141;-0.8552118;-0.33706775;0.13819523;2.7432258;-0.08568733;-0.54896456;-0.14758998;-0.01690775;-0.19564812;0.065619245;0.34742197;-0.1885213;-0.27116215;0.0554178;-0.36915633;-0.19658789;-0.06816515;-0.17251192;0.24627954;-0.06714897;0.108485125;0.9512651;0.26467726;-0.13261311;0.106872685;-0.13456403;-0.077050835;-0.23002519;0.041314736;-0.20303524;0.047415428;-0.052898034;-0.013013563;-0.038624905;0.6018508;0.095861875;0.041081876;-0.16814737;-0.42685464;-0.047213387;-0.09464335;0.06535117;0.1842669;0.059725944;-0.15916462;0.1829187;0.4098199;-1.4277192;-0.08148977;0.052593973;0.54619396;0.2454447;-0.1808696;-0.09252121;0.031554125;0.004867835;-0.15092482;-0.5499798;0.73484915;-0.11680082;-0.6214608;-0.13277398;-0.73041636;0.5168124;-0.12303947;-0.0014162337;0.15053798;0.6960613;0.078592904;-0.6815646;-0.016906159;-0.14367475;-0.11171154;0.154431;-0.07910721;-0.0573369;0.012059969;-0.4008346;0.019096533;0.08459842;-0.34517714;0.14112695;-0.042866588;-0.06050043;-0.29696018;0.4113743;0.10850311;0.20342651;-0.31842923;0.090013824;-0.029193604;-0.014904607;-0.07681923;0.046919513;-1.7298961;-0.024088487;0.13426836;-0.7065489;-2.086364;-0.43883553;0.24209577;-0.64412;-0.22196764;0.29102197;-0.18623058;-0.09228325;0.15247944;0.8896287;0.15185645;0.020231416;0.05286352;-0.44214278;-0.051654465;0.07707541;-0.14174318;0.25177082;0.30652422;0.01795822;0.24697512;0.24279201;0.4239954;-0.102191664;0.24251954;-0.028495856;-0.17097764;-0.041018214;0.191586;-0.26900473;-1.1125325;0.43264586;-0.22940728;-0.6856296;0.31942698;-0.30079556;-0.23145261;-0.21034814;0.037466574;0.38713682;-0.80652833;0.23249851;0.05631198;-0.3249186;0.07029486;0.20408918;-0.328097;0.0635583;0.01809927;0.6490393;1.6219823;0.07865396;-0.17078726;-0.20403133;-0.3599667;-0.27003396;-0.06813771;-0.091200285;1.1136394;0.10106812;0.13477392;1.3542495;0.36683288;-0.36236838;0.14200659;0.049373664;-0.8242486;0.0375926;0.49123362;-0.16059913;0.15825589;0.30572873;-0.04152923;-0.15418127;-0.14395157;0.5531493;1.004631;-0.15742593;-0.1416263;0.32400432;-0.0136725865;-0.3120461;0.004924458;0.23414713;-0.21943325;-0.1257092;0.042420622;0.47440788;0.16718017;0.6919934;-0.04214313;-1.6874237;-0.75733656;-0.11227778;0.5428163;-0.103861056;0.1567337;-1.221782;0.32541436;0.29090995;0.23855014;0.08250924;1.1147954;0.25086883;0.12221631;0.43816876;-0.23490874;0.23786399;0.01360493;0.10778223;-0.17954898;-1.1841903;0.13254926;-1.1586953;-0.19927892;0.6077766;-0.14724442;-0.69409406;0.91814846;0.036102362;-0.6372949;-0.08486473;1.1241287;0.04716189;-0.11712845;-0.098569006;0.32571056;0.0147826085;0.9832954;-0.020040672;-0.14709257;0.4204388;0.18158412;-0.022927012;0.38119742;-0.06928539;0.039489366;-0.62562174;-0.8057012;-0.330165;0.5708884;-0.081741676;-0.058360588;-0.08797516;-0.81192267;0.011585528;-0.015229333;0.3557514;-1.26586;0.2899812;-0.10754735;0.038626444;0.2707461;0.73004746;-0.48615935;0.35022712;0.3146185;-0.11633367;-1.0839348;-0.333541;-0.06669929;0.07188527;0.35638747;-0.6894783;-0.16277525;-0.14479546;0.7587904;0.5529509;-0.24046385;-0.037099827;0.38936844;0.26696613;-1.17678;-1.6035893;-0.19010991;-0.45385146;0.1538246;4.613399e-05;0.30237848;-0.65971434;-0.39703825;0.6195032;-0.15925664;-0.030211434;0.42344713;-0.85959285;0.10796926;0.13769905;0.13678268;-0.019746868;-0.2770935;0.2895622;-0.1856713;-0.031577107;0.22866656;-0.35377756;0.021430409;0.2387751;0.055231813;-0.010293324;0.19596584;0.22622052;-0.09675691;0.15630187;0.006986309;0.053614795;-0.63419825;-0.84292346;0.33902648;-0.23644692;-0.34956864;-0.13986474;0.13843517;-0.11049853;0.7028011;0.2571954;-1.189475;0.49821332;-0.053135585;-1.0663574;0.25316468;0.06666122;0.37823826;-0.07189595;0.078542545;0.37467682;0.68808967;0.2031736;0.27707723;-0.08417358;-0.20842844;0.054711517;-0.090978175;0.13604297;0.05240288;-0.15523359;-0.24238795;-0.5314815;-0.7739157;-0.0077048573;0.078025535;0.55988985;-0.056717105;0.33600268;-1.0473213;-0.1652931;0.14201456;-0.2291178;0.13661204;0.04282156;-0.16156757;0.03298999;0.16024685;-0.085904896;-0.54322076;0.10078654;-0.7439674;0.9179502;-0.28025252;-0.1596074;-0.29905573;-0.009923622;-0.07163061;-0.116956726;0.96025586;0.39544013;-0.18293875;-1.7804873;0.036224037;0.8792708;-0.025711335;-0.14620262;0.18401757;0.16935655;0.1147398;-0.6675819;0.12815364;-0.69405264;0.0052722967;-0.080728896;0.2372445;0.12695573;0.01074841;-0.18403946;-0.28491783;0.3096966;0.11952125;0.046835463;-0.36581025;-0.011827316;-0.130012;-0.73221344;0.04536091;0.19018045;-0.08386405;-0.00579676;-0.0597203;-0.028985582;-0.73927915;0.08448713;-0.07456878;0.08239327;0.23290612;0.32128236;-0.0855296;0.08613939;0.070599854;-0.6949768;0.18611105;-0.28520438;-0.2055081;0.22384442;-0.13447666;-0.05895427;-0.9694012;-0.19768046;0.4214484;0.33745602;-1.4713336;-0.21548924;0.24742955;-1.8680373;0.61361504;-0.0513529;0.038864978;-0.1696798;0.42626283;0.6692418;-0.09045441;0.07799561;0.10531549;-0.22456576;-0.7254336;-0.09871418;0.11734671;-0.2046806;-0.63685256;0.18404126;-0.23894346;0.4011338;-0.29867724;-1.0966393;-0.065386295;-0.0087586045;-0.036465105;0.09818938;-0.101798095;-2.053008;-0.086857535;-0.3773746;0.075891756;-0.5692567;0.08374096;0.07885648;-0.093244284;-0.42254248;-0.17999499;-0.04020533;-0.010757475;0.15265328;-0.012251831;-0.032590456;0.06111176;-0.80272406;0.07078937;0.0018960247;-0.31046933;0.05686637;-0.2978254;0.11000445;0.14520964;0.013968803;-0.0807858;0.021872412;0.08064732;-0.87472206;-0.1542466;-0.05851643;-0.09620475;-0.6594935;-0.07373324;0.20546807;0.23817927;0.050970275;-0.11510816;0.12335585;0.48488167;-0.19715983;-1.1675122;-0.7500703;-0.02364476;-0.44898787;-0.0689458;-0.05576315;-0.6124116;0.21100074;0.091587625;-1.0837417;0.36785322
-0.08876453;0.50652725;-0.064012885;-0.20743911;-0.056761425;-0.09806775;-0.764049;-0.13518281;0.14030455;-0.06267776;-0.14182635;-0.11502209;0.052811224;0.051511683;0.10205307;0.013222169;0.06457904;0.91475314;0.14000936;0.6340125;-0.80440193;-0.55356705;-0.060330078;-0.15835801;-0.6979688;-1.0777069;-0.0752025;-1.5837474;0.030673126;-0.007783097;-0.21110533;0.2594159;0.1920335;-0.24184433;-0.39549708;-0.84602624;-0.2105874;-0.18298742;0.2085354;0.14473236;-0.06441937;0.09151795;0.0014342376;0.38586426;-0.011946884;0.05314688;0.022515086;0.058161624;-0.06057828;-0.07639971;0.07073776;0.07666624;0.22781777;0.098188944;0.07436918;-0.13066934;0.24969505;0.0081501575;0.08569361;0.1569568;0.23135729;0.11161821;0.69372857;-0.1206081;-0.045984033;0.15541553;-0.007043276;-0.09642444;-0.16734621;0.121117935;-0.13295278;0.17461737;0.45072007;-0.02897262;0.47256914;-0.9819078;0.013350798;-0.13403279;-0.13951594;-0.54018384;0.15401115;-0.1448461;0.46380952;0.053705197;0.32407784;-0.073915705;0.14583904;-0.3930092;-0.2757431;0.09688488;0.1442792;0.16127923;0.03295785;-0.2473884;0.13228251;0.11885298;0.0051498865;-0.1070803;-0.04297525;-0.07114915;-0.23887254;-0.106159516;0.18018395;-0.07505267;0.23208787;-0.009863675;-0.035378426;-0.026420148;-0.42038575;-0.23342;0.0015610006;0.013187757;0.1558544;-0.10484226;-0.1337788;-0.13157016;0.024772946;-0.12909515;0.03388427;-0.21973033;-0.22338188;-0.051762324;0.016726501;0.10841987;-0.14348754;0.0419001;-0.19113606;0.1911173;-0.11324926;-0.098389246;-0.10832635;0.2359159;0.10719314;0.17295036;-0.011101927;0.09437485;0.03760496;0.43736643;0.022558402;-0.5531954;0.053616203;-0.22733006;-0.5594062;0.12315992;-0.016207715;-0.14778109;0.6601362;0.0021245873;-0.72671616;-0.20210662;0.07789101;0.04217525;-0.12250381;-0.291767;0.036809564;-0.056702815;-0.18850674;0.029326007;-0.15842608;-0.031760667;-0.10958896;-0.068201296;-0.14436205;0.050403878;-0.33852276;-0.23696287;-0.10773539;-0.14390671;-0.07950158;-0.044687115;-0.31697163;-0.43230507;0.06253907;-0.11057659;0.1524623;-0.21758834;-0.6840311;0.13519791;-0.14601634;-0.108114265;-0.0050542597;0.18326269;0.116896376;-0.10097015;0.07845175;-0.16676429;0.18894161;-0.16941734;-0.008969536;-0.100284286;-0.7249439;0.15763736;-0.14993125;0.16158488;0.004169325;-0.059248656;0.014094481;-0.18668433;-0.060175434;0.10697007;0.058095496;-0.1593066;0.15512024;0.14259326;0.09125969;-0.06683407;0.11935705;-0.1560062;-0.28491893;0.13394201;-0.30703306;-0.035797488;-0.054315384;0.08972293;0.11924138;-0.43780604;-0.1280829;-1.1022878;-0.11916839;-0.17922927;0.07598878;-0.14109184;-0.18092486;0.07145871;-0.15466599;-0.05878555;-0.07547489;0.73909485;-0.11660138;0.020746388;0.10718471;-0.1896721;-0.3184862;0.027438782;0.18792781;-0.21108498;-0.08615437;0.009261084;0.07516278;0.36004037;-0.08069656;-0.030192506;-0.13869713;-0.76581216;-0.055755462;-0.15291438;0.1669702;-0.28103307;-0.12072167;0.07456892;0.04585197;0.13163699;-0.02574659;-0.2703873;0.08812544;0.18947029;-0.15078875;0.08309189;0.03745149;0.08671805;-0.022869106;0.10791601;0.12586348;-0.2184975;-0.06147544;-0.042210214;-0.077187516;0.14102969;0.010431785;0.41113716;0.101874426;-0.049664248;-0.02508661;-0.20971559;-0.07151423;-0.016863516;-0.046839844;-0.18987481;-0.059808183;0.8398793;-0.09561196;-0.15103841;-0.060802184;0.121280365;-0.2056201;0.08852613;-0.123577654;0.14487581;-0.0221962;-0.12347703;-0.26850376;-0.028038234;-0.13582698;0.07098176;-0.3450937;-0.12626216;-0.16447121;0.27486658;-0.1466811;-0.2918613;-0.1139888;0.009110935;0.107078046;-0.30184078;-0.042444;0.36756778;0.020314537;-0.042385496;0.83368355;-0.1431279;0.13639039;0.033912953;0.18366309;-0.16158956;0.006502221;-0.3561765;-0.03888083;0.14048691;0.20647545;0.008772766;0.13273199;-0.257954;-0.010828279;0.029812736;-0.072498225;-0.47378522;-0.16344796;0.0695867;-0.22257636;-0.05123912;0.5674978;-0.22353879;-0.02661346;-0.027151335;-0.37587762;-0.19022354;-0.5718645;0.0012601129;-0.118936926;-0.032701865;-0.033404313;0.048735183;0.11313151;-0.08883197;-0.11436451;0.097903505;0.10590823;0.011492641;-0.16386545;-0.051870912;-0.1059758;0.55054253;-0.07838283;-0.13387297;0.16773207;-0.26569548;-0.2610071;-0.052392095;-0.40826666;0.10555708;0.054542903;-0.06596489;-0.45443037;-0.011176084;-0.09072139;-0.19408289;-0.01782399;-0.0944734;-0.14662443;-0.3555155;0.07225508;0.25681278;-0.09143002;0.12696221;-0.246987;0.03963122;-0.09007555;-0.4181461;-0.1981205;-0.106368706;-0.07931908;-0.06369676;-0.017750125;0.010727798;-0.069827795;-0.06454248;-0.41529685;-0.23059006;0.042763766;-0.110526666;0.19227642;-0.26002046;0.28389722;-0.7863013;0.33311182;0.16069533;-0.31064436;-0.23454799;0.35285068;-0.061722837;0.18867703;-0.16194202;-0.068186834;-0.026518794;-0.16899557;0.22826606;0.12433853;0.13065909;-0.074845314;0.07504982;-0.24346809;-0.21782432;0.04005991;0.032567468;0.082627594;-0.21840793;0.0751128;-0.20192076;0.02697733;0.049125038;-0.019557172;-0.8601475;0.107645884;-0.09718846;0.07383324;-0.15861501;-0.111467056;-0.08854304;0.6062707;-0.21591172;0.059016317;-0.060569935;-0.21191171;-0.6572548;-0.5509994;0.046195712;0.09172035;-0.5817489;-0.048926923;-0.9315285;0.1455337;-0.01374325;-0.07835132;-0.58513826;-0.94130254;-0.13039495;0.92491996;0.019563934;0.22190545;0.28213784;-0.04053286;-0.09466124;0.1688298;-0.1557329;-0.06360033;0.08806877;-0.057586294;-0.074133925;-0.25466356;-0.17619768;-0.08195591;-0.30846563;-0.01619695;-0.24003205;-0.16608812;0.26602834;0.06106307;-0.8753307;-0.39331445;-0.018152097;-0.2424838;-0.021304471;0.8802594;0.11119029;-0.07385646;-1.1306691;-0.22065663;0.004535886;-0.20773707;-0.04589765;-0.13647471;0.105488874;-0.07364104;-0.084782615;-0.65092516;-0.1729179;0.1005033;0.06542831;-0.1668101;0.15829735;0.1657977;-0.2378543;0.41122037;0.60358477;-0.057306815;-1.1457528;0.17420146;-0.17277148;-0.108318664;0.2463531;-0.0121083325;0.11970944;-0.020466043;-0.10656061;-0.36611068;0.1615404;-0.20901327;-0.15287633;0.10952394;-0.1147691;0.09519392;-0.19862376;0.10334493;-0.19741024;-0.15812571;0.09355417;0.11506015;-0.039355107;-0.42578697;0.044191968;-0.16593853;0.037259605;-0.22571102;0.15725447;0.9432227;0.16457471;0.0028230213;0.11962365;-0.18530269;-0.0788416;-0.1468483;0.34404024;-0.026555864;0.008389771;-0.06792243;-0.11498525;-0.22908568;-0.053384952;-0.0061522075;0.03844528;-0.4631928;-0.07732559;-0.11565485;0.44287977;0.016143778;-0.031130733;-0.038990643;-0.11595399;0.07899424;0.116100565;0.05021733;-0.14813963;0.2212951;0.16505335;-0.15146601;-0.022018306;-0.5607182;0.06684038;-0.057954557;-0.056639586;-0.22608119;0.025885269;-0.15637259;-0.09383993;0.110834114;-0.0034530489;-0.3407181;-0.14590712;-0.11766295;0.12604266;0.07941549;-0.09192086;-0.11988194;-0.118226774;0.32082468;-0.25683892
-0.14148255;1.6581267;-1.7985686;0.038268615;-0.11332951;0.19809595;0.25406376;0.057287067;-0.022170102;-0.03717686;0.0674056;0.20686549;-0.0003992772;0.0020647703;-0.0074334173;-0.09253272;-0.1375118;2.2914534;0.014646447;0.6468142;-0.06520001;-0.6365303;0.07267268;0.11164613;-0.2994679;-1.1154625;-0.10352791;-2.7780223;-0.24499953;-0.13328263;0.120140165;-0.720064;-0.06517614;0.90682924;-0.45565048;-0.7912726;0.6509902;0.078703634;0.003776546;-0.16862568;0.06757552;-0.065264486;-0.36935303;-0.4486999;0.050274856;-0.036444977;0.004453943;-0.108114816;0.06665906;1.5716591;-0.096322715;-1.2566489;-0.14295837;-0.025928928;-0.044711467;0.557325;0.366123;-0.039979365;-0.097785085;0.25659084;-0.0938312;-0.1631279;0.30071622;-0.1757611;-0.20637242;-0.06080994;-0.03538359;0.059642736;-0.37539256;-0.021300802;0.09027374;-0.07673141;1.6370528;0.22331853;0.93865705;0.24171893;-0.012372926;-0.013673032;-0.55759096;-0.4829161;-0.59849864;-0.0073138606;0.85323596;-0.05854912;0.95782584;-0.0859846;0.024552196;-0.08718141;0.061333004;0.09030228;-0.1204036;-0.09743897;-0.016326396;-0.089991555;0.008846698;-0.1151311;0.4930126;0.08348428;-0.00095936796;0.031828586;0.53084445;0.2079848;0.20596229;0.04243763;-0.123401746;0.016431605;-0.21184158;-0.04005821;-2.8907623;0.0034452276;-0.046081018;-0.09040802;-0.029266676;-0.073688;0.0030664962;0.10303801;-0.1275086;-0.1946226;0.011445634;0.069229946;0.12729827;0.09622238;0.033543944;0.03178978;0.13733597;0.79503024;-0.07480515;-0.13020356;0.08616048;-1.3351568;0.17950599;0.14495482;-0.013739958;-0.01770798;-0.059870757;-0.1206773;-0.27546138;1.0361403;-0.026200503;-0.6596423;-0.12768453;-0.33467883;-0.11937488;-0.033853896;-0.027157465;0.029314252;0.17104732;0.09663947;-0.14909053;0.006634923;-0.05853192;-0.0436799;0.14456521;0.88089997;0.051825583;0.017574789;-0.13556233;1.5212924;0.035621047;0.05930215;0.06263508;-0.09267064;0.37085286;-0.810224;-0.6760971;0.16007195;0.06752466;-0.10179585;-0.047024667;0.02297896;-0.6307233;0.29162255;0.028206607;0.37901473;0.015422581;0.25648886;-1.5300701;-0.5359573;-0.11256682;0.092233196;-0.15585876;0.11810721;0.13791533;0.9550003;-0.1427576;0.056197405;0.812243;0.085244425;0.060409095;0.06901726;-0.28716573;0.016306669;0.11794052;-0.22885342;-0.53644603;0.16247296;0.08375595;0.053635176;0.15258406;-0.09810856;-0.06753842;0.22486019;-0.07472587;-0.15956704;-0.09683046;0.042776797;-0.17122051;-0.1963698;-0.44507873;-0.07300369;-0.2060808;0.16036913;-0.071056016;-0.13421293;-0.16108252;-0.050567687;0.24716035;-1.817547;-0.34841326;0.02028313;-0.18644056;0.0068834177;0.14312123;-0.25723615;0.0016914903;-0.007037689;-0.120343775;-0.11713465;0.006797345;-0.052764084;-0.08662078;-0.39215925;0.818159;-0.069084555;-0.12382732;1.1339464;-0.00048342152;0.36069265;-0.13361582;1.2817329;0.09184521;0.011401244;-0.03879439;-0.7407536;0.12244532;-0.20332891;-0.07637383;0.08602487;0.104655705;0.015204328;-0.17823257;-0.13309537;-0.15157172;0.12042122;-0.11831022;-0.0030729566;0.18256451;-0.030042728;-0.11010038;-0.066198215;-0.7551353;-0.1250177;-0.05121778;0.034911714;0.119215086;0.10936832;-0.066954166;-0.09916554;0.30587685;0.43401515;0.005230698;-0.7449251;-0.10914818;0.17071368;0.15182132;0.24302204;0.09145216;0.11296578;0.07048908;0.6989058;0.035690296;0.08891654;0.14764471;-0.12675507;-0.055461433;-0.022874875;0.05463216;-0.11630659;0.9615518;-0.027423346;-0.4940267;-0.0329168;-0.28668872;0.007975164;1.0986736;1.5763255;-0.008169846;0.33791634;-0.076371185;0.36988473;0.081424505;-0.052859563;-0.08307446;-0.5659792;0.055628628;0.012931799;0.06914822;-0.029694203;2.473481;0.16238615;-0.09296762;0.15767914;-0.057670053;-0.0059307264;-0.16648532;-0.535591;-0.1322135;-0.33486155;-0.11027931;-0.036804397;0.0322261;-0.7202628;-0.006400498;-0.006750179;-0.13294034;0.89725405;0.24570777;-0.0070801526;0.019182459;0.06607634;0.3893797;-0.08287063;0.15888403;0.10076557;0.30462053;0.5552815;-1.642147;-0.028733576;0.10246947;-0.045578964;-0.18013576;-0.082251005;-0.12625916;-0.1424778;-0.23618351;-0.119639635;-0.08341649;0.16984291;0.13147067;-1.471452;-1.2749022;0.32171384;-0.16216253;0.19783062;-0.01035533;0.027272452;-0.24043345;-0.033588845;0.7445337;-0.17299992;-0.06519542;0.15101063;-0.87155366;0.017151598;0.15129347;0.24938948;-0.008968987;-0.010577;0.115889065;0.8767826;0.014604545;-0.18072943;-0.09177767;-0.056852784;0.82292867;0.0014299025;-0.0060307817;0.4162426;0.09038861;-0.05492025;-0.00972133;-0.10181967;0.021022853;-0.007882867;2.0957105;0.21653289;-0.046049055;-0.015840402;0.034420274;0.028633885;-0.0940018;-0.5795113;1.4743127;0.14512946;0.040786177;-0.027773323;-0.084456876;0.14281487;0.03483897;0.20329195;0.0074888887;-0.006027892;0.14092134;-0.07153395;0.17405538;0.77136827;0.03345827;-0.19686504;-0.06176886;-0.076238886;0.023261948;0.07656668;-0.07390802;-0.04408608;3.0545084;-0.38911802;0.020625306;0.030594015;-0.10322354;-0.09668686;0.14064696;-1.5607183;-0.13303742;0.060682017;-0.11427145;-0.020080682;0.033257585;-0.0069451937;0.59011585;0.009863301;-0.024111116;-0.15534385;0.083671264;-0.5888504;-0.055068117;-0.19328545;-0.0823481;0.9344994;0.04848419;-1.4110892;-0.15658203;0.59869033;0.1271704;0.1702875;1.2346388;-0.032968987;0.21955237;-0.028465327;-0.05975016;-0.21229546;0.09445995;0.02782287;0.5823039;0.044734553;-0.17562771;-0.014330621;-0.008932876;0.15634407;0.054957554;0.05113373;-0.15748529;-0.48923528;0.12932846;0.06573468;-0.01696749;-0.09721678;0.030566668;-0.7407053;0.073418714;-0.088456176;0.07072068;0.041934833;2.560012;-0.0830439;0.5110634;-0.40703896;0.053577445;-0.052503727;0.018122716;0.08000465;0.21438232;-0.16235702;-0.017091079;-0.0071064043;1.0630453;0.12119343;-0.19363001;-0.021009477;0.61523163;-0.074900515;-0.042217474;-0.64295936;0.2822163;2.2825603;0.15115958;1.1492052;-0.21498358;0.082771786;0.42113113;-0.32964325;0.015563797;-0.003085149;0.0028079639;0.17723182;-0.29351234;-0.05215112;0.15940335;0.0014446545;-0.039420236;-0.0980155;-0.09804134;0.7517539;-0.10604294;1.395384;0.062644914;-0.18066809;-0.01778905;-0.0901567;-1.8063309;-0.0809643;-0.014518797;-0.004460882;-0.011642625;0.02308023;2.49627;-0.068191424;-0.32891876;0.14466293;-0.21532299;0.11263046;0.067850865;0.15637721;-0.09466193;0.19579704;-0.04480027;0.017778812;0.14555204;-0.10551327;-0.089010686;-0.08424477;-0.5361643;0.09787352;0.030510822;-0.0055084983;0.012129799;-0.06597578;0.0070812963;0.08617979;-0.053949825;-0.11483345;-0.011064142;0.060101192;-0.5199263;-0.09398367;0.24807677;0.029441757;-0.8401063;-0.09708152;0.10695867;0.06777888;0.04093893;0.511958;0.053711064;-0.0038868997;-0.03277084;0.60343283;-0.7659166;0.01850487;0.21355024;-0.11329314;-0.0912608;-0.10877558;0.26353937;0.062500216;0.6626583;-1.2627082
0.23074813;0.6766043;-2.7114396;0.0716168;-0.07045017;0.028749093;0.48878556;0.0851582;-0.09212668;-0.19949119;0.07542416;0.13945098;0.043132115;0.023541316;0.0049530654;-0.033038568;-0.5678877;0.9497304;-0.061885558;0.09865427;-0.095708646;-0.6673203;0.043563858;0.09818534;-0.14901894;-0.5103822;-0.07238932;-0.3179375;-0.21730155;-0.115299575;0.06747237;-0.53214353;0.043289233;-0.6262313;0.3020976;-0.78695846;0.079496264;0.0070297285;-0.13586883;-0.103633575;-0.018622711;-0.10573989;0.5273047;-1.4718999;-0.06353489;-0.055724602;-0.08943583;-0.0034184416;0.14513367;0.044976685;-0.028017541;-0.54540414;-0.03523875;-0.18202978;-0.020797404;0.18114433;-0.07276789;-0.058752056;0.0033133544;-0.8832416;-1.3944275;-0.13426825;-0.102782585;-0.10085016;-0.19709574;-0.1375399;-0.05273725;0.047257427;-0.11585607;0.012704209;0.0414697;0.03663203;1.4853274;-0.005261916;0.19601665;1.2531521;-0.118376;0.01927509;-0.21934949;-0.67663705;-0.5112498;0.12626739;0.10285773;-0.007654516;0.26069975;-0.03093799;0.05651849;-0.022208424;-0.01834484;-0.0514095;-0.10039687;-0.07780946;-0.0044792052;-0.18358003;-0.120114595;-0.025227882;-0.6945787;0.0014676407;-0.05249284;0.11723215;-0.32011476;0.015878092;0.13626216;0.08173306;-0.02324464;0.023418961;-0.15280658;0.021451239;-0.21791396;0.038354807;-0.062337596;-0.07752972;0.012948181;-0.23793557;-0.044748478;-0.019696565;-0.09912187;-0.09220714;0.008655102;0.09037191;0.04864014;-0.029429613;0.02510446;-0.0014015707;0.10600814;0.23735014;-0.80295175;-0.050593343;0.04309678;-0.113783665;0.09599594;0.39640543;-0.052775215;-0.00024093366;-0.061846998;-0.008491748;1.2952509;-0.1402225;0.04548259;-0.2161757;-0.0032907592;-0.29658905;0.17363875;-0.04835573;0.011729283;0.07996233;-0.22885072;-0.2912384;-0.1244125;0.056466267;-0.074325085;-0.100817285;0.08743442;0.39188525;-0.07424534;0.040864084;-0.0037712345;0.035729624;0.068399206;-0.8741789;-0.13262457;0.019618314;0.053058945;-0.044231992;0.86884487;0.034220323;0.13819593;-0.08055111;0.00594888;0.059941467;-1.2722696;-0.13824691;-0.04030932;0.05896105;0.013052876;0.10087724;-0.44628647;0.00077262253;-0.04173691;0.02083659;-0.03770767;0.023966458;-0.38336056;-0.15253726;-0.06433344;0.030267654;-1.3684429;0.047911968;0.061633326;0.008194828;-1.1965873;-0.047459297;0.12685691;-0.18922995;0.43284854;-0.23875542;-0.036015593;0.07934161;0.047985762;-0.035001185;-0.032365296;0.13034736;-0.109896705;-0.07304508;-0.106322795;0.054860033;-0.24312603;-0.5928217;-0.3397439;-0.15114684;-0.007978844;0.06998577;-0.064490706;-0.038705748;-0.08178693;0.044946026;0.02798252;-1.7728738;-0.7231992;0.019385574;-0.098067775;0.051995795;-0.028351018;-0.052996755;0.05732387;-0.063977666;-0.107500374;-0.28834125;0.063901976;-0.01952051;-0.059450373;-0.32638168;-0.11416932;-0.07268122;-0.1317347;0.9003989;0.02227309;-0.33611813;-0.85314053;0.589554;-0.075889446;-0.03311938;0.032236766;-1.0831344;0.016712965;-0.16461167;-0.02871763;0.03397363;-0.114545435;0.035688505;-0.011585085;-0.10625028;-0.20606703;-0.34908456;-0.054315146;-0.020347374;0.053460985;0.032217074;-0.039221164;0.04794149;0.4503499;0.0053218347;0.0344489;-0.18844432;-0.074288175;-0.06424723;-0.14952534;-0.0783573;0.9543064;0.043823212;0.003214933;-0.3344919;-0.044939;0.1095335;0.08675655;0.14762098;0.07669811;0.020145874;-0.05605525;1.247937;0.037148695;0.1249675;-0.0054294956;-0.12665226;0.059854057;0.07617439;0.011792988;-0.12192743;0.08427849;0.10483488;-0.9516166;-0.046786707;-0.020371594;-0.07615357;0.30825427;0.22577697;0.083346896;-0.11180396;-0.065761425;-0.07326147;0.054896258;-0.032437664;-0.09507306;-1.2426895;-0.06232102;-0.2026437;-0.04435473;-0.14359915;1.6424301;0.0436007;-0.06223016;0.02745841;-0.115032844;-0.005576947;0.23739745;-0.2896286;-0.027671091;-0.47143388;-0.0126997875;-0.041470017;-0.013705462;-0.370953;-0.08036366;0.04302024;0.010091347;1.4294164;0.025458474;0.030848265;0.004194662;-0.15702263;-0.68328553;-0.096145585;-0.030102652;0.023454558;0.9203021;0.41956213;-1.0682049;0.047849197;0.17899244;-0.12194853;-0.12595655;-0.1144297;-0.082002066;-0.04705279;-0.20885585;-0.089526854;-0.0085181575;0.023221333;0.000892343;-0.4870049;-1.7181008;-0.4428322;-0.12844087;0.1408372;-0.060190346;-0.07322591;-0.33649573;0.22629954;0.6412723;-0.03233927;0.030534836;0.11820865;-0.1998739;0.073471926;-0.020292656;-0.039791435;0.029462688;-0.075443536;0.10327992;-0.6265377;-0.09869575;-0.04442759;-0.0064244447;-0.027347192;0.17326194;0.039643396;-0.032103896;1.1228482;0.0070716203;-0.07465879;0.027483381;0.04569847;0.048252534;-0.061349183;-0.07334528;-0.018349234;0.10135764;0.0035865044;0.024131112;0.0823147;-0.09561989;-0.5806992;1.5505707;0.030334597;0.66786015;-0.08958931;-0.278151;0.113896385;-0.034149338;0.08421213;-0.111956075;-0.022360515;0.056203537;-0.07756976;0.1176742;0.16351879;-0.093719184;-0.049122058;0.039290193;0.0641097;0.06169443;0.004414709;-0.10736465;-0.09920952;0.74391264;-0.20435001;-0.00013368789;-0.02482933;-0.14376794;0.056218352;-0.1325596;-0.7087346;-0.08448354;-0.042114694;-0.054485135;0.06521593;-0.05566436;-0.00673239;0.03370195;0.031897377;-0.049005702;-0.013609411;-0.057009522;-0.56096745;0.09134474;-0.0023246997;-0.022398546;-0.14044765;-0.07134147;-1.6038294;-0.114093535;-1.1054964;0.14991556;-0.106059514;1.5787724;0.04201805;-0.14163776;-0.08561553;0.016738653;-1.508943;0.1563848;0.118799545;0.67898166;-0.016093496;-0.25942567;0.068267375;-0.02858993;-0.0124483695;-0.028530387;0.012613558;-0.022018878;-0.46196288;0.010814886;0.13032153;0.046654265;-0.058025833;-0.042009994;-0.86451066;0.21595256;0.006628302;0.05934453;0.058176294;1.2383116;0.044288144;0.0819331;-0.37067664;0.028755922;0.036374595;0.05931457;0.04498935;0.103237815;-0.038668383;-0.002879109;-0.027177643;0.54331577;0.064812;0.0022944075;-0.115478665;-0.49703562;-0.0059517524;0.019510431;-0.90122235;0.1173923;1.2993591;0.046493337;1.1162809;-0.0026114641;0.08277558;0.029768711;0.052513387;-0.008180658;-0.004587406;0.016535643;0.07633898;-0.40845457;-0.021361157;0.048302323;0.019344479;-0.023190722;-0.098188855;0.025654724;-0.18356586;0.017684855;1.2813306;0.06456012;-0.2542521;-0.17751841;0.04253923;-2.354754;0.06521076;-0.0016357207;0.058609646;-0.025610967;-0.09607789;0.09612461;0.039670534;-0.25289062;0.060368475;-0.15073928;0.018632295;0.011484996;-0.036044426;0.25628766;0.13222696;-0.048134476;0.042753547;0.04546717;0.06548702;-0.077840686;0.06421223;-0.4635949;-0.029883483;0.03520627;-0.8431619;-0.026873278;-0.09274643;0.049240854;-0.024947667;-0.020319305;0.004620415;-0.04483938;0.07769325;-0.5247374;-0.0036846797;0.20947775;0.015782211;-0.656962;-0.03596057;-0.00039057533;-0.018903065;0.082619734;0.6002137;0.09983351;0.003478079;0.0056035905;1.6423981;-0.002247408;-0.0014887741;0.14369875;-0.07265123;0.015954126;-0.17339413;0.19799611;0.0990564;-0.83896065;-0.28068858
0.36703783;-0.3343319;-0.6103033;-0.084713675;0.06780342;-0.041308396;-0.14005274;-0.07753859;-0.042418793;-0.36887786;-0.0045108967;-0.07048815;0.14874038;0.06061003;-0.011868377;0.0859213;-0.23275343;-0.76336557;-0.17414576;-0.7137475;-0.21035743;-0.3486327;-0.00013276255;-0.0066016167;-0.5555996;-0.024026029;-0.10446475;1.2680827;-0.082671024;-0.82249933;-0.06661787;0.20322597;-0.011218529;-0.7459304;-1.6840224;-0.1624622;-0.07564275;-0.011424602;0.0132880295;-0.03718009;-0.005769066;-0.078339376;-0.088471375;0.37496793;0.046388973;-0.04531054;-0.04711306;-0.06664425;-0.038400285;-0.07415019;-0.07811522;-0.008695412;0.12810127;-0.82971793;-0.044112142;0.13797916;0.90193266;0.030529859;0.05651971;-0.5822756;0.49954855;0.07028418;-0.16710219;0.15938266;-0.19513127;0.033872947;-0.030850437;-0.022399038;0.047605302;-0.040086325;-0.056605786;-0.049753986;-1.4360209;0.031261828;-0.53262806;-0.8073434;-0.08130111;-0.05673049;-0.2011105;0.645097;0.3254412;-0.065087385;-0.6556517;0.0039939894;-0.49153373;-0.12247545;-0.027140804;-0.12936662;0.1070907;-0.18278372;-0.10321415;0.06672908;-0.08765147;-0.51116204;-0.007321016;-0.06496145;-0.8958788;-0.08442468;-0.09592647;-0.13896498;-0.20043543;-0.078525126;-0.32699758;-0.04067443;0.09716465;0.0018034765;-0.12999754;-0.027004616;-1.160754;-0.11950763;-0.05511082;-0.05319968;-0.007863995;0.11069513;-0.10228547;0.053760692;-0.011268853;-0.24559626;-0.026378065;-0.15221392;-0.04852177;-0.12704486;-0.05815;0.001405541;0.0060429648;0.29203165;0.47194627;-0.041898195;-0.021002855;0.23353836;-0.06268172;0.031450275;0.011570886;0.0514477;0.013046804;-0.03018983;-0.4573468;0.6564702;0.011561085;0.09478598;0.018660748;-0.36425972;-0.8404594;0.020920245;-0.086319156;-0.030643815;-0.22846378;-0.3055602;0.16137625;0.0059919315;0.037893143;-0.02349866;-0.09486826;0.0806975;0.049843542;-0.073457174;-0.02710193;0.14115682;-0.08425976;0.16354068;0.1898271;0.022677183;0.031307224;-0.14230141;-0.6486675;-0.05716671;-0.025528211;-0.23889148;-0.075068794;0.05908143;-0.740163;-0.50918573;0.055452064;0.09212399;-0.05614114;-0.12588449;0.74418664;0.019518362;-0.038844164;-0.095783256;-0.23047225;-0.2840263;-0.2866064;0.4203583;-0.0636902;-0.07238856;-0.54526484;-0.1266677;0.06264078;-0.09633905;-1.507422;0.045144077;-0.0917784;0.092276245;-0.3624057;-0.25128204;0.021438437;-0.08963796;-0.008339684;0.074739866;-0.05950096;-0.04796872;-0.04389375;0.0650182;-0.03750826;0.025627503;-0.17484725;-0.99301416;-0.09942972;0.038237836;-0.11755706;0.029815305;-0.13419181;0.007841451;-0.038898412;-0.26006654;-0.038906697;-0.7167193;-0.26741397;-0.025314989;-0.20957042;-0.023589082;-0.05662988;-0.069069386;-0.026376177;0.03911319;0.055255085;0.0026572961;0.032546304;-0.03867029;0.061327953;0.31953904;-0.20156369;-0.1518168;0.09297582;-0.19997662;-0.06422788;-0.35207778;0.10396897;-0.109738044;-0.067909695;0.12060483;0.0011393953;-1.1947782;-0.1026051;-0.13892426;0.065410346;-0.08811294;-0.23143785;0.036761872;0.010918296;0.057730753;0.046510596;-0.5353649;0.029334234;-0.014254491;0.053114366;0.04685044;-0.08237595;-0.0013273626;0.15399498;0.013823315;0.00012842764;-0.07145436;0.10148344;-0.45165324;0.13382132;-0.04770419;0.28820717;0.9775622;0.029134916;-0.4220472;-0.05866525;-0.052873265;-0.13846959;0.04251258;0.03377835;-0.04730452;0.019183228;-0.57343704;-0.06318095;-0.046114717;-0.0083885975;-0.00501986;-0.032775585;-0.035981286;-0.021354992;0.04305233;-0.68113947;0.025492843;0.06671694;-0.04519269;-0.11748848;0.09183264;-1.5918281;-0.07405014;0.03609426;-0.52231914;0.0063686725;-0.057777293;-0.037350684;0.027138352;-0.056836743;0.014646142;0.054913305;-0.48003444;0.029551132;-0.122104235;-0.201674;0.017285982;-0.004680568;-0.28822064;-0.017945405;0.03060437;-0.12344598;-0.14886051;-0.105119705;-0.40632224;-0.011588984;0.012585042;0.044682566;-0.058827735;-0.04762252;0.03411449;-0.5617679;-0.1372735;-0.08456219;0.023986787;-0.021033727;0.21384065;0.61926454;-0.24058327;0.013170209;0.044552974;-0.9569554;-0.79871285;0.44034305;0.040008795;-0.05529581;0.21028906;-0.30154273;-0.07905168;-0.030315228;-0.5522218;-0.009880713;0.09485431;0.011774432;0.06001866;-0.00533965;-0.13224581;-1.1218286;-0.04169872;-0.16824892;0.058161147;-0.0076313415;0.08286249;-0.23209058;-0.09602217;-0.4714908;0.021195376;0.025449818;-0.011776981;-0.16606487;-0.26359352;-0.039576434;-0.16286792;-0.03762048;-0.31102988;0.18317096;-0.3411211;-0.0023679775;0.57270896;-0.027051901;-0.035515636;-0.595943;-0.024861611;-0.098483905;-0.59488684;-0.12611388;-0.113156654;-0.12993786;-0.06701984;-0.0013781125;-0.18005845;1.2620475;0.056512304;-0.48010254;-0.1787215;0.06348339;-0.069558196;-0.00033213053;-0.54994285;-2.008924;-0.29060414;-0.4315619;-0.03892077;-0.5567385;-0.017630024;0.01294805;0.0017128631;0.08001218;0.06502238;-0.005355751;0.053244077;-0.03368807;0.19821645;-0.008753799;0.06912342;0.024177097;0.001214842;-0.022329587;0.023565896;-0.08528821;-0.07803731;-0.2823708;-0.42194644;0.06689646;0.015109726;0.03598523;-0.079741344;0.11995639;-0.2302076;0.0014890843;-0.018701624;0.09137716;0.030305928;-0.009850318;-0.117666684;-0.062230956;-0.03854719;0.085856736;-0.34632084;-0.09265566;-0.12025637;-0.090117924;-0.024717847;-0.056081716;-0.2185585;-0.028586531;-1.301705;0.07429347;-1.111086;0.028645685;-0.042832132;-0.14551313;-0.0580615;0.3215613;0.015463164;0.03153159;-0.72583044;-0.02023357;0.028791375;-0.9892351;-0.050925054;-0.15112847;0.00013285724;0.056639303;-0.12184136;-0.00801979;-0.07252089;-0.064546935;-0.18738952;-0.14892432;-0.0030604675;-0.1116724;-0.026030887;-0.010647612;-0.27042636;0.3164439;-0.04624551;-0.018113866;-0.040140763;-1.2639415;0.012342093;-0.2582034;-0.13906957;-0.11040506;-0.004604332;-0.016754163;-0.14783831;-0.032495912;-0.012259973;-0.07016074;-0.06635369;-1.3099416;-0.040673293;0.092480116;0.117839485;-0.2943961;0.00048007222;-0.020087635;-0.46981186;0.19760008;0.2732896;0.003000714;-0.4073994;0.06982393;-0.058146816;-0.26216912;-0.27409995;-0.002946941;0.08749731;-0.05135525;0.16404055;-0.043297846;-0.02560168;-0.07397788;-0.06620731;0.10040018;-0.20035248;0.045648284;-0.36031175;-0.12600079;-1.1548737;0.033487473;-0.25937337;-0.40234214;0.079494864;-1.5755676;0.062486134;0.026988875;-0.04104491;0.009807036;0.036993645;-0.0077949814;0.07669489;-0.1773378;-0.21445303;-0.46542582;-0.05206363;0.025764195;0.13264199;0.56340027;-0.2037759;0.01733696;0.005781086;0.026491968;0.04786565;0.011588905;0.016272867;-0.2792734;-0.055481978;-0.00925066;0.09475998;-0.072612405;-0.15049507;0.05317339;-0.0779204;0.03383537;0.12129411;-0.025478171;-0.058137946;-0.4725945;0.0009965859;-0.007060999;0.064941294;-1.0472915;0.06945731;-0.027373588;-0.024226487;-0.054365043;-0.6650614;-0.09545005;0.13723458;-0.018973973;-0.6864668;0.6390853;-0.078071505;-0.25751182;0.080996886;-0.027667599;-0.20626098;0.012022878;-0.028420446;-0.20572247;-0.18518203
0.17724411;-0.65616906;-0.061928425;0.001435909;-0.08156587;-0.0714281;-0.26781428;-0.027848061;0.008643707;-0.14612386;-0.02616752;-0.09470113;0.037581768;-0.003338503;0.014909415;0.034917146;-0.07942834;-0.26021835;-0.034325317;0.13837841;0.0642332;-0.4576121;0.04568047;0.048006892;-0.008991483;-0.21101691;-0.12800165;-0.10864355;-0.19345267;-0.59170884;0.056419723;-0.72229314;0.05536116;-0.54633635;-1.379207;-0.6190182;0.1500805;-0.04245792;-0.03883087;-0.024237895;-0.0610048;-0.059481204;-0.2652802;-0.18740495;0.018695274;-0.053325564;-0.051359385;-0.070763454;0.052266747;-0.084458366;0.048668463;0.41426158;-0.0022188518;-0.5348183;-0.014846757;-0.044566993;-0.10623247;-0.04560344;0.020336589;0.31659138;0.5273009;-0.014958993;-0.49072284;0.028431121;-0.20942138;0.014897203;-0.008656182;0.055867624;0.036504768;-0.01935217;-0.0372763;0.06625537;-0.32281318;-0.058565628;-0.060531486;-0.71289796;-0.053059567;0.028319927;-0.038743217;0.24217162;-0.10443808;-0.047705844;-0.69740736;0.05895858;-0.043307073;-0.20584343;0.10399859;-0.13620567;-0.12959409;0.004863531;-0.016338833;0.1116635;0.011935021;-0.3345093;0.020825977;0.029885791;-0.3466493;-0.1246278;0.022575552;0.013892245;-0.26176703;-0.02746621;-0.21254896;-0.034039278;0.038590286;-0.07786281;-0.21730608;-0.03839791;-0.30644795;-0.054467425;-0.04351111;-0.043386754;0.033855654;-0.03833666;-0.010351371;0.058616243;0.00085989735;-0.26714477;-0.05804925;-0.06189761;-0.13881192;-0.08754889;0.016869213;-0.005289414;-0.045809943;-0.010715324;-0.23854873;-0.05367695;0.005900461;-0.3010184;-0.10353605;0.07318883;-0.020664744;0.024108946;-0.01467149;-0.0034212086;-0.5071165;-0.31732437;-0.059774242;-0.08041332;0.06811982;-0.25756958;-0.509332;0.037958365;-0.012052634;-0.12416888;-0.22045201;-0.48076555;-0.1979307;-0.005871836;0.014293695;-0.054926768;-0.008530179;-0.04322104;-0.07381629;-0.10332275;-0.10901905;0.089009814;-0.016277635;0.006118815;0.24838433;0.06420461;-0.030295428;0.10448162;-0.8325705;-0.06771614;0.06665055;-0.37699574;-0.005734764;-0.099922664;-0.43934554;-0.0060634227;-0.029584823;-0.06170647;0.031156635;-0.20201902;-0.2539632;-0.44469768;-0.18384816;0.0050115716;-0.34161726;-0.07118889;-0.29938534;0.17074169;0.002570985;-0.06481129;-0.40700302;-0.06324737;0.037654378;-0.020166367;0.032663457;0.03636965;-0.14095406;0.06114357;-0.0021061434;-0.1991202;-0.04113393;-0.09261689;-0.075331725;-0.1151227;0.027197555;-0.013530572;0.019287141;0.02420425;0.0605159;0.015371204;-0.13525099;-0.3378009;-0.5539189;-0.008839267;-0.2585444;0.020641474;-0.16986197;0.13846998;0.04131301;-0.21591938;-0.055792;-0.5512052;0.13173123;-0.023388905;-0.06395043;-0.07069;-0.018315524;-0.061389852;0.043182466;-0.0616747;0.021627247;-0.11218163;0.00436452;-0.0089951325;-0.0030378355;0.6657361;-0.19747554;-0.02893255;0.08652564;-0.23962136;-0.08605357;-0.028624756;-0.098664336;-0.1651874;-0.052550863;0.12577413;-0.078993686;-0.5905037;-0.0478167;-0.22217748;-0.036726262;0.02979409;-0.10151551;0.02908262;0.03985911;-0.020815726;-0.01030659;-0.63679445;-0.00895161;-0.052313447;-0.02138535;0.057877682;-0.117084205;0.0045415824;-0.62322885;-0.006719993;0.0776986;-0.11254624;0.0071653193;-0.3476158;-0.015244828;-0.010272991;-0.6262735;0.10040868;-0.028311599;0.3447739;0.073324285;0.0037311148;-0.13840637;-0.027130786;-0.10008744;-0.114521295;0.0069468464;-0.7439012;0.01672819;-0.081589736;-0.0052054985;0.093398765;-0.02360977;0.03240656;0.011376066;0.06500793;-0.13900127;-0.07672708;-0.021742472;-0.03405604;-0.07482771;-0.056510124;-0.35817328;-0.7336471;0.03433998;-0.47676936;-0.06635468;0.10314884;0.016569858;0.039289623;-0.037459962;-0.06558682;-0.05209021;-0.49507478;0.013351683;-0.17169473;-0.71240133;-0.0665992;0.03572755;-0.08826403;0.015796997;0.015581796;-0.090648666;-7.6905235e-05;-0.1748639;-0.012269451;0.10522609;0.052268185;-0.05643982;-0.10084432;-0.035622537;0.13686077;1.1615218;-0.7133207;0.029330583;0.033420388;-0.08108369;-0.030918485;-0.09205205;-0.27892837;0.021240635;-0.05268118;-0.84019166;-0.5326913;0.012394399;0.017777832;-0.043163225;0.027814617;-0.27933508;-0.0066333823;0.056756467;-0.5884118;-0.15201089;0.03794592;0.08932894;0.02772638;-0.020966047;0.18600877;0.082741946;0.18436797;-0.34279814;-0.016781963;0.08145955;0.07386269;-0.20616935;0.017900549;-0.37181476;-0.035973936;0.014618367;-0.07093697;0.05070714;-0.10828319;-0.07486462;-0.0017048671;-0.03717818;-0.328656;0.088394694;0.010402302;0.089833304;0.13968818;-0.0856419;6.004382e-05;0.060277354;0.014188943;0.0019942783;-0.6461475;-0.0049993945;-0.16398798;-0.03788954;0.02539114;0.0076336153;-0.20255092;0.19534518;-0.036895912;-0.54223925;-0.22613429;-0.0049204296;-0.0022772518;0.063016936;0.010946807;-0.433862;-0.07017855;0.8331029;-0.0253466;-0.43397656;-0.048058838;-0.35764384;-0.05612443;0.007965608;-0.036623113;0.007009205;0.09914492;-0.08152801;0.017621538;-0.024009308;0.06372819;-0.045765642;-0.022721536;0.0121724;-0.057135977;-0.12087535;-0.18508458;-0.45625;-0.17490678;-0.006935384;-0.06578277;-0.0048101037;0.026257481;0.05821423;-0.28882033;0.12410349;0.021223271;0.1320113;-0.069585405;0.038953476;-0.18806623;-0.65407;-0.050472744;-0.02461848;-0.34951088;-0.15670487;-0.34086207;0.8718063;-0.06870456;0.08070308;0.13994609;0.080097556;-0.49782023;0.04226732;-0.71364605;0.05173274;-0.2982475;-0.66620886;-0.019050037;-0.49221182;0.047831822;-0.051703528;0.05159784;0.004519083;-0.08670805;-0.47438022;-0.03260821;-0.36088267;-0.05193584;-0.036442872;-0.017639399;-0.12394653;0.009095378;-0.111236535;0.062145587;-0.06992308;-0.11453659;-0.016413325;-0.035201684;-0.042654604;-0.56509393;-0.21239784;-0.0016223947;-0.07266086;-0.09068695;-0.55297685;-0.05190532;-0.16753654;-0.60408133;-0.03811711;-0.004999015;-0.11488849;-0.04907807;-0.071401045;0.08212812;-0.057040807;0.0065803197;0.006294495;0.0078071444;0.092423804;-0.036676046;-0.010025952;-0.0024409115;-0.058032427;-0.46127516;-0.5058931;-0.4662084;-0.057989676;-0.46651563;-0.010444459;-0.035691738;-0.8467097;-0.5645933;-0.029970316;-0.069449455;-0.1409348;-0.024006283;0.09118298;-0.034343176;-0.06814947;-0.07875516;0.016032957;-0.22232364;-0.07102083;-0.27568996;0.009071187;-0.24748479;-0.12742262;-0.20539978;-0.13748613;0.11210752;-1.0817245;-0.033776127;-0.023581091;-0.05448895;-0.06784974;0.049215317;-0.33436927;-0.025639065;-0.020286435;-0.12197509;-0.34563342;0.051128656;-0.07760477;0.1066501;0.24671082;-0.15638751;-0.071240075;0.002542097;0.04907344;0.03154212;-0.0696861;0.06720056;0.0063820085;0.029371629;-0.011818728;-0.106493674;-0.020640953;-0.13119563;-0.04899842;-0.00024133729;0.05600395;-0.02548283;0.0033651346;-0.09446891;-0.15305243;0.03936622;-0.069497846;-0.01661025;-0.31080902;0.011154963;-0.1256022;-0.018563649;-0.021376543;-0.46930417;-0.061305717;0.00082306645;-0.1154075;-1.4993623;0.35486287;-0.05094189;-0.12575457;-0.05051466;0.10606747;-0.30518514;-0.04392858;-0.13815849;0.9537474;-0.26800558
-0.21843266;-0.24760534;0.09591433;-0.009259173;0.0065733967;-0.03865017;-0.23445188;-0.12784186;-0.032167494;-0.08432453;-0.13519019;-0.13539992;0.024044802;-0.028334217;-0.013361846;-0.020182446;-0.07282621;-0.30853444;-0.18994409;-0.61243415;0.6033234;-0.28581995;0.0543271;-0.09483621;0.06541632;-0.26252943;-0.20156887;-0.19019473;-0.06884011;-0.3662899;-0.14002845;-0.3559158;0.09860866;-1.3987366;0.14862503;-0.3244812;-0.01678344;-0.020370418;0.07283749;0.13190511;-0.032739818;0.0647309;0.13796613;0.6077308;0.063809395;-0.04872382;0.05876583;0.06539833;0.061691623;-0.11949769;0.0055657825;-0.15592158;0.042751655;0.14335349;0.027260961;-0.055798866;0.6680934;-0.044906292;0.055439577;0.07141778;1.2350261;-0.04151836;0.022914603;0.10331277;-0.10080851;-0.002748928;0.06132675;-0.094419904;0.059039436;-0.0035817227;-0.13575615;0.01306365;0.1428196;0.028052708;0.17826203;-0.4188991;0.04438918;-0.11677986;-0.22366036;-0.691016;0.23694746;-0.072666824;-0.6501964;0.0435581;0.34094346;-0.08790926;0.0031178042;-0.12047635;-0.1579136;-0.0051796464;0.097927235;0.16867217;0.022998463;-0.33140928;0.1251446;0.041744746;-0.49708351;-0.14662534;-0.04894951;-0.09971123;-0.010072163;-0.01714595;-0.20204866;-0.1173496;0.09673801;-0.060544014;-0.07248165;0.03854236;-1.8620535;-0.044348497;-0.0026531331;-0.04621453;-0.022841725;-0.07284359;0.00675081;-0.07323001;0.003994264;-0.16517825;0.08140209;-0.22607552;-0.042902887;-0.07228058;0.039813366;0.039719;-0.04023181;-0.2548843;-0.46173212;-0.012284698;-0.020176984;-0.57340384;-0.051561918;0.051908012;0.12018367;-0.011406238;0.06987796;0.08693452;-0.37928176;-1.008188;0.057785705;0.08894627;-0.025748841;-0.2315601;-0.09740195;0.060100313;-0.0919306;-0.1585413;-0.08094059;-0.3726349;-0.15065402;-0.08092107;0.04059706;0.027316833;-0.06888558;-0.15403995;-0.052225273;0.046895407;0.101160385;0.28009462;-0.09552166;-0.104690365;-0.032710757;0.02078112;0.111650646;-0.060352944;-0.64106977;-0.09568849;-0.054603122;-0.15734455;-0.047468938;-0.05984301;0.12762117;0.25978085;-0.022125361;-0.64081854;0.08664417;-0.080484696;0.36975193;0.018907385;-0.35020745;-0.114240594;-0.054230634;0.02438526;-0.51723456;0.635831;0.004607912;-0.030171538;-0.032142974;-0.038559463;0.07244436;0.002331961;-0.23016892;-0.03062565;-0.14979431;0.14107583;-0.2607402;-0.15994237;-0.058073603;-0.08404025;-0.09748679;-0.08970057;0.071685776;-0.17590128;0.018252276;0.10077398;0.017730428;-0.06157078;-0.08648626;-0.6478266;-0.07802518;-0.013813777;0.054018572;-0.1502513;-0.13119869;0.044763602;0.17069235;-0.030607326;-0.078533225;0.11548903;0.549841;0.0641451;0.09330519;-0.042868897;-0.15506276;0.09496261;0.028181063;0.009412577;-0.01854927;0.18963972;-0.011799259;0.11220655;0.15266255;0.13719486;-0.104066476;-0.09504037;0.06563449;-0.5518119;-0.07344395;-0.1914886;0.9095483;-0.19683386;-0.07064717;-0.05150163;-0.078548655;-0.5056604;-0.026652055;-0.5924817;0.082374536;-0.077485934;-0.35499883;0.052088268;0.13381757;0.16918254;-0.16829208;-0.49282914;0.1384345;0.021398991;-0.15375426;0.030648526;-0.12624606;0.013869955;-0.33914256;0.010267022;0.013894554;-0.18256551;-0.00689004;-0.29150093;-0.049365573;0.042493366;-0.17462131;0.3601681;0.04118966;1.5233321;0.007980288;-0.17374271;-0.019419704;-0.06263055;-0.081937;-0.10016359;-0.06745161;-0.67090625;-0.048546527;-0.20328186;-0.06863194;0.012126436;-0.08932272;-0.057379697;-0.058775418;0.07119259;-0.85638833;-0.14209966;-0.5758559;0.06715322;-0.26365775;0.039449483;-0.2791157;-0.42838833;-0.0194228;-0.3666977;-0.06232138;0.16505699;0.0028812133;0.057530876;0.12198116;-0.45333445;-0.05723466;-0.80881506;0.016911093;-0.11930941;-1.5690892;-0.14554988;0.04640926;-0.17147481;0.11271253;-0.009918345;-0.10697019;-0.39579064;0.012049185;0.5131655;0.0017183139;-0.06995148;0.058573637;0.5279311;-0.0243548;0.12343787;0.12093819;-0.044285107;-0.02659291;0.017798914;-0.07556685;0.49882558;-0.57581556;-0.14721614;-0.0008663679;-0.11792267;-1.2669288;-0.21213642;0.18983608;0.04350433;0.040722378;0.16004884;0.18060668;0.037689358;0.06634398;-0.4265952;0.029738845;0.05493469;0.06775108;-0.06915443;-0.048628177;-0.38571912;-0.34275538;0.35472366;-0.18593061;-0.13824268;0.08651564;-0.026297743;-0.303547;-0.013376227;0.3508643;0.12820604;0.037002195;-0.076594345;-0.23770235;-0.32742116;-0.12091734;-0.20427582;-0.05199515;-0.2516461;0.09766304;0.46715137;0.09659273;0.21095674;-0.06951383;-0.033214584;0.21490002;-0.027100405;0.04279296;-0.2668222;-0.16523571;-0.017069224;0.041922983;0.031398177;0.059330296;0.037817292;1.469326;0.00021365879;-0.5140326;-0.3056798;-0.0044685933;-0.086286426;0.13607566;-0.35980824;-0.31902745;-0.08124505;0.34361738;-0.0064079156;-0.7087068;-0.041704368;-0.0049596517;-0.13657156;0.122332565;-0.10456245;0.05038273;-0.14941457;-0.022430781;0.119920164;-0.03599843;-0.003258385;0.0165357;-0.020053973;-0.10830133;-0.016319547;0.0361225;-0.01871035;-0.7189354;-0.20255408;0.022254974;-0.16240045;-0.08320109;0.030506015;0.18718916;0.067281395;0.046493236;-0.09432507;0.14920045;-0.107734635;-0.05206362;-0.06621583;-0.49424708;-0.06659089;0.042663854;-0.2606231;-0.09782857;0.22058983;0.6952534;-0.039190132;0.086825654;0.050390545;-0.062384315;-0.12985852;0.02012342;-0.73964554;0.059031643;-0.72291505;0.13411772;0.031119281;-0.8951364;0.029754905;0.13750817;0.1776042;-0.113124534;-0.09678851;-0.11301115;-0.10026128;-0.12714392;0.06504197;-0.023774829;0.16723545;-0.12735188;-0.017091965;-0.023416292;0.049553126;-0.1791679;-0.169579;0.02758202;0.02502606;0.0047823917;-0.48981646;-0.0265849;-0.063554935;-0.17683345;-0.0537078;-0.18740539;0.063241296;-0.2852482;-1.0944899;-0.055899236;0.022481622;-0.1695893;-0.020957649;-0.07639506;0.04025204;0.053820726;0.0069548893;-0.27921107;-0.048263714;0.14861365;-0.013966303;-0.118571654;0.009104593;0.108916715;-0.8818913;0.12228101;-0.5861292;-0.16330233;-0.5139777;0.097496875;-0.012766336;-0.802742;-0.6649786;-0.04250299;0.073873475;0.05623082;0.022386152;0.017510284;0.052479498;-0.10995714;0.03280534;0.0025742895;0.045803253;0.0492732;-0.010698611;-0.00216245;-0.24370137;-0.10928186;-0.12853126;-0.29929894;-0.116069034;-0.92878705;0.03327273;0.026932223;-0.026795221;0.007126075;-0.013999069;0.30157045;0.10200391;-0.009470319;-0.040983766;-0.2857049;0.013323588;-0.10069177;0.20884153;-0.16161296;0.1400554;0.0214509;-0.013358112;0.006609173;0.029146096;-0.0058753896;0.06288946;-0.36131793;-0.020145971;-0.12331178;-0.42671257;-0.024886258;-0.033928856;-0.025478829;-0.009940293;-0.075143345;-0.00998146;0.04370666;-0.021307329;-0.33950537;-0.008493614;-0.16629691;0.050811283;-0.027722793;0.05549065;-0.045670494;-0.075830854;-0.10907651;-0.4721531;-0.10881948;-0.09322668;0.06377584;-0.6779328;-0.09893442;-0.10992151;-0.15029374;0.06492522;0.056107406;-0.10772161;0.16260888;-0.15998495;0.85010463;-0.22105871
-0.42826754;0.3657206;0.22734186;0.096187964;-0.12477424;-0.017988779;-0.2581513;0.10591235;0.026404552;0.15601024;-0.008919111;0.02650256;0.21993834;0.028937899;-0.03425933;0.06643129;0.34060472;0.6205286;0.032895755;-1.0329168;0.3652329;-0.21142444;-0.018001717;-0.026780302;-0.656439;0.95958906;0.06783933;-1.0347944;-0.058495034;-0.13090724;-0.001975364;0.32858223;-0.068765655;0.009803626;-0.27630675;-0.8123578;-0.25011232;0.073368184;-0.045775697;-0.045346804;0.051136713;0.032824934;-0.37012458;0.27473506;-0.10413217;0.071994804;-0.054260354;0.051209476;-0.107407965;-0.26921514;-0.018793538;1.8582984;-0.10351225;-0.2542797;0.022637347;0.054435324;0.030103315;-0.08492723;-0.009682425;0.7216013;-1.0810018;0.03548445;-0.0127722835;-0.09039765;-0.05945683;-0.14088804;-0.008537016;-0.0017391937;0.21564296;0.015534674;-0.06957269;-0.08705695;-0.2862084;0.029251872;-0.56086206;-0.5560054;-0.10817634;0.04042171;-0.36586276;-0.83405787;-0.058190953;-0.00023579464;-1.4239731;0.0065784026;-0.14408228;-0.08508032;-0.029878737;-0.25540683;0.09545231;0.32654822;0.033584714;-0.13123363;-0.054621533;-0.239389;-0.0734665;-0.079497226;-0.27439934;-0.0071575893;0.0314846;-0.010156978;0.5375376;0.022103107;-0.26715866;0.09395533;-0.034750156;-0.029325517;-0.036047384;-0.024008136;-1.0437876;0.087228425;-0.06475769;0.0051586083;0.008242388;0.24775644;0.054000225;0.01283514;-0.10250549;-0.029641643;-0.01837596;-0.17367321;0.11826087;0.012159575;-0.01634594;-0.08592904;-0.014133363;0.12034219;0.94674265;-0.10972672;-0.031482566;-0.064692244;0.109962516;-0.05953303;-0.075902306;0.071342066;-0.06711453;-0.09640783;-0.19625063;0.27727455;0.04822082;0.20394641;0.006417215;-0.2736623;-0.35011375;-0.10682759;-0.03471244;0.047627464;0.091713585;-0.16932923;-0.3486036;-0.01834667;-0.15528221;0.018706694;0.061579518;0.104005106;-0.015801644;-0.08064301;-0.037264336;-0.39846236;0.12227859;-0.53765416;-0.023983937;-0.060704887;0.13168263;-0.29019907;-0.37633452;-0.00967543;0.072617985;-0.24411996;0.031752955;-0.057045642;0.6099849;-1.1400098;-0.017622817;-0.25640267;-0.014997233;0.13021079;0.57531494;0.54152966;-0.3941509;0.08793832;-0.25586668;0.276772;0.30511937;-0.3356743;0.03490187;-0.013605667;0.1287689;-0.057210363;-0.028621152;0.061252847;1.2267005;-0.0002742165;-0.012592982;-0.17790276;0.59593475;0.059843395;-0.001992532;-0.021903375;0.12841076;0.039824434;0.050603714;0.053410564;-0.047040462;-0.046342146;-0.08741547;-0.025168154;-0.11829541;-0.9330229;0.17451613;-0.11360758;-0.31807217;0.018094415;-0.057444476;-0.1032344;-0.102284744;-0.22693694;0.04003053;-0.14593866;-0.096706234;0.024330562;-0.14387505;0.064137384;0.097987406;-0.24904151;0.047271807;-0.045971848;0.28721562;-0.11434655;-0.013413132;-0.052382655;-0.00042514346;-0.6573152;-0.12016389;0.015431507;-0.10967556;-0.83735436;0.065462396;-0.017595677;1.0404273;0.5238849;-0.011682348;-0.06622754;-0.032893598;-0.34702003;0.070237294;-0.63640904;0.009635065;0.044758312;-0.73239183;-0.04553141;-0.0111274915;-0.084983446;0.320484;-0.99972516;-0.00733784;-0.051582087;0.01424568;-0.07794722;-0.19547088;-0.07645427;-0.4296025;-0.09413753;-0.11133934;0.009971519;0.25687975;-0.03240708;0.33081487;-0.10233115;-1.6430078;0.86654395;-0.045735236;0.07538565;-0.017740503;0.095878534;-0.47522047;-0.22654173;0.07180967;0.033712823;0.06748064;-0.0317262;3.4166267e-05;0.09278318;0.17503586;0.0047457893;0.03730534;0.008756338;0.06957886;-0.019617537;-0.3565096;0.04434054;-0.1590167;-0.07367224;-0.08182051;0.017056514;-1.0271786;-0.34016165;-0.05001358;-0.7164342;-0.01752483;-0.09113519;-0.034073293;-0.09137986;0.013065508;0.18987912;-0.024618814;-0.91697484;0.0099903885;-0.21197863;0.5621938;-0.02972241;-0.04905394;-0.22104864;0.015431891;0.048292685;-0.3100301;-0.42553374;-0.040112037;-0.030704023;-0.037489194;-0.011171552;0.05048633;-0.049424857;-0.04743743;0.113121495;-0.55223256;-0.58671075;0.09789247;0.037823766;-0.025698666;-0.25099805;0.8650758;-0.17650716;0.052456766;-0.013741206;-0.2089581;-0.24510647;1.2806375;0.07549197;0.04300123;-0.05634325;-0.16748716;-0.007961807;-0.04536069;-0.34283423;0.33524016;-0.043971766;0.0698042;0.094047025;0.09607604;0.15968591;0.44813085;-0.5607215;-0.07261773;-0.0011791163;0.056440704;-0.29383087;-0.37538168;-0.32600594;-0.7861506;-0.08852604;0.017105903;0.09906113;-0.46507716;-0.44791925;0.06567051;0.21292342;0.045642752;-0.37993723;-0.2014101;-0.09845811;-0.024184192;-0.13689804;0.011840937;0.025954133;0.8045801;0.012940869;0.07264263;0.6452149;0.034940418;0.004172564;-0.016592776;0.032122977;-0.01690514;-0.37332368;-0.8988602;0.13469271;-0.004180671;0.032653265;-0.096801005;-0.054866;0.016816463;-0.06363604;-0.3475439;-0.18530653;-0.58188856;-0.07895309;-0.6247983;0.046866108;-0.36490077;0.0524318;0.007712536;-0.022768445;0.06616547;0.22727564;0.033216387;-0.1124589;0.05519529;-0.0980253;-0.10134791;-0.053924005;0.10056535;0.06806721;-0.11443315;-0.02908592;0.8214929;-0.3457208;-0.09030037;0.010317691;0.24467735;-0.06545663;-0.096917994;-0.6213149;-0.03216591;0.0584361;-0.14057508;0.095191196;0.03762106;0.059514772;0.69999105;-0.017788146;-0.098460615;-0.3988411;-0.03319446;0.25650245;-1.7140466;-0.10817274;-0.021595092;0.47880754;0.010315896;0.494513;-0.112482026;-0.30354306;0.23048098;-0.48852053;-0.5365608;0.021857582;-0.24321988;-0.036407582;-0.10649036;-0.64257616;0.0047757495;0.07213672;0.81041175;-0.034604926;-0.16800953;-0.030017486;0.00057080726;0.35250035;0.0053343265;-0.025930548;-0.13838895;-0.1476833;0.08248373;0.037159942;0.07681712;-0.04827602;0.076737374;-0.32614356;-0.29780245;0.06865139;0.058350675;-0.00256347;-0.14595734;0.056693945;-0.004525393;0.31079307;0.07435268;0.06999827;-0.026221002;0.0316025;0.024613822;0.0054351543;0.04125471;-0.07491427;0.116950735;0.023765996;-0.1454046;0.5460826;-0.005810144;-0.06595979;-0.03436804;0.30120644;0.089341015;-1.9838535;-0.011363232;-0.73022455;-0.0143615445;0.009550503;-0.48208138;-1.1382619;0.08294839;-0.067415826;-0.019712158;0.18927376;-0.0781471;-0.045644943;-0.00085296115;0.078747034;-0.07943005;-0.06051772;0.05153713;-0.045212884;0.014375225;-1.0844986;0.06028472;-0.14503875;-0.27379283;-0.19156767;-0.44177705;-0.017687898;-0.06495862;-0.008597457;0.09962724;0.0025320977;-0.44269598;0.034476027;-0.18171388;-0.031722687;-0.32344148;0.07286307;-0.03258474;0.24346942;-0.56143135;0.48010805;0.04014681;0.02917838;0.035695463;0.0106579065;-0.0013755875;-0.04834157;0.25035006;0.11515314;0.039667703;-0.40162605;-0.044586577;-0.096779525;0.07111108;-0.021229891;-0.060678795;-0.008371697;-0.064933084;0.044970535;-0.65382195;-0.0617648;-0.08355829;0.051230296;-0.79097044;0.044493724;0.055015206;0.103647344;0.09117133;-0.27357814;-0.008992528;0.21596381;0.013243642;0.31894422;0.6363751;-0.022390092;-0.4689326;-0.0060926992;-0.043139696;-0.13242182;-0.087642595;0.017991627;1.3059748;-0.15391321
0.20575069;1.2801486;-0.14631625;0.11794591;-0.36248812;0.08962975;-0.3904711;0.08117963;0.060138315;0.5857356;0.08786363;0.11449256;0.37246725;0.0006913943;0.028315341;-0.0634175;0.05033761;0.05837712;0.12563981;-0.7006363;0.81415904;-0.30754563;-0.06795724;-0.03625882;-0.63937414;1.5518855;-0.06678524;0.30490348;-0.1251255;-0.7961787;0.032937642;0.2467894;-0.11936318;0.117696695;-0.947631;0.3081925;0.2256726;0.13648592;-0.054116134;-0.0020028574;0.12257105;-0.021138856;-1.7803794;-1.5115032;0.02108389;-0.020173484;-0.017270453;-0.03818273;0.010545704;0.592085;-0.042566538;-1.0409933;-0.1840846;-0.5749588;-0.06378968;0.24354069;-1.4469916;0.030457038;-0.048487775;-0.1156033;-1.4573002;-0.16079068;0.2153575;-0.26346192;-0.23290819;-0.18072596;-0.085517906;-0.010270512;-0.10092078;0.027871648;0.024935884;-0.024548154;-0.6885861;0.26997513;-0.45396104;-0.66719365;-0.12208502;0.031469714;-0.76746047;0.5075681;-0.81742984;0.044689927;-0.15119487;-0.09936322;0.0746149;-0.00085536105;-0.08116863;-0.31388506;0.088722244;0.2592319;3.4756595e-05;-0.04466525;0.07992419;-0.14739518;-0.007041438;-0.050157707;-0.69722277;0.17988387;0.00951637;0.057234935;-0.37438458;0.16430038;0.13279992;0.045445643;-0.05504937;0.03277703;-0.027712656;0.007936503;-0.30328363;-0.011559122;0.035866372;-0.029741952;-0.01154619;0.5139426;0.005413159;-0.009463815;-0.09082895;-0.18281573;-0.094571315;-0.018301768;0.013966935;0.06678023;0.064564966;-0.12281289;0.17868154;-0.12807848;1.2803874;-0.11680971;0.041009724;0.19874026;0.15417871;0.20193028;-0.11249288;-0.052264504;0.050313763;-0.066538066;0.38231066;-0.93202335;-0.08695522;-0.15790163;-0.08690486;-0.44549444;-0.16447353;-0.032212503;-0.006363026;0.09689952;0.04492067;0.122483306;-0.6707495;0.039729156;-0.0024075515;-0.042886958;0.11562983;-0.09468119;0.0111888405;0.052001096;-0.024388203;1.1687715;0.015240443;-1.0867612;-0.19720493;-0.08573896;0.55912673;0.8595955;-0.346882;0.13827004;0.122679956;-0.29680058;0.085119955;-0.01949447;0.43689644;-0.6665186;0.049973678;-0.11059582;-0.02430074;0.12503693;-0.7632687;0.45046598;-0.56448585;0.17588419;-0.22083418;-0.006921411;-0.93673843;0.7789613;-0.012451649;0.12730628;1.504384;0.073229425;0.014242458;-0.012947015;0.05275476;-0.07190974;0.068158954;-0.23436926;-1.3989383;0.00316928;-0.008564513;0.05428222;0.08057576;0.28015926;-0.011299203;0.19751401;-0.11371493;-0.057223175;-0.008799346;-0.009217189;-0.29294118;-0.6817286;0.40472448;-0.04495442;-0.07516715;0.17213202;-0.086616725;-0.12444223;-0.29565117;0.06313797;0.13233441;0.36303967;-0.51045096;0.056999333;-0.10732318;-0.0034648562;0.14593658;-0.21870509;-0.008834468;0.036754105;0.40655845;-0.24715225;-0.055835232;-0.029694978;-0.08238095;0.16030787;0.49155113;-0.08000292;-0.057392906;0.15468775;0.03357687;0.68582094;-1.2068831;-0.39592257;-0.12682153;-0.019866139;-0.012204886;-0.265579;0.117090076;-0.039480902;-0.1148864;0.1892561;-0.2620975;-0.047536954;-0.096262634;-0.09730958;0.4117064;-0.65058506;-0.10208929;-0.10218303;0.22317877;-0.06104467;-0.20489693;-0.032287665;0.23316017;-0.057861667;-0.10943176;0.39224824;0.36354026;0.056016456;0.4347632;0.04143825;-0.13261843;-0.38978118;-0.08901829;-0.70857805;-0.09530622;0.2327804;-0.6565965;0.14152507;-0.09463319;0.14257455;0.07932649;-0.48607582;0.15259567;0.016796494;0.188311;-0.170142;-0.09800702;-0.04233997;0.09168399;-0.1517093;-0.8037959;0.04815249;-0.16100442;-0.015745508;-0.2151284;-0.012998308;-0.5485734;-0.6328913;-0.05189808;-0.5004203;-0.08397599;-0.3145328;-0.025688754;-0.0011928432;-0.00095453626;-0.38908368;-0.09831488;-0.16888264;0.25183305;-0.22763586;-0.14078537;0.06700714;0.016223865;-0.16591167;0.026511809;0.048572972;-0.57731855;-0.64011;-0.15355428;-0.77808994;-0.021807315;-0.071711905;-0.060695443;-0.09757409;0.014423642;0.09589494;-0.28026953;-0.16934614;0.22225384;0.020003682;0.034471918;-0.59414655;0.40160847;-0.13570319;0.23784049;0.22657605;-0.006436867;-0.59997964;-1.2634465;0.040630728;0.07468316;0.019794693;-0.4846091;-0.10544585;-0.060637854;-0.6133145;0.5042421;-0.12679878;0.0045855474;0.15449792;0.16722006;-1.2597456;-0.6287335;-0.64046794;-0.046371743;-0.020516258;-0.0737465;-0.21166413;-0.540165;-0.33051896;-1.7554451;-0.13178912;-0.09706947;0.24183784;-0.7298514;-0.27310437;0.06007005;0.4408008;-0.079579666;-0.47232965;-0.26788712;0.5113985;-0.0906143;-0.51784736;-0.136911;-0.07077715;0.23731142;-0.07903168;0.11373101;-0.51738816;0.07463909;-0.11088573;-0.011799805;0.016736522;0.09481756;-0.34152925;-0.38511896;0.21310917;0.21515076;0.114425614;-0.11658263;0.033655733;-0.0111041125;-0.8893459;-2.0965433;-0.5201358;-0.95806706;-0.06691711;-0.36508557;0.116225906;0.16776448;0.17232521;-0.1514747;-0.046300367;0.27786753;0.42586303;0.13782696;-0.0721013;-0.04231197;-0.15710904;0.029680718;-0.034115396;-0.020172358;-0.003576963;-0.10025449;-0.041570198;1.9691633;-0.5345716;-0.14004983;0.1427205;0.42655772;-0.10582395;-0.24520583;0.3580007;-0.20837;0.059132047;-0.11533132;-0.02472034;0.06718469;-0.0532985;1.0062964;-0.019634714;-0.06565153;-0.21879642;-0.044490315;-0.45856816;-0.55829716;-0.12469127;0.005958422;1.0998061;0.025152592;0.4632015;-0.16157502;0.60938466;0.1471252;-0.20914969;-0.060087796;-0.12835637;-1.0826503;0.07585574;-0.30426952;-1.7346147;0.073396794;0.06218363;-0.48801133;0.030329756;-0.19475958;-0.00317706;0.01654018;0.09555526;0.11318161;-0.058763802;-0.19472548;-0.14071716;-0.019714288;0.08338499;0.0117091965;-0.113897;0.042402256;-0.49598458;-0.25978613;0.027517533;0.15890393;0.032017853;-0.9690878;-0.08851621;0.28179115;1.099438;0.0030798053;0.053250514;0.10334634;0.09581902;0.20263298;-0.053332143;0.012065498;-0.040492296;0.14402267;0.04855936;-0.2748362;-0.07925485;0.6520439;0.0017710911;-0.084835336;-0.08877517;-0.17883001;-0.08496051;0.08956344;0.3896898;-0.08974681;0.24790226;1.2536469;-1.0140629;0.04520955;-0.056605536;0.0034655654;0.27868968;0.053705353;-0.119609594;0.0979061;-0.027576217;-0.13166374;-0.21095267;0.010076504;0.34835565;0.068517335;0.7189134;0.08257131;-0.23693699;-0.16609952;-0.075655654;0.20512088;0.007122285;0.021602783;-0.087804474;0.041656412;-0.053865965;0.56375474;-0.03730624;-0.03161542;-0.020834228;-0.32209006;0.09832191;0.119225435;-0.5358896;0.59480447;-0.93707424;0.042324916;-0.0035063995;0.041082107;4.9985945e-05;-0.032172848;-0.092019066;0.24784401;-0.018549081;-0.034247406;-1.1047565;-0.015376855;-0.12776765;0.088258274;0.03050923;-0.066292554;-0.12624863;-0.07542754;0.036428615;-0.55786633;-0.08736212;0.045703955;-0.039682485;-0.3814959;0.017447907;0.04697499;0.15865253;-0.0057805027;-0.5564384;0.11581457;0.3585952;-0.16501327;0.17947441;0.84273005;-0.020944934;-0.5350677;-0.042892855;-0.047749035;-0.27205145;0.17589372;0.11482056;0.90906626;0.011932923
-0.07250751;-0.47361955;-0.8564748;-0.07901258;-0.074299775;-0.0392979;0.07156848;-0.04218773;-0.002935018;-0.52858895;0.08746693;0.00013265427;0.10525697;-0.06534185;-0.042949572;-0.06380844;0.06878256;-0.034866;0.14394383;0.030770276;0.43924636;-0.20387304;-0.04213998;-0.0025181277;1.0975918;-0.49910793;0.04321346;0.9696176;-0.09587373;-0.096169166;0.06162603;-0.2448963;0.018398587;-0.67001027;-1.0218518;-0.9854908;-0.06459844;-0.0980805;-0.087793276;0.06079088;-0.08289564;-0.06814437;0.035211924;1.0762526;0.00380615;-0.0707892;-0.05561968;0.016118914;0.009822312;0.6810224;-0.02683559;0.07151319;-0.015331738;0.2937993;0.0069680284;0.72557753;1.0722383;-0.041542776;0.040495016;1.085678;-1.080996;-0.075751;-0.44775125;0.5156123;0.019208863;0.08515593;-0.047826372;0.0837546;0.11782482;0.003334056;-0.051603287;-0.036626756;0.02482866;-0.035266;-0.46437103;-1.0449142;-0.04929504;0.030459246;-0.57598656;-0.19567397;0.015954355;0.03532722;0.29829615;0.027758602;-0.9207105;-0.026442137;-0.03805192;0.44582677;-0.014916362;-0.3822958;-0.07554249;0.066672124;-0.03546403;-0.16047058;-0.015747022;-0.003791843;-0.5269837;-0.025626233;-0.057287343;-0.0789238;0.7253113;0.06287585;-0.26505548;0.03144146;0.037980724;-0.00457029;0.04628805;0.066962145;-1.2429539;-0.049014017;-0.052260794;0.049823478;-0.047447573;0.13406266;-0.08422615;-0.012312948;-0.10186568;-0.11595405;-0.013989555;0.16872734;0.013011852;-0.040574174;-0.015972864;0.048188932;-0.05939059;-0.14408381;-1.6839423;-0.009992694;-0.04355243;-0.38393244;0.025906283;0.3167782;-0.06820549;0.037822764;-0.038380664;-0.0043360046;-0.25949672;0.52590245;0.03718109;0.71026164;0.029027373;-0.41779253;-0.62210417;-0.07420355;-0.07569214;-0.048887648;-0.4314393;0.10523156;0.88177437;-0.04779029;-0.07197045;-0.015485629;-0.010728501;0.3326281;0.05024782;-0.013093246;0.12305989;0.83685374;-0.09413205;0.57569396;0.28734604;-0.010638192;-0.020148095;-0.2688699;0.2570829;0.043215353;-0.02391676;-0.22258475;-0.031886186;-0.04417077;-0.07725212;-1.0276471;-0.057241872;0.44788662;0.043831494;-0.13794911;0.15772612;-1.9710006;-0.501306;-0.03837997;-0.34733927;-0.6112527;0.21122558;-0.08021416;0.038244177;-0.015368193;-0.2301411;-0.057497036;0.026650827;0.0138279;-0.815038;0.019112991;-0.111750275;0.10351021;-0.5174022;0.28517848;-0.021192754;-0.12070478;-0.037422154;0.11272818;-0.025408871;-0.04192756;0.04493069;0.015302474;-0.0014416368;-0.16485423;-0.17462993;-0.4984666;-0.06686299;0.16234553;0.41785982;0.048048526;-0.023492036;-0.03132092;0.040089276;0.3700787;0.019038543;-0.41773605;-0.103673354;-0.080549456;0.06064295;-0.034388784;0.06676141;0.20674665;-0.09966266;0.021003649;0.10938403;0.18989812;0.061027184;-0.018807575;0.052764248;0.5676292;0.3758703;0.019106729;-0.00034686236;0.034388155;0.007884606;-0.009776882;0.11608234;0.24518068;-0.01293572;0.083224736;0.07233737;-0.729187;-0.08709836;0.22349893;-0.030238425;0.2530388;0.4655702;0.0051951073;0.07849307;0.034303118;0.031772625;0.29889545;0.013097715;0.004975113;-0.08335759;-0.00662899;-0.17304307;-0.059959132;0.31870392;0.07206319;0.06451122;0.2011151;0.12143244;0.13423014;0.18567465;0.051747195;-0.7273828;1.0001638;-0.019296423;-0.2756165;-0.027582323;-0.015298341;-0.26730415;0.24640098;0.11256981;0.017320242;-0.039636638;-0.2687363;0.01701056;-0.0024621352;-0.037580233;0.027829768;-0.009241244;0.04511856;-0.027861454;0.09825492;-0.47751632;0.1315034;-0.09575929;-0.02084881;0.3985412;0.043181747;0.20331936;0.1395803;-0.063877694;-0.61052275;-0.10488325;0.4037652;0.005553133;-0.04799785;0.07752643;0.22109899;-0.0025613045;0.39388236;0.15781184;-0.12728414;0.55076176;-0.036662236;-0.008867518;-0.018059455;-0.06937637;-0.06042911;-0.37126082;-0.3642296;-0.084013306;-0.20602182;0.025256207;-0.03116842;0.069942325;0.8059767;-0.03305453;-0.015157076;0.019364864;1.0076283;-0.04227876;-0.03462993;0.028077528;0.021054156;-0.6989858;-0.08401086;-0.011553695;0.039479237;-0.63617116;0.16277197;-0.1677344;0.07514068;0.0294585;0.22461756;-0.11807128;-0.071399204;-0.0064388136;0.010902655;-0.03726767;0.058504954;-0.07373241;0.051326767;-0.005340793;-0.4574976;-0.64948666;0.13123386;-0.114275016;0.17694528;-0.01972862;0.40028876;-0.4376042;-0.66267717;1.0076885;0.008020007;-0.046639644;0.021466516;-0.40869755;0.14894304;0.038939867;0.015389625;0.07635507;-0.6111705;0.09179161;1.2948252;-0.020646375;0.12887424;0.053844944;-0.016528217;0.39621383;-0.06345572;0.014249711;-1.0458852;-0.042522117;-0.024148159;-0.003808702;0.0074451934;0.00012227093;-0.2556145;0.15219732;-0.005847165;-0.73453295;-0.5883167;-0.06361227;0.0013567725;-0.07706808;-0.73011523;-0.91202635;-0.14584816;-1.1401246;-0.023835562;-0.3280692;0.029382816;-0.71068406;-0.028580928;0.07791089;-0.034957286;0.11141193;0.100494936;0.03733689;-0.43494967;0.08853279;-0.07890961;0.06720525;-0.04872665;-0.0013037991;0.022818603;-0.101413;-0.02577529;0.8490774;-0.4741708;-0.050171;-0.014185456;0.04519155;-0.01563175;-0.18760157;0.73539644;0.15488584;0.030394757;-0.050884813;0.02457492;0.0036603764;-0.08932141;0.0006340377;0.042530917;-0.094332114;-0.34864137;-0.18612975;-0.014004538;1.119826;-0.12834391;-0.0732676;0.35578737;-0.092675656;-1.6343409;-0.0013944154;0.7961596;0.11143418;0.6637368;1.2309927;-0.0280547;-0.9429276;-0.06763907;0.17211239;0.8937399;-0.1456284;0.012332947;-0.79838765;0.035275;-0.06714087;-0.029592918;-0.031969782;0.20972396;-0.13044418;0.0008282615;-0.10362416;0.20533042;-5.500056e-05;-0.075646095;0.060377926;0.026377106;-0.082716346;-0.32526967;0.5085453;-0.013908562;-0.09995153;-0.081984445;-0.64205295;-0.03480442;-0.67538214;-0.20397004;-0.02493277;0.06126738;-0.04772184;0.022472907;0.018060366;0.0883977;-0.053673003;-0.00092222076;-0.06969378;-0.055291206;0.04434741;0.042958815;-0.2872577;0.075976625;-0.0091041075;0.25379777;-0.41670957;0.25686452;-0.052376874;-0.27640742;0.05688158;-0.093306065;-0.49844834;0.21256338;-0.03380193;-0.011623186;0.056685235;0.0667636;0.5343304;0.058090426;-0.02274908;-0.046145774;0.082684994;-0.008626193;-0.02843043;0.03910753;-0.11067362;-1.3795888;-0.015606335;-0.41686073;-0.061484978;-0.06933928;-0.35237476;0.037688963;-0.037441418;0.0027087436;0.00021770073;-0.050414525;-0.25623536;0.022594884;0.1433211;-0.2588698;-0.5523617;-0.014820656;-0.055358686;0.008704008;0.1404348;-0.80508924;0.053652123;-0.046983022;0.05801008;-0.0082612075;0.010785367;-0.07136781;-0.52919865;0.069650754;0.013323975;0.26658723;-0.04225406;0.00045260356;-0.049704585;-0.047305554;0.026436962;0.034885947;-0.04954685;0.05184034;-0.39586708;0.011253755;0.040058844;-0.078831024;-0.6339934;-0.11694444;-0.016728554;-0.067339055;-0.061986547;-0.6787356;-0.030802239;0.090953;-0.058550995;-0.35822803;0.29623485;-0.038130477;0.27559766;0.015000703;-0.0786354;-0.13768339;0.16006933;-0.012342643;-1.7487572;0.20244472
0.29946008;1.7148861;1.8019216;0.00086198864;-0.08390289;-0.049197983;-0.48392752;0.032410834;-0.069309205;-0.020052074;-0.04333716;-0.019996954;0.18372135;-0.06931197;-0.084313996;-0.06938636;0.59733397;-0.45009655;0.028065223;-0.73737776;0.050485853;-0.26267657;-0.002036237;-0.05497359;-0.73544097;0.069107905;-0.08170378;-1.1564167;0.029672291;0.06767368;-0.001791882;0.6959737;-0.06512683;0.025174962;-0.241171;-1.6639905;-0.7176321;-0.059789747;0.05896563;-0.06426674;-0.0063651986;0.027560024;0.009085211;0.54785186;-0.030790526;-0.05748353;-0.06428556;-0.037237328;0.046861254;-0.8927471;-0.03137903;-1.5392808;0.05904301;0.62836426;0.060573343;-0.72737575;-0.7677909;-0.049978737;-0.06282461;-0.38344282;-0.69345826;-0.02274042;0.6114463;-0.40102097;-0.13686971;0.06963455;0.0107303625;0.060505796;0.55330205;-0.08481635;-0.0364274;0.008028159;0.79751086;0.08607524;-0.3161487;-0.6950679;-0.08416536;-0.061040234;-0.59331983;1.1534555;0.04904452;-0.04589163;0.24786212;-0.012962146;-0.28898564;-0.079575844;-0.0042223097;-0.4498076;-0.18672177;0.18132925;0.046454597;-0.022336576;-0.0594141;-0.16581765;-0.009088425;0.03594442;-0.03764541;-0.015658537;-0.05031859;0.009903479;0.21710339;-0.010508512;0.0028962127;-0.09302875;0.06359726;0.03357597;-0.075649664;0.06677295;1.9072471;0.0561143;-0.08272437;-0.06859562;-0.05246106;0.25117612;0.024538266;-0.06511013;-0.13152972;-0.19545963;0.024007004;0.021388136;-0.05842667;-0.04521615;0.03242611;-0.05091493;0.05033983;-0.3339834;1.7624701;0.03301654;-0.045898043;0.7327138;-0.07402432;-0.060723133;0.049401037;0.0709365;-0.027898613;-0.05201919;1.3068069;-0.9734777;-0.049226556;-1.1205087;-0.016469609;-0.5588832;0.09102139;0.058449477;0.10655158;0.048114613;0.40370652;0.38493404;-0.37654373;0.058628216;-0.032660462;0.021467473;0.056931194;-0.13240969;-0.07029108;-0.06974621;-0.06220398;-0.50111794;-0.075044446;-1.768185;-0.39864942;-0.061844807;0.11324495;-0.52145624;0.653309;0.10814728;-0.1262912;-0.27797633;-0.043568157;-0.021681167;-1.0803987;1.8490102;-0.036022212;-0.9923462;0.016165549;0.09000619;0.015891306;2.0607374;-0.6386404;-0.056193527;0.41583592;0.10931021;-1.2336652;-1.0014346;-0.08543838;-0.101238795;0.07858673;-0.031686977;-0.07124208;-0.016456954;1.2791631;0.031111436;0.0016992261;-0.08824615;0.30638382;0.013506768;-0.03446843;-0.0725263;-0.009571017;0.0036770862;0.049169146;0.039981395;0.061069082;0.05592053;-0.0318037;-0.04994369;0.015376844;-0.19261171;0.2962416;0.03365542;-0.4841852;-0.018504396;-0.1467234;0.059608623;-0.013871168;0.09272395;0.041243304;-0.35119206;0.12409946;-0.07126131;0.13435034;0.05165468;0.06655418;0.1996092;-0.03564426;-0.040639453;0.25745144;0.70202494;-0.014254757;-0.022628302;0.074004516;-0.14915954;0.48663977;-0.035623003;0.037108;0.54658365;-0.07007893;0.06303236;-1.1821882;-0.37909323;-0.09251688;-0.05130929;-0.09278208;-0.613845;0.028064094;-0.17014627;0.057163633;-0.114447914;-0.2772421;-0.07363749;0.102660745;0.030259926;0.22180189;-0.18265246;-0.08156741;0.020474624;-0.03466628;-0.054444388;-0.07571863;0.056505505;0.00565583;0.04325403;0.058137767;-0.21177842;0.24259211;-0.04825692;0.21963023;0.008622347;-0.7453346;-0.8060085;-0.06881826;0.5837753;0.013382004;-0.02430674;-0.32800674;0.3113984;0.08081501;-0.06239392;-0.0807921;0.23982652;-0.0025358873;0.010552723;0.1300064;-0.048043177;-0.017434407;-0.056355722;-0.026202187;-0.03248692;0.7036011;-0.01630744;0.19471309;-0.015480631;-0.19039474;0.02663309;0.50773823;0.07498008;0.02723998;-0.49471685;-0.08217859;0.36975217;-0.052678887;-0.07212081;-0.072263755;0.0026497312;-0.045214105;0.17149137;0.11028767;-0.12356093;-0.27833495;0.01345845;0.035829697;0.12583111;-0.054332957;-0.08960822;-1.3745599;-0.26823217;-0.19111042;-0.22040321;0.041270055;0.017693304;-0.004668554;0.14899087;0.02945416;0.065141656;-0.38735652;-1.5417709;0.05571996;-0.07107504;-0.025045132;-0.1351343;1.3469216;-0.22287168;0.17162052;0.091164656;0.63769984;-0.1145584;-1.0872407;0.042185713;-0.048617724;-0.012580148;0.05782974;-0.04039327;-0.04412888;0.6714988;0.27964348;-0.01767583;-0.06265015;0.06376708;0.045038123;-1.5066482;1.0325531;-1.5845342;-0.18440159;-0.031492483;-0.032199647;-0.25459805;-0.7283793;-0.30134755;0.087903194;0.0070138066;-0.07157459;0.061189603;-0.8433124;0.005206281;-0.08548539;0.09223458;0.007318285;-0.82368827;0.22195928;-0.045061465;0.082073934;-0.47799397;-0.015408782;-0.011649684;0.009532978;-0.005052823;-0.0027142025;-0.86218596;-0.097109914;-0.102720074;-0.025329813;-0.07703357;0.08846028;0.42912608;0.049747456;0.096289545;0.14854881;0.02350491;-0.06714537;0.0492543;-0.039852705;0.013061515;-0.394005;-0.2655995;-1.0409824;0.063266315;-0.42173365;-0.0022698157;-0.18015975;-0.0023973044;-0.019598214;-0.05014331;0.14640403;0.26293495;-0.07439176;-0.24105062;-0.06059823;0.06370535;0.026677582;-0.06811809;-0.07138933;-0.061390135;-0.013621802;0.012548902;-0.09107011;-0.5893351;-0.042316545;-0.101920344;0.2121291;-0.05289447;0.060697537;-0.8542143;0.09897474;0.08685298;0.08735754;-0.018095762;-0.0008366403;-0.08921989;0.90652114;0.08974589;-0.043490604;0.40365162;0.046397917;0.5419066;-0.95540977;-0.19289412;-0.07540543;1.081985;0.018577846;-0.15515707;-0.0629062;1.2763844;0.24332152;0.32760727;-1.3571643;-0.00851452;0.24263318;0.06397045;0.17615676;0.36355743;-0.048344903;-0.013556711;0.86086017;0.01960813;-0.23489632;-0.06348669;0.057482522;-0.108511716;9.3220966e-05;-0.003145079;-0.14617912;-0.03977015;0.03429444;-0.079650514;-0.08854563;0.09294166;0.03388546;-0.6009846;-0.3908709;0.03424471;-0.017914867;0.032955065;-0.41769525;0.058354612;0.66066664;0.6689515;-0.064498;-0.013093711;0.033385705;-0.09750645;0.06300245;0.08558108;0.006447838;-0.05652181;0.73497695;0.051631045;0.15105864;-0.1566016;0.0031947773;0.05998639;0.0524203;0.50228536;0.9628738;0.1767057;-0.09217167;0.3611864;0.01761319;-0.008876216;0.97401536;-0.58748287;0.02690794;0.02062897;-0.0971085;0.24618158;0.08230414;0.011162428;0.041610494;-0.048649672;-0.04352656;-0.18952511;0.04860011;0.58239675;0.023786882;-1.3802971;-0.04590486;-0.017978216;0.12461147;-0.21301506;-0.27830762;0.032543804;0.04542435;0.009637745;-0.083179966;0.041312862;0.85284716;-0.041659012;-0.30273616;0.15869634;-0.28566712;-0.045358203;-0.101168215;0.22831546;-0.045374725;-0.46815854;0.057424102;-0.02683952;0.025488753;-0.027226612;-0.071426384;-0.040145982;0.110115446;-0.0037001993;-0.04219931;-0.15152551;-0.024443712;-0.020057239;0.056431234;0.056004267;-0.020276561;-0.043931052;-0.04563354;0.060975067;-1.2376016;0.016331445;-0.27526325;0.02239772;1.754826;-0.041828003;-0.017182816;-0.018455071;0.0028278446;-0.107154295;0.02662404;0.19216159;-0.09164163;-0.004001419;1.0642443;-0.06973231;0.14595209;-0.037685942;-0.06465758;-0.13784494;-0.16143112;-0.035239343;0.9125662;0.21477997
-0.58498377;-0.057086963;1.1427733;0.031865694;-0.2580203;0.13571328;-0.61821324;0.054481383;-0.026033727;0.32761967;0.07785212;-0.021250779;0.25745493;-0.018767366;-0.0797163;0.003900772;0.6290517;-1.9152907;-0.07603582;0.65847003;0.6795802;-0.37408748;-0.062149942;0.0784314;-0.06555161;-0.5874217;-0.1669466;1.3568366;-0.12782703;0.184923;0.033461392;0.06493983;0.019640764;-0.50037044;-1.5935832;-0.65721184;0.4575046;0.0020904143;-0.051826023;-0.07895953;-0.003218641;0.019943811;-0.10240803;-0.15097795;0.01759587;0.023013188;-0.09159475;-0.018587314;-0.14625505;-0.21508054;-0.04006434;-0.59750086;0.03123272;0.6163649;-0.07779337;0.58503926;-0.23377723;0.02675162;-0.04901763;0.10815728;0.9401651;-0.02079334;0.09486334;-0.02672091;-0.0021052232;-0.034564786;-0.044627957;-0.001966992;0.6323358;0.0073125227;-0.007530992;0.00089169305;-0.08528498;0.06347653;0.21963613;-0.30803472;-0.1115331;0.039752558;-0.054096214;1.2231787;-0.7530192;0.004755634;-1.5852985;0.051946428;0.014106434;-0.089949846;-0.06044036;-0.10469195;0.07920458;-0.012045727;-0.11531587;-0.0014692214;-0.040232286;-0.30757564;-0.046213504;-0.10715915;1.3980644;0.036424514;0.044957213;-0.027432404;0.5137818;0.1033951;0.54589194;-0.029955702;-0.08317463;0.11493316;-0.067065306;0.051747385;-1.9054383;0.02341029;-0.07515917;0.035823546;-0.052874546;0.2324322;0.08189209;0.068936504;-0.016032998;-0.035462525;-0.015030026;0.012959321;-0.07204612;0.072590895;-0.05479858;0.0015592983;0.12992299;-0.540877;1.803457;-0.05132561;-0.06534126;0.6563322;0.0013596016;-0.13156714;0.038892467;0.07718826;-0.082142524;-0.06944565;-0.18128827;-1.8528506;-0.09062404;-1.0143125;-0.017103113;-0.20597924;0.06560676;0.004754593;0.02983709;0.055350743;0.13341272;-0.7708794;-0.15407416;0.074431665;-0.018888595;-0.1273558;-0.04519437;-0.22272967;0.041723676;-0.005304825;-0.115019806;0.38786185;-0.010419785;-0.46287668;-0.42524514;0.023346111;0.38250133;0.33211255;-0.85082215;0.09476358;0.07773639;-0.063021846;0.025570659;0.04836261;1.6010752;-1.4303644;-0.04497876;0.42964122;0.0061648036;0.0902358;-0.11909212;0.21928255;-0.30345547;0.08621728;-0.35141265;-0.15812366;1.1532791;0.708884;-0.10945402;0.04585738;2.9235268;0.036601692;0.062921114;0.014178547;0.5016877;-0.042363103;0.022030031;0.23028019;-1.0250044;0.43153012;0.080358155;0.023301141;0.029029535;0.011299716;0.08374633;0.025990697;0.008191669;0.019655317;-0.021383988;0.08942533;-0.14498912;0.06433959;-0.5227935;-0.015750881;-0.15376148;0.094815;0.0027396337;-0.067252055;-0.07420382;-0.19595657;0.08953164;0.3814064;0.20995168;-0.013556679;-0.14233282;-0.0358298;0.010761372;-0.08044857;-0.030097801;0.06814922;0.28060958;0.30395448;0.054416906;-0.06325951;-0.08293076;-0.044414148;0.4594442;0.0077765468;0.050817054;-1.2263087;0.066542506;1.0004232;0.57062256;-0.31549293;-0.027870644;0.042160783;0.071010165;-0.2902125;0.026479634;-0.35555872;0.00035011471;0.09192852;-0.047281392;-0.0119958455;-0.096951;-0.003497661;0.18353878;-0.45380658;-0.0574852;0.043678008;0.032776125;-0.006317384;-0.21122889;-0.06937657;-1.0004804;-0.10152659;-0.072478354;0.33906826;0.19506031;0.037382595;0.18723127;0.05750837;-1.3792572;0.14626725;-0.013631649;0.5690313;-0.044030186;0.042926222;-0.05385385;0.54958445;-0.17088296;-0.06909925;-0.077847145;-0.9287268;-0.06114358;-0.042150427;0.17261362;-0.0871176;-0.1085003;0.007932473;-0.04136689;0.0633998;2.3707974;0.032035463;-1.4927205;-0.045101624;-0.67501384;-0.06603345;-0.33597827;-0.14809543;0.00952574;-0.066974625;-0.045936376;-0.46357805;-0.020539511;-0.06366578;-0.037244607;0.0054811696;-0.047548037;-0.120111644;-0.086417586;-0.20857424;-0.25946772;0.06857762;-0.018565388;-0.060754128;-0.07965586;0.032796856;-0.8292343;-0.40413755;-0.050921652;0.6982282;0.076603346;0.014406158;0.06767718;0.10662592;-0.011946604;0.12261236;0.4415172;-0.5383107;0.13911314;0.033648435;0.05879332;0.33933756;1.1852212;-0.13726354;0.13473268;0.052701123;-2.3926573;-1.021761;1.0281595;-0.056332223;0.024045333;0.19502388;-0.43617314;0.037289828;-0.013298131;-0.8690351;-0.1800331;0.0614426;0.020050546;0.12703115;-0.05348182;-0.22709237;-1.2448738;0.66695493;0.006955509;0.031867556;0.029485928;0.30795822;-0.105802685;-0.5790249;-1.0138241;0.011999733;0.021529637;0.117403895;-0.59373915;-0.34940755;-0.046514943;0.16416684;0.048650347;-0.27910504;-0.12211809;0.19732653;-0.07016904;0.25287214;0.0029214215;0.07630313;1.8452402;-0.032695543;-0.06797782;-0.82126915;-0.017981227;0.030267475;-0.07702016;0.059441634;-0.032193467;-0.3529444;-0.3985895;0.19110918;-0.45825356;-0.2031102;-0.08350298;-0.074734464;0.059085537;0.5305319;-0.19326213;-0.020334698;-0.5916208;0.052372936;-0.2843817;-0.0068762028;0.37508503;0.1486812;-0.09712488;0.061921205;0.13183545;0.27274954;0.005987873;0.40730724;0.06250116;-0.09880254;0.027754368;-0.0400783;-0.029439535;-0.027566409;-0.12551504;0.021603564;-0.80866224;-0.18166257;0.013382306;0.024222318;0.29125956;0.037730813;0.03653045;0.9031166;0.03463977;0.06956105;0.037547834;0.06171993;0.039020676;-0.04862433;-0.50267786;-0.06504187;-0.0020332348;-0.6709855;-0.07775649;0.10112716;0.95539147;-0.39986154;0.011021016;1.0169182;0.019517222;-2.2924876;0.03142874;-0.7771563;0.20373702;-0.2998199;-0.098234124;-0.02373079;0.7173086;-0.037637446;-0.23778945;-0.7754064;-0.013631422;-0.03991602;-0.41647133;0.08221635;-0.035336375;-0.039517753;0.03551786;0.35265446;0.0025005639;-0.06951221;-0.121381216;-0.13522016;-0.07575285;0.052848436;0.05688614;-0.0689805;-0.025843479;-0.7669089;-0.2978711;0.07180098;0.034291156;-0.07056753;-0.54692155;0.039280493;-0.25579855;0.012851245;0.0017082031;0.045584917;-0.023740679;-0.029883828;0.14710951;0.027498322;-0.024501562;0.0010357172;-0.28843042;-0.020150384;-0.1799623;-0.27387577;0.018970776;-0.0154723395;-0.017369432;0.8846956;-0.13364892;0.009818497;0.08664565;-0.13507882;0.022641469;0.10427095;0.5591312;-0.9892681;-0.08195939;0.026885685;0.037877645;0.19576563;-0.15342806;0.04289728;-0.06537046;0.08476693;-0.021757204;0.03281507;0.040225007;0.8756537;-0.07983416;1.1585547;0.057604548;-0.16364099;-0.24738966;-0.2383406;0.40897188;-0.09106185;-0.037292007;0.04911256;0.06492486;0.050817724;-0.18459898;-0.021472408;-0.18259202;-0.086729854;-0.22359402;0.050468747;-0.036883026;-0.4745204;-0.47528175;-0.058361676;0.052022364;0.044405077;-0.08204946;-0.035908543;0.04073389;-0.031013696;0.106696844;0.048779186;0.033215422;-0.7816528;-0.07497323;-0.0913155;-0.025380673;0.07429089;0.054288674;-0.036576096;-0.026123533;0.082815126;-0.74184495;-0.037401788;-0.114714555;-0.02801634;-0.6276867;-0.091553666;0.084350206;-0.010769952;2.3429446e-05;-0.108931415;0.075386494;0.23167787;-0.069427066;-0.86257774;0.61399275;-0.017473664;-0.18333048;0.05229606;0.04876578;-0.102172986;0.28629237;0.038273163;1.3546336;-0.1817498
-0.88199544;0.23379704;0.51648986;0.09236959;-0.18789129;0.027036186;-1.0577155;-0.004732771;0.03351319;-0.10049246;-0.055214994;0.06714117;0.28988343;0.006765972;0.02766544;0.03845463;0.34319165;-1.083039;-0.2874666;0.07830192;-0.46144345;-0.41873938;-0.016980292;-0.034411747;1.1283114;-0.1714762;0.12514548;1.5935614;0.106484786;-0.28987187;0.00020617142;0.19076711;-0.062254883;-0.042974383;-0.605066;-0.79339767;0.06500468;-0.04284286;-0.08048432;-0.17524771;0.05718366;-0.021269554;0.4814869;2.3767216;0.02907167;-0.009712023;-0.0060059205;0.029646534;-0.035178732;-0.9695268;0.030704102;1.3257592;-0.0064007076;-0.33857757;0.029513676;-0.12922305;2.3725998;0.008679224;0.016091067;-0.8226867;-0.055821817;-0.12617303;-0.3999232;0.15033169;-0.0056852107;-0.11448868;0.035971425;0.074685834;0.724578;-0.10187142;-0.024805672;-0.10759611;-0.64449966;0.14348583;0.26027095;-1.8918716;-0.08617029;0.09124293;-0.21877193;-0.79412746;-0.449028;0.03578205;-1.425121;0.025137277;-0.924058;-0.080768034;-0.04002815;0.20613302;0.010684347;-0.09317136;0.0021203773;0.037268706;-0.015073592;-0.23703533;0.01878457;-0.10169825;0.22980224;-0.017153516;0.010628409;-0.032126516;0.08636473;0.12173346;0.8738672;0.10229372;-0.08195517;0.009293253;0.033361323;-0.056692034;0.44227782;0.04226184;-0.01868457;0.027863307;-0.0010674101;0.0029430932;-0.037242167;0.031820577;-0.029056413;-0.1087568;-0.047643237;-0.17490046;0.110400915;0.104265094;0.009421526;-0.022241117;-0.03612032;-0.34583402;1.2196845;-0.024247548;0.023460433;-0.09852979;0.07730952;-0.17024255;-0.032077186;0.004388823;0.057104032;0.00999109;-0.18693492;-0.5474859;-0.029704694;0.44277802;-0.054661244;-0.115647726;-0.10309077;0.0063532633;0.043083668;-0.030525185;0.105617516;-0.60504115;1.2649249;0.031143159;-0.0821002;0.019214187;-0.025935838;-0.22058307;0.06667945;-0.034063876;-0.15834571;-1.7245595;-0.014349887;-0.82621276;0.042182688;0.008990664;-0.11096697;1.8314334;-0.4026257;0.031468023;0.008110971;-0.17923214;-0.049798977;-0.07834582;-0.22338943;0.4367204;0.03700126;-0.6569667;0.065896295;-0.13656913;0.16383745;0.2694379;-0.29305255;0.023802903;-0.43178308;-0.37029615;0.15590106;0.1767388;-0.09189754;0.008274123;-0.012812474;-0.012559542;-0.0054655303;0.07865015;0.30373788;0.009861518;-0.039607223;0.11803183;0.39709565;0.16733885;0.058027763;-0.031037586;0.09452734;-0.56522095;-0.06853589;-0.0044942056;0.048896726;-0.06520488;-0.057458434;0.056582864;0.12672399;-0.1495602;-0.023347463;-0.07405704;0.18917166;0.13190131;-0.10806449;0.0017040395;0.11562115;0.048142336;0.056334525;-0.5028352;0.3795655;0.11724712;-0.06880174;-0.013976539;-0.02378467;0.08387278;0.08215934;-0.09986034;0.08997764;0.47579205;-0.009598625;-0.008050814;-0.06646263;-1.2394116;-0.095654435;-0.09100481;-0.051440816;-0.07926391;0.0075152754;0.048288662;0.97074884;-0.8752237;0.009955577;0.12477345;0.01679634;0.781305;0.029393582;-0.08183733;-0.07731649;0.19087107;1.0362833;0.00940876;-0.0011693856;-0.0309585;0.058154836;-0.33347023;-0.068111315;-0.08202679;0.033043027;0.038564544;-0.21437591;-0.048725598;-0.5814211;0.01127356;0.027622577;0.21834145;0.14923443;0.29682592;0.083711244;-0.019100187;-0.62037003;0.21717648;0.021395583;0.65815794;-0.077569515;0.038408462;1.5719321;-0.20968412;0.022245193;0.014073333;0.0070172865;1.2713847;-0.00051178556;0.06780758;0.23450913;-0.06011345;0.11468797;0.045104653;0.100585364;0.007357645;0.09685471;0.009915919;-0.6502808;-0.068263434;-0.009005122;0.052427754;-1.0172145;-1.565616;0.07795954;-0.39495146;-0.036734726;0.16450557;0.013254529;-0.09041462;0.05694986;0.4760159;-0.078175314;-0.3937343;-0.23492661;-0.28361365;-0.5764152;-0.035441082;-0.014425652;0.03802949;-0.027407704;-0.051563825;-0.78829026;-0.3244064;-0.105686225;0.6657964;-0.06667203;-0.06011924;-0.013940589;0.86021346;-0.08666119;0.092325605;-0.030971097;0.28783152;0.10594742;0.0111310985;-0.0136775905;0.60898644;-0.8293426;-0.15443668;0.10808601;0.06315136;0.85247934;0.13267462;0.31662855;0.0620229;0.03962921;0.20589982;-0.15578175;-0.076964565;0.008634483;-0.24382576;0.17842348;-0.038580693;-0.029157713;0.18755433;0.02861857;0.27604926;0.12813461;-0.12726709;-0.029788114;0.057215218;-0.053953875;0.10976327;-0.1738519;-0.30359492;0.15108097;0.0034906638;-0.07303023;0.0820568;-0.44292733;-0.0035469288;-0.05017961;0.025490968;0.018466529;-0.18911792;0.05812965;-0.50837123;0.057741586;0.73900104;-0.16132843;0.02063204;1.2069725;-0.07698044;0.04228538;-0.99715847;0.010871383;-0.1026593;0.00039072015;-0.0153226815;0.068291;-0.36461908;0.25117218;0.10107109;-0.61798906;-0.42499474;-0.08394784;-0.025239937;-0.0010860168;0.6125012;-0.70554715;0.78073806;1.118083;0.044889215;0.6630839;0.010280094;-0.33753982;0.09895163;0.048801467;0.06158865;0.21940349;0.1744321;-0.043197747;0.66179985;-0.031852107;-0.11798563;0.054245703;0.05124359;-0.0072578653;-0.030206777;-0.005827147;-0.053259984;-0.8486848;-0.19961107;0.03654201;-0.02583887;0.099601224;0.01242845;0.21131189;1.9617442;-0.011140031;0.024407642;-0.08883273;0.07684794;0.03653941;-0.02899757;-1.0986913;-0.048550423;0.007624948;-0.5255259;-0.10404896;1.3493788;0.02294801;-0.39921024;-0.034188777;-1.1865444;0.046035916;-2.3213873;0.0031152396;-1.4021285;0.14456426;0.097735815;0.845914;0.01889403;0.14964993;-0.023848068;0.071137495;-0.7148078;0.099363424;0.09463282;0.88625395;-0.058919843;-0.07221587;-0.056355476;-0.08747005;-0.1607912;0.014999403;0.051067803;-0.1313072;-0.3561361;-0.13786046;0.11683191;0.0033746762;0.046605125;0.023422679;-0.9619254;-0.17730105;0.020689916;0.081471995;0.012284892;0.0002493819;0.05682326;-0.7630577;-1.4620363;-0.042785097;-0.008603395;0.06841038;-0.054663528;0.14630455;-0.026950004;0.014773662;-0.02900675;-1.2202643;0.012110483;-0.10609866;-0.25471634;-0.44705495;-0.076730914;-0.019400816;0.6925185;0.5638935;0.31533188;0.08102698;0.24991019;-0.009942833;0.12997483;0.5451188;0.54193884;-0.04824521;-0.03341466;-0.102825254;0.23961993;-0.6224782;-0.058296293;0.004693727;0.05633306;-0.03162812;-0.03319054;-0.093209244;0.15773226;0.02595775;-0.12630805;0.07135365;-0.15302108;0.2455402;-0.1552805;-0.46238446;0.056828693;-0.093792364;0.036366444;-0.015994186;0.015723184;-0.15497781;-0.078492686;-1.0208701;-0.102300294;-0.33531323;-0.0010834549;0.073033705;0.4054556;0.40835473;-0.21393399;0.03198489;0.005123579;-0.089040965;0.030231476;-0.07299271;-0.0150131965;0.028369224;-0.015494314;0.01942013;0.031186312;-0.022847986;-0.09811836;0.02858516;0.07666206;-0.016707076;-0.08445836;0.019417966;-0.0056446665;-0.74887955;0.0048618005;-0.06696416;0.048103094;1.0578147;-0.13407063;-0.0008940529;0.016251015;-0.038820136;0.08703735;0.06310635;0.21312493;-0.10038392;-0.22749433;-0.44714642;-0.05431381;-0.18336323;-0.044095576;-0.017303962;-3.291546e-06;0.0701083;0.08266438;0.623553;-0.13655809
-0.7246942;-0.4184934;1.2143509;0.09837773;-0.18278542;0.26327395;-0.07832938;-0.026288992;-0.038670626;0.50428027;0.04035904;0.122756064;0.22912817;-0.021728355;-0.047248285;-0.01420109;0.56410736;-0.49494466;0.09431207;0.91939056;-0.66070724;-0.33230987;0.016513772;0.1491452;-0.49290797;-0.6235413;0.039620686;-0.10822417;-0.3734225;-0.57078886;0.12806109;0.41664833;-0.10604605;-0.9136254;-0.79137945;-0.46113896;0.1184804;0.14427194;0.018676516;-0.098363206;0.107635416;0.01768659;-0.540321;0.26653567;-0.053396266;0.0436127;-0.07365454;-0.10756319;0.04058465;-1.0316263;-0.001671571;-0.099012285;-0.04100836;-0.93888754;-0.02243457;-0.047587566;0.31948432;-0.019053383;-0.013809816;-1.2747416;0.16614074;-0.06165605;-1.0852141;-0.32645178;-0.2245143;-0.15676036;-0.039338563;-0.051759716;-0.2691805;-0.025482988;0.06668885;-0.025727669;-0.7876267;0.28858277;-0.37591526;-0.88786757;-0.07601408;0.04685744;-0.4597434;0.7463784;-1.5287509;0.07021979;-1.400694;-0.09111465;-0.45349073;-0.07453679;-0.03008337;-0.2064846;-0.0455549;0.011814638;-0.11484372;-0.12836827;-0.03871778;-0.3808374;-0.10856743;-0.17193702;0.010723729;0.2240026;0.048846528;0.06905096;0.26349252;0.17222767;0.60387874;0.0035422025;-0.14048384;0.08045733;-0.11534479;0.011035594;-1.0069547;0.0977846;0.062033888;-0.07198092;0.026438322;0.28938207;0.12326366;0.05253119;-0.041647077;-0.18853197;-0.06442719;-0.0996319;0.04879873;0.016072778;0.0012501467;-0.033572096;0.15528998;0.059176628;1.0453451;0.015521419;0.033717215;-0.38486025;0.18325128;0.32810238;-0.018376077;0.049879428;-0.05573426;0.022252068;-0.07212134;-1.7527264;-0.019424073;-0.74391127;-0.088912524;-0.2729174;-1.0974749;-0.017935885;0.008672457;0.1293574;0.15596671;-0.29056135;-0.08302886;0.0050210026;-0.036029197;-0.03872526;0.049072947;0.13885945;0.04223916;-0.060654093;-0.32683474;-1.1121387;0.14620973;-1.8673476;-0.14528495;-0.06817391;0.2714471;0.32841477;-1.2437092;0.08519667;0.1297846;-0.19458592;-0.07178084;0.06600824;0.40776208;-2.1655269;-0.053246427;0.19478706;-0.10478234;0.07312203;-0.083597094;1.7449534;-0.31608918;0.054127336;-0.6247466;-0.05548925;0.311676;0.5545255;-0.03619429;-0.0011492831;0.5535717;0.045000512;0.041832995;-0.022139004;1.3920387;-0.07811089;0.039264027;-0.012647207;-1.1370195;-0.20388278;0.037612837;0.13471934;0.088428974;0.018461345;-0.025516015;0.22015947;0.0046458445;-0.23529807;0.005660969;0.17593761;-0.058172926;-0.8666178;-0.07317536;-0.17734581;-0.3391388;0.23463361;-0.14086817;-0.12383516;-0.21191764;-0.066270255;0.15149589;-0.61815643;-0.067398444;0.115097955;-0.19551536;0.09225845;-0.021296315;-0.14948805;0.10590234;-0.049445093;0.18740998;0.20290415;0.023411542;-0.07174075;-0.10001818;-0.12451825;0.37768617;-0.072424;-0.040876813;0.2905483;-0.02354855;0.76993227;-0.65557426;-0.34647077;-0.19912973;0.06596998;-0.030993616;-0.6751503;0.013926533;-0.014871616;-0.033127267;0.0595921;0.32902285;0.072216764;-0.12982658;-0.10574432;0.19822697;-0.18031655;-0.12897578;-0.057984173;0.11799908;0.05897094;-0.34080458;0.009566721;-0.61169934;-0.16155083;-0.023689419;0.3740449;0.24678749;0.1571966;0.29426315;-0.104369186;-0.90343076;-0.88284916;0.02164534;-0.76299644;0.0008220602;0.19476055;-0.34386152;0.096316576;-0.058806997;0.07846654;0.039792508;-0.030581828;0.14801773;0.19156395;0.14975344;-0.069846734;0.024568576;-0.019648328;0.06669998;-0.15523544;0.14014092;0.09596683;-1.4606185;-0.007601146;-0.3406961;-0.027056845;-0.5638172;-1.6448363;-0.01901023;0.2823617;0.04688187;-0.40815413;0.0318433;-0.10767589;-0.035278197;-0.321847;0.023860643;-0.22982171;0.13496466;-0.16966426;-1.1371365;0.12923229;-0.07866391;0.21710703;-0.07388558;0.05521371;-0.2756727;-1.2410514;-0.17861864;-0.43970424;0.035797838;-0.05949654;-0.10116712;-0.08294618;0.027234208;0.077305615;-0.24112414;-0.06932704;0.13845268;-0.073773876;0.049491502;0.08476359;0.20093256;-0.17673394;0.20853655;0.22096987;-0.46262133;-1.4692268;-0.052201513;-0.07143312;-0.0480302;0.17206597;-0.44889718;-0.06699572;-0.04469429;-0.54247236;0.3001438;-0.07415674;-0.060105376;0.24825747;0.121685736;0.43983003;0.09447002;0.087997384;-0.26947555;0.16873816;-0.04839637;0.07371392;-0.3968894;-0.3250306;-3.3775666;-0.05084422;-0.065200195;0.16918223;-0.36518478;0.12280963;0.091243215;0.031226505;0.047968622;-0.55315316;-0.15096177;-0.39677656;-0.11505413;0.49611235;-0.219091;0.026229493;1.0387826;-0.04551524;0.02558227;-0.1963992;0.04444751;-0.087355465;0.029193461;-0.019965855;0.0509404;-0.586244;-0.6060119;0.13815466;-0.093834296;-0.2744463;-0.032491606;0.13380039;0.011946743;-1.7129426;-0.057556346;-0.65509677;-0.771612;-0.040831074;-0.55890983;0.13602215;-0.28996757;0.20847422;-0.05701377;-0.009873141;0.25058836;0.27687222;0.08300754;0.21614759;0.008310343;-0.14819361;0.028105555;-0.07289479;-0.029824957;0.06276132;-0.1360225;-0.06551721;-1.1312368;-0.3019078;-0.10200108;-0.0125888465;0.3138098;-0.104446076;0.29846486;0.6644521;-0.022958847;0.113553554;-0.05498582;0.09588301;-0.011260912;-0.12925656;0.33493784;-0.01181923;-0.062386844;-0.24692096;0.016197966;0.34465885;-0.6978069;-0.24538155;-0.008779241;0.05253264;0.07054386;-1.7905408;-0.1332086;-0.25249195;0.11707588;0.054389115;-0.9577577;-0.06383274;0.075499214;0.0057178712;-0.15835892;-1.4693092;0.05079647;0.110674165;-0.6112956;0.11097314;-0.33435786;0.048214965;-0.03730589;0.0040827994;0.09462794;0.005272606;-0.17502618;-0.38354164;0.019665664;0.12978831;0.06600454;-0.06400081;-0.043239128;-0.9490174;-0.17489403;-0.07043814;0.08415442;-0.08748139;0.016077584;-0.052549157;0.054908894;-0.5307748;0.1151194;-0.071412735;0.035696328;0.112849884;0.28094426;-0.019838702;0.032562394;0.06887754;0.68702376;0.1486238;-0.13860774;-0.2405385;0.8025964;-0.023875905;0.021125156;0.72427464;0.30710796;-0.8726218;0.11394929;-0.035159558;-0.123044915;0.15071157;0.6497532;0.2530347;-0.035806023;0.049622513;-0.15932694;0.20226696;-0.46534464;-0.12413867;0.097250685;0.019292582;-0.037223417;-0.32032037;-0.021723378;-0.037104268;0.12282291;0.7182071;0.18869112;-0.23627262;0.062152658;-0.20567827;-0.050344095;-0.058739286;-0.09194601;0.017863948;0.038557287;-0.08804223;0.2753239;-0.09101104;-0.34961995;0.09949273;-0.4984534;0.022203192;0.033676866;-0.08595781;-0.80744135;-0.12891571;-0.037547283;0.013350203;-0.04566722;0.02763769;-0.03167184;0.03660761;0.48194024;0.12938021;-0.0710895;-0.29905105;0.064515956;-0.08528647;0.024759268;0.030194404;0.046448644;-0.037793696;0.009999508;0.040176526;-0.23362337;-0.15606856;-0.060654584;0.043875422;-0.56783825;-0.039427437;0.10418041;0.1455972;-0.022727462;-0.15771934;0.0375768;0.28085834;-0.10341795;0.9644339;-0.5558069;-0.04921588;-0.32934353;-0.12405537;-0.095294;-0.20931758;0.1709857;0.012080233;0.5003127;0.16233443
-1.5493392;-0.8917056;0.9178845;0.026804442;-0.16139571;0.033702057;0.69555074;0.09166499;-0.018950343;-0.31009015;-0.019530121;0.098385245;0.08032217;-0.0602386;0.0508612;-0.043819264;0.035983145;-0.1238336;0.010090728;0.39429832;-0.0553947;-0.031965956;-0.05315235;-0.05635025;-0.2610612;-0.24627337;-0.10921498;0.17086881;-0.107340634;-0.7828001;-0.05040357;0.26548806;0.012609154;-0.7409904;-0.2599217;-0.1351979;-0.11611977;0.05310124;0.05905749;0.028332492;-0.026720064;-0.024885392;0.08822575;1.3403182;-0.10806009;0.080689505;-0.08308392;-0.05670374;-0.032387383;-0.86356544;-0.070071094;-0.4571499;-0.08824128;0.3243972;-0.015431148;-0.21683921;1.2722851;-0.074245684;-0.078157626;0.024686228;-0.06415134;-0.06579168;-1.2508073;-0.052186042;-0.18288854;-0.06857862;0.021713043;-0.07813892;-0.4120102;-0.06620392;-0.061655015;-0.026728118;0.09576098;0.043470327;-0.17749034;-1.3749758;-0.08705828;0.069732346;-0.43558654;0.8938861;0.0068010185;-0.026185865;-1.2945902;-0.06440645;-0.78009355;-0.067810826;-0.03649512;-0.030638594;-0.022602344;-0.0025107393;-0.06630377;-0.0254161;-0.021518204;-0.32729092;0.029294474;-0.053055782;0.07000824;0.0151984235;-0.023322335;-0.01658007;0.25135964;0.0107752895;-0.14112812;0.031753045;-0.031592555;0.025026863;-0.042026024;-0.03639208;-1.155766;-0.05849282;-0.03473476;-0.08682015;0.065347575;0.04274129;-0.0482465;-0.032472838;0.0111412415;-0.14324923;-0.053797204;-0.18769361;-0.0135571975;0.09234197;0.08274243;0.028871413;0.024933478;0.10037645;0.031882722;-0.04791299;0.0730994;0.38948506;0.073749125;0.3421392;-0.009003272;-0.0823732;-0.080597356;-0.085657395;-0.12432593;-1.5962797;-0.04721466;0.14491123;-0.09960006;-0.32999182;-1.2563828;0.003561128;0.023572829;0.075130194;0.1449138;0.4627669;-0.18173085;0.040004503;-0.075969756;-0.0864094;-0.025927922;0.11883261;0.0036904758;-0.0928663;-0.16568272;-0.57324046;0.057241213;-0.82153153;-0.3003994;0.042545788;-0.3221409;-0.70690435;0.38552472;0.0599707;0.035877455;-0.21276881;0.07542154;0.06870345;0.9028015;-1.458913;0.06641187;1.9722846;0.05040554;-0.07535113;0.32524842;-0.071764156;-0.3748403;0.016100481;-0.41298428;0.045533966;0.38544247;-0.103078544;-0.046994723;-0.017841045;-0.804512;0.03804009;-0.006829467;-0.014189949;1.6066667;-0.079021744;-0.027213415;0.025461247;-0.0038101026;0.38158983;-0.069994405;-0.007895118;0.08417022;0.0017122431;-0.08378355;0.052852236;-0.059451856;0.05194114;-0.045257855;-0.06596153;0.1487527;-0.4609057;-0.6483574;-0.033045113;0.084977426;0.015462074;-0.14116052;-0.04328657;0.047205105;0.079928815;0.056889433;-0.7030748;-0.16652519;0.0054292083;0.0014714862;0.02118023;-0.052417558;0.13075876;0.02461343;-0.02931178;0.13155673;0.31967846;0.027800651;-0.09995896;0.014446857;-0.21516709;-0.5628154;-0.023276746;-0.016026415;0.73117965;-0.037773192;0.13307315;-0.29449597;0.3877885;-0.16189778;0.08838497;0.050080158;-1.0892267;0.052583855;-0.14482063;-0.09968934;0.32144988;-0.07987656;-0.035610437;-0.04854396;-0.030844156;0.11803687;-0.20370139;-0.066252194;-0.080370255;0.068393506;0.06546353;-0.2757361;-0.0014894861;-0.6845713;0.06744332;0.0087799905;0.4556769;0.03965384;0.23571317;0.048411436;-0.050534014;-0.67216146;0.73656476;-0.047032855;-0.39369574;-0.048231576;0.070200264;-0.131801;0.17534477;-0.39446524;0.029627118;-0.033630203;-0.710697;-0.06248011;0.035572987;0.08651442;-0.0050807693;0.18231747;-0.020176169;-0.055502772;-0.07556048;-0.12004012;0.13226305;-0.09050053;-0.021716347;-0.088585556;0.062623054;0.17827086;1.0748963;-0.0089996345;-0.6435252;0.013463281;0.25034788;-0.013889135;0.058547694;-0.04403729;0.045318436;-0.04149614;-0.07998787;-0.061060403;-0.1770907;-0.5261584;0.04788592;-0.027106974;0.17133836;-0.030089375;-0.02548811;-0.61029774;-0.109468766;-0.008684987;-0.9516833;0.02756344;0.035011504;0.043579806;0.8352641;0.046296574;0.10061206;-0.1950754;0.22580583;0.051429465;-0.09430585;-0.04043413;0.16233894;-0.11802569;-0.21277346;0.10758398;-0.040772997;0.014410443;-0.30118;-1.3616091;-0.087374985;-0.081176445;0.15880355;-0.0007685416;-0.032982342;0.033411596;0.059087828;-0.15229335;0.06404176;-0.032262582;0.08902626;-0.012138603;-0.28477448;0.6167157;-0.9043365;-0.1772037;0.081910126;0.025639104;0.042947233;-0.4880761;-1.4572716;-0.81512445;-0.05951954;-0.018028293;0.012055206;-0.39287168;0.2780275;0.024715837;-0.031031666;-0.077179685;-0.38829044;-0.028276047;-0.11159508;0.0056988127;0.22316684;0.04175798;0.042018615;0.32549798;-0.035470154;-0.044073194;0.2544048;0.03435012;-0.017385898;-0.06584477;0.0346992;-0.06513755;-0.36525172;0.47699758;-0.0052511645;-0.22248124;-0.24273922;0.023525605;0.085736595;-0.022851834;0.38527858;-0.17317708;-0.14378333;0.09150771;-0.0503562;-0.1876751;0.027639352;-0.13227211;0.036727346;-0.09007946;-0.052592475;0.13046964;0.012068235;0.04653248;-0.32928172;-0.046840016;0.04871407;0.010429714;-0.08355659;0.012904396;0.084495656;-0.13123544;-0.0014358414;-0.76264066;-0.3992029;-0.015397501;0.0637322;0.04335655;0.04361016;-0.009913781;0.5633084;0.11290042;-0.040683605;-0.054814864;0.016574418;-0.0533885;-0.13325496;0.14958355;0.101291604;-0.08369663;-0.41362342;-0.09752873;0.66362184;-0.41083467;-0.32222423;-0.0039896606;0.017013062;0.039556764;-1.078356;-0.0089104;-0.4657675;-0.022404553;-0.34489214;-0.12638389;-0.13102211;0.08670249;-0.028641855;0.11837785;-0.2605874;-0.004954102;0.06928653;0.27868757;0.061694343;-0.21473941;-0.03101601;0.06252383;-0.12044094;0.039503492;-0.020598358;-0.011419935;0.06601735;-0.29370677;-0.039548926;0.02771207;-0.034458753;-0.086749226;-0.58928984;-0.17528282;0.045092303;-0.048506837;0.018511303;-0.23935989;-0.05200485;-0.30844006;0.52418476;0.048889525;0.02168057;0.08270565;0.02021805;0.1061196;-0.081753224;-0.016961882;-0.052043416;0.21423462;-0.0059855897;-0.044340204;0.08761123;0.52276117;0.06452679;-0.046259154;-0.122044966;-0.13301916;-0.4298663;0.053558085;-0.15954328;0.023005268;0.04479103;-0.283054;-0.043587524;5.687385e-05;0.041100234;0.0006858219;0.07391944;0.24072635;-0.044899564;-0.055203576;0.066141956;-0.04655377;-0.16448307;0.02792986;-0.017808937;0.02011826;-0.17167445;0.0896663;-0.29266638;0.14694916;-0.43442273;-0.35571113;0.030537857;0.029061241;0.013265879;-0.009593543;0.064302966;0.41919538;-0.0010221138;-0.4620302;0.038699184;-0.36741897;-0.044942975;0.009852293;-0.14842911;-1.5072134;-0.32667658;0.06695059;-0.078596964;-0.014406141;-0.034765407;0.03702735;-0.053224254;0.3846252;-0.06363206;-0.022077043;-0.4029415;-0.034421336;-0.026775701;-0.072125204;-0.068118244;-0.0753008;-0.043003682;0.036268942;-0.00081762683;-0.16511793;-0.0617164;-0.015195399;0.04619221;0.36894402;-0.008145351;0.032440748;-0.025267946;0.05651263;-0.2711477;-0.031524897;0.11491551;-0.068077005;-0.10455968;-0.14003119;-0.040767998;0.2168151;-0.010718819;-0.094707794;-0.20116295;0.07368799;-0.06361434;0.2994021;0.8990931
-0.49204618;-0.32221842;0.5225325;-0.07616041;-0.24895428;-0.024911998;-0.04326334;-0.07981551;0.06200309;-0.4523699;0.02716453;-0.074602775;0.11146657;-0.03822877;-0.005637095;-0.014266818;0.032751687;-0.44276989;0.026162852;0.06252355;-0.3530656;-0.029441232;-0.009072083;0.062542714;-0.21757838;0.32682237;0.015226136;-0.1614969;-0.029835422;-0.7371945;-0.003822811;-0.1617892;-0.037098333;-0.25496185;0.087204255;1.1430162;-0.14655809;-0.009888281;-0.014422337;-0.065286346;-0.10560466;-0.039544668;-1.0807209;0.10393442;-0.066061296;-0.054854635;-0.009575564;-0.07647553;0.007492426;-0.20845552;-0.031743534;0.17248967;0.10588927;0.26832047;-0.034809373;-0.26765722;0.11264086;0.043349903;0.041679777;-0.79957825;0.25843817;-0.036932986;-1.42793;-0.09587714;-0.22346511;0.099332586;0.06358955;0.039155915;-0.569037;0.05947725;0.023423549;0.044116765;-0.31637895;0.12864408;0.4994885;-0.41114625;-0.08095015;-0.053405453;-0.2915352;-1.3077286;0.23688067;-0.058808517;0.7401677;0.018180903;-0.7606141;-0.08984673;-0.050155524;-0.15079518;0.067696385;-0.053627606;-0.040672388;0.060948577;-0.048861306;-0.21848604;-0.021598447;-0.07334086;-0.547296;0.06055423;0.015637703;0.0151087325;-0.33969238;0.086265765;-0.25897023;-0.022349771;0.083634146;0.011493199;-0.065798566;-0.06695421;-1.014196;-0.06732419;-0.016451236;0.007273379;0.08543223;-0.035899747;0.06789415;-0.079559594;-0.07373476;-0.10025076;-0.048307575;-0.14712077;-0.02945809;0.008434303;0.05020392;-0.064516224;-0.08898206;-0.9691974;-0.81115454;-0.018440336;-0.04541361;-0.91337943;0.013247487;0.17634079;0.024631161;0.09115427;0.05375184;-0.018094622;0.06412377;-0.37157342;-0.08653395;-0.16198114;0.03520261;-0.21146348;1.0030537;-0.013355932;0.0449154;0.012616351;0.16659163;-0.5954936;-0.00075555;-0.020942695;-0.06230589;-0.014265953;-0.010659372;0.076207794;-0.056871105;0.0046867044;-0.20011994;0.11990732;-0.094841346;-0.48641124;-0.16999234;0.07492108;-0.12869954;-0.3817606;0.5210378;-0.0154663995;-0.06789356;-0.13501824;-0.061277475;-0.04132085;0.7182645;0.22212154;0.039697066;-0.291929;-0.04507316;-0.059340257;-0.0537122;-1.1809976;-0.21007352;-0.11211142;-0.1136502;0.083637714;-1.110321;-0.32015058;-0.08027999;-0.055999126;-0.22147506;-0.037561476;0.08610594;-0.012613235;-0.6688225;0.091312125;-0.02535702;-0.018835027;0.2543707;-0.016604682;-0.04797869;-0.13454841;0.060846586;-0.474933;0.0046900115;-0.026516056;-0.052687943;0.117929935;0.069526486;-0.09172889;0.10100592;0.41596305;-0.5984961;0.040574923;-0.35604447;-0.04475782;-0.03469783;0.14692084;0.036573023;0.36563662;0.0893083;-1.4568594;-0.2686577;0.07148944;0.13633788;0.05983981;0.008757035;0.19524287;0.028323578;-0.031632483;-0.14277916;0.17062908;0.032169767;-0.067829974;0.010708616;0.13012445;-0.5725435;-0.10966218;0.03130213;0.32143354;0.018202174;-0.713664;0.057335798;-0.36155564;-0.07488228;0.10388879;0.006558663;-0.81383294;-0.03794027;-0.009130296;0.06693974;-0.32868752;-0.21668996;0.06153985;0.04648399;0.08130051;-0.088669285;-0.061647683;0.08235597;-0.018879184;-0.023435242;0.0875638;-0.092024505;-0.06970873;-0.30509344;0.08641521;0.060337126;0.12344271;0.09881029;-0.19291976;-0.038531408;-0.05684366;-1.1115586;-0.10200015;0.05172662;0.8701438;-0.0038932648;0.016420547;0.006473454;0.2714731;-0.10762446;-0.11893192;-0.07169884;-0.44251385;-0.09506685;-0.12680696;0.08570094;0.08703184;0.1206166;0.04834277;-0.092217155;0.12875503;-0.009314046;0.1031515;0.7011173;-0.0031308774;-0.18682706;0.034306303;-0.53376377;-0.4700664;0.013547071;0.0769736;0.016154274;0.5742395;0.0167615;0.05665717;0.04600188;0.10353899;0.03558034;0.050197113;-0.13183385;-0.009326239;-0.67001873;-0.10477987;0.0480542;-0.031019341;-0.0579526;0.017952884;-1.1408405;-0.28297666;0.011151201;-0.47261527;0.021528313;-0.016501714;0.0701818;0.48008212;0.06840047;-0.10057076;-0.29526705;-0.972357;0.061971977;0.006766217;0.03473094;0.51488817;-0.08658185;-0.20038079;-0.008608025;-0.058907364;-0.8928712;0.0477127;-0.018704522;0.05417953;-0.0044434876;0.25090674;-0.16612035;0.009276021;0.010574448;0.42257398;-0.08598626;0.029612666;0.04365211;0.007517217;-0.07460535;0.24175788;0.76230466;-0.69329756;-0.21676402;-0.022436446;0.03464304;-0.048024293;-0.2580167;-0.30329263;0.94987077;0.003979533;0.04779133;0.02462485;-0.12690963;0.3018499;-0.07379363;-0.3827445;-0.048661057;-0.10085027;0.08293445;0.34667784;0.093977034;-0.07636437;0.0994243;0.08167796;-1.0817477;-0.00026011505;-0.069880754;-0.18080506;-0.08939628;0.015602852;-0.085748255;0.018079404;0.08594048;-0.071992815;-0.53456795;0.07196751;0.0556845;-0.120858595;0.05283052;-0.09178643;-0.02431032;0.6076605;0.54580694;-0.081250474;0.16853617;0.02950265;-0.09369955;-0.005393542;-0.4325191;0.039871905;-0.031268362;-0.0121683115;0.0946839;0.030453283;-0.015770141;-0.07104504;-0.021373097;0.0033525897;-0.05725214;0.04435252;-0.09282394;0.014001073;-0.0018865633;-0.072780214;-0.7706462;-0.018874511;0.061147876;-0.102162085;-0.04103495;0.02719347;-0.033157494;-0.2779106;0.09820201;-0.042500667;0.0092276195;-0.02934033;0.012619591;-0.060937583;0.16288939;0.06410722;0.068858676;-0.44015196;-0.041352957;0.10825219;-0.39700288;-0.22275425;0.03392768;0.39079857;0.03403148;0.1619279;-0.011393371;0.012922891;0.0952609;0.4313471;-0.17596589;-0.038265448;-0.028041637;-0.077420436;-0.079277776;0.2674796;-0.08144161;-0.098196335;0.03391205;0.0113338055;-0.20568414;0.05747847;-0.023102213;0.040487226;-0.0047773705;0.027480474;-0.14393409;-0.0958592;-0.30538487;-0.0068296683;-0.03635434;0.046346806;0.034473497;0.16299361;-0.07831344;-0.041093867;-0.11689939;-0.05012543;-0.035774875;-0.0049166437;0.20116109;0.34330973;-0.093583345;-0.035599783;-0.010052648;-0.020039663;-0.03413011;-0.0026642827;-0.070445485;-0.05946169;-0.009835035;-0.13421434;0.05396441;-0.04244284;0.23596387;0.14084294;-0.045693204;0.1708553;0.014969824;0.1096737;0.025717504;-0.5587239;0.084376;-0.056155745;-0.95147276;-0.26692244;-0.055279788;-0.018850433;-0.08220536;0.02131204;0.32696795;-0.04274182;-0.045905948;-0.032505088;0.08384512;-0.27923366;-0.015124304;0.19736053;-0.05940861;0.0656455;0.010657206;-0.22986767;0.028269226;-0.23843783;-0.9761362;0.045365352;0.0454142;0.05001656;0.047590114;-0.0003118529;-0.6424638;-0.01929218;-0.24881;-0.035407342;-0.21883732;-0.06002472;0.012900976;-0.397824;-0.4634647;-0.15747549;0.005140763;0.00996762;-0.06265499;0.041271344;-0.029263817;0.036182195;0.27433214;-0.09774825;-0.057484724;-0.13869558;-0.061728884;-0.13199288;-0.06830707;0.052465517;-0.066057205;0.08522002;0.05020848;0.05802442;-1.0686065;-0.013635022;0.05614401;0.016434545;-0.18733731;-0.059944768;-0.07412612;-0.041694082;-0.06586425;-0.14327446;0.020507451;0.09922455;-0.024617327;-1.0978475;0.60549974;0.0019829462;-0.19774576;0.0831167;0.07231003;-0.27922034;0.124924175;-0.08068296;-0.46552736;-0.29852235
-0.7818045;-1.1373457;2.0632575;0.032500725;-0.10079556;0.068597294;0.39421052;0.0680181;0.039689418;-0.7447605;0.051771827;-0.027171303;0.15713094;-0.076010205;0.05829177;0.08184531;1.210423;-0.5545762;0.10267999;0.37179774;-0.10195885;-0.14430399;-0.074262165;-0.06424048;-0.32390475;0.14706175;-0.094200134;-0.36074844;-0.0626405;-0.9307395;0.04067318;0.19701222;0.065152295;-0.4369322;0.28559136;-0.8709004;-0.4339423;-0.08502843;-0.02046243;-0.014835694;-0.06532583;-0.0056002666;0.8874041;0.12541887;-0.07667185;-0.08371736;0.043754354;-0.0013015858;0.033115536;-0.17421184;-0.053947352;0.43826485;0.12952451;1.283655;-0.05398374;-0.27079058;0.14963861;-0.050470956;-0.0062827063;0.27408126;-0.014863427;-0.027307326;0.59185797;-0.08066859;-0.26263952;0.09454148;0.023903618;0.03223717;0.24054463;0.0257782;-0.096491896;0.06009531;-0.8321805;0.07614023;-0.12191193;-0.10618382;-0.077308305;-0.053326514;-0.3497431;-1.1602243;0.024409344;-0.0805238;0.40973976;0.02812724;-1.0294623;-0.079212435;0.08135853;-0.07619428;-0.056780685;-0.19095081;-0.036524177;-0.017418813;0.03328764;-0.23084378;0.056945782;0.01257269;0.083257;-0.063395545;0.03927333;-0.12433842;-0.4683988;-0.040711943;-0.061668016;-0.053299922;0.08916116;-0.01596116;-0.13477115;0.0563859;-0.09961082;-0.093776226;6.041505e-05;-0.041963946;-0.035831064;0.10206502;-0.05986212;-0.051672664;-0.036462232;-0.21736382;-0.07121925;-0.32097277;0.0313686;-0.089477666;-0.012702361;0.07995699;-0.018647583;-0.5545882;0.5106413;-0.04142131;-0.031247118;0.12803468;-0.04652284;0.31576577;-0.03288752;0.025680097;-0.005720629;-0.06737025;1.6132513;0.8016767;0.05466436;-0.13193871;-0.07813647;-0.22946529;-0.14132835;-0.06906799;0.064862765;-0.017406896;0.03205561;0.37699398;-0.17318545;-0.0188469;-0.04146701;-0.08217024;-0.049038872;0.2446402;0.0214637;0.01987449;-0.11982321;-0.24410586;-0.047786985;-1.8942635;-0.03943019;0.02520657;-0.35803863;-1.134899;1.3807067;0.15579182;0.016919687;-0.18835028;-0.026878405;0.06848154;0.853271;0.66959447;0.0344136;0.38326788;-0.0013837642;-0.021795493;-0.41983777;0.7470944;-0.2761155;-0.0024838613;-0.70687133;-0.01919517;-0.50048745;-0.28986004;0.07559766;-0.05854638;-0.39773533;0.024556737;-0.06796946;-0.011072251;-0.5098764;0.021400161;-0.029232528;0.012582727;-0.13389225;0.61486006;0.043196887;-0.015751675;0.023338372;0.039623592;0.024578793;-0.05788016;-0.06426533;0.06966571;0.043270785;-0.057559803;-0.10126562;-0.5062866;0.71170217;0.038818777;-0.20295872;0.055852108;-0.13132513;0.036177263;0.15463449;0.1364511;0.050987553;-0.75174147;0.040009256;-0.021946035;0.022053476;-0.021652786;0.01923279;0.16535991;-0.022463491;-0.031580817;0.15827684;0.12039099;0.030548228;0.040200353;-0.012080973;0.29291523;-0.8242994;0.00926144;0.051091537;0.16212456;0.049174752;0.055557057;0.37976965;1.315007;-0.07901042;0.124189556;-0.087495916;-0.9743688;-0.08477026;0.01761576;0.015732707;-0.026013803;-0.15187795;-0.04701405;0.104611345;0.13082841;0.08370172;0.048626445;0.048092183;-0.043537535;0.029818507;0.041507125;-0.18645687;0.06383476;-0.52205575;-0.030651163;0.077052675;0.42288724;0.16424806;0.068677515;0.13543259;-0.04918043;-1.339435;-0.14823711;0.034772266;0.01648712;-0.08970349;-0.074683;0.058061935;0.023861732;-0.20022978;-0.023449782;-0.07796013;-0.90662533;-0.085296;-0.010194703;0.010859589;0.0822921;0.12748928;0.028118461;-0.007940934;0.06970835;-0.7714205;-0.041522935;0.6898027;-0.018249832;0.06448465;-0.0156227965;-0.20400445;0.9552181;-0.021908617;-0.54342014;0.058171373;0.21967039;-0.08239764;-0.069307834;0.044276595;0.26752567;0.06543711;0.106815845;0.13681905;0.07728895;-1.5779961;0.001024716;-0.016405515;0.17261298;-0.026679827;-0.027570479;-1.4413735;-1.14853;-0.1192307;-0.06042692;-0.080497414;-0.041518915;-0.051604446;0.5306914;0.028318435;0.010718852;-0.14625299;-0.60239637;0.06570876;0.07180578;-0.031841967;0.2238729;0.99869865;-0.18778318;0.09101993;-0.025581216;-1.2363178;-0.3066501;-0.1711956;0.04239913;-0.059591625;0.17261004;-0.030438896;-0.0075960387;0.023150016;0.5933573;0.9966499;-0.039468654;0.051891502;0.07450878;-0.010781014;0.36870152;-0.2903016;-0.18298449;-0.1628418;-0.09839131;-0.00048202105;-0.082111225;-0.35886315;-0.43610287;1.1533266;0.08623232;-0.069380865;0.0044910316;-0.56645864;0.336126;0.0047445437;-0.21567518;-0.03388622;-0.5844616;-0.025613546;0.08638861;0.036083654;0.18791592;0.14449154;-0.040784005;0.2744107;-0.054873943;-0.07127502;-0.21882404;-0.14179793;-0.113535814;-0.044378053;-0.07720462;-0.027286721;-0.6773108;-0.23424779;-0.010498769;-0.09309276;-0.021409815;-0.067322455;-0.036616117;-0.033445645;0.7596817;0.015884938;-0.26604503;0.03248387;-0.041664444;-0.18910457;-0.031131534;0.71932155;0.032430813;-0.08333954;-0.076716006;-0.002737166;0.07324098;0.036757447;-0.4628869;-0.071840726;0.013526027;0.0062482664;-0.035393838;-0.01910102;0.059360847;-0.09949412;-0.11272885;-2.1022737;-0.2843988;-0.02359074;0.022648815;0.14127491;-0.041376468;0.0318453;0.40943894;0.1572849;-0.017303772;0.082456544;-0.06988551;0.005678729;-0.092567176;0.21999572;-0.028789882;0.034948364;-0.7316543;-0.014990368;0.16012946;-0.42708883;-0.302904;0.014283319;-0.10143251;-0.00865633;-1.786437;-0.038838822;0.28574648;0.4288092;-0.6164664;-0.36768463;-0.0152373025;0.15308923;0.034503683;0.005200359;1.0322804;-0.018391445;0.060081795;-0.3112608;0.045592353;-0.17711245;0.02543627;0.06390145;0.02436523;-0.021665903;0.0013332088;-0.11507839;-0.08552988;-0.22901103;-0.09538104;0.0126945;0.024752062;0.037196994;-0.7741515;-0.097329035;0.06529285;-0.10215476;-0.08208692;-0.18230876;0.023716748;0.24577397;-0.013957209;0.008273564;-0.050991632;-0.005573818;0.052493654;-0.0037529278;-0.04165569;-0.043641537;0.040233597;0.033764813;-0.024759619;0.13622588;0.0124321245;0.20614637;-0.021947103;-0.0720002;0.6779787;0.30797;-0.98839045;-0.033934176;-0.70254153;0.08963659;-0.028281588;0.916678;-0.5026348;0.053381912;0.06993921;0.016207239;0.031822175;0.30612445;0.0038513287;0.05110344;-0.010084917;0.014398286;-0.213949;-0.050716516;0.21343942;-0.106469855;-0.96997344;-0.08325411;-0.219093;0.10199789;-0.31980774;-2.084035;-0.04249635;-0.077666886;-0.05367246;-0.026733153;0.038751457;1.3612385;0.03328775;-0.19803903;0.12431542;-0.5009003;0.017742328;-0.0028219305;0.021857893;-0.62210566;-0.5813202;-0.01567552;-0.022812374;-0.092137076;-0.06446577;0.07461261;-0.013244356;0.04371299;-0.06354773;-0.0036182285;-0.0054238024;0.04590991;-0.036318533;-0.010156181;0.039062437;0.005387147;0.0046028313;0.02083368;0.06454769;-1.543207;-0.041139618;-0.12652715;0.05657237;-1.018816;-0.016403284;-0.103403285;-0.083952874;-0.057757005;-0.0753076;-0.10223905;0.19304098;0.03654128;-0.71783656;-1.2143555;0.06251705;-0.50168383;-0.04000825;-0.0062376526;-0.19272822;0.028503066;-0.011508003;-0.47744283;0.24830003
1.5107104;-0.5393672;-0.07923934;-0.0021611254;0.051595084;-0.21185324;-1.308862;-0.106998175;0.028531034;-0.5851685;-0.06729785;-0.1905501;-0.13535672;0.09025035;0.12749177;0.05294627;-0.33642852;1.7968185;-0.20489578;-1.2293912;-0.27549386;-0.5155528;-0.079862475;-0.062053476;-0.28567454;-0.15089844;-0.13857013;-1.5247012;-0.102643244;-0.7088476;-0.03249036;-0.09152123;-0.011594067;-1.3898786;-0.38392106;-1.279788;-0.62399846;-0.14667375;0.12323242;0.15159331;-0.21435337;-0.0076083294;-1.2177521;-0.25469178;0.00833121;-0.07908796;0.08571335;-0.018428758;-0.0038570447;-0.5370437;0.031059746;0.23793533;0.22096775;-0.38975474;-0.017552521;-0.20677143;0.031087957;-0.03443386;0.0999641;-0.5466233;-0.3558499;0.1402239;-0.9728839;0.041097164;-0.21611099;0.08359808;0.048087604;-0.09435575;-0.15191534;0.022305006;-0.022748968;0.029040217;-0.30445525;-0.10692474;-0.6276028;-0.13678192;0.111586936;-0.10959568;-0.2170879;-0.07830724;0.34421775;-0.106169626;0.33167565;-0.03762226;-0.91098535;-0.030870488;0.014402585;-0.08975349;-0.16896738;-0.26502392;0.019755257;0.2548643;0.011488511;-0.19773959;0.1368125;0.1104147;-1.5439428;-0.22109178;0.0302405;-0.1883849;-1.8414247;-0.31313172;-0.511977;-0.1285969;0.19628121;-0.074945964;-0.0035119914;-0.06525388;-0.6242798;-0.07721235;0.044630535;-0.01834639;-0.03908324;-0.16998662;-0.081641614;0.025820175;0.12800117;-0.06976251;-0.040495977;-0.22536224;-0.069256105;-0.14933248;-0.02560525;0.094391316;-0.3028414;-1.4186977;1.0850756;0.041354373;-0.13990362;-0.40874884;-0.27248964;-0.06382555;0.0575344;-0.04849355;-0.041916866;0.061948452;-1.9007708;0.8437948;0.00891452;-0.08677767;-0.021141665;-0.107134975;-0.76640576;-0.015796676;0.05414892;-0.12247102;0.00092805125;0.086578354;-0.28538892;-0.094027095;0.12054689;-0.011895163;-0.24370097;-0.40623885;0.07339477;-0.015443665;0.060244616;-0.33313277;-0.16242261;-0.932455;0.15996392;0.037260626;-0.18010442;1.4288844;0.24564485;0.03737794;-0.23448057;-0.061316587;-0.029380502;-0.010279502;-0.009051597;-0.061684124;-0.0036885128;-0.89849323;0.023579938;-0.046406724;-0.46811396;0.5828901;-0.16143234;-0.26773363;1.3961195;0.24776196;-0.414221;-0.99476266;0.15765923;-0.14380093;-0.6701055;-0.029526474;-0.0586177;-0.05483354;0.6893894;0.105186805;-0.109480344;-0.00070047175;-0.59913063;-0.27408984;-0.052434277;-0.17595209;-0.26426795;0.18440147;0.107434586;-0.26911888;0.012754437;0.27119857;-0.044742018;-0.20476873;0.18044576;-0.37291563;-0.2573696;0.2300367;0.23808761;-0.19700946;-0.12320976;0.08399561;0.3022429;-0.08653074;-0.19293134;-0.9306132;-0.28322265;-0.030945461;0.11040304;0.048557155;-0.09719886;0.3786562;-0.004089787;0.04223209;-0.13487822;0.38211897;-0.008723462;-0.014704761;0.13488865;0.30081388;-0.32389632;-0.06785103;0.050015133;-0.07564845;-0.10221354;-0.121472016;-0.0027758551;0.23171064;-0.02374166;-0.08163484;-0.057835344;-1.0418392;-0.098054454;-0.33765548;0.08095203;-0.22804;0.008818791;0.045409653;0.121145815;0.17247584;-0.22173633;-0.5907761;0.13225555;0.05434968;-0.23879597;-0.04553032;0.20644082;0.07719745;0.09781756;0.2050371;0.010415702;-0.04879242;-0.14759587;-0.02379245;-0.06891876;-0.017017405;-1.0077026;0.3316375;0.086658865;-0.37511376;0.0242385;-0.22864237;-0.11812673;0.04595621;-0.24129337;-0.16811968;-0.075719364;-0.40677273;-0.18082115;-0.19520271;-0.14811207;0.13500042;-0.011118845;0.07694932;-0.15987659;0.2340048;-2.0952911;-0.050650973;-1.0891448;-0.011290839;-0.18553394;0.04282776;-0.4033272;-1.3130736;0.022532163;-0.82151806;-0.05593705;0.35808173;-0.15531614;-0.026605781;0.060699113;-0.59542316;-0.069811754;-0.6337102;-0.18469936;0.12625948;-1.4798955;-0.085117266;-0.063529775;-0.20112707;0.053440608;0.030280815;0.61357534;-0.6436451;-0.050653372;-0.4560594;0.048854116;-0.030542918;0.0024188037;0.5401341;-0.044356104;-0.008305554;-0.006122114;-0.54964906;-0.22947302;-0.005067199;-0.17467216;0.014763072;-0.075299054;-0.042612057;-0.20978293;-0.2000599;-0.3175798;0.23100811;0.010838386;-0.06161923;0.014005593;-0.18323764;0.33647245;0.091525644;0.01481257;0.4552596;-0.9209146;0.06467871;-0.0096186455;-0.2802525;-0.2913718;0.080017366;1.2650243;-0.05267454;-0.08093816;-0.19328965;-0.052531347;-0.4541223;-0.1531403;1.393065;0.39062327;0.15581074;-0.05750624;-0.20847677;-0.52470595;0.13543925;-0.13952489;-0.17516096;0.04167908;-0.25547782;-0.101672836;-0.38555598;0.10963469;0.10229972;0.14558989;0.021033613;-0.08599754;-0.03060101;-0.05126085;-0.00934125;-0.24239288;-0.015089454;-0.055439997;0.06939969;0.030142765;-0.2718058;-0.18111409;-0.3097767;0.24015157;0.13993298;0.042257547;-0.14539453;0.10428465;0.048598938;-0.23254934;-0.22171134;-0.64660114;0.09849148;-0.24781053;-0.14709741;-0.5463725;-0.26946345;0.15028693;-0.06233728;-0.18461609;-0.1993607;-0.19009146;-0.3890774;0.06372011;0.05880183;-0.14167662;0.047991034;-0.14730258;0.007055179;0.08794092;0.007151771;-0.36768672;-0.45767182;0.05420385;-0.14278424;-0.226795;-0.050596327;0.072750986;0.72790414;0.246179;-0.062956214;0.24652167;-0.07497002;-0.02570775;-0.06781996;0.3450459;-0.0044241636;0.0014732489;-0.6118339;-0.054184783;0.17809619;-0.16556458;0.101328045;0.014774819;-0.11884409;0.03626005;-0.53783494;0.061034895;0.31710428;-0.2496462;0.27274632;-0.5751395;-0.08791378;0.10089739;0.056672737;0.2344925;0.4054585;-0.25018263;-0.11357498;0.9039547;-0.046067312;0.033597775;0.10129776;-0.025518626;-0.28078356;-0.20520376;-0.07639518;-0.0050274953;-0.16270404;-0.1950799;-0.051056124;-0.009078461;0.2917337;0.02550387;-0.87249404;-0.061645713;0.009343908;-0.14375469;0.087080345;-0.1836167;0.038002055;-0.32886678;0.07955723;-0.12885371;-0.029067263;-0.05770977;-0.08775025;-0.21395303;0.13216953;-0.01887375;-0.08739855;-0.12559652;-0.29051524;0.24237095;0.08126307;0.20333254;0.037371963;-0.034791213;-0.3348641;-0.1504523;-0.36016133;-0.263032;0.31834924;0.18910263;-0.21581498;-1.4357599;-0.59828377;0.052655566;-0.04161809;0.06581163;-0.084974416;-0.059484396;0.021613497;-0.22269776;-0.11104568;0.16672617;-0.13462338;0.040018015;-0.98916703;-0.05490878;-0.47079813;-0.1979192;0.03542227;0.13511772;0.10152189;-0.7460131;-0.031828452;0.0035395906;0.04770336;-0.115871765;0.03318443;-0.19072783;-0.030040016;0.0031632923;-0.053611122;-0.086784676;-0.10844167;-0.026799826;0.48152533;1.2957522;-0.6258944;-0.04500341;-0.032503884;-0.0337058;-0.028840097;-0.015975533;-0.011559291;0.3624768;-0.043571904;-0.11150024;0.022096848;-0.0020389836;0.08152932;-0.031611532;-0.06375319;0.034632195;-0.0016983623;-0.05051701;-0.049661458;-0.26327842;0.12273029;-0.09829719;0.055074703;-0.7137875;0.071877584;-0.13583782;-0.17923248;-0.0645428;-0.16382828;-0.20421621;-0.05735086;0.02511746;-0.13679664;0.014365597;0.06692418;-0.6268197;0.025908705;0.08998824;-0.11117258;-0.14936925;-0.05063302;0.01811343;0.0311241
0.69222045;-0.32051477;-0.31405866;0.033647228;-0.25143576;0.12645818;-0.8638984;-3.264075e-05;-0.0262237;0.14167455;-0.077135384;0.05075705;0.045144133;-0.03501891;-0.061410066;0.023157088;-0.9771116;0.24932982;-0.13220432;0.2478081;-0.5103774;-0.5527172;-0.076753154;-0.028389638;-0.2621979;0.18579052;0.2549985;-1.8040638;0.111912824;0.9303739;-0.029605681;0.2946849;-0.05203527;-1.0484164;0.45957768;-0.2888165;0.09457501;-0.06276466;0.099184774;-0.21695474;-0.012981793;0.028838536;0.37360108;-0.78684086;0.067673855;0.010634885;-0.031374577;0.00068150205;0.17311922;1.0228276;-0.05289802;1.2112899;0.021628939;1.032577;0.06027934;0.100853145;-0.3635233;-0.023024919;-0.08484398;0.8764147;-1.3784255;-0.033902593;0.2868779;-0.026358772;-0.21841511;-0.07178311;-0.039611124;0.052860513;0.12047321;-0.061733276;0.035297837;0.0046950243;0.33806473;0.106268175;-0.05856519;-0.0790093;-0.15713315;0.017913973;-0.3854763;-0.66609937;-1.2359085;0.030973634;0.0634999;-0.028504157;1.0874978;-0.1696622;0.011282325;-0.22224782;0.087875485;0.15080002;-0.07994639;0.060894217;0.028435979;-0.27775624;0.03749932;-0.003739963;-0.30158913;0.0031583756;-0.044781744;-0.039592;-0.5653715;0.018426863;0.013403639;-0.0030707782;-0.029609365;0.07764907;-0.08536745;0.005570034;-0.74782515;-0.072497614;-0.03513678;-0.02480763;0.02251758;0.0019369507;0.0070221615;0.029466774;-0.046454787;-0.13850155;0.0900178;0.20818143;0.04837511;-0.068969;0.059104454;-0.013431854;-0.03666797;-1.0567676;0.8130437;0.016427971;0.035066597;0.08990596;-0.070239626;-0.27595308;-0.023150872;-0.0136593785;0.0147668375;-0.0027782968;-0.6371197;0.1753684;0.015628776;-0.117599435;-0.029847054;-0.30959153;-0.7350694;-0.051133014;0.00052761985;-0.008514345;0.096378565;0.07518839;-0.7933083;-0.04921352;-0.025145276;0.01941299;-0.04078862;-0.61888427;-0.051215306;-0.048974957;-0.12355091;-1.6425072;0.022313854;0.5381886;0.47873768;-0.01966885;0.6248808;-0.23841025;-0.43140715;-0.13629442;0.013217578;-0.10429984;-0.0091382265;0.08659716;0.347503;-0.011704868;-0.057831816;-0.26525286;-0.05309647;-0.14920254;-0.011607641;-0.26886466;-0.36676633;-0.05258367;0.19628231;-0.03507973;-0.8485471;-0.06433393;-0.028001131;-0.02006365;-1.2636285;0.00091419264;0.018646838;-0.08012868;1.5127038;-0.061767355;0.051891774;-0.23559709;-0.6130475;-0.79491746;-0.061292935;0.012799355;-0.07033031;-0.21966358;-0.048422396;-0.015306906;0.06947372;-0.06151187;-0.025178581;0.09899191;-0.19183895;-0.8511365;-1.6411986;0.0044877552;-0.3732749;0.08554078;-0.10665416;-0.014407398;-0.19967651;0.06537875;0.08414979;0.98879707;-0.19528733;0.009053637;-0.068442024;-0.079329185;-0.059249405;-0.017991213;0.0073404047;0.03504987;0.010994949;0.2435267;-0.0485918;-0.036736783;-0.022773815;-0.77380717;1.238849;-0.1465387;0.0132720135;-0.38242462;0.027903136;0.021943096;1.0284938;0.61807525;-0.18186238;-0.04459766;-0.05953356;0.9252735;0.002985995;-0.19206983;-0.022334212;-0.28001523;0.3621081;0.047854498;0.0446761;-0.0024562024;-0.007211032;-0.54097813;-0.037955243;0.04299828;-0.029996306;-0.02346026;-0.086743124;-0.027798787;-0.19490184;-0.060376313;0.039324638;-0.033297643;0.09338338;-0.07140625;0.12996773;-0.0034003088;0.17738342;0.023591356;0.022757031;-0.5191024;-0.12932058;0.14988141;-0.25147748;0.07599449;0.4041457;0.018626345;0.019760344;-0.55307174;0.031612407;0.089009866;0.066007175;0.026854964;-0.024024315;0.04388241;-0.08690692;-0.07832564;-0.7007809;-0.0047028637;-0.12527557;0.074278496;-0.4353413;0.0029783605;0.082060665;-0.021164265;0.041425113;-0.8996399;-0.04267572;0.60956347;-0.042956375;0.040312972;-0.021793036;0.51402795;0.012717548;-0.25355312;-0.37059757;-0.23375708;0.4910645;-0.08532153;-0.046805363;-0.3143855;0.038121596;-0.06956038;-0.43931618;-0.784315;-0.21241936;-0.45385382;-0.066216536;0.060179133;-0.08521629;-0.06644393;0.009339936;0.025833974;-0.42829564;-0.5149774;0.12620309;0.034073643;0.05552607;0.007768372;0.6469586;-0.17115612;0.13633536;-0.024938548;0.7349552;-0.46415702;1.1946335;-0.052069116;0.079731815;-0.020314747;-0.050161116;-0.088318594;-0.09722903;0.1828339;-0.13111532;0.08196374;-0.06870887;0.16242841;-0.032362033;-0.582145;-0.52597547;-0.28264228;-0.18519782;0.1760223;0.08075857;0.093997575;-0.4477405;0.85806596;1.2921631;-0.018686917;0.07847666;0.047437724;-0.6002294;-0.43952093;0.019149255;-0.11454374;0.036201168;0.14074166;0.13997601;-0.5372621;-0.01036661;0.18864346;-0.0043738186;0.013301825;0.83763987;-0.0705636;-0.054460462;-0.71540135;-0.028203769;-0.06934377;-0.08852559;0.03423679;-0.034824226;0.22438866;-1.5273588;0.07723319;-0.13576354;-0.10982684;-0.04911424;-0.06013198;0.008427941;1.0958872;0.106649525;-0.18238923;-0.22348778;0.072737195;-0.24763358;0.0017495614;-0.33313903;0.13462462;0.020009764;0.011403104;0.09781056;0.024643725;-0.024306213;-0.62986815;0.080800295;0.015641779;0.0054188017;-0.080862954;0.0054269317;-0.08224561;-0.11963884;-0.062004723;0.33091268;-0.51469046;-0.032965448;-0.0812568;0.09241256;0.05924981;0.15523809;-0.64641124;-0.21850395;0.07001408;-0.048362825;-0.08078332;0.02804117;-0.16535641;0.80932003;-0.04781243;0.056882158;0.2396181;0.07931387;-0.49069422;-0.3155141;-0.09211855;-0.006124513;-1.1051109;0.0027836065;-0.6795425;0.0472257;1.2538784;-0.018511156;0.48232007;-0.6980227;0.0069541377;0.4791593;-0.009162836;-0.19593617;-1.5727335;0.063963704;-0.018051054;-0.8837674;-0.05749416;-0.19318153;-0.081482574;0.004961842;0.15984191;-0.014689775;-0.05615125;-0.09600447;-0.13526994;0.2071493;0.044405706;0.007405022;-0.24020655;0.048331175;-0.1616363;-0.38805068;-0.00047812774;-0.022276765;-0.05947942;1.0977117;0.050959144;-0.047524914;1.4221133;-0.082860194;-0.00993957;-0.022426764;0.0024549933;-0.0013139453;0.03350478;-0.06544435;0.029270992;-0.4977648;-0.032657377;-0.07776043;0.0050720163;-0.3807791;-0.053967774;0.05293248;0.053195883;-0.08160557;-0.21185939;-0.00042171506;0.87155694;0.0018550539;0.059684265;0.12241818;-0.16947614;-0.028083872;-0.05799487;-0.10984553;0.11572759;0.3926392;0.052750763;-0.084735125;0.025753258;-0.19329752;-0.31660423;0.02844012;0.02444056;-0.07462973;1.0953184;-0.050078724;-0.24259916;0.42693;0.31826547;-0.64028203;0.03185691;-0.09426244;-0.06036727;-0.0082071405;-0.018278528;-1.472253;0.068953544;-0.040879954;-0.082548626;0.0448344;0.0042903367;-0.07756087;-0.28472754;1.1328259;0.649603;-0.02557126;-0.0032777414;0.08546321;0.06541697;0.025716439;-0.019388376;-0.06715129;-0.07025084;-0.00611896;-0.23079558;-0.080035806;-0.063961245;-0.0989306;0.063259326;-0.0065003377;0.09540456;-0.008622069;-0.022321783;-0.8146529;-0.101302326;0.21454532;0.02539914;1.2370031;0.051523205;0.009137956;-0.04672094;0.015385061;0.14817129;-0.050334994;0.058255915;0.00023579146;0.47032392;0.89265174;0.06743031;0.6290657;0.01784538;0.045780603;-0.22084427;-0.23544933;-0.041604906;1.0177634;-0.10302207
1.7695305;0.1768067;-0.08617442;-0.11269412;-0.13109475;-0.072309375;-0.6479323;-0.05273579;0.039692473;0.019610193;0.0031903083;-0.08876547;-0.15069099;0.012862863;0.013236063;0.059640083;-1.7101744;2.0364525;-0.09627387;-0.05647455;-0.12526357;-0.51868355;-0.08957557;-0.033743393;-0.06947516;0.821897;-0.14774027;-1.9632215;-0.10958951;-0.21928003;-0.030430034;-0.13588901;0.083999544;0.6081307;1.1498361;-0.33577597;-0.029832968;-0.20304687;0.103842944;0.044918846;-0.12835053;0.01876767;0.36658707;-0.84220374;0.0028369552;-0.09358816;0.031356197;0.07416978;0.06594644;0.87778014;0.143325;1.275492;0.2220787;-0.45035917;0.059167325;-0.13573852;0.19236706;-0.05860808;0.023086378;0.7124265;-1.0992477;0.05387607;-0.28022918;-0.021326492;-0.01705305;0.17327479;-0.02530967;-0.055060476;0.6353593;0.034367636;-0.060002483;-0.03544045;0.5351589;-0.055308565;-0.3215283;-0.09530081;0.08866264;0.021138791;-0.3595585;-0.27902612;-0.9646343;-0.1729686;2.029942;-0.03595256;0.62650615;-0.1328353;0.11752981;-0.18433125;-0.23864675;-0.10811497;0.05351028;0.15684651;-0.06894972;-0.11519759;-0.036522027;0.013627247;-0.5120451;-0.051760543;-0.023817323;-0.16595754;-0.7476172;-0.11453334;0.042839393;-0.105936944;0.04733296;0.0074951183;0.070362836;0.014384693;0.19565086;-0.06687283;-0.06399083;0.002827829;0.044919595;-0.2804258;-0.07770007;-0.008386136;0.0063115596;-0.07118048;0.0049504326;-0.006352548;-0.12078698;-0.096528605;-0.043849424;0.09010341;-0.19647159;-1.1497077;0.10109694;0.015590198;-0.17321199;-0.21986182;-0.115126;-0.033735212;0.048001405;0.0924087;0.05600562;0.029121654;-0.727754;1.5733129;-0.05383037;0.019651137;0.017122071;-0.28269202;0.23128894;0.102459736;0.04754314;-0.08707956;-0.030129697;-0.30679256;-0.20068714;-0.04178712;-0.045302097;-0.01857931;-0.14903946;-0.18981314;-0.0023406474;-0.040317405;0.0023139173;-0.5094447;-0.11976375;0.9330106;0.3760239;0.046774834;0.16033722;0.59011525;-0.6481329;-0.16369274;-0.20386304;-0.091080435;0.019406943;0.01027559;-0.09946568;0.9277662;-0.012158036;-0.35395932;0.017945766;-0.025104778;-0.6193077;-0.7258855;-0.29542235;-0.1087814;-0.029045312;-0.067174084;-1.1193557;-0.69123036;0.03620372;-0.21740282;-1.5001647;-0.14969629;0.086397044;-0.07981047;0.49513444;-0.023605596;-0.15361044;0.0016584459;0.23828995;-0.32661325;0.008125486;-0.18352036;-0.067830436;0.312827;0.0057555125;-0.06541824;0.07403866;0.23909205;-0.022875993;-0.105305545;0.1753782;-0.37981698;-0.5255555;0.10569308;-0.4233621;-0.10250931;-0.111972205;0.11760723;0.34609038;-0.06947431;-0.09468597;0.19024588;0.37953132;0.03578226;0.16784742;0.02712274;-0.03938948;0.08070315;-0.09326061;0.051121246;-0.3701614;0.17583613;-0.016629651;0.104945295;0.07527937;-2.494917;0.48332748;-0.0052250945;0.093549326;-1.3685575;-0.021728504;-0.23854826;0.23503813;-0.14651704;-0.119844854;-0.08138319;-0.006716211;1.0695182;-0.023288986;-0.18803242;0.0582513;-0.2250971;0.69234073;0.02058059;0.16588221;0.15509458;-0.25803584;-0.455936;0.05651666;0.06609462;-0.07901021;-0.046599053;-0.33385628;-0.0048625437;0.6024167;0.075403735;-0.003487705;-0.30128738;-0.18838342;-0.15928474;-0.3080285;0.02687018;0.71164805;-0.16585709;0.023008997;0.7694524;-0.019122131;-0.21254787;0.05637424;-0.28606573;-0.115891285;-0.20008361;-0.036191687;0.12442374;-0.12197468;-0.24572724;-0.17706563;0.19904317;-0.03840379;0.07817989;-0.048830684;0.15132867;-1.0416158;-0.090444565;-1.7982264;0.1286072;-0.07523943;0.096087724;-0.1438254;-1.1303291;-0.09461917;-0.2897212;0.022403054;-0.16728707;-0.02596212;0.03289615;-0.018081376;-0.19104996;-0.088400304;-0.17022522;0.03467909;-0.29806706;0.8530553;-0.07160575;-0.03431662;-0.34282115;0.021048585;0.028460788;-1.4934657;-0.7828303;-0.12371482;0.5319301;0.09084525;-0.08432874;0.016781792;0.3160553;-0.01579576;-0.06989349;-0.06279408;-0.1424785;-0.15543687;0.12009911;-0.16711302;0.45001122;0.48242256;-0.07359186;-0.13085474;-0.17948064;0.35092223;-0.076047845;0.20555912;-0.07893631;-0.08389414;-0.17048594;0.28259993;0.01768138;0.04469599;0.41931066;-0.00046255006;0.1138769;-0.044209283;-0.19834101;-0.14141619;-0.738457;0.5357788;0.23992515;0.016283557;-0.18340437;0.076809876;-0.44349885;-0.2790888;1.0774949;1.2440476;0.03577616;0.10013781;-0.12760058;-0.5245713;-0.5003193;-0.13855879;-0.19330728;0.072661944;0.18318531;0.07543708;-1.0844474;0.11788922;-0.07209858;0.15728818;0.078178175;0.6864765;0.043570053;-0.009452894;0.094996;-0.24256746;0.0067524603;-0.04738975;0.08027783;0.010366639;-0.20956296;0.3692454;-0.14013144;0.0599777;0.09309331;0.105937324;-0.09797656;0.032421738;1.1423064;0.5016317;-0.010096718;1.0805539;0.07393803;-0.13012365;-0.17766932;-0.5765784;-0.16852334;0.07357602;0.009241406;-0.17125495;-0.38156146;-0.1836648;0.16694081;0.058057107;0.15740313;-0.08054649;0.03700932;-0.08776022;-0.018532488;0.10281121;-0.057093967;0.39952525;-0.23736839;0.047409575;-0.07791718;-0.2365941;0.024115259;0.10337538;0.18905544;0.12229494;-0.055413432;0.13374153;-0.028652353;-0.08933678;0.041893754;-0.087929614;-0.09962241;0.002103704;-0.62626606;-0.079263896;-0.07515128;0.5283235;-0.5282748;0.004635229;-0.7271248;-0.032376874;1.2355138;0.16493048;1.3579696;-0.030219566;0.9083927;-0.08022666;-0.062346242;-0.25881395;-0.06356506;0.21325397;-0.42900065;-0.17833953;-0.15193577;0.80604494;-0.045262918;-0.042406052;0.004426676;0.025411125;0.1883415;-0.21475469;-0.08748248;-0.051074933;-0.066489205;0.17204541;-0.12462672;0.022481289;0.16013342;0.015243522;-0.68091434;-0.12288781;0.07530235;-0.17837805;0.058281492;1.55335;0.08747914;0.21199943;0.88226914;-0.0609342;0.050484926;-0.14388035;-0.10874674;-0.1416918;0.15614331;-0.05011372;-0.05418157;-1.3303493;-0.07650071;0.20049842;-0.023850894;0.074772835;0.20270066;0.11938629;0.08327394;0.5403238;0.62053704;-0.13012783;0.6701865;0.07443004;-0.149277;-0.057391953;-1.0411934;-0.012291581;-0.004084306;0.03701699;-0.076218076;0.21188173;0.039876107;-0.12384892;-0.09691556;0.058139056;-0.1192831;0.09853789;-0.43834805;0.021136018;0.6345486;-0.16495714;-0.21786968;0.12613766;0.26134592;-3.92277;-0.093037106;0.04259907;0.060319167;-0.0506297;-0.028128052;-2.4377244;0.06431113;0.34778577;-0.0072460696;-0.17571257;-0.082299985;-0.061978284;0.42199376;1.5651797;0.23914735;-0.07394693;-0.10034459;-0.06747975;0.00022376538;-0.04584739;-0.005814632;-0.49938384;-0.1541256;-0.020058744;-0.39006752;-0.04227999;0.08516293;-0.0988968;-0.05121363;-0.06625735;0.12036142;0.024351269;-0.100085504;-1.2507075;-0.042328194;-0.15159284;-0.059779525;1.9824136;-0.0014453073;-0.044599656;-0.121163405;-0.048836946;0.21568455;-0.1478321;-0.12314079;0.076507635;-0.5969848;-0.664893;-0.042172108;-1.2689112;0.09105613;0.01296768;-0.10364473;-0.13971578;-0.16437973;0.9918202;-0.104749605
0.2010019;0.32125217;1.1053185;-0.013021639;0.14374082;0.0011499836;-0.621775;0.05751842;-0.048947796;0.15115389;-0.03934857;-0.02660016;0.076368846;-0.005559137;-0.0030189455;-0.040551454;0.17845444;-0.23615201;0.043387845;-0.9041859;-0.27277458;0.032594502;-0.008925507;-0.008439522;-0.14980538;-0.47702172;-0.09869912;1.0065676;0.022854336;-0.1890283;0.044051047;0.070912644;-0.017067915;-1.0136338;0.23038283;-0.7788879;-0.27693543;-0.061439835;-0.002675932;0.085977204;-0.0027049;0.059634324;0.6737151;-0.7471537;-0.0026812623;0.0063169086;-0.015789757;0.027682789;0.14930324;0.24039936;0.003867345;0.48930717;0.020360393;-0.8988637;0.09381374;-0.019482357;0.45457003;0.01946176;0.07695866;-0.4479441;-0.028603356;-0.006063599;-1.7916335;0.007997451;-0.116158016;0.10484608;0.04146533;0.023291105;0.19864732;0.082637616;-0.049474966;-0.035141904;-0.96135336;0.009476407;-0.20721018;-0.49375373;0.049699795;0.030433241;-0.18386751;0.2600846;-0.8420016;-0.10612387;0.26994404;-0.01971126;-0.8091373;-0.033456538;0.008573096;-0.026809236;-0.10861519;0.02165253;0.093381286;0.042182777;0.04711591;0.012130547;0.09689803;0.016221283;0.42334485;-0.13445275;0.0514083;-0.12223894;-1.0748676;0.030748947;-0.025094913;-0.003508977;-0.021409567;0.009203341;-0.07860953;0.039579276;-0.9496701;0.009146303;-0.037586655;0.059208874;0.029268414;0.04963718;-0.057110578;-0.064772;0.039639074;-0.16135715;-0.07903767;0.056510728;0.0004978593;-0.11440433;-0.0738842;-0.01693495;-0.08049539;-0.9179286;-0.2914652;0.017190462;0.04502424;0.2547236;-0.086859435;0.10445874;0.018446965;-0.021915346;-0.027356816;-0.029633574;-0.20068426;0.4700286;0.02084041;-0.20404732;0.03274778;-0.29810947;-0.00259357;0.06942143;0.010631854;-0.06323079;0.00659306;0.5035113;-0.14589211;0.03314078;0.070896424;-0.015081072;-0.12278912;-0.38944733;-0.007712345;-0.05664974;-0.19928207;-0.21225934;-0.013604244;-1.3628392;-0.14986752;-0.045575827;0.13429964;0.51742876;0.80499864;-0.03794443;0.013474616;-0.038782954;-0.08756412;-0.025334898;0.925483;0.31957018;0.02349499;-0.445515;-0.054645084;0.06451189;0.10537871;-0.50917405;-0.1786431;-0.08837155;-0.4042937;0.06821252;-0.35213265;-0.23775227;-0.036021803;-0.05493391;-1.3970966;-0.043754384;0.0016466144;0.036551926;-0.6253746;0.03728338;-0.13609484;-0.035829104;-0.08121192;0.037461266;-0.01701967;-0.13401501;-0.073218495;0.078553796;-0.012168958;-0.07790661;0.057344925;0.15273969;-0.06112401;-0.121262014;0.1080624;-0.33489284;-0.41829965;0.040928394;-0.0026473445;0.0023598333;-0.09603707;0.059511203;0.10809051;-0.01645319;-0.07843138;-1.3288631;0.07884633;0.025840867;0.08149719;-0.020326262;0.005606857;0.09487451;-0.031805687;-0.05986935;0.066569984;0.06346046;-0.0038126602;0.07274536;0.06454531;-0.61701137;-0.00039639397;-0.09798568;0.05889052;-0.40182123;0.021058405;-0.23549403;-0.37754837;-0.37482923;0.016638592;-0.1332949;-0.0004458611;-1.2909248;-0.020361822;-0.39723346;0.08851383;0.072956644;0.07531173;-0.07004573;-0.004078615;0.10036423;0.04120929;-0.47504818;0.07728989;0.07663988;-0.061227947;0.06129795;-0.2805985;-0.032579996;-0.0035096367;0.09295003;-0.050475203;-0.053079985;0.09553403;-0.3051944;0.1518588;0.023993474;-0.10737277;-0.11131398;0.025898274;0.14183027;-0.0831304;-0.03230431;-0.29492137;-0.2700208;-0.09543615;-0.022359671;0.023834404;-0.04586712;-0.094986655;-0.12374058;-0.02503591;-0.009710751;0.012681806;0.079239294;0.01475797;-0.027391937;0.49681115;-0.11247886;1.004759;0.05446039;-0.11602795;-0.05219599;-0.3522369;-0.85493845;0.06553766;-0.569366;0.017449897;-0.46415722;-0.023704471;0.0142922085;0.09480924;0.10116081;-0.060553577;-0.69191486;-0.121599324;-0.12935452;-1.3121518;0.0019647933;-0.053584598;-0.30544415;0.08069231;-0.07028677;0.08952214;-0.4303932;0.005981397;-0.14801066;0.055639938;-0.036282443;0.082406625;0.47230572;-0.07052341;0.0141506335;0.04236128;0.09423134;-0.032266203;0.09640491;-0.093794145;-0.0048286202;0.28604487;-0.12335715;0.0057815365;-0.10235193;0.7939354;0.9717288;-0.57862747;0.05624345;-0.046149325;-0.12175179;0.21301267;0.008075196;0.060825814;-0.042986583;0.17209548;0.075680986;0.088040814;-0.05944712;-0.10394061;-0.23829755;0.4484939;0.18349221;-0.09750977;-0.14916661;-0.05275635;-0.13483171;-0.25114152;0.26109713;0.14470306;0.07477539;0.03511474;0.0018334682;-0.31773102;-0.35701;-0.041622743;-0.09903971;-0.07395751;-0.8491468;-0.24852899;-0.5659931;0.0721565;-0.34008005;-0.022368206;0.01224973;-0.13426267;0.0355433;-0.0046115094;-0.053143226;-0.090677515;0.040263206;0.027828647;0.022873005;0.07394348;-0.3598629;0.86740774;-0.07661805;-0.043044977;-0.123108074;0.058254886;-0.061508648;0.05368482;0.32689002;-0.22297913;-0.08408439;-0.07717521;0.002614921;-0.14524622;-0.1444589;-0.4962432;-0.027421774;0.0824845;0.038059376;0.06921946;0.13338298;-0.11566527;-0.049314536;-0.019314924;0.06587602;0.063675754;-0.0057704165;-0.048674278;0.020741273;0.064560875;0.05514206;-0.25346798;-0.37992725;0.043996435;0.028757453;0.007382425;-0.05877659;-0.013916356;-0.41832054;0.0442583;0.00029078207;0.09980378;-0.083890975;-0.047810674;-0.026062502;-0.1132868;-0.07899024;0.027135367;-0.074222736;-0.054435786;-0.016965553;0.43531284;-0.17772461;-0.005349965;-1.1328006;0.06532057;-0.19640347;0.03588337;-0.54354435;0.25908422;-1.269876;0.4353788;0.087729886;0.17433643;0.06221806;-0.059967086;1.654806;-0.16407788;-0.007094484;0.14451833;-0.024356466;-0.15899624;0.03668179;0.023850396;-0.07839305;-0.11037398;-0.014922836;-0.08438755;-0.016728723;-0.1313043;0.025485821;-0.07067511;0.078375824;0.08719976;-0.90145326;-0.0458244;-0.059274126;-0.11477155;-0.062065214;-0.5556334;-0.009802574;0.17446274;-0.07619981;-0.0681691;-0.055180386;0.021517487;-0.025155813;0.0474377;0.037744425;0.014263032;0.009778347;-1.5421667;-0.050711207;0.1358146;0.08253832;-0.35436282;0.083157435;0.049201887;0.5987654;-0.063264094;-0.35354558;-0.07483484;-1.0969028;0.056343354;0.027725402;-0.20064026;-0.050887756;-0.019482812;0.0679101;0.041775502;0.026859578;0.27234527;0.10124515;-0.10217567;-0.024406273;0.06701329;-0.1405563;-0.032031156;-0.69839203;-0.118943274;-0.93669146;-0.0193463;-0.27434096;0.032603208;-0.17590722;-2.8764079;-0.010253787;-0.015893476;0.08160294;-0.05294546;-0.025774311;0.20463108;0.034955785;-0.24248873;0.017551357;-0.35498688;-0.006184727;0.031959303;0.32144037;0.59793097;0.011040466;0.009940288;-0.011890908;-0.09880081;-0.03830671;0.0075448556;-0.07854417;-0.39811838;-0.10949151;-0.047683597;0.029019354;-0.03773763;-0.04431165;-0.039026253;0.023972683;-0.04893625;-0.013087322;0.056751415;-0.07544189;-0.44626203;0.047950502;0.0071279868;-0.022860691;-0.25173825;0.06308694;-0.05214718;-0.13262354;-0.011299752;-0.32871705;-0.09085197;-0.014886198;0.012100508;0.40670273;-0.4822352;0.04211283;-0.6366738;0.03986072;0.0044284123;-0.21127972;0.012013624;-0.032709017;0.18384545;-0.09727299
-0.8349957;-0.59371716;-2.5515492;0.049581856;-0.17070313;0.15656294;0.8668987;0.1042202;-0.06465203;0.14631952;0.011066047;0.15265755;0.29547814;0.055699494;-0.03860197;0.011467407;-0.9703325;-1.5019988;0.16183501;0.74162084;0.6647453;0.44121763;0.0133776935;0.06565769;-0.39306042;0.60386527;-0.045670744;1.8542219;-0.08190685;0.45168564;0.09337487;0.2972168;-0.10685559;-0.36121842;0.08037591;1.9353542;0.2981242;-0.004751044;-0.114766456;-0.093262516;0.14032297;0.008813666;-0.4791039;0.7991319;-0.123058;0.045487724;-0.08557751;0.058925662;0.08394063;-0.47589058;-0.05386766;-0.59343493;-0.10028863;1.034052;-0.07949408;0.029735835;-0.27605125;-0.030283;0.017178793;1.0186112;2.0638456;-0.01853436;-2.0911033;-0.088234834;-0.3087437;-0.02308674;-0.08098481;-0.07104926;-0.3151802;-0.08925455;-0.016346605;-0.06584528;-1.4533293;0.19732924;-0.5702744;0.07869068;-0.05751187;0.10432174;0.4018021;-1.1655761;0.33136216;-0.018368708;-0.47690302;0.0036509982;-1.0570402;-0.11399773;-0.11172293;-0.14144787;0.008321542;-0.074395664;0.0052434397;-0.061232742;0.033289343;-0.15894508;-0.03268173;0.01290701;0.4151657;0.023330307;0.042615794;0.050038356;-0.5052682;0.0767221;-0.08864061;0.040448453;-0.0007777447;0.0166718;-0.17269933;-0.017280353;0.6112373;0.008345792;0.022589475;-0.04198664;-0.03467392;0.18393454;0.10855494;0.056680202;-0.020726869;-0.17541626;-0.09471483;0.1739665;0.023203367;0.12307201;-0.025376214;-0.11763006;0.045203112;0.47216275;-0.56244516;0.04740969;-0.015389097;0.17054348;0.13349472;0.015864275;-0.056075256;-0.050199527;-0.02432845;-0.03331727;-0.3464976;-1.5854951;-0.075399734;-0.5817389;0.004777147;-0.22458959;-0.8050993;0.014029279;0.07609415;0.08547491;0.05234214;-0.4748334;0.042795934;0.04975867;-0.10143632;-0.031121606;0.13399994;1.0326334;0.06252004;-0.087275214;-0.2640597;-0.017701674;0.027953014;0.5401149;-0.029400025;0.009744728;-0.09351915;-2.142546;-0.35005617;0.11228594;0.032208562;-0.13302626;0.027339214;-0.1003173;-1.7365266;1.4582112;0.03276139;0.43463683;-0.08491888;0.05974925;-0.48976165;-1.8016878;-0.23915976;0.033500418;-0.45235893;0.01261085;0.11062881;0.10006265;-0.107394844;0.13357587;-0.2810019;-0.024729833;-0.08178552;-0.04498819;-0.2810631;-0.061395638;0.046193354;-0.023415172;1.4317693;0.07153221;0.050319556;0.061146494;0.06386992;-0.04384023;0.023038173;0.051334348;-0.01472455;-0.11886794;-0.058516905;0.05559964;-0.026180392;0.2292978;1.4361664;-0.040635243;-0.121136524;0.09096314;-0.11915355;-0.076428756;-0.19428213;0.061674222;0.10541425;-0.9276664;0.38544688;0.048811555;-0.094245136;-0.06320455;0.03731791;-0.053095914;0.0031147231;-0.06749896;0.27363032;0.104037695;0.06506229;-0.10971266;-0.02246013;-1.7640351;0.3775788;-0.07156185;-0.1259938;0.6074528;0.08338406;-0.0034608461;-0.51978326;-0.92650616;-0.07876357;0.012245083;-0.057799563;-0.9779573;-0.0151298195;-0.07236539;-0.056337766;0.3537296;0.071745984;-0.018849518;-0.15022182;-0.099696025;0.23360027;0.06700847;-0.06469918;-0.09308975;0.046214316;-0.04774779;0.08606696;-0.10588989;-0.1841017;-0.08646307;-0.09668815;0.17407127;0.23735256;-0.050926663;0.33761838;0.049044427;-1.2962904;-0.3301955;0.0054522855;0.7616337;0.018195268;0.012523395;-0.37777838;-0.15440673;-0.23405036;0.04637302;-0.012593791;-0.12963703;0.14166328;0.059913296;0.16156839;-0.071652375;0.037583854;-0.00093574135;0.0047556954;-0.12879348;-0.33247378;-0.1184472;-0.9370359;-0.035368294;-0.16215627;-0.11366483;0.0062089865;-0.2491431;0.082567446;-0.4121037;-0.011667987;-0.7860551;0.10873507;-0.042905554;-0.06617239;1.117769;-0.054460105;0.43836772;-0.20997274;-0.1264353;-1.044787;0.06669571;-0.0025916575;-0.01558329;-0.01707694;-0.022280727;1.4283448;-0.72176915;-0.12745522;0.08985324;-0.10131342;0.0739935;0.039539125;0.3407486;-0.05293704;0.08922654;0.007637814;-0.6407036;0.15684988;-0.07405747;0.062421825;0.46697873;0.2553003;-0.19667745;0.16352263;0.10998309;-0.62063783;0.14193116;0.65444344;0.07620976;0.035535574;0.04955249;-0.0010406516;-0.007344582;-0.07906452;-0.5917736;0.6806063;-0.0960315;0.059601028;0.10189561;0.046380505;1.4228158;-0.3057733;0.11249386;-0.14612406;0.1176439;-0.09369984;-0.22428684;-0.22817998;-0.98538196;0.50184995;-0.112041175;0.0014405659;0.19485636;-0.48647383;0.016092688;0.14333396;0.04378978;0.056966674;-0.14109033;-0.102909125;0.043941725;-0.111157976;-0.3545149;-0.13285738;-0.0032275831;-0.8209697;0.03301928;0.12053931;-0.51907855;0.03553188;-0.047946267;0.043661047;0.02441786;0.015357853;-0.42296562;-0.02141621;0.18054861;-0.22580758;-0.16312271;-0.092659645;-0.01549033;0.01473;1.7215124;-1.6990643;-0.16362987;0.8690456;-0.06388115;-0.28190115;0.13603817;-1.1938752;0.051986653;-0.114156015;0.07686077;0.21153471;0.19172262;0.07000816;0.79477423;-0.10356853;-0.08426887;-0.044710897;-0.07110979;0.08172093;0.105339035;-0.1283495;-0.010511902;-0.33466494;-0.35234085;-0.033293255;-0.018113028;0.2501735;-0.048495155;0.0908573;-0.9892852;-0.2040524;0.001736723;-0.05779001;0.089183554;-0.064328946;-0.0504122;-0.09217151;0.04784494;-0.055048708;-0.67208445;-0.038965;0.18377757;0.33936214;-0.08748345;-0.092377506;0.5787108;0.06116859;0.92366713;-0.084442586;-0.869704;0.17427924;-1.081726;-0.5934976;0.019499376;0.13423562;0.046223193;-0.078192994;0.80397785;0.057789803;0.05970831;-0.5861203;0.06286917;-0.07753061;-0.082960166;-0.08236952;-0.123165734;0.09280177;-0.013519234;-0.04800273;0.13870113;-0.098185025;0.13853727;-0.04611305;-0.14196992;-0.06747211;0.7130317;-0.32303676;-0.06102697;0.018233497;-0.046523675;0.016908802;-0.022889616;0.2587493;0.63250536;0.09333261;-0.03401164;-0.025823802;0.05499439;0.13006005;-0.0041228617;-0.0769606;0.037429787;-1.2650481;0.13648975;-0.04316979;0.05122095;0.03143738;0.014608109;0.029618483;-0.5983753;0.22481115;-1.7836497;0.15480861;-0.9773348;-0.019170884;0.037638668;-1.0739831;-1.2052532;0.0005244431;0.016267141;-0.05136224;0.21298116;0.18992023;-0.10004572;0.09057001;0.03902893;-0.11079463;-0.424598;-0.11419439;0.75585735;-0.07548602;-0.7581189;0.14763595;0.26740113;0.22303003;-0.2602611;-0.5860174;0.012033321;-0.057762437;-0.07238627;-0.020707637;-0.012511566;-0.906827;0.0064147385;-0.3062431;-0.018945409;-0.31850642;0.09138701;-0.01005759;0.04592077;-0.6350947;0.12660588;0.051515967;0.038563058;-0.08895567;-0.08289765;-0.06400751;-0.013065746;-0.565928;0.01188483;-0.0584436;-0.20743085;0.0718855;-0.11946786;-0.054093204;-0.025776805;-0.05879287;-0.07752981;-0.102819465;0.09548685;0.57808405;-0.118525684;-0.10931641;0.040684287;0.2371216;-0.04661906;0.05662422;0.12449696;0.084602915;-0.029637387;-0.008467666;0.32416746;-0.043354657;-0.9098678;-0.21660635;-0.0082339905;-1.1257544;-0.11623894;-0.029610856;-0.306247;0.2015062;0.058372296;-0.2979345;-0.023774775
0.69351906;0.39965352;1.717176;-0.033871252;-0.25218087;-0.13205402;-0.90745366;0.004539496;-0.05439777;-0.17343745;0.0075410726;-0.013942445;0.036070004;-0.0031403569;0.07533446;-0.078962;0.37098145;0.5581901;-0.07444759;-0.33689484;-1.0709955;-0.7408178;0.045289006;0.017696295;-0.1865654;-0.8915197;-0.18847854;-1.3821784;-0.0333863;0.23569924;0.032290455;0.16516387;-0.061286543;-1.2019627;0.1883782;-1.3363028;-0.3371031;-0.041470166;-0.067382045;-0.027628709;-0.073071785;0.017467968;-1.6017407;0.5481537;0.036441207;0.0088073155;-0.028710205;-0.069899976;0.11163651;-0.4869932;-0.055672295;-0.9190585;0.024090674;-0.27030146;-0.023369871;-0.17862728;0.40701908;0.0399326;0.014948168;-0.043493982;-1.2805628;0.07189095;-1.2852409;0.101255246;-0.25081488;-0.017474258;0.03860965;-0.0015056164;0.37596682;0.033149783;0.04933223;0.082601115;-0.10440383;-0.0031953445;0.08958574;-1.323634;-0.07865509;-0.038699705;0.13762806;-0.7234814;-0.67072135;0.05269067;-1.8606384;0.060404558;-1.5803715;-0.13944118;0.06664881;-0.035851732;-0.12594429;-0.0052239173;0.027401626;0.018705284;-0.00567812;-0.1089934;-0.07370797;0.018482033;-0.82309514;-0.023079114;0.024825333;-0.050518747;-1.4561113;-0.015523473;0.41426274;0.048145235;0.06693367;0.027418433;-0.01206728;0.0692204;0.2184139;-0.014379309;-0.028459175;0.0020615896;0.05311169;-0.061643727;0.009305546;0.07490085;0.03577812;-0.19642913;-0.08714043;-0.22828813;-0.06738319;0.02641201;0.00053509866;-0.028777575;-0.073886804;-0.6272481;0.9714438;0.081765994;0.0030386306;0.1680028;0.0068279724;-0.13405755;0.026065445;-0.0792666;-0.061642546;-0.009822694;0.061894346;-1.3367646;-0.08450526;0.16208325;-0.08209075;-0.25567448;0.10560112;0.06389863;-0.03470322;0.022238353;0.08256569;-0.6115261;-0.27642983;-0.08426321;-0.03524977;0.026776556;-0.12204305;-0.2849385;-0.05217563;-0.049148574;-0.28326902;-1.0024403;0.06605196;-1.1816975;-0.13965745;-0.07319002;-0.4849555;1.3131044;0.2874334;0.0034432071;0.038867548;-0.10405121;-0.0060298336;-0.04466183;0.60273826;0.7701315;0.01447913;-1.0698804;-0.057890855;-0.0036094915;-0.7504368;0.44624647;-0.19711873;-0.11285698;-0.25999063;-0.046224874;-0.6321672;-0.5339963;-0.045905337;-0.004834766;0.34537193;-0.020507857;0.0070361895;0.06880303;0.8150527;0.049395114;0.027005117;0.1064086;0.25967413;-0.21144329;-0.046200544;-0.07958466;-0.07067586;-0.23199326;0.015952416;0.0005040168;0.038178205;0.07172027;0.07886865;-0.1451631;0.29188904;0.40363958;-0.073847875;-0.051882982;-0.5705163;-0.079432905;-0.0557462;0.058906503;-0.02006284;-0.11794381;-0.037129402;-0.69989413;0.16299334;-0.023119388;0.03745808;0.027763873;-0.069842875;-0.1598051;-0.10062539;0.079861075;-0.0422698;-0.12953149;-0.02296741;-0.059932753;0.09938309;-0.4172344;0.1218984;-0.14166872;0.08700412;-0.03855453;-0.029897368;0.068620175;-0.8753503;-1.0141091;-0.010508724;-0.016006745;-0.0525911;-1.1580733;0.08679765;-0.4037066;0.03430633;0.12772277;-0.22656803;-0.07641077;0.020273268;0.04816826;0.026898641;-0.16802841;-0.060586877;0.08143907;-0.13235402;-0.059049126;-0.2963747;-0.031199437;-0.8600733;0.09885878;-0.03005593;0.05710898;-0.014721106;-0.2687198;-0.0042219777;0.059902545;-1.3476583;0.35683817;0.04037822;0.71720165;-0.048219822;-0.03438337;-0.5761731;-0.22070755;-0.42297587;-0.05838365;0.05407445;-0.9576868;-0.07062085;-0.06299156;-0.0015440261;-0.0529152;-0.036176547;0.02990693;-0.013933807;-0.023606008;0.3372434;0.031643547;0.7567958;0.032246564;-0.5589152;0.052890997;-0.2515727;0.0865859;0.06900918;-0.3189256;-0.061510388;-0.6527743;-0.013190609;-0.06678393;0.044506032;0.41909054;-0.09036747;0.1379087;0.09184863;-0.01722568;-1.8333086;-0.0072399694;-0.07529139;0.1080134;-0.00031317244;0.016511587;-0.07736157;-0.20932257;-0.1099766;-0.35967827;-0.045212545;-0.0055083656;-0.058678556;0.95193547;0.015530334;0.140888;0.20702974;-0.7526657;-0.08569277;-0.06050539;-0.036484726;0.31258336;0.94416213;-0.09492667;-0.059253775;-0.009257293;-0.35469186;-1.0338145;-0.8539877;0.047726467;0.029348707;-0.3164762;0.09751144;-0.013477179;-0.05859118;-0.38321218;-0.4394656;0.08594069;0.073283285;-0.016192121;-0.068631954;0.23847012;0.12328194;0.09470634;-0.15474732;-0.09232195;-0.031642556;-0.6479949;-0.24692728;0.9986339;-0.6704927;0.016078437;-0.07392781;0.053661577;-0.41722736;-0.47178558;-0.0452045;0.17763816;0.0385013;-0.18099715;-0.3590066;-0.99298644;-0.05158232;-0.20034961;-0.08331326;0.02250529;1.3931777;-0.0827379;0.08058578;-1.1943364;-0.025071017;0.0074127363;0.0042821253;0.036105767;-0.02161078;-0.12905963;-0.09080962;-0.12253016;-0.45969614;-0.2632741;-0.053350754;0.056063734;-0.050351527;-0.052845534;0.79559;-0.37878013;0.20058203;-0.044592977;-0.27484846;-0.051404525;-1.0720643;-0.029668644;0.07093893;0.023469295;-0.029786075;0.08387402;-0.13121112;0.11966997;-0.07187503;0.083663516;0.08369823;0.052049138;-0.013809669;-0.039726872;-0.057361666;-0.062354613;-0.76382595;-0.3973717;-0.032691576;-0.025512332;0.050052375;-0.049698524;0.21894675;0.030481797;0.12020413;-0.017448664;0.10294848;0.025486806;0.02786744;0.00869678;-0.3781554;-0.0048692264;0.05507151;-0.66011024;-0.09584818;-0.24605498;-0.45357457;-0.069925986;-0.0058753095;-0.23089427;0.031888247;-0.6072534;0.068839535;0.2605311;0.012263512;-1.5852517;-0.8375542;-0.11338656;0.29900983;0.07917539;0.18968594;1.9601781;-0.055297844;0.006074608;-0.19464608;0.054078303;-0.059944242;-0.08060919;-0.044646803;-0.35367548;-0.03634401;0.02353069;-0.083697565;-0.25793776;-0.17680313;0.051367693;0.047215857;0.080496445;-0.014662807;-1.0068169;-0.2723784;0.078460634;0.03317719;-0.06738263;-0.58651966;0.06395646;0.26379728;-0.42503807;0.021462295;-0.023698844;-0.04157622;-0.05421836;-0.07072588;0.071310505;0.018563816;-0.07453214;0.91849726;-0.049019273;0.072617136;0.0038177166;-0.53930163;-0.029383175;-0.06694682;0.4185716;0.26760447;-0.37834206;-0.13102831;-0.5096835;0.12926714;-0.008125229;-0.5795597;-0.82071275;-0.06231871;-0.05366427;-0.07807809;-0.020660453;-0.10281307;-0.01488997;-0.0017680427;0.027453275;-0.012917446;-0.17937797;0.011446312;-1.6385567;0.08596229;-0.053110976;-0.03656335;-0.32855463;-0.058552977;0.2654875;0.72639394;0.050156698;-0.038577624;0.022921102;0.043577507;0.024627628;-0.46736395;-0.031885583;-0.27857018;0.14345048;-0.24981424;-0.07753937;0.022892563;0.43437105;0.5682264;-0.32082492;0.06890638;-0.038932372;-0.13753043;-0.026628986;-0.06923016;-0.040106058;0.41769028;-0.04482198;-0.051437378;0.41672733;-0.071376845;-0.0022090203;-0.038930636;-0.07077531;0.05409635;0.010021469;-0.0050677406;0.0701688;-0.51786375;-0.051771596;-0.2867454;0.031212537;0.29632893;0.038519792;0.00207044;0.008590013;0.031933643;-0.28100684;0.04858547;-0.0035630902;-0.087831356;0.09582081;0.7634999;0.00066840695;1.4537134;-0.07507485;-0.031410243;-0.21223292;-0.07353166;-0.05762271;1.3025563;0.017937772
-0.022897959;0.15079242;0.5768568;0.044064615;-0.5220886;0.2617245;0.20670283;-0.017945532;0.05421933;0.653485;0.09048974;0.07686514;0.19596833;-0.044601686;-0.0048066843;0.03686081;-0.15151201;-1.2629635;0.08820641;0.1725731;-0.23560171;-0.33460733;0.081789054;0.05114501;-0.4696508;0.2802733;0.0032659492;0.62881726;-0.28881618;-0.74500126;0.094073124;0.21099038;0.03136088;-0.65314794;-0.540021;-0.356618;0.28258395;0.025244841;0.00016051152;-0.12767437;0.15034898;0.04160591;-0.15764037;-0.9242873;-0.12249303;0.06568349;-0.07526532;-0.06165329;-0.14665551;0.76683635;-0.0021273666;-1.3962854;-0.05358338;0.7424049;-0.1348604;0.29553753;-1.0635483;-0.06136446;-0.008772782;-0.013254059;-0.2069958;-0.054126445;-1.325838;-0.0035271554;-0.3224344;-0.18743032;-0.0152400555;0.027640652;-0.089046106;-0.13845621;-0.030506313;-0.115949966;-0.56569374;0.13131122;0.15911354;-1.0660836;-0.036738414;0.06495104;-0.6815529;0.18480712;-0.5984402;0.030804582;-1.1881741;-0.062211927;-0.6366975;-0.09010853;-0.042755887;-0.27635327;0.14071213;0.02688543;-0.056799445;-0.13622878;-0.050619554;-0.08691082;-0.10769863;-0.025957651;-1.4883955;0.14422037;0.0075735007;0.13864061;0.28350925;0.10204042;0.030305782;-0.0017160657;-0.15982127;0.050123043;-0.10577894;-0.058774073;0.16503242;0.07362311;0.021138825;-0.11843389;-0.0056854147;0.16916643;0.0061709676;-0.006281167;-0.13216649;-0.18512538;0.0019480258;0.2562651;0.12483878;0.076582834;0.059898414;-0.05440645;0.21418796;0.4904572;0.52241594;-0.115728654;0.11055719;-0.14310789;0.15238783;0.11621531;-0.039883785;-0.07045043;0.034318294;-0.10066359;0.54189;-1.4079291;-0.10193264;0.012574134;-0.12191109;-0.2701408;-0.48473492;-0.024182275;0.026390603;0.03460407;0.16316704;-0.45711374;-0.20455112;-0.009110357;-0.07510331;-0.115852274;0.14950705;0.3935627;-0.0022180842;-0.06883946;-0.3093542;-0.0049420483;0.14226101;-0.49226618;-0.32306206;-0.008797099;0.33593544;-0.16992727;-0.64777005;0.09742037;0.085401446;-0.23281895;0.095590286;-0.0393308;-0.08358402;0.30856523;-0.06347899;0.1381717;0.0037986285;0.07806177;-0.7310683;0.10485994;-0.16427043;0.18727934;-0.3812847;0.048069615;-0.47482386;0.24721487;-0.13426328;0.01830416;-0.17704609;-0.010288157;0.045950547;0.055243116;0.34413114;-0.10268011;0.057329014;-0.17362192;-0.7522008;0.025318954;0.017841445;0.057117786;0.1619597;0.054675985;-0.040952552;0.22927798;0.029858282;-0.07080411;-0.09071396;0.17191395;-0.011700151;0.50790536;1.6673704;-0.0071383487;-0.619943;0.2014079;-0.1131871;-0.1811805;-0.30542237;0.29446614;0.18291073;-1.1612158;-0.42057088;0.11848899;-0.07835267;0.083564;0.08697553;-0.19825777;0.007979913;0.051860534;0.16659905;-0.31727007;0.04190865;-0.046021923;-0.15347585;-0.2727565;0.58750945;-0.2743015;-0.08203869;0.26189694;0.09464022;0.5301651;-0.467411;-1.3138636;0.1611043;0.07572348;0.05076975;-1.719089;0.04796012;-0.5046023;-0.005371992;0.127708;-0.6985944;-0.05313032;-0.041116618;-0.25671878;0.18841068;0.15337278;0.013567058;0.022830278;0.15964234;0.059371363;-0.03128091;-0.045464203;0.10276734;-0.0429809;-0.0505433;0.073243365;0.28506398;-0.12773736;0.1214374;-0.038927417;-0.4227909;-0.23430547;-0.06914353;-1.3080167;-0.07188881;0.14303562;-0.28802586;0.17119455;0.032532964;0.0815682;-0.03462081;-0.92601085;0.04739314;0.09163357;0.20145135;-0.10027467;0.029230887;-0.07183954;0.0965946;-0.07187228;0.7111999;0.015103878;-1.3102243;-0.12203625;-0.24924518;-0.122651175;0.17698678;0.83476454;0.080232225;-0.51113075;-0.08212118;-0.40855223;0.10068607;-0.08407285;0.043724444;0.19231267;-0.10476674;-0.13602225;0.015138632;-0.09473429;-0.2728315;0.014967552;0.030262882;-0.057937957;-0.038570788;0.0059034;0.18831405;-0.37588063;-0.061189737;-0.75360525;-0.13008097;0.06863611;0.02563556;-0.27985784;-0.025228849;0.00040798893;-0.12875949;-0.56877095;0.13973568;-0.066369005;0.058503956;-0.51390636;0.4602378;-0.21929577;0.27486128;0.16580868;-0.28025204;-0.44219503;0.04171457;0.0844813;0.048309263;-0.38015053;-0.40631863;-0.04663878;-0.06397076;0.0049854275;0.74520314;-0.033952314;0.05882777;0.28742796;0.06706377;-1.1605543;-0.5719125;-0.9637335;-0.18547747;0.09292126;0.0018916467;0.21299419;-0.3134912;0.14859784;-0.44416615;-0.047769878;-0.055108808;0.14969955;-0.35347942;-0.09557256;0.03666325;0.26310125;0.010732814;-0.2753587;-0.21817692;0.24418442;-0.082832135;-0.6179657;-0.06854767;-0.11326438;-0.30652744;-0.0451359;0.08761817;-0.7466485;0.13861158;-0.09288951;0.12396402;0.051496543;-0.06364236;-0.30457282;-0.8603931;0.17244782;0.1774734;0.072174154;-0.12159557;0.079124436;-0.07594933;-0.30283043;-1.0890481;-0.38250342;-1.2241983;-0.012809923;-0.1779401;0.016880946;-0.18248257;0.19501147;-0.08043363;0.05687885;0.18032248;0.17214495;0.21440755;-0.1338924;0.011786933;-0.13558502;-0.050291955;0.062233504;0.116595395;0.006871552;-0.0697878;-0.12684135;0.8267936;-0.5099103;-0.08747585;0.054493077;0.19726917;-0.09922379;-0.058708727;-0.9187461;-0.060826633;0.07190002;-0.06123138;-0.037364665;-0.051971618;-0.16264482;-0.16762862;0.03925168;0.020489503;-0.4430904;-0.012340525;-0.7210707;-1.7911013;-0.23619631;-0.090061575;1.0131472;0.046091065;-0.099307746;-0.039056458;0.8263061;0.26118496;0.61994684;-0.7891523;-0.06687326;0.17943676;0.013458023;-0.23386195;-0.21020909;0.029137215;0.13088539;-1.3333427;0.05058418;-0.13753346;0.06336509;0.054804616;0.24054669;0.0714944;0.030455552;-0.09264659;0.08254961;0.08138097;0.11711561;0.010107592;-0.20393673;0.02718641;-0.09585305;-0.43068895;0.01704755;0.066542126;-0.08358338;-1.1610397;0.038394116;0.84426636;0.9987237;0.1169526;-0.014121433;-0.004536029;0.07877766;0.12247665;-0.015757833;-0.009573763;0.06957584;0.32867992;0.1457279;-0.30201456;-0.2031236;-0.49700725;-0.07052524;-0.035103064;-0.05665305;-0.5327967;0.533582;0.14497168;0.9633108;-0.17588978;0.1405586;-0.43380624;-0.5278799;-0.009378769;0.03375015;-0.17655501;0.15984984;0.3351588;-0.1215322;0.12722653;0.069865696;-0.08011403;-0.24543126;-0.08739289;0.12224477;0.12258325;0.8766531;0.12795252;-0.097439796;-0.13154857;-0.058468606;1.185795;0.00036358516;-0.0132052;-0.0616939;-0.0067834514;-0.09093568;-0.0077099125;-0.0034471578;-0.13360217;0.08988062;-0.21694793;-0.02030756;0.06890492;-0.51564664;-0.38531327;-0.91546434;0.04284164;0.13544965;0.066930704;-0.091384865;0.041735176;0.05684089;0.2732447;0.101689205;-0.014111786;-0.51417816;-0.024837952;-0.12992091;0.0604668;0.10405651;0.007655147;-0.1537627;-0.00582481;0.010372398;-0.25034797;-0.024441596;0.13490172;0.057556268;-2.1027198;-0.010246156;0.029470328;0.12061363;0.11784562;-0.45607123;0.07130658;0.161517;-0.1405761;-0.2771784;1.2233706;0.10032771;-0.29016617;-0.03928347;-0.03616733;-0.24067077;0.13500762;0.10102519;0.68605626;-0.25630653
-0.35647807;0.75472224;-0.82577693;0.10016757;-0.18870461;0.23797606;-0.22834586;0.09701948;0.02734746;0.71242684;0.054537408;0.054561123;0.44139475;0.05362746;-0.123483524;-0.044412047;-0.29441294;-0.28567514;-0.034995712;0.4443261;-0.38199735;-0.17219996;-0.036817357;0.05460203;-0.6267509;-0.6824934;0.09282463;0.9696817;-0.36535555;-1.0175399;-0.023640517;0.34847352;0.010353795;-1.0161719;-1.7374891;-0.382134;0.6040578;0.11994059;-0.04322685;-0.080359794;0.21260808;0.029240368;0.52983373;-0.7160404;0.019939343;0.022787234;-0.114974454;-0.04682159;0.036686912;0.10798681;0.017740758;1.1964601;-0.19003108;-0.15952724;-0.13289148;0.10424697;-0.90993065;-0.061646853;0.005497653;0.8914072;0.98231936;-0.11362034;-1.584363;-0.20579247;-0.31199118;-0.08096415;-0.05143168;-0.048721954;-0.38672;-0.111028634;0.10727649;-0.101647824;-1.1601439;0.29354534;0.7292062;-0.19957107;-0.15882705;0.054639995;-0.5825481;-0.54991984;0.2615723;0.0743015;-1.5300612;-0.06125112;-0.8020495;-0.17058553;-0.104165025;-0.118318774;0.12069002;0.035820726;-0.017352143;-0.12783843;0.00351279;-0.038440656;-0.06750988;-0.08700699;-0.48584652;0.12446181;0.064801276;0.1484945;-2.0671358;0.23261997;0.047967497;0.08765961;-0.15697701;-0.03328609;-0.21899831;0.05348895;0.034570895;0.12747982;-0.017989717;-0.103606135;-0.011408828;0.46842632;0.018527182;-0.0017758283;-0.01800861;-0.29340655;0.0069011822;0.18977663;0.14538434;0.12323966;0.058320276;0.033575002;0.16141137;-0.119877465;0.39293304;-0.004053062;0.00545584;0.13200946;0.08561753;0.029671729;-0.10088787;0.04191888;-0.021734651;-0.056100443;-0.9929516;-1.705138;-0.043495912;-0.6629088;0.019573027;-0.2356667;0.007901407;-0.06791036;0.08709516;0.07421745;0.063443266;-0.98610705;-0.31083104;-0.008345737;-0.014484346;-0.0932337;0.044406824;0.31091738;0.018538682;0.023033733;-0.16976729;-0.86704206;0.09743595;0.34999654;-0.2704084;0.056329854;0.28267047;0.62186986;-1.0107942;-0.0012153549;0.10517797;-0.18850003;0.07303616;0.022218717;0.09988826;-0.21472183;-0.025476445;-0.04725674;-0.08522712;0.06282385;-0.5826183;-0.7010098;-0.16689424;0.0607501;-0.45847252;-0.0665403;0.2253736;0.6160127;-0.09683161;0.13156982;-0.33175048;0.09077614;-0.094046146;-0.035562173;-0.30132535;-0.03714563;0.1523932;-0.11556336;0.31055668;-0.09938976;-0.037065156;0.19478497;0.11233098;-0.19736119;0.051085226;0.11708703;-0.036458936;-0.077125065;-0.09836515;0.12979566;-0.16542703;0.6458337;1.0824455;-0.08041983;-0.22036375;0.08954456;-0.14722079;-0.035971016;-0.09564681;0.18252175;0.20792146;-0.4436837;0.36582446;-0.024400732;-0.264368;-0.07371337;0.11336573;-0.19280837;-0.004872157;0.07447876;0.5821968;-0.015226427;0.07921764;-0.025257433;-0.05933826;0.13064376;0.73052377;-0.12178588;-0.1263709;0.6669998;0.06198502;0.009528674;0.88335025;-0.16946876;-0.059364755;0.017965024;0.005721908;-0.7797465;0.045976587;0.0011727235;-0.083695404;0.19481063;0.6357967;-0.07548516;-0.12094348;-0.111733176;0.5624642;-0.04592722;0.016122172;0.0131399045;0.23933318;0.04164478;-0.03148777;-0.06508609;0.40590563;-0.106921494;0.031996183;0.021690506;0.38991934;-0.058927935;0.46613705;-0.004035892;-0.28262475;0.71771353;-0.06347557;0.14557198;-0.039899066;0.11221669;-0.59880507;0.1719489;0.24484286;0.15728389;0.019998213;0.3176547;0.20069519;0.23881869;0.20895661;-0.09819823;0.057943225;-0.053807117;0.14276563;-0.04274422;-0.43790415;0.00717613;0.5613927;-0.03473144;0.25121677;-0.066750444;-0.3235538;-1.3333516;0.09204636;-0.6119806;0.0007435982;0.14640062;0.075792864;-0.045469623;-0.040986262;0.7995729;0.0289541;-0.74543303;0.10210018;0.074536964;0.017571483;0.1639833;0.06867967;-0.17953812;-0.022720665;-0.016323593;-0.9714022;-0.42415366;-0.102738135;0.2550229;-0.03509287;0.08405552;0.017834144;0.4228432;0.028332978;0.06701276;-0.59456027;-0.6944048;0.20823519;-0.10648386;0.028642045;0.018757647;-0.4692401;-0.15952049;0.2336246;0.20398556;-0.14063391;-1.1144698;2.491189;0.046369262;-0.0037453969;0.23082037;-0.21969526;-0.07651786;-0.07110582;0.5396304;0.99378777;-0.10976749;-0.018590197;0.18882425;0.11331426;1.019764;0.53485024;-0.67372316;-0.1990273;0.11641599;-0.004865825;0.34805664;-0.26327834;-0.45052943;0.10095841;-0.09479967;0.052611668;0.3110146;-0.4787823;-0.057542667;0.035413943;0.009914878;-0.075325355;-0.34050435;0.01716365;-2.1254563;-0.009959459;0.17813234;-0.19254215;-0.09661777;-0.5659704;0.012696816;0.08187295;-1.0980911;0.10623067;-0.00959556;0.11336805;0.06726931;0.058176596;-0.424043;-2.044229;0.17685336;-0.20207839;-0.15441181;0.0080664;0.029203393;-0.0020709806;-0.754067;0.23030382;-1.2034316;-1.1598643;-0.10750722;-0.49544162;0.13100971;-0.7202144;0.27533916;-0.0013993022;0.058840875;0.23481657;0.449334;0.08719581;1.0059272;-0.043244913;-0.17836583;-0.05119962;0.03501445;-0.013171952;-0.0015031174;-0.04527391;-0.08593664;0.26932564;-0.50915855;0.011825836;0.09794085;0.49481162;-0.03463349;0.2241006;0.6460944;-0.12558849;0.09382789;-0.10852302;0.07026207;0.017563203;-0.11172623;-0.2885253;0.11202433;-0.058219574;-0.8006994;0.002269399;-1.0437032;-1.1405522;-0.17610693;-0.10817338;-0.55639386;-0.089626335;-0.18743415;-0.16039786;1.0112315;0.33614647;1.0419637;-0.3713125;0.07198513;0.3456676;-0.07618647;-0.13382494;0.68689257;0.18646903;0.07034791;-0.8882279;0.01239652;-0.084548816;-0.029167235;-0.038233366;-0.06779372;0.16761884;-0.06926948;-0.15129471;-0.28507423;-0.13450348;0.032896675;0.045716446;-0.1345848;0.052133404;-0.27835923;-0.32251477;-0.010844506;0.061942916;-0.08324538;-0.93629134;-0.07910498;0.19157292;-0.16446076;0.011108105;-0.026458956;0.060626086;0.04804033;0.21129084;-0.019770432;0.042170387;-0.034756854;-0.5742924;0.09289168;-0.2707946;-0.18667959;-0.1259026;-0.14203921;-0.0998315;-0.20819175;-0.28227872;0.2047216;0.08997105;-0.13256322;-0.20479411;0.18409474;-1.0671552;0.051674705;0.0917504;-0.0058692517;-0.029783769;0.39625844;0.038183145;-0.0065823994;0.07440692;-0.032000028;-0.16253474;-0.3605128;0.02608671;-0.29877743;-0.20385915;0.4200238;0.175388;-0.11550264;-0.048166532;-0.20669529;1.2207575;0.06052301;-0.011046452;0.06125357;0.0069418256;-0.118734695;-1.5628545;-0.0012449872;0.033386387;-0.06503244;-0.35051915;0.0061177546;0.08689065;-0.6672155;-0.46029213;-0.6942075;-0.021427196;0.03560396;0.10984277;0.05096814;-0.08324025;-0.038743075;-0.035764616;0.0756241;0.0063808705;0.18747139;0.00123019;-0.048721854;-0.030136086;0.10523146;-0.0071295835;-0.10342813;0.06269474;0.09635348;-0.56174904;-0.06387124;0.10955313;0.06523403;-0.9774974;-0.021458354;0.04292404;0.025037523;0.038387418;-0.11814614;0.10664461;0.4146591;-0.08077566;0.6672587;0.7575506;0.017296992;1.2714851;-0.030336546;-0.089520566;-0.3604737;-0.087664045;0.08858289;0.59293956;-0.11638631
-0.5722609;0.7071768;-0.7698321;0.052409578;-0.15039144;0.29574454;-0.682075;0.062363435;-0.06014671;0.6608589;0.021008262;0.060060255;0.5121127;-0.048292525;-0.060440402;0.006776603;0.3683319;-0.9867209;0.06786127;0.47300467;0.42393684;-0.27536026;0.030549623;-0.09046895;-0.50844955;-0.6999534;-0.019980801;0.953497;-0.2939734;0.5984236;0.042218138;0.26483363;-0.0621603;0.41703278;-2.9213138;-0.40859833;1.1744902;0.015715107;0.055096284;-0.20090605;0.09876093;0.058742817;0.7914209;-0.2338968;0.028099317;-0.027343696;-0.03083966;-0.057689205;-0.072593816;-0.17780665;-0.06397669;1.633994;-0.21479921;0.002014626;-0.039636992;0.32440186;0.7073723;-0.05309292;0.04146376;-0.11787221;0.66441154;-0.045632634;-1.032921;-0.10742187;-0.49893722;-0.019648863;-0.08587539;-0.082315765;-0.42981127;-0.022566993;0.012940086;0.046522032;-1.3299587;0.21857604;0.1680408;-2.5166156;-0.050449174;0.076002486;-0.32107523;0.24781725;0.200626;0.0008315789;-0.8117512;0.039435793;-1.8821185;-0.081935585;0.083255135;-0.19491196;-0.075576656;0.17070219;-0.026122032;0.030333115;0.0058884313;0.6135061;0.014842089;0.04307418;-1.0483965;0.19877484;0.04197138;-0.04536007;0.09024821;0.18942928;0.17667422;0.05880106;0.06804082;0.005544732;-0.0667884;-0.039377864;0.06429409;0.0113927275;-0.09453983;-0.05461998;-0.048288587;0.6736645;0.047077414;-0.0078103696;-0.011881517;-0.25030985;0.030267572;0.041723154;0.04726586;-0.021509744;-0.07473791;-0.005700742;0.09675581;-0.29210874;0.9491671;0.08641018;-0.031185092;-0.28573334;0.08268527;0.007816046;-0.07737433;0.013445115;-0.007428637;-0.0038164794;-0.33293918;-0.09138579;-0.027175978;-1.0353229;-0.043087155;-0.38314477;0.39010748;-0.06004746;-0.04874552;0.080973454;-0.07130206;-1.3084631;0.017298855;0.038085613;-0.043566115;-0.014040817;0.08964417;-0.4315117;-0.044202518;-0.092239454;0.03564045;-0.020656506;0.011128446;-0.0016592281;-0.32247564;0.0011033654;0.54979444;-0.5039085;-0.7231223;0.073618904;0.06771709;-0.21216033;-0.017235242;0.0040512746;0.52855897;-0.030578414;0.026840614;0.10990553;0.03593209;0.016342007;0.82906693;-0.26705602;-0.22957921;0.11663855;0.27716938;0.010787042;0.29846272;0.6322934;0.0048846975;0.05259343;0.96869415;-0.056660328;0.029191399;0.057386648;-0.9699184;0.020959722;0.05671097;-0.28196257;0.94693345;0.19022495;0.082645275;0.027929561;0.11890414;-0.1302364;0.062423754;0.24404733;0.03843114;-0.03843444;0.045497816;0.101448335;-0.40282208;0.57059544;0.038648367;0.03285749;-0.64210486;0.24132898;-0.053348444;-0.112280875;-0.7724429;-0.27435517;0.22931989;-1.1977308;0.16754965;0.013079328;-0.06635334;-0.032467067;0.019330831;-0.25921664;0.086298265;-0.041488156;0.6338745;-0.428838;-0.043427307;-0.066910364;-0.05242499;-1.4238392;1.2107673;-0.16861944;-0.10200366;0.1482135;-0.030214047;0.57534266;-0.6505127;0.35711068;0.67246515;0.09388232;0.015170727;-0.8780896;-0.021437591;0.11962676;0.02525721;0.17793971;1.030354;0.010496452;-0.06788992;-0.22223195;0.6391709;-0.051418405;-0.001015922;-0.0023294345;0.16847193;0.03379379;-0.11881243;-0.01453798;0.33685648;0.016965935;0.049281448;-0.19031781;0.54270464;0.13272613;0.6747544;0.0099188965;0.19878349;0.31878507;0.04453719;0.03950716;0.0038760535;0.051830713;-1.1510904;0.2703866;0.08317339;0.040505785;-0.025769362;0.8285101;0.057565697;0.11846156;0.23130742;-0.000904614;-0.053692214;0.03299007;0.022988064;0.0059780995;0.8523964;-0.041026853;0.7515766;-0.016212827;0.13054681;-0.058667205;-1.0861856;-0.8573521;-0.039584573;0.5690975;-0.055444073;0.052619312;-0.03589078;0.06489367;-0.06302172;0.36324358;-0.007834782;0.011025845;0.219062;-0.16041374;1.6307101;0.055596676;0.08197447;-0.15832326;0.039178967;-0.036550622;0.0352318;-0.3112136;-0.16266079;-0.25440735;0.018470105;-0.028742;0.06131362;-0.50962377;0.040757325;-0.050612334;-0.4389377;-0.59293914;0.28419337;0.06324452;-0.057075825;0.21055514;0.10449885;-0.3136724;0.29208335;0.16445953;0.9968447;-1.6518506;1.2154169;-0.059657313;0.042374518;0.12208071;-0.8278511;0.027353069;0.00989349;-0.05770727;0.17177601;-0.028472409;0.08124271;0.27160832;0.04598949;0.5619843;-0.4368788;-0.60543185;-0.19524007;0.07806298;-0.06626058;0.49112818;-0.27251002;-0.6282801;-0.10958342;-0.041622598;0.015142131;0.27912813;-0.3840635;0.09287542;-0.049284957;-0.048530787;-0.07230921;0.41085473;0.18272586;-0.5560954;-0.02479311;0.17928651;-0.13685887;0.05958734;0.5992275;0.051905133;0.07269366;-1.0076612;-0.010206896;-0.06025541;0.014843333;-0.07580108;-0.025545154;-0.013500692;0.21038774;0.2148764;-0.57142615;-0.32958168;0.053844485;-0.0040966016;-0.03707279;-0.25363076;-0.73744875;-0.96766895;-0.23148455;-0.07609071;-0.40555328;0.05853492;-0.51414484;0.15600772;-0.040744103;0.068375714;0.4306766;0.6243866;0.093925074;1.2540543;0.059410743;-0.08782635;0.073155716;0.07139485;0.07492;0.03958503;0.03077484;0.0033140245;1.1358329;-0.57691276;-0.076999746;0.013231759;0.68477845;-0.091846064;0.024238024;-0.7937868;-0.011175092;-0.06995178;-0.06677751;0.05254774;0.056523126;-0.09087407;0.05619119;-0.050475568;0.0623521;-0.43824443;-0.04646482;-0.7974597;-1.0507729;-0.12442412;0.037030227;0.5023689;-0.023368746;-0.9495793;-0.11857377;-0.48131907;0.020107942;0.75459766;0.8872177;-0.08604745;0.27303684;-0.0048656617;-0.16678236;-1.273128;0.04193004;-0.049449172;-0.8784488;0.033199724;0.07056759;-0.08129009;-0.081604645;0.2700041;0.04311727;0.050321814;-0.03590927;-0.34024727;-0.13712579;0.034315106;-0.029454168;-0.08780761;-0.036086865;-0.28226835;0.09592042;-0.01704528;0.03661715;-0.04334392;-0.70363647;0.03591372;-0.009731815;-2.344627;0.08454234;0.0027018613;-0.080554694;0.11291575;0.31285137;-0.025895761;0.009362768;0.050617065;-2.1282504;0.11472836;-0.33361003;0.08858162;0.062372103;-0.04594063;0.06277965;-0.55325824;0.3727041;0.08831422;0.17456447;-0.95552784;-0.13926554;0.15046647;0.21995042;0.059183635;0.058862228;0.013472;-0.068327695;0.47780645;-0.25910115;0.07642179;0.025253031;0.008019681;0.022155328;-0.33546636;-0.035756078;0.14451928;-0.27567458;-0.8335446;0.0654748;-0.08168102;-0.052589655;-0.27219388;-0.13730107;0.038788535;-0.054046515;-0.014411377;0.004399434;-0.063538656;-1.5006887;-0.051725104;-0.3241762;-0.16332966;0.11915188;0.030662104;0.07939738;-1.0885074;-0.43963712;-0.44993612;0.02198134;0.04989083;-0.041833095;-0.06549389;-0.08986055;0.04459067;-0.9373973;0.067115754;-0.04985359;-0.17741743;0.08025661;-0.15947329;-0.026553113;0.014436676;0.029294925;0.02492307;-0.082784474;-0.08497938;0.009931055;-0.020363986;0.11699433;0.022420673;-0.09650898;-0.017803026;0.050404668;0.07018103;-0.06978254;0.049976274;-0.040430296;0.6421511;-0.040266078;0.85766536;0.41223195;-0.09179023;0.59089583;-0.06627975;-0.06861761;-0.39385098;0.008628833;0.0014860502;1.3481381;-0.31252033
-0.100038834;-0.38758805;-1.4236724;-0.17094396;0.17494841;-0.40801853;-1.1779234;0.009157975;-0.057532016;-0.086329415;-0.093568966;-0.24435438;-0.4031293;0.0038066818;0.0010653789;0.017215312;-0.61928755;1.3078576;-0.0853002;0.08801224;-0.4655508;0.1282403;0.06588945;-0.12114141;-0.34169805;-0.15770335;-0.21572353;0.096599564;-0.31341285;0.59973353;-0.09732273;0.06417693;-0.031346284;-0.49992093;-0.15519992;0.47224;0.25627273;-0.29257974;0.08830053;0.4244487;-0.30531526;0.0062638717;1.4933755;-0.25219584;-0.008881767;0.02704661;0.16490276;0.116979;-0.29480013;0.42758608;0.10252114;0.091012806;0.11334228;-0.15630008;0.10548067;-0.13028453;0.6201805;0.06735373;0.08660005;0.21501441;1.0324671;0.06357;-0.57287645;-0.104546405;0.026649164;0.27977067;0.031252336;0.017446524;-0.8107279;0.033289876;-0.08574266;0.07314786;0.8747206;-0.4384251;-0.08736386;0.40222573;0.06662936;0.011986868;-0.010881194;0.6326649;1.4309667;-0.03541416;-0.27347332;-0.07124009;0.72288346;-0.0025982487;0.12271954;-0.05980475;-0.20291835;-0.1531762;0.113216914;0.24734609;0.029612318;-0.023167793;0.16485068;0.11247234;-2.0716567;-0.28946173;-0.08227741;-0.25293925;-1.4802548;-0.3274973;0.0015624274;-0.12718932;0.09203081;0.037193853;0.0993918;-0.10512607;-0.48901287;-0.07017291;0.015123988;0.09084398;0.0096577;-0.653814;-0.16222088;-0.0012453787;0.07823649;0.063104495;-0.064947724;-0.37128013;-0.19326898;-0.2023715;-0.003032064;-0.024787841;-0.2418651;-0.4752859;-0.82053435;0.10090291;-0.12102574;-1.1037385;-0.2988893;-0.15883774;0.00032001405;-0.038796812;-0.0074674534;0.12717095;-1.496988;-1.0406548;0.084170274;-0.30967775;0.09197297;-0.036045004;-0.8663812;0.077939406;0.0044258023;-0.14588232;-0.20503055;-1.3547784;-0.2919749;-0.10103075;0.01815384;0.04898117;-0.2519653;-0.25525266;-0.045929093;0.035936493;0.261576;-1.0422491;-0.12599193;1.171141;-0.31273904;0.019461993;-0.08836796;0.35872957;-1.484539;-0.012051765;-0.23303623;0.052107394;-0.008339098;-0.030056145;-0.38293168;-0.6547265;0.069162056;-0.3233074;-0.032061797;-0.26030248;0.9436614;-1.6394975;-0.09305245;-0.23375742;0.10866883;0.2625383;-0.7648195;0.4922529;0.18654661;-0.14113334;-0.25920522;-0.0146884965;0.054187026;0.052749835;0.3746752;-0.042115685;-0.21528599;0.24584484;-0.15029633;0.545081;0.008422284;-0.27885377;-0.23761237;-0.77066344;0.09970077;-0.3499306;0.10020567;0.22883601;-0.04762594;-0.10136946;-0.17596276;1.7367796;0.12617129;0.1652241;0.030560957;-0.3633543;0.10931795;0.09838293;0.3184581;-0.2109091;-0.38668975;0.85677314;-0.3675335;-0.041016508;0.22861356;0.005791325;-0.17688248;0.38843372;0.1873355;-0.07014925;-0.5782055;-0.18611647;-0.07015738;0.018055528;0.16823883;1.3424857;-0.5141522;0.02363045;0.075222045;-0.17448258;-0.11277807;-0.9028274;-0.5420459;0.49609753;0.40082997;0.06189423;-0.022354145;0.42376032;-0.017753787;-0.3143575;0.018671576;-0.061109502;0.33907044;0.032504793;0.16169265;0.29400018;-0.5282895;-0.7670551;-0.013224753;0.12537324;-0.4630869;0.008119697;0.073246695;0.081005916;-0.5783551;0.2953989;0.10446566;-0.27476326;-0.4417036;-0.17479968;-0.6221636;-0.010960678;-1.1331632;1.472059;0.07858119;-0.22798294;0.08538826;-0.4410795;-0.042865887;-0.34370372;-0.4470186;-0.28788114;-0.014133591;-0.8496734;-0.23521799;-0.30384004;-0.37231797;0.21321122;0.0027034485;-0.06075136;-0.050987825;0.22533372;-1.5441282;-0.08651242;-0.8550942;0.1025161;-0.06261989;0.08740277;0.33392265;-2.4183547;0.00065727823;0.28478232;-0.041708075;0.0622876;-0.01488677;0.11806067;0.018258302;-0.23397575;0.040475357;-0.63530725;-0.4205655;0.26323336;-0.13491988;-0.13304707;0.092278235;-0.7848798;-0.014674976;-0.07084878;0.13926612;-0.17092788;-0.0018849749;-0.08053557;0.09438291;-0.029728321;0.034579065;0.058665827;0.012522511;-0.07949496;-0.36229998;-0.06893391;-0.35677898;-0.002529997;-0.1526013;0.21412162;-0.27612725;0.04509378;-0.45936885;-0.43819433;-1.5866368;-0.7940243;1.1717448;0.0028662228;-0.092081785;0.2999787;0.5243308;-0.0033306165;0.123014614;-1.552347;-0.5193042;0.18633533;0.06006943;-0.3695819;-0.28013924;0.36887217;0.76823;-0.53818464;-0.022071406;-0.35278255;0.11097163;0.054417837;-0.07608257;-0.14293711;0.9943405;0.2550384;0.043894537;-0.4223133;0.083985895;-0.3707449;-0.047751945;-0.62334013;-0.028739762;-0.023762016;0.21290126;-1.543607;0.04934374;-0.22296008;0.2481521;0.031026589;-0.6547367;-0.05617081;-0.014049991;0.71852326;-0.25611398;0.10988147;-0.1411421;-0.05054148;0.055463;0.18364573;0.045340203;-0.4089062;0.31676528;0.05166501;0.0661998;-0.119480215;-0.013772467;0.631985;1.7029951;-0.18794309;0.41583687;0.09658825;-0.1401336;-0.17994437;-1.225802;-0.4551406;0.11205299;-0.09916086;-0.4746672;-0.66063464;-0.291601;0.4996345;-0.038112257;0.08611856;-0.040982738;0.022366436;-0.077457696;-0.08477571;0.12059051;0.046706676;0.31169984;0.05384964;0.0069413465;-0.05145264;-0.61274296;0.06108965;-0.10483265;0.4682834;0.29046333;-0.033412367;0.24699233;-0.057552584;-0.031680625;-0.022665402;0.44504288;-0.10171197;-0.04903506;-0.09679958;-0.11392856;-0.82382774;-0.7689348;0.13438848;-0.009964238;0.44406796;-0.052753072;-0.37111086;0.18884611;-0.816547;-0.03723526;-0.91488963;0.24648383;-0.2004897;-0.5341108;0.051053025;0.23336683;0.5866075;-0.33281285;-0.13502526;0.2183042;0.026969941;0.017026845;0.072770126;-0.007112729;-0.45686916;-0.19301738;-0.046818145;0.088272795;0.19412579;-0.08254087;-0.19339997;-0.00794678;0.2549636;0.0330309;-0.010425632;-0.09400359;0.0062171863;-0.26855758;0.05187376;1.3318908;0.06602591;-0.937045;0.9754652;-0.02691665;0.054633398;-0.11488736;-0.11499302;-0.41257748;0.12913334;-0.032601755;-0.06188826;-0.5354639;-0.3317614;0.29615188;0.07117383;-0.22133419;0.09846499;0.03832578;-0.2948284;-0.87809944;1.2280527;-0.3528892;0.8116683;0.37105092;-0.37060636;-1.1563188;-0.22177733;0.0321315;0.0031814843;0.032173287;-0.422186;-0.59289235;0.09152842;-0.15841226;-0.060533855;0.13181052;-0.018305833;0.059737235;-0.5779055;-0.21627432;0.07174304;-0.31059104;-0.011416545;-0.32453814;0.0074203764;2.0733955;-0.0406108;0.0063219615;0.07652248;-0.11355089;0.042902246;-2.2304387;0.08035598;0.50196517;-0.14386462;-0.10912784;-0.0018986992;-0.15050915;-0.03506631;0.0021602057;-0.04260043;-0.017343298;0.002634672;-0.06254053;0.07492226;-0.060142215;0.057803333;-0.24354194;-0.15913276;-0.097785845;0.6756381;0.008121093;0.023815958;-0.07809075;0.011443223;-0.07727834;-0.010300433;0.07294335;-0.050589655;0.06878195;0.03639565;-0.42143175;-0.04642391;0.12698917;0.07167164;-0.27073956;-0.2575252;-0.03265196;0.46881843;-0.19746761;-0.49031913;0.096624255;-0.95491046;-0.15814109;-0.08250835;0.71667695;-0.0038061352;0.0617842;0.0137517275;-0.2511238;-0.171633;0.25373223;-0.49358433
-0.113360114;0.7785403;-0.10645504;0.092182994;-0.2404472;0.089518845;-0.46948743;0.04008089;-0.027174732;0.09285403;0.015345366;0.1192671;-0.040467843;0.026810013;0.032781575;0.03859006;0.36786;1.0415937;0.10218415;0.14909033;-0.46583223;-0.14496446;0.108001135;0.012479738;-0.3704332;-0.36446503;0.12914424;-0.32732505;-0.52781546;-0.5125489;0.09180825;0.049487058;-0.098838985;-0.37335795;0.40355495;0.15485103;0.6202182;0.11243667;-0.0626621;-0.2536157;0.09866318;-0.03777244;1.1342007;0.6553552;-0.06144441;0.022113277;-0.046912543;-0.10133435;0.07700522;-1.1922948;0.04173848;0.7339635;0.008383771;-0.25300354;-0.082547344;-0.745842;0.39741415;-0.06565057;0.006402141;1.369014;1.2557182;-0.041089844;0.89110035;-0.22148377;-0.33123174;-0.0070244465;0.027153037;-0.017850105;-0.533103;-0.029109625;-0.005465147;-0.114154205;0.9667007;0.04361257;-0.010463462;-0.1066426;-0.19571668;0.083317555;-0.26374447;0.12239052;0.21557537;0.03219044;0.45031172;-0.08553488;-0.5868316;-0.10357615;0.011148545;-0.28507653;-0.030298525;0.28358296;-0.0153560145;-0.07228091;0.0652789;-0.76452476;-0.048094824;-0.12381445;-0.38604778;0.11253287;-0.02301438;0.124969676;0.74208146;0.08577256;0.44664225;0.010415875;-0.06917138;0.021687582;-0.15577209;0.04217296;2.1338863;-0.01874071;-0.071485355;-0.009186341;0.009718042;-0.045041308;0.032143917;-0.023615941;-0.07106527;-0.228463;-0.09618798;-0.08618005;0.023362665;-0.08469947;0.032684207;0.045113105;0.14106193;-0.91003364;0.5543328;-0.024229476;0.05746231;-0.20364031;0.087877266;0.00363488;-0.094303384;0.011939223;-0.014648668;-0.021974524;0.97214186;0.17621328;0.038569335;-0.688882;-0.13748118;-0.35945365;0.24856028;0.007195459;0.021061122;-0.051610313;0.081327684;-0.25186595;0.16206078;-0.083303854;-0.0056610834;-0.1317104;-0.034171954;-0.20334;-0.00065766135;0.037435547;0.012957899;-1.3493531;0.053978086;-0.44407198;0.27823526;0.025817476;-0.03288724;0.09052696;0.0081665525;-0.061391927;0.10733722;-0.25279027;-0.07533941;-0.05105787;0.2765718;-0.33014894;0.037205525;-0.6205962;-0.10333246;-0.13596748;0.9507172;0.29811355;-0.3004635;0.020231983;-0.055985555;0.05494875;-0.5537346;0.010793769;-0.09655744;-0.049177717;-0.001585762;0.06356181;-0.02464896;-0.014651812;-0.13053194;0.09141998;0.05526561;-0.013656729;0.8487578;0.57488364;-0.08490821;0.068991825;-0.026777245;0.16440172;0.07067103;0.12029369;-0.08837887;-0.05762701;-0.09368649;0.015561338;-0.36056194;0.51472414;-0.5408659;-0.074158125;0.39261267;0.053844005;-0.17878494;-0.10115067;-0.089319505;-0.010957731;0.07774891;-0.61152047;0.49341783;-0.03326629;-0.0032649918;-0.041186083;0.07572552;-0.015790544;0.23774536;-0.041550454;0.018168703;0.050616123;-0.027574178;-0.07941972;-0.09732401;-0.84855783;0.21285553;-0.13187203;-0.01869221;-0.57240105;0.09684226;-0.015363532;1.0075496;0.53747314;-0.11332484;-0.08842612;-0.06990723;-0.18635523;0.013595976;-0.28066283;-0.06126769;-0.064099446;0.69864947;-0.018599935;0.030985389;-0.067597106;-0.04902952;-0.8260952;-0.10407197;-0.0071425154;0.07168358;0.06434399;-0.061574176;-0.06273278;0.01927302;-0.0643097;-0.051753476;0.07691925;-0.01569376;-0.21248144;0.017355343;-0.108060606;1.4463725;0.45702028;-0.03958142;0.6079265;-0.07149454;0.09059349;-0.51042515;-0.39591026;-0.16584262;0.011042247;-0.043329634;0.19476262;0.059684467;-0.015944785;-0.00072295737;-0.15777062;0.034998883;-0.07751461;0.024181407;-0.05245658;-0.65980303;0.06409307;-0.6351082;-0.05410051;-0.0695417;0.034284934;0.041752636;0.32550734;-0.0132618155;-0.2971978;-0.100541525;-0.02866862;0.093969814;-0.103556655;-0.0004120625;0.48314756;-0.0073087844;-0.3285652;-0.0046355086;-0.05363139;-1.2191082;-0.07249565;0.0013343373;-0.10737526;-0.07870751;-0.04186092;-0.34855437;0.17607085;-0.18829806;0.5893366;0.03747461;0.11168983;0.03241946;0.66859114;-0.08428047;0.06562906;-0.4828365;-0.51962125;-0.04166577;-0.00077471964;-0.0150035005;0.6699411;-0.1854398;-0.31917328;0.062112827;0.066415496;1.7169824;-0.45388976;0.3715028;0.08221394;-0.016724857;0.3415307;0.12968989;-0.14236683;-0.10631905;-0.009992813;-0.32693824;-0.036759697;0.075275294;-0.07588775;0.018917397;0.57510674;0.09360665;-0.90169275;-0.28099465;-0.058041085;0.018096546;-0.39526206;-0.36543745;-0.009014119;-0.4551265;-0.02856625;0.06474117;-0.044589262;-0.27738068;0.20407712;-0.043452714;-0.25371957;0.04794249;-0.23634458;0.2234637;-1.4538702;0.034532137;0.26741788;-0.03365581;0.066871695;0.20242822;-0.06895398;0.032665044;0.91800445;-0.014973553;-0.13463102;-0.019164413;-0.03752789;0.03723;-0.13908452;0.45166653;-0.018229399;-0.50097895;-0.3739953;-0.019883571;-0.007666353;0.030040126;1.0842617;2.1053655;-0.45376298;-0.26834995;-0.035351932;-0.40455186;0.08014171;-0.48212254;-0.04472818;-0.04705743;0.06927881;-0.06730969;-0.0152522735;-0.022349205;0.15115312;-0.02999047;-0.07410848;0.028942747;-0.10701921;-0.06965764;0.05965131;-0.045134176;-0.18717659;-0.80323243;-0.24132389;0.004987162;0.072041675;-0.012622677;-0.084762454;0.2677412;1.3024384;0.034909602;0.06900409;-0.04188406;-0.017618606;-0.055455014;-0.18251286;0.94593287;0.06441412;-0.12152793;-0.5258371;-0.056244332;-0.3569685;-0.80178463;-0.16703925;0.0038913342;-1.5542445;-0.024333455;-0.3702621;-0.08159919;-1.2064503;0.22143279;-1.8730148;-0.51648265;-0.05072394;-0.35632643;-0.016585944;-0.050931495;-0.30920094;0.073560156;-0.00883687;1.0346454;0.11433558;-0.38942033;-0.036439847;-0.052409656;-0.33529043;0.109703295;0.056574464;-0.17584991;-0.93216383;-0.048125006;-0.040441424;0.0137488395;0.0074758823;0.03401936;-0.30451357;-0.20260483;-0.14659674;0.07030869;-0.013552616;1.3383945;-0.0310424;-0.26804122;-0.2309301;-0.059384987;0.037573084;0.07012728;-0.092600286;0.034539025;-0.06841272;-0.0761643;-0.08350392;0.85744005;0.018107329;-0.09167154;-0.16282734;0.09026053;-0.09106596;-0.023540687;-0.0429426;0.07419379;-0.14794222;0.053715788;0.0053895544;-0.035410788;0.009895849;0.9930056;0.16416483;0.03425818;-0.02460093;-0.08323908;-0.029249987;-0.39630198;-0.09579405;0.074848406;0.07369425;-0.11028974;-0.2844491;-0.022065165;0.5837253;-0.037628263;0.19503619;0.12267848;-0.27350107;-0.19644505;-0.2241092;0.105420075;-0.10734539;-0.060230043;0.024367671;0.044650085;0.008086023;0.19385996;-0.046148423;-0.15870334;0.038038883;-0.40228993;0.06257424;-0.05810605;0.5511156;-0.108064644;-0.33180857;-0.047331374;0.03526015;0.008078913;-0.07662622;0.035768118;-0.017932056;-0.47051674;0.09856689;-0.07343313;0.52995026;-0.08236735;-0.14369309;0.02227047;-0.04619313;0.03641476;0.07306015;-0.008490713;0.12707356;-0.26432225;-0.028537221;0.039302353;0.071811534;0.87815475;-0.07042946;0.05408575;0.00913554;0.03129766;0.79366815;0.03512313;0.029891111;-0.036874507;1.1674521;1.3749555;-0.10297414;0.72102755;-0.08558798;-0.038636416;-0.27776706;0.0025047932;0.01919597;0.32022214;-0.048733506
-0.27768356;-1.3566695;-0.9315023;0.07381096;0.4776907;-0.090994015;-0.03137038;-0.08685227;0.059150364;-0.5754219;-0.10680721;0.05745061;-0.19962166;0.07705237;0.064616725;-0.037422467;0.32089818;1.6331046;0.09946079;-0.24198654;-0.75895643;0.14354065;-0.009611467;-0.061235417;0.1767188;0.07554986;-0.15993376;1.5011013;0.083953574;-1.1215491;0.03274034;-0.31247312;0.0757294;0.03192622;-1.3752671;0.19131513;-0.8686744;-0.11866032;-0.070010185;0.081118695;-0.042133357;0.027302176;-0.35258594;1.1860614;0.027504068;-0.054156672;0.061685856;-0.034705333;0.082026765;0.3353999;0.088141665;-0.41550344;0.05226552;0.28619325;-0.06850406;-0.29271474;0.15999345;0.06513958;-0.053143647;0.13743386;0.060016718;0.10449987;-0.11667445;-0.13138811;0.090989396;0.10400455;0.04576697;0.037842095;-0.33914477;-0.040589582;-0.060957264;-0.009105637;-0.1511875;-0.17258279;-0.749414;-1.5348674;0.13771625;0.07068684;0.19711937;0.849076;0.7832762;-0.043364886;0.56041723;0.08223898;-0.3888983;0.029106837;0.040162675;-0.10156922;-0.15300791;0.037864175;0.0012187137;0.07575313;-0.05562806;-0.2214974;0.039590716;0.0026037202;1.6292053;-0.008970858;-0.0114098275;-0.0023811017;0.09710003;-0.12631951;0.4803883;-0.006037171;0.06689418;-0.06980854;0.117259495;0.043466203;-2.715446;-0.019304583;0.020714901;-0.06566138;-0.012923543;-0.32754144;-0.081655666;0.00051052077;0.11142581;0.12643686;-0.015507957;0.06229259;-0.042754643;-0.029473701;-0.08004989;0.06893301;0.007078831;-0.38931635;0.35440743;0.039404392;-0.098975554;-0.6638061;-0.08370624;-0.19397731;-0.05791195;0.005602844;0.0132818045;-0.040338658;0.5330405;0.5637925;0.0011541635;-0.7332278;-0.0068670963;-0.08560203;-0.5321887;0.044558346;0.070994966;-0.044137374;0.281206;-0.8165129;-1.722619;-0.02786025;-0.055185918;-0.0034451531;-0.10326974;-0.049386315;0.0019924284;0.06846574;-0.07220398;0.2849099;0.049574267;-0.9565067;-0.0058950214;0.0060793166;-0.072022505;1.9647753;-0.18647547;-0.12756293;0.043966528;0.06743;-0.028396675;0.043962937;3.003055;-0.90779954;0.04571925;0.6759046;0.0072595426;0.119272664;0.9494647;-0.26919076;0.08204177;-0.021270528;0.45503363;0.27265328;-0.41850215;0.11105589;-0.085889064;-0.12589261;0.78991413;0.03552254;-0.022471633;0.062246837;-0.37756854;-0.020150417;-0.026722288;-0.022299241;-0.5638726;0.65607363;-0.0029914181;-0.04967868;0.063520424;0.06777446;-0.016375605;-0.12633866;0.09153711;-0.014722196;-0.06203603;0.08752781;0.04115428;2.0462573;0.27546751;0.005405984;-0.32773486;-0.028423365;0.036757316;-0.011670257;0.14459144;-0.22500464;-0.20554847;0.935871;0.45886445;-0.02360742;0.08311678;0.059802122;0.032288715;-0.15666333;0.051726907;-0.08264616;-0.45909798;0.910954;-0.087148905;0.009996739;0.014872967;0.5180578;-0.516374;0.0016493561;-0.0061364505;0.45241085;-0.032715786;-0.711908;0.12735362;0.56628186;0.13433868;0.030517178;-0.07789279;0.21597098;-0.023439776;-0.5036454;0.036047082;0.033582285;-0.3692349;0.039732803;0.11796681;-0.07544693;-0.36096093;-0.07844928;0.045880865;-0.027865015;-0.055214625;-0.04979172;0.11906806;0.067604;-0.08516808;-0.0017776891;0.07571687;0.24007821;-0.23018688;-0.16549778;-0.32646605;-0.04685114;-0.6117382;2.1901007;0.048176985;0.7802647;-0.03580654;-0.03549255;-0.05792948;-0.19866303;-0.2274006;0.035108358;-0.06549403;-1.5443997;0.047133204;-0.041729864;-0.20161231;0.027249448;-0.023532212;0.013143147;-0.07160298;-0.041194767;-0.44752136;-0.1086856;0.5747496;0.09445569;-0.17871805;0.05499325;-1.4287311;0.10779385;-0.03149788;0.19970159;0.056922697;-0.58839256;0.047873635;0.0069768075;-0.033629462;-0.7418261;-0.008051552;0.4918359;0.41227284;0.20857932;-1.1911767;0.030703355;-0.07078375;0.13974157;0.0752711;9.675643e-05;-0.7026784;0.6161851;0.07051106;0.68625844;0.06944305;-0.06339177;-0.0038353545;-0.29073393;0.04963688;-0.069395356;-0.04433872;-1.6145648;-0.08596394;0.018288232;0.026604038;0.13013883;0.7861112;0.048492577;-0.17534411;-0.115834214;-1.2251658;-0.43939742;0.49220324;0.031723365;0.06986007;0.23792528;0.3347271;-0.06017103;-0.06521362;-0.3822257;-0.3597631;-0.0026266961;0.014936666;-0.27323255;-0.10912431;0.61912656;0.75413746;-0.07416883;0.027180064;-0.11408404;-0.028239515;-0.58774376;0.11935856;-0.4976184;-0.46184403;-0.026911484;0.0048598726;-0.24920861;0.016943028;-0.23630258;-0.10622086;-0.04386105;-0.030279316;0.22791195;-0.11472484;-0.90096235;0.07434929;-0.16588013;-0.079669796;-0.0058876537;1.0557566;0.02776602;-0.09280479;0.54841787;-0.109270744;0.110077865;0.041392878;-0.044676926;-0.03251235;0.21384856;-0.9765997;-0.20335546;-0.48501927;-0.40798387;0.065070644;-0.09544575;-0.02315208;0.09053562;1.6998445;0.30378234;-0.37248614;-0.028198743;-0.18241031;-0.034470428;0.81046426;-0.18597306;0.034917954;-0.03139976;-0.29061463;-0.29903367;-0.015259021;-0.22314027;-0.036562167;-0.0044755763;0.009010775;0.039071504;-0.09699674;0.022690335;0.06985547;0.025060687;-0.5647095;0.13126789;-0.058241036;-0.06504249;-0.44457918;-0.07725686;-0.15658371;0.92716336;0.066503376;-0.00566681;0.06516626;-0.048735157;0.06382867;0.060238536;1.4340281;-0.049501058;-0.035243392;-0.4835008;-0.099045314;-0.32795098;0.8029138;-0.15923908;0.013545548;0.29939556;0.007799745;0.048637;0.095201574;-0.9377771;-0.17376602;-0.061967492;-1.6832273;-0.021009611;0.56643593;0.048345428;0.20899613;0.7107148;-0.052463613;-0.10010383;0.6467737;0.034478474;0.047102716;0.0031086397;0.06882516;0.0014094178;-0.023890743;-0.01730551;0.07734105;-0.34074447;0.07308792;-0.019974358;-0.04293682;0.09302424;-0.037402358;-0.017083218;-1.1535054;-0.030766964;-0.096747465;-0.011635983;-0.090866715;0.08196581;-0.066636935;1.3309852;-0.084153056;-0.0019711761;-0.08133829;-0.08245457;-0.12340214;0.075338766;0.05504872;-0.063124985;-1.3884374;-0.023257434;-0.007631624;-0.06488561;0.959325;0.12315821;-0.03686336;-0.44597775;-0.39414945;0.75467545;-0.09997605;-1.073717;0.087375686;-0.06824923;1.1416358;-0.98336095;0.08569367;0.037797004;0.01692727;-0.2197101;0.018933091;-0.080773205;0.01981743;-0.014020311;-0.022742232;0.13509485;0.002506239;-0.89347476;-0.0871958;-0.96274203;0.03904972;0.196073;-0.4631856;-0.054341137;2.055001;0.02385267;0.032734152;0.06528954;-0.02801793;-0.07494378;0.13287105;0.050327335;0.7412276;0.08190087;0.045712985;0.053037774;0.014862871;-0.20483635;0.122475535;-0.5624512;-0.016402429;0.109806545;-0.020286974;-0.033141825;0.060432162;-0.029354997;-0.2877232;-0.040776074;-0.049856976;0.7622625;-0.025596526;0.13333836;-0.018243935;-0.08142716;-0.027628914;-0.009025667;0.032465287;0.019869162;-0.6716017;-0.044002727;-0.027248813;-0.078721635;-0.6362064;0.034284767;-0.0684286;0.025905965;-0.053251244;-0.4183815;0.014455983;-0.26247135;0.024454527;-0.5408433;2.1883886;0.081740424;0.70197296;0.047135703;-0.025267247;0.11671184;-0.2872865;0.028329402;0.4470177;0.8502487
0.15461044;-0.9887657;-0.37317634;0.081077516;-0.14467645;-0.06301412;0.5546342;0.024486808;0.023787694;0.51534337;0.02656501;0.06393332;-0.23390952;-0.061457213;0.020816255;-0.079683766;-0.2677897;0.06506441;-0.17788558;-0.04958789;-0.70884395;-0.030267552;-0.059722975;0.028001022;-0.16311693;-0.008849403;-0.06495894;0.8067203;-0.9080277;-1.5925552;0.043476574;-0.2954245;0.035532992;-0.32828057;1.173626;0.09659639;0.5470887;0.08016201;-0.024199015;0.016442232;-0.08226483;0.03410098;-1.187013;0.6417336;0.035830908;0.05121816;0.0539385;-0.060229395;-0.09853889;0.04979654;0.025556143;-1.1917893;0.03826595;-0.23823841;0.0050031506;-0.076479636;-0.14515471;-0.046894386;0.037045695;-1.6135862;-1.0001404;0.012077629;0.27703097;0.06655916;0.10144003;0.00029601614;-0.07198212;-0.03971308;-0.2085807;0.025760248;0.042209096;-0.087164566;-0.009621834;-0.15234579;-0.47952637;0.7353485;-0.0486933;-0.043713912;0.1204939;0.3275895;0.2948303;-0.049699318;-0.010774086;-0.06565212;-0.6842063;0.030142276;0.05022956;-0.15429732;-0.013881858;0.13341631;-0.011122114;-0.103831396;-0.03107323;-0.08608663;-0.03193296;-0.02478948;-0.42954522;-0.101918824;0.06717773;0.04882701;0.3718449;-0.13344352;0.033852644;0.024482762;-0.056992184;0.016254835;0.10067608;0.004246625;-1.4919304;-0.0128624;0.00795974;0.008054123;-0.06646263;-0.37826672;-0.0464639;-0.037413392;-0.022728771;0.0556417;-0.093767546;-0.022652525;-0.03279904;-0.038017225;-0.07745582;0.014025437;-0.003982167;-0.1736282;-0.6284866;-0.09114409;0.022089437;-0.9641281;-0.027158016;-0.095366314;-0.015673596;-0.06635648;0.03323918;0.02810172;0.47868568;-0.9385029;-0.026116924;-0.2924502;-0.045487463;-0.06255944;-0.7103711;-0.017239057;0.0063446513;-0.0067403275;0.008129959;-0.9474043;0.24190728;-0.0023715696;-0.040824275;0.031356495;0.009023682;1.1396531;-0.04501685;-0.0106645115;0.48797777;1.208323;0.004051363;0.69147867;-0.16823938;0.07288132;0.40138674;-0.3683877;-1.1490017;0.0327697;0.020774946;0.11887988;0.06904292;0.033208918;0.96108216;-0.76476026;0.07859135;1.5385262;0.013014629;0.06491614;-0.18430014;-0.73603296;-0.10302166;-0.039965194;0.32271135;0.17297463;-0.73620296;0.48726606;0.061030958;-0.04647437;-0.29009125;0.061296392;0.04420144;-0.018291526;0.41261905;0.016934147;0.0011193578;-0.03607518;-0.47636726;0.5107669;0.04098076;-0.007955343;0.04447169;0.3395354;-0.03638336;-0.10591982;0.00906213;-0.03405593;-0.09661697;0.100171395;-0.389421;0.2933834;1.937564;-0.0348601;0.14054798;-0.00021933448;0.046612356;0.03923949;0.13533229;-0.28605947;-0.08533539;0.098106235;-0.22942725;0.014999349;-0.11108;0.016360614;0.021141762;0.09034403;-0.035743203;-0.076340266;-0.40571672;-0.10411459;0.0076723476;-0.086094216;-0.03239847;0.6205152;0.3693566;-0.08833982;0.021638686;0.6728982;-0.0472015;0.046019875;-0.12884985;-1.9372727;-0.13440242;0.0315686;-0.016604567;-0.16334526;-0.019528111;0.0705429;-0.10005648;0.02773752;-0.46010047;0.054422203;0.017732967;0.0024104794;-0.39070207;0.7891716;0.021238724;-0.070755765;-0.14384264;0.049541634;0.14516889;-0.031087978;-0.23501629;-0.0767626;-0.015851993;-0.18276523;-0.38200903;0.11792116;-0.47832996;0.057047244;-0.11335882;-0.2361804;0.00292681;0.0705953;-0.021709718;-0.1992843;0.2281825;-0.01885525;-0.16900116;0.04595965;-0.018376324;-1.1105372;0.07550598;-0.08379612;-0.23655695;-0.1100697;-0.056868777;0.037773047;-0.021427672;-0.03121581;1.3896497;-0.009366624;-0.6406598;-0.08585027;0.4393565;0.062401652;0.5305378;-1.2663046;0.0481576;-0.1317462;0.013200565;-0.6879995;0.05435375;-0.051197853;0.057987817;0.14581335;-0.025448704;1.658682;-0.0918271;0.0553632;0.040187635;-0.07560699;0.04518775;-0.07498427;-0.038766082;-0.0138349105;-0.041025307;0.39328754;0.022649096;-0.28940263;-0.07608483;0.07390983;-0.0059800814;0.26152804;0.06552023;0.007850776;-0.1900422;-0.6331903;-0.020872548;-0.060243286;0.09221785;-0.26746076;0.6889909;0.09459829;-0.09645416;-0.074729435;-0.45918003;-1.3075571;-0.9372029;0.09266944;0.025952255;-0.04204867;0.21666218;0.06736381;0.0629704;-1.1693377;-0.633994;-0.037403;-0.025669456;-0.23044918;-0.055632304;-0.35030997;-0.046131004;-0.4557259;0.045620907;-0.025496071;-0.06263954;-0.12089452;0.14672095;0.24108344;-1.3220493;0.033393245;0.07009979;-0.20453732;0.00882627;0.17451496;-0.070450276;0.02239732;0.016300885;0.16313091;-0.049085766;0.34768942;-0.03815749;-0.39533257;0.15856259;0.028765097;0.4255021;-0.021725673;-0.03465169;0.7466375;0.041678872;0.049689095;-0.07698904;-0.019429978;0.02416344;0.30242476;-0.75564176;-0.07447993;0.21993792;-0.2062895;-0.016904403;-0.04709304;0.011387569;0.109202854;-0.758764;0.11797982;-0.6659692;0.05601506;0.09311112;0.014396815;-0.32406408;-0.14908922;0.029845646;-0.011534075;-0.23202814;-0.43029884;0.032175105;0.735049;-0.03583192;-0.0796329;-0.017665507;-0.076374374;0.03504975;-0.081958085;-0.040409945;0.00034221512;-0.2832512;0.17035204;0.052557632;0.0112872;-0.4771579;-0.08696017;-0.24573477;-0.11416376;0.0384635;0.05483576;-0.022799809;0.0809664;-0.05994415;-0.019280642;0.90617985;0.063113704;-0.0792097;-0.3373195;-0.008544598;-0.05168524;-0.47675243;-0.13052894;-0.08795937;0.090475075;-0.014095785;-0.24871927;-0.061652504;-0.7317614;-0.06797877;-0.18609439;-0.6498734;0.0120073315;-0.30486906;-0.01700331;0.098303095;-0.45533675;-0.016544117;-0.021382913;0.24324913;0.027501086;0.094828285;-0.026178904;0.015388722;-0.045195855;-0.049737733;-0.02536936;-0.024592206;-0.44404876;-0.060923614;-0.016288007;0.06129225;-0.030761365;0.04300205;-0.02336321;-0.07408676;-0.12820421;0.04344772;-0.09552058;-0.11255341;-0.004427218;-0.0540102;1.3134786;0.013629791;0.0009786856;-0.0078474935;-0.037309103;-0.10529264;-0.022418266;0.002400623;-0.08162275;-0.18625;0.0039576036;-0.017912086;-0.04940165;0.68687475;-0.007371762;0.012777501;-0.18846072;-0.5157538;1.7258863;-0.08962457;0.5041068;0.0023447988;-0.08847503;0.90906423;-0.65442705;0.047449514;-0.0067382664;-0.05999833;-0.23575562;0.055569205;-0.040631413;-0.03914764;0.050890975;0.021463573;0.13893902;-0.060691014;-0.90894085;-0.16982193;1.3487887;0.005840105;-0.03757707;-0.23734117;-0.11903033;0.31514555;0.008298714;0.012624061;0.048300207;-0.05763556;-0.06344011;-0.3295118;-0.001994314;0.27530947;-0.06764964;0.15866889;0.041376792;0.0012331742;0.02152369;0.097666025;-0.46446642;-0.050836887;0.034326844;0.166396;-0.039082345;-0.06194869;1.0490384e-05;-0.177606;0.08700388;0.0146120805;0.16239956;0.005953697;0.06610666;0.0068985447;0.03811771;-0.029139522;0.026808877;0.02940698;-0.015723467;-0.17918411;-0.029110532;-0.024022622;0.0155031;-0.25937113;-0.05977192;-0.015150553;0.035304718;-0.07254355;0.07463885;-0.0066088713;-0.30149138;-0.04193757;0.33601463;1.8109442;0.08369462;-0.768605;-0.031624522;-0.043457247;0.024591975;-0.12672623;-0.04388448;-0.1557653;0.21316215
1.2814606;-3.043775;-2.363687;-0.08712762;-0.12443193;-0.2766604;0.025832918;-0.057424694;0.058157805;-0.053959988;0.03027988;-0.18933065;-0.6685256;-0.03575578;-0.0635787;0.04271111;-1.4404726;-0.67307436;0.014151256;-0.32141858;-0.2068774;0.17972659;0.066478476;-0.04533529;0.32155293;1.7029363;-0.13193974;1.1317166;-0.16544427;-0.6855698;-0.01575383;-0.22489098;-0.03545747;-0.717754;-0.074799284;0.4194301;0.6051293;-0.02049438;-0.043878727;0.1193706;-0.15091285;0.0063852654;-1.0259106;0.4126139;0.07921504;0.054808825;-0.0023221197;0.041259136;-0.20184718;0.78877825;0.030319715;-0.1950332;0.027778244;-0.12015263;-0.037071384;1.0877377;0.31480053;0.019554906;-0.019231146;-0.020261949;-0.54264754;0.06375679;-3.3622067;-0.017010666;0.44860956;0.039772436;0.053763516;-0.026862994;-0.5984297;0.08581893;-0.025830185;0.019758219;0.03431128;-0.42794925;-0.8603288;0.97193193;0.17006035;-0.06952265;0.31053108;0.49037552;1.1423342;-0.094859324;-1.0910484;-0.010139144;0.10482782;0.2680861;-0.034108486;0.12889908;-0.13363767;0.0045651547;0.056866612;0.07497023;-0.018548485;0.26303968;-0.046546757;0.10007361;-1.4408407;-0.19230068;0.03610827;-0.03744957;1.4325564;-0.2855336;-0.26845816;0.0037376937;-0.0039884257;0.035387337;0.19855611;0.018561045;-3.3477304;-0.053367756;-0.026830154;-0.00011508011;0.042032067;-0.87263596;0.036271982;-0.026916571;0.18931673;0.3118655;-0.024304533;0.06368169;-0.08042234;-0.10628941;0.0859448;-0.029097877;-0.14288695;0.43850976;-2.0373795;0.06593846;-0.13049829;-0.34629583;-0.085758336;-0.010727633;0.059322413;-0.023031736;-0.029795581;0.085307434;-1.4865427;-0.9367137;-0.027363686;0.19966592;0.042756863;0.29823184;-2.3438976;0.10310545;0.022326907;-0.016929021;-0.4526129;-1.476415;1.8712536;-0.12291609;-0.004129255;0.057661343;-0.026806355;0.025448475;0.03660145;-0.10051089;0.41773415;0.017303087;-0.058911044;2.3616052;-0.0067959707;-0.03105567;0.32249752;-0.7583921;-1.6145701;-0.10975842;-0.07719425;0.3941532;0.04553598;-0.0044082426;-0.80965924;-1.1329813;0.06632145;0.62039924;-0.017245356;0.06181113;0.8821612;-2.9456484;0.1283002;-0.08583584;0.59879005;0.16724905;-1.6966057;0.74958265;0.022281177;-0.07024918;1.3977143;-0.012795471;0.041944504;-0.020516409;1.5561866;0.008348909;-0.08034254;0.11263525;-0.42024684;0.09910407;0.022410896;-0.02025037;-0.03954531;-0.7552048;0.04447662;-0.1573653;0.066600196;0.090259716;0.076678656;0.0057131136;-0.47814265;1.5382863;0.33466572;0.08966904;0.0504529;-0.20703125;0.3091112;0.024957217;0.2410394;-0.35062435;-0.35383874;0.4379765;-1.1174983;-0.08398428;-0.08688531;0.016833192;-0.103665754;0.05540435;0.0019949926;-0.046699654;-0.8671635;0.79355735;-0.006551472;0.081089646;0.118921384;2.1891456;0.9073957;0.09967418;0.07262271;-0.003414998;-0.056640252;-1.0576687;-0.34410527;0.5560963;0.09499231;-0.052917108;0.015841363;1.2153513;0.027139826;0.13196346;-0.013477024;-0.15088534;-0.564761;-0.031375874;0.04111991;0.008290293;-0.8643955;1.0280455;-0.051845185;0.06944561;-0.33322415;-0.034595836;0.528546;0.0740011;-0.26859963;0.0038024199;0.04837538;-0.26676655;-0.86188877;-0.5310072;-1.0022844;0.08638869;-3.2293007;-1.4248365;0.07417443;-1.5560666;-0.09899589;-0.1392852;0.79224324;0.077752866;-0.003461966;-0.15574646;-0.019945277;-0.87386495;-0.05452263;-0.12415559;-0.5590048;0.040776465;-0.037954018;0.029996628;-0.040803492;0.0061518764;0.78700435;-0.008189178;0.7121878;-0.08272664;0.3236656;0.034145966;1.0851741;-1.0771713;0.017282143;-0.33798498;-0.09488177;0.070696436;-0.05381031;-0.0300513;-0.07162877;1.2307327;0.05185423;0.86648035;-0.39946476;0.35843447;1.1666938;-0.052812193;0.04984575;-0.38381565;0.055945206;-0.02735062;1.0605992;-0.37864107;0.13337001;-1.103001;-0.049867254;0.013106998;0.026367249;0.38753805;-0.062024184;-0.059821203;0.06658948;1.0366688;-0.30524576;0.009371771;0.0037072184;-0.6042286;-1.2736962;0.39808542;-0.5802636;-0.20656909;-1.7608322;0.65761703;2.417143;-0.06296803;-0.039945904;-0.15253726;0.06206935;0.10941569;-0.0491263;-0.8666186;-0.7633446;0.12793937;-0.0017856986;-0.45947114;-0.0074301087;-0.73285645;-2.146827;-0.45892838;0.36472383;-0.15624535;-0.02977723;0.5514538;0.16090053;1.6980743;2.607653;-0.025467338;0.0120723015;-0.38432384;0.110033356;-0.50161225;-0.01117683;0.033507448;-0.020070545;0.3959111;-0.058237817;1.5793991;-0.018745465;-0.12174247;0.17062424;0.03682929;-0.676015;0.06959415;0.0013998452;0.73476744;-0.057506308;0.14988627;0.008028074;0.057191424;0.020285403;0.68440837;-1.645234;-0.41312176;0.5709659;0.554764;-0.008913681;-0.018112734;-0.020400636;0.5351208;-1.878222;0.51998603;-1.2674152;-0.028239444;0.2122954;-0.061488874;-0.7828001;-0.39493877;0.08774177;-0.054237045;-0.5841259;-0.90311676;-0.057124693;0.61765873;0.095318206;-0.012725382;0.053089913;0.016207807;0.0059272675;-0.050090298;0.11879457;0.17212108;2.2318385;0.32211477;0.08462332;-0.009944627;-0.9822495;-0.016201962;-0.5268676;0.6442534;0.17413874;-0.080775306;0.07995644;-0.05414958;0.06753621;0.08521051;-0.23856273;-0.043476503;0.09536758;-0.19380759;-0.058030825;0.86398685;0.064811856;0.33594713;0.03800567;1.761788;-0.06971765;0.2137374;-0.036749557;-0.007406811;-0.40644142;2.5997887;1.240392;-0.09058358;0.5647019;-0.06359668;0.11880133;-2.1124098;-0.2013429;-0.12453031;1.2638911;0.08022246;0.41216266;-0.015246893;-0.07459653;0.9284769;-0.14734407;-0.026335107;0.27211085;0.43849042;-0.39079988;-0.06723818;0.02857002;-0.0298382;0.062277224;1.0864731;1.0538487;0.040846996;-0.13359751;-0.008597675;-0.82105434;0.11009287;-0.7074105;1.5063083;-0.11426318;0.02724816;-0.013037415;-0.034888353;-0.29671893;0.07898789;0.037655614;0.0019597237;-0.08517445;-0.11217748;0.06587338;0.02772175;1.2951196;0.013071726;0.023650216;-0.5781747;-1.3045385;0.40281147;-0.20256297;2.31101;0.026164168;-0.21972439;-1.771177;0.012042339;-0.008270977;-0.028415164;0.07692934;-0.6387008;0.4072195;-0.016949816;0.017767822;0.023387162;-0.0197001;0.501598;-0.056952175;0.97839594;-0.18413298;1.5984163;-0.08116359;-0.03179849;-0.031557307;0.2605623;1.9429224;0.08922079;0.055819735;-0.023299376;0.048563212;0.05654649;-1.3969861;0.047840137;0.5059049;-0.26213223;0.32452902;-0.043159116;-0.042702865;0.13060191;0.46109894;0.13067204;-0.081049375;-0.03538973;0.18720262;0.063666075;-0.016056068;0.07238498;-0.2625056;-0.024663763;0.027749049;-1.8769205;-0.087834366;0.16442457;0.0017000961;0.022914233;0.0973329;-0.0065940404;-0.064544894;-0.08059032;0.5503351;0.104472;-0.05289736;-0.02892685;0.61877686;0.120576516;-0.12872285;-0.014184266;-0.10276138;-0.4239908;-0.065796934;-0.72577894;0.107419826;-0.93902117;0.11007174;0.015157969;-0.4826098;0.012717008;0.106553145;0.38899824;0.18698783;-0.13983859;-1.5525385;0.052510697
1.1982781;-0.76761276;-0.09203501;-0.023145236;0.10959747;-0.20036468;-0.8168156;-0.03653116;-0.03179325;0.023509702;-0.11270739;-0.11848113;-0.26887387;0.07854099;0.073515534;0.056895312;-0.21172088;-1.4015492;-0.09627968;-0.1772892;-0.20339157;0.12498176;-0.057413317;-0.11177876;-0.0073643443;0.66253436;-0.28383166;1.0739262;-0.19477971;-0.5017827;-0.06397916;-0.2089519;-0.04411881;0.065460294;1.0629724;0.1369737;0.29109272;-0.1316161;0.09210461;0.1792714;-0.14263754;-0.096796;-1.1628908;0.36009276;0.04900767;0.0057239532;0.13501003;-0.043644834;-0.38737395;0.4658177;-0.04886129;0.3698406;0.11311794;-0.7114302;0.040280275;1.1033424;0.5210842;-0.044503912;0.00416477;-0.51914436;-1.1639463;0.008310833;-0.9155382;0.09533409;0.08666444;0.11852506;-0.022163969;-0.048750322;-0.17096771;0.13479747;-0.008499548;0.0808428;-0.2862112;-0.20315291;-0.03726461;-0.40330386;0.074982546;-0.013616484;-0.19043906;0.3630208;0.6347248;-0.106870584;1.8170987;-0.032261364;0.21177155;0.085146226;-0.053547356;0.077500045;-0.17749125;-0.0014839252;0.059667066;0.10351578;-0.08978408;-0.12812158;0.14295867;-0.0047947234;0.2898567;-0.25157866;-0.017957365;-0.13123207;-0.5278192;-0.30751997;-0.061569147;-0.13491903;0.06373364;-0.05432701;0.045436364;-0.013107438;-0.22789392;-0.037384022;-0.05674027;0.037934404;0.025825419;-0.48587242;-0.046960816;-0.0993026;0.02692687;0.0030820237;0.022622164;-0.13972372;-0.014623158;-0.10914614;0.0862693;0.10210477;-0.24097714;-0.005765208;-0.15042546;0.0033672983;-0.051097967;1.0021589;-0.24755946;0.020682056;-0.031541247;0.09218502;0.1056264;-0.021208627;-0.997639;1.3658549;-0.029036378;-0.008599543;0.0035758629;-0.048060715;-0.22278006;0.059664384;0.013276556;-0.013880089;0.13312437;0.5297579;1.8041471;-0.0073816273;0.050312124;0.15098703;-0.12798347;-0.22013645;0.06848575;-0.016393185;0.077021874;-0.49097627;-0.15932739;1.0879304;0.75227255;0.06611787;0.13812295;-1.6028588;-0.2726856;-0.021378944;-0.18007468;0.083205596;-0.018709585;0.015896559;-0.1731623;-0.9349861;0.07924765;-0.3363458;0.07648526;-0.15137604;0.6905323;-0.19223434;-0.054710448;-0.1689488;0.3452345;0.21865137;-1.442363;-0.004988053;0.045110017;-0.16359343;1.1365974;-0.065949954;0.08080065;0.022421608;0.937598;-0.0043789707;-0.10405313;0.13950461;0.50605065;0.57928336;-0.09219652;-0.06574437;-0.21875891;0.29555756;-0.012569807;-0.18725379;-0.023704913;0.23975676;-0.041279633;-0.02773662;-0.45686993;0.7335726;-0.4606348;0.16793486;0.25058007;-0.27000666;-0.010053584;0.1639356;0.15889873;0.3953351;-0.3000136;0.1722664;-0.89872557;0.017999819;0.17467763;-0.049817707;-0.030364167;0.4196976;-0.06866654;0.008591856;-0.51134413;-0.3909708;-0.006852146;0.042574223;0.18749052;0.719827;-0.06892335;-0.15157634;0.04781892;1.6293579;-0.026876654;0.2933015;-1.3891257;2.0239053;-0.016937595;0.030001486;0.056362137;0.33305946;-0.102959916;0.71080714;0.040216733;0.37356633;-0.17922747;0.036778737;0.17270476;0.16498429;-0.49983868;1.9991841;0.07892418;0.053743005;-0.22046416;-0.063623294;0.49287;0.07804322;0.5149455;0.23076293;0.023866493;0.5232224;-0.29148826;0.29139122;-0.37071356;-0.03519346;-0.8769268;-0.5977412;0.029674793;-0.83667505;-0.10310294;-0.1609842;0.22783454;-0.090586804;0.20605145;-0.11272123;0.021050729;0.09992568;-0.17988172;-0.1343065;-0.30684817;0.12020284;0.09546084;0.047586933;-0.14506935;0.08534886;-0.36604363;-0.018859796;-0.21700379;-0.027206795;0.29938582;-0.016868323;0.96229494;0.80064154;-0.034416083;0.011656766;0.00013150385;0.9429963;-0.12458265;0.010374156;0.034740355;-0.4583969;-0.048020463;-0.42508316;-0.22963847;0.1197595;1.7850304;0.014569538;-0.06743261;-0.03149968;0.12645529;-0.054650288;1.2373848;0.06384834;-0.13736568;-0.940147;0.072466135;0.059008133;0.122095115;0.5970858;-0.04474724;-0.034661725;-0.4312999;1.2618775;-0.18838888;-0.03971919;-0.009325008;-0.37410805;0.11197133;0.0930484;-0.3385631;-0.27273732;0.5596774;0.07169099;0.4842278;0.05764061;0.030706868;-0.0040234756;0.35405388;0.10646986;0.070486575;1.5560939;-0.5841094;0.049219266;-0.027308557;-0.2898388;-0.16204272;0.67550033;-1.0540398;-0.73372036;0.028329028;0.087603614;0.07689042;0.48635817;-0.15872371;1.2250972;-0.722156;0.13338333;0.071204394;-0.3278266;0.13011378;-0.069363445;-0.12989824;-0.2777011;0.024503926;0.05643917;0.0030548086;0.0054725325;0.050924342;-0.022602495;0.5263464;-0.052503306;0.5140103;-0.06375826;0.02913309;0.45481578;-0.10169651;-0.0554733;-0.13044609;-0.051258802;-0.033317216;0.18909945;1.4987081;-0.2228876;0.029249739;-0.022979785;0.018414166;-0.06889326;0.060789835;-0.78099346;-1.3766975;-0.0023604739;-0.11676659;0.0039774524;-0.11513336;-0.16983119;-0.31999132;-0.1869043;0.02286352;-0.042229272;-0.31333145;-0.45313275;-0.13570724;0.16865653;0.025184637;0.048621755;0.033496883;0.043950416;-0.13761492;-0.05369235;0.050291598;0.0019612624;1.2131414;-0.026159154;0.045805063;-0.06249306;-0.48909488;0.00028496672;-0.27109894;1.0982234;0.2359128;-0.05256195;0.13865618;-0.013147776;-0.0650108;0.054546874;-0.23925999;0.0057794587;-0.0066117207;0.007297751;-0.08262889;0.31731793;-0.67504305;0.3127666;0.06817887;0.23626111;0.05970438;-0.4515683;0.13573828;0.2673009;-0.06979854;1.1395462;1.5738709;-0.078538224;2.751786;0.038734883;0.14857915;-1.1842525;-0.36612862;-0.039955087;0.7307839;-0.07491902;0.039399847;-0.03328904;0.038591925;0.7478778;-0.17374675;-0.08590654;0.11772458;-0.14774536;0.2258221;-0.02151323;-0.1218447;0.15644844;0.02121734;0.45256636;0.42931527;-0.016263073;-0.10971086;0.065077335;-0.9636107;0.09973927;-0.26622403;1.5695342;-0.10405303;-0.0007377851;-0.028538683;-0.1305543;-0.20829844;0.055774182;-0.0074982783;-0.016267745;-1.144188;-0.2598702;0.3426346;-0.04055079;0.8307308;0.06614112;-0.027047133;-0.7946828;0.3623387;-0.7398755;-0.15740299;1.2967062;0.26526746;-0.17677931;-0.07854852;0.1835655;-0.007829367;-0.01987868;0.03142946;-0.19749242;-0.4564717;0.10005934;-0.046116885;-0.00092588336;0.13639134;0.14305283;0.10098334;0.017767623;-0.2697212;0.9860776;-0.11359307;-0.0045911046;-0.02205417;0.3782253;1.1226537;-0.026795536;0.062133342;0.000109620865;-0.12238187;0.048346605;1.0458199;-0.0013827031;0.052838445;-0.27380025;0.055861283;-0.025128456;0.015487497;0.10469814;0.5702378;-0.057696935;-0.0638589;-0.05812285;0.46116766;0.02152914;-0.050547183;0.036510453;-1.0711155;-0.024302756;-0.096547976;-0.25234902;-0.05691038;0.04695268;-0.110737465;0.016962374;0.07946944;0.06656476;-0.11037361;-0.13935019;0.9495776;0.030762518;-0.28035313;-0.009713375;0.25669605;-0.040610038;-0.11633526;-0.1789028;-0.028837224;-0.59180313;-0.09076131;-0.37017944;0.09475019;1.1610408;-1.3995513;-0.047235098;0.038276803;0.06616937;0.07631286;0.017640505;0.26209846;-0.05984254;-0.67323107;1.0530735
-0.53085023;-0.16784005;-0.31160474;-0.114976756;-0.45428404;0.057748385;-0.39533618;-0.1102851;0.051505484;-0.14931238;-0.030178206;-0.102587834;0.21137689;0.1030394;0.12609622;0.068346895;-0.51711434;-0.9524429;-0.093447;0.008476409;0.44109654;-0.20351394;0.007927256;-0.04347234;-0.33745295;-0.9125289;-0.08082567;0.53053576;0.5331717;0.59635633;-0.08620702;0.5415368;0.12757325;0.6373395;-0.5791734;-0.22861388;-0.21409404;-0.08774264;0.05313171;-0.090089194;-0.06957261;0.0030767578;-0.029336102;0.040663045;-0.031805515;-0.047861125;0.10393975;0.017073788;0.14931032;0.055033546;0.09374383;0.31369838;0.004012037;-0.81047845;0.08307635;0.0420949;0.37023076;0.011473557;0.14588921;-0.515511;-0.84358746;0.20464984;-0.8194477;0.0020466794;-0.2788068;0.113625504;0.007203019;-0.05802253;-0.03425597;-0.09124288;-0.06240025;0.1025523;0.60961944;0.13237616;0.23293325;-1.5451894;-0.016098835;-0.14272927;-0.44222414;-0.28811285;-0.6348357;-0.1228094;-0.3249567;0.06422862;-0.45711464;-0.18085891;0.04358859;-0.05582403;-0.06432037;-0.014717677;0.057819318;0.15140703;0.01030909;-0.37495527;0.11365296;0.09122669;1.1239572;0.057985544;0.002056956;-0.06578842;-0.4347521;-0.0110563645;0.3020283;-0.08945069;0.14525227;-0.029875843;-0.1209908;0.013386155;-0.2963013;-0.05455837;-0.036503576;0.06914819;0.038676187;0.19335224;-0.15381792;-0.09142037;0.019848349;-0.17242147;0.093984306;-0.0014061078;-0.0630637;-0.13854192;-0.010231117;-0.021667859;-0.0076867966;-0.33248702;0.39054042;0.13317017;-0.015574827;1.8322629;-0.008041339;0.106624424;0.15559553;0.027462255;0.015092073;0.16686274;1.508517;-0.633957;0.01682955;-0.2557785;0.14112423;-0.37005317;-0.15145783;0.055250578;0.013820232;-0.07914216;0.18128356;0.53265715;-1.3421544;-0.13646981;0.013429743;0.09179655;-0.057975505;-0.31737137;-0.011272849;0.06313144;-0.37724078;-0.108552545;-0.02685686;-1.3557092;-0.36774752;-0.047798302;-0.3927987;0.11516877;1.004908;-0.11961006;-0.14269416;-0.17415784;-0.071327984;0.014711813;-0.19470958;-0.7354306;0.029937712;-0.22928195;0.08096676;-0.20099163;-0.023593226;-0.017897137;-0.43991873;-0.1396547;-0.5701951;0.032382168;-0.17345782;-0.5375861;0.14156559;-0.13668801;-0.79733837;-0.15153562;0.080487646;-0.03369776;0.11415101;0.13046508;-0.15558206;0.0126449205;-0.2816842;-0.3170711;-0.09516432;-0.15612681;0.015916247;-0.40862432;0.020907087;-0.02326317;0.083862714;0.08857113;0.026217915;-0.12513857;0.37455007;0.6696156;-0.79516643;0.22012307;-0.14031386;-0.011392474;-0.11226219;0.05819445;0.038268507;0.17854112;0.112749495;-0.1919684;-0.08434753;-0.026105445;0.094530776;-0.05543718;-0.14560626;0.071068294;-0.09578845;0.070013195;0.25398892;0.6815989;-0.034903083;0.12660983;0.005604653;-0.21607867;-0.5142481;-0.014649666;0.05788465;2.1258926;-0.09270643;0.5155882;-0.4762699;0.4140718;-0.06441608;-0.13299036;-0.11539741;0.14522359;-0.12822324;0.002412265;0.1151275;0.2784041;0.2579856;0.036840413;0.035676934;0.09447175;0.2832392;0.97928613;0.031130599;0.118267395;-0.013800929;0.110592276;-0.18057686;0.041609712;0.10972189;0.037873197;0.12097005;0.28135407;0.21167655;0.43079364;0.2622577;0.118693575;-0.0070039993;-0.08355085;0.05195879;-0.59267795;-0.028625228;0.37479383;-0.2258768;-0.14173852;-0.1689078;0.007407164;-0.13133179;0.2507261;0.0055607697;-0.08809712;0.16659138;-0.0015722618;-0.08422576;0.060332574;-0.18058664;0.027126025;0.1464155;0.036746293;0.22310016;0.110274255;-0.39353552;0.048907947;0.2392256;0.649333;-0.017291903;-0.39329338;-0.06660107;-0.1670161;-0.008938944;0.08725648;-0.0061477963;-0.565065;0.07613234;-0.49268115;0.31838855;0.05012728;0.09326147;-0.022782294;0.0727159;0.13943975;0.12492848;-0.1306389;-0.2868719;0.36733517;-0.1567805;-0.5659509;0.04538539;0.045196112;0.040348854;0.028781932;0.06437731;-0.06080396;-0.48320326;0.6612428;0.024977712;0.1565754;-0.13305658;-0.25190267;-0.34482178;-0.18471836;0.18632275;0.05567561;0.6098787;0.5981345;0.042524025;0.0043900996;-0.044288;0.1080334;-0.039425723;0.1394137;0.062064778;0.9842885;0.18083113;0.083719485;0.095564924;0.07694085;-0.10266076;-0.50089556;-1.0006963;-1.1321793;-0.12948525;0.066992305;0.085437074;-0.15593585;-0.23758805;-0.25186732;-0.1959639;0.07307002;0.108898126;0.08864941;-0.22232145;0.4253376;-0.093090735;-0.005177078;0.08403086;-0.43150413;-0.038956773;-0.57330555;0.15733309;-0.16771169;-0.029348843;0.098911345;0.18535063;-0.009327524;0.017763145;-1.1772636;-0.01033132;-0.02762024;-0.08142392;-0.04733962;-0.041441645;-0.52870846;0.08395268;-0.025355266;-0.29806283;-0.41250944;-0.0065239873;-0.172281;0.092449196;-0.44947186;0.06755294;-0.35522842;-0.7530799;0.05327454;-0.080971695;-0.089221634;0.2415358;0.07230544;0.080611885;-0.011252598;0.08095084;0.3039804;0.024404973;-0.18046132;0.08509645;0.094109945;0.0134230135;0.02266215;-0.08837529;-0.016152216;0.017512605;-0.046499163;0.09963629;-0.4167921;0.030282123;-0.09304862;0.19452128;0.06938781;-0.17483488;0.39873162;0.082602896;-0.04121068;0.03439984;-0.1488117;0.025820965;-0.09382541;0.15643324;-0.05309207;0.096709885;-0.5523831;-0.088390075;-0.1506267;-0.20635287;-0.22814459;0.08855324;-0.44392774;0.029329035;-1.0183536;0.140667;0.86817884;0.15676636;0.5906827;0.7214497;-0.037849594;1.8420761;-0.030914057;0.1066236;-0.8168716;-0.12372168;-0.12540619;-0.24997179;-0.09095591;-0.3833758;0.08391462;0.033988465;0.06450601;-0.12727372;-0.09858087;-0.11259116;0.47380137;0.23751739;-0.11442693;-0.092056185;-0.014639494;-0.045634173;-0.19283839;-0.696649;-0.06749751;-0.09152816;-0.019594956;0.25096196;0.026840536;0.19468462;0.114385545;-0.1799347;-0.017212924;-0.17390294;-0.15838331;0.097305104;0.13900001;-0.10296511;-0.055342417;0.32126695;-0.105391;0.0757279;0.026535543;1.0309547;0.13622443;0.07657871;-0.48712608;0.21108101;-0.41536427;-0.07499065;-0.15201697;0.058785446;0.07146562;-0.49021024;-0.20651406;-0.042342827;0.056972012;0.046517655;0.14040044;-0.017792867;0.091084644;-0.14711082;-0.09747601;0.14477892;-0.3234955;0.05468098;-0.25472757;0.17447509;-1.3764006;0.00010996613;-0.27773485;0.008851735;-0.12733653;0.63873094;-0.033232853;-0.024251176;0.012131523;-0.05878312;0.050554283;-0.30397943;0.0668705;-0.47983417;-0.021097613;-0.4811394;-0.05652232;-0.077047765;-0.19349582;-0.3965548;0.6653833;-0.032936677;-0.07806421;-0.15882368;0.08038652;0.006270912;0.07458822;0.5930926;-0.02844217;-0.14664494;-0.4323345;0.024234312;-0.088506445;-0.055857405;-0.14437102;0.0193177;0.13845646;-0.0992403;-0.10414548;-0.016281035;0.11950494;-0.046121377;0.021107905;0.2709469;0.07055718;-0.13470381;-0.032356303;-0.101153806;0.37323114;-0.17371562;0.19637622;0.015166553;1.0403978;-0.8356999;-0.019905347;0.7565405;0.16304731;0.043089762;-0.29794574;0.13606682;-0.16699757;0.28202176;0.28588074
-0.86711407;-0.009609078;2.1521196;0.04375013;-0.015510588;0.10231663;0.69475746;0.10947227;0.059047878;0.22402906;-0.014566925;0.15199564;0.29013214;-0.0044203247;-0.018330364;0.03642011;0.12751491;0.52224815;0.22288013;-0.09063419;1.9836776;-0.36408696;0.028828569;0.101386055;-0.2625324;-1.8375822;-0.09047448;1.0647173;-0.12257525;-0.15685472;-0.034334548;0.49400166;0.031184394;-1.053518;-0.021082802;-0.9647334;0.16820788;0.025828347;-0.0167347;-0.06007069;0.1732538;0.0114947045;-0.24808767;1.3643907;-0.035076886;0.05089286;-0.046708733;0.0040886663;-0.17338602;0.7264573;-0.030229896;1.4900861;-0.16035172;1.3907502;-0.043883692;0.49852967;1.5975903;-0.072359204;-0.077805504;0.6069249;-0.44218874;-0.040861692;-0.36687246;-0.09248831;0.07415522;-0.10612716;-0.03655662;0.046714105;0.41526222;-0.08840568;-0.02762541;-0.01731829;-0.9482398;0.22380225;0.9287159;-1.8609357;-0.07974764;0.039897617;0.051710207;0.8584973;-0.13315314;0.09494765;0.36195728;-0.08922735;-1.5343071;-0.042336263;-0.070255816;-0.07360672;-0.023238549;-0.058665823;-0.095398724;-0.02182316;0.031151345;-0.07498768;-0.12524846;-0.080419116;-0.3952603;0.07242882;0.08367317;0.09311625;0.34264964;0.122797266;0.15903641;0.04978258;-0.006007252;0.033679772;-0.08864691;0.07128123;-0.8467432;0.01407201;-0.05746397;-0.114022106;-0.10894231;0.24145982;0.023686148;0.03610724;-0.09244693;-0.0309005;0.032201223;-0.07984242;0.014819393;0.024971664;0.0663979;-0.120932564;0.12492023;0.57424915;1.4859443;-0.13601136;0.11165262;-0.11260503;0.14537075;0.2375656;-0.051786084;-0.07399674;-0.07372858;-0.054645784;-1.8940593;0.35798696;-0.06907217;-0.3038241;-0.088943906;-0.19753855;-0.31472746;-0.090870194;-0.013003913;0.13098936;-0.005377177;-0.6296572;-0.79721016;0.01383593;-0.006455043;-0.08110502;0.060877617;0.11306418;0.038056497;0.03593026;-0.3869693;1.0044913;-0.007843553;-0.83122814;-0.1046239;0.06061846;-0.03208208;0.82509863;0.29220143;0.09914225;0.1669236;-0.14761266;-0.06334936;0.0499654;0.6445338;1.2931498;-0.0076017324;1.1731763;-0.07407525;0.14527191;1.7941309;0.4957309;-0.15028965;0.09321259;-0.55803263;0.10898404;-0.0154186515;0.34428546;-0.03997662;0.03095602;0.7999403;0.088313125;-0.06918796;0.031088337;1.2191263;0.05879889;0.002578036;-0.09894861;-0.47577944;0.21503522;-0.031000916;0.14230491;0.1607923;0.24395081;-0.08587543;0.21503158;-0.004113123;-0.18314071;0.04283514;-0.057400815;-0.11676564;0.43359697;0.15319629;-0.014534933;-0.39609092;0.10492877;-0.051055837;-0.08199287;-0.1303983;-0.122823134;0.1467099;-1.5230762;0.25362292;0.07175587;-0.2599489;0.051052418;0.10625081;-0.08656888;0.12964626;0.008245608;0.20879792;-0.29458284;-0.06380218;-0.13616067;-0.11415147;-1.2994817;0.5878162;-0.019320657;-0.06440058;0.88299847;0.06544273;-0.30131656;-0.14726523;0.66824657;0.111004435;0.12192764;0.0794239;0.9783011;-0.0057178694;-0.10434161;-0.032746047;0.34533983;0.6512652;0.043502335;-0.028961187;-0.059937984;0.19477658;0.022730455;-0.13457127;-0.11366676;0.11091081;-0.017914027;-0.17907277;0.0037250451;-0.43548608;-0.11052097;-0.07379337;0.35034484;0.23991328;-0.2089057;0.29883835;-0.097495176;-0.92612463;1.7309507;0.0128291715;0.66334146;-0.044811387;0.06669693;-0.24923459;-0.04789212;-0.14224316;0.07864698;0.007778221;0.20463867;0.03796267;0.08541585;0.18584287;0.02659323;0.08023167;-0.001665828;0.07210101;-0.07587651;-1.0255861;0.065655984;1.2393817;-0.04243917;0.47516662;-0.06959481;-1.1524867;-2.5661259;0.04479993;0.014760357;0.09536832;0.16156985;0.044215683;-0.013589784;0.010130327;-0.19544655;0.001755108;0.09844691;0.3318244;-0.13234489;-0.15174474;0.004199793;-0.08294268;0.21690832;0.011154613;0.02292219;-0.22208527;0.39720455;-0.14754832;-0.8735477;0.02901284;0.084637634;-0.12495987;-0.62850463;0.0685191;0.07225196;-0.120915644;-0.4454822;0.09503168;-0.10421649;0.10385037;0.028036537;-0.42527914;-0.059861034;0.22259092;0.0716102;-1.1368701;-1.6701096;-0.11712413;-0.008630983;0.098762445;0.1901356;-0.053642213;-0.067105874;-0.14422964;-0.27457044;0.045117874;-0.07035475;0.06527315;0.20275041;0.10180102;-0.06287398;-1.8607696;-0.60222346;0.008781658;-0.046181615;-0.055042483;-0.082048416;-0.0334695;-0.84929866;-0.7230487;-0.059149455;0.0051543787;0.07925261;0.14712378;0.3084424;0.116688974;0.036863375;0.067913465;-0.46224195;0.068171866;-0.19942003;0.044268686;0.26830837;-0.23472872;-0.04900958;0.6515361;-0.009758091;-0.056779757;-0.5583187;0.17768106;0.06422441;0.0101343375;-0.041545853;0.09233469;-0.5753581;0.7054997;0.07807704;-0.9307052;-0.3778536;0.017277492;-0.03942486;0.027898785;0.06970653;0.75302565;-0.1546801;-0.57205844;-0.027128112;-0.34310392;0.15008104;-0.4806642;0.19298916;-0.04642056;0.09940356;0.14201051;0.23118187;0.14549388;0.78094125;-0.006942342;-0.057169747;0.112829804;-0.009650058;0.10895816;-0.043335304;-0.16212712;-0.07742849;0.92060536;0.063948706;-0.051815405;0.1338067;0.28373393;-0.06795315;-0.041381273;0.74783486;-0.110218726;0.09702935;-0.112008214;0.058347337;0.015280599;-0.019213414;0.09126077;-0.015082411;-0.062083993;-0.7451569;-0.061479162;0.7951446;0.066412345;-0.30608034;0.023789544;0.9082553;-0.050307184;-1.472722;-0.12818602;-0.4503971;0.19290031;1.1404728;0.32235917;-0.05680828;0.18462998;0.04825194;-0.013762255;-2.1396089;-0.08008711;-0.024229826;0.24721022;-0.016830746;-0.07792053;-0.06237507;0.019637268;0.29398477;0.043055996;0.07081002;-0.053804286;-0.5031236;0.120351076;0.1377455;0.024024045;-0.21846794;0.022370456;-0.22925845;-0.38315135;0.035566;0.14341111;0.051520154;-0.9735783;0.022565901;-0.46929976;-0.55175483;0.0043895235;0.032046225;0.014683377;0.05811728;0.18410975;-0.023551868;-0.015283595;0.020009981;0.48475155;0.18193938;-0.18209818;-0.023490453;-0.10821157;-0.089846455;0.038649168;-0.7403143;0.17920224;-0.34854355;0.17719942;-0.14341952;-0.16472161;0.092857875;-0.5553171;-0.08699696;-0.085092664;0.008686561;-0.060371358;0.27347183;-0.24810085;-0.06925574;0.057532173;0.0113838725;-0.01219915;0.0017879554;-0.10258892;0.94004524;-0.025727203;-1.4597876;0.12873662;-0.16596287;0.029576754;-0.31233457;0.7857876;0.013209586;-0.06456737;-0.047602087;0.024298772;-0.09313711;-0.86600107;-0.020004958;-0.8064371;0.04692042;-0.5838136;-0.039184578;0.06858459;-0.053274408;-0.9074304;-0.33121032;0.04490677;0.112394236;0.04298405;-0.034769543;-0.061250858;-0.0373934;0.24289294;0.04461449;0.08461294;-1.2558144;-0.04098909;-0.05912002;0.0065479465;0.0808092;0.050116647;-0.1126018;0.054282974;0.017170828;0.48381993;-0.11803068;0.1685703;-0.0314427;1.2338095;-0.09742416;0.14565226;0.15424797;-0.023995332;-0.4873818;0.009193008;0.1953773;-0.043023866;-0.1177386;0.45062953;-0.043220647;-0.05772368;-0.036717255;0.02735403;-0.092434935;0.34738728;-0.0022724925;0.037842017;0.35684735
-0.9899532;0.20375024;-0.8653197;0.07974502;0.20130174;0.053916384;-1.0672125;-0.010481226;0.080559045;-0.3471795;0.0019559981;-0.011603115;0.15269312;-0.012286714;0.045907054;-0.05931816;-0.4589257;-1.3416636;0.16431342;-1.3731614;-0.18899935;-0.13986985;0.04514735;0.07558976;-0.0679361;-0.44557345;-0.06516487;0.42978463;-0.1523793;-0.13474546;0.019529296;0.37110972;-0.07329324;0.47169375;-0.97207403;-0.44342607;0.10626921;-0.013087026;-0.0669865;-0.114474736;0.070009276;0.048372563;0.0015858856;-1.1858085;-0.033609558;-0.045313068;-0.04479008;0.06331506;-0.040425822;-0.0064723473;-0.0060782786;0.9606936;0.04009388;0.48549238;0.01263742;-0.33941022;0.67907244;-0.063278794;0.04299397;0.13193361;-0.14872779;-0.026110867;-1.4206485;-0.028614845;-0.11457192;-0.0817608;-0.05503375;-0.00028169743;-0.09714407;-0.01879774;-0.07501893;-0.020742519;-0.45120043;0.107279845;0.59780306;-1.0095468;-0.093503125;-0.042765077;-0.21428584;-0.9294619;0.12251352;0.047469012;0.253874;0.034367606;-0.8142127;-0.07101713;0.029632;0.048758674;-0.0044223536;-0.03262742;-0.055239722;0.024091976;0.03188845;0.13211979;-0.027483009;-0.065499246;0.15270391;0.011989093;-0.04772047;0.01639495;-0.07104029;0.074632846;-0.16350092;0.052948184;-0.069643684;-0.08594415;-0.08021239;-0.09867024;-0.1453274;0.036589146;-0.008711512;0.027550125;0.0023824587;0.05069674;-0.041143093;-0.041934337;0.0019287114;-0.07462582;0.025418969;0.13656533;-0.0784478;-0.0781928;0.03425976;0.0385406;0.013108811;0.032441467;-2.2132165;-0.04597975;-0.025436167;-0.25666726;0.07206495;-0.44064048;0.06738375;-0.055696823;0.08118421;-0.00072319125;0.39385608;0.583057;0.050989565;-0.14076334;0.057473626;-0.21205631;-0.6415894;-0.01607203;-0.058169354;-0.03421217;0.17903957;0.31104147;0.24898215;-0.07526601;-0.0736173;-0.04771712;0.058838587;-1.398118;0.001197163;-0.007267178;0.027327463;-0.7834774;-0.020774508;0.3604901;-0.034061294;0.057275835;-0.008703799;-0.8277956;0.020210115;0.009765559;0.08306027;-0.1256688;0.0372836;-0.06788521;-0.13509433;-1.2642152;0.008358442;-1.7088878;-0.08076449;-0.17445941;0.4582507;-1.3327512;-0.2739339;0.06740249;-0.34645563;0.032142464;0.37798864;-0.61934626;0.022050982;-0.03694608;-0.46798086;-0.07219853;0.008647993;-0.025334505;-0.43921107;-0.0278118;-0.04924098;-0.011507658;0.9289667;-0.07313516;-0.046317484;0.05364256;0.09086527;-0.3935595;-0.036091346;0.112591766;-0.043432854;-0.0010508414;-0.077340424;0.038641218;-0.2674352;-0.15824036;-2.1500363;-0.03391574;0.7282053;0.16349804;-0.06659744;0.0019628475;-0.18883981;0.34147826;0.15711154;-1.1085473;-0.2955992;0.04992628;-0.087781355;-0.001984213;-0.026712894;0.09366993;0.10671004;0.010312607;0.10307791;-0.9773372;-0.065645576;0.04296861;0.04318393;-1.2377254;-0.28208885;-0.0684696;-0.021009428;1.1708931;0.04984319;-0.41995284;0.7758679;0.74370027;0.09987107;-0.04586255;-0.076917164;-0.016375588;-0.08482744;0.38317195;0.041000795;0.13745137;0.48431388;-0.039620172;-0.07854258;0.013489588;0.20452057;-1.1155987;-0.030636217;0.06427356;0.062351357;-0.06301736;-0.13765268;0.024414202;0.36753312;-0.054458153;-0.0362244;-0.13062973;0.081282966;0.054935016;0.102173574;-0.066640794;-0.0566265;0.03920454;0.07957311;-0.2562729;-0.0658787;0.18317762;-0.050521687;0.19347078;0.097840846;0.020162895;0.04549018;0.42564785;0.0569529;0.091834545;0.0663883;-0.059219386;0.116935;0.046920326;0.06456838;-0.0076976353;0.565862;0.008191794;0.046058528;-0.099589474;0.22176445;-0.06859302;-1.1399522;-0.8018558;0.003185525;0.7207956;-0.02469013;-0.12446008;-0.030582832;-0.009466108;0.01428749;0.27296215;-0.05055887;-0.22584164;-0.18040864;-0.13904321;0.62754947;0.050420538;0.083580084;-0.09212345;-0.03167978;0.043149196;-0.585732;0.79442734;-0.07442426;-0.6402914;-0.07948529;0.06557486;0.057826154;0.14970091;-0.015194384;0.05288708;0.025356364;0.47798395;0.18262614;-0.04351658;0.040770646;0.20351954;-0.7310982;-0.1317377;0.20295726;0.003723557;0.26815033;0.023465833;0.36058608;0.02038852;0.07315319;0.31583872;-0.08911548;-0.030555453;0.064814396;0.09739203;-1.1075588;0.00043424324;-0.077967696;0.10934924;0.05498302;-0.07291013;0.64817214;-0.46459338;-0.08447231;0.15395974;-0.040855326;0.3362427;-0.2015579;-1.0757459;-0.16164732;-0.027552957;0.048229307;0.10251472;0.27526668;0.38777682;-0.03160726;-0.17435694;0.03263018;-0.08337403;0.36454087;-0.38002437;0.090922266;0.20871058;-0.07294478;-0.03650698;0.50755566;-0.03695968;0.003062839;0.6226704;0.0017497571;-0.010706233;-0.040138114;-0.043169178;0.07724584;-0.1474568;-0.57974374;0.17890453;-0.37380865;0.072793074;-0.05312922;0.027394008;-0.010851177;-0.19452487;-0.36356917;-0.11352569;-2.0160313;0.017431641;-0.114645556;-0.00091556174;0.05343752;0.14018595;-0.044663373;0.021451911;0.18943302;0.07729641;0.13403514;-0.56671476;-0.09243085;-0.13191897;-0.07158031;0.041393377;0.060783476;0.061799902;-0.043145988;-0.08488562;0.4154728;-0.21526703;-0.020672986;0.05454;0.1290787;-0.060718678;-0.014120306;0.1767973;-0.0906804;0.08842203;-0.06317847;-0.027480401;0.05488729;-0.07332768;0.08464582;0.065263174;0.047066808;0.11250261;-0.0665474;-0.23890378;-0.5640213;-0.19439597;-0.017547281;-0.3440776;-0.010925688;-0.036794856;0.01681764;0.06774744;-0.19363871;-0.45737663;1.1553227;0.011436086;0.7461782;-0.00022378917;-0.0062592635;-0.069805406;0.03541265;-0.054068647;-0.057232644;-0.02705814;-0.18647958;-0.033845276;-0.0009564252;-0.35299513;0.10296201;0.029129619;-0.10738795;0.09974199;0.13571206;-0.042910498;-0.067318976;-0.16630182;0.043549318;-0.21791697;-0.32654107;0.023726482;0.039427403;-0.03951164;-0.36445448;0.0028445171;-0.08104272;0.045741178;-0.047096018;0.015705068;0.050841063;-0.0611917;0.11050589;0.06559322;-0.06966776;-0.08403146;-0.29439798;0.095333874;0.04438106;-0.045745805;-0.21990424;0.034379005;-0.012098429;-1.986529;-0.5764197;-0.43386057;0.11156101;-0.312186;-0.10786313;0.18973675;-0.32456395;0.4172371;-0.034260955;-0.08522457;-0.08107071;0.20637137;0.3239067;0.04028401;-0.011013254;-0.064961314;-0.065088764;-0.13326682;-0.033932228;-0.3314804;-0.111422904;-1.950498;-0.01635497;-0.024284156;0.012851754;-0.3125649;-0.96563905;-0.07539372;0.01346347;0.0836493;0.054571778;0.014538924;0.13655515;0.012171298;-0.38660824;-0.12744297;-0.2582023;0.013226523;-0.07514524;-0.5266849;-1.0916423;0.40536273;-0.035313927;-0.083677985;0.16507287;-0.016241854;-0.01408074;0.04321457;-0.1892003;-0.06926158;-0.05060762;-0.35421768;0.08302408;-0.10105543;0.024173468;-0.0020028737;0.028065413;0.08782879;0.04085572;-0.023312602;0.6503308;-0.0036218641;-0.09513849;0.07355981;0.18519856;0.04410479;0.07947804;-0.0070912596;-0.047686234;-0.12672201;-0.029478865;0.15816961;-0.0652117;0.5200862;-0.9165786;-0.09583687;0.2772286;0.09063236;0.07368232;-0.20370474;0.11329484;0.06600714;-1.6127162;0.016256692
-0.76506895;-0.5792033;-0.013942862;-0.09414317;-0.09513349;-0.08015205;-0.83322364;-0.17067339;-0.044895954;-0.32660556;-0.022803472;-0.069196686;-0.09330004;0.002449169;0.06074188;0.058617838;-0.6827598;-0.86747575;-0.027211314;-0.9724951;-0.28738788;-0.39869717;0.027723351;-0.013539254;0.39190197;-0.5767674;-0.2414201;0.56561124;0.5262005;1.0732337;-0.100615576;0.3976495;0.097626165;-0.2504938;0.35390076;-0.4185045;-0.15211304;-0.09990789;0.041125275;-0.09618955;-0.11489072;-0.056559604;0.2831655;2.1036785;0.051947113;0.012699992;-0.008562339;0.122061476;0.16072376;-0.9704736;0.11016355;0.5617172;0.16169211;-0.065768465;0.1150444;-0.59136575;2.1478634;0.02897927;0.09579833;0.19329701;0.42284974;0.1083485;-1.0882251;0.0054629846;0.11505892;0.16589288;0.015244376;-0.023991201;0.05865702;0.1667099;-0.11137045;0.095977396;0.28053746;-0.16683963;-0.04156268;-1.3972424;0.0023240873;-0.072027504;-0.097427994;-1.4972848;0.22176313;-0.20145692;-0.4335348;0.012663986;-0.9197473;0.04586454;0.004662208;-0.0108529115;-0.26608968;-0.029227672;0.098713934;0.2227166;-0.07980868;0.009009517;0.11430117;0.04666103;0.107844494;-0.113968424;0.036019668;-0.15214112;-0.35658792;-0.100534335;0.063218825;-0.10689266;0.090765305;0.018744132;0.01143964;-0.06742198;-0.6642254;-0.069393404;-0.09566851;0.11298271;0.15818197;-0.29718128;-0.038959;-0.051759;0.012859583;-0.076144576;0.10958851;-0.42375472;-0.05380155;-0.11350208;0.08045289;-0.009891472;-0.21107;-0.32731465;-0.3704363;0.157026;-0.015226956;0.08472704;-0.17857388;0.09567081;0.071327664;-0.028486436;-0.052710034;0.06889323;1.0734861;-0.6777863;0.0024894027;-0.09546925;0.061848823;-0.15628386;0.40490142;0.077833444;0.041422028;-0.16195849;0.11438557;-0.6042123;0.78264266;-0.15594877;-0.0028430638;0.07388674;-0.13220306;-1.1351926;0.014048285;0.008063678;-0.19673114;-1.242993;-0.2093833;-0.16114256;-0.3817243;0.044953886;-0.66933;-1.7185354;0.9381451;-0.09270361;-0.17319801;-0.027485354;0.028756486;0.053478073;-1.0069706;-1.0374596;-0.0073889317;-1.1800096;0.08886874;-0.20820622;1.5335888;-0.690415;-0.16722205;-0.10313248;-0.31659132;0.0048502595;-0.25652382;-1.0815569;0.099535756;-0.17089021;-0.14591789;-0.060097113;0.0015653402;0.032405984;0.61242944;0.03834153;-0.21619757;0.21389845;1.3238224;-0.3098061;0.03988773;-0.18766057;-0.15623224;-1.0087501;0.0693568;-0.20159273;0.110782966;0.20742765;0.064127326;-0.2629958;0.31195232;-0.14218885;-1.3004539;0.10269893;0.4672923;-0.1134883;0.030812137;0.14565106;0.29468068;0.011199679;-0.22207324;-0.89217687;0.17690116;-0.0015707834;0.09331516;-0.0074399575;-0.0896014;0.21055827;-0.09116537;-0.07223933;-0.19854316;-0.56913894;-0.042989712;0.15873086;0.16015716;-0.65668684;-0.26365417;-0.090035535;0.08467029;0.93275446;-0.072764605;-0.35176814;1.1594995;0.032153197;0.14212975;-0.096539125;-0.0776393;0.74292535;-0.030586727;-0.30320758;0.17635387;0.15295692;0.7033226;0.009973163;0.13123018;0.24125326;-0.22636324;0.14597088;0.08634305;0.13580532;-0.066892095;0.081782304;0.02580414;0.13366699;-0.8104095;0.12346938;0.0842919;-0.02837641;-0.18846233;0.09909271;-0.29017374;0.052516393;-0.6145135;1.1352797;-0.015846245;0.9098132;-0.04054744;-0.08249069;0.052016485;-0.24384038;-0.27015936;-0.065771274;0.018553589;0.65584123;-0.22160754;-0.064707704;-0.20627798;0.12685157;0.06967737;-0.07444306;-0.055977795;0.15769307;-0.58958024;-0.13569546;1.9342997;0.0020951412;-0.34188625;0.15485469;-0.21472551;-1.5632502;0.022925822;0.52199787;0.007796203;0.6157529;-0.05375922;-0.014774541;0.12919185;-0.22897929;-0.02447239;-1.2053075;-0.05028978;-0.19463792;0.017410602;-0.20930588;-0.052275814;0.065873586;0.0011430348;-0.11100618;-0.21274489;1.3268905;0.0122165745;0.6896471;0.11922717;0.047578;0.10873663;0.88775796;0.020712622;-0.046313215;-0.09348361;1.383809;-0.19124535;0.13601631;-0.09311059;0.6390774;-1.2849442;0.01465519;-0.09148542;-0.20553428;0.7130768;-0.16201445;0.7026224;-0.014654756;0.0049459385;0.22513792;0.35249853;0.046352807;0.07356488;-0.2705993;-0.9486826;0.079362385;0.046527043;-0.12002751;-0.119334996;1.4137295;0.3014939;-0.12322889;0.017903142;0.04755834;-0.00036094958;-0.34087136;-0.05234301;-1.264957;1.0211844;0.19083184;-0.02338081;-0.09386089;0.44850698;0.26698393;-0.17502987;-0.26902294;0.085488185;0.004999387;0.07987932;-0.48486513;0.0409594;0.4798412;0.21115558;0.092615716;0.3956861;-0.022440724;-0.05784268;-2.091372;-0.17313568;-0.004898022;-0.1633213;-0.032721084;0.05761983;0.12949505;-0.901281;-0.10727677;-0.44478044;-0.45164436;-0.011531906;-0.06484096;-0.006401484;0.34811342;-0.36102757;0.63293946;0.25376022;0.16579244;0.01503536;-0.07546633;-0.787728;-0.09280128;0.10510116;-0.04489227;-0.10905335;-0.3256507;-0.06582553;0.010391301;0.015399819;0.16880941;0.038482003;-0.05949577;-0.053959947;-0.064003624;0.023851197;-0.027631883;0.1402834;0.12320645;0.15011029;-0.076206215;-0.21101218;0.024056736;0.2821392;0.91163224;0.1554025;-0.13240443;0.053035434;-0.08707691;0.021851012;0.06118854;-0.51935834;-0.057755705;-0.030994136;-0.29216588;-0.22320202;1.5192506;-0.034299333;-0.026321992;0.10472915;-2.3186958;-0.067152604;-0.693383;0.14719549;-0.23137069;-0.0004394385;0.16406128;1.744629;0.0019043378;0.001650572;0.04852383;0.24728729;0.10671873;-0.13237368;-0.08102873;0.9648728;-0.11349963;-0.015077305;0.027189529;0.015798034;-0.34263423;-0.18961173;-0.07935097;0.032073777;0.45473272;-0.36433408;-0.0979537;-0.0963228;0.084615305;0.041898865;-0.26036936;0.04896381;-0.07685122;-0.14656632;-0.05068814;-0.5233403;0.023665506;-0.6540959;-2.070488;-0.14766309;-0.065999046;-0.12025746;-0.1865519;-0.15315852;0.09818115;-0.09989281;-0.066147655;0.24247868;-0.16293678;0.10348397;0.031406626;0.09737297;0.10960256;0.02440221;-1.1448913;0.5133507;-1.2174808;-0.07824784;0.41508102;0.20509319;-0.055204686;-0.102981865;0.30101;0.01096504;-0.022934332;0.101681344;-0.17430598;-0.4406862;0.036701206;-0.18796548;-0.13436244;0.091397576;0.0022745223;0.06730135;-0.4297309;0.08467706;-2.8914273;-0.09558414;-0.12724741;0.16996919;-0.37030917;-1.6895486;-0.07680076;-0.03285044;0.041324798;-0.07867539;0.053717498;0.061809473;-0.0020120672;-0.6097578;-0.12189169;0.0038050092;-0.05965098;-0.099039674;0.4717276;-0.57594997;-0.10501258;-0.09658474;-0.1524827;-0.18598786;0.003706721;-0.012636991;0.044570412;0.23825215;-0.15642159;-0.06417678;-0.24679221;-0.02147097;0.027309315;0.00011094228;-0.0031022285;0.059180744;0.026642963;-0.04821704;-0.07161065;-0.8468713;0.038341496;-0.13420822;0.05562669;1.5907879;0.038534716;-0.106850885;-0.11044678;-0.07329943;0.24501629;-0.068908334;-0.2619112;0.09133116;1.4501326;-1.0430765;-0.12003775;0.5310882;0.07800961;0.02111516;0.10505904;-0.025487475;-0.06782197;-0.33962014;-0.099347875
-0.888894;-1.3395611;0.88397837;0.05960961;-0.017092241;0.17449063;0.5195241;-0.064880714;0.07483508;0.23157245;0.020458922;0.071034476;0.29932106;0.013976044;0.026311291;-0.019707115;0.12972718;-1.7708237;0.15091076;-0.56356114;-0.45777246;-0.09308791;-0.055137955;0.00824497;-0.4975784;0.72226775;-0.054745466;0.78323716;-0.17342526;-0.5685044;0.06982443;1.9310843;0.033376887;0.24366282;0.7704855;-1.0823184;-0.24953064;-0.021935754;-0.07228159;-0.0026914317;0.024307825;-0.06320783;0.13059121;-0.38437918;-0.060929477;0.017785966;-0.011148237;0.026836934;0.011699212;0.16261038;-0.036695596;0.25606743;-0.005376162;-1.8053137;-0.039153945;0.0428248;0.73089343;0.055998605;-0.00050851156;-0.61532265;-1.5981562;-0.048886027;-1.0839539;-0.1071934;-0.38160276;-0.01289439;0.013091199;-0.009635191;0.13319562;0.018871278;0.042558663;0.032945864;0.70396847;0.1289064;1.3732417;0.7844283;0.0050315442;-0.01847498;-0.68141186;-0.6639431;-0.9344776;0.008916845;0.33748886;0.016229456;-0.85279834;-0.15365829;-0.08005533;-0.29268968;-0.01799634;-0.081923835;-0.09353295;0.035750408;0.028337143;0.043115847;-0.09160395;-0.059150342;0.04535702;0.079744406;-0.082743846;0.009180306;-0.40893814;0.13879117;0.05915489;-0.03531884;-0.044912253;-0.038535725;-0.094824366;-0.03604351;-0.9834551;0.04665353;-0.046430755;-0.018775145;0.014837616;0.3545351;0.075228125;0.07840226;0.016746854;-0.28152618;0.07607574;-0.04801882;0.048540752;-0.071229145;-0.010427198;-0.0063888123;0.058053102;-0.25732315;0.78774804;-0.058583252;-0.08579203;0.13256067;0.10831443;0.45627335;0.06567415;-0.055039126;-0.06680364;-0.087935865;0.58144397;-0.22528021;-0.08744624;-0.2965977;-0.012405947;-0.4090272;0.61234564;0.032893367;-0.032086227;-0.06491862;0.568935;-0.5213217;0.55013007;0.039333384;0.02288027;-0.016220532;-0.049905337;-0.92371213;0.07839065;0.04205515;-0.1231545;-1.5758073;0.014488319;-1.7053262;-0.06823838;0.0093253385;0.19827408;-0.38978216;0.07188624;0.12362654;-0.0224732;-0.15445052;0.04237248;0.051045038;1.1335596;-1.6605268;-0.034828052;-0.5816887;0.026565064;0.036097884;0.026259795;0.14085454;-0.43953267;-0.009717307;-1.0717704;0.019410314;-1.293553;-0.009536603;0.023975085;0.022327522;0.4364626;0.057070456;0.015234512;-0.016299313;-0.10865369;-0.057590306;0.07265283;-0.09811297;-0.22763173;-0.3471771;-0.05128457;0.03943379;0.10909982;0.042905953;-0.016083699;0.1670036;-0.0071880175;-0.037115008;-0.05057734;-0.05521334;-0.21822308;-1.1376137;-1.317066;-0.08670859;-0.41139278;0.1314368;-0.04239645;0.06311401;-0.051280737;-0.114322364;0.15107644;0.514202;0.01833984;0.041081317;-0.119122595;0.01055472;-0.08419235;-0.021163547;-0.0022187291;0.04668651;0.39214632;-0.25703806;0.0078008682;-0.06397587;0.025326282;1.3815974;-0.6304941;-0.008714359;-0.017599056;0.7435193;-0.055653654;0.5165587;-0.6500084;-0.12203862;-0.035572678;0.031004602;0.04076117;-0.40881908;-0.06262521;0.044350445;-0.07653421;0.18927065;0.94059163;-0.07249785;-0.13567664;0.0010750869;0.33914897;-0.8115173;-0.08176595;0.06587882;0.06420153;0.005544473;-0.38785836;-0.023054145;-0.39010036;-0.044219434;-0.038668063;0.08625949;0.4424892;0.075070925;0.3474417;-0.071670644;-1.3279415;-0.22899494;0.011457296;-0.43445733;0.018802604;0.16701992;-0.44645214;0.16284195;-0.09756768;0.029991047;0.07938891;-0.34094083;0.06288562;-0.024466487;0.13939294;-0.038666055;0.073118925;-0.00038020522;0.06462041;-0.033093598;-0.21842746;-0.00010607049;1.2462748;-0.06880076;0.6453695;-0.08316091;-0.84988666;-1.3135928;-0.0052584545;0.07701747;-0.03667614;0.5061431;0.09115593;0.024583599;-0.016597973;-0.6033972;0.009345145;-1.8027598;0.43573773;-0.10140769;-0.14522253;-0.06294339;-0.059073176;0.038142815;0.008988509;-0.044447914;-1.3850617;0.01230337;-0.23859876;-0.023941327;0.05706034;0.09425479;0.064213;-0.0010257196;0.077116996;-0.044543773;-0.36150703;0.49994603;0.17252903;0.004079432;0.056005903;0.2166341;0.6634242;-0.2345973;0.14849772;0.1342916;-1.5746812;-2.2446375;1.241944;-0.056978274;0.036560822;0.14934836;-0.5521183;-0.012592899;-0.100150324;0.008337891;-0.0702131;0.05043821;-0.06682373;0.18006107;-0.025444161;0.3180824;-0.95192516;-0.20211855;-0.19365817;0.022477977;-0.04534264;-0.21122824;-0.4308404;-1.0732415;0.9873453;-0.07825411;-0.049920175;0.111795045;-0.11636778;-0.14627908;-0.063824736;-0.017802294;-0.03721576;-0.3485919;0.035303697;-0.121969685;0.0034160777;0.24641207;-0.12911558;-0.056424167;0.030136416;-0.02258996;-0.087770194;-1.1026641;0.03162542;-0.06996546;0.049767446;0.018968625;-0.084941864;-0.86798346;-0.8047374;0.058449667;-0.44675717;-0.14598761;0.042121626;-0.03345999;-0.04125982;-1.4992336;-0.41532478;-0.57320726;-0.70948625;0.03895746;-0.2351148;0.09748236;-0.14924432;0.17634563;0.04102947;0.085785046;0.33100048;0.36959097;0.08369409;0.5879563;0.00678787;-0.11380916;0.08745501;-0.008846093;-0.053628836;-0.02886959;-0.089248314;-0.06943211;0.58510923;-0.4099312;-0.04421959;-0.022305284;0.3654064;-0.061253063;-0.021138256;-0.06941822;-0.05363153;0.06814096;-0.074680075;0.06544332;0.068081625;-0.1770589;0.34172106;-0.031499002;0.0600355;-0.5271073;0.03744238;0.21416155;-0.40441817;-0.75221264;-0.035731923;-0.5969189;0.067559965;-1.0316509;0.011825799;-0.17770706;0.24586737;0.7370833;0.47307992;-0.13934879;0.7907958;0.008011603;-0.13182858;-0.1105247;-0.01337146;-0.035950746;-0.64934766;0.004347452;-0.27789754;0.03349509;-0.04334554;0.07735299;-0.014684941;-0.033152364;-0.12836808;-0.24553548;0.0065970095;-0.030763146;0.044543575;-0.10558648;0.030765248;-0.20174268;-0.7013115;0.03064285;0.04645829;-0.06475071;-0.85182697;-0.091699146;-0.3144511;0.2184519;-0.045551572;-0.06661896;0.06363333;-0.081125356;0.17964512;0.036146406;0.03384296;0.031155521;-0.4594587;0.10245091;-0.07579994;-0.14278913;-0.2584958;-0.06284788;-0.025424058;-0.48819378;0.16903101;-1.5062559;0.050816305;-1.1210742;-0.09147754;0.13066433;-0.20582278;0.46233284;0.03595378;0.007725896;-0.14139308;0.32916412;0.03611781;0.006146792;0.06662427;-0.02114003;0.07731157;-0.4229936;-0.015453593;0.50980276;-0.124353334;-0.76901895;0.05840314;-0.36400732;0.13182557;-0.5065585;-2.532176;0.008994359;-0.048470635;0.062631786;-0.06930553;-0.044868696;-0.5101189;-0.057018694;-0.24753362;-0.044567745;-0.5009126;-0.067631856;0.0076705273;-0.26612878;-1.2752719;0.9261806;0.01481395;-0.039190277;0.019127427;0.06739368;0.06628017;0.051014815;-0.7537345;0.017035292;-0.06689225;-0.3367529;-0.047937065;-0.04325463;-0.06273115;0.06692435;0.0153677175;0.071980335;0.041063905;0.06928598;-2.1392298;-0.12113523;-0.007394512;-0.033730157;-0.18378493;-0.026051119;0.067397565;0.056283463;-0.04858537;-0.19924907;-0.017706463;0.3246799;-0.07181651;0.8697825;-1.1367377;0.07918455;0.33410937;0.0609249;-0.03933663;-0.30267522;0.030352991;0.07623392;-0.03603667;-0.08007488
-2.1268907;-1.0024016;-0.2939485;0.0964823;-0.079765424;0.113761485;0.8631821;0.005141938;-0.018897068;0.1592783;-0.01610768;0.041444797;0.25732726;0.023434533;0.04032631;0.017240714;0.087996155;-1.232267;-2.8912918e-05;0.23267147;0.033375926;0.055276778;0.042427123;-0.0104639465;-0.45847583;1.3222995;0.08586173;-0.2582022;-0.6389521;0.038323123;0.015041565;1.3441232;0.011739587;-0.1568101;0.93592215;-1.0122852;0.087833606;0.056320753;-0.07125266;0.14802937;0.07669804;-0.062461022;-0.8208393;-1.439967;-0.015850779;0.0017198081;-0.034298938;0.0488689;-0.041501556;0.5311384;-0.1307217;-0.46138605;-0.116382994;0.72379565;0.025825132;0.33857536;-0.8727203;-0.043882195;-0.06449511;-0.92023724;-0.914063;-0.011014993;-0.898189;0.03969353;-0.29875;-0.08705156;-0.07399164;-0.02898945;0.19029935;-0.019303808;0.121326625;-0.08559466;-0.11318425;0.13983938;0.9096474;1.4830552;-0.0918916;0.067174025;-0.9993308;0.96797293;-0.5498064;0.0057353056;1.310024;-0.06389924;0.1981867;-0.13494529;0.029062936;-0.14190544;0.17655559;0.017244145;-0.0680786;-0.15554608;0.08443964;0.366223;-0.12756339;-0.11367787;1.0202181;0.0520323;0.07913763;0.09619051;-0.07069539;0.18633758;-0.13383375;-0.012603427;-0.009570748;-0.06531715;-0.10003278;0.08488337;-0.78324175;0.098986104;-0.06967579;-0.102359936;-0.0652275;0.5200315;0.10245612;-0.0076175863;-0.087819114;-0.24678458;0.011230205;0.2520194;0.13261564;0.10974703;0.014104176;-0.07446215;0.19116426;-0.41443714;-0.63321465;0.039849482;0.007444846;1.4920001;0.0920162;0.20878558;-0.025326772;0.000561357;-0.10427428;0.036460552;0.35603988;0.6923559;-0.007991147;-0.27296633;0.0067009786;-0.6665927;0.38769257;-0.088294245;0.06045658;0.083855465;0.28693876;0.078806005;0.63274056;0.09512297;-0.06367822;-0.010778823;0.05008126;-0.91898996;0.008630245;0.00012235492;0.011038781;-0.079152696;0.11175628;-0.061560612;0.3709607;-0.025351156;0.44242454;-3.0790098;-0.26509696;0.083384104;0.15009676;-0.20064132;0.026956942;-0.08037609;-0.23530138;-1.1823949;-0.033117905;0.5230992;0.022820996;0.110753566;-1.1945021;-1.1272022;-0.5765135;0.15628895;-1.0902802;0.030803319;-0.92104286;0.6538163;-0.009627645;0.06354921;0.9469842;0.014581746;-0.023105871;0.041371945;0.3366787;0.054696124;0.1106327;-0.09432752;-1.0018964;0.45168757;0.05295997;0.17591226;0.18751244;0.41611353;0.052868325;0.22034629;0.0043380694;-0.15704939;-0.046443682;0.051853977;-0.4047119;-0.85843843;-1.664602;-0.15233257;-0.66626734;0.129217;-0.032211326;-0.0851969;-0.09358338;-0.013328981;0.11059225;1.1083258;-0.37838978;-0.044567175;-0.28578117;0.038188536;0.0661503;-0.14944318;0.056454398;-0.03261748;0.50213575;-0.45838967;0.012196867;0.0014450974;-0.11592642;1.9372083;-0.07876078;-0.0048687733;-0.12561716;0.5972712;0.09969401;-0.27061805;-1.7149343;0.8421467;-0.1122952;0.04896954;-0.006796062;-0.8770773;0.08992037;0.06018194;-0.011466691;0.38645923;-0.20834787;-0.046363752;-0.16710614;-0.1621918;0.4970206;1.2173316;-0.08028984;-0.08070028;0.1678792;0.061988205;-0.34494483;-0.051298186;-0.3023767;-0.15947147;-0.032264493;0.13659777;0.44548887;0.051851325;0.5435726;0.05941349;-0.44465604;-0.2886334;-0.093372725;-0.74913;-0.10384484;0.17159252;-0.43831706;0.36870316;0.2546819;0.16578862;-0.04862718;-0.54638106;0.10746649;0.10192252;0.24976763;-0.06047354;-0.03657317;0.021861302;0.13979974;-0.15125667;-1.251977;0.06948865;1.3672942;-0.045716792;0.49058068;-0.0068336935;-0.08711113;1.17605;0.09224999;-0.95183426;-0.04858283;0.61131585;0.0757434;-0.0905782;0.026199987;-0.056069076;-0.00062225864;-0.5027641;-0.21953763;-0.1604925;0.01545925;0.0014889926;0.03378326;0.15900587;-0.11893324;-0.01753057;-1.1180966;-1.3090584;-0.112694226;-0.47329715;-0.06930661;-0.036415774;-0.014273944;-0.6304844;0.038311034;-0.025340023;-0.18911286;-0.41538823;0.10013658;-0.011160548;0.0067332117;-0.3760166;0.36401233;-0.12952164;0.22705537;0.111960635;-1.1375927;-1.0433267;-0.6376415;0.00092465134;-0.054750662;-0.010532333;-0.5039216;-0.10229684;-0.041300546;0.07211314;0.49437267;-0.013688162;0.025617126;0.28221935;0.18452129;-0.68958616;-1.2184619;0.21514457;-0.21147022;0.07189473;-0.090652816;0.17410246;-0.6153176;-2.475347;0.7940921;-0.028038455;0.056007322;0.2092613;-0.5896763;-0.44400415;-0.007411718;0.05970988;-0.0021066742;-0.5953183;-0.07524826;0.6997378;-0.021265602;-0.39482328;-0.113099;0.019420264;0.28203884;0.0077930302;-0.0070771305;0.6983012;0.11316124;-0.007920521;-0.014450283;-0.059072908;0.0129848225;-0.92730075;0.5946705;0.08939218;-0.0446476;0.106698744;0.03678701;0.10192241;-0.10709078;-1.8058887;-1.1014321;-0.49613488;-0.2386832;-0.12506981;-0.24947983;0.17868158;0.47104675;0.24454768;-0.10566799;0.0857925;0.26010916;0.58124787;0.1469375;-0.41187784;-0.098081395;-0.13624541;-0.0029463968;-0.081467025;0.08474616;0.12717377;-0.09963212;-0.014233269;-0.07756765;-0.46046636;-0.11556578;0.13501252;0.55905026;0.04526384;-0.30842194;-0.7791512;-0.13999933;0.023909481;-0.18154466;0.106748335;0.0439061;-0.16496474;0.29929164;0.024666522;-0.073808245;-1.6506704;0.029102184;-0.8511148;-0.4278538;-0.40855864;-0.015540974;0.9334361;0.032200776;-0.6994692;-0.06236047;0.50229335;0.070494264;-0.4528835;-0.33288708;-0.08200061;1.0723525;0.022723649;-0.24629858;-0.6743861;0.14163694;-0.026146278;-1.669281;0.058867447;-0.35366774;-0.05505674;-0.01806308;0.35168424;0.18082036;0.0009567965;-0.1557375;-0.24276575;0.1727196;0.076461084;0.09347742;-0.12495556;0.03826461;-0.14441024;-0.5091922;0.009311064;0.021231676;-0.016337493;-1.4800391;-0.017226605;0.17795412;1.5203155;0.09959791;0.044335283;0.036948957;0.15150431;0.14753784;-0.14950696;-0.037425797;-0.029373467;-0.28933832;0.10363686;-0.103412315;-0.095535345;0.11058473;-0.01259608;0.018122133;-0.9638632;0.02487989;-0.46973038;0.067279086;0.06654104;-0.18573618;0.22413145;-0.86824286;0.10685344;0.005391147;-0.0072866343;-0.084783256;0.22718617;0.5214653;0.0069717546;0.12365608;0.082199834;-0.15253066;-0.45782185;-0.103992954;0.27843958;-0.14904015;-0.53013825;0.06576074;-0.26056215;-0.021785788;-0.84497976;-0.4932271;0.010985677;-0.08522888;0.041427393;0.12260419;-0.049570374;0.51197803;-0.11188035;0.004150267;-0.03086867;-0.59584475;-0.0022771964;0.0076467977;-0.8390786;-1.650185;-0.96641916;0.08372927;0.018835938;0.127147;0.0285676;-0.006585507;-0.059242852;-0.7096825;0.0085353935;0.07337785;-0.36050606;0.02878988;-0.07491402;0.014376105;0.022656878;0.038240094;-0.10936456;0.0019017223;0.029732343;-1.7084734;-0.053525947;0.10956356;-0.089746095;-1.8391984;-0.068973444;0.09024752;0.015630195;0.113213696;-0.6711104;0.100544415;0.44208118;-0.05720332;-1.6842287;-0.17060365;0.03914881;-0.8632387;-0.0490338;0.010071095;-0.3054864;0.13477375;0.016167218;-0.32833827;0.6643527
-1.461275;-0.43708774;1.1071051;0.16118327;-0.11427639;0.3327048;-0.56495595;0.09023023;-0.10405873;-1.1989254;0.049230114;0.31058478;0.4728762;0.011346467;-0.14051488;0.0079526175;0.1918085;1.292183;-0.16228591;-0.25534725;-0.10392666;-0.18389012;-0.035928715;0.15755527;-0.2864764;-1.1318609;0.2171768;0.0143863745;-0.5350257;1.022441;0.17469765;0.27643383;-0.012298871;0.46739754;-0.1461914;-1.43462;-0.092843354;0.3156104;-0.07642494;-0.14482428;0.33104515;0.018826382;-0.07741535;-1.5384159;-0.033614;0.079752296;-0.10234748;0.005402623;0.23780362;0.42334402;-0.0687016;-0.11121854;-0.20617828;-0.060768615;-0.054801658;-0.08106429;-0.40844408;-0.06670522;-0.13413171;0.62993;1.1384999;-0.12272904;-2.2844183;0.0063428837;-0.4149183;-0.30486652;-0.07972973;0.1060301;0.6258024;-0.063261256;0.005841727;-0.16426386;-2.4063962;0.39450446;0.8531878;-1.6431235;-0.1736181;0.108386844;-0.94187516;1.5808915;-0.9890956;0.087048;1.4536071;0.007396867;0.30941188;-0.1713619;-0.011921674;-0.05357571;0.14663495;0.07126073;-0.12531999;-0.22990279;-0.061044622;0.7851899;-0.09699677;-0.0823683;1.8079903;0.35646734;0.00019198522;0.24580014;-0.66842926;0.3477165;0.09990074;0.08671719;-0.27033025;-0.040543918;-0.13713948;0.041083112;2.1626284;0.1738364;-0.02090375;-0.07468023;-0.14491387;0.6917769;0.054480053;0.08210578;-0.17793585;-0.11765572;-0.08861233;0.33170518;0.20472161;0.09524071;-0.029432898;-0.025080495;0.26257873;-1.389706;-0.13422072;-0.11886149;0.19800952;1.106954;0.36126384;-0.50655663;-0.03077371;-0.00074105675;-0.018442793;-0.09138364;0.33648357;1.0362613;0.021898583;-0.35523555;-0.118148394;-0.7725897;0.4039581;-0.15104371;0.09475838;0.19786537;0.37321475;0.9501004;0.83388287;0.08758412;-0.104337245;-0.065961294;0.17144133;-2.0489087;0.04950217;0.03967387;-0.25085512;-0.047490567;0.15953958;-0.5512709;0.40709388;0.014357039;0.42799044;-0.9169356;1.5724615;0.06230119;0.31284186;-0.17239407;-0.02609977;-0.030280124;-0.90680903;-1.6979439;0.041662917;-0.27130622;-0.12567838;0.10946081;-0.6780805;-0.83535737;-0.58457184;0.19742171;-1.0105655;-0.1259869;1.338762;-0.20574012;-0.17995228;0.26620486;-0.6206138;0.07282674;-0.009471189;0.06485687;-0.5044231;0.015923737;0.23219064;-0.22451396;1.6979121;1.0451486;0.09483334;0.2901984;0.3013997;0.079250954;-0.07724627;0.32236362;-0.11231476;-0.20645288;-0.008296322;0.18420982;-0.5339497;0.047581796;-3.1803672;-0.28424475;0.51763374;0.43867818;-0.17115346;-0.26461458;-0.28678924;0.47002366;0.44128042;-0.92843616;0.8702532;0.019382598;-0.31734022;0.07633126;0.113727726;-0.40772396;0.17850475;0.038995046;0.679219;-0.24640004;-0.0122795645;-0.14445134;-0.22678098;-2.200427;-0.41483042;-0.11255733;-0.20454852;1.2072206;0.1538507;0.41172317;0.5236956;0.8267637;-0.3812324;0.02916017;0.013834988;0.24835286;-0.011362376;0.6832387;-0.10268753;0.27367836;0.8804402;-0.03597523;-0.22965759;-0.30149275;0.55573547;0.8148728;-0.122248776;-0.030434147;0.29732552;-0.040096328;-0.4605549;-0.10655408;-0.30913007;-0.30434692;-0.04513975;0.3798535;0.53627384;0.46688467;0.6648111;-0.012549016;-0.91701007;0.010508007;-0.11894459;1.6402773;-0.17277308;0.4282314;-0.4746198;-0.031613007;0.17964959;0.3202669;0.02289067;0.5008883;0.21035062;0.34395832;0.38598284;-0.23908706;0.12093035;-0.055085246;0.14493562;-0.26461428;-0.9415692;0.016035099;2.291967;-0.118912295;0.50091726;-0.008617935;-1.6707625;1.120724;-0.009199873;-1.0993559;-0.024707915;1.4754366;0.055273063;-0.06612754;-0.08575011;-0.4332931;-0.0010284665;-1.6838057;-0.45316413;-0.0777722;-0.4124964;0.1595125;0.002306095;0.2984689;-0.015045582;0.104455404;0.52652967;-1.1613039;-0.28447112;-0.0459482;-0.048986565;-0.0035892182;0.015915288;0.18416297;0.03508596;-0.056971822;-0.23923093;-0.3182434;0.36699373;-0.10683742;0.21496858;0.5405321;-0.48602352;-0.15377305;0.44688874;0.38697433;0.84534156;0.93537855;0.21684715;-0.06660786;0.031172765;0.3103641;0.03627851;-0.074525066;-0.0835089;1.532657;-2.1364346;-0.26333484;-0.018226573;0.5023561;0.36489856;1.4444212;-0.5344782;-0.5486176;-0.13636087;0.27501884;-0.101621516;0.12705517;0.0014889123;-0.26155332;0.7267467;-0.27406555;-0.10076471;0.46146145;-0.06267333;0.19996938;0.14667067;0.2112245;-0.0021922335;-0.4325598;0.06063613;-0.104600996;-0.13364829;-0.1611638;-0.39776978;-0.050720602;0.1564855;-0.083282754;0.070038274;-0.6548524;0.30190387;0.0005413066;0.17794251;-0.02557136;0.0028379639;-0.70760053;1.322176;0.33286837;-0.21380416;-0.023922343;-0.05072762;0.07228697;-0.05830298;1.1452508;0.9960846;-0.47639012;2.4374366;-0.05015389;-0.27866754;0.22282366;0.32419392;0.288633;-0.024379253;0.05268609;0.44840068;0.62080157;0.2579111;0.09126612;-0.11977155;-0.2239934;0.08004821;0.06550951;0.1641218;0.037978;-0.043301016;-0.062227584;0.905785;-0.6084688;-0.023579365;0.12780471;0.6877865;-0.1282417;0.33263093;0.541462;-0.25592107;0.17904578;-0.28107527;0.0854919;0.020496449;-0.10918625;0.42927092;0.13743204;0.005788225;-1.3972921;0.14232394;-0.26742762;-1.1615562;-0.06947878;-0.13932958;0.21870586;-0.07915239;-2.922291;-0.23819564;0.64377314;-0.2651113;0.07078355;-0.053937446;0.12034281;0.034962397;0.065415725;-0.17306662;-0.008196929;0.22052029;0.12780091;0.21082073;0.1398786;-0.3159513;-0.07901072;0.024684982;-0.16389297;0.20743719;-0.013722809;-0.22409506;-0.56892484;0.34717774;0.20126878;0.009044486;-0.26215482;-0.084446184;-0.095039755;-0.6793579;0.07424446;0.17189005;0.028278932;-1.6264205;-0.107312195;0.19447473;-0.6372887;0.0917015;-0.03843454;0.17328125;0.20497337;0.36377;-0.22380406;-0.013351203;0.07522403;-0.7617431;0.27150553;-0.30832514;-0.17873006;0.6688905;-0.20285998;-0.13448852;-2.3176537;0.8196584;-0.9860548;0.41853407;-1.8880568;-0.3573243;0.40383962;0.26289684;-0.24034287;-0.061102584;-0.0191263;-0.07661896;0.54937387;0.29729697;-0.09441716;0.1688105;0.057310812;-0.13620038;-0.32500654;-0.03510514;-0.77392775;0.046645638;-1.5408183;0.2708758;-0.20283154;0.24540676;-0.023133857;-2.3405194;-0.0016789857;0.016763315;-0.04770624;0.11031795;-0.07217748;0.9434738;-0.07802172;-0.44220287;0.13026164;-0.36796364;-0.010462325;0.1710654;-0.68478155;-1.6124257;-0.33838534;0.1031701;0.12893933;0.09968272;-0.05736163;-0.029177506;-0.049394693;-1.1785591;0.18634102;0.11222467;0.20735453;-0.053922806;-0.08625665;-0.023705656;0.1441065;0.00841552;-0.14705385;-0.005135978;0.1837731;0.109515555;-0.1752249;0.254507;-0.041202087;-0.77219105;-0.15754636;0.16031043;0.2562041;0.14467342;-0.23010561;0.12082061;0.49139795;-0.1676417;0.6376635;-1.0554211;0.08869563;-0.41851187;-0.069517374;-0.038088724;-0.31034583;0.09119247;0.1787053;-1.3091441;0.9413764
Bias from input to hidden layer.
-0.21495469;0.1865668;0.23964027;0.22643982;0.11776077;0.2444752;0.14497894;0.36462232;0.121169254;0.15757999;0.28032526;0.27688354;0.19733934;0.15267341;0.08342544;0.16051301;0.16481356;-0.15537535;0.26230994;0.1992304;0.21408254;-0.10972614;0.30057442;0.26325932;-0.06174806;-0.21680832;0.3214303;0.22492546;-0.017677765;-0.1953549;0.27039146;0.25721693;0.118076675;0.12514001;-0.21837427;-0.20691232;0.15363419;0.29082903;0.1729768;0.11582498;0.24872063;0.17252786;0.15031911;-0.18228681;0.1290853;0.2924425;0.12198398;0.1604507;0.25625396;0.19462511;0.08586199;0.19032821;0.067578316;0.23484369;0.16032867;0.20399126;-0.1065419;0.07944271;0.12719664;0.07474978;0.12015025;0.15026578;0.092642434;0.097074054;-0.11715403;0.18865822;0.13953663;0.36193672;0.18618648;0.08292833;0.27054355;0.113860615;-0.2562792;0.2372673;0.20692949;-0.16919373;0.055183038;0.28027257;0.0021801004;0.19393642;-0.017644284;0.2614152;0.21404319;0.17455916;-0.25723505;0.027467515;0.11235631;0.12668675;0.23872918;0.16346112;0.075331114;0.15042049;0.26309007;-0.07105245;0.13715994;0.15411615;0.14382169;0.310135;0.26443216;0.2887187;0.061301753;0.2797405;0.17654307;0.27511528;0.12686275;0.27295762;0.02667756;0.22641551;0.11594742;0.3262471;0.29736105;0.095828414;0.13675494;0.21633145;0.26308954;0.27326712;0.11237839;-0.063296005;0.13609001;0.24576637;0.2403898;0.22050989;0.20257704;0.094178334;0.23136532;0.10109054;0.21195121;0.1401029;0.24777457;0.21617348;0.25222024;0.22302231;0.15962058;0.11807264;0.19320929;0.116868496;0.11233557;0.28227708;0.14375061;-0.14135489;0.11557063;-0.012977799;0.14243774;0.08291492;0.26866332;0.26946256;0.20960121;0.19227651;-0.14310253;0.2695884;0.12488125;0.11625647;0.26831836;0.08154167;0.1408841;0.21905039;0.13743025;0.0697728;0.2592649;-0.23563719;0.26764065;0.14125481;0.18310723;-0.17373762;0.2409099;0.30965292;0.24564014;-0.12953131;0.32998556;0.1397019;0.1567089;0.058140397;0.17825879;0.108147316;0.13142452;0.23802401;-0.12187322;0.25649083;-0.007241451;0.26647776;-0.2073171;0.08411862;0.18876901;0.22382793;0.113108635;0.16548586;0.21209262;0.25749508;0.12568688;0.22747467;-0.15578973;0.120591216;0.25087276;0.11929118;0.1284971;0.1850285;0.233423;0.31617624;0.23416571;0.17331254;0.07012805;0.25238815;0.08904709;0.106818095;0.16846952;0.29186398;0.040059283;-0.120492995;0.101898305;0.106612764;0.028456656;0.28399876;0.007911414;0.1096743;0.106822364;0.19832408;0.23499507;-0.21405849;0.23012212;0.30906868;0.13987292;0.32506672;0.29472548;0.08971604;0.2465209;0.19879451;0.20727421;0.21441834;0.25388798;0.17452434;0.16760503;-0.21614432;0.15712069;0.08744465;0.10900827;0.10948728;0.26422578;0.16984914;0.13207062;0.17984466;0.035443667;0.31246075;0.30659026;-0.23692939;0.29618964;0.26047304;0.13589916;0.27576658;0.17637347;0.07879625;0.15858962;0.114400975;0.21023203;0.087238654;0.11800745;0.11874293;0.24399948;0.14882147;0.05115622;0.14176513;0.14164028;0.16547558;0.12747826;0.27389446;0.19720705;0.23655233;0.19852464;0.14732073;0.1332721;-0.07950039;0.1594774;0.15033485;0.100678556;0.29606086;-0.036859237;0.121666595;0.23916633;0.26632023;0.3221826;0.1445072;0.2760938;0.3418664;0.23578149;0.15323892;0.2749076;0.107570246;0.27912146;0.10717422;0.12554246;0.21485558;0.23452105;0.093501255;0.25214767;0.12379708;-0.23587139;0.18517107;0.25345537;-0.118756056;0.17486973;0.1404799;0.27092418;0.19634272;0.08123672;0.09111002;0.17219618;0.1069527;0.12659706;0.0868024;0.022309076;0.24859482;0.12635683;0.27321792;0.058029268;0.25360596;-0.2137617;-0.058064718;0.053007632;0.17855723;0.15622762;0.27920365;0.10885893;0.06638772;0.22687262;0.20870863;-0.06618409;-0.092823595;0.30513334;0.09764133;0.2175826;0.22792453;0.14766438;-0.08248492;0.25288987;0.23092547;0.19138193;-0.20902191;0.15325437;0.18053107;0.32358912;0.24436378;0.09495169;0.1716826;0.10261181;0.17923754;0.14129664;0.13820156;0.12139103;0.26281658;0.2834506;0.06345515;-0.09542155;-0.07800012;-0.034129255;0.24184914;0.08819459;0.19310308;0.0044161296;-0.2450885;-0.1901773;0.112937294;0.12950832;0.28195545;-0.035721745;0.14225048;0.24644455;0.25296074;0.12795606;-0.15765159;0.2548841;0.0692115;0.13825893;0.19596851;0.14681338;0.118497714;0.10100073;0.2010808;0.26253545;-0.20626603;0.2669433;0.08596769;0.28284034;0.11107399;0.12386003;-0.16890557;0.22070317;0.24907063;0.040492907;0.06736486;0.15379728;0.24389067;0.1322166;0.15917946;-0.20944515;-0.0077674063;0.102727406;0.09256281;-0.08830639;0.33397636;0.22699994;0.23833954;0.07722757;0.28063774;0.21777287;0.20295946;0.27151614;0.12674044;0.1329109;0.08888463;0.24003386;0.13470787;0.3429025;0.258816;0.115893796;0.0745156;0.09036177;-0.039695516;0.1340978;0.29219332;0.20090854;0.14735174;0.23671366;-0.09689424;0.113012046;0.26058155;0.09408557;0.26612833;0.26220113;0.058762323;0.115620136;0.2777907;0.13825881;-0.17796198;0.32361883;-0.14828281;-0.080286406;0.06955515;0.1584649;0.17452183;0.16251537;-0.24689478;0.113612466;0.1123128;0.18741618;0.1365055;-0.098405086;0.23460804;0.16529684;0.25555024;0.10433609;-0.06694952;0.29086843;0.2629639;-0.08729435;0.25480184;-0.10020183;0.13175775;0.14141698;0.178792;0.2779599;0.32669374;0.008545181;0.035292465;0.23960726;0.24673013;0.3226393;0.104765475;0.12263428;-0.23931372;-0.049720958;0.21631794;0.39263585;0.22792627;-0.17161807;0.07920298;0.19813767;-0.20337367;0.3351086;0.16039066;0.2661392;0.22373267;0.26651138;0.08788107;0.27326408;0.22770147;0.019296933;0.25556484;0.111740984;0.100977294;0.19053593;0.110208474;0.119028166;0.16939773;0.17427303;0.082973525;0.27635923;-0.24190986;0.12016328;0.28564733;0.1553835;0.15258837;0.23977782;0.14091474;0.07826846;0.20560957;0.19580518;0.14861362;0.2776155;0.28824478;0.151573;-0.12236987;0.18753104;0.14340301;0.12713799;-0.2588174;0.24321397;-0.03484972;0.25057065;0.033272367;-0.15317954;0.12942271;0.1240968;0.19601244;0.35017577;0.13067795;0.2469329;0.0873952;0.03714603;0.26453394;-0.16955274;0.26514354;0.29971835;0.053330746;-0.22824684;-0.20514603;0.32373425;0.19415963;0.20121188;0.17701939;0.15523295;0.19107594;-0.017138187;0.24761651;0.28722963;-0.14222613;0.2993616;0.05671631;0.29369026;0.2767408;0.16424453;0.12428222;0.13861844;0.27368224;-0.1904302;0.06982655;0.24132398;0.13833983;-0.12095886;0.086418;0.22452697;0.33216605;0.22782804;-0.18744928;0.2355407;0.18938428;0.06426621;0.15736745;0.109162994;0.18703777;-0.13879217;0.16554703;0.13984624;-0.115236506;0.2161782;0.30092266;0.13249248;0.24140587
Weights from hidden to output layer.
0.030134449
-0.09036683
-0.47900265
-0.0003238253
-0.00014504843
0.00017588351
-0.4903553
-0.000524583
-0.00026631413
0.00056843495
2.1594125e-05
-0.00056833396
-0.0002719243
-0.00052306807
-0.00029207917
-0.0005141837
-0.0015879516
0.6403377
-0.00045053702
-0.15745603
-0.5134331
0.0004643851
-6.8680136e-05
-0.000352739
0.0830798
0.23306422
-0.0002514718
-0.6279603
0.0004059174
0.42654654
-0.00013131324
-0.18576197
-0.00019656509
-0.24590768
0.22070193
0.10851319
-3.2227243e-05
-0.00032076082
-0.0006138849
-0.0006972352
-0.0005992664
-0.0005799961
-0.20714462
0.49265185
6.831788e-05
-0.00030587404
-0.000491798
-0.0007633169
-0.00043044722
-0.00066022266
-1.4142199e-05
-0.22883338
-0.0005527866
-0.48210678
-0.0004378549
6.660266e-07
0.148679
-0.0004762118
-0.00065069227
-0.10035338
-0.23483598
-0.00038776206
-0.36302343
-0.00026683125
0.058991376
4.358492e-05
-0.0005459362
-0.00029870414
-0.00022179954
-0.0003086425
4.597778e-05
-0.00022824785
0.3417847
-0.00044833528
-0.20554797
0.7072741
-0.0003253324
-0.000249336
0.09508438
-0.24231438
-0.0003455978
-0.00012758757
-0.48595694
-0.0006773818
0.12852956
-6.54398e-05
-0.0005221815
-0.00044144626
-0.00028887927
-0.00052922126
-2.6171881e-05
-0.00035497514
-0.00010902795
0.0466678
-0.00023042387
-0.00031840158
-0.7017571
-0.0002817199
-0.0004604452
-8.0985425e-05
-0.33173153
-0.00035166537
1.6698148e-05
-0.00038312306
-0.00019833853
-0.0006112313
8.2303595e-05
5.7588913e-05
-0.17376754
-0.00034442282
-0.0007159129
-0.00022583149
-0.00023139385
-0.07568812
-0.00016268085
-0.00030212034
-0.00014283496
0.00036027472
-0.00030945023
