Weights from input to hidden layer.
0.051153246;-0.12937833;-0.07474154;-0.103591114;-0.07957632;0.11730161;-0.19193581;0.042577967;-0.082836166;0.025489135;-0.116014324;-0.072007224;-0.049883276;-0.004209939;-0.0050870134;0.04594001;0.061151616;-0.0035271095;-0.11938822;0.014215571;-0.087832846;-0.028088896;0.026780602;-0.1207652;-0.049759377;0.073460326;-0.038428374;-0.07827149;-0.09671554;-0.0023925481;-0.001897173;0.07248771;-0.09870477;0.02483792;-0.1062806;-0.08891744;-0.14763762;0.027292712;-0.098679855;-0.05060888;0.008803809;-0.001792615;0.14975041;-0.11445715;0.08604584;-0.03226235;0.07598695;-0.09688511;-0.13088724;0.029012108;0.024899784;-0.16111274;-0.11097959;0.039050534;-0.05672203;-0.07453833;-0.057954498;-0.23535463;0.012747594;0.041461878;-0.057896797;0.08093951;0.15738057;0.122537166;0.05812802;-0.106507234;-0.0852069;-0.10943472;-0.15780537;-0.10976207;0.04800182;-0.018909693;-0.10365525;0.034167275;-0.0636332;0.08961784;-0.07948505;0.0058839563;-0.045124277;-0.013359233;0.040329367;-0.17785335;0.0029132396;-0.052983;-0.122914486;-0.106142126;0.117216244;-0.07502705;0.06582513;-0.09448618;-0.051851485;-0.050763793;-0.03227791;-0.14637317;0.091591805;0.009969304;-0.15375403;0.005056858;0.06865112;-0.081738465;-0.04009639;-0.08792804;-0.025978852;0.0010733242;-0.16456687;-0.051554326;-0.11409873;-0.09909033;-0.033822436;-0.0037311122;-0.15323904;-0.017224861;-0.16842858;-0.015425987;-0.053989884;-0.045061618;-0.009900646;-0.06263634;-0.036114924;-0.040714793;-0.020054521;-0.069674306;-0.04672725;0.028651852;0.11372215;-0.12376099;-0.13278927;-0.17881894;-0.10618762;0.030478062;0.0990073;-0.017853292;-0.05061124;-0.13879128;-0.14014159;-0.052053858;-0.013560805;-0.019335225;-0.065611795;-0.0051142965;-0.056176398;-0.042654946;0.07434657;0.05866605;-0.049279585;0.000544723;-0.19081907;-0.08563776;0.086141974;-0.08045433;0.12357196;-0.03184999;-0.10790588;-0.09219003;-0.22456183;0.025923992;-0.03158805;0.020536706;-0.12978968;0.01532361;0.030483183;0.06103697;-0.11942793;-0.096285954;-0.07125319;0.08997518;-0.019127019;-0.042178255;-0.15376057;-0.039106615;-0.033877414;-0.004044049;-0.06660478;-0.0146955205;-0.107677095;-0.06931782;-0.093394995;0.04773941;-0.10845526;-0.00021834031;-0.016910583;-0.14215079;0.07742236;-0.12293725;-0.059815556;-0.044335343;0.010845791;0.10884099;0.036471114;0.09308148;0.03633494;-0.085702315;0.02288777;-0.004805466;-0.01780284;0.046380278;-0.03347322;-0.20139734;-0.063804604;0.02437075;0.0968125;-0.1080613;-0.124882124;0.07509376;0.18773402;-0.08572315;0.036918636;0.027223308;-0.04979286;0.0062688757;-0.0011107565;-0.058125358;0.005488549;-0.043968815;0.08765528;0.037575852;-0.1939146;0.020890389;0.032868322;-0.10125678;-0.021209113;-0.059468836;-0.1057235;0.0032042665;0.13840294;-0.13223942;-0.029819392;-0.104153186;-0.019354139;-0.16122308;-0.01651345;-0.037752993;-0.14586776;0.014591946;0.0738222;-0.09989317;0.017566865;-0.078877285;0.1338621;-0.13986848;-0.07514528;-0.077932976;0.05219022;-0.0118101835;0.0007717658;-0.05277059;0.110124886;-0.12815149;-0.11923375;0.07788839;-0.025619403;-0.06418239;-0.07416584;0.009411204;0.013837798;0.044846885;-0.13075882;-0.120488815;-0.0676968;-0.015777884;-0.031045943;0.0098444475;-0.07779332;0.042428643;-0.08655794;0.012528436;0.09173475;-0.0055038426;0.03942635;-0.010645117;-0.12954333;-0.11170522;0.019341452;-0.040025473;-0.11118625;-0.10329205;0.009467246;-0.11004066;-0.06374237;-0.086448625;-0.13849466;-0.0022122764;-0.08609986;-0.08592999;-0.16757722;-0.0601179;-0.10243351;-0.04496588;-0.04565142;0.07392802;0.018805778;-0.11102873;-0.01490097;-0.079929195;-0.08799537;0.024988435;0.000943479;0.07343885;-0.050292604;0.012876978;0.050069366;0.07124535;0.027956847;-0.10683997;-0.1647764;-0.01519368;0.031401392;0.05022038;-0.030062499;-0.15050495;-0.07538196;-0.027714942;-0.04520229;-0.047383633;-0.062048893;-0.07871606;-0.12936886;-0.10871883;-0.067769736;-0.2722074;-0.10285087;-0.1214586;0.0769204;0.063797586;-0.06084498;0.00494004;-0.16115747;-0.07067205;-0.055151384;-0.025882931;-0.06577949;-0.012984768;-0.1808746;-0.006262221;-0.0018470626;-0.02047128;0.02509543;0.022484224;0.04312578;-0.14058924;-0.09629587;-0.08836429;-0.08732074;0.04725785;0.036105376;-0.07234087;-0.049015928;-0.108356826;-0.12523223;-0.03812628;0.08462195;0.08221578;-0.099529706;-0.0930361;0.05539273;-0.14854236;-0.044222116;-0.11607452;-0.08410347;-0.037167855;-0.11448088;-0.035721865;0.010541628;0.0024837304;0.005345618;-0.10463727;-0.019294105;-0.030694814;-0.20333654;-0.02278255;-0.05172506;-0.022375293;0.038365286;0.095330104;-0.06356577;-0.13697384;0.027814476;0.0078031537;-0.1048807;0.034215078;-0.13978739;-0.081212394;-0.08678267;-0.16328868;-0.12770288;-0.030755015;-0.09627701;0.019997308;0.052137688;-0.0041991556;0.063434675;0.061511748;0.05913808;-0.1225351;-0.024741456;-0.2756226;-0.008745123;-0.1128878;0.058742624;-0.1201471;-0.12746936;0.02872042;-0.10260974;-0.009117973;-0.08767735;0.032643452;0.12216086;-0.038249277;-0.06940423;-0.12417813;-0.09939298;0.01245323;0.032517787;-0.07004634;0.025249317;-0.047294132;-0.054593537;-0.024148867;-0.0912347;0.04375474;0.03418199;0.16196331;-0.023439506;-0.12773882;0.06894124;-0.052954823;-0.05149273;-0.052478593;0.002133068;-0.09974482;-0.019979833;-0.049458392;-0.07778563;-0.1802879;-0.02897657;0.0136165945;-0.019732954;0.031211259;-0.06663628;-0.15570132;-0.10070702;0.043402456;0.06576121;-0.06802801;-0.028617073;-0.039211567;0.047191;-0.24882591;0.05866391;-0.08670724;0.018498087;0.047029953;0.009208896;-0.06317889;-0.1480847;-0.07224986;0.021839231;-0.05490625;-0.08499671;0.16695257;-0.06564294;-0.047806162;0.016200986;-0.010557846;0.035936743;0.1546463;-0.08545698;-0.062732525;-0.066153236;-0.081307866;-0.10875003;-0.036400493;0.01333636;0.18766099;0.068894796;-0.050059047;-0.1354507;-0.21852282;-0.030298265;-0.067838065;-0.06726205;0.0012486209;-0.15612367;0.059554607;-0.14191559;-0.23140527;0.016893068;-0.0017548435;-0.05614073;0.008910781;0.059614174;-0.042683102;0.027063066;-0.0878694;0.056574028;-0.0012038539;0.09730702;-2.5403118e-05;0.011711389;-0.057098217;-0.026747;-0.11355957;-0.04575084;0.012507363;-0.059724618;-0.071091756;0.010017057;-0.07718285;-0.20038004;-0.0210061;-0.024935266;-0.2675128;0.032867763;-0.0031600988;-0.11367233;-0.06804602;-0.08387218;0.0060769827;-0.17184089;-0.067560375;0.01968227;-0.12403273;-0.06664421;0.095758505;-0.012593646;-0.097050786;0.007740839;-0.037327044;-0.018877033;0.00042240834;0.003365959;-0.0075941947;0.009891187;-0.15544842;-0.070562795;0.08628087;0.025700264;0.028638558;0.0047118682;0.04089451;-0.11871372;-0.03266346;0.106200784;-0.115351625;0.06803325;-0.084471524;-0.09329293;0.071993366;0.047294054;-0.055581655;-0.17221384;-0.12642072;0.051308084;0.15972605;-0.069749005;-0.106301315;-0.092759274;0.028616264;-0.12184942;0.037160493;-0.12402407;-0.094935134;0.19759414;-0.097318284;-0.08642685;-0.044765156;-0.071395695;-0.07919891;0.114891626;0.020126171;-0.016346792;-0.08978181;0.26817697;-0.055490367;0.008023796;-0.031489227
0.08176792;-0.0030552854;-0.042572286;-0.09704949;-0.034587335;0.06851568;-0.22769773;0.03620049;0.0316126;-0.031046722;-0.010750012;-0.009988585;0.0068416656;-0.05194366;-0.03849235;0.026527677;0.13871886;-0.13314712;-0.053442728;-0.054600455;-0.07830844;-0.0062888837;-0.07926483;-0.066223614;-0.00781404;0.033527292;-0.14367434;-0.045144785;-0.016541287;-0.039077308;0.023987494;0.025135683;-0.038918722;0.041146994;-0.02596919;-0.12467849;-0.02824878;0.15746416;-0.039916493;-0.041257396;-0.03648186;-0.03228028;0.071633875;0.0060945847;0.008130639;-0.06321522;-0.062183537;-0.013764824;-0.035302065;-0.011228298;-0.02495941;-0.040807884;-0.13433349;-0.038780056;-0.016831715;-0.095272645;-0.09929784;-0.1313266;0.0016476294;-0.060972262;-0.015555148;0.014705619;-0.025497751;0.080347076;-0.07845346;-0.15768112;-0.079460286;-0.09841847;-0.10038547;-0.0926376;-0.006584633;0.03421154;-0.07181127;0.02752222;-0.066742264;0.114850424;-0.08131229;0.08567281;-0.06185102;0.051580332;-0.11474019;-0.15770751;-0.0021231384;-0.042875692;-0.15294978;-0.10523022;0.061262764;0.019724205;-0.0572569;-0.23075719;-0.01291689;-0.070428915;-0.04282373;-0.016692266;0.08630155;0.037906915;-0.20125365;-0.054619566;0.01980317;-0.11193374;-0.11524746;-0.090845555;0.052757807;0.110001855;-0.11847926;-0.018972883;-0.06644013;0.0462998;-0.05472828;-0.13520278;-0.056413557;0.03224237;-0.20580257;0.0143341245;-0.0073057306;-0.031085327;0.013918982;-0.1037151;-0.07076241;-0.11043179;-0.010701735;-0.101522304;-0.08479318;0.012440282;0.015291897;-0.07176419;-0.15067072;-0.10234537;-0.19626302;-0.036800206;0.13077804;-0.05271976;0.028819986;-0.08685782;-0.0749014;0.055209283;0.09792395;-0.18847573;-0.06545056;0.023189807;-0.04205814;-0.047549922;0.07246466;0.096381895;-0.11722607;0.030347135;-0.1916222;-0.15899304;-0.009154354;0.012109774;0.05103352;0.007562766;0.028388528;-0.022054896;-0.19175178;0.025850236;-0.094474845;0.09422393;-0.12238983;-0.045959536;-0.051078264;0.005517075;-0.053890727;-0.14596176;0.04299229;0.006395942;-0.05949525;-0.07405313;-0.22998291;0.035651125;-0.06304844;-0.0020531043;0.012215242;-0.045985814;-0.040667493;0.000639127;-0.042146392;0.026649056;-0.084230594;0.015286316;-0.024655953;-0.08649194;0.0831762;-0.16685507;-0.05374131;0.019088082;-0.07266582;0.014553142;-0.011777815;0.026456434;0.01438887;0.007641195;-0.05522283;-0.0348217;-0.05660663;-0.08003692;-0.025211673;-0.17149015;-0.12294095;0.01707417;0.030163283;-0.0643716;-0.03650653;-0.05808663;0.13690461;-0.098686785;-0.09606057;0.0055170776;-0.072991736;0.030831343;0.013411579;0.049545802;-0.004672631;0.046223518;0.03526128;0.004006846;-0.21456954;-0.051714335;-0.055199176;0.050844524;-0.118635;0.025521245;-0.12974532;0.02016203;0.048127107;-0.17207476;-0.06910788;-0.0846671;-0.10541202;-0.018353261;-0.11821546;-0.11747145;-0.123897694;0.030353103;0.06859186;-0.06516879;-0.043105558;0.052005537;0.20170486;-0.04030819;-0.06820426;-0.02798921;0.022788977;-0.03746073;-0.09367154;-0.0767396;0.100144275;-0.14508635;-0.025017265;0.07815452;-0.09562117;-0.06605178;-0.022799091;-0.085170835;-0.113579646;-0.036407575;-0.012565457;-0.06786948;-0.07161151;-0.11161625;0.07412087;-0.051146496;-0.09389288;-0.0003183196;-0.07795971;-0.025874015;-0.05253314;-0.06519965;0.032876648;-0.0996904;-0.09289638;-0.15982506;-0.03176972;0.06662225;-0.11915962;-0.10069225;-0.030668963;-0.14960285;-0.0050384626;-0.020474717;-0.2551707;-0.041872263;-0.116911836;-0.13811994;-0.16534317;-0.025710914;-0.111379206;-0.038847502;-0.02012854;0.08242755;0.0520413;-0.15186325;-0.022015782;0.010021242;-0.06123248;-0.047406845;0.03846225;0.00662536;0.025394643;-0.060708366;-0.0028178277;0.17885305;-0.10683602;-0.095351614;-0.0506529;0.02648874;-0.077389635;0.043234374;-0.11403726;-0.10235389;-0.07982887;-0.036455326;-0.07246266;0.010055626;-0.019986384;0.04312336;-0.15938231;-0.08412536;-0.05849463;-0.26134026;0.023924874;-0.103535235;0.08762137;-0.031362545;-0.06683317;-0.037136;-0.060104553;-0.12952466;-0.028474811;0.13627349;-0.033885606;-0.10324475;-0.19461775;-0.019687634;0.05565068;0.0054382924;0.030074965;-0.057085004;0.0018232171;-0.0060705226;-0.03198149;0.02432377;-0.09193657;0.00418751;-0.022638172;0.05316219;-0.053902805;-0.13815652;-0.16300434;-0.11339252;0.034521725;0.054351754;0.033881895;-0.07873831;0.018689027;-0.06699505;-0.013690738;-0.05981867;-0.10072202;-0.0025640437;-0.18211511;-0.056157395;-0.057807587;-0.07888508;-0.034563057;0.01991208;-0.06369385;0.024140762;-0.18372492;0.01562254;-0.055000868;0.05850809;0.025061807;0.13175097;-0.016918754;-0.012981578;0.07952299;0.06816354;-0.009505287;0.027948167;-0.14739732;-0.012405595;-0.00019456084;-0.16703539;-0.12026373;0.0042656763;-0.09244173;-0.064688675;0.11477069;0.062000286;-0.08400339;0.07273672;0.0068831574;0.015212926;-0.09908125;-0.2219184;-0.047210883;-0.06597215;-0.024084799;-0.10453068;-0.01885773;-0.033865716;-0.0022600654;-0.073262386;-0.099371955;-0.098660655;0.1113277;0.04243564;-0.009952239;-0.053081784;-0.17156395;0.047765262;-0.058889646;0.026103484;-0.060892556;0.024879692;-0.08902724;-0.06890296;0.021710845;-0.0519844;-0.031430718;0.106029645;0.0038882392;-0.05502477;0.036966626;-0.0066910675;-0.0046781898;-0.1446585;0.05837124;0.035555884;-0.041194636;-0.06456855;-0.081029184;-0.15821643;-0.058081828;-0.088239044;-0.057900712;-0.0005332456;-0.033410035;-0.1576403;-0.04016762;-0.06834528;-0.008939564;-0.18466577;-0.12345644;-0.08574445;-0.0499843;-0.15550646;-0.0269732;0.01987205;0.008420905;-0.09169495;-0.077335075;0.042766646;-0.21288928;-0.06229249;-0.08121797;-0.16192305;0.005731891;0.17278579;-0.09316901;-0.14887758;-0.10587998;-0.060979802;-0.10485349;0.15268953;-0.09324478;-0.0064726793;-0.14758937;-0.081171475;-0.0029496935;-0.11244137;0.062833525;0.08676369;0.06494356;-0.10256252;0.012860776;-0.19518124;-0.10264234;0.0035366516;-0.15228838;-0.10311417;-0.1320143;0.010547601;-0.06501706;-0.25514263;-0.027427455;-0.10696286;-0.10642804;-0.022956496;-0.033057142;0.009765432;-0.101731956;-0.064757526;0.034849256;0.0059303734;0.019262817;-0.019251063;-0.043264743;-0.083446175;-0.018015968;-0.050781433;0.03594769;-0.10710135;-0.042023923;-0.087199196;0.08915028;-0.07152965;-0.17568898;-0.071421385;-0.07497941;-0.17909002;-0.014838881;-0.09559087;0.03148934;-0.018618705;-0.07635713;-0.070989646;-0.09964661;0.005089851;0.017012414;0.008176927;-0.0395244;-0.00059636147;0.08767917;-0.1279862;-0.03409485;-0.11192127;-0.039608575;0.027393352;0.12694035;0.04132674;0.019635178;-0.23033015;-0.068538114;0.103161044;-0.052796222;0.08384101;0.035381287;0.05641965;-0.10311414;-0.09192426;0.02175255;-0.20338503;-0.010319669;-0.026508976;0.0021283312;0.040802326;-0.06044252;-0.12773252;-0.09474114;-0.04572529;0.041191604;0.203805;0.04266776;-0.0057300264;-0.05848909;-0.015116227;-0.14974813;0.026770994;-0.14077629;0.013374604;0.1964811;-0.022278728;0.044988383;-0.09217456;-0.011281952;-0.101769365;-0.014625096;-0.07762985;0.034501858;-0.13178669;0.11837668;-0.043591194;-0.118729234;-0.106873095
0.005132897;0.0016871722;-0.08545948;-0.11114855;-0.04313787;0.0014404318;-0.17660627;0.019616418;-0.10676103;-0.031390946;-0.06863093;-0.048705496;-0.012787003;0.049054272;-0.08779752;0.05103524;0.15184183;0.027379366;-0.12228016;-0.05362853;0.010601921;-0.13433404;-0.11483952;-0.028518282;0.047731522;-0.04438649;-0.034631927;-0.11055651;-0.06453336;0.028310878;-0.0057558855;0.09328354;0.0004381978;-0.07249512;-0.09123422;-0.039047774;-0.039181113;0.09811079;-0.09339383;-0.09761171;-0.10807623;0.0055747507;0.15023577;-0.07821586;-0.012412307;0.0014983814;0.094812945;-0.08302761;-0.0012766597;-0.070071064;-0.009546015;-0.13928713;-0.07935319;-0.030135708;0.016005557;-0.11841067;-0.030457044;-0.19744986;0.036808036;-0.091128185;-0.05458848;0.02801169;0.12093467;0.2153228;-0.06494077;-0.13074413;-0.103334785;-0.07122446;-0.09408595;-0.14652675;-0.085016236;-0.09018159;0.023387378;0.00143803;0.03705521;0.030375954;-0.02137325;0.13835774;-0.093907334;-0.031243816;-0.10085153;-0.12139068;-0.013779705;0.057387486;-0.052567706;-0.11181516;-0.003519116;-0.041425414;-0.014822448;-0.12246755;-0.024660569;0.0020592203;-0.083773255;-0.07193187;0.21633376;-0.023448173;-0.13772607;0.025671706;0.03840464;-0.07715554;0.0011681357;-0.002594836;0.028838124;0.028584579;0.00045405564;-0.13857123;-0.085660174;-0.08228129;-0.05639956;-0.016672427;-0.02808051;-0.040468737;-0.18649405;-0.07653023;-0.06284441;-0.013594831;-0.10674373;0.03923534;-0.029349383;-0.09778979;-0.122332215;-0.11833038;0.030795878;0.04890809;-0.020899177;-0.08674203;-0.024330195;-0.12831992;-0.23799947;-0.00565612;0.080786824;-0.012428667;0.032797154;-0.050249144;-0.17097345;0.08424954;0.14220722;-0.063775994;-0.14755306;0.06548885;-0.106479965;-0.11011548;0.0075966837;0.07911649;-0.08351948;-0.03246782;-0.115474254;-0.06885807;0.01904527;-0.078024045;0.084004916;-0.106013946;-0.086113706;-0.11615957;-0.20212132;0.023713956;-0.107354335;0.18372315;-0.07240893;-0.05231888;-0.022625031;-0.08342897;-0.1321016;-0.09683683;-0.033434555;-0.016006378;-0.07153147;-0.08147524;-0.23546536;-0.052090075;0.019847851;-0.11766609;-0.068830825;-0.08345471;-0.13101088;-0.032585;-0.01033714;0.026520245;-0.0847837;-0.094696164;-0.058659066;-0.057244055;0.10489723;-0.086638816;0.05921529;0.062476937;-0.032546915;0.01846105;-0.068779945;-0.011519173;-0.017986262;-2.1820751e-05;-0.02315571;-0.039843574;0.006838566;0.032046396;-0.023025107;-0.15116991;-0.06209755;0.071538635;0.07664866;-0.08616807;-0.08410871;0.011548228;0.09979078;-0.03813202;-0.080225445;-0.12890902;-0.014770943;-0.072930366;-0.054204542;-0.01556742;-0.12637782;0.008682495;0.097657785;-0.04165281;-0.10061061;0.025074221;0.000859847;0.027758516;-0.13285686;0.029780319;-0.15942007;0.09829274;0.06555888;-0.16499247;-0.04162399;-0.11491229;-0.08219291;-0.109149314;-0.024430351;-0.004003503;-0.05150938;-0.07559119;0.028570507;-0.016170042;-0.092825815;-0.01519628;0.11840785;-0.16235128;-0.002841739;0.053322803;0.0012718459;-0.017510878;-0.00871908;0.007567221;0.085719556;-0.115663186;0.012303431;0.057381336;-0.014911946;-0.0030069423;-0.06855953;-0.030507337;0.015033576;-0.06609832;-0.08531968;-0.116234034;-0.0043881983;0.004783962;0.09822119;0.05273718;0.0031744768;-0.06472154;-0.040646803;-0.010689529;-0.07975021;0.05148193;0.019279746;0.023616703;-0.05596927;-0.10609729;0.028641794;-0.0074220863;-0.12237238;-0.01918404;-0.07457484;-0.09706149;-0.08549366;-0.0434016;-0.14397243;-0.09144866;-0.08037415;-0.09625949;-0.0867583;-0.045176327;-0.021493616;-0.06147933;-0.10784278;0.06576763;0.052298173;-0.1965945;-0.12082583;-0.12596054;-0.009280737;0.060990624;0.040964916;0.06337533;0.028452061;-0.10082962;0.03432922;0.098321564;0.05037672;-0.032666937;-0.02340629;0.05010101;0.0036639825;-0.010567404;0.047551174;-0.061387382;0.016872438;0.023522737;-0.11104408;-0.107570566;-0.03786144;-0.09180365;-0.0017154096;-0.08996163;-0.11914821;-0.14934462;-0.07905694;0.012279528;0.06441107;-0.06784798;-0.11823529;-0.042289745;-0.08119911;-0.034504857;-0.025016444;0.06960913;-0.0032149907;-0.09246157;-0.17000851;0.059165128;0.032997977;-0.09023048;0.013778909;-0.10289653;-0.0047041615;-0.0126836;-0.046258107;-0.0908993;-0.0966606;-0.031063966;-0.043957762;0.04560165;-0.07116852;-0.22026534;-0.16983205;-0.10241241;0.014182975;0.00092732057;-0.07142697;0.014726545;0.021074686;-0.07381963;0.06701584;-0.083653115;-0.027831739;0.045985222;-0.15447514;-0.09201107;-0.076186694;-0.05443345;-0.020357566;0.0022809259;-0.063855186;-0.057864748;-0.04175096;-0.025487164;-0.014270925;0.044888094;0.095012166;0.0241767;-0.1216462;-0.09667843;0.052742157;0.042077713;0.023569439;-0.024106318;-0.07296841;-0.11435417;-0.09235345;-0.12964961;-0.058320735;0.013802839;-0.06732498;0.06348972;0.06276377;0.089231625;-0.013342671;-0.056372363;0.011933577;-0.11978108;-0.022340339;-0.270957;-0.049090594;0.037333228;0.042751145;-0.06328696;-0.023663567;-0.11769222;-0.060318805;-0.014801591;0.015174373;-0.03914981;0.06298889;-0.049224347;-0.093634896;0.007664462;-0.004605418;0.044116393;-0.080290504;-0.06503455;-0.00040429286;0.0062217773;-0.0070483997;0.08557469;-0.035387702;-0.033464745;-0.008592517;0.15464272;0.014116764;-0.11894131;0.0759421;0.013573271;-0.047788095;-0.121944055;0.11403307;-0.107427634;-0.0028786855;-0.10231347;-0.031128777;-0.10144502;-0.1425165;-0.038513888;-0.030499337;-0.03742222;0.037671562;-0.14071794;-0.130571;-0.043396365;-0.02896344;-0.115275346;-0.11833493;-0.10415585;-0.026197832;-0.21518593;0.06489032;0.009196041;0.05488916;-0.11764605;0.011719397;-0.10979805;-0.16393569;-0.09991918;0.036944333;-0.06262054;-0.04691026;0.19022635;-0.095597945;-0.15272632;0.013227963;0.0021903797;-0.06153855;0.09472764;-0.0802758;-0.119971536;-0.07300564;-0.11578477;-0.091009125;-0.020792242;-0.028413806;0.15977184;0.05794395;-0.048000943;0.0064460356;-0.1571306;-0.011638414;-0.05593473;-0.13593818;-0.01655772;0.01016171;-0.06188555;-0.111269705;-0.17044146;-0.11925087;-0.015410888;-0.16508406;0.02225752;-0.039468188;-0.04732261;-0.040154424;-0.0011058289;-0.00021597047;-0.064333454;0.041370947;-0.051091306;-0.11858034;-0.116449274;-0.027809516;-0.17350815;0.03263418;-0.013019248;0.04107014;0.042570982;-0.042670768;-0.036063053;-0.21907245;0.029900918;-0.10379612;-0.12971713;-0.027172174;0.015071952;-0.047557775;-0.073430106;-0.1398043;-0.027365118;-0.09834725;-0.14533022;-0.015735488;0.012950916;-0.002512889;-0.0064223516;0.028080273;-0.14488444;-0.04006885;0.02843418;-0.12717855;0.041151926;0.12645814;-0.08994715;-0.06237287;-0.13292265;-0.055517457;0.08611109;-0.0012501599;-0.007280765;-0.065115035;-0.09367853;-0.07083976;-0.05724397;-0.041435357;-0.068522334;0.04670301;-0.17509761;-0.058287796;-0.03892717;-0.12710105;-0.04189885;-0.14474647;-0.10278591;0.05132667;0.06635743;-0.06645124;0.02267538;-0.07449506;-0.11091453;-0.14092548;0.02104454;-0.068332165;0.035604298;0.2292403;0.037572883;-0.10879263;-0.034500953;-0.073712036;-0.064458065;0.02202617;-0.048797086;0.020424025;-0.023613438;0.12364121;-0.07490329;0.003485311;-0.053328652
0.021262666;-0.028194686;-0.044093788;-0.02885824;-0.07995254;0.04967601;-0.20584074;0.023505919;-0.06664515;-0.027085375;0.0061528613;-0.034584835;0.041903682;-0.037484296;-0.0070304545;0.059389666;0.13613705;-0.12528694;-0.07138331;-0.001507349;-0.11213073;-0.047560908;-0.05748287;-0.0075840484;-0.09059295;0.09137745;-0.07901271;-0.120118216;0.014558364;0.08851689;-0.04181786;0.095397115;-0.14025763;-0.06589492;-0.06980779;-0.06348598;-0.038617935;0.023974406;-0.07821845;-0.11528389;-0.08300206;-0.10460851;0.10928821;0.02881759;-0.12786411;-0.12688132;0.1029841;-0.050595596;-0.10781656;-0.009170241;-0.040346652;-0.04692763;-0.009125795;-0.10593535;-0.025728123;0.03766178;-0.013735754;-0.16751085;0.1253366;-0.010869183;-0.07273545;0.014996031;0.014938677;0.096654706;0.005641574;-0.017545497;-0.08450539;-0.109687634;-0.024297746;-0.11468121;-0.012750686;0.04609824;0.033168018;0.027894279;-0.11872899;0.064462915;-0.023506407;-0.030575061;-0.024697576;0.047887377;-0.10739598;-0.036647175;-0.03898131;0.023591815;0.0044641397;-0.07071711;-0.03782209;-0.014526911;-0.09257651;-0.18742959;0.020648777;-0.042992257;-0.07488144;-0.13732778;0.19553937;-0.11177522;-0.19818307;-0.016523737;0.046570983;-0.029438818;-0.08056112;-0.018620886;-0.0030508796;0.071627244;-0.014275149;-0.045785278;0.0104683405;-0.017402768;-0.06371406;-0.07603166;-0.10102048;-0.057280965;-0.23013401;-0.0020538603;-0.051340617;0.027881611;-0.11833921;-0.12376952;-0.011312842;-0.06696594;-0.032959286;-0.0139188925;-0.063008785;-0.09563224;0.07423591;-0.028234849;0.016411005;-0.15802576;-0.1514283;-0.0153888;0.20583683;-0.13509355;-0.091546506;-0.04172148;-0.053151943;0.05130425;0.026646545;-0.17792338;-0.037840232;0.087093495;-0.059280824;-0.11264424;0.07540946;0.20901802;-0.07912891;-0.05174894;-0.18571143;-0.19501485;0.09413425;0.0055939048;0.12372955;0.04390715;-0.041350406;-0.13663661;-0.14214422;-0.11604797;-0.03274361;0.07369506;0.026416551;-0.04624937;0.024819324;-0.067050025;-0.15881589;-0.15006469;0.008608147;0.012960098;-0.057657953;0.040985912;-0.103012465;-0.00132981;0.020973781;-0.06777014;-0.0148261925;-0.021013308;-0.060672663;-0.027517969;-0.012827827;0.075128466;-0.021714231;-0.053349465;-0.06166293;-0.025475178;0.07153612;-0.14719814;-0.008186325;0.06377805;-0.06577493;0.027540425;-0.047412306;-0.03527327;0.043963227;-0.12804508;-0.09086231;0.025899392;-0.0252263;-0.0891489;-0.042180736;-0.18667698;-0.13932492;-0.04720693;0.04284227;-0.06009607;-0.1319865;0.047867488;0.038374532;-0.029656425;-0.01107123;-0.09670297;0.018074328;-0.082512885;0.029650897;-0.07225558;-0.028709527;-0.06294845;0.037043657;-0.021648008;-0.18172555;-0.07647876;-0.11129919;-0.0724401;-0.0499229;-0.0033169282;-0.097833134;0.16477008;-0.0142215965;-0.132029;-0.07969324;-0.1700535;-0.033693243;-0.10729958;-0.124419846;-0.017018063;-0.14565447;-0.09673088;0.08371657;-0.0472224;-0.068692915;-0.012006982;0.1530076;-0.16873734;-0.020968566;-0.07749976;0.010848091;-0.1084154;-0.020112647;0.009910749;0.13815944;-0.039060738;-9.528712e-05;0.07627109;-0.04883309;-0.09721063;-0.10337904;-0.12210794;-0.010948231;-0.08566414;-0.12747651;-0.025795221;-0.018470192;-0.07682612;0.0015085075;0.039264027;-0.10795088;0.03157332;-0.043721415;-0.048754707;-0.062360983;-0.03160562;-0.054882467;-0.020384122;-0.023923133;-0.20740949;0.039029155;-0.019702764;-0.09914114;-0.11758534;-0.054768197;-0.14746635;-0.10314088;-0.113403276;-0.25652546;-0.08302859;-0.00063166226;-0.11673223;-0.16109923;-0.048752807;-0.024003232;-0.011235975;-0.10110397;0.051164266;-0.050468456;-0.16481571;-0.1647175;0.0026604836;-0.15504536;-0.05009581;-0.034237336;-0.075929485;0.041857366;0.0007460121;-0.03204795;0.024975121;0.049894862;0.003970752;-0.1275191;0.05682709;-0.077549055;-0.076123156;0.018078344;-0.03546908;-0.042353153;0.03581359;-0.117032774;0.019113462;-0.10208847;-0.042224877;-0.0148467915;-0.011929345;-0.10329917;-0.19528548;0.03750021;0.011388183;0.10042603;-0.013332804;-0.06697805;-0.023280967;-0.052785683;-0.12795869;-0.0503169;0.11763761;-0.098077044;-0.06745628;-0.12187423;-0.054565664;-0.055445917;-0.005795613;-0.048944782;-0.092678025;0.007785506;-0.09653033;-0.11766536;0.0087566925;0.0056054997;0.015455463;-0.066076346;0.05537597;-0.116948694;-0.26406005;-0.096307956;-0.11478702;0.084971875;0.09089147;-0.062037244;0.019877957;-0.04124587;-0.07478149;0.05641244;-0.12339124;-0.0009898136;-0.023736121;-0.08430631;-0.10157215;-0.09951879;0.045724716;-0.05475717;-0.12399599;-0.12881699;0.03615902;-0.049188033;-0.08937987;-0.024935476;0.119279504;0.053442013;-0.050963324;-0.085704565;-0.09511341;-0.0018274587;-0.034591172;0.0070754834;0.053058352;-0.02242979;-0.15101664;0.048537876;-0.20836756;-0.043061726;-0.0010983344;0.0053634923;0.051110644;0.062220033;0.016459567;-0.013532987;-0.08469842;-0.04632492;-0.024269482;0.010111863;-0.11096184;-0.10260322;-0.060663074;-0.056203958;-0.017347092;0.0025325064;0.01555315;-0.06959602;0.013223117;-0.01986864;0.024723545;0.11116782;-0.06790488;-0.07179919;-0.041941263;-0.123738274;-0.004553934;-0.027364861;-0.08541898;-0.042680934;0.030211238;-0.090637855;0.044794217;0.00040011192;-0.06723711;-0.09807476;0.064030275;-0.004982621;-0.12369491;0.11961207;-0.050819833;0.018584704;-0.106442705;0.017738825;0.012619182;-0.10754518;-0.1244176;0.005026058;-0.028748602;-0.09943645;-0.12384424;-0.12988807;-0.11040866;-0.102239445;-0.20298928;-0.06442041;-0.09386485;0.06980779;-0.15064113;-0.030885551;-0.1916045;0.004841094;-0.12741834;0.11130251;0.0054223235;0.05571069;-0.07694768;0.011990995;-0.03407667;-0.17774576;-0.17739314;-0.06748163;-0.055204462;-0.10452341;0.09332174;-0.04219683;-0.092570014;-0.04883118;-0.032055873;-0.063704304;0.12745376;-0.132288;-0.05601852;-0.10186715;0.0035728645;-0.05064587;-0.0014578457;0.08883017;0.163963;0.015187502;0.009100782;-0.02586299;-0.053316265;-0.058094777;-0.032651756;-0.10592095;-0.08146638;-0.08767517;-0.026359275;-0.18533728;-0.20675857;-0.06342277;0.015941696;-0.09266268;-0.10912773;0.06900195;-0.077105425;0.020583825;0.00868301;-0.07642739;-0.017261498;0.12613143;-0.11779169;-0.043310244;-0.097156614;-0.10879487;-0.12833105;0.051433537;-0.04142811;-0.057537217;-0.028529469;-0.005288469;0.013535257;-0.22477879;0.037353996;-0.02878328;-0.122158706;0.029689625;0.038666777;-0.11150464;-0.073641405;-0.121265024;-0.03887784;-0.1615594;-0.06836565;-0.042145986;-0.015078607;-0.0507909;0.08266114;0.02341715;-0.11359665;-0.10342914;-0.07773317;-0.10253928;0.006598006;0.030133855;-0.042838797;-0.06517531;-0.20999038;-0.10957979;0.12222011;0.055955302;0.046237882;0.040483348;-0.03691958;-0.11141787;-0.009476848;0.025825785;-0.13985547;0.08673637;-0.16576475;-0.06448149;-0.05908213;-0.1491425;-0.13333645;-0.04143996;-0.053342797;-0.019334726;0.11941436;-0.07388699;-0.041228645;-0.11947189;-0.13056841;-0.018175034;0.0238734;-0.076416954;-0.04958797;0.19967386;-0.09565739;-0.02105727;-0.031232359;-0.062498912;0.04407374;0.04487548;-0.06051656;0.02129637;-0.014027403;0.12115029;-0.01801786;0.011192028;0.028538413
0.023899559;-0.08592704;-0.12625529;-0.07723881;-0.10726203;-0.0051240847;-0.22661008;0.029173167;-0.090746604;-0.077642985;-0.12280525;0.057070147;0.0054529156;0.0057788827;-0.10516141;0.061091848;0.07525045;-0.1311417;-0.08000598;-0.05768469;-0.116234176;-0.06555263;-0.057366412;-0.124521956;-0.0077185105;0.01149323;0.02241939;-0.024251226;-0.022692295;-0.046636365;0.07631183;0.08817948;-0.02258032;0.022654207;-0.0729028;-0.05015419;-0.1467001;0.12917411;0.006628238;-0.04193851;-0.11924528;0.008732701;0.0924892;-0.011767202;-0.10080714;-0.12256206;-0.00028356904;-0.04177492;-0.016836764;0.0444287;-0.09706641;-0.06695359;-0.09890863;-0.042245902;-0.04216231;-0.057024427;-0.11020912;-0.14719044;0.052261654;-0.010408236;-0.060636863;0.06827511;0.05836013;0.22582188;-0.069630906;-0.14879547;-0.08487862;-0.0767879;-0.00653398;0.018983746;-0.06792255;-0.043224312;-0.08462115;-0.11045293;-0.0600164;0.14795552;-0.12722906;0.034490313;-0.04006108;-0.021092378;0.0108736465;-0.048457433;-0.047151536;0.038820334;-0.050418116;-0.106334396;-0.020690713;-0.0016677603;-0.065768376;-0.1053351;-0.105504304;-0.09169375;-0.06003654;0.009207952;0.050234057;-0.083762184;-0.18198703;-0.00983989;0.012815425;-0.10631034;-0.055850964;0.022642381;-0.00055130036;0.036974546;-0.10496058;0.023490513;-0.060904484;-0.040527284;-0.051922854;-0.090373255;-0.13480365;-0.06482362;-0.15866347;0.037145905;0.0100007495;-0.061839018;0.017868029;-0.11233611;-0.044597764;-0.10999599;-0.09224891;0.0073626884;-0.011358522;0.012506879;-0.0106224315;-0.09930286;-0.0743274;-0.06487879;-0.22452575;-0.02897254;0.20690726;-0.023244007;-0.10855578;-0.0945469;-0.19097058;0.016809074;0.10958353;-0.09064277;-0.09983925;2.8797615e-05;-0.0121347355;-0.042336788;0.06935369;0.16592306;-0.11963692;-0.033629805;-0.058659997;-0.034650248;0.048047233;-0.10350363;0.1732527;-0.066838436;-0.084856994;-0.0699836;-0.10039322;-0.041782774;-0.11872442;0.05757661;-0.0487766;-0.102165475;0.04703131;-0.12021624;-0.044684596;-0.043360326;0.0092597855;0.056016117;-0.065855905;0.041460622;-0.10824446;-0.10930046;-0.019831233;-0.054519564;-0.09364113;-0.11915528;-0.010188768;-0.0514466;-0.11041142;0.08258743;-0.060777638;-0.06939449;-0.10761558;-0.031168927;0.06468841;-0.12941666;-0.08960596;-0.02877463;-0.031030208;0.041919287;0.009266212;0.016416075;-0.020000745;-0.03884113;0.023353443;-0.073234424;-0.009888755;0.023406923;-0.14984569;-0.040824942;-0.1249544;0.035612095;0.034326795;-0.043244712;-0.042303428;0.019905714;0.11925333;-0.09932987;-0.055181097;-0.13835943;-0.0296821;-0.08523215;-0.067042254;-0.03961346;-0.07488663;0.054733314;0.06842632;-0.06331666;-0.09681332;-0.09895177;-0.048058074;-0.07562105;-0.047969073;0.03538207;-0.119050995;0.16221726;0.08107569;-0.07500148;-0.017381992;-0.14665285;0.0017323946;-0.1007504;-0.111906156;-0.12910046;-0.06488663;-0.11309359;0.05266205;-0.035298206;-0.024854342;0.045665234;0.04697952;-0.053608727;-0.1398315;-0.007916189;0.019046908;-0.0037375875;0.020649731;-0.08853047;0.008945022;-0.09229357;0.050999504;0.12331344;-0.0071857185;-0.083323665;-0.01950861;-0.07229145;0.0021257983;-0.07615597;-0.015663998;-0.1576732;-0.058418524;-0.050688524;0.06801217;-0.017922439;-0.088693894;-0.04991755;-0.09184945;-0.0517265;-0.0048856754;0.061488073;-0.03886538;-0.033834066;-0.14115308;-0.21797308;-0.11281095;-0.0731014;-0.015691645;0.01472994;-0.036493033;-0.14901952;-0.13872361;0.014726807;-0.24104945;-0.043940272;0.029301424;-0.036751326;-0.038364395;0.019889548;0.04001353;0.042938992;-0.069978096;0.18048707;0.01026506;-0.17535375;-0.06387541;-0.047995254;-0.025213026;0.04906693;-0.09439709;-0.009712044;-0.01687043;-0.006985734;0.05362955;0.044410467;-0.042271204;-0.06480454;-0.1502615;-0.011161352;-0.0759208;0.009694468;-0.021500908;-0.10611084;-0.053707626;-0.0066681285;0.006771951;-0.03582666;-0.0034968003;-0.032572124;-0.04936349;-0.025129452;-0.17954654;-0.18694116;-0.024227645;-0.03883036;0.07851611;-0.0005514805;-0.13040018;0.07886615;-0.16021788;-0.09470948;-0.093623556;0.024343112;0.02562663;0.03913364;-0.14185199;0.013335692;-0.0380792;-0.028951049;0.107409015;0.033039723;0.043727465;-0.055412278;-0.0991007;0.03099714;-0.013239806;0.0344401;-0.06570765;0.0528749;-0.03717087;-0.20824997;-0.15126467;-0.12441265;-0.0014952488;0.08091947;-0.013581589;0.036486644;-0.11009285;-0.14254925;-0.009105959;-0.08641349;-0.14801537;0.05070014;-0.09177983;-0.017368605;0.036054257;-0.059825413;0.031007485;0.03989629;-0.05582864;0.027138494;-0.08067009;-0.043546986;-0.12219821;0.042081237;0.07292237;-0.011931782;-0.105298124;-0.0125163365;0.007724472;0.021243388;-0.026464906;-0.08843208;-0.027903153;-0.017799033;-0.08367801;-0.07407195;-0.058130357;0.02418219;-0.0041079405;-0.064725794;0.051830135;0.15049909;0.04594842;0.03767079;0.036927465;0.026396248;-0.03166078;-0.16707599;-0.028379561;-0.044119455;0.02530707;-0.1182379;-0.012393402;-0.13012804;-0.04688583;-0.0919085;-0.033078503;-0.10616094;0.050999526;-0.095522396;-0.11362542;-0.12623756;-0.04736399;0.095916;-0.0035816098;-0.06429417;-0.08192139;-0.015575842;0.046461478;-0.025033759;-0.06553463;-0.035991155;0.033221662;0.1402722;-0.06384786;0.023457028;0.022036124;-0.014292545;-0.0141005805;-0.06740719;0.15091316;-0.036264565;-0.040685207;-0.0640986;0.050090205;-0.030120077;-0.0117865335;-0.0925042;0.00041923643;-0.04295252;-0.028327899;-0.056108292;-0.043226823;-0.11942746;-0.030449536;-0.088090494;-0.064281486;-0.18091579;-0.018028088;-0.2235855;0.109723024;-0.090008825;-0.0039184545;-0.17014024;-0.10670636;-0.07699512;-0.09214236;-0.061489053;-0.123723894;-0.062282946;-0.13796425;0.07619931;0.023427373;-0.004442112;-0.062317044;-0.025950996;-0.08015373;0.18303044;-0.11754635;-0.027274253;-0.0037339367;-0.058245245;-0.018657237;-0.04691994;-0.016929362;0.18073857;-0.06264669;-0.038265195;0.015608078;-0.12672423;-0.046425052;-0.05868783;-0.10287255;0.005429354;0.0016341944;-0.00077888084;-0.17993084;-0.2760793;-0.14346851;0.017898941;-0.23468482;-0.03645794;-0.08929666;-0.04562364;-0.022688257;0.002566483;-0.099275954;0.027553255;0.129679;-0.060552858;-0.018387225;-0.102085724;0.04613133;-0.19770366;-0.019092282;-0.09878275;0.032688957;-0.054400396;0.005951902;-0.048950404;-0.22223368;-0.09595865;-0.105395705;-0.24786901;0.03894934;-0.047759116;-0.10505909;-0.0122493915;-0.004029987;-0.11098158;-0.22111504;-0.045406416;0.023871155;0.0745364;0.056116022;0.0967648;0.0723378;-0.018532729;-0.046746857;-0.08132654;-0.06496188;-0.07566507;0.040775537;-0.119039856;0.00095325813;-0.237446;-0.06591825;0.11704528;-0.016885085;0.039204344;-0.022020118;-0.06868327;-0.06729064;-0.08097244;0.068967424;-0.050777838;0.092196085;-0.0461399;-0.09591829;0.050331555;-0.040745992;-0.095863044;-0.05867376;-0.0063284575;-0.048926264;0.044122927;0.012482646;-0.06458784;-0.13837345;-0.13399388;-0.026926208;-0.048745096;-0.1341684;0.036738783;0.06438963;-0.09265705;0.016071115;-0.07314095;-0.1090007;-0.091167115;0.025238715;-0.035226762;-0.01724642;-0.035009123;0.10812044;-0.019303115;-0.09280244;-0.040000804
-0.032372884;-0.12065839;-0.1289941;-0.08905916;-0.056160536;-0.02665794;-0.08792877;0.002318286;-0.045303565;-0.0564974;-0.12311243;-0.054329194;0.012117881;-0.08519047;0.0086505;0.08270455;0.15616514;-0.06371449;-0.040407687;-0.048021484;0.02166137;-0.10455296;-0.11807379;-0.08596105;0.009347917;-0.07898076;0.015589205;-0.1409781;0.031425957;0.044853486;0.075276785;0.13008012;-0.04389485;-0.022849109;-0.08408014;-0.0012000849;-0.08266612;0.07230077;-0.08821716;-0.10326417;0.03242675;-0.009746373;0.1501947;0.022058167;-0.11749744;0.025663253;0.053153694;-0.023815166;-0.12736331;-0.11383659;0.006929034;-0.08406331;0.013387341;0.014764502;0.031163452;-0.007025783;-0.14717531;-0.108334996;0.12297044;-0.07305192;0.0134242065;0.14186041;-0.032067962;0.13817887;-0.08339111;-0.11980959;0.0059455466;-0.092255354;-0.005857554;-0.05484765;-0.06741919;-0.034331948;0.034523647;-0.057711337;-0.034754224;0.09403169;-0.032334507;0.09914407;-0.058971744;-0.02365695;-0.09753249;-0.088485256;-0.005949196;0.0063744667;-0.10428065;0.018407665;-0.0054048765;-0.10619486;0.012957126;-0.18963604;0.020778952;-0.08573108;-0.07119304;-0.08896475;0.15732394;-0.01597999;-0.18367666;0.018758114;0.043536544;-0.06670083;-0.03326542;0.018877925;0.013312577;0.026461737;-0.05614818;-0.07534299;-0.08782696;-0.049052514;-0.036976397;-0.12875052;-0.00012425779;0.022946041;-0.17565103;-0.068706006;-0.05878049;-0.12312641;-0.11827158;-0.11338973;-0.020487532;-0.071029924;-0.052637044;0.0038088043;-0.010526155;-0.026371928;-0.02715578;0.0075582573;0.0044934214;-0.063482516;-0.24649772;0.01973484;0.14287768;-0.027327709;0.04428434;-0.10973925;-0.08718907;0.0044176164;0.050062556;-0.097155616;-0.02427577;-0.035106678;0.012025412;0.0015710347;0.007734152;0.17159735;-0.066069245;-0.01938616;-0.17742242;-0.1440043;-0.04350598;-0.046844006;0.038841087;-0.014100429;-0.087635;-0.10299096;-0.081881166;-0.13348666;-0.13237716;0.036932856;-0.028968418;0.036125995;-0.013289072;-0.025299417;-0.10960106;-0.062257677;-0.064626664;0.019954517;-0.039976634;0.032678228;-0.11537762;-0.010693301;-0.0056765825;-0.008044308;-0.005100933;0.027193792;-0.102598;-0.07757313;-0.086313754;0.031312227;-0.07880444;-0.07312121;-0.11312735;0.03095627;0.122742705;-0.15287456;-0.09664782;0.015086288;-0.07839249;0.11377188;-0.06459907;-0.052968085;0.0018370473;-0.07414883;0.052182253;0.021921713;0.050337695;-0.059056584;-0.06908765;-0.100346155;-0.056563426;0.049652062;0.07079238;-0.059122242;-0.010347903;0.059806656;0.07514925;-0.019305104;-0.05465196;-0.13264748;-0.029992763;-0.058247034;0.024291629;-0.029910514;-0.03767742;-0.02313672;-0.0043138238;-0.027467607;-0.103635944;-0.058846515;-0.00095444644;-0.03633411;-0.11534872;0.030625235;-0.0766529;0.16958065;0.009548211;-0.07803734;0.03881368;-0.18667872;0.03416037;-0.05577029;0.011778327;-0.14833952;-0.0509119;-0.123281375;0.009640197;-0.115438156;-0.056180723;0.046989158;0.15113752;-0.16439986;-0.11553142;-0.08770361;0.03753934;0.029856551;-0.060599774;0.0140869105;0.06531036;-0.0041611115;0.042516883;0.04495711;0.0062988307;-0.04840623;-0.09710854;-0.16895057;-0.027064366;0.013816973;0.0067443065;-0.096394226;0.02036982;-0.101129696;0.029232094;0.0034421661;0.014289614;0.034304716;0.043946713;0.05437701;0.010103505;-0.08035745;0.06781163;-0.092064664;-0.16213478;-0.10217011;-0.069212824;-0.022927472;-0.12582432;-0.114862695;-0.10863206;-0.024667678;-0.090260595;0.02411313;-0.27050918;0.0010597429;0.023714172;0.000623261;-0.041580234;-0.046177756;-0.08397826;-0.10188683;-0.051275913;0.06427951;-0.087980516;-0.10073907;-0.20133708;-0.03547262;-0.14676243;0.021421364;-0.051346242;-0.097584784;-0.051010188;-0.03493462;0.01869141;0.10207669;0.016445046;-0.05462064;-0.031431526;0.0683803;-0.07745318;-0.06661999;-0.029045522;-0.06801441;0.020514239;-0.0052192314;-0.115216464;-0.068667226;-0.06635613;-0.0933283;-0.10681299;0.027980013;-0.18144229;-0.20594893;0.023454828;0.009181231;0.03867133;-0.05800245;-0.07990053;-0.060742073;-0.07711777;-0.00081352587;-0.083337106;0.11536354;-0.053127907;-0.07622563;-0.016321631;0.0020359093;-0.03739673;0.05603299;-0.052572418;-0.011044103;-0.06066502;-0.13774706;-0.041890997;-0.093054086;-0.011761728;0.0062532816;0.031887814;-0.09099978;-0.038038705;-0.080708094;-0.15729614;-0.16858968;-0.014626759;0.0398067;0.032629687;-0.047872342;-0.070299976;-0.041999668;0.038415935;-0.05918488;-0.00020590461;0.021866063;-0.16774681;-0.06469146;-0.007970006;0.007063266;-0.121393524;-0.086426236;-0.102478236;-0.029050156;-0.12278754;-0.043809567;-0.13889034;0.1579207;0.07455914;0.015889859;-0.096551135;-0.025803655;-0.024956511;-0.076467715;-0.115036264;-0.07891651;-0.07891704;-0.06344499;-0.06246846;-0.13015741;-0.085153125;-0.080042034;-0.024335165;-0.058726385;0.08133288;0.05311627;-0.019457517;0.012118223;-0.025938086;-0.12415044;-0.11412551;-0.22638449;-0.025353821;0.01252954;0.008933056;-0.11497256;-0.10578028;-0.09536658;-0.09496019;-0.068896696;-0.10019392;0.011822658;0.04667701;0.01727473;-0.0030013397;-0.0789907;-0.09273549;0.097332746;0.0147024505;-0.001568558;0.0021330782;-0.062241502;-0.113539636;-0.06795381;0.0120343305;0.024762515;-0.09760841;0.05377873;-0.028238587;-0.045559194;-0.022577798;-0.0021314812;0.09665882;-0.09477418;0.087881625;-0.07138075;0.04015547;-0.0030859055;0.006146213;-0.12960076;-0.072797485;-0.02604144;-0.030040892;-0.11884015;0.009004889;-0.19474255;-0.09247912;-0.046583477;-0.039784268;-0.20846412;-0.037694413;-0.19136049;0.006073411;-0.10400995;-0.020751579;-0.09388331;-0.04811888;-0.042480588;-0.07656168;-0.077379435;-0.14764965;-0.10148179;-0.0060272715;-0.11239018;-0.034959704;0.055154227;-0.0772204;-0.112729914;-0.075285934;-0.07770026;-0.08610522;0.20940685;-0.15635823;-0.0067366087;-0.0718542;-0.06370165;-0.0072696996;-0.09516466;-0.020700421;0.15779;-0.010805308;-0.020154754;0.02006455;-0.1806445;-0.0062053977;0.015900781;-0.04357475;0.036196925;0.012764016;0.040907264;-0.14275339;-0.13069044;-0.10861746;-0.033250835;-0.17362836;0.011362912;0.063443564;-0.06907258;-0.1308836;-0.024490241;-0.05539364;-0.03144285;0.05657363;0.0036809114;-0.05926641;-0.048534844;-0.045387227;-0.010431997;-0.035100795;0.04468833;0.039834846;-0.02507104;-0.046550997;0.019057596;-0.11554386;-0.12303226;-0.122992784;-0.13049006;-0.078101255;-0.026751507;-0.030029414;-0.01096398;-0.03669668;-0.021865033;-0.15313111;-0.072505474;0.035017353;0.005471625;-0.050412577;0.07583971;0.03325187;-0.11679482;0.035665657;-0.08675137;-0.05788471;-0.05532815;0.066735394;-0.09023623;-0.02515115;-0.09928698;-0.08232204;-0.036913477;0.032351434;0.066061206;-0.027371865;0.0514704;-0.053518917;0.023825774;0.017738199;-0.14901014;0.08973105;-0.10796348;0.037134152;-0.066122994;-0.04782317;-0.15079981;-0.020816792;-0.07219138;-0.105602294;0.15764514;0.0113833845;-0.04789525;-0.052941974;-0.006504285;-0.14363241;-0.017708827;-0.061610427;0.044055764;0.06962532;0.038180333;-0.09536712;0.062300164;0.038467474;-0.08157253;-0.016002024;-0.010742783;0.036406275;-0.06746091;0.08889858;-0.08882641;-0.027895344;0.0037283248
-0.08763811;-0.13343957;-0.13750382;-0.11541865;-0.109721065;0.010301344;-0.076145805;-0.030260962;-0.12083121;-0.041440688;0.007856111;-0.0064024306;0.10531606;-0.1099949;-0.0621447;0.06016336;0.13291334;-0.055253763;-0.13552867;0.03483783;-0.13733476;-0.08600901;-0.17789239;-0.037207257;-0.01146287;-0.020615833;-0.050463907;-0.041387264;-0.022748545;0.043856908;0.07251216;0.12149194;-0.015810706;-0.011134247;0.05604529;-0.17512648;-0.083298005;0.060057145;-0.09037252;-0.0966107;-0.028285503;-0.04845541;0.048274204;-0.11556797;0.004588545;-0.05266723;0.06784474;-0.022052247;-0.15763171;-0.12506527;-0.1025706;-0.10636452;-0.09374218;-0.001837608;-0.024787521;-0.11495244;-0.15332885;-0.054273933;0.014879533;-0.009148616;-0.1014787;0.11186487;-0.07419314;0.20776986;-0.0067976858;0.025950424;-0.16078302;-0.09728979;-0.0972922;-0.02645069;-0.08610337;0.037051804;0.002391224;-0.06586822;-0.055405084;0.13936815;0.004215935;0.07458323;-0.044877112;-0.0009400759;-0.084755205;-0.099734895;-0.027028862;-0.051877014;-0.047613893;0.012368097;-0.10336909;0.00996587;-0.094971605;-0.10936906;-0.0016812643;-0.13677955;-0.06848228;-0.083029695;0.13911836;-0.0069368184;-0.05248808;0.0049830144;-0.0013753125;0.009617584;-0.042463627;0.019531224;-0.035847045;0.0017958872;-0.121116556;-0.08894219;-0.02315728;-0.096560486;0.052244585;-0.095631346;-0.06841362;-0.061817158;-0.09287633;0.028099997;0.04114951;-0.017506054;0.038559094;-0.05862274;-0.09474007;0.023207925;0.047534086;-0.08302598;-0.0852328;-0.11061483;-0.034044135;-0.06652395;-0.12622513;-0.117480546;-0.21710093;-0.07989972;0.19129784;-0.14532268;-0.0037218858;-0.00401215;-0.10310029;-0.0044181794;0.16387488;-0.1672318;-0.12976125;0.12503144;-0.0026225836;-0.047377437;-0.001690464;0.23270853;-0.18167745;-0.014000569;-0.07027495;-0.0080577;0.06476728;-0.007979929;0.108622886;0.016011706;0.00690854;-0.19785811;-0.18558384;-0.096420765;-0.0698431;0.07581556;-0.066788256;-0.09573382;-0.078763515;-0.0403724;-0.12070228;-0.13968603;0.0608629;0.069249034;-0.07349772;-0.07577847;-0.15862177;-0.10323393;0.03836101;-0.008267475;-0.03537746;0.03172392;-0.11024098;-0.102605045;-0.11033213;0.11481977;-0.04087314;-0.14844419;-0.06412386;0.03828481;0.017198939;-0.13382551;-0.09859616;0.12736689;-0.03460135;0.03369633;0.03580288;-0.07943079;-0.08892836;-0.081683755;-0.06835379;-0.06261282;-0.016758582;-0.033326827;0.005530594;-0.17914146;-0.067947865;-0.00875698;0.021738738;-0.08398505;-0.0034043067;0.010848451;0.024529414;-0.008447874;-0.028952282;-0.098856896;-0.10495511;0.017783372;-0.022953443;0.016510142;-0.062127553;-0.051764123;0.117518015;0.034276713;-0.12588435;-0.068707325;-0.12249996;-0.053621836;-0.042323172;-0.09052281;-0.042075552;0.11224865;-0.05655261;-0.15913825;-0.083657265;-0.055501234;0.011870575;0.02209308;-0.040543303;-0.02061715;-0.01870012;-0.061505347;-0.03572011;-0.021994194;-0.03631007;0.015556632;0.05461194;-0.06775984;-0.040121462;-0.07773304;-0.056223687;-0.027931923;-0.11801021;0.042805;0.123686425;-0.080294125;0.03655926;0.12155072;-0.009051691;0.021420047;-0.08397182;-0.18709342;-0.02571683;0.0068497495;-0.034696024;0.0018457227;-0.0434904;0.0025453195;-0.027650204;0.0281678;-0.025974441;0.035488196;0.0070714783;-0.07629712;-0.04818403;0.030928114;0.052141678;-0.04530981;-0.111547686;-0.16443321;-0.031639688;-0.016542373;-0.08521878;0.014983542;-0.14237708;-0.04190549;-0.064525254;-0.11445651;-0.23442131;-0.059092797;-0.01900395;-0.014155164;-0.08136762;-0.09629318;-0.046738107;-0.022144582;0.011776905;0.23764972;-0.114134274;-0.075440034;-0.14950815;-0.12258158;-0.063124456;-0.106987946;-0.03044235;0.041937258;-0.09429342;0.017688219;0.101401486;0.05113511;-0.04168749;0.006314122;-0.08963325;0.023813888;-0.029708255;-0.087638356;0.03314864;-0.10307576;-0.037738115;-0.111838624;-0.031281937;0.0042159376;-0.044708606;-0.02386337;-0.0864297;-0.022782614;-0.14316642;-0.110229634;-0.051835228;0.03190415;0.15279306;-0.07937757;-0.090369865;0.10147866;-0.16586582;-0.093555145;-0.1337108;0.12819245;0.042261347;-0.07446339;-0.13207836;0.008735948;0.02709943;-0.023243928;-0.036299936;-0.034279563;-0.04692301;-0.09599857;-0.11377665;-0.059055466;-0.016001359;-0.1138852;-0.02617103;0.04466326;-0.018344594;-0.22972083;-0.061231162;-0.15000641;-0.03176499;0.012655235;-0.06141668;-0.04275952;-0.024145614;-0.096278116;-0.11650126;-0.16468523;-0.08856937;-0.07308109;-0.012221596;-0.066667505;-0.033851493;0.011770676;0.027962456;-0.07333718;-0.13392997;0.087364495;-0.11635462;-0.11733249;-0.10094451;0.11026258;0.15697308;-0.066207774;-0.08981858;-0.094959944;-0.02850758;0.024058336;-0.028734814;-0.06878443;-0.14198995;-0.024149604;-0.03289773;-0.18830876;-0.08032629;0.03363183;-0.13148277;-0.097985245;0.03286034;0.10859458;-0.06600856;0.024139345;-0.026835678;-0.009389119;-0.04118307;-0.106854364;-0.06103869;-0.045025334;0.008392891;0.015241571;-0.010397257;-0.0695992;-0.07525012;-0.11078486;-0.052170623;0.03294358;0.13466568;0.0241225;-0.025771374;-0.099418916;-6.0321105e-05;0.02890382;-0.01569088;0.065006964;-0.059198897;-0.10711931;0.007819564;-0.061368313;0.02532427;0.03473734;-0.012939171;0.048236925;-0.0733426;-0.017456114;0.08770496;0.0016795596;0.01761776;-0.16679333;0.049635008;-0.10971729;0.037493587;0.008249066;0.0562363;-0.00416768;-0.042370636;-0.10161285;0.002419846;-0.10659131;-0.070657715;-0.023605682;-0.0133810425;-0.062349547;-0.09858465;-0.08948465;-0.026644763;-0.21012184;-0.052458372;-0.214133;0.087497756;-0.009476537;-0.114244305;-0.11052336;0.015943144;-0.002952738;-0.06864074;-0.03257376;-0.03244707;-0.10768885;-0.05087218;0.116608635;-0.04606303;-0.11493603;0.0068773483;-0.024175698;-0.08380589;0.120811656;-0.10513871;-0.016940217;-0.07871214;0.027563471;-0.091245465;-0.1298886;0.043082967;0.0625829;-0.04750583;-0.0048176437;-0.112861186;-0.08967831;-0.051865753;-0.08078056;-0.082285255;-0.03743924;-0.023616085;-0.10187082;-0.15739849;-0.20328963;-0.005516317;-0.10997127;-0.13042276;-0.080955975;-0.0118710855;-0.08156208;-0.06524014;-0.018396657;-0.021377087;-0.04178151;0.11918053;-0.10174892;0.0073276935;-0.11511074;-0.029071871;-0.051941942;-0.000116817195;-0.1111252;-0.113405734;-0.041272294;-0.061420396;-0.08047012;-0.30597433;-0.10477305;-0.014707972;-0.09131671;-0.08014156;-0.09433658;-0.048520286;-0.14996463;0.03219378;-0.024669517;-0.079147734;-0.05376117;0.007883292;-0.058504738;0.02686004;0.023820946;0.06973328;-0.064933635;0.0033177875;0.017853178;-0.025635725;-0.01694194;-0.032517154;-0.068953946;-0.059295148;-0.19546427;0.052132994;0.067301795;-0.036919944;-0.07179616;-0.119476736;-0.02782736;-0.039675873;-0.107693404;-0.04045515;-0.07565628;0.010463103;-0.053636145;0.00018157566;-0.0060197692;-0.14826366;-0.01775085;-0.016452242;-0.11577814;0.015762767;0.06231403;-0.0648988;0.021935806;-0.05712731;-0.13333741;-0.0018532195;-0.14208394;-0.07971385;0.0029155759;0.06391816;-0.0022015932;-0.007218046;-0.061134957;-0.045595415;-0.081381455;0.016543219;0.003623175;-0.017098282;0.026518106;0.07793018;-0.0872671;-0.044814877;-0.07875149
0.030312914;-0.010890982;-0.115540735;-0.070664324;-0.037936665;0.015136806;-0.21107271;-0.09639025;-0.07867534;0.03485007;-0.05208999;-0.03926421;0.06044066;-0.12986562;0.02424256;0.052908316;0.10158464;-0.008792771;-0.1224244;-0.01065843;-0.0034199622;-0.02582739;-0.048006125;-0.052059293;0.011761303;0.039491095;-0.10273754;-0.02114267;-0.07347768;0.081226185;0.019042935;0.13690524;-0.039815307;-0.022292886;-0.04024091;-0.12658998;-0.11951562;0.06165945;0.0056830603;-0.11756772;0.04876619;-0.05318965;-0.02375908;-0.068253525;-0.00095242553;-0.10260576;0.009495722;-0.107381016;-0.060699936;-0.04091911;-0.07119811;-0.0021302716;-0.063529335;0.021679744;-0.122445606;-0.05640152;-0.11003871;-0.14643814;-0.002400111;-0.020136908;-0.05075681;0.009181951;-0.024258602;0.14987975;-0.09052634;-0.13375579;-0.041938372;0.03624888;-0.12635541;-0.014090679;0.0014152264;-0.08470878;0.01927867;-0.09907729;-0.041730713;0.13862929;0.023708051;0.014464991;-0.028965248;0.05667708;-0.06671104;-0.069515824;-0.11316539;0.035469595;-0.102849245;-0.018100586;-0.05201508;0.03171627;0.017909579;-0.030025616;-0.117471404;-0.020878805;-0.04940236;-0.042732436;0.049626514;-0.09288544;-0.14007482;-0.026783971;-0.074345425;-0.05845279;-0.04949368;-0.06131142;-0.10254561;0.07620864;-0.079364054;0.025814492;-0.10549129;0.041045066;-0.039796576;-0.0015130026;-0.00027579916;-0.026414627;-0.09370139;0.016333353;-0.011950629;0.02525923;0.034905247;-0.060714908;-0.07858251;0.011839275;0.0061977673;-0.05432884;-0.0051383404;-0.031639263;-0.03380422;-0.057878125;0.0005925552;-0.1381336;-0.21361046;0.026804818;0.051012;-0.08866218;-0.086079195;-0.017420607;-0.023975167;0.078528;0.09565303;-0.15231912;-0.16105784;0.07300892;-0.13355502;-0.059763122;0.08719529;0.18672648;-0.016309233;-0.012346248;-0.110090286;-0.15398388;0.0007126323;-0.10768898;0.008820392;-0.048759766;-0.12841351;-0.110434674;-0.16101554;-0.06720174;-0.09262067;0.14475463;-0.090343885;-0.013296561;-0.06433634;-0.11813594;-0.061410043;-0.033053823;0.028304715;0.036475945;-0.115653515;-0.025951987;-0.22030416;-0.017383734;-0.05666226;-0.0021083879;0.011579704;-0.015228623;-0.07066561;-0.053637803;-0.10001682;0.07362178;-0.05537932;-0.0043570534;-0.05592791;0.010214004;-0.008417164;-0.17155229;-0.05562932;-0.03835754;-0.075327575;0.03321791;0.051924936;0.0033111179;-0.006336866;0.020368593;-0.09093064;-0.06307407;-0.07276008;-0.12811863;-0.11119582;-0.14458388;-0.14932872;0.0054271286;0.025402829;-0.010106389;-0.050675023;0.044075616;0.15233244;-0.10175879;-0.016645033;-0.057405345;-0.038393848;-0.12146463;0.03560561;-0.08483417;-0.021940561;-0.028741203;0.012577423;-0.07268816;-0.20338377;-0.048389796;0.031851508;-0.11106291;0.0040160925;0.03209375;-0.10408415;0.15925273;0.03705633;-0.19210592;-0.021169132;-0.10231565;-0.001200312;0.029197738;-0.018684527;-0.052249525;-0.054957114;0.0358957;0.0011526298;-0.104382776;-0.07083095;-0.11735795;0.0015558332;-0.15060702;-0.0634499;-0.09422093;-0.0023957365;-0.0010828557;-0.09276927;-0.029874502;0.023649868;-0.09352417;-0.050679233;0.061062258;-0.09319494;0.048187327;-0.0012743457;-0.18931222;-0.040852554;-0.09036581;-0.0108214;-0.032976788;-0.028989866;0.0035614432;-0.022304298;-0.04575146;-0.022006426;-0.03893334;-0.023952244;0.01621344;-0.009550737;0.05651864;0.040245388;-0.09905965;-0.16579352;-0.09285539;0.00039693122;-0.06734121;-0.0005611055;-0.09633233;-0.10370646;-0.08424083;-0.060174495;-0.039600044;-0.15253608;-0.058850314;-0.10590082;-0.02919644;-0.04843599;0.024041446;-0.038485624;0.03685288;-0.06052282;0.18848714;0.022782963;-0.12946181;-0.17345008;-0.07131109;-0.049119316;-0.11076301;-0.030773496;-0.058579568;0.020090295;-0.06560804;-0.015504273;0.056765717;-0.10661862;-0.055435106;-0.10483664;-0.0029031544;-0.12211243;0.0033910992;-0.00554034;-0.035471622;-0.037742462;-0.067180105;-0.045370422;0.04079363;0.009420834;-0.032949805;-0.11622473;0.04170124;-0.06729879;-0.22309001;-0.044102114;0.025656285;0.15906857;-0.038795456;-0.123390034;-0.03148339;-0.13596366;0.014511176;-0.12191095;0.14961924;-0.066587694;-0.046001583;-0.06828922;0.020644084;0.051410887;-0.08619915;0.036794573;-0.030334536;-0.07527952;-0.023820428;-0.12865758;0.008774722;-0.11548962;-0.09656618;0.020883227;0.010321685;-0.04825845;-0.20618068;-0.05455165;-0.029967139;-0.014796513;-0.07075861;-0.092255555;0.05422944;-0.10227364;-0.16446114;-0.052639477;-0.05205344;-0.15548353;-0.093127236;-0.11331718;0.0036739088;-0.10775898;-0.096175015;-0.05390778;-0.11350254;-0.039723136;-0.042257573;-0.10924433;-0.1006561;-0.07802328;0.005542738;0.09077898;0.07114913;0.0070975297;-0.0091314055;-0.019508446;-0.08757444;-0.024313236;-0.011144051;-0.09863265;-0.027154297;0.019063607;-0.10331086;-0.06394392;-0.0618872;-0.14120938;0.011173895;0.0967587;0.110480845;-0.045776587;0.06232342;-0.071972355;-0.005077493;-0.09644707;-0.12214023;0.025407067;-0.0663718;-0.02815366;-0.021413283;-0.05208035;-0.10533425;0.024778856;-0.038228884;-0.0008360832;-0.0007470837;0.15261897;0.0012591697;-0.094264545;-0.12067739;-0.07254218;0.10187264;-0.05571499;-0.081181504;-0.053911123;-0.013284734;0.027405318;0.014946445;0.01788492;-0.09693706;-0.10039628;0.10105537;-0.06791235;-0.021863217;0.06506173;-0.11210022;0.017691607;-0.13529623;0.032345437;-0.08945713;-0.044118114;-0.030302646;-0.099583164;-0.07785561;0.03255194;-0.0006220198;-0.06739746;-0.0970314;-0.1039815;-0.04668619;-0.07220045;-0.112759575;0.05545079;-0.19994119;0.033170823;-0.17203598;-0.11364153;-0.16468345;0.060733445;-0.0970491;-0.07152973;-0.05501648;0.045973036;-0.0040295357;-0.0733341;-0.13125513;-0.10732942;-0.14513348;-0.03610904;0.049226735;-0.07178633;-0.037514124;0.02362948;-0.0046626446;-0.02848914;0.18900749;-0.08593868;-0.016844572;-0.024100233;0.029256862;-0.015683578;-0.015029822;0.031658184;0.050125577;0.026474966;-0.0116845835;0.032529842;-0.11653454;-0.102697276;-0.024120102;-0.002851043;-0.01302459;-0.015934575;0.044322487;-0.09650118;-0.20040365;-0.14116624;0.010394907;-0.21780947;-0.018668119;0.041940432;-0.055917002;-0.04666983;-0.03812711;-0.095308684;0.03431708;0.07900265;-0.011934077;0.043184906;-0.14017527;0.01653889;-0.049803067;0.11264937;-0.0034545204;-0.11710881;0.003723184;0.0700895;0.016489256;-0.28180385;0.028837143;-0.013055996;-0.21632966;-0.09556174;-0.052604865;0.027860204;-0.04002934;0.0133162625;-0.034465753;-0.079714514;-0.009736546;0.06682774;0.06613384;-0.06383252;-0.01495436;0.045889232;-0.07980026;-0.104759015;-0.024622722;-0.035199232;-0.10206514;0.08098265;-0.1059442;-0.084126204;-0.23419982;0.059353817;0.10318587;-0.076539785;-0.041065935;-0.04889367;-0.06263051;-0.17529589;0.00062319904;-0.026534246;-0.084622055;0.0051748166;-0.20178075;-0.02383145;-0.08082536;-0.06607058;-0.05947623;-0.11709875;0.0027703803;-0.053106006;0.16608702;-0.12121151;-0.091310546;-0.15077032;-0.012417082;-0.13600795;-0.061043445;-0.1336171;-0.07649315;0.12668492;-0.06601491;-0.0019097022;0.058481947;-0.08014499;-0.01889077;0.024596065;-0.059715383;0.0106184995;-0.02139953;0.13846666;-0.079734184;-0.09982964;-0.021578388
0.0714752;-0.0054030125;-0.043701854;0.0060431357;-0.07474084;0.0834323;-0.11965992;-0.12737742;0.0026555068;-0.014128051;0.01580198;-0.03859311;-0.04737783;0.020683639;-0.0668509;-0.026648145;0.10499282;-0.021190977;-0.114532985;-0.04973118;-0.028015547;-0.09812376;-0.014071871;-0.082000576;-0.084360264;-0.054043047;0.003493567;-0.12481674;0.00684862;0.004537813;-0.018746356;0.06593813;-0.06703682;-0.031031301;-0.04527699;-0.13969018;-0.06410582;0.11421237;-0.09528564;-0.150636;-0.025147991;-0.11731495;-0.0062740277;0.024015814;-0.058765825;-0.036798194;-0.013994444;-0.04676657;-0.057202116;-0.043829214;0.009630553;-0.039587907;0.025173707;0.01474002;-0.03568321;0.015159081;-0.06885202;-0.19398741;0.026468301;0.015769651;-0.113113195;0.11566044;-0.011923778;0.15233119;0.015724564;-0.05430782;-0.033774327;-0.09768821;-0.11174297;0.028971123;-0.05946358;0.01991838;-0.039687086;0.007672322;-0.086250395;0.14157219;-0.060597766;0.14143997;-0.107518874;0.03320052;-0.05731702;-0.1631096;0.015642831;0.064514264;-0.06774857;-0.023742152;-0.06104785;0.023530455;0.04256667;-0.030000633;-0.00022748664;-0.057531264;0.016564228;-0.07415595;0.029725486;0.014283864;-0.13651931;-0.029256668;-0.047795173;-0.13735676;-0.054843493;0.009012173;0.00052818604;0.11563609;-0.10983095;0.018127471;-0.053162634;-0.10067907;0.047580305;-0.018941116;0.016264072;-0.09515335;-0.21093677;-0.098875485;-0.05642056;-0.019887324;-0.076420136;-0.08052222;-0.08566752;0.018246245;0.015327875;0.02307545;-0.012220377;0.016755017;0.07348032;-0.07670496;-0.1305028;-0.15083246;-0.1087922;-0.056149144;0.113271624;0.025310077;0.01111039;0.02918928;-0.052980103;0.023670405;0.10176194;-0.15771869;-0.10858919;0.083680905;-0.030820373;-0.06516336;0.120129414;0.17792188;-0.083685584;0.022219948;-0.06876989;-0.12733689;0.083080135;-0.013232286;0.09265778;-0.073014714;-0.02181943;-0.1258501;-0.11741705;-0.022008402;-0.09046702;0.13179143;-0.0021637438;-0.05823926;0.04165831;-0.024391852;-0.0721644;-0.14467247;0.003861141;0.042353608;-0.15518108;-0.086169906;-0.23167326;-0.097254656;0.029875744;-0.09485234;0.022775777;-0.09086299;-0.09479964;-0.032907378;-0.10833163;0.044359695;-0.027529387;0.007997158;0.025644459;-0.10292413;0.1122995;-0.061283562;-0.015582846;0.069091715;-0.09988261;-0.021036413;-0.07514663;-0.020460907;-0.079701625;-0.09451896;-0.10655018;-0.042973727;-0.03257458;0.037081704;-0.069540456;-0.16455172;-0.094326615;-0.09411051;-0.035504423;-0.1165966;-0.047913194;0.10823166;0.041406147;-0.09173974;-0.063048944;-0.070414804;0.014883404;-0.040246848;-0.10930904;-0.044028383;-0.1327301;-0.0920419;0.050588027;0.009604732;-0.10979516;0.0396952;-0.11097944;-0.042446226;-0.0045762067;-0.0018273292;-0.15723605;0.13789366;-0.030106008;-0.20144354;0.03445851;-0.053867042;-0.06583756;-0.08675077;-0.07714083;-0.10451603;-0.11802428;0.010844548;0.040678106;-0.05071137;0.013490001;-0.007354044;0.10798442;-0.15018512;-0.13573977;-0.06690108;0.023454254;-0.029048068;-0.08178019;-0.013699532;0.00085961586;-0.021667384;-0.09513928;0.048116833;-0.058592487;-0.06178263;-0.0007447226;-0.077813104;-0.019103836;-0.07998167;-0.048142828;-0.0048205275;0.033612605;-0.0717573;0.050448522;0.018615918;-0.030526925;0.03172158;-0.09280797;0.009457524;0.04084372;0.060040694;0.027918521;-0.12755533;-0.10453906;-0.17704742;0.014096188;-0.102330975;-0.11169077;-0.046750706;-0.07425978;-0.005443657;-0.100690365;-0.024023583;-0.24972041;-0.022219336;0.008262131;-0.036992706;-0.03909739;-0.04808826;-0.030398998;-0.08139047;-0.092338435;0.20279665;-0.035501853;-0.09631961;-0.16227731;-0.06309196;-0.12182527;-0.080385216;-0.03536428;-0.03722456;0.03263818;-0.083651856;0.027008658;0.015455216;0.039455067;-0.058513533;-0.105272286;-0.021782892;-0.05681439;0.027092732;-0.0525262;-0.08465206;0.0057402486;0.010315015;-0.107200645;-0.05883978;0.025647575;0.05969034;-0.020780772;-0.05429259;-0.11472942;-0.114779204;-0.0013518264;0.02595886;0.13031784;0.052211475;-0.074792005;0.077257164;-0.18864663;-0.01922535;-0.096063994;0.08709857;-0.005650538;0.008014203;-0.09423488;-0.07713301;0.008207383;0.022483723;0.072921775;-0.04735269;0.030336317;-0.018278522;-0.081283845;-0.070182614;-0.09929562;-0.0742534;-0.10557037;0.0077397223;-0.029643109;-0.17968051;-0.05206814;-0.11026521;0.053197492;0.07647111;-0.038951483;-0.083160736;-0.05909445;-0.13959587;-0.028903013;-0.09983695;-0.08197181;-0.030387918;-0.056312364;-0.0145080825;-0.11364927;0.008207491;0.025705786;0.010131719;-0.09476528;-0.051207602;-0.04524286;-0.1001132;-0.0445542;0.09625154;0.018303499;0.06318056;-0.011737733;-0.09565466;0.07215978;0.02723937;-0.1264795;0.056146745;-0.17310014;-0.0061281756;-0.051247388;-0.18441032;-0.06260548;-0.040021736;-0.10055422;0.012460114;0.04288107;0.03524361;-0.007981405;0.01183787;-0.035959627;-0.055424184;-0.0770516;-0.10976497;0.020229908;0.0013751936;-0.098982036;-0.1257492;-0.109316885;0.008802563;-0.08040787;-0.08110033;0.026944354;-0.11270965;0.010394519;-0.022870878;-0.088475764;-0.09385745;-0.1633096;0.017033119;-0.051662102;-0.093242764;-0.059583023;-0.0039123776;-0.10297345;-0.011178732;0.028688269;0.036023904;-0.0766665;0.051387586;-0.076830015;-0.09168683;0.038162652;0.02871221;0.103983946;-0.09713613;0.06948867;-0.10248103;0.073737696;-0.041403793;0.04497061;-0.056960825;0.013792931;0.029681925;-0.10808764;-0.00947338;-0.10119458;-0.1811507;-0.13477056;-0.04738919;0.06261918;-0.045078535;-0.010094527;-0.16986853;-0.10103665;-0.1099086;0.092401534;0.045203105;6.8632246e-05;0.030776614;-0.053753704;-0.11728999;-0.22533797;-0.017355163;-0.06291856;-0.018787494;-0.13667157;0.062337376;-0.08923504;-0.0041235746;-0.053639118;-0.076610945;-0.06241687;0.09616303;-0.07556879;-0.015588367;-0.04715244;-0.08610062;-0.029333087;-0.097232625;0.035978526;0.0037168292;-0.029202469;0.019220702;-0.09704754;-0.078146785;0.013987553;-0.11097136;-0.13177562;0.023977567;-0.016015477;-0.036055837;-0.07895876;-0.13765374;-0.08264193;-0.08757449;-0.21405207;-0.015884573;-0.07186567;-0.08599675;-0.11750527;-0.04583338;-0.06737937;5.746315e-07;0.09289733;-0.15159631;-0.006087012;-0.078621976;-0.06799864;-0.06427643;0.04119301;-0.024583384;-0.05991321;-0.014982306;-0.058191895;-0.03132285;-0.1981586;-0.11188795;-0.047148123;-0.14255217;-0.081172496;0.024244666;-0.01213167;-0.105730414;-0.025371315;-0.07275915;-0.096939325;-0.087473385;0.029420348;-0.07733516;-0.0879785;-0.03549428;0.084996775;-0.030923903;-0.07664921;-0.09961405;-0.091056295;9.651198e-06;0.12287061;-0.12031164;0.015726805;-0.2425186;-0.0812928;0.028403062;0.0021012218;-0.06427512;0.01861656;-0.05351712;-0.10967873;-0.10571352;-0.08139128;-0.16766064;0.108147345;-0.1213145;-0.091585845;0.021370763;-0.019182306;-0.10301372;-0.043234717;-0.12511857;-0.053627774;0.11227062;-0.10474576;-0.024346689;-0.14023325;-0.019059874;-0.103826724;0.031001167;-0.13485701;-0.044854835;0.13463247;-0.0030071535;-0.051978063;-0.034063064;-0.021157756;-0.095343746;0.016433306;-0.057011764;0.026383784;-0.10749604;0.05498063;0.03640345;-0.09664712;-0.10906255
0.06361172;-0.061167974;-0.022978831;0.013456465;-0.012424835;-0.046122905;-0.077587016;-0.030086426;-0.10406196;0.014533103;-0.0032754622;-0.03466699;0.105560206;0.008079222;-0.07418136;0.00040307138;0.1565954;-0.007653649;-0.014152592;-0.011583971;0.0018263764;-0.033418704;-0.038141206;-0.09672636;-0.040505834;-0.07116947;-0.031225234;-0.02075154;0.008241723;-0.026258545;0.010654476;0.16989073;-0.10208088;-0.042135976;0.067807004;-0.13570209;-0.13303061;0.09132115;-0.011058604;-0.0680186;0.045622222;-0.07314762;0.054405913;-0.0039926115;-0.03627128;0.0100161955;-0.039409935;-0.03192174;-0.11831825;-0.11591736;-0.06772323;-0.15191224;-0.042316545;-0.09028532;-0.06317872;-0.051744387;-0.117381446;-0.19282925;0.055406958;0.016991159;0.028594151;0.13502789;0.08808914;0.07880193;-0.006323827;-0.048801556;-0.012191463;0.03262284;-0.12977687;-0.012137304;-0.082339115;-0.03943263;-0.04722694;-4.2122127e-05;-0.09365918;0.102085784;-0.01871915;0.09640191;-0.0034271297;-0.06381843;-0.008600736;-0.17081288;-0.0003393524;0.05214285;-0.0018144669;-0.07930083;-0.14083566;-0.11417025;-0.0973628;-0.09464799;-0.12025386;-0.11592972;0.025589267;0.011496791;0.05795058;-0.04739482;-0.20265163;0.035187084;0.051005103;-0.1374017;-0.11144438;0.015450388;0.0138955675;0.06091086;0.003907198;0.034977425;0.021874778;-0.0051472485;-0.044118416;0.004163351;-0.035662428;-0.098017216;-0.15413111;-0.11008402;0.026900448;-0.07288598;0.0031575768;-0.08022142;-0.017708896;-0.033042718;-0.052430414;-0.02193828;0.046552904;-0.105294935;0.025429303;-0.097697616;-0.13674155;-0.085103735;-0.17573068;-0.075041294;0.059004184;0.021323236;-0.049336545;0.020753592;-0.15873474;-0.029566234;-0.0389335;-0.087792054;-0.088492006;0.023053763;0.025748415;-0.0071332986;-0.015057849;0.13980778;-0.11732483;-0.08134966;-0.06429364;-0.10887836;-0.014562586;-0.06862794;0.109768964;-0.03962267;-0.003440866;-0.1304855;-0.07069372;-0.11922579;-0.07980242;0.07017215;0.0029954703;0.07460608;0.006928508;-0.08355268;-0.04624288;-0.14653052;0.060126767;0.06894743;-0.16523862;-0.1033291;-0.1442231;-0.11944799;-0.014190738;0.026825123;-0.07617535;-0.092371486;-0.07480086;-0.06309374;-0.057664532;0.022514641;-0.048176184;-0.06730566;-0.016112298;-0.049543086;0.04180731;-0.063608676;-0.08528212;0.029653577;-0.10092513;0.024733685;-0.056366563;-0.072572365;0.037679713;-0.13720791;0.0031182494;-0.09404269;0.0064590666;-0.007991266;-0.01820036;-0.082616776;-0.096229434;0.03763584;0.069871955;0.014713228;0.020807572;0.01315377;0.13495897;-0.08263573;-0.012038271;-0.1469288;-0.07195651;-0.107808575;-0.09064638;-0.10887138;-0.050368384;-0.00918101;-0.0057380274;-0.1000221;-0.096017495;-0.018377146;0.02375642;-0.012108;-0.13431618;-0.11150844;-0.1060249;0.09493995;0.10309416;-0.05906861;0.025595495;-0.17181122;0.036428377;-0.10693825;-0.08992867;-0.10469401;-0.14330065;0.026626661;-0.03786724;0.033550028;0.05960885;0.024493454;0.08561037;-0.10479608;-0.13785711;-0.10455275;-0.065535426;0.0036394172;-0.05776856;-0.0027396367;0.08657462;0.0028461702;-0.07186524;0.10297591;-0.10346064;-0.06404878;-0.021464719;-0.15324207;-0.1129514;-0.050145183;-0.10256024;-0.03674182;-0.031401567;-0.00843764;-0.061229814;-0.073653765;-0.0027943952;-0.027703598;0.012696031;0.032352157;-0.05090467;-0.09493227;-0.011359683;0.004208974;-0.031505406;-0.101952925;-0.108651884;-0.06393544;-0.01365857;-0.0019111228;-0.09449118;-0.10546095;0.0031379296;0.029325627;-0.13919562;-0.04107989;0.042178918;-0.020097092;-0.14836022;0.011872329;0.003960955;-0.023842933;-0.015582574;0.082675785;-0.036680374;-0.15297669;-0.15068804;-0.09852517;-0.047785502;-0.045955494;0.017136086;-0.00810886;-0.034767173;-0.06295694;0.0044645444;0.017901704;-0.097581156;0.008238091;-0.11737999;0.03748075;-0.046591885;0.06748004;-0.07532224;-0.07216912;0.03940277;0.07808194;0.026848566;-0.039990418;-0.08467078;-0.08930509;-0.049910158;-0.047214445;-0.1013672;-0.07211956;-0.0374792;0.014685522;0.119661435;0.024992796;-0.1589156;0.050066378;-0.09242182;-0.09118832;-0.114360884;0.07420309;-0.06856772;-0.08131062;-0.13277021;0.017967002;-0.07960685;0.034517404;-0.0107678445;-0.004902267;0.041675057;-0.06861101;0.019467607;-0.06602964;-0.13930072;-0.024996106;-0.09809992;-0.070475124;0.018492877;-0.09977174;-0.1608035;-0.06304167;-0.04067012;-0.050912857;-0.06711352;-0.04105985;-0.04598847;-0.11161784;-0.055267766;-0.014127674;-0.10181832;0.021197408;-0.17164534;-0.085078925;-0.032486048;0.006736933;-0.097581506;-0.06208042;-0.07894744;0.035280995;-0.065349855;-0.08986157;-0.10906957;0.07703964;-0.017061079;-0.03488087;0.029526355;0.011997004;-0.022999147;-0.09416645;-0.027539346;0.051875457;-0.1625888;-0.13441403;0.05573838;-0.17975906;-0.12038521;0.020319846;0.017188804;-0.06617818;-0.070074365;0.0080239875;-0.09736233;0.02567336;0.008205858;-0.08394984;-0.10698523;-0.092734754;-0.004936238;-0.059238367;0.010026007;-0.057048835;-0.014588771;-0.04401734;-0.0376344;-0.12007076;0.0015397163;-0.10446886;0.117158994;0.0074768197;-0.06955156;-0.06326367;-0.16692731;0.04764005;-0.030021833;-0.060570452;-0.096184775;-0.12492639;0.03742527;-0.046907276;-0.06419549;0.03168349;-0.063063115;0.012685033;0.02216075;-0.050913952;0.07353497;-0.030362958;0.06605676;-0.10922111;0.0747578;-0.056476142;-0.001093971;-0.071729824;-0.0347743;-0.00073420926;0.008127964;-0.10231449;-0.09349695;0.0018938783;-0.11680022;-0.09237913;-0.16693638;0.005433675;0.06584474;-0.16449276;0.023588248;-0.047811862;0.018509155;-0.20073271;0.06398308;-0.06571726;0.0065937485;0.007367821;-0.005451835;-0.100438304;-0.11340015;-0.0423341;-0.039982934;-0.04643114;-0.11805027;0.03186844;-0.088265546;-0.14214757;-0.107185215;-0.04328208;-0.08622622;0.116613306;-0.03745349;-0.03701335;-0.13071284;-0.07192964;-0.10134602;-0.11361786;-0.047700576;0.1025956;-0.017123872;-0.043937407;-0.023407225;-0.06580754;-0.055690154;-0.039223373;-0.023019426;0.005123174;-0.13592239;0.040065043;-0.059102617;-0.19673397;-0.029018998;-0.023297952;-0.1141208;-0.09357547;-0.09211033;-0.105576746;0.028133856;-0.02078556;0.05661546;0.0140340235;0.12310823;-0.004123064;0.016083019;-0.06844171;0.011941211;0.037052598;0.13515072;-0.011079824;0.036091197;-0.04274823;0.014329895;-0.036408834;-0.22393388;-0.026988283;-0.13740656;-0.10562779;0.021692855;0.039853554;-0.034720447;-0.1223609;0.03046323;0.0078696525;-0.10157392;-0.062386453;-0.022880387;-0.016824577;-0.019348212;-0.0845575;0.027271481;-0.0649113;-0.112371184;0.029907288;-0.067442976;0.022310404;0.07536754;-0.1383748;-0.08650988;-0.24082187;-0.049716182;-0.04284875;-0.09450323;-0.06999445;0.033214167;-0.06102938;-0.11120728;-0.027337525;-0.03825681;-0.15386778;0.0015328461;-0.083808325;0.042141225;-0.08148442;-0.07148928;-0.039896928;-0.021894315;-0.1592021;-0.043333575;0.030246677;-0.00082157407;0.04645965;-0.029856473;-0.046963282;-0.11248895;-0.07860108;-0.108439155;-0.041304085;0.1133462;-0.09029074;-0.037907466;0.019538134;-0.12101592;-0.0847209;0.031616077;-0.008297533;-0.1117922;-0.12790112;0.16851422;-0.050566237;0.011968872;-0.04091406
-0.09162144;-0.09479067;-0.10701658;-0.04560154;-0.1040339;0.079252616;-0.089521304;-0.12676713;-0.07051456;-0.03369094;-0.10112311;-0.096934654;-0.046313327;-0.022104895;-0.010982794;0.044435937;0.142514;-0.04044354;-0.06268392;-0.08220867;-0.11684237;-0.14250968;-0.10987851;-0.0011168316;-0.0044462048;-0.035656217;-0.12471877;-0.16149266;-0.013552686;-0.051721632;0.04495403;0.06830338;-0.03803694;0.052693978;-0.022096962;-0.14334618;0.04241067;0.040366787;-0.05315854;-0.012075803;-0.054875568;-0.06158333;-0.043933723;-0.10118643;-0.025527649;-0.036176626;-0.020701395;-0.029267868;-0.12355714;-0.091271356;0.073732056;-0.06043717;0.0043354887;0.03582743;-0.09263998;-0.0060734283;-0.034464173;-0.05121426;-0.003520028;-0.01810725;-0.081890665;0.026226562;-0.037981905;0.16109195;-0.05099735;-0.041950412;-0.13399938;-0.078643054;0.008205828;-0.12433825;0.02731044;0.009540103;-0.08061665;-0.11575343;-0.078935005;0.12325938;-0.032516863;0.07936815;-0.1344152;-0.056110352;-0.11649014;-0.11733638;-0.07972628;-0.08074092;0.0028748023;-0.061571583;-0.1433053;-0.09721948;0.030006954;-0.12288487;0.032827694;-0.121953174;-0.04069758;0.005374954;0.057674527;0.054703392;-0.18287969;0.035301197;0.073573686;0.0073665166;-0.060058363;-0.022449067;-0.08653019;0.1137471;-0.068016075;0.008886724;-0.07911611;0.019623958;-0.04851595;-0.07002376;-0.07793433;-0.024273302;-0.071845695;0.046163887;-0.09755349;0.028828146;-0.042508207;0.022536416;0.012106705;-0.11701095;0.019900886;3.2923064e-05;0.009802024;-0.03916042;-0.04937325;0.04236256;-0.117771745;-0.16828091;-0.1072258;-0.0026057533;0.18080959;-0.004496436;-0.06609094;-0.07572328;-0.14849627;-0.0039735488;0.107560776;-0.07398358;-0.07672438;-0.06587122;-0.023928558;0.021282842;-0.027815346;0.086469956;-0.1870589;0.024135463;-0.16706629;-0.12190171;-0.028925152;-0.06739422;0.122879475;-0.00043382027;-0.1159343;-0.13336787;-0.07226617;-0.06637655;-0.09432109;0.10177838;-0.05386141;-0.024727022;-0.07575763;-0.060661063;-0.060525067;-0.116606005;0.00078884984;-0.019406507;-0.09149634;-0.043908875;-0.081149794;-0.0054253507;0.015516797;-0.085545935;-0.00036945505;0.025986364;-0.012574449;-0.05754874;0.024520202;0.030019559;-0.018258683;0.024127938;-0.08341151;0.035293706;0.060322084;-0.05535394;-0.0338003;-0.05215409;-0.09467851;-0.05774231;0.053999897;-0.07934359;-0.07101115;-0.14164677;0.01316971;-0.0071823425;0.054845378;-0.022205655;-0.10964516;-0.05240891;-0.12441651;-0.06367615;0.060470708;-0.09889686;-0.08788532;0.099530704;0.14678797;-0.011022735;0.025265604;-0.11157793;-0.046507467;-0.100650795;-0.06010291;0.013991168;0.0023756195;-0.03789651;0.0050486894;-0.07055443;-0.15960407;0.038628835;-0.10227626;0.024940023;-0.13557258;-0.030293614;-0.049875736;0.061681017;0.027809534;-0.11048378;-0.045616396;-0.06763263;-0.06958044;-0.08596137;-0.07159486;-0.12723696;-0.10158671;-0.11315975;0.028343212;-0.115307726;-0.07474228;0.02521592;0.13520911;-0.020302694;-0.08961995;-0.09116215;-0.027519567;-0.10542656;-0.0019599083;-0.05174323;0.089115895;-0.05965748;-0.06403196;0.054880578;-0.04245857;-0.08159664;-0.07455191;-0.07457515;-0.1102838;-0.10455222;-0.010124221;-0.07444124;0.031045478;-0.046279605;0.026990518;0.029143719;0.02833011;-0.082187325;-0.1017423;0.07721562;0.053653326;-0.081591144;-0.05270468;-0.08078612;-0.11792759;-0.19793336;-0.12076048;0.01442767;-0.108144775;0.02392724;0.010353496;-0.12596124;-0.10138391;-0.0031310245;-0.23450327;0.006136684;-0.091718055;-0.08389412;-0.064852916;0.022039717;-0.0696662;-0.056330644;-0.12374829;0.07188514;-0.12112406;-0.038928024;-0.14407088;-0.04960167;9.3658105e-05;0.0012818609;0.0033521904;0.0619723;0.041660305;0.023570957;0.019635819;0.15109566;-0.0071048327;0.051037464;-0.13454837;0.079271376;-0.106600106;-0.066235095;-0.015048373;-0.130632;0.036666214;0.029331103;0.015071761;-0.016671441;0.0072063585;0.034319848;-0.004070264;-0.03405593;-0.06091266;-0.21646945;0.0018942187;-0.030903058;0.12128132;0.046838697;-0.025328256;0.04704544;-0.087231226;-0.07825139;-0.10676279;0.046185162;-0.010977121;0.023557318;-0.14885676;-0.08128984;-0.09314211;0.0079886;-0.053280223;0.026539804;0.029458381;-0.013142059;0.010639773;-0.09852176;0.006741228;-0.09944136;-0.06815977;-0.03986879;-0.00784939;-0.19555548;-0.12637642;-0.16329005;-0.06266538;-0.0014222525;-0.008199356;-0.018009568;-0.06235637;-0.0819131;0.04623366;-0.003466861;-0.13110118;-0.0061305156;-0.082145914;-0.0004427742;-0.036284115;-0.02643572;-0.103719756;-0.06373104;0.0116231255;-0.08023274;-0.030819494;-0.027702164;-0.027073327;0.03921881;0.11522762;0.08869753;-0.07990938;-0.10292268;0.046915304;-0.04203924;-0.07181354;-0.030497866;-0.09644935;-0.10558598;0.010727865;-0.09690533;-0.054017298;0.017178426;-0.053223714;0.03722555;-0.004494007;0.033555377;-0.10975894;-0.009477984;-0.021737605;0.009436698;-0.031975858;-0.2218928;-0.0023409605;-0.099106856;-0.09962156;-0.04292307;0.024089135;-0.008377011;-0.035694778;-0.06262674;0.019585766;-0.062903866;0.14381115;0.03186516;0.017182324;-0.016417934;-0.08015389;-0.024271954;0.011079361;-0.09488582;0.039578523;-0.01271406;0.007354788;-0.028387211;-0.018258646;-0.074120514;-0.0005505134;0.04854561;0.02048838;0.041118383;0.022795698;0.035116527;-0.011084587;-0.121805616;0.03812088;-0.09978932;0.050943527;-0.045722634;0.0155261755;-0.07435922;-0.015464835;-0.06439443;-0.16108716;-0.08680818;-0.12432077;-0.18218327;-0.043505345;-0.011620317;-0.025852006;-0.10059731;-0.048311673;-0.04265573;-0.03518809;-0.09781766;-0.049686167;-0.0022331374;-0.029974654;0.020740727;-0.04066858;-0.012682984;-0.213746;-0.051230617;0.023585025;-0.0837196;-0.0057764854;0.15543321;-0.09724776;-0.06625005;-0.0061400933;-0.038785845;-0.058465783;0.17210114;-0.10922278;-0.017100813;-0.12785572;-0.0751887;0.035667215;-0.024313817;0.05250741;0.097265154;0.077739276;-0.10725048;-0.10447652;-0.091014855;-0.005434399;-0.09823814;-0.03838822;0.007004841;0.016494993;0.006382637;-0.06978508;-0.12429722;-0.0037817392;-0.12368883;-0.11163046;-0.0010327391;-0.027254708;-0.08501702;-0.081979506;-0.0054462575;-0.026458906;-0.043798085;0.11064432;-0.03648969;-0.03445196;-0.013749141;-0.07469152;-0.019077677;0.10722848;0.04470213;-0.0040637795;0.005249607;0.05871266;-0.04510504;-0.27267668;-0.104211815;-0.03031231;-0.123883024;0.01824333;0.009208945;-0.11661542;-0.041382138;-0.04423236;-0.09067311;-0.11406325;-0.10810268;0.097859174;-0.056921124;0.012670142;-0.08195821;-0.011148126;-0.1308601;-0.039315403;-0.055647094;-0.035677426;-0.0095234895;0.09719323;-0.11815314;0.014502361;-0.14460212;-0.06808784;0.05083455;-0.05402029;-0.05866663;-0.0070963055;0.011693699;-0.15217586;-0.07217568;0.019005718;-0.15306395;-0.012068234;-0.14352195;-0.040785354;-0.08009482;-0.0016763782;-0.13279292;-0.07163793;-0.095022105;-0.056197166;0.083875336;-0.1229236;-0.023519587;-0.07679502;-0.012713531;-0.04684485;-0.12718739;-0.00017286219;0.040438283;0.12352316;-0.08220737;0.036629677;-0.06896044;0.034979276;-0.043402642;0.03573165;-0.027015246;-0.109380804;-0.05865672;0.13496882;-0.09135112;-0.022943992;-0.03578936
0.0183272;-0.0052547795;-0.04718898;-0.08526466;-0.04445736;0.047624294;-0.050537612;-0.054188;0.029294813;-0.15418561;0.019970922;0.041070953;0.035028107;-0.13767153;-0.02298654;-0.037920076;0.19176784;-0.05562404;-0.06572814;-0.08104123;-0.056583583;-0.12958454;0.014607781;-0.005264464;-0.0009148945;0.051720504;-0.029039482;-0.16099693;-0.018755415;0.09886534;-0.018059261;0.016479142;-0.07447379;-0.059419364;-0.01951804;-0.13505793;-0.033004716;0.11592458;0.005917283;-0.12513034;0.021025296;-0.0038673654;0.0016030377;-0.06902624;0.0011036514;-0.060484756;0.013687832;-0.091080956;-0.05012285;-0.005247731;0.0031137678;-0.084060885;-0.006535936;-0.023848621;0.00888389;-0.014330894;0.026330184;-0.09369126;0.045007166;-0.015791304;-0.09743493;0.12884194;0.0581058;0.02002509;-0.09455252;-0.13400555;-0.044807255;-0.086594805;-0.07995651;-0.07561366;-0.042498615;-0.07838348;-0.08608603;-0.055084206;-0.08140094;-0.024324143;-0.095485196;-0.031103933;-0.08821604;-0.0035301845;-0.021541368;-0.14420687;0.017553868;0.075381055;-0.04297673;-0.08703054;-0.08263928;-0.006404508;0.04899905;-0.038816735;-0.03651894;-0.12982796;0.016347837;-0.11333532;0.121018074;-0.073578246;-0.18723406;0.08728037;-0.033302393;0.004015932;0.0007076486;-0.08611304;0.03639372;0.1382675;-0.12520918;0.013211468;-0.07229108;0.018561307;0.051000923;-0.087836005;-0.08939857;0.03224549;-0.21427684;-0.0708538;-0.08246119;0.052478958;0.039065164;-0.018034741;-0.021891445;0.033033393;0.02214354;0.04877017;-0.004121624;-0.04558014;-0.004343141;-0.03308085;-0.119735844;-0.046233468;-0.16812891;0.028353522;0.07751928;-0.12856527;-0.09519245;0.018298063;-0.11470884;-0.063909136;-0.062210143;-0.18435083;-0.0489615;0.0021266788;-0.100173175;-0.04725175;0.016167905;0.16721816;-0.13018532;-0.05583109;-0.07080648;-0.15822804;0.025748039;0.034766193;0.07012637;-0.044903707;0.0074870787;-0.061617352;-0.15287189;0.0061050933;-0.05310248;-0.0048891758;-0.055232845;-0.030142624;-0.021620795;-0.10556922;-0.068690754;-0.08364413;-0.0687693;0.07785951;-0.14838853;0.05345842;-0.121613614;-0.077340536;-0.06526821;-0.035417266;-0.077220544;0.041658703;-0.10410424;-0.020831188;-0.08823189;-0.029651513;-0.1258571;0.003105254;-0.08257297;-0.047463037;0.056580763;-0.12051715;-0.09113171;0.049303524;-0.019967368;0.04060891;-0.043783803;-0.02186554;-0.09850713;-0.00055416406;0.023090934;0.055912502;0.031966567;-0.105891205;0.018370831;-0.09125186;-0.14153507;0.008046314;-0.025452338;-0.0897353;-0.10940715;0.08486962;0.050684605;0.008123219;-0.02642808;-0.07627984;0.014972284;-0.056619924;-0.055037513;-0.07858624;-0.032854445;-0.058065664;-0.012607734;-0.0029143302;-0.18129566;-0.06248014;-0.0043096403;0.04817389;-0.003158583;0.013353454;0.0068976427;0.12215762;-0.011594691;-0.1698856;-0.056326296;-0.24378052;-0.0573659;-0.022598207;-0.0023993913;-0.06731088;-0.062845685;-0.035360515;-0.023659574;0.022944432;-0.10807444;0.04987196;0.13991967;-0.02749279;-0.07270426;-0.07389841;0.0046974584;-0.05150786;0.048224844;0.0010172289;0.14086568;-0.14615706;-0.0055616447;0.073906;-0.08643302;-0.10550883;-0.10257733;-0.124423645;-0.07719216;-0.067300245;-0.1410275;-0.01713009;-0.07836223;-0.112175815;0.008356369;0.014003607;0.017657809;-0.093882784;-0.06278802;0.011374956;0.045364883;0.0039980146;-0.018098826;-0.121749505;-0.13526984;-0.050681356;0.017244391;-0.05347869;0.012222017;-0.07496983;-0.12561654;-0.07137199;0.023770254;-0.056677133;-0.2100936;0.06123828;-0.08881387;0.030108884;-0.03607391;-0.120035626;-0.010429815;-0.012951865;-0.038087826;0.11534041;-0.033986844;-0.131926;-0.0727509;-0.030921256;-0.0933242;-0.08342147;-0.031676438;-0.01803563;-0.10085226;0.01801489;0.013657673;0.10396363;0.043465458;0.018303072;-0.05933511;-0.023410028;-0.09567242;0.060621534;-0.094033;0.026119217;-0.047226615;-0.079979286;0.0126340585;0.043440897;-0.021694396;0.043510243;-0.14417396;-0.054737963;-0.08648418;-0.18932492;-0.07802547;-0.12033262;0.08423189;0.03633498;-0.101888314;-0.018827535;-0.15406851;-0.08728666;0.008662886;0.106219664;-0.044316582;-0.034665845;-0.054926995;-0.044280726;0.02056988;0.07286162;-0.012916408;0.00309181;-0.10220636;-0.02564875;-0.086163305;-0.04396912;-0.025195133;-0.1363229;0.035578296;-0.020309467;-0.11926201;-0.0909713;-0.1368896;-0.07259431;0.034936566;0.05359664;0.035978183;-0.029058443;-0.10169598;-0.025498876;-0.08236312;-0.06424305;-0.026496366;0.0073054875;-0.19961642;-0.097365;-0.024246644;0.039722808;-0.016374776;-0.06947634;0.007354087;0.037274726;-0.12574619;0.034895558;-0.046511278;-0.043403395;-0.02205849;-0.03684197;0.013679953;-0.034155846;-0.05231625;0.041811932;-0.025771655;0.037521888;-0.15284964;-0.094165035;-0.05037981;-0.16670966;-0.04815034;0.003287439;0.009585801;-0.054828994;0.009341407;0.06168233;0.031165302;-0.039884325;-0.019396778;0.03794206;0.006971184;-0.18940116;-0.08262425;-0.121892706;-0.054794587;-0.014931005;-0.06328197;-0.0014413533;0.04194979;-0.0047642374;-0.038429096;0.0062650773;0.16406462;-0.02808528;-0.07567655;0.046949375;-0.078191325;-0.048885405;-0.049785458;0.022339497;-0.0871234;-0.036019836;-0.058021694;-0.051947884;0.0020173958;0.01579597;0.03491045;0.043248292;0.02011891;-0.10157008;0.011506339;-0.0034962778;0.075410396;-0.05432265;0.11871719;0.020453107;0.009575801;-0.0016173912;0.02630455;-0.041165955;-0.05595288;-0.02754439;0.009189649;-0.044184856;-0.07380339;-0.17958394;-0.10017564;0.024859246;-0.08093579;-0.18481317;-0.04077644;-0.01451133;-0.09140466;-0.18504569;-0.016070751;0.03477743;-0.09392966;0.04211409;0.01686757;-0.040368054;-0.11239427;-0.1074469;-0.04966142;-0.034264226;-0.13145423;0.037399393;-0.10096026;-0.0043714554;-0.026200837;0.0092637725;-0.07403365;0.19759251;-0.119213134;-0.051206883;0.027788483;-0.063145086;-0.083735235;-0.003596444;-0.0065954356;0.0053225067;0.00087031943;0.02732386;-0.07025958;-0.07672029;-0.119127035;-0.020791875;-0.07560507;-0.05749541;0.029393347;0.013604787;-0.08935382;-0.17253795;-0.016431315;-0.123712964;-0.1174878;-0.10929099;-0.099304006;-0.104204215;0.0035723378;-0.027116844;0.058740996;-0.080680504;-4.384022e-05;-0.099594034;-0.08734623;-0.134237;-0.08030259;-0.12280664;0.13534656;0.020868883;-0.05169698;-0.072882466;-0.06502814;-0.1272626;-0.2717574;-0.020358404;-0.12371043;-0.11720618;-0.04688786;-0.070368245;-0.100583084;-0.09427857;0.052786227;0.015538381;-0.18625534;-0.067686945;0.073297925;0.07433383;-0.048860837;0.028718753;0.03717446;-0.050778028;-0.11428766;0.021545598;-0.033670273;0.03297136;0.018816017;-0.077870116;0.0067502307;-0.1985819;0.049584165;0.0075046346;-0.027316112;-0.10326385;0.058217;-0.023727842;-0.09762333;0.031810716;0.03355887;-0.15573667;-0.019913279;-0.13101707;-0.008422727;-0.059801247;-0.08860991;-0.009583706;-0.09643435;-0.09662053;-0.024332559;0.16061085;-0.11636503;0.020916985;-0.04758311;-0.029861338;-0.058292776;-0.093808606;0.0028407343;-0.05394139;0.096190855;0.025053306;-0.0175127;0.04792308;-0.015219051;-0.029836833;-0.013930384;0.005289159;-0.09586869;-0.11510725;0.14460397;-0.027953;-0.0657753;-0.11705779
0.00450755;-0.023460839;0.026104001;-0.028586209;-0.0057484875;0.06317168;-0.20785233;-0.10998226;-0.079659484;-0.11597816;-0.11191645;-0.06192546;0.101126194;-0.10319691;-0.06750816;0.08281467;0.18844265;-0.028955504;-0.07566482;-0.07008037;-0.04649773;-0.05801714;-0.043655667;0.005515104;-0.109413154;0.0984739;-0.0056657004;-0.10909886;0.013699087;0.0621778;-0.049940635;0.14576232;-0.14616056;0.040061448;-0.0850591;-0.08038854;-0.06869108;0.15148628;-0.050871953;-0.09772468;-0.037332177;-0.07457395;0.00015708516;-0.055782817;-0.14725724;-0.077779286;-0.05457994;-0.121373475;-0.030127;-0.10040993;-0.006583818;0.04144361;0.008968083;-0.066220075;0.012261341;0.0015168984;0.061780553;-0.17288153;0.038414467;-0.05716045;0.03166994;0.102612585;-0.07161801;0.018384082;-0.018971147;-0.13035159;-0.05923286;-0.018408285;-0.1368441;0.021573042;-0.107209116;-0.025679769;0.026396805;-0.015514936;-0.12436467;0.061813254;-0.0805406;-0.025256202;-0.039696403;-0.08445146;-0.049692784;-0.15131678;-0.09476215;0.065988906;-0.0077477545;0.031357888;-0.14149058;-0.004058765;-0.07570052;-0.07161147;-0.03437857;-0.086304866;-0.06766371;-0.023815025;0.08201537;-0.038065486;-0.06712513;-0.004579423;0.029213417;-0.15416156;-0.04096574;-0.07275386;-0.021812942;0.06678724;-0.051444646;0.0010170706;-0.0108383745;-0.0886117;-0.035911515;-0.095818214;-0.04969762;-0.073578045;-0.14375049;0.009383925;-0.12155919;-0.07339642;-0.07283852;-0.11364739;-0.13973062;-0.047076594;0.01290284;-0.032422435;-0.062357895;-0.07139482;-0.07260481;-0.02392737;-0.12770744;0.02005752;-0.16257523;-0.0695618;0.22913074;0.0037277744;-0.07812;0.02430399;-0.18180093;-0.033424158;-0.004809601;-0.16532291;-0.04160355;0.053894356;-0.021664891;0.016240636;0.075861216;0.10813043;-0.18649994;-0.14129575;-0.10710172;-0.18306512;-0.008118894;-0.05624971;0.028321119;-0.058883358;0.0020623484;-0.00808135;-0.124230064;-0.08730666;-0.06717789;0.07523037;-0.030282984;-0.041637465;-0.06274245;-0.03070921;0.06569688;-0.1527064;-0.020475484;0.09035718;-0.012308567;-0.032010894;-0.23397964;-0.055340383;0.034516748;-0.0064010387;-0.075437106;0.0011606285;-0.030133033;0.026598843;-0.09563245;0.016397994;-0.044303093;-0.017884718;-0.08648343;-0.09445765;0.060000803;-0.16334955;0.048039738;0.024130167;-0.047681548;0.034434743;-0.034243077;0.04240552;-0.07738345;-0.08424616;-0.020998979;-0.04049845;0.0309481;0.013127916;-0.01883921;-0.097999714;-0.118397795;-0.024874289;-0.030887406;-0.006503048;-0.088245764;0.12997705;0.040419765;0.024665013;-0.09223563;-0.018760154;-0.08177948;0.018214833;-0.06870028;-0.05200805;-0.018578243;-0.09763737;0.050509613;-0.08453347;-0.12976113;0.060750555;-0.10504553;-0.04546712;-0.16761115;-0.01554852;-0.12905276;0.16899216;0.10245657;-0.108777694;0.0360519;-0.25550178;-0.07722119;-0.098311044;0.0120843295;-0.10113987;-0.13189512;0.018920572;0.09083961;-0.008270807;0.02140521;-0.008667798;0.13711151;-0.11782678;-0.099393144;0.06404552;0.05057517;-0.037074305;-0.08331714;-0.11304079;0.13415746;-0.09020302;-0.016190631;0.08307285;0.045386035;-0.053568665;-0.018101215;-0.15155473;-0.050558154;0.022520898;-0.13175893;-0.15011555;-0.04710576;-0.10783727;-0.09666045;-0.0129463915;-0.011499207;-0.06270077;-0.075783595;-0.01464431;-0.04747105;-0.108860075;0.005708102;-0.03388342;-0.02956425;-0.13990483;-0.0484104;0.028947892;-0.0063369903;-0.025458677;-0.07797673;-0.14892942;0.0035707918;-0.013143276;-0.18558721;-0.023795417;0.0314166;-0.063966915;-0.14480914;-0.06288953;-0.008759071;0.023080938;-0.023786584;0.07873367;-0.049175873;-0.15018463;-0.070850685;-0.040947456;-0.1275363;-0.101001374;-0.013225358;0.0048572584;0.002667846;0.027753586;-0.016494201;0.0464355;-0.08634282;0.06353009;-0.15519695;-0.029711;-0.031361576;0.01689316;-0.09919731;-0.0569787;-0.032102857;0.060314942;0.007158713;0.037128847;-0.08614554;0.028406486;-0.051778518;0.019715529;-0.10369433;-0.23156282;-0.0012197806;-0.13803571;0.104274265;0.026365455;-0.14676511;-0.026984163;-0.105765104;-0.049513575;-0.08464015;-0.04557598;0.022097515;0.024864372;-0.17516415;0.0027268173;-0.024275273;0.06542996;0.0020511337;0.021069938;0.035403963;-0.038409214;-0.03433702;-0.028567262;-0.07839464;-0.107133746;-0.10301331;-0.10994322;-0.074222125;-0.1465811;-0.04292115;-0.038745124;0.066359386;0.023631247;0.02143354;-0.014071899;-0.03408644;-0.11456704;-0.0001095031;-0.14383414;-0.06390499;-0.07935424;-0.09615285;0.01677693;-0.025510898;-0.11393759;-0.04513337;0.011629799;-0.007587802;-0.09903339;-0.17782986;0.025816461;-0.0958634;-0.008328997;-0.01248218;0.0023624895;0.04305796;0.003433747;-0.06842229;-0.074251324;-0.04310155;-0.029208856;-0.025404012;-0.052952655;-0.020483747;-0.08613375;0.009188642;-0.030103283;-0.05094062;0.04536441;-0.01498211;0.098635845;0.027479371;-0.04144385;-0.038536735;-0.09207508;-0.08496737;-0.15283795;-0.009384921;-0.022763168;0.06730393;-0.11098895;0.010173841;-0.115662396;-0.027790925;-0.072161905;-0.04610758;-0.06330319;0.176648;-0.101259984;0.017615829;0.0449482;-0.10782843;0.05141584;-0.07835489;0.027040705;0.055433717;0.040341698;0.05718312;0.018412706;-0.0474484;-0.07897014;-0.05115472;-0.031035634;-0.10680998;0.024553193;0.09704899;-0.00224164;0.019047098;-0.099720016;-0.009041011;-0.03365704;-0.09350878;-0.0008951398;0.025882244;-0.093426995;-0.091319196;-0.03155689;-0.09167512;-0.0011648473;-0.028517019;-0.088891014;-0.1811748;0.026157565;0.01898803;-0.19000912;-0.082115285;-0.063685045;-0.08614162;-0.15067129;0.016125156;0.035355803;0.009635453;0.027451312;-0.031593103;-0.101546414;-0.1267839;-0.11695239;-0.07835933;-0.029237077;-0.1392122;0.0495824;-0.068692334;-0.053261;-0.06518848;0.036622856;0.020755239;0.14503881;0.045149308;-0.06779508;-0.057001937;-0.14351045;0.044912178;-0.057608463;-0.005167832;-0.030462;0.023735855;0.041715764;-0.012597259;-0.09611688;-0.03875283;-0.01706099;-0.161547;0.01841553;-0.1138851;-0.06424689;-0.064827695;-0.09677128;-0.12008883;-0.0016442512;-0.14700042;0.0050062574;-0.096539736;-0.06675485;-0.037601437;-0.08998965;0.030604875;0.022198241;0.09928709;-0.0057805977;-0.07374864;-0.14986445;-0.11034833;0.017527636;0.13914397;-0.00820805;0.0021801316;-0.093765244;0.024920467;0.01853556;-0.14355507;-0.0765417;-0.034684397;-0.18572536;-0.03094998;-0.024030738;-0.015161096;-0.0031245733;-0.017767439;-0.012013749;-0.19805935;-0.13386676;0.061390072;-0.019681629;-0.038815826;0.06536588;-0.0052625993;-0.07634284;-0.07756118;-0.07110502;-0.0346916;0.012328452;-0.01945413;-0.028479107;-0.004472268;-0.11500917;-0.0257873;-0.026396507;-0.041329235;-0.020409742;0.06571165;-0.005237314;-0.059931755;-0.108855575;-0.038627826;-0.14923671;-0.05691794;-0.08674647;-0.047918014;-0.025261058;-0.09048756;-0.08789398;-0.029388567;-0.044017654;0.03039026;0.13859345;-0.08495304;-0.024797702;-0.14241949;-0.12230802;-0.054210067;-0.04108211;-0.11468502;-0.089159824;0.18304347;0.011807089;0.0055582183;-0.026367484;-0.060762756;-0.015380684;0.048502028;-0.025789991;-0.0017901078;0.020155564;0.06648251;-0.00776789;-0.038675923;-0.111539945
-0.047795143;-0.10666699;0.008617934;-0.0029655807;-0.071781985;0.043700717;-0.053049315;0.025134312;0.038495656;-0.019300792;-0.052824363;-0.05970791;0.08944507;-0.027195731;-0.0891201;-0.052129924;0.11009422;-0.020408986;-0.051868685;-0.094784535;-0.10359344;0.013549647;-0.051927608;0.028130054;-0.022799378;0.10189942;0.00567138;-0.08779688;-0.024668643;0.029027028;-0.061582405;0.09889596;-0.11779846;-0.017463094;-0.035011135;-0.024415739;0.033237837;0.045963462;0.004777113;-0.12796006;-0.065203704;-0.1053989;-0.011580383;-0.107476294;-0.09415214;-0.037263874;5.761975e-05;-0.105737455;-0.04748146;-0.0888691;-0.013563551;0.03982088;-0.14095947;-0.037148174;0.00029996247;0.019430548;-0.073364966;-0.07284543;-0.0026837217;-0.062345967;0.03852092;-0.023466514;-0.089848354;0.07354634;-0.012912649;-0.1501568;0.029794445;0.029723426;0.011034066;-0.12433809;-0.1080722;0.015117353;-0.11369989;-0.050515685;-0.061582107;-0.05217487;-0.076197006;-0.02586658;-0.05746318;0.03764995;-0.006773263;-0.06839129;-0.08039328;0.029936556;0.00047228741;0.008148446;-0.07843938;-0.05536566;-0.056812704;-0.10568398;-0.021990845;-0.17034921;-0.053174023;-0.12613478;0.16239811;-0.055723347;-0.12036771;0.06741334;0.07676139;-0.13827342;0.0044055455;-0.12172548;-0.10229315;0.17634615;-0.07476709;0.009950592;0.046512228;-0.0074538374;-0.022468776;-0.08739044;-0.079573445;0.012715516;-0.079230584;-0.007883372;-0.068403356;0.013518;-0.029531335;0.041555032;-0.03562752;-0.06645878;-0.053930797;-0.08420064;-0.06476509;0.010591357;-0.110685974;-0.0115146935;-0.010654103;0.008645124;-0.22117412;-0.02294064;0.10274377;-0.09783591;-0.05723775;-0.022259645;-0.12063794;-0.07452479;0.043434672;-0.080429375;-0.15338755;0.02624509;-0.0014833199;-0.010540634;0.051740494;0.15724435;-0.087685056;-0.012520773;-0.05497799;-0.15580757;-0.09882016;-0.04967726;0.065948084;0.0012512773;0.036829658;-0.022937922;-0.19378363;-0.071071304;-0.07035741;0.0017404682;0.023985349;0.058049962;0.055221487;-0.09064837;0.05042113;-0.044317793;-0.08480487;0.031181201;-0.057215836;0.02913504;-0.22762263;0.04518149;-0.0075905495;-0.10119388;-0.048989736;0.009094544;-0.047821816;-0.12487942;-0.062264934;-0.055440303;-0.09318237;-0.07182076;-0.0709431;-0.087198704;0.03829915;-0.06258862;-0.063025035;-0.09387146;0.015575233;0.018002247;0.052921847;-0.02900931;0.009319213;-0.06559966;-0.07101958;0.0009313066;-0.05613002;0.019559875;-0.057021115;-0.13304716;-0.10468188;-0.052912697;0.04312685;-0.14015019;-0.108444646;0.106627285;0.034782477;0.058505997;-0.018247632;-0.08114974;0.049854286;-0.037124768;0.0011737077;-0.042641804;-0.014447402;-0.043472257;0.09972237;0.029402414;-0.08597986;0.00941502;-0.012748469;-0.045739383;-0.07975435;-0.048101973;-0.07493405;0.1849132;0.021284986;-0.068620585;-0.09686223;-0.24441974;-0.028500265;-0.05140114;0.02819151;-0.13711995;-0.058865577;-0.09372028;-0.012576085;-0.051810563;-0.07095274;-0.06219143;0.10591031;-0.07031634;0.00029204597;0.07054783;0.059625145;0.028464753;0.001167807;-0.042045847;-0.041327234;-0.056218263;-0.012453812;0.048896704;-0.04313708;-0.060453877;-0.08642602;-0.09820506;0.02450148;0.019576611;-0.09987517;-0.026096124;-0.077662125;-0.1655737;-0.08040497;-0.031691752;-0.10561957;-0.09717128;-0.09584417;0.06287111;-0.022353707;-0.06640659;-0.02758207;0.021331286;-0.13398999;-0.12862153;-0.034381103;0.0674033;-0.05337538;-0.01705356;-0.104656294;-0.14891131;-0.05688312;0.001335426;-0.22654164;-0.08476834;-0.017471876;-0.011761957;0.0037887995;-0.11434998;-0.12938361;-0.06954787;-0.118316785;0.050444826;-0.005982334;-0.05294521;-0.051722717;-0.054382548;-0.15778752;-0.032044657;-0.0774239;-0.022944514;-0.054193337;-0.0518341;-0.040714957;0.091960855;-0.05716254;-0.07290913;-0.029860087;-0.015848098;-0.009904286;0.0033298044;-0.07932503;-0.12187309;-0.07654578;0.0069770943;-0.07466102;0.008288129;0.029228892;-0.11257911;-0.15347442;-0.09429838;-0.09429181;-0.23267299;-0.0063692466;-0.07996089;-0.038966376;-0.077350855;-0.061163813;-0.059038166;-0.069562234;-0.07179983;-0.07121777;-0.02827127;-0.0603426;0.051802002;-0.023721565;0.03350212;0.033194948;0.013177362;0.009192971;0.0057064667;-0.07208916;-0.12716149;-0.044298384;-0.08560096;-0.07302499;-0.06897071;-0.0017623325;0.027385078;-0.015547491;-0.14070883;-0.07274789;-0.035264764;0.028838791;0.00045593403;-0.027004456;-0.097448945;-0.011307996;-0.03489993;-0.025626114;-0.08786708;-0.11722545;0.03084699;-0.16744553;0.045189068;-0.054088037;-0.07520337;-0.012522307;-0.09637116;-0.06366465;-0.04529502;-0.11430626;0.008995042;-0.021467768;-0.04754843;-0.05934313;0.089917056;0.041064713;-0.07481109;-0.05831358;-0.055188768;-0.029251711;-0.037766606;-0.04915113;-0.07971411;-0.037443046;-0.07027505;-0.06739386;-0.026154766;-0.045800496;-0.0805975;0.07292836;0.06509976;-0.008876106;0.015698886;-0.059219964;-0.065706365;-0.09201588;-0.10095761;-0.02125764;-0.046865996;-0.04751535;0.005121229;0.0040330035;0.009015386;0.042863555;-0.080112316;-0.04566184;0.040040005;0.07462059;-0.08031705;0.032268412;0.013916672;-0.10260533;0.055076875;0.046017703;-0.066903315;-0.10082663;0.041065216;-0.052174278;-0.07938503;-0.07014436;-0.03945393;0.037655547;0.09532374;-0.060348243;-0.09570252;0.096584804;0.048470154;0.11126351;-0.06912494;-0.017088775;-0.026487648;-0.037359864;-0.12917471;-0.051975343;-0.15563665;-0.017059779;-0.0877289;-0.084022306;0.055435784;0.002058656;-0.17990804;-0.20323162;0.056019533;0.01306991;-0.21243896;-0.122788444;-0.051202845;-0.09160103;-0.20123154;0.029833829;-0.040573545;-0.085837685;-0.044465214;-0.106569156;-0.1042161;-0.15016158;-0.07150282;0.05075869;-0.055882353;0.013475391;0.11845652;-0.054148715;-0.038240585;-0.097222954;-0.056793187;-0.014271736;0.18014078;-0.08652257;-0.10214544;-0.11299187;-0.115273066;-0.03780206;-0.039408207;-0.1019916;0.069092155;0.106115654;0.0428376;-0.11227449;-0.08130492;-0.03505882;-0.0004213638;-0.016733263;-0.027022915;-0.12620538;0.08784146;-0.13606717;-0.22748731;-0.0028750042;0.0033803903;-0.057435486;-0.050502528;-0.08848169;-0.092377916;-0.0935894;-0.047474407;0.048575357;-0.101374276;-0.010724754;-0.10051277;-0.070646286;-0.0691175;0.019763062;-0.15416455;0.007615612;0.10647015;0.019804923;0.03613898;-0.0414225;-0.05972422;-0.13168608;0.044647235;0.0045118583;-0.06018948;-0.084844775;-0.09071859;0.0007247166;-0.00014150432;0.01833004;-0.023090834;-0.21893288;-0.103139855;-0.025720583;-0.017155884;-0.08088327;-0.049225867;0.092983074;-0.12111615;0.054420713;0.01956452;-0.07081809;-0.08504172;0.07778726;-0.07537412;-0.040439818;-0.12766957;-0.060837492;0.079758726;-0.09683107;-0.010849718;-0.066963;-0.019817643;-0.05784618;-0.019505441;-0.0017938338;-0.057487305;-0.00085996545;-0.1462116;-0.049581353;-0.032361005;-0.07731467;-0.12126391;-0.08172312;-0.09469764;0.0590852;0.1061954;-0.03973439;-0.1027696;-0.0051531796;-0.1056395;-0.046208538;0.037025366;-0.072067805;-0.01778367;0.072073616;-0.04987326;-0.09217655;-0.043655578;0.042163394;-0.045578383;-0.052717756;0.000110911926;-0.044850938;-0.042748403;0.08385862;-0.1117125;-0.030501137;0.011664085
0.0024400738;-0.06937086;0.0034263805;-0.025720775;0.017516859;-0.0483299;-0.11218234;0.025076985;0.027566243;-0.09769257;-0.11748877;-0.0040927366;0.106648214;-0.07998947;0.047032222;-0.017800264;0.15418673;-0.08014024;-0.039821;-0.06705725;-0.04906211;-0.048480436;-0.07520135;0.04732419;-0.033879038;0.123044424;-0.061392054;-0.09488774;0.054584477;-0.0018916983;0.0027443739;0.008947247;-0.12501888;0.0024614618;0.047654893;-0.022349564;-0.011572078;0.05037046;0.020734865;-0.17023817;-0.057089474;-0.019929407;0.07671458;0.021007614;-0.028356798;-0.09971649;0.04809686;-0.14576209;-0.0091178985;-0.074388996;0.14339389;-0.13455464;-0.03825985;-0.024026612;-0.08242024;-0.008430646;0.04757614;-0.08342307;0.014401516;0.0257064;-0.01880441;0.04592749;-0.055639904;0.064405344;0.058162726;-0.056663517;-0.008426284;0.040630374;-0.105713025;-0.058639083;-0.08140002;-0.071298815;0.017811155;-0.07024747;0.011244696;-0.077293985;-0.07046506;-0.020726599;0.0551376;0.005935947;-0.0019352117;-0.19128472;0.00760942;0.02838084;0.042148367;-0.018180467;-0.12790306;-0.059131324;0.008179127;-0.121576175;-0.04878803;-0.07307681;-0.003990071;-0.038281284;0.08897211;-0.045248948;-0.1492454;-0.02057464;0.012491753;-0.12975477;-0.051016342;-0.08045038;-0.03485152;0.07535766;-0.024370892;-0.07861534;-0.06683607;0.0060016;-0.04732919;-0.06462717;-0.041653253;0.05424051;-0.102512226;-0.028974585;-0.03020033;-0.13811462;-0.024297355;0.017951975;-4.8715745e-05;-0.07139062;-0.016815696;0.03055252;-0.043609824;0.074670255;-0.034974758;-0.019105615;-0.059261955;0.021615136;-0.18214612;-0.042210102;0.20973763;-0.097564034;-0.02248026;-0.030516861;-0.09789718;-0.046958905;0.012658725;-0.095117174;-0.14287406;0.028002245;-0.09032941;-0.066809855;0.010841776;0.22864175;-0.14838338;-0.03160512;-0.11071215;-0.107003026;0.03531529;-0.055164423;0.035545077;0.005287537;0.025108187;-0.082875155;-0.16612199;-0.0028262034;0.014627148;0.059905246;-0.054239582;0.09965788;-0.03510024;0.036756247;0.03241629;-0.042945392;-0.10752499;-0.023468558;-0.15266877;-0.053751443;-0.24517028;-0.0872773;-0.04664616;0.0024223486;-0.05388184;0.06230741;-0.11382426;-0.006756832;-0.09093458;-0.028598621;-0.06260947;-0.0179335;-0.01326255;-0.01458034;0.107440494;-0.11568136;-0.059829906;0.03458423;0.034969788;0.09796805;0.060024787;0.03406092;-0.047873046;-0.108310625;0.008817042;-0.013975432;0.01441303;-0.0909461;-0.15888016;-0.08106213;-0.07996317;0.04195178;0.044403423;-0.07914837;-0.025861755;0.11975314;0.13234508;0.029200155;-0.09447274;-0.06268658;-0.039521467;-0.062320106;-0.04699558;-0.013430733;-0.032129686;0.0014505454;0.10237397;0.0019799063;-0.07294405;-0.015115098;-0.027157545;-0.053148996;-0.1011317;0.03307659;-0.076306984;0.16639043;0.0029852127;-0.14551044;-0.03283563;-0.16844878;-0.054433536;-0.13775545;0.040632088;-0.0050731157;-0.09055723;-0.05968291;0.08775477;-0.0036087648;0.019229213;-0.03117236;0.07615055;-0.083122194;-0.079459876;0.058866568;0.025215251;-0.013823221;0.030214755;0.013437812;-0.00619025;-0.12092619;-0.031019019;0.06522361;0.054672923;-0.037600417;0.015496539;-0.144373;0.0054968456;-0.065751135;-0.11229881;-0.029012939;-0.035155896;-0.047461398;-0.097415656;0.048707813;-0.063837975;-0.041921094;-0.03508398;-0.023191798;0.054082714;-0.10804538;-0.046717376;-0.052455194;-0.12941015;-0.20784195;0.037741043;0.06997142;-0.0019176443;-0.0057964935;-0.123310074;-0.07354963;-0.036568258;0.004249165;-0.21966249;0.013561614;-0.06928687;-0.12752809;-0.044128664;-0.0734771;-0.05672193;-0.12011079;-0.033617493;0.110958725;0.063708745;-0.02446319;0.006577286;-0.026395136;-0.12608796;0.0152468;-0.12326637;-0.0714671;-0.0747362;-0.0032962826;0.034931272;0.10187642;0.05685304;-0.007881946;-0.034592632;-0.014109071;-0.0003416674;0.060846515;-0.037933093;-0.02802837;0.0026269918;-0.008136929;-0.110771425;-0.078162394;-0.0026713049;-0.014422748;-0.06101854;-5.142181e-06;-0.038493965;-0.10898288;0.008908057;-0.19024727;0.059734296;0.041818574;-0.059576496;0.007128074;-0.06446102;-0.07540939;-0.06731166;-0.06523609;-0.07682769;-0.0149268545;-0.102338724;-0.08399585;0.026509274;0.08976789;-0.006209997;-0.08701638;-0.07049445;-0.09728605;-0.0095835505;-0.05571834;-0.020242276;-0.0023292112;-0.05792988;-0.030701319;0.031169409;-0.006279104;-0.12247999;-0.08568677;0.02725258;0.060472224;-0.017772732;-0.12232352;-0.04560433;-0.13144104;-0.03700285;-0.044847127;0.022556525;0.06066918;-0.055870466;0.058644485;-0.1359327;-0.032363262;-0.012692031;0.020621046;0.011642989;0.014405685;-0.16531682;-0.03726889;-0.1427792;0.06260994;-0.0682769;-0.028763922;0.063506916;-0.08593981;-0.05874398;0.067870334;-0.069866955;-0.045141786;-0.11630626;-0.098169975;-0.059023112;-0.1914531;-0.14118338;-0.012480216;0.02848912;-0.024267945;0.02303389;0.03939188;0.046484865;-0.05747393;-0.027594373;-0.01811891;-0.08613826;-0.1285266;0.046811584;-0.058702685;-0.06285137;-0.09587366;-0.08907219;0.0067350008;0.0585383;-0.0014942208;-0.029398855;-0.067260765;0.111486904;-0.065846816;-0.073584095;-0.09006776;-0.1666663;-0.083627984;-0.07459;-0.011829791;-0.00076687895;-0.067299314;-0.036723707;0.060912155;-0.02962778;-0.07130085;0.0525901;0.034608528;-0.11211885;-0.01620405;-0.06085324;-0.013521051;0.09953197;-0.08253385;0.06859774;-0.043208268;-0.036919583;-0.05027715;-0.097514994;-0.072995685;-0.08678185;-0.063261636;-0.09400801;0.04679201;-0.07450237;-0.04499259;-0.056012705;0.043760266;0.04875782;-0.16579856;0.014330879;-0.12039989;0.011425043;-0.21715808;-0.044394642;-0.01765659;0.06628638;0.048623003;-0.020645462;0.021116609;-0.21687686;-0.087136775;-0.051322095;-0.062268786;-0.035666965;0.12262062;-0.17302637;-0.103116795;-0.048273113;0.044775162;-0.06805061;0.13024707;0.03327743;-0.1298695;-0.011591057;-0.08662543;-0.004060502;0.118180275;-0.09733834;0.12399121;0.10346303;0.02948647;-0.06208163;-0.14605302;-0.034292635;-0.0071011693;-0.10800416;-0.017987454;-0.027303118;-0.038592473;-0.14924629;-0.13425875;0.04745381;-0.019971542;-0.13150851;-0.089683965;-0.10043546;0.025502382;-0.0050655906;0.02407986;0.07888799;-0.0612768;0.10194384;0.014918203;-0.10161221;-0.06149629;-0.09611512;-0.09712945;0.091079384;0.105390154;-0.04998814;-0.02208923;0.026030933;-0.0036204222;-0.114499286;-0.05200975;-0.08783275;-0.12090191;-0.100150466;0.0015246081;-0.010638122;-0.0162823;-0.04588083;-0.03619818;-0.19852239;-0.08431309;0.10283586;0.07480459;-0.0015118762;0.042249102;-0.019692117;-0.0061958646;-0.051496334;-0.09361632;-0.11868454;0.012413771;0.11196431;-0.03374981;-0.07358441;-0.2618919;-0.031630192;0.09254096;-0.0946841;-0.14966908;0.06927585;0.0008830014;-0.18377042;-0.062025756;0.056460477;-0.1329604;-0.06547399;-0.018207755;-0.086132005;0.06865224;0.054942034;-0.011523822;-0.08591494;-0.049509406;0.04000546;0.10507417;0.0070223887;0.03913915;-0.17478508;-0.11925021;-0.06998349;-0.06888441;-0.08111655;0.0077561936;0.20154078;0.03789232;0.0054534767;0.01825773;-0.088749155;0.0005542077;0.03133603;-0.068865515;-1.6375796e-05;-0.085475996;0.15809382;0.033092555;-0.0015388497;-0.099669084
0.007323175;-0.02957928;0.055697057;-0.048195284;-0.08307165;0.053091686;-0.14915007;-0.032490898;0.04856221;-0.054136347;0.01144719;-0.060277224;0.109402254;0.034306668;0.04086794;0.0118684415;0.07647909;-0.10596786;-0.04366074;-0.08289187;-0.037985444;-0.03092414;-0.061506465;-0.023156645;0.015716419;0.08839087;-0.05790029;-0.07532087;-0.053823527;0.08212312;-0.0616328;0.020663794;-0.02235543;0.013666105;-0.065805964;-0.022833752;0.021537626;0.059729505;0.033639926;-0.104141764;0.00943428;0.0050557507;-0.044400662;-0.109547496;-0.11819833;-0.004101475;0.0469762;-0.14383118;-0.038436487;-0.021395806;0.11198997;-0.05243122;-0.11557867;-0.073065974;-0.08896019;-0.016888361;-0.006018903;-0.1211462;-0.018291548;-0.000925529;0.051018093;-0.051078044;-0.06343095;0.06038366;0.0016810308;-0.16351387;-0.02589663;0.030182308;-0.14096537;-0.120024815;0.048684064;-0.06017824;-0.08596414;-0.04903023;-0.020231914;0.01209622;0.015209934;0.061964083;0.029197317;-0.097727396;-0.049423695;-0.10966415;-0.043859698;-0.020459855;-0.08240376;-0.084704064;-0.04476103;-0.0035749637;-0.07921156;-0.16928361;0.023619464;-0.17240936;0.006084484;-0.020679554;0.12273859;0.03400417;-0.07043521;0.12365898;-0.008569021;-0.05988994;0.026787346;-0.06492308;-0.048326753;0.073011175;-0.12086532;-0.013724081;-0.0034212605;-0.013706174;-0.0026541736;-0.047626786;-0.13270484;-0.035352673;-0.15760204;-0.010530911;-0.108756416;-0.12001693;-0.1031419;-0.09561186;-0.017918568;-0.09051259;-0.025234539;-0.008325924;-0.12326617;0.07398079;-0.0629407;-0.0731107;0.0071117724;0.056723207;-0.24995129;0.0709648;0.19498347;-0.03030056;0.010087597;-0.064524464;-0.061311703;-0.119750306;-0.0040139765;-0.028267205;-0.105242044;-0.10658752;0.0343957;0.02663149;0.083508514;0.20581044;-0.07740719;0.011814913;-0.07663948;-0.060189825;-0.043464992;0.05390094;0.04012386;-0.06037289;0.007942384;-0.07426388;-0.13801996;0.0022991733;0.0055730157;-0.08739948;-0.106671266;0.04946288;-0.064563826;0.009787008;0.056968175;-0.17904255;-0.00600164;0.13043457;-0.061903596;-0.10104705;-0.23890021;-0.019576723;0.041408125;0.018971734;-0.1113096;-0.01708322;-0.023146478;0.007404072;0.027494019;0.018650973;0.03234522;0.024847854;-0.04615469;-0.06971781;0.03046022;-0.07125463;0.05412747;-0.063690595;-0.06690081;0.13541462;0.026644466;-0.043268837;0.01702427;0.011804339;0.015789213;0.038771935;0.078589335;0.0005238608;-0.006366327;-0.0979836;-0.17171507;0.030840011;0.02673775;-0.101255976;0.032694012;0.06518969;0.16398579;-0.0892744;-0.012498659;-0.07026635;0.004028905;-0.08508129;-0.08577189;0.083421566;-0.009844619;0.025555778;-0.034686625;-0.11355779;-0.07670857;0.059210405;-0.0786396;-0.033306364;-0.033412762;0.03198637;-0.015507923;0.16915812;0.025895393;-0.10730518;-0.04059901;-0.10060485;-0.1057213;-0.10987817;0.033214044;-0.09777602;-0.05202743;-0.08654042;0.01756287;0.01028418;-0.12764066;0.006295752;0.019411745;-0.055024046;-0.13253163;0.021886207;-0.05646142;-0.13612571;0.0603008;0.010663329;-0.054598335;-0.14896017;-0.11778999;-0.015151808;0.03700964;0.018809842;-0.08179163;-0.13693982;-0.06550981;0.026390554;-0.082305804;-0.04611669;0.024385124;-0.013097225;-0.007869422;0.106497206;-0.026824484;-0.015288096;0.02011456;0.0621367;0.046624716;-0.099813305;0.04267838;0.0018804917;-0.050193176;-0.07138001;-0.07397795;0.026911667;0.015788442;-0.066241376;-0.04901699;-0.15207729;-0.07270019;0.010151949;-0.23325366;0.059885062;-0.056839984;-0.049411267;-0.07718271;-0.13255948;-0.11964138;0.013215649;-0.09975176;-0.034050595;0.06099898;0.009821371;-0.022975024;-0.04759285;-0.058154956;0.0845854;-0.057944022;0.071542576;-0.080475695;-0.0007261549;-0.121639594;0.020678552;-0.044504307;-0.035848193;-0.12750539;0.10253927;0.0138124535;0.0023777627;0.050586004;-0.058488958;-0.07798642;0.021614112;-0.02679428;-0.054085486;-0.061159164;-0.013064141;-0.115599915;0.0031417129;-0.07769723;-0.21169658;0.04565749;-0.12837884;-0.054032784;0.027799135;0.023533056;-0.0725543;-0.12380364;-0.14363575;-0.09093791;-0.0600423;-0.05941481;-0.012243102;-0.17623968;-0.05704946;-0.04036977;0.07230274;0.02145014;-0.049626265;-0.05120991;-0.10435263;-0.08344204;0.008554131;-0.08634299;-0.09448041;-0.101583846;0.016116949;0.028237265;0.0018486487;-0.073006675;-0.07043285;-0.078856796;0.08119901;-0.09156911;-0.023662305;-0.012545178;-0.11219916;0.068038695;-0.008295311;0.03750481;0.04937294;-0.11948435;-0.055177316;-0.013941343;-0.12825486;0.025940211;-0.10190004;-0.04796077;-0.03581941;-0.07710265;0.035179425;-0.15246604;-0.05820484;-0.0078047765;-0.008353219;0.027146203;-0.09934791;0.02161861;-0.03526513;-0.07086081;-0.03351777;-0.046201628;-0.025095226;-0.0009036219;-0.07842514;-0.00053501234;-0.044001114;-0.06478287;0.03330647;0.039012507;-0.0056631234;0.00771462;0.092365235;-0.09611144;-0.10926112;-0.08625357;-0.17767476;-0.08494566;-0.07655593;-0.0045257863;-0.087813556;-0.027349573;-0.05350151;-0.015744284;-0.05975668;0.04499604;-0.093212724;0.10853173;-0.12443064;-0.009736801;-0.050163414;-0.059037637;-0.049966052;-0.010099799;-0.07678557;-0.0666388;-0.059774123;0.053582303;-0.05794648;-0.0967481;-0.10172401;-0.105636485;-0.07125187;-0.11464754;-0.045968622;-0.05012695;-0.08540209;0.07402623;-0.03174644;0.080594;-0.045059256;0.0349527;-0.09789444;-0.043395456;-0.04440116;-0.118703224;-0.09247923;0.02784612;0.01395741;-0.11569232;-0.120362125;-0.06346754;0.12171477;-0.06259549;-0.06259828;0.0007559743;-0.037175905;-0.09703209;-0.18672417;-0.11981109;0.03410153;0.03218643;-0.03880449;-0.013284542;0.00422068;-0.10296635;-0.10382425;-0.05293164;-0.1873997;-0.06327856;0.032375462;-0.020187618;-0.02418721;-0.0333625;-0.035899643;0.005327438;0.15482761;-0.035552543;0.010850111;0.006334534;-0.12593715;-0.031691156;0.08705462;-0.022658817;0.09339848;0.011497217;0.06935222;-0.09201116;-0.04296246;-0.046595152;-0.06913116;-0.09135406;0.008991192;-0.079698406;0.03351509;-0.13734557;-0.18282302;-0.045775156;-0.051546823;-0.16081452;0.014303491;-0.11687782;0.028262231;0.03797919;-0.077401966;0.016794123;-0.010160772;-0.00086747634;-0.052309066;-0.035637666;-0.11906662;-0.031918347;-0.08022882;0.03063092;0.031755585;0.0057773977;-0.053438045;0.07234199;0.003978585;-0.21641865;0.06236063;-0.06959884;-0.09683523;-0.10984182;-0.080659546;-0.01727909;0.013938775;-0.028986178;0.045269623;-0.12264334;-0.11173946;0.05626845;-0.027116725;-0.06159125;0.08877951;0.06488287;-0.03736149;-0.039387632;-0.065123335;-0.047172885;-0.06228799;0.13163349;-0.013856889;-0.046722814;-0.2095695;0.0022699335;0.12175172;-0.004042505;-0.075757876;0.007438735;-0.060296375;-0.088776395;-0.060074154;-0.021147937;-0.10506862;0.04268387;-0.044096734;-0.09849064;-0.06711868;0.012696511;-0.058046855;-0.09947679;-0.12523028;0.057469852;0.10760492;0.05107228;0.012015413;-0.1260713;-0.1093516;-0.008526346;-0.057033163;-0.14298108;-0.017257717;0.08734738;0.018674068;0.043922413;-0.06373465;-0.011192967;0.009817965;0.04747698;-0.0406618;-0.12618107;0.009145455;0.17732456;-0.10742325;-0.02522955;-0.023341913
-0.014600343;-0.10149314;-0.05212501;-0.024289567;0.015056317;-0.0008740224;-0.15826641;-0.105074316;0.04370049;-0.0643105;-0.11691541;-0.10152847;0.07720582;0.039421704;0.053905874;0.019603001;0.23338656;-0.032375276;0.04520379;-0.086781666;-0.07282814;-0.034465153;-0.045625024;-0.05738467;-0.121329874;0.082367435;-0.13740768;-0.1721502;-0.029953942;0.064617194;-0.07193542;-0.020981025;-0.07578761;-0.030316671;-0.05299643;-0.04747257;0.053219028;0.059590228;0.03518224;-0.029691515;-0.02530243;-0.029350312;0.042341277;0.04643595;-0.11876775;-0.09631542;0.03968752;-0.068966635;-0.10372349;-2.7496288e-05;0.15197386;-0.10436248;-0.08052559;0.05114969;-0.0057628127;-0.052923147;0.078102455;-0.14439332;-0.09002104;-0.05372578;-0.09784903;0.046346303;0.03795535;-0.0074247727;0.059125036;-0.070380926;0.067237325;0.016263854;-0.15103815;-0.11082264;-0.019447308;0.06641044;0.04713496;0.023530284;0.019275824;-0.0434503;0.06452652;0.071887724;-0.061756946;-0.082855426;-0.043024037;-0.10003731;-0.01825924;0.078463204;-0.054119404;-0.10101587;-0.05893895;-0.08482211;0.04762412;-0.12767412;-0.09533411;-0.09335296;0.056276638;-0.09960019;0.13749732;-0.0056719193;-0.10987718;-0.027364843;-0.04555206;-0.099807285;-0.07737706;0.033678804;-0.061501455;0.22535399;-0.10580312;-0.12378166;-0.03228142;0.07522789;-0.13035524;-0.023480874;-0.0095213195;0.05175133;-0.2204864;-0.036799986;-0.06498714;-0.081022166;0.021845143;0.055995855;-0.07857347;0.03011159;-0.08160827;-0.03086358;-0.1017808;-0.027353765;-0.028864836;-0.053377505;-0.003933194;0.054079205;-0.17775986;0.010674232;0.22390687;-0.0510021;0.0053029954;0.05811523;-0.20065373;0.003097497;-0.058692347;-0.0027353065;-0.08433421;-0.10989936;-0.06730747;0.0026862852;0.038508248;0.16772059;-0.09363631;-0.020153407;-0.105786294;-0.12342187;-0.07807093;0.03388842;0.054866817;-0.10624205;-0.083585024;-0.0786531;-0.20517844;-0.11268395;-0.10957871;-0.04670341;-0.037474547;-0.012360666;-0.08542209;-0.07564651;-0.025030801;-0.07785867;-0.030358197;-0.03256763;-0.13785519;-0.0732906;-0.1619764;0.022221003;-0.038452562;-0.08667501;-0.090401545;0.036450353;-0.030884456;-0.026853068;-0.022007812;-0.07967871;0.032416414;0.014739833;-0.100836255;-0.029782634;0.093564;-0.100071356;-0.07068073;-0.04886731;-0.09487452;0.038441736;-0.027207058;0.043993566;0.047043856;-0.09886354;-0.03510171;-0.10395227;0.00050991814;-0.06598891;-0.08083722;-0.06443564;-0.16954832;0.00870278;0.045623936;-0.0294881;0.046507325;0.058876805;0.083633974;0.017604407;0.03752815;-0.090633735;-0.000228851;0.06715168;-0.06545644;-0.018508261;-0.12759465;0.066679955;-0.09090959;-0.045852948;-0.19189274;-0.07292671;-0.06754836;-0.072865605;-0.15180106;-0.013980375;-8.571507e-05;0.078269795;0.039413966;-0.11442396;-0.021000732;-0.10577937;-0.08534838;-0.014188966;0.013774977;-0.10992777;-0.080134675;0.04320304;0.09947275;-0.012232558;-0.07425456;0.029201727;0.043316342;-0.08055591;-0.073176526;0.060427237;0.012754143;-0.039266888;-0.015027374;-0.10287699;0.0077105975;-0.053760085;0.03711504;0.114430174;-0.0055175913;-0.06804233;-0.0323877;-0.18525992;-0.020984964;-0.049125817;-0.06598237;-0.13098593;0.029995738;-0.11580944;-0.11497373;0.027788758;-0.035211693;-0.049260523;0.052842986;0.02841045;-0.009370907;-0.13800642;-0.044340566;-0.0065334337;-0.10685699;-0.13382852;0.0020343896;0.005848379;-0.080788076;0.011720755;-0.0034835304;-0.07906304;-0.114075415;-0.015185147;-0.22743967;-0.09497296;-0.08522431;-0.0937821;-0.028129969;-0.04116089;-0.025594134;0.008346604;0.0018173336;0.10561648;0.05467149;-0.021968292;-0.011048643;0.064207025;-0.14972901;-0.0028222844;-0.055316877;0.01448469;-0.07848053;0.042453248;-0.06883473;0.11596013;-0.008339845;-0.052035987;-0.10874754;0.07207401;0.008913117;0.052671965;-0.033751078;-0.006702932;-0.0650685;0.110789105;0.036800727;0.043561097;-0.07667262;0.028556064;-0.13098833;-0.039635535;-0.07327012;-0.22260188;-0.012412875;-0.12196454;-0.04065273;0.021628173;-0.047467064;-0.0537984;-0.12637919;0.0137635255;-0.09371607;0.045773298;-0.09738038;-0.08530191;-0.18236801;-0.039835386;-0.014068906;-0.0056656115;0.047566053;0.02510847;0.029338382;0.013963686;-0.07804751;-0.12124059;-0.12842113;-0.050214432;-0.107952416;-0.02115973;0.0045401775;-0.11566033;-0.15169173;-0.05697479;-0.00258194;0.06738241;-0.038806632;0.035728358;-0.08605968;-0.08789592;-0.005859115;-0.06951053;0.054066837;0.067332014;-0.07023303;0.021205833;0.008652237;-0.05419927;-0.06267927;-0.10074561;-0.021977568;-0.0122433035;-0.10899743;-0.07722569;-0.1152647;0.08201397;-0.001667225;-0.048924807;0.0043863207;-0.06667362;-0.05405463;-0.07430609;-0.0267796;0.108738266;-0.062192746;-0.011212854;-0.043651138;-0.1065425;-0.13441034;-0.060432762;-0.059748046;-0.079453595;0.06512348;0.010646737;0.009825602;0.08562515;-0.040147025;-0.07541668;-0.049357552;-0.24230257;0.026413932;-0.04819874;0.025064362;-0.0214724;0.012154389;-0.0555442;0.045961544;-0.050328366;0.058856927;0.0036708869;0.16973428;-0.079650275;0.003842745;0.008471261;-0.19090655;-0.014279408;0.025646906;-0.036208764;-0.03053014;-0.09921085;0.026518472;0.0342904;0.012867797;-0.102316454;-0.033070546;0.008841818;-0.11335292;-0.006833042;0.013323925;0.045463614;0.0961498;0.0011005305;0.022523498;0.045524534;-0.087167874;-0.09943086;-0.015148962;-0.07696516;-0.09912306;-0.029337723;-0.07546743;-0.009124069;-0.09766849;-0.1042465;-0.17421313;0.06103334;-0.053796377;-0.13717492;-0.04986037;-0.010715508;-0.06947136;-0.097739175;-0.0028573482;-0.007682259;0.05160167;0.090963766;0.010049989;0.041653592;-0.20813815;-0.12551917;0.050465927;-0.17455569;0.006986987;0.031515367;-0.06593717;-0.017055335;-0.013469736;0.05111524;0.038741987;0.056815546;-0.10376289;-0.06460728;-0.024380947;-0.15506315;-0.010074914;0.031371355;-0.1190155;0.10761372;0.028250044;-0.05147963;0.01898986;-0.03937779;-0.15339993;-0.08710292;-0.056569785;-0.010302192;-0.02030105;0.09302857;-0.15772721;-0.26927277;-0.095033064;-0.040318564;-0.09849686;0.015449218;-0.039645165;-0.050516766;0.026626166;-0.092379935;-0.0017436821;0.05683421;0.036166977;-0.011577544;-0.026282163;-0.09712878;-0.06533299;-0.039514143;0.07749754;0.037776377;0.0016218628;-0.043640465;0.06980002;-0.022251442;-0.17347579;0.0674367;-0.12870131;-0.07330362;-0.085298516;0.034951024;-0.017475635;-0.012534146;0.12098275;0.040794216;-0.24791837;-0.048623733;0.009004712;0.07966715;0.0032177775;0.115179576;0.1473762;0.032404028;0.0121251745;0.013642182;-0.04741824;-0.015620446;0.1019121;0.044420596;-0.02752578;-0.15443671;-0.0414676;0.07728751;-0.019334719;-0.14954476;-0.05506676;-0.00067598757;-0.22712901;0.012123812;0.09268031;-0.0801518;0.06997432;-0.037607417;0.026592154;-0.03310636;-0.05835188;-0.048712388;-0.043023445;-0.09443442;-0.0110064205;0.21488325;0.010477929;0.06460374;-0.012791118;-0.07304403;-0.11053949;0.045675665;-0.14816296;-0.09812678;0.11096707;0.033297308;-0.0899724;-0.0133997025;0.05906952;-0.03174068;-0.053767953;-0.061778028;-0.13351098;-0.028037;0.1552045;-0.0071180086;-0.06701782;0.026881337
0.025157433;-0.09963686;-0.00045351597;-0.10132238;-0.035605755;-0.0365439;-0.09215546;-0.09046358;-0.060660366;-0.08246929;-0.095524505;0.0052080723;-0.030432642;-0.012626505;0.05953767;-0.01650664;0.1798261;0.021858694;-0.0910054;-0.049610585;-0.11119373;-0.12538883;0.0232143;0.048965488;0.0112386625;0.117151186;-0.041009635;-0.17715198;-0.07723804;0.0044095125;-0.09740508;-0.04948727;-0.111355655;0.04521836;0.057618488;-0.05418931;-0.011140974;0.15659627;-0.036673672;-0.028320575;-0.030127479;0.027360734;0.041928165;-0.01746634;-0.03661401;0.0144826155;-0.05645718;-0.008897222;0.021498343;-0.061758965;0.13574369;-0.1854978;-0.013554331;-0.08357614;-0.08707489;-0.0029058994;0.04486543;-0.13796896;-0.03535863;-0.059837215;0.047548693;0.06269925;-0.084020816;0.12019633;0.07894403;-0.13835917;0.08105997;-0.07413565;-0.124422364;-0.08640855;-0.10267956;-0.0041547115;-0.020032981;-0.08592105;-0.09919625;-0.008210361;-0.05170241;-0.06439151;-0.08518042;-0.096358985;0.0706504;-0.118832625;-0.02904486;-0.011283382;-0.061410062;-0.1068222;-0.08657998;0.038395353;0.07700877;-0.19417246;-0.061004773;-0.16524947;0.005651867;-0.13825014;0.14036463;-0.032377943;-0.15315542;-0.0013608565;0.030733295;-0.026971016;-0.025688453;0.019168446;0.03862403;0.20815729;-0.12989374;-0.027943349;0.027336957;0.07635536;-0.10981139;-0.08100738;-0.11190988;0.035156325;-0.20143422;-0.007126441;-0.116276816;-0.11186418;-0.038142752;0.005340469;-0.012953551;-0.040610783;-0.067355685;-0.042757016;-0.13320614;-0.013111516;0.012804095;-0.035157926;-0.08126125;0.07312338;-0.24463151;0.047833998;0.12316629;-0.092708215;-0.051952686;-0.0015975263;-0.13700846;-0.041342553;0.03350095;0.021868091;-0.14753816;-0.0011411753;-0.08340122;-0.018567625;-0.03645027;0.11613409;-0.15163101;-0.06726113;-0.17606641;-0.05657046;-0.058696195;0.022556534;0.022245359;0.0038863092;0.063549355;-0.15973365;-0.10164575;-0.08661635;-0.13718495;0.0034999289;-0.053410552;0.104979716;-0.016606873;-0.017017733;-0.021199845;-0.13604967;0.031233;0.09004073;-0.029256878;0.011263754;-0.18282104;-0.008444609;-0.013797625;-0.0044523696;-0.06109603;-0.04357786;-0.14617924;-0.008291697;0.013846921;-0.06611209;0.0018828388;0.014095333;0.0060253767;-0.025403455;0.15088357;-0.11441681;0.00458043;-0.062098734;-0.03126713;0.022965737;0.09395752;0.038468137;-0.036847375;-0.00030967186;-0.02828842;0.027117284;-0.009416781;0.033882383;-0.0072196415;-0.17632051;-0.16361384;-0.09927887;0.032227945;-0.07683941;0.036875434;0.12337587;0.16677034;0.007974863;0.053184494;-0.04578538;-0.078143544;-0.07841359;-0.013651531;-0.0214755;-0.004241495;-0.05230147;0.07577338;-0.101505525;-0.15054663;-0.032954577;0.026640946;-0.0015339414;-0.076514535;-0.06616568;-0.13276389;0.20036837;0.03356458;-0.22115321;0.004845962;-0.15139903;-0.10938645;-0.13862024;0.051213544;-0.04115038;-0.01583827;-0.07016192;0.0014600352;0.02236347;-0.06823537;-0.006686165;0.015641559;-0.08180929;-0.0506432;-0.09775531;-0.089361556;-0.023250796;-0.06195564;0.008334507;0.08470843;-0.10904708;0.023543201;0.06582924;-0.03347499;0.007864365;-0.07929203;-0.12523077;-0.023767838;-0.009086115;-0.034653682;-0.13968536;-0.008740089;-0.07117732;-0.10745575;0.072783984;0.032056905;-0.041247137;0.021525538;0.074892536;0.061610352;-0.105433606;-0.023086121;-0.08548074;-0.13268633;-0.15210964;-0.04178897;-0.039773438;-0.10536337;-0.03350277;0.016448762;-0.063258395;-0.081721686;0.031527884;-0.21403924;-0.06322485;-0.06797999;-0.0035967852;-0.07178853;-0.1334242;-0.08028389;-0.13213655;-0.0338137;0.0719118;0.034416422;-0.089097336;-0.07879149;-0.025770048;-0.12098757;-0.047249667;0.026900839;0.014314209;0.006790164;0.029927505;-0.09960479;-0.022238245;0.041604128;0.025733544;-0.106808074;0.13032325;0.010845959;0.14746252;-0.04601729;-0.033949092;0.03612494;0.13900438;-0.042105835;0.031391703;0.0037291963;-0.10882098;-0.103776686;-0.09213447;-0.18837984;-0.14003135;-0.07859179;-0.0731597;-0.00894978;0.017606605;-0.031154085;0.019575713;-0.1458469;-0.002591974;0.009694804;0.06675006;-0.007899273;-0.04090916;-0.083263755;-0.086159386;-0.017048713;0.08646611;0.010855774;0.015346466;-0.011263021;-0.11820602;-0.032347597;-0.06971796;-0.02707207;-0.008496466;0.022882214;-0.016940763;-0.07947067;-0.105955936;-0.06257479;-0.06691353;0.094606586;0.08828534;-0.10149447;-0.055103082;0.01360964;-0.14083853;0.06042538;0.057683345;-0.052500013;-0.008991079;-0.105356544;-0.06699103;-0.13300607;1.8556122e-05;0.023770317;-0.093321666;-0.012064978;0.04312563;-0.12592804;-0.019521857;-0.10012633;0.08076702;0.07671716;0.10183224;-0.06342574;-0.03138768;-0.01681578;-0.01361171;-0.04332024;-0.00060600543;-0.070949204;0.0019280746;0.059121292;-0.20797929;-0.15173155;0.02420215;0.054242596;0.011022265;-0.016969414;0.024495753;-0.038605914;0.024736963;0.028785158;0.02518638;-0.07661172;-0.13749394;-0.08765192;-0.00063748367;-0.041671842;-0.13087432;-0.04156177;-0.013805056;-0.06946454;0.005822927;0.044136047;0.005662351;0.23565488;0.009175841;-0.005609592;0.021262001;-0.09898515;-0.014622611;-0.0625229;0.007461964;-0.09365005;-0.011324497;-0.06768484;-0.026834764;-0.13921179;0.033292133;0.0019302972;-0.023495;-0.06771646;-0.124993;-0.04353353;0.068410896;0.054331213;-0.019092873;0.06562351;-0.09661938;0.028613241;-0.04215155;-0.011888545;-0.13359915;0.016650746;0.0004888269;0.012590847;-0.053842396;0.04201559;-0.15318364;-0.20343;0.08879889;0.040001363;-0.15072007;-0.09679677;-0.033522796;-0.036188524;-0.07687562;0.029381013;-0.103359744;0.054036096;0.09267246;-0.02000472;-0.007403164;-0.12781768;-0.0963345;-0.07798485;-0.15878713;-0.023521671;0.14490515;-0.031643268;-0.14439037;0.0706917;0.0346252;-0.04240085;0.045340057;-0.1273076;-0.047286358;-0.030260338;-0.101775765;0.019900888;0.014596067;0.02907411;0.1398239;0.12734452;-0.004864448;-0.083089195;-0.10783219;-0.015863843;0.026881937;-0.17340386;-0.10931658;-0.07718986;0.037453696;-0.18899126;-0.18393584;0.0038450146;-0.04908597;-0.086384214;-0.080921225;-0.10477283;0.008299195;-0.049712047;-0.08240818;0.05474404;-0.052213054;-0.0448355;-0.006640685;-0.05981139;0.019670164;0.03754862;-0.12321329;0.06015258;0.03486928;-0.008204905;-0.09715635;0.006655292;-0.11062055;-0.1134408;0.025728997;-0.048882693;-0.14767563;-0.1095922;0.038749225;-0.030760953;-0.054895304;0.11842421;-0.07201735;-0.2123733;-0.014511062;0.08883348;-0.021975042;0.03905272;0.051924564;-0.005682023;0.013148196;-0.033264574;-0.08744339;-0.11735924;0.044237573;-0.006245694;-0.042737562;0.009451594;-0.1973164;0.019640863;0.02779549;0.048871167;-0.12253467;0.052593116;-0.06035286;-0.14030416;0.04560222;0.13031745;-0.10829704;0.008217708;-0.13812245;-0.041057445;-0.0013093437;-0.03495639;-0.087954804;-0.040798776;-0.03505959;-0.00056473183;0.065296054;0.052087247;-0.05665717;-0.13576509;0.02427071;-0.118335;-0.024931682;-0.03807851;0.0422931;0.06577393;0.013026642;0.013040093;-0.09511557;-0.008297047;0.021944933;-0.06844123;-0.0713318;-0.0014849275;-0.049021218;0.123627715;-0.0198801;-0.072750784;-0.040333714
-0.06554836;-0.07564015;-0.10048604;-0.1394185;-0.0887466;0.029745657;-0.10386435;-0.017578091;-0.028817173;-0.14733876;-0.011281079;-0.08943032;-0.063099116;0.011442249;-0.0014735425;0.0798265;0.13753195;-0.09123611;0.030900728;-0.0700645;-0.01967646;0.011813842;-0.007017615;0.09851873;-0.105935946;-0.02364162;-0.09490187;-0.1485571;-0.011043833;0.024158219;-0.047738798;-0.027130824;-0.10940288;-0.01119963;-0.07885117;-0.11402203;-0.103978805;0.103688076;-0.0062197996;-0.09874386;-0.015178001;-0.008016218;0.0054213903;-0.09544388;-0.0006263589;-0.03654736;-0.0049972665;0.002644964;-0.030485515;-0.08675838;0.003076984;-0.10762307;0.025657827;-0.04726712;0.0004934053;-0.06833323;-0.019214777;-0.15614544;-0.096505776;0.04605308;0.0311816;0.032588027;-0.014288306;0.12901823;-0.02809635;-0.14226918;-0.05998226;-0.08446304;-0.0052112956;-0.06969129;-0.09659974;-0.05310957;-0.08654235;0.022080677;-0.1400712;0.010204129;-0.09404635;0.010665003;0.04651095;-0.11878566;-0.00017347925;-0.10966406;-0.06289332;0.052833874;0.09047528;0.019455938;-0.069423;-0.08327386;-0.04941843;-0.12542522;-0.018439325;-0.057892434;0.030085012;-0.0923658;0.14328308;0.0024319454;-0.16284508;-0.018793209;0.032572567;-0.04789159;0.04036857;-0.11768134;0.058052484;0.1608125;-0.07401893;-0.11513732;-0.024175782;-0.021534866;-0.071449555;-0.07455325;-0.041343093;-0.08863384;-0.09461405;-0.0733107;-0.007998724;-0.13600662;-0.037869908;-0.027905153;0.016215486;-0.0902049;0.037575237;-0.043184996;-0.054503433;-0.05440535;-0.13350995;-0.033369433;-0.060498305;-0.05495751;-0.16483328;-0.038545642;0.22051173;0.012782187;0.06721726;-0.042403877;-0.11076249;-0.10743777;-0.03397744;-0.04641085;-0.054240014;0.0056922752;0.024617197;-0.11238169;0.06367558;0.12334985;-0.0627734;0.0359323;-0.06685876;-0.16634624;0.013224534;0.047686066;0.079557955;-0.006445947;0.0349801;-0.07637233;-0.08226999;-0.062184468;-0.1062841;0.082456134;-0.11441938;-0.0025060205;0.029381234;0.026847009;0.08701979;-0.106298305;0.0002321943;0.09308595;-0.06744975;0.013473587;-0.11304817;-0.0019075057;-0.06369811;-0.046879172;-0.08853666;-0.008350456;-0.124693505;-0.12518461;0.043507192;-0.011171098;-0.033329215;0.020140309;-0.044586692;-0.06789841;0.10653268;-0.13870357;0.02694924;0.05755021;-0.03580031;0.04239805;-0.013035619;-0.023084652;-0.00045574058;-0.09890354;0.032560833;-0.04627128;-0.015746692;-0.004449291;-0.07349125;-0.06669127;-0.0910358;-0.020152865;0.038204923;-0.024461947;-0.03047164;0.052783746;0.12991408;0.0034239395;-0.041793592;-0.10728725;0.011189422;-0.08156588;-0.021338934;-0.08117402;0.02598121;-0.05207838;0.011302882;-0.07199653;-0.10350436;-0.071264684;-0.06913099;-0.006648155;-0.08345812;0.006874513;0.013816734;0.16442634;-0.0022787068;-0.1278366;-0.036325246;-0.06694218;0.032195486;-0.14875469;0.051871512;-0.08613886;-0.08961439;-0.065690145;-0.047498412;0.008944356;0.012792749;-0.07915891;0.060725562;-0.11149062;-0.130636;0.036437977;-0.08828062;-0.10529569;-0.08415439;-0.07030721;-0.025134176;-0.14334363;-0.02899226;0.030802608;-0.022839285;0.0015846025;-0.058064774;-0.040586878;-0.09114497;-0.07080503;-0.017512105;-0.16970764;-0.029141473;0.002060898;0.0032285189;0.09059497;0.0375319;-0.07873457;-0.017886886;0.018816572;0.11865827;-0.045295205;0.0682464;-0.09505208;-0.07308659;-0.13489091;-0.09825279;-0.042431545;0.021963924;-0.1086207;-0.02074359;-0.048178528;-0.12307221;0.062452704;-0.12758389;0.023557864;-0.06546937;0.006152725;-0.08272953;-0.0500799;-0.15616345;0.00940146;-0.089146376;0.07818129;-0.048720088;-0.012998365;-0.11328967;0.052461676;-0.15099895;0.017442131;0.02880227;-0.030151913;0.013338027;0.0059913453;-0.14897001;-0.014083148;0.045238763;0.047069885;-0.11322255;0.027017478;-0.050947517;0.013412705;0.052719798;-0.0941371;-0.07902693;0.14028277;0.033912156;0.03424933;-0.10229271;-0.055127684;-0.0871226;-0.01149925;-0.047526404;-0.13346316;-0.037743922;-0.13805577;0.0062729684;-0.07205153;-0.029725444;0.024872672;-0.047065295;-0.098984264;0.034547124;0.012667174;0.0572922;0.056972023;-0.10247954;-0.046517894;-0.052211694;-0.0048524393;-0.03056474;0.018417258;0.013746062;-0.009248309;-0.05536028;-0.093907274;-0.12069809;0.019858185;0.040020242;0.01441223;0.044864062;0.02260986;-0.15660758;-0.039239183;0.032401513;0.032162555;0.03408682;-0.03797622;0.050216068;-0.087306626;0.099748135;-0.026613772;0.03115781;-0.012436233;-0.17127171;0.063569814;0.0051954263;-0.01919462;-0.09445883;-0.0136376135;-0.072648555;-0.07472752;-0.18410774;0.05447378;-0.062311776;0.05026358;-0.005707793;0.06402209;0.030258052;-0.061269764;-0.09355044;0.035168406;-0.109738745;0.038689148;-0.05268252;-0.12003458;-0.019039707;-0.09981149;-0.13873963;-0.056203697;0.03216961;0.011289239;-0.039689135;-0.0014700528;-0.01166792;0.0103227515;-0.010716488;-0.12271024;-0.11161272;-0.1476304;-0.04677836;-0.06004395;-0.03494761;-0.0766614;0.017741675;-0.014248373;0.05485477;-0.01801977;0.04528247;0.0401989;0.1984737;-0.12858538;0.019050032;-0.0274405;-0.09715432;-0.058845;-0.071807556;0.053379983;0.05851435;-0.055435754;-0.05845783;-0.0275633;-0.12824853;0.009597199;0.009276333;0.02479368;0.039399255;-0.091600284;0.050072044;-0.0147772515;0.079904325;-0.09211285;0.004863411;0.043576505;-0.09803723;-0.059917264;-0.033569343;-0.016269302;-0.018319162;-0.02748074;0.0112603875;-0.023280531;0.009600087;-0.10193098;-0.046983805;0.023164822;-0.10285767;-0.18484052;-0.09386985;-0.113588676;0.036413565;-0.14713825;0.019202521;0.036751416;-0.040269945;0.04883855;-0.11721028;0.015108806;-0.16496865;-0.15970263;-0.045788214;-0.19841792;-0.010788453;0.007272604;-0.038878426;-0.076983206;-0.003091008;-0.07381601;-0.036714923;0.07083659;-0.12519343;-0.11689015;0.0034258356;-0.049299628;0.037628993;0.11334225;-0.04242801;0.009020559;0.036442097;-0.018291676;-0.072088964;-0.06308798;-0.09773991;0.023952767;-0.1680663;-0.11638399;-0.03194505;0.01878629;-0.035386838;-0.20426331;0.009176672;0.007158936;-0.16765289;-0.084038526;-0.07354581;-0.07269916;0.02995649;0.021517036;0.053796154;-0.016003266;-0.02213332;0.021307591;-0.11352323;0.03167498;-0.024000375;-0.052846756;0.09235871;0.0863176;0.020084653;0.025944527;0.04147698;-0.051649213;-0.106918536;0.03935362;-0.051669184;-0.2397071;-0.08234523;0.04513575;-0.049059328;-0.10156779;0.124622986;-0.105020955;-0.16392308;-0.12317361;-0.0125014335;0.033910867;-0.10420969;0.018275775;0.0720356;-0.09215109;-0.055668227;-0.085297614;0.01734368;0.045908824;0.022695996;-0.07416394;-0.0665066;-0.16261712;0.006792412;-0.035490457;0.035422396;-0.16853462;-0.03884663;-0.09912948;-0.13999763;-0.05901057;0.106611006;-0.08189845;-0.01253502;-0.1209142;-0.069352046;0.07387131;0.018418707;-0.11630478;-0.12627564;-0.050557297;0.043819904;0.077696316;0.023351815;0.010392751;-0.09591954;-0.00066599704;-0.08541592;-0.06584541;-0.013435735;-0.107518084;0.09382044;0.044913735;0.027849192;-0.025418887;-0.027744222;0.015189191;0.022878794;-0.042134985;-0.13074441;-0.036084317;0.104937896;-0.0056152334;-0.090350345;-0.054776795
-0.09244925;-0.07081964;-0.031182235;-0.022077702;-0.10048934;0.030809479;-0.069680594;-0.09672245;-0.044501796;-0.104520954;-0.109521784;-0.09241001;0.06421073;-0.029479207;0.049701065;0.054859485;0.13932186;0.021961013;-0.058433138;-0.043960605;0.040375896;-0.067870855;0.009885919;-0.047242966;-0.07430134;0.006511797;-0.13715844;-0.121353;-0.099480286;-0.019264407;-0.118758194;-0.0036780743;-0.009908123;0.053846918;-0.063105755;-0.10208733;-0.0028986298;0.06068853;-0.06452408;-0.10041922;-0.06761971;-0.06892253;-0.00088199147;-0.032757044;-0.12754296;0.02176827;-0.10590942;-0.0845658;-0.020334901;0.038887676;0.08589574;-0.15917899;0.01296316;-0.015383429;-0.049026325;-0.058699887;-0.0636071;-0.15275416;-0.054268032;-0.0024286364;-0.018996308;0.07035821;0.0021325054;0.015511621;0.04614122;-0.08879253;-0.023297386;0.022021892;-0.033651974;-0.06960878;0.026986778;-0.050791677;-0.111444496;0.03459132;-0.15375894;-0.0520467;0.054531213;-0.053452913;-0.018813698;0.033079945;-0.0019616855;-0.17223743;-0.008143545;-0.032288622;-0.04227152;0.019092798;-0.117083035;0.041444045;0.012614939;-0.19709283;-0.07597474;-0.11034368;-0.076323576;-0.09693349;0.07110002;-0.056642894;-0.16248427;0.10614784;0.00083556486;-0.042522244;0.05924666;0.025592852;-0.06597342;0.074859925;-0.06539011;-0.09909346;-0.049076546;-0.056601122;-0.100784525;-0.07273107;-0.017068585;-0.03376102;-0.14041853;-0.043162383;-0.111093864;-0.14936508;-0.014296001;0.02056377;-0.043145567;-0.025047265;-0.015910894;-0.022680055;-0.05192597;-0.077389516;-0.054074883;-0.046340127;-0.0124163255;0.035587348;-0.20086107;0.05079791;0.21387346;0.010286984;-0.07375081;0.019568214;-0.11152979;-0.080646224;0.036966905;-0.039779775;-0.16979751;-0.04463762;-0.011604643;-0.06469237;0.03698671;0.20339446;-0.12033117;-0.08639717;-0.15522188;-0.14812003;-0.079991624;0.062069472;-0.05749272;-0.08693776;-0.0863214;-0.14599095;-0.2244886;-0.049325623;-0.116163686;0.029788423;0.022297626;-0.0226011;-0.10381042;-0.07458251;0.060215548;-0.040379386;-0.083609514;0.0718141;-0.035925433;0.044504426;-0.2102712;0.064873524;-0.031884428;-0.026889747;-0.104712486;-0.026120802;-0.042801708;-0.09610226;-0.027070522;0.02541693;-0.0705743;-0.08008066;0.0095105795;-0.03722832;0.033567082;-0.07995247;0.008109024;-0.09437713;-0.09310018;0.03855982;-0.05214992;-0.05140818;-0.05337543;-0.06690549;-0.0864453;-0.09814528;-0.015123476;-0.041768253;-0.14905795;-0.056931574;-0.212739;0.009175519;-0.05971097;-0.07173322;-0.07269145;0.10464503;0.1580128;0.017687656;0.025054127;-0.048231248;-0.05667595;-0.052961875;-0.05863859;-0.0068617207;-0.067104094;-0.058031596;-0.041941386;-0.0047606537;-0.18780002;0.016484642;-0.08631675;-0.029503066;-0.09397277;-0.09851168;-0.12148746;0.16489032;-0.03661069;-0.15937898;-0.0250449;-0.061087828;-0.067798086;-0.062411565;0.01842431;0.00612058;-0.095891096;0.021202402;-0.044588424;-0.0070840255;-0.0692381;0.022566121;0.1794103;-0.022461629;0.028640505;0.034874205;0.06413233;-0.08322157;-0.059135552;-0.054334544;0.01862827;-0.10947904;-0.05929617;0.017447941;0.03659526;-0.018160004;-0.08188943;-0.16104949;-0.04988541;0.05158033;-0.13813527;-0.018831644;0.057427566;-0.021976084;-0.06359385;-0.04583616;0.034307674;0.054368082;0.024799857;0.046166167;0.080333605;-0.08008993;-0.04855132;-0.016350009;-0.12405813;-0.22642924;-0.07630544;-0.011033009;0.0008163709;-0.025659485;-0.023751175;-0.02444233;-0.13389185;-0.013131354;-0.2003223;-0.059172403;-0.025382565;-0.019712413;-0.09535032;-0.045574334;-0.052865714;-0.008680018;0.03790326;0.01918952;-0.02304731;0.041491866;-0.042141143;0.07929474;-0.046435695;-0.09421031;-0.085030675;-0.066579424;0.0064947065;-0.08931801;-0.059446987;0.055464797;0.018622708;0.029953223;-0.106333755;0.06793931;-0.0018932251;0.021362836;-0.060591392;0.017524026;0.01985975;0.10499533;-0.100512765;-0.024291428;0.0038161841;-0.094903976;-0.0338695;0.0318798;-0.17882435;-0.073366694;0.06375828;-0.06337541;-0.048585366;-0.012622098;0.057050228;-0.109902695;-0.06813201;-0.12833188;0.047250338;0.022776403;-0.04295221;0.06377966;-0.03277718;-0.1039663;-0.075896755;-0.0008730159;-0.09331712;-0.08628891;0.058787074;-0.069923796;0.0011292691;-0.021213321;-0.14856397;-0.008533782;0.02505633;-0.010960883;-0.04151386;-0.107227884;-0.17172883;-0.041660696;0.01898827;-0.020683227;0.048123624;0.015016414;0.03822643;-0.119540304;0.030883446;0.025614241;-0.098107174;-0.019123651;-0.16386855;-0.021427287;-0.035310633;-0.1171438;-0.0489115;-0.07797989;-0.015033452;-0.056303907;-0.09721271;0.0067611644;-0.11322025;0.036296103;0.042788655;-0.006281765;0.064667486;-0.10068592;-0.043708224;-0.038500126;-0.044556785;0.10774171;-0.114389606;-0.11419749;-0.07353197;-0.058433343;-0.021778384;-0.040128306;-0.05030095;0.05426945;-0.024565818;-0.07745827;0.058950793;-0.017672658;-0.03701088;0.02412026;-0.094142206;-0.23876639;-0.041612007;-0.07384156;-0.085221484;0.008633226;0.021391703;-0.08376421;0.010675029;-0.0027529383;0.062654674;-0.06492013;0.14065127;-0.11664755;-0.07674014;0.060928375;-0.08585376;-0.03352387;0.009744701;-0.026350804;-0.0009070398;-0.0386988;0.09181034;-0.10159184;-0.06514806;0.05222462;0.0060739075;-0.06954329;0.025200278;0.0059694652;0.091626555;-0.042831533;0.050148685;-0.07398867;0.016773311;-0.028382717;0.036213778;0.013451274;0.03864998;-0.022463312;-0.07058337;0.042605296;-0.054377876;0.023618545;-0.038403478;-0.18042155;-0.07230907;0.022799991;0.010571876;-0.050992064;-0.0021895834;-0.06656363;-0.072890796;-0.15696634;-0.12855117;-0.00036658876;-0.07885089;0.13924676;0.017623443;-0.09743251;-0.24927732;-0.07477271;0.021256482;-0.12947877;-0.03911942;0.03997874;-0.08994055;-0.09455514;0.06054435;-0.012534133;0.019733181;-0.0036228122;-0.0322142;0.029278466;-0.10726417;-0.013202878;-0.043220695;0.11610247;-0.09315371;0.10016982;-0.01946583;-0.0073979124;-0.0059039905;-0.16544133;-0.0884585;-0.06258948;-0.12872903;-0.03540147;-0.10798034;0.038220637;-0.15490298;-0.27471572;0.016239688;0.058750052;-0.07333571;0.054137852;-0.017192403;-0.048707254;-0.07591344;0.060947996;0.03981064;0.025846846;-0.0039065355;0.0022314454;-0.048741013;-0.05097369;-0.022534642;0.011355143;0.10481102;0.091666184;-0.018315408;-0.04322963;0.03113858;0.02752526;-0.10599249;-0.05144812;-0.10746801;-0.24135026;-0.04863175;-0.05670286;-0.08169265;0.012732013;0.008713057;-0.011182549;-0.19910419;-0.010800786;0.13793194;-0.02208365;-0.06899327;-0.03255293;0.12585163;0.023109615;-0.040313065;0.061231334;0.005973779;-0.02498811;0.0734558;-0.038125854;0.012848901;-0.19988032;0.009717324;0.083413646;-0.03591642;-0.10713863;-0.00035772;-0.10142433;-0.22461252;-0.044032652;0.15212111;-0.16942139;0.06152017;-0.022729633;-0.0022970822;-0.026245547;0.049170133;-0.008468493;-0.024018992;-0.041387644;0.07376244;0.16207857;0.020330857;-0.039201587;-0.08748069;-0.094696686;-0.037541457;-0.0058188643;0.0029760557;-0.0722542;0.124834344;-0.052567393;0.0572245;-0.045300018;0.06367672;0.029899351;0.06098752;0.02374461;-0.05885518;0.003729446;0.17538726;-0.04068965;-0.06707105;-0.049250886
-0.10366218;-0.1017331;-0.108499415;-0.08710937;-0.03084465;0.06491014;-0.16251376;0.0042863684;-0.006325332;-0.1577558;-0.09439403;-0.116334535;0.02694847;0.00035064577;0.023641407;0.051929433;0.07612855;0.016261641;0.05538185;-0.024261229;-0.12308095;-0.03222889;0.015290738;0.012074884;-0.072970584;-0.07021563;-0.061466716;-0.14306153;-0.039799098;0.08877256;0.040960573;-0.02590133;-0.050452426;0.008118682;-0.004136245;-0.11745003;-0.023529751;0.124127924;-0.08342735;-0.07246203;-0.022255614;-0.09922807;-0.037311435;-0.024820127;-0.09890055;-0.074313544;-0.007717563;-0.0076698493;-0.07641542;-0.067672685;0.041930024;-0.056862373;-0.084150724;-0.091865525;-0.012993671;0.013563742;-0.027471362;-0.19958283;-0.010415505;-0.10833088;-0.029344682;0.013319451;0.051135264;0.16067123;0.05459238;-0.044851158;0.056639988;-0.035604563;-0.056363367;0.014529141;-0.07846867;-0.014063128;-0.019018909;-0.051980454;-0.178631;-0.014950782;0.027526837;0.053580567;0.049914386;-0.024063036;0.0139457295;-0.16042598;-0.011961649;-0.028058145;-0.042367734;0.037796095;-0.11344236;0.0608447;-0.07362082;-0.15710476;-0.008810478;-0.054999083;-0.077341296;-0.09740813;0.013780521;-0.03537744;-0.043157533;-0.0017827207;0.08451034;-0.12771441;-0.026051925;-0.06601352;-0.033036478;0.21512371;-0.01891114;0.034960173;-0.06387108;-0.046225037;-0.041518766;-0.060581237;-0.13224818;-0.025625028;-0.08096127;-0.07540575;-0.089897454;-0.12735973;-0.084121495;-0.092206426;-0.07105147;0.01232703;-0.036063403;0.032618787;-0.03118512;-0.016457092;-0.04551752;0.020058656;-0.021757504;-0.058597438;-0.14934026;-0.013615381;0.094892725;-0.007097795;-0.03236209;-0.076514706;-0.13832764;-0.12268482;-0.0069146734;-0.059179436;-0.13580821;-0.009375641;0.0042075887;-0.012616716;0.06363808;0.12209171;-0.013539802;-0.0578506;-0.1721992;-0.18095398;-0.029065099;-0.045507345;0.056174867;-0.012277567;0.04005717;-0.1395102;-0.16053693;0.0016871243;-0.034103688;-0.005609301;0.029824737;-0.04943877;-0.055625197;-0.009237862;-0.041788317;-0.13566653;-0.05885358;-0.04617978;-0.12107566;-0.10083;-0.1606709;0.0012718487;-0.10651366;-0.035512015;-0.092574246;-0.07204979;-0.027018366;-0.01912248;-0.107773654;-0.016088838;-0.06320432;0.0060390737;-0.013992105;-0.00018382788;0.1649819;-0.0899421;0.046806883;-0.016897548;-0.07108182;0.035253175;-0.07651091;-0.039528683;0.006282836;0.049410842;-0.05031275;0.00021017037;-0.03944564;-0.033766147;-0.009092313;-0.0448077;-0.14798577;-0.080552615;-0.07742354;-0.05829111;0.019205455;0.0887738;0.06686081;0.026851373;0.010660571;-0.092834905;0.0051073837;-0.050346147;-0.104861796;0.030962272;-0.04367314;-0.048435096;0.06951513;-0.05734184;-0.20334567;0.06591449;0.05554836;-0.059941344;-0.023049364;-0.08393025;-0.060832318;0.052148335;-0.0473105;-0.16238771;0.06498142;-0.12536322;-0.010953401;-0.10787642;-0.039747484;-0.07770884;-0.024243118;0.010189062;-0.0018361902;0.023147088;0.010584147;-0.005686199;0.20334373;-0.090179056;0.027574932;0.08271826;-0.015088734;-0.08779868;0.05460601;-0.068444245;0.06610349;-0.043073162;-0.07303128;0.045516692;-0.06860247;-0.049394194;-0.029922714;-0.013980037;0.019066123;-0.034842424;-0.11656879;-0.030955179;0.037859157;-0.1257459;-0.006432821;0.023695994;0.01719254;0.010394264;0.03023503;0.041080166;0.033487815;-0.02039025;-0.08185739;-0.022118771;-0.10622326;-0.109836556;-0.076264866;-0.068812735;-0.11072125;-0.007252906;-0.10019186;-0.10054717;0.023892714;0.014214823;-0.15588155;0.037702326;0.0030000121;0.012700579;-0.09840856;0.017221726;-0.025365662;-0.08404468;0.008464927;0.07530744;-0.112607434;0.015159757;-0.052673053;0.046149354;-0.07936256;-0.101295054;-0.07801864;0.001690275;-0.039003577;-0.09359297;-0.014641389;0.1189065;0.023797063;-0.013479797;-0.029155659;-0.03701449;0.0231194;0.057141222;-0.03678889;-0.016186226;-0.01761715;-0.022436505;-0.0010684727;0.066093326;0.002209025;-0.039200623;-0.12242983;-0.08748344;-0.13325644;-0.16753802;-0.038795363;-0.15932624;-0.006436465;-0.030100677;0.046820134;-0.09369827;-0.19612978;-0.08938458;0.052272003;0.04885598;0.011583185;-0.067981;-0.17190088;-0.11378281;0.0398618;-0.10938829;-0.08200986;0.0116579505;-0.050857753;-0.03709295;-0.10228048;0.049634848;-0.03876935;0.042888153;-0.05031159;-0.056587167;0.0042740596;-0.13364711;-0.10203609;-0.13044816;0.052258432;0.12366575;-0.08537648;0.017462524;-0.009519153;-0.027454643;-0.020068437;-0.092222035;-0.08986791;-0.004689391;-0.097553566;0.041137926;-0.12566479;-0.020560939;-0.021619027;-0.06350458;-0.06190355;0.095172055;-0.05109429;-0.057544842;-0.011920378;0.06666206;0.09131959;0.07415585;0.06790343;-0.114877924;-0.07993453;-0.022322083;0.022679875;0.084440686;-0.093647264;-0.050476402;-0.08740923;-0.13946037;0.01868347;-0.051215723;0.032809205;-0.06928108;-0.011952407;0.055995196;-0.023078699;-0.06462461;0.052875504;-0.122988686;-0.009585266;-0.17117514;-0.03580018;-0.02295785;-0.012410937;-0.098064214;-0.0038718425;-0.037437364;-0.053977598;0.011929957;-0.079342775;-0.088551804;0.10931543;-0.09172625;-0.10484159;0.04134214;-0.09436819;-0.03736577;-0.08836469;0.062041245;-0.053843968;-0.07675148;0.032110713;-0.14506483;0.016886268;0.061924893;-0.056983188;-0.045970086;-0.07729195;0.0017355877;0.07487891;0.063826896;0.04544293;-0.041070174;0.03555934;-0.05668435;0.060807984;0.015056029;0.02348894;-0.096445575;-0.042612445;-0.03720318;-0.05390847;-0.074696295;-0.008638421;-0.08076262;-0.0295916;0.091215014;-0.056264136;-0.08598523;-0.05993901;-0.12104948;-0.056042083;-0.1665082;-0.10892174;-0.104137;-0.021003095;0.015545037;-0.0474412;-0.10000566;-0.22066699;-0.14126164;-0.035033118;-0.15244357;-0.11306168;0.06502601;-0.092140354;-0.04305998;-0.057415564;0.021443509;0.02978797;0.034115307;0.023100793;-0.110244;-0.09532618;-0.048098028;-0.04923168;-0.030773541;-0.10875589;-0.075260475;0.056410357;-0.03937563;-0.08880258;-0.06112235;-0.012401524;0.050264046;-0.008898454;-0.054724414;-0.019076843;-0.07871618;-0.091752976;-0.14284241;-0.031473037;-0.07614797;-0.18334848;-0.03747363;-0.075028926;0.011505335;-0.029383795;-0.073332645;0.0031831455;-0.090965725;0.06307614;0.0490815;-0.08933341;-0.13256624;-0.08225689;-0.044622503;0.208824;0.06468978;0.011196345;0.016268771;0.070711605;-0.06596736;-0.18023366;0.059533518;-0.0021605901;-0.23220494;-0.008471834;-0.045395046;-0.023147535;0.017097894;0.024160853;-0.05630594;-0.21357788;-0.04686468;-0.017756613;0.11261069;-0.0048689484;0.044919807;-0.00823467;-0.084015206;-0.09226866;0.020474922;0.035840265;-0.04926307;-0.049042463;-0.014069045;-0.005572195;-0.10350001;-0.091340214;-0.050724063;0.022836793;-0.15896317;-0.038929775;-0.02163578;-0.113720894;0.049306635;0.10694073;-0.18625782;-0.010797797;-0.13160229;0.026532352;-0.064824715;0.04525425;-0.10352374;-0.15133394;-0.044980098;-0.09126973;0.053845134;0.0050650006;-0.09229318;-0.16311896;0.032232262;-0.08669591;-0.012254777;-0.014783756;0.021193244;0.1334382;0.027476113;0.06321479;0.043081347;-2.1199072e-05;-0.0058231135;-0.045755234;-0.05894477;-0.021541627;-0.056236338;0.17340998;-0.07213498;-0.10072983;-0.06877197
-0.05133517;-0.0030385912;-0.12088584;-0.008684511;0.0026875073;0.0045817858;-0.1706153;-0.04803712;-0.052825667;-0.15524755;-0.010370278;-0.08732204;0.0068413108;-0.07287452;0.034250986;0.09019115;0.16225836;-0.02334493;0.08776923;-0.08268502;-0.119903035;0.018493487;0.010070997;0.05136186;-0.011105236;0.009678689;-0.122172534;-0.12477571;-0.07548677;-0.015054175;0.006531691;0.035096176;-0.045253057;-5.5511107e-05;0.028123086;-0.04391974;0.01771344;0.12461701;0.004068265;-0.02119592;0.023054391;-0.013115168;-0.07689908;0.0076521486;-0.057851747;0.02396156;-0.07526327;-0.07296251;-0.016063102;-0.037837204;-0.019993447;-0.12273608;-0.06187085;0.004646736;-0.03895185;-0.041119244;-0.11672006;-0.1754473;-0.049743555;0.045545716;-0.0897419;0.08212381;0.065613806;0.14454915;-0.015983805;-0.047898762;0.0714477;-0.065475404;-0.07936046;0.012420132;-0.0016889096;0.020054355;-0.094034955;-0.071891464;-0.0140947355;-0.0052722865;-0.041700687;-0.015875332;-0.025903866;0.029233683;-0.08571606;-0.13118936;0.020650318;0.018191222;-0.048365965;-0.100354314;-0.08924566;-0.049327232;-0.034126166;-0.0751839;0.013679676;-0.035443075;0.048475936;-0.006804956;-0.011901553;0.010733824;-0.19658531;0.07564388;-0.06269047;-0.1533014;-0.0061954944;0.03914226;0.06932594;0.100003295;0.0040330365;-0.03648877;-0.090481654;-0.05213226;-0.07124584;-0.06456402;0.0005428349;0.054125816;-0.14762634;-0.08513159;-0.04332185;-0.044527233;-0.016286358;-0.090814665;-0.07854011;-0.017589036;0.034458853;0.05055283;-0.009030956;0.033146553;-0.063564025;0.019111367;-0.049027447;-0.08164197;-0.12021961;-0.041025426;0.10943284;-0.0115044685;0.015048603;0.048370004;-0.172405;-0.0023822675;0.028322294;-0.12598005;-0.05880127;-0.06649189;-0.10442281;-0.10249222;0.04903254;0.11027436;-0.061544813;-0.0778953;-0.07480649;-0.15872364;-0.056213744;0.060835604;-0.06960292;0.029802913;-0.0006204038;-0.18235673;-0.10445921;0.024730535;-0.025139432;-0.01973421;-0.017226607;0.087192565;0.030896846;-0.12716411;0.09232273;-0.112806685;-0.12830766;0.08531418;-0.015691707;-0.10349703;-0.17225909;-0.09923141;-0.037163492;-0.118595175;-0.054474436;0.02099456;-0.03132154;-0.12409128;-0.0059989993;0.021493502;-0.04032556;-0.10771379;-0.06317692;-0.062742315;0.12291494;-0.058039997;-0.065702945;-0.027918283;-0.013009463;-0.05322368;0.064789824;0.019043567;0.004035008;0.034309987;0.031653423;0.009799367;0.026821917;-0.079965316;-0.058273394;-0.11231516;-0.114840575;0.04616235;-0.06626946;-0.06789452;0.013399676;0.110004134;0.07403219;-0.04895322;0.037665106;-0.03703011;0.040608414;-0.07874007;0.051306948;-0.028601214;0.008306599;-0.090299524;0.066154815;0.017581424;-0.19925392;0.015901519;0.046742428;-0.028318312;-0.15499061;-0.09088993;-0.022695223;0.08556055;0.07349565;-0.10150191;-0.035454396;-0.031382542;-0.06352393;-0.080591135;0.021564567;-0.07237606;-0.018001352;0.02110821;0.06391585;-0.040987995;-0.00501203;0.059874684;0.19192411;-0.06304761;-0.018925404;-0.0012760605;-0.02520577;-0.079402536;-0.026191277;-0.08162131;0.018845567;-0.06701102;-0.010078299;-0.03870248;-0.032423183;0.041868795;-0.07315118;-0.17017813;-0.038877238;0.040046245;-0.008378579;-0.14314407;-0.11235944;-0.076909736;-0.13136314;0.13261425;0.029594267;-0.0356046;-0.050735164;-0.016706724;0.07867733;-0.035271406;0.0063814763;-0.087421164;-0.07572926;-0.110231906;-0.020708103;-0.0671915;-0.09955468;-0.08256223;-0.0043184143;-0.03838333;-0.048050866;-0.022735381;-0.2293989;-0.04205614;0.03817365;0.030452799;-0.01586472;-0.14082126;-0.026470207;-0.08604533;-0.02621899;-0.058640793;0.025906913;-0.070085265;-0.10387168;0.058995053;-0.04976025;-0.0097467005;-0.00092450983;-5.718868e-05;-0.03773448;-0.091012076;-0.04910755;0.10903785;-0.080762506;0.06834662;-0.17473161;-0.020952625;0.052086316;0.07772876;-0.07691174;-0.037705664;-0.006928614;-0.00083792006;-0.084883295;0.07659387;-0.035307553;-0.090659596;-0.12896605;0.0027062283;-0.14098774;-0.05258096;-0.011959862;-0.13779728;0.02040371;-0.022124462;0.010503875;0.034604523;-0.17609116;-0.09293642;-0.09593938;-0.07404946;-0.06900645;0.026449526;-0.048523262;-0.090493046;0.05911492;0.03516332;-0.037999228;0.0009803489;-0.027917277;-0.09408649;-0.041327983;-0.0132272495;-0.09498769;-0.030695394;0.007934712;0.045084912;0.035142407;-0.13324292;-0.19159673;-0.12292022;0.0685766;0.08116071;-0.06110254;0.047076933;0.050106697;-0.054416142;0.026286727;-0.037807398;-0.02891161;-0.05515531;-0.09291328;0.0052728234;-0.118115224;0.01757238;0.061039597;-0.044813953;-0.030177213;-0.0020681354;-0.04826125;-0.018966427;-0.030251237;-0.041969765;0.054439828;0.062571295;0.058729034;-0.019895915;-0.10263486;-0.07083328;0.033115275;0.1176753;-0.12166326;-0.01845494;0.04792202;-0.12775996;0.005391379;-0.05311382;0.030652553;-0.07438312;-0.086457744;-0.042860232;-0.02151468;0.038998783;0.049521893;-0.07642926;-0.08783838;-0.26677653;-0.010758072;0.035252333;-0.02192893;0.0069132093;0.051664326;-0.10113394;0.050426345;-0.0066076526;-0.06642574;0.04549733;0.13863213;-0.08997144;-0.0061598225;-0.07031738;-0.04145329;0.0138994595;-0.03881663;-0.025178587;-0.09541497;-0.0018800218;-0.04031439;-0.11294211;0.03726181;0.02070337;-0.03680647;-0.072495535;0.009491946;-0.054635275;0.10363951;-0.095634684;0.08928798;0.011431722;-0.021288961;0.050182443;-0.07278957;-0.10752634;-0.028134756;-0.052129682;-0.066455424;-0.116772845;0.033724383;0.018111816;0.014534475;-0.061588917;-0.16411355;0.10316027;-0.113650076;-0.15643318;-0.03832087;-0.14433312;-0.03218082;-0.22694209;-0.07908372;-0.07248574;0.029718038;0.045872044;-0.113021664;-0.014163582;-0.072938666;-0.13549131;0.035099074;-0.15431833;-0.027422732;0.045133393;-0.103425026;0.0022502362;-0.020113058;-0.026630241;0.025928054;0.057650726;-0.1229272;-0.07316968;-0.061105516;-0.06451158;-0.034899987;-0.09875852;-0.02917761;0.034794834;0.053598903;-0.108455196;-0.041820336;-0.16496359;-0.04764239;0.0026815212;-0.02846237;0.002688549;-0.041550424;-0.011340447;-0.028202107;-0.14934991;-0.10099895;0.003128344;-0.10945002;-0.09520982;-0.12065659;-0.044643495;-0.061979786;-0.019302117;0.042546965;0.0021540918;0.0072667366;-0.042697564;-0.04510696;-0.10118594;0.018705407;0.037195977;0.11690874;-0.04345018;0.05373223;-0.0602654;-0.02126623;0.012451146;-0.18852042;-0.060592085;0.0017614505;-0.12210464;-0.049374297;-0.033527616;-0.044225503;-0.0513828;0.055325054;-0.087661795;-0.20027313;-0.1306846;0.102826506;0.106541425;-0.08076959;0.07248532;0.09830585;-0.037069492;-0.034708012;0.05376233;-0.041142836;-0.097694814;0.04111866;0.04504271;0.08153333;-0.1465749;-0.06745989;0.0734753;-0.09220163;-0.11971992;0.0211466;-0.009248176;-0.10927376;-0.068831004;0.021297455;-0.053078815;0.030755129;-0.044867255;-0.039919533;-0.07152225;0.023011073;-0.021686897;-0.14810568;-0.0607576;-0.09019128;0.041119996;-0.08801415;-0.097603;-0.018165048;-0.07136356;-0.057784516;0.019907452;0.004958261;-0.029726658;0.20082566;-0.081425466;0.02017683;0.029594747;0.015715947;-0.0042158603;-0.056883246;-0.086667605;0.0012228056;-0.033058096;0.14952022;0.008846939;-0.053318605;-0.10407738
-0.10542003;-0.033117164;-0.069878906;-0.011325745;0.029551536;0.050557733;-0.11401948;-0.035692904;0.0039520436;-0.11397244;-0.028453633;-0.009874595;-0.014563126;-0.030907065;0.029881911;0.041298747;0.08198865;0.037392765;0.05821281;0.011992268;-0.054229762;-0.06288162;0.016368091;0.041670203;-0.045490973;-0.014095273;-0.11642917;-0.015711632;0.006525799;0.09266402;-0.035573047;0.052402403;-0.026460573;-0.041716915;0.028690146;-0.101910844;-0.013842287;0.16011454;0.021068128;-0.057160124;-0.0029011848;0.04132221;0.049888667;-0.06221412;-0.04311243;0.04420796;-0.058800116;-0.05883619;-0.0795811;0.012216119;0.035685554;-0.10267451;-0.082150966;-0.11495797;-0.04749107;-0.08819848;-0.063177824;-0.13352787;0.02610102;-0.026471306;-0.0051556635;0.06670996;-0.026462395;0.14880913;0.00952298;-0.00444134;0.07237154;-0.020432994;-0.05179996;0.012466684;0.02880975;0.015885903;-0.08517769;-0.08572704;-0.07663179;-0.041995864;-0.062366776;-0.06544477;0.0010867523;0.055514652;-0.036532722;-0.05891733;-0.11510349;0.04946462;-0.02725655;-0.08008584;-0.07325762;-0.029290764;-0.10299232;-0.072761595;-0.059234526;-0.06326275;0.064275175;-0.0033622691;-0.022579134;0.050673805;-0.06366644;-0.029535132;0.008667801;0.0040095416;-0.11970268;-0.06471887;0.041011132;0.10832577;-0.14048094;0.038405657;-0.06494139;-0.09506782;-0.015886337;-0.045130607;-0.038893584;-0.012634772;-0.16076504;-0.003950462;-0.03181346;-0.11347821;0.0066625206;0.021888515;-0.08052741;0.069388315;0.017972942;0.07742639;0.0114577385;-0.05759221;-0.10271783;-0.04584951;-0.042495117;0.017356688;-0.09821241;-0.060158048;0.24740948;-0.09213719;-0.01788425;0.081231445;-0.12043418;-0.111637674;0.07433807;-0.12510782;-0.14249119;-0.07946179;-0.11365303;-0.0040589166;0.088155404;0.27066588;-0.14068817;-0.0052972;-0.15988618;-0.050948836;-0.016827742;0.036046993;0.049035758;0.019832658;0.020494575;-0.14543176;-0.16859458;-0.07629548;-0.054546475;0.043869697;-0.09763371;0.06511753;0.038374145;-0.021551069;-0.050574206;-0.11826581;-0.043308124;-0.041547842;0.016603187;-0.098834895;-0.08395419;0.04477179;0.025911398;-0.0130582815;-0.011542286;-0.08124782;0.010853949;0.007159105;-0.011873145;0.057780765;-0.07937922;-0.0025005187;0.012797517;-0.039253745;0.06997997;-0.09588777;0.011521017;0.06237638;-0.055793967;-0.055160847;0.07919361;0.061528794;-0.00861713;-0.090944454;-0.0902881;0.0069426093;0.022571478;-0.017711015;-0.009545867;-0.19050924;-0.070405684;-0.082091965;-0.024894247;-0.046023626;-0.08724727;0.1406692;0.072704464;0.031784505;0.05795524;-0.08803765;0.045418605;0.018244406;-0.07649801;0.030136524;-0.06143435;-0.016636332;-0.0044241576;-0.09697248;-0.15034977;0.04555017;-0.09277345;-0.063820995;-0.0064592855;-0.017093332;0.0671802;0.13449863;0.05156011;-0.07244815;-0.039532218;-0.10494983;-0.022877304;-0.09067463;0.021736426;-0.09345819;-0.0047801416;-0.086999595;-0.06660261;-0.07709759;-0.063504025;0.07949341;0.1512334;-0.028597867;-0.049721237;0.01282033;-0.017415335;0.024814086;-0.04950885;0.014634169;0.082831755;-0.10308932;-0.017042039;0.098882444;0.032686286;0.00976605;0.04522301;-0.06179046;-0.040788528;-0.07978688;-0.1105712;-0.13431971;-0.093118146;-0.11339382;-0.057190783;0.10220992;-0.053839307;-0.039682746;-0.10265728;0.049085792;0.0862525;-0.055154383;-0.10480843;0.033528104;-0.014616125;-0.20997928;-0.10248276;-0.13494357;-0.03444053;0.017779823;-0.022683237;-0.10946892;-0.012902935;0.0071906624;-0.085095674;-0.06874488;-0.105527736;0.0049560475;-0.038224574;-0.009067642;-0.05827556;0.032934718;-0.033962615;0.081048094;-0.07270166;-0.0074373;-0.02575589;0.045473322;-0.017755954;0.040717054;-0.028049128;0.016875723;-0.0072476855;-0.06780974;-0.1548399;0.006696269;-0.04389085;-0.031781845;-0.15223299;0.035416596;0.029397305;0.097970165;-0.013131987;-0.05684044;0.018477906;-0.013270719;-0.08264329;0.007062944;0.045775827;-0.09573336;-0.07403009;-0.06838987;-0.030748477;-0.08865127;0.018832598;-0.17892168;0.08193732;-0.08974717;-0.03183679;0.028394286;-0.16327009;-0.11005756;0.04328208;0.008020252;0.039433613;-0.07705906;-0.054617118;-0.06312373;-0.046532277;-0.04589376;-0.056813814;-0.02133254;-0.07491674;-0.10424983;0.0075465916;-0.010288501;-0.0031688407;-0.042257812;0.042082295;-0.073624164;0.045217946;-0.17077821;-0.17826983;0.011461241;0.0749712;0.09169685;-0.0632478;-0.056525685;-0.056924794;-0.061595924;-0.042110424;-0.038248528;0.009082722;-0.05473201;-0.09063433;0.02261617;-0.15613209;0.03754572;0.03260863;-0.09775289;-0.040219992;0.01608703;-0.080718994;-0.02058282;-0.10038384;-0.030737326;0.11856652;0.03103422;0.0068884436;-0.11785866;-0.09675176;-0.011354136;-0.0057001766;-0.009498608;-0.048081215;-0.046283662;-0.05626799;-0.04931418;-0.031714257;0.02264232;0.087458596;-0.0049772565;-0.06239952;0.04016799;0.057707325;0.015586255;-0.0046965894;-0.032973975;0.013244239;-0.1834608;-0.035893947;-0.038777664;-0.0181752;-0.09931284;0.022758622;0.0025578465;0.07159217;-0.11500035;-0.096219316;-0.02774007;0.17862353;-0.04687813;-0.016221857;0.010371854;-0.13047636;-0.0760788;-0.046460807;-0.093609564;0.05544464;0.03223913;0.021333862;-0.1388956;-0.11339249;0.051815264;-0.10213209;-0.07407021;0.02172935;0.03400352;0.023869919;0.03007585;0.05492932;0.0031612513;0.024930619;-0.098591715;0.05114688;-0.016008249;-0.094341286;-0.041936275;-0.10967202;-0.096505836;-0.061707817;-0.004957845;-0.08816788;-0.030039832;-0.17601493;0.10058257;-0.055403497;-0.1365039;-0.02852117;0.00271335;-0.079424284;-0.16834806;-0.049532197;-0.0835079;0.023236914;0.12493873;-0.104745455;-0.011057606;-0.06548698;-0.09076975;-0.06932249;-0.04340256;-0.031222314;0.030177535;-0.091797836;-0.050003;-0.019312743;0.026148237;-0.06784782;0.04905709;-0.10483884;-0.10923373;-0.04526346;-0.07184952;-0.06404432;-0.017301884;0.0071773785;0.068978734;-0.030205915;0.04025816;0.026679564;-0.1598816;-0.14541286;-0.05643467;0.00094879157;-0.10017248;-0.069162235;-0.12619664;-0.028762488;-0.1908096;-0.092223406;-0.11995853;-0.25254306;0.030641865;0.023402672;-0.049142603;-0.056459054;-0.037035413;-0.014115136;-0.029834706;0.06862535;0.04483213;0.0018281962;-0.12831354;-0.07234631;-0.07392115;0.097596295;-0.012994637;-0.030929685;-0.08900911;0.11292765;-0.07565956;-0.21479157;-0.08664375;-0.005432369;-0.16704834;-0.060286917;-0.038624983;0.014447254;-0.1223327;-0.0076799747;-0.010382017;-0.10223323;-0.11803431;-0.01002526;0.009625225;0.027803313;-0.021601425;0.08065965;-0.04801523;0.04718343;0.036083765;0.0023994837;-0.059454728;0.08403822;-0.08325865;0.07264115;-0.16890548;-0.0061504086;-0.03229573;0.030787462;-0.10221662;0.060207035;0.009881458;-0.14260107;0.030777387;0.08963434;-0.119914785;0.0045028836;-0.057493925;0.004438307;-0.07324476;-0.08201066;0.00480381;-0.13011219;-0.054784577;0.019101596;0.13051972;-0.0709481;-0.09971322;-0.06916898;-0.038981512;-0.14225183;-0.015470777;-0.13566555;-0.005363717;0.093105115;-0.0546829;-0.032244552;0.04949753;-0.11235742;-0.012735109;0.00067454524;-0.041666206;-0.07724187;0.013675896;0.054949928;-0.0990601;-0.060096104;-0.028591178
-0.091994286;-0.016014498;-0.12326771;-0.042385913;-0.07510141;0.041970327;-0.100852326;0.022929834;-0.042591527;-0.02162721;-0.12224357;-0.07411778;-0.014319527;-0.10889662;-0.021526922;0.055914436;0.12662175;-0.013520861;0.011752;-0.044627577;-0.02404752;-0.12895319;0.0043383455;0.086302586;-0.0017497055;-0.05935721;-0.04269201;-0.12495776;0.024511967;0.016886517;0.039864108;0.04124812;-0.023767503;-0.011178822;-0.055089965;-0.0016703997;0.02209408;0.14902242;0.044515;-0.16053283;-0.00938842;0.006545588;0.046930116;-0.017606445;-0.10572932;-0.06718127;-0.081291504;-0.05089475;-0.0034026853;-0.02094364;0.08909176;-0.053134423;-0.007184192;-0.06318547;-0.05860654;0.039560102;-0.08855656;-0.13977405;-0.0007934575;-0.075220056;-0.091632605;0.07691568;0.031065445;-0.0031398966;0.0365126;-0.070307426;0.03831928;0.059852302;-0.12427282;-0.05442862;-0.016731473;-0.06081804;-0.081461295;0.016512696;-0.045350876;0.06273337;-0.023123208;0.024434365;0.04109639;-0.032599088;0.05377794;-0.18690945;-0.049551696;0.096621946;0.05324106;-0.04534586;0.023484953;-0.055784702;-0.06825222;-0.12137268;0.0037853234;-0.11094954;0.062114663;-0.14831185;0.0065164473;-0.08782578;-0.05882789;0.058478963;0.061670765;-0.06673959;0.010415057;0.033802055;0.064023115;0.189716;-0.01551972;0.01785192;-0.028594282;-0.042716485;0.019884376;-0.07600657;-0.023765769;0.014517982;-0.08701064;0.024062265;-0.03134756;-0.0863888;-0.009147494;0.043968312;0.022976395;0.044336144;-0.038195804;0.040727094;0.008929969;-0.03301306;-0.11350208;-0.12114015;0.011488898;-0.05539878;-0.15293503;0.004815615;0.13643113;0.057447817;0.05645896;0.052229464;-0.06887771;-0.11377638;0.029813865;-0.08173189;-0.08038649;-0.1293346;-0.0032644249;-0.0002684233;0.062884174;0.15659776;-0.014955668;-0.11335444;-0.09861855;-0.10027;0.018635707;0.055999346;-0.011551769;0.048027847;-0.087880164;-0.048326492;-0.124477945;0.035687495;-0.012867341;0.0041063526;0.012281336;0.036298674;-0.017143361;0.01925558;0.056685742;-0.08680488;-0.12950046;0.048437368;-0.110315286;-0.07407338;-0.08802645;-0.024370696;-0.068256736;-0.00017028283;-0.098395355;0.046548717;0.012945881;0.02836392;-0.067719705;0.046101898;-0.049596835;-0.08243653;-0.06404052;0.008090819;0.0636298;-0.051986106;-0.062316295;-0.0509326;0.01558809;0.047049694;-0.061050948;-0.009874106;0.0019500146;-0.036380693;0.0044211787;-0.045273528;0.052829705;-0.027169311;0.006381778;-0.0525258;-0.12038477;-0.037659764;0.051364385;0.013824706;0.012386962;0.16060029;0.13652836;0.06548848;0.06422695;0.053110525;-0.06748723;-0.038182765;-0.06910789;-0.08676095;-0.022254294;0.014937766;-0.105320975;-0.086425506;-0.098663166;-0.05661634;-0.03034666;-0.035531256;-0.1540613;0.049025077;-0.07076067;0.1166524;0.018282194;-0.21486121;-0.002489607;-0.1252492;0.043960117;-0.12639122;0.010498102;-0.04579905;-0.1252885;-0.032298416;-0.04364598;0.056105074;-0.06130422;0.06477002;0.15856032;-0.10861994;0.016576426;0.007520033;0.0005934803;-0.09942035;-0.032204088;-0.08850812;-0.07185621;0.02008617;-0.0036668994;0.003459677;0.0047531845;0.012761634;0.050257716;0.0076438105;-0.010760006;-0.04455797;-0.009950057;-0.15422834;-0.094050676;-0.014565393;-0.07431949;0.012065303;-0.0673864;-0.020666199;-0.09117884;-0.028655233;0.083906494;-0.09926209;-0.03801241;0.011271118;-0.10516824;-0.09242444;-0.0017554982;-0.106168665;0.02970849;-0.09519886;0.010497154;-0.07670926;-0.003456086;-0.036058538;-0.19767642;-0.03847515;-0.034647886;-0.07982388;-0.04156674;-0.03325773;-0.067355424;-0.10956482;-0.025108643;-0.037369385;-0.038872976;-0.02801825;-0.02314407;0.00475437;-0.06982259;-0.028720908;-0.076670006;0.07652179;-0.040153764;0.046960082;-0.17310965;0.0242935;-0.08485507;0.06553901;-0.16076604;0.053449165;-0.06972564;0.0803232;-0.09181836;0.0016959396;0.0051097306;0.12044263;-0.08765905;-0.0036749102;-0.10050325;-0.10598611;-0.12933925;-0.09045806;-0.17081359;-0.05262749;0.001938322;-0.19481651;0.06290341;-0.033456836;0.046613753;-0.05150055;-0.07143996;0.019239627;0.019814532;-0.008593968;0.041968454;0.014280954;-0.13715094;-0.06290746;-0.092911266;-0.06635234;0.027988892;-0.10205868;0.0015287389;-0.01875466;-0.058951635;0.046577007;-0.14792463;-0.070956714;0.020998394;-0.113755636;-0.06708931;-0.030420588;-0.066791765;-0.09408402;0.10272013;0.07899287;-0.07240046;-0.00083109766;-0.06274295;-0.10751459;-0.07052378;-0.026198315;-0.042356785;-0.0920215;-0.07891357;-0.02572082;0.0012011476;0.034595165;-0.07377157;-0.03560535;0.01151677;0.008840651;-0.08626754;-0.0026523666;-0.016252855;-0.014525251;-0.0417364;0.08449538;-0.008688142;-0.10869001;-0.06112164;-0.030243203;-0.115008146;0.11612404;-0.05077737;-0.10897444;0.013236501;-0.052543733;-0.0075404416;-0.03410685;0.062408485;-0.03387116;-0.00063785014;-0.022609927;0.008837144;-0.04106559;0.011295336;-0.027286854;0.022516262;-0.2642713;-0.07089475;-0.036206834;-0.055327155;-0.07737213;-0.04060935;-0.062272657;0.0081084175;-0.07661096;-0.07009201;-0.015071052;0.1944926;-0.030462146;-0.02472128;0.004842916;-0.17051215;-0.104552545;0.052557994;-0.05089012;0.024239637;-0.08321864;-0.018959872;-0.1408829;-0.05347465;0.0647706;-0.10331074;-0.08420353;0.026461711;-0.010039939;0.12316359;-0.058973677;0.025467256;-0.0891414;0.036478687;0.04478029;0.013853904;-0.0121663315;-0.016084595;-0.1184476;0.015933733;-0.037406784;-0.11012479;0.015059758;-0.07775635;-0.10276252;-0.15438212;0.056676805;-0.08786096;-0.16064325;-0.07907587;-0.076895766;-0.02046952;-0.18259074;-0.015702987;0.0038203367;0.04591212;0.16138758;-0.021613374;-0.06763745;-0.2018757;-0.04177276;-0.05062703;-0.045726072;-0.036537856;0.0024167234;-0.004001974;-0.06229794;-0.01575688;-0.0682863;-0.05419513;0.12112885;-0.086158305;-0.035258032;-0.036602035;-0.03003931;0.004206105;-0.055594433;-0.02023229;-0.068402044;0.029011618;-0.054829687;-0.08323948;-0.1738587;-0.12774758;-0.004202695;-0.0561356;0.010291812;-0.102517575;-0.009052423;-0.0062298547;-0.24607033;0.039402418;-0.001206491;-0.21063831;-0.0239241;-0.062493123;0.03222502;-0.091410995;0.062054098;0.063362755;-0.056130003;0.11920181;-0.0051705753;-0.033978432;-0.07779876;-0.094503485;-0.011532505;0.21743743;-0.07853049;0.017105712;-0.0187566;0.018069828;0.019323325;-0.05481303;-0.045441158;-0.14611393;-0.17538084;-0.07423931;-0.025464708;0.041561328;-0.113113984;0.041021038;-0.031298064;-0.24663271;-0.01677394;0.002734972;0.03408972;-0.034514073;-0.010581246;-0.031309914;-0.032311752;-0.083580695;0.03360821;-0.09559541;-0.06724187;0.09769859;0.013558017;0.046523456;-0.21435983;-0.04710213;0.016439248;-0.07151526;-0.12058073;-0.027918926;0.023127312;-0.08403997;-0.090189934;0.119861715;-0.18316573;-0.030994276;0.02422478;0.053752545;0.009241759;0.023570968;0.02189297;-0.078717664;0.0042556715;-0.015648171;0.057688754;-0.064048745;-0.061151173;-0.10980562;-0.06618231;-0.08947865;-0.021971593;-0.010583462;-0.06047518;0.049091265;-0.08343387;-0.07900204;-0.03931937;-0.02660144;-0.00046775848;-0.0064760256;0.015337262;0.043325562;-0.019453365;0.07933145;-0.056168515;-0.034035992;-0.078579254
0.016242852;0.0064310916;0.006914356;-0.117338866;-0.039976094;-0.032682233;-0.17605007;-0.03947548;-0.04496392;-0.020306917;-0.043288033;0.060355667;0.04477351;-0.08097891;-0.010482871;0.11078587;0.08776196;-0.025482286;-0.04275398;-0.045595467;-0.090793714;0.01091144;-0.065632984;-0.03070315;-0.0067160856;-0.013943754;-0.020268222;-0.056560315;0.048510753;0.04978039;-0.11176831;-0.058581423;-0.004626236;-0.04993731;0.040845223;-0.07985148;0.09706068;0.13644138;-0.052083097;-0.009212546;0.0016411467;0.004035969;-0.06056883;-0.014413612;-0.12033633;0.044414237;-0.09170192;-0.076898724;-0.067937955;-0.081815496;0.019075904;-0.1710488;-0.07858753;-0.104075775;0.0006705147;-0.08627767;-0.12110276;-0.10297721;-0.021360958;0.025228215;-0.013157671;-0.06353819;-0.001110236;0.11512149;-0.07462578;-0.038162515;0.06816798;-0.020433981;-0.0424927;-0.13220975;0.009608217;-0.0074980394;-0.056319017;-0.069679774;-0.14633171;0.043258946;-0.08438935;-0.06399536;-0.09713561;0.04675257;-0.046722163;-0.09270861;-0.017329976;0.04488413;0.028599063;0.036228523;-0.050410405;-0.11088121;-0.058929615;-0.15599744;-0.078659944;-0.16390112;-0.042918213;-0.042916853;0.062736936;-0.056922227;-0.10848413;-0.03265702;0.035186905;-0.10209381;-0.021514023;-0.08773218;-0.0716462;0.14041694;-0.043993782;0.02471496;-0.09290209;-0.018061878;-0.0009357961;-0.010995002;-0.11485512;-0.08786944;-0.22517945;0.048505;-0.009707806;-0.023025863;-0.016310982;-0.02315131;-0.07483657;0.05653191;0.033267964;-0.051076736;-0.01760199;0.033174064;-0.048588727;-0.08806798;0.013659726;-0.049364604;-0.1749085;-0.023884;0.1970235;0.044741195;0.047752455;0.050384514;-0.05784636;-0.11989152;0.11068356;-0.10607799;-0.06673248;-0.113590345;-0.0645249;-0.01448473;0.10753635;0.26905945;-0.009158914;-0.06437826;-0.09383107;-0.11942499;0.00048834615;-0.013294275;-0.06260095;-0.06635567;-0.01676109;-0.06736188;-0.17127562;-0.09190596;-0.09117845;-0.062957406;-0.09510813;-0.055753186;-0.012510018;-0.0099315625;0.08864371;-0.17507108;-0.05836579;0.03918887;-0.10544974;0.021484358;-0.22986294;0.02488667;-0.012673331;-0.031368915;-0.050840218;-0.041143056;-0.117301986;-0.04897092;0.033878904;0.0057032565;0.004783751;-0.02742921;0.026527649;-0.0074337306;0.11483414;-0.16876309;-0.101568826;0.07165221;0.023910433;0.08826268;0.03792854;-0.006035102;-0.08358712;-0.08439536;-0.027041612;-0.016592568;-0.06222832;0.023122612;-0.10425929;-0.095736146;-0.19763266;0.0117270015;0.035328303;-0.068515316;-0.0054973303;0.22234696;0.15665886;0.027673425;-0.07168923;-0.074052975;0.017898474;-0.009154509;-0.09121692;-0.07365885;-0.008128932;-0.05765557;0.004864298;-0.10185733;-0.05933917;-0.08462488;-0.09110637;0.022328716;-0.11986323;0.0374492;0.03679211;0.05340287;0.04440461;-0.18315746;0.03747321;-0.14195658;-0.07884786;-0.00063934905;-0.016602436;-0.004746378;-0.07308111;0.018374829;0.037793994;0.0316287;-0.053302888;0.07062498;0.048965715;-0.12410503;0.042049024;-0.020133274;-0.039104067;-0.0772843;0.00024955772;-0.08932636;-0.020049289;-0.095493406;-0.040449258;-0.0014433761;-0.0083351;0.0573748;0.025461929;-0.11993487;0.046627905;-0.06039039;-0.052974354;-0.14393409;-0.10900897;0.049814682;-0.10398388;0.0009808665;0.05319879;0.027413271;0.03997499;-0.056869637;0.054740597;-0.0038501783;-0.110027365;-0.005223438;-0.0907678;-0.18073256;0.0036415223;0.012400939;-0.06062773;-0.10501452;-0.026316795;-0.08436769;-0.027569178;-0.031745736;-0.13296896;-0.08942814;0.04077433;-0.06052518;-0.08309031;-0.011076032;-0.036059603;-0.120272644;-0.035541687;0.015710384;-0.023553642;-0.050822716;0.040762335;0.08351684;-0.15364851;-0.08467739;-0.06713511;0.03507592;0.060459655;0.058324672;-0.15372406;-0.013995894;0.04570626;-0.07182346;-0.064155474;0.089277156;-0.07737506;0.009653344;-0.04080635;-0.0005188166;0.066095054;0.04492471;0.007384608;-0.080906235;-0.03628493;-0.09446308;-0.11171515;0.005071432;-0.12536006;-0.0879535;-0.06321946;-0.077717334;0.030761808;-0.00015654606;-0.05082356;-0.11253864;-0.06453801;-0.04125014;0.03673187;0.017595587;-0.0002581125;-0.049950507;-0.14074257;-0.0785015;-0.0012550793;-0.11482356;-0.055420633;0.026804004;-0.029112425;-0.08856547;-0.053270202;0.041548412;-0.044086304;-0.057828333;-0.015479894;0.0026308266;-0.09224783;-0.19061346;-0.18576376;-0.063681915;0.08083857;0.046668172;-0.008261833;-0.059736416;-0.05334612;-0.07775376;-0.097574644;-0.110384606;-0.08778779;-0.050766632;-0.07361845;0.04436993;-0.13919617;-0.0620831;-0.035073955;-0.035479475;-0.11515326;0.110318065;-0.10747714;-0.06278229;-0.036771975;-0.05275269;-0.008391832;0.08278339;-0.0077502197;-0.05664993;-0.009421231;-0.08109158;-0.05243318;0.060127534;-0.037451748;-0.01706466;-0.035515647;-0.10752809;-0.061072677;0.044977996;0.05421178;-0.051616665;0.010236406;0.036507644;-0.077246964;-0.003450316;-0.019481253;0.021380495;-0.06571642;-0.18205091;-0.05768296;0.017815646;-0.03135778;-0.048185345;-0.036341112;-0.058930643;0.07483057;-0.03791723;-0.029997308;-0.032851905;0.02896563;-0.1083034;-0.047833208;-0.037404537;-0.116547324;-0.07885135;-0.04429108;0.04364309;0.05585475;0.0018160437;-0.013383649;-0.109611094;-0.13190548;-0.09037788;0.027516885;0.01958265;0.05179552;-0.015887033;0.11675904;0.021729214;0.13966146;-0.05142588;-0.04602418;0.05211407;-0.0033844197;-0.036488097;-0.03702648;-0.07216221;-0.08334757;0.01334085;-0.105035424;-0.039108753;-0.061909307;-0.03983018;-0.10049329;0.07889574;0.037503146;-0.120889485;-0.07756357;0.0211392;-0.024124036;-0.11068193;-0.11769588;-0.067301564;0.09304109;0.13776813;0.03595861;0.0298652;-0.18896718;-0.12075143;0.0044570556;-0.13451335;-0.11686506;0.0054522273;-0.022932125;-0.0122994725;0.027797306;0.033318326;0.011453246;-0.00635601;0.013764104;-0.08895282;0.0026826821;-0.08503942;0.04875014;-0.10638805;-0.03366505;0.052725036;-0.032862842;-0.10878541;-0.09672918;-0.08155758;-0.12632622;0.013562002;-0.06325011;0.01786843;0.035544474;0.006595712;-0.07847841;-0.13132222;-0.112404674;0.0014050385;-0.090982616;-0.038813647;-0.018979935;0.090436265;0.04017364;-0.0074480237;0.062924765;0.052078057;0.1401285;-0.06737268;-0.10739329;-0.13289241;-0.015842639;-0.078041546;0.22471929;-0.075444385;-0.07399958;0.043409504;-0.010852337;-0.06607928;-0.030991869;-0.024978874;-0.07981958;-0.123988196;-0.06893293;0.07191816;0.023717346;-0.10250442;-0.024378322;-0.08976522;-0.08084176;-0.018796371;0.006999147;0.018116603;0.05512109;0.07347559;-0.022699153;0.068141416;-0.08990203;-0.100170605;-0.052838504;-0.09642545;0.027578937;0.0076048328;0.061908256;-0.15545972;-0.06457069;-0.017140085;0.036633942;-0.021031117;0.04922175;-0.09609277;-0.08571758;-0.06706928;0.037582494;-0.17739756;-0.068804935;-0.05828648;-0.065673865;0.012858352;-0.022899058;-0.118940294;-0.14510737;-0.010772159;0.030031221;0.15049654;-0.051982693;0.05158824;-0.1348036;0.005594577;-0.1063878;0.025753979;-0.14953035;-0.006696611;0.1167492;0.017046122;0.013611064;-0.0927434;-0.10307394;-0.014671053;-0.040194374;-0.013928;-0.02427644;-0.037595466;0.116451964;-0.080769904;-0.014975326;-0.020884614
-0.015690207;0.0019524113;-0.12896843;-0.055597838;-0.083477706;0.062258396;-0.11307326;-0.038675174;-0.008474298;-0.051905263;0.037206955;-0.08913566;-0.043934833;-0.050389085;-0.082168594;0.044717282;0.104372725;0.041954607;0.055007555;-0.03371931;-0.01158589;-0.09919884;-0.06618198;0.018736837;-0.05913052;0.0048684683;-0.012345882;-0.15622267;-0.044977114;0.12205773;0.03713225;0.11201242;-0.11626741;-0.034815505;0.032657698;-0.11621878;0.025322014;0.036208425;0.069892;-0.100689195;-0.03066215;-0.027145827;0.010871029;-0.06283799;-0.07440556;-0.04013569;-0.03359316;-0.08258277;-0.10807454;0.021134697;-0.032878816;-0.20293127;-0.043038044;-0.11009146;-0.082364246;0.018098006;0.031817857;-0.14071576;-0.045312434;-0.102210045;-0.04079601;0.06781764;0.032866742;0.09757051;0.026580326;-0.05276942;0.06124073;-0.016108697;0.01734661;-0.0652313;0.05522145;-0.058551285;0.04542102;-0.034443744;-0.10246123;-0.018639954;-0.097075954;0.027613623;0.022091847;0.07094957;-0.014072288;-0.18592921;-0.053511694;0.05700559;-0.031352792;-0.076954424;-0.04006595;-0.054398112;-0.039298683;-0.14312267;0.022583706;-0.07392926;0.004742296;-0.07306754;0.0038373175;-0.08253697;-0.19724096;0.047515187;-0.064808436;-0.107282534;-0.078376405;-0.019220565;0.0049076313;0.12242028;-0.12201558;-0.14168037;-0.030196726;-0.06716155;-0.040330473;-0.067875005;-0.12525308;-0.013665491;-0.11197752;0.045318272;-0.09480298;-0.09739944;-0.1323015;-0.059840325;-0.11626161;-0.011229673;0.010791057;-0.0708433;-0.13132298;-0.026806692;-0.09415239;-0.015182613;0.00080046186;0.019229546;-0.20582929;0.0287782;0.14027046;-0.05928509;-0.03276192;0.012987242;-0.17034148;-0.028502913;-0.0058066286;-0.060125455;-0.09282425;-0.054333057;0.026605051;-0.061815344;0.091936484;0.13827999;-0.08844932;0.041898318;-0.17865035;-0.11758915;-0.12159331;0.04613467;0.064881824;0.023543498;-0.033839356;-0.042932354;-0.044883605;-0.010485752;-0.07726735;-0.019949472;-0.07542043;0.06848251;0.015351526;-0.034373183;-0.023079325;-0.038813006;-0.07633221;0.08402337;-0.005509945;-0.03455242;-0.24058782;-0.07531032;-0.04820436;-0.05984341;0.038009606;-0.061013613;-0.080745175;-0.011467441;0.002517735;0.015474387;-0.01573235;0.04293142;-0.020130148;-0.060496174;0.02363593;-0.18024388;-0.035802335;0.058941394;-0.032552086;0.013388814;0.07144348;-0.08962957;0.02728971;0.0068288734;-0.08706151;-0.09606485;0.023953747;-0.02692704;-0.11607349;-0.20868635;-0.06050924;-0.09934313;0.037743285;-0.045976378;-0.01910135;0.18056114;0.005436797;0.013611379;-0.00653629;-0.018848645;-0.046009663;-0.023312198;0.035709307;-0.012738918;-0.11805882;-0.05805172;0.0011168522;0.009563944;-0.111107334;-0.0065549803;0.07026418;-0.05548505;-0.009732176;0.037266873;-0.01354085;0.07276917;0.082513936;-0.091898076;-0.004763032;-0.16657989;-0.03665077;-0.085651755;-0.10219474;-0.110641345;-0.09817655;-0.019683667;0.012601737;-0.033285715;0.010465216;-0.07744109;0.19148767;-0.06215456;-0.07124039;0.07577675;-0.00043746707;-0.002384578;-0.0020385527;-0.053652003;-0.019879738;-0.08542562;0.046116043;0.09658673;-0.070451386;-0.069595456;-0.06363164;0.032367893;-0.10000307;0.012908206;0.004555043;-0.09433736;-0.013543298;-0.05213972;-0.031167982;-0.052324366;0.037849072;0.04348784;0.029066896;-0.029171782;0.048656017;-0.13088545;0.034532584;0.01481913;-0.17146233;-0.16597535;-0.0065514664;-0.010064106;0.03238304;-0.0075476686;0.06401048;-0.04010239;-0.05541897;0.062546656;-0.13713814;-0.054821227;-0.07795627;0.028218076;-0.03458601;-0.032410763;-0.019470286;-0.11095796;-0.08316542;9.701747e-05;0.04363299;-0.021495655;-0.013622044;0.037041966;-0.04178441;0.00912152;-0.028415833;0.013783131;0.057446506;-0.03365383;-0.025061285;0.08640064;0.059095193;-0.014061587;-0.14693521;0.04898558;0.0075589637;0.07395925;-0.035879653;-0.109396495;-0.0792081;0.05157265;0.051670477;-0.07982389;0.02319765;-0.042043265;-0.15489393;-0.047914103;-0.0745334;-0.065662704;0.07756958;-0.12771781;0.019759895;-0.052198086;0.002744355;-0.0020299067;-0.07320414;-0.0075410646;-0.065742716;0.023206176;0.02076816;-0.006124345;-0.1325637;-0.062859945;0.08033212;0.0065926774;-0.019627584;0.030604437;0.019469166;-0.02863664;-0.04196404;-0.05730307;-0.13728431;-0.054672305;-0.11293161;-0.042380862;-0.07832767;-0.101501964;-0.1272354;-0.13257244;0.06900213;0.099545516;-0.073405705;0.0063348617;-0.071297094;-0.08931733;-0.08631525;-0.004948958;0.05686446;-0.030766053;-0.12582032;-0.057722583;-0.0058750245;-0.09398078;-0.03861549;-0.057853628;0.006950415;0.06805627;-0.14084172;-0.0400358;-0.118259124;0.0024942684;-0.015416193;-0.00030495663;0.06063743;-0.07349903;0.03711614;-0.10019802;-0.0026519147;0.063304864;-0.008953352;-0.0301262;-0.048907164;-0.118292704;-0.11668901;-0.101899624;-0.008846894;-0.019649005;-0.07777948;-0.035936672;0.03583;-0.06277081;0.048912223;-0.13095851;-0.0077309366;-0.2402729;-0.08525824;-0.0732762;0.03600716;0.03637744;-0.07029614;0.03986036;-0.026058946;0.016613834;-0.033709742;0.01484006;0.112885125;-0.09600529;-0.027960014;-0.06966743;-0.15001827;-0.038315002;-0.06285991;-0.01046484;-0.04936197;-0.03203166;0.03784399;-0.14599971;-0.09187447;-0.060851593;-0.061424695;0.057268113;-0.056685176;0.018165633;0.0029849287;-0.06358484;0.105814725;0.03128742;-0.08903851;-0.005985164;-0.052102648;-0.082931556;0.0036074142;-0.1456232;-0.023173263;-0.10501492;-0.04384439;-0.0496001;-0.06344484;-0.1225337;-0.06490783;0.059383657;-0.044523116;-0.15476754;-0.025985273;0.014577776;-0.025860168;-0.11760257;-0.035043605;0.023270262;0.01965575;0.16007265;0.02297379;-0.033555493;-0.15865159;-0.092331804;0.04671039;-0.100811176;-0.03673985;0.054758955;0.037234597;-0.11167461;0.026500909;0.040351752;-0.049280923;0.003886716;-0.02133372;0.00481836;-0.06043867;-0.029204328;0.008246303;-0.077819094;0.015264291;0.02700994;0.018456915;-0.020377386;-0.09314721;-0.18547429;-0.088359095;-0.08333053;-0.0633068;-0.012447776;0.04858311;0.054888565;-0.061221972;-0.23794274;-0.06281393;-0.10555803;-0.12642662;-0.021657007;0.012250196;-0.063371405;-0.08441105;0.024979247;0.027316144;0.024239505;0.021142902;-0.09968718;-0.017659998;-0.027184905;-0.053110328;-0.09603267;0.24150255;-0.09093734;0.036892798;-0.08498208;0.113823496;-0.11382107;-0.0626125;-0.048113547;0.005023518;-0.12026057;0.036753476;0.003329893;0.005670329;-0.10557325;-0.038159437;0.0095826145;-0.079591334;-0.036043562;0.009554645;0.015002097;-0.041785724;0.01671323;0.045261886;0.023779145;-0.042912968;0.041181725;-0.12286888;0.04457552;-0.027504813;0.035130363;0.05643852;-0.13396223;-0.10151218;-0.0646767;-0.09750013;-0.03421681;-0.0033674806;0.0076699597;-0.19666077;-0.05435319;0.15476882;-0.09125196;0.07596066;-0.053226396;0.010095784;0.027397938;-0.08828735;-0.12474597;-0.10569257;-0.0015485793;-0.031968098;0.09581839;-0.013194055;-0.059425212;-0.08814525;-0.012257024;-0.12689967;0.045427926;-0.08164546;-0.036386967;0.09054357;-0.075170636;0.0708448;-0.103841074;-0.025286132;-0.049604036;-0.10298315;-0.01010502;0.02134837;-0.11972018;0.14674191;-0.018695068;0.0017086072;-0.08340247
-0.08793789;-0.11594413;-0.13145259;-0.111697644;0.002236507;-0.04367897;-0.030480651;-0.044313844;-0.0035801379;-0.06611887;-0.1202408;-0.061984673;-0.052168038;-0.10553286;0.034493696;-0.05731896;-0.0020724044;-0.03800726;0.01027851;-0.07417131;0.022553938;0.025664886;-0.102214865;-0.0397648;-0.08693649;0.083106;-0.1030532;-0.119579665;-0.021530986;0.05546404;0.05592946;0.10956721;-0.06434626;0.03509568;-0.027634786;-0.0012713639;-0.019277923;0.019933466;-0.012056681;-0.040655985;-0.038920708;0.053006697;-0.021585988;-0.106191374;-0.036975276;0.03998573;-0.08981228;-0.03300295;0.0043414496;0.035293434;0.08243967;-0.16347499;-0.008823125;-0.00034093144;-0.039877295;0.0069080847;-0.018280482;-0.17751339;0.005265291;-0.01844884;-0.052790336;0.02805637;0.034355957;0.011441797;0.049968246;-0.028291961;-0.06278411;-0.018850207;0.020281436;0.007511026;-0.03971404;0.04818671;-0.055975392;0.018141603;-0.14149363;-0.015830683;-0.049215585;0.0775013;-0.08206295;-0.024896447;0.011203426;-0.044770494;-0.042957123;0.08041514;0.02327216;0.004065872;-0.124433726;-0.011139252;-0.030727832;-0.102017626;-0.06569338;-0.023623098;-0.075736485;-0.081388675;0.060848735;-0.09032062;-0.046796694;0.073067494;0.02560159;-0.15322395;0.046736006;-0.049707465;-0.07052821;0.118304245;-0.0016798608;-0.020654626;0.032176767;-0.046789013;0.013040828;-0.07194611;-0.1276885;-0.05469544;-0.11587186;-0.027392564;-0.08172635;-0.02902466;-0.05896039;0.01281265;-0.01534263;-0.033915177;-0.06459405;-0.06906905;-0.012592718;-0.079774;-0.097070634;-0.08628728;-0.0602502;-0.09982593;-0.16972609;-0.067215115;0.17066252;-0.020318333;-0.041866597;0.0011983436;-0.06086792;-0.10141663;0.09660459;-0.00067583204;-0.13108043;-0.043746397;-0.011754069;0.03379051;0.055509627;0.24121545;-0.09387401;0.017099319;-0.096007936;-0.07725505;-0.095312476;-0.05484889;0.038286783;-0.08181358;-0.06739076;-0.12615614;-0.09282193;0.0011634302;0.025005568;0.090578094;0.020447554;0.0578538;-0.004585304;-0.04096494;0.005765825;-0.025787808;0.034817126;-0.058838088;-0.054966398;0.012964001;-0.116026424;-0.08337462;-0.05920307;-0.025201332;0.040084742;-0.0064421077;-0.0043378896;0.032790076;-0.022712076;0.053912543;0.032595713;-0.08559494;-0.08318496;0.002972154;0.09685841;-0.11597925;-0.10898648;0.007941581;0.034798298;0.08906685;0.036091626;-0.060682517;-0.08417293;-0.05408074;0.012872185;-0.08095525;0.04506231;-0.08865167;-0.044453494;-0.20540844;-0.11139041;0.028958688;-0.062390726;-0.031427924;-0.07184434;0.22920829;0.08597696;0.0028066535;0.03317708;0.0069761355;0.0813431;-0.047242504;0.047360715;-0.08783786;-0.07279007;-0.11245459;0.06947898;0.026914608;-0.039782513;-0.032804504;0.023030195;-0.009738519;-0.019784527;-0.08217263;-0.015999043;0.10176424;-0.016498622;-0.10980407;0.059806626;-0.16716339;-0.015524446;-0.054268125;0.042005796;0.017034538;0.009777987;0.06266061;-0.0051111146;-0.045052476;0.0667135;-0.063590676;0.08922896;-0.07870191;0.005539082;0.044102985;0.018060101;-0.004372783;-0.023356551;-0.103315815;0.058799397;-0.12574781;0.00087983976;0.053839915;-0.07376872;0.06953643;0.033387683;-0.042937715;-0.037380416;-0.025056351;-0.048308462;-0.1351641;-0.080879495;-0.05857428;0.023015661;-0.031682618;-0.0061243502;0.052212797;-0.09345182;-0.010001946;0.049593072;-0.022982238;0.036888674;0.038510207;-0.14875254;-0.0613357;-0.039530683;-0.00476718;-0.026784452;-0.05716262;0.057027087;-0.014026438;0.010568627;0.029815929;-0.12980239;-0.06773454;0.016876228;-0.07380631;-0.017484523;-0.060869053;-0.067967705;-0.13310765;0.045029864;0.04169813;-0.08123624;-0.00077436067;-0.07142506;0.06715381;-0.075289585;-0.09150303;0.02595329;0.011702603;-0.0888402;-0.09286599;0.038890313;0.040122896;-0.043189917;-0.09493212;-0.024051199;0.094010174;-0.016138436;-0.05366089;0.02405975;-0.09419599;0.019169077;-0.02626073;0.055722922;0.049373683;-0.07162738;-0.073884174;-0.03262289;0.035064798;-0.014307186;-0.1636459;-0.035219543;-0.03546146;0.09862901;0.047393836;-0.091208436;-0.013229882;-0.123992905;-0.109370634;-0.054657552;-0.07066164;-0.022333626;0.030907515;-0.022607336;-0.14767337;0.018804722;-0.08166454;-0.082084045;0.013305448;-0.038440935;-0.027993036;-0.09179035;0.046687786;-0.046177;0.016674578;-0.08695208;-0.07338982;0.047303718;-0.11417381;-0.05810894;-0.1380156;0.037142787;0.10003183;0.008421631;-0.081275195;0.038510688;-0.048169572;0.057234194;-0.11493558;0.04252036;-0.08320996;-0.07047081;-0.04214765;-0.062264673;-0.08059724;-0.07726772;-0.07682746;0.037845798;0.022899333;-0.09761817;0.030985242;-0.04377185;-1.685007e-05;0.084072046;0.06845623;-0.022938862;-0.0330479;0.013317783;0.00323763;-0.11458415;0.08655941;-0.030443141;-0.09364266;0.057521462;-0.119922;0.01183214;-0.07752332;0.016982;0.03888823;-0.10361673;0.07968641;0.019677604;0.0416118;0.010123317;-0.10744561;-0.05597351;-0.26527447;0.0213468;-0.019685231;-0.008892679;-0.054818254;-0.086298876;-0.065540984;0.054718077;0.011774593;0.04753244;-0.04057041;0.12520508;-0.0064254953;-0.011964254;-0.0095411325;-0.08733591;-0.04104575;-0.019615851;0.023853373;0.035618715;-0.042818084;-0.079898834;-0.09545355;-0.1002603;-0.0048834505;0.043936163;-0.037991647;0.05572792;-0.038607568;0.0959587;-0.07305802;0.096033975;-0.026038788;-0.055018786;-0.040320527;0.018497556;-0.08701794;0.032884285;-0.039653573;-0.104575776;-0.09694566;-0.02781937;-0.09760971;0.0012967516;-0.09003689;-0.111775056;0.035838142;-0.077164486;-0.09344628;0.0017385691;0.018231548;-0.032586236;-0.14489794;-0.046504233;-0.11349299;-0.059600413;0.06532627;-0.033283718;-0.09520808;-0.12154856;-0.106419444;0.026187971;-0.05030938;-0.04446703;-0.044820376;-0.028643604;0.0022255313;0.07178928;0.06760676;-0.06972856;0.12944971;-0.10631608;0.018784057;0.018439267;-0.044336386;0.03696421;0.021717317;-0.074243456;0.010698903;0.08837739;-0.09350457;-0.07774047;-0.064525306;-0.16372201;0.018865686;-0.16471906;-0.009592829;-0.0941001;0.028309869;-0.106649436;-0.095650576;-0.056349084;0.011784249;-0.09265114;-0.0032037504;-0.0010939366;-0.042395156;-0.09108934;-0.08264104;0.00069946924;0.011419318;0.097439416;-0.06445201;-0.11609913;-0.01348763;-0.068113886;-0.026781116;0.15021597;-0.043948844;-0.006836951;-0.050664082;0.083175115;-0.045395166;-0.16437787;-0.087755844;-0.10239166;-0.1358897;-0.09476856;-0.07423886;0.031751003;0.0028488347;0.056059293;-0.016215796;-0.18732128;-0.112706326;-0.0066575864;0.0062326547;-0.016332055;-0.04687478;0.07387949;-0.017035943;0.022732934;0.026808817;-0.06138873;-0.0476302;0.010457167;-0.04842713;0.05271872;-0.1302043;0.0064194174;0.061980333;0.0023214554;-0.09597853;-0.05112269;-0.03514853;-0.2358486;-0.023476737;0.10388575;-0.065490834;-0.054132342;-0.048608225;-0.018773925;-0.06271329;-0.109442614;-0.10097229;-0.059560325;-0.033139016;0.064425945;-0.004268876;-0.042754516;0.06769718;-0.01929099;0.04265491;-0.14119907;-0.014961976;-0.107728;0.008204676;0.17682856;0.026194107;0.06332106;-0.06747239;-0.07863101;-0.03083085;-0.011580865;-0.0593456;-0.049758513;-0.0013771304;0.1004774;-0.07154246;-0.06509324;-0.07095508
-0.01476937;-0.14041363;-0.04370314;-0.0737482;-0.034064386;0.07145215;-0.12975402;0.0165802;0.03387172;-0.021175915;-0.015651964;0.07471262;-0.022567555;-0.16879158;-0.025830848;-0.042221732;0.106207974;-0.062932186;-0.015957056;0.03859291;-0.077899896;-0.056183625;-0.09140582;0.067973405;-0.019912789;0.044271074;-0.073757365;-0.16978946;-0.11062572;0.050790068;-0.078554004;0.11035034;-0.088446364;-0.027539207;-0.051373553;-0.014967734;-0.037314314;-0.0044808933;-0.011242224;-0.07112288;-0.08714738;-0.055227824;0.028025407;-0.0019656352;0.023661818;0.029295843;0.029366259;0.021476362;-0.10243595;-0.010540194;0.06523912;-0.08568124;-0.09195742;-0.008394525;-0.03125125;-0.035236225;-0.058330465;-0.12350549;-0.045206424;-0.09576449;-0.046249397;0.07671411;0.033767577;0.051699862;0.0017838967;-0.1360333;0.09123953;-0.012304477;-0.10049591;0.0058172964;-0.043021247;-0.01588843;-0.041894786;-0.11499178;-0.030609773;0.09167994;0.018511863;0.037710935;-0.063662544;-0.054717;-0.060127717;-0.0629627;0.01814349;-0.0089139175;-0.062070567;0.036958124;-0.124369085;-0.048471253;-0.08151589;-0.08561742;0.026046457;-0.057239212;0.021599513;-0.06590122;0.013227327;0.050651856;-0.16417901;0.037349187;0.025148042;-0.12802947;0.02438372;-0.039716356;0.052080054;0.068045095;-0.10977005;-0.037653092;0.04824717;-0.040360525;-0.086722896;0.040284656;-0.09772498;0.02580387;-0.11493559;-0.095630884;-0.10523868;-0.15232782;0.02815185;-0.0076606586;-0.00021194761;-0.044464838;-0.08592752;0.073013276;-0.13124573;0.016686017;-0.09013744;-0.054821596;-0.010511724;-0.11012457;-0.207078;-0.010599128;0.21429431;0.010618009;-0.061477356;0.10415419;-0.16816573;-0.102514304;-0.015117293;-0.03139929;-0.08202044;-0.059267655;-0.011744208;-0.11068294;0.010517467;0.2024407;0.040387914;-0.07028697;-0.021037158;-0.11090242;-0.100553386;-0.108349524;-0.028345088;0.015364994;-0.033288747;-0.03938007;-0.14999938;-0.04441126;-0.012277655;-0.022189954;-0.10114563;0.013040994;0.00283149;-0.053830393;0.085243724;-0.16062634;0.011298284;-0.01852947;-0.03200669;-0.098245;-0.22022587;-0.08531675;-0.0785456;-0.055913977;0.017090812;-0.06915193;-0.039507687;-0.048314445;0.008925827;0.05245451;-0.012883269;-0.024937281;-0.08405114;-0.06860682;0.093972914;-0.020449936;-0.07444957;-0.08018209;0.02666853;0.04261803;-0.020088982;0.04795663;-0.06908167;-0.08930895;-0.00015772789;-0.05360769;0.02330633;0.03829682;-0.025121927;-0.06669554;-0.061737906;-0.08199447;-0.031637136;-0.04380115;-0.085548356;0.17060547;0.009531132;-0.07477496;-0.021963518;-0.0007184235;-0.047797892;-0.07299204;-0.063407004;-0.07105689;0.0022011294;0.019000249;-0.017424935;0.046525095;-0.12790321;-0.06915615;-0.04157124;0.041965123;6.141006e-05;-0.072627716;-0.0694614;-0.051975932;0.08297108;-0.066604935;0.041761443;-0.14995271;-0.061517306;-0.056744657;-0.08935374;-0.024730112;-0.07986366;-0.037307825;-0.025153754;0.05500414;0.019206692;-0.013636671;0.10539568;-0.088763654;-0.060759343;0.08477563;-0.026374713;-0.012478968;-0.051051173;-0.10747137;0.059910044;-0.06649709;-0.044401642;-0.01807915;-0.06217248;0.0035219986;0.034684237;-0.12613706;-0.048498;-0.029129418;0.01955824;-0.09724874;-0.114851;-0.029478615;-0.08792341;-0.045105573;-0.10009144;-0.08266578;-0.024435727;-0.074802406;-0.006953098;0.01901987;-0.016974045;-0.0287259;-0.13156344;-0.19692525;0.053727653;-0.06808578;-0.02701789;-0.1410951;-0.088065766;-0.025420362;-0.10871903;-0.029810168;-0.14591467;0.037597943;-0.05713739;-0.11950468;-0.09568542;-0.14206186;-0.02586008;-0.015857909;-0.076280385;-0.08013498;0.0031692367;-0.02839976;-0.14337802;-0.03393738;-0.09661212;-0.07967136;0.05087757;-0.069912545;-0.07526021;-0.004330687;-0.0634091;0.023152886;-0.059516273;0.01892705;-0.045200042;-0.02416366;-0.089356385;-0.006216251;0.008106334;-0.08740321;-0.028929982;-0.057228338;0.007640763;0.0580376;0.008378336;-0.04301732;-0.13253684;-0.1087687;-0.057869613;-0.08452699;0.07602705;-0.1341348;0.0924066;-0.072838545;0.02421725;-0.023538863;-0.112258166;-0.09963155;-0.06501109;0.07946906;-0.06274043;0.032284036;-0.17405842;-0.123408526;0.024418503;-0.12283866;-0.07753091;-0.026323156;0.02409084;0.0022812863;0.05162531;-0.0246682;-0.0111700855;-0.0347199;-0.07830566;-0.048919618;0.051726747;-0.12079239;-0.10044563;-0.08753476;0.05533583;0.10303583;0.039799433;-0.009679908;-0.07069176;-0.019636698;-0.009102813;-0.11343343;-0.037048083;-0.026445976;-0.07733639;-0.049337097;-0.07086642;-0.10851323;-0.03305934;0.043933745;0.042132717;0.096940346;-0.027830472;0.0024437562;-0.0586329;0.061961852;0.13076663;-0.008573357;0.058323413;-0.11980041;-0.082867265;-0.09069464;-0.004289198;0.03831146;0.0021434221;-0.074599735;0.062137432;-0.048564535;-0.059004303;-0.07052225;0.054247465;-0.05619266;-0.018332083;0.05286671;0.031635616;0.034715615;-0.0930705;-0.03171469;-0.037074674;-0.21541245;-0.09088276;-0.051276576;0.0446482;-0.06406969;0.014776596;-0.09913114;-0.031384517;0.015347291;-0.018161975;0.061704177;0.121865205;-0.056032974;-0.082049124;-0.13587536;-0.10293404;-0.02147975;0.03631554;0.0142581025;0.034562618;-0.09427392;0.031775773;-0.204084;-0.016540762;-0.013877508;-0.03918532;-0.023018703;0.051880483;-0.006894244;0.12571001;0.04786354;0.075589076;-0.095573075;0.005353723;-0.075819604;-0.05414988;0.019010562;-0.10450039;-0.051559374;-0.091332294;-0.10866576;-0.11287678;0.019198032;-0.008443673;-0.14074926;-0.07623486;0.029511906;-0.069333754;-0.07442788;-0.09260439;-0.02488795;-0.03653498;-0.2267719;-0.058100864;-0.04149979;-0.0051291375;0.109508;0.0405296;0.05245152;-0.13914023;-0.02933118;0.039632402;-0.041494317;0.009138792;0.0074256193;-0.058643233;-0.14298847;0.036571417;0.032792747;-0.0066830656;0.058317043;-0.0546979;-0.05339316;-0.044377428;0.012481072;-0.070336126;-0.10837555;0.06338625;0.02157182;0.07410028;-0.09008768;-0.06161438;-0.1167832;-0.075569734;-0.10654938;-0.09775954;-0.05499585;0.007307146;-0.0218866;-0.07130278;-0.23077878;-0.11454609;-0.03141551;-0.21730728;0.03449411;-0.014807113;-0.028287774;0.05141363;-0.024160035;-0.015423692;-0.06278217;0.13952851;0.024648672;-0.055751488;-0.098697215;0.021344075;-0.01682809;0.264208;-0.06733355;-0.03234676;-0.055939306;-0.048490807;-0.10252697;-0.038694136;0.06856967;-0.08641993;-0.07746022;-0.0883708;-0.069937006;-0.10108211;-0.01690785;0.075186275;-0.0059676897;-0.14681074;-0.11145581;0.06518753;0.035368904;-0.07098442;0.03646203;0.018950913;-0.027130505;0.054102488;-0.05239148;-0.032966677;-0.014776934;0.06539224;-0.096876174;0.051097162;-0.23043707;-0.09141458;0.02777815;-0.057554968;-0.03216234;-0.03083237;-0.060618702;-0.098331645;-0.029882953;0.11349165;-0.16868515;-0.047650345;-0.14251608;0.01526411;-0.07675974;-0.09858281;-0.0861754;-0.044368982;-0.08674048;0.014051109;0.0896596;-0.08737229;-0.070452675;-0.1346415;-0.060901977;-0.0326349;-0.02929999;-0.009706761;0.017001417;0.1353983;0.0142765045;-0.07390343;0.0010407177;0.0138627235;0.039072577;-0.019026073;0.013832547;-0.07896156;-0.06447117;0.1580296;0.0089003295;-0.10483605;-0.004674428
-0.053662732;-0.047067974;0.0059461244;-0.03395448;0.037600685;-0.06502863;-0.044249073;0.031092547;-0.06312007;-0.007493073;0.029400917;0.023668006;0.0047986675;-0.0979123;-0.058718678;0.041667074;0.06528627;0.020119151;0.046240356;-0.070577905;-0.07618894;-0.11189017;-0.014107963;0.082657546;-0.094960116;-0.046432056;-0.12920856;-0.13661282;0.0138500435;0.09275882;0.05089483;0.091688484;-0.05506359;-0.031687375;0.03494869;-0.0044312603;0.060848583;0.113932095;-0.04073267;-0.12897462;-0.005085908;0.052574642;-0.018148877;0.018642833;-0.105454475;-0.0155286025;-0.012283706;-0.011350692;-0.030389711;-0.0052220216;0.06873837;-0.03193316;-0.0068997787;-0.027479252;0.049415078;0.05395662;-0.10858908;-0.08828688;0.00013040344;-0.027847877;0.026740277;0.054112826;-0.08143191;0.062073015;-0.091487944;-0.09045934;-0.013137762;0.04971368;0.020448463;-0.121863194;-0.021571605;-0.015900029;-0.054888852;0.028514648;-0.13873258;0.10451517;-0.07285675;-0.01619772;-0.1043527;-0.038929015;-0.020660212;-0.03906799;-0.043338947;-0.01793636;0.044165727;-0.08527179;-0.09067442;-0.042703126;-0.1331846;-0.049915887;0.026118146;-0.1268323;-0.07505124;-0.09618832;0.02363129;0.048512205;-0.12417519;0.06646263;0.055714637;-0.060108524;0.01656414;-0.07826294;0.046769496;0.05846291;-0.06118723;-0.08569478;-0.06684594;-0.08923313;-0.07256385;-0.036212184;-0.12605017;-0.089290075;-0.11236807;-0.06025845;-0.09519781;-0.16244015;-0.102027364;-0.0034639996;-0.074904956;-0.08328672;-0.03340953;0.036479086;-0.09416525;-0.08228148;-0.09165477;0.023032404;-0.038528938;-0.08749323;-0.22696316;-0.023125356;0.17769429;-0.025163842;-0.037252888;0.04138507;-0.19046655;0.030008866;0.07307947;0.022510462;-0.09942075;-0.08639978;-0.064142995;0.050697662;0.080844104;0.21583763;0.022544751;-0.10188033;-0.029433286;-0.15598547;-0.021064637;0.022059439;-0.022243721;0.04560962;-0.026751036;-0.1679157;-0.07332492;0.03739762;-0.0140278675;0.11642843;-0.07043372;-0.060259975;-0.0068200487;-0.011110312;-0.03268912;-0.09532946;-0.00262697;-0.044889122;-0.06097695;0.006152533;-0.13437167;-0.01788646;-0.015015971;0.007486372;-0.009121428;-0.05957899;-0.12410731;-0.06656001;-0.039202258;0.027909694;-0.103007674;-0.048209567;-0.09981303;-0.030220807;0.12485027;-0.17164813;-0.057687018;0.021005822;-0.108876966;0.03358512;-0.076653644;0.0008661124;-0.09770195;0.0053851837;-0.116570644;0.0063445093;0.058352266;0.008938223;0.0016104556;-0.20647343;-0.032576926;-0.05056584;-0.015658502;-0.12139328;-0.06279553;0.24043176;0.08002592;-0.04319815;-0.08637315;-0.08790293;-0.010370186;-0.01776647;-0.029839218;0.013461448;-3.2435495e-05;-0.06778695;-0.03455107;0.028998546;-0.081141755;-0.055553917;0.027624499;-0.07979142;-0.048769414;-0.009497734;-0.024737632;0.007719769;0.07838563;-0.09854622;-0.06729574;-0.054099485;-0.114983074;-0.012510415;0.024739102;-0.058555517;-0.1154847;-0.035048872;0.008652568;-0.075021416;0.032655574;-0.08716735;0.151141;-0.011347365;0.02698793;0.080508724;-0.0797346;-0.008340954;0.07791584;0.039957203;0.0037579702;-0.12100484;0.031742107;0.0033444564;0.01628438;0.008626949;-0.073072076;-0.1192595;-0.10837653;-0.10685945;0.017837575;-0.07081621;-0.06834031;-0.041250657;-0.053588588;0.068264864;0.031785697;-0.017077038;-0.025920367;-0.038761653;0.062214084;-0.0061777984;-0.035540473;0.056918275;-0.082745545;-0.20750126;-0.09043691;-0.032683372;-0.01596282;-0.02932328;0.0069741933;-0.055291303;-0.0008295312;-0.059514787;-0.17254399;0.055873748;-0.09817715;-0.037090342;-0.08158979;-0.05051648;-0.062200323;-0.0004672814;-0.09705992;-0.015888697;-0.07863883;-0.04372869;-0.08323596;0.01945649;-0.15128964;-0.08043608;-0.07565643;-0.044808198;0.018385753;-0.056410108;-0.02352672;0.026372358;-0.04714368;0.016358545;-0.05871389;-0.013522132;-0.036594417;0.049698412;-0.04546162;-0.119950265;-0.09636852;-0.04120217;-0.05496009;-0.0670524;-0.051476616;0.046642624;-0.12890553;-0.030274028;-0.07752841;-0.15169847;0.04394889;-0.08126629;0.10398395;-0.016536376;0.034841042;-0.019109214;-0.14118348;-0.12067885;-0.0060827048;-0.02752275;-0.061573625;-0.029080287;-0.07155103;-0.009940726;-0.076319166;-0.12181951;0.07281104;0.052520525;0.03480466;-0.0021716396;-0.027678268;-0.019337365;-0.08653532;0.0498182;-0.10468804;-0.04991646;-0.02227577;-0.18602905;-0.06973944;-0.15034834;-0.011936978;0.07780083;0.01211371;-0.010421961;0.03164432;-0.060940545;0.049760234;-0.0888955;-0.036941543;-0.04830112;-0.14212836;-0.05030259;-0.10411434;-0.028850272;-0.021642746;-0.108549625;-0.11012882;0.09821129;-0.108659774;0.054171216;-0.045902815;0.056440037;0.054723613;-0.07386484;-0.04681929;-0.03878884;-0.08066326;-0.029017435;-0.028955506;0.083260044;-0.03424156;-0.14011692;-0.00030528655;-0.17223226;-0.057317037;0.03156709;-0.044889804;0.034351274;-0.13316694;0.025211839;-0.062132794;-0.09269123;-0.0001964198;-0.094182394;-0.065876156;-0.19822338;-0.050328795;-0.10482658;-0.06012264;-0.061034765;-0.085777335;-0.10365028;0.0060728826;-0.05705757;-0.070193924;0.0421017;0.13945562;0.0146619845;0.038785905;-0.087275535;-0.039487287;-0.093171716;0.036209963;-0.09622798;-0.06436279;-0.013590374;-0.03581289;-0.16244842;-0.07595039;-0.008789196;0.052649546;0.00948501;0.022159608;-0.108799845;0.0013369671;0.04023509;-0.017431172;-0.007729533;0.085054286;-0.04251827;-0.037253693;-0.03411255;-0.04085513;-0.11457771;-0.07986234;0.026046742;0.018818306;-0.013305481;-0.0015262223;-0.12505129;-0.019644195;0.07855908;-0.09285437;-0.024193056;-0.044389702;-0.112299524;-0.03153398;-0.08791996;-0.015779477;-0.0746478;-0.03449227;0.023357093;0.010580451;-0.08177887;-0.20361225;-0.08036721;-0.10003752;-0.07973947;-0.0056056604;0.035659607;-0.06755785;-0.08337569;0.029673956;-0.047198378;-0.070629805;0.058275823;-0.028262641;-0.05444192;-0.13889037;-0.09507841;-0.017435703;-0.09390962;0.002020137;-0.005812836;0.006140543;-0.05642449;0.025480516;-0.09977533;-0.112861045;-0.050996996;-0.16012129;-0.063213624;-0.10165864;-0.101720385;-0.1138736;-0.10630664;0.024723314;0.019449139;-0.085597575;0.015330768;-0.031043153;-0.019481646;-0.07334836;-0.0373046;0.021845575;-0.0807462;0.13630925;-0.107345864;-0.067954876;-0.030627424;-0.07649197;-0.10412952;0.27597705;0.0045726043;0.04097852;0.02827599;-0.08935437;-0.030433536;-0.13947186;-0.03440527;-0.119390525;-0.15706018;0.042594988;-0.03674072;0.034918163;-0.028750619;-0.022965265;0.0049973466;-0.028784707;-0.06323755;-0.04841682;0.053998787;0.03535465;-0.023144053;-0.021843696;-0.026682405;-0.06630848;0.04368195;0.019619154;-0.056027442;0.0010370548;0.015089491;0.030335868;-0.235689;0.044819504;0.054832645;0.010542008;-0.09539968;-0.011772565;-0.04716591;-0.14437044;-0.016659971;0.11897628;-0.10963842;-0.070124075;-0.14224431;0.027781487;-0.018751025;0.034920108;0.02136966;-0.047507063;-0.13978876;-0.08820284;-0.05397101;0.039240886;0.007852311;-0.08376733;-0.026427034;-0.117246605;-0.10206874;-0.030269118;0.024111273;0.119605936;-0.06814388;-0.085735165;-0.052770667;-0.10171646;-0.0832071;-0.11156197;-0.10111351;-0.085540645;0.013584084;0.111777194;-0.09421805;-0.013781599;-0.04328609
-0.015449606;-0.028800286;-0.11906618;-0.12019884;-0.08904884;-0.10839562;-0.12587786;-0.10273904;-0.012104556;-0.0996652;-0.04647388;0.003550911;-0.07551669;-0.1195113;-0.077724025;0.063799694;0.018751688;-0.105979785;-0.082510225;-0.079799585;-0.06430089;0.03857595;-0.079885155;0.063112654;-0.023484105;-0.016004106;-0.060353465;-0.03606985;-0.06537059;0.047938973;-0.005215899;0.0014085305;-0.047629725;-0.0738458;-0.009555838;0.03398053;-0.008614218;0.10025249;0.07497006;-0.08728989;-0.017344758;0.054125875;-0.07621293;0.046170197;-0.029649016;-0.024822295;-0.022483768;-0.110485174;-0.021229643;-0.03631011;-0.060773887;-0.123357095;0.037432376;-0.058252305;-0.08496383;0.02440732;-0.052181035;-0.15525703;0.014115312;-0.09486361;-0.07736737;-0.028597593;0.05391756;-0.02843108;0.061086334;-0.09918536;-0.031867716;0.027730355;-0.07571435;0.016093697;0.024864322;-0.076787874;-0.08296316;0.057544935;-0.07125825;0.07437304;0.06279355;0.0072662453;-0.025319425;-0.008748739;-0.07868637;-0.18754421;0.06068763;0.033034354;0.09782525;0.0024178429;0.026053976;-0.022137573;-0.08622461;-0.18715215;-0.08836927;-0.07120502;0.06251123;-0.032259896;-0.0015654197;-0.06910073;-0.049337942;0.09219018;0.012463083;-0.0007758042;0.05938645;-0.11603724;0.0076781036;0.11646687;-0.07609649;-0.13261876;-0.111390285;0.057988476;-0.10947777;-0.015371386;-0.055278435;-0.019948363;-0.16706397;0.028577505;-0.025272965;-0.05841844;-0.0093183005;-0.040613964;0.020444283;0.032047182;-0.060849283;-0.052404605;-0.0025428405;0.058148134;-0.024035867;-0.12407457;-0.10221149;-0.018143117;-0.10424633;0.017779363;0.18258291;0.06193598;-0.10122803;0.017528635;-0.07829986;-0.012098774;0.039003965;-0.075175084;-0.09158834;-0.13527112;-0.05649081;0.048077874;-0.03769014;0.17332456;-0.022630991;-0.013788505;-0.1319402;-0.09960835;-0.10661882;-0.09309411;-0.044672728;-0.101842076;-0.007245154;-0.080061786;-0.08538879;0.030486071;-0.0031831318;0.09916201;-0.05043501;-0.049618196;-0.024691887;-0.112733185;0.026339618;-0.12363095;0.0032264744;-0.06235231;-0.09934805;-0.04944906;-0.20182785;-0.021203285;-0.014140641;-0.13020894;-0.042397555;-0.015009126;-0.13364297;0.003940247;-0.06436024;-0.053803958;0.016743263;-0.0036088077;-0.037262242;-0.04566697;0.088682674;-0.1609445;-0.12679088;-0.12115571;-0.10305506;-0.049416315;0.005019585;-0.05905348;0.026804505;0.014637729;0.019874506;-0.0664986;0.009729507;-0.0010335724;-0.12208646;-0.08032009;-0.172564;-0.07729969;0.01907686;0.003399234;0.049444027;0.20680727;-0.0090246415;-0.05176995;0.052668497;-0.08127815;0.07400089;-0.051607776;-0.023478547;-0.08942073;0.0011536592;0.033218753;-0.066822514;-0.08959941;-0.12742715;0.0070490534;-0.07142505;0.014402443;-0.06589624;-0.008317375;-0.09033415;0.01566115;0.06489262;-0.16749078;0.054202728;-0.10652706;-0.05084249;-0.018544208;0.010815606;-0.11446466;-0.05477608;-0.07575151;-0.110021845;-0.07283128;0.041293472;0.018487746;0.13432214;-0.12147334;0.0052585453;-0.05954594;0.013682213;-0.010187658;-0.047505174;-0.033397105;-0.017310083;-0.10448386;-0.10537751;0.0011429857;-0.031204475;-0.07735579;0.0043411017;-0.0883887;-0.040728685;0.016376007;-0.006821571;-0.18048497;-0.06558736;0.026197769;-0.07283474;0.0061923466;-0.04907513;-0.099741556;-0.07205416;0.08017133;0.05279213;-0.017672522;0.055302072;-0.047458198;-0.12614934;-0.1674302;0.05012142;0.005039859;-0.03237363;-0.13506603;-0.008626075;-0.084704995;-0.13499145;-0.015462468;-0.18899794;-0.06627622;-0.09817146;-0.10624458;-0.14702041;-0.14130552;-0.13462308;-0.045447852;-0.043551862;-0.0034040993;-0.030704686;-0.054293837;0.028229835;-0.046775885;-0.1467579;-0.09777564;0.0027872655;-0.07682694;0.06046585;0.04895556;-0.03169879;-0.027157027;-0.07596335;-0.04006975;-0.18690729;-0.03381768;-0.01666163;0.028801236;0.055948857;0.010398259;-0.087884896;0.11289967;-0.0434346;-0.0030662003;-0.06596114;0.019225659;-0.13549027;0.0065321154;-0.1788336;-0.15094607;-0.034472033;-0.13368039;0.09305387;-0.01915951;0.059450213;-0.0865191;-0.090493865;0.01100819;0.021014223;0.051206265;-0.05382073;-0.05925655;-0.11487893;-0.15335047;-0.07506526;0.020722857;0.059856307;-0.05228829;-0.07881434;-0.025064072;-0.010014651;0.044302694;-0.044293698;0.003590499;-0.0725753;0.05731195;0.05943613;-0.11726818;-0.14744821;-0.14973423;-0.03972113;0.054292306;0.030316565;-0.07980907;-0.0019509827;-0.05354988;-0.06509941;-0.032874793;-0.05527587;-0.072319314;-0.12171196;-0.010514701;-0.11937421;-0.09654153;0.016803468;0.0014578494;0.044135246;-0.003891844;-0.1611722;0.017104544;-0.07574711;-0.087647974;0.06878566;0.07304721;-0.061751828;0.025901748;-0.091555424;-0.090423875;-0.06327527;0.07265798;-0.0332361;-0.079563916;0.026173087;-0.13321532;0.02441676;-0.04486751;-0.119660966;0.052711565;-0.15564747;0.061982065;-0.08067637;0.0591412;-0.04370713;-0.09667448;0.0023699263;-0.20752217;0.0035757618;-0.020791048;-0.033572063;-0.014414979;0.008821264;-0.01917419;0.06984527;-0.0035363906;-0.0737129;-0.05765408;0.040366977;0.0026164562;0.006851031;-0.14269006;-0.043281093;-0.06515647;-0.01880259;0.064043686;-0.056194738;0.016239693;-0.004867509;-0.052641;-0.063745536;-0.077958554;-0.058801617;-0.010211448;-0.09391185;-0.032723565;0.10863907;-0.08643182;0.009697575;0.028804054;-0.0039455597;-0.06960379;-0.08432718;-0.05383252;-0.057806138;-0.069454394;0.022237405;-0.0038873483;-0.046330076;-0.04651128;0.010989263;-0.07644729;-0.15463242;0.013465755;-0.076106906;-0.057765666;-0.07663148;0.0028080055;-0.043485165;-0.122820154;-0.14986737;-0.010574811;0.03980935;0.072576344;0.046624213;-0.08785123;-0.18174155;-0.11276268;0.045040336;-0.13171051;0.007888456;-0.040836982;-0.07852588;-0.16201073;0.049055967;0.007907941;0.043219008;0.03138316;-0.03396508;0.0038849965;-0.109006815;0.008258994;0.07769598;0.016503222;-0.050438043;-0.03325473;0.05337162;-0.04047876;-0.024189295;-0.01637374;-0.113113515;-0.03074934;-0.013311411;-0.024978535;0.008582408;-0.01629281;-0.088073425;-0.20074695;-0.059619986;0.032393914;-0.08936022;0.006864864;-0.08124481;-0.07008584;0.04228081;-0.08142818;0.008576551;0.010669282;0.17412135;-0.0369495;-0.017187443;-0.01659006;-0.00021820745;-0.028993703;0.107099436;-0.070067026;0.027245102;-0.06796595;-0.023953354;0.0025780117;-0.15354408;0.03989446;-0.05750772;-0.1606434;0.049904067;0.046616018;-0.044607237;0.03584432;0.148342;-0.08119918;-0.1770961;-0.022736419;0.05749838;-0.022480711;-0.09721359;-0.036307216;0.028495708;0.07849591;-0.04698182;-0.080781;0.0015611423;-0.025798569;-0.040857606;-0.013815716;0.036167227;-0.13228582;-0.068119146;0.0029209796;-0.033615798;-0.07978601;-0.08099371;-0.006057192;-0.22956993;-0.06429831;0.07080874;-0.046931203;-0.1092118;-0.16017576;0.05809757;-0.06577688;-0.0063104304;-0.07448333;-0.13570303;-0.074966;0.071421;-0.020968469;-0.056719597;0.025771245;-0.15892537;-0.02649446;-0.067708574;-0.006196455;-0.0205116;0.0327432;0.13572374;-0.014532447;-0.09769638;-0.020069946;-0.030736407;-0.1009822;-0.04564095;-0.05600082;-0.10700173;0.037365686;0.09696606;-0.011754071;-0.061727837;-0.09665455
-0.08692237;-0.006874088;-0.104708634;0.009683805;-0.09425741;-0.0391516;-0.13371578;-0.067539304;0.001773869;-0.03083524;-0.10738213;-0.06346503;-0.06196654;-0.004572176;-0.04207544;0.056823045;0.017002301;-0.06653795;-0.018230591;-0.091325894;-0.027689273;-0.12087024;-0.143983;-0.055275895;-0.09964059;0.05104344;-0.06279673;-0.1161049;-0.07029549;0.015401272;0.048100896;-0.03637555;0.011741561;-0.05637581;-0.043201018;-0.006157428;0.051705245;0.1044613;-0.0320863;-0.09510076;-0.022912635;-0.05265005;-0.022297852;-0.042487793;-0.14280972;0.0003656845;-0.12628534;-0.09999905;0.038923953;-0.026333801;0.056884885;-0.11076555;-0.076912224;-0.05032921;-0.037928768;0.056539368;-0.07437628;-0.08283237;-0.12985273;0.03749729;-0.046756327;-0.012799907;-0.04292286;0.0057282276;0.051893145;-0.045870423;0.050854027;-0.069917;-0.048374906;-0.011299808;-0.014061997;0.016945764;0.021042762;-0.05819353;-0.12469544;0.10185834;0.04556591;0.039444443;-0.0105726;0.0148535855;0.052018456;-0.119566545;-0.10040814;-0.058804683;0.099650286;0.0027344075;-0.01620223;-0.05917928;-0.06516805;-0.1816234;0.016975608;-0.027400045;-0.02037348;-0.099507034;-0.016232975;0.04307005;-0.084002465;0.015766589;-0.03252016;-0.0815598;-0.02948824;-0.03414063;-0.05602033;0.051092945;-0.015110336;-0.10884776;0.030582516;-0.039268527;-0.090487376;0.0046335133;-0.03458647;0.026132023;-0.103329666;-0.031506427;-0.008541882;-0.16805063;-0.06470025;-0.04920998;-0.1256421;0.009679651;-0.098327525;0.0011895308;-0.06412525;0.06486302;0.023325227;-0.045106456;-0.055563778;-0.07478875;-0.20640564;0.024016405;0.1800839;-0.055519633;-0.023786578;0.09002746;-0.19451573;0.0025206418;-0.03742008;0.009567594;-0.18379517;-0.01923307;-0.017909;-0.07087816;0.015120969;0.24531257;0.004712863;-0.07545806;-0.14371128;-0.030198678;0.030251302;0.01742642;-0.0005949439;0.03414028;0.032039832;-0.1888816;-0.18309714;0.03088951;-0.09952475;0.054045662;-0.040056765;0.044398047;0.0044822036;-0.12592024;0.0469967;-0.11226943;0.035918217;0.042799667;0.0013446958;-0.061867904;-0.18924265;0.045718525;-0.09623849;-0.13020748;0.012182271;-0.023241416;-0.09454119;0.03226519;0.026727222;-0.025895923;0.044187468;0.042770192;-0.039412435;-0.084913984;0.0068527088;-0.13516629;-0.02039076;-0.007154935;-0.018323459;0.090979435;-0.019053038;0.01126586;-0.10450707;-0.07054655;0.023991557;-0.02027871;-0.06967777;-0.091810845;-0.076559916;-0.04986984;-0.13191812;-0.0010479824;0.024663081;-0.11746564;-0.03494726;0.11961155;0.0082743615;-0.0952808;-0.020243287;-0.019275092;-0.030786892;-0.040162828;0.019889008;-0.07946895;-0.11744654;-0.048333745;0.025014224;0.04951646;-0.05053825;0.04433755;-0.015377238;-0.0771735;-0.040354736;0.026112994;0.044718634;0.06257308;-0.022407867;-0.12360781;0.051992662;-0.08658781;-0.14029604;0.008695487;-0.10162049;-0.0027750493;-0.13241749;0.02338664;-0.12907586;0.04383864;-0.003542452;-0.02780228;0.13070416;0.011227628;-0.04893803;0.08186139;0.008931133;0.0049370904;-0.05905477;-0.0978577;-0.0038124665;-0.023091812;-0.03071417;0.046678577;0.04447907;-0.050868385;-0.049841408;-0.09775889;0.040088374;0.009915015;-0.036043514;-0.17444895;-0.0010176776;0.08106357;0.034081202;0.03196578;-0.0038911414;0.04519618;-0.06344578;0.09957267;0.0043738433;-0.12843122;-0.07985531;-0.059712745;-0.02838539;-0.15107831;0.03831408;-0.033200208;-0.022267463;-0.103156425;-0.004372813;-0.11873294;0.0006660458;0.022421045;-0.10308877;-0.07347847;-0.02327144;-0.06239744;-0.060706154;-0.09429346;-0.102764055;-0.107882634;0.0066354163;0.043350313;-0.11508581;0.010237088;0.008654242;-0.0026976645;-0.16205306;-0.058424495;-0.06331397;-0.064291224;-0.07265537;-0.0037116592;-0.05941321;0.078167215;-0.02613352;-0.056946844;-0.13255632;-0.03919444;-0.0649971;0.092394575;0.04387451;0.0023160526;0.03249165;0.10772682;0.044881903;0.026836084;-0.039899513;-0.004892118;0.009239672;-0.038929977;-0.051241312;-0.16434748;-0.041983683;-0.04490717;0.057507027;-0.07038165;-0.0034231197;-0.012252961;-0.12113458;0.043728147;-0.025102763;-0.06115983;0.009148826;0.031442694;-0.111671045;-0.055019487;-0.08098811;-0.03396008;0.06465608;-0.06169743;-0.02426197;-0.023283312;0.003921072;0.03254074;-0.11441459;-0.05061973;0.009490711;-0.029086482;-0.019683143;-0.038228977;-0.04284132;-0.015727086;-0.030808054;0.11413192;0.024275137;0.044535577;0.045060277;-0.030130293;-0.11053548;-0.08243093;-0.0029663218;-0.0024954267;-0.12893927;0.0013462898;-0.0017279559;0.011887496;-0.06361294;-0.07375464;-0.109964885;0.10292603;-0.10311917;0.010745949;-0.048892677;0.0050023915;0.050223194;0.020566992;-0.054841675;-0.0018860092;-0.09655897;-0.099263385;-0.061633974;-0.06152048;-0.072440386;-0.022977462;0.0032610768;-0.16833133;0.011744293;-0.07229248;0.019222975;-0.085946016;-0.053305592;0.063304685;-0.019310912;0.036631603;0.008638448;-0.044466786;-0.02191895;-0.20785955;-0.057236493;-0.057929866;-0.02421095;-0.059804633;0.018149316;-0.028793754;0.019376092;-0.00017423223;-0.004887862;-0.054697685;0.12533352;0.026993442;-0.043325525;-0.13865802;-0.13770095;-0.045372326;-0.07240771;0.009633014;0.055959824;-0.06090494;0.008711406;-0.1661704;-0.11130378;-0.08411417;0.016666215;0.08043802;0.045123827;0.020512419;0.022906374;0.056926426;0.06675083;-0.08061714;-0.012293138;-0.016414877;-0.045193173;-0.08074529;-0.041829295;-0.047512166;-0.12602179;0.045624126;-0.085505895;-0.0024605524;0.043398168;0.0016504929;-0.17171502;0.12858106;-0.109608896;-0.14830638;-0.07761419;0.027780212;0.036038205;-0.17767775;-0.057749096;0.039191224;-0.06995876;0.13268478;-0.08725352;-0.07397971;-0.16236681;-0.09066263;-0.094337486;-0.14237563;-0.14443606;0.040432613;-0.04572488;-0.018064493;-0.022809114;-0.06800672;-0.09384162;0.15315603;-0.100637324;-0.08222416;-0.086720325;-0.11665455;0.029619105;-0.13320255;-0.041987445;-0.14292714;0.09963064;-0.07349397;-0.10309697;-0.06087232;-0.07832511;-0.02127622;-0.13706577;-0.09817807;-0.0838941;-0.08135331;-0.007621014;-0.23077075;-0.0490008;-0.006607869;-0.04878102;0.008232785;-0.08238319;-0.052454032;-0.09166612;-0.0047469093;-0.01629505;-0.029601276;0.07005514;0.04199268;-0.013025989;-0.12708773;0.04297908;0.022281693;0.23755112;-0.057125878;-0.016533926;-0.008003177;-0.03504267;-0.007578229;-0.08526017;-0.049630832;-0.012627509;-0.20900792;-0.0024292008;-0.04554722;-0.013035022;-0.020152217;-0.02085583;-0.08017507;-0.071454525;0.03743934;-0.054844003;0.024434097;-0.05198992;0.034825206;0.06825557;0.06990766;-0.0035862585;0.03566976;-0.06705713;-0.0026156057;0.0020160107;-0.003252005;0.0353853;-0.19728579;-0.09560292;-0.012856584;0.049840212;-0.0017362986;-0.07717445;0.019266205;-0.21337536;-0.04252214;0.121558644;-0.11055868;-0.026332121;-0.12718938;-0.08382006;0.029090099;-0.07256777;-0.041267868;0.0057604774;-0.04873559;0.013967357;-0.009454984;-0.022291789;0.010289046;-0.02624474;0.03131074;-0.0470628;-0.053502224;-0.12732324;-0.04984203;0.074607275;0.04788285;-0.0042350525;-0.031797428;0.019320961;0.00083824666;0.044058915;-0.06951482;-0.020045767;-0.01779277;0.01554752;-0.023867583;-0.06508283;-0.0071804635
-0.0544088;-0.012665754;-0.068633884;-0.13175821;-0.02833437;-0.114230275;-0.03638127;0.05233317;0.03777413;-0.12093202;-0.07994427;0.055364717;-0.002026322;-0.05011109;-0.073635235;0.052867472;0.020804891;-0.11933104;0.08013272;0.051567487;-0.028546978;-0.04465504;-0.000842893;-0.036331005;-0.100124195;0.0034217334;-0.11478221;-0.13452671;0.01663067;-0.017650934;-0.09746262;-0.02531155;-0.13798109;-0.018896332;-0.026283465;0.0024678023;0.013640927;0.096275635;-0.032367665;-0.08274003;-0.019080264;-0.0892912;0.017679868;0.052034795;-0.085725516;0.0004456828;0.011576078;-0.09059524;-0.0010046362;0.004651283;0.0029044184;-0.10942613;-0.023572963;-0.059848763;-0.06741625;-0.012736372;0.010561364;-0.13765605;-0.08523674;-0.07829108;-0.09863577;-0.008676573;-0.038418464;-0.042618588;0.018277386;-0.066367626;0.12575454;0.054983914;-0.09379752;0.032909557;-0.008931377;0.028062355;0.00851931;-0.058727622;-0.1012864;-0.015964104;0.0350503;0.04293245;-0.064826444;-0.06645465;-0.03290855;-0.13684006;0.009447024;-0.022643993;0.078948446;-0.053114492;0.026557233;-0.03145336;-0.09120468;-0.13102321;0.045569833;-0.13646379;0.011781739;-0.02148496;0.019974794;-0.011218416;-0.11225855;-0.03738311;0.046557028;-0.021069469;-0.03667861;-0.113986365;-0.03738316;0.012836788;-7.65696e-05;-0.07644375;0.04038135;-0.032981604;-0.12469454;-0.014314504;-0.106114544;-0.0929335;-0.17988202;-0.0041672955;-0.085289426;-0.09669722;-0.1023186;-0.024825454;-0.076433755;-0.049150884;0.00877463;0.0016306269;-0.021092879;0.07679198;-0.040031593;-0.102330714;0.023276415;-0.059373688;-0.16111137;0.009992427;0.1528857;0.0639543;-0.077982515;0.032320287;-0.12517507;-0.012554628;-0.05052287;-0.03134533;-0.058142655;-0.06388015;-0.107879065;-0.0071912734;0.004971838;0.087226026;-0.06884127;-0.013056834;-0.11863991;-0.17380162;-0.020576779;-0.01913085;-0.08388659;-0.024663119;-0.060904123;-0.13251692;-0.03678791;0.0059983837;-0.017610252;-0.015063787;-0.056704484;-0.078433596;0.008389107;0.03337233;0.0009167841;-0.08179521;-0.06403349;-0.058064636;-0.09622455;-0.077741824;-0.091275536;-0.005227131;0.041319046;-0.1201634;-0.08884732;0.0137489615;-0.022683706;0.013153469;-0.082352474;-0.020972125;-0.029836476;-0.06731835;0.0041918475;0.03361685;0.07045293;-0.11244139;0.015423116;-0.057112228;-0.053910673;0.016652878;-0.02717334;-0.07958054;-0.07572603;0.049259134;-0.022303758;-0.031270396;-0.09757428;0.03582201;-0.09086634;-0.10442052;-0.11006233;-0.11643479;0.042546283;-0.13156818;-0.012976339;0.13666277;0.0081058135;0.05147639;-0.06729636;-0.007344773;-0.024520712;-0.027126618;-0.06891043;-0.07712966;-0.1336512;0.011849969;-0.048967663;-0.010916624;-0.19845201;-0.046822514;-0.06428246;-0.00086610793;-0.0065674363;-0.02642532;-0.0050268695;0.0031997778;0.11136427;-0.1311531;0.06197692;-0.002916523;-0.17356262;-0.13958573;-0.052668966;-0.08691084;-0.0251456;0.007280915;-0.09436312;-0.025421012;-0.080683544;0.047506746;0.011158789;-0.085886985;0.025528409;0.038034808;-0.08762958;0.025637534;0.00933855;-0.112462856;0.051789656;0.01073436;-0.030847829;0.035725717;-0.08232979;-0.009759654;-0.028729524;-0.049256917;-0.101258405;0.009813096;-0.008321516;-0.15258469;-0.100347854;0.0018207357;0.014116951;-0.05427693;-0.04891846;0.048240088;0.013883134;0.046425063;0.030194992;-0.14756261;0.023763316;0.022997782;-0.1371393;-0.18081115;-0.06161912;-0.10572046;-0.09654186;0.024466489;-0.0678755;-0.09737711;0.002411719;-0.07019764;-0.11186027;0.03630233;-0.022259284;0.009597715;-0.013485877;-0.008489604;-0.023752043;-0.029284721;-0.048737317;-0.09699534;-0.08341117;-0.018823154;-0.07448008;0.012460403;-0.029809155;-0.07841621;-0.104427144;-0.08803734;0.032498468;0.048745796;-0.05748788;0.09709529;-0.047713626;-0.09276899;-0.09265191;0.08490414;-0.005601264;0.12854147;0.031990115;-0.06736665;0.025699165;-0.008368662;-0.04311314;0.052677285;-0.07616518;0.014044879;-0.049254984;0.012353575;-0.109008744;-0.087968335;0.0125958435;-0.1224219;-0.051792957;-0.049902014;-0.07163605;0.018779792;-0.174414;-0.08338132;-0.0062630284;-0.068917796;0.0076862318;-0.036879104;-0.04462198;-0.09661038;0.0132892765;-0.07263653;0.01224893;-0.0023174207;-0.024482045;-0.083989196;-0.005024951;-0.1073761;0.0146749;0.023075823;0.02247196;0.059060264;0.015137777;-0.037926123;-0.0942656;-0.08745284;-0.009578289;0.12320218;-0.06952403;-0.020186033;-0.02891219;-0.039126888;-0.056628346;0.0028329673;-0.06516566;-0.1024861;-0.031136103;-0.049508605;-0.032565743;-0.019940171;-0.07151403;-0.07255769;-0.090313695;0.13050026;-0.07377157;0.050844952;0.0053031803;0.005667218;-0.061565343;0.10759017;-0.023566423;-0.11796781;-0.11540766;0.010988719;-0.043037117;-0.041391045;-0.040320765;-0.10817329;-0.09147466;-0.047624104;-0.02244117;-0.08890453;0.04719359;-0.10984071;-0.12299979;0.12947434;0.014846511;0.005146681;-0.024148304;-0.054755528;0.041783646;-0.23316516;-0.0682293;-0.07632934;-0.07524094;-0.05272374;-0.0402779;-0.08893197;-0.07448616;-0.047692895;-0.074975364;0.008408472;0.1325124;-0.12215483;-0.07896737;-0.096860476;-0.050763905;-0.100863464;-0.006923901;0.011043561;-0.054613747;-0.06813506;-0.013269206;-0.13048962;0.007719192;-0.0020597493;-0.059526414;0.025641548;-0.057228755;-0.123509236;0.092992075;0.061065644;-0.035172373;-0.049976297;0.09502962;-0.056560352;-0.02291847;0.041008394;-0.08595324;-0.037492294;-0.07313348;-0.023939162;0.01816997;0.021752097;0.03805098;-0.050346177;-0.087081335;0.010021112;0.02384771;-0.07419806;-0.058397233;-0.006942636;-0.048198126;-0.19418111;-0.03327332;0.044867326;-0.014336632;0.09243336;-0.08761596;0.029672088;-0.16982459;-0.06530514;-0.083268136;-0.076140225;-0.102411546;-0.014013831;0.055542916;-0.018145835;-0.02473458;-0.06737264;-0.039682724;0.10194514;-0.11528844;0.028367465;-0.067066394;-0.13114923;0.027629476;-0.13074331;-0.046882275;-0.12281331;-0.023699291;-0.099654146;-0.11440274;-0.16180286;-0.08816553;0.00029404464;-0.04696636;0.013303547;-0.10901552;-0.040041506;0.018026121;-0.11353582;-0.027355904;-0.03620584;-0.14064875;0.04185153;-0.04931355;0.09552594;0.04933699;0.056776594;-0.008657265;0.022343405;0.10946901;-0.046324994;-0.103051245;-0.13001087;0.030901713;-0.013825655;0.20946299;-0.07629062;-0.05721187;0.056796204;0.03350477;-0.08282616;-0.050157916;-0.016346974;-0.0659288;-0.13166139;-0.035556644;-0.06477623;0.049732;-0.079205155;0.12631762;-0.046208147;-0.15942952;0.030133158;0.03552767;0.039065927;0.057429783;-0.02250207;-0.006305599;0.022437258;-0.08069713;-0.053739525;-0.04552351;-0.008013707;-0.07720712;0.0068852315;0.018999267;-0.25968477;0.040060386;0.03873998;0.05564184;-0.005541145;-0.043581054;0.049234353;-0.28254476;0.02652913;0.13417481;-0.024295883;-0.013914851;-0.036495253;-0.025168581;-0.028057057;0.055940233;-0.05052883;-0.14862175;-0.13767882;-0.0006448915;0.06615733;0.010522656;0.018304529;-0.079519175;0.05231578;-0.06047854;-0.033039983;-0.15086567;0.029801339;0.010248746;-0.07664195;0.00960908;-0.018599534;0.03888408;-0.081762746;-0.11137304;0.03751766;-0.020013232;-0.02184221;0.019888343;-0.06639941;-0.010249679;-0.042521544
-0.06236775;-0.09031279;0.02629766;-0.00028843252;-0.030994598;-0.112115175;-0.06618612;0.003701382;-0.020829096;-0.06495077;0.010041118;0.07318691;0.027938582;-0.028010016;-0.033405937;0.05135282;0.040480204;-0.040282547;-0.043638036;0.042229608;0.018850531;-0.08737565;0.015837675;0.10230202;-0.080466084;0.08987391;0.008899013;-0.041532993;0.010639437;0.017407455;0.029193657;-0.003754685;0.0048408634;0.048269674;-0.024953874;0.055893674;-0.021778451;0.0644889;0.03313686;-0.089097306;-0.063806735;-0.044895526;0.033065304;0.0013718945;-0.086736776;-0.011132215;-0.0928663;0.0026955265;0.02886392;-0.012307257;-0.025139768;-0.07927012;-0.030391015;0.037655592;0.058410063;-0.0936672;-0.03044761;-0.21445003;0.041505672;-0.101780295;0.015250788;0.020582883;-0.019815998;0.018403906;-0.05594067;-0.071876936;0.044725966;-0.041479938;0.02076834;-0.1229432;0.02220511;-0.03600088;-0.05728937;0.02461517;-0.15232812;0.014091729;-0.002274575;-0.06355671;-0.051580124;0.07901937;0.047913786;-0.08965238;0.061273124;-0.014466702;0.04140438;-0.05001241;-0.027364202;0.025782073;-0.063758865;-0.16664909;-0.09111693;-0.11316195;0.04099857;-0.11647686;-0.008394677;-0.007478473;-0.11040862;-0.03673784;0.017142117;-0.014984561;0.01928627;-0.026551465;0.061188787;0.077045135;-0.092687234;-0.1200304;-0.054640003;-0.07240736;-0.007517293;0.020602576;-0.08178288;-0.079654485;-0.16162741;0.051171437;-0.08956241;-0.0336469;-0.05495004;0.046886347;0.020153284;-0.071148604;0.035659213;-0.062241595;-0.0022645486;0.013596393;0.04351208;-0.07323051;0.035227966;0.10914426;-0.16900843;-0.061058234;0.0792385;-0.01101895;0.018936493;0.008775977;-0.113268405;-0.14434019;-0.020900344;-0.007950049;-0.20829037;-0.10538456;-0.049721483;-0.023632957;0.047530796;0.07469223;0.049700603;-0.061734628;-0.1846901;-0.02951371;-0.037151262;-0.04323053;-0.023157509;-0.10382467;0.041620806;-0.083743304;-0.09602564;0.055201642;-0.0955553;-0.0338437;0.009450967;0.060498446;-0.034569886;0.042092387;-0.06508107;-0.10830444;-0.10240395;-0.01836892;-0.029612128;-0.06958625;-0.09056615;-0.018316574;-0.071152434;-0.055076092;0.0106787095;0.0140343085;-0.13967547;-0.03567308;0.03787595;-0.040703166;-0.089256875;0.011465557;-0.016478028;-0.12094419;0.06837649;-0.15978687;-0.11462562;-0.14855216;-0.045351245;0.04223164;0.0333388;-0.012347164;-0.036471624;-0.072300754;-0.069465734;0.041786436;-0.017114412;-0.021786112;-0.17983188;-0.21711376;-0.040970195;-0.084598094;0.060901992;-0.045385156;-0.093806125;0.14971112;-0.044120263;0.026322098;0.042245068;0.05255209;0.009392904;-0.054423444;-0.035120215;-0.08737613;-0.0037899727;-0.031089272;-0.007337838;-0.020878978;-0.15599382;0.0674485;-0.04818093;0.059024353;-0.031000942;-0.074278146;0.027936986;0.048027873;0.08476999;-0.12602158;-0.050624702;0.016168265;-0.11584032;-0.026347684;-0.017952269;-0.10154992;-0.017950915;-0.09687617;-0.053643506;-0.04284564;-0.09871988;0.024905814;0.08340512;-0.14405192;-0.009439166;0.04670291;0.04798334;-0.08943492;-0.060894962;-0.030150259;0.03231637;0.012535749;-0.07558104;-0.047689337;-0.037299987;0.058757525;-0.08447998;-0.024600374;-0.058098998;0.026607536;-0.057202183;-0.06981735;-0.0287134;0.08816759;-0.033601042;-0.04574755;-0.05510635;0.014515744;-0.0032239994;0.06622964;0.10446181;-0.11103371;0.05924469;0.068388596;-0.09070838;-0.1894134;-0.027967973;0.0008112892;-0.02321594;-0.11620773;0.037798572;-0.10184627;-0.008556709;-0.0074302126;-0.17141879;-0.016619334;0.018833652;-0.06370401;-0.12156033;-0.0008046496;-0.13305984;0.009673819;-0.0027067852;-0.0059772492;-0.10993853;-0.023609914;-0.08737202;-0.011935859;-0.09285081;-0.057839673;-0.012852325;0.011705239;0.075978406;-0.05271809;0.0008911116;0.12546425;-0.01567278;0.0037069586;-0.20081915;-0.01547737;-0.050354622;0.030989561;-0.09889385;-0.09892632;0.007124121;0.10520273;-0.07604009;0.02628575;-0.10888146;0.027424393;-0.06693426;0.029161362;-0.043619495;-0.17736706;0.016846526;-0.03125695;-0.042766366;-0.020514328;0.07550852;0.022952147;-0.13919649;-0.050735705;0.03310922;-0.11201118;-0.10536563;0.0031748554;-0.16742848;-0.14102492;0.051034745;-0.068921864;-0.07540995;-0.022438724;-0.017442636;-0.13359587;-0.06966381;-0.09897506;-0.097010404;0.08560133;0.034220632;0.029320197;0.055193987;-0.11291297;-0.058088765;-0.021206979;0.057521805;-0.035985373;-0.05996135;-0.063888445;-0.08077602;-0.08735005;-0.070634;-0.07960224;-0.05606203;0.043955397;-0.16540383;-0.036058165;0.005889623;-0.0006602641;0.04335818;0.02732588;0.038250644;0.12950797;-0.12111344;0.021848857;-0.049053315;-0.05869126;-0.01742554;0.12220855;0.008721805;0.02458606;0.044671502;-0.071803175;-0.071887314;0.07693197;-0.014228721;-0.022633169;-0.08536501;-0.10633221;-0.064459756;-0.014806884;-0.00015860418;0.042175964;-0.065829724;0.015523125;-0.07857843;0.0032299766;-0.07622698;-0.058115505;-0.07917726;-0.23562598;-0.05316822;-0.021646824;0.013230942;0.011205845;-0.07812698;0.016584665;-0.07100859;-0.041707303;0.058767352;0.06633405;0.09775811;-0.14334652;0.026266644;-0.16054673;-0.064493656;0.0038650972;-0.018918356;0.050377816;-0.0611451;0.05323119;0.049979076;-0.1165024;-0.04261184;-0.03632093;-0.091491506;-0.00073514023;-0.041650843;-0.124550365;-0.010435553;-0.05747405;0.011562471;-0.07596092;0.039877214;-0.09700829;-0.14028426;0.064076036;-0.097950965;-0.10480801;-0.07874657;-0.0720794;-0.07487695;-0.06715634;-0.0020620413;-0.16700314;-0.100903265;0.098418295;-0.090601124;-0.10434392;-0.063749395;-0.066305995;-0.077332914;-0.20690994;-0.1227661;-0.10023305;0.0049882964;0.0694558;-0.08873165;0.051989295;-0.11833522;-0.040393263;0.05331424;-0.16867706;0.03522348;-0.03324096;0.05807687;-0.034650095;0.08605517;0.008420551;-0.052088663;0.16259447;-0.022800324;-0.0013867645;-0.08033868;-0.03433108;0.001513092;-0.10825883;0.010719325;-0.123409055;0.0878116;0.057131335;-0.016647227;-0.01498624;-0.060155813;-0.10255204;-0.055676423;0.008352274;-0.1531848;-0.07395923;-0.086130396;-0.23710121;0.056336742;0.039918885;-0.032284383;-0.031231243;-0.13826284;-0.041682072;-0.08617341;0.025821324;-0.06210132;-0.043797433;0.09776122;0.021714224;-0.012063646;-0.01656814;-0.089761145;0.021314658;0.105119124;0.053819764;0.026172513;-0.0081342915;0.080664724;0.036050808;0.009815668;-0.07132705;-0.11977976;-0.1548255;0.030333033;0.040030904;0.015152582;0.0029849017;0.042955514;-0.007889116;-0.1728298;-0.08475637;0.07572677;0.014030143;-0.011795919;-0.080130026;0.070818596;0.029129678;0.06857779;-0.07628702;0.011081445;-0.076783694;-0.013302315;-0.018065074;0.087320134;-0.117446974;-0.046847135;6.467013e-05;-0.019008098;-0.042930804;-0.08450111;-0.0126731265;-0.23757471;-0.042002145;0.060804006;-0.13201825;0.035027627;-0.05540917;0.012925039;-0.03409728;-0.060814258;-0.13213313;-0.08441852;-0.027892008;-0.056206387;0.040347762;-0.037269212;-0.021331267;-0.15806635;0.058342263;-0.15381096;-0.048480567;-0.08191975;-0.038298614;0.065491706;-0.09977724;-0.0056816256;0.022941254;-0.0984943;0.0042624297;0.023280174;-0.04928467;-0.0850827;0.007370793;0.09127546;-0.1171815;0.016562756;-0.09471498
-0.03895796;-0.06431731;-0.083030865;0.017604029;-0.048440292;-0.1132508;-0.12605223;-0.05756795;0.064718746;-0.11716823;-0.05870558;0.039478052;-0.0020765555;-0.0027167387;-0.06552555;0.0051174397;0.044952147;0.021871438;-0.08475038;0.062483158;-0.11721642;-0.12511341;-0.030338101;0.049373467;0.017344445;0.028293738;-0.05719715;-0.18940896;-0.010097198;0.0672484;-0.09105692;-0.069613114;-0.08990244;0.0055865985;-0.07319762;-0.015965477;0.055944607;0.11671172;-0.033051852;-0.10681063;-0.11103071;-0.04505285;0.05482273;-0.06863758;-0.068102926;0.060418542;-0.1287258;-0.10612328;0.044957954;-0.0066583855;0.0038187033;-0.23066445;-0.07313568;-0.027906427;0.01877814;0.045127165;-0.020690775;-0.0986007;0.056360066;0.006502035;-0.064218715;-0.10477348;0.09282348;0.0023010678;0.040791653;-0.08074963;0.11471014;-0.06173101;0.008541518;-0.07633233;-0.005899296;0.06409263;-0.06215209;-0.004921492;-0.039180506;0.10302293;-0.048133373;-0.115284175;-0.09389344;0.04222118;0.04421502;-0.05896705;0.043557666;0.064151324;-0.03673975;-0.10018315;-0.0016176432;-0.07736988;-0.032089207;-0.15183635;-0.070130005;-0.16908124;0.052444767;-0.10278661;0.01991882;0.02138402;-0.14814618;0.011544634;0.005515576;-0.14641955;0.06181896;-0.04180583;0.041660745;0.04729068;-0.02375514;0.007641919;0.03420579;0.04213119;-0.12818304;-0.08689063;-0.058578085;0.06192586;-0.16503702;0.0050048856;-0.06911259;-0.07865332;-0.05652338;0.026712198;0.050566506;0.05234274;0.009652454;0.070061214;-0.064892225;-0.07177994;-0.081708476;-0.10839373;-0.045306277;0.030659035;-0.08399042;0.016307682;0.04216802;0.016093673;-0.013397449;-0.034425803;-0.15369147;-0.094594896;-0.1130955;-0.048009586;-0.13776225;-0.1557071;0.030267078;-0.03201647;-0.0031302527;0.1289857;-0.047822297;-0.0065031922;-0.077422306;-0.089931644;-0.01913087;-0.0028890215;-0.04206312;-0.04863061;0.022213664;-0.09434531;-0.11144261;-0.07923278;0.024977338;-0.034859814;-0.029473083;-0.0520982;-0.017533721;-0.035418663;-0.08820222;-0.16956574;-0.09425929;-0.027927708;-0.15109615;-0.04445215;-0.12656672;0.012862783;0.048706453;0.022564067;-0.005518471;-0.02063128;-0.12498002;-0.11374206;0.031234054;0.055888887;-0.015411089;-0.008051158;0.025590982;-0.004829275;-0.020835333;-0.18162175;-0.03012457;-0.12292131;-0.038560756;0.05384;0.08620644;-0.070435636;0.015396322;0.012945958;-0.07923133;-0.013679009;-0.08822299;-0.07317854;-0.072356336;-0.15936425;-0.07658337;0.0041914224;0.014797359;-0.03215502;-0.03743129;0.068344876;0.08584913;0.0323494;-0.041522745;0.043524493;0.00033638498;-0.046045367;-0.044815347;-0.072984226;-0.10993752;-0.09487865;-0.09071443;0.016131938;-0.07612001;-0.028042873;0.029888107;0.04662573;-0.020676006;-0.02343025;-0.020384427;0.07993958;0.12986846;-0.13964526;-0.05763002;-0.109735265;-0.07125383;-0.033870563;0.034156658;-0.0208243;-0.058731;-0.06586047;0.00014153818;0.05268166;0.036781386;0.028223088;-0.014177672;-0.14726838;0.028973933;0.019502679;0.0057550184;-0.1279434;-0.021455077;-0.00047974993;0.018398687;-0.037091885;-0.034541607;0.076971464;-0.040950548;0.02028737;-0.04644478;0.00568908;0.029328352;-0.09101916;0.02088632;-0.12665777;-0.022893019;0.120488286;-0.011320104;0.068760976;-0.045585126;-0.050032593;0.010807593;0.078242004;0.038574845;-0.046389557;-0.00418905;0.002781483;-0.13618118;-0.13923736;0.04175683;0.030460274;-0.008663715;0.003845107;0.035986006;-0.037493102;-0.07515022;0.0027757508;-0.0888665;-0.0127482815;-0.03288521;-0.014637462;-0.06491649;-0.07688353;-0.11197728;-0.039101876;-0.010982722;-0.09287627;-0.08087963;-0.028856697;0.0009435109;0.029380538;-0.15812784;0.043769244;-0.0047519333;-0.07585855;-0.076815076;-0.0011044841;0.030107718;0.11444314;0.022095094;-0.053119857;-0.12745126;0.0007531468;0.00559973;0.08085963;-0.090091035;0.028729273;-0.054527454;0.10641393;-0.060452145;0.021516858;-0.069709316;-0.010314735;-0.14667058;-0.00077980367;-0.08875032;-0.2016811;-0.083353385;-0.046824995;-0.10295966;-0.09538583;-0.06854068;-0.002669796;-0.1689442;-0.116483726;-0.037285876;-0.07590351;-0.0024137618;-0.074765034;-0.100240536;-0.05036995;-0.059262104;-0.004422899;-0.05998712;-0.052463014;0.05291536;-0.12131499;0.01160143;-0.09955714;-0.0318683;-0.006851883;0.024908574;-0.062696874;-0.04672486;-0.135011;-0.06835171;-0.1200854;0.11367277;0.0034137624;-0.008937056;-0.10142022;0.041648142;-0.03781341;-0.051095493;-0.0046321964;-0.042437747;-0.08166563;-0.15320784;-0.04697646;-0.08560869;0.03526529;0.040916458;0.06098068;0.0039510806;0.10362041;-0.109484166;0.058077544;-0.016192907;0.0019737533;-0.02421117;-0.016823396;0.03564224;-0.062239505;0.013109605;-0.015258094;-0.07315069;0.00799517;-0.07195679;0.01764631;-0.08481661;-0.06424524;-0.04105099;-0.106036074;-0.0070187557;-0.098027244;-0.15288487;-0.02492476;0.0125576295;0.0064926464;-0.04732708;0.03795062;-0.0030716986;-0.2393459;-0.045457542;0.010142939;0.03682312;-0.057059135;-0.020360325;-0.0013313645;0.08447097;0.016296722;0.015172053;-0.026598219;0.041341864;-0.09703734;-0.059660383;-0.19178908;-0.08831311;-0.08052576;0.026060535;0.023690177;-0.0669671;0.04836248;-0.044034373;-0.17916034;-0.0003457548;-0.020289177;0.013805669;-0.0114642875;-0.09443495;-0.06416524;-0.024574671;0.03047929;-0.032349832;-0.058734648;-0.061156202;0.04309015;-0.11662356;0.069195166;0.0086241355;-0.058703933;-0.011478203;-0.08320279;-0.07179858;-0.07730821;-0.018375326;-0.14549021;-0.13174912;0.07628883;-0.054701023;-0.06312542;-0.07809532;-0.021092173;-0.056871682;-0.2568424;-0.04645188;-0.05938816;-0.0124668125;0.18561922;0.023343796;-0.0035259535;-0.09862325;-0.058673244;-0.092164636;-0.10629969;-0.054753706;-0.05797848;-0.034108344;-0.082576804;-0.020776967;-0.08818856;-0.004333595;0.0117364405;-0.15734686;-0.08289803;-0.0451325;-0.12236957;0.02452833;-0.0017472089;-0.0682243;0.0024810485;0.12593277;-0.0022916908;0.027199825;-0.059289485;-0.10571655;-0.03501793;-0.05168191;-0.0016351003;-0.037919667;-0.08175422;-0.100413166;-0.20781411;0.04019385;-0.018836051;-0.06333979;-0.055403937;-0.041397348;0.041514855;-0.044623267;-0.035677776;0.06970688;0.020613989;0.08363169;-0.088112414;-0.07813155;-0.0727843;-0.015303142;-0.08630405;0.08832563;-0.041585825;-0.045002073;-0.058199707;-0.034873176;0.01543896;-0.075588375;-0.071627244;-0.11314756;-0.25305036;0.06155401;0.020255791;-0.04404274;0.03405396;0.019505106;-0.03131645;-0.19443072;0.04367538;0.09399638;0.05792938;-0.038076866;-0.091281265;0.1310848;-0.04521332;0.04750434;-0.010521384;-0.009269259;0.06348447;0.015941767;0.04041613;-0.0034385133;-0.18708335;-0.06529912;0.006788015;0.04714942;-0.024799459;-0.014406467;0.003557608;-0.28562695;0.051814843;0.06739439;-0.07928038;-0.033190954;-0.16727123;0.066289075;-0.02927732;-0.06603639;-0.0026275872;-0.003590456;-0.12366481;0.053188726;-0.024290772;-0.032962352;-0.09758436;-0.16996738;-0.07836921;-0.06695621;0.06415084;-0.017580666;-0.06803367;-0.0013544166;-0.02126086;-0.003303605;0.019003592;0.0075390222;-0.014107924;-0.10175289;-0.028947363;-0.11680413;0.025905302;-0.050770484;-0.0030736695;0.009732125;-0.02626136
0.06295334;-0.07289869;0.049636293;0.013879287;-0.017795663;-0.05781792;-0.09013762;0.036100935;-0.012541094;0.043496184;-0.021208452;-0.0058897026;-0.0803999;-0.07906807;0.03850455;-0.01720962;0.008939701;-0.09997965;-0.06722459;0.002886295;-0.10141194;0.016217021;-0.069957085;0.09521742;-0.11233894;0.033455655;-0.060692552;-0.1459283;-0.04844052;0.037069064;0.04218027;0.07790215;0.008167075;-0.08427733;-0.0089734355;-0.052647546;-0.06748528;0.10193992;0.044604897;-0.11155706;0.030982995;0.055792037;0.047809813;-0.07196738;-0.075224526;0.04744797;-0.08160091;-0.11163475;0.06213822;-0.046166673;-0.05177518;-0.18837099;-0.07649618;-0.0018594972;-0.013494286;0.026446689;0.020985898;-0.19410266;-0.10710962;-0.08349816;0.018985368;-0.12314529;0.10251665;0.065255225;0.07294915;-0.105090804;0.104887605;0.05512148;-0.07438473;-0.088433914;0.060089692;-0.035298385;0.05493391;0.07405573;-0.1183751;0.06879842;0.06627321;-0.049232688;-0.100762084;-0.073743515;0.05077312;-0.19803876;0.023976143;-0.0053364905;0.11635338;0.05036749;-0.08562286;-0.04610148;-0.024685355;-0.18329476;-0.002311974;-0.16821836;-0.06676468;-0.15105127;0.13822025;-0.08549441;-0.16819851;0.004685103;-0.07168193;-0.13446705;-0.0154690165;-0.056441862;0.07228628;0.024874337;-0.08302526;-0.13288411;-0.08482508;-0.056195557;-0.019737331;-0.12077643;-0.13096029;0.043347824;-0.079877585;-0.010760688;-0.13174193;-0.09935727;-0.1227223;-0.035992667;-0.024262056;0.018810727;0.058811583;0.03463304;-0.12599698;-0.013982642;0.0048699286;-0.010349568;0.019251248;0.08813974;-0.1369891;0.022557218;0.060932025;0.080416545;-0.0024232483;0.01702484;-0.15807904;-0.019013472;0.0074488833;-0.02632421;-0.1697736;-0.0064973566;-0.06316752;-0.0073604207;-0.01711433;0.13265866;-0.04136006;0.013608481;-0.15105239;-0.02288797;-0.006258124;-0.07845697;0.07155545;0.015030107;0.007901711;-0.08861048;-0.19566345;-0.07613534;-0.13015886;-0.043065485;0.0075147385;-0.044012096;0.017355716;0.04358911;-0.0040268097;-0.07958069;-0.11687912;0.0017257913;-0.044713892;-0.019359924;-0.21490377;-0.06822358;-0.012220568;-0.08326606;-0.046679575;0.013851018;-0.13196158;-0.020721205;0.046891235;-0.045239158;0.014542376;0.02815637;-0.07280925;-0.071280316;0.04604009;-0.10347113;-0.12279935;-0.043661606;-0.0052001164;0.041347798;0.059567746;0.005062046;0.04186475;-0.010397167;-0.05653415;-0.034220252;-0.031478453;-0.010089155;-0.15834698;-0.20453383;-0.10394735;-0.01141461;0.058706213;-0.094701245;0.035152934;0.029770372;0.086232334;0.046843097;-0.040133078;-0.07827977;-0.015068992;-0.0035209314;-0.05175551;-0.0061812433;-0.09152708;-0.06663011;0.032095626;-0.100456275;-0.037500605;-0.049458243;0.042983912;-0.019743687;-0.06999675;-0.01743005;-0.11298355;0.099301346;0.07091334;-0.18646072;0.025432935;-0.12288927;-0.15270431;-0.07199412;0.043249276;-0.056248304;0.02086756;0.06130223;0.023884162;0.06800551;-0.0069765286;0.06543826;-0.067348234;-0.0165241;-0.05401254;-0.06665584;0.08174054;-0.08584276;0.0668641;-0.11719276;-0.037416205;0.03295082;0.022980295;0.050838407;0.076911405;0.05464081;-0.018224983;0.041217446;0.022071604;0.05953363;-0.10524315;-0.17767625;-0.018939873;0.13449275;-0.021295784;0.05519672;-0.08866049;-0.08314691;-0.025004907;0.1253733;-0.030413877;-0.15404953;0.066848926;0.0053806733;-0.15816858;-0.18526836;-0.019125758;-0.083976656;-2.178902e-05;-0.08523441;-0.013491078;-0.043684095;-0.15286635;-0.06432443;-0.0742354;0.03832497;0.0017091758;-0.13167574;0.0034992592;-0.047311757;-0.057324853;-0.11723055;-0.016003951;-0.05067128;-0.014455517;-0.13264412;-0.0677967;0.08330553;-0.028037217;0.017562518;0.013675677;-0.03890834;0.0067471326;-0.01762329;-0.020689134;0.06209693;-0.069902726;-0.13289122;-0.12201513;0.028816212;0.059798777;0.11087924;-0.018355897;-0.08978652;0.01984444;-0.027221812;0.063632354;0.03345201;-0.06989226;-0.049339663;-0.14804532;-0.07135949;-0.14360903;-0.11669294;-0.048459265;-0.0031490459;-0.083379194;-0.012221938;-0.05656494;-0.08631847;-0.069899745;-0.08186176;-0.009848434;-0.05050284;-0.005446114;-0.07232742;-0.16790293;-0.02116029;0.04775844;-0.10321261;-0.07817264;-0.093966335;-0.013123111;-0.08048139;0.068633884;-0.11343071;-0.0101137655;0.068488404;-0.016161984;0.056735158;0.057832137;-0.10259598;-0.13832875;-0.12788433;0.13800381;-0.024270482;-0.0051957406;0.022030242;-0.09813629;-0.107999176;0.06084565;-0.058837425;0.039040428;-0.08591185;-0.11097924;-0.03243134;-0.030452657;-0.0439621;-0.074381985;0.044690765;-0.013004943;0.13534991;-0.17637983;0.029430518;-0.111267395;-0.09085625;0.06082396;0.13672495;-0.06742368;-0.04278482;0.0603931;-0.06585127;-0.062130902;0.13238294;-0.06848059;-0.06267441;-0.047145274;-0.03670024;-0.0063722506;-0.022502402;-0.05879749;-0.016291765;-0.14335626;0.036601037;-0.045495674;-0.08386844;-0.029585812;-0.047339946;-0.013548793;-0.12682511;0.049656015;-0.074338965;0.019854402;-0.09756856;-0.005691009;0.034854565;0.08081369;0.0051241405;-0.027575856;0.013946374;0.052568212;-0.020612745;0.058369093;-0.13995937;-0.16821384;-0.089692414;0.022688394;-0.056727193;-0.05879639;0.0362438;0.037900575;-0.08958545;-0.1197214;-0.064661786;-0.04085076;0.011009804;-0.022817165;-0.0859287;0.051190093;-0.010943553;-0.08454262;-0.061717734;0.09120828;0.005716943;-0.07816651;-0.0578276;0.031177163;-0.10579956;0.016524527;-0.1018629;0.0066165505;-0.029108012;-0.05081898;-0.11592583;-0.17824395;0.022090154;-0.0103994785;-0.02426368;-0.04631445;0.04911817;-0.07595776;-0.21037029;-0.12551862;-6.2074265e-05;0.07727817;0.054483958;0.040269658;0.051319946;-0.142085;-0.11293163;0.045083642;-0.16672619;-0.11741305;-0.08391309;-0.063578166;-0.0003343966;-0.05178786;-0.02984403;0.040072575;0.089267634;-0.05454519;-0.080395415;0.015596231;-0.021452114;-0.040738508;-0.12183735;-0.025724156;-0.10089399;0.022729756;-0.07128202;0.03297512;-0.14018278;-0.15954015;-0.035939038;-0.04294705;0.0041922396;-0.18420824;-0.074136786;-0.124209575;-0.24085836;-0.06384508;-0.029857634;-0.083281316;0.05425036;-0.13406561;-0.04970076;-0.07739004;-0.0017169109;-0.067336224;0.01389192;0.10396646;-0.0173461;-0.084703416;-0.08655465;0.0055572465;-0.07713472;0.1324984;-0.07648721;-0.027711634;0.044382766;0.017534973;-0.050690863;-0.11789959;0.03667874;-0.1532201;-0.26806992;0.005204791;-0.04314379;-0.0023687053;-0.06719217;0.122190915;-0.044008683;-0.23890968;0.02795061;0.0530002;0.062382426;-0.09672003;0.027125623;0.011624703;-0.076304875;-0.015132275;0.04020692;-0.09245018;0.036452167;0.07586783;0.0060027926;-0.023131382;-0.18577328;-0.08840668;0.034295034;-0.031200541;-0.079348005;-0.008512317;0.023000825;-0.2526634;-0.021447899;0.019326583;-0.109032534;-0.008783965;-0.09776215;-0.0044557313;-0.052446183;0.0005650762;-0.03148003;-0.005110482;-0.06037519;0.05400261;0.08336275;-0.0063455673;0.009386084;-0.03888586;-0.024686055;-0.042350832;0.044428635;-0.0864415;0.012785263;0.103348106;0.026816295;0.0637079;-0.08460587;0.03412102;-0.013682077;-0.012311236;0.07422915;0.02344021;-0.0076300306;-0.011078648;0.018128432;0.028359247;0.07141928
0.00046249066;-0.10545173;-0.08099774;0.0076420773;-0.053815383;-0.04413156;-0.06841579;-0.022165583;-0.012932065;0.0037033197;0.024183268;-0.0017645803;-0.06622133;-0.048590127;0.021834547;0.040081117;0.14557216;0.052294005;0.01521516;0.064703085;0.03804183;0.010641943;-0.12232429;0.028829908;-0.08035463;0.017367631;-0.0020564094;-0.07617654;-0.059025858;0.12788129;-0.07507851;0.03140409;-0.106997155;-0.058179982;-0.08935773;-0.06544114;-0.034942586;0.09983281;0.027037552;-0.09779665;-0.012425403;-0.047955114;0.09203253;0.01267919;-0.06942086;-0.08822219;-0.1508693;0.02211462;0.058345832;-0.062714666;0.08866182;-0.2227562;-0.098885864;0.038575836;-0.008850408;0.0013298901;-0.019765913;-0.14103012;-0.07031956;-0.07191955;-0.022139205;-0.105246656;0.047497924;0.034253582;0.050495572;-0.10526283;0.11662035;0.056914877;-0.1122136;-0.028683431;0.07048523;-0.041688874;0.03435727;0.07266804;-0.046208814;-0.07181678;0.023884242;-0.030270921;-0.009097306;-0.061541244;0.029151594;-0.20854096;0.01609376;0.056401238;0.09836086;0.047456224;0.08386341;-0.04643563;-0.07119784;-0.063099824;-0.07335533;-0.112998225;0.076429404;-0.013563245;0.12084203;-0.11056243;-0.14606045;0.042320963;-0.0023767517;-0.09549894;-0.037296575;0.024142433;0.03013677;0.060419343;-0.081231385;-0.10593817;-0.0797582;-0.023175996;-0.09791781;-0.13410746;-0.13943487;0.055723306;-0.109602734;0.02972191;-0.11514324;-0.12351983;-0.087618455;-0.047448136;0.060218893;0.03221302;0.015625734;-0.063274294;0.016658198;-0.0031653666;0.008155838;0.0042675883;-0.06491768;0.06195413;-0.16198443;-0.052485377;0.12371769;0.06455036;-0.015649948;0.04369174;-0.20416507;-0.11991743;-0.1295973;-0.015451264;-0.22843494;-0.036990903;-0.10615706;0.037842054;0.069743;0.07085338;0.059580795;-0.04321017;-0.13144007;-0.13862757;-0.08280341;0.007497056;0.026211493;-0.07626409;0.027794383;-0.048106607;-0.17317611;0.019449495;-0.02831944;-0.05828516;0.04725074;0.04737175;-0.080035575;-0.05453859;0.072191246;-0.098086335;-0.11778238;-0.050417945;-0.17498626;-0.08861461;-0.24116299;-0.07878297;0.041994173;-0.0034293062;-0.09583733;0.013028724;-0.023681795;-0.08136459;0.04378987;0.024485104;0.033753086;-0.0414589;-0.048691556;0.0028689746;0.031949222;-0.14373025;-0.052340318;-0.1490433;0.0037545245;0.020546;0.11595143;-0.0054375716;-0.071403086;0.010683688;-0.12564105;0.021542659;0.011760672;0.066763945;-0.14790273;-0.18005203;-0.054824248;0.02176465;-0.049653564;-0.013406774;-0.10019845;0.1785634;0.02813326;-0.032951478;-0.06749199;-0.047906566;0.015099061;-0.046671756;-0.048881885;0.0663775;-0.12175513;0.037414994;-0.012073501;-0.06440829;-0.04600589;-0.0022240388;0.0038415536;-0.04794022;-0.024525216;-0.0447487;-0.019701049;0.15006383;-0.0013341157;-0.21670711;-0.027051108;-0.00059939426;-0.16056708;-0.092957236;0.036539193;-0.004005764;-0.015800413;0.064757064;-0.096809626;0.04594048;-0.08816023;0.06042993;0.036858547;-0.14431468;-0.023426605;-0.044527724;0.0102589885;-0.08968459;-0.047243692;-0.04080769;-0.04352346;-0.105254896;-0.085411094;-0.0043125125;-0.045211878;-0.056722205;-0.056128882;0.095918;-0.024177069;-0.045405455;-0.024045222;-0.18073918;-0.030327203;0.015158518;-0.04572897;-0.055014856;0.061536573;0.059115585;0.018241242;0.09660018;0.009362512;-0.04625283;0.09215851;0.07206855;-0.18520658;-0.07570348;-0.087774575;0.065321304;-0.0471501;-0.023489548;-0.0134972865;-0.0317706;-0.040081758;0.05200345;-0.1847814;0.041653;6.4416425e-05;-0.03257321;-0.0992747;-0.018652167;-0.12169905;-0.02660788;0.0025714797;-0.07842429;-0.049257006;0.043115444;0.034561228;-0.032005183;-0.12297243;-0.0077317026;-0.011726038;-0.00012523524;-0.06375094;-0.005357752;-0.003979495;0.041653957;-0.013520248;-0.029789155;-0.09989652;0.0071246163;0.015426818;0.15659808;-0.053977456;-0.06564309;-0.092753194;0.04136432;0.028886858;0.058460504;0.015781598;0.0036622079;-0.12145349;0.049882542;-0.102379665;-0.2146598;-0.08613675;-0.094883196;-0.08754867;-0.053271677;0.017240776;-0.023209177;-0.14810616;-0.10554906;-0.043837547;-0.120537065;0.042227216;-0.079086915;-0.04949241;-0.015179348;-0.07138891;0.039557055;-0.058569383;-0.08664552;-0.05354752;-0.007688677;-0.08809673;-0.033887908;-0.09092568;0.065177195;-0.0037996322;0.05363768;0.051120404;0.04070008;-0.16877005;-0.074772485;0.066928536;-0.069274895;0.047741428;-0.010595885;0.027126633;-0.1318442;0.024132598;0.024037486;-0.008752481;-0.0496861;-0.073018014;0.02041278;-0.014817092;-0.037653215;0.031951964;-0.080016255;-0.016353307;0.09606555;-0.1615198;-0.070432805;-0.10691588;0.026433596;0.034921147;0.017821455;-0.04944721;-0.13714062;0.0077898703;0.041368064;0.0037108264;0.005451552;0.006560057;-0.030517343;0.06603922;-0.11419569;-0.09284;-0.0013725646;-0.10183067;0.025364475;-0.14214323;0.05841398;0.07010412;0.025770053;-0.056236684;-0.12729679;-0.10909239;-0.2594493;0.046846468;0.030489417;0.0776549;-0.016062671;-0.06858149;-0.035720605;-0.0564878;-0.0074890885;0.023184506;-0.027381087;0.11759538;-0.024728041;-0.07884457;-0.20846985;-0.14783365;-0.08463973;-0.082071066;0.036864247;0.019408623;-0.02293152;0.017253192;-0.14309439;-0.113751315;0.055676557;0.07401573;0.018791305;0.004397675;-0.13146295;0.030240228;-0.085649535;-0.08721762;-0.002448269;0.07767344;0.04763787;-0.080184996;0.011667909;-0.083316736;-0.0397541;-0.030089566;0.019889569;-0.00388803;-0.036422424;0.016285893;-0.016241612;-0.038318183;0.1496437;-0.08533909;-0.1342551;-0.107617706;0.009131745;0.007849636;-0.24571635;-0.17387651;-0.08310421;-0.009369608;0.11074202;0.041770168;0.06407331;-0.21845815;-0.13716333;0.06037943;-0.09708803;-0.11695848;-0.008264283;0.0122415135;0.0060274866;0.08812565;-0.021359611;-0.09608251;0.03063213;-0.084072486;-0.024731573;-0.0696017;-0.087144;-0.02476802;0.02926464;0.010340633;-0.061355405;0.007255619;-0.06580124;0.032927174;-0.14013584;-0.12253405;0.0205152;-0.12422079;0.014082346;-0.13201179;0.037169214;-0.030628858;-0.10019553;-0.035811197;0.0061060735;-0.062762566;-0.046185214;-0.14128105;-0.058412574;-0.030634955;-0.07015235;0.03696315;-0.091712676;0.07039329;0.013347921;-0.011888074;-0.097251765;-0.012408468;-0.0876422;0.2081403;-0.06796954;0.013991657;-0.08632136;-0.014157658;0.028708003;-0.029155543;0.07544301;-0.14200492;-0.13068712;-0.07237636;-0.079335794;0.03266614;-0.06669305;-0.0037842167;0.03460995;-0.11141966;-0.010950249;0.030945264;0.055162627;-0.02287192;-0.09876904;0.032883435;-0.1276668;-0.06309981;-0.07095799;-0.08567459;-0.0026847445;-0.022919737;-0.021947198;0.02044885;-0.11627272;-0.10609814;-0.07706589;-0.04473489;-0.100272655;0.014522095;0.03235309;-0.21808964;0.0409915;0.09304315;-0.03628517;0.02059709;-0.0919581;0.06564444;0.013469279;0.06857099;-0.10592387;-0.08569114;-0.14891468;-0.032665316;0.07420967;0.05518356;-0.074150346;-0.08492586;-0.044088125;-0.1495849;-0.068586305;-0.12444945;0.034773033;0.047463562;-0.104254246;-0.060610104;-0.11291887;-0.07276763;-0.08987636;-0.0142159;-0.075714655;-0.058873873;-0.03586464;0.091087796;0.024077758;-0.045883086;0.048318323
-0.080229566;-0.044181157;0.04087762;-0.09506974;0.029473348;-0.08422402;-0.011383107;-0.046622455;-0.09154856;-0.099258445;-0.08390153;0.052587844;0.0075873453;-0.10391305;-0.010194567;-0.014229529;0.14077687;-0.056569826;-0.10349667;-0.010490691;-0.097054295;-0.04055345;0.019944169;0.098996274;-0.067967765;0.039642554;-0.0781723;-0.045971002;-0.09539816;0.049034707;0.02172243;0.015183471;-0.1320431;-0.08719986;0.045198306;-0.053090844;-0.08207549;0.16377825;-0.08292231;-0.13707452;0.009144277;0.06622164;-0.029141344;0.021833796;-0.10164176;-0.07187918;-0.1301513;0.012084987;0.0104834875;0.0030848493;0.0033269664;-0.21779154;-0.009196036;0.013176891;0.09383019;0.039799415;0.06278526;-0.13857049;-0.10685487;0.04726929;0.04005377;-0.13613135;0.009303787;0.053269845;0.03666444;-0.04268755;0.12099484;-0.010046771;-0.019275427;-0.110337146;0.022816759;-0.070121825;-0.07792014;0.06180923;-0.02085294;0.03354795;-0.06121679;-0.13288271;0.026450425;0.046091434;0.04065092;-0.07270321;0.03084449;0.11283453;-0.035918;-0.015759604;0.06406446;-0.12450982;0.050950326;-0.16409825;-0.10977965;-0.09186438;-0.06810331;-0.08124784;0.16091526;-0.1124512;-0.22205809;-0.006812219;-0.051447663;-0.15251318;-0.004312459;-0.004462373;0.0017253171;0.05990656;-0.14644676;-0.050368972;-0.03269377;-0.040103596;-0.013783749;-0.04255819;-0.14262015;-0.06770877;-0.15801348;0.023701819;0.014236588;-0.036244277;-0.063410275;0.060560647;0.025335975;0.033246513;-0.0030095354;-0.01115301;-0.11615167;0.03129655;0.0026581916;-0.08375583;-0.09427043;0.09171416;-0.089974426;-0.068534814;0.10044125;-0.0025957604;-0.06592121;0.041971073;-0.21124645;-0.14350349;0.0060072774;0.023099992;-0.14891559;-0.039596513;0.036000952;-0.08266211;0.03630207;0.08541736;0.08560365;-0.08912984;-0.13609192;-0.13666533;-0.12007054;0.030606693;0.017887402;-0.041239735;0.008272992;0.005440374;-0.16150683;-0.085915804;-0.11730291;0.003310106;-0.057404634;-0.076771304;-0.03797422;-0.013702911;0.029603358;-0.088646784;0.018505802;-0.036193732;-0.12264338;-0.000822749;-0.22974358;-0.07179414;-0.051074684;0.0023052313;-0.049915645;-0.024483494;-0.018113174;-0.10645155;-0.09121951;0.04445464;-0.104088254;-0.031098945;0.053624097;-0.044228405;-0.058302797;-0.11351337;-0.10496856;-0.036972757;0.014565213;0.08599423;0.107923076;0.03519082;0.0059297187;0.023661016;0.015109743;0.015749855;0.017173149;-0.016181692;-0.07881948;-0.1863853;-0.12625813;0.01118668;0.05195634;-0.012061091;-0.072376065;0.16625711;-0.01646236;0.04976;0.04195459;0.049966037;-0.04243516;-0.024143359;-0.11758821;-0.05607334;-0.019967774;0.057301525;0.018354706;-0.032818325;-0.15798979;-0.037189398;0.022466984;-0.044086054;-0.09338861;0.021716781;-0.15782264;0.15617621;0.048053898;-0.10452457;0.022645732;-0.022964878;-0.042473912;-0.036070675;-0.032820504;-0.041623697;-0.07735793;-0.014540951;-0.05528235;0.061531607;-0.10491333;0.009417547;0.07621928;-0.0554475;-0.06912375;-0.08448438;0.09016382;-0.05024499;0.07885844;0.0033184139;-0.07200827;0.045779645;-0.07007488;0.06103466;-0.046566024;-0.055846848;-0.095892675;-0.021813741;-0.06167872;-0.07028443;-0.11854165;-0.11157282;0.024552267;0.06761095;-0.016200058;0.041830268;-0.0931002;-0.06585129;0.008221178;-0.020362914;-0.01369021;-0.012442718;0.12969631;0.0452218;-0.16615039;-0.17625687;-0.0768768;0.009803437;-0.05408875;-0.098411456;-0.050118696;-0.10595814;-0.03383439;-0.018278398;-0.12099239;-0.08916315;-0.03954221;-0.12334456;-0.081720345;-0.10637068;-0.08133532;-0.08072245;-0.056483988;-0.049851246;-0.050860886;-0.039328415;-0.08609567;-0.051333375;-0.09413191;-0.086307876;0.025371365;-0.05100074;0.03288096;-0.054041237;-0.012115648;0.10451764;0.029381853;0.0076287882;-0.16592419;0.10006997;0.038492274;0.076971315;-0.01789989;-0.074853994;-0.08996592;0.0074747787;0.051367763;0.12168688;-0.0045731314;-0.050371695;-0.10660725;0.01995411;-0.1245553;-0.2028063;-0.07713342;0.031075582;-0.02246718;-0.014233514;-0.024967454;0.036936827;-0.1771667;-0.096196204;0.06307245;0.016400555;-0.00083809416;-0.07804211;-0.024569847;-0.06519095;-0.09222375;0.010428375;-0.045039378;-0.04711265;-0.07128258;0.00635944;-0.05357081;0.0017792326;-0.13561743;0.027041567;-0.074139245;0.020061418;-0.061240938;-0.039577108;-0.21657443;-0.11881806;-0.003096884;-0.03034523;-0.083811104;-0.036522396;-0.016757192;-0.093843155;0.05247739;0.015833877;0.04436087;-0.017962294;-0.19106641;-0.06424073;-0.031069139;-0.034392573;-0.098278515;0.049716208;-0.084257625;0.06370583;-0.040156316;-0.02804957;-0.006680713;0.022040775;-0.07298132;0.045115843;-0.007804061;-0.057033535;-0.04207762;0.010919193;-0.073544875;0.0048265215;-0.013615153;-0.0514051;-0.038561687;-0.029875562;-0.03281564;-0.07507963;-0.02226008;-0.023544753;0.009708649;0.041163538;0.017095098;-0.007816516;-0.08228401;-0.048676193;0.016536398;-0.2163401;0.039731376;-0.032791074;0.043527175;-0.099962346;-0.020046288;-0.06774903;0.049424507;0.017785644;0.048607953;-0.013289291;0.08104094;-0.11403425;0.059823707;-0.15429726;-0.22583954;-0.0052805315;0.011098692;-0.047344483;-0.098854534;0.04345986;0.047589757;-0.063358806;-0.13628908;-0.023036681;-0.07384707;-0.060782712;0.049677137;-0.08247361;0.09502946;0.049262173;-0.04962235;0.01586371;-0.034305125;-0.01802865;-0.10388078;-0.02623321;0.016251814;-0.020949854;-0.10871475;-0.005346986;-0.057150483;-0.05644677;0.054610197;-0.047151133;-0.1690435;0.1777052;-0.09804693;-0.021977065;0.030444592;0.048587773;-0.00026411482;-0.2116055;-0.043945957;-0.0744004;0.050212707;0.012988575;0.029062845;0.056417096;-0.1816406;-0.04256848;0.01765636;-0.16479552;-0.049528312;0.05819019;-0.02805111;-0.04797128;0.053187232;-0.020383224;-0.07321174;0.06458395;-0.14096789;0.026654115;-0.078962356;-0.15722373;-0.030100746;-0.07819527;0.02122153;-0.10717722;0.03210958;0.0321864;0.033045728;-0.16482252;-0.09164593;-0.024984064;-0.13860847;-0.0029441854;-0.11307771;0.051535085;-0.03294207;-0.12903818;0.049269464;0.04791814;-0.064505115;-0.019123977;-0.01770085;0.030368388;-0.035007734;-0.02319912;0.045483377;0.033672687;0.033311315;0.02568487;0.009172507;0.020236734;-0.09302803;0.0027710116;0.23525386;-0.082662374;-0.071881756;0.04069554;-0.051801696;0.0070189205;0.0050160177;0.088016234;-0.038239073;-0.14713776;0.009004031;-0.0633448;0.023962606;-0.0059740134;0.008971921;0.0664001;-0.17390126;-0.082040645;0.01914346;0.0053445254;-0.101746835;-0.079307266;0.10202459;-0.12987046;-0.015797233;0.06291871;-0.08139432;-0.05020046;0.030321876;0.054294568;0.052272454;-0.2679804;-0.038132112;-0.095091216;0.011500936;-0.053240314;-0.089368634;-0.09055462;-0.28726757;-0.04027038;0.045699663;-0.098248616;0.11029594;-0.094412856;0.06421456;-0.077458784;0.01279879;-0.12139339;-0.109310046;-0.1515088;0.012692757;0.107547805;-0.056757014;0.03543914;-0.17914411;-0.08707512;-0.14502126;-0.07207931;-0.16355467;0.033324733;-0.017098073;0.004232741;0.016159093;0.04607799;-0.023239924;0.023106385;-0.06815392;0.021587264;-0.08957387;0.0109569775;-0.038778327;-0.0010004626;-0.014883739;-0.0034836142
0.0149618825;0.010516402;-0.070591;-0.0051961076;0.037581977;-0.11301422;-0.15949789;0.06818854;0.040563192;-0.038712546;-0.08150359;-0.015243303;-0.010542191;-0.07449746;-0.05606223;0.0076532364;0.061109424;-0.06228667;0.03619026;-0.0020403878;-0.036525358;-0.0966876;0.019017152;-0.081690624;-0.11273239;-0.037784826;-0.04485006;-0.13624023;0.013079877;0.13959938;0.0005423773;-0.066063836;-0.051212806;-0.026126677;-0.0048047747;0.049162123;-0.06139313;0.091266476;0.04929091;-0.052034114;0.011120577;-0.014682168;-0.015230423;-0.023711534;-0.000601539;0.048688356;-0.033841856;-0.014822134;-0.034831535;0.056617424;0.019710831;-0.20395266;-0.087168485;-0.03443909;-0.025440127;-0.06537026;0.0010078091;-0.18236114;-0.002152772;0.059848472;0.00039480883;-0.108351186;0.10053677;0.038312968;0.049492024;-0.14360645;0.114635594;0.001976696;-0.121703036;0.015606762;-0.05822487;-0.058734514;-0.10714081;-0.033377588;-0.05210116;-0.066961326;0.049269874;0.012484731;0.032468863;0.030192476;-0.06376364;-0.20649908;0.050788697;0.118384406;0.007078006;-0.052108277;-0.020928066;-0.003791053;-0.005097359;-0.06510084;0.0003419826;-0.16873865;-0.06880889;-0.11455658;0.16620171;-0.062470086;-0.145474;0.06397833;-0.0034350553;-0.12863092;0.0029175053;-0.09188335;-0.009300479;0.025336513;-0.01616305;-0.06559226;-0.07899542;-0.09368659;-0.017949635;-0.05632228;-0.044945057;0.03209371;-0.11927512;-0.054682475;-0.13374305;-0.13602738;-0.04593639;-0.003791372;0.03407751;0.078754045;-0.096802816;0.015591007;-0.109317034;-0.05980847;0.020474127;-0.07327532;0.032463346;0.07107366;-0.1527918;0.07604714;0.085735686;-0.058824398;-0.027726822;-0.0006837279;-0.07843848;-0.105636515;0.01330746;-0.03847465;-0.14586341;-0.15546688;-0.03569113;0.014330728;0.10747891;0.17006567;0.10458645;-0.01577963;-0.14660126;-0.008341315;-0.013133815;-0.066353105;-0.018426707;-0.06615388;-0.09284708;-0.10722165;-0.09181099;0.0059698154;-0.048786987;-0.039894097;-0.09967261;0.018777726;-0.0034671933;0.02122331;0.021602048;-0.14372958;-0.056303542;-0.06499956;-0.1775196;-0.067955196;-0.24174798;0.03846188;0.021531451;-0.04563257;-0.072054386;-0.036132436;-0.13984597;0.0069983066;-0.018810026;-0.02660555;0.03966107;8.282019e-05;-0.07576817;-0.12059127;-0.048293825;-0.1849319;-0.0102510825;-0.010103232;0.019267214;0.089724734;0.10563742;-0.0658905;-0.051281292;0.062221263;-0.02773259;-0.009732006;-0.10710961;-0.026563842;-0.07356128;-0.06502592;-0.10210277;-0.059606124;-0.06706183;-0.10346957;0.008405893;0.06346273;-0.0460647;-0.040066265;-0.035954744;0.025652705;-0.0061864997;0.0003912139;-0.081293754;-0.07238223;-0.03398341;-0.09019643;-0.087405585;0.018293627;-0.18768474;0.047597427;-0.0026749668;0.06702192;-0.026263505;-0.04974363;-0.02429311;0.04867759;-0.016888376;-0.22201008;-0.07617411;-0.009230435;-0.094705164;-0.047153465;0.056939367;-0.033338986;-0.0851146;0.07321788;-0.06686011;0.055050865;-0.03547398;-0.0062731677;-0.03372615;-0.09690387;-0.060552657;-0.050729517;-0.06847371;-0.04373759;-0.0752098;-0.05231448;0.048337206;-0.10324523;-0.10002684;-0.039171033;0.06687769;0.052062824;-0.07197498;0.007455554;-0.1142092;0.055430748;0.0055201184;-0.110937;0.05377795;0.064540796;-0.14515328;-0.05407585;-0.07394738;0.029738097;-0.09076972;0.05421637;-0.046802234;-0.010949182;-0.02648287;0.073484905;-0.11161285;-0.12648048;-0.08207553;0.02820752;0.010122243;-0.07128864;0.01376934;-0.06289588;-0.14381625;0.014918243;-0.16447768;0.054583147;0.0065640085;-0.058327332;-0.13875127;-0.1293665;-0.0438523;-0.03961191;-0.030063357;-0.13140818;0.0075349556;-0.03876749;0.04992406;-0.017041158;-0.013913215;-0.06580488;0.038951278;-0.07152968;-0.009772079;-0.048854448;0.0017818145;-0.020823706;0.058016635;-0.019697735;-0.13731812;0.055501115;-0.06348734;0.03520208;-0.021243908;-0.038408127;0.006068556;0.029480971;0.01124739;0.08836607;-0.03284391;-0.039792597;-0.17203534;-0.02287741;-0.09523892;-0.1755583;2.9933655e-05;0.021907803;0.011562872;0.0557138;-0.01898941;-0.029249432;-0.11778105;-0.08198581;0.010953276;-0.071358986;-0.011559421;-0.077135704;-0.14220667;-0.13742119;0.0012304498;-0.10797321;0.026932463;-0.10084643;-0.077290624;-0.051460672;-0.06880882;-0.07706059;-0.05458996;-0.041876018;-0.10652394;0.06995034;-0.04920557;-0.022724615;-0.11116269;-0.09013769;0.03679626;-0.09057994;0.019498654;-0.026478296;0.016989278;-0.06710036;-0.039499316;-0.046734978;0.050396536;-0.06484339;-0.19057481;-0.0021943855;-0.062223904;0.005982507;-0.034472443;-0.06476595;0.01202826;0.03064023;-0.153766;0.023615075;-0.13252431;-0.08131023;0.04882971;0.061521348;-0.09896005;-0.11584064;-0.06827628;0.049194314;0.03210019;0.14251894;0.04584793;-0.05135754;-0.040874135;-0.13817605;-0.04404218;-0.05201246;-0.10673511;0.010820666;-0.033609502;0.034840327;-0.016860878;-0.09019915;-0.041575;0.025021562;-0.069223516;-0.26467523;-0.0641507;0.018587109;-0.046773516;-0.10196777;-0.08519415;-0.03659301;-0.06625572;-0.017360566;-0.049942322;0.0561011;0.029033585;0.004596252;-0.071198605;-0.20110087;-0.13696398;-0.066492826;-0.013558356;-0.0421303;0.05179684;-0.0077154944;0.006730205;-0.14354299;-0.043256234;-0.01698031;0.015355072;0.025491146;0.057631202;-0.03670003;-0.04565448;0.0018128309;-0.076331764;0.01654429;0.0050999853;0.018018937;-0.100715086;0.039229997;-0.09065365;-0.1609296;-0.12854506;0.0074988203;0.034073997;0.06276489;-0.04614383;-0.081248805;-0.19498391;0.15593717;-0.10549701;-0.03093996;-0.04386169;-0.06609572;0.07093382;-0.20010227;-0.05146464;-0.10547666;-0.089555256;0.10249529;-0.07881743;-0.028709693;-0.20775215;-0.08944066;0.007912246;-0.12633291;-0.017520249;0.03914147;0.031819034;-0.12366118;-0.047287155;-0.03634673;-0.107479155;0.0627518;-0.14872347;-0.028445423;-0.08091999;-0.016221823;-0.04026381;-0.0806729;-0.045420367;-0.13853092;0.14298509;-0.01685516;0.018552508;-0.16355266;0.008042572;0.022235187;-0.06953642;-0.0842847;-0.18505141;0.047912605;-0.17573918;-0.15450324;-0.013828085;0.046947334;-0.13514872;-0.004630388;-0.0374909;0.050763905;-0.03745634;-0.034034923;0.031909894;-0.06723544;0.0946552;-0.03861694;0.03450912;-0.043893903;0.056330297;0.023751276;0.12221367;-0.04931615;-0.035668354;0.02885205;0.020074617;-0.12309733;-0.065751515;-0.06442326;-0.043375123;-0.21853614;-0.051408842;0.014201786;-0.066568956;-0.024457091;0.09835641;-0.089941435;-0.20184565;0.047397207;0.012681876;0.07583952;-0.09673708;-0.032171935;0.042219356;-0.075479314;0.029716706;0.06704144;-0.021447835;-0.08081154;0.0055763777;0.030130286;-0.053189244;-0.19016515;-0.087332375;-0.12315936;-0.08283253;-0.054872558;-0.09041326;-0.06525331;-0.2773008;0.0043303934;0.09371981;-0.1780431;0.120479345;-0.11410016;0.008768508;0.004912416;0.08115739;-0.064019576;-0.023767205;0.0010797549;-0.06874724;0.04727428;0.053679783;-0.06045153;-0.11725316;0.051902644;-0.095639445;0.050772946;-0.12298259;-0.008049956;0.038946945;0.020683127;-0.012042822;-0.047802214;0.02118724;0.01934584;-0.09066253;-0.03352303;-0.033332776;-0.0034248498;0.10012851;-0.11791729;-0.05636514;-0.0019077152
0.01672936;-0.05859044;0.03251363;-0.0075062765;-0.094150014;-0.0135015305;-0.14293829;-0.033804514;0.050701495;0.0128594255;-0.0937264;0.054707054;-0.077761374;-0.0047542783;0.06251678;0.10306549;0.13093466;0.036764994;0.03408533;-0.056022186;-0.08875931;0.0059420024;0.017725402;-0.016376857;-0.10982731;0.07768657;-0.09464119;-0.072382726;-0.08420951;0.10494025;-0.07255779;0.045823585;-0.15246668;-0.07044111;0.043397244;0.030781223;3.9131846e-06;0.17423645;-0.07323559;0.012556704;-0.03623984;-0.063818336;0.07504019;0.029219653;-0.050346665;-0.041787967;-0.11782035;0.03136452;-0.055044014;-0.029603027;0.013207167;-0.11713584;-0.034890052;-0.04199665;0.019819746;-0.056674972;-0.015391645;-0.11252999;-0.09115205;0.020315045;0.007987607;-0.073949024;0.011491215;-0.05006085;-0.074899815;-0.09919594;0.18680677;-0.056045324;-0.12899797;-0.13472724;-0.003582416;-0.08046358;-0.07547026;0.0490708;-0.044470463;-0.007420254;0.015509177;-0.117550686;0.042561285;0.054089326;-0.061975777;-0.052018862;0.011491676;0.02602707;0.058949903;0.0074211196;0.03626914;-0.02450107;-0.07453661;-0.09110837;-0.0942465;-0.10065633;-0.059645742;-0.0008720319;0.079250164;-0.017180892;-0.09198243;0.024206722;0.033460543;0.005982424;-0.011751249;-0.087728746;-0.08152715;-0.04904594;-0.14891678;-0.089766234;-0.057759658;-0.03397547;-0.13141191;-0.012375712;-0.09626812;0.056651823;-0.21032748;-0.090905055;-0.13405938;-0.059360806;-0.056006357;-0.038875725;-0.08661356;-0.038972232;-0.10137671;0.024465742;0.0017932941;0.04971172;-0.065484926;-0.042297702;-0.06789077;0.049204256;-0.23772684;-0.029196326;0.07525607;-0.0027884995;0.016538821;-0.0048760744;-0.18965262;-0.02464203;-0.06589902;0.021445729;-0.1717339;-0.12590373;0.002782728;-0.026475824;-0.035652675;0.04312155;0.114936166;-0.052434452;-0.111212365;-0.15974624;-0.11745775;-0.048108865;0.057642583;-0.055712774;0.016603692;-0.038073532;-0.07709463;-0.042296115;-0.12789272;-0.007412925;-0.041194584;0.03838876;-0.05460571;0.017984789;0.025957542;-0.15351345;0.02181612;-0.12709385;-0.14287135;-0.06702416;-0.1542897;0.032643408;0.034914393;-0.14041702;0.02914191;0.0117947105;-0.010452858;-0.06307074;0.04785667;-0.0026312498;0.0507332;-0.006094359;-0.06784027;-0.058369845;-0.10196769;-0.0820293;-0.034343284;-0.08909895;-0.00049768225;0.095274106;-0.02668957;0.009317643;0.027344657;0.08400036;-0.107175566;-0.083425716;-0.022823725;-0.0315019;-0.032094754;-0.11474911;-0.1808598;-0.03353855;-0.107800394;-0.036093194;-0.032287423;0.12356949;-0.004113162;-0.013264443;-0.01009428;-0.021988222;0.04542705;0.009507576;0.022961238;0.04627025;0.004344302;0.0036748825;0.026749786;-0.095826;-0.111246;-0.030506564;-0.053074893;0.061359406;-0.035092063;0.014754484;-0.14153208;0.1802296;0.03770042;-0.15312153;-0.0599266;0.014119266;-0.03840025;-0.1342575;0.02450104;0.00024082248;0.014355217;-0.022785842;-0.047286373;0.036361896;-0.09956864;0.086365186;-0.046074416;-0.04855152;-0.06735717;-0.11786537;0.0829976;-0.0042937887;-0.04498306;-0.10052966;-0.008249025;-0.08053483;-0.104657724;0.028529089;0.021454807;0.033193316;0.01748391;0.014692202;-0.044574153;0.015131017;-0.13036244;-0.11969342;-0.006542143;0.002596623;-0.090686545;-0.036522187;-0.037493486;-0.06537224;0.006092;0.028467905;0.029740948;-0.09303685;0.13192154;0.052876994;-0.17608397;-0.19704239;0.018130321;-0.022219375;-0.027532134;0.00975965;0.030136522;-0.14954914;-0.09278661;-0.09638974;-0.14981516;-0.064562395;0.02463246;-0.019422792;-0.010447977;-0.15408343;-0.007197843;-0.09685805;-0.08081089;-0.11419845;-0.09833965;0.08725645;0.015330935;-0.014838231;-0.11283304;-0.027649185;-0.06502466;-0.028232357;-0.022565058;-0.102334715;-0.08633377;0.012126209;0.08392764;-0.117438234;-0.12176265;0.07680625;0.004732471;0.13544141;-0.075759575;-0.01909892;0.0059031933;0.019591166;0.010366022;0.039226905;-0.06663063;0.038925447;-0.02738241;0.01604482;-0.07150661;-0.09314395;-0.04329519;-0.065502025;-0.11231128;-0.008353568;-0.033021923;0.043589886;-0.14184031;-0.09440687;0.013257984;0.01714838;-0.008590391;-0.052250516;-0.16686152;-0.031312894;0.023936529;-0.12002632;-0.08091795;0.041885078;-0.040408082;-0.0588438;0.015523316;-0.08140716;-0.13643385;-0.04122821;-0.044795744;-0.034292694;-0.07969503;-0.018518321;-0.22122923;-0.16907084;-0.012067668;-0.09262041;-0.025067138;-0.00462851;-0.09416445;-0.09698351;0.037616763;0.003776255;-0.07941822;-0.0025524965;-0.1593461;-0.029005842;-0.044782676;0.020296091;-0.071303256;-0.09764481;-0.09532508;0.06526837;-0.08557801;0.016303841;-0.082808934;-0.018766444;0.0683272;0.0877973;-0.038421918;-0.0724854;-0.04945926;-0.06778967;-0.039968;0.009647163;-0.072612695;-0.06526108;-0.021688841;-0.19658145;-0.07410829;0.02429373;-0.016553225;-0.077153616;0.009382302;0.10624044;-0.021926684;-0.004784934;-0.07442885;-0.019448292;-0.0046741962;-0.24738556;-0.027445467;-0.06973693;0.05590857;-0.05885729;-0.021210795;0.061505232;0.02292252;-0.052496985;0.02287859;-0.040430337;0.011869636;-0.0930066;0.06946866;-0.1433151;-0.16147177;0.0476227;-0.024689818;0.064823754;0.021309646;-0.012424816;-0.021013197;-0.14411722;0.0141207455;-0.012893868;0.056666996;0.016260946;0.017916081;-0.12821129;0.010477135;-0.08336332;-0.035235807;0.023136178;-0.06014017;0.008730067;-0.01843921;0.08150404;0.02809657;-0.15785919;-0.0769443;-0.10452959;-0.018771715;0.06706332;-0.038496524;-0.040714823;-0.10858728;0.036867797;-0.11019465;-0.14364518;-0.005400419;-0.02124996;-0.024168482;-0.13603534;-0.13752519;-0.04996344;-0.09868882;-0.038405612;-0.03539178;-0.04294381;-0.14872546;-0.09497898;0.06628022;-0.16972503;-0.07908776;-0.092597365;0.025147207;-0.03455603;0.057810526;-0.0024718468;-0.03555563;0.17334378;-0.12808077;-0.07489434;-0.035720512;-0.084438264;0.055288687;0.038400233;-0.0041672196;-0.07501994;0.14014661;-0.0783137;0.036461864;-0.08456754;-0.098818086;-0.061982848;-0.14498897;-0.10729239;-0.18619911;-0.040688448;-0.17760196;-0.18153363;-0.012142485;0.043693412;-0.017515156;-0.06517888;0.0058764582;-0.07610263;0.06810665;0.00072987634;-0.01257936;-0.040496435;0.19028136;-0.03142216;-0.11438517;-0.031321365;-0.042531345;-0.0056178793;0.19923054;0.00053610315;0.0005979495;-0.02060912;0.008583527;-0.009802706;-0.09122993;0.022134673;-0.07636305;-0.22726557;0.00011809961;0.06376037;0.0042887023;0.036052383;0.020387992;-0.089282565;-0.10773746;-0.04267811;-0.05050251;0.027231513;-0.101063095;-0.061521046;0.05225032;-0.031978052;0.05814453;0.016942982;-0.12124313;-0.06581122;0.0664593;-0.044361524;-0.089353345;-0.12645318;0.0066639027;0.03730983;-0.03714747;-0.03523091;0.015826778;0.021772988;-0.13944508;0.025689643;0.12667884;-0.1508635;0.044243973;-0.121102005;-0.073774315;-0.004607325;0.041873485;-0.004544397;-0.038358826;0.0049400423;0.021755444;0.007317182;0.03465178;-0.0073564122;-0.167713;0.035974305;-0.13833588;-0.05206643;-0.050705403;-0.072851874;0.080641784;-0.031797905;0.05899776;-0.03430505;-0.084845714;-0.046718463;-0.012210988;0.048392728;-0.015986783;-0.027631287;-0.0065897154;-0.12265426;0.0244183;0.051568843
-0.020174675;-0.06913125;0.049674623;-0.074079625;-0.03744963;-0.12660521;-0.015467102;-0.03543454;0.01261626;0.078789875;0.030211408;-0.03926002;-0.082422;0.022708848;-0.058174532;-0.06437777;0.048390012;-0.089285314;-0.05773839;0.022549514;-0.095208056;0.021811504;-0.03911739;0.026763605;-0.09660742;0.07007104;-0.031003898;-0.15249944;-0.037575964;0.13697994;0.03830714;-0.0333371;-0.066632256;0.022916144;0.033725828;0.017844247;0.04160976;0.0467215;0.063362576;-0.10605411;0.02916563;0.020182274;-0.01196146;0.024701105;-0.085209906;0.04052096;0.0043428447;0.014387501;-0.016404083;0.04813521;0.0983997;-0.16060132;0.055240765;-0.012854756;-0.06037895;0.018900177;-0.062286224;-0.14457756;-0.043722868;-0.05843437;0.029697318;-0.12658468;0.082472086;0.062227476;-0.062267356;-0.10447313;0.16524327;0.034157723;-0.11542384;-0.12776369;0.031185271;-0.05118928;0.00085049187;0.030749494;0.015397247;-0.044354334;-0.055598628;0.009483431;-0.050818715;-0.071410015;0.031547114;-0.12565003;0.05044492;0.033270106;-0.024925359;-0.01656168;-0.03703554;-0.11738662;-0.02767734;-0.051175993;-0.08962404;-0.14057794;-0.00564027;-0.07938132;0.12831667;0.0073163165;-0.14634977;-0.07604556;-0.052366983;-0.048077367;0.027952604;-0.03339562;-0.060877565;0.086074255;-0.03826134;-0.10899781;0.021700285;0.021744652;-0.023155758;-0.019452188;-0.02745173;0.053834755;-0.24359249;-0.06491021;-0.07923668;-0.09349644;-0.082712516;-0.019715484;-0.051493876;0.035165474;-0.073164694;0.06437435;-0.14730427;-0.08068294;-0.036046695;-0.14620996;-0.047556505;0.037766136;-0.102628544;-0.025018396;-0.0013877824;-0.07819269;0.045137998;0.11327814;-0.14198337;-0.0034601602;-0.04414716;-0.029859608;-0.20304288;-0.006020347;-0.05177649;-0.0038232936;0.083445765;0.015487301;0.0005424262;-0.04338412;-0.10393124;-0.16157342;-0.0882322;0.032873902;0.028578587;-0.061319653;0.006777428;-0.1411613;-0.21559706;0.059388608;-0.042547278;0.08015151;0.036412634;-0.016085144;-0.09954428;0.06896573;-0.02778324;-0.07847272;0.045749046;-0.03196609;-0.014493445;0.04248766;-0.10168193;-0.06787533;0.038617402;-0.08420454;0.016918268;0.031395797;-0.09737615;-0.040013954;-0.03476257;-0.013799266;0.024395214;0.018982574;-0.06142996;-0.094677605;-0.099620745;-0.17062338;-0.06148469;0.0063330457;-0.013410553;0.102574125;0.066927046;-0.034344126;0.0009924917;-0.06677448;-0.024555868;0.024555955;0.005724028;-0.025322352;-0.051628653;-0.13428758;-0.090351894;-0.054822557;-0.05645709;-0.056505524;0.039339688;0.072704636;0.051047605;-0.016097248;0.03771367;-0.02746681;0.041772157;-0.059197515;0.017203756;-0.06512004;-0.03516765;0.0560454;-0.074418716;-0.034423627;-0.1943295;-0.040555604;0.008913589;-0.017723527;-0.15234984;-0.064827204;-0.09986104;0.17720926;0.08332506;-0.15038827;-0.007852323;-0.05636489;-0.18001582;-0.07293851;-0.014980821;-0.015816923;-0.012860866;0.0134167345;-0.1068324;0.029713238;-0.080324166;-0.049562518;-0.04364209;-0.06999002;-0.02105025;-0.07833278;-0.0056698793;-0.07768509;-0.009378298;0.01288148;-0.030462032;-0.04930112;-0.06956681;0.099616945;-0.037691772;-0.010511526;0.00071213965;0.01326676;-0.058129467;0.0348404;-0.05768029;-0.071449526;0.030676316;0.032674618;-0.040828906;-0.0021201463;0.018365495;0.05484889;-0.044428535;-0.005042807;-0.049685154;-0.09272807;0.113877244;0.023961077;-0.06400282;-0.16441399;0.04730079;0.085394934;-0.0668465;-0.11074063;0.056388114;-0.020527272;-0.066397;-0.07983828;-0.17794181;-0.056479543;-0.08250207;-0.091243014;-0.010660326;-0.13465665;-0.07446182;-0.00911709;-0.09697322;-0.12998345;-0.018560614;-0.055974524;0.004430426;0.007138636;-0.117574975;-0.037673447;-0.08386955;-0.0737211;-0.0070854924;0.019874662;-0.046819095;0.04348768;0.08322672;-0.16571598;-0.1616815;0.11689772;0.068625495;0.040793408;-0.060379148;-0.0153414225;-0.09555247;0.0037645844;0.04164833;0.0005278885;0.028131785;0.0049159476;-0.016745668;0.018318344;-0.024811862;-0.115035355;-0.06277237;0.00075426145;-0.0313765;-0.03279612;0.032657962;0.086361244;-0.21436709;-0.13626765;0.015556281;-0.057922676;-0.06278544;-0.072848275;-0.11543433;-0.06437543;0.025676342;-0.116089955;0.04278659;-0.035344277;0.06328806;-0.0649307;0.034513615;-0.044944074;-0.13944413;-0.055983733;-0.038749095;-0.006011151;0.019506179;0.08502978;-0.20072664;-0.078180626;-0.0047223084;0.033700783;-0.006830827;0.0034508035;-0.08312712;-0.12718403;0.019481812;0.00027612655;-0.074353784;-0.06751644;-0.036138006;-0.041742023;0.02496441;-0.11452649;-0.015428389;-0.06159729;0.019703694;0.01718625;-0.029951483;0.025009638;-0.09044676;0.009074224;0.04583085;0.017959062;0.0032696628;0.0010485451;-0.06352778;-0.07904838;-0.005355307;0.13744998;-0.043110117;-0.14073539;0.03899332;-0.10454709;-0.0893323;-0.022516679;-0.044762716;-0.019773362;0.012039424;0.0670813;-0.06740895;0.022092368;0.0036544928;-0.058934394;-0.10182408;-0.17267652;0.0050672228;-0.12343848;0.029971069;0.030771954;-0.045309026;0.02474279;-0.018142333;-0.02319617;-0.03734872;-0.042499926;0.17218925;-0.14007683;0.026644852;-0.22412673;-0.17322305;-0.08992839;0.00572264;0.0471511;-0.092223585;-0.0331754;-0.033888083;-0.15762052;0.008797346;-0.03044216;-0.030716086;-0.053233083;0.03794696;-0.10544794;0.008730463;0.04997349;0.015083855;0.05796251;-0.047522455;-0.09075135;-0.09158848;0.08110127;-0.100100145;-0.10200877;-0.11606444;-0.010608078;-0.11278976;-0.0045468234;-0.05470852;-0.06811627;-0.1581052;0.1112016;-0.06749742;-0.034450445;-0.06024182;0.05986841;0.02233239;-0.1946881;-0.04034743;-0.10751256;0.057173256;-0.05694645;-0.10786294;0.061451238;-0.17717688;-0.16621588;0.005058283;-0.1274299;-0.08642711;0.04682448;-0.011138046;-0.12034482;-0.05835473;-0.005127366;-0.0004738694;0.1761481;-0.14532235;-0.06401753;-0.048309598;-0.03938541;0.047839604;-0.09231844;0.06728534;-0.06386951;-0.008299824;-0.03824427;-0.068340614;-0.14657055;-0.040301923;0.0087016765;-0.15950154;-0.061846446;-0.109837875;-0.05327129;-0.05935191;-0.24910578;-0.0065293773;0.04121493;-0.14072771;-0.063302346;-0.045425013;0.019992387;0.0643742;0.010806752;0.0017231561;0.023585256;0.07685525;-0.018189985;0.022263272;-0.077089384;-0.10255815;0.032643065;0.15371177;0.05406;0.0314316;0.051890388;0.008471873;-0.05561479;0.02702497;-0.07471212;-0.08764671;-0.12515174;-0.10365949;-0.03245557;0.019728974;-0.062907435;-0.01196978;-0.039623376;-0.08675979;-0.0673609;-0.062894195;0.023455512;-0.046988145;-0.03132167;0.1048569;-0.15458463;-0.07928864;0.029668624;-0.03038444;-0.041566156;-0.07058856;0.07090084;-0.066414215;-0.16889179;0.023734959;0.0049571875;-0.049365528;-0.038846325;-0.03136759;-0.061585203;-0.16598615;-0.053212617;0.062414933;-0.05850811;0.035784137;-0.10065157;-0.08211347;0.061222278;-0.039321613;-0.136756;-0.031864863;-0.09841715;0.002303977;0.013888812;0.024149472;-0.025689723;-0.12356883;-0.018057829;-0.08683148;-0.018314313;-0.024279177;-0.004207568;-0.06505041;-0.08394493;-0.051856264;-0.029735545;0.032395784;-0.11322991;-0.020843435;-0.08083977;0.03829544;-0.008585057;0.049841475;-0.042606264;0.022363978;0.063569054
0.040397648;-0.06260354;-0.047770645;-0.079498544;0.022758713;-0.09560249;-0.08825147;-0.049981028;-0.050504368;-0.04701895;-0.04234378;0.05728518;-0.053820204;-0.101115696;-0.019962104;0.038333174;0.16560441;0.05003296;-0.08692321;-0.06000143;-0.0934763;0.02825347;-0.063112326;0.0010572013;-0.042145528;-0.016736979;-0.12763703;-0.15834686;-0.0041598324;0.12085496;-0.060474988;-0.013695807;-0.097162165;-0.059891;-0.070558235;-0.073506825;-0.08481866;0.16998069;-0.04047802;-0.09334466;-0.05980742;0.016932381;0.008844586;-0.008552114;-0.029043647;-0.07929441;-0.09944446;-0.03524088;-0.0065840906;0.019225275;0.08623752;-0.028397389;0.010499121;-0.04981214;0.091684744;0.012984942;-0.05675636;-0.07723717;-0.005599829;0.006630239;0.048716806;-0.07825733;0.0500584;-0.08532441;-0.055796117;-0.14939679;0.05298696;-0.05916868;-0.0120999245;-0.12132921;-0.08275428;-0.031010231;-0.06782072;0.06020233;0.060103618;-0.0056652785;0.054531347;-0.006948412;0.049797997;0.029942818;-0.045332346;-0.12298332;-0.06344449;0.12922463;-0.09038319;-0.0064085573;-0.05366129;-0.12777118;-0.07103213;-0.15277748;-0.11345024;-0.14272436;-0.074856274;-0.059758093;0.078951165;0.04874227;-0.18468665;-0.0545612;-0.09117693;0.010422597;-0.014828895;-0.03496881;-0.008029982;0.018258458;-0.025353018;-0.09956268;-0.03256171;-0.069284536;-0.040883232;-0.12070098;-0.093137026;-0.09792901;-0.12845607;0.05554922;-0.12508132;-0.1762076;-0.107057735;-0.034942638;0.04528632;0.0010378357;-0.06265905;0.04846407;-0.0073048985;0.073127985;0.03058348;-0.1426948;0.03427693;0.13895738;-0.11316743;-0.009520193;0.064825185;-0.07154041;-0.032360293;0.034614835;-0.09159429;-0.08705814;0.0115914885;0.10257773;-0.07096141;-0.1203381;-0.07565822;-0.035264704;0.0061850506;0.0534272;0.11581186;0.055499848;-0.046674058;-0.093677945;-0.13071814;-0.07899098;-0.0041537504;0.022203486;0.041856304;-0.10111584;-0.13617262;-0.015767677;-0.011922104;0.026646724;0.019189423;0.060048014;-0.07904944;0.03483452;0.09158869;-0.17928137;-0.00794403;-0.022061165;-0.062957704;-0.082049266;-0.23565082;0.012051093;-0.09650687;-0.09352535;-0.0006727708;0.01896813;0.011114608;-0.015525515;0.02975058;0.033212364;0.024173276;-0.01745537;0.03845941;0.0018729372;0.03980791;-0.052288085;-0.03721832;-0.094685;-0.095019996;0.010132605;0.10803924;0.0038608087;0.02066575;0.06838279;0.017418014;-0.046853095;-0.06558609;0.023622138;-0.1914979;-0.08981764;-0.08383745;-0.033077687;-0.022984838;-0.083975784;-0.015517791;0.11606786;0.007582532;-0.10545375;-0.05289766;0.061121516;0.07365271;0.07189377;0.033061627;0.042463653;0.0019829068;-0.020159515;-0.105139546;-0.10427269;-0.12768793;-0.07240287;0.047464877;0.023560788;-0.11113164;0.020318033;-0.02144497;0.037161943;-0.01200282;-0.17774963;-0.023744987;0.054589152;-0.04588881;-0.022562282;-0.011214768;-0.021943424;-0.113853574;-0.00870151;0.020497695;-0.07052287;-0.08519284;0.04755971;-0.050414387;-0.0146580925;-0.034663685;-0.06631493;0.040670086;-0.07091575;-0.05777891;0.02076742;-0.040511634;-0.07835533;-0.13081126;0.029589549;-0.08695162;0.06344019;-0.10549609;0.039486483;-0.027268045;-0.03247165;-0.079827994;-0.15788944;0.053368907;-0.008375361;-0.045734033;-0.0225258;0.051136136;-0.06422567;-0.055532902;0.05803441;-0.11666836;-0.1294023;0.07497123;0.057822388;-0.036517076;-0.20142516;0.051986232;0.079021975;0.036684792;-0.05384615;0.018963458;-0.11360218;-0.0012172378;-0.00688272;-0.13757548;-0.052118223;-0.038261462;-0.11598024;-0.07376846;-0.08685234;-0.021145772;-0.011879277;-0.029844187;-0.06026298;0.024453297;0.056322806;0.076798156;-0.062794276;-0.07976467;-0.062143516;-0.041489445;0.06323781;0.048811246;0.027891276;0.037804347;0.13387388;0.031857703;-0.03523942;-0.16571999;0.16058533;-0.056156695;0.10423893;-0.09833345;-0.042876795;-0.0043535577;-0.051345795;0.027468193;0.0221381;-0.020062746;-0.075680956;-0.047000878;-0.08362525;-0.118658;-0.13228169;0.0632121;0.021997603;-0.08638797;0.050023887;0.049034603;-0.02645774;-0.15753816;-0.038586292;-0.09149377;-0.0020738926;-0.068558134;-0.04982711;-0.012818322;-0.06516345;-0.01647718;-0.09564068;-0.0361217;-0.009072752;0.046987727;-0.11724586;0.029665476;0.01913241;-0.016172232;-0.025886314;-0.059521012;-0.0034142279;-0.043373127;-0.05411265;-0.123208836;-0.101762556;0.007852558;-0.06705982;-0.0126166055;-0.039108347;-0.03686325;-0.18132809;-0.023151759;-0.034131404;0.03150586;0.05657005;-0.06836082;-0.028296933;-0.017395522;-0.07675199;-0.00042082925;-0.07858717;0.026263593;0.1507345;-0.11259186;0.031652607;-0.0037198586;-0.07668981;-0.027709754;0.11955325;-0.036248922;-0.046132285;0.05497996;-0.02429194;0.05376497;0.0782762;0.080654204;-0.04073326;0.0037595425;-0.07560971;-0.023774734;-0.009056446;-0.09776825;-0.062280733;-0.09511705;0.06393456;0.038511187;-0.017999673;-0.073063515;-0.07477086;0.031823933;-0.28161347;0.013905461;-0.016494336;-0.072707;-0.12946309;0.04459713;0.0611029;0.034905158;-0.029171148;-0.050336402;0.020607447;0.16482615;-0.14520681;-0.012134266;-0.21569721;-0.1536716;-0.00695401;-0.091729775;0.0013951474;0.0375765;0.0642582;0.010479882;-0.13975501;-0.014142698;0.024742063;0.068757504;-0.027812336;-0.06797499;0.0027523136;0.028381925;-0.027742853;0.031081289;0.037648413;-0.071998134;0.031032622;-0.15508628;-0.041740477;0.04136772;-0.017771488;-0.12925111;-0.048205614;0.0188573;0.019209621;0.050500248;-0.0849351;-0.09735598;0.12993321;0.028355442;-0.14040695;0.042378433;0.056673132;-0.02480894;-0.15785235;-0.12519628;-0.11038644;-0.08492885;-0.0024270306;0.046495665;-0.021724137;-0.14086156;-0.07877417;0.0067406096;-0.17174888;-0.011349101;-0.035648484;-0.059902236;-0.052432593;0.04504699;0.04454772;-0.055609167;0.12223371;-0.09971546;-0.10875065;-0.14894973;-0.1646933;0.042783197;0.07809509;-0.010845159;0.02607333;0.067388445;-0.03628078;-0.097119726;-0.15006717;-0.13189253;-0.04955105;-0.088116266;-0.093962274;-0.1313788;0.048327796;-0.1708293;-0.20641218;0.06283485;0.056892067;-0.07749637;0.037649304;-0.10590484;0.06558151;-0.025244853;-0.0692631;0.062055342;0.044023946;0.114990175;0.06560864;-0.06922393;0.07502134;-0.011568603;-0.10700777;0.12502737;-0.033973493;0.039984178;0.04940882;-0.10723298;-0.1282695;-0.016850978;-0.051507156;-0.024245631;-0.14079282;-0.06416833;0.056818932;-0.0030318943;0.0027033966;-0.019690154;0.009992366;-0.24386543;0.057442654;-0.09763577;0.055552788;-0.0015658458;0.0559573;0.1686899;-0.14626074;0.0774836;-0.03613489;-0.039610267;-0.009366284;-0.092429705;-0.04074799;0.021462832;-0.23497476;-0.00062887237;-0.10541936;-0.06976292;-0.1665688;-0.0076740887;0.022998344;-0.21997187;-0.065878205;0.051233366;-0.121400885;-0.04703541;-0.14366911;0.012275773;0.008105129;-0.03827418;-0.00775489;-0.18490572;-0.066379786;-0.10227846;0.036177453;0.07810966;-0.02590891;-0.14118436;0.023600103;-0.04696421;0.06975726;-0.061984535;-0.109684266;0.077448994;0.005995711;-0.07558097;-0.07576895;-0.071223;0.054241817;-0.05583024;-0.0028865822;0.03592656;-0.063405365;0.09131845;-0.075023495;-0.086065896;0.07026576
0.006262842;0.0016232094;0.023348022;0.0030590591;0.031034708;-0.029180532;-0.024840312;-0.09297358;0.022231096;0.042891465;-0.07609171;0.032063067;-0.02755057;-0.0829545;-0.04820148;-0.048871238;0.13628092;-0.040977467;0.022842381;-0.009166353;-0.054789748;-0.02273923;-0.12545355;0.009451219;-0.08677099;0.084778145;-0.06498039;-0.11324473;0.04163353;0.13124059;-0.0352562;-0.017851098;-0.0014716475;-0.06798776;-0.082002625;-0.039739404;-0.04674028;0.09847333;0.054567322;0.016818048;-0.008081609;0.015444006;0.039686628;-0.01205619;-0.051585395;0.020454783;-0.073564954;-0.11292071;0.04263432;0.011372626;-0.06964307;-0.051224433;-0.014017744;-0.02533439;-0.06857456;-0.066921726;0.049451634;-0.14450534;0.04746979;-0.05410383;-0.042596865;-0.13606015;-0.014893444;-0.0711616;-0.09153109;-0.12404304;0.17247787;-0.03950235;-0.06878528;-0.055267833;-0.090468965;-0.04996952;-0.100922145;0.020978052;-0.030701064;0.09394415;0.048892204;-0.031546723;-0.09647534;0.035329383;-0.097895116;-0.19493987;-0.055304997;0.058661077;-0.08478152;0.04514433;0.04024807;0.028100558;-0.10067725;-0.05576754;-0.065178834;0.0023069833;-0.0436167;-0.1303329;0.031669155;-0.055211205;-0.11407213;0.0297077;-0.034847494;-0.06667664;0.008207092;-0.046873253;-0.006651687;-0.006529347;-0.021633975;-0.1061964;-0.107147865;0.053897444;-0.099641494;-0.07671084;-0.054950163;0.00867938;-0.12598577;-0.03791993;-0.048014168;-0.12519339;-0.12904593;-0.08563579;0.0026130232;-0.014159276;-0.04981881;-0.02725907;-0.12494317;0.035590887;-0.00031800393;-0.10777456;-0.043852296;-0.015554176;-0.15583408;-0.001546638;-0.058871716;-0.026626386;0.02678254;0.057453234;-0.13815574;0.058223534;-0.12115901;0.09798664;-0.16932093;-0.07950101;-0.036087006;-0.09294106;0.013711471;-0.014656251;-0.037813235;0.010794755;-0.17238723;-0.14013769;-0.12348241;-0.0011541717;-0.06315177;-0.0016706409;-0.08655825;-0.114890926;-0.11657705;-0.020322792;-0.008264083;-0.03121388;-0.0034969635;-0.03567575;0.052063007;-0.033324808;-0.015549751;-0.16471876;0.053162396;0.013947856;-0.12973139;0.023975084;-0.124238886;-0.03466453;-0.031331882;-0.11376933;-0.013291162;-0.08457808;-0.11374107;-0.07656433;0.063492596;0.10545179;-0.043939326;0.057148885;-0.010188077;0.03649092;-0.001992913;-0.036774535;-0.013427865;-0.031809658;0.023846539;-0.027123017;0.0527754;0.036580812;0.05871828;-0.0039314264;-0.09262552;-0.0356256;-0.05907278;0.033843283;-0.13974304;-0.11156118;-0.08345935;-0.05417447;-0.003954119;-0.024947612;-0.05692831;0.06927968;0.016784785;-0.029881913;0.0060648127;-0.07089111;-0.049451273;0.049563095;0.03812997;-0.046696257;-0.08882292;-0.024567388;0.008348638;-0.05891258;-0.0535301;0.040658586;-0.031266898;-0.029877715;-0.08511081;-0.0848079;-0.13035567;0.032724682;0.037689857;-0.22191066;-0.06266112;-0.08764185;-0.07917155;-0.08548182;0.020276207;0.012712471;-0.08124493;-0.05956273;-0.045425154;0.047922134;0.0030084187;-0.068458654;0.07758347;-0.08172044;0.03924917;-0.09460198;-0.04237244;-0.09150989;0.0789268;0.03138848;-0.022016326;0.002203397;-0.03303683;-0.025131965;-0.006227362;-0.06356227;-0.03490001;0.07671754;-0.021186987;-0.04456311;-0.11967803;-0.13256204;0.0090252645;0.07979748;0.019155644;0.03860374;-0.036231823;0.0038103724;-0.054187942;0.02029501;-0.038048115;0.03469698;0.0756447;-0.011047054;-0.12542327;-0.051210057;0.0067602764;-0.008729337;-0.03694272;-0.11239644;-0.037694663;-0.10052078;-0.14863099;-0.083791204;-0.081362285;-0.057281245;-0.073066056;-0.0018218138;-0.08805463;-0.14596896;-0.053182513;-0.08346905;-0.039887983;-0.028407414;0.03482302;0.006886838;-0.058440227;-0.009743768;-0.11280742;0.05719555;-0.05767372;-0.015368545;-0.07394033;-0.0978757;0.065244734;0.15737462;-0.039781507;-0.12212976;-0.18161601;0.061468195;-0.0027509218;0.046978243;-0.092363;-0.06453012;-0.07850446;0.050515622;-0.020148914;0.104925714;-0.020380791;-0.034838896;-0.166489;-0.05992468;-0.17584571;-0.22821629;0.042729836;0.06514091;-0.10656537;-0.030043285;-0.008086611;-0.03766761;-0.17900285;-0.010844618;-0.020152394;-0.09707483;-0.09688199;0.012390177;-0.048498314;-0.0057274797;-0.02306898;-0.15131773;0.040020883;-0.09486422;-0.013661938;-0.07940812;0.029946243;-0.05029381;-0.06094804;-0.020002834;0.0133334;-0.0006377375;-0.010076784;0.06196946;-0.22873437;-0.08343894;0.012547055;-0.055609662;0.0068701766;-0.03743898;-0.046284456;-0.13900155;0.061530787;0.09303788;-0.016516358;0.07716723;-0.082310796;-0.053188514;-0.082581595;-0.06015732;0.031602204;-0.05141011;-0.031696763;0.063558966;-0.14614046;-0.019617654;-0.11229093;-0.026632087;0.08657301;0.0172749;-0.10348179;-0.00035457336;0.0056389347;-0.04434726;-0.059562176;-0.014937474;-0.019736087;-0.032489788;0.06529379;-0.19464962;-0.09986891;-0.09208213;-0.11000447;-0.036560833;-0.055777326;0.1349568;-0.10078313;-0.048233397;-0.033082608;-0.10092197;-0.013532457;-0.12247644;0.0064410577;-0.09362148;-0.06082021;-0.033195697;0.05828569;-0.07316336;0.027161263;-0.036387812;-0.021374239;0.018333178;0.15406998;-0.033085097;-0.05709424;-0.18763459;-0.16083594;-0.07362142;-0.10528307;-0.030478813;-0.10096226;-0.06266205;0.009766075;-0.11924786;0.029117012;-0.02826022;-0.07439589;0.0013457147;-0.021191629;-0.0027302494;-0.055814587;-0.054700725;-0.018512068;-0.08201305;-0.001464712;-0.035921704;-0.106318176;-0.03322054;-0.06849935;-0.13601889;-0.10758643;-0.027408784;0.024204016;0.0064826645;-0.027643697;-0.074556746;-0.14822517;0.022301538;-0.06470145;-0.058637362;-0.029193157;0.009171654;0.028825613;-0.104192466;-0.07083403;-0.043495372;-0.069682755;0.022346752;0.0050459383;-0.005372675;-0.17665848;-0.030566653;0.003190588;-0.17348178;-0.0784377;-0.0013294707;-0.08861581;-0.021906653;-0.10441047;-0.04605493;-0.10850635;0.08065568;-0.07156014;-0.040489726;-0.0058518597;-0.038264424;-0.0675194;-0.04520154;-0.01778954;-0.099548936;0.14022456;0.012342926;-0.0318653;-0.011867188;-0.10801465;0.030507796;-0.13008165;-0.09518137;-0.06360801;0.056875084;-0.14765227;-0.13997363;-0.02613505;-0.0051653152;0.007723706;-0.06712119;0.01578221;-0.067953244;-0.02776283;-0.009627495;0.046542093;0.02273058;0.109859854;0.018237762;0.0024231407;-0.0019647477;0.046567764;-0.08707541;0.0696009;-0.034521364;0.023371235;0.009672685;-0.030796973;-0.020559246;-0.09905083;-0.004821904;-0.15290168;-0.1778275;0.054293223;-0.078847796;-0.06552039;-0.03306911;-0.037056863;0.06313648;-0.10204783;0.013996094;-0.09682411;-0.007364084;0.050652288;-0.027101597;0.1310614;-0.066084474;-0.029725801;-0.06262525;-0.037697572;0.009715999;0.0339984;-0.068293944;0.07115766;-0.16605973;0.0054446775;-0.08779138;0.027344972;-0.16941826;0.0443935;0.047208935;-0.14878042;-0.008246383;0.0298868;-0.120421745;0.094100624;-0.078123674;-0.035599947;-0.030216467;0.02390503;-0.06354899;-0.053587426;-0.049627163;-0.037915695;-0.023851974;-0.052887063;-0.05654725;-0.14133374;-0.07652878;-0.1232994;-0.026135182;-0.08021594;-0.006592458;-0.021342266;0.0019984902;-0.042337947;-0.006433777;0.013416273;0.016045382;-0.058667965;-0.051492292;-0.0800672;-0.083034985;-0.052815445;-0.013898806;0.04594225;-0.095850386
-0.087431274;-0.07990381;0.04124245;-0.12967668;-0.12182372;-0.0864;-0.08065618;-0.027936824;-0.07528156;0.06986632;-0.013125177;-0.034231488;-0.059810255;-0.012289995;-0.085874476;-0.00998955;0.12189215;0.062725596;-0.016562752;0.044473454;-0.012086949;-0.015994959;-0.13067034;-0.046887062;-0.07002896;0.03439096;-0.10444991;-0.15487972;0.03360638;0.031395253;-0.089317195;-0.041916788;-0.031794235;0.03383314;-0.05784284;0.037917268;0.0029855152;0.05390825;-0.08744472;-0.0629916;-0.008135689;-0.049855124;0.042808864;-0.07391517;0.022057898;-0.013337885;-0.02121634;-0.033811156;-0.08874693;-0.07687255;-0.039869793;-0.14312711;-0.080534145;0.008156155;0.0019794467;-0.0015489741;-0.0648317;-0.19189453;-0.041267622;-0.043166436;-0.018756842;0.007663453;-0.015424778;0.0027994404;0.006701354;-0.058464218;0.051835477;-0.023637637;-0.04792816;-0.114401385;-0.03726732;-0.013280276;0.017277608;0.013315831;0.03524669;0.07115656;-0.04740536;-0.06123472;-0.03053471;0.026342949;0.0030798104;-0.0798457;-0.0036580078;0.06980015;0.04482309;-0.055661865;-0.05618472;-0.09316852;-0.04953086;-0.1043162;0.04175492;-0.006936415;0.040775683;-0.061368342;0.13320278;0.036578897;-0.12542492;-0.039271604;-0.058689747;-0.038787443;-0.10769077;-0.025197422;-0.027041063;0.018001331;-0.0053963056;-0.034268063;0.031218182;-0.011025188;0.0048989058;0.018335963;-0.04112698;-0.109905005;-0.18852688;-0.042466648;0.009028687;-0.17716616;-0.09707808;-0.0067038257;-0.04354513;0.03582505;-0.0219306;-0.09256289;-0.08460844;0.064541295;-0.051262982;-0.043908034;0.03144466;0.006361475;-0.092478015;-0.012412496;0.05863896;-0.041471116;0.019587126;0.014184094;-0.051157832;0.06303964;-0.041001346;0.05157128;-0.08799258;0.006323805;-0.054786585;-0.021901289;-0.0506817;0.1149009;0.013670019;-0.042352747;-0.03749342;-0.11725702;-0.114499934;-0.101706915;0.08160982;-0.066071935;-0.09772978;-0.11653526;-0.051698975;-0.10563654;-0.09702186;-0.0028288434;0.00096558704;-0.058322225;-0.062418688;-0.016049372;0.030758606;-0.058100015;-0.07471621;-0.14981946;-0.106542416;-0.013606042;-0.20175458;0.016450733;-0.054949414;-0.06716892;-0.12031994;0.022711368;-0.06384255;-0.08150853;-0.0034377726;0.10870579;0.04183857;0.001945285;-0.011703996;-0.08060396;0.025932552;-0.11453462;0.05092544;-0.05450492;-0.093618274;-0.0648428;-0.019211413;0.031511024;0.05792411;0.01986136;0.03292853;-0.046413533;0.048823208;-0.09377026;-0.14503403;-0.11711531;-0.09148356;0.0073343175;-0.07662692;-0.04005952;-0.0037055125;0.109133735;-0.05209748;-0.016926743;-0.03173452;-0.045177374;-0.049678657;0.041706894;-0.06473276;0.012495096;-0.030944878;-0.07643763;-0.009307433;-0.00044233282;-0.15583186;0.069006756;-0.041743483;-0.07498642;-0.13528012;-0.08335486;0.011538558;0.034128696;0.054519977;-0.20544751;-0.07120143;0.038113263;-0.16790144;-0.10471532;-0.07929742;-0.016105147;-0.10269259;-0.01986348;-0.047829;-0.034387637;-0.030169064;0.019876337;0.084609516;-0.13132936;0.016593466;-0.021569544;-0.0609472;-0.10709266;0.009584837;-0.055455543;0.033947293;0.008175976;-0.10838691;0.0552852;-0.015418014;0.009746132;0.03468484;0.12714945;-0.029247003;-0.03473328;0.021233154;-0.198607;-0.07714698;-0.022975849;0.02060894;-0.057226133;-0.05843826;-0.044266686;-0.01293349;-0.08658904;-0.12900674;-0.0718457;0.02425771;-0.03671889;-0.015598809;-0.18389876;-0.09212172;0.036396258;-0.004061847;-0.034444164;0.010736392;-0.056888018;-0.06561569;-0.062344935;-0.122792274;-0.032390993;-0.049632333;0.033548914;-0.00877512;-0.012404972;0.011080035;-0.1089135;0.004097976;-0.03597734;-0.092043586;-0.04584981;0.045285173;0.010979527;-0.0360448;0.04009151;-0.065929145;-0.019648211;-0.026225088;-0.08736669;0.025511527;0.16452347;-0.08219731;-0.086288184;-0.17082568;-0.018858789;-0.001265759;0.1343008;-0.08711442;0.028732015;0.042321533;-0.04969359;-0.08099959;0.030523257;-0.006808874;-0.060379848;-0.014930913;-0.056170695;-0.15780059;-0.077578;0.01830076;0.06933646;0.048718456;0.008917979;0.008633401;0.017191337;-0.19610539;-0.09830819;-0.10406792;-0.00695708;-0.06117841;-0.08045518;0.012113562;-0.058906168;-0.077076435;-0.12267184;0.06848012;-0.012863797;-0.06937112;-0.11011419;-0.019827394;0.042392652;-0.0034390425;0.026544672;0.033828717;0.0053921714;0.04254898;0.09697784;-0.20817104;-0.07845269;0.0888383;-0.003392966;0.009777535;0.035817135;0.0015072357;-0.14670497;-0.068630144;0.028543066;-0.033785105;0.034767315;-0.16562833;-0.078905776;-0.010686322;-0.008057954;0.0046479693;-0.074826345;-0.02446451;0.11727043;-0.16607058;-0.011584321;-0.014678517;0.036581084;0.096505396;-0.017647462;-0.006893945;-0.002277944;0.016476031;-0.02170273;-0.034895763;0.058556832;-0.035547733;-0.028981438;0.050493386;-0.16795821;-0.07302897;0.035388056;-0.07955703;-0.04716494;-0.063851535;0.10783305;-0.040405054;-0.15581585;-0.120619185;-0.11051677;-0.07239585;-0.1395971;0.046763025;-0.007361348;0.0006783078;-0.05758148;0.022335438;-0.051999267;-0.07503027;0.010716601;0.03349859;-0.08893492;0.11873748;-0.09501195;-0.06986589;-0.06124575;-0.1474098;0.05813866;0.023627654;0.038814325;0.029142626;-0.031217217;-0.002690474;-0.18937331;-0.029264228;-0.0947006;-0.015418322;0.00060383824;0.06083694;-0.027470585;-0.0050700726;-0.09460359;0.041875225;-0.018126642;0.051385887;0.050737854;-0.006790088;-0.018864391;0.04219124;-0.069633774;0.0316596;0.017092207;0.037515294;0.012096588;0.043754388;-0.03887845;-0.08710402;0.14433026;0.003089958;-0.066983946;0.021653062;-0.0720789;-0.037609324;-0.238577;-0.10966073;0.001970059;-0.07640556;0.005231555;-0.028600821;-0.058538828;-0.23783284;-0.14715372;0.011098455;-0.10658721;-0.043795545;0.038784053;0.06784015;-0.081286915;-0.00018988886;0.024804639;-0.03170179;0.1601984;-0.13560781;-0.06344199;-0.06665573;-0.12352998;-0.019078603;-0.010028819;-0.011174454;-0.09783833;0.12356839;-0.051082063;-0.009819279;-0.03358941;-0.08196524;-0.020707771;-0.05138926;-0.007303543;-0.1231139;-0.08592319;-0.07564526;-0.2499015;-0.01889206;-0.031129899;-0.017874623;0.03526123;-0.030187747;0.01406737;-0.015520975;-0.05685594;-0.05787227;-0.09640308;0.23556513;-0.102981895;-0.027041543;0.0350381;0.061812025;0.0077127516;0.06817855;-0.019022247;-0.0020768577;-0.08703562;-0.026819212;-0.0105132265;-0.13913783;0.063961886;-0.0866829;-0.21752322;-0.040895715;-0.017478632;-0.09513336;-0.0074680406;0.009336584;-0.04215558;-0.21082446;-0.08048806;-0.043956283;-0.051770207;0.009342489;-0.01777883;0.108372405;-0.06785403;0.035709247;-0.09941321;-0.07931634;-0.0049659037;-0.023810914;0.027412241;-0.058642197;-0.23546286;0.0097582;-0.14378354;-0.090957165;-0.028989855;-0.08494989;0.05752969;-0.19988173;0.04787237;0.059921123;-0.1801634;0.03385866;-0.045375038;-0.04607694;-0.03851364;0.04358652;-0.10836434;-0.18102843;-0.057007767;0.00301852;0.07188985;-0.0017809189;-0.038435288;-0.051993217;-0.029863115;-0.04090487;0.04597908;-0.07528125;-0.12565018;-0.04407134;-0.028088324;0.029416082;0.05828193;0.014144277;-0.05580346;0.042341024;-0.005839294;-0.052472446;-0.03130112;-0.01059194;-0.0067741494;-0.012274127;0.047881678
0.022607766;-0.071249686;-0.04227731;-0.055453163;-0.07824092;-0.004061;-0.14406355;0.0013818741;-0.03188261;0.092462026;-0.12604682;0.11617477;-0.052963298;-0.11399065;-0.02952759;-0.030604383;0.13890353;-0.026876986;0.044876285;0.070258446;0.032446526;-0.10833462;-0.1561418;0.0030281062;0.030155322;0.05518251;-0.01668932;-0.08202162;-0.049362995;-0.029272525;-0.00058496004;-0.0028591016;-0.05307692;0.020703774;0.025007991;-0.035426456;-0.005556502;0.06343059;0.04064087;-0.0040192883;-0.004504463;0.0407949;-0.06645615;-0.051832933;-0.08016908;-0.10189375;0.0049659032;-0.08566466;-0.051431216;-0.0023667873;-0.046245243;-0.024384655;0.015860511;-0.11293809;-0.051419444;-0.057987813;0.031434964;-0.07252872;-0.029369274;-0.02070948;-0.049622506;-0.03991551;-0.051357564;-0.06469905;-0.07275093;-0.091631874;0.06145157;-0.11518911;-0.08427158;-0.058346298;-0.055975612;-0.10106273;-0.050536048;-0.004040256;-0.018247403;0.10751965;-0.0038228289;0.023622409;-0.0033218488;0.07365808;-0.14140971;-0.14722817;-0.059311114;0.00995519;0.03615812;-0.033417076;0.016340267;-0.091812536;-0.0057746824;-0.09736602;0.022274675;-0.087657414;-0.02285085;0.0008045848;-0.0021501905;-0.039864574;-0.20908776;-0.0039268993;-0.008569448;0.02575296;0.017717863;-0.04458825;0.017607724;0.03592388;-0.12562239;-0.062282532;0.024153583;-0.030066852;-0.07544153;-0.048305895;-0.07173821;-0.013221788;-0.15659004;0.002859107;-0.03120733;-0.08185519;-0.058872472;0.03285836;0.022421218;0.071555465;0.061044008;0.03498706;-0.111839615;0.014494846;-0.10295849;-0.115923285;-0.03191569;0.0025186283;-0.11197887;-0.041925505;-0.0027899914;-0.028414564;-0.053902198;0.09024801;-0.12406382;0.020624124;0.01415384;0.050026666;-0.052161496;-0.045108434;-0.10438373;0.008532553;0.043636557;0.08639419;0.03514237;-0.058852486;-0.1084268;-0.16258825;-0.11250056;0.0039623063;0.0015125519;0.05201679;0.0201709;-0.09179507;-0.20972955;-0.07017543;0.001730438;-0.043081537;3.7968275e-05;-0.05873778;0.02336758;-0.084846966;0.04023788;-0.02818475;0.0086802775;-0.05379207;-0.011877183;-0.039823614;-0.10023272;-0.0050560404;-0.02118963;-0.061922345;-0.023968045;0.03006664;-0.0034159268;-0.028503083;-0.09106617;-0.009401983;0.05129725;-0.055778597;-0.089983925;0.04301834;0.037300207;-0.058303747;-0.014129643;0.04345097;-0.07269958;-0.042640124;0.015270423;-0.047378436;-0.052142978;0.0062794737;-0.06135739;-0.06118166;-0.011871414;-0.014054163;-0.15449883;-0.16996132;-0.05228641;0.050367452;-0.011272011;-0.009754304;-0.08752428;0.05446865;-0.009112041;-0.08475859;-0.03440974;-0.040454265;0.04564412;-0.08303255;-0.06922412;-0.0823685;0.030978944;-0.0197471;-0.09971034;4.5123037e-05;-0.19111167;-0.0495103;0.03378601;0.0021758322;-0.0671529;-0.103036575;-0.06356446;0.06520805;0.045316003;-0.20981659;0.014530431;-0.104357705;-0.16125254;-0.11559313;0.027602008;-0.04554406;-0.13929155;0.052200507;-0.09446153;-0.097386;-0.025506994;-0.033421014;-0.046948534;-0.024930928;0.025636187;0.0591827;-0.08856906;-0.08844833;0.012354039;-0.08729695;0.114764385;-0.0118012205;-0.045792315;0.12153353;0.0008086961;0.041676853;-0.06408559;-0.024720969;-0.03452448;0.019308316;-0.09383522;-0.050253034;0.04539275;0.02148344;-0.08013928;0.02415565;-0.050883725;-0.04783811;0.054523017;-0.022683635;-0.04254313;0.05589315;0.01809084;-0.08866605;-0.022408767;-0.08708479;0.0032445597;-0.019852648;-0.006278028;0.015319845;-0.07980113;-0.0041317027;-0.0116080865;0.027262118;-0.09516772;-0.016235212;-0.07894846;-0.0061157746;-0.10043092;-0.012669563;-0.010585803;-0.05757512;0.013903295;0.01195238;0.009718186;0.09978377;-0.08783416;-0.052297235;0.026331665;-0.040361144;0.039925925;-0.073282205;-0.027568942;0.031565424;0.07564344;0.1456221;0.046735782;-0.02511355;-0.12580551;-0.016619889;-0.09174653;0.113974154;0.007886183;-0.011643455;0.00197458;0.03665913;0.048223782;0.09298;0.012577125;0.0028748473;-0.0894148;-0.0005931451;-0.09400152;-0.15917209;-0.009031169;-0.032426517;-0.041221485;-0.074825786;0.017749006;0.038051542;-0.14928487;-0.1028212;0.035477277;-0.058453687;-0.082008764;-0.0696689;0.005858417;0.01798395;-0.07484917;-0.17402759;0.083358854;0.056666598;0.0021357136;0.014592459;-0.0040981923;-0.033627495;0.03084279;-0.06966881;0.047248542;-0.08095937;-0.012820995;0.013211018;-0.15781213;-0.08171053;0.040851723;0.10705155;-0.08117584;0.0013858262;-0.04445299;-0.035351165;-0.14710909;0.017522715;0.015315432;-0.07959902;-0.07491506;0.06501211;0.023853078;0.042017963;-0.106414914;-0.06891841;0.021136304;0.12746714;-0.13932744;-0.0999906;0.012861292;-0.037501875;0.10607889;0.045405306;0.004930798;-0.01512219;-0.052071493;-0.04013711;0.022250313;-0.0135013815;-0.040705904;0.017546311;-0.07918647;-0.14472854;-0.03385824;-0.07593028;-0.1224236;-0.10936783;-0.003907758;0.0833102;0.056144923;-0.0642741;0.018968254;-0.06127226;0.053819492;-0.21359892;-0.02988421;0.017041693;-0.0036714985;-0.103948735;0.012631087;-0.028551312;-0.007238847;-0.03460372;0.014941244;0.014242084;-0.0057143774;-0.1171017;0.019377816;-0.14262709;-0.20434172;-0.021939974;0.04075213;-0.10140268;-0.06351968;0.04216387;-0.10437817;-0.19222002;-0.07001919;0.02602021;-0.020441847;-0.018550575;0.042060032;-0.10642275;0.0347605;-0.0065276856;0.025566222;0.02596692;-0.07394766;-0.017157795;-0.07492099;-0.050400276;-0.09848865;-0.1324545;-0.09641273;-0.003039928;0.016598156;-0.049717296;-0.04424042;-0.1605194;-0.13954176;0.03855199;-0.06803816;-0.08642429;0.048292473;-0.08989951;-0.0511119;-0.07642932;-0.06953993;-0.08035791;-0.06398526;-0.07730506;-0.024737341;-0.11285071;-0.08732933;-0.1150037;0.045950342;-0.119722605;-0.0064084386;-0.041166756;0.029875167;-0.07239766;0.023027543;0.04543889;0.020241627;0.14082722;-0.10499316;0.03677527;-0.082408324;-0.1411909;-0.08269004;0.01862199;0.08591872;-0.08365825;0.11367705;-0.06291519;-0.057206105;0.00941256;-0.12857674;0.0115475105;-0.03693227;-0.043134853;-0.0897322;0.026902976;-0.0002971833;-0.10776377;-0.025726322;0.002751377;-0.14999881;-0.02056132;0.018648393;-0.018936744;0.020230662;-0.010805443;0.0035461443;-0.09481187;0.23954032;-0.029029578;0.02113897;0.08821592;-0.046556816;-0.092468664;0.094534926;-0.03827648;-0.056193944;0.012311279;-0.08619585;0.006919574;-0.09554415;0.026089536;-0.07436474;-0.24051978;0.012669127;-0.06415625;-0.08468812;0.029828487;-0.07273639;0.024557706;-0.13158466;0.014572399;-0.15674269;0.06775795;-0.031235708;0.02087043;0.09575056;-0.083574824;0.03938772;-0.01483297;-0.07793476;-0.07557047;-0.04468839;-0.10509101;-0.031432003;-0.1923252;0.0035393634;-0.0673931;-0.016848674;-0.1659167;-0.10868053;0.066665515;-0.17100032;-0.055952653;-0.029626599;-0.17462714;-0.08022487;-0.027363876;0.03972931;0.0053046546;-0.04309692;-0.09047417;-0.17740937;-0.019015891;-0.051815737;0.046519767;0.03386753;-0.07736447;-0.12761849;-0.06582827;-0.10021224;-0.02440869;-0.103606015;-0.02384409;-0.066815875;-0.063012436;-0.110357866;-0.002206029;-0.077490956;-0.023807993;-0.030949876;-0.078958444;-0.017021038;-0.09221702;0.061044134;0.013882607;0.043593887;0.008202962
0.018965553;0.02889981;-0.03715463;-0.03042874;-0.052622765;-0.10405964;-0.07232616;-0.04754205;-0.01915616;0.019898664;-0.110992685;0.06379185;-0.0074675144;-0.016963191;-0.10195099;0.049976967;0.10066779;-0.013830712;0.07105288;-0.08158181;0.014418352;-0.010874648;-0.05870533;-0.021377828;-0.03210145;-0.04925609;-0.0393649;-0.054605555;0.027489122;0.07546469;0.03402293;0.0324318;-0.06658484;-0.019914128;0.023385081;-0.059294023;-0.03690657;0.09521639;-0.018061599;-0.09613673;0.019250508;-0.015808942;0.080442145;-0.10832163;-0.05728026;-0.067086324;-0.097840376;-0.08454107;-0.07372738;-0.14342885;-0.09529164;-0.046626847;0.039448667;-0.08374339;0.038966376;0.024632653;-0.12241664;-0.13918057;-0.08829937;0.037040003;-0.044429284;-0.09754771;0.007382661;-0.01612357;-0.08309324;-0.0039287047;0.10532799;0.027009975;-0.013042466;-0.09638777;0.05104014;-0.019141229;0.027737813;0.009499995;-0.00084578205;0.1160562;-0.009905918;0.039240677;-0.113082714;-0.071980275;-0.09071845;-0.042067654;-0.033850607;-0.048171308;-0.027226416;0.05404238;-0.05350914;-0.07435311;-0.024668233;-0.048822507;-0.09843423;-0.09957059;-0.08356841;-0.11897672;0.00048959994;0.029605813;-0.20402882;0.012624007;-0.061175045;0.02614666;-0.049930632;-0.10695093;-0.02567894;0.09906746;-0.0015308991;-0.049293034;-0.082777016;-0.068391815;0.0030325933;0.004836234;0.017051725;-0.007721282;-0.07055831;0.040784128;0.02585647;-0.115484364;-0.040552095;0.035312977;0.016418707;-0.08767086;0.05014633;-0.029433811;-0.09559467;-0.10328009;0.048343096;-0.092001714;-0.08289919;-0.033077925;-0.087503955;0.03832661;0.042703353;-0.06354707;-0.028613638;0.051980022;-0.034012344;0.06462798;-0.008798005;-0.050441682;-0.040410127;-0.06491237;-0.086432;0.004809303;0.058031682;0.13496745;0.062474772;0.03586508;-0.17953795;-0.122693226;-0.09266425;0.02616798;-0.04238593;0.012170245;-0.079708405;-0.19117154;-0.07178651;-0.09616384;-0.015259145;0.021913283;-0.11128622;-0.1422096;-0.08636728;0.008300842;0.02325802;-0.083836205;-0.069810264;-0.09633237;0.06712857;-0.06615161;-0.16192651;-0.016766155;-0.08823254;-0.025757406;-0.07614701;-0.0017945665;-0.057187952;-0.09964775;-0.019032393;-0.011938556;-0.0007189761;0.014182619;-0.077962376;-0.04191741;0.06968864;-0.07774424;-0.008787793;-0.052974224;-0.07767838;-0.013309908;-0.076139994;-0.053575564;-0.08215584;-0.057519186;0.019476697;-0.025651464;-0.05167673;0.046354268;-0.13503315;-0.04447797;-0.13267429;0.048681527;-0.123998895;0.0002732451;0.015708009;0.09280395;0.009146525;-0.07911316;0.023818195;-0.10818956;0.025182296;-0.014716753;-0.020616425;0.005614456;-0.013350099;-0.09487118;0.004638323;0.028527021;-0.069521956;0.027795952;-0.010874211;0.009832095;-0.15060677;-0.10028348;0.05886506;0.104109265;-0.07930736;-0.0621338;0.03792835;0.014355908;0.0022540407;-0.13473502;-0.08400755;-0.10819327;-0.07843434;-0.095755324;-0.007096227;-0.09861163;-0.05578001;-0.010577697;0.0537543;-0.0005272548;-0.097179115;-0.040577475;0.010871392;0.045235574;0.04205728;0.020891843;0.117866606;0.06473923;0.051373377;0.013840119;-0.07690719;-0.10166703;-0.081300244;0.03206109;-0.077671275;0.007915063;-0.019082528;-0.06317028;0.06395846;-0.026843043;-0.020155113;0.045656625;-0.008225831;-0.056708395;0.031278856;-0.10969835;-0.14996107;0.033227757;0.048626803;-0.0064800554;-0.14529993;-0.08951932;0.03230729;-0.025354682;0.06735387;-0.07585483;-0.04424713;-0.050784707;-7.375798e-05;-0.028085018;-0.090669975;0.00086026354;-0.07857713;0.0012141311;-0.12435077;-0.1232555;-0.08570455;-0.088405006;-0.07995294;0.016603775;-0.123059176;0.034289237;-0.12101674;-0.15089148;-0.0119429305;-0.028846351;-0.06481253;0.074775316;-0.0952165;-0.06225024;0.09238921;0.06840735;0.031321764;-0.04117399;-0.117474765;0.0771624;0.018416401;-0.011858871;0.01065403;0.042042293;-0.038429573;-0.10039487;-0.1135546;0.017013766;-0.0107280845;0.01634531;-0.12227713;-0.07082611;-0.09363255;-0.19780338;-0.023836276;-0.046336077;-0.066981174;-0.0984475;0.06733808;0.055222973;-0.0974397;-0.0647159;0.025431557;-0.022653969;-0.08319779;-0.03893431;-0.11957295;-0.06278746;-0.015859758;-0.071262404;0.042238537;-0.0058835;0.04351787;-0.09830747;0.024057057;-0.02243593;-0.11500613;-0.015111009;-0.012777296;0.06003258;0.001026244;0.055232957;-0.08945216;-0.0007856713;-0.071955785;0.016365085;-0.062039603;-0.026182625;-0.05461535;-0.117605366;-0.090101056;-0.065396026;-0.012145743;-0.088871405;-0.049073044;-0.05886014;-0.08918593;-0.06925157;-0.02553753;-0.042943116;0.028406464;0.21185507;-0.03719162;-0.02104636;-0.13239503;-0.007780961;0.023226025;-0.012299657;-0.0522962;-0.021246744;-0.090577014;0.029492497;-0.07360561;-0.009061734;-0.071067765;-0.052387092;-0.077606015;-0.13233136;-0.09189155;-0.037853375;-0.024458341;-0.050936136;-0.060202315;0.10195351;-0.074936755;-0.11179358;-0.07208052;-0.10213021;-0.058177806;-0.21819443;0.028696915;0.0424805;-0.09312553;-0.001815941;-0.064677685;-0.11141371;-0.023436943;0.028337715;-0.084229596;-0.06875966;0.066900626;0.032576136;-0.08376598;-0.03418239;-0.1470081;0.010445475;-0.08555589;-0.037532732;0.039040733;-0.009850988;-0.014773893;-0.11606922;-0.086909905;-0.034986097;0.026266428;0.01201569;0.03780399;-0.0959365;0.04284495;-0.021581324;-0.039782524;0.0014251865;-0.049556073;0.019072637;-0.08511778;0.031995196;-0.032267813;-0.050622996;-0.09739776;-0.02945535;-0.051450163;-0.057720013;-0.04340963;-0.06876815;-0.041593686;0.06630256;-0.03667525;-0.096881695;-0.10078533;-0.102053724;0.054725062;-0.093995176;-0.07111965;-0.02146592;-0.023179261;0.03796355;-0.005521125;-0.024957903;-0.09964466;-0.06633133;-0.078870855;-0.13139342;0.02063636;-0.086923726;0.00017229878;-0.09608624;0.007785833;0.014158579;-0.025148183;0.066190556;0.015765384;0.0054571866;-0.06835388;-0.11991246;-0.085607864;-0.06967965;0.10581176;-0.07585682;0.10255405;-0.032560147;-0.022142574;0.028090792;0.009701905;0.0443578;-0.12183928;-0.07765383;-0.08965285;0.010880658;0.012712456;-0.22244653;-0.059572197;-0.04728141;-0.107535794;0.041151296;-0.016026372;-0.09816953;-0.08808097;-7.754238e-05;-0.1126266;-0.0809084;0.22715281;-0.028926421;0.01783737;0.04356713;0.06647472;-0.064379536;0.16874012;-0.052928824;0.02486507;0.014597859;-0.09598574;-0.10513543;-0.14775275;-0.029179063;-0.073051915;-0.16269438;0.043937854;0.019979816;0.015261645;-0.071210206;-0.044691794;0.06393828;-0.1783714;-0.10627843;-0.070727825;0.029283807;-0.08687201;0.016851507;-0.033703342;-0.031652804;0.024558332;0.0064329132;-0.025756381;-0.047465652;-0.09891462;-0.071282946;-0.0041982555;-0.22753574;-0.029888343;-0.11625162;0.055732135;-0.11694644;-0.03422673;0.05321976;-0.27826482;-0.022609476;-0.01736089;-0.063218884;-0.016745502;0.0045943838;-0.043280378;0.058256555;0.013323595;0.0027989014;-0.11444078;-0.07382938;-0.035279274;-0.020008732;-0.019126961;-0.0014894715;-0.06246728;-0.0060143257;0.0043796673;-0.010164257;-0.11521331;-0.017215826;-0.030272113;-0.04224108;-0.03054051;0.03620486;0.025983213;-0.01661576;0.026308948;-0.036303867;-0.06989604;0.025603801;-0.09947537;-0.007226048;-0.01909718;-0.017206926
-0.010985616;-0.1292269;-0.04724129;-0.033458985;-0.09467184;-0.13248925;-0.11400974;-0.07408424;0.06459988;0.05534628;-0.11815427;0.035537355;-0.13399848;0.0051091122;0.02053703;0.042806637;0.08542021;-0.07391297;-0.02645845;-0.06768069;0.021703476;-0.023651367;-0.006175981;0.0097782845;-0.10017738;0.021453755;-0.033175267;-0.17943092;0.009401651;0.05496482;-0.00737047;-0.013253317;-0.0303054;0.024040299;0.0074593783;0.05662486;0.0032559861;0.10107184;-0.083193526;-0.010037868;-0.08506654;-0.10669379;-0.038010895;-0.052978296;-0.10262204;-0.010970348;-0.023037868;0.028463969;0.021998921;-0.033681303;-0.07530249;-0.17760772;-0.083496705;-0.01308388;0.0055101123;-0.083007514;0.010374778;-0.077806905;0.029914353;-0.03809273;-0.05699568;-0.067806825;0.062307943;0.014751005;-0.077615455;-0.09343127;0.020270333;-0.10595542;-0.06843076;-0.06714694;-0.08774795;-0.057053838;0.04269878;-0.07043057;0.07097433;0.16024213;0.020753266;-0.021607075;-0.07113703;0.0064880103;-0.027583746;-0.082562044;-0.024081133;0.04535006;0.0015886143;0.05296961;-0.058793653;0.0041274303;0.032583583;-0.15516566;0.018252356;-0.0907939;-0.07555319;-0.07545189;0.03846858;-0.05877005;-0.23640464;-0.010014717;-0.046138097;-0.13729315;0.029352529;-0.0047273263;0.0022378122;0.046543;-0.057657044;0.05219063;0.053534467;0.06133477;-0.04927305;-0.084166065;-0.11113328;-0.03031088;-0.10165282;-0.01571571;-0.055805754;-0.020401334;0.039031845;0.043475755;0.06645842;-0.03178865;-0.06985074;0.04896833;-0.009236906;0.0063997256;0.017724328;-0.081193894;-0.059229597;-0.06083008;-0.18623978;-0.036967583;0.014647449;0.0382532;-0.04416352;0.014602867;-0.16881657;-0.032384686;-0.0031640383;-0.0076323254;-0.14006586;-0.052561473;0.03133088;-0.036880463;0.02698096;0.06954543;-0.026856456;0.0725161;-0.1657758;-0.016801754;-0.062259838;-0.016092952;-0.008483036;-0.0008968626;-0.017170561;0.0037467352;-0.1527494;-0.06682946;-0.098185934;-0.005656272;-0.06827791;-0.02344797;-0.05026299;-0.026053317;0.089162454;-0.028328653;0.0541768;-0.13455579;-0.10746424;-0.0020308464;-0.13606994;-0.061847262;-0.019817943;0.010055279;0.014111381;-0.033546563;-0.036821663;-0.008332709;-0.093617305;0.07858232;0.03923546;-0.029319543;0.03968997;0.002795478;0.03195186;-0.07942805;0.058508318;0.024737535;-0.03643546;0.022482574;0.033368755;-0.087150864;-0.0324354;-0.08991801;-0.043631;-0.009898464;0.04357527;-0.0064196903;-0.08617474;-0.06499955;-0.055872533;0.018097501;-0.012519016;-0.09009519;-0.05775774;0.026967853;-0.05501887;-0.017503286;-0.04413579;-0.045944694;0.017525058;0.05813254;0.03179293;0.013247625;-0.070474304;-0.047748473;-0.040998593;-0.01560318;-0.1747396;-0.07111841;-0.057891693;-0.09795985;-0.019224618;-0.026584253;-0.036026224;0.14525004;0.029185012;-0.09640459;0.055261407;-0.06578524;-0.054691996;-0.068756245;-0.014306443;0.005896496;-0.1168592;-0.055360366;-0.09413515;-0.074354626;-0.017328363;-0.019112501;0.067504525;-0.0156000005;0.02374726;-0.058033496;-0.0045994716;-0.0033176113;0.021867586;-0.053512987;0.1039446;0.046787288;-0.07539766;0.01821809;0.06317551;0.001895922;-0.070508115;0.15592915;0.0072340053;0.0442802;-0.088554844;-0.19978178;-0.039987653;-0.040364772;-0.041491482;-0.024711376;-0.0077622947;-0.021586608;-0.04561738;-0.06348575;-0.035623264;0.012813249;0.025759095;-0.017441206;-0.14059207;-0.07953648;-0.042832848;-0.085399725;-0.060441185;-0.037325323;0.067543976;-0.1208034;-0.0032289992;0.03663152;-0.101786785;-0.027180083;-0.06710161;0.04635745;-0.12712294;-0.12212238;0.021927018;-0.09229572;-8.088947e-05;-0.070590824;-0.04120028;0.029063506;0.013147722;-0.11373938;-0.09898834;-0.054148953;0.06002716;0.07149623;0.01890117;-0.052786306;-0.00019390907;0.13497232;-0.012142779;-0.1658992;-0.09737848;0.09972784;-0.025173409;0.04650835;0.069378376;0.005272904;-0.047149573;0.008926997;-0.0011279138;0.07140085;0.044506572;0.012587359;-0.0076993476;-0.0805091;-0.03495887;-0.08204224;-0.06335079;-0.022125725;0.009360594;-0.062523164;0.050800204;0.073772736;-0.081774436;-0.020108975;-0.062805444;-0.028689299;0.05255766;-0.06711707;0.007044184;0.04161498;-0.017548341;-0.09322597;0.087725;-0.025408288;0.01881144;-0.06869384;0.03410209;-0.011130679;-0.10686313;-0.008417944;0.0020319715;-0.015725272;0.009613607;0.057377577;-0.12951098;-0.13249369;0.11937856;0.08562027;0.044089068;0.03226767;0.022491343;-0.04692212;-0.08546428;0.011335403;0.008310515;0.0019372276;-0.15001097;-0.02665548;0.09924591;-0.10680638;-0.07127789;0.06672979;-0.10589695;0.10725098;-0.01936623;-0.023882722;-0.014921312;0.04957272;0.12814319;-0.024149308;-0.041644964;-0.05911566;-0.065427706;-0.07262582;-0.07429425;0.02908038;0.08812597;-0.09261931;-0.0096495235;-0.097149186;-0.0586338;0.0034230833;-0.11058077;-0.049953356;-0.09976654;0.15494472;-0.02535288;0.008568786;0.010746408;0.0032849696;-0.05371666;-0.18521348;0.0017149933;-0.08219564;-0.12560187;-0.016450247;0.049007867;-0.09791582;-0.06645616;0.043563012;0.037552062;-0.0709085;0.012925329;-0.12528554;-0.023571558;-0.10384015;-0.1969561;-0.029689722;-0.0744261;0.049548205;-0.029770462;-0.08379079;-0.068188064;-0.14876525;-0.08962486;-0.01814792;0.053169057;-0.008362162;-0.07133259;-0.104668185;0.055502966;0.001374141;-0.065150864;0.04469977;-0.07243225;-0.07661643;-0.16116565;0.094417825;0.061575312;-0.09816279;-0.08804794;0.043607827;0.010229069;-0.075172886;-0.084656134;-0.15911491;-0.16868325;-0.0041154893;-0.057878736;-0.14899379;-0.084209725;-0.017671254;-0.07419431;-0.11744965;0.005335026;-0.08871059;-0.04144201;0.030693159;0.016766518;-0.03793416;-0.16091293;-0.14283696;-0.06879723;-0.20866884;-0.08919259;-0.090758644;0.0172791;-0.10107759;-0.10220412;0.017844273;-0.074972436;0.08645765;-0.052117728;-0.023208387;0.027755886;-0.13559817;-0.0684958;-0.05069643;0.056729242;-0.090125434;0.0026241643;-0.034567095;-0.013594861;-0.051182933;-0.030636542;0.024096718;-0.06710056;-0.07272956;-0.04278285;-0.11639898;-0.07721197;-0.1025296;4.7266607e-05;-0.07570155;-0.033002313;0.025180422;0.009250252;-0.11143566;-0.06878865;-0.029364048;-0.09893729;0.025779057;0.17478152;-0.021949928;-0.08291905;-0.008468343;-0.06183567;0.03126151;0.010444946;-0.05087325;0.012735046;-0.041341595;-0.008937968;-0.024292503;0.010190144;0.008730286;-0.10330595;-0.15730439;0.06154652;-0.08064317;-0.00257183;-0.09020006;0.044047356;0.03174318;-0.17857753;0.045449752;-0.08113124;-0.036074635;-0.029852225;0.043794133;-0.011150975;-0.14290518;-0.08675614;-0.030037526;-0.10209147;-0.020577408;-0.14718688;-0.07268219;0.06532282;-0.23299187;0.012670711;-0.053816922;0.0074312533;-0.031825636;-0.06267845;-0.06691607;-0.24197999;0.023797765;0.058207113;-0.14244394;0.0139909545;-0.048483506;-0.07101914;0.03330723;-0.008985678;0.05884099;-0.0847152;0.019266354;-0.048195593;0.057133306;-0.014011703;0.020982593;-0.04284929;0.05758505;-0.14645146;0.038378775;-0.14298995;-0.07462795;-0.07824395;-0.08010137;-0.081497855;-0.04901654;0.05867396;-0.030110048;-0.05616032;-0.03814975;-0.014064375;0.023694923;-0.083630055;-0.10202956;-0.07923011;0.005600315
0.01885251;-0.02527631;0.068953246;-0.052674588;-0.07677239;-0.10606656;-0.03728018;-0.018066403;0.010000391;-0.009630973;-0.025241792;-0.0029466844;0.010869696;-0.07611354;-0.020163067;-0.049106374;0.1259221;-0.027802974;-0.07820183;-0.039390177;-0.059486646;-0.060566403;-0.09472119;-0.15343824;-0.07539004;0.06513566;0.020863583;-0.11680282;-0.07692539;0.0055031613;-0.022092003;0.061365906;-0.038754206;0.031347122;-0.03824538;0.05851792;0.058069278;0.09389535;0.02455117;-0.026287585;-0.05024936;-0.055800404;0.034347102;-0.032262422;0.053485993;0.036766317;-0.024573063;-0.10093142;0.02916121;-0.026733857;0.039918236;-0.15464313;-0.04391099;0.042362943;0.025958301;0.02737503;-0.104591176;-0.16040365;-0.057869148;-0.0013749577;-0.00075779314;-0.078980364;0.066208884;0.05471268;0.04654801;-0.14405392;0.09143564;-0.082313485;-0.01615165;0.002611489;-0.09478317;-0.086245924;-0.045104798;-0.072791874;0.025956752;0.029806254;-0.028288081;0.018970659;-0.0015819077;-0.08370665;-0.08351084;-0.19285412;-0.024522595;0.102369554;-0.011557602;-0.03267923;-0.060334474;-0.07693315;0.031813223;-0.13231055;-0.07841431;-0.0066707847;-0.07046004;-0.13612144;0.11936674;0.0032444645;-0.1778022;0.026606373;-0.13397782;-0.06631265;-0.00808922;0.026579212;-0.034236666;0.08068546;-0.05809928;0.02378969;0.05766541;0.033698816;-0.096944846;0.027471796;0.039087147;0.044471547;-0.15913856;0.055921037;-0.02288569;-0.007104831;-0.065960385;-0.019641398;-0.056067176;0.0238233;-0.0043905694;-0.068652324;-0.04286511;0.02223589;-0.056324605;-0.027680874;-0.044431202;-0.05158497;-0.10204653;-0.024816964;-0.025807446;-0.09482588;-0.07034028;0.067075424;-0.07643614;0.031861953;0.077204786;-0.04760053;-0.058666047;0.044373456;-0.028252011;-0.013542207;0.03146061;0.1031238;-0.091719545;-0.04232436;-0.08527317;-0.11350728;-0.03561971;-0.092835695;0.032174967;0.049567893;-0.028830403;-0.060073715;-0.221447;-0.08543859;0.045163523;0.11358661;0.006589575;-0.12600507;0.008743195;0.013407513;0.05943605;-0.120233305;-0.018697295;-0.08273452;-0.068041764;0.0069881296;-0.096642844;-0.0046294173;0.0167144;-0.03298541;-0.03220465;-0.05483608;-0.042179823;-0.045816652;-0.0316111;-0.050481476;0.05660328;-0.024036996;-0.060477015;0.038069047;0.09275247;-0.15563941;0.001083548;-0.073662885;-0.038576376;-0.028676936;-0.0035403029;4.7202902e-05;-0.037803363;-0.013248092;-0.044170957;-0.013248931;0.005106743;-0.021523975;-0.09626548;-0.20692278;0.0077072717;0.021025985;-0.016951818;-0.013911135;-0.09393493;-0.016199179;-0.0743922;-0.021189464;-0.08574036;-0.073196374;-0.05877322;-0.036364205;-0.011554534;-0.030164469;0.026243232;-0.029441494;-0.049314424;0.040191647;-0.17078936;-0.015490628;-0.077510715;0.023726413;-0.15283372;0.036415808;0.02973576;0.047361385;0.017279569;-0.08454663;-0.032188307;-0.087734655;-0.107559614;-0.13508081;-0.036733948;-0.025986107;-0.1393777;-0.029014016;-0.082392015;-0.020597752;0.06797915;-0.058451846;0.05896074;-0.006466016;-0.06922376;-0.06951552;-0.094837345;-0.07368865;0.061253004;-0.01799365;-0.0037515361;-0.08106426;-0.0116269095;0.080532275;-0.040117636;-0.051873446;-0.009188469;0.13397294;0.027890192;-0.007657334;-0.10263551;-0.1612861;-0.066154644;0.038995266;-0.10099865;-0.06588446;-0.0076504773;0.010294913;-0.04399827;-0.059450414;-0.129465;-0.076959975;-0.019246653;-0.0068915747;-0.121598996;-0.16958568;-0.04430123;-0.023700833;0.07335722;-0.0578979;0.031430423;-0.07086839;0.008949429;-0.088891886;-0.052807707;0.04286988;-0.09556008;0.024868492;-0.05541872;-0.056903433;-0.07928681;-0.05957628;-0.040837396;-0.054720715;-0.06426694;0.056655444;0.00788477;-0.11613877;-0.06477803;-0.0615138;-0.055055574;0.022382667;-0.08724459;0.033900853;0.06294156;0.18843086;-0.08722889;-0.1649484;-0.07267547;0.038953505;-0.07035513;-0.06549542;0.0328986;0.030561991;-0.05739266;-0.049169403;-0.10277563;0.057517752;0.03460129;-0.0066009085;-0.06901303;-0.056356512;-0.07523592;-0.1901169;-0.06637234;0.013907165;-0.10079792;-0.021765284;-0.042295393;0.08030535;-0.09086969;0.0013805352;-0.05774916;0.03456348;-0.080466814;0.06549655;-0.05473062;-0.09475926;0.041826487;-0.027896727;0.0827087;-0.007940876;-0.07280281;0.016783059;-0.013820296;0.027966222;0.029785242;0.009593765;0.031759325;-0.0065010563;-0.03598741;-0.0080605745;-0.25573653;-0.11533178;0.06569446;-0.07512169;-0.048208408;0.06258186;0.028466595;-0.05793156;-0.1187789;0.10643246;-0.0361185;0.0147213265;-0.13601996;-0.00063844013;0.06666166;0.036592606;0.0430442;0.05610973;-0.0941075;0.081156716;-0.0850411;0.05788759;-0.0850121;0.014666935;-0.012802055;-0.036958814;0.0051052994;0.01916803;-0.027092503;-0.094129525;0.016717598;0.035283968;0.044416323;-0.09051292;0.026995445;-0.17845042;0.013691097;0.067382336;-0.12797889;-0.0034372264;-0.039598286;0.20046085;-0.09050168;-0.13839707;-0.07086633;0.0052961237;-0.00882753;-0.20555364;-0.08598026;-0.05095891;-0.07607261;-0.0473525;-0.093985684;-0.0015414563;-0.069373555;0.031510554;0.041862007;0.04079796;0.05428325;-0.012806177;-0.10056384;-0.087629095;-0.13035399;0.022419281;-0.0120619945;-0.061977766;0.045898747;-0.010752964;0.00042703224;-0.028798198;0.0065505067;0.047842406;-0.07363184;-0.02290027;-0.038400076;-0.029781325;0.0016153622;-0.09597095;-0.038730167;-0.07122121;-0.09187643;0.0069637094;-0.056757893;0.09846103;-0.08169957;-0.03699112;-0.005188518;-0.019135457;0.046676006;0.034610312;0.03103456;-0.15671271;-0.0760912;0.03657932;-0.004746016;-0.10426106;-0.016265655;-0.027539574;-0.07757617;-0.19460744;0.024163185;-0.023554895;-0.0012430567;0.052929915;0.022331202;0.0266859;-0.19611958;-0.05109134;-0.07751312;-0.22199234;0.04483971;-0.078623384;-0.023384033;0.0056532775;-0.067814514;-0.07917205;-0.032288264;0.08494536;0.048324592;-0.030354511;-0.10148715;-0.012690962;-0.019207926;-0.07612824;0.12564448;-0.0014218995;-0.026858127;0.031746916;-0.032998003;-0.117784314;-0.08693695;-0.09553678;-0.06615952;-0.005387347;-0.049842175;-0.1266222;-0.09848729;-0.22649054;-0.07804339;0.02475448;-0.17716122;-0.04112834;-0.106855586;0.008032674;-0.082636975;-0.0042756246;0.029168371;0.0017581991;0.16925065;-0.015451286;-0.103358425;0.02305782;-0.08074554;-0.084276505;0.029648274;0.0040206606;-0.09649725;-0.048751134;-0.13725653;-0.022955664;-0.041862078;-0.027253546;-0.015594531;-0.17174509;0.030287268;0.026539637;-0.0006160521;0.01815048;0.03290088;0.050766326;-0.17039537;-0.009085397;-0.12099287;0.08424299;-0.029311337;0.08494578;0.11446797;-0.1186571;-0.02168341;-0.090232186;0.024856841;0.0014383009;-0.109970406;-0.0338422;0.090681866;-0.20757477;-0.019229941;-0.04503003;-0.028420312;-0.111011416;0.0038650045;0.04397536;-0.2484748;-0.09417241;0.022392651;-0.15124227;0.08768579;-0.07722358;-0.0919877;-0.08963441;-0.03461596;-0.08264474;-0.19742411;-0.07220222;-0.13797407;0.05693708;-0.019552385;0.0135999955;-0.12535027;-0.0799382;-0.06553245;-0.053635877;-0.12088827;-0.0618462;0.012191561;-0.10160918;-0.0810112;0.0512482;-0.072592266;0.058722924;0.049424347;0.036696456;0.055482525;-0.049907617;-0.09335545;0.026629891;-0.050581;0.05366825
0.02440854;-0.08773311;0.014643658;-0.06537315;0.017484553;-0.10730426;-0.030015144;-0.034942575;0.04000862;0.08142238;0.033206575;-0.0060280645;-0.09654274;-0.068524465;-0.04597804;-0.043176353;0.076511174;-0.06336871;-0.06683183;0.057962216;0.010499054;-0.10347387;-0.034964;-0.038826976;-0.10570838;0.014788672;-0.00029404912;-0.115043156;0.013721578;0.070092395;-0.10818294;0.06947091;-0.11991767;0.052456345;-0.082328044;0.037299264;-0.06006879;0.16940601;0.048233192;-0.077021524;0.05646764;-0.012372218;-0.049014974;-0.101234645;-0.07287829;-0.042407632;-0.0019576647;-0.026558584;-0.09978727;-0.044908404;-0.05636082;-0.10599991;0.026521593;-0.08908398;0.0389669;0.0023031612;-0.08575437;-0.18317595;-0.036771074;-0.005514521;0.02391466;-0.038140655;0.06111837;-0.013342443;0.003646183;-0.12838309;0.0034690008;-0.009212638;-0.06035464;-0.043544043;-0.072607405;-0.0983183;-0.037152573;-0.037731003;0.10069217;0.14955148;-0.0528313;0.007706576;-0.07877191;-0.0017670705;0.012514563;-0.1784016;-0.08722914;0.10137048;-0.07646993;-0.0046858904;-0.023252547;-0.025191715;0.029861102;-0.1443081;0.01247927;0.026553713;0.057314336;-0.08756101;0.07258222;0.05462216;-0.07955104;-0.06505554;0.01587258;-0.115449235;-0.06451138;-0.050235096;-0.012187764;-0.01708249;-0.114735335;-0.012471828;-0.07535844;0.013681172;0.016707126;-0.09579837;-0.027480291;0.03286868;-0.09713791;-0.09924134;-0.10021751;-0.118588604;-0.058983866;-0.059389804;-0.05879705;-0.084061645;-0.043017097;0.013593787;-0.11299713;-0.02774667;0.016230648;0.022484725;0.025456483;-0.00556413;-0.07034447;0.046843845;-0.023038877;0.030616878;-0.046349216;0.056690827;-0.20093852;0.028754776;-0.062892966;-0.0038082937;-0.11412615;-0.0695999;0.036723237;-0.00014458905;0.025898548;0.017221924;0.062151704;0.033531807;-0.12838747;-0.05790054;-0.046136472;-0.106486425;-0.0152301965;-0.015909625;0.01169345;0.0100564305;-0.15814736;-0.037016004;-0.06329662;-0.022193894;-0.07609004;0.00612543;-0.030275086;-0.021600084;0.059521884;-0.14873452;0.027078822;-0.13054602;-0.07837783;0.026347615;-0.24689978;0.045447357;-0.011617342;0.036103863;0.022372706;-0.0016365824;-0.07621606;-0.06798493;0.04415494;0.019008493;-0.044332337;-0.08712166;0.04738654;-0.06460922;0.02681221;-0.078820065;-0.09346472;0.035094418;-0.004911979;0.048778534;0.060675114;-0.014487429;0.041635673;0.02483014;0.018374544;0.029339725;-0.094826534;-0.07389275;-0.16515358;-0.09731003;-0.018259715;-0.001899179;-0.07334472;-0.0473905;0.041250307;-0.013211339;-0.04463911;0.024607487;0.0030244517;-0.0543245;0.031455368;-0.06915917;0.052816156;-0.026293214;-0.09663716;0.029121907;-0.0771768;-0.042930253;-0.17215577;0.010232142;0.04078488;0.041840576;-0.09388827;-0.09746656;-0.024034845;0.020017723;0.002440041;-0.10096704;0.034795348;-0.04592204;-0.121044755;-0.052367534;0.04086409;0.019759469;-0.033054363;0.018013507;-0.051168244;-0.06174915;0.05999564;-0.05112509;-0.0416401;-0.056260727;-0.061323002;0.04887406;0.008741088;-0.115074545;-0.01859936;0.022200115;0.0649785;-0.06597513;-0.06853634;0.087161854;-0.015120081;0.027724467;0.05339973;0.062076706;-0.06717944;0.00091389136;-0.06591555;-0.0643538;0.04323659;0.03423011;0.020739192;0.05484603;0.024695173;-0.055319875;-0.070187815;0.01833726;-0.036876373;0.047215823;0.07500802;-0.074786566;-0.09078758;-0.1569868;0.041557435;-0.098185904;0.021207795;0.047952868;-0.008260838;0.022680962;-0.08973841;-0.08436485;-0.08493736;-0.069353975;-0.0332067;-0.07074504;-0.10959524;-0.030992242;-0.038447235;-0.039572425;-0.050392523;0.06773169;-0.050910223;0.1153409;-0.10121444;-0.017887281;0.016606454;-0.06724006;-0.016010419;0.019121151;0.040275723;0.03622191;-0.017800486;0.1491811;0.047980078;-0.1747051;-0.117367454;0.1257173;0.0029718785;0.0021558758;0.048626784;-0.09014955;-0.005118471;-0.08669973;0.03177164;0.07200572;-0.045039255;-0.005785372;-0.064422935;-0.019434664;-0.06278262;-0.116750464;0.019153284;0.07507963;-0.10762512;-0.090390235;0.06385675;-0.018764503;-0.18879104;0.036079474;0.019362384;-0.06469255;0.0044810455;-0.019691665;-0.037265994;-0.099050626;-0.08827355;-0.06176532;0.10597328;-0.04597368;0.0056425426;-0.05333873;-0.07141479;-0.017941767;-0.05431902;-0.07971009;0.007558716;0.016233372;-0.03736151;0.056079082;-0.23242652;-0.089157335;0.12739068;-0.08323552;-0.05006218;-0.07320118;-0.092942044;-0.16832265;-0.050049923;0.08492707;-0.07979936;-0.08770405;-0.011245354;-0.050384756;0.06405248;-0.088059776;0.04305748;-0.09191043;-0.065552026;0.13867258;-0.11580469;-0.06267059;-0.042458978;0.045684326;0.086655475;-0.013723924;-0.07227554;-0.0593525;-0.008835523;-0.04468491;-0.0016020683;0.060196385;-0.008628109;-0.019741561;-0.08673223;-0.10652162;-0.018374788;-0.093278065;-0.0061578327;0.031426057;0.0013713472;0.13422903;0.034959793;0.03174048;0.012344265;-0.03460836;-0.06513688;-0.20602587;0.04823959;0.05163232;-0.06849857;0.024186317;0.0067443065;0.03531636;-0.07118232;0.060676724;-0.011871821;-0.067963146;0.043366086;-0.10946222;0.037452;-0.08617818;-0.11189449;-0.0036300977;-0.011315735;-0.05437157;0.013909823;-0.04519411;0.020414662;-0.12430198;-0.090591066;-0.06674596;0.027562752;-0.05674043;-0.0604597;0.05026137;0.006991568;0.04869535;0.07270967;-0.0526222;-0.11009977;-0.087314606;-0.21298206;-0.03119545;-0.085125655;-0.11780925;0.0046480806;0.009942034;-0.08993747;-0.0588353;-0.03118828;-0.055958685;-0.1669971;0.12918693;-0.08881708;-0.15450624;-0.049429484;-0.07169057;0.033801816;-0.07063589;-0.08532929;0.046344552;-0.0032388296;0.03866826;0.05349633;-0.058847144;-0.09274999;-0.058666557;0.06414214;-0.18806309;0.07554534;0.06913951;0.107062034;-0.08567618;-0.12156366;-0.012795942;-0.04386951;0.029049773;-0.07608969;-0.09591665;-0.010461301;-0.115540266;0.0017524855;0.06773883;0.026319563;0.031470865;0.0777927;-0.08067942;-0.04185068;-0.045414597;-0.012275886;0.0008202033;-0.017102053;-0.06366335;-0.061685294;-0.08149618;-0.055197455;-0.15567979;0.032401014;0.04747805;-0.039960288;0.04880509;-0.091446415;-0.02433542;-0.030109804;-0.103828564;-0.075907215;0.0007404406;0.21742696;0.045413494;-0.031754393;0.12011293;0.030133098;0.017669763;0.019075613;0.042132456;0.057507932;0.041079003;-0.07835834;-0.118058264;0.027320126;0.0039355033;-0.104887895;-0.23731506;-0.022790695;-0.026074067;-0.06953942;0.009293302;-0.06241292;0.06492481;-0.10381757;0.055565342;-0.008407978;0.07603764;-0.08993397;-0.062201727;0.13453896;-0.1543506;-0.027737549;-0.02553106;-0.055766385;-0.028691664;0.02359237;-0.08971157;0.06421244;-0.13205583;-0.052617;-0.0080041755;-0.035161365;-0.17607449;-0.023688033;-0.028878687;-0.16875619;0.04686612;0.014858418;-0.04733008;0.06742308;-0.04374368;-0.019167056;0.027139468;0.03815754;0.01891026;-0.07924775;-0.014314938;0.009936117;-0.009162971;-0.059615884;0.03426719;-0.09025927;-0.095728524;0.0046684663;-0.061915636;-0.11392941;-0.0010908229;-0.07285606;0.042063467;-0.07540375;-0.022809228;0.021209508;-0.106832385;-0.09107018;0.0046389485;0.045549117;-0.04065975;-0.027243579;-0.09663161;-0.029313367;-0.045320626
-0.034937106;-0.0071206414;-0.055243842;-0.07206313;-0.08924796;-0.04770971;-0.088999435;-0.060642794;-0.03496663;-0.021466248;-0.06761784;0.08963062;-0.06467903;-0.025194203;0.022019196;0.031702332;0.030271573;-0.097339645;-0.08404674;0.041392837;-0.07617408;-0.021409838;-0.12834261;-0.114163935;-0.09797519;-0.0058877324;-0.044973914;-0.16679066;-0.030656734;0.067177914;0.010085807;-0.05876373;0.0005045014;0.05213937;-0.09678146;-0.08508786;0.023217104;0.23259293;0.048312634;-0.01884965;-0.031764794;-0.03761011;0.005092105;0.016144704;-0.059686136;-0.06414553;-0.010628105;0.025235016;-0.10629249;-0.076717824;-0.04394127;-0.17514502;-0.06817048;0.02706793;0.08508439;-0.029007958;-0.039948232;-0.21295857;-0.027679192;-0.063478224;0.02860689;-0.15181088;0.025966227;-0.09702574;-0.09764268;-0.02980764;0.05301101;-0.01807617;-0.062073875;-0.09963776;0.034420438;-0.04506981;0.045795206;0.026265185;0.073318325;0.13321286;-0.04233115;-0.047309972;0.0497404;-0.062047794;0.02335341;-0.04570823;0.057366528;0.011929549;-0.055295825;-0.04508179;-0.011371958;-0.07236025;-0.08357385;-0.11752278;0.015330257;-0.04460486;0.04864605;-0.12048369;0.01826719;0.0154293245;-0.12300313;-0.042304814;0.03150525;-0.14074633;-0.0815955;-0.06105738;0.06521183;0.0627023;-0.15408674;0.010958054;0.04654107;0.012889354;-0.09614662;-0.037270263;-0.042310722;-0.04535335;-0.1312221;0.01225724;-0.06121591;-0.07730903;-0.009020269;0.0371931;0.067813635;-0.01722742;0.048791148;-0.09542653;-0.0078961;-0.050697163;-0.06594142;-0.11248863;-0.055231873;0.07862722;-0.07841954;-0.06387441;0.020020224;-0.048695475;0.0022763987;0.017289298;-0.17357267;0.054920517;-0.05528246;0.06961493;-0.13616145;-0.08150368;-0.030556472;-0.033863418;-0.07287673;0.030200923;-0.07459505;-0.0011173178;-0.07398703;-0.084127195;-0.057704497;-0.037013695;0.021392437;-0.00017818397;0.03356044;-0.123981126;-0.10910837;0.04569014;-0.0112080015;0.12609228;-0.08187046;-0.0015193323;-0.02162203;-0.040342346;0.11516761;-0.06658137;0.04939433;-0.080380365;-0.031419054;0.014179758;-0.10693966;0.012971962;-0.05728909;0.034696016;-0.12058502;-0.030841552;0.0015012631;-0.049989216;-0.04355298;-0.020147402;-0.027366212;-0.0212264;-0.081641234;-0.094317324;-0.032676846;-0.06086738;-0.028975544;-0.05191786;-0.035323713;-0.028267788;-0.07084221;-0.006993258;0.06562558;0.028302118;-0.08344335;-0.053860903;-0.012576398;-0.08426476;-0.14141107;-0.12117358;-0.11055096;-0.03175595;-0.0050641224;-0.03151901;0.029456917;0.054325987;-0.05849659;0.008156082;-0.032671064;-0.070338026;-0.016700597;0.05546585;0.049191188;-0.038783178;-0.04397574;0.04870266;-0.12271326;0.027355734;-0.06811828;-0.063937;0.033249848;-0.00764354;-0.049222305;-0.059242792;-0.10746064;0.011082039;-0.047683235;-0.18615036;-0.037793223;-0.06345904;-0.16538689;-0.0012882826;-0.010007759;-0.03354552;-0.124377705;-0.069428764;0.064880565;0.051643047;0.0032441064;0.036520045;-0.067154974;-0.0669489;-0.093645446;-0.079458244;-0.06562302;-0.009141716;-0.08528568;-0.04055983;0.11641737;-0.08798233;-0.068072;-0.047441542;0.03792938;-0.091982216;-0.085149325;0.16505305;0.036842316;-0.05414628;-0.01697604;-0.06931877;-0.07632263;0.07362654;-0.03453585;-0.023576118;0.009859509;-0.033726715;0.05763746;0.0044491193;-0.13292356;-0.09245552;0.039252594;-0.088042594;-0.14234145;-0.15147446;0.056300092;0.022298634;-0.023520932;-0.0279413;-0.059285875;-0.035147067;-0.099623546;-0.06931741;-0.10593481;-0.06432126;0.0251413;0.036664415;-0.084266335;-0.049472958;-0.03024025;-0.093479134;0.030666137;-0.07691859;-0.023857925;0.02317442;0.033976443;-0.13215229;-0.008949861;-0.014686895;-0.068252265;-0.008092096;0.0029132438;0.05195706;0.030102974;0.117028326;-0.032919697;-0.16390905;-0.11069973;0.12645996;-0.06952097;-0.028615717;-0.05825871;-0.10264288;0.065453686;-0.07385745;-0.06645134;0.012964973;-0.09288423;0.009841819;-0.044218443;0.03285209;-0.06725091;-0.15289894;0.014338292;-0.046626844;-0.0005397037;0.0028668004;0.037883423;0.002014403;-0.07758176;0.017346209;0.0020226112;0.04327877;-0.023509342;0.07105169;-0.02824378;-0.02782611;0.0013991357;-0.14770405;-0.009256202;-0.017085573;0.06126965;-0.09367914;-0.093430504;0.0069413506;-0.021172535;-0.052744366;-0.05844947;-0.06108669;-0.06479626;0.03432056;-0.22958137;-0.16061136;0.1077851;-0.021939268;-0.05946333;0.04325309;0.0111411745;-0.16675006;-0.09693315;0.043628853;-0.034184992;-0.08667661;-0.020826684;0.026167713;-0.0040259273;-0.09539249;-0.10846;-0.07455717;0.027888073;0.14890334;-0.041895553;-0.08822874;-0.022038985;-0.10069368;0.056850217;-0.06972856;-0.02072222;-0.040176872;0.073558435;-0.06304074;0.050367188;0.02372808;-0.056021586;-0.066806376;-0.059581995;-0.10843644;-0.064302534;0.044187404;-0.021978822;0.023269316;-0.058370467;0.18574534;-0.04338201;-0.013543996;-0.009075475;-0.10940612;0.013483193;-0.17500925;0.038769014;-0.012652693;-0.065906584;-0.078203656;0.06037255;-0.10533977;-0.048679415;-0.058834735;-0.09346033;-0.045025144;0.056545164;-0.0858474;0.04364772;-0.06700356;-0.19206156;-0.040608574;-0.04305786;-0.082129695;0.02406771;-0.05280441;-0.07037665;-0.019842766;-0.05114679;-0.0025476008;-0.08100885;-0.03930249;0.0012786929;-0.049677648;0.04365992;-0.04113686;0.04168826;-0.06303312;-0.07841926;0.059472457;-0.10605975;-0.010803117;-0.056386378;-0.023933794;-0.07476055;0.036128715;0.027498296;0.05196978;-0.09210127;-0.06464354;-0.19020848;0.0020521309;-0.05197632;-0.067355;-0.07261316;0.04221332;-0.057800557;-0.2235502;-0.0659126;0.012180623;-0.08385582;-0.038357113;0.019768044;0.01072858;-0.21931429;-0.048766665;0.0033834348;-0.096905924;-0.008756867;-0.019443229;-0.026702326;-0.07095742;-0.024906239;0.016497502;0.027045794;0.11278993;0.06824892;0.0030558056;0.0011704286;-0.058808614;0.057765268;-0.028620819;0.006744833;-0.09141231;0.01192669;-0.006414924;-0.09934887;-0.12417151;-0.12867844;0.02739664;-0.10003303;-0.06805516;-0.13860466;-0.047576092;-0.025961827;-0.20357285;0.014189517;-0.053241324;-0.13980457;0.0058043012;0.031321347;-0.008272922;-0.09717722;-0.05425235;-0.086217605;0.004317509;0.23119035;-0.1037862;0.031855855;-0.024873393;-0.033618253;-0.025470292;0.13100368;0.022210842;-0.0005980418;0.014980979;-0.022552544;-0.0075051757;-0.16305901;0.05762959;-0.01755745;-0.15069506;-0.0006978296;0.054213;-0.07459848;-0.07105778;-0.13246529;0.038336292;-0.2064998;0.012089042;-0.0904202;0.05627952;0.039403915;0.024265394;0.110696174;-0.110746324;-0.0159175;0.06782643;0.025007466;0.0728972;-0.02852651;-0.06889041;0.10849592;-0.16101307;-0.060705308;-0.043191314;0.041126966;-0.15611131;0.044668037;-0.08221694;-0.19927977;0.022104079;-0.09128214;-0.14867051;0.09239532;-0.047868077;-0.08106193;-0.008373235;0.0055513;-0.02339903;-0.14277886;-0.12836426;-0.02613117;-0.06999148;0.04220423;-0.0039457767;-0.095294245;0.0016759767;-0.04912857;-0.02548812;-0.04985538;-0.007995631;-0.10222352;-0.01204585;-0.100592606;-0.06631787;-0.021511303;-0.017962277;-0.034276277;-0.036327265;-0.045659926;-0.020232951;-0.042978715;-0.012912284;0.018446824;-0.0005272857
-0.025929771;-0.007831878;0.026811272;0.0048147533;-0.0028010886;-0.14647025;-0.16964474;-0.01770961;0.030500097;0.05318888;-0.09414869;-0.040439375;0.015465422;0.028214633;-9.1544265e-05;0.016100913;-0.018928684;-0.016845506;-0.022718087;-0.01966181;-0.043106224;-0.11648014;-0.028694145;-0.15444702;-0.047268283;0.025606042;0.012370394;-0.09087869;0.01280997;0.12702388;-0.078459546;0.04074623;0.015367089;-0.030987693;-0.013498428;0.06220222;0.018758731;0.21165617;-0.09636632;-0.06752002;-0.030699097;-0.04637889;0.08837041;-0.053430784;-0.033555552;-0.010430947;-0.10035387;0.03189901;0.05031285;0.018678723;-0.02429501;-0.10913999;0.008513764;-0.008160987;-0.05590094;-0.058452096;-0.049397904;-0.20022473;-0.0689064;-0.043078747;-0.09545004;-0.13714983;-0.07976051;0.020329729;-0.027938703;-0.146451;-0.044238366;-0.03304696;0.026550567;-0.03344581;0.029974118;0.03217987;-0.049920566;-0.058199376;0.08912221;0.059617717;0.017129468;-0.0021922488;-0.0929717;-0.1063452;-0.02209029;-0.19117585;0.005148605;0.014864199;-0.12875733;0.02665808;-0.017840924;-0.07333786;-0.06772041;-0.06894866;-0.07793991;-0.09614735;0.056702096;-0.06338657;-0.0029019248;-0.09276364;-0.13406709;0.025222488;0.034510415;-0.144305;-0.030328091;-0.041905697;-0.004276322;0.01893857;-0.022891719;0.02733908;-0.010575545;-0.026188461;-0.027258176;0.0128789935;0.012522646;0.005878332;-0.19804291;0.058747444;-0.031464726;-0.16682321;-0.07303495;-0.096470915;-0.022429427;-0.008335201;0.05971686;-0.057194177;-0.095818415;-0.049952626;-0.0011615077;-0.015550249;-0.10976911;0.07248008;-0.06390736;-0.096472606;-0.040228304;0.035831448;-0.07513188;-0.02048589;-0.16914462;0.03850066;0.049422763;0.08117048;-0.19504747;-0.12940224;0.04527234;-0.089869864;-0.011506628;-0.0039488315;-0.0047666677;0.038403768;-0.10362937;-0.042102452;-0.05171325;-0.01908033;-0.05543852;0.013564749;-0.10716799;-0.13282892;-0.086615525;0.047522966;-0.009421794;0.10958972;-0.08388694;-0.07222855;-0.05901754;-0.044652887;-0.03582809;-0.18933311;-0.10291748;-0.0021813724;-0.009784545;-0.05988859;-0.18876126;0.030591572;-0.017564742;-0.028369216;-0.10816753;-0.0231149;-0.046786122;0.031749472;-0.07702378;0.07511463;-0.0919452;0.03251633;0.042059023;-0.013174406;0.056534715;-0.17095222;-0.09772488;-0.050558437;-0.10656464;0.10413202;-0.04038734;-0.037894752;-0.09011566;-0.06803128;-0.10885335;-0.07052497;0.040320076;0.05544668;-0.050469402;-0.084976204;-0.038327385;0.055742737;-0.028212814;-0.08343102;-0.10846281;0.03835769;-0.11347316;-0.04743785;-0.074260846;-0.00900952;-0.053097256;-0.02220181;-0.059722397;-0.013569825;-0.06012764;-0.04490345;-0.06770456;-0.09458087;-0.16019225;0.042507213;-0.09150628;0.07207158;-0.0569567;0.02326002;-0.06661797;0.06203373;-0.07430388;-0.1263811;-0.00012893534;0.04412468;-0.12134989;-0.15287298;-0.04086403;0.036931537;-0.04980563;-0.004077121;-0.028253343;-0.01716579;-0.010458364;0.09189968;-0.054028172;-0.1512721;0.0019697226;0.014777873;-0.0295227;-0.11317682;0.0653381;-0.022756675;0.06909142;-0.027631603;0.009877444;0.07055783;-0.04477223;-0.07451706;0.047219895;0.1057609;-0.0082134595;0.00897112;-0.12222327;-0.14900428;-0.013145412;-0.02757068;-0.09691402;-0.0413458;0.03347817;0.044160202;-0.065409504;0.0053151734;-0.06433264;-0.10091532;0.065282434;-0.09509596;-0.094740726;-0.090475105;0.041238755;0.032053698;-0.054838285;0.05378601;0.029871348;-0.010254899;-0.13403672;-0.09643209;-0.051029854;0.043217115;-0.03529626;-0.01878488;-0.030742897;-0.105097406;-0.047999993;-0.1266248;-0.110264845;0.012177179;-0.09318502;0.10860864;-0.0718986;-0.03807832;-0.07099767;0.06751513;-0.034584224;0.0702789;0.06418396;-0.07923807;0.11254253;0.08730829;0.045383055;-0.076362275;-0.13758756;0.12520602;0.0067716306;0.056201246;-0.023936432;-5.0833507e-05;-0.0961106;-0.023570819;0.0019210066;0.020846255;0.010859712;0.054635935;-0.11294286;-0.026738487;-0.10953308;-0.21040496;0.067230195;0.06604808;0.038463864;-0.08425369;0.05805763;0.09742231;-0.21610847;-0.010947664;-0.030945325;-0.038379293;0.04446256;0.0015322642;-0.0048689907;-0.03576012;-0.024970833;-0.07037621;0.014136141;-0.105229795;0.022125682;-0.0044532577;0.054743912;-0.05945351;-0.005497451;-0.082349114;-0.06327463;0.028705472;-0.044975188;0.07862566;-0.27118984;-0.11646411;0.09674758;0.04648082;0.02698059;-0.041522987;-0.079250395;-0.13726382;-0.03412283;0.087011635;-0.08994634;-0.018710416;0.0017264902;-0.0412573;-0.04081951;0.010669681;-0.115961425;-0.064118594;-0.10778728;0.21605206;-0.14032534;0.024516447;-0.033236735;0.05099126;0.040736478;0.034924727;0.02150729;0.0132476175;0.032438755;-0.012780138;-0.0288588;-0.030810498;-0.03661388;-0.03505129;-0.049459312;-0.02639374;-0.043812256;0.04630636;-0.018918077;0.0011688264;-0.0030946564;0.11935576;0.0074903355;-0.111456074;0.0016152725;-0.029659202;-0.04030865;-0.22611015;-0.08905787;0.008279887;-0.16750567;0.017323937;-0.009035478;0.00030028663;-0.03802522;-0.08716615;0.008209181;0.016945621;-0.007848214;0.004832674;-0.02686737;-0.12063303;-0.14367987;0.06724655;-0.021156233;0.022703508;0.047255397;0.002703026;-0.09601377;-0.10995956;-0.09639745;-0.04777672;-0.075526096;0.07543518;0.0593823;-0.05471947;0.026465446;0.005362484;0.10296259;0.0075422577;-0.07643182;-0.0658727;-0.17756154;0.07173471;0.04417449;-0.09227829;-0.048790585;0.01395857;-0.008993014;-0.057820473;-0.08736197;-0.12855169;-0.045072157;-7.3029376e-05;0.028642904;-0.098662734;-0.09195483;-0.026538506;0.05871901;-0.20712635;-0.101571515;0.0024079706;-0.048934646;-0.00032826856;-0.11051432;-0.049168874;-0.15457146;-0.024766205;-0.06610945;-0.23153186;0.09685219;-0.007216892;-0.088076085;-0.110253006;-0.024122942;0.06335046;-0.0007811168;0.06974843;0.031909395;-0.09282345;-0.05981534;-0.024011914;0.012775831;-0.021528745;0.0940205;-0.088923514;0.009818423;-0.03383965;-0.026777824;0.009953734;-0.04575935;-0.0215634;-0.07062418;-0.031742137;-0.056000113;-0.035884567;-0.067245364;-0.17183284;-0.09664178;-0.035202138;-0.076648965;0.040423878;-0.07724886;-0.080024816;-0.07066214;0.016186513;0.03093154;0.03509416;0.23359646;-0.03230612;0.012341461;-0.0062731635;-0.026390357;0.038292613;0.06779662;0.008979728;-0.044563897;0.017893896;-0.07090321;-0.05348948;-0.028502427;-0.06920721;-0.10035949;-0.2866711;-0.08479999;-0.021802867;-0.0042971545;-0.083695166;-0.15702733;0.010397839;-0.042093582;-0.06728039;-0.079244725;0.07650273;-0.08550164;0.040283132;0.054378424;-0.1583207;-0.017896727;-0.09540015;0.04837559;0.027466334;-0.038500123;0.03496104;0.11989338;-0.19630136;-0.09348801;-0.023942085;-0.049904656;-0.060848292;-0.09435707;-0.087964065;-0.270831;-0.06564239;0.05124105;-0.1610821;-0.039618798;-0.093805134;-0.03165178;-0.04403182;0.026784716;0.007998975;-0.029223265;-0.08569745;-0.0061029987;0.010078975;0.020773536;-0.049772784;-0.03682473;-0.049670402;-0.07461251;-0.05780779;0.0107035395;-0.047776487;-0.03876723;-0.046194546;0.00089510455;-0.07452798;0.045155153;-0.05369814;0.031141713;0.00019421212;0.011590105;-0.04609617;-0.06884388;-0.11795289;-0.088867344;-0.056399684
-0.0021428736;-0.0062796758;0.017345276;-0.047642525;-0.05920523;-0.18146856;-0.09817176;0.021856833;0.045628577;0.0882729;-0.024885638;-0.016269796;-0.09443453;-0.08599854;-0.0848401;0.102983005;0.13188745;-0.0798999;-0.03413984;-0.07606259;-0.0430052;-0.06980469;0.02021311;-0.15444194;-0.0056064725;0.023699736;-0.089616425;-0.08958625;-0.01461657;0.003504031;-0.0025532562;-0.026627237;-0.0724875;-0.015246902;-0.041887436;-0.07199821;0.015182294;0.22829577;-0.061835818;-0.05627391;-0.0285591;-0.09155025;0.06015559;-0.09266518;0.040629096;0.058936536;-0.07363633;-0.07574962;0.01326601;-0.036813475;0.039700717;-0.13478504;0.028075738;-0.04556949;0.10530722;-0.021930052;0.05795344;-0.10073859;-0.0058864485;0.041785333;-0.06336017;-0.19327754;0.016379014;-0.054995622;-0.07021698;-0.10418567;-0.016824735;-0.015178067;-0.049626727;0.023661518;-0.01761736;0.038511526;-0.105502196;-0.05169808;0.11443049;0.10102514;0.029702755;0.07417271;-0.032292496;-0.15802336;-0.04396322;-0.16710034;0.07389853;0.09891598;-0.06200804;-0.028971339;-0.0265836;-0.090343095;0.03595368;-0.16624655;-0.059596688;-0.05110983;-0.06712579;-0.060867965;0.14948197;0.046607643;-0.1672349;0.12791905;0.04532936;-0.050935265;0.0027052977;-0.016946224;0.07039594;0.08333512;-0.04165139;-0.093156636;-0.027159378;0.01823828;-0.115446955;-0.066897936;-0.10618306;-0.089823574;-0.08151432;0.06031569;-0.008670776;-0.15906627;-0.059820488;-0.017611489;0.07317558;-0.06089933;0.029225975;0.029281594;-0.015237758;-0.046675786;-0.060947504;-0.06702732;-0.0023370415;0.037767537;-0.18838497;-0.05480945;-0.102977805;-0.031356264;-0.008586382;-0.010199649;-0.16339296;-0.03857295;-0.10750294;-0.03859478;-0.105565384;-0.078625314;0.0043260534;-0.02800122;-0.041339003;0.04971092;-0.07901997;0.008886187;-0.18356961;-0.050902825;-0.11077746;0.024110736;0.05661328;0.03519018;0.008316315;-0.02448088;-0.1403307;-0.03531436;-0.0698932;-0.04777678;-0.0927184;0.0011566979;0.061560243;0.07018243;0.08028725;-0.11521105;0.0061772093;-0.025814267;-0.1081781;0.027637739;-0.19777006;-0.06755809;-0.03822524;-0.08322725;-0.06644015;0.0626861;-0.029495891;-0.008372412;-0.025429372;0.0133594535;-0.012188732;-0.074036896;-0.016920056;-0.1038297;-0.0042091045;-0.09173441;-0.10780317;-0.0066741365;-0.006318715;-0.004830019;0.072055;-0.088362;-0.0854647;0.014945164;-0.041408032;-0.06561073;0.06397628;0.05921703;-0.06342968;-0.16896857;-0.18251172;-0.0014667423;-0.04903147;-0.04897467;0.022330562;-0.01995609;0.028642217;-0.06662986;0.050833892;0.05116297;-0.07582953;0.032553907;-0.0066765365;-0.009595321;-0.09875788;0.08719105;-0.0597186;-0.10847116;-0.08400822;0.018647397;-0.048293646;0.025097653;-0.15689231;-0.027147338;-0.071501896;0.1303952;0.016116388;-0.11242105;-0.044985443;0.048694916;-0.034066193;-0.12591882;-0.018901272;-0.059778128;-0.023969105;-0.030086823;0.05340577;-0.04474306;-0.027882397;0.085785694;0.052550443;-0.0634396;-0.062938586;0.04977354;0.05160327;0.026332978;-0.023999004;0.042133477;0.08309276;-0.08428715;-0.07059494;-0.038845878;-0.011987484;0.06908642;-0.04711603;0.10178222;-0.07048132;-0.027601656;-0.09712345;-0.1959035;0.011824008;-0.003284022;-0.0112409005;0.0018914369;-0.041302975;-0.11306964;0.036139935;0.068192214;-0.03369376;-0.10851389;-0.0073072524;-0.076785184;-0.069719456;-0.050729033;0.057603147;-0.031244624;-0.04090338;-0.035762716;-0.013171516;-0.03041666;-0.025329776;0.015051311;-0.15699728;0.036305886;-0.06769667;0.021925732;-0.080419585;-0.042348396;-0.10493226;-0.011995112;-0.07568104;0.034861673;0.005018463;0.024125593;0.042315993;-0.045829985;-0.04067152;-0.022934489;0.028442083;-0.070770845;-0.03070775;0.07022112;-0.02020959;0.1073399;-0.09166093;-0.07880121;-0.20168325;0.070046455;0.0165469;0.08029144;-0.0985039;-0.011203596;0.014490574;0.017376808;0.03775439;0.09537629;-0.010601879;0.0021234562;-0.14136444;-0.10587695;-0.15771268;-0.18892932;-0.008419199;0.073833115;-0.083796196;0.042328507;0.0414797;-0.08614936;-0.073525496;-0.08679073;0.063814774;-0.098010845;-0.04970521;-0.032804802;-0.115908384;-0.08948365;-0.07561852;-0.091877006;0.055442136;-0.08858947;-0.0721263;-0.09012186;0.049377427;0.022092668;-0.026337909;-0.08260185;0.009205609;0.02797369;-0.049558196;0.12998274;-0.2458289;-0.056248475;0.04350971;-0.08700576;-0.022073437;-0.087441295;-0.045811106;-0.16049805;-0.082779855;0.1233545;-0.026439354;-0.05245087;-0.012197953;-0.068065226;0.07371053;-0.04036592;-0.029183451;-0.06347456;-0.004610188;0.19357772;-0.08045445;0.058400836;-0.06699785;0.019474152;0.035787977;0.022806805;0.05115526;-0.11366152;-0.061046034;0.07793823;-0.036833253;-0.0070704413;0.09596083;0.004230239;0.061898988;-0.18142767;-0.088359036;0.044708975;-0.089882575;0.03232139;0.060815357;0.04958094;-0.06571052;-0.012542928;-0.043880746;-0.054801892;-0.033628;-0.19078496;0.008457364;-0.096978374;-0.111110784;-0.045369603;0.040955935;0.019444732;0.044310085;-0.08087583;0.038677897;0.0082556335;0.0954414;-0.09873691;-0.03382827;-0.13715917;-0.15626962;-0.06064496;-0.021067513;0.049104486;0.050894007;-0.07015858;-0.03157276;-0.021299694;-0.08775398;-0.046495326;-0.06201261;-0.05635457;0.038282618;0.025974285;-0.014871336;0.04656495;0.04459355;0.04176345;-0.14829177;0.035781823;-0.13206604;-0.031996742;-0.008037929;-0.06909235;0.0072805416;0.00258339;-0.0029607583;-0.07578963;0.0055825417;-0.035079014;-0.05917272;0.12276606;-0.08255436;-0.15916257;-0.062919416;-0.024690092;-0.018243961;-0.19579017;-0.060622204;-0.09937926;-0.088348925;0.0003813132;0.046864644;-0.016707849;-0.12762448;-0.16136047;-0.059505418;-0.25299937;0.018976355;0.12758389;0.0011809436;-0.10059825;0.02675243;0.037049275;0.03647488;0.0005234297;-0.03213406;0.024190415;-0.14237417;-0.11229515;-0.07236808;-0.018435434;0.111718364;0.06503448;0.08922974;0.06607927;0.035859533;-0.03240489;-0.054358218;-0.0769123;-0.19470374;-0.051653665;-0.1001474;-0.10292724;-0.095322505;-0.20141338;-0.003195262;0.074207306;-0.03504141;0.06252752;-0.068669364;-0.07723573;-0.08877929;-0.0029949246;0.004848915;-0.041514322;0.08335269;-0.10233227;-0.12323389;0.0068446803;-0.065137245;-0.06723258;0.05687616;-0.0027722435;-0.03864062;0.018068431;-0.10152335;-0.011242064;-0.07557106;0.058193278;-0.10049613;-0.23741509;-0.10098907;-0.027173145;-0.011769127;0.002687225;-0.05510593;-0.020714357;-0.19370948;6.7418485e-05;0.047006883;-0.014653863;-0.06716002;-0.0050391853;0.12213257;-0.102180965;-0.027729567;0.04749438;0.00043531356;-0.0748598;-0.108207606;-0.07992194;0.059489902;-0.19214515;0.013417348;-0.027852168;0.013584143;-0.216855;0.00904263;-0.06725783;-0.3114269;0.027224045;-0.019038312;-0.19045371;-0.003749272;-0.03777871;-0.05549561;0.07518886;0.008296633;-0.10182742;-0.05056055;-0.025835717;0.029563045;-0.019272821;-0.019079;0.038073827;-0.125278;0.059486244;-0.06874914;-0.05612063;-0.106123656;0.014585926;-0.014223792;0.015658094;0.01226303;-0.062417902;0.02584399;0.030406581;0.045218688;-0.039276082;-0.08565521;-0.10209409;-0.009376918;-0.14739892;-0.06329556;0.059325308
0.050122134;-0.0025131442;-0.028427588;-0.0804571;-0.014127221;-0.19863172;-0.09591253;-0.016635168;0.045819893;0.022618894;-0.041098796;0.06174481;0.032976836;0.01698263;-0.022661896;0.03406966;0.07810591;-0.027235871;-0.07323525;0.086729646;0.055196643;-0.013149691;0.013298287;-0.10500385;-0.056501888;0.009621844;-0.09868205;-0.13888595;-0.11266859;0.008892277;-0.03346469;-0.068331145;0.010229311;0.022629483;-0.07495878;0.04591348;-0.069156416;0.24367692;-0.02160089;0.006079585;-0.10317096;0.043634772;-0.041460153;0.044017434;0.06764642;0.013900616;-0.16163002;-0.073195;0.05116032;-0.051614605;-0.0036218264;-0.13316244;0.0565905;0.0006243887;0.0881907;0.014715457;-0.057381485;-0.08579292;0.062318075;0.008092658;-0.06840733;-0.05634573;-0.05450973;-0.048730265;-0.055808272;-0.14131801;0.011770143;0.014768705;-0.14249815;0.0022516744;-0.017760737;-0.08987151;0.012747274;0.034911986;0.06732674;0.16167566;0.04905389;0.049400937;0.014079765;-0.069497295;-0.01817473;-0.03242205;-0.061027557;0.049608435;-0.04953908;-0.100973815;-0.022154609;-0.05958938;0.012233401;-0.0924205;-0.0096833715;0.02056264;-0.07045087;-0.048594948;0.0021202022;0.02826335;-0.097913;0.09821237;-0.096958496;-0.03518977;-0.021525888;-0.05052704;0.0012810596;0.1141955;-0.03567376;-0.025526877;-0.07939669;-0.025236141;0.014582926;-0.12148091;-0.12009027;-0.060979594;-0.21539904;-0.086411156;-0.09332431;-0.19924714;-0.1109862;0.06387986;-0.078858085;-0.029307406;-0.030626178;-0.11920506;-0.030283488;-0.024059663;0.06009819;-0.13373904;-0.01823976;-0.0009325489;-0.08818843;-0.019227654;-0.07912875;0.057815015;-0.04718297;0.08046726;-0.13705161;0.0041430257;-0.12195692;0.04535462;-0.105954595;-0.13737994;0.048382413;-0.029177377;-0.04575252;0.009283126;-0.05189405;0.0026391014;-0.08269743;-0.12178228;-0.07987274;-0.016441336;-0.022392703;0.03278845;-0.045781415;-0.0843382;-0.2408639;0.045797598;0.017550586;0.10570573;-0.055528607;-0.10539007;-0.024144623;0.067040816;0.087199815;-0.047396857;0.008460856;-0.009230111;-0.13845506;-0.03561814;-0.110268176;-0.007416012;0.04443835;-0.010037093;-0.04477831;-0.07694941;-0.037703566;-0.024077825;-0.014415687;0.047766928;0.056768943;-0.087176874;-0.07113273;0.040257785;-0.041748106;-0.11156361;-0.087643564;0.0494779;0.042916548;0.010267637;-0.01160019;-0.024487805;-0.04814448;0.039275054;0.0298406;-0.10849946;0.039054006;-0.0074419132;-0.19298436;-0.093554325;-0.038210243;-0.0077721104;-0.13051409;-0.0575231;-0.014365948;0.0599744;0.036087062;-0.017168729;0.049762905;0.049746223;-0.0903316;-0.07296866;-0.04212737;0.013466446;-0.071573034;-0.08419405;-0.051131587;-0.013004763;-0.13600354;0.028064134;0.02935245;0.024682859;-0.17454551;0.05087506;0.006006332;0.033881687;-0.031564917;-0.18804668;-0.02213344;0.0147689525;-0.1270139;-0.09302536;-0.0038710753;-0.057657283;0.011556829;-0.04157034;-0.009875635;0.006231977;0.07050275;0.061519954;-0.00845572;-0.10178722;-0.015922183;-0.037907418;-0.0876865;-0.04716435;-0.0674255;0.034049492;0.012541018;0.036301043;-0.017119903;-0.037695013;-0.056576267;-0.022878604;-0.051360108;0.042280972;0.029481424;-0.05719112;-0.06891971;-0.13515602;0.017270861;-0.053925645;-0.048961695;-0.03333081;-0.000674081;-0.099389695;-0.002595951;0.03044104;-0.020179976;-0.048199285;0.1074368;-0.10325592;-0.03730071;-0.13970487;-0.09227465;-0.06805355;0.03619248;-0.045056306;-0.023288352;-0.1079573;-0.15889572;-0.023173708;-0.044402476;-0.0359454;-0.073582396;-0.05684216;0.018499615;-0.037174683;-0.019123502;-0.07760547;-0.10201002;-0.047961745;0.052541744;0.06961073;0.020583108;-0.074317396;-0.11245469;-0.06984895;-0.053757075;0.052466527;0.043718938;-0.01421932;0.07869298;0.09102433;-0.038986895;-0.19931218;-0.19267438;0.050627347;-0.029175764;0.09589842;0.034851372;-0.11841819;0.012568509;-0.04164827;0.0498731;-0.04516867;-0.049939808;0.01718689;-0.06948124;-0.05888909;-0.15863696;-0.1263842;-0.06835668;-0.0042631575;0.024012517;-0.05558948;-0.049770333;-0.06817457;-0.10076117;-0.035165686;-0.013322475;0.061651006;0.009188427;-0.016458213;-0.12037849;-0.10927704;-0.101775534;-0.08359128;0.069550514;-0.011752247;0.024718393;-0.06412573;-0.016126692;0.029488588;0.019332897;-0.088288836;0.028451107;-0.038919814;0.024335552;0.08212584;-0.17532533;-0.1298108;0.028464785;-0.05136768;0.031149907;0.0366451;-0.020322131;-0.14035161;0.034178346;0.14170928;0.051352337;0.04894025;-0.015307879;-0.022054043;0.016415065;-0.02718273;0.01672051;-0.05965529;0.00761307;0.11749009;-0.12686422;-0.037104703;-0.09860411;-0.0547326;-0.03384659;0.025028814;-0.06461634;-0.048617266;0.016826915;0.018578894;0.031007908;0.07337559;0.029766494;-0.08608578;0.032633618;-0.148069;0.032179486;-0.09392355;-0.029487383;-0.056881875;0.0099607855;0.119918235;0.06890241;0.0066597085;0.00897886;-0.040520854;-0.05928745;-0.22470556;-0.010418142;-0.015217125;-0.022916961;-0.079233035;-0.008191174;0.05264268;0.021975556;0.038686913;0.015944544;-0.07500881;-0.03419199;-0.13718927;-0.020888312;-0.12821868;-0.078304335;0.011809614;0.04313447;-0.024164256;0.034921397;-0.028476544;-0.036139816;0.008970847;-0.030168807;-0.01259819;-0.014889396;0.016194012;0.06184372;0.022419542;0.02320431;0.013374833;0.09299541;-0.04303651;-0.09155731;-0.05837025;-0.1271523;-0.044339523;0.006528666;-0.13395464;-0.06064295;-0.060266122;-0.108641036;0.04966142;0.060886923;-0.09399732;-0.14408208;0.11296323;-0.090036355;-0.10114773;-0.030513749;-0.06867205;0.06431434;-0.20106627;-0.00017277816;-0.07009885;0.014805701;-0.006786688;-0.09628108;0.06111842;-0.2664559;-0.13381284;-0.03948928;-0.1583991;0.11489018;0.016934484;0.041138217;-0.12156754;-0.054242264;0.04590962;-0.04133444;0.03479398;0.017317384;-0.09744004;-0.105247565;-0.0999083;-0.017085457;0.08247817;0.057654284;0.05852153;0.12389646;-0.000180612;-0.10702303;-0.01843421;-0.10449108;0.014877566;-0.17823038;-0.010702988;-0.20478901;0.030891674;-0.1337035;-0.11451053;-0.07453321;-0.020047894;-0.08542418;-0.087435685;-0.07896528;0.02782325;-0.07194909;-0.030343875;-0.06741498;-0.10301396;0.12041033;0.009602852;-0.02516219;0.05070932;-0.010912407;-0.13379303;-0.0040019266;-0.107521296;-0.030517628;0.05831579;-0.11682425;0.020339362;-0.06818332;-0.023137206;0.0143922325;-0.17304537;0.014508286;-0.029997785;-0.016406361;-0.01863266;-0.10351966;-0.04987784;-0.1588156;0.049121205;-0.090221964;-0.011098637;-0.0772795;-0.035102062;0.039439846;-0.10708502;0.042666193;-0.060298145;-0.060929224;0.047334604;-0.07391323;-0.07997518;0.0960359;-0.22741759;-0.03598636;-0.033615906;0.03731174;-0.077451296;0.04338815;-0.0060542235;-0.2687462;-0.04436744;-0.09099571;-0.17976132;0.0032579743;-0.05798909;0.013786647;0.02708996;-0.098874845;0.015605863;-0.07532179;-0.055031702;-0.11328775;0.046864063;-0.00426733;-0.0038372523;-0.15854254;-0.05287555;-0.14261201;-0.06423095;0.0027181825;-0.056495383;0.091010965;-0.034391496;-0.05336859;-0.06837996;-0.07797701;0.019728497;-0.07169612;-0.019999864;-0.089321874;0.050752986;-0.0074020815;-0.07059589;-0.114306815;0.011920961
-0.038691577;-0.12576433;0.009928521;-0.13312545;-0.073734604;-0.07339208;-0.15181962;0.012422349;0.018546648;-0.05719856;-0.05024372;0.005835636;0.00792345;-0.019173896;0.023863988;-0.004294619;0.14185086;-0.08389238;0.027585309;-0.007921812;-0.047189496;-0.104078256;-0.031460695;-0.054564036;-0.028106865;-0.0069201197;-0.0132983215;-0.14776112;0.033282597;0.091780424;-0.10329851;-0.058434863;-0.08656757;0.012215068;-0.015809722;-0.0062902994;-0.022948502;0.15085867;-0.08872097;-0.102145635;0.024674276;0.05852303;-0.017328208;-0.008758844;0.039873853;-0.034821894;-0.012257991;0.048216112;0.022410147;-0.03914573;0.011620521;0.0014214863;0.057844616;-0.055391576;-0.05072005;-0.10671833;-0.059805598;-0.11288472;-0.077852026;-0.084163405;-0.1244098;-0.17649691;0.08844073;-0.028673364;-0.04091266;-0.12543197;-0.10706874;0.05446726;-0.11396312;-0.05662935;0.0020127315;-0.08210074;-0.09095724;-0.03295588;-0.006172065;0.18466665;0.008036548;0.022815442;-0.003998078;-0.14288777;-0.0942036;-0.17142028;0.01987194;0.08789923;-0.16149756;-0.07717468;-0.13120914;-0.048692677;0.025540605;-0.16480808;-0.07692075;-0.0312863;-0.016538668;-0.11771509;0.036120202;-0.04420274;-0.102652915;-0.025949156;-0.093204856;-0.035404343;-0.104619764;-0.12026475;-0.036923297;-0.014480016;-0.06962547;0.0056332806;-0.09829146;-0.0021892893;-0.056589402;0.021536363;-0.004290391;-0.008772129;-0.10627943;-0.04307802;0.034631975;-0.05704902;-0.0032051736;-0.030695345;-0.091189355;-0.0105223;-0.050502345;-0.08308349;0.008512631;-0.021689076;-0.07140819;0.0017177847;-0.022982152;0.07157223;-0.08125698;0.015093388;0.039734807;0.024271064;-0.06560651;0.08712812;-0.18479444;-0.02756071;-0.12358237;0.022756917;-0.120573275;-0.009278094;-0.07217292;0.024200963;-0.07673287;0.09751938;-0.09782343;0.028302029;-0.07188353;-0.015081912;-0.03464185;-0.065117136;-0.07139494;-0.0135093555;-0.084229045;0.018939713;-0.12815717;-0.03390477;-0.03650268;-0.025764827;-0.06866568;-0.10630988;-0.09157232;0.041134033;0.074123636;-0.13310365;-0.057504416;-0.068535484;-0.101543255;0.045842327;-0.23539972;-0.078282505;0.04295943;-0.0037605609;-0.033370238;0.004325322;-0.11447233;-0.079499684;0.03795033;0.026301295;0.052092914;-0.095530756;0.027275275;-0.11066705;0.024545804;-0.1003782;0.050763763;-0.04929295;-0.0939143;0.11483792;0.04532536;0.018485537;-0.048079047;-0.034923267;-0.094057575;-0.098302305;0.07096711;0.036578257;-0.11339291;-0.04512853;-0.13163242;-0.09461032;-0.09100415;-0.044274863;-0.09198646;0.0266602;-0.09691235;0.023071349;0.032416258;0.03752491;0.013021682;-0.03903009;-0.07797515;-0.07163883;0.0073190993;0.011313566;-0.03708488;-0.0069567454;-0.054542337;-0.05695896;-0.0062137283;-0.089119874;-0.13914116;-0.030235145;-0.10416941;0.039558597;-0.030212272;-0.098809734;0.007578258;0.055585507;-0.11978181;-0.1388555;0.064081654;-0.008356104;-0.0023755925;-0.034284312;-0.08445749;-0.027007865;0.03596359;-0.013054036;-0.06383123;0.0028221922;-0.0082660355;0.08947645;0.0061036567;-0.0321939;-0.019130638;0.030298924;0.112807065;0.031653535;0.04344541;0.014266287;-0.0375958;-0.09324887;-0.020665413;0.12811713;0.0014936976;0.020365685;-0.019126896;-0.12744704;-0.009094451;0.054833014;-0.01914034;-0.007212261;-0.07800758;0.018809518;-0.08072024;-0.06137161;-0.017748483;0.002136714;0.09877244;-0.022400793;-0.059323292;-0.16955614;0.053580772;-0.017033247;-0.046823304;-0.0033959618;-0.081620924;-0.090806335;-0.1069103;-0.03874415;-0.0042135743;-0.06314781;0.02923785;-0.07673667;-0.06135322;-0.03656215;-0.092507206;-0.11618154;-0.07344822;0.058313843;-0.013054883;0.038619198;-0.069208264;-0.116380416;-0.016970266;0.045362465;-0.057340123;-0.054583386;-0.08963914;0.04530343;0.10698568;-0.00418834;-0.08830858;-0.1203422;-0.1609499;0.094923876;-0.09037192;0.02923377;-0.03823415;0.021801258;0.011701923;-0.122725286;-0.010658651;-0.021926042;-0.016630773;-0.10350372;-0.12576878;-0.06346505;-0.051541675;-0.18880822;0.012347579;0.038898513;-0.15066966;0.009166879;0.057606485;-0.0077433866;-0.17058472;-0.08411922;-0.077930115;-0.038311206;-0.056507766;0.055530716;-0.12175857;-0.13814503;-0.008107999;-0.1480126;0.07430568;0.0177937;0.029888866;-0.10978013;0.016466947;-0.033450563;-0.067293786;0.028703915;-0.007326407;-0.03426439;-0.09727553;0.052119657;-0.2621002;-0.13887422;0.033878613;0.009456417;-0.039581712;-0.030392984;-0.0622182;-0.09288712;-0.10389757;0.1160271;-0.009396973;-0.086603254;-0.076893464;-0.051578645;0.034376986;0.017928483;0.0033416832;-0.040552624;-0.011239322;0.22453102;-0.13627051;-0.054945096;-0.029325973;0.015894663;-0.053360377;-0.07967046;0.037916396;-0.007557132;0.019150136;0.01576355;0.03352518;0.018426748;-0.067983694;-0.020789048;-0.066086255;-0.08316916;-0.05194668;0.021795642;-0.07043256;0.02553994;-0.043961275;0.13282205;-0.03347449;-0.047339533;-0.058650505;-0.0390356;-0.05436932;-0.22158974;-0.08472337;-0.056294356;-0.019154958;-0.03255519;0.009602722;0.03528204;-0.02463855;-0.03771865;-0.035337307;-0.022775246;0.098986074;-0.08537864;-0.0016493276;-0.012858705;-0.13596185;-0.08868179;-0.086827725;0.056802195;-0.0055330438;-0.06181369;-0.00034622027;-0.13234545;-0.025539778;0.032504674;-0.009175023;-0.048776515;-0.08083029;0.040595427;-0.032958463;-0.06410714;0.040915478;-0.04238993;-0.072807126;-0.015987366;-0.12410287;0.036832046;0.025858453;-0.060174458;0.030283317;-0.0642346;0.010125617;-0.027593786;-0.04791704;-0.13703811;-0.14883241;0.028743695;-0.11844566;-0.11791374;0.04258868;-0.026435502;-0.05518487;-0.07886711;-0.113579676;0.027843364;-0.049507663;-0.028364362;0.023748515;-0.08921619;-0.20669612;-0.042188678;0.017405486;-0.17166327;-0.03024727;-0.01038224;0.015934734;-0.09964176;0.014055637;0.051394172;-0.08217834;0.08918877;-0.0509217;-0.061327815;-0.084761836;-0.13941157;-0.015698455;-0.011274996;0.12311053;-0.06997591;0.05988289;-0.025577348;0.004756446;-0.100562654;0.009667513;-0.070684336;-0.09866698;-0.10018595;-0.15917984;-0.13283975;-0.10854763;-0.21279058;0.041852836;-0.08212179;0.030279266;0.016050968;0.012493891;-0.08460224;-0.043959823;-0.11167828;-0.010569376;-0.019660652;0.21873014;0.049583305;-0.01643347;0.0025270702;0.032011718;-0.12641467;0.07184934;0.034421973;-0.08436972;-0.067476474;-0.059258375;0.022367025;-0.13989966;-0.089270405;-0.106971145;-0.2272613;0.0033829396;0.0016023892;-0.067607984;-0.076016046;-0.120809026;-0.005359549;-0.1815452;0.019509407;-0.022720344;0.013901517;-0.075490475;0.031580348;0.022106804;-0.17870975;0.03484007;0.017474238;-0.081697345;0.031196514;-0.10348654;0.06045528;-0.008026866;-0.124619216;-0.029533444;-0.05082956;-0.008665943;-0.13635628;-0.07227903;-0.060476225;-0.27002457;-0.07939261;-0.10985165;-0.03210835;0.07808086;-0.02053032;-0.0067094676;0.034583397;-0.10766938;-0.016588788;-0.13934498;-0.09409899;-0.039095502;0.08299249;0.041810416;-0.045412548;-0.08939134;-0.08784741;-0.0038058297;-0.021678613;-0.07689192;0.023915512;-0.070200026;-0.020487648;0.0022182323;-0.0877309;0.034363683;-0.10204652;-0.06379214;-0.02242703;0.01630759;0.014038759;-0.07096524;-0.09067895;-0.048389364;0.03538081
-0.0038388039;-0.0493531;-0.056973737;-0.036540892;-0.06857684;-0.15035954;-0.18002929;-0.023239432;-0.08405297;-0.04213167;0.0035309;-0.041833963;0.035774697;-0.05197048;0.068931304;-0.020398801;0.059369646;0.055396944;-0.024837894;-0.010167836;0.04630233;0.0046203597;-0.07269594;-0.064783074;-0.01621513;-0.01109547;-0.098813176;-0.15678777;-0.03475839;0.11169469;-0.056875948;-0.045270074;-0.06172783;-0.024833823;-0.007305306;-0.019955343;-0.09961684;0.18753113;0.016316196;-0.06949999;-0.06508386;-0.027134215;-0.040172536;0.019854674;0.046319723;-0.08142617;-0.09034659;0.046007935;0.0474631;-0.077321656;0.016810995;-0.097608976;-0.08651195;-0.06629927;-0.030585993;-0.0038795134;-0.06059156;-0.18221448;-0.046860274;-0.0077394038;-0.08999641;-0.16616878;0.06974847;-0.058516;0.011264717;-0.049842168;0.012963742;0.0019872827;-0.008703534;-0.071802445;0.058615312;-0.09784003;-0.073446244;0.012316112;-0.046078067;0.13539733;-0.07795787;0.085027106;0.0025438608;-0.009783265;-0.018494269;-0.04599702;0.054101914;0.09659054;-0.087101355;-0.0051362203;-0.11799695;-0.020096436;-0.10270252;-0.09583966;-0.078847416;-0.093936026;-0.043377742;-0.05024055;0.024469722;0.0076101944;-0.12058126;0.058760177;-0.03155602;-0.0004899625;0.049229655;-0.11919059;0.04508163;0.097849496;-0.13155566;0.019422233;-0.049866185;-0.029002806;-0.06264269;-0.10089066;-0.030132769;0.046405837;-0.21973641;0.018742403;-0.054953877;-0.19093582;-0.09547925;0.02851612;0.06912059;-0.04516364;0.03960051;-0.08201207;0.0015369168;-0.012350176;-0.0510735;-0.06393415;-0.034276888;0.04908737;-0.19980803;-0.003334075;-0.038690038;-0.054843456;0.07234086;-0.00029197265;-0.20411614;0.0075827707;-0.07283522;0.044070493;-0.065166354;-0.120169066;0.023087226;0.040676855;0.024169438;0.104653046;0.009644511;-0.044888526;-0.053731956;-0.15787308;-0.054119214;0.050557684;0.09530828;-0.0048536425;0.04754634;-0.1275815;-0.23815298;0.0055594225;-0.07427934;0.05867004;-0.015874185;-0.12623586;-0.080078274;0.02006987;-0.049356095;-0.038020514;-0.029843945;-0.103678234;-0.05294102;0.034231625;-0.10649538;0.03994871;-0.10621643;-0.1309755;-0.018678145;-0.05670004;-0.10181817;-0.0012664049;-0.09498232;-0.080699414;-0.036972404;-0.022865668;-0.058068365;0.0034667403;0.055844683;-0.1848699;-0.060979296;0.04948684;-0.04313775;0.009825386;-0.005957595;-0.016885452;0.056477025;-0.115167774;0.03373389;-0.010319945;0.066745356;-0.063189104;-0.06888999;-0.13592497;-0.10759753;-0.020591442;-0.038506232;-0.13550824;-0.091858916;0.024264371;0.061126832;-0.023180671;-0.009860674;0.06555948;-0.063444495;0.07752144;-0.012223394;-0.014303581;-0.08899413;0.054286335;-0.064249925;-0.081615746;-0.15981305;0.0328233;-0.03542985;0.04138143;-0.120720185;0.0045819175;-0.06459334;0.00064657565;-0.07863386;-0.054257855;-0.10800652;0.116311885;-0.09805628;-0.056914248;-0.07073328;0.028922196;-0.10783401;0.017592905;0.062812634;-0.05802432;-0.050503265;-0.036466796;-0.08741204;-0.14671963;-0.031243807;0.002945124;0.01684674;-0.1222486;0.008073184;-0.06327793;0.07087042;0.044297423;-0.02750106;-0.010896925;-0.04775409;-0.05981815;0.05554266;0.10059816;-0.02194437;0.017079255;-0.008401764;-0.15556948;-0.094050385;0.038059924;-0.07774769;-0.06612014;-0.034575026;-0.09375875;0.021025078;-0.06826507;-0.08453718;0.02581213;0.0042917277;0.04670561;-0.034201913;-0.17602658;-0.10250117;-0.05852208;-0.035266224;0.020714322;0.0548727;-0.0143782;-0.051474832;0.0049671596;-0.02959441;-0.032706633;-0.106725074;-0.12449289;0.005432285;-0.13095996;-0.07851711;-0.1060437;0.0314688;0.026981644;-0.11101765;-0.00050553307;-0.063872606;-0.07910172;-0.11346299;-0.093486905;0.0082067195;-0.06619018;-0.05258177;0.0059485575;0.06654909;0.14834286;0.059894327;-0.13396277;-0.21820615;0.06792789;-0.013338292;-0.020391675;0.021079756;-0.09316188;0.03839048;-0.061658643;0.0057785367;0.052333202;-0.011584745;-0.09127516;-0.017233916;-0.048405234;-0.14702468;-0.22665803;-0.06829594;0.08355087;-0.0018877917;0.046990227;-0.09334973;-0.053507335;-0.14085193;-0.057205383;-0.097453564;-0.04379066;-0.011538913;-0.055537708;-0.080785744;-0.10161441;-0.10670229;-0.00749511;-0.0076098116;-0.0147186015;-0.04469095;-0.076295525;0.03686773;0.032974303;0.026456716;-0.03733736;0.039706543;0.032726966;-0.030190058;0.09757518;-0.15497737;-0.07408718;0.04315618;-0.092052184;-0.03541182;0.019800825;0.0036068677;-0.041320663;-0.0077156345;0.10411906;0.018596353;0.022594059;-0.011042275;-0.05097277;-0.025013674;-0.10314741;-0.024629902;-0.0027164954;0.020666309;0.21967353;-0.020015204;-0.022478642;-0.13219345;-0.080757454;0.06846348;0.006300467;-0.05010801;-0.075839765;-0.08217481;0.049357913;0.05610846;0.0628431;0.010094291;0.013772507;-0.034839787;-0.029370446;-0.04627637;-0.07399743;-0.02140291;0.055701558;-0.02985778;0.036907803;0.04573993;-0.007292711;-0.06106213;-0.1094903;-0.09470639;-0.23440035;-0.09437499;0.0068095047;-0.079161905;0.047177076;-0.05980426;-0.072784;0.00990031;-0.05486008;-0.093273155;-0.03812609;-0.02070267;-0.07044279;-0.003500478;0.020646231;-0.104471095;0.0050031357;0.009351504;-0.027445767;0.0145843;-0.054777376;-0.047249362;0.008385715;-0.058383938;-0.07327225;0.009799879;-0.009559805;0.04841536;-0.079835385;-0.1081692;0.051492855;0.010535385;-0.052154288;-0.036005903;0.053079296;-0.10376511;-0.07034982;0.001991524;-0.00034674563;-0.01433043;0.04398142;-0.08642493;-0.04507757;0.044021137;-0.106967345;-0.08809133;0.07632159;0.021179127;-0.17723201;-0.078501716;0.026087947;0.024685798;-0.19282646;-0.15453653;-0.047183204;0.02170016;-0.06230413;-0.004301003;0.03626546;-0.24018535;-0.039151475;-0.07462028;-0.213045;0.041733757;0.099362716;0.036376823;-0.025694542;-0.049246296;-0.093582384;-0.06370568;0.05241969;-0.019075414;-0.055928957;-0.1008825;-3.9173676e-05;-0.057590988;0.06706482;0.040535033;0.0039026341;0.10694289;0.06090303;0.035360284;-0.045235675;0.0434154;-0.036518216;-0.1895999;-0.021333344;-0.2491761;-0.08666788;-0.03306588;-0.21379732;-0.07208297;0.053810827;-0.105121024;0.051984143;-0.049196325;-0.08879751;-0.045491975;0.007860658;-0.08178563;-0.111508586;0.17708282;0.03239883;-0.008519507;0.04722784;0.03254065;0.017114136;-0.00094067305;-0.009390395;0.06776379;-0.024793908;-0.107542716;0.023313358;-0.046352625;-0.091910176;0.0041536335;-0.24931146;0.006776645;0.0047521037;-0.04143134;-0.06598789;-0.14272013;-0.09057605;-0.08396019;0.0100837145;-0.026684623;0.08906206;0.0157598;-0.011937762;0.12863958;-0.075973086;0.021888342;-0.051872205;-0.10961066;0.048413306;-0.10856204;-0.0379524;-0.011492004;-0.12961455;-0.010253916;-0.02881697;-0.044750318;-0.10203898;-0.023877155;-0.04827724;-0.27093774;-0.011953827;-0.011523308;-0.10031653;0.0077320416;-0.15701377;-0.08464505;0.00028745036;0.018767081;-0.08646605;-0.12818034;-0.025873087;0.045826092;0.055742063;-0.061340347;0.04630888;-0.01532633;-0.042482574;-0.10069799;0.052971035;-0.12060004;-0.0039570043;0.06528811;0.03306664;0.01117868;0.028878495;-0.021387173;0.0049388;-0.037620332;0.0026658785;-0.10737139;0.051639784;-0.042696502;-0.04761749;-0.0969521;-0.030580347
-0.009441958;-0.07731226;-0.0011398178;-0.05922659;-0.05853869;-0.17079864;-0.14607677;0.019230584;-0.05405721;0.04630743;-0.014454533;0.035632033;0.043107525;-0.048146904;0.009979037;-0.020180961;0.019602183;-0.040090505;0.048282728;0.062409654;-0.045416497;-0.038479205;-0.012062762;-0.13299121;-0.0959107;0.068087794;-0.02490073;-0.1424466;-0.03715248;0.03631828;-0.051961303;-0.019918526;-0.08130095;-0.11863696;-0.03775481;0.033965822;-0.06585501;0.15507315;-0.0835139;0.0059082042;-0.006116023;-0.03723891;-0.06399569;0.003008341;-0.09287146;-0.070398465;0.0055089756;0.040194158;-0.040390752;0.01053016;-0.11056125;-0.09408065;-0.08976475;0.028841127;0.047553416;-0.04853884;-0.06186467;-0.11641211;-0.04093067;0.02545231;-0.07361361;-0.07630568;0.04541517;0.018754035;-0.037209395;-0.04483407;-0.084611155;0.036430895;-0.120252356;0.061864104;-0.06814824;-0.10078549;0.05805422;-0.076634064;-0.05433317;0.112227984;0.0018335002;-0.017917177;-0.11016541;-0.0631281;0.010550364;-0.18248235;-0.05694455;-0.0020831227;-0.09420639;0.061863363;-0.03877018;-0.074604936;0.03898184;-0.08730245;-0.08298186;-0.054116018;-0.0039466596;-0.10788631;0.08976928;0.004810756;-0.14451663;-0.0093489755;0.041324396;-0.0546967;-0.13268396;-0.03164921;0.10216881;-0.044194564;-0.13134234;-0.041811064;-0.027767837;-0.06671465;-0.042343665;0.0008249866;-0.10572016;-0.016942546;-0.18383868;0.021703582;-0.047300942;-0.10766127;0.0050570173;0.039620828;-0.025171297;-0.01801061;-0.016065927;-0.037357297;-0.11669923;-0.056365773;-0.039261445;-0.05736563;-0.07740413;-0.10344764;-0.08883113;-0.00030571147;-0.026383054;0.05357877;0.0039821444;-0.060970165;-0.058094285;0.053206053;0.035145815;0.007952678;-0.058735;-0.10006889;0.004026742;0.009158722;0.03349766;0.08913489;0.026849722;-0.039872415;-0.022302667;-0.089026935;-0.055842053;-0.014918845;-0.09579899;0.02745359;-0.061808802;-0.117075294;-0.13685302;0.021933995;-0.04249689;0.028560368;-0.05983199;-0.14492986;-0.076766;-0.074087135;-0.06340871;-0.17671153;0.08948733;-0.09377926;-0.11196331;0.0062185414;-0.2437361;-0.037101537;0.046227917;0.0035173711;-0.04846018;-0.001214992;-0.011651678;-0.106598206;0.0031840303;-0.04020674;0.053161174;0.007442636;0.049943037;0.016123328;0.08704079;-0.12402347;-0.077824734;-0.010293158;-0.12125658;0.08021005;0.019363308;-0.09094573;-0.0020986397;0.022486875;0.0074105198;-0.08401875;-0.07298283;-0.10063465;-0.11573572;-0.09061121;-0.018296078;-0.04264859;-0.08982827;-0.13109736;-0.014817618;-0.09199745;-0.03759001;-0.12653837;-0.032896522;-0.11678647;-0.037644535;0.05115349;-0.016038664;-0.01653644;0.03155716;0.006117887;-0.11224202;-0.050641038;-0.109488375;-0.058717716;-0.02847608;-0.10167023;-0.16301912;0.031679466;-0.044108663;0.0895637;-0.036314543;-0.13133965;-0.08953238;0.056758013;-0.100514844;-0.10308435;-0.09529992;-0.012960632;-0.005405173;-0.047764715;-0.077432774;0.031320922;-0.040222414;0.015861014;-0.04890326;-0.16182566;-0.07796633;0.08480281;-0.09770451;-0.07456403;-0.030554809;0.017249642;0.088152915;0.023716712;-0.087988675;0.15203391;-0.03127591;0.053878196;-0.08452231;0.001105704;-0.09764047;-0.033400517;-0.11559518;-0.03250572;0.037802547;0.016921017;-0.017769312;0.07971774;0.030379774;0.01703723;-0.03798449;0.057687376;-0.065598354;0.06935082;0.022465583;-0.09101084;-0.04858904;-0.13729692;-0.11072262;0.02348055;-0.10990619;-0.022968173;-0.08800646;0.014175925;-0.10385658;-0.09370043;-0.061800033;-0.0115304785;0.061240442;-0.019622996;-0.12077185;-0.12314147;-0.08015863;-0.058345445;0.025440505;0.09825459;-0.021527402;0.04296298;-0.041504692;-0.08773893;0.017620536;0.01024051;-0.01922357;-0.062474653;-0.028353874;-0.010486836;0.044050545;0.036710594;0.027753966;-0.1460067;-0.14907083;0.09089708;0.021354498;0.027237901;0.042617105;-0.041025624;-0.023029413;-0.13241048;0.028195797;-0.111130044;-0.027596235;-0.07745778;-0.08115767;-0.07189379;0.0053306143;-0.21337818;-0.10225415;0.06680522;-0.0589902;0.03608776;-0.12616223;-0.0006245405;-0.116940856;-0.09260678;-0.10031868;-0.05609985;-0.016397996;-0.031187752;0.022303088;-0.100840025;-0.004760639;-0.15203366;0.054608237;-0.029631976;-0.09645845;-0.051116053;-0.0917189;-0.045433477;-0.03168028;-0.053720713;-0.075600095;-0.10474027;-0.07365453;0.08477559;-0.22359611;-0.06604475;-0.017022723;0.044975426;-0.078150935;0.020131154;0.043765582;-0.075328276;0.008991606;0.099534795;-0.02122609;-0.02039805;-0.0967443;0.057285957;0.0046878126;-0.018810475;-0.078924336;0.037791017;-0.07573055;0.22168235;-0.03495281;-0.010074636;-0.012385224;-0.027545635;-0.03465309;-0.06196581;-0.0031907137;-0.0906635;-0.090463154;0.05301386;-0.037185017;0.041864917;0.037159525;-0.057721697;-0.02314559;-0.15982892;-0.08885139;-0.0057781716;-0.0030429282;0.04034433;-0.01793077;0.16693783;-0.030964168;-0.07780629;-0.041899808;0.007967079;0.0008774753;-0.14493029;0.009875405;0.031215962;-0.0507037;0.029235918;-0.050608788;-0.078273;-0.053665176;-0.067508444;-0.04937048;-0.035640582;-0.012272954;0.008902998;-0.08544328;-0.011630535;-0.15855305;0.0111336345;-0.053400096;0.00056605134;-0.061275218;-0.11820241;-0.11772872;-0.03174532;-0.070162;-0.059996903;-0.014840066;0.1438715;-0.09812771;-0.09915094;0.0069155055;-0.09793175;0.007067284;-0.056506414;0.028484097;0.049058113;-0.012062486;-0.031784724;-0.06627544;-0.016868386;-0.08044634;-0.024200438;-0.057041828;-0.03553867;-0.10761573;-0.12218277;-0.041657683;0.014475275;-0.05898076;-0.08038962;-0.05192374;-0.06041332;-0.07774855;-0.2125112;-0.047190502;0.031263214;-0.06099129;0.03844115;-0.059787165;-0.11510388;-0.2488716;-0.058459807;0.016888898;-0.14076315;0.022250332;0.09035363;0.08373921;-0.028014276;0.018168913;-0.0046206075;-0.057249315;0.112596914;0.097841114;0.012804551;-0.108329885;0.013902097;-0.10074627;-0.06475718;0.10829717;-0.10109198;0.039266393;0.047008034;0.029697305;0.07422911;-0.10151317;-0.02989987;-0.14907072;-0.09723791;-0.16457799;-0.13641566;-0.113688156;-0.102160856;0.03217595;-0.1184603;-0.07152727;-0.016682094;-0.06434086;-0.034550123;-0.04402934;0.017503044;-0.13636537;-0.048909187;0.12657453;-0.06155605;-0.035856176;0.0106502045;0.032078248;-0.059896726;0.02005165;-0.112759866;0.009542252;-0.03457573;-0.003316281;-0.0640207;-0.12989411;-0.053439483;-0.098813914;-0.121871404;0.03007934;-0.04136605;-0.00618721;-0.09118291;-0.11558988;0.06009944;-0.09459599;-0.04308465;0.054220952;0.124496795;-0.08088394;0.014019535;-0.02259372;-0.16073334;0.029588819;-0.10852298;-0.015066193;-0.008120652;-0.07299454;-0.08717282;0.07290818;-0.230974;0.052448884;-0.009413792;0.06659899;-0.086600274;0.008544395;-0.047817543;-0.2190534;-0.10310437;-0.0654214;-0.11110365;0.040567458;-0.12047581;-0.010186993;-0.03740605;-0.08500543;0.042264048;-0.16159682;-0.0571743;-0.031253994;-0.019828169;0.02799869;0.034798317;-0.13859887;-0.027275275;-0.14321409;0.00046686572;-0.06827345;-0.03093634;-0.106143646;-0.006441547;-0.0035830622;0.06148733;-0.02894458;0.011167476;-0.12615974;-0.017494136;-0.052509245;-0.012714533;-0.031614814;-0.08624535;0.038499303;0.021738956
0.047718406;-0.008219965;-0.031733073;-0.019020945;0.042454723;-0.09242886;-0.06995756;-0.11468837;-0.056166705;0.06744557;-0.0134454435;0.025651583;-0.013167277;0.09151229;-0.04609993;0.052448872;0.02614641;-0.07765575;0.10461068;-0.058832724;-0.053049896;-0.097736366;-0.0928488;-0.014039517;-0.10854862;-0.051059254;0.03106601;-0.086622156;-0.08281702;0.08572599;-0.007530229;0.020066956;-0.016011955;-0.044686563;0.007405124;-0.09712122;0.04970182;0.115892276;-0.011504762;-0.006066898;0.0011846545;-0.0984663;0.031423245;-0.007668497;-0.06519628;-0.001601821;-0.044037543;0.03739901;0.016655413;-0.0036060908;0.011741141;-0.10275725;-0.06701222;0.04751294;0.046149965;-0.017144725;-0.09954227;-0.13613117;-0.052721918;0.040964253;-0.020671764;-0.082928345;-0.013023677;-0.04851451;-0.10926262;0.009513797;0.010180177;-0.08116644;-0.104649656;-0.008444617;-0.049088743;-0.061165743;-0.087108426;-0.103434406;-0.08255302;0.19588816;0.039958913;0.0070132934;0.02070051;-0.13571388;-0.052317098;-0.032395158;-0.09619109;0.10068336;-0.038409982;-0.01217073;-0.051447462;-0.1047701;-0.08206972;-0.048125725;-0.07719378;-0.05088491;-0.09395996;-0.023346433;0.03523587;0.0046500578;-0.21260019;0.068446696;0.062217485;-0.039958365;0.038853973;0.010851183;0.026223946;0.0518611;-0.13168538;0.021053394;-0.08393294;0.024478406;-0.03661932;0.03321494;0.024348285;-0.11070032;-0.0905501;0.0017092911;-0.005898753;-0.17343605;-0.06531139;-0.034281418;-0.04138045;0.059525114;0.057899628;-0.00989426;0.0010844356;-0.093102336;-0.03566518;0.025297115;0.023909425;-0.03360733;-0.07176668;-0.067368194;-0.01615426;0.047088347;-0.007706503;-0.04874974;-0.11324612;-0.05692027;-0.0996566;0.021506643;-0.055714253;-0.13082512;-0.102745086;-0.110337265;-0.03319889;0.08159055;-0.073309444;-0.02777866;-0.115023725;-0.054450795;-0.09324115;-0.038680233;-0.058933374;0.009912711;-0.06373422;0.009846308;-0.08454347;-0.027512318;-0.08517165;0.03374802;-0.107767716;-0.07445149;-0.05224608;-0.04261842;-0.059131082;-0.1411205;-0.0022720338;-0.09356199;-0.06432791;-0.005828853;-0.19146852;-0.035098862;0.03040476;-0.045599803;-0.070683286;0.030967288;-0.03930604;0.015027808;0.021169068;0.021096045;0.02854193;0.031336743;0.06660271;0.046807747;0.039482463;-0.10101747;-0.06680134;-0.031729255;-0.10728627;0.014720419;-0.059215285;0.011786095;-0.04817139;-0.10973812;0.035023328;-0.011997676;-0.08627397;-0.1075239;-0.045006923;-0.11426506;-0.06621905;0.04145843;-0.007487464;-0.081244305;0.038225513;0.026760828;-0.011392215;-0.05627429;-0.08232092;0.0058131;-0.044643734;0.06351348;0.020969085;0.0343214;0.011717425;-0.023715353;-0.0318426;-0.045986038;-0.05230212;0.019225871;0.04299685;-0.045043457;-0.05536236;-0.054342095;0.026007665;-0.023718981;-0.08740537;-0.11846185;-0.08057174;0.014185799;-0.103963204;-0.011162905;0.017876422;-0.011891563;-0.12134755;-0.100046515;0.05061721;-0.079879336;-0.05940302;-0.11856117;-0.108961314;-0.16088276;-0.015659587;-0.002355804;-0.0128141865;0.009911724;0.025410127;0.022202048;-0.028793516;-0.014602918;-0.011837359;0.10678013;-0.04977276;0.029738054;-0.0053220033;0.0071513476;-0.029447269;0.011629633;-0.059092365;-0.15907829;-0.11236719;-0.05571557;-0.075930096;0.030394316;-0.10175618;-0.12355773;0.039380983;-0.045192283;-0.01374199;-0.08064686;-0.009958528;-0.070815906;-0.024688572;-0.12592681;-0.012208576;-0.008308159;0.015045524;-0.101628534;-0.06954409;-0.10659398;-0.045411073;-0.09147364;-0.0084353825;-0.041490268;-0.060694396;0.022052944;-0.009684515;-0.09828798;-0.05602017;-0.06828258;-0.09344713;0.044393513;-0.037638158;0.074217156;-0.09123372;-0.049931154;-0.03576327;-0.12424809;0.006089283;-0.09216287;-0.08984485;-0.058676317;0.11815151;0.11188152;0.016968865;-0.06432365;-0.20262158;0.05464263;-0.09562607;-0.026291298;-0.008314473;0.04677915;-0.076459706;-0.04340277;-0.012693423;-0.0059495764;-0.0819632;-0.03704753;-0.10134211;-0.053772792;-0.1324433;-0.11186861;-0.080760606;-0.014595071;-0.1124332;0.014597421;-0.0927092;0.07947658;-0.13070758;0.022865439;-0.11234783;0.032400537;0.029177044;0.06000112;-0.038942263;-0.0740418;0.020634688;-0.08672419;0.1169526;-0.036550947;0.0049538813;-0.029926298;0.014229203;-0.029108863;-0.08535494;-0.15656856;0.04955912;-0.05087485;0.024270259;0.07002886;-0.24953875;-0.08502966;-0.03939834;-0.05079915;-0.0021996696;-0.05802916;0.015682902;-0.06024895;-0.09488935;0.11952437;0.07623097;0.0023660464;-0.014232113;-0.08516711;0.019301873;0.033677172;-0.040394045;0.044573177;0.031283833;0.11175913;-0.119433016;0.05177593;-0.06763856;-0.030471578;-0.06605195;-0.007370189;-0.023211768;0.023559188;-0.02894143;-0.028528884;-0.0040903306;0.024890801;-0.06079693;-0.091147296;-0.06198701;-0.03766076;-0.012323832;-0.08332994;0.027834462;-0.009345003;-0.058919873;0.040756214;-0.038689338;-0.07324369;-0.007871905;0.030495768;-0.058549188;-0.06388174;-0.0586815;0.035184395;-0.15576664;-0.07189874;0.028358223;-0.09283907;-0.019552156;0.016444443;-0.0077886498;-0.010666437;-0.046344865;-0.025012704;-0.016086489;0.016099283;-0.13156405;-0.06294588;-0.022156402;-0.02141259;0.025788957;0.03552887;-0.010222664;-0.12474664;0.002444114;-0.051225733;-0.09781788;0.09268019;0.05820988;0.0036521743;-0.003874807;-0.082409985;0.08749604;-0.12581968;-0.050792422;-0.07455343;-0.028719615;0.006871268;0.03412282;0.022392862;-0.04994203;0.026300853;0.06141386;0.04453122;0.029649472;-0.06360129;-0.050771408;0.016764088;-0.10020225;-0.1133304;0.029111078;-0.095216304;-0.0920164;-0.20892535;-0.07561422;-0.00073258893;0.031492457;-0.0487362;0.0061235535;0.04667278;-0.21906483;-0.044007964;-0.009132019;-0.19481914;0.049734756;-0.022093624;0.018908404;-0.07343074;-0.06397451;-0.05096772;0.05331274;0.10940734;0.06541783;-0.07108068;-0.11932794;-0.0004064456;-0.043038517;-0.06929431;0.0205205;-0.010695437;0.10902112;-0.013296255;0.03224524;0.06190801;-0.036489557;-0.008606463;-0.12041052;0.047456004;-0.15760522;-0.16846359;-0.08536681;-0.2030553;0.026349418;-0.005159129;-0.11314601;0.018950561;-0.009312979;-0.079401806;0.018604947;-0.0027702202;-0.06011038;-0.048313264;0.23956092;0.027459526;-0.08663666;0.029975101;-0.044585854;0.049660496;-0.013257312;-0.05959237;-0.0768358;-0.07382836;-0.024805438;0.025794523;0.039748386;-0.11774879;-0.08362633;-0.10772785;-0.015490334;0.014156601;-0.062268674;-0.041927356;-0.006294094;-0.07550835;-0.12341403;-0.092103414;-0.0636751;0.059719987;0.022415921;-0.09367426;0.09748576;-0.047154415;-0.0952108;0.054199927;-0.044518963;0.031304874;-0.15757412;0.05778785;0.060773876;-0.14074925;-0.00976356;-0.08491137;-0.08980869;-0.14866453;-0.118436195;-0.05175674;-0.24589701;0.043645382;0.033658188;-0.048821617;0.01037759;-0.013103198;-0.06814829;-0.025437338;-0.113105915;-0.031751778;-0.11917428;-0.055412542;-0.027138865;-0.0996302;-0.10671801;-0.0071134004;-0.11323689;0.01542963;-0.017690063;-0.014689711;-0.095526226;0.0152962385;-0.0882699;-0.039218955;0.047636297;0.0033010126;-0.013528738;-0.020420471;-0.020103525;0.016400903;-0.06501981;0.043000277;-0.04756313;0.025266184;0.016950933;-0.085916035
0.014899048;-0.0718984;0.029192803;-0.008989471;-0.018522596;-0.06422195;-0.13419254;-0.010014933;-0.114028394;-0.038321592;-0.10296063;0.09027563;0.0029797228;-0.021428876;0.037996456;0.05017449;0.03271885;-0.058321618;0.05520469;-0.01969178;0.02294064;-0.02582531;0.0058433614;-0.16829212;-0.026477335;-0.008746918;-0.098815106;-0.1035997;0.010962176;0.020270862;-0.12911311;-0.005346149;-0.018551815;-0.091717266;0.03289268;-0.09489879;-0.0288928;0.17824832;-0.07252958;-0.011539762;-0.09807186;-0.022231147;-0.11563259;-0.053802907;0.03153024;-0.078744605;-0.12782304;0.0041571525;-0.07109402;-0.089211084;-0.12792657;-0.013230113;-0.08168926;0.0014043301;0.036433645;0.023914836;-0.04568903;-0.11632133;-0.048407838;-0.0018686333;0.028624648;-0.028252281;-0.042812083;-0.0038216384;-0.095214725;-0.01099272;-0.119298555;0.02342647;-0.037561458;-0.07839617;-0.06308799;-0.03040109;-0.068360776;-0.08122927;-0.04196225;0.14416012;0.02795827;0.052709322;-0.013928611;-0.0627673;-0.10816999;-0.030084576;-0.0034077016;-0.06019929;-0.04318495;0.03476444;-0.16422866;-0.10614126;-0.095315486;-0.022734331;-0.020801108;-0.011207786;-0.08312765;0.016030464;0.11001407;-0.06648085;-0.25469723;-0.008542977;-0.09843144;-0.08956648;-0.040352367;-0.008584131;-0.015358725;0.025692865;-0.07930557;-0.013390155;-0.04817161;-0.099073656;-0.0768111;-0.001989816;-0.06223495;0.019273456;-0.10581343;-0.028971123;0.018778509;-0.1302201;0.037200198;-0.041967824;0.042985473;-0.0998986;-0.06187857;0.037343524;-0.06182349;-0.06931984;-0.10393633;-0.03358099;0.038031198;-0.029733228;-0.12750578;-0.08431708;-0.020141019;-0.007553294;-0.10949139;-0.0525134;-0.06764243;0.068599425;-0.06851287;-0.03716484;-0.10041311;0.006169723;0.016483873;0.0009099914;-0.013321897;0.1227787;-0.03760805;0.034058567;-0.061075155;-0.1016047;-0.008233354;-0.123081364;-0.03206577;-0.053200766;-0.12007973;-0.068836726;-0.16259888;-0.122582756;-0.059849385;0.12024125;0.022828355;-0.09991203;-0.07557434;-0.098934434;0.0013331502;-0.10923576;-0.06438845;0.022493752;-0.09365265;-0.09416564;-0.19246379;-0.10646135;-0.067288645;-0.12444529;-0.07878632;-0.07403317;-0.04510011;-0.017142413;0.04053526;-0.061588824;-0.055252947;0.0055269767;-0.0837357;0.051879708;0.123479836;-0.13722496;-0.026229737;0.04901345;0.014652624;0.06381976;-0.12596603;-0.02213655;-0.11071873;-0.059912503;-0.02469707;-0.06842748;-0.005475364;0.007294579;-0.15737134;-0.11733377;-0.120839916;-0.07481846;-0.07956712;-0.11077559;0.011686069;-0.07780701;-0.0694313;-0.089246735;0.038635034;-0.09746113;0.010849517;-0.08588614;-0.06395776;-0.021548133;-0.12546651;-0.026685994;-0.011833619;0.050606266;-0.15735295;0.06406804;-0.020507114;0.009243356;-0.15716103;0.012382543;0.0004900431;0.06864684;-0.0465214;-0.13588649;-0.0322447;0.11679948;0.03004308;-0.058132973;-0.1236937;-0.04980702;-0.1286492;-0.024084985;0.047427084;-0.0029411085;-0.002269938;-0.08481804;0.033517845;-0.15687127;0.013659181;-0.0534991;-0.049640965;0.026599664;-0.09426861;-0.044890616;0.10644752;-0.03798437;-0.023630207;0.11047467;-0.052987825;0.0027114772;-0.040263068;-0.038451426;0.044623334;-0.014956144;-0.016029613;-0.08782696;-0.012375762;-0.002503244;-0.0618461;0.119788475;-0.03395131;0.02211848;0.027982753;-0.056155965;0.038531333;-0.058358278;-0.017139144;-0.004700807;-0.121535085;-0.0749243;-0.007583018;0.048588622;-0.0768613;-0.07129055;-0.1287904;-0.08825102;-0.11871932;-0.025574015;-0.104842804;-0.026142426;0.0033059837;-0.022351116;-0.0154751865;-0.09652304;-0.11174775;-0.034388497;-0.035131264;0.011007334;-0.046329416;-0.04983977;-0.098178394;-0.13564679;0.033528358;0.012306367;-0.09555282;-0.052931733;0.033887874;-0.00943107;0.09828046;0.10324831;-0.069561034;-0.13277622;-0.04984921;0.035224512;-0.122622095;-0.05663056;-0.04966221;0.0072239693;0.03030637;-0.03573759;-0.07352889;0.00085200113;-0.087431684;0.04889385;-0.13205503;-0.0030728814;-0.08280245;-0.16324793;-0.00023731712;0.06884858;-0.06284492;0.054988947;-0.12173997;0.07095976;-0.06909186;0.020509634;-0.021403503;0.06923101;0.015820136;-0.05097052;-0.094202094;0.021779655;-0.11231558;-0.18319508;0.16467728;0.02756597;0.014699315;-0.02945566;-0.054630365;0.045517173;-0.08289577;-0.1191894;0.033983063;-0.03879121;-0.09649232;-0.005116627;-0.24206518;-0.0093929125;-0.042995922;0.004105515;-0.037082687;0.066290356;-0.008357872;-0.029000735;-0.010445096;0.095261216;-0.033717413;-0.08081865;0.024135271;-0.010037486;-0.015623855;-0.034853283;-0.01951159;-0.032139298;-0.10559048;0.15859623;-0.15913624;-0.035278853;-0.12658963;0.009497152;0.07499941;-0.07734138;-0.06453497;0.004830671;0.05407146;0.05682357;-0.027614241;-0.013660599;0.027958602;0.020028973;-0.017925004;-0.07479752;0.037313666;-0.030317988;-0.1132551;-0.037935413;0.05809003;0.14710127;-0.041884992;-0.028810285;-0.102946885;-0.046762925;-0.00828028;-0.20364201;0.038835365;0.046915255;-0.14617963;-0.045661155;-0.023482053;-0.06240696;0.025483228;-0.037345823;-0.11107022;-0.020175675;0.0268604;-0.11378506;-0.09261862;0.055245616;-0.1448666;0.031262662;0.009437403;-0.03975715;-0.067059144;-0.086037695;-0.033478178;-0.08140009;-0.04690495;-0.04042163;0.03065463;0.08122069;0.027231935;0.0024305014;-0.068717666;-0.09550402;0.05190162;-0.012710515;-0.009678154;-0.031146176;-0.13618062;0.029657742;0.064097226;0.0036716652;-0.05125227;-0.08899623;-0.023863973;-0.10175478;-0.03992392;-0.05627754;-0.14988697;-0.006668621;-0.07631232;-0.17433505;0.020454515;-0.20928285;-0.07106328;-0.16116633;-0.004198159;-0.074060485;0.026055735;-0.09232195;-0.018403875;0.02491526;-0.20539634;-0.081125475;-0.01409529;-0.15779771;-0.012625603;0.08670033;0.016939709;-0.099837005;-0.073519;-0.05594272;0.027148344;0.056433443;0.032074016;-0.042277243;-0.019995859;-0.0809845;0.056279913;-0.03914205;0.13707577;-0.14473836;0.011072662;-0.027997833;-0.043386556;0.059924014;-0.072913;0.003469696;-0.12405073;0.031213325;-0.06025801;-0.122111775;0.0068489052;-0.21809466;-0.006999125;-0.047579747;-0.06576647;-0.024958545;0.009142649;-0.100138165;-0.10672395;-0.07129193;-0.12407995;-0.09834663;0.22898515;-0.049621247;0.023436744;0.044298157;-0.09965656;-0.0678804;0.12472097;-0.15000302;-0.0980343;0.021155035;-0.12497088;-0.10877543;-0.070695296;-0.058764875;-0.055463504;-0.2017536;-0.06189831;0.049889084;-0.122661695;-0.032502543;-0.115649156;0.059565306;-0.021198116;-0.027840793;-0.07366253;0.15100183;-0.03479938;-0.13313578;-0.022797577;-0.061429787;-0.053572897;-0.113721356;-0.021269757;0.016619349;-0.07224901;-0.016052682;0.090632215;-0.2050158;0.0162533;-0.11364226;-0.05834504;-0.07834035;-0.072357;0.04871648;-0.22141063;0.011878742;-0.10141869;-0.0035408628;0.06264743;-0.14098778;-0.017631646;-0.0950843;-0.16378196;0.026435336;-0.10579914;0.040176537;-0.0042285463;-0.045801047;0.030282214;0.02529807;-0.15028086;-0.050268818;-0.1271205;0.04366202;-0.037357498;-0.049970977;-0.085140534;-0.018183168;0.018806657;-0.005846229;0.03943786;-0.042094607;-0.031198047;-0.0047084633;-0.062230002;-0.0055633676;-0.0021176669;-0.029532427;-0.04371523;-0.09145294
0.07440194;0.004523419;0.039095737;-0.020217812;-0.051134743;-0.098943904;-0.1646088;0.031221334;-0.09956698;-0.063309565;-0.100330666;0.104888126;-0.029382117;-0.029589014;-0.013233203;0.06522427;-0.0107826395;0.009406388;0.11021744;-0.026170561;0.057099465;-0.025919646;0.029186917;-0.14223167;-0.022887299;0.05861772;0.04143584;-0.20448501;-0.12056557;0.088342406;-0.08275797;0.08704011;-0.09860333;0.016412405;0.02993148;-0.07744141;0.0602105;0.059545696;-0.009068392;-0.10967681;-0.048494417;-0.088678636;-0.06100927;0.031234385;0.031557582;0.012415421;-0.031105883;-0.05791121;-0.042851944;-0.09486758;0.0049253656;-0.1342332;-0.060755778;-0.044372335;-0.020439722;-0.016333245;0.017843414;-0.12432263;7.226481e-08;-0.0402451;-0.008553924;-0.0816513;-0.028984819;-0.06399237;-0.10796858;-0.10777751;-0.07253521;-0.04144094;0.013657312;-0.09230596;-0.012193237;-0.034037374;0.01494077;-0.055185758;-0.039471522;0.17723793;-0.11512454;-0.06033133;-0.10901203;-0.04798204;-0.014653286;-0.17463845;0.0026428467;0.014102834;-0.11317763;-0.09871751;-0.13538063;-0.04942227;-0.11803889;-0.1218984;-0.09605672;-0.09911734;-0.09972651;-0.043474566;0.0969399;0.043870907;-0.1124494;0.017029457;-0.035552952;-0.098970704;-0.0053544114;0.004334298;0.048833735;0.046443377;-0.012685554;-0.055972606;-0.012021281;0.044350512;-0.05474148;-0.11965386;-0.0676629;-0.027242774;-0.18351564;0.030712873;-0.062209927;-0.12139938;0.019156782;0.0040517473;-0.0520432;-0.09755775;-0.08004158;-0.024262547;-0.044906884;0.008686487;-0.11286889;-0.117739335;0.015632214;-0.07871451;-0.13230312;-0.07562969;0.023694796;0.020041626;0.03816453;0.053493977;-0.10808674;0.053088326;-0.03255207;-0.048515104;-0.033348594;-0.13927554;0.023662983;0.025634056;-0.05861975;0.046611965;0.025747146;0.01213344;-0.14169715;-0.13533135;-0.083436206;-0.0920258;-0.13780071;-0.057599038;-0.06949731;-0.06413105;-0.24066827;-0.11948133;-0.09598257;0.01446727;0.014974293;-0.12255187;-0.080424465;-0.020229092;0.037880633;-0.13319445;-0.01787052;-0.053979144;-0.024242813;0.028294863;-0.24375291;-0.12278482;-0.0031884941;-0.0036161165;-0.10115658;-0.06533101;-0.037238616;-0.031465583;0.030932661;-0.115676515;-0.04651602;0.0064705554;0.05289585;0.050257724;-0.017336369;-0.043739893;0.050286848;0.079903856;-0.09484621;0.03087362;-0.084091626;-0.025602287;0.04481972;-0.0423003;0.030803004;-0.070638776;0.04062619;-0.0778329;-0.0047979713;-0.09612413;-0.033608306;0.000108796274;-0.0055291;-0.02424512;0.031920325;0.015839951;-0.061519228;-0.11856973;-0.090995975;-0.07156575;-0.08987877;-0.025394438;-0.074173644;0.0048361667;-0.01259581;-0.12383815;-0.040132523;-0.006243137;-0.08964507;-0.071293;-0.10626601;-0.03817238;-0.038974732;0.0303761;-0.05306678;0.05160433;0.012205195;-0.08070003;-0.11002457;0.09411511;0.01212081;-0.08973706;-0.03469471;0.020924387;-0.09510438;-0.03413945;-0.021135114;-0.044484194;-0.08523345;-0.060268328;0.02691501;-0.12156446;0.022040514;0.10026683;-0.0191397;0.015075567;0.03332516;0.05713328;0.1082424;-0.0013294369;-0.06551049;0.13871907;0.039054632;-0.06261373;-0.028031634;0.085146904;-0.064633936;-0.025853615;-0.104353406;-0.09386072;-0.048016924;0.003784185;0.038767133;-0.0024906453;-0.032580674;-0.046471965;-0.05901391;-0.05901277;-0.05198075;-0.0065564397;0.10501179;-0.058674112;-0.12416055;-0.12730518;-0.041627213;-0.070293866;-0.08082257;-0.07364005;-0.046143398;-0.055800512;-0.05183828;0.043999966;-0.11278618;0.02335813;0.04583923;-0.052210577;-0.026216386;-0.084247656;-0.024518928;0.036918387;-0.058647227;0.05790618;-0.02728759;0.096404634;-0.009536491;-0.056914445;-0.07649502;-0.1305635;-0.05125439;-0.039296895;-0.049395923;-0.08364571;0.082508706;0.14880963;0.018445387;-0.15979804;-0.096884236;0.06760864;0.00085707015;0.050257176;0.007774896;0.026342785;-0.015234114;0.030415876;-0.11259389;0.010676643;-0.02541251;-0.052841175;-0.032172605;-0.07484344;-0.0421914;-0.10813395;-0.012895619;0.054259375;-0.08219086;0.010937176;0.0041511296;0.015815185;-0.14040582;0.023745393;-0.03787361;-0.06463346;-0.027357709;-0.056235105;-0.0073164175;-0.014797069;-0.07224218;-0.067795604;0.00933188;-0.084037796;0.017969599;-0.06101053;-0.031163162;-0.1153008;-0.10590614;-0.11281311;-0.092322744;0.05299125;0.0052339793;0.07786712;-0.19065095;-0.063237906;0.008040857;-0.026558472;-0.012450305;-0.00817481;0.024766536;-0.11148172;-0.05342221;0.11981399;0.067012854;-0.113717616;-0.06245214;-0.103399254;-0.0779762;0.055324666;0.008823201;-0.03186617;-0.0025017431;0.15546793;1.30800445e-05;-0.07459256;-0.0022091682;-0.037904806;-0.0638954;-0.051498417;-0.021043269;0.041877396;0.019341359;-0.058614895;-0.08389882;-0.010111033;-0.0020598911;-0.08368991;0.045803033;-0.07411978;-0.06981292;-0.047742873;-0.0651355;-0.036836512;-0.080818966;0.14902645;0.026602957;0.024237297;0.011823289;-0.029582085;-0.03924349;-0.10565485;-0.033251822;0.024286766;-0.07364403;-0.012979729;-0.114675;0.032439318;-0.081230745;-0.061079238;-0.026018064;-0.10109413;-0.0012113677;0.030996831;0.015310281;-0.02903794;-0.1576665;-0.09323471;-0.02633731;0.034505382;-0.107942246;0.026700187;-0.032602917;-0.143671;-0.12339855;0.05358366;-0.005674833;0.004442967;0.03094626;-0.02862067;-0.032420777;-0.10004463;0.09396179;-0.0559548;-0.05352656;-0.07471651;-0.083410256;-0.108602196;-0.10135982;-0.0065392065;-0.08360235;-0.04289072;0.035872694;-0.1082295;0.03215377;0.0067744534;-0.14725077;-0.0049340334;-0.07222199;-0.1550146;-0.04375714;-0.18735346;-0.0015508261;-0.21247719;-0.0057841726;0.030249024;-0.10263184;-0.052358575;-0.01980042;-0.10916114;-0.23267445;-0.0111992275;0.06023043;-0.14998472;0.1156432;0.09815828;0.051862266;-0.008882622;-0.108451255;-0.07961024;-0.0006977389;-0.041928604;0.037399262;-0.041222576;0.018823871;-0.062827;0.051456112;-0.003352746;0.15525052;0.006357189;0.064051494;-0.05190934;-0.026895078;0.066720285;-0.053963777;0.004503562;-0.065808505;0.022579;-0.061748467;-0.095297076;-0.14767754;-0.22046657;-0.075655;0.010301291;-0.12478087;0.024926431;0.035674367;-0.11716022;-0.038469166;-0.08722674;0.007978853;-0.10723481;0.1751112;-0.03172904;0.01852804;-0.093477964;-0.066135995;-0.037798967;0.16002484;-0.100651786;-0.07587968;0.011003289;-0.14626977;0.033223752;-0.042795435;-0.10114038;-0.05155543;-0.20311396;0.062757604;0.04025784;-0.023284787;-0.00845081;-0.09779413;-0.0139457695;-0.08904795;-0.11176551;-0.029351657;0.094368;0.02517932;-0.056741502;0.106668085;-0.14170793;-0.042907897;-0.10653172;-0.02579273;-0.08999768;-0.122543454;0.005576516;0.03138825;-0.107106246;-0.077607825;-0.02262238;-0.0900267;0.0006950487;0.03798743;0.059196405;-0.19922383;-0.0019777198;-0.06673267;-0.08018724;-0.04043334;0.00056379027;0.058124147;-0.03040744;-0.019677326;0.05247366;-0.047942035;-0.029641263;-0.08833823;-0.053393148;-0.09512914;-0.113840684;-0.114600465;0.04890574;-0.06759611;0.037839454;-0.016595708;-0.0592685;-0.11600343;-0.026710799;-0.0027494505;-0.029099884;0.037111875;-0.024610348;0.0051289946;-0.019658748;-0.054171924;-0.08694468;-0.030130574;0.034159698;-0.02721709;-0.03193011
0.043842662;-0.08985283;0.02719236;-0.075899854;-0.09596654;-0.120780215;-0.055146184;0.038313087;-0.07157351;-0.06847275;0.010739218;0.07102527;0.04074361;0.023153745;0.008520475;0.0067234063;0.09206029;-0.04130358;0.09299915;0.06382465;0.001854372;0.020679155;-0.09105127;-0.13411328;-0.058775634;-0.074357584;0.0041883597;-0.121351495;-0.04479757;0.02585875;-0.15863675;-0.033043582;-0.057210285;0.022727609;-0.016040625;0.03852663;-0.07422858;0.049585223;0.013244872;-0.0635348;-0.03542885;-0.08731283;-0.057644136;0.0016796322;-0.08499036;-0.102756426;-0.031082135;-0.09442771;-0.0784681;-0.11341752;-0.11587812;0.023404423;0.05817529;-0.030461226;0.057424024;-0.11846497;0.07659431;-0.2301351;-0.012886729;-0.11117346;-0.09001333;-0.09484892;-0.08243987;0.049297176;-0.034288887;-0.03632611;-0.0154667795;0.017554965;-0.030426228;-0.09272852;-0.01106936;-0.0030057628;0.002212242;-0.042319786;0.0010419352;0.18685567;-0.07231263;0.00298063;-0.11524021;-0.06797427;-0.11297804;-0.13621756;-0.059312902;0.09924472;-0.16602318;0.018285207;-0.15204872;-0.011257828;-0.09188466;-0.16871807;-0.059517168;-0.02560356;0.012546637;-0.08113003;0.016534753;0.05331573;-0.13377425;0.11193273;0.07608374;-0.025107505;0.018921595;-0.017472647;-0.010913532;0.02844602;-0.05880315;-0.06955361;-0.0497713;0.015220821;-0.023850003;0.00023016268;-0.0025398002;0.029530296;-0.1993278;-0.10498115;-0.07594061;-0.013234482;0.041367263;-0.110907905;-0.092727646;-0.0075670234;-0.09906702;-0.08870887;-0.14570554;-0.017658798;-0.009731302;-0.024433227;-0.04533707;-0.014378676;-0.0769643;-0.021140324;-0.036101256;-0.018514734;0.007918368;0.028405657;-0.09375784;0.011447889;-0.030923657;-0.028160224;-0.051579054;-0.09877935;0.02608119;0.016854452;0.035617158;0.067108385;-0.049035218;-0.07418616;-0.16993462;-0.061655648;-0.033972558;-0.02658834;-0.05947529;-0.086070076;-0.03623862;-0.1170258;-0.21944737;-0.11050135;0.01481626;0.037004232;-0.042383768;-0.044690605;-0.009647594;0.011388983;-0.1039573;-0.10234173;0.0006973511;0.05779788;-0.06542469;-0.0015233214;-0.19543983;-0.024833562;-0.057805933;-0.026740875;0.032483142;-0.10275008;0.028331649;-0.012883441;-0.08108956;-0.137285;0.03407045;-0.024007797;-0.006388157;-0.07546068;0.077238835;-0.15061638;-0.00044317698;-0.0428092;-0.0330726;-0.04701367;-0.03292026;-0.073896825;-0.083040886;-0.067535445;-0.010521528;0.028204342;-0.056557607;0.016089521;-0.15790112;-0.027954742;-0.03162685;-0.057269778;-0.007856772;-0.093908645;-0.10796124;-0.061287135;-0.026873888;-0.014242915;-0.07960058;0.034663595;-0.03532371;-0.026105171;0.030888626;-0.10019482;-0.0014664406;-0.01616803;0.018024389;0.044512473;-0.04009392;0.051336616;-0.08274929;-0.062292404;-0.053417824;0.0106814215;-0.028544165;-0.042978603;0.044743113;-0.055941768;-0.02478138;0.0069154426;0.029827358;0.008845279;-0.11651934;-0.01529864;-0.039108954;-0.009961158;-0.03420425;-0.06176469;-0.06282514;-0.025323998;-0.09845717;-0.10785286;-0.08959638;-0.017586531;-0.031977497;-0.011534027;0.036904816;0.037024308;0.040051524;-0.02652371;-0.10268703;0.11748694;-0.09129692;-0.022576977;0.07516077;0.070403695;0.0520756;-0.03977476;-0.009550966;-0.18309578;-0.11805482;-0.052554287;-0.08001136;0.058004647;-0.08640759;-0.0882197;-0.09238433;0.05721395;0.04942155;-0.09155227;0.00073015556;-0.10506545;-0.16740952;-0.10274506;0.0417397;-0.044339918;0.008342578;0.013874539;0.0031621696;-0.042357333;0.008046209;-0.010633271;-0.15669262;-0.054746572;-0.010612036;0.0218431;-0.016100504;-0.0130528435;-0.059084486;-0.04841905;-0.1169364;-0.045609158;0.04863148;0.08043254;-0.08184847;0.0062148515;-0.023942633;-0.13628164;-0.0050102677;-0.085544266;0.016479522;-0.026722142;0.13499641;0.14461344;0.00893916;-0.1386711;-0.17079286;-0.012435151;-0.08334358;0.012350018;-0.037585717;-0.061376914;0.027776804;-0.078956746;-0.036750432;-0.05528904;0.031458903;-0.025941616;-0.07746877;-0.012594457;-0.036036953;-0.13220775;-0.101788044;-0.008231175;-0.06585988;0.031957466;-0.086020164;-0.05893093;-0.19814496;-0.014663022;-0.00808402;0.020025274;0.021187862;-0.04561138;-0.11250677;-0.06601266;0.034116462;-0.07407754;0.07911526;0.04764476;-0.10174396;-0.102167256;0.012254305;0.024089247;-0.029388987;-0.13896206;0.011234316;-0.06448971;0.005262321;0.059891336;-0.279809;-0.010537448;0.065229185;-0.07956862;-0.048160154;0.00010963482;-0.0722243;-0.036660127;-0.095619746;0.057676475;-0.016604884;-0.060386337;0.008667658;-0.04448396;-0.08301189;-0.05614496;-0.054744087;0.037293762;-0.043330695;0.13680427;-0.14771283;-0.021036565;-0.11491794;-0.12749186;-0.082883164;0.07582275;0.017541442;-0.07878578;-0.08716196;-0.040161185;0.01271512;0.06801326;-0.00312785;0.005625099;-0.10567137;-0.16803142;0.03603182;-0.07853346;-0.024172062;-0.10427077;-0.016536962;0.11219691;-0.10792172;-0.032960784;0.003128278;-0.11043521;-0.067963846;-0.1456093;0.0024690765;-0.0061478256;-0.043045696;0.023244668;-0.017154638;-0.10593337;-0.10050195;-0.041890033;-0.065329485;-0.1096878;-0.035694275;-0.0882663;-0.054221682;0.10860839;-0.06785043;-0.111391574;-0.044227637;-0.054567937;-0.023009095;0.021034122;-0.109458975;-0.026740886;-0.079127826;-0.051627204;-0.028744059;-0.04161556;0.018415213;-0.024172295;-0.16693425;-0.067227885;0.114551224;0.024500692;0.013872292;-0.011077347;-0.06576606;-0.10010103;-0.0667158;-0.029133432;-0.030997826;0.025598425;-0.0046856375;0.04333752;0.031510863;-0.11367638;-0.110368185;-0.0011152339;0.0395932;-0.095542334;-0.046825398;-0.20813073;0.052199;-0.12889789;-0.1794663;-0.09945922;-0.10036621;0.066652;-0.08703777;-0.081050605;-0.1477241;-0.0021019229;-0.06276354;-0.11138891;-0.0016910488;-0.026105553;-0.01915218;-0.12299186;-0.028591469;-0.08065738;0.02198368;0.042345226;0.12763143;-0.039089754;-0.03460764;-0.04367983;0.023050068;-0.015594223;0.08571867;-0.10256203;0.10003433;-0.09986536;0.0028922206;0.01411322;-0.10213005;0.014120265;-0.123568535;-0.004489298;-0.08098236;-0.06509971;-0.10246324;-0.23326427;0.01787248;-0.017075934;-0.08819921;-0.09003261;-0.026142191;-0.024599329;0.041393273;0.02416132;-0.09384939;-0.018317757;0.069778554;0.022895895;-0.021257848;-0.006955711;-0.0702159;0.032984976;0.060639028;-0.0043459972;-0.048085384;0.0038766796;-0.0006090506;0.023321679;-0.04305946;0.02041628;-0.14962457;-0.123581074;0.030069593;0.040884644;-0.116321586;-0.017089939;-0.021590848;0.012594685;-0.12769462;-0.10323992;0.012661702;0.16629657;0.059260074;-0.083472334;0.10551921;-0.14121518;0.001666269;-0.006895334;-0.051068284;0.06505684;-0.013101393;0.030224334;0.13802026;-0.24484864;-0.013699454;0.0016897967;0.033156883;-0.11047017;-0.07895209;0.05242211;-0.29349577;0.018475737;-0.09846256;-0.0065448442;-0.025712218;-0.07590658;-0.08643486;-0.08293612;-0.08672877;0.038279295;-0.17247231;-0.085527085;0.0066642556;-0.08231235;-0.05360854;-0.07544729;-0.043331753;0.012130476;-0.06660108;-0.100067936;-0.06420799;0.003660636;-0.13183862;-0.07105827;-0.07792429;0.0052650278;0.015540109;0.01693744;-0.020192739;0.03599942;-0.0845486;-0.008748729;-0.08558577;-0.04974636;-0.016287828;-0.109769516
0.006353359;-0.0058052046;-0.019169968;0.0058288937;-2.2670947e-05;-0.053063285;-0.17591305;0.037291788;0.03776273;0.054697737;0.027462939;0.08427587;0.05800795;-0.046140067;0.035195343;0.047025464;0.051907737;0.025116047;0.092842095;0.01392554;0.051626306;-0.026914204;-0.020976925;-0.13873938;0.0061046216;0.0012496826;-0.100071125;-0.12900056;-0.009100402;0.035243463;-0.123233825;-0.0450288;-0.14747486;-0.10026778;-0.021922879;0.010463196;0.012906509;0.1311339;0.013858411;-0.025890633;-0.059090205;-0.08910069;-0.023265556;-0.102140985;-0.055730328;0.010574483;-0.093815744;-0.021770667;0.010002481;-0.039074823;0.01360075;-0.092662975;0.04470772;0.043599725;-0.04401025;-0.100268;0.037550423;-0.2321617;-0.014065556;-0.089693576;-0.07674728;-0.20497867;-0.0282379;0.048697505;-0.025301682;-0.14041169;-0.110861726;-0.010095644;-0.117421955;0.056009337;0.029208552;-0.053592056;0.063872896;-0.042889167;-0.041874718;0.19956829;-0.044792086;0.092008606;-0.041217342;-0.105080284;-0.008398618;-0.0885679;-0.0115504395;-0.044977058;-0.14246203;-0.02174185;-0.083452396;-0.062841125;-0.08954052;-0.075943366;0.011947891;-0.071054265;-0.053397264;0.048566062;0.0636675;0.059353553;-0.1168623;0.1602296;0.03220006;0.010428246;0.027349308;0.027013233;0.0016018796;0.058834497;-0.0155400075;0.02853129;0.025211092;-0.014346445;-0.041674346;-0.08445966;0.026774462;0.007483339;-0.20152809;-0.10421318;0.015491991;-0.1523491;-0.11603761;-1.9655126e-05;-0.041887727;-0.025849333;-0.094097026;-0.102879666;-0.011404514;-0.032603815;-0.023867914;-0.088741995;-0.005866573;-0.041714128;-0.16348498;-0.07040429;0.08981141;-0.04955769;-0.025787974;-0.05132113;-0.11216613;-0.06803983;-0.10965884;0.060174875;-0.12451641;-0.009525387;2.0601685e-05;0.025299242;-0.1028999;0.051556528;-0.08519156;-0.051869683;-0.06810017;-0.05362018;-0.060161494;-0.06386851;-0.06670331;-0.044838347;0.0456672;0.030705107;-0.12049576;0.0044392967;-0.025734479;-0.0074651483;-0.043416027;0.009326642;0.046300076;0.059741303;-0.08656775;-0.058905322;-0.09848216;-0.017797586;-0.13612227;-0.023837708;-0.1138672;0.03617434;-0.0036343792;-0.04094765;-0.040445272;-0.08844709;-0.0073109805;-0.04608319;0.020139469;-0.04616613;0.020678353;-0.026364809;0.047397528;-0.05854897;0.042210333;-0.11490748;0.05497035;-0.014174644;-0.04945169;0.017728543;-0.05655338;-0.059148084;-0.04897555;-0.13778791;-0.027786689;0.028942626;-0.079691365;-0.05923511;-0.11542598;-0.16789107;-0.12857568;-0.07743576;0.030194575;-0.11861507;-0.07356981;-0.025574584;-0.020079613;-0.03687346;-0.05619397;-0.07178781;-0.045370083;-0.0633527;-0.032575537;-0.03655591;0.033819564;-0.103953116;0.003544066;-0.054244235;-0.09625307;-0.009615415;-0.07551967;-0.04118448;-0.029688533;0.0016986053;0.098399565;-0.07708826;0.0071488502;-0.1315765;-0.058470055;0.12629884;-0.03075453;-0.046390582;0.0355413;-0.007050925;-0.058934715;0.0093227755;-0.035852548;0.0035656411;-0.0428676;-0.05326261;-0.028266579;-0.14021981;0.021237956;-0.016381897;-0.052916262;-0.062379252;-0.068131134;-0.0985804;0.08399078;0.05180242;-0.031359404;0.060795974;-0.071317784;-0.020792536;0.012649616;0.09194687;-0.048068013;-0.083732866;-0.041278385;-0.039861966;-0.0055036927;-0.004145682;0.008063227;0.040995646;0.015291391;-0.062480427;0.049147476;0.059752926;-0.020642245;0.028420625;-0.026608003;-0.05773075;-0.09067213;-0.1582361;-0.12291724;-0.022508798;-0.08493271;0.00852659;-0.09591542;-0.042273927;0.015786827;-0.043455888;-0.07995575;0.010685424;-0.04820269;-0.0030028808;-0.039904047;-0.15100887;-0.12047899;0.0146634625;0.032580517;-0.0022499063;-0.0883471;-0.059111595;-0.05188478;-0.048597906;-0.14481463;-0.044140827;-0.037679777;-0.07830698;0.04583005;-0.015863925;0.17166865;0.12812525;-0.015082052;-0.1394229;-0.20829214;0.086062126;-0.12402616;0.027551213;0.024812795;-0.1114303;-0.036857914;-0.07350061;-0.085265785;0.010869474;-0.01535861;-0.03505512;-0.15201439;-0.029084945;0.0144597255;-0.20351045;-0.03767252;0.089144565;-0.093701966;0.0002893313;-0.029143166;0.034992956;-0.16444193;-0.002947488;-0.04594008;-0.0053140544;-0.030258652;-0.033437956;-0.048857126;-0.14063327;-0.0068997964;-0.13466297;0.12981404;-0.026966246;-0.04086805;-0.08634995;-0.017084515;-0.08455588;-0.006018126;-0.13178065;-0.030048855;0.021254092;-0.059153177;0.07254415;-0.22022462;-0.11737031;0.0647476;-0.05376417;-0.0076500103;0.04015264;-0.08852269;-0.044316296;-0.009041273;0.01990014;0.0412439;-0.041593146;-0.035869412;-0.012163;0.015510963;-0.017123295;-0.03832541;0.038850192;-0.081787206;0.197991;-0.11703482;-0.032847755;-0.14132649;-0.11318589;-0.048793413;0.09200081;0.03075885;0.049200878;0.06806684;-0.08538992;-0.024242582;-0.07273623;0.001465166;-0.03233489;-0.08772203;-0.014191776;-0.0685248;0.0062995986;-0.10623005;-0.019566443;-0.015479088;0.12085386;-0.0919608;-0.048408885;-0.11636241;-0.09590744;-0.010903626;-0.05021626;-0.08944914;0.051912084;0.00016496205;0.025357502;-0.11155602;-0.039911065;0.024739735;0.034012537;-0.08112515;-0.018045714;0.022931302;-0.07984463;-0.052442983;-0.041770704;-0.095200785;-0.045959033;0.022336043;-0.076301;0.01915256;-0.019564187;-0.008106069;-0.073678;-0.11694421;0.046230443;-0.05196321;-0.018051133;0.04487616;0.05286838;-0.15363143;-0.03382267;0.06457721;-0.026635427;-0.031736277;-0.0058111995;-0.06270611;-0.10920033;0.038914908;0.009031743;-0.095852174;-0.04640413;0.050924752;-0.017103527;-0.04089015;-0.052052878;-0.14868218;0.0469002;0.014813882;-0.039791096;-0.07338874;-0.19462642;0.05495582;-0.2103042;-0.102699816;-0.059777178;-0.054675993;-0.056053884;-0.00726755;-0.057415485;-0.15934716;-0.008988862;-0.086660996;-0.12318966;0.10818921;-0.002430254;0.026646756;-0.136624;0.03352272;-0.010652479;-0.041475933;-0.024078298;0.049588226;-0.008762127;-0.08413708;-0.13416116;0.010648749;-0.0024711273;0.104758;-0.10825094;0.06547599;-0.025497265;-0.06293078;0.053722553;-0.07782672;0.029336631;-0.14292012;-0.0057981494;-0.12561211;-0.026042426;-0.06736756;-0.15928258;-0.0313528;0.014796553;-0.02432819;-0.058013268;-0.02016574;-0.10103603;-0.04807041;-0.010238675;-0.080558084;-0.06401252;0.16874014;-0.07856622;-0.007503347;0.04132706;-0.082290486;-0.047112353;0.10226241;-0.10759736;-0.08659924;-0.08460148;-0.08606263;-0.042011246;-0.065825;-0.021018626;-0.022700766;-0.15107729;-0.009329918;-0.07015965;-0.11770702;0.0015325764;-0.106999815;0.055943787;-0.08878743;-0.0643216;-0.0052231755;0.1530178;0.05325387;-0.12379774;0.01745812;-0.16239479;0.047139034;-0.013741077;-0.007693858;0.04617341;-0.11617473;-0.015353548;0.16384839;-0.11320518;-0.037012096;-0.1263201;-0.01736687;0.053133573;-0.01704057;-0.024477888;-0.25311714;-0.07824277;-0.028289555;-0.022866739;0.029717432;-0.024314456;-0.040023226;0.03124153;-0.13414714;0.048334215;0.0003488293;0.010068255;-0.09988381;-0.07561117;0.032007676;-0.06304761;-0.040660467;-0.0096242735;-0.03346984;0.029637747;-0.097812764;-0.009879553;-0.12408863;0.0137025695;0.04775344;-0.047526207;-0.0039888723;0.023030112;0.030236501;0.04978709;0.013513357;-0.10804164;0.0074197436;-0.021077506;-0.09079988;0.014889071
0.015068093;-0.06954399;-0.11117875;-0.088249914;0.0055826316;-0.1155277;-0.0240568;0.020761687;-0.11396226;-0.08224681;-0.09616231;0.087265156;0.087597616;0.08400689;-0.05723908;-0.025870891;0.07842385;-0.048624847;0.08945357;-0.05900817;-0.07389638;0.0070751826;0.008382935;-0.09394274;-0.08916268;-0.05556793;-0.06337294;-0.2023592;0.027168203;0.11250347;-0.0819473;-0.046744335;-0.09561155;0.008138782;0.05597149;-0.07537297;0.029516106;0.12432132;-0.049541216;-0.040838502;-0.09621102;-0.06199441;-0.08028696;-0.10805446;-0.03462156;-0.049541015;-0.11033171;0.022887435;-0.06544959;-0.15775083;-0.10668911;0.01991683;0.03177268;0.0028190173;0.046648677;-0.021790393;0.045239814;-0.1497096;0.051134776;-0.024621613;-0.090262815;-0.23129585;0.007436932;-0.04949807;-0.04954175;-0.049014173;-0.049362894;0.06250617;-0.060924843;0.035556987;-0.00070029654;-0.10050059;-0.06806065;-0.04468693;0.0064429264;0.07083589;-0.07348046;-0.035320964;-0.028852927;-0.124733455;-0.0072079785;-0.17602369;-0.056134976;-0.04138435;-0.13727316;-0.0885876;-0.1497449;-0.10093782;0.010796615;-0.12296669;-0.08728304;0.0199733;-0.107139766;-0.08865251;0.022137657;-0.05007789;-0.26175824;0.10308456;-0.0025577345;-0.039381776;-0.09857874;0.031952646;0.018372603;0.058815885;-0.06479549;0.02194414;-0.0021295915;-0.022520166;-0.05849135;-0.028555451;-0.060614005;-0.108450204;-0.15638678;-0.09977883;-0.11592798;-0.11425436;-0.033822685;-0.030751875;-0.10561554;-0.00047774098;0.059542842;-0.0656234;-0.055093266;0.05223666;0.0036471817;-0.12820168;0.049034502;0.041811418;-0.12364256;-0.04987125;0.07715665;-0.004827408;0.036453534;0.0350156;-0.099686354;-0.027769893;-0.10774943;-0.042515825;-0.16401775;-0.16139679;0.014985584;0.03890839;0.066424705;0.046042357;-0.070946276;0.04039199;-0.060178354;-0.04155543;-0.12092575;-0.05294211;-0.06273085;0.035782736;-0.022460531;-0.021826632;-0.14275211;0.014928448;-0.09170931;-0.053652737;0.0049794056;0.0006300977;-0.011472595;0.031903412;0.045979027;-0.15388007;-0.09843969;0.010782186;-0.10084233;-0.09926208;-0.18444325;-0.09074156;-0.06272275;-0.09703122;0.039903663;-0.01559543;-0.029901221;-0.120776124;-0.071212605;-0.08582448;0.02322602;-0.00010451027;0.037271697;-0.10091262;-0.00812638;-0.052126974;-0.036868755;0.0001336479;-0.0033019246;-0.0480745;-0.08287621;-0.038611945;-0.024679981;-0.076909095;-0.046018798;0.049311712;-0.04699195;-0.059412215;-0.102668874;-0.14637321;-0.1158338;-0.0738318;-0.0768029;-0.13089281;-0.014629941;0.045718648;-0.053925876;-0.10894636;-0.11520419;0.059911165;-0.09779048;-0.020945607;0.03281777;-0.04350146;-0.12425707;-0.020002443;-0.040117223;0.0013027855;-0.1258367;0.07405183;-0.011812106;-0.044486452;-0.1514501;0.031254634;-0.0048462935;0.04612045;0.057152156;-0.04754108;0.020662542;-0.005584068;0.0065036784;0.018983318;-0.110587;-0.018794755;-0.061564744;-0.06308462;-0.015994163;-0.044147484;-0.01063161;-0.0585931;-0.0849528;-0.08930359;-0.074791335;-0.04788881;-0.06512069;-0.059148237;-0.092981815;-0.0013775832;-0.009002918;-0.08721631;0.031185996;0.14755642;-0.07183598;0.051134463;0.05552719;0.0659439;-0.052860096;-0.07705061;-0.13541894;-0.09298054;0.01302571;-0.051574863;-0.11001769;0.075402305;0.011489643;-0.10139938;-0.06981398;-0.0911848;0.06322304;-0.011122466;-0.009328862;-0.10277261;-0.06924669;-0.082505725;-0.09259567;-0.051488083;-0.01625908;0.019671565;-0.04450523;-0.051275928;-0.10087999;-0.0592445;-0.07813083;-0.05056928;0.06191892;-0.0501745;0.012745774;-0.002725339;-0.14750648;-0.039183207;-0.08381748;0.048969477;0.014843583;-0.045433585;-0.09097864;-0.057921216;-0.004233694;0.017745284;0.04828763;-0.08632919;-0.043241348;0.010281203;0.11871801;0.07379864;-0.09256004;-0.122458786;-0.09352312;0.023960201;-0.03657074;-0.066402726;0.04903375;-0.04167831;0.018326038;0.015176464;-0.02976084;-0.11857199;-0.11561344;-0.06212141;-0.13563289;-0.0051204846;-0.056721676;-0.1145122;0.04085059;0.057703186;-0.0074152295;-0.044811364;-0.15290147;0.0052050273;-0.068587;-0.048310217;-0.0154386;-0.10324166;0.022646457;0.030679222;0.030307127;-0.06204225;-0.09649923;-0.02241262;0.15124062;0.06077926;-0.06289242;-0.0737228;0.01716722;-0.08543713;-0.061437573;-0.024266083;-0.059105285;-0.035305783;-0.016674466;-0.033336453;-0.22929215;-0.048595216;-0.08388497;0.06352656;-0.10911013;-0.047308654;-0.04578575;-0.06314689;-0.13501738;0.058622174;0.0938561;-0.07501675;-0.08931997;-0.05206801;-0.0835404;-0.033340394;0.040146552;-0.07905923;-0.09389968;0.16567016;-0.013172045;-0.061635297;-0.13505359;-0.10958195;-0.030028157;-0.015155;-0.015085188;-0.08938022;0.06066915;-0.023044333;-0.049527157;-0.0036086547;-0.03160899;-0.052158255;-0.023678549;-0.025466587;-0.04150337;-0.07985882;-0.10581424;-0.08086862;0.07050298;0.09573927;-0.08782594;-0.034169205;-0.06898417;0.038728885;-0.02504727;-0.10778336;-0.046547826;-0.019985445;-0.007016075;0.033652894;-0.12165233;-0.024810016;-0.03397362;-0.07674653;-0.004682369;-0.08951371;-0.083053626;0.025949042;0.0074304366;0.09572849;-0.15756962;-0.070632294;-0.015476263;0.04993862;-0.015061057;-0.07059006;-0.1122981;-0.05117717;-0.07994736;-0.08137483;-0.023725683;0.00830591;-0.0124761015;0.023592673;-0.08251596;-0.076987974;0.045484062;-0.036283225;-0.065157905;0.0494973;-0.0574154;-0.08381854;-0.035178535;-0.05353384;-0.046670947;-0.0012650407;-0.0037341537;-0.02651384;0.03400998;-0.00614779;-0.08728826;0.07227542;0.061601818;-0.1670527;0.011565508;-0.15572166;0.052252084;-0.122781746;-0.052271772;0.034439698;-0.03244041;-0.06984033;-0.038378105;0.026061159;-0.14419499;-0.024391247;0.02781909;-0.1577521;0.13423203;0.06842919;0.033682033;-0.030280506;-0.09613456;0.039817177;-0.006777071;-0.033571746;0.015428581;0.0013565628;0.02512438;-0.09262294;-0.062119354;0.06261076;0.13406366;0.012311722;0.07005063;0.05601537;-0.0459264;0.02569673;-0.054455683;-0.01668516;-0.12047376;-0.0523079;-0.109221265;-0.10798489;-0.14386056;-0.10990081;-0.09837516;-0.06034541;-0.08249227;0.003054463;-0.05582106;-0.006259203;0.04860652;-0.08913905;-0.07509784;0.015016654;0.17469575;-0.087713204;0.005900089;-0.05037146;-0.050850056;-0.04180301;0.12229985;-0.044325653;-0.10685556;-0.079926744;-0.101135105;0.019212356;-0.045567367;-0.08717486;-0.00802942;-0.14991438;0.052660488;-0.05816216;-0.11405249;-0.021218596;-0.011666366;-0.030733308;-0.10153651;-0.03386856;-0.0026906254;0.19774044;-0.038499694;-0.030877065;0.017366543;-0.12098877;-0.094251044;0.05385371;-0.028119903;0.045724235;-0.13113037;-0.02552463;0.05263486;-0.19996545;-0.033727657;-0.09539433;-0.02945939;-0.010370664;0.00042695197;0.005583639;-0.30940488;0.0053109936;-0.052330617;-0.16604544;0.07439735;-0.10716184;0.028299872;-0.03847347;-0.09827172;-0.0041500684;-0.06847431;0.028335726;0.005288226;0.031350285;-0.020874124;0.0022689095;-0.062234595;0.013610371;-0.05081958;-0.046543404;-0.10218871;-0.06940062;-0.158151;-0.04922632;0.019635396;0.054451656;-0.048571832;0.006896723;-0.042366978;0.050834592;-0.03737161;-0.02029435;-0.05491847;-0.033657413;-0.05574542;-0.02204052
-0.04454433;-0.0009845276;-0.009706623;-0.10840026;-0.044284925;-0.063765004;-0.13730262;-0.08409733;-0.026760869;0.043794658;-0.03642126;0.020789376;-0.08582381;0.09836494;0.018403305;0.060619816;-0.015417339;-0.04194545;-0.0471235;0.019096892;0.028552014;-0.1034297;0.034431636;0.024162227;-0.09891963;-0.005031777;-0.11939036;-0.15348376;0.020177089;0.10038256;-0.12966166;0.026356593;-0.051331468;0.053592477;-0.022855928;0.0062007634;-0.051277976;0.12298573;-0.060083114;-0.17448331;-0.04583696;-0.019423034;0.043746885;0.022064533;-0.014954005;-0.11489697;-0.042380758;0.006318026;0.020487178;-0.03292634;0.06320865;-0.091675855;0.03317219;-0.054066557;-0.05725074;-0.027452363;0.05082644;-0.20862703;-0.052605987;0.035931963;0.008347297;-0.26535097;-0.09303079;0.009580729;-0.020144643;-0.06567371;-0.032029983;0.0022117195;-0.12910663;-0.1077276;-0.020600626;-0.024873747;0.046278864;-0.101793244;-0.074946314;0.123510994;-0.050258752;0.023403272;-0.064802244;-0.1751953;-0.07028899;-0.07218974;0.03373991;0.005934057;-0.16889302;-0.0064465944;-0.0102489935;0.012537711;-0.08101966;-0.1673346;-0.04394366;-0.15842046;-0.0038673847;-0.039597906;0.05581262;-0.09562173;-0.114979416;0.18776812;0.06725699;-0.08013062;-0.04453555;-0.01417428;-0.008856734;0.06310614;-0.08941406;-0.0850809;-0.03719362;-0.10641418;-0.035367418;0.017526595;-0.022726746;0.01018117;-0.1687949;0.033961874;-0.010512212;-0.11035649;-0.0524154;-0.0301099;0.042814042;0.0063889497;-0.10079447;-0.03876046;-0.0150639955;-0.0141843455;-0.0375641;-0.009958827;-0.040200107;-0.032152086;-0.12554838;-0.048321433;0.003064732;-0.039309725;-0.07791289;-0.019072328;-0.15041207;-0.06127903;-0.11274231;0.07647775;-0.24718006;-0.105613716;-0.08273031;-0.015514828;-0.04384893;0.1429553;0.0021397353;0.004220594;-0.047134113;-0.12650904;-0.05377516;-0.048211645;-0.1375074;-0.04455981;-0.07546603;0.018812817;-0.18611795;-0.09089265;0.029786782;0.08906011;-0.04128249;0.08167243;-0.0032039136;0.08857244;-0.021267164;-0.16706312;-0.042893026;0.07213274;-0.05049801;0.03979262;-0.13205788;-0.028555153;-0.024512459;0.002535882;-0.016874745;-0.0030541515;-0.032108612;-0.043677416;-0.09194557;-0.16807668;-0.0047316295;-0.0584301;0.014105465;0.015315728;0.02001059;-0.06747656;-0.017994458;0.051224507;-0.08224149;0.018632332;-0.031222716;0.015112182;-0.067321315;-0.0075310487;-0.10335795;0.0008781216;-0.07532657;-0.013315723;-0.050394155;-0.1355872;-0.15775363;-0.03925225;-0.063134626;-0.101350375;0.0026886142;-0.017125037;-0.11485621;-0.00475265;-0.074138924;-0.046722807;-0.014479489;-0.0864321;-0.009395544;-0.05234998;-0.015461521;-0.023379266;-0.11164214;0.038436748;-0.11441184;0.064373545;0.048058424;-0.09468997;-0.05312306;-0.0952355;-0.03367526;0.07695851;-0.04588009;-0.17495003;-0.05557551;0.07922973;-0.040016204;-0.12094136;-0.015459976;0.009876111;-0.102918044;-0.10108041;0.061482582;-0.08835531;0.051236697;-0.028661346;0.04158239;-0.089872435;0.037060566;0.06452129;-0.11696487;-0.12053244;0.037077185;-0.04599392;0.0656503;0.039223604;0.028403113;0.12838441;0.017814327;-0.013063191;0.034361284;0.1381787;-0.11216914;0.045759983;-0.13208409;-0.12837274;0.029200003;0.07598624;-0.03776985;-0.033676397;-0.070583366;0.029538274;-0.03995663;0.06115423;-0.018645218;-0.04753766;0.0657731;0.0027875695;-0.16487172;-0.1252018;-0.07481095;-0.02788389;0.05670237;0.012448897;-0.04279585;-0.043440275;-0.08503509;-0.0661468;-0.14086497;0.036157526;-0.08708358;-0.1081526;-0.028645383;-0.03254838;-0.16056572;-0.123059824;0.031439375;-0.109075256;-0.028407708;0.0077348426;-0.055924434;-0.06280385;-0.093637615;-0.025779936;0.022848597;-0.079033636;-0.023921594;-0.06479327;0.19935359;-0.0029791393;0.022424016;-0.073297955;-0.09402805;-0.028438766;-0.05755288;0.072085544;-0.039719872;-0.11730472;-0.076480225;-0.027735295;0.013632734;0.0022711637;-0.021459267;-0.036696658;-0.022475883;-0.012417499;-0.019831577;-0.19750841;0.057709083;0.012312819;0.006799943;0.018004198;-0.10764587;-0.022157708;-0.1371296;-0.0494429;-0.09487486;-0.1240249;0.021586549;-0.032752123;-0.11980059;-0.16406983;0.012071235;-0.034824364;0.08473674;0.0006696238;0.043702245;-0.05649701;0.03632178;-0.06345741;-0.06567207;-0.092353694;-0.08112852;0.051155478;0.018102938;0.065560676;-0.24061285;0.003140798;0.005703704;0.014185516;-0.10638765;-0.056423564;-0.073816076;-0.13979827;-0.04345093;0.073139526;0.08808793;0.019887015;-0.16162196;-0.04692275;0.016529957;-0.09426838;0.029920688;0.023567542;0.02201683;0.0985033;-0.1301774;-0.007091189;-0.0073676175;-0.20071745;-0.10102616;0.013219514;-0.017637206;0.03196598;-0.06645576;-0.066413395;-0.020055814;-0.08771781;-0.058217216;-0.1009451;0.026976032;-0.09119653;-0.114207335;0.044661164;-0.0035490924;-0.099098;0.013360957;0.13182859;0.015465428;0.019950049;0.016577963;-0.11051158;-0.11754771;-0.14881107;0.060935233;0.009788104;0.018829009;-0.009292821;-0.013355626;-0.039047893;-0.027826963;0.022031996;0.039411522;-0.0008987883;-0.024276134;-0.072495095;-0.02176284;-0.021985633;-0.10262189;-0.18116869;-0.09124739;0.0073340246;-0.11294926;-0.0031472214;0.018508619;-0.12450962;-0.07417613;0.026803859;-0.05925393;0.013620842;-0.0748262;-0.076939605;-0.1853847;-0.047585692;0.11994868;0.015926683;-0.11740873;-0.04941018;-0.019628277;-0.055479232;-0.104131;-0.15119292;-0.096145846;-0.08381618;-0.015790392;-0.08261632;0.005794354;-0.09666171;-0.1040539;0.06455119;0.08762403;-0.08017018;-0.12298499;-0.20108126;0.01607879;-0.20206746;-0.05902324;-0.0018158209;0.024745408;-0.05968245;0.027838077;0.009498076;-0.24499084;-0.03552372;0.01985701;-0.19555733;0.059439924;0.027597811;-0.067288175;-0.067129016;-0.05993017;-0.024332741;-0.09214133;0.0041041663;0.09692537;-0.019660508;-0.08166622;-0.12654892;-0.00075461325;0.009699808;0.017888501;-0.054738868;0.106990926;-0.051189486;-0.0009422457;0.03827201;-0.06657748;-0.100501776;-0.1297679;-0.04517803;-0.20637988;-0.060091775;-0.15746585;-0.13204797;0.023817385;-0.046688393;-0.11600516;0.038421538;-0.040888224;-0.032088928;0.0015040644;-0.12280253;-0.022483291;-0.06396606;0.21269272;-0.009501911;-0.0058619627;-0.060048066;-0.054068144;-0.08349872;0.077103585;-0.10279453;-0.03771456;0.025631757;-0.0061366567;-0.12389481;0.07292141;-0.053711254;-0.021824209;-0.15375103;-0.10865936;-0.02631684;0.0044296244;-0.098298185;0.023605248;0.0259379;-0.031243902;-0.08796683;-0.03648177;0.18017115;0.021534348;0.007495682;0.14311698;-0.09933974;0.053032517;-0.09576584;0.020456683;-0.070911616;-0.13338837;0.050215527;0.12928408;-0.1934882;-0.054803684;0.009043275;-0.03228919;-0.058303304;0.02725185;-0.06013459;-0.18332678;-0.025325328;0.030557306;-0.044339586;0.12151871;0.009891921;-0.034594826;-0.067212336;-0.14264096;-0.071680404;-0.14708364;-0.020742133;-0.07145074;-0.021575665;-0.08821143;0.04680318;-0.03018018;0.04465718;-0.062302675;0.0058297855;-0.1419264;-0.053445853;-0.15882522;-0.055801563;-0.058373462;-0.058599614;-0.006770483;0.022053208;-0.10611052;-0.094085194;0.012005418;0.025670242;-0.030078316;-0.04952085;-0.12239841;0.05095587
-0.058197163;-0.079046585;-0.03379228;-0.12832661;0.034827843;-0.10206839;-0.16946541;-0.0877359;-0.020251486;0.011734348;-0.025901379;0.11511923;-0.03258313;0.07708093;-0.0058776797;0.08766057;-0.022710124;-0.108901925;0.0591557;-0.082875244;-0.052397657;-0.0154761495;0.008125942;-0.03636522;-0.088681504;-0.065758556;-0.104102485;-0.08885841;0.017911512;0.059848282;-0.14159112;0.0939262;-0.12921673;-0.060729697;0.031593293;0.004412648;0.07861177;-0.0056975633;-0.10142034;-0.027840659;0.014720527;-0.043479294;-0.025728598;-0.058683135;0.030696558;0.04599899;-0.0004182053;-0.04163412;-0.014655573;-0.06308732;0.0043692794;-0.08475748;0.0068043447;-0.01302992;-0.003547851;-0.117355734;0.10343471;-0.2238966;0.053062696;-0.053181883;-0.050236274;-0.23801918;-0.058297455;-0.047479674;-0.0267786;-0.121704124;-0.016423924;-0.047582116;-0.055623583;-0.09161397;-0.04523373;0.008444624;0.010485648;-0.107581384;0.023382967;0.22200479;-0.040409166;0.08119584;0.03751307;-0.13905458;-0.087936066;-0.14821458;0.015181057;-0.061254162;-0.20578651;-0.024806939;-0.14997356;-0.0466535;-0.092216335;-0.1538791;0.00308826;-0.14165126;-0.07246355;-0.042533033;-0.0037695796;-0.021103714;-0.19078626;0.10131639;-0.032851513;-0.014177454;-0.13082352;0.0012982701;0.073676564;0.026385942;-0.14560153;-0.123344876;-0.066088624;0.049854357;0.008869502;-0.029268626;0.009114927;-0.102986895;-0.20437397;-0.004619212;-0.098033234;-0.06856733;-0.103890195;-0.023585567;-0.09141352;0.062058795;-0.06482717;-0.0666964;-0.066920646;-0.04143255;-0.025775166;-0.039725643;-0.005083128;-0.08899099;-0.12983808;0.06938443;0.087433994;-0.017795153;-0.107419156;-0.048980065;-0.07162219;0.03199464;-0.09507284;-0.0019499345;-0.17918709;-0.1537819;-0.011786528;-0.06161338;-0.078968264;0.12393237;-0.027927233;0.04863753;-0.1960809;0.00914139;-0.11054777;-0.07419523;-0.09731394;-0.09778079;-0.060130846;-0.053303137;-0.12572388;-0.027182369;-0.034722406;0.006440507;-0.10046994;-0.0021437325;-0.089793935;0.07597273;0.0040318384;-0.14044178;0.013245025;0.073668525;-0.08340485;0.054470066;-0.21711804;0.0019283553;0.009471192;-0.14933768;-0.040517643;-0.015935933;-0.11833261;-0.12633829;-0.015796602;-0.01807987;-0.007477275;-0.06332165;0.07997785;-0.09161912;0.06372947;-0.051973257;0.056286253;0.10919537;-0.11815966;0.10987705;-0.07461621;0.05254576;-0.075553544;-0.13986236;-0.082201965;0.022607444;-0.07499551;-0.057678446;-0.093713954;-0.12642315;-0.16056548;0.01623256;-0.06759471;-0.0661652;0.005139955;-0.060936444;-0.08365321;-0.0064973156;-0.032232072;0.061588176;-0.015301101;-0.06450732;-0.01831366;0.035665967;-0.10788084;-0.09247243;0.016225941;-0.07876943;-0.14868964;-0.012274969;0.04373693;-0.09253752;-0.03740548;-0.023534022;0.017212987;-0.06261307;-0.057743028;-0.11130691;0.027041221;0.12164888;0.055430476;-0.09027944;0.0043934947;-0.108137354;-0.09391858;-0.096212596;-0.05793802;-0.030491369;-0.0725995;-0.05510088;0.003976414;-0.05262207;-0.10218761;0.03247666;0.008830164;-0.09104616;-0.101142004;0.0030860624;0.082015984;0.026057573;0.023514537;0.094277605;-0.0038886524;-0.07072655;0.00937701;0.002077662;0.009470415;-0.01642033;-0.05691764;-0.16459864;-0.035041157;0.030068902;-0.10449404;0.07561701;-0.114576146;-0.037619494;-0.004129291;0.032045893;0.05494284;-0.09518242;0.030978663;0.016225275;-0.16760926;-0.15288414;0.014606564;0.030980738;-0.0021141614;0.02732823;-0.09274549;-0.13616556;-0.09117049;-0.046387825;-0.17012413;0.01881332;-0.044354443;-0.047890455;-0.081186146;-0.05597341;-0.08139688;-0.062607236;-0.09782364;-0.014990506;-0.0492575;0.012799;0.026748981;-0.062783234;-0.001301461;-0.061104838;-0.08105476;-0.08738477;-0.09707093;0.005739091;0.24346629;0.06170891;-0.028971648;-0.07001742;-0.18390381;0.057192132;-0.00408682;-0.028029418;0.022087604;-0.07471206;0.048068717;-0.113048784;0.0074167303;-0.093370266;-0.11129607;0.0042698677;-0.060446847;0.041867994;-0.058466945;-0.17785905;-0.07969832;-0.0015597249;0.03927334;-0.03452395;-0.02134281;-0.031229954;-0.2193309;-0.10970645;-0.0059354864;-0.07270292;0.0262901;-0.05556784;-0.10315026;-0.1669483;0.035331793;-0.056401543;0.027179262;0.0537327;-0.101930216;-0.08255696;-0.0078430595;-0.03235437;-0.0042332555;-0.08137397;-0.060558174;0.007621263;-0.0994666;0.010803463;-0.29258302;0.025587723;-0.035497256;-0.10771627;0.034485415;-0.0008164726;-0.035435293;-0.112725705;-0.10963133;0.01345373;0.019325338;-0.1498146;-0.08047192;0.01578914;-0.08073738;-0.008697287;0.030253217;-0.026135191;-0.12796323;0.25828573;-0.08766125;-0.0967624;-0.13870461;-0.036684908;0.00911233;0.041802455;-0.11081089;0.035075344;0.04218172;0.04644991;0.043011095;-0.08287043;-0.091491945;-0.023529036;0.025669564;-0.14231776;-0.09944746;0.021226259;-0.06492345;-0.07962202;0.09951875;0.12341358;0.0031247193;0.04458585;0.0060803527;-0.10827649;-0.023042977;-0.14278582;-0.03901986;0.014175145;0.0058579296;-0.0042828997;-0.08998784;-0.08376112;0.029042197;-0.056347888;-0.09504861;-0.08400953;0.008251249;0.0330206;0.00040517224;0.06535297;-0.21253267;-0.15538956;-0.047798462;-0.032986283;-0.009375166;-0.014231854;-0.02612329;-0.12904295;-0.0728787;-0.007693979;-0.015058208;0.06206401;-0.03275442;0.029098094;-0.17943554;-0.021994142;0.042875744;-0.10039755;0.007953771;-0.09508927;-0.070850044;-0.1258384;0.043978117;-0.039614514;-0.010057458;-0.030094791;0.067183845;-0.051518783;0.017924575;-0.043955155;-0.16755332;0.05603652;-0.07562984;-0.17685108;-0.017424848;-0.16099457;-0.088885285;-0.18140994;-0.16701439;-0.030604608;-0.019603875;-0.04809809;-0.06815788;-0.013279399;-0.24042408;-0.028625872;-0.04858422;-0.2360442;0.1381554;0.079208925;-0.040645704;-0.0040357043;-0.030677263;-0.069090664;-0.043932874;0.07055472;0.17277929;-0.051779512;0.023271203;-0.03917703;-0.07072095;-0.03349789;0.15537508;-0.05869684;-0.030969495;-0.07578772;-0.051417205;-0.04378601;-0.053399295;-0.027250856;-0.050714977;-0.09750264;-0.14866683;0.0482174;-0.03360333;-0.1484877;-0.11141847;0.00448657;-0.10477645;-0.004285171;0.0030557641;-0.0040130103;-0.0037477512;-0.13075435;-0.14272213;-0.08948367;0.17644478;0.016341936;0.041474864;-0.0335386;-0.020786645;0.0066119996;0.1873122;0.0005724252;0.035470214;0.05784409;-0.07052296;-0.082553536;0.06431448;-0.0013222614;-0.116524465;-0.1899155;0.030303232;-0.07456586;0.017342662;-0.1076378;0.032094404;-0.07880129;-0.037087575;-0.11962209;0.07304798;0.11479344;-0.032889653;0.021815617;0.04860717;-0.17937191;-0.0710258;0.005573565;-0.052382123;-0.031174898;-0.051348533;-0.028158566;0.09832117;-0.20104285;-0.034260508;0.047571134;0.019890325;-0.015701316;-0.058658388;-0.04753941;-0.17297795;0.013114004;-0.101288535;-0.14996216;0.09914858;0.028321689;-0.09109941;0.06429306;-0.10814249;0.054682434;-0.0328431;-0.029444756;-0.05303576;0.06257067;-0.08002488;-0.009105109;-0.117217526;0.010359268;-0.12640612;0.022435538;-0.016486675;-0.09811238;-0.15649663;0.03263364;0.051518105;0.00030487866;0.012460034;-0.009472625;-0.03492898;0.057451826;-0.034539945;-0.086577915;-0.04054637;-0.04672777;-0.0067248154;-0.08609151
0.06693348;0.020803899;-0.0054893745;-0.08972266;-0.06743873;-0.063869745;-0.12825197;-0.057658825;-0.0050317524;0.027837737;0.004460317;-0.009814393;0.054470386;0.00025846888;-0.040921494;-0.056024414;0.04906795;-0.027170667;0.050542694;0.051503483;0.035439618;-0.017946683;-0.012425898;-0.061399642;-0.019785676;-0.06839454;0.02890125;-0.12222945;-0.028530428;0.0067713642;0.014140675;-0.010252139;-0.024945864;-0.09745149;-0.03813484;0.032432087;-0.016309176;0.05316589;-7.4977834e-07;-0.0792878;-0.047108985;0.040853094;-0.018133875;0.014278024;-0.08137574;0.026713856;-0.1155746;-0.09958351;-0.0803553;-0.12836903;-0.03475638;-0.03601303;0.06687506;0.011788338;-0.04124786;0.0138821695;0.02694607;-0.18408707;-0.050446723;-0.07194677;0.0155360885;-0.1308763;-0.119887464;-0.075874746;-0.00781217;-0.07736045;-0.14932229;0.052410707;-0.1105285;-0.03491916;-0.054090217;0.045184806;-0.09350004;0.026267227;-0.08851651;0.15167046;-0.031171873;0.0010697813;-0.10044402;-0.17008291;0.0098739555;-0.09122866;0.055942066;-0.01210757;-0.19147575;-0.0736862;-0.02426537;-0.007108163;0.00839548;-0.08111082;0.04524908;-0.04035206;-0.0911052;-0.009198442;-0.054033965;-0.0018252764;-0.14345303;0.09911544;-0.083778575;-0.08949112;-0.0770961;0.021153275;0.093630746;0.028567897;-0.03416013;0.01999549;-0.09450836;0.025374288;-0.12047977;-0.116668984;-0.095879324;-0.117791295;-0.17522028;-0.11155477;-0.12350177;-0.19654085;-0.06287802;0.033515643;0.014274848;-0.068782955;0.007215525;-0.032617547;0.005321628;-0.019997047;-0.025563115;-0.11915132;-0.006112688;-0.11310265;-0.1530977;0.02247197;0.13663295;-0.033241283;-0.10836903;-0.08019648;-0.14813119;-0.046555772;0.035249263;-0.027666932;-0.08547771;-0.02587507;-0.038695298;-0.029581215;0.026391277;0.15339713;0.08424752;-0.073156945;-0.0978256;0.0077696806;-0.10269032;-0.05870053;-0.08048955;0.03173526;0.038597777;0.028707473;-0.11577122;-0.084582634;0.0038929034;0.076404616;-0.024247319;-0.004849019;0.017134544;-0.058100745;0.05247479;-0.16435523;0.0015218275;0.02947273;-0.029253408;-0.010915814;-0.25300506;-0.0973153;0.025915641;-0.0482961;0.040395763;-0.04852211;-0.088184044;-0.04129121;0.029688427;-0.061278086;0.0075739548;-0.032318287;-0.068952695;-0.06759201;-0.059197314;-0.15129252;0.059730202;0.10552431;0.0017848787;0.031746667;-0.013064726;-0.05890923;-0.0059716096;-0.11689784;-0.092650086;0.03154357;-0.023585374;-0.019368106;-0.03874768;-0.098097034;-0.10198409;-0.054171875;-0.11612188;-0.14211868;-0.06421025;0.02514688;0.010980787;-0.08086735;-0.094275646;-0.042256765;0.02145737;0.00035749568;0.03116089;-0.010836904;-0.053567797;-0.095094405;-0.06120626;-0.015634919;-0.108125485;0.068678774;-0.0013900619;-0.028919598;-0.01670466;-0.10313698;-0.03567383;-0.05291771;-0.090783976;-0.076261826;0.010596776;0.010077817;-0.069240764;-0.03136425;-0.0042058984;-0.047536455;-0.073086485;-0.059006747;-0.055408176;-0.029220078;-0.07547596;0.007224369;-0.02682396;-0.14466488;0.015083689;0.069912724;-0.025399774;-0.03214398;0.024609402;0.009458175;0.11973079;0.028627414;0.052667342;-0.003526041;-0.053037833;-0.024658274;-0.025446102;0.055090208;0.03653485;-0.10603684;-0.03895527;-0.072779834;0.039127067;0.022751227;-0.07255493;0.07099233;-0.004566846;0.024368273;0.07602789;-0.06809249;-0.058108423;-0.053235028;0.04266208;-0.080638126;-0.1256254;-0.07106111;-0.053921852;-0.085267425;0.019428879;0.003213174;-0.0313019;0.00055540475;-0.03603268;-0.043239053;-0.03465866;-0.08515082;-0.09734523;-0.08444833;-0.0024835612;-0.15252;-0.12989743;-0.0005974449;0.020482635;-0.01638486;-0.016742492;0.016602596;0.061560467;-0.038485207;0.017093401;-0.08868177;-0.082002185;-0.0064233826;-0.069996;0.006792331;0.10921518;0.060430225;-0.086008854;-0.044156346;-0.20103452;0.03392209;-0.09205261;-0.010457731;-0.0063011176;-0.025324335;0.061267458;-0.055483542;-0.09024146;-0.054011825;-0.0006033688;-0.044395808;-0.076256715;-0.049666803;-0.11150864;-0.078423224;0.03907342;0.06402103;0.022720547;-0.066325754;-0.11576917;0.014717708;-0.12670518;0.016569326;0.0052960166;-0.053945616;0.056992594;0.026680527;-0.0071960976;-0.044823248;0.03255422;-0.06473951;0.123018034;-0.06524946;-0.07851585;-0.10535148;0.037302963;-0.02967154;-0.09559627;-0.048929807;0.0014489362;-0.042970896;-0.023372008;0.09229578;-0.26944494;-0.07145937;-0.052155547;-0.09709465;-0.100405596;-0.09717626;-0.095451035;-0.08437019;-0.097957805;0.1386383;-0.017784495;-0.09438137;-0.10258601;-0.06568389;-0.011897435;0.020246772;-0.035707258;-0.075979985;-0.05052001;0.20003493;-0.14495829;-0.0061970428;-0.035161927;-0.119540416;-0.05784965;0.067669295;0.023703374;-0.026080515;0.071599536;-0.06224884;-0.09634459;-0.09299009;-0.009798745;-0.09683669;-0.03256201;-0.07063706;-0.06736442;0.046960924;-0.0059593855;0.027215634;0.050683007;0.11618825;-0.07577786;0.013916167;-0.10975627;-0.08051011;-0.09657081;-0.203182;-0.09395382;0.01222203;-0.13628499;-0.030405784;0.009763689;-0.010462675;-0.023500279;0.031986397;0.028823525;-0.06635237;-0.02779917;-0.041514248;0.038353194;-0.055398755;-0.17441355;-0.12402112;-0.01419707;-0.052001074;-0.03835489;-0.09759391;-0.046645757;-0.10045267;-0.055147205;-0.031266596;-0.09414182;-0.014757017;-0.032655403;0.051979516;-0.2026069;0.05543387;-0.003231337;-0.10774552;-0.030510765;0.03383764;-0.1727958;-0.07239891;-0.05184811;-0.07735601;0.011063358;-0.02025519;-0.060947962;-0.07773915;0.03986586;-0.1476095;-0.1447097;0.04923107;0.06823322;-0.07050251;-0.1101013;-0.112507775;-0.07098176;-0.1794047;-0.047943227;-0.030945389;0.006680059;0.03771228;0.054450605;0.05010104;-0.1443466;-0.10235236;-0.042376842;-0.23356391;0.0818071;0.089273736;0.07400546;-0.014568686;-0.067797035;-0.05892962;-0.042931076;0.042478442;0.12299445;-0.05843347;0.0063105174;-0.09267839;0.043400634;-0.04637985;0.06451256;-0.02137625;0.053351194;0.0044560707;-0.05648347;0.037241727;0.036045767;-0.07796189;-0.098818734;-0.0008257719;-0.079609506;0.055446357;-0.097574085;-0.2473194;-0.07538004;-0.019666072;0.034845132;0.014744775;-0.09855637;0.024535572;-0.062433913;-0.066056706;-0.055804048;-0.07736098;0.15549983;0.009893242;-0.020623455;0.015379248;0.049534436;-0.060500357;0.04306194;0.024168352;0.04840474;-0.0101681575;-0.022287311;-0.014188601;0.08335683;-0.057142846;-0.13651977;-0.121002;-0.054067418;-0.068844795;-0.006738975;-0.006963819;0.048271537;-0.009158768;-0.109740995;0.010771656;0.02044866;0.13574111;-0.09332432;0.028019028;0.08000176;-0.122253485;-0.023894595;0.009047648;-0.04299574;-0.049008492;-0.15675823;-0.046996783;0.11384218;-0.18690602;-0.014493091;-0.03158043;-0.039035648;-0.039556537;-0.053488545;-0.051236395;-0.2906094;0.039979585;-0.049621403;-0.13609682;0.02233197;0.017717391;0.018945815;-0.041816108;-0.04377141;-0.00045781842;-0.035846256;-0.00959961;-0.10473275;-0.04683941;-0.06954993;-0.032070503;-0.101372756;0.017764864;-0.032146197;-0.07183421;-0.078975365;0.03160769;-0.07659583;-0.01064692;0.0034176314;-0.0077346894;-0.06467497;-0.1026373;-0.1230346;0.006471966;0.00034532064;-0.004851796;-0.006923069;-0.1021498;-0.08611227;-0.05431086
0.038451884;-0.044648133;-0.025178399;-0.055479676;-0.0035130153;-0.15833892;-0.10961824;0.004218678;0.047957767;0.047934745;-0.104233705;0.07241435;-0.10763975;0.09398217;0.073138;0.113667235;-0.08699373;-0.03499747;0.050531864;-0.044284564;0.052245647;-0.008390148;-0.062087853;-0.0694413;-0.07655878;0.008810614;-0.029134175;-0.23648283;-0.09210943;-0.024053682;-0.042073444;-0.08374182;-0.04624552;-0.073622495;-0.022908289;0.016206985;0.012085164;0.06409335;0.0030598617;-0.14467792;-0.02799741;-0.032421622;-0.09013026;-0.04069304;-0.05485414;0.027724445;-0.08875302;-0.09788187;-0.028024184;-0.043392304;0.05004765;-0.08175838;0.06079322;-0.1132804;-0.05122266;-0.027990736;0.0583586;-0.14957432;0.003272324;-0.0049072583;-0.053260177;-0.15944555;-0.003702772;0.017421866;-0.03693149;-0.11897679;-0.0142634595;0.025408793;0.0018106821;-0.017025126;-0.061545316;0.053409155;-0.10181335;0.044978883;-0.055167433;0.087485544;-0.05800659;0.012314569;-0.09011726;-0.17784609;-0.044916566;-0.13997881;0.008138719;0.06863291;-0.1920041;-0.05572724;-0.046174224;-0.14465308;-0.026303338;-0.17885634;0.014596481;-0.00097380055;-0.08927393;-0.02490677;-0.08065376;-0.05385579;-0.10923152;0.13673691;-0.02530653;-0.120411344;-0.11298337;-0.05859341;0.102444395;-0.054353762;-0.030276325;-0.049823213;0.0033664103;-0.07183178;-0.021739246;-0.053452063;-0.045198176;-0.021535648;-0.2462856;0.01520749;-0.12597181;-0.22437371;-0.057927016;-0.07030587;-0.018967956;-0.08802199;-0.035410985;-0.08249384;-0.12341872;-0.10292208;0.0134833045;0.0049565015;-0.08767624;0.02879429;-0.14117034;0.079744674;0.07057728;-0.011284187;-0.03777742;-0.030376783;-0.1792602;-0.03792423;-0.065161556;0.040837627;-0.21804893;-0.08747861;-0.11875099;0.03348719;0.048511025;0.01377033;0.056731306;-0.005363256;-0.05885586;-0.13449164;-0.0108905975;0.0127855865;-0.15284324;0.00023818023;-0.030401729;-0.046131223;-0.2783486;-0.05638565;0.027699975;0.1096175;-0.088754565;-0.040910464;0.012657058;-0.06292284;0.05251181;-0.14899537;-0.06938093;0.06482633;-0.016630603;-0.0060289297;-0.24685563;-0.01957663;0.034434404;-0.117464125;-0.08988917;-0.03683443;-0.14956723;-0.023614163;-0.010285198;-0.09284081;-0.04382664;-0.022190927;-0.05589167;-0.05157174;0.031356655;-0.055096515;0.039464254;0.0037261928;-0.10292464;0.021744492;-0.12350555;-0.031929594;-0.0834224;-0.07707159;-0.02291278;-0.052234836;-0.024632595;0.038754236;-0.18334915;-0.056484193;-0.14889055;0.049392417;-0.05153693;-0.07765206;-0.050726112;0.012473938;-0.08238678;-0.08056362;0.0095736645;0.022257866;-0.103173815;0.06902122;0.03391394;0.0039479174;-0.059095483;9.3168375e-05;-0.021731049;-0.019638784;-0.072946355;-0.07831311;-0.001355868;0.04988515;-0.08268204;-0.014379638;0.030020729;0.032996327;-0.00023555121;-0.14522356;-0.11101106;0.15408061;-0.040976547;-0.13184479;-0.026240557;-0.08698814;-0.059564173;0.029945865;-0.013950581;0.042962845;-0.01761896;-0.06746492;0.020420346;-0.04166757;-0.124319285;0.05007268;-0.10184168;-0.07789202;0.007679437;-0.07062111;0.04124878;-0.096736446;-0.027508857;0.054243937;-0.09545637;-0.06513103;0.06364153;0.075239226;-0.06135233;-0.05105991;-0.078182414;-0.09854833;0.059980605;-0.02735182;-0.08575731;0.07556672;-0.09904584;-0.09442691;0.079996355;0.066566154;-0.026419286;-0.012983713;-0.08389556;-0.03782955;-0.056755625;-0.1127753;-0.07283006;-0.04546004;-0.03698259;-0.017130885;-0.08897867;-0.030732077;-0.10130615;-0.062146187;-0.14162177;-0.046911344;-0.05172404;-0.0278029;-0.112920776;-0.07879066;-0.011949755;-0.08828214;0.032045323;-0.049497947;0.08002791;0.043929804;0.034417138;-0.034283273;-0.045502007;0.032235544;-0.07834337;-0.0335388;-0.09232627;0.032599118;0.22129297;0.0068590455;0.0035480512;-0.0052710134;-0.23488353;0.12442841;-0.10223323;0.032831024;-0.041198153;-0.080901854;0.019075844;-0.007943837;0.044973183;0.03542109;0.00020854865;0.037811685;-0.13632207;0.03875651;-0.10351424;-0.2313971;-0.030085912;0.13116269;-0.035159398;-0.007951677;-0.07066735;0.035560288;-0.08573673;-0.014947779;-0.029079003;-0.059158012;-0.023952803;-0.016395507;-0.0023409731;-0.12605868;-0.08349429;0.0064468924;0.16012493;-0.07495684;-0.10021518;0.041738324;-0.089319915;-0.04306647;0.047329716;-0.028892037;-0.044175014;0.04613509;-0.008462422;0.003386925;-0.15604699;0.010952273;0.027522804;0.031076748;0.02743609;-0.04521454;0.05452549;-0.06287759;-0.15996194;0.072368264;0.024467098;-0.031533863;-0.050010983;-0.06782621;-0.048982333;-0.02075927;-0.06417995;0.066320375;-0.091563664;0.15308072;-0.1374362;0.029868323;-0.08259554;-0.1595633;0.01848252;0.1046633;-0.052902844;-0.0936426;-0.07395963;0.06705386;-0.10389989;0.030699184;-0.083873704;-0.021128558;-0.03117759;-0.024029847;-0.068014815;-0.079405025;-0.0815564;-0.053363457;0.0009686805;0.10105656;0.008232189;0.071345456;0.006318945;-0.0008323331;-0.10979247;-0.19087122;0.01677887;-0.0902909;0.015957933;-0.10836415;-0.08090863;0.05294464;-0.06330457;-0.02136918;-0.08653616;-0.032038942;-0.068470426;-0.059715074;0.044836592;0.024579253;-0.14536764;-0.19244942;-0.03701357;-0.009022682;0.00010858153;-0.09078438;-0.04338309;-0.012077805;0.010061332;-0.10102724;0.03871908;-0.07802854;0.04806176;-0.08592712;-0.17622325;0.0212144;0.099423006;-0.087648205;-0.005393181;-0.03492244;-0.10104369;-0.06867967;0.032632604;-0.048007917;-0.030815313;0.011753932;0.049479708;-0.019324664;-0.09338927;-0.0198634;-0.15153211;0.07256701;0.1154961;-0.14656651;0.004888028;-0.09919948;0.02458657;-0.16765037;-0.20820978;0.015538694;-0.09665266;0.047663737;-0.057432465;-0.0724166;-0.21435088;-0.061797816;-0.059657246;-0.22005062;0.05045414;0.13711117;-0.029552504;-0.039287344;-0.009125213;-0.08347202;-0.026962083;-0.025215004;0.121198215;-0.05128456;-0.042098712;-0.086697616;-0.02786977;-0.011652776;0.014530748;0.012640788;0.009348438;0.065021574;0.03063499;-0.009894562;-0.113073535;0.04586345;-0.15097257;-0.047911085;-0.06968796;0.00870135;-0.16137403;-0.12949285;0.028446473;0.033153478;-0.009802197;0.035133217;-0.13319038;-0.014593595;-0.061884977;-0.026524015;-0.024216479;0.015621493;0.10931954;-0.014072796;-0.034657985;0.025791744;0.066703886;-0.11975613;0.054711062;-0.08031299;-0.036340132;-0.0794065;-0.02244913;-0.07101723;0.10141813;-0.06414101;-0.10794338;-0.19074707;0.002007999;0.03771818;-0.08396802;-0.040380344;0.008395171;-0.06978597;-0.08134938;-0.139417;0.03678689;0.18938427;0.037008774;-0.10259761;0.00981947;-0.20236374;-0.0439129;-0.01769329;0.011376695;-0.051308855;-0.107364796;-0.014537922;-0.017727202;-0.21206357;0.050607692;-0.03149177;0.009768149;-0.10430953;0.024397274;-0.08408913;-0.3135607;-0.10645551;-0.057372723;-0.084413886;-0.0014132912;-0.070033915;-0.057464458;0.0027943305;-0.049183823;0.027962329;-0.02013714;-0.108745955;-0.05757827;0.07418326;-0.10722586;-0.013036539;-0.039026774;0.051548116;-0.09458168;-0.04959438;0.0076477057;0.033399954;-0.09888063;0.02339052;0.04176518;-0.0691954;-0.11121854;-0.08084816;-0.11454823;-0.06323706;-0.07968969;-0.109144785;0.051301032;-0.09520375;-0.08724225;-0.009583261
-0.025334666;-0.09921012;0.0016834913;-0.039660715;0.035461165;-0.15565081;-0.18825524;-0.09834863;-0.005263021;-0.0067905877;-0.017359858;-0.0037764097;-0.08567269;0.15434578;0.04230586;0.08678363;-0.0912198;-0.02906282;0.047438927;-0.034358434;-0.045307565;0.025942247;0.045265142;-0.05951185;-0.1386862;-0.05965487;0.00023224005;-0.17626126;0.026915597;0.14331779;-0.13418221;-0.028939879;-0.07968896;0.048030384;0.027592542;0.038067333;0.027043777;0.062377945;-0.01486397;-0.13135839;-0.02814273;-0.049709104;0.08508046;0.048654523;0.010602094;-0.025688644;-0.11388314;-0.011325288;-0.00017354645;-0.058140054;0.02907487;-0.10341032;-0.049794614;-0.08581204;0.03414018;0.020402133;-0.037582867;-0.27095047;0.11741227;-0.060020614;-0.09394918;-0.15304933;-0.08810129;0.03110127;-0.033656463;-0.11369109;-0.027436271;0.0012547065;-0.10160126;-0.10944879;-0.10000495;-0.037717488;-0.09107021;0.06382187;-0.014488325;0.11829089;0.031422492;0.017792122;-0.07847802;-0.06971201;-0.121185854;-0.20997812;-0.097059324;-0.036852773;-0.170828;0.025169274;0.036514554;-0.09428545;0.0359914;-0.11023767;-0.07709335;-0.12244011;-0.0846991;-0.06598474;-0.01993183;-0.11348931;-0.25134435;0.08541535;0.08478464;-0.13615097;0.005792895;0.029762486;0.12315341;0.021597095;-0.052436147;-0.033019748;-0.056368425;0.043334488;0.014598071;-0.043624785;-0.045703784;-0.07043547;-0.23326713;-0.00037441248;-0.12388821;-0.24462658;-0.10273721;-0.102939226;0.018452886;-0.07446035;0.038475137;-0.028109942;-0.015833981;0.010970841;-0.09932322;-0.12120644;-0.065650426;-0.10503919;-0.19670577;-0.023305222;0.103005156;-0.031380426;0.025828103;-0.015574625;-0.08115631;-0.020081574;-0.0032002921;0.029055405;-0.19735712;-0.07757436;-0.03012526;0.034399647;0.046563145;0.11940417;0.012451364;0.046947893;-0.22594865;-0.0069090105;-0.097276084;-0.03372868;-0.10293224;-0.11829682;0.0473154;-0.020031303;-0.2472211;-0.0073395474;-0.11148387;0.09699124;-0.12804142;0.0717773;0.0013339189;0.072230056;0.086932495;-0.2121776;-0.032797437;-0.020460522;-0.04735301;0.05756637;-0.26019785;-0.06541653;-0.028224943;-0.012063425;-0.036749847;-0.09700952;-0.15391067;-0.09970744;0.011226401;-0.14615445;0.058940038;0.03582309;0.07356027;0.027827827;-0.066963166;-0.19587675;0.054572646;-0.024293538;-0.00092127506;0.09017493;0.029543815;0.04214543;-0.08879498;-0.1331638;-0.08687303;0.034809336;-0.084984675;0.04021752;-0.1451669;-0.11911315;-0.14088647;0.0061752144;-0.025193976;-0.04303171;0.011400574;-0.025587741;-0.018347554;-0.09309375;0.018471254;-0.025666285;-0.028837437;0.020325443;-0.066115156;-0.055057805;-0.09495474;-0.028635379;-0.03339138;-0.040223915;-0.14850001;0.010156411;-0.080313444;-0.035544883;-0.06045139;-0.009215928;-0.012817273;0.028879056;0.012927044;-0.09004611;-0.052864995;0.16741106;-0.030292356;-0.14574094;-0.027484385;-0.05073994;-0.09479301;-0.08350564;0.064049676;0.012387779;-0.045196865;0.0111238845;0.010575451;-0.1782696;-0.022033429;-0.03629803;0.0038347575;0.00073485245;-0.08095259;-0.103339635;-0.052266903;0.035267547;0.042744506;0.073877186;-0.058996037;-0.006858903;-0.0765885;0.0074670883;-0.120860085;-0.057471693;-0.12060554;-0.120804325;0.04237;-0.07469321;-0.09606602;-0.059439868;-0.0077742706;-0.023779532;-0.00039939463;-0.0062463703;-0.012146413;-0.12350848;-0.047249895;0.05055124;-0.10461083;-0.08884843;-0.042224873;-0.054878626;0.05513236;-0.103218414;-0.06480796;-0.15627521;-0.040874716;-0.03294708;-0.17264746;-0.06433063;0.026492566;-0.027841909;-0.058328226;-0.07100642;-0.16331092;-0.025192518;-0.014545199;-0.022896906;0.0072064516;0.0438761;-0.024663858;-0.07944057;-0.019370036;0.008365636;0.034882948;-0.048645847;0.019961871;0.012859982;0.12081575;0.15280266;-0.09764063;-0.12763958;-0.12977736;0.08909721;-0.13753715;-0.076227374;-0.05518739;-0.017407365;-0.09608582;0.005842442;0.051857177;-0.052729484;-0.09924164;-0.088164635;-0.17292964;-0.01696938;-0.0646219;-0.21557765;-0.066963404;-0.022221003;-0.009674012;-0.02434683;-0.035714153;0.00042026973;-0.112236924;-0.10712843;-0.080258764;-0.16093759;-0.032183234;-0.03298736;-0.15369058;-0.06842957;-0.09073385;-0.07039958;-0.0032656877;-0.0032758985;0.008487583;-0.11129321;-0.01468417;-0.07839872;0.038500916;-0.06378371;0.0020882324;-0.0390512;0.035283893;0.09176745;-0.2561613;-0.091670275;0.010881035;-0.029069595;-0.048676174;-0.07602299;0.013265299;-0.08960181;-0.030464254;0.10211425;-0.025993584;-0.13175952;-0.033643946;0.04165041;0.010478569;-0.111929215;0.033320203;0.04168936;-0.02360953;0.08333822;-0.045688555;-0.09307848;-0.10259288;-0.16354121;-0.017184565;0.079153016;-0.0196478;0.0032334693;-0.041341346;0.07030025;0.049134854;0.0064385543;0.014669604;-0.09064207;-0.036699;-0.029730948;-0.032522175;-0.00790545;-0.0017949191;-0.103288054;0.14007512;0.11857241;-0.09358646;-0.012995215;-0.037189096;-0.12553868;-0.061000843;-0.21842787;-0.07575695;0.026686078;-0.10561476;-0.025922738;0.02323312;-0.011993761;0.020276746;0.025089242;-0.10133554;0.016397603;0.07174517;0.0058967206;-0.0070036533;0.022817869;-0.19246201;-0.10592636;-0.058238734;0.07562125;-0.10682697;-0.08986932;0.014013859;-0.08174936;-0.036944184;-0.042509884;0.048879642;-0.019388726;-0.013450375;-0.06746373;-0.13929729;-0.009894665;0.08759508;-0.008048814;-0.008893465;-0.03952525;-0.07098598;-0.013129893;-0.02112382;-0.018869413;-0.011279074;-0.10065053;-0.014112906;0.021960216;-0.008264542;-0.07617507;-0.20482937;0.15776408;0.010969553;-0.118737884;-0.024560817;-0.046002872;-0.056089714;-0.18250924;-0.14660296;-0.10879784;-0.078799345;0.07803292;0.009764573;-0.050179873;-0.14775622;-0.10442184;0.07668181;-0.15377374;0.05344422;0.15987517;-0.028443512;-0.14259548;-0.05017446;0.03805038;0.0055228807;0.02586249;0.12908992;0.032430463;0.003095889;-0.1377726;0.017346855;0.05364072;0.1410512;-0.02707168;0.13998802;-0.026026757;-0.058018275;0.020126881;-0.024827754;0.0044623767;-0.20599164;-0.034692112;-0.0925511;0.08822289;-0.13999414;-0.23436521;-0.0030260426;-0.024254443;0.044476796;0.00076335977;-0.1472453;0.057469625;0.05969878;-0.02254273;-0.019888487;0.033339363;0.099772416;-0.05893584;0.026171947;-0.04742082;-0.06424686;-0.010701684;0.06192454;0.029821297;-0.035348646;-0.043372765;0.029232884;-0.09882939;0.135288;0.013102362;-0.12995595;-0.26332378;-0.07457485;-0.041211683;-0.06815089;-0.071264625;0.042739782;0.042580113;-0.14975737;-0.008086412;0.0131854825;0.16576923;0.027929962;-0.057441168;0.10761181;-0.073842816;-0.07727682;0.032166366;-0.1002747;-0.012077769;-0.088518836;-0.07273806;0.06756193;-0.28676817;-0.020346778;-0.04921997;-0.047494337;-0.036249932;0.034964096;-0.008254877;-0.35405385;-0.088970594;-0.09273943;-0.09735386;0.07679614;-0.09284593;-0.06503915;0.009539421;0.008436934;-0.060919117;-0.042169336;0.024878265;-0.026361851;-0.054358244;-0.029695908;-0.009552453;-0.15924089;-0.057230838;-0.045059685;-0.023981767;-0.079172894;-0.077212125;-0.018878393;0.037702125;0.00087983167;-0.00026547315;0.02216186;-0.10084601;-0.036734454;-0.05430926;0.0151089905;0.014724934;0.11865746;-0.141618;-0.077369824;-0.038638826
0.11063258;0.008520089;0.03983102;-0.099524766;0.03013697;-0.15357442;-0.06932046;0.0066434937;-0.055104993;0.011995544;-0.0739786;0.004836239;-0.03186402;0.05715842;-0.020984977;0.0493446;-0.014209985;-0.024154661;-0.08210799;0.03456751;0.028699126;-0.08194451;0.06291382;-0.0006552142;-0.09397545;0.06347062;-0.106134556;-0.11613637;-0.05327993;0.10829762;-0.22968784;-0.01622918;-0.1394907;0.0132881;-0.10475339;0.021884099;-0.04278018;0.14623514;0.06369754;-0.26322597;-0.058207136;0.011972967;0.07421125;-0.048120838;0.02341491;-0.11523033;-0.1609671;-0.022344595;0.032502223;0.04472337;0.09348422;-0.17219546;0.07863111;-0.020596525;0.042690214;-0.042157054;0.03421449;-0.2277132;0.13570435;-0.068629734;-0.025830414;-0.33601967;0.040736143;-0.016092537;-0.087750725;-0.103136525;0.080729924;0.0746316;-0.07002545;-0.008568927;0.026370626;-0.035781913;-0.031026285;-0.01307011;-0.0852429;0.059586722;-0.021766433;-0.033920325;-0.045822185;-0.14067467;-0.009333212;-0.10123745;-0.07800598;0.123909876;-0.01931223;-0.11184575;-0.055833105;0.024601331;-0.055248916;-0.1405478;0.028090103;-0.10556516;0.0044582663;-0.10396263;0.023362556;0.024685148;-0.1350378;0.16756618;-0.011297792;-0.03650202;-0.06040222;-0.042073634;0.16195235;-0.06421422;-0.17608143;-0.12609935;0.014867078;0.014971858;0.00894433;-0.02804782;-0.14955875;0.0020827986;-0.23421058;-0.06926811;-0.08247756;-0.17920692;-0.014051564;-0.08445584;-0.010762402;0.039019007;-0.087478966;-0.06526067;-0.055220414;-0.056479782;0.07298502;-0.13295345;-0.071711175;-0.030870583;-0.22506987;0.10829875;-0.02398282;0.07174873;0.008757795;-0.13007423;-0.19222952;-0.13753606;-0.057993405;0.11258919;-0.1526091;-0.14992963;0.02524716;-0.025113918;-0.030342156;0.095626734;0.07449696;-0.030832635;-0.12857234;-0.19843568;-0.17999016;-0.07298669;-0.034050442;-0.011008778;-0.028495066;0.007779113;-0.19060592;-0.017265445;-0.009641512;-0.09969944;-0.006104433;0.046397015;-0.05212252;0.100094624;0.1318654;-0.12802733;-0.16664036;0.18129501;-0.11201365;-0.08814563;-0.26186636;-0.017299078;-0.07146175;-0.14314656;-0.08617779;-0.061834693;-0.13040277;-0.061488476;-0.04694142;-0.23267074;-0.01540066;-0.028888728;0.057742234;-0.031508576;-0.048307724;-0.1682595;0.021060368;-0.10285502;-0.002334839;0.05504401;0.0012137285;0.06002479;-0.06365927;0.049879067;-0.10986011;0.01064821;0.0011923146;-0.0052047004;-0.12525745;-0.07659426;-0.20936674;0.07769416;0.030342003;-0.16006815;-0.07433813;-0.12044709;0.019856505;0.02002091;0.035883594;0.04826198;-0.027791165;0.03559555;-0.10973555;0.06777532;-0.06822224;0.061729886;-0.07867428;-0.0070616584;-0.15488699;0.0010221063;-0.073996335;0.028908607;-0.13118494;-0.014178825;-0.020478401;0.029550627;0.09651493;-0.094090916;-0.025927873;0.08663577;-0.024600696;-0.017464748;-0.034325033;-0.036792513;-0.13175386;-0.07401714;0.041303605;-0.035529345;-0.029370183;-0.08836641;0.023160493;-0.14009243;-0.108129196;0.060871594;-0.10708772;-0.035315946;-0.0028840064;-0.1151735;-0.025399562;-0.06895125;-0.13418253;0.0039606476;-0.06858477;0.025173666;-0.071648754;0.08457375;-0.053000625;0.037679695;-0.053485427;-0.23185901;-0.048221402;-0.038915925;-0.0617456;-0.08470167;0.0072726132;0.04133975;-0.061506793;-0.04777847;0.066066004;-0.19717595;0.012379522;-0.0335688;-0.19881186;-0.16035627;0.05157962;0.10535731;-0.075763606;-0.13595267;0.11454359;-0.07612427;-0.008863328;-0.03838079;-0.074186504;0.010425434;-0.05926396;-0.08033138;-0.10850512;-0.047507375;-0.17926751;0.0071457727;0.028364006;-0.08263717;0.03920134;0.073989265;0.08720935;0.030283444;-0.13422541;-0.056437545;-0.11625643;-0.04918744;0.019972963;0.06645409;0.19411708;0.088970184;0.053879097;-0.17569353;-0.23282777;0.06575252;-0.04696605;-0.026014889;-0.06482117;-0.14964454;-0.09413078;0.101850905;0.015188272;-0.06780437;-0.12985432;-0.07948548;-0.1029674;-0.012907341;-0.11055012;-0.18318892;-0.07224463;0.04790744;-0.103687756;-0.0881044;0.05459884;-0.12181055;-0.10892059;-0.15633723;-0.026013745;-0.07667626;0.032240126;0.05504265;-0.17660826;-0.12989943;0.06557245;0.044696853;-0.01723914;-0.06620753;0.02729493;-0.065005496;0.028917084;-0.12068943;-0.0681996;-0.07971725;-0.0034925272;0.07553758;-0.052028537;0.08562345;-0.16048583;-0.008900919;0.13316387;-0.033439748;-0.07643306;-0.045929283;-0.066437885;-0.04850196;-0.07868947;0.14212114;0.03162664;-0.08313221;-0.13814317;-0.001773097;-0.02644421;-0.09878936;0.06773338;0.060555942;-0.09083614;0.13678731;-0.16172056;0.041599397;-0.12386823;-0.27723902;-0.06831563;0.15301874;-0.08278058;-0.10160353;0.039627213;-0.01567085;0.06226344;0.009507496;0.03233651;-0.022373363;-0.02969516;-0.18416113;0.023731546;-0.039369777;-0.01817815;-0.02611076;0.07330121;0.075746976;0.0020775443;0.163425;-0.044626914;-0.10358511;-0.11631882;-0.1682831;-0.05460741;-0.12714185;-0.052784953;-0.11731091;-0.0995644;-0.08448273;-0.040396463;-0.053147137;-0.03262032;0.01796519;0.05987019;-0.1533168;-0.05197632;0.03816339;-0.17263624;-0.25244942;-0.112415336;0.015541762;-0.05164539;-0.07996726;0.06915441;-0.10802822;-0.12851243;-0.08910722;-0.018112857;-0.13501418;-0.05961624;-0.13085297;-0.21796755;-0.028298708;0.066490196;0.042256314;0.020212773;-0.004314381;-0.089818105;-0.12105777;0.025912859;-0.09767157;-0.034763373;0.027083876;-0.124271296;0.057128277;0.035524152;-0.06668013;-0.12534995;0.17852724;0.06362129;-0.20473999;-0.09665955;-0.018847652;-0.00052307156;-0.122993074;-0.21763788;-0.011986476;-0.08280428;-0.0067244237;-0.034078367;-0.07101676;-0.17685789;-0.15007244;0.03666857;-0.18284209;0.21737789;0.20114264;-0.097175725;-0.0365427;0.00439716;-0.070473574;-0.08525019;-0.10794312;0.046531305;-0.0020857232;-0.03243113;-0.06613967;-0.06341497;0.08170005;-0.009071117;0.066853754;0.15025067;-0.01120569;-0.095381744;-0.06866559;-0.05705072;0.008581881;-0.18313876;-0.086900346;-0.16692472;0.05930853;-0.17625001;-0.23387691;0.06601644;0.061969746;0.070793875;0.05304118;-0.07610049;-0.038405098;0.0050654043;-0.06819612;-0.04738369;-0.059756875;0.07838855;-0.085708044;-0.0133833345;0.09815598;0.029999081;-0.04635493;0.048234917;0.043918367;-0.02270409;-0.036441475;0.07385527;-0.094391555;0.05126828;0.0164246;-0.0984863;-0.23427574;-0.024940971;-0.014630908;0.004544672;-0.12487476;0.13059185;-0.010942815;-0.030330108;-0.030619832;0.12764831;0.11584158;-0.0094281845;-0.08748748;0.06945319;-0.19456685;0.034004424;-0.04171534;-0.07318867;-0.07622949;-0.028597156;-0.0628462;-0.0006812563;-0.27386242;-0.093245804;-0.04169992;-0.07537778;-0.05147214;-0.08265372;0.03634222;-0.3462954;0.074407466;0.029448189;-0.042070605;0.13529529;-0.043520134;0.020191964;0.008277678;0.011130986;-0.03185924;-0.17609538;0.009551618;0.0038963829;0.12079492;0.0030364823;-0.08742113;-0.112366445;-0.01440558;-0.1150384;-0.06576475;-0.06635155;0.03027612;-0.014054708;-0.10441572;-0.060119495;-0.026336752;-0.09364447;-0.040317636;-0.097174026;0.024336502;-0.10019674;0.01411685;0.07760045;-0.05805142;-0.11898866;-0.031614915
0.05059199;0.008938959;0.0008008056;-0.02587388;-0.10177613;-0.07574109;-0.18939005;-0.011392047;-0.095930964;0.1037388;-0.02393588;-0.08263371;-0.08683665;0.07998892;-0.030590817;0.061496027;0.033106886;-0.009110058;-0.10254929;-0.06841579;0.07265804;-0.12900776;0.037567783;0.09631916;-0.007354723;0.029371377;0.0028472296;-0.23280494;-0.09309784;0.1779948;-0.11836777;0.013927914;-0.08089517;0.0015582532;0.045752462;0.010775039;-0.031197406;0.049105532;-0.09199921;-0.15876642;-0.123629615;0.05149539;0.0062750764;0.01621133;-0.01703446;-0.067401975;-0.07235838;-0.08172672;-0.09192954;0.026748544;0.029371897;0.0034049277;0.036846958;-0.023629626;0.0057833954;0.043941204;0.04112712;-0.17549458;0.072619446;-0.08205872;0.039918177;-0.3302132;0.07645494;-0.054689046;-0.06810293;-0.20825963;-0.016077584;0.08822209;-0.09095366;-0.06922724;0.03736507;-0.037884913;-0.07750929;0.07606635;0.029798241;0.15790057;-0.016521102;-0.17175296;0.0063009313;-0.2197735;-0.12636174;-0.1470944;-0.02175436;0.04669386;-0.04580634;0.044970542;-0.098394565;-0.03729303;0.030673923;-0.11473742;-0.04866407;-0.1134212;0.021713438;-0.04457301;0.00952174;-0.09356581;-0.15626393;0.22522028;0.08873925;-0.030215798;-0.0723124;0.026950633;0.13134801;-0.068880156;-0.19562884;-0.030901194;-0.000180726;-0.074275844;-0.15191957;0.004461876;-0.107252635;0.039961074;-0.19844979;-0.06910496;-0.02475691;-0.147782;-0.075966634;-0.02366597;0.041781966;-0.014818447;-0.09315054;-0.049872022;-0.17187805;0.0019832253;0.072456546;-0.15383817;-0.05174206;-0.026786262;-0.22095637;0.08744527;0.03931064;0.117512494;-0.08802143;-0.14533527;-0.19168703;-0.039111216;-0.1324649;0.11960686;-0.3102634;-0.081821725;-0.017069576;-0.00088303146;-0.0960589;-0.035726734;0.039285503;0.013292659;-0.17120028;-0.18140529;-0.14346561;-0.0475773;-0.15389302;-0.0226407;-0.07239763;-0.007300683;-0.3156314;-0.0066544153;-0.12301234;-0.093391374;-0.09963952;0.05935657;-0.044034373;0.10380701;-0.020981597;-0.09469465;-0.21748067;0.18031478;-0.11415088;-0.074841425;-0.30821428;0.059127726;-0.031920098;-0.13734023;-0.1125947;-0.04613191;-0.1328068;-0.09800432;0.038103804;-0.22051682;-0.10421015;0.005149762;0.009827069;0.009680009;-0.056198012;-0.15698853;-0.04467282;0.0323858;-0.13727677;0.15112174;0.0032300358;-0.041904356;0.0023134884;-0.10979073;-0.09286184;0.022095608;-0.030816702;0.036930677;-0.11523752;-0.17181857;-0.18916492;-0.018380547;0.00482718;-0.016207105;-0.049853306;-0.11365737;-0.04328385;-0.0320582;0.04902457;0.057840608;0.054565694;-0.056050576;-0.05132009;0.050632667;-0.07579922;-0.07299597;-0.12535194;-0.11673741;-0.16582541;0.08775027;-0.09564719;-0.0657824;-0.041472986;0.006109057;-0.023980057;0.049439564;0.1327092;-0.24404225;-0.07285747;0.2035311;-0.06845764;-0.16108266;0.03842706;-0.011189529;-0.00249067;0.03771777;0.03487035;0.07178925;-0.11959407;-0.11264673;-0.09801602;-0.13983679;0.02155325;0.07538273;-0.040973745;-0.075796396;-0.055248477;-0.010801637;-0.073391356;-0.10351875;-0.10320775;0.07073674;0.051691756;-0.049530286;0.073257506;0.10519377;-0.0090728775;-0.016499387;-0.13172129;-0.12561136;-0.06764339;0.05876323;-0.12879974;-0.084624596;0.018228887;-0.075177275;-0.037848387;0.08280738;0.039594356;-0.1396213;-0.07150319;-0.06598409;-0.21361986;-0.19092083;-0.06917068;-0.025185002;-0.0044936044;-0.038023345;0.0771477;-0.13118725;-0.032380592;-0.0041793897;-0.14102302;-0.03125045;0.0050306567;-0.076309755;-0.04810776;-0.17078018;-0.06340271;-0.043549825;-0.068494014;-0.09243459;0.087127365;0.09131994;0.038935125;0.009336219;-0.14821035;0.049373284;0.008132001;-0.033073056;-0.024548125;0.019955916;0.18896022;0.08424222;-0.067874774;-0.03133744;-0.15889604;0.12548856;-0.015705943;0.086818084;-0.06947141;-0.046370935;-0.08201159;0.05785575;0.05956347;-0.047107983;-0.11686062;-0.10278829;-0.16793117;-0.10873807;-0.011741252;-0.17751592;-0.08047496;-0.01688086;-0.05203347;-0.05324719;0.009826994;-0.052474983;-0.14908479;-0.1399848;0.040065892;-0.23204409;-0.022187376;-0.017243205;-0.1384151;-0.10679659;0.014535024;-0.024443323;0.047015168;-0.031804886;-0.0152695635;-0.052004684;-0.0041893097;-0.06299395;-0.024329077;-0.06511832;-0.019646645;-0.08688988;-0.051048372;0.047832597;-0.19307889;-0.08453625;0.13575763;-0.12467083;-0.08616274;-0.0344373;0.03503454;-0.14542623;-0.061630867;0.13912132;0.007880853;-0.05519125;-0.119072996;-0.0013407898;-0.0031678777;-0.019807486;0.017408218;0.048546053;0.010291012;0.21160941;-0.07032534;-0.024441414;-0.08142833;-0.21428032;-0.15715171;0.154623;-0.061109506;0.033044137;0.105783224;0.0328089;-0.013123152;-0.031892296;-0.07251835;-0.14866903;0.028620638;-0.08242708;-0.07623346;-0.0076164277;-0.02999495;0.045569424;0.12104756;-0.025717467;-0.011684866;0.16850519;0.047860913;-0.009952155;-0.0029232411;-0.20288154;-0.06289542;-0.037302848;0.020561747;0.007928423;-0.08120203;0.06274293;0.045553822;0.00053383637;0.036403798;-0.026610501;0.07894998;-0.16807228;0.01928971;0.050908044;-0.27790216;-0.2653501;-0.117769256;0.076357216;-0.08902015;-0.02010321;0.05232446;-0.07001064;-0.08969811;-0.019826813;-0.008791903;-0.14254308;0.014120764;-0.0937866;-0.28092483;-0.020737737;0.01849442;-0.052227225;0.039723128;-0.002983933;-0.219135;-0.0486392;0.014868447;-0.07254108;-0.003589434;-0.021504847;-0.10073504;0.059608854;-0.048366494;-0.13195208;-0.19556616;0.08094559;0.08378665;-0.09639986;-0.09368575;-0.103045575;-0.06642873;-0.2155523;-0.17189476;-0.040114816;-0.08817423;0.053000692;-0.07057487;0.07262167;-0.17904235;-0.05725352;-0.07337305;-0.20984572;0.20430216;0.09122362;-0.017931467;-0.09777018;-0.035811987;-0.03625008;-0.12284853;-0.1618685;0.14016077;-0.112129025;-0.022362512;-0.14198755;-0.07726239;0.05199229;0.07569671;0.088867515;0.09434871;-0.04849365;-0.0642082;-0.0840104;-0.014421503;-0.060688227;-0.21057403;0.013478723;-0.06951684;-0.0364835;-0.027187161;-0.19996333;0.02470171;0.0068264385;-0.054444678;0.064379945;-0.13991722;0.08429856;0.009775242;-0.0257568;-0.044404827;-0.07276626;0.05110035;0.010492202;0.022564705;0.017504055;0.0041859094;0.008427894;0.13936849;-0.07300668;-0.06677274;-0.06509756;0.031659212;-0.11549938;0.18055992;-0.05842053;-0.12783226;-0.20561543;-0.106564574;0.04255058;-0.07542404;-0.11210738;0.0051995106;-0.072891735;-0.1068575;-0.014659728;0.024601992;0.14458838;-0.004135281;-0.07975984;0.16571836;-0.113764845;-0.07514607;-0.050554764;-0.07331863;0.018000301;-0.009452282;0.050582074;0.03760012;-0.17893939;-0.037156712;0.090009294;0.020159924;-0.07310051;-0.10021311;-0.07881767;-0.38248426;-0.04683806;-0.051186427;-0.062088925;0.12730627;-0.098920576;-0.015731005;-0.02750789;-0.062085062;-0.03154098;-0.09823599;-0.06835089;-0.08889406;-0.011211675;-0.021763477;0.033640847;-0.17881685;-0.039717585;-0.1892327;-0.04868953;-0.17042702;-0.0796919;-0.024998462;0.052102212;0.021430004;0.002700521;-0.08297465;0.043311633;-0.068000935;-0.06670561;-0.08600904;-0.08898729;0.07171094;-0.09714351;-0.01324258;0.0019799792
0.0065795756;-0.08315457;-0.060097303;-0.11093159;0.02920819;-0.111754715;-0.19709942;0.0051935096;-0.014403316;0.14737959;-0.10305477;-0.020576898;-0.09841199;0.06669404;0.042585023;0.074593656;-0.051743325;-0.08644092;-0.120256744;0.01968636;0.10717019;-0.006764805;0.03675244;-0.021247154;-0.09456748;0.019547094;-0.121699095;-0.22325462;0.052527405;0.01701149;-0.24395192;-0.0832337;-0.15812866;-0.062632844;0.042394154;0.058199815;-0.058699228;0.15371364;0.036695365;-0.1988069;-0.07732557;0.027614638;0.08823034;-0.06095395;-0.015205099;-0.08197289;-0.20441328;0.032591756;0.05915472;-0.115292765;0.05029322;-0.0038489462;0.040410656;-0.09994275;2.594669e-05;-0.010319704;0.0054058786;-0.29546535;0.06263278;0.05292689;-0.014190146;-0.20735516;-0.004362899;-0.0045443433;-0.03324283;-0.13589886;0.02789546;-0.07325293;-0.05303313;0.019719828;0.04544167;-0.0006208392;-0.07919523;0.04919813;-0.08966291;0.13435236;0.022598596;-0.12373263;0.0567076;-0.22115736;-0.020817317;-0.21781746;-0.085988544;0.025863664;-0.12392166;-0.12230627;-0.087620825;-0.07654054;0.013397836;-0.16839188;-0.09604038;-0.25127175;-0.058085695;-0.10248513;0.04965261;-0.008101042;-0.2720313;0.25042444;-0.020609388;-0.16088235;0.049645834;-0.10677556;0.063964285;0.027626881;-0.06776095;-0.022301706;0.02777023;-0.08697141;-0.10738447;-0.15564322;-0.14461626;0.03755414;-0.28808764;-0.0042312928;-0.12946305;-0.18731035;-0.020293377;0.05061552;0.08336135;0.067344144;-0.10779873;-0.048921656;-0.1894497;-0.021120975;-0.0047056787;-0.06204345;-0.12204005;-0.06826846;-0.22341028;0.0394074;0.14109029;0.070891164;-0.039496753;-0.16703933;-0.072254635;-0.06408538;-0.15749905;0.12806492;-0.28221494;-0.23065236;0.0019737368;0.008212988;-0.054051924;0.031042008;0.05017621;-0.043107886;-0.1547202;-0.11886079;-0.18993148;-0.027708033;-0.052716043;-0.029199803;-0.04825807;0.0012137513;-0.29527393;0.014602747;-0.12555003;-0.021047466;-0.12520759;0.050692365;0.01446578;0.14941643;0.03818355;-0.13183916;-0.19478613;0.093974784;-0.049880367;-0.028762737;-0.27357605;0.03765655;-0.025842456;-0.05833976;-0.14289556;-0.06002653;-0.05088256;-0.049764045;-0.04463889;-0.17237246;0.0384806;-0.020545054;0.08394343;-0.04142216;-0.0022395756;-0.12830608;-0.0724672;0.028982442;-0.019097595;0.20744349;-0.050623536;-0.05257145;-0.018465454;0.0341987;-0.008232701;-0.08300052;0.043637883;0.046050593;-0.08493598;-0.15888508;-0.22677185;-0.054907177;-0.07535558;-0.11620248;-0.06049201;-0.11525102;0.025602503;0.041916627;-0.069404304;0.045224536;0.045628354;0.08563996;0.03353966;0.066868;0.01714849;-0.061234485;-0.075805895;-0.111772574;-0.2002134;0.019363191;0.048651475;-0.020932663;-0.1470817;-0.06862904;0.04944719;0.036842722;0.0027803683;-0.15087964;-0.10923329;0.22974436;0.051883187;-0.08924691;0.041425508;-0.06357307;0.0008162406;-0.035849746;0.10320871;0.009493179;-0.13123773;-0.050236285;-0.060701024;-0.114733376;-0.09551764;0.00874141;-0.056304082;-0.11876839;0.022264324;-0.020652667;-0.10588473;-0.020502051;-0.13321334;-0.050821397;-0.06756129;-0.08841645;-0.03645365;0.057098698;-0.11387166;-0.014507222;-0.16116385;-0.13421062;0.017583417;-0.030856432;-0.1794723;-0.014683051;0.03019193;0.043601684;0.0126110315;-0.0024144128;0.10233293;-0.12893023;0.00426621;0.010602682;-0.1382271;-0.19022256;0.013471684;0.11653422;0.00079977384;-0.06063186;-0.03277873;-0.09709388;-0.11665804;-0.053005174;-0.16415882;-0.070792966;-0.016825879;-0.010316416;-0.12399332;-0.05894432;-0.0755109;-0.08015839;0.0034055593;-0.08954402;0.109084494;0.030038245;0.038811103;-0.00784758;-0.06232658;-0.011633999;-0.051733572;-0.041615136;0.07019433;0.07432;0.18340507;0.011674663;-0.027584681;-0.1455098;-0.15185921;0.09097137;-0.05592454;0.03986739;-0.10746641;-0.08989148;0.031996254;-0.006208723;-0.05338564;-0.10520078;0.008093753;-0.115559615;-0.049824897;-0.0052515524;-0.06994017;-0.1789586;-0.07435118;0.02697703;-0.14137936;-0.0945313;0.039560046;-0.11112182;-0.19481333;-0.06988114;-0.024213454;-0.12380564;-0.08941578;0.050295617;-0.052991197;-0.1859155;0.065784246;-0.05076847;-0.013814206;-0.0076914746;-0.081706904;-0.115308605;-0.08783036;-0.06643484;-0.081143886;-0.016737793;-0.008945319;0.067385636;-0.08896528;0.09580584;-0.21074921;-0.10499972;0.0070034;-0.024923336;-0.05817286;0.0077409223;-0.038250983;-0.18581517;-0.1262985;0.1726882;0.023554388;-0.0065549836;-0.10690537;-0.025042897;0.0720265;-0.03287714;0.028470075;-0.09419593;-0.099488795;0.17954175;-0.18821274;-0.062336244;-0.07453573;-0.28894958;-0.10723769;0.20839895;-0.0735252;0.009548946;0.083377816;0.021572243;-0.049367875;0.011188905;-0.07016052;-0.076588884;-0.010853677;-0.15257286;-0.01806744;-0.0408374;-0.030152181;-0.018651424;0.07920673;-0.034202997;-0.044098295;0.12103179;-0.0042110374;-0.019040307;-0.029416602;-0.10794437;0.051485132;0.0016035477;-0.04337381;-0.13391067;0.017995173;0.018013554;-0.03413777;0.06687875;-0.04709685;-0.049095564;0.089592285;-0.046983145;0.059264794;-0.08608231;-0.27819863;-0.14153288;-0.013818069;0.0015216883;0.0397433;-0.03621337;-0.000113906855;-0.08985042;-0.121493876;0.0058535896;0.029111305;-0.18371405;-0.07631588;-0.06646876;-0.29676154;0.027297411;0.03145726;0.003093805;-0.031680375;-0.016522065;-0.20592223;-0.12319694;-0.031155119;-0.1363902;-0.034149177;-0.08355768;0.025789717;0.0045162267;-0.03220683;-0.08199409;-0.20785338;0.21296006;0.09323527;-0.18686101;-0.10169258;-0.16314508;-0.08227186;-0.14826553;-0.25562456;-0.11094549;-0.0054135076;0.17717914;-0.0445468;0.015849285;-0.27219993;-0.15502866;-0.01144789;-0.22630824;0.19558436;0.17748399;-0.015626766;-0.11064989;-0.04673426;-0.019126642;-0.110512465;-0.18552169;0.18731973;-0.053055476;-0.13462587;-0.13500378;0.06567374;0.050234094;-0.0066492823;0.037402067;0.032111514;-0.028948791;-0.021642573;-0.13188618;-0.0133899;-0.008480493;-0.14132336;-0.04215175;-0.18609345;0.049255572;-0.15789093;-0.28820893;0.082130864;0.086739756;-0.007924469;0.04917786;-0.14257775;0.0009418426;0.062353153;-0.10863615;-0.1327177;-0.12782547;0.028429387;-0.03338943;0.018238824;0.08849951;0.023346225;0.045413554;-0.00017845209;0.01490929;0.0017727393;0.049476698;-0.048174504;-0.027617846;0.07916163;-0.07420426;-0.15589404;-0.2789706;0.032232367;-0.049062744;0.045717735;-0.09373875;0.12239562;-0.017533733;-0.1078725;-0.01410685;0.08218922;0.12949125;-0.08518219;-0.019382738;0.16037217;-0.08426371;-0.048058003;0.0440758;-0.06321053;0.014316607;-0.089563675;-0.0067057232;0.12058184;-0.17310801;-0.047064107;0.083101235;-0.07067056;-0.06895928;0.06144149;-0.006023446;-0.3761418;-0.085892595;0.072991535;-0.052312534;0.081476904;0.023599874;-0.02803354;-0.060968477;0.021629069;-0.08081171;-0.072440036;-0.10638925;-0.05631841;0.0056783482;-0.07922238;-0.005251437;-0.1363386;-0.008516927;-0.1674056;0.019502038;-0.12996057;0.053353798;-0.06177795;-0.11030543;-0.06598405;-0.09575428;0.010509882;0.008338124;-0.09197223;-0.05268447;-0.07959096;-0.13979764;0.08774803;-0.05211322;-0.09245344;0.0050800033
-0.035864748;-0.10387258;-0.09531551;0.012813225;-0.060743697;-0.18931684;-0.16814347;-0.10107238;-0.002752002;0.073274665;0.050512917;-0.014509041;0.0055292686;0.117575124;-0.06443582;0.053980775;-0.043567494;-0.010151266;0.00031742256;0.08717012;0.014200006;-0.007108921;0.09533082;-0.054892194;-0.06610998;-0.030257007;-0.050813656;-0.1804338;-0.029918944;0.070668116;-0.053279363;0.11713842;-0.009100768;-0.08717948;-0.02094238;-0.08108009;0.043082453;0.014527322;-0.092509076;-0.10984063;-0.042370137;-0.05732426;0.08708797;-0.05376044;0.07208087;-0.07052648;-0.039810043;-0.06396558;-0.031170731;-0.10137083;-0.01619286;-0.01383127;0.017145978;-0.052735213;-0.12888208;0.00120098;0.10188842;-0.28392345;0.1241675;-0.020502193;0.0054494413;-0.14424916;0.0116201565;-0.12064173;-0.12795548;-0.1552365;-0.059677124;0.03781457;-0.10007415;-0.07240556;0.007946779;-0.085572906;0.04539582;-0.036122534;0.00093628303;0.15560903;0.028767236;-0.1250587;-0.014052564;-0.19100168;-0.13001561;-0.19845341;0.0526235;0.014898561;-0.15523838;-0.066580236;-0.09225644;-0.04818805;0.037194;-0.18709864;-0.11976839;-0.037763804;-0.031116674;-0.13239542;-0.054632045;0.04305987;-0.14832535;0.14220828;-0.043599647;-0.11763928;0.017306387;-0.110217065;0.17009859;-0.07371135;-0.16246304;-0.033384006;0.047392093;-0.10438486;-0.031616088;-0.04780923;-0.12308479;-0.0071810037;-0.21040611;-0.021026224;-0.0034595006;-0.23520567;0.013679898;-0.083012015;0.017622119;-0.07907722;0.051014744;-0.10804017;-0.14652929;-0.062721275;-0.012509527;-0.12955749;-0.024519693;-0.074015245;-0.07702643;-0.010269003;0.03352396;0.03233531;-0.023080567;0.007433447;-0.049391203;-0.06703956;-0.06954171;0.0554142;-0.21113142;-0.18281296;-0.053413324;0.0063996976;0.020265171;0.16624886;-0.0065995846;0.04117902;-0.21644956;-0.044872794;-0.13973373;-0.018701144;-0.11786741;-0.037022863;-0.0029877177;0.13645619;-0.30582514;-0.07275057;4.1925763e-05;0.09102276;-0.02975544;-0.04540029;-0.037044853;-0.028787991;-0.025521006;-0.22954805;-0.116499215;0.060885996;-0.026286747;-0.017932845;-0.13147753;-0.037457675;-0.008486905;-0.127372;-0.06951186;0.027868647;-0.09184671;-0.03528387;-0.053513147;-0.08805061;0.017063608;-0.12069341;0.03918308;-0.089835875;0.10803831;-0.052221157;0.028478649;0.08464266;0.00043138303;0.052140318;-0.0045672185;0.042245194;-0.052033518;-0.007831348;-0.10045126;-0.02470959;-0.08620796;-0.1175569;-0.1977875;-0.06207968;-0.15776749;-0.05063733;-0.06923768;-0.075274356;-0.0017714053;-0.11594527;-0.039241806;-0.0120724775;0.0019277794;-0.0101373065;-0.112959735;-0.03686924;-0.048113577;-0.036168512;-0.048504427;-0.023153158;-0.099069744;-0.037087303;-0.14073773;0.02950951;0.052861437;-0.0867056;-0.14062251;-0.07389392;-0.011292867;-0.13978592;-0.08576989;-0.10603852;0.039238874;0.1104654;0.07467532;-0.10957017;-0.018613674;0.000714227;-0.11394831;-0.04824479;0.15616332;0.0065751043;-0.11437509;-0.09806807;0.08164225;-0.15742798;-0.11008238;0.053079493;-0.12475584;-0.119806394;-0.05635339;-0.010907993;0.02196521;-0.006888512;-0.069197856;0.07658711;-0.028966894;-0.08214172;-0.034642853;-0.024932204;0.026092537;0.011635772;-0.0013312342;-0.16707763;-0.029843207;-0.13248156;-0.15792468;-0.03719617;-0.09727671;-0.026436064;0.014800756;-0.004966487;0.041537356;-0.09770991;-0.024774948;0.006282142;-0.15767223;-0.13836147;-0.020490948;0.0053811395;-0.07102041;-0.117567465;0.030786313;-0.14813678;-0.06298162;0.058061484;-0.07344173;-0.08632964;0.044844016;0.044061266;-0.1069498;-0.15365782;-0.15782924;-0.057070646;-0.028651102;0.03494141;0.029272832;0.07410426;-0.008851918;-0.047994416;-0.031745452;0.0020297605;-0.07569712;0.062241092;0.023652053;0.052402284;0.17149834;0.15098837;-0.032157455;-0.12401431;-0.18288499;0.0984128;-0.05105429;-0.04693721;-0.060007438;-0.020686515;0.025468234;-0.027865417;-0.07273588;-0.117344245;-0.12653065;-0.052677434;-0.16899835;-0.06462668;-0.093140796;-0.114607304;0.054802373;0.04675787;-0.104579784;0.011022906;-0.016668823;-0.08930103;-0.15689544;-0.04164028;0.044071667;-0.06621831;0.063876286;-0.054749526;-0.13655914;-0.18687142;0.02777159;0.011213689;0.06328803;-0.08854377;-0.05756473;-0.1068233;-0.022150172;-0.12009459;-0.0064034173;-0.04233099;-0.025562733;-0.069632456;0.029004142;0.14804466;-0.29013875;-0.0115240775;-0.014249235;-0.11925328;-0.0006628393;-0.08621441;0.036692396;-0.06069201;-0.13953723;-0.0032053648;0.065836884;-0.030558096;-0.06840793;-0.02960426;-0.05284516;-0.019639952;-0.112160094;0.068902194;-0.039817814;0.08999846;-0.15496835;-0.041004334;-0.10818539;-0.08693901;-0.071976885;0.10123873;-0.0116415555;0.03501252;-0.05213182;0.019839397;-0.07098468;-0.013503373;0.049950298;-0.07604303;-0.0696692;-0.17907162;-0.10727736;0.023513863;-0.07640901;0.021101475;0.11564931;0.12841573;-0.06341601;0.100084946;-0.01781385;-0.07666511;-0.07658913;-0.15259297;-0.020719431;-0.010521434;-0.024434905;-0.055593006;-0.030209797;0.056583103;-0.09319959;-0.04505385;-0.031178981;0.036199905;-0.11705611;-0.03858997;-0.009515372;0.070699304;-0.1231735;-0.16828203;-0.0073108063;0.046239212;-0.052662518;-0.06477735;0.030613516;-0.07997116;-0.02067;-0.081029646;-0.009348117;-0.035436884;0.034226485;-0.118976735;-0.13625382;0.01753968;0.13185142;-0.06272251;-0.013737258;-0.054645605;-0.16921219;-0.098699436;0.056548443;-0.113885194;-0.09975714;0.00033575256;0.0028563098;0.043206032;-0.060370214;-0.02513759;-0.14269169;0.11758444;0.013504072;-0.17109545;-0.02519992;-0.15452555;-0.0821702;-0.22957768;-0.15134503;-0.10950301;-0.024704864;0.06055206;-0.04238087;0.03824643;-0.26802462;-0.04792287;0.055335704;-0.22289328;0.039927576;0.16239798;-0.0979643;-0.017794399;-0.059580766;-0.05199089;-0.097993724;-0.049156815;0.083888955;-0.10817833;-0.11272214;-0.020397356;0.05798002;0.095654696;0.1362372;-0.033441987;0.042486172;-0.030385723;0.0064384416;0.043917876;-0.10680525;-0.058056645;-0.12886058;-0.08137776;-0.12795532;0.0101408195;-0.07288677;-0.28783864;-0.083143145;-0.031210653;0.025969025;-0.02690317;-0.15122621;-0.10487934;-0.066715114;-0.011947141;-0.14356455;-0.021444019;0.06421827;-0.02960307;0.013183087;-0.044687703;-0.035094116;-0.031725354;0.14224651;-0.027491877;-0.062946424;0.007826497;0.048105657;-0.03515024;0.03508287;-0.04808632;-0.025051922;-0.27115926;0.000143467;0.04872079;-0.05164417;-0.14598605;-0.05095408;0.06280038;-0.10466408;-0.088103995;-0.0054834024;0.17186722;-0.10389132;-0.09217443;0.12524068;-0.08656398;0.03887661;0.006845547;-0.05347572;-0.0061724912;0.008114529;-0.04588844;0.09280459;-0.29943433;-0.0782905;0.033170223;-0.10228063;-0.001190693;-0.034008566;0.018623263;-0.31210306;-0.09942035;-0.011824585;-0.082941465;0.10940847;0.042894986;0.033599924;-0.020970685;-0.0050638295;-0.10922108;-0.047973834;-0.027766762;-0.115946874;0.015674872;0.018087087;-0.07856222;-0.09553555;0.0013815872;-0.10404259;-0.0002146162;-0.16391696;-0.07904589;-0.07086726;-0.07619541;-0.09101327;-0.038824238;-0.055946328;0.032269314;-0.01551007;-0.082234524;-0.001024095;-0.046121933;0.10025347;-0.11127289;-0.027641343;-0.019564908
0.028206773;-0.06317642;-0.010745014;-0.0505771;-0.01814935;-0.10236222;-0.13887696;-0.01361177;-0.008430535;0.021602081;-0.07551809;-0.043325625;-0.011069641;0.17169803;-0.05637847;-0.023718107;0.015877148;-0.009892028;0.035126325;-0.013059174;0.06499792;-0.042116378;0.009965668;0.10151096;-0.06029953;0.080517985;-0.014053812;-0.10480385;-0.06278773;0.022875;-0.0965939;0.14002754;-0.045926362;0.031057183;-0.0018516519;0.07456525;0.14210199;-0.012354936;-0.06708763;-0.07114432;-0.10139811;0.035528686;0.09826715;-0.100528836;-0.0040179235;0.050206304;-0.10667254;-0.09598796;-0.10723646;-0.04836317;0.027955763;-0.0007582718;-0.07948839;-0.04008905;0.013474476;-0.011633786;0.11460375;-0.29243502;0.0425758;-0.042852588;-0.033669464;-0.16647129;-0.007178104;-0.08368504;-0.14095058;-0.20126452;-0.17823423;-0.021814;-0.069635704;0.0427087;-0.011220645;-0.026796168;0.0065230196;-0.043254934;-0.1026737;0.20121203;0.03135116;-0.0147767505;-0.081366286;-0.09804722;-0.11232188;-0.20027433;-0.045348246;-0.02170098;-0.15115516;0.014590448;-0.045115948;-0.093268424;0.042743985;-0.20839912;-0.0034014725;-0.16254462;-0.019433819;-0.08509945;-0.112794645;-0.014510245;-0.22226201;0.12886102;0.10637841;-0.016276447;-0.054574784;0.010744142;0.18996273;0.04419053;-0.18433954;-0.1269306;-0.02054225;0.028170712;-0.038126692;-0.12072282;-0.1135809;-0.06612095;-0.20892152;0.021279879;-0.09562801;-0.14618163;-0.02810532;-0.056265507;-0.074230865;-0.06376602;0.010735415;-0.122365415;-0.0022386054;0.043184068;0.04388642;-0.11336485;-0.004208641;-0.1356374;-0.09693029;0.0722486;0.19801211;0.079930246;-0.10661693;0.04057768;-0.13825205;-0.08417639;-0.13420966;0.09314094;-0.10560368;-0.15278256;-0.014767856;-0.10371581;0.034829672;0.0820785;0.073140495;0.020984724;-0.115687706;-0.05318463;-0.019036032;-0.11179125;-0.12022694;-0.0342359;-0.07123239;0.018339783;-0.18795964;-0.025257481;-0.029403452;0.105963044;-0.10231811;-0.0011895393;0.055547703;0.093965866;0.06342027;-0.17794266;-0.121292315;0.043676708;-0.06574102;0.029448237;-0.17039584;0.009528088;-0.048184812;-0.010461811;-0.025158972;-0.031312294;-0.1645872;-0.05732501;0.04281508;-0.14764786;-0.020775557;-0.029554171;0.013581779;-0.022527205;-0.010624725;-0.100931086;0.061459303;0.04239183;-0.10427708;0.110988274;-0.099166654;-0.059736606;-0.033029545;-0.09621372;-0.079770125;-0.081099555;0.0151463095;-0.08245864;-0.14363292;-0.13281862;-0.11368825;-0.10946454;0.034315605;-0.011728944;-0.04490662;0.0014002181;-0.114876024;0.028053293;0.012025519;0.0022462818;-0.012737073;0.05090713;-0.09161621;0.043838676;-0.011336888;0.029502759;-0.0409868;-0.014249396;-0.20679793;0.037773248;-0.006315742;-0.061675504;-0.11660264;-0.004510674;0.11159117;-0.10963947;0.020699885;-0.0908778;-0.0026254838;0.12403555;0.09323438;-0.10670394;-0.03734809;-0.017124819;-0.092247814;-0.009993146;0.04300999;-0.09105598;-0.051516555;-0.11649914;0.03193048;-0.04068781;0.00912826;0.0019669782;-0.11511801;-0.08101905;-0.08009843;-0.058494262;0.08849373;0.0064259125;-0.08417591;0.057212465;-0.08392339;-0.07977261;-0.08331862;-0.04353577;-0.11812902;-0.0018280108;-0.12118723;-0.077199206;-0.014344531;-0.10632181;-0.047923855;0.04098054;-0.033753086;0.060117904;0.021456048;-0.031880565;-0.016268997;-0.16482125;0.0030253828;-0.09026706;-0.12062766;-0.15320104;-0.10838398;0.035807423;-0.053259406;-0.06813855;0.0066616186;-0.005293811;-0.026623165;-0.006667513;-0.053627454;-0.0061172307;0.018317563;-0.014100656;-0.037207533;-0.02070575;-0.0407611;-0.01975918;0.0075328443;-0.12959276;0.06345472;0.098385036;0.09120408;-0.0074561397;-0.04495748;0.030116284;0.017192408;0.041635517;-0.058983747;-0.008539252;0.23280661;0.03779635;-0.01838846;-0.0840704;-0.23297288;0.10620973;-0.025883827;-0.08403339;0.037692487;-0.052640233;-0.07920829;-0.057979647;0.025162486;-0.1584552;0.03940869;0.026164725;-0.09958139;-0.044668913;0.0071317074;-0.14011942;0.044746995;-0.01650298;-0.14962238;0.042314366;-0.06858393;-0.03564296;-0.2357134;0.025370685;-0.09038984;-0.15444884;0.038983222;-0.013705481;-0.06357369;-0.11123555;0.019026723;-0.0020989692;0.038204897;-0.0037630673;0.001602077;0.025098229;0.008014358;-0.073567025;0.03460024;-0.1350607;0.03429452;0.031079467;-0.037967727;0.10899252;-0.20838901;-0.056180988;0.011481715;-0.08047489;-0.11119236;-0.09846364;-0.022955425;-0.09482111;-0.026946748;0.061191935;0.10390798;-0.124982186;-0.04058953;-0.02993139;0.07079259;0.0145679265;-0.07739944;0.024378156;-0.08791523;0.19856818;-0.15460901;-0.023790874;-0.10645788;-0.17478348;-0.05647369;-0.015213123;0.028183138;-0.05136735;0.0854807;-0.066248536;0.030586576;-0.1337384;0.02814357;-0.07036954;-0.025909044;-0.07864417;-0.050947037;-0.0093306145;-0.05179573;-0.049257576;0.152255;0.114666015;0.050616812;0.08783318;-0.11433692;-0.043828737;-0.0314001;-0.06818143;0.03847835;-0.012755903;0.07068898;-0.10141638;-0.119502194;-0.08383423;-0.0018824262;-0.06715161;-0.057348534;-0.02060514;-0.09739706;-0.07693789;0.011719211;0.10186402;-0.20901974;-0.13188991;-0.08144474;-0.08616578;-0.050951786;0.014946134;0.055125672;-0.08877028;-0.06976537;0.05597226;-0.10985075;-0.028256772;-0.071565375;-0.08336864;-0.18453208;-0.0031161846;0.05069789;-0.023886204;-0.11797837;-0.03225565;-0.062404744;-0.015991861;-0.022675661;-0.04807194;-0.12712948;-0.011741359;0.024817307;0.0041128118;0.014458548;-0.089502476;-0.16784203;0.09106711;0.11389796;-0.13170439;0.005655733;-0.10558638;-0.07741733;-0.13461497;-0.119558156;-0.02632527;-0.044983402;0.047409773;0.018908821;0.011870955;-0.18530911;-0.032387484;0.06496619;-0.14640445;0.15028127;0.1402419;-0.04885708;-0.15989366;-0.0064910576;-0.018237915;-0.015824512;-0.04234033;0.20206313;0.02697057;-0.10113525;-0.046903532;-0.003214215;-0.0073030684;0.045717005;0.00569059;0.042903468;-0.017861884;-0.09693665;-0.007221177;-0.04061125;-0.04569773;-0.143534;-0.07951477;-0.13038191;0.033337083;-0.013709755;-0.25495753;-0.058006518;-0.07199037;-0.025979064;0.020681754;-0.08814396;-0.09454926;-0.08203416;-0.052949525;-0.1830191;-0.10038191;0.03090297;-0.105936855;-0.1200713;0.04077018;0.07230128;0.022801748;0.1575971;-0.08223584;-0.098974206;-0.0747426;-0.05284645;-0.12539327;0.042169888;0.042378638;-0.15731627;-0.21541516;-0.09848154;-0.06642515;-0.037342228;-0.0023304985;0.08934854;-0.0853906;-0.093434274;-0.059160147;-0.028339583;0.12449702;0.020697832;-0.090362005;0.006706926;-0.15038328;-0.0108155245;-0.094746105;0.023341268;0.056866232;-0.0013750197;0.012178189;0.15146095;-0.16635063;-0.067537755;-0.09249921;-0.0013133227;-0.07348089;0.005654033;-0.06404504;-0.380942;0.0075851697;-0.1213585;-0.06941512;0.04982809;0.062955685;-0.075304955;-0.033117242;-0.12410614;-0.012442709;-0.07312547;-0.03673157;-0.046863478;0.013393924;-0.09426012;-0.08053558;-0.044096936;-0.03061851;-0.13489215;0.0022590184;-0.027017828;-0.063152276;-0.20345263;-0.0011089011;-0.06963234;-0.05438629;0.017433655;0.019688336;-0.01709177;-0.07734022;-0.03393237;-0.08647293;0.032483265;-0.12973048;-0.025475813;0.011183027
0.09355702;-0.034423392;-0.1125925;-0.04979275;0.003956168;-0.10995732;-0.10773148;-0.01616309;-0.038047194;0.015914384;-0.092366375;-0.05527465;0.07411583;0.037855618;-0.023323735;-0.06640058;-0.04362932;-0.06529233;6.747427e-05;-0.026445521;-0.04013532;-0.04440023;0.058866486;0.017206201;-0.079526156;0.013951997;-0.032806475;-0.14764956;-0.00567756;0.021378605;-0.0706293;0.19303665;-0.11398841;-0.020807154;-0.09529345;0.051437985;0.08379472;-0.08986723;-0.008178436;-0.066834986;-0.07619304;0.0650921;0.071083166;-0.07397604;0.030760726;-0.0009832565;-0.033143077;0.031675763;-0.103965916;-0.07328888;-0.02918341;-0.09267465;0.028408054;0.016196202;-0.13749406;0.00026430038;0.054345556;-0.23165163;0.11628084;-0.013076272;-0.083303444;-0.2503262;0.040817905;0.0060471417;-0.030054506;-0.09969216;-0.05812426;-0.065040775;-0.027113145;0.019359391;0.020817433;-0.040778577;-0.04558445;-0.018040733;-0.12188396;0.16533612;-0.07140453;-0.10560833;-0.09854634;-0.17853408;-0.0007892327;-0.104959026;-0.02965103;0.0962065;-0.1510607;-0.076846294;-0.0084495265;-0.12170763;-0.014588072;-0.20812914;-0.0026846563;-0.077964045;0.04166333;-0.106754355;-0.11779033;-0.07647199;-0.18883598;0.17470413;-0.0076193414;-0.12901719;-0.020243268;-0.01551585;0.06808054;0.05547068;-0.12849297;-0.094456494;0.032340877;0.0029720014;-0.06563348;-0.09014454;-0.03573563;-0.09761651;-0.2667334;0.05863788;0.01273308;-0.17583756;-0.06544247;0.025807237;-0.094405316;-0.018988645;-0.013112793;-0.084396854;-0.08339888;-0.006115797;-0.06772267;0.0073971455;-0.118040204;-0.06939153;-0.150511;0.013245461;0.052006796;0.027938694;-0.120420426;-0.07135325;-0.12098126;-0.04571433;-0.1684913;-0.060406197;-0.16099691;-0.19221412;0.022572573;0.014156219;-0.040869903;0.18885921;0.030632207;-0.11005425;-0.0901197;-0.07385153;-0.030602457;-0.013089483;-0.17646238;-0.10450963;0.056324955;0.067575805;-0.23035498;-0.062425207;-0.04200022;0.067284316;0.013350113;0.082775004;-0.08613339;0.037407346;0.024791503;-0.2298978;-0.037370007;0.03471898;-0.05626586;-0.09339596;-0.15334646;0.048132755;0.045023527;-0.17295368;-0.10637029;-0.1041497;-0.16895539;-0.024157748;-0.091258705;-0.10479784;-0.11186575;-0.06820808;-0.03587373;-0.018793646;0.116609246;-0.16613616;-0.055133197;-0.0314254;-0.0703324;0.09035609;-0.0976775;-0.06789336;0.021582711;-0.0709806;-0.038685635;-0.082523696;-0.06934448;-0.07527067;-0.13209963;-0.1994527;-0.18580575;-0.033313;-0.096649215;-0.14171231;-0.05911098;-0.06594303;-0.02775211;-0.024843017;-0.04047454;0.061448105;-0.02659009;-0.0030802027;-0.020181755;-0.07910326;0.028072178;-0.03508235;-0.04615422;0.024269734;-0.10589631;-0.06132961;-0.019574847;0.02480447;-0.1567781;-0.004945268;0.13006483;-0.018279111;-0.016673822;-0.1346073;0.048686307;0.05814293;-0.021664882;-0.09870553;-0.018781435;-0.056408364;-0.07196905;-0.078032084;0.16444744;-0.0032672822;-0.07682148;0.018621149;0.08750089;-0.14118151;-0.08553857;0.011123523;-0.011685206;-0.0068054423;-0.0074591017;-0.020849414;0.043831058;-0.114000276;-0.087780975;0.090344764;-0.10913812;-0.097800225;-0.0122467;0.049979903;-0.11790569;-0.03311502;-0.02882689;-0.120442264;-0.015788065;-0.15429395;-0.15544;0.051521953;0.0015855429;0.039479528;0.08696578;-0.010440815;0.07816581;-0.11711836;-0.049769882;-0.028296132;-0.14976035;-0.100902274;0.021674031;0.07323615;-0.093100265;-0.12384681;-0.090289526;-0.036185045;-0.11493362;-0.037617814;-0.17511684;-0.050621595;-0.019057294;-0.008961017;-0.1008983;-0.022620127;-0.101695396;-0.13012335;0.02695181;-0.13224794;0.078652374;0.0295517;0.08640567;-0.01622228;-0.10256233;0.051673975;-0.11188067;-0.04583231;0.058982685;0.035025854;0.21067399;0.0037508218;-0.007733572;-0.032016497;-0.15985608;0.12190105;-0.1501113;-0.051171005;-0.01739868;-0.03661086;-0.051340867;-0.07738795;0.047325563;-0.10261276;-0.07725513;-0.03340819;-0.14880706;0.040684737;-0.010702101;-0.23572065;-0.048305064;-0.045981914;-0.13881265;-0.041435145;-0.11135193;0.019757258;-0.21946903;0.027139802;0.0056838626;-0.09212134;-0.08455813;-0.022333713;-0.15527512;-0.114369184;-0.014390104;-0.08319466;0.034816556;-0.06488894;0.050189752;-0.032144625;-0.03638812;-0.12568074;-0.09044183;-0.12511998;-0.09036475;-0.06611946;0.042219974;0.1297729;-0.20643634;-0.10301621;-0.019458588;-0.03484586;0.029706074;-0.001647809;0.024043445;-0.063424006;-0.13790202;0.06999684;0.10104915;-0.11473667;-0.061692387;0.02187366;-0.026218114;-0.02855577;0.06066787;-0.0019201158;-0.029707465;0.18521206;-0.09108266;-0.07558246;-0.12297333;-0.21932971;-0.04623455;0.011161277;-0.006722587;0.026132865;0.027396439;0.024508268;-0.002453645;-0.1788782;0.023508744;-0.14978932;-0.08487602;-0.1074083;-0.019298963;0.038318817;-0.05590484;-3.7046808e-05;0.19442393;0.1022675;0.060937203;0.09215746;-0.0030514617;-0.108157784;-0.14258112;-0.068197265;-0.0040339334;-0.018593963;0.023425786;-0.083711505;-0.023213668;-0.03055023;0.037736125;-0.041854605;-0.002902422;0.03630027;-0.071698636;-0.023379695;-0.0844669;-0.018202323;-0.13567235;-0.13972196;-0.098656535;-0.046150133;0.050419774;-0.015035218;-0.0778726;0.0081133405;-0.07576548;-0.02728952;-0.027241293;-0.044399504;0.040084522;-0.039145947;-0.22345163;0.047970343;0.15593268;-0.025849057;-0.11180238;0.028824028;-0.086807035;-0.019169606;0.04578865;-0.09313638;-0.10889551;-0.0134954965;0.028150646;-0.059772205;-0.04131227;-0.17652585;-0.06976671;0.12210726;0.029096896;-0.11537265;-0.05807306;-0.10309947;-0.07237198;-0.18089016;-0.22949159;-0.11619334;0.03656652;0.051494934;0.034000885;-0.02568348;-0.24728945;-0.048957977;0.032725636;-0.19200021;0.1721332;0.17252056;-0.07655749;-0.08620243;-0.09555392;0.022951925;0.022603113;0.013428821;0.18811366;-0.12074901;-0.04280732;-0.10045511;0.03672245;0.08713014;0.030569715;-0.100778006;0.09456601;0.03830379;-0.077116355;0.034733478;-0.08433403;-0.11203593;-0.18713945;0.051856853;-0.037629932;0.04655839;-0.14668871;-0.23659387;0.0076209335;-0.084960334;0.09810314;-0.09100868;-0.078924984;-0.06796241;0.049444422;-0.12138826;-0.0731024;-0.008309936;0.08064823;-0.03146342;-0.076243654;0.056623925;-0.087520726;0.11094379;0.15659428;-0.018520359;-0.037144694;-0.024316056;-0.048336156;-0.054546285;0.06597697;-0.0015779119;-0.13766965;-0.17806794;-0.105938606;-0.06299943;-0.054940473;-0.006037543;0.00840209;-0.07961836;-0.1297747;-0.13189656;0.006898433;0.26176012;0.0033523315;-0.15191035;0.07080362;-0.07374993;0.06429314;0.0647523;-0.10882604;0.032882385;0.037067767;0.03687321;0.089737915;-0.3025823;-0.036348935;0.026691489;-0.0858426;0.040895205;0.04439458;-0.10883767;-0.36530244;-0.013923058;-0.12836096;-0.023541754;0.10136883;-0.0594276;-0.05721801;-0.024295084;-0.090223454;-0.06712646;-0.0007903201;-0.0077022845;-0.1383747;0.011604841;-0.056482494;-0.07513486;-0.1045152;-0.06252094;-0.14415114;-0.028205942;-0.11048043;-0.06865576;-0.1774243;0.010226309;0.03885662;-0.060648847;-0.076690115;0.03812354;0.008014456;-0.057232;-0.08007692;-0.0144438315;0.035544656;-0.017358042;0.026717855;0.026671631
-0.05795415;0.10192167;-0.026586195;0.07945371;0.11394204;-0.05689624;0.09172373;0.04541157;-0.03226196;-0.07978549;-0.006255213;0.023020698;-0.059178412;0.012301536;0.041167207;-0.16211383;0.06463007;-0.037047774;0.06291943;-0.08798516;-0.04143735;0.12379812;0.055043902;0.07421249;-0.025849145;-0.020096937;0.031182274;0.08005335;0.08004432;0.10321727;-0.042478476;-0.0740487;0.061276942;-0.03881331;-0.056456123;-0.013317264;0.034241367;0.008329088;-0.05134862;-0.05726864;0.08573526;-0.009549747;-0.010184737;0.0822609;0.10912504;0.045120876;-0.05305617;0.015163884;0.04810299;0.036397964;-0.0034282096;-0.05347561;0.023308493;-0.066995226;-0.06794366;0.037351087;-0.05418134;0.055293653;-0.09309087;0.07984472;0.01645946;-0.03454854;-0.040842865;-0.17694922;-0.00942448;-0.03281205;-0.0061087776;-0.04304248;0.072640575;-0.008246788;0.033233512;-0.025491873;0.08915105;0.067512624;0.011396041;-0.013823277;0.07041906;0.10600123;0.090053044;0.037297163;0.0400857;-0.026467364;-0.026560837;-0.013549086;0.10306638;0.08034489;-0.017915802;0.08265032;-0.018709382;0.10779452;0.011087307;-0.0125919925;-0.06103386;0.106067725;-0.00019503286;0.058160152;0.14544974;0.09362636;-0.011311504;0.11395963;-0.024964474;0.051574364;0.10848722;0.06508314;-0.021361446;0.066092744;-0.035207614;0.10016568;0.089745715;0.04378301;0.021148194;0.10936095;0.022550868;0.017695826;0.0999675;0.06813167;0.07683265;-0.047113687;0.013145354;-0.022281794;0.088518284;0.13655433;-0.03107027;-0.03134019;0.011221788;0.047477577;-0.048952695;-0.011750827;0.024070779;0.059897225;-0.020894494;0.12001865;0.0043553207;-0.063165605;0.056120545;0.073343165;-0.05223694;0.07538143;0.07037635;-0.1295995;0.011232588;0.015160217;-0.0891449;-0.1118588;-0.028342033;0.045530282;0.044445444;0.039187364;-0.058082394;-0.01921508;0.14924839;0.046423033;0.0047946023;0.009711125;0.014292406;0.10156378;0.089200094;-0.034205314;0.0824277;0.0715576;-0.022370866;-0.11217532;0.114783704;0.10178153;-0.04326688;-0.00034402747;-0.055583358;0.09022433;0.051724877;-0.059333563;0.03355858;0.039140712;-0.08432112;-0.02622386;-0.03167677;-0.020198533;0.029711708;0.059453707;-0.04043191;-0.019752137;0.017630225;-0.015429811;-0.021953026;0.022035655;-0.017279172;-0.010555483;0.012148468;0.06285217;-0.12092718;0.10829515;-0.04687588;0.012297814;0.047253132;0.058038674;-0.020670675;0.103083715;0.118060574;0.072439454;0.05834256;-0.01369165;0.06449592;0.024486065;0.035096906;-0.025018325;-0.052088577;-0.000946914;0.030157868;-0.032429278;-0.0454852;-0.043615267;-0.031459983;-0.039043613;0.067347616;0.044133678;0.04969621;0.07560997;0.14605369;0.0025839333;0.028155407;0.079274185;0.0148701435;-0.045355637;0.040178675;-0.13314842;-0.067730494;0.014210027;0.01866102;-0.12549122;-0.027422005;0.09781113;-0.005583809;0.031946238;0.055181418;-0.045850206;-0.027578823;-0.04100975;0.00697038;-0.020365518;-0.05958738;0.06621787;0.08946674;-0.09638271;-0.033788398;0.0077388207;-0.006476982;-0.011957717;-0.07692354;0.07791276;-0.026826827;0.013452348;0.054490265;-0.0050818413;0.120135345;-0.11490289;-0.015592678;0.06510995;0.087339126;0.02839483;0.090299204;0.042415444;0.116197266;0.0349047;0.057852793;-0.0673828;0.058221534;0.103161216;-0.049222577;-0.049939144;-0.08918137;-0.05598276;-0.013142378;0.0682223;0.077709705;0.13742326;0.008063664;0.0839562;-0.07995623;0.05877523;0.04728603;-0.034527168;0.035879135;0.024407532;0.052323293;-0.042108685;0.07769043;0.108926035;0.12510608;0.09190852;0.031479407;0.023090083;-0.06747571;0.028335143;0.028299788;-0.015980722;0.03708309;-0.032532826;-0.04863503;0.042557616;-0.060795274;0.052950557;0.030160373;0.023526818;-0.01738688;-0.054518886;0.07717239;0.033482462;-0.012095795;-0.0014143768;0.08959188;0.07651787;0.03640605;-0.003759661;0.061533585;-0.056722168;0.08322853;-0.026672304;0.11085712;0.06885153;0.13522096;0.016272943;0.025359152;0.08830426;0.0050674365;-0.00012640597;0.023033928;0.06537606;0.08353608;0.10642474;-0.045301136;0.036534347;-0.046933815;0.020201353;0.060861092;-0.020016825;0.05764408;0.15839325;0.022385007;0.11641873;-0.036147576;0.1152978;0.004017459;-0.011737407;0.07370624;-0.04410601;0.022154033;0.030416619;0.010480427;0.10849945;0.006594057;0.04438243;-0.012057686;-0.013244251;0.042405233;0.08941025;0.03261693;0.03103072;0.11851667;0.13431361;0.06368243;0.00321421;0.024386646;0.0507235;0.05114112;0.0421373;-0.016403312;0.108238235;0.061585534;-0.054608405;0.028045658;-0.06535308;0.0006347024;-0.12294178;-0.054978177;-0.11417715;0.038399722;0.06055262;-0.0022736562;0.013662231;0.020005792;0.0909326;0.040105928;0.00710571;-0.011452672;-0.007476995;-0.003282521;-0.052556153;0.059430476;0.08779726;-0.10731994;-0.03514181;0.0042844317;0.14673962;0.06669387;0.036871906;0.09773468;0.12400608;0.020216404;-0.03470035;-0.07085475;0.02489508;0.065963075;0.07886582;0.030743845;-0.060825855;-0.055887032;0.039144013;-0.05616456;-0.048448753;0.053909343;0.020427715;0.08653828;-0.047585934;0.05548409;0.082641505;-0.030922344;-0.011572662;-0.0030751193;-0.012907402;0.025647996;-0.059600957;0.08610447;0.061004;-0.08275554;0.07739074;0.03506171;-0.07494382;0.034043748;0.023326017;-0.06765529;-0.027307209;-0.06155867;-0.060308304;0.017459845;0.0068419524;0.09236705;-0.023015153;0.006228984;0.066535115;0.06196093;0.11589741;0.12984188;0.04649069;-0.07737705;0.01927862;-0.05175469;-0.0712723;0.11370834;0.13015115;-0.03404039;0.07602593;-0.029050322;0.042032126;-0.0355986;0.00209434;0.0014560648;0.0051264046;0.04219061;0.07638401;0.056555983;-0.09450191;0.10473785;0.098837174;0.047100887;0.033247974;-0.03684667;-0.030244263;0.13027659;0.07686661;0.025902992;0.089374825;-0.0060313228;-0.031145714;0.010594799;0.05345748;-0.014338082;-0.011869803;0.08538995;0.061692137;0.13951972;0.11117942;0.07196414;-0.0058533982;0.04495547;-0.12557274;0.09595054;0.13157058;-0.055187523;-0.011522277;0.025128033;-0.08936757;0.055440683;0.05796375;0.04651629;0.049479593;0.09909418;0.028917905;-0.09988096;0.009216292;-0.0195263;0.08259123;0.009064689;-0.18070973;-0.1745677;-0.1067206;-0.031296343;-0.013278553;0.0318573;0.0370171;0.1421426;-0.0028171549;0.0441292;0.017829454;0.0592185;-0.03687351;0.0031088388;-0.058302432;-0.1354403;0.11647141;-0.058983028;0.04143086;0.12355599;-0.01851935;-0.014567873;0.057275135;0.05021239;0.11476688;-0.0060903667;-0.05356379;0.1295509;0.060858857;0.117196575;-0.058792673;0.01857142;-0.0052324855;0.087927856;0.09396433;0.08854164;-0.18757145;-0.05002743;-0.00644775;0.17816232;-0.047850333;0.1790063;0.030215316;-0.12224672;0.044944312;0.034111;0.061767634;0.041823227;0.0875995;0.07879577;0.04880266;0.034270287;0.0032388205;-0.014389613;-0.026285805;0.07359954;-0.015281;0.075641;-0.06423451;0.03709014;0.029423999;0.16206867;-0.03479714;0.0910654;0.052393593;0.067559466;0.062176924;-0.038627047;0.09293016;-0.016253168;0.06798328;0.052826732;0.017542757;-0.058371827;-0.036915787
-0.07782116;0.08999556;0.023774048;-0.014000931;-0.0443235;-0.16084905;0.12007076;0.058131445;0.040581543;0.014054686;0.05400101;0.055856552;-0.012547334;0.0665067;-0.039174978;-0.027622374;-0.049776338;0.0586152;0.04406971;-0.05677017;0.11348369;-0.01929474;0.13008253;0.050137777;0.027271908;-0.03900102;0.044750284;0.03678837;0.078052536;0.09941748;0.01721698;0.041082606;0.015239428;0.069163576;-0.0166013;-0.09020373;0.07740581;0.0052479357;0.056277208;0.052048206;0.033856057;0.00482271;0.023648174;0.08223737;0.1627841;-0.05944238;-0.047342606;0.018914146;0.06612059;0.056798816;0.094409615;-0.06962212;0.057776976;0.053905923;0.03597109;0.067569554;-0.13037132;0.080913424;-0.044675954;0.06058846;0.0064284536;-0.029802883;-0.065396845;-0.123177275;-0.053938914;0.050105277;0.06123493;-0.0066275652;-0.012470898;0.013583276;0.004937494;0.09250954;-0.0336362;-0.013148971;-5.3501306e-05;0.089744344;0.07876061;0.081624374;-0.046392974;0.062364575;-0.11130149;0.046798266;0.029569542;0.025414266;0.08469811;0.041360278;0.06845087;0.029325813;-0.092984594;0.06700176;0.0151187;0.046433516;0.04681847;0.091279775;-0.031107826;0.008332469;0.123059124;0.13713375;0.04300656;-0.0032405683;-0.008057385;-0.000745539;-0.06794422;-0.056201838;0.014241289;0.010440762;0.012578618;0.05232717;-0.000908044;-0.023522524;-0.0329949;0.04796237;0.13430607;0.003575661;0.034070093;-0.044317156;0.06841967;0.08040622;-0.026308965;-0.0642676;0.04924631;0.07622155;-0.013029888;-0.062562294;0.002243495;0.07381372;0.059930604;-0.09899134;0.08544889;-0.065213665;-0.18182579;0.09559809;-0.06435179;0.005425416;0.089159064;-0.02196405;-0.0126309;0.061447557;-0.04640195;-0.083351694;0.022889614;-0.022082599;-0.035744224;-0.018276572;-0.0040426017;0.10339676;-0.025296759;0.14024179;0.023122935;0.042060614;0.0049441364;0.08839186;0.03612457;0.059274323;0.0753497;0.06366741;0.0007871381;0.06296214;-0.01853018;0.13733192;-0.020723142;-0.040826257;0.04731249;-0.003762126;0.0793204;0.041316453;-0.021490768;0.015889682;0.09416221;-0.029666957;-0.022861863;0.09825872;-0.07212906;-0.060117476;-0.040178183;0.09307816;0.061247826;0.10186395;-0.06554594;-0.002772596;-0.018211117;-0.011968253;-0.11864492;0.0071886634;-0.027902085;1.8380088e-05;-0.032163303;0.039663747;-0.027791722;0.0894067;-0.026390377;0.058407426;-0.009376983;0.078510925;-0.018626418;0.085036114;0.007423242;0.08010976;0.12589344;-0.11519009;0.1269592;0.11167598;0.008536779;0.106267124;0.01530515;0.09067038;0.09096118;0.04812482;0.053533036;-0.05823779;0.012266258;-0.008277;0.0074845506;-0.009752169;0.0952454;0.123068035;0.039638054;-0.056844234;0.003577745;0.03663401;0.09584783;0.018933577;-0.032557514;-0.007881349;0.022711901;0.08931405;-0.025195017;-0.14017273;-0.07065178;-0.01549705;-0.041861627;0.04998727;0.102726124;0.032114044;0.060188975;-0.035379488;-0.017301653;-0.024928361;0.1278653;0.052498154;0.019964589;-0.1323693;-0.017050855;0.102653824;-0.057993185;0.08195208;-0.023784064;0.083306305;0.029481228;-0.13966723;0.05664915;0.06375894;0.07790619;-0.16290186;-0.030445684;-0.025460318;-0.0033779952;0.02635238;0.07830128;0.014481748;0.11151153;-0.009285907;0.015462625;0.04827203;-0.05566075;-0.0043565496;0.10540895;0.056592263;-0.1379158;-0.01138722;0.1408917;0.029258197;-0.038158625;0.13037151;0.02996123;0.0083352085;0.04988908;0.003199231;-0.05919337;-0.021993311;0.01759909;0.042848457;0.13271253;0.08636321;0.12454322;0.030449497;0.12344053;-0.01498073;0.08036804;-0.05286449;-0.052146915;0.08307595;-0.040252883;0.0671039;0.027334398;-0.046237864;0.088157;-0.03525591;0.017326856;0.037531823;0.020680755;-0.024861906;0.028013047;-0.1586904;-0.029902838;0.083608955;0.030773288;0.011896738;-0.00980424;-0.0028278017;-0.06910567;0.008534024;-0.059647594;-0.057162516;-0.007534319;0.024054931;0.13975698;0.017891305;0.15629992;0.10014851;-0.06487023;-0.03208112;-0.0062579564;-0.0073930235;0.021963444;-0.08022975;0.057764947;0.03866368;0.011022579;-0.13099685;-0.0068634334;0.02385533;0.103742145;-0.0200584;0.024232328;0.119724624;-0.06604693;0.116767325;0.035461858;0.13391429;0.03524313;0.114501014;0.042901967;0.05030695;0.029975591;0.014789581;-0.054649953;0.082286805;0.106858924;0.0035553786;-0.090646766;-0.026678668;0.0076597757;-0.0034218896;-0.017426474;0.013252801;-0.016933987;0.006060123;0.065187655;0.016085895;0.08699713;-0.017365573;0.026702477;0.09414656;0.014681187;-0.040050562;0.06635928;-0.098634236;-0.00608349;-0.030210376;-0.006921317;-0.06167175;0.038843703;-0.017693106;0.0557956;0.026421389;-0.03791668;-0.043699477;0.0035121327;0.015933758;0.0598984;0.11365673;0.036134753;0.1249409;0.04439369;-0.01417704;0.085397914;-0.0749862;-0.11019819;0.02121273;0.018281708;0.11582013;0.034765303;0.010261799;0.060942974;0.046081293;-0.051691882;0.091908395;0.099392556;0.124037735;0.022292815;0.06998893;-0.017224599;0.018218815;0.023537507;0.03426883;-0.0280902;-0.12452739;0.008003194;-0.069261126;-0.014503574;-0.04431351;0.06923716;0.051509816;0.041450385;0.08921716;0.084505334;-0.123126425;-0.023822783;0.07355131;0.018671146;-0.0033754145;-0.02364056;0.084061824;-0.005356904;-0.08432772;-0.021140419;-0.0259617;-0.09958101;0.008806059;0.08106838;-0.06597608;0.0017288744;0.104315855;0.077422075;0.012477526;-0.113208085;0.039043527;0.09177253;0.013307041;0.00698862;-0.03998408;0.008960487;0.109503955;0.056234647;0.046181332;0.02316254;0.107904345;-0.10502478;0.04518508;0.07483339;0.015674392;-0.052671824;-0.05187243;0.024250232;0.045282867;0.08044772;0.12827942;-0.0121893715;-0.018180465;0.15101612;-0.008029339;-0.014918337;0.03429752;0.05730248;0.042162072;0.08034868;0.090407014;0.10559726;0.11714509;0.0009265848;-0.09655832;-0.07699355;-0.001668004;0.11022399;0.017091231;0.1144596;0.0837493;0.08792037;0.11129792;0.018348496;-0.056454334;-0.0011493176;-0.017146876;0.021630881;0.018486971;0.06699132;-0.0010311746;0.09835715;0.0038525604;-0.022236964;0.106513225;0.06861094;-0.005288895;0.024201887;-0.040808234;-0.00012571366;-0.0015366949;0.015717514;0.12006038;0.040216837;-0.25020325;-0.10461861;-0.05589469;-0.04812593;-0.025902973;0.046346806;-0.0031257325;0.042798966;0.03130331;0.101350844;0.017082958;0.0016111424;-0.060613737;0.053561226;-0.056119006;-0.1785745;-0.015680155;-0.08094354;-0.028673653;0.07497427;-0.03335814;-0.02443302;0.08844946;0.105739124;0.009619197;0.058886893;0.046761617;0.063188635;0.048239212;0.10856511;-0.014759341;0.06756486;-0.0026279455;-0.024360977;-0.039470516;0.09900074;-0.08400363;0.01141414;-0.022441471;0.14157203;0.034764178;0.13754198;0.106621206;-0.0821582;0.12147813;0.07803284;-0.028390815;0.007228367;-0.016070249;0.10696981;0.029787531;0.08474095;0.0026913316;0.04114453;-0.007796121;0.11434562;-0.015260899;0.09246267;-0.003845461;0.09771847;-0.0026747952;0.12033464;0.037618585;0.028071163;-0.041321807;0.035624612;0.009592245;-0.019431528;-0.03316119;0.07120929;0.08895476;0.07954276;0.07683224;0.06316243;0.07002498
-0.040720962;0.060063135;0.0035763904;0.08942067;0.07275422;-0.07391171;0.14529051;-0.052539274;-0.07064878;-0.04857396;0.039308626;-0.041251853;-0.034453783;-0.023104649;-0.09988315;-0.009128517;-0.104279876;0.057841655;0.0992345;-0.05835581;0.10521675;-0.01660403;0.11577272;0.062461864;-0.0073300134;0.049164947;0.09488872;0.011011444;-0.08279917;0.06678345;0.07134167;-0.009129123;0.029685376;0.03844799;0.012691731;-0.0189797;0.17832811;-0.02194504;0.061810825;0.024059119;-0.050480817;0.036801387;-0.06855229;-0.048865736;0.016114576;0.012921016;-0.07922993;-0.0031886983;-0.075632274;0.06680158;-0.027376369;-0.0706717;0.0107577145;-0.017996749;-0.10731577;-0.054377425;-0.060073543;0.07945135;-0.08297334;0.047371052;-0.06471568;0.008508875;-0.10303791;-0.054600995;0.007454903;0.04998917;0.043473;-0.012611509;-0.002236144;0.007309679;-0.022352815;0.054218527;0.05746624;0.014907725;-0.00035569843;0.0068945237;-0.05042649;0.0239632;0.058452636;0.044854928;-0.034085196;0.053761877;0.04852517;0.024908986;0.009753945;-0.050200272;0.003529354;-0.043453928;0.027693538;0.16129744;0.08253;-0.061264865;-0.03815648;0.036209643;-0.08059659;0.09330726;-0.0043091616;-0.0062011764;-0.07539724;0.01496816;0.066483855;0.031503297;-0.118406035;-0.011512668;0.031133963;0.10779183;-0.039361317;-0.01793973;0.007274123;0.082233734;0.04945009;-0.030552207;0.12445308;0.028385416;0.062463146;0.082880676;0.054022286;0.013992238;0.028543077;0.0728729;0.08255166;0.12258289;-0.0027211704;0.033727463;0.034317587;-0.0025975753;-0.015767114;-0.13223395;0.09566584;-0.081122406;0.0022300535;0.0992357;0.0050321785;-0.008218715;0.13545723;0.037107658;-0.021497695;0.016628142;-0.037369985;-0.047662713;-0.02043938;-0.007873105;0.04358652;0.030600885;-0.111618996;-0.006556975;-0.0024504093;0.055410992;0.09775109;0.07185672;-0.1004959;-0.0058277487;0.020961339;0.089305915;0.004330926;0.041719448;0.07369007;-0.0021369716;-0.06414772;0.037473153;-0.014040001;0.02239335;0.092733726;0.13987581;0.0691274;0.051263772;0.07561544;-0.06026769;0.10816395;0.06436845;0.03290018;0.0099468585;0.023143997;-0.013792134;0.021224828;0.029200282;-0.030755688;0.116481416;-0.03414695;0.09014316;-0.080636345;0.0051430683;0.008671443;0.13201699;0.040537413;-0.027188871;0.09473332;-0.014845726;-0.03229946;-0.012842346;0.061929043;-0.065339714;0.07229545;-0.023828365;-0.023069305;0.0005711809;0.013650083;0.059098292;0.08784196;-0.0751748;-0.016934501;0.11930402;-0.014551087;0.067266576;-0.053276096;0.02057933;0.054658428;-0.00062221003;-0.039201193;0.008751131;0.019569756;0.040412325;0.047220826;-0.06891313;0.12449988;0.033926886;0.046738155;0.060727008;0.021797149;-0.025409477;-0.054119308;-0.021083409;0.027688235;-0.14444913;-0.018114312;0.09928956;-0.045778576;-0.021018598;-0.12080431;-0.014168355;-0.047909502;0.10086932;0.08588722;0.08502682;0.063157916;-0.011621899;0.024356237;-0.12125441;0.05514452;0.06072912;-0.0057014353;-0.05509163;-0.09179143;-0.022487069;0.0006734103;-0.04521942;-0.14745869;0.051660895;0.05334162;0.031973284;0.050838232;0.06820596;0.10375762;-0.24438155;-0.019403672;-0.058615144;0.013895746;0.10757071;0.044800896;-0.09248637;0.061472695;-0.06521685;-0.05861521;0.023804039;-0.009206972;-0.0051860814;0.0493037;-0.02333762;-0.08558498;-0.09247996;0.089086905;0.05130515;-0.035493754;0.017305596;-0.016146414;0.023989653;-0.09680085;0.087316744;0.105887145;-0.06161103;0.08629039;0.06525138;0.13274576;-0.0139738675;0.09512695;0.08281877;0.109905444;0.08170879;0.0031529428;0.08770108;-0.10646748;0.13354036;0.024200432;0.06216565;-0.005672933;-0.041824277;0.061195854;0.021672595;-0.028263832;0.002427192;0.15928161;0.060057595;-0.021387445;-0.008737585;0.07066001;-0.026694;-0.018426446;0.02367037;0.041220076;0.034113035;0.066035524;-0.06783892;-0.0028136752;-0.11801017;-0.018847827;0.07252755;0.04920405;0.059182037;0.009694316;0.13649164;0.060317587;-0.019340476;0.12737906;0.004190719;-0.016919563;-0.070321396;0.1123945;-0.0006220743;0.0075365263;-0.10396897;0.056791633;0.04219522;0.0070813037;0.09822303;0.024226578;0.060322713;-0.018568372;0.06166251;0.072223835;0.079609126;-0.021372462;0.06490732;0.040805057;0.042317286;0.047576897;-0.017208323;0.025222378;0.09592948;0.06373682;0.107002;-0.019495545;0.048896726;-0.037287094;-0.03118817;0.033212777;0.11463371;0.030792432;-0.062967524;-0.0054148654;-0.08399985;0.09900641;0.054503746;0.053065848;0.07367839;0.027025891;0.04434139;0.06574103;0.0059178704;0.00537974;0.049321897;0.048870288;-0.14578;0.10207446;-0.0020172778;0.021032522;-0.025970295;-0.098412514;0.03144065;0.039992962;-0.009643698;-0.014994512;-0.041858837;0.09951665;0.05070731;0.03570424;-0.075891025;0.0390485;-0.072279826;-0.0582727;-0.0423778;-0.015060556;0.08665891;0.06328979;0.1226133;0.013580001;0.08661397;-0.026120944;0.07961608;0.07123641;0.08034469;-0.021620125;-0.033360753;0.07438187;-0.011713037;0.060514744;0.064534396;-0.120390624;0.022091402;-0.039018255;0.018327886;-0.015988436;0.019643407;0.06460166;-0.0030722157;0.034558207;-0.016292075;-0.004368415;-0.05207848;0.07441951;-0.025991797;-0.023807697;0.011370525;-0.09205666;0.095653884;0.07320808;0.060007278;-0.07139311;0.055249784;-0.049003966;0.07706347;0.15409169;-0.0081892945;-0.05195962;0.022520829;0.027587088;-0.04739308;-0.04511815;-0.0027496775;-0.032069433;0.087478966;-0.019404022;-0.053999875;0.0664644;0.08414503;-0.014788232;-0.096208096;0.036155734;0.09930084;-0.112283275;0.049787756;-0.081685185;0.023656517;0.096597664;-0.09327056;0.057807278;0.02937376;-0.008610814;0.088399224;-0.010239446;-0.001001101;0.12545541;-0.0052641267;0.11423551;0.004349239;-0.04920559;0.05902506;0.0152187515;0.06432034;-0.033887777;0.016378684;0.035858322;-0.16555656;0.022179354;0.0037825035;-0.065089874;0.018693281;0.056223102;0.096407585;0.1200723;0.0118086375;-0.00040911464;-0.015006146;0.08743766;-0.04085868;0.16870652;0.022813821;-0.022369808;0.015179343;0.1260235;0.024847552;0.11585316;0.082499705;-0.043015797;-0.03029047;0.0068745976;-0.039975386;-0.117865644;-0.00696628;0.07263645;0.05852933;-0.076029316;-0.07374362;-0.056680646;-0.094352774;-0.027784662;-0.05418436;0.029500036;-0.037894256;0.04508858;0.08070255;0.10026334;0.08154241;0.08319672;-0.063088246;-0.0073233587;-0.014187193;-0.19634189;-0.06749636;-0.09024433;0.0887444;0.10914919;-0.020945318;0.016077176;-0.0038800146;-0.0033163251;0.106102996;-0.021614153;-0.07259572;-0.035531837;-0.068875074;0.039049294;-0.029219713;0.104820356;0.08914672;0.04095814;0.000695337;0.0696609;-0.13108182;0.016998582;-0.030679021;0.021128844;-0.100778475;-0.03701267;0.02423739;-0.2512156;0.06870067;-0.024296198;0.07866342;-0.10711221;0.016551424;0.008200228;0.036523286;0.01058934;0.056104224;0.008316596;0.08674724;0.08441947;0.09990567;0.08066552;-0.08747968;-0.0049881763;-0.03192599;-0.05270091;-0.056533445;-0.044851508;0.009548022;-0.054275718;-0.06047733;-0.07358899;0.03142948;0.035026718;0.069777876;0.022575738;0.018672308;-0.025740175;-0.05263036
-0.061253276;-0.0107905995;-0.017384788;0.09395381;-0.011917581;-0.104449905;0.1386187;-0.054315913;0.05204348;0.059424765;0.10578587;0.0719476;-0.11780812;-0.09556111;0.05268209;-0.030648284;-0.056866433;-0.034798283;0.09400637;-0.025220744;0.10191869;0.051143423;-0.058714826;0.08799132;-0.04841104;-0.0031823064;-0.041642353;0.07513883;-0.031476054;0.1065219;-0.008043455;-0.095969506;0.056139257;0.005514874;-0.00114079;-0.0029409667;-0.05769076;0.085284196;0.06445925;0.0909892;0.045166414;0.07615612;-0.12414044;-0.005846987;0.054951705;0.060897246;-0.109233394;0.04975996;0.07440386;0.1121649;-0.073329456;-0.13229601;-0.005755754;0.057122163;0.05085159;-0.012267736;-0.1327961;0.14402585;0.018578144;-0.008400665;-0.021245016;0.013859019;0.034537766;-0.011313284;-0.023588093;-0.019063745;0.13968268;0.023847172;0.12821148;-0.0038182987;-0.007580487;0.058435302;0.05688799;0.03661364;-0.040861282;-0.07779068;0.04213937;0.1618251;-0.04322567;-0.02143719;0.060214467;0.065437846;0.032071903;0.0692403;0.047482178;0.086803645;0.039583772;0.04866336;0.03783038;0.14044338;0.09208073;0.09676612;-0.056434486;0.04077985;-0.07646792;0.018708248;0.18692042;-0.024221519;0.008725448;0.047455277;-0.016755974;0.07710318;0.10584022;-0.21155915;-0.0006216246;0.087354176;0.091146275;-0.03266767;-0.014852673;-0.026005208;-0.011478037;-0.028751353;0.13544354;-0.04746203;0.08049801;0.04676018;0.08793156;-0.02625139;0.058753863;-0.03863275;0.08212478;-0.005259373;-0.036124878;-0.034668848;0.025011107;0.094699234;0.06705563;-0.14235267;0.111029096;-0.10976215;-0.055892307;0.061315794;-0.01019167;0.007881258;0.022896348;0.015846847;-0.034269635;0.08716201;0.14141162;-0.13042015;0.0015014504;-0.006173749;0.055729005;-0.062810786;0.07019479;0.011910284;0.016153984;0.12612805;-0.019642342;-0.011104649;-0.029364238;0.067098804;-0.029506255;-0.14223538;0.014802191;0.015268451;0.085152924;0.025638346;-0.056600217;0.084346354;0.05717168;0.04334721;0.039629098;0.16924167;0.13905661;0.05762801;0.050953466;0.07501549;0.10412095;-0.036392707;0.00391066;0.013376158;0.018580673;-0.012171185;-0.0191444;-0.040044352;0.04806752;0.040306527;-0.063293345;-0.02025539;-0.019348698;0.094493136;-0.26922464;0.099035576;0.031903036;-0.04853404;0.034375638;0.008672946;0.03798235;-0.058344796;-0.009968018;0.051280707;-0.02674274;-0.055084813;0.069528766;0.0937619;0.13603237;0.024465956;0.015986226;-0.066173315;0.03646873;0.03674762;-0.025268435;0.044424515;-0.008377697;0.071084455;-0.06499872;-0.056361023;-0.0473881;0.07788791;0.048629533;0.020579856;-0.054052334;-0.00823988;0.102458864;0.0980009;0.15814696;0.025955383;0.038398407;-0.06464641;0.09050794;-0.0037669353;-0.089769766;-0.055870008;0.06138901;0.06885708;0.03476549;0.03005254;-0.17375697;0.07474339;0.05476732;-0.006333857;-0.0051912237;0.07315705;-0.032313764;0.073003404;-0.0054149735;-0.10666925;-0.042976905;0.09264552;-0.02849381;-0.17668524;0.03047405;-0.020231908;-0.08940624;-0.050083365;0.007208938;-0.033408027;0.019036997;0.049416643;0.0110803805;-0.043533824;0.07241317;-0.09665002;0.002442807;-0.028285526;-0.02690786;0.055450805;-0.057482075;0.05197608;0.0012175787;-0.13075428;0.07811765;0.03718653;0.010759254;-0.042857062;-0.06548991;-0.013188792;-0.029042121;0.028840866;-0.019005675;0.0058182934;0.087005354;0.08505701;0.09660848;-0.029697105;-0.038176462;0.10799801;-0.057093382;-0.029231792;0.019834813;0.059044745;0.012341855;0.020717843;0.09250957;-0.01688902;0.14670926;-0.055696797;0.07687257;0.06782151;-0.12365327;-0.0037541136;0.0441742;0.03367561;0.085536435;-0.101075076;-0.07930408;-0.014385029;0.0075536794;-0.090150766;0.12659267;0.025753355;-0.034437668;-0.020027056;0.111311115;-0.020110788;0.049210362;0.017003829;0.0035231493;0.03282805;0.078876585;0.057903696;0.028504467;-0.0048729903;0.10067561;0.06660247;-0.015017763;-0.026526218;0.04494102;0.07078549;0.085888505;-0.008916128;0.058692824;-0.025985206;0.083343364;0.18673657;0.074003264;0.058214758;0.02622206;-0.03545429;0.112246156;0.048106316;0.020508127;0.010257327;-0.011954546;0.07816748;0.013946918;0.0157887;-0.017592885;0.06491217;0.020488337;-0.022396456;-0.05133383;0.030346418;0.08873762;0.00080497644;-0.0628344;0.116084084;0.1783111;0.054466255;0.014611361;-0.18060839;-0.0027544575;0.08623888;0.040009756;0.0018977631;0.032803245;-0.06773858;-0.018705575;0.060887963;0.03919206;-0.06961717;0.1259452;-0.0021029124;-0.0480487;0.07303864;0.024502842;0.032837246;0.1007959;-0.002004004;0.12139279;-0.027309198;0.19554466;-0.073793136;-0.045957405;0.086364456;0.015711715;-0.022921488;0.052180957;0.15365341;0.024703795;-0.025092494;0.060895305;-0.0052192593;0.085191414;0.036665186;0.003188819;-0.046200592;-0.07582987;0.013970072;-0.075639725;-0.0550111;0.0150046805;-0.043322425;0.07112021;0.0983219;0.002108564;0.04787758;-0.00433616;0.018866358;0.06918425;0.028826198;-0.06860673;0.038203992;-0.005062586;0.0426818;-0.057309642;0.0046481923;-0.026871195;-0.092370085;0.016208017;0.04990402;-0.056455463;0.02970345;-0.015963132;-0.010401172;0.009646518;-0.105356775;0.081794836;-0.037410814;0.0031721054;0.01654872;0.0058371285;0.08439089;0.11916488;0.031034574;-0.1430395;-0.02209267;-0.026002489;-0.02537394;0.043278225;-0.0057662316;0.046641193;-0.012155163;-0.028848818;0.042084254;-0.0077641644;-0.06444703;0.06658055;0.0974853;0.06715837;0.024560703;0.051332872;0.1730914;0.002019512;-0.0024986728;0.027290672;0.13485184;-0.078802735;0.0072912103;0.060997058;0.05614763;-0.050162975;-0.10387804;0.15336482;0.009773608;0.037823923;0.09755898;-0.03126404;-0.0840856;0.034462076;0.027804418;-0.032689713;0.03674989;0.03586125;0.168415;-0.10657771;0.09643113;-0.03924308;0.03640125;-0.0682899;-0.05430232;0.010849709;0.03206052;-0.03710458;-0.08125576;0.0059123705;-0.054343637;0.021903684;0.08865685;0.059226915;0.049818844;0.052304354;0.0136614;0.15455641;0.15470617;0.019008225;-0.0738002;-0.062448118;-0.06205236;-0.031706426;0.049329992;0.0007284226;-0.050660025;-0.00554145;0.04119413;0.058990117;0.0650052;0.036073405;0.08562174;-0.036949124;-0.15934816;-0.100812584;-0.07001898;-0.010839673;-0.05198179;-0.12948999;0.017164461;0.13166928;-0.08892362;0.0068059606;-0.03902071;-0.04907831;-0.0033600891;0.0275675;0.056731302;0.025495501;0.024714828;-0.09614423;0.059347138;0.07434975;-0.07379444;0.045094896;-0.014506843;0.059844524;0.10579231;-0.041641887;0.058520727;0.066237554;0.048286058;0.08582775;0.033379585;-0.0888975;0.15848643;-0.031194858;0.00029305904;0.05191863;-0.10238481;-0.028765399;0.045999568;0.09102368;0.054129146;0.118525565;0.0063162353;-0.00967816;-0.0887051;-0.07250206;-0.040216528;-0.04313422;0.037634775;0.08022625;0.062393982;0.104763694;0.07699;-0.025738774;-0.01584476;-0.008665601;0.08608837;0.030811032;-0.029633265;0.05796822;0.04122348;-0.02309745;-0.003153254;0.045791954;0.05639549;0.07494912;0.07926202;0.019957347;0.054650642;0.015709825;0.095318176;0.106734574;0.1204424;-0.022005372;-0.04110968
-0.08111111;0.105766065;-0.09380591;-0.0059402497;0.05373552;-0.022388471;0.03546269;-0.006591891;-0.072655894;-0.09073708;0.02115487;-0.016108878;0.0058998447;-0.0473406;0.0055644694;-0.0804469;-0.15696187;0.05931843;0.017384106;-0.026263345;0.0037028892;0.08921828;0.05898756;-0.044293236;-0.03052039;-0.058421697;-0.039495077;0.11095996;-0.0801788;0.029128937;0.10574215;0.061722465;0.087409504;-0.011171706;-0.055176046;0.0068020076;0.07135182;-0.03215265;0.007320898;0.027646493;0.042025384;0.03397919;-0.025420044;0.013999872;0.022371043;0.048886668;-0.081237525;0.083116315;-0.05370114;-0.0037053013;0.076843485;-0.038337782;0.026973302;-0.04291608;-0.1131577;0.011753732;-0.11971003;0.24706177;-0.1252006;-0.011494919;0.06866477;0.06771034;-0.030653775;0.0015760304;0.032302722;0.078900546;0.10447549;0.041802645;0.111537606;-0.021413501;0.0999067;0.024002463;0.07364724;-0.094181195;-0.11575743;0.06179688;-0.06838292;0.15282315;-0.04293123;0.01913211;-0.13109793;0.053503882;-0.019640481;0.043164857;-0.0030466556;0.03975232;-0.045809135;-0.034187675;-0.08950901;0.07756412;0.0030010794;0.020478263;-0.01820829;0.01836805;-0.0618792;0.096029036;0.15669632;-0.07204026;0.010550774;0.12157309;0.020722635;0.081331514;-0.06288874;-0.1351048;-0.026551818;0.079580255;0.078753665;-0.033764303;-0.036993265;-0.0069894996;-0.029930461;-0.030565988;0.04953724;0.057212796;0.030059453;0.1561822;0.009113864;0.05401458;0.081920885;-0.041635178;-0.004438953;0.09295202;0.057252456;0.020613723;-0.10994923;-0.012523009;0.10131282;-0.039460495;0.17006548;-0.03581657;-0.05912656;-0.012896466;-0.08031435;0.03586666;0.0659336;0.19748;0.07825269;0.07487797;0.036126852;-0.09165433;-0.03556025;-0.063919924;0.02083756;0.0049026767;-0.0942352;0.00414945;0.0991721;0.053074393;0.048308305;0.047785632;-0.16684853;0.035718445;-0.011373093;0.009704357;0.0586554;0.041791968;0.015280117;0.05847587;0.06844337;0.07866554;0.012810102;-0.082543276;0.0013110925;0.13475637;0.06896437;0.02940971;0.025770877;0.030607808;0.15695868;-0.06075416;0.012584584;0.046068158;0.1323005;-0.050361287;0.08180021;0.012556196;0.0006553262;0.03637068;-0.03498173;-0.02271314;-0.039593074;0.04961121;-0.065965295;0.04782567;0.041142453;-0.11450042;-0.030419262;0.055825423;0.08525077;0.04115387;-0.0638644;-0.045690272;0.10999176;-0.065009765;0.03808517;0.050661538;0.06696319;-0.00498048;0.055863768;-0.044691507;0.064983934;-0.008659376;0.09928752;0.04651256;0.043470807;0.079075545;0.073571056;0.028910253;0.04449193;-0.06778246;-0.011899456;-0.11130458;-0.050143205;0.017996622;0.07266779;0.08895191;0.065051414;0.020884795;-0.079021774;0.03813207;0.07043052;-0.061593;-0.032603852;-0.11844591;-0.07315099;0.08017476;-0.018931126;-0.12281289;-0.10725542;0.029508034;0.009870821;-0.021188725;0.076326296;0.0033700713;0.037083272;-0.044919357;-0.009591629;-0.060777146;0.08275961;0.07305425;0.022901297;-0.051494643;-0.053653542;-0.025049081;-0.0434197;0.075058036;0.04058316;0.10297111;0.10280855;0.048381016;0.026334198;0.040226825;0.062169265;-0.01338347;-0.040176045;-0.0067531522;0.066883355;0.09240658;-0.055789858;-0.039603464;-0.042375214;0.022348413;0.0134069;0.04026564;0.010491464;-0.0037499787;-0.08516819;0.07533846;-0.09289199;0.06727066;0.04463912;0.15179564;-0.05280267;-0.06731081;0.014722135;0.016568689;0.024480058;0.11082794;0.040270723;-0.06297209;0.15221334;0.031203637;0.06588567;-0.04590061;0.032919474;0.09920819;-0.016955635;0.03121538;-0.048809614;0.09181357;-0.059537273;0.063152835;0.0063259653;-0.028740503;0.13221164;-0.10426847;0.05976975;-0.047734242;-0.015116925;-0.054006957;0.10192413;-0.013857711;0.015735252;-0.022901885;0.07611943;0.04652878;-0.03426038;-0.08935436;-0.035211578;0.05236304;-0.020296974;0.066502586;-0.017796144;0.019816851;-0.0007062353;0.07934875;0.023544656;0.002820495;0.024110712;0.08384676;-0.060693078;0.03628376;0.17297249;0.034338303;-0.0061203013;0.14007975;0.08806948;0.021396305;0.066964;0.10402598;-0.036605462;-0.058321428;-0.02371579;-0.024483902;0.052004553;0.0056437803;0.059776377;-0.040725216;0.054533698;0.04361691;-0.007490391;0.011112868;0.07365527;-0.040147386;0.0059415107;0.046431527;0.012313843;0.029995702;0.20864207;0.026812397;-0.050197396;-0.089225486;0.031966735;0.026146386;0.07489532;-0.0040097516;-0.073566444;-0.0755383;-0.010771518;0.07827667;0.04078585;0.040739164;0.09333931;0.03357831;-0.05930199;-0.06473392;-0.029070826;-0.004047066;0.115249604;-0.0038582226;-0.010094012;-0.05917002;0.104190096;-0.020030513;-0.06096244;-0.021569053;-0.06135469;0.06272913;0.07491286;0.08879786;-0.019236514;0.112621315;0.100046545;0.1133071;0.002153637;0.04702823;0.023219157;-0.11642444;-0.054939695;0.16864371;-0.016008383;0.021265147;0.008726235;-0.014836659;-0.044581454;0.1268556;-0.02488172;0.041901186;0.09176416;0.056187116;0.09445178;0.015692256;-0.013437277;0.051937226;0.0762773;-0.092060104;-0.064281784;0.029290628;-0.02896838;-0.018545443;0.08758768;0.008619149;-0.028314602;-0.051246017;-0.060376056;0.0043390514;0.041844092;-0.106532164;0.096624374;-0.012790876;-0.03305995;0.13618791;-0.07591156;-0.02504644;0.0508579;0.058543902;-0.027471876;0.06647013;-0.027556695;-0.013993056;0.045258176;-0.049975645;0.06955401;-0.030963905;0.010799156;0.061323717;-0.02012487;0.007157759;0.00580855;0.08436123;0.10928102;-0.10877534;-0.008000542;0.13830952;0.098742455;0.011142551;-0.09103563;0.07950383;-0.09643822;0.018228145;0.068985134;-0.0070176567;-0.000569195;0.059213877;0.17082587;0.109036975;-0.044214398;0.13732518;0.028318584;0.071011186;0.027034944;0.07755063;-0.019190555;-0.027126253;0.046156973;0.14319035;-0.09981117;0.06458718;-0.030256694;0.09487365;-0.036450513;-0.14121108;-0.069247685;-0.015817953;0.02700678;0.054871887;-0.009504656;0.04204542;0.074651636;0.069366924;0.10035269;0.08268116;0.103615806;-0.024735495;0.10250249;0.1165073;-0.07049194;-0.05601425;0.005657609;-0.009307017;0.025512397;-0.010773728;-0.05118767;0.011047442;-0.08363013;0.015812138;0.094148755;0.064006925;-0.05138151;0.13940687;-0.04925844;-0.1057944;-0.015564923;-0.14977175;-0.027059764;-0.058756165;-0.094186574;0.036560956;0.14721066;0.049446348;-0.0039565354;0.04955739;0.022528104;-0.03496857;-0.038168177;0.03351907;-0.06094135;0.04957486;0.04662409;0.07990101;0.040528864;-0.07437457;-0.027564678;-0.14016078;-0.0533225;0.092495896;0.0810201;-0.0895039;-0.014820908;-0.040583026;-0.070598856;0.01898407;0.053906143;0.14296621;0.10237046;-0.10610463;0.09146029;-0.10365696;-0.022909002;0.0784426;0.16488713;-0.060383406;-0.095030524;0.077731416;-0.030519836;0.027425883;-0.06558075;0.01941165;0.06427566;-0.029370887;0.08203386;0.04473066;0.062765665;0.03815132;0.031563807;-0.0039215563;-0.012744601;-0.011773585;0.08851326;-0.084239244;0.11198951;0.0077019827;0.10967365;0.02470828;0.069650285;0.029124705;-0.01490991;-0.04065745;-0.00021116578;-0.017777178;-0.009228648;-0.020167097;0.10050673;0.05972251;0.041628454;0.008878559
-0.018753098;-0.0010785437;-0.011432216;0.015285851;0.08206188;-0.009123976;0.04209912;0.006092517;-0.039512627;-0.12959252;-0.0136033;0.054106973;0.018301193;-0.16913831;-0.09905551;0.066126086;-0.22361882;0.026230473;0.07154364;-0.08691554;-0.04833005;-0.00015075936;-0.05038855;0.054287285;0.115937516;-0.074968204;0.025214687;0.041822847;-0.087072596;-0.06679335;0.13678017;0.10580392;0.15092438;0.0065783532;-0.036996536;-0.04913839;0.025903514;0.029112082;-0.019304417;0.12409754;0.08399468;-0.021604026;-0.038119182;0.004451873;-0.13573153;-0.06057916;-0.02559174;0.06828201;-0.047861625;0.08319963;0.019067269;-0.04939835;0.027870797;-0.05530025;-0.024925105;0.030920267;-0.031123605;0.18073095;-0.01557738;-0.023191867;-0.073844016;0.0036212783;-0.06745161;0.10899621;-0.033640653;0.08842549;0.045003597;-0.0059592244;0.10830204;-0.007233127;-0.062038455;0.011959985;0.029532973;-0.05481465;-0.05768268;-0.009264402;0.037510306;0.14842138;0.02859404;0.072041616;0.03184053;0.016543586;0.07789032;-0.043876298;-0.11893556;0.09089852;-0.04373583;-0.017964693;0.05856;0.05381664;-0.035302665;0.05610773;-0.0463573;0.029894425;-0.11368681;0.11662761;0.14417118;-0.07419871;-0.077998035;0.01510767;0.056364264;-0.024842199;0.05342222;-0.0022654466;0.14683495;0.003116374;-0.040375743;0.08717908;0.050643753;0.029054053;0.13986611;-0.0042967754;0.07974172;0.060813308;0.04491764;0.06903689;0.1114784;-0.0051572854;0.041166134;-0.10922556;-0.05362563;-0.052712064;0.108095184;0.024040354;0.0064310036;0.12375478;-0.016557511;-0.0992152;0.13832942;-0.044686113;-0.02208152;0.07758381;-0.040605247;-0.012415067;0.05302066;0.18329622;0.12268615;-0.05677585;0.12001096;-0.044208795;0.056348324;-0.010669835;0.08547805;-0.04385541;-0.12583397;0.07912653;0.16224578;0.023307377;0.11395907;0.05481179;-0.15997002;0.09564061;-0.08439882;-0.09250379;0.15685122;-0.031306777;0.090092294;0.0550239;0.090816095;0.07521749;0.09440396;-0.029452635;-0.10593599;0.11282443;0.15196185;-0.12618935;0.06656881;-0.02046756;0.2366791;-0.060129657;0.027135298;0.051696062;0.08799737;-0.042010292;0.12766348;0.051744413;0.015848381;0.15823416;0.02305604;-0.076124005;0.046572458;0.106899105;0.03565794;0.09052009;-0.046789363;-0.045903314;0.10661077;-0.08878478;0.008233951;-0.087943725;0.05645282;0.031662706;0.039527897;0.040014878;-0.070068;-0.030461146;0.067645505;0.14333682;0.02323635;0.026153823;0.028557394;0.009306662;0.007449085;0.12366513;0.0119117545;0.0036167763;-0.028624961;-0.041104987;0.05932544;-0.022731254;0.067612685;-0.051118936;0.030526945;-0.05372196;0.1701058;-0.0092548365;0.015140503;-0.06950852;-0.0053204694;-0.03145794;0.115154624;0.04327159;0.09743248;-0.18254305;0.017821888;0.04208735;0.047306687;-0.1710923;-0.029178925;0.075328775;-0.013359428;0.10849855;0.02388686;0.033122666;-0.0065401755;-0.012346704;-0.019387493;-0.054449566;0.09969757;0.017227931;-0.060041875;-0.07474732;-0.052342907;0.11752628;-0.07585584;0.08368639;0.13404258;0.056802996;0.02742831;0.050142404;0.016962085;-0.05051158;0.008221386;-0.09056637;0.029066917;-0.020708587;-0.030824045;0.12764178;0.023072237;-0.08254457;0.11326156;-0.032231286;0.044475302;-0.06445321;-0.07809087;-0.0010817441;-0.16705202;0.1265236;-0.18171164;-0.06967626;0.12925151;0.15861307;0.098044105;0.049283247;-0.007814823;0.08752377;-0.15203835;0.03056844;0.054698676;-0.048907038;0.17866372;0.06815561;0.09588412;0.02486186;0.07662413;0.057311557;0.16983919;0.07810345;0.02315504;0.053831186;-0.12608218;-0.009812034;-0.10956298;-0.07044242;0.12363219;0.00037184334;-0.031963214;-0.054475233;-0.028603995;-0.088804096;0.038363714;0.054600228;-0.069087885;0.004141534;0.17252895;-0.03730187;0.009847959;-0.068957515;-0.017777173;-0.011542894;-0.07909109;0.010203182;0.015831046;0.01517866;0.002156259;0.013347355;0.12340297;-0.0060922285;0.09111912;0.010617373;-0.022187298;0.037070766;0.11554876;-0.0016468436;0.0050475644;0.122544244;0.12880445;0.08988391;0.033425976;0.065241136;0.013854433;-0.030585805;0.03324174;0.10298707;-0.025624756;-0.10602834;0.077522606;0.028701534;-0.00043206307;0.02189005;-0.05620914;-0.037832234;0.025959568;0.049093895;0.050024733;-0.06443984;0.066718906;-0.08432897;0.239178;0.111135975;-0.11745052;-0.066601165;0.08692711;-0.020611389;0.0154191265;0.14982124;-0.04994012;-0.02343054;-0.08878966;-0.0040570754;0.12984696;0.019633265;-0.088029474;0.056645792;0.06469823;-0.04251661;-0.028958606;-0.043435033;0.03943071;0.036556896;0.09695682;0.03599858;0.08816662;-0.032850128;-0.069934666;0.06329005;0.00059870456;-0.0016966494;-0.089157;0.053349614;-0.07353693;0.056982443;-0.06849736;0.082026504;0.0860562;0.053908747;0.035786103;-0.07272256;-0.1497954;0.088665314;0.051279165;-0.053264953;-0.05297648;0.10398702;-0.010391678;0.21000089;-0.011857275;-0.064205326;0.059447877;0.07495778;0.003510629;-0.048708066;-0.043294527;-0.01373596;-0.044185057;-0.00994734;0.015546902;-0.02371852;-0.052140456;-0.02740924;0.10276352;0.04524799;0.014070976;-0.06740941;-0.038557816;-0.06710167;-0.024175841;-0.14834577;0.08702248;0.08137614;-0.09922266;0.030961916;-0.07993756;0.052839283;0.13766661;0.056989223;0.074834965;-0.010949002;0.11811644;-0.05926694;0.02878799;0.06390548;0.054878123;0.12672363;0.04022465;0.01269756;-0.008599001;-0.009904103;-0.06234363;0.14416607;0.18304965;-0.023966372;0.09651714;0.095050104;0.034906976;-0.010710649;-0.0861341;0.13567235;-0.04334133;0.008964634;-0.081311874;0.068695344;-0.04612469;0.0025159651;0.2667925;0.117186815;-0.053496763;0.13850819;-0.060868632;-0.050991587;0.105195;0.04783821;-0.017035825;0.06730081;-0.052978475;0.16614652;0.09503021;0.0511335;0.052146357;0.061372135;-0.05301849;-0.21900679;-0.010980984;-0.16887209;-0.005512511;-0.032632302;-0.005706238;0.042898312;0.13045262;0.019507118;0.0988232;-0.030135356;0.027858423;-0.019999314;0.20835306;0.22298878;-0.056763507;-0.10342328;-0.10866999;-0.06735941;-0.00048061257;0.018399365;0.059160717;-0.010835124;0.004257757;0.06136331;0.067412116;0.07644562;0.033896696;0.088179;-0.03695219;-0.048825182;-0.051066626;-0.11287089;0.029376587;0.018903006;0.0024636253;-0.028386401;0.02622888;0.011798749;0.09752692;0.16285159;0.054863714;0.07161773;0.057418562;0.04312566;-0.2062005;-0.074912824;0.08833514;0.1013705;-0.06493516;0.030829128;0.09828584;-0.19523583;-0.039524063;0.17920423;0.010256791;0.04073014;-0.022487916;-0.08541969;0.07819102;0.019044641;0.11252573;0.16782507;0.08311815;-0.11559879;0.02088555;0.027141077;0.0013344012;0.061990846;0.17962599;-0.033254787;-0.044593062;0.06264705;-0.2215411;0.08726356;-0.058571644;-0.003804173;0.0006477528;0.010094212;0.120785065;-0.0006799479;0.008191369;-0.13519953;-0.044210702;0.08450174;0.13720334;-0.0053771404;0.10214303;-0.1223952;0.14122027;-0.023948513;0.060990192;-0.005344348;-0.05398082;-0.013103345;-0.071245894;-0.06571741;0.017939067;-0.071969755;0.07526067;0.0898633;0.0050882553;0.016165122;0.04235632;-0.023371499
-0.012676038;0.005363512;-0.059697825;-0.047414813;0.081545435;-0.12473313;0.10493;-0.042877283;0.034035522;-0.03603591;0.07208631;-0.023073608;-0.119757764;-0.100026555;0.035988938;0.115477055;-0.14681792;-0.020374699;-0.03448351;-0.035324484;-0.02661751;0.068452306;0.08309115;0.049688485;0.060327012;0.061142188;0.059659235;0.13487625;0.018376444;0.034530994;-0.010591479;-0.04097376;0.07007225;-0.042556137;0.09530154;0.020112645;-0.02111936;0.078481324;-0.042060837;-0.011126556;-0.052694116;-0.07079934;0.035275277;0.08639828;-0.010874141;-0.052780885;-0.15467164;-0.027711684;-0.015235137;0.10658323;0.0897367;-0.067298025;-0.033968426;-0.014820666;-0.005865925;-0.0047604474;0.052986257;0.077146806;-0.025940403;0.055150356;-0.07520405;0.03524167;0.10083029;0.0077325124;0.07535662;0.0021521442;0.14660685;-0.069507346;-0.02775873;0.030662099;-0.063361205;0.056286287;0.026562862;0.030065494;-0.05115808;-0.13452579;-0.045619514;-0.005158384;0.07673191;0.07469013;0.07189497;0.026675094;0.071882784;-0.045198996;-0.0230915;-0.013985606;-0.0888243;0.08750861;0.026357025;0.051369023;-0.046252377;-0.10150779;-0.0025661597;-0.026023963;0.010980161;-0.027802827;0.20500977;0.088254906;0.05485491;0.022803435;-0.034796394;-0.07820447;-0.008595417;-0.035308454;0.110618815;0.027308643;-0.0084713;0.06462571;0.063522235;0.0008526717;0.054669593;0.047743157;0.047844667;-0.046067502;0.017577;0.18963745;-0.0043619373;-0.0015773247;0.058494836;0.018397255;0.025479969;0.025335234;0.031127311;0.0358246;0.10413081;0.11079659;0.08595172;0.037323102;0.09511106;0.04911547;-0.116033755;-0.016695313;0.0041156085;-0.005370807;0.12590955;0.011752954;-0.07232594;0.0154667115;0.018026879;-0.124450274;0.014230316;0.04455042;0.1091822;-0.115860485;-0.09823674;0.036759403;0.018537419;-0.0040501817;0.030578505;-0.05933896;-0.021340625;-0.06362806;-0.0785671;-0.010250229;0.045723654;0.04736372;0.039753415;-0.00019190295;-0.036843374;0.07074865;0.02768207;-0.029893287;0.08088285;0.1441807;0.0964188;0.05059911;0.08435056;0.026189728;0.20285927;-0.07216438;-0.050598525;0.025760677;-0.03906664;0.049318492;0.040258788;0.029263318;0.031600043;0.03722193;-0.030930059;-0.038720444;-0.029886771;0.06122712;0.016672034;0.111578986;-0.05656239;-0.12984273;0.10673723;0.04510974;0.12895174;-0.034079637;0.06992804;0.011329745;0.027252674;-0.030001804;-0.055149063;-0.008477606;0.12852277;0.043731544;0.049880024;-0.03007727;-0.0026084748;0.1322915;0.055428468;0.058953304;0.11133882;0.084122844;0.0014228182;-0.05403251;-0.036918107;-0.026459085;-0.013795344;-0.025705561;0.013212809;-0.02237592;0.120485224;-0.04336556;0.15200585;0.08135435;-0.060346797;0.09378262;0.011444651;-0.011666286;0.008109668;0.014308191;0.068993725;0.15806442;-0.005320378;-0.08042808;-0.062288526;0.111691;0.0036058817;-0.029843232;0.037189875;-0.013518342;0.04288879;0.03201172;-0.047260065;-0.007833866;-0.034968033;0.0021258474;0.08876036;-0.08011434;0.051155705;0.00084631774;0.0028430147;0.079788454;-0.029200986;-0.042869296;0.04735558;-0.03517121;0.092611395;-0.02573678;0.02292682;-0.07411634;-0.027555652;0.042755317;0.032016836;0.066817164;-0.0016286082;0.088271394;0.08837656;-0.06633133;0.037562005;0.07335859;0.013133003;0.051250845;-0.016311785;-0.03736415;-0.07634727;-0.042246148;0.06159936;0.097962044;-0.017366737;0.024406781;0.043854278;0.023029221;-0.09081311;0.09311606;0.085468434;-0.073008575;0.042706445;0.097055666;-0.012572265;-0.059277505;-0.0040273936;0.0838075;-0.025718717;-0.010413448;-0.044013392;0.05387968;-0.065789334;-0.026612584;0.031218631;-0.0644005;-0.039998285;0.04536191;-0.068198375;-0.054370407;-0.023804732;0.0285144;0.035750456;-0.033919685;0.047098983;-0.07539638;0.13972098;-0.049620938;0.072756134;0.14060302;0.07229085;0.09649285;0.07267821;0.10297862;-0.052699003;-0.0020368376;-0.020804401;0.08911713;0.046978205;-0.014829126;0.08718994;0.10660735;0.020401504;0.11413828;-0.046615217;0.008219393;0.03901308;0.013639481;0.07422503;0.08612319;-0.0019135049;-0.10796112;0.033647563;-0.027098639;0.11181306;0.035151888;0.07143213;-0.04306408;0.100783035;-0.0023435722;0.0236484;0.060508277;0.020541282;0.04108703;0.068826385;-0.054331593;0.07348891;-0.024181483;0.009603011;-0.09097005;0.24156158;-0.028814377;0.095856905;-0.013428192;0.0907483;0.092687026;0.09991167;0.08826231;0.06470927;-0.06227706;-0.045967832;0.016099771;0.11824767;-0.015045422;-0.07482136;-0.006692234;-0.051120073;0.044191554;0.08827448;0.08265446;0.0077981967;0.07730146;0.015672583;-0.107229955;0.11403076;0.064812556;0.07702293;0.009797057;-0.018922137;0.013871611;0.022788815;0.11957908;-0.083657905;0.036352668;0.01322498;-0.00059875165;0.06922191;0.05443684;0.0028831856;0.072900705;-0.012191335;-0.00596812;0.025831548;0.13709362;-0.040167075;-0.035192516;-0.0041850726;0.1338963;0.016762698;0.012655626;-0.0160102;-0.058263294;0.044115324;0.0707331;0.008944816;-0.006096278;-0.06113371;0.009256603;0.093697846;-0.05844202;0.010247279;0.057650845;0.14889616;-0.03585724;0.032717533;0.019318776;0.093633495;-0.030505395;0.04122318;-0.032162916;-0.032760732;-0.041268993;0.07001913;0.02282136;-0.07610711;-0.048033804;0.03402099;-0.045605913;0.050744154;0.04193938;0.022832211;-0.026909301;0.045747064;-0.06024972;-0.0580602;0.0068670805;0.08716721;0.02953626;0.10933367;-0.04556925;-0.03784071;0.066288695;0.14283101;0.049081255;0.043472115;0.1943024;-0.03993908;-0.0013609279;0.032655757;0.17314996;-0.11602412;0.07836086;0.11205821;0.1473682;0.004791063;0.00673664;0.15045273;0.0099727;-0.028779337;0.08890802;-0.0761291;0.05326044;0.059410848;0.036480766;-0.020549264;-0.003907102;0.04437577;0.12100971;0.0398303;0.04490666;0.08296682;0.0075727594;-0.067191735;-0.10242304;-0.052648716;-0.096229315;0.021651423;-0.08890323;0.016735716;0.007994394;0.11375124;-0.015365389;0.014299262;0.06928885;0.024601784;0.03413038;0.13309675;0.21122633;0.012758243;0.01170719;-0.03484484;-0.0476527;-0.034722775;-0.047011804;0.071765825;0.028712012;0.07358183;-0.039327346;-0.00037277088;0.048400216;0.073336035;0.11405991;-0.021550823;-0.05575143;-0.14855993;-0.10988992;0.029591544;-0.0031020017;0.11446342;0.05395864;0.08976709;0.027018312;-0.007849559;0.13132003;-0.040917106;0.020326387;0.02554705;0.046995413;-0.11368318;0.000312766;-0.05084437;-0.055075634;0.123373;0.013909794;0.044208694;-0.07426638;0.0051500998;0.14666976;0.015456364;0.0042297905;0.020224642;0.050231084;0.092939585;-0.0461141;-0.09064092;0.19117558;0.039469488;0.0011815462;-0.074946746;-0.056185793;0.028984856;-0.05542767;0.14265943;-0.034529455;0.1335341;0.15681529;-0.06970957;0.034480315;0.027209384;0.01618783;-0.017000766;0.06616223;0.00034730055;0.055230275;0.12595701;0.08628443;-0.07573238;0.07591542;0.114752986;0.02194467;0.13020268;-0.015090614;0.14121889;-0.025152816;0.013180432;0.039408218;-0.04069129;0.02434997;0.016720634;-0.07422491;-0.045858484;-0.020221718;-0.06185468;-0.042170454;0.07490318;-0.008318936;-0.035351433;0.060914878
-0.0059758187;0.01982283;0.059516583;0.058308475;-0.007171232;-0.06669736;0.09217905;-0.019695908;0.04384772;-0.101221204;-0.023020884;0.015992798;0.033449035;-0.12758254;0.08143966;0.05814579;0.035594173;-0.045289468;0.0045303064;-0.08038095;0.067056745;-0.021815768;0.099803895;0.02345093;0.07685384;0.11390696;0.045747347;0.120839536;-0.07186231;-0.04854626;0.085027255;-0.053624522;0.13666132;0.033684872;0.095106505;0.050097644;-0.07821325;0.018708214;0.0100577595;-0.08572945;-0.0591792;0.064002976;0.068586975;-0.058460552;-0.0765219;0.018449562;-0.04621568;0.07048714;-0.021982908;0.12975878;0.14536011;-0.05511965;0.06574003;0.04489487;0.059200097;0.0047280537;0.009166051;0.11063563;-0.04566458;0.03597213;0.050940208;0.045729823;0.13029136;0.044629812;0.0055263187;0.091346435;0.085589744;0.024773173;0.09053956;0.07220397;-0.045241076;-0.009629292;0.041311495;-0.06873479;-0.11326321;-0.16335103;0.075546145;-0.0032613457;0.032952756;0.07390484;-0.014423654;0.019783137;0.09503523;-0.028071279;0.050768286;-0.053423617;0.028477283;-0.017513042;-0.018348986;0.031378124;0.104978435;-0.067612246;-0.009836944;-0.025479855;0.030112628;0.012095206;0.11408552;0.013795364;0.12538758;0.060615323;-0.026243407;-0.0039357874;0.17273392;-0.05777038;0.018474108;0.09472297;0.036205094;-0.038239017;0.11905564;0.010875191;0.015960103;0.030191554;0.0717036;-0.037090026;0.109736115;0.20303746;0.032042023;-0.026640022;0.0073301923;0.005039907;-0.029800829;0.012479383;-0.013948124;-0.031488437;0.12514068;0.08463862;0.041928936;0.05322362;0.21353889;0.045644708;-0.040085267;-0.004320926;-0.06549221;0.049036134;0.123446725;0.049478274;-0.077715725;0.12705523;0.06207434;-0.13316779;0.10503318;-0.08516698;0.06593433;-0.06700579;-0.02782314;0.091861725;0.15675431;-0.025709303;-0.057431545;0.083964884;0.043516725;0.046286047;0.015631994;0.07949684;0.1219952;-0.013999625;0.013160299;-0.0004427511;0.029018769;0.021523222;0.061904915;0.08749032;0.07909563;0.15503223;0.08721877;0.106536895;0.12367219;0.019056778;0.11733787;0.07557426;0.006910045;0.08267067;-0.006223941;-0.03185554;0.07828751;0.059058458;0.055808917;0.12129338;0.09606529;0.091920614;0.029081505;0.037523188;-0.114389606;0.021422165;-0.026885264;-0.14043185;0.006699996;-0.021381302;0.039374776;0.0049004317;0.022781879;0.053657047;-0.0592793;-0.030171268;0.07747519;-0.031183496;0.03676586;0.1524809;0.10756431;0.082888715;0.026600856;0.05708455;-0.04601664;0.09401889;0.13572156;-0.03365612;0.08167118;-0.0066312924;0.075188346;0.0079520615;-0.023811383;-0.025814056;-0.01707194;-0.055155147;0.05717047;-0.01542233;0.055660933;0.019686982;-0.042082727;0.028994827;0.057014614;0.090037845;0.0004628963;-0.015560486;0.08305767;0.1772409;0.037120022;0.03144478;-0.09321826;0.08967978;-0.015950583;0.045286555;0.100473136;0.07310555;-0.015214482;-0.0120505765;0.081319;0.04759639;0.034497038;0.12052056;0.08993474;-0.07527774;0.02945027;0.05807771;0.080348834;0.01501716;-0.069683716;0.09312631;-0.010166041;-0.06034164;-0.04388694;0.017622523;0.027695857;-0.0441231;-0.02088353;0.030343994;0.0921364;0.062082034;-0.07384613;0.03078487;0.039403155;-0.08641481;0.00020207508;0.008545057;0.08441156;0.072974555;0.10694869;-0.06368694;-0.10134283;-0.036385987;-0.004127764;0.09713784;0.097717755;0.01104204;-0.035448045;0.02108771;0.052663594;0.09175028;0.05899028;0.027957158;0.17819315;0.07461017;-0.0067875274;0.06726488;0.06184393;0.05236858;0.013347666;0.10076884;0.06828479;0.0005786956;-0.07048268;0.00789486;0.03540835;0.065456524;0.014938876;-0.057516698;-0.013990963;0.03459876;-0.044590186;-0.0012005876;-0.06399852;-0.02961195;0.026652979;0.018619698;0.13304718;-0.0055028135;0.11508296;0.076200545;0.04235961;0.023961648;0.060847074;0.09281155;0.04955218;-0.023701599;0.0500679;-0.03537719;0.14619146;-0.008205029;0.15079138;0.09649158;-0.059572242;0.04096777;-0.038914647;-0.06931206;0.04266989;0.018876504;0.12161422;-0.017228913;0.048625007;-0.06386338;-0.007971231;-0.04194786;0.04838507;0.06974229;-0.013964468;0.073867865;0.056450043;0.0810699;-0.004355081;-0.030312294;0.009917783;0.08542153;0.023141043;0.1167913;-0.058230318;-0.029158557;-0.029305676;0.028109558;0.23532176;0.08099157;0.09122431;-0.04644974;-0.031759575;-0.007899296;0.03170091;0.13003609;0.109740205;-0.0825073;0.025980655;0.09662421;0.027303526;0.033926833;-0.059380848;-0.06481908;0.09563137;-0.016246919;0.06223179;-0.0750899;0.065947525;-0.051989235;0.124510646;-0.13638684;0.107992485;0.0322512;-0.0012768602;-0.004606886;-0.00025484874;-0.037339654;0.08748081;0.13074839;0.04567838;0.0449698;0.09447912;0.06208225;0.060106996;-0.047607835;0.084944054;0.033585634;0.0503559;0.0752498;0.06344874;0.050380696;0.037763756;0.0012863679;0.039876036;0.2538133;0.051489145;0.03265151;0.037675466;0.06432672;0.030795462;0.06791124;-0.020139169;-0.029251928;0.007151011;-0.06573952;0.0773281;-0.040645532;-0.053590205;0.021111349;0.12762891;0.0048315325;0.017344728;-0.07324881;-0.024071852;0.03961004;0.057358734;0.049690343;0.07055651;-0.0244514;0.038183376;-0.019259412;0.07367554;0.0699596;0.048550826;-0.07415452;-0.08011804;0.0014807394;-0.023840787;-0.021517787;0.016766842;-0.0018937563;0.061808594;-0.028100178;0.014902491;-0.05775162;0.09576866;-0.057846613;-0.06603965;0.07529698;0.08758732;0.065693036;0.095546536;0.18897124;0.076191485;0.02237612;-0.067370355;0.2032615;-0.087715805;0.06677679;0.11638219;0.061966296;0.02401544;-0.034412887;0.13621782;0.053226605;0.10594163;0.1356265;0.07730707;0.073843054;-0.09089564;0.11491528;0.07364673;0.009819691;0.014503338;0.08887365;-0.0043029916;0.110787496;0.10559611;-0.02490048;0.07402955;-0.06430283;-0.032440137;-0.043238036;-0.043251537;0.04016143;0.03528477;-0.063657396;-0.0025798539;0.02480387;0.032725595;0.11204684;0.07597457;-0.03386641;0.032896113;0.1316101;0.07087215;-0.041888896;0.1167086;-0.036276434;0.090431444;0.03308573;-0.05563102;0.008713228;-0.03611563;0.08039008;-0.038473133;0.041848514;0.004208805;0.08690381;0.052616306;-0.1725448;-0.043456797;0.079336464;0.053060755;0.06862888;0.16330147;0.06643961;0.083608456;0.07277639;0.123073466;0.09940506;0.04553129;0.07148136;0.05896239;-0.03121348;-0.04562327;0.045779184;0.051542964;-0.02080815;0.054173023;-0.040756594;-0.07011721;-0.029907253;0.044758208;0.059811395;0.027292129;0.015861688;-0.040500604;-0.032824673;0.07996172;-0.00027511432;0.039130438;0.21196286;0.096121185;-0.03473308;-0.029141054;-0.038853273;0.0485428;0.013984595;0.18813102;0.06382457;0.1026888;0.09998451;-0.010657183;-0.0073834704;0.052113693;-0.048509397;-0.037073944;0.061634954;-0.0037209783;-0.010919888;0.07257728;0.09511231;0.013691979;0.07338167;0.12850206;-0.041098613;0.0058484664;0.0031019682;0.124481395;-0.023684725;0.15644325;0.023813967;0.053264312;0.04810492;-0.06937983;0.014928539;0.06825609;0.033555955;-0.0746518;0.0749233;0.12864646;0.066271774;0.08263905;-0.03915892
-0.0055364002;0.004483823;-0.09423367;0.018805744;0.10178045;-0.11645347;0.062978595;-0.09172363;-0.02497212;-0.14454046;0.072808355;-0.025914544;0.0520742;-0.0356967;-0.02041327;-0.02364858;-0.10199514;0.020996613;0.049554434;-0.06048736;-0.07779065;0.084905066;0.041845765;-0.009721086;-0.024351494;-0.0049586566;0.035970632;0.038794085;0.057162445;0.030297209;0.059791323;-0.008612429;0.03239088;0.0241064;0.054359976;0.033563804;0.025898553;0.06181531;0.012590569;0.06352692;0.10075675;-0.04951749;-0.011869211;-0.044318087;-0.058891833;-0.025436936;-0.092548765;0.062267017;0.07045343;0.094179586;0.12629162;-0.03721227;0.02012304;-0.008857275;0.022539943;0.0539773;0.049702898;0.17465363;-0.020109475;0.007402794;-0.0804314;0.021119831;-0.00502604;0.06337884;0.018279346;0.14684333;-0.005925238;-0.003937609;0.0022955462;0.11672415;0.030866522;0.054114994;0.06942409;0.034085456;-0.04627477;-0.10734984;0.007243079;0.062218323;0.03877762;0.008428616;-0.06427865;0.11962473;-0.05888153;0.0058983546;-0.008293853;0.07696542;-0.14112373;0.038151056;-0.033723056;0.14451787;0.118785836;-0.010058003;0.018498879;0.07605357;0.13073646;-0.037635382;0.15150574;-0.003187473;0.080380164;0.013690753;-0.06419466;0.0075847027;0.13721308;-0.15342939;0.024717106;-0.01885134;0.021345938;0.06436859;0.08352118;0.04745782;0.13230853;0.040489018;0.16408536;-0.030494587;0.12564692;0.26152942;0.059702598;-0.054208554;-0.016412405;-0.041549962;-0.01763958;0.004526553;0.12456784;0.0037558412;0.1321701;0.008126601;-0.049447276;0.01914075;0.20900865;0.0498344;-0.013990621;-0.07331501;-0.029687576;0.07152786;0.08761616;0.035215937;-0.070902765;-0.030066544;0.117389254;-0.015093037;-0.06225174;-0.03463556;0.09053062;-0.0034658094;-0.077457525;0.018697795;0.1796934;0.15292276;0.017385438;-0.02219487;-0.017821407;0.00085820776;-0.008375864;-0.07542443;0.08572878;0.0645835;0.027813992;-0.09521321;-0.051377263;0.12869072;0.029852355;-0.0019930582;0.066129215;0.16716962;0.13288571;0.005705024;0.045349874;-0.050726958;0.24016605;0.08282752;-0.067933254;0.092325576;0.0017532057;-0.068212606;0.008179252;-0.03737083;0.09625053;0.1222456;-0.028966898;-0.017686257;0.06388917;0.049159903;-0.021007903;0.07028167;0.059013292;-0.05656472;-0.0023047032;-0.03955473;-0.020616729;-0.047825158;0.031085841;-0.0367167;0.030401556;0.078024045;-0.053107243;-0.054007243;0.015014418;0.017114613;0.10631541;0.020043138;0.07857876;0.058986053;0.101561494;-0.036588334;0.042462993;0.031289607;0.07373204;0.012787545;0.0005732064;0.01506395;-0.05882967;-0.06001181;-0.05413985;-0.099468015;0.043447517;0.10120151;0.16776942;-0.0022391127;-0.026684763;-0.024372658;0.13288917;0.037464917;-0.055868052;-0.083205335;0.09312399;0.14754346;0.022272522;-0.005651882;-0.13193156;-0.006032897;0.040465634;-0.044592798;0.06390097;0.042983256;0.025975605;0.011078913;0.024673188;0.009007707;0.032941937;0.02592405;-0.02190108;-0.07000464;0.058469497;0.006252674;0.0005631336;0.07344955;0.020437198;0.034419954;0.02839913;-0.050664447;-0.072690144;-0.02867182;-0.013768672;0.006400537;0.09151097;0.030955987;0.1091642;0.1271325;-0.010197504;0.039528508;0.08535155;0.069943875;0.046443906;-0.07233935;-0.072744705;-0.11319074;-0.08834084;-0.051412795;-0.07903383;0.025009042;0.12787685;0.18977964;0.03454065;0.09514876;-0.070999235;0.043845095;-0.05026076;0.11645599;0.070200235;0.053634766;0.07692435;0.0028230646;-0.029305127;0.042933535;0.1402593;-0.02711236;0.045320395;0.065171726;0.076987594;-0.034768023;-0.018421449;0.031030662;-0.048013404;0.024175197;-0.048103742;0.03399677;0.07082166;-0.065478995;0.04707319;0.063033864;0.032682624;0.07682128;-0.0055150776;0.053443324;0.05618299;-0.0021076414;-0.05015358;0.03130489;0.067192815;0.09714039;-0.048394877;-0.0036266763;-0.05317295;-0.033839952;-0.007464764;0.09640289;0.006800538;-0.059353635;0.13676909;0.054959625;0.05909843;0.05144963;-0.01026886;-0.049052436;-0.07493544;0.002092197;0.17864478;-0.005392734;-0.0070617334;0.049981844;0.0015366598;-0.057695728;0.05426629;-0.013355092;-0.053413775;0.025444034;0.0980061;0.01752573;-0.036027174;0.05208896;0.0073555405;-0.038630635;0.044053428;-0.03961032;0.044233453;-0.08151387;-0.011420651;-0.05064732;0.23232028;0.042866375;-0.018765645;-0.09460809;-0.066410445;0.023776874;-0.050122432;0.04575574;0.085927315;-0.0786256;0.078618966;-0.031443257;-0.04741491;-0.08193229;-0.017785065;0.047863938;-0.004188091;-0.062619455;-0.034842525;0.048076484;0.0067600394;0.03137284;0.0259952;-0.040945914;0.10589312;-0.041451715;-0.0832326;-0.03270343;-0.03416211;-0.024556324;-0.07125661;0.16190673;0.019020053;0.032062218;0.021588372;0.14781855;-0.040293306;0.022179468;-0.04503174;0.1005231;0.017666224;0.07894252;0.07865512;-0.026005115;-0.07269542;0.01934623;-0.018548554;0.23565157;0.007129304;0.04151785;0.00023250986;0.040510837;-0.0018099267;0.07128843;-0.01404824;-0.05889521;-0.022512743;-0.036613297;0.027518287;0.020831434;0.03493934;-0.025201643;0.18486057;0.1327636;0.05893178;0.06834067;-0.046105985;0.00457701;0.08207964;-0.0928611;0.017355384;0.047779687;-0.094260626;0.05443901;-0.026261972;-0.022546252;0.121283315;0.020559829;0.049456;-0.08770742;-0.022685008;-0.00033237215;-0.0020339927;-0.047906406;-0.015291935;0.058244977;0.04747406;-0.0089053605;0.08921633;-0.013385537;-0.037320983;0.11956714;0.13611074;-0.019447224;-0.028050015;0.20257498;-0.010055688;-0.10813879;-0.067321956;0.14614446;0.004321707;-0.009445977;-0.055812024;0.09155223;0.0740908;0.041960206;0.24173489;0.09310878;0.084683575;0.10046119;0.045725342;0.030176139;0.035228346;0.06563546;0.073709495;-0.01915112;0.06547231;0.05262214;-0.09201699;-0.01729923;0.09024719;0.08314026;0.034038097;-0.031226696;0.06559458;-0.01079049;0.05474481;-0.080088876;0.06915122;0.05315733;0.0057274415;0.10570055;0.12896672;0.093431324;0.05131145;-0.08786586;0.13239522;0.2636354;-0.082844816;0.037042663;-0.06784001;0.016494803;-0.03137211;0.036622137;0.06296239;0.050212644;0.017175667;0.026740827;-0.0060021305;0.09551059;0.049189284;0.020181494;-0.09582376;-0.13407582;-0.056624517;-0.08783626;0.0780201;-0.03646086;0.05087678;-0.04797477;-0.055899348;0.044913474;0.09511799;0.064597264;0.012054085;-0.047732443;-0.036089618;-0.0044104997;-0.19130664;0.052346867;0.043732464;0.072483316;-0.083671324;-0.095572524;-0.007607222;-0.13720353;0.044507094;0.17360212;-0.04198259;-0.068503305;0.105985574;0.02121992;0.121543996;-0.056962896;-0.0803122;0.25518554;-0.019973157;0.040777795;-0.016827928;-0.11953036;0.07739081;-0.06562369;0.22772089;-0.04426256;0.14077865;0.050214197;-0.050561354;0.018050293;-0.06505802;0.03471091;-0.038603827;0.0826972;0.0037373472;0.032547805;0.058491044;-0.064655036;-0.024279699;-0.040707804;0.008331358;0.012211256;-0.0037725698;0.031987347;0.0024585451;0.033838097;0.08982745;0.020403987;0.049039155;0.057042554;-0.05534499;0.0010278353;0.00991191;0.08179621;-0.062331013;0.07126981;0.012712224;0.07480983;0.09324306;-0.04721539
-0.015405866;0.030210845;-0.07002748;0.119632356;-0.00071009476;-0.05514445;0.022688176;0.05032238;0.0007448867;-0.13591585;0.089038834;0.07157051;-0.024632752;-0.06090574;0.10001151;-0.063959435;-0.09824198;-0.045090295;0.07014727;-0.05010514;0.020145535;0.08981822;0.051965177;0.09712604;0.08768797;0.018754484;0.04692903;0.15239686;-0.0055219913;0.0051884647;0.097478546;0.06358095;-0.0032692272;0.009587789;0.0015767135;-0.053436194;-0.0052195694;-0.052121036;0.022157166;0.11694528;0.02323991;0.005554201;0.085078105;0.054155745;-0.11357291;-0.038504105;-0.1946167;-0.0106740855;0.06645586;0.06661207;0.093977295;-0.07968153;0.070697494;-0.039432842;0.03600347;0.040386513;0.049231276;0.20351025;-0.071561635;0.01364998;-0.027356585;0.009690182;-0.015032314;-0.00057015417;-0.005641966;0.05008716;0.033660326;0.037030727;0.11609055;0.10919112;-0.037521508;0.005551713;-0.054893713;0.025777197;0.03921125;-0.018102555;0.0014477244;0.099132;0.0035844515;-0.04946824;0.03304751;0.15783855;0.06917322;-0.08079013;-0.063750945;0.042484093;-0.0036466122;0.1295697;-0.026860924;0.11618632;-0.02933298;-0.035292402;0.024709484;0.14259622;0.027772428;-0.016668957;0.17755733;-0.054299574;0.06365662;0.011643498;-0.012724836;-0.017196964;0.20274562;-0.098385826;0.12020139;-0.0041229483;0.031484;-0.045291156;-0.012807732;0.10241839;0.11795722;0.10436932;0.15696216;0.035537504;0.09328671;0.21148129;0.0140716545;-0.06164697;0.042940214;-0.043267366;0.03220525;0.09801659;0.0036987718;0.0316097;0.19378667;0.027278459;0.08106396;-0.018020501;0.1782062;-0.032298043;-0.09172536;0.0720472;0.03596017;-0.08718769;0.154267;-0.003180639;0.04688203;0.031041846;0.1464632;-0.07271463;0.06496078;-0.08115487;0.03657253;-0.12148511;-0.10213362;-0.0871399;0.18419674;0.009251539;-0.0723948;0.07947655;0.03827215;0.023308478;0.02697886;-0.04670464;0.11135573;-0.05268032;0.12753953;-0.1021157;0.019111779;-0.0071001747;0.059475407;0.062328428;0.11201867;0.050147343;0.1380331;-0.042773157;0.08724888;5.0844712e-05;0.20541587;0.00083809084;0.0060849963;0.03986497;0.007554841;0.06737917;0.10572525;0.0825287;0.056736365;0.03814241;-0.032993447;0.002376383;0.026274348;0.045025025;-0.05936192;0.095086806;0.06061571;-0.05555044;0.09329674;0.05882062;-0.043500412;-0.06694443;0.061212912;-0.0068289163;-0.010671406;0.07940379;-0.06271139;0.07091489;0.06683975;0.13089794;0.097861506;-0.024422985;0.05764509;0.085210495;0.05136387;-0.08300575;0.08876744;0.021342844;-0.08117387;0.06829488;-0.034255113;0.0038312713;0.03819274;0.016211169;0.07755647;-0.046240192;0.048373807;-0.016559172;0.02643128;-0.022915;-0.061143413;-0.04175302;0.10885674;0.057727814;0.036836684;-0.002307622;0.00157807;0.06655909;-0.016298423;0.064288;-0.1143435;0.052282766;-0.02199329;-0.0023559823;0.060923282;-0.082942605;0.0043524606;-0.008619726;0.09672156;-0.03429321;0.017378744;-0.00039020012;-0.0023853513;0.038495272;0.022158423;-6.5164466e-05;-0.08485892;0.046209052;0.07720227;0.024167186;-0.020158298;0.058449995;-0.04375773;0.05151126;0.033570897;-0.092355296;0.05677474;-0.05865145;0.124693036;0.1315216;-0.052808203;0.07658966;0.03601802;0.101706475;-0.0470475;0.007224262;-0.06813276;-0.103005365;-0.14026617;-0.008692423;0.04984064;-0.012872118;0.15554962;0.2108928;-0.012261274;0.03621303;0.037167184;-0.015887624;-0.06933676;0.05468325;-0.04427002;0.051869407;0.051423803;0.004520472;-0.0075385943;-0.054208294;0.076087266;0.10231878;0.09153164;-0.008016253;0.05154679;-0.0323351;0.059673015;0.031156944;0.016570149;0.03379282;-0.032742087;-0.09685354;-0.018841077;0.07967849;0.0664919;-0.094165206;0.032199077;0.038226444;-0.0071272124;0.045986604;0.18586387;0.06664319;0.08673202;-0.030702336;-0.025384566;0.12136134;-0.08170117;-0.15294707;-0.079678565;-0.00010656937;-0.0029995143;0.041002505;0.01368101;0.047171935;0.045879345;0.14819461;-0.056296553;-0.0036450517;-0.026376288;0.063340195;-0.045844864;0.019047195;0.06425013;0.0013425743;0.058876745;0.098358095;0.074364565;0.06477669;0.00683985;-0.06622409;-0.0388158;0.038467076;-0.0550685;0.040146675;-0.014292565;0.0523231;-0.031400774;0.044171393;0.09470414;-0.08274695;0.09439161;-0.060528085;0.106161155;0.05394524;0.07860761;0.05026135;0.06885398;-0.095487826;0.006712582;0.10024886;0.06753494;0.15651806;0.10761622;-0.110793486;-0.016643833;-0.0624535;-0.03587052;-0.093047306;0.05508118;0.0027885488;-0.03991243;0.049569357;0.08736422;-0.03151488;0.120916486;-0.074518345;0.039181698;0.041569173;-0.008831394;-0.06395257;-0.09454833;0.043032322;-0.0039270143;-0.041072283;0.03157629;0.064639576;-0.03834783;0.08778919;-0.035078358;0.12704352;-0.010139064;-0.026114209;0.044117395;0.1308721;-0.037162077;0.16017365;-0.062048428;0.0525148;-0.017288974;0.09761629;0.02793463;0.23852178;-0.019796384;-0.04066476;-0.07878609;0.061701883;-0.010159367;0.033059523;-0.0039187297;-0.014256222;-0.0077595916;0.04839595;-0.11079727;-0.066262126;0.026908642;0.09660833;0.17712006;0.0150615005;0.016665444;0.021832775;-0.06010676;-0.05862052;0.067897454;0.019660994;-0.02196007;-0.02442231;0.01869773;-0.021325715;0.026952619;0.095595285;0.12351122;0.063766494;0.1211019;-0.09451658;0.07830202;0.011885636;0.062822714;0.045735016;0.0053947656;0.12068293;0.09224569;-0.0071753245;0.10180529;0.08146433;0.031927727;0.011098057;0.16448587;0.16658595;0.044335186;0.12384129;0.092112824;-0.16325252;0.066702746;0.17388248;-0.027179135;0.03496919;-0.09541929;-0.025872437;0.039135844;0.023729147;0.10940939;0.094858244;-0.02010074;0.06476248;0.05683185;-0.034809873;0.06482394;0.111650296;0.024432668;-0.0034794584;0.099582635;0.023873506;-0.095694356;0.034885306;0.036777854;0.08410264;0.05414203;0.0050015477;-0.045075074;-0.09583125;-0.046989147;-0.018814303;-0.006006998;0.121506654;0.12204479;0.020468576;0.17881013;-0.020397574;-0.042235803;-0.054060005;0.12626904;0.18330464;-0.068816185;-0.054118317;0.050398126;0.026084032;-0.04735436;0.033384915;-0.015533773;0.08911877;-0.05190904;-0.07217031;-0.086857826;-0.07413996;-0.04896221;0.11002052;-0.029336158;-0.085607536;-0.09178958;-0.111389734;0.062164206;0.048275776;0.09531739;0.098651245;-0.051044717;0.0512814;0.061687477;0.06593937;0.05860329;-0.046162076;0.050280403;0.016085537;-0.101455085;-0.011296283;0.051493388;0.07282608;0.08390093;-0.017580092;0.05829894;-0.13777687;0.069138184;0.042555306;0.004334028;0.0377562;0.03119973;0.05381269;0.018307697;0.064127676;-0.054848216;0.24234833;-0.04311706;0.026021233;0.031388048;-0.15191145;-0.0063874805;0.018893693;0.11471137;-0.06166668;0.09036866;0.050414592;0.024510643;0.0051456923;0.02603288;-0.04157976;0.026194757;0.017947562;0.13325524;0.0477149;-0.06907084;0.10306917;0.010765173;-0.013749889;0.010072073;0.014822613;0.093767874;0.043256264;0.06152617;-0.03225832;0.025955306;0.03483281;0.07947356;-0.02420389;-0.020505955;-0.020857384;-0.009742859;0.061041374;0.06276986;-0.03429028;0.089073695;-0.032504562;-0.046677426;0.048522662
0.10579234;0.031878665;-0.08510666;0.03187075;-0.031114575;-0.19236909;0.106098324;0.056606542;0.028493505;-0.06819286;-0.047501158;0.09178199;-0.06490429;-0.019753017;0.04058223;0.075186424;-0.012615888;0.031989224;0.06918425;0.03825511;-0.024594046;-0.020078752;-0.026761131;-0.032215394;-0.015982756;0.11825524;-0.0042785676;0.13698213;-0.015997773;-0.073955126;0.09594614;0.0016037201;0.033332095;-0.01385485;0.020648897;-0.008398957;0.022701664;-0.003457764;0.010989805;0.1083007;0.04856232;0.04299431;0.083222784;-0.010636006;-0.12402024;-0.0029227415;-0.15291193;0.016379254;-0.04931767;0.14127043;-0.010835561;-0.025116002;0.020170024;0.0014750329;0.043614265;0.059838153;-0.027327588;0.16607597;-0.10253406;-0.0041339435;-0.063284546;0.059229124;0.03122702;0.08556496;0.020451188;0.06273361;0.018585043;0.06527971;-0.011236335;0.08949698;-0.05241713;0.043608647;0.069328286;-0.06520764;-0.008030446;-0.09969835;-0.041387472;-0.07761388;-0.09386687;0.031475637;0.04546032;0.11357633;0.07080056;0.043169692;-0.09596243;0.03357339;-0.025755113;-0.016499482;0.105742656;0.15927848;-0.02304683;0.019893434;0.0066393465;0.04090951;0.1316717;0.05305367;0.052981727;-0.060212348;0.037259582;0.12060214;0.013791668;-0.06426272;0.07798389;-0.011948231;0.02053218;0.078453824;0.080205224;0.07151467;0.08758925;0.10573036;0.098242894;0.014208385;0.1673001;-0.047371227;0.009105325;0.093987115;0.0033654564;0.079237975;-0.06183843;0.08370053;-0.044281565;-0.026222326;-0.012877357;0.016091915;0.03551999;0.09853592;0.108381145;-0.07868072;0.16206226;0.10454923;-0.17374507;0.043242276;-0.12339953;0.042008072;0.060791574;0.095180914;0.013299463;0.06271944;0.04484853;-0.17542501;0.07306198;-0.06970782;-0.027455678;-0.06500693;-0.10655258;0.028731326;0.0828389;0.12708041;0.015395874;-0.05155852;-0.10518991;-0.02013547;0.08141644;0.036048006;0.18201004;0.07884978;-0.030671105;-0.044845603;-0.021794155;0.04554039;-0.018339567;0.0881436;-0.03624919;0.062845394;0.06267849;0.015186966;0.08342217;-0.06683824;0.17546828;0.008316902;-0.0006719932;-0.0101617845;-0.019408723;0.031737927;0.013747657;0.03728047;0.02378044;0.06426945;0.0810759;0.018276744;0.044864524;-0.04995861;0.06888189;0.015159526;0.03542703;-0.14419526;-0.04689351;0.105823934;-0.063087225;-0.011999026;0.027512666;0.0072030798;0.03463279;-0.015128795;-0.04324839;-0.035429828;-0.00584862;0.16536164;-0.039507717;0.036121234;-8.392588e-05;-0.010167583;0.052815538;-0.09843443;0.027486565;0.030043246;-0.011293521;0.031849716;-0.034572102;-0.058890186;-0.043617092;-0.04472868;-0.002725506;0.05230916;0.08144764;-0.03443844;0.08601636;0.042545263;-0.012916614;0.01150013;0.06628973;-0.03137293;-0.07071295;-0.031790264;0.07035754;0.14418998;0.014330125;-0.06512445;-0.049346462;0.15068357;-0.023022154;-0.012154955;0.022790339;-0.056527365;0.058933727;0.016364688;0.0037684725;0.052230205;-0.04198013;0.14312689;0.037414722;-0.007904473;0.09729553;-0.042870905;0.0485323;0.029953098;-0.07157974;-0.00054371386;-0.014232964;0.11564867;0.031306442;0.09796876;-0.019051183;-0.043768045;0.028301278;-0.041391976;0.11551741;0.09936717;-0.0563108;-0.025368406;-0.031496286;0.11758161;0.05112473;-0.045200843;-0.019409457;-0.087876305;-0.10613793;-0.058429107;-0.06945234;0.050457373;0.11911259;0.098637626;0.018143304;-0.02575196;-0.08114931;0.099837475;-0.19216575;0.014340614;0.05348518;0.050844107;0.22504571;0.009395214;-0.024652246;0.0691352;0.083191164;-0.045536652;0.051240355;-0.021108912;0.04550284;0.013604134;0.05516997;0.0024043242;-0.10477796;-0.05554133;0.04553079;-0.027609555;0.05830589;0.080838144;-0.020960532;0.016571358;-0.06803965;0.035466373;0.041110363;0.0970015;0.031372212;-0.013512879;0.10702624;0.018364817;0.02073132;0.07023085;-0.06186963;0.039706428;0.08590793;0.106130116;0.10968802;0.002843025;0.09178352;-0.048628595;0.05190277;0.13984838;0.060204275;0.13106337;-0.08068462;-0.073041834;-0.05935214;-0.049678132;0.09091293;0.047068708;-0.028791308;-0.026479136;0.014308173;0.01899051;-0.006972992;0.077739745;-0.019370416;-0.082994916;0.05951608;0.04474906;-0.04430173;-0.026332391;0.069904126;-0.018596787;0.08623033;-0.053054225;-0.050067518;-0.020282354;0.067645036;-0.029948626;0.15828668;0.13402687;0.006914347;-0.13828586;-0.031769343;-0.064062655;-0.02417079;0.08145353;0.037975773;-0.00021558875;0.07717286;-0.07058464;-0.014573341;-0.024130816;-0.021026973;0.07470376;0.0633978;-0.0040051932;0.0691836;0.005856213;0.084805444;0.055436064;0.04597606;-0.013370464;-0.08024459;0.06679874;-0.017332273;0.08103535;-0.050645865;0.1041718;-0.03350663;0.12326527;-0.092557445;0.011491014;0.059964884;0.052196935;0.011632566;-0.015233155;-0.06903398;-0.004314213;0.07590426;-0.052882593;0.01873914;0.0088534495;-0.049233068;-0.024637992;0.03156653;0.22626029;-0.0433041;0.011240631;-0.10460753;0.09641634;-0.013717178;0.06941343;0.037105426;0.029755432;-0.048912;0.07470764;-0.10223813;-0.074766204;-0.04719409;0.09601691;0.09629046;0.00596569;0.0372129;0.027488524;0.026140617;-0.0033437305;0.05771292;-0.02411063;0.06726624;0.09263072;0.030467475;0.05994215;-0.027869333;-0.031955175;-0.0006909356;-0.07024085;0.16384216;0.00784455;0.15851338;-0.06716313;0.063595265;-0.022284297;-0.043842755;-0.008988732;0.034669865;0.08017623;0.24091654;-0.049233165;0.03178692;0.10790764;0.089855686;0.047463953;0.043746497;0.1891265;0.053141445;-0.13549569;-0.017603256;0.14058985;-0.048131086;0.053716935;0.049480014;0.1080631;0.1019758;-0.011072489;0.20709878;0.078346655;0.08764892;0.15581204;0.071423925;0.06971726;-0.07958938;-0.005120814;0.06221187;0.042157944;-0.0005935008;0.09915754;-0.010612683;0.045434568;0.11798366;-0.00183743;0.053405207;-0.08516003;-0.07560239;-0.050142337;0.05969862;0.031038292;0.086952075;0.077264845;0.045076136;-0.034811784;0.038050737;0.014569796;0.082324766;0.02163051;0.15176158;0.22009607;-0.027443133;-0.035550673;-0.004262914;-0.079094484;-0.0121310055;-0.13044693;-0.025445381;-0.063296266;-0.0568533;0.06090282;0.0020633135;-0.030026836;-0.009416406;0.06936156;0.0664068;-0.06844598;-0.19331573;-0.13490008;-0.03663293;0.013899838;0.060250033;0.09760417;-0.012899367;-0.079611875;0.11782327;0.18831146;0.07998569;-0.050731003;0.077261515;0.10236563;-0.09803348;-0.019182699;-0.007322894;-0.032181364;0.041517187;0.12530039;0.020289565;-0.024840686;-0.017939484;0.13742043;0.038715716;0.03365492;0.065680474;-0.069804125;0.036184203;-0.059718166;-0.049980454;0.09400761;0.09828631;0.044233363;0.064285815;-0.16339323;0.01592598;0.08767483;0.21813731;0.04674251;0.060383797;0.111092076;-0.0009650199;-0.012159569;-0.012004563;0.03137565;-0.080692835;-0.03012428;0.05681755;0.047279097;0.014399906;0.064808145;-0.0038869823;-0.06404679;0.026802627;0.10187255;0.012158214;0.05781476;0.039213676;0.028321432;0.06779387;-0.07568034;0.017676737;-0.030023346;0.05511183;-0.019507177;0.11661217;0.0022802814;0.10464008;-0.03729587;0.0443384;0.0060497993;0.0023638713;0.002728552
0.10185604;0.022516634;-0.046298336;-0.0034494298;-0.037732914;-0.14983375;0.123093195;-0.025923753;-0.0007072952;-0.111096114;-0.05929555;0.13593723;-0.08312326;0.005775911;0.0017198244;0.10973408;-0.043892775;-0.014540097;0.055439346;-0.022866705;0.045897555;-0.021483848;-0.0006393398;-0.063174896;0.007548866;0.060147073;0.0048752367;0.08417438;0.03344415;-0.017791832;0.05126106;-0.05501962;0.13944036;0.06073037;0.05703315;0.0036652891;-0.022119094;0.040774632;-0.04673472;0.005236;0.006909538;0.00049991306;-0.069469124;-0.022819707;-0.07734025;-0.024262479;-0.19442967;0.0055919196;0.05442426;0.043386195;-0.092971735;0.02638602;0.0014502688;-0.10717642;-0.0037447487;-0.03435243;-0.015641965;0.052957892;0.06148305;-0.0321069;-0.040304124;0.06058246;-0.016285775;0.015665477;-0.043201342;0.09220795;0.062171098;-0.073727466;0.12156701;-0.01952449;0.07417802;0.08262182;0.025451085;-0.0047033895;-0.010072292;0.036113605;-0.07283733;0.015177776;-0.06297757;0.106402814;0.060367983;0.024390724;0.016717922;0.055701997;-0.035768162;0.061094496;0.03135024;-0.02712772;0.045146283;0.086664535;0.06839354;0.080547415;0.042151254;0.08270152;0.015651176;0.045823902;0.022960223;-0.004190999;0.080964796;0.01867548;-0.014255332;-0.009098034;0.1104973;-0.08188565;0.09408944;0.029462859;-0.038579892;0.04739288;-0.043322895;-0.03802073;0.06029189;0.015822867;0.16619891;-0.0617863;0.016135674;0.055336118;0.05246915;-0.08828676;-0.0069456273;0.05542551;0.06893342;0.0986268;-0.04687795;0.026591942;0.029932536;0.01034826;-0.011852302;-0.03946086;0.04557016;0.0021294996;-0.17093863;0.08581259;-0.068789236;-0.009115899;0.06591445;0.00797066;0.042562887;0.029865999;0.10745966;-0.22942227;-0.032966796;0.0015517288;0.0781403;0.018891115;-0.042983264;0.0018822292;0.19371551;0.07297917;0.03174575;-0.029329013;-0.052357;-6.027767e-08;0.042635113;-0.115089245;0.03454276;0.047338057;-0.01804251;0.021151751;0.021818718;0.11170202;-0.009170071;0.046460267;-0.10086382;0.0037114315;0.11863619;-0.03915108;0.037201837;-0.050821304;0.20470233;-0.02647901;0.061873842;-0.026438767;0.12990418;-0.008904965;0.0065260776;-0.024583811;-0.015703257;0.034531932;0.08945846;-0.028654207;-0.07731882;-0.048333738;0.063261546;0.062459663;0.007490145;-0.048139952;0.107392795;-0.03403474;0.027042152;-0.035357587;-0.029090738;-0.08476247;0.06523562;-0.039411385;-0.0017726187;-0.052728813;0.103421964;0.0742638;0.071924336;0.06640215;0.12536845;0.023390936;-0.01679847;-0.06815239;-0.079036586;0.0077608014;-0.052088365;0.035163045;0.02615039;-0.023612618;0.0794205;-0.0014199794;-0.034148343;-0.03784933;0.1393001;0.03599223;0.13641126;0.08907998;-0.030540602;-0.03532224;0.022640081;-0.03787668;-0.08030387;0.07000651;-0.014104609;0.034264777;-0.06012227;0.093888216;0.0024613214;0.13738212;-0.06634931;0.030302025;0.106046125;-0.045072634;-0.033141606;-0.051421255;-0.027426;0.010788226;-0.062709;0.12077091;0.0287874;-0.013981719;0.020521875;0.11441722;0.00014216363;-0.04193238;-0.105601326;0.06819127;-0.036706187;0.09226068;0.044987254;-0.022205621;-0.04946442;-0.09797991;0.07999949;-0.085764095;0.11393605;0.13663986;0.0037460697;0.09726658;0.10016569;0.064895965;0.035158373;-0.0067626215;0.029517692;0.03551333;0.025153859;0.06810241;0.031120172;-0.074316;0.14875051;0.048339825;-0.027838279;0.090595804;-0.0740554;0.07794881;-0.108356304;0.03630114;-0.03446803;0.023833226;0.042307448;-0.017034845;0.032764304;0.01380091;0.10725804;0.07889749;0.10168933;-0.021745116;0.05027196;-0.10439222;0.06612447;0.10802891;-0.041384522;-0.039324984;0.041308396;-0.08106519;0.069972456;-0.0146899475;0.016939063;-0.03709767;-0.07159529;0.018068891;0.09004909;0.11235898;0.18511997;0.09000903;-0.06316719;0.025364682;0.07319516;0.08943867;-0.038777906;0.015353329;0.043814916;0.10464048;0.08043143;0.039060097;0.04735821;0.011090306;0.05318976;0.088076144;-0.039658587;0.08610747;-0.009531027;0.012808524;0.054981165;-0.07428476;0.023275167;0.0029869739;0.045559146;-0.02024426;0.061392356;-0.05634714;0.09595736;0.048930094;0.02576651;-0.063169256;0.089034006;-0.033670906;-0.062492386;0.12013518;-0.087827615;-0.015628686;0.012652671;0.009811015;0.108929984;-0.057187833;-0.03425079;-0.06457014;0.1403959;0.006416748;-0.03170009;-0.07959722;0.021158334;-0.047921363;0.00065410853;0.16016164;-0.04519192;-0.017322237;0.07135595;-0.118391946;0.055077985;0.043236427;-0.0030381782;0.015106564;0.036246847;-0.022298694;-0.05101958;0.05066655;0.018334039;-0.008101756;0.0785622;-0.0064320206;0.057763025;0.051959075;0.015353142;0.008509282;0.038664877;0.08666377;-0.077704445;0.03065685;-0.113794275;0.07278822;-0.061808683;0.104878455;-0.021202883;0.03185516;0.0716266;0.0027858072;-0.0068254415;0.11462247;0.03228142;0.053407952;-0.033420146;0.09711497;-0.019698828;0.12021095;-0.085625544;-0.056992985;0.059794083;0.072342806;-0.06227553;-0.077647194;-0.0074789017;0.02738568;0.010557719;0.07632338;-0.0034346986;-0.059475835;-0.023261422;0.082558624;0.13032751;0.089614235;-0.03963486;0.018003635;-0.030879963;0.06511516;-0.053948972;-0.11750666;0.0011379435;-0.050745632;-0.023163607;-0.12965585;-0.019473149;0.057754803;0.0694751;0.023955366;0.06705347;-0.007646385;0.141348;-0.06540746;0.098118745;-0.07744381;-0.06729691;0.056579147;0.084648594;-0.051673874;0.13460645;0.0029722238;-0.06283271;0.09834387;0.06493142;-0.036527667;0.07497196;0.119892165;0.030645104;-0.17185053;-0.08176857;0.03337416;-0.05039543;0.082111865;-0.04534115;0.10672444;0.07099755;0.027054222;0.11782808;-0.016198702;-0.05479395;0.05492134;-0.033980787;0.08268046;0.069115914;0.063261025;0.029797478;0.10145537;0.029000051;0.096331075;-0.060429465;-0.008203446;0.07666279;0.12466507;-0.042376604;-0.024102882;0.054316107;-0.04173643;-0.012562849;0.036994863;0.07279007;-0.01563448;0.06677761;0.0988623;0.11480956;0.09314002;0.0017250801;-0.1523117;0.030816592;0.032645028;-0.0932367;-0.04786304;-0.017754447;-0.06308495;0.060186695;-0.017211199;0.015096904;0.07692003;-0.07067252;-0.08760254;-0.0048091444;0.06608444;0.040869627;0.14371476;-0.054807477;-0.008323934;-0.14793763;-0.013739177;-0.030364037;0.04922627;-0.010053561;0.0631991;0.11285031;-0.09738869;0.05621979;0.11576175;0.090658635;0.08128187;0.03697145;0.055564705;-0.05969159;0.068365656;-0.1054629;-0.0054889913;0.13095768;0.026551146;0.072037086;-0.105700284;-0.04750584;0.17873806;-0.047239672;0.060363743;-0.01060773;0.01294318;-0.033055726;-0.06243502;0.040622838;0.15247877;0.0152609525;0.08235299;-0.028383845;-0.12244029;0.034898702;-0.060793046;0.13449864;0.036407705;0.16140582;0.0059835855;-0.05971995;0.07954481;0.061827846;-0.03475639;-0.097926565;0.012260219;0.116252206;0.051923234;0.070124805;-0.055173427;-0.061287917;0.08179804;0.050945915;0.09534671;0.083434045;0.05930772;0.1139389;-0.011366579;-0.10742547;0.04815221;0.056732625;-0.009532958;0.07002574;-0.08557061;-0.026167775;-0.06025059;0.08829442;-0.035040986;0.046250723;-0.015820613;0.044517662;0.052468557
-0.07157214;0.10390224;-0.020811146;0.011587944;0.10461633;-0.14344785;0.10371675;0.03528242;0.049087297;-0.13792442;0.07896102;0.13204041;-0.026880234;-0.085099965;-0.004967199;0.052415796;-0.1264866;-0.014463729;0.169582;0.0648;-0.09051961;-0.0095412815;-0.083051324;-0.035976827;-0.034458652;0.0032034458;-0.0076955343;0.16578314;0.019398078;-0.029987495;0.1468213;-0.08195029;0.13074559;0.04724573;0.01343861;-0.103503525;0.1021359;-0.03348176;-0.05982701;0.07545753;0.03538698;0.03290916;-0.019480191;0.026443604;-0.056626625;0.05141755;-0.18728742;-0.055111963;0.023782358;0.072484545;-0.06040089;-0.018516846;-0.03537241;-0.018377976;0.025982091;-0.101916045;-0.103818744;0.22452763;0.029062256;-0.015305792;-0.07492555;0.09645336;0.027110731;0.049315527;0.0020662542;0.06052296;-0.045479853;0.0020381918;0.030896267;0.015846897;0.032233894;0.034434866;0.09243991;-0.07740212;-0.165063;-0.03340726;-0.07692912;0.06979252;-0.08050404;0.008332393;0.039152004;0.10006536;-0.110410996;-0.037945807;-0.06033172;-0.036658898;-0.04599373;0.053244002;-0.043430105;0.14779487;-0.02093161;0.09508378;-0.061375022;0.10474019;-0.053348213;-0.03769812;0.16832745;0.025154488;-0.09451223;0.15520695;0.013114748;-0.021100089;-0.105060704;0.11833352;0.06609184;0.12080936;-0.039123345;0.03370629;-0.007960706;0.008562766;0.087696694;0.054968935;0.13625245;0.041202333;-0.017097352;0.23295368;0.036369346;-0.046302654;-0.0039011922;0.07560917;-0.0586215;-0.023461128;-0.036407765;-0.061433155;0.091184966;0.10574902;0.051753208;-0.13193548;0.16354087;0.09950478;-0.09456923;0.041626833;-0.0316795;0.10494703;0.15577996;-0.023437861;0.03719497;0.030636484;0.031211197;-0.13023563;-0.06657099;0.056299783;0.06482307;-0.0066916286;-0.04365858;0.05738982;0.14580122;0.077174895;0.012909324;-0.0052643158;-0.033918466;0.010994968;-0.108982995;-0.078495;0.13935249;0.016187802;0.100385614;-0.070913434;-0.041555375;0.07752591;0.058391705;-0.077595346;-0.057839632;0.12710433;0.20063856;-0.034622572;0.018482605;-0.006928549;0.21912348;0.00046657922;-0.02841782;0.13143635;0.11636357;0.041299578;0.01037519;0.083792254;-0.06311375;0.11350934;-0.02217128;-0.009667462;0.016849305;0.01649771;0.09182948;0.1740208;-0.02545178;-0.08854001;-0.020763919;-0.036045916;-0.014844466;-0.008413065;-0.09563854;-0.013451013;0.09299984;0.06620137;0.004565964;-0.10542596;0.086050786;0.19372067;0.07885297;-0.06690124;-0.015321435;0.060443506;0.03131934;0.09379431;-0.14305721;0.018098783;-0.035523117;-0.04152559;0.07445048;0.01615325;-0.027427135;-0.026964776;0.0021131265;-0.092872694;0.24561277;0.029894583;0.14540003;-0.058717843;0.055106103;-0.07071215;0.008643691;-0.062253308;0.056041274;-0.14173108;0.070608675;0.13928974;0.045265056;-0.004184763;-0.09388899;-0.0056394716;-0.07845388;0.0571939;0.025803072;-0.091785304;0.00075590855;0.0212717;0.07261592;-0.09755383;-0.019590009;0.064115934;0.04136739;-0.102748096;-0.06278773;0.09945892;0.007153746;0.021446997;-0.10224379;-0.019019263;0.03251789;0.1088516;-0.018174024;-0.063245386;-0.035984516;0.03497107;0.057288088;-0.08957078;0.120625645;0.12629884;0.022687651;-0.0045626443;0.16265166;0.16024937;-0.064749025;-0.0033237757;-0.06349615;-0.09670136;-0.07527979;0.063389525;0.017266544;0.04144097;0.14080095;0.20760764;-0.020247027;-0.037676368;-0.024737291;0.0026455277;-0.058003213;0.010296168;0.073030114;-0.021163354;0.1262983;0.02951655;0.113332786;-0.03868;0.090887494;0.021178354;0.16818516;-0.051024664;0.039041646;0.0006893481;-0.018386118;0.057615265;-0.09517846;-0.07479667;0.03145383;-0.013071496;0.06759534;-0.09169705;-0.0463295;-0.08386085;0.09754789;0.10669363;-0.0032392694;0.11418164;0.061169058;-0.009668419;-0.061155945;-0.007934623;-0.08039693;0.1207617;0.00378863;-0.0044298945;0.016139524;0.07277018;-0.02122517;0.059321254;0.09127057;0.07896915;0.14466177;0.07916458;0.04443636;0.19756646;0.039253082;0.050375048;-0.0868737;-0.043892868;0.11029553;0.04802808;-0.03358947;0.037013438;0.016553888;0.07409509;0.11367223;-0.020034602;-0.058034398;-0.06437493;0.079970166;-0.010247046;-0.09315529;0.10401855;0.023791855;0.123433694;0.06438955;0.014989869;0.10242436;0.03745252;-0.05394794;0.017092397;0.24963203;-0.009331233;-0.02265459;-0.05116114;0.07026714;0.017787803;0.048404384;0.04413687;0.062996455;-0.14971425;-0.028055996;-0.0033407055;-0.018218033;0.04657863;0.0068034525;0.07664525;-0.07248787;0.08242397;-0.059339706;0.020337142;0.12538812;0.025896432;0.057815045;-0.0024486275;0.12482657;0.0100931525;-0.095305525;0.012480361;0.042621043;0.055826124;-0.06633989;-0.118550204;-0.065553;0.04851302;-0.07268851;0.17505078;-0.024489962;-0.040373165;0.020660512;0.076823;-0.0614895;0.09795726;-0.022140188;0.07308422;-0.026879564;0.07892155;-0.030200243;0.16410723;-0.053196475;0.0822781;-0.0409569;0.10025727;0.013653683;-0.028818818;-0.055725712;-0.035547037;0.014340342;-0.06401689;-0.16301593;0.043459058;-0.021251656;0.08036519;0.12856556;0.05428947;0.019692019;-0.021787904;0.061953463;0.05359861;0.04927859;-0.10359512;0.009181177;-0.038035803;-0.0506006;-0.09022677;-0.08388273;0.089347415;0.051180452;-0.09632818;0.22708255;-0.05661871;0.16566865;-0.06511593;0.08006931;-0.0387388;0.08270237;0.14743227;0.00854979;0.05582035;0.2360852;-0.048885133;-0.055433754;0.12525246;0.09082775;-0.11493145;-0.06701373;0.18037663;0.03742807;-0.15734366;-0.00015715635;0.17696378;-0.14976923;0.108895466;0.045899633;0.015232472;-0.048143867;0.033323746;0.17314863;0.13422607;-0.07722915;0.19144641;-0.03763712;0.04941915;0.113550425;0.14792413;-0.053650156;-0.041467305;-0.047452826;0.16900888;-0.010504553;0.02268776;0.029358894;0.07333659;-0.1007066;-0.11144846;0.09204371;-0.18890266;-0.0007780457;0.0036227505;0.09915918;0.12079032;0.062402304;-0.05171059;0.07412764;-0.034016926;-0.0023937777;-0.10710027;0.08657646;0.27694172;-0.0013480553;-0.036116526;-0.030343529;-0.025744595;0.05528024;0.060024414;0.007354588;-0.09321785;-0.07302997;-0.003787737;0.108821996;-0.07797469;0.066450894;0.028984264;0.03764653;-0.15092039;-0.16130318;-0.12909499;-0.06092024;0.08315688;-0.01002763;-0.015800023;0.08852779;-0.07371713;0.09274724;0.062990785;-0.01759155;-0.03914786;0.006810438;-0.051116407;-0.1314566;-0.028083451;-0.04945379;0.051292364;0.054964133;0.12721266;-0.062106833;-0.059628278;-0.04154621;0.12633528;-0.033667482;-0.0824019;0.05619891;0.051313512;-0.07836638;-0.01941457;0.030147651;0.21046463;-0.023019122;-0.0975908;0.060486924;-0.05483859;-0.078754514;0.024374308;0.20371611;0.0635562;-0.060928307;0.17753094;-0.089236714;0.008687515;0.047223486;0.023496823;-0.14221892;0.07347543;0.10211781;0.11562318;-0.101711445;-0.103051044;-0.028675746;0.066324174;0.021486238;-0.045599487;0.15733026;-0.012375149;0.03811397;-0.0503883;-0.050455127;0.036195718;-0.014237718;0.101650015;-0.015188516;-0.034026768;0.037045807;0.037103195;0.022956343;0.08146458;-0.06789822;0.011546213;0.011208461;0.07930315
0.019649565;0.044782255;0.0075431843;-0.031143332;0.05909402;-0.08801004;0.11075857;-0.07422483;-0.06911466;-0.011688715;0.07800233;0.08501342;-0.00878019;-0.086350136;0.09514507;-0.008814305;-0.18354557;0.03333929;0.009013495;-0.056073476;-0.052195907;0.023771618;-0.09838819;-0.07976545;-0.03280243;-0.049448226;0.07211302;0.07352647;0.005218113;0.037157174;0.036758758;-0.124857634;0.029312031;0.043305073;0.04725089;-0.0048704343;0.06671081;-0.03985989;-0.053675096;-0.043241166;0.045306683;-0.05213832;-0.066385485;-0.00657252;0.025460705;0.03037349;-0.15287665;0.078749284;0.0621148;0.10974966;0.056650605;-0.1224163;0.03824559;0.04623524;0.007848035;-0.0058379425;-0.0012811301;0.16272365;0.13512331;0.030989068;-0.10205697;-0.109965146;-0.080359615;0.023469917;0.08669002;0.021531597;0.09129602;0.070847325;-0.008928581;0.03209138;-0.017397426;0.08904033;0.036335327;-0.0058187214;-0.02240023;0.06654737;-0.0089900885;-0.058904123;-0.018330844;-0.013846732;0.01724291;0.059374895;-0.064511895;0.0055987444;0.04206668;-0.020647341;0.1178521;-0.024902822;-0.05117839;0.11805078;0.007985209;0.08868999;-0.04609247;0.096373044;-0.008768024;0.020073388;0.034541927;0.06316348;0.023999885;0.10644271;0.075094424;-0.0141918;-0.08254424;0.17024066;0.11907697;-0.03690978;0.07316223;-0.06702311;0.076627776;-0.03555636;0.096528016;-0.0052413354;0.14490908;0.009237529;-0.001906753;0.08895217;0.055080276;0.03320747;-0.03704158;0.056767106;0.018574383;0.004994391;0.0440462;0.010051553;0.079176284;0.020683117;0.06348268;-0.006998646;0.125792;0.06742109;-0.19367452;0.016585238;-0.046425886;-0.06497971;0.07036938;0.018754292;0.077080645;0.09874886;0.14492607;-0.087440155;-0.042136837;0.06042156;-0.032333612;-0.085830495;-0.0017178168;0.08208098;0.15280312;0.123913676;-0.048091393;-0.002313238;0.079520896;-0.044215944;-0.082469776;-0.06054752;0.146984;-0.014294445;0.03224591;-0.00056076393;-0.027346333;0.052805472;0.09581934;-0.0029261098;0.025793778;0.0895151;-0.01644266;0.03502635;-0.002613127;-0.040766023;0.08620414;-0.049360786;0.003494794;0.09607975;0.055869244;-0.035530824;0.027523689;-0.01392557;-0.0003117817;0.10102031;0.07200974;0.04738849;0.04630421;-0.0038753469;0.052592732;0.046568517;-0.07710483;-0.15863535;0.023630371;0.005030376;0.12042854;-0.003119819;0.059599858;0.026065646;0.106426954;0.029155957;0.08382951;-0.0059383693;0.0010015544;0.084306195;0.040864784;0.05653424;-0.009434369;0.057074044;0.0015013955;-0.0163219;-0.09672269;0.10664999;-0.051169865;-0.064132884;-0.036866564;0.009731121;-0.006907802;0.008421918;-0.0028281899;0.030842463;0.027438587;0.0015492853;0.055661805;-0.004479237;-0.037853144;0.02219591;0.13251077;-0.0508918;-0.07601888;-0.1609864;0.058002282;0.06573534;-0.0101504475;0.10769378;-0.011076615;0.007877513;0.023989536;0.017111195;0.022011727;0.09767687;-0.032557204;-0.030624868;0.09512541;-0.028236123;0.07520812;-0.00082352787;0.04479735;-0.109810784;0.10858113;0.11516466;0.06673111;0.077700675;-0.06503718;0.023448803;0.06588889;-0.00018023091;-0.03457517;0.101497866;-0.04002944;-0.061174855;0.07068265;-0.016143544;0.05044601;0.050742045;-0.02845255;0.12876713;0.13316967;0.08827314;-0.007962056;0.016763164;-0.010870818;-0.04151672;0.00053071324;0.05272569;-0.049243726;0.06382694;0.12172057;0.16489884;-0.037415277;0.075476766;-0.08128342;0.04798006;-0.065232344;0.1085376;0.06498724;0.012951344;0.119700074;-0.0010408427;0.07407995;-0.00647555;0.11195878;-0.03964615;0.02424652;0.040119022;0.0828255;-0.0020684507;0.022084564;0.14972694;-0.08056175;0.04036114;0.057394616;0.033755064;0.07366255;0.04887644;0.014180627;-0.09056034;-0.010487599;0.13996357;-0.036415238;-0.008769648;0.009173501;0.06589654;-0.02141417;-0.030617122;0.084717534;-0.01641383;-0.03884321;0.032487776;-0.07107003;0.04667894;-0.015263801;-0.044958856;0.10212291;0.039573085;0.058614247;-0.008905816;-0.042529818;-0.008055352;-0.005904876;-0.050791606;0.06376772;0.01658966;0.028516686;0.051386956;-0.055143856;0.028733945;-0.022768684;0.055897944;0.076538086;-0.033691462;0.04208574;-0.14291042;0.056883663;-0.024137324;-0.035888612;0.1138003;-0.050286442;0.07489121;0.021963201;0.062096104;0.095300324;0.067510664;0.08231542;-0.06308081;0.007384314;0.012416109;0.049287193;0.006697078;0.08306509;0.018601827;0.07983846;-0.00613826;-0.060927097;-0.080626816;0.042570487;0.041773986;0.012689952;0.05807189;0.0387409;0.015355492;-0.04146009;-0.022260252;0.0037125817;0.041689735;0.042806566;-0.051916935;-0.015545416;-0.059695646;0.1019942;0.078033976;0.041230902;0.08071543;0.04678369;0.090186134;0.0668201;0.0054617086;-0.06320393;0.10557866;0.014836243;-0.010192946;0.011466149;0.07916038;0.10492498;0.006137547;0.011202473;-0.049891986;-0.02200857;0.008103895;0.04897501;0.09423371;0.10629105;0.053416133;-0.0888998;0.052009106;-0.12443369;0.017207302;-0.027047768;-0.061478406;0.017041141;-0.05141155;-0.051654268;0.030309916;-0.09100983;-0.0625313;0.05602208;0.021716595;0.12808661;0.029976612;0.012189281;0.0702405;-0.032959156;-0.08583549;-0.06133969;0.01651945;0.1210593;0.034785178;0.0085877795;-0.14740728;-0.046018623;0.07583855;0.027103832;-0.06129293;0.12224009;-0.09090782;0.10829327;-0.0042058686;0.03010275;0.00014385277;0.020813012;0.10540194;0.04158968;0.051049598;0.03399643;-0.055332296;0.033370797;-0.0031040558;0.059135392;-0.041965127;0.16102692;0.08751095;0.023205051;-0.042558316;-0.017166274;0.011607004;-0.12694444;-0.054142606;-0.033695728;-0.038954433;-0.0035909277;-0.05369064;0.072265506;0.055187773;-0.04563388;0.10182629;-0.03531025;-0.022442408;-0.037671052;0.019926047;0.063523464;0.038974438;-0.003337643;0.032486457;-0.13074653;-0.0022048352;0.07166769;-0.022779794;-0.10263161;-0.054351818;-0.015375976;-0.08820042;0.02022126;-0.012858249;0.053929947;-0.011654674;0.13361603;0.03887253;-0.0138947265;0.01015519;0.09496648;-0.06335752;0.12003995;0.19771749;0.050803415;0.040527906;0.07061358;0.059202164;-0.010176796;-0.03997594;0.051853754;0.025362441;-0.003919144;0.036309425;-0.07947343;0.0073749432;-0.015542802;0.13431604;0.08911564;-0.10170215;-0.040818144;-0.12817064;0.010073789;0.092502125;-0.031647738;0.03021294;0.030344317;-0.014565866;0.0014520601;0.18109843;-0.035768867;0.029838037;0.053732593;0.08106032;-0.10481973;0.02056362;-0.007512522;0.017534148;0.019770136;0.1322633;0.0068831425;-0.011520844;0.11264864;0.007386919;-0.074215084;0.015012762;-0.018647801;0.0037475093;0.04742697;0.080508;-0.067422554;0.113048285;0.0048195305;-0.099059;-0.06741236;-0.033013295;-0.025425926;0.039007954;0.05196308;0.07548737;-0.02489492;0.03241245;-0.09521469;-0.009858325;0.116673395;-0.02788355;-0.041597333;0.0857941;0.061304163;-0.015997808;0.0061843116;0.010858959;-0.032648724;0.005898108;0.064445294;-0.011963468;0.12013685;-0.09113994;0.08968935;-0.030403616;-0.04930887;0.053845514;0.07857301;-0.05827122;0.04548109;-0.08992367;0.07879478;-0.08807192;0.09081633;0.020719787;-0.07851917;0.07926936;-0.008848182;0.0985679
-0.02455622;-0.00744605;0.045677546;0.10005682;-0.009367779;-0.22521965;0.117212296;0.02384375;0.056181293;0.03584562;-0.0055193794;-0.06571891;-0.09775268;0.04113466;0.028827813;0.012113599;-0.16411929;0.03314503;0.09236296;0.07934591;-0.024704102;0.011335892;-0.013689121;0.060654;0.08134578;0.02136968;-0.048911434;0.041983742;0.023532817;0.021879485;-0.018826842;-0.09837701;0.04963731;0.039121225;0.021836672;-0.039834812;-0.036130074;0.019759301;-0.05287311;-0.014891202;0.09376853;-0.046408046;0.08295622;-0.08179366;-0.015413482;-0.06993002;-0.23481703;-0.04703686;0.053711273;0.06317439;-0.03272113;-0.062009815;0.045979768;0.00073088525;-0.03702738;0.041106835;-0.00865243;0.100094;0.015724476;-0.011458082;-0.057699736;0.0037176367;0.064302355;0.029967047;-0.0066030924;0.12468165;0.012401803;-0.011828046;0.057938915;0.010859327;-0.0063203974;-0.035118178;-0.019488959;-0.06854946;0.028768422;-0.046674278;-0.032132827;0.0035856362;0.003181109;-0.02903648;-0.008909563;0.028040605;0.075874455;0.023903882;-0.009739302;0.08249683;0.07331401;0.10677185;-0.0023033598;0.080601595;0.07830148;-0.06225968;0.08338968;0.06407271;-0.03848954;0.007815287;-0.006580884;0.0958354;-0.054661993;0.111323714;0.0060350653;0.021415258;0.03491867;0.0081934305;-0.011707174;-0.032081466;0.01954484;0.07376642;-0.028761847;-0.03443583;0.019349352;0.08414975;0.080386624;-0.060967024;0.105409324;0.103403;0.087475196;-0.016009677;0.07512403;0.031319097;-0.05419237;-0.062380407;-0.024702882;-0.0021477775;0.0022236065;-0.015749546;0.029698938;-0.05181258;0.05192121;0.046193875;-0.039992932;-0.002095202;-0.035351366;0.04047485;0.07145685;-0.0025433393;0.0731719;0.11828343;0.019886812;-0.21303964;-0.04247459;0.07730588;-0.0254329;-0.026064957;0.13799821;0.03486032;0.026396496;0.070723474;-0.07741133;-0.09664872;0.08293344;-0.04585541;-0.098351866;0.05005019;0.0774267;-0.06825262;0.042554785;-0.065319076;0.020203035;0.12940854;0.09859637;-0.052556418;-0.028318018;0.14595;-0.065375745;0.07449121;-0.00040822843;-0.067029975;-0.006451295;0.07637914;0.08658337;0.10578222;0.047672037;0.0071106707;0.13108452;-0.01244491;-0.029225009;0.14734021;-0.013593782;-0.00058535096;-0.019636445;-0.006336396;0.07502991;-0.0080081625;-0.024993412;-0.04094082;0.037005566;-0.06287025;-0.051042028;0.027145922;0.009538802;0.03269592;0.03785103;-0.06930275;-0.033808537;-0.036571212;0.12884408;-0.007835779;0.029337563;-0.08058257;0.102417745;0.064765476;0.08144549;0.0013750484;0.045509305;-0.027547512;-0.0033022081;0.061432984;0.048687235;0.036026333;0.054702718;-0.0690175;-0.027112473;-0.057461567;0.08615343;0.033398725;0.100899324;0.06869383;0.06507352;-0.057771973;-0.022472933;0.033376765;0.050058078;-0.1771694;0.04327824;0.03123511;0.05818728;0.06079021;0.06722335;0.05709268;-0.026927404;-0.0008638921;0.07303068;-0.02754746;0.1501789;-0.08328015;0.018055854;-0.031025544;0.048576232;0.08601878;0.016524067;-0.06028818;0.01381261;0.053588893;0.063072324;-0.022559876;-0.051861685;0.0971747;-0.036572237;0.06914929;0.041749794;-0.0076189456;-0.031485967;0.068733476;-0.00935971;-0.04792281;0.0060837674;0.009051657;0.012275619;-0.014303842;0.0057722917;0.039526228;-0.03933497;0.041639075;-0.06765024;-0.10466478;0.09108801;0.08333582;-0.00277643;-0.004534609;0.045711208;-0.009338424;-0.009914389;-0.00966251;-0.077523254;0.0805763;0.01678677;-0.01620557;0.1051664;0.015005806;0.0583061;-0.0051955483;0.041085307;0.085902214;-0.025123708;0.014133854;0.0678218;-0.021442926;0.012814375;-0.08258966;-0.09640364;0.16858432;0.05174825;-0.10054357;0.09598571;-0.056867704;-0.06915747;-0.0054333596;0.0729875;-0.0665821;0.09614666;-0.068506904;0.01421085;0.04144475;-0.021976404;-0.045271225;0.13493216;-0.020046003;-0.061895467;0.030991182;-0.073188804;-0.01801525;-0.056360215;-0.043614455;0.054245148;0.0947071;0.04775851;0.05267963;0.104443274;0.13817759;0.07253934;-0.03065491;0.008803118;0.05055955;0.084160395;-0.1078617;0.09880318;0.035934392;-0.06049023;0.05604189;0.016395621;-0.016020019;0.07662404;0.014784512;-0.06612784;-0.13788967;0.016782606;-0.0326509;-0.077669874;0.02213426;-0.063398026;-0.04722986;0.028970042;0.035340235;-0.042338736;0.0580301;-0.060989585;0.015149075;0.1082595;0.060017087;-0.029857343;-0.031042688;0.0026037742;0.08042156;-0.011562897;0.03266605;0.019112663;-0.15771286;-0.06196654;0.08567405;0.0040157023;-0.05666926;0.116223566;0.08856337;-0.034249257;0.10020645;-0.043607198;0.0272156;0.1016436;0.019102236;0.08425999;-0.096590325;0.06567833;0.05693414;-0.01153854;-0.044716585;0.0782134;0.05627116;-0.04969556;-0.08762925;-0.05682718;0.026426673;-0.024255648;0.041340955;0.021807894;-0.0273795;-0.07182741;0.0059148194;0.08572979;-0.14430475;-0.005000138;0.12872732;-0.018846817;-0.046564993;0.08824527;0.06526484;0.06657544;0.088846005;-0.07178931;-0.040440086;0.0067304643;0.07433206;-0.025100742;-0.10098945;0.010373937;0.039656274;-0.13405207;-0.037527032;-0.053773988;0.033224303;0.07536857;-0.16274452;-0.023266196;0.07232931;-0.0053898185;-0.031435795;0.058150064;0.033469796;0.048911665;0.08718063;-0.031247284;-0.15339224;-0.059282884;-0.021788025;0.05781392;-0.00859925;0.09558975;-0.07548641;0.09955824;0.008085385;0.018963119;0.08690488;0.09269157;0.11678046;0.016059129;0.059923436;0.067685336;-0.014802405;-0.0065712393;2.8543574e-05;0.10345595;0.012825913;0.17925932;0.071563885;0.00018304994;-0.049743056;-0.054774884;0.05419175;-0.14677285;0.049071137;-0.067020744;-0.0505866;-0.040801466;0.03286143;0.0188103;0.026565125;-0.025532799;0.027504347;-0.034804277;0.09148079;-0.039254416;0.01195357;0.09760919;0.057832297;0.017914865;0.120456904;-0.05296725;0.010055295;-0.015100865;0.021618849;-0.064183675;-0.037008494;0.03314679;-0.0730308;0.09272868;0.02172757;-3.7576247e-05;-0.0012486174;0.11734419;0.0012012352;0.11351098;-0.035085123;-0.036806785;0.05746675;0.03176262;0.09401031;0.033891283;0.037894875;0.12892726;-0.011258223;-0.0009149766;0.104461536;0.038637962;0.025303273;-0.078434326;-0.04887257;-0.051984448;0.073502876;-0.041866586;0.18353558;0.036224954;-0.07658361;-0.044255216;-0.052350882;0.055352982;-0.050075367;0.08634033;0.040737666;0.15797347;0.038566433;0.016032297;0.013936726;0.052252408;0.067426115;-0.05543401;-0.0112479925;-0.17659463;0.049715944;-0.058934536;0.006533678;0.003500375;-0.0462;0.032215293;-0.08007769;0.10913111;-0.022628918;-0.023490664;-0.027539384;-0.007806166;0.029477354;-0.060214777;0.017618665;0.051401813;0.12619138;-0.062638395;-0.031308014;-0.0053028306;-0.06592115;0.07007848;0.043045808;0.06767514;-0.08067979;0.025649427;0.03880362;-0.029219614;-0.001639259;0.07726059;0.088980645;-0.12716609;0.05935994;0.17492954;0.064241014;-0.021801997;-0.04349993;0.044639684;-0.04328959;0.05435262;0.038687333;0.14950028;0.031016434;0.09747062;0.019251253;-0.09682132;0.015736515;0.048200775;0.061782476;-0.074039765;0.05828739;-0.04698344;-0.019256642;0.07241133;0.06056329;-0.0333439;0.05405362;0.08663134;0.05541655
0.060242046;0.044512495;-0.03172254;0.10716526;0.101073064;-0.07949686;0.12117567;0.050721426;-0.087940894;-0.05711813;0.035907112;-0.098093964;-0.011337406;0.08482205;-0.069950946;-0.018707579;-0.11923852;0.057804774;0.053355984;0.034646597;0.008574915;0.05699113;0.05052495;0.04692145;-0.010346578;-0.1330824;-0.05122662;0.10663384;-0.06436877;0.10921665;-0.02669704;0.037742928;0.010877558;0.04975509;0.08127279;0.063978195;-0.03838568;-0.05244533;-0.017597318;-0.017301712;0.06016435;0.03460476;0.061115418;0.026260389;-0.042310365;-0.0021066375;-0.16187744;0.09097938;-0.05804831;0.0041434895;0.022869159;0.029545592;-0.0011698257;-0.02889986;-0.0007296405;-0.029791614;0.021405546;0.058237463;0.008877866;0.010960905;-0.022267193;-0.034777723;0.030629538;0.05336416;0.05787801;-0.03066986;-0.0014801371;0.07139559;0.016529797;0.064930975;-0.018073745;0.0602667;0.055649858;0.023143679;-0.08534196;-0.028673286;0.014895689;-0.05786175;-0.032546937;0.007825409;0.060312815;0.11449315;-0.017168915;0.054388992;0.055904876;-0.036671717;0.10055969;-0.06140952;-0.040269084;0.024028927;-0.037141062;-0.00281505;0.03686391;-0.06699536;0.103128776;-0.042083457;0.058958612;-0.0139775;-0.04110466;-0.016648147;0.029410064;0.07378178;0.13935246;0.04668711;-0.0216673;-0.022672217;0.08334788;0.06389199;0.046399765;-0.032981757;0.1140993;-0.032921296;0.011599522;-0.001136714;0.00048789955;0.054187108;-0.0023798973;-0.06427179;-0.00440115;0.004394845;0.030285483;-0.04449746;0.087259;0.038676128;0.096416816;0.004123145;0.018780686;0.00068085553;0.0058537894;0.08778071;-0.13380313;0.113786966;0.067397535;0.038736235;0.015191526;-0.12262983;0.15226209;0.01453006;-0.021399911;-0.20849387;0.07781736;0.07491614;0.00021547747;0.03096694;0.013929371;-0.0036683287;-0.016679065;0.1543225;0.0467609;0.022510223;0.011105291;0.088366985;-0.08865567;0.05314129;0.120681606;0.082025625;-0.010278561;-0.0794557;0.07759959;0.08651394;0.020579174;0.061123468;0.070249476;0.04026522;0.035624042;0.1372536;0.061998043;-0.04931244;-0.022695389;-0.0635515;-0.066766225;0.022802057;0.04131077;-0.066698804;0.0944746;0.08490782;0.045892835;0.04247938;0.05770013;0.093923375;0.04896159;0.05770148;0.074278526;0.058225535;-0.0630179;-0.10065917;-0.010817819;-0.10639204;0.03167874;-0.06833609;0.0046458226;0.031537596;-0.009668864;0.08515043;-0.0626847;-0.067662;0.036834545;0.03984835;0.019058436;0.0040168217;-0.00051010994;-0.036719967;0.036894128;-0.025073605;-0.032877315;0.036048103;-0.0148369875;-0.022036178;0.09677027;-0.013754091;-0.058546737;0.008502793;0.045152094;-0.0455277;0.11357377;-0.053675435;0.15792874;-0.083060294;-0.017444726;0.037437603;-0.0172576;-0.05426106;0.02832245;-0.055330895;0.15886723;0.10613273;0.028916525;0.16060516;-0.02309659;0.04912832;0.026245672;0.06091067;0.10200022;0.018313482;-0.022601433;0.038991604;0.03490659;0.08285616;-0.024448851;-0.009092878;-0.050750338;-0.032020155;0.023192791;-0.022273213;0.026747262;-0.0006748413;-0.11258889;0.0029535247;0.104148105;-0.06893394;0.063769676;0.004062328;0.053464517;0.0025559363;0.039322726;0.087618865;0.043819223;0.06522376;0.093276866;-0.06014175;-0.044035327;-0.018986635;0.072384514;-0.014450528;-0.063143805;-0.11539382;-0.026931727;0.012544166;-0.031436566;-0.069426015;0.016699314;0.08545494;0.085049115;0.10800382;0.02572483;-0.0102651995;0.035829738;0.09034835;0.03978943;0.061295833;0.17811874;-0.052194003;0.024188988;0.06621059;0.0782243;0.049590874;0.040476486;-0.032910716;0.0063446625;-0.015991343;-0.0037889595;0.032867033;0.023948226;0.054868523;0.045793805;-0.10716715;-0.052222747;-0.010220558;0.07374357;0.024199568;0.1360917;0.02675105;-0.07548276;0.016558785;0.021731699;-0.022815857;0.095505394;-0.08260834;-0.011563658;0.09200345;0.05634374;-0.0569946;0.057477698;-0.04395927;-0.04557599;0.06459749;-0.0095773535;-0.07721813;0.12479644;0.08157886;0.0725424;-0.033518966;0.04548774;0.04858499;0.064787835;-0.0065471004;0.08962138;0.029055195;0.03264181;-0.10230023;-0.066667855;0.023914654;0.025487954;-0.029344907;0.00014902689;-0.05180978;0.071845606;0.030001847;0.008971354;0.07987549;0.07712165;-0.0516039;-0.04568284;0.052847207;0.052607425;0.01721058;0.014227183;0.049904548;0.10489084;0.06554942;0.086621076;-0.09160632;0.012203968;-0.0463178;0.09047283;-0.042480033;-0.041195884;-0.13188834;-0.0676794;-0.008847974;0.09112973;0.086207524;0.08208247;0.040746044;0.03216266;-0.025224559;0.034177165;0.06246857;0.1354157;-0.012190238;0.0033207468;-0.20437783;-0.015514543;0.12543201;0.046496775;0.017858801;0.13243176;0.026999185;0.011791118;0.028958615;-0.0844991;0.07707466;0.07379031;0.056360904;0.02924197;0.0012039436;-0.04658452;0.11840179;0.14721444;-0.080777615;-0.013727271;0.022439014;0.061224792;0.07113779;0.07121836;0.045617253;0.0057956115;-0.076324716;-0.16285357;0.070290744;-0.0038634327;-0.036033347;-0.042106662;0.036743157;0.06535333;0.03366373;-0.091544494;-0.011738779;-0.030798864;0.08720489;0.09730547;-0.15798594;0.017485378;-0.020144349;-0.064820446;0.056569822;-0.036143895;-0.036690854;-0.029160807;0.055682912;-0.06815855;-0.04683214;0.03822988;0.02009182;0.06614688;0.07527987;0.019205108;0.019517813;0.026844537;-0.07068636;-0.017081063;0.060177244;-0.029995643;0.000460735;-0.028081318;0.033932105;0.047086056;-0.011415076;0.06375618;0.049589027;0.036886256;-0.015044025;0.13286683;0.0030672045;0.00815272;-0.013315492;-0.046366904;0.11572714;-0.13258271;0.003135145;0.01925403;-0.0022643127;0.01191127;0.06389656;0.03452188;-0.0007625255;-0.042387128;0.101332195;-0.048970997;-0.042603236;0.09528936;0.099779025;0.11702914;0.017378889;0.03834201;-0.0071968297;-0.042644326;0.009682148;0.05348948;0.013161876;0.04745522;-0.091843314;0.033756223;-0.057490963;-0.020707924;-0.07481098;0.020905646;0.05628094;0.010557987;0.05294024;0.093360744;-0.0011545774;0.03439337;-0.09663795;0.03643355;0.054741625;-0.06744978;0.021305354;0.061780997;0.010449204;-0.09227168;0.12211365;-0.008819653;0.09393018;-0.037032563;-0.10227026;-0.03378699;0.06798475;-0.051172983;0.14832407;0.008570226;0.000374207;0.009362075;-0.02013147;0.016702145;0.03913919;-0.035393283;0.058693588;0.15839808;-0.083197355;0.05304101;0.08266839;-0.06701425;-0.067477666;-0.050055094;0.034398817;-0.16296907;-0.03375251;-0.017997863;0.031115253;-0.035115268;0.11162369;-0.034143906;-0.017538477;0.12260007;0.08478522;0.016016504;-0.045048527;0.034992244;0.023462636;0.06325443;-0.0483748;-0.010333709;0.006537962;-0.047671843;-0.0757912;0.08155786;-0.025207346;0.052194487;-0.0032959238;0.049985565;-0.008885002;0.06666723;0.055744525;0.02363424;-0.085439995;0.09773853;0.028911248;-0.02583564;0.053327687;0.01985213;0.005886161;0.0707144;-0.08533892;-0.03391588;0.009890781;0.07297333;-0.00627697;0.10361812;-0.043656934;0.058681488;0.046849247;-0.114290096;0.101105444;0.020774346;0.06501188;0.021057326;-0.076188214;0.051861815;-0.058359608;-0.008191853;-0.03834115;0.06516535;0.066355474;0.011512936;0.08358595
0.05442013;0.070796736;-0.027473403;0.031589236;-0.060751796;-0.14575283;0.029321361;0.06405695;-0.044569906;0.10486114;0.05790056;-0.118617184;-0.06684591;-0.04164142;-0.0021982498;0.1470022;-0.106503844;0.053625282;-0.1008134;-0.019140383;0.102320224;0.08457923;0.07410581;0.098611146;-0.039303582;-0.03819225;-0.02372501;0.00067761;0.034422297;0.1276752;-0.026451418;-0.06760325;-0.046007484;0.024164991;-0.07069829;-0.058900427;-0.052669205;-0.10662994;0.025703542;0.0372115;-0.0058564213;0.049955353;-0.012015127;0.08408489;0.041095905;-0.07370189;-0.17351648;-0.0278954;0.038689848;0.07266321;-0.032254446;-0.073440515;-0.005899987;0.057190873;0.11316802;0.11770962;-0.08955759;0.08924374;0.17620666;-0.03562262;0.08980175;-0.10058488;0.021339552;0.08896958;0.07648331;0.04135753;0.1721013;-0.022972655;0.0811616;0.016115194;0.0328084;-0.019022893;0.060675453;0.00049527583;-0.028983055;-0.027707411;0.08059359;-0.04184551;-0.013624074;0.011745178;0.05482602;0.11324444;0.03210781;0.1156477;-0.031566065;-0.009431607;0.2348576;0.01948172;0.07851776;-0.025105005;-0.026622387;-0.060300875;0.072690316;-0.078493424;0.08487573;-0.041453887;0.015856352;-0.0801423;-0.019310586;0.082299165;-0.01453674;0.04393102;0.15201625;-0.010374864;-0.056365423;0.04576606;0.012869082;0.07900347;0.0022510325;0.014021782;-0.0335895;0.053973146;0.04467546;-0.056180812;0.034502596;0.048707604;-0.06152901;-0.01786831;0.07808258;-0.052597545;0.03277206;-0.014374913;0.07522816;-0.025010748;0.11297152;0.035236835;0.09498022;-0.024156597;0.067520544;0.021064581;-0.2170617;-0.032896895;0.047260597;0.0064105936;0.072230764;-0.014838206;0.05852428;0.10658672;-0.061193094;-0.2259337;-0.008743196;-0.085630186;0.0076127998;-0.023085099;0.038021404;-0.06885408;-0.024940308;0.03776842;-0.008566226;0.046638668;0.11433977;-0.03580956;-0.06598317;-0.030104985;0.11381994;-0.03432658;0.069850385;0.055926267;0.06097303;0.028318556;-0.024478314;-0.009029149;-0.0364388;0.10599198;0.030471493;-0.05471734;-0.029898101;-0.04531043;0.005136394;0.08505487;-0.048932217;-0.058915056;0.0127087245;-0.0681621;-0.005375825;-0.049382374;-0.00038131577;0.12397615;0.09856944;0.018447464;-0.048465744;0.08933153;0.066843055;0.07065655;0.0387923;-0.026129726;0.08703704;-0.14512052;0.014451386;-0.041003555;0.025704516;0.07187787;0.041097827;0.07924197;-0.031455647;-0.008219777;0.0056969733;0.13107753;0.045929864;0.085694805;0.049702104;0.09120844;0.097948976;-0.119555995;-0.06274736;-0.034319684;-0.0346334;0.056869574;0.08112992;0.080185235;-0.035061646;-0.048598085;0.02629416;0.024112131;0.04543243;-0.016764287;0.13290803;-0.056759734;0.008702234;0.02426349;-0.023397801;-0.055406522;-0.031414486;-0.022276735;0.00060389464;0.06839727;0.09158614;0.1591612;-0.075128146;-0.018197497;-0.016424732;-0.038478702;0.061717644;-0.031650458;-0.061698146;0.09382876;-0.048150603;-0.004115895;0.06296945;-0.03876201;0.047049876;-0.1372936;0.049298774;0.051782753;0.048620224;0.0033669295;-0.03636886;0.03922335;-0.024891404;-0.096794605;0.09135075;0.1087754;-0.05279622;0.14252728;0.06724339;0.015480518;-0.014441907;-0.052329086;0.053073112;0.19767676;-0.018783439;0.011038284;-0.030029176;0.07753215;0.07102899;0.00097104145;0.051370002;-0.043918245;0.07822482;0.045594826;0.020005986;0.07390573;-0.008682866;0.040157016;-0.039775476;0.07829221;-0.06851176;0.0551122;0.042414427;0.044293407;0.13067777;-0.0035424815;-0.020203965;0.061387137;-0.05933728;-0.07195591;-0.015374321;0.013815868;0.02086824;-0.08119573;0.071937025;0.028115116;-0.062558204;-0.07453266;0.109859526;0.04569622;0.041401815;-0.0013423692;0.06495507;0.0008481484;0.10088455;-0.030358147;0.088436276;-0.0961638;-0.05653058;0.09138542;0.05001254;-0.060365137;-0.0021299168;0.007287819;0.0120904595;-0.013825485;0.07778929;0.0025190222;-0.030517997;-0.039898653;0.077596575;0.023354866;0.10269164;0.079452224;-0.039031226;0.047632568;-0.1130694;-0.030337315;0.16521;-0.11650709;-0.014783674;0.023345582;0.02831457;-0.0110692335;-0.047361378;0.0290138;-0.005367328;-0.054925088;-0.014395582;-0.0041151587;0.080829486;-0.013063313;0.01194831;-0.06747867;0.09503902;0.046263512;0.053262327;0.1141899;-0.023095865;0.025640458;-0.01667756;0.04361731;0.085742824;0.04223195;0.123949125;-0.15952018;0.07627667;-0.06486565;0.07941592;0.08099212;0.1280415;-0.10294617;-0.03753396;0.053699892;0.034980506;0.050975833;0.12441817;0.023152161;-0.049273666;-0.01796458;0.0850803;0.092874035;0.12254613;-0.012119488;-0.0134533765;-0.07793709;0.02678813;-0.04099852;0.08843386;-0.058851164;0.045750123;0.05257707;-0.026423706;-0.04974014;-0.048017826;0.0343383;0.05415169;0.092472576;0.060302448;0.012942121;-0.046234135;-0.0013623614;-0.050424628;-0.054739118;-0.048347764;0.00081802136;0.048853386;-0.07690757;0.024355024;0.10208269;0.08794956;0.07652882;-0.03419704;0.03509018;0.09483974;0.10119445;-0.0011345115;0.06792688;0.004094661;-0.06949434;-0.0033455286;-0.07244521;0.08706476;0.007493059;-0.06422473;-0.21521586;0.023447763;0.0071422798;-0.03318687;0.00967103;-0.029685624;-0.0012145287;-0.0041412655;0.09042963;0.03513132;-0.049234103;0.08898506;-0.07016769;-0.007363731;0.017489918;-0.043006755;0.008532312;0.144702;-0.012675837;0.01384791;0.09816859;0.0027003894;0.09277233;-0.04698156;0.058942314;0.08544496;0.069285475;0.043830585;0.0038617328;-0.00164855;-0.008927527;0.121880904;0.02292521;0.025593998;0.09186114;-0.011813876;0.0011039014;-0.22051886;0.05740178;0.006538171;0.0016401621;-0.02340931;-0.043311715;0.012934139;0.08814836;-0.037445113;0.009703963;-0.0613264;-0.078947894;-0.048756503;0.058056153;0.003888527;0.020177761;0.07861213;0.12520999;-0.029049817;0.072844155;0.021639107;-0.032736875;-0.07181378;-0.10504362;-0.033147655;-0.06674818;0.030217916;0.055695858;-0.06063161;0.045228027;-0.06978819;-0.0120352;0.0071092;-0.07658072;0.04293157;-0.0098493295;-0.04480899;0.007744019;0.021995902;0.010542367;0.08171135;0.004023133;-0.10474382;0.04296879;0.013805434;0.06624303;-0.006797669;0.019566055;0.021993926;0.009277149;-0.06084564;0.15528516;-0.004233931;0.017585717;-0.12798642;-0.11955936;0.10416956;0.07115279;0.031596597;0.055944003;0.08078627;-0.0029902502;0.06866192;-0.0019686262;-3.8153878e-05;-0.020572586;0.05337313;0.07539347;-0.032416023;-0.058432225;-0.06224263;0.020386603;-0.052993987;-0.025141014;0.047036093;-0.0658993;0.09821046;-0.058550216;-0.016252765;0.06162842;0.044614807;0.028048212;-0.019680845;0.06485364;0.039182592;-0.013544674;0.061437316;-0.07867585;0.0448077;-0.014018365;0.069717966;0.021283992;-0.025065651;-0.030480538;0.03581107;0.07567488;-0.08054555;-0.021036116;-0.021337874;0.1106896;0.0152464;0.03702356;0.004814132;-0.0016616746;0.09726769;-0.089960255;0.08092251;0.055134505;0.0062058982;0.050908547;-0.047830027;0.03522131;0.075487465;0.084698334;-0.0643129;0.073130175;-0.07788838;0.0397113;-0.057392105;0.07532696;0.07841511;-0.07672331;0.017074015;0.036561962;0.0066135274;0.015018157;-0.06376439;0.06166332
-0.005301717;-0.020058222;0.071609005;0.02114078;0.048239153;-0.25277358;0.044180363;0.030664196;0.055116445;0.066983886;-0.0035723809;-0.12593189;-0.03735775;0.085375;-0.0069865654;0.12813148;0.040870864;0.047634345;-0.065118805;0.03809892;0.03193134;-0.030088447;-0.05744712;-0.025671937;-0.011684324;-0.07728795;-0.002160017;0.08478764;0.06962365;0.06087666;-0.015149131;-0.0864594;0.063403696;0.044121012;0.0030854512;-0.009933101;-0.010522871;0.03393596;0.094358124;-0.05734203;-0.034475476;0.016061066;-0.038716048;0.059962165;0.026707362;0.068191424;-0.16760585;0.0014859563;0.01721491;-0.009330262;-0.07268987;-0.031534594;-0.019824453;-0.033071473;-0.0018758172;0.07986054;-0.06510273;0.027339444;0.050450653;0.008815294;0.050133187;-0.014115045;0.01766583;0.039689682;-0.0631488;0.04112197;0.15511498;-0.024223994;-0.023992278;-0.011626592;0.09295543;-0.004284327;0.06054489;0.08492542;-0.12249627;0.030640002;-0.033750724;0.04814629;-0.023092017;0.03435277;0.06261885;-0.010214918;0.07614309;0.08187125;-0.07241154;-0.038255624;0.109311074;0.059229687;0.08643651;0.07355272;0.027833425;-0.04869959;0.058570683;-0.042600453;0.081350625;0.046170432;-0.010177089;0.055117596;0.043658778;0.00020679044;-0.034839123;0.03332573;0.073932976;-0.09217566;0.010770713;0.016410504;-0.010602345;-0.056376945;0.10048305;0.082638435;0.004488331;0.029856684;-0.0249251;-0.0528041;0.066374995;0.011509042;-0.048691433;0.044208072;-0.004063788;-0.022907868;-0.012569841;-0.021599196;0.030294657;0.022220049;0.0875331;0.011654519;-0.058297776;-0.062470447;0.0043531987;-0.043498654;-0.18567038;0.051503703;-0.043455638;-0.016130365;0.09057768;-0.014175847;-0.07037714;-0.003356658;0.045367435;-0.22447151;0.0343677;0.075166754;-0.08179876;-0.11204033;0.043663383;0.09133017;-0.04077934;-0.025685044;-0.091173954;-0.016301196;-0.038564455;-0.00032471758;0.083927624;0.0235788;0.089440845;0.0004275924;0.037121046;0.06896873;0.08935303;-0.013452464;0.06243395;0.03459657;-0.02177905;0.11808814;0.038770597;-0.046361472;-0.07251117;0.012916841;-0.025473366;0.0054662726;0.049538642;0.07448655;-0.031278476;0.06988668;0.037803978;0.090739176;0.08521853;0.07486516;0.079798564;0.09669922;0.019417029;0.005194061;-0.049150273;0.08668326;0.015455739;0.019029144;-0.035121623;-0.15775666;0.086716875;0.04760835;-0.032208387;0.077779725;-0.03686266;-0.03712036;-0.064931974;-0.0642208;0.036643762;0.052189045;0.05393651;0.07782241;0.06223677;0.05044573;-0.04482436;0.009141212;-0.0734341;0.078503184;0.024774177;0.0013489565;-0.027668538;0.084158815;0.06603496;-0.008631291;0.09769803;-0.0796069;-0.0040076682;-0.04483038;0.0732817;-0.07096892;0.0068873917;0.09674403;0.015362188;0.046207905;-0.16617896;0.0029281722;0.13323316;0.019043095;-0.0141312275;0.13745645;-0.07697852;-0.04302999;0.03864449;0.012355257;0.10099658;0.027933145;0.027512753;0.047831316;0.092001416;0.042329445;-0.028523725;0.02441379;-0.050445843;-0.0024426405;0.03416173;0.058383398;-0.009312727;-0.06545186;0.03736982;0.042961273;0.049603786;0.028359633;-0.047711615;0.011008957;-0.004493848;0.08342211;0.020460017;0.06617157;-0.01835961;0.033398304;0.079982646;0.12657738;0.06653219;0.01027076;0.102917634;0.044522863;0.035883285;0.059204657;0.03098936;-0.07844367;-0.022564007;0.0043294863;0.07244698;-0.00018553658;-0.003236888;-0.010144721;0.091793194;0.042532537;-0.02330693;0.065789394;-0.0023793506;-0.04191073;0.100667134;0.044995807;-0.038561333;-0.034195498;-0.018932862;0.02664041;-0.0049466114;-0.055174574;0.08859756;-0.056108776;-0.043219235;0.11595638;0.05129138;-0.041227367;-0.01683866;-0.0847546;-0.02526551;0.07641935;-0.011411079;0.070211485;0.06455058;0.030869449;0.04727812;0.024291517;0.022724325;0.012980385;0.037407663;-0.05359459;-0.06994371;0.046865627;0.00064001547;0.10300288;-0.019172996;0.11638969;-0.02196435;0.03322452;0.01810092;0.07869441;0.030428002;-0.031791694;-0.005723394;-0.037907545;0.005541882;-0.038912885;-0.011913437;-0.051226642;-0.04419884;0.060869593;0.020003904;-0.124406286;0.03174682;0.0028849528;0.09526831;0.05114405;0.030760875;-0.16167243;0.03437146;0.013250462;0.08176305;0.07248995;-0.062362626;0.057984065;0.05781266;0.18362582;-0.088211946;0.06263104;0.08064602;-0.021831641;0.047372468;-0.02446049;0.09738024;0.009808598;0.08726891;0.0037434963;0.09768025;-0.022973353;0.09247879;-0.033841364;0.041689396;0.09593974;0.0553372;0.012373386;0.05517303;0.05032233;-0.007996446;-0.072040685;0.010894604;0.012409251;-0.007420164;-0.017428564;0.010906869;-0.23160209;0.06303133;0.019471852;0.009379739;0.036193576;0.013715953;0.057121098;0.027409881;0.0111893015;0.04362768;-0.009294773;0.03099072;0.072684854;-0.05141142;0.043310855;-0.13522647;0.039598987;0.028917274;0.058628537;0.014064436;0.010023665;0.07359412;0.042704474;-0.049587343;-0.025370304;-0.063094065;0.03458926;-0.0590304;0.07226972;0.12249786;0.039552107;0.005466722;-0.020274917;-0.0522708;-0.016408421;-0.058208454;-0.12830323;0.07422365;0.043467406;-0.07284756;-0.1751723;-0.009384533;-0.010635426;0.07509682;0.06732056;0.075309776;-0.037917905;0.091397256;-0.031599455;0.027346173;-0.17906487;0.09028911;-0.04517314;0.02301621;0.08030874;0.026083425;0.001864589;0.14844885;-0.00091537717;0.096690305;0.10207253;-0.08160528;-0.036846723;-0.02378815;0.059989765;0.053448662;0.100393854;0.10476709;0.11454747;0.014521424;-0.0022226914;0.048108287;0.13079168;-0.061824832;-0.042297088;-0.09449349;0.00026068528;-0.17423153;-0.05817645;0.061415493;-0.07117064;0.07797943;0.058348384;-0.035060212;-0.038731933;-0.0015484147;0.003239974;0.0061943247;-0.09081077;-0.16480954;0.06333275;0.029120171;0.040957086;0.009534488;0.17866327;-0.028234052;-0.037588876;0.025417777;0.07016334;0.005195958;-0.13550353;-0.012651319;-0.12300911;0.03631831;-0.044451278;-0.07248877;0.08035982;-0.068381295;-0.06603319;0.06933912;0.08642654;-0.07964801;0.016972203;-0.026757795;-0.03326891;0.0405242;-0.063493386;0.09436234;-0.055933576;-0.041644376;0.021097096;-0.028019162;0.048370898;0.005799631;-0.05412699;0.06080875;0.08021472;-0.023248665;0.1467841;0.042738643;0.004862629;-0.09435197;0.07595417;0.028167421;-0.007877839;0.076081865;0.0057438924;0.01585774;-0.029908406;0.05808711;0.004648775;-0.022120658;-0.009412989;-0.036725305;0.00498625;-0.06722932;2.83376e-05;-0.019222049;0.08066126;-0.09247611;0.035914097;-0.012828188;-0.08989177;0.025562163;-0.04740882;0.004339809;-0.06484208;-0.006933162;0.054420404;-0.04858088;0.076781996;-0.0493775;-0.014508673;-0.025681116;-0.08289453;0.02214038;0.07002384;-0.01891325;-0.017019004;0.07752514;0.079503;0.032393783;0.07842874;0.0062706578;0.0045716437;-0.05395576;0.09088094;0.08032356;-0.018198704;0.11431866;0.020537708;0.049035955;-0.029723285;-0.03271462;0.10068781;-0.043789625;0.013785595;0.111693665;0.08806169;0.031081328;0.029679542;-0.030712353;-0.06157419;-0.03895819;0.056426052;-0.039093677;0.029916836;0.009838014;-0.088253304;0.020703206;0.054547917;-0.06850186;-0.058930468;0.043060187;0.03356353
0.04777557;0.06321949;0.025184967;0.03589847;0.07518541;-0.1156482;0.084758595;0.06610875;0.03746275;0.03275891;-0.013973359;-0.035204373;-0.09230341;-0.0034453126;0.07050252;0.14844416;-0.013523575;-0.03719683;-0.03578763;0.059346456;0.0103615625;0.09007162;0.03438923;-0.13484976;-0.07677973;0.06619508;-0.025935555;0.07523758;0.038195465;0.109791405;-0.029809386;-0.0063483864;0.024088653;0.041973926;0.07055923;0.09235028;0.09829094;-0.025968406;0.03893707;-0.017596731;-0.057229947;0.021221679;0.032282736;-0.024611196;0.0022309506;0.049382493;-0.21346936;-0.028405141;0.026523426;0.1422405;-0.065150306;0.047354057;-0.004341896;0.092273116;0.09067812;0.037542492;-0.011133443;0.020086449;0.15330611;0.07798123;-0.014636912;-0.100873336;0.113543704;0.003985983;0.0818422;0.038612854;0.12202435;0.015995467;-0.056842316;-0.044131037;0.023054844;-0.045706715;-0.04460525;0.04889483;-0.083039925;0.12446391;-0.0015306973;-0.13653767;0.03767915;-0.032364074;-0.008460137;0.094591916;0.05016263;0.04074884;-0.07597247;-0.06178801;0.12250169;-0.011650921;0.019609215;-0.04822951;0.07296842;-0.029051578;0.07866645;-0.044901192;0.01882503;0.043786254;0.0531782;0.02253947;-0.07131147;0.022877334;0.009413433;-0.0006069029;0.04169268;-0.026404995;-0.030699298;0.07480628;0.0064345533;-0.016822848;0.05210637;-0.014599772;0.070588574;0.041558888;0.039273407;-0.014394261;0.02378933;0.027358977;0.058742244;0.02933183;-0.022439659;0.0018867103;-0.035425846;0.007681284;-0.07714019;-0.009841921;0.1250695;0.033609424;0.0139431115;0.014221787;0.08703008;0.03652266;-0.16518295;-0.038558185;0.012081063;0.06982575;0.0437165;0.041125357;0.025445528;0.08768531;0.025754657;-0.22526677;-0.010821579;-0.07439663;0.014450925;-0.21197692;0.040903464;0.04403015;-0.018517751;0.059201527;-0.014454557;-0.029672487;-0.049701042;-0.0705421;0.08516207;-0.03894959;-0.06055929;0.087109946;0.037105516;-0.0015128616;0.0075120097;-0.09620182;-0.024614042;-0.08945543;-0.1376115;0.042288836;-0.13659486;-0.049280215;-0.010549798;0.0066475067;0.0007776191;-0.07020816;-0.069528386;0.08530926;-0.017805977;0.08294785;-0.06164559;-0.035495058;0.06784791;0.10789233;-0.056452796;0.062914275;0.06340127;-0.0044682585;0.08931538;0.03411899;-0.07254566;-0.13868804;0.076750614;-0.17910117;-0.0031638218;0.012102867;0.08269207;0.0013069871;-0.025333457;-0.044458587;-0.079777926;-0.022644602;-0.07191622;0.031913012;-0.030576792;0.07328696;0.10161578;0.04255063;-0.05656405;-0.08128538;-0.0005869984;0.08451022;-0.009153686;0.08988497;-0.066918656;0.017427966;-0.008411879;-0.07489993;0.073760375;-0.068036765;0.002282845;0.05356993;-0.029939132;-0.075795196;0.07510933;-0.041544568;0.017217819;0.07789306;-0.1362071;-0.015863238;0.07969872;-0.07781087;0.04946527;0.033596348;-0.023810958;-0.03903007;0.06708469;-0.015651217;-0.012880163;0.10351878;-0.021863338;-0.028812049;-0.0034700793;0.009518141;0.007631869;-0.022792302;0.088798344;0.017650105;0.064064905;-0.007134405;0.011239115;-0.03530535;0.04265651;0.07870349;0.054566927;-0.023949128;0.019792091;0.07236037;-0.020218372;0.12847635;-0.046486273;-0.0001377482;-0.00194351;-0.09596757;-0.044283755;0.1381957;-0.04941624;-0.081076995;0.10360695;-0.081166215;-0.015966201;-0.02673894;-0.038155463;-0.030455032;-0.06359437;0.022905916;0.0047274577;0.06014868;0.04408283;0.05858111;-0.014165362;0.046369195;0.04821173;-0.06993687;-0.08599234;0.09625813;0.10424763;0.06608165;-0.066196844;0.050444182;0.029286344;-0.09222345;-0.03544366;-0.045462087;0.07789026;-0.039654963;-0.04760309;-0.024235059;0.07530723;-0.06644189;0.070055604;-0.04116732;-0.042808313;0.10637501;-0.037591707;0.0524294;-0.008126652;0.13318202;-0.053977896;-0.017823989;0.032950703;0.09320605;0.15102595;0.03389692;-0.081971444;-0.07075242;-0.019744612;-0.013287863;-0.046296082;-0.014586326;0.018827815;-0.03985313;-0.033742473;-0.008385472;-0.033042345;-0.05276372;-0.06601309;-0.11224542;-0.00012589274;0.021941494;0.054283805;0.012619355;0.059396807;0.023674713;0.08291868;-0.092228495;-0.013596237;0.009226738;0.018893067;-0.0369764;0.0076242746;-0.1547614;-0.013291031;0.049398277;0.009420424;-0.07907911;0.051880945;0.06632348;-0.10151066;0.031412907;-0.014908986;0.09622016;-0.04956477;-0.096107505;0.0133687435;0.05483762;-0.030213095;-0.116242126;0.032548893;-0.043876965;-0.0022355346;0.08489365;0.13043346;-0.09390204;0.04863241;0.07756467;-0.029130144;0.013592247;0.13754989;-8.2490784e-05;0.11588202;-0.024021678;0.09447487;-0.06602393;0.056292135;-0.013673502;0.108988;-0.20895891;0.020221498;-0.0179883;-0.07305725;0.03265671;0.012411778;0.068579435;0.0026293276;0.033773836;0.08756057;-0.057852875;-0.0068414267;0.046125215;-0.05989861;0.008186313;0.0016803769;-0.04377452;0.042334307;-0.0388313;-0.05612797;0.01343647;0.05869412;0.011538835;0.027816577;-0.049357433;0.0819481;-0.031653073;0.03956502;-0.05104247;-0.014657042;0.043729562;-0.016044226;0.023747781;0.03447538;-0.016205242;-0.09861975;-0.0424785;0.04241879;0.021951737;0.019128358;-0.15526363;0.037693504;-0.019926589;0.0022183475;0.04601681;-0.048577107;0.071751595;0.045431316;0.04206527;0.04747319;-0.17781043;0.10344165;0.06763816;0.11030324;0.04245031;-0.01126942;0.10797973;0.025751095;0.013598305;-0.015013658;0.03011969;-0.04370603;-0.035432138;0.03767933;0.0579419;-0.005650576;-0.022949243;-0.06436991;-0.048848026;-0.027555158;-0.0105567;0.096415915;0.010885448;-0.00091246894;0.106567;-0.08712194;-0.020729749;-0.20511122;0.053176753;0.106662154;0.027717782;-0.06934817;0.074361354;0.028876608;-0.0150631955;-0.039677754;0.041828085;0.043405697;-0.028776994;-0.07270052;-0.063910104;0.0020483981;0.028530084;-0.02730378;0.21453227;-0.10416989;0.08616248;-0.074232265;-0.04991401;-0.024873395;-0.013197688;-0.03305803;-0.014301925;0.11043287;-0.06254626;0.028929647;-0.06327682;-0.07687369;0.031046309;0.082224205;-0.04184638;-0.04797064;-0.046319984;0.0010528334;0.01854755;0.085415974;0.017413361;0.014146816;0.054035313;-0.019924466;0.098730795;0.09564082;0.012804135;-0.0012039782;0.030812288;0.09758876;0.011001273;0.0710281;0.046046704;0.013419435;-0.05031308;-0.07314654;0.06344256;-0.05058295;-0.020828757;-0.046879172;-0.031009097;0.10324952;-0.009826582;-0.048392247;0.042087242;-0.082822934;-0.017421734;0.08442732;-0.017117457;-0.027451936;-0.0361139;0.061935306;0.09334307;-0.08654511;0.106641166;0.038955007;-0.1312575;0.16316254;0.07715909;-0.009214805;0.07483235;-0.047129586;0.05758226;0.11119359;-0.046582114;0.052584976;0.103106506;0.02926335;0.059621163;-0.042753927;-0.0005279862;-0.013723596;0.04117207;0.042003237;-0.046470147;-0.07923877;0.10254432;-0.0013415341;0.014348125;-0.039336525;0.121882394;0.08695344;-0.00850322;-0.03724637;-0.02002055;0.0045956816;-0.040368613;0.025798084;0.002894739;0.011366388;0.059665125;0.04707466;0.021652395;-0.044191495;-0.01315721;-0.1172024;0.018292371;-0.015002284;-0.044755977;0.06224832;0.018033905;-0.016444156;0.08420867;0.044056155;0.014821439;0.028461032;0.021678602;0.061791863;0.021035783
-0.021478891;-0.038846426;-0.07013605;0.0642687;0.08850934;-0.080541976;0.036146432;0.062872514;0.029611075;0.03687916;-0.040474605;-0.01771516;-0.021385428;0.0049363934;0.058227684;0.12742482;-0.22810312;0.08368615;0.075410135;0.030309798;0.06573162;0.068271995;-0.053606417;-0.08030188;0.05413506;-0.06022928;-0.018767668;-0.08528291;0.020860406;0.011569387;-0.050931137;-0.07685049;-0.027542222;-0.016844315;-0.07581188;-0.036612585;0.110246874;-0.1369075;0.01754843;-0.070907384;-0.044561233;0.03338494;0.047314648;-0.01164091;-0.05944557;0.0023762656;-0.20481843;-0.04254518;0.072524376;0.020093463;-0.13238974;-0.09285914;0.119628675;0.026972754;0.07111106;-0.022095935;0.038284868;0.119120516;0.038794693;-0.010155636;0.071689494;0.028165003;0.002125774;0.015549531;0.0969247;-0.03096773;0.20722006;-0.044640727;-0.046985917;0.0014971105;0.024077827;0.016512757;-0.061220076;0.009805575;-0.050923962;0.18390453;-0.045653954;-0.054023173;-0.023556257;0.044915635;0.0198568;-0.016375491;0.07240827;0.026439112;0.04686346;0.08568022;0.23718198;0.08342416;0.049521744;-0.03192413;0.06074545;0.014588361;0.036794543;-0.029288186;0.024715668;-0.01897929;0.09636033;-0.017694088;-0.15012857;0.06820806;0.07907742;0.072295204;0.053749025;-0.10025595;-0.003276259;-0.058844686;0.09619457;0.034311786;0.033494208;-0.059575725;0.06717878;-0.0364611;0.074295044;0.09498787;-0.041700806;0.010315391;0.010389571;-0.001148307;8.857996e-05;0.024505557;-0.0432504;0.121868834;-0.02631888;-0.035896163;0.06652532;-0.07205209;-0.055802323;0.038644366;0.11507187;0.06813024;-0.20492807;-0.045583647;0.0694264;0.023810752;0.020768542;0.07807356;-0.018989546;-0.14263123;0.027014319;-0.21414456;0.026868168;0.030715983;0.046126876;-0.13161376;0.08755774;0.06615643;0.083185405;0.0040659346;-0.0019457024;0.003818122;-0.12597322;0.06943857;0.049184483;-0.03886356;-0.050473414;0.02480091;-0.05829921;0.13307595;-0.056381382;-0.10194107;0.0364484;-0.06292681;-0.28693628;-0.037364956;-0.019703008;-0.04509399;0.046601653;0.016971795;-0.040738564;-0.024640707;-0.023530757;0.031770553;-0.011881904;0.078967445;0.0545678;0.08056513;-0.05968049;0.11479117;-0.029419487;0.09582791;0.09201372;0.025316987;0.049555328;0.11873188;0.06218097;-0.115570016;0.011307145;-0.27370673;-0.032513514;-0.043923836;0.022397472;0.13581054;0.020699061;-0.014535898;-0.004922686;-0.026302103;-0.07556387;0.111985065;0.052912317;-0.06815683;0.078665264;0.007103434;0.069446996;-0.19827153;-0.029990561;-0.024769448;0.07831999;-0.0027346679;-0.04795744;0.10780181;-0.01821238;-0.09033894;-0.04805291;-0.044781167;0.09588776;0.05781817;-0.022200929;-0.118802205;0.08402973;0.059200693;0.030558908;-0.038211722;-0.01572984;-0.21262771;-0.11658743;0.07319285;0.0077870204;-0.002583527;-0.052059572;-0.02750604;0.037551876;0.041147213;0.10979275;-0.0131276855;0.07398462;0.08470164;0.06566117;0.07905953;0.072965935;0.02020364;0.024526248;-0.0024704924;0.073062755;0.0444946;-0.06948022;0.048175257;-0.010560622;-0.03305486;-0.042376418;0.015895966;-0.029075246;-0.05770669;-0.044794653;0.107028894;-0.044728488;0.0661963;0.023091577;-0.067281894;0.019834595;0.010052561;-0.00053283956;0.007755264;-0.035054352;0.057767328;-0.008247275;0.0124721285;0.0026191368;-0.031691298;-0.11402052;0.07169785;-0.03862177;0.114110745;-0.047729544;-0.032746725;-0.03702534;-0.011434819;-0.0006726306;0.024841055;-0.039348915;0.07226476;0.013346488;0.02015955;-0.04388605;0.04251244;-0.0659378;0.055107694;0.13689038;0.091685295;0.07996716;-0.0005896287;0.034274273;-0.11601457;-0.03923081;-0.07183685;0.036502514;-0.069764055;-0.050180893;0.018584382;0.07412891;0.038741414;0.08017848;0.20885973;0.08920143;-0.054781053;0.075377665;0.06724179;0.08828052;0.096590675;0.07640519;0.04124449;-0.051934157;0.032032434;0.060507294;-0.02767043;-0.042173285;0.038555555;-0.06108839;0.079314664;-0.007982462;-0.0020268452;-0.03630296;-0.036981907;-0.0717007;0.03705542;0.046327934;-0.018513544;0.08974571;0.08893938;-0.041011438;0.0020474019;-0.06607048;0.07189261;0.11033795;0.056072228;-0.023270529;-0.13803174;0.08807563;-0.035765257;-0.0072650784;-0.074779466;-0.054306716;-0.016126193;0.051554985;0.06038758;0.026028704;0.019400049;-0.0066669737;-0.06288189;0.10504601;0.03928324;-0.008134459;-0.031044036;0.03514097;0.027615834;-0.052631687;0.054302495;-0.0012549775;-0.010541734;-6.5069704e-05;0.098153435;0.12645634;0.016501362;-0.013240653;0.042629477;0.10581767;-0.002325893;0.043637205;0.16872978;0.091490075;0.06896336;0.11320167;-0.005313415;0.06629302;-0.09265081;-0.059498433;-0.066556714;0.050665118;0.100857444;-0.020781554;-0.09687224;-0.026579622;-0.06405416;0.050408036;0.012121608;-0.024267146;0.037532385;0.06749007;-0.04228589;-0.10025309;-0.014232048;0.0852139;0.031461973;0.039822713;0.035582323;0.02309942;-0.009093487;-0.025348952;0.0395404;-0.07524221;0.00881451;-0.0010837766;0.016408335;0.07279122;0.01682293;0.05796699;-0.025661584;0.0011093986;-0.089908056;0.06247432;-0.07551751;-0.018301228;-0.16312626;-0.045880213;-0.014399945;0.07220277;0.019896168;-0.09631704;0.010250868;-0.052656125;0.022421835;0.08319196;-0.09919033;0.10159301;0.06938281;0.07957292;0.0133131975;-0.0928111;-0.046815407;0.030435774;0.029875051;0.090732366;0.108270496;-0.03891789;0.06751536;-0.072935425;-0.021898642;0.023428213;0.061147124;0.07218352;0.044357263;0.11826406;-0.061394688;0.014169164;0.051707752;-0.011094803;0.086697794;0.020489126;-0.026860282;-0.16786943;-0.049739394;0.022813259;-0.19040991;-0.038135014;-0.057457525;-0.04322873;0.07453622;0.04402188;-0.03053259;-0.068824604;-0.1580703;-0.03515539;0.07459701;0.09936681;0.060211904;-0.039860956;0.19698045;-0.08745832;0.09148306;-0.03515429;0.10290754;0.007606476;-0.051621526;0.06945554;-0.01993515;0.07173581;-0.07541204;-0.06441274;-0.014380192;0.016139746;-0.07514396;0.0806646;0.08610736;0.058701914;-0.043084983;-0.04642707;0.07398657;-0.042448834;0.06802906;-0.05348498;-0.048117224;-0.049045995;0.07476339;0.030570608;0.048138913;-0.00894616;0.060102805;0.11496207;0.018647436;-0.055083767;0.12393534;-0.062594965;-0.0119985575;-0.003826866;0.10320959;0.07930441;0.060188834;-0.036237057;0.06809686;0.113073066;0.07093158;0.0981902;-0.008430197;0.009300164;-0.04736844;-0.023414673;-0.052114762;-0.035726838;0.031174073;0.008822504;-0.033232402;-0.17189811;0.043392606;0.051623438;-0.08834637;0.016180312;-0.04412616;0.07608276;-0.0387956;-0.049932323;-0.08846008;-0.0025871538;-0.012216297;0.05635717;0.11032354;0.05122842;-0.06825562;-0.04433403;0.07170602;0.0034140944;0.051122166;-0.023698874;0.048197158;-0.047442965;0.10346506;0.0058606057;0.019906035;-0.023086002;-0.026804045;0.022975642;0.055797372;-0.038072083;-0.07360675;-0.008497546;-0.070259206;-0.008548863;-0.059634443;-0.058171835;0.0681141;0.071725845;0.03541736;-0.06738746;0.0016328932;-0.15721817;0.009968405;0.010112045;0.012878141;-0.05633439;-0.062234953;-0.000816189;0.05221094;0.075113915;0.093444675;-0.2053854;0.032443244;-0.046907682;-0.06567948
-0.06761398;-0.038195543;-0.013791967;0.0068076663;-0.041894566;-0.1958887;-0.019767685;0.06448876;-0.037960187;0.17808144;-0.04850837;-0.00094551576;-0.053983245;0.045720506;0.07644068;0.090273105;-0.07572039;0.050532065;-0.015759526;0.058635417;0.09684855;0.051572364;0.0008078739;-0.029194849;0.030612811;-0.025561312;-0.04697847;0.0419577;0.07672658;0.16402647;0.011727248;-0.0008891834;-0.028545728;-0.03636115;-0.06374035;0.0062980372;0.069979064;-0.06184939;-0.0033263485;0.02756202;-0.07403247;-0.067575485;0.08333977;-0.033463478;-0.0048385235;0.042508427;-0.16893063;0.02289225;0.024522075;0.034181923;-0.028425049;-0.13486703;0.06871997;0.0177781;0.10060319;0.009965056;-0.08720412;-0.026019141;0.17147838;-0.02531924;0.10903901;-0.010652115;0.0933737;-0.04658705;0.010158864;0.004586093;0.14037217;-0.032325484;0.068002895;0.00047625398;0.024939677;-0.039098997;0.07949937;-0.03071459;-0.035877414;0.054894544;0.00038833934;0.091292135;0.08712502;-0.08593273;0.044861812;0.038170643;-0.02771251;0.02781917;0.0715966;0.07006455;0.08352486;-0.042371813;0.094707236;0.06325022;-0.011958568;0.07394878;-0.015161644;-0.023930077;0.018757466;0.026577149;-0.010465549;-0.018583363;-0.08536007;0.07251176;0.008945176;0.029283123;0.056157954;-0.044431493;-0.03229395;-0.06556976;0.07911134;-0.037013747;-0.027960544;0.07759866;-0.05787661;0.037420575;-0.021471117;0.07541091;-0.06539485;-0.031688828;-0.04650589;-0.058121774;0.10957969;0.015035272;-0.01924861;0.026624689;-0.003686782;-0.03796943;0.14801167;-0.051552426;-0.046989013;0.015736403;-0.011361849;0.004407798;-0.09336827;0.076157674;0.08528773;0.029389065;-0.0801221;0.07689618;-0.052817132;0.033935864;-0.07492839;-0.10116019;0.016526654;0.061439518;0.013264401;-0.19755651;0.16147447;0.043724503;-0.027152287;-0.0020291735;-0.08334701;0.06399829;-0.00041732716;0.015453853;0.012788157;-0.018039957;-0.036671676;0.08421688;0.057238508;0.022017207;-0.030555036;-0.15304394;-0.005801584;-0.06763006;-0.17653155;0.03449929;-0.030769667;-0.0041408585;0.049207296;-0.03280435;0.09014213;0.031046832;0.02080147;0.012011767;-0.027920099;0.047036394;0.024673343;0.074522145;0.0673332;0.07237017;-0.064259164;-0.024182204;0.09730986;-0.061383456;-0.025866432;0.103982516;0.0779914;-0.21777315;-0.031918544;-0.10754199;-0.042722717;-0.030531198;0.015147847;0.12214728;0.023340132;0.008626313;-0.023769569;-0.019184012;0.013198556;0.023290582;-0.031179069;0.058123644;0.044027325;0.088392854;0.07411142;-0.04660978;0.063513964;0.049079545;0.07859188;0.01558657;0.07715096;-0.007385859;-0.06037501;0.095184945;0.07402161;-0.035441678;-0.0099748345;-0.003284318;0.030696047;-0.053088464;0.084046215;0.035005234;-0.04337602;-0.027272793;-0.1937315;-0.13008249;-0.09179909;0.07081247;-0.047513705;0.13176557;-0.07757411;-0.014017368;0.078637026;0.06212183;-0.021985974;0.122694276;-0.011086229;0.05516078;-0.039625704;0.030081403;0.016784012;0.04585004;0.077885844;-0.17389968;0.07525724;0.05730544;0.04355354;0.053796306;0.00273645;-0.06434209;0.0016456768;-0.13528337;-0.0017657793;0.07994235;0.014342713;0.12388005;-0.0379907;0.02677197;0.074531;-0.027011579;0.07047917;0.18403302;-0.020885652;-0.1684647;0.077417076;0.022115983;-0.014723365;-0.09338381;0.090249754;0.06486068;0.013805949;0.028182108;-0.009375442;0.060286395;-0.021635901;0.0075694025;0.058363095;-0.005248946;0.08986049;0.008889539;-0.0016019874;0.094304256;-0.008464306;-0.07361905;-0.06746448;-0.061051276;-0.029793134;-0.099793896;0.00575017;0.008498706;-0.077276;0.021172356;0.05103459;-0.027499737;0.04032429;-0.029276723;0.0064901966;0.11309505;-0.012202947;0.050496195;0.06294137;0.084193885;0.118052475;0.0021767803;0.121882856;-0.06027607;0.04984163;0.024543379;-0.025217997;-0.017697446;0.014956084;-0.03204269;0.047591705;0.028623234;-0.023125997;0.02459431;-0.038762987;-0.009353933;-0.050130084;-0.07683444;-0.027811522;0.020640213;-0.018666543;-0.022789503;-0.09182996;-0.06597919;0.06441422;0.07936193;0.0129353935;0.035178963;0.0054905647;-0.048165806;-0.012870223;-0.07229117;-0.061828855;-0.020548213;-0.022243021;-0.024763366;0.029096572;0.04279723;-0.009219378;0.042365864;0.09945325;0.053829208;0.059971932;0.18813442;-0.057279173;-0.019018294;-0.055857588;0.030843489;-0.058442738;-0.0452704;-0.021684807;-0.1666909;0.088634595;0.04049861;-0.041561965;-0.08079658;0.1334074;0.010557717;0.04250452;0.08928054;-0.00593095;0.040950865;0.12176594;-0.0016386588;0.08576103;0.0021873007;0.08555633;-0.05722066;0.043916997;0.059408907;0.0042733825;-0.07361814;0.05470908;-0.0797875;0.03430104;-0.049502432;0.18247838;-0.0024648996;0.07669267;-0.0026168171;-0.014352448;0.07604252;0.111796536;0.05108415;-0.0241113;-0.013461091;0.025557915;-0.013164032;0.13203269;-0.023845043;0.056722682;0.08603115;0.07446642;-0.04551638;-0.072950065;0.029771665;-0.033604685;-0.08622097;0.00632504;0.07778199;0.001665539;0.04988918;-0.045821995;0.055149257;-0.019729953;0.013869857;-0.02109121;-0.022671903;-0.05025377;-0.086529255;-0.061269145;-0.1396228;-0.014872354;-0.045975972;-0.016875228;-0.0066154012;0.03352614;-0.024310471;0.07239729;0.025142234;0.092763856;-0.09041641;0.008498378;0.004762066;-0.10024547;0.051316578;-0.075150676;0.025849402;-0.090633325;0.019498179;0.025279457;0.10406761;0.058554303;0.09104274;0.032593664;0.041391965;-0.14106819;-0.02231187;0.055749226;-0.058206253;0.07859387;-0.059686486;0.18911645;-0.026562082;0.053508237;0.099230975;0.029943163;-0.02704609;-0.06806676;-0.022353558;0.094498694;-0.063743114;0.011689113;-0.06672635;-0.02591278;0.021476014;0.06867163;0.025628772;0.10971532;-0.072200105;-0.032329652;-0.051144514;0.026325738;-0.005377526;-0.020483376;0.14911495;-0.06692219;0.06666398;0.041985277;0.023098351;-0.03244968;0.0635449;0.018502794;0.03792719;0.039208367;0.040995944;-0.042379964;0.0695246;0.009347904;0.07208541;0.008873083;-0.048813403;0.008250707;0.027915204;-0.05985771;0.021752024;0.017248461;0.01999982;-0.050626837;0.0955261;-0.046560902;-0.0206542;0.016719531;0.031811137;-0.011445955;0.055619128;-0.05307627;0.08481331;-0.07239511;0.102153085;0.08978736;0.03053969;-0.20837247;0.07702953;0.08551794;-0.036016166;-0.04273074;0.07353351;-0.0034697962;-0.06569797;0.041892566;0.03358917;-0.034479685;0.024256928;0.10415428;-0.04259482;-0.016277265;-0.044789057;-0.045759074;-0.057487965;-0.15655632;-0.004174929;0.06277863;0.023747412;0.15112402;0.01731719;0.07688211;-0.02033375;0.028896825;0.014512348;0.11917278;-0.019888675;-0.046625413;-0.05131031;-0.08479674;0.043942727;-0.045888785;-0.048356585;0.024908435;-0.047802366;-0.020032328;0.02275567;0.09185493;0.05476193;0.139926;-0.045229457;-0.059638754;0.12977862;0.08062838;-0.061894603;0.07225271;0.019836912;-0.016753668;-0.016798444;0.07407016;0.04427041;-0.044035684;-0.028111191;0.07726078;0.016326407;-0.008689662;-0.069962844;-0.101166934;0.053326532;-0.060573943;0.0394136;0.028281113;0.034153834;0.1388445;0.037251793;0.015300797;-0.052965954;-0.053080626;-0.040479034;0.08799899;-0.009269584
-0.023109058;-0.053457938;-0.0007046338;-0.05693338;-0.04622701;-0.18960857;-0.036575876;-0.064637445;-0.04588518;0.019692767;0.018912012;-0.077593006;0.024049893;0.101702675;0.045619108;0.05115964;-0.17562099;-0.033377517;0.025102533;0.05449541;0.013921606;-0.07546318;0.09460547;-0.05463997;-0.0147055015;0.0034515553;0.03328094;-0.066052355;0.00051833154;0.03824882;0.037703604;0.016158625;0.06215398;-0.0007105476;-0.036250908;-4.172647e-05;0.1679259;-0.07964784;0.0020826722;0.025489755;-0.055337958;0.08322353;-0.021126397;0.02989068;-0.118718214;-0.02724646;-0.04792623;-0.044202775;-0.066655;0.11894228;-0.08903462;-0.063229814;0.025277724;-0.034383126;0.06254413;-0.034279935;0.041570984;0.13295004;0.10770845;-0.06760773;0.042534515;-0.040581103;-0.020725373;-0.09737375;-0.080069855;0.08609404;0.1431022;-0.040982556;0.06198686;-0.05956809;0.04573809;-0.047476027;0.05127996;0.03207254;-0.0747069;0.07349475;-0.046875495;-0.029966125;0.10938942;-0.009779911;-0.016745906;0.084892616;-0.04069827;-0.029570248;-0.050038487;0.03656902;0.0866236;-0.013377785;0.093674116;0.105072156;-0.042839628;0.06082736;-0.021072023;0.024682332;0.07989632;0.08255794;0.08878494;-0.060638744;-0.10336694;-0.0184042;-0.0462745;-0.050792564;-0.0041757617;0.037441622;-0.047752842;-0.02567113;-0.055382475;-0.06260192;0.07083445;0.08208161;0.009945471;0.0587139;0.092972636;0.024450608;0.02556316;0.022344645;0.08729658;0.08536371;-0.03940152;0.08113783;-0.055471245;-0.014513777;-0.045368467;0.036922168;0.05123186;0.024479939;0.032348845;0.103728704;0.0916134;-0.07434348;-0.16723666;0.06225473;-0.022013197;-0.07819166;0.023223538;0.099574424;-0.09280443;0.06887475;0.10163869;-0.11343555;0.049061224;-0.06861454;0.09615971;-0.12153905;0.04615554;-0.03647922;0.054130536;-0.050428312;-0.0066392734;0.046334557;-0.11997386;0.018657388;-0.0810074;0.021687139;0.092273496;0.012516461;-0.043674074;-0.022894114;0.0023268803;-0.06719472;0.05628609;0.031885546;-0.17101629;-0.0026528733;-0.0711562;-0.10353067;0.021501277;-0.07410533;-0.03024744;-0.00051494665;0.04302485;0.0696016;0.060610414;0.0605927;-0.061001778;-0.058609243;0.008750115;0.07551077;0.038891487;-0.021761574;-0.057894535;-0.05977596;-0.03881309;-0.0061404975;0.035362598;-0.18401831;-0.044664957;-0.13585661;0.0979918;-0.039202925;-0.03548533;0.09866746;-0.016294375;-0.013451894;0.0018401395;-0.008513446;-0.06281051;0.053805377;0.019306341;-0.06740378;0.023879325;0.101379976;-0.030606754;-0.095601216;0.028039703;-0.06589205;0.067730285;-0.021681773;0.069468506;0.042210788;-0.025093684;-0.025013383;-0.015584982;0.08365916;-0.014273625;-0.015242741;0.094118506;0.03164876;0.043477487;0.04867963;0.057508383;0.05903383;0.067099325;-0.066046186;-0.08277065;0.041077696;0.0011317956;0.036494184;-0.049628254;-0.054983366;-0.003385659;0.06306447;0.07305803;0.023946026;-0.05524388;-0.03185005;0.043682918;0.08469055;0.14913394;-0.008792383;0.06759546;-0.12445242;0.098885685;-0.08091014;0.032582767;-0.074619494;0.14540182;0.08620737;0.08817978;-0.08042691;0.027477546;0.0031176952;0.045325257;0.14465421;0.055133715;0.030594643;0.06658264;0.015831012;-0.0016020281;0.057865206;-0.051156428;-0.108361036;0.082481846;-0.02887184;0.011452746;-0.13643739;-0.010826824;0.036841795;0.0017439849;0.04851332;0.024979869;0.08150732;0.071292646;0.09490514;0.030077469;-0.054701608;-0.033736255;0.042557035;-0.063489996;-0.030963892;0.10435809;0.044967342;-0.008553757;0.023528138;0.0058218236;-0.0095005855;0.016147211;0.060938377;0.00041030228;-0.008297285;-0.02478626;-0.056378078;-0.06358964;-0.011606605;0.015088134;0.044670846;-0.0005690155;0.05306429;-0.009999513;0.02867245;0.13544407;0.07392825;-0.034486566;0.051766068;0.0086205695;0.094576314;0.019525073;0.027379176;-0.02913392;0.0942976;0.06773501;-0.010568127;-0.05909607;0.0328;0.01540109;-0.071066014;0.08413483;-0.0066033388;-0.003723294;-0.0025229251;0.041986126;-0.10483419;0.014840532;0.05231366;0.09096444;0.108700015;0.09866619;0.04427879;0.001327099;-0.036495417;-0.009452474;-0.024685225;-0.024465032;0.055676483;-0.05821737;-0.0039553144;0.03363994;0.015825983;0.0056569176;0.051972613;0.060586054;-0.07607077;0.079423375;0.1669013;-0.0100222705;-0.022773199;0.040641744;-0.122216314;0.079983234;-0.021225156;-0.07033427;0.0060426304;-0.035717957;-0.063370444;0.02818544;0.002478713;0.1273035;-0.13096729;0.08631403;0.059994403;0.047844253;0.06844416;-0.051657405;0.05967022;0.084303424;-0.018989453;-0.05321116;-0.00019184338;0.09525962;-0.035128362;-0.01631529;-0.033074155;0.07589303;-0.042661972;0.02735185;0.079207264;0.12160053;0.0084815975;-0.00218625;0.008557913;-0.04825329;-0.051988296;-0.058761954;0.09545028;0.020582963;-0.011054897;0.051263075;0.07159144;0.036043935;-0.08429998;0.09183257;0.039490867;0.074238256;0.07679092;0.071232975;-0.006246735;0.092968576;-0.056086548;0.037112646;0.030006493;0.06724197;0.066457905;0.07241905;0.012822003;0.009806711;0.05684499;-0.04499034;-0.082248785;0.0006802784;0.0355928;0.05288173;-0.01054145;-0.070133425;-0.06868546;0.09484468;0.045112643;-0.07179424;0.0339719;-0.03273664;-0.025339575;0.030314555;-0.038307488;0.06534932;0.052944362;0.056105025;0.0021791374;-0.06652261;0.09848064;-0.11387335;0.006951447;0.0828656;0.058872145;-0.007608202;0.08096169;-0.018283729;-0.019593399;-0.07830587;-0.03478004;-0.057320967;-0.02888373;-0.024017505;-0.10039093;0.16524631;0.085039645;-0.0029064126;0.04013625;-0.0135347275;0.033831164;-0.09227437;-0.058690652;0.02062827;-0.18740551;0.039446715;-0.039959125;0.06637287;0.014685941;0.01575252;0.041941624;-0.024323635;0.002145202;-0.0048064534;0.015244231;-0.011554845;0.018361654;0.06564865;0.15150228;0.07879467;0.07494026;0.074755825;0.04704478;0.028710146;0.029860059;-0.02841335;-0.08440059;0.072174124;-0.032989718;-0.01485414;0.062671624;0.07445245;0.037502278;0.022204738;-0.014396551;-0.0066403965;0.027781349;0.05777746;0.09653605;0.058657233;-0.0022091253;0.0034838566;0.0066516446;-0.113645084;0.01830259;-0.055482995;0.068423726;-0.011772829;0.02052901;0.011340032;0.019646903;0.05925281;0.10351934;0.057440788;-0.017812245;-0.17228046;0.04085805;-0.052186105;-0.06338839;-0.060709666;0.06627462;0.023094391;0.029205771;0.04992313;-0.046337243;0.02423603;-0.01845143;0.03876422;0.023825223;-0.1140783;0.041906897;0.009782301;0.016187217;-0.037105262;0.037814375;0.055760894;-0.08318936;0.113066025;0.020683056;-0.06081403;-0.037848786;0.07292547;-0.114315264;-0.06467023;0.030415706;0.03089098;0.06991425;0.058300503;0.052353516;-0.008369808;0.08834385;-0.039387938;0.05796378;0.051641744;0.0008546959;-0.0057992563;0.0593098;-0.013010194;0.026955197;0.052168116;-0.010852504;0.091323875;-0.08801656;-0.016906397;0.070334636;-0.033017606;0.031897753;0.0014414111;-0.06793643;0.021245401;-0.034908477;0.10387072;0.060488004;-0.07235539;-0.07316267;-0.099739596;0.087708205;0.019008398;0.06089916;0.07294495;0.026397914;-0.03992902;0.006462858;-0.015655546;0.00785315;-0.040310245;-0.05122653;0.03500142;0.080838315
-0.052890733;0.08264648;0.070825964;-0.0015123236;-0.028786214;-0.08628371;-0.010393333;0.06436797;0.06987027;0.028131781;0.064189844;-0.17367454;0.050813124;0.13936408;-0.045559306;0.08576553;-0.13408627;-0.0840964;0.026576035;0.060049687;0.026865171;-0.0505744;-0.0047450205;-0.057412036;-0.0062943376;0.11366859;0.06287028;0.08072471;-0.061770085;0.1288367;-0.01154163;0.025257282;0.0153093925;0.07154746;0.06533055;0.031851225;0.10167051;0.059668686;-0.07848632;0.073190875;0.059458163;0.025679069;0.12370866;-0.0075910618;-0.10957672;0.05360199;-0.18929604;0.023775458;-0.07497314;0.007415916;0.08220424;0.07939692;0.013542647;0.03313425;0.034049045;0.018341806;-0.102868706;0.09892278;0.01903423;0.05743282;0.09000435;-0.032605227;-0.0015399536;-0.19464819;-0.03345561;0.036525715;0.03708196;0.017626038;-0.014685015;-0.012147399;0.08980521;0.038497094;0.05681282;0.067532256;-0.054859556;0.032837898;0.024711458;0.021655558;0.09222066;0.016637374;-0.029763957;-0.048658922;-0.021727292;-0.028026955;0.008943651;0.027100306;0.06787661;-0.0012030393;0.066774905;0.065889396;0.05519039;0.040112004;-0.07072181;0.028938094;0.08301632;0.031443346;0.10752646;0.009732835;0.015957557;0.006654628;0.055073213;0.014593534;-0.085425206;-0.009025258;0.07201428;0.015437178;-0.018372335;-0.0707353;-0.03221375;0.041916084;-0.01825732;-0.028229475;0.04162461;-0.039241325;0.04114334;0.050229944;0.026369842;-0.00630023;0.096809804;-0.06737449;-0.0045515;-0.014367659;-0.023790909;-0.02397392;0.06271463;0.020657485;-0.009354431;0.03998278;0.06633055;0.07792394;-0.15360646;0.031736348;0.08671791;-0.028813185;0.02032659;0.079734415;-0.08607526;0.0131256385;0.038009416;-0.21537891;-0.016275052;-0.053286545;0.0070808646;-0.09906911;-0.0820214;-0.052644648;0.0054544485;-0.008384717;-0.01257663;0.025570655;-0.013259445;0.024726184;-0.0029329553;0.00082901644;-0.035397153;0.08031781;-0.036966998;0.00058058917;-0.036436457;0.014069128;-0.024235439;0.13425101;-0.06468755;0.09446071;-0.022857524;-0.053401418;0.018591098;0.070030764;0.09935299;-0.061263885;0.017520541;-0.02135422;0.061930865;0.08599508;0.06865564;-0.03308691;0.083346225;0.055504695;-0.020882072;0.00861194;0.027146373;0.041220658;-0.12850569;0.016358413;-0.03645116;-0.09854506;-0.03158818;-0.021587148;0.12116073;-0.04106842;0.032520887;0.061205868;-0.04019782;0.046369646;-0.05259851;0.013982729;0.054562673;-0.0045818933;0.043783616;0.053586066;0.10067678;0.080881365;-0.040713616;-0.10369908;0.080432855;-0.014314963;0.030423904;0.038186125;0.049203184;-0.029571041;0.07945185;0.035545018;0.055929534;0.021992119;-0.012084112;0.03424932;0.018043648;-0.006008972;0.026806707;0.033062413;0.08357972;0.038536333;-0.09969048;-0.06481986;0.036682885;-0.045783043;0.051536076;0.08082628;-0.06448421;0.08508788;-0.07949784;0.022140807;0.10383904;0.018851142;-0.047730587;-0.044383258;0.0039981985;0.10728092;0.11247648;-0.0031866862;-0.02895711;-0.05007612;0.0116034495;-0.0035391347;-0.0479948;0.028425679;0.07581005;-0.05501067;-0.06955553;-0.11767793;0.0019855932;0.052260917;-0.04054753;0.146699;0.015486602;-0.07348874;-0.02209062;0.002732235;0.009049864;-0.00957022;0.0018781567;-0.051349785;0.07426818;0.059656452;0.014093206;0.04383657;0.046459276;-0.01263959;0.06255029;-0.010394589;-0.0094096735;0.02118948;0.08071405;0.055896513;0.006993046;0.0051791505;-0.14673197;0.0281285;0.04319697;0.0101808915;0.048326015;-0.02798059;0.09567968;0.019768728;-0.071823515;-0.098936304;0.026202485;0.02312925;0.016208109;-0.065673605;-0.009604407;-0.0039035839;-0.02721622;-0.0719533;0.052282713;-0.04726126;0.00413124;0.05238698;-0.03995607;0.1073997;0.08693485;-0.032463696;0.067171946;-0.028444659;0.10142382;-0.010959842;0.014396033;0.04491751;0.015085063;-0.029221393;-0.08010355;-0.039128263;0.002472682;0.10800533;0.02958398;0.0607121;-0.056522153;-0.09390524;0.0047131963;-0.010325408;0.06626713;-0.03704526;-0.020312339;-0.08379598;0.00579767;0.029440278;0.03800277;0.042381145;-0.0103313625;-0.027356457;0.0821601;-0.06306867;0.07438279;-0.055960756;-0.09052256;0.040066477;-0.120984495;-0.064840846;-0.047422446;-0.025622865;0.065155245;0.01122091;0.070279084;0.10273867;-0.08476501;0.016434016;0.017872304;-0.047095053;0.02244822;-0.019253049;0.0005285737;-0.023336804;0.02503557;-0.00958456;0.06095691;0.08894078;0.04082634;-0.042666875;0.015599861;0.12606439;-0.01185306;0.07724423;-0.047124643;-0.04373308;0.00059572235;-0.0951521;-0.026993588;-0.10452398;-0.037813295;-0.04505096;-0.024369175;-0.11222379;0.05987254;-0.05992281;0.05524074;-0.024734559;0.024201028;0.11178481;0.04852747;0.12165914;0.052388698;0.08063134;0.02361281;-0.0033552465;0.0154958265;-0.06748473;0.049292002;0.072631285;0.1131911;-0.10284763;-0.016586743;0.032857873;0.03591337;-0.0212389;0.0944164;0.08619196;0.029342873;0.01937818;-0.055176508;0.03287195;0.027797231;-0.04980251;0.03349128;-0.027691467;0.06261117;-0.057667885;-0.10968915;-0.056406137;-0.049975228;0.08594072;-0.048178412;-0.07376158;0.07701569;-0.04787399;-0.03953862;0.08329146;-0.0153174;-0.023509506;-0.008721056;0.08568506;-0.04247444;0.06353111;0.03851538;0.010820408;0.069607824;0.025797477;-0.1359513;0.023030128;-0.19954993;0.08655367;0.008694882;0.09183605;0.06496193;0.0023681798;0.03041803;0.056547776;-0.07479355;0.039534237;0.04440148;0.016584015;0.12893683;0.0044597345;0.15644911;0.115155905;0.047615107;0.1644718;0.01218943;-0.058190107;-0.16158903;-0.0724714;0.07283762;0.00047946247;0.010517737;0.028217744;0.109371446;0.1041699;0.111431785;0.0722968;-0.045149125;-0.006346015;-0.12995376;0.0013242974;-0.0350389;-0.048829246;0.080175355;0.013935437;0.11705866;-0.019532545;-0.07512378;-0.058460783;-0.00019380194;0.0020442626;-0.030137839;0.041801903;0.09568613;-0.032908775;-0.04967981;-0.017882051;-0.072195396;0.07785394;-0.03805108;0.09398667;-0.016584117;0.13538218;-0.012910212;0.03111658;0.021448597;0.050119158;0.000816362;-0.047400426;-0.08336959;-0.004660702;-0.019971944;0.06555406;0.057257283;-0.020932566;0.043092545;-0.005116621;0.056678016;0.119384766;0.05750182;-0.11166596;-0.14876506;-0.023244327;-0.035298638;0.036895614;0.05591097;-0.026395425;-0.045783926;-0.0060819765;-0.029685497;-0.06840893;-0.056603912;-0.052121;0.012772362;0.0134220915;-0.103481844;-0.066596754;0.024850983;-0.03974886;-0.063927054;-0.17778185;0.06618178;-0.10892061;-0.009714606;-0.09517994;0.030232111;0.09052895;0.051614642;-0.030622577;0.06967504;0.102138914;0.122446455;0.13887365;-0.062277272;0.000116719384;0.0827324;0.062295713;0.0018998389;-0.047996555;-0.011550144;-0.0037464686;-0.052769486;0.07031169;0.037651274;0.08165878;0.021042656;-0.0043252297;0.051528767;0.034933925;-0.04993587;0.012377781;0.0706357;0.09802972;-0.022311259;0.03359565;-0.032560308;-0.05819768;-0.04365572;0.08129036;0.054406777;-0.041067377;0.0018769715;0.05113573;0.026700567;-0.07147287;0.07062256;0.022918228;0.025533594;0.050000753;0.026608245;-0.02937942;0.012647223;0.03048583;0.008261569;-0.028299121
0.01757356;-0.053396977;0.109563924;-0.071743995;-0.048439384;-0.17543602;-0.01590054;0.027825013;0.07455602;0.057264354;0.06753985;-0.11313557;-0.053544454;0.101365395;-0.011222382;0.05683608;-0.14822063;-0.049226567;-0.010530548;0.028075265;-0.044377107;-0.06624867;-0.04855276;-0.09962481;0.046608098;0.035819776;0.011557364;0.015139722;-0.06333439;0.11446044;-0.021465091;-0.03444066;-0.06352762;0.03987611;0.0104458835;0.09890833;0.1624071;-0.026823308;0.07875274;-0.07269641;0.014918627;-0.030877158;0.10146437;-0.016573746;0.008336529;0.04844633;-0.14582962;-0.070479125;0.059852;0.029099787;0.022111302;0.11300195;-0.033571996;0.059239153;0.10377986;-0.037134934;-0.04319186;0.055018414;-0.06494758;-0.059222583;0.05479729;-0.03678996;0.0021685218;-0.042582545;-0.037193935;0.052132867;0.10666888;0.09106979;0.021656208;0.08067521;-0.062451936;0.067789406;0.083731204;-0.06850195;0.08132395;-0.029932437;-0.02173128;-0.072737925;0.061503228;-0.018739784;0.11630916;0.057830684;0.010982758;0.04816735;0.019845527;-0.00099318;0.09071538;-0.016682087;0.12816791;-0.0302054;-0.07491572;0.05338372;0.020282244;0.012754192;0.05180498;0.046400744;0.048223816;0.029121047;0.018095141;-0.0360641;0.0651606;0.025802618;0.014810809;-0.11615396;0.085213505;-0.04094759;-0.03852056;-0.050845113;0.028737914;0.003580641;-0.033465542;-0.065766096;-0.030740071;0.06751621;0.04367578;-0.120333865;0.012268423;-0.053092465;0.030271582;0.028587542;-0.057331428;0.09356861;0.045884058;0.011556258;0.07813838;-0.045349322;-0.07485576;0.17647302;0.0077010286;0.0080379555;-0.034035556;0.076952904;0.010887218;0.005269596;-0.055280834;-0.0060519464;-0.1084005;-0.05325603;-0.05186825;-0.18542665;-0.05707823;-0.055510852;-0.040196206;-0.15381673;-0.13528493;-0.04498651;0.03925931;0.05733878;-0.07415205;0.066935584;0.023880623;-0.046818398;-0.025070764;0.11453452;0.068911865;0.039165907;0.0635399;-0.024429305;0.043747656;0.07874989;-0.078445695;0.07781669;-0.032744728;-0.04574531;-0.06749228;0.056968067;0.054408826;-0.03995506;0.02183109;-0.0029774061;0.018295296;-0.023401482;0.0015667569;-0.053433515;-0.01037571;0.07892636;0.029869774;0.04117905;0.04016802;-0.024134079;-0.051457413;0.070920296;-0.0005421846;0.010254506;-0.028814312;-0.17452896;0.033724476;-0.10016915;0.01683602;0.032140613;-0.020164657;0.045323703;-0.007830879;0.034899496;-0.016818184;0.054103844;0.02731455;0.009596037;0.021283763;0.11681391;0.09967701;-0.06607762;-0.0015528409;-0.14708611;0.10285809;0.06276552;-0.040712364;0.014122775;0.04852105;-0.037830863;0.0077404496;0.08948966;0.0610096;-0.025544962;0.09211856;-0.013539939;0.05737881;0.017928706;0.04935289;0.03847309;0.07916199;0.05790655;-0.032080695;-0.08184262;0.028740061;0.007612931;-0.067760356;0.03334048;-0.05332887;-0.06282778;0.035961587;0.004976456;0.056211177;0.038722467;-0.03351612;-0.07867145;0.037937626;0.0109008895;0.032229256;0.06096057;0.031153923;0.043854482;0.089426994;-0.08629944;-0.009828378;-0.061809886;-0.042528007;0.07165741;0.08639209;-0.014411522;0.041267928;0.09026985;0.061388005;-0.021447267;0.06640271;-0.035951998;-0.03668289;-0.08759083;-0.026361065;-0.021459935;0.0008543674;-0.1151949;-0.040345922;0.019402428;0.015091462;-0.045390815;0.025896803;-0.08807381;0.015290555;0.04244366;-0.045645855;0.01822032;-0.019897802;0.0047109975;0.014514915;-0.03699734;-0.1606038;-0.053500105;0.10596301;0.024898743;0.07313413;-0.07497437;-0.04083372;0.026213277;0.008089958;0.018410746;0.036264606;-0.03150013;-0.051352423;-0.06352458;0.016712936;0.06114132;0.016445786;0.06673;0.07764134;0.016676443;-0.09699944;-0.012108039;-0.007246427;0.072654;0.04181307;-0.038303625;0.0042466307;-0.05590583;0.08268296;0.121527664;0.044119664;0.034904834;0.06780253;0.0040534385;0.037138876;0.071109675;0.036060426;0.08483533;-0.009726672;-0.012629381;-0.017857173;0.029623184;0.062839605;0.06362399;0.0108410455;-0.010668922;-0.034093555;0.0070848637;-0.013384382;0.066198416;0.08967954;0.01547667;-0.06062421;-0.0532641;0.038448874;-0.045465965;-0.06307464;0.05255549;0.023448508;-0.054859616;0.01842374;0.031554397;-0.0017508958;-0.07826947;0.071840614;-0.010517978;0.019120857;0.080194086;-0.08564479;0.10667607;0.0015552997;-0.12641428;0.00980489;0.016714534;-0.050714027;-0.08325471;0.04024318;-0.06101389;0.050571393;-0.004944822;0.045462452;-0.15628703;-0.0507385;0.103345685;0.026996143;0.024310064;-0.108856246;-0.0679085;0.096243985;0.026583463;0.0053300974;-0.09616459;-0.015163759;0.009631197;-0.068376824;-0.08750172;0.019585354;0.007619977;0.041372813;-0.02221605;-0.021152368;0.06978263;-0.019890886;0.06411124;0.017469086;-0.066262804;0.0077102506;-0.051614586;0.060085267;0.024471758;0.016146487;0.059948947;0.040854923;-0.036650408;-0.014396396;0.0828515;-0.05652771;-0.078865044;-0.05041874;0.08462958;-0.007923616;-0.040330894;-0.034357406;-0.003075002;-0.036901895;0.086223215;0.043133803;-0.0044676107;-0.04711101;-0.060803533;-0.10284996;-0.02314657;-0.052231226;-0.021668846;-0.054367553;0.030406296;-0.05418001;0.005002048;-0.051663097;-0.034912862;0.013972955;0.08713347;0.05797144;0.050239827;0.053775225;-0.104080975;0.048772108;-0.021505853;0.038750663;-0.0023188023;-0.09579191;0.044217106;-0.011773701;-0.02336918;0.017533798;0.04251354;0.025524106;0.07082565;0.02243719;-0.07484261;-0.0976712;0.050700393;0.057741296;0.008188011;0.0006834475;-0.03060517;0.12473057;0.03060028;-0.06068387;0.09108946;0.07248939;0.08469644;-0.16831675;0.06706676;-0.041051622;-0.10798801;0.0045403563;0.021027897;0.09382411;0.0134521155;-0.041282505;0.03960928;0.07364146;-0.01929636;-0.14302786;-0.015954908;-0.08824664;0.040229518;0.008112402;0.049388535;0.023592569;0.047660794;0.018773878;-0.009140321;0.09483822;0.011185405;-0.012600864;0.013959942;0.050738487;-0.046028875;0.058886815;-0.020372236;0.080162995;-0.03516096;0.031736657;0.04194077;-0.09641625;0.07242428;0.0979847;-0.0029280025;0.03939301;0.019826367;0.05794184;0.07291558;-0.045831364;0.06690485;0.043391023;0.11791833;-0.035153057;-0.009294272;-0.0812428;-0.04102478;-0.06443512;-0.014819333;0.03746268;-0.1278057;-0.09560533;0.027040485;-0.04828222;0.046564385;-0.025238907;0.044617366;0.015370434;0.09134136;-0.021389142;0.09392859;0.016027046;-0.022653295;-0.015821895;0.022438107;-0.060903367;-0.0714422;0.06485348;0.0142612355;-0.07249485;0.010934844;-0.010394052;0.0030143007;0.12711792;0.02472166;0.056605954;0.0898727;0.039236423;-0.07521898;0.07170729;-0.0150735285;0.10752601;0.010545765;0.05825075;0.038694218;0.0008509982;0.1182843;0.030082682;-0.039323684;0.021535898;0.01825317;0.081038654;0.006267594;0.056629144;-0.057455093;0.07340526;-0.026263371;-0.020910116;0.06678069;-0.014613338;0.07231897;-0.024316732;0.101457894;0.11497481;0.021698926;-0.067724824;0.030389396;-0.035482664;-0.032787804;0.05444641;0.028221462;0.09411406;0.067671016;-0.022326102;-0.055918697;-0.040196568;0.03873424;0.0969019;-0.04760603;-0.09086907;0.049797986;0.016792115;0.054915123;-0.019050222;-0.03315454
-0.03317007;-0.05089914;0.09477262;0.06825657;0.05588407;-0.1819933;0.10933412;0.065736495;-0.06452545;-0.01958867;0.07155918;0.017823396;-0.020578263;0.078112505;0.022919929;0.048488382;-0.050183944;-0.038126446;0.034873843;-0.0669253;0.0958234;0.06413342;-0.025446324;0.010991476;0.011106398;-0.015325963;0.06754774;-0.05843903;-0.03552707;0.06787104;0.01747053;-0.009239848;0.04288958;0.12026708;-0.008540463;0.094877705;-0.010564441;-0.0832912;0.10265704;-0.025647903;0.018838141;0.01977034;-0.057076044;0.017691996;-0.023292212;0.016009223;-0.16400477;-0.017987907;0.05732709;0.13513786;0.14528738;0.1193761;-0.02241225;0.08080144;0.05941029;-0.005697743;-0.0034110064;0.01769931;-0.11455251;-0.06690188;-0.071251735;-0.057145596;0.07827536;-0.020819394;-0.043267973;0.04353233;0.0889953;0.0025972873;0.0041944217;0.026072111;0.07753486;0.051166162;0.057911538;-0.012068715;0.0024806797;0.10609923;0.038070463;-0.09470159;0.053247225;-0.028110461;0.056286644;-0.0128736785;0.059978835;-0.019673182;0.13424797;-0.012497792;0.049744513;-0.036175694;0.14306001;0.0010305479;-0.047068767;-0.09523997;0.0591539;0.07901416;0.17383859;0.014305952;0.064707115;-0.022782344;-0.01750623;-0.046251502;0.04114428;0.064103425;0.096431576;-0.09986439;-0.008060852;-0.094311714;0.10311502;0.035883494;0.01007244;0.061509818;0.014919079;-0.033809923;0.092168964;0.09126565;0.040175382;-0.11404141;0.0670432;0.0031906809;0.01471118;-0.041255146;-0.06762454;0.09509979;-0.008374777;0.0049798796;0.1580188;0.022439256;-0.017703691;0.13975687;-0.050046835;-0.011788111;-0.09911882;0.05585051;0.05178843;-0.0054623745;0.07835738;-0.024197003;-0.10666679;0.017308477;0.047923513;-0.06237467;-0.04933473;0.08003026;-0.011787974;-0.046151325;0.06287784;-0.056419954;0.004486136;0.07372333;-0.0546933;0.03738508;0.01019064;0.07424897;0.03756132;0.09093595;0.10520719;-0.0019922575;0.06905642;0.056810964;0.061965432;0.0005711282;-0.040637832;0.099898025;0.02359186;0.04259723;-0.02838073;0.007741842;-0.060952257;-0.04716213;0.057751775;-0.02302893;-0.008548829;0.0052109133;-0.0777536;0.06477052;-0.01642357;-0.022552777;0.008280475;0.010055735;-0.029105056;0.08559828;0.017917782;0.002912955;-0.003654897;0.06567757;0.09335041;-0.10199465;0.06781522;-0.009224924;-0.010961912;-0.024502894;0.045477025;0.0038552254;-0.018721674;0.020820087;0.09112126;0.056385286;0.055036392;0.004826709;-0.013926757;0.039296888;0.06879437;-0.011335453;-0.0055362717;-0.1646477;0.025076885;0.020268958;0.12696165;-0.04319412;-0.07118792;0.052227847;0.03827781;0.086498186;0.008126322;0.092437275;-0.02704469;-0.056782853;0.06600537;-0.058148872;-0.022185693;0.05050634;0.035472542;0.06958635;0.014635313;0.0123886;0.12469064;0.041624226;0.05426456;0.011379922;-0.13268717;0.09498214;0.065134056;-0.019623417;0.017662393;0.04441015;0.11269774;0.07707246;-0.052303005;0.004566714;0.07018037;-0.005813184;0.026666118;0.021903632;0.10023644;0.043127205;0.07428329;0.05369225;-0.01964636;-0.01861378;-0.04576625;-0.050154485;0.055980522;0.031371795;-0.0130288685;-0.061667223;0.05120275;0.08848101;0.01392149;-0.044624455;-0.017618876;-0.086704716;-0.07168659;0.010816461;0.034539174;-0.04291016;-0.020640228;-0.042654257;0.011436057;-0.048954196;0.029202882;0.063346274;-0.018551165;0.029990103;0.011814372;0.03812319;0.055041593;-0.047092695;-0.07595418;0.0304196;0.061590556;0.056759857;-0.03024355;-0.03367581;0.04109368;0.04682592;-0.077093184;-0.0034265039;-0.056649655;-0.06477207;0.02341903;-0.15682392;-0.03601062;0.039891414;0.05739667;0.10348892;0.03590462;0.09244412;0.01259645;-0.051092908;0.01948361;0.034983005;-0.00664995;0.041913677;0.053923182;-0.05049133;-0.06135028;0.07302754;0.1355688;-0.062783204;0.08189065;-0.06871521;-0.0036602335;0.054074526;-0.01567304;-0.042102642;-0.058050774;0.026397923;-0.072037295;0.07986811;-0.010680647;-0.024308302;0.049875475;-0.01276524;-0.1262484;-0.065497726;-0.04367201;0.048040416;0.014101908;0.069088064;0.0915756;0.0042750044;0.010578824;0.04186576;0.057837393;0.033572927;0.029117119;0.07779738;0.028894465;-0.06380028;0.029496992;-0.053090952;-0.017646888;-0.07661265;-0.012348177;0.021670727;0.07584655;-0.047669217;-0.02671393;-0.003064513;0.0438458;-0.023107564;-0.13674062;-0.013667372;0.044492837;0.017207954;-0.014861791;0.08813437;0.13634808;-0.06305693;-0.02464096;0.033137564;0.0038094127;-0.037336364;-0.084988035;-0.007769908;0.036394462;-0.008114445;-0.027362656;-0.10546354;0.06278412;-0.06020504;0.06009871;-0.14467315;-0.05806617;-0.0117969755;-0.003455378;-0.035965912;0.04256073;-0.03650716;0.069592714;0.07908235;0.036875125;-0.010219337;-0.06554717;-0.03727525;0.021695333;0.046274;0.012886825;0.08248742;0.1752562;-0.025596924;-0.04145838;-0.01330925;0.065013245;0.075424656;-0.06000808;-0.040901717;0.0663539;-0.051739793;0.013118138;-0.05610067;-0.040441047;0.09252991;-0.02168148;0.087321505;0.031524953;-0.011126491;-0.07640411;-0.056735743;-0.0020661703;0.03291611;0.035663515;-0.10813219;0.067956366;0.025605552;-0.0031980644;0.057607483;-0.060043108;0.10904777;-0.095315725;-0.013272126;0.10355639;-0.01985834;0.07067631;0.036560718;-0.11661785;0.042392194;0.019501535;0.022978418;-0.03430393;0.04829417;-0.1096595;-0.008115654;0.029477844;0.026939588;0.011534706;-0.03581777;-0.014406097;0.018170455;0.09877993;0.052018918;-0.04405042;0.032832496;0.124316484;0.11269089;-0.087077804;0.119119264;0.06259165;0.067477144;-0.17017911;-0.018426135;0.021195566;-0.047725905;-0.07626076;-0.023968268;-0.023200607;-0.018737806;-0.061237205;0.017846419;-0.017204765;-0.005359971;-0.045473322;-0.009636421;-0.075855054;-0.01363506;-0.028312348;0.03893914;-0.052133568;-0.013677892;0.008772942;0.05061311;0.063794635;0.1466139;0.04211576;0.01123112;0.08565447;0.10243015;0.019909166;-0.005625793;-0.019309336;-0.06012886;-0.03331777;-0.04674471;0.039655063;0.01097022;0.031432245;-0.0062348316;0.08911977;-0.019779146;0.14087428;-0.0028403474;-0.062490888;0.14413062;-0.037035245;0.12532188;-0.041381568;-0.033204146;-0.099387154;0.0928008;-0.056642637;0.16511673;0.105600834;-0.07250094;-0.073575705;0.108048394;0.020587625;-0.07972351;0.083037205;-0.0248653;0.1389676;0.019846942;-0.052876104;0.03807342;-0.06893111;0.10366903;0.053475566;0.0040120916;-0.09738009;-0.06818045;-0.038944297;-0.019531256;-0.05091291;0.025679;0.014551587;-0.075744726;0.019326609;-0.15163904;0.022311555;0.0028918453;-0.003711942;0.053119402;0.047487542;-0.04905012;-0.02234439;-0.033625886;-0.08323215;0.09425073;0.058495663;0.010230444;-0.045531716;0.005988924;0.05932677;0.08921207;0.082025655;-0.031926963;-0.037438706;-0.077917084;0.07303947;-0.017858218;0.021134201;0.060542703;0.07456896;-0.01455274;0.0036568881;0.0707587;-0.043233514;0.044491813;0.010268185;-0.036320932;0.0005409313;0.008815494;-0.070426986;0.077961594;0.058868073;0.083038524;-0.035459887;-0.024557004;0.053370617;0.0500804;0.06491226;0.073742196;-0.09421254;-0.04602847;-0.018438222;-0.016427843;-0.057202782;0.03080663
-0.062320728;-0.06275535;0.026794655;0.056514937;0.018467166;-0.08770121;0.015246521;0.03788541;-0.07582329;-0.031612437;-0.022668377;0.09272448;-0.07879235;0.034155555;-0.023936672;0.04255075;-0.07296243;0.043216623;0.10123618;0.017659029;0.04476811;-0.07893903;0.07492585;-0.06552795;-0.029113293;-0.09813347;0.06573094;-0.043270405;0.04462162;-0.030224884;-0.007619354;0.010077943;-0.072747335;-0.026444381;0.036247097;-0.017617306;0.13643625;-0.11361185;-0.0017878579;0.04668957;0.044757955;-0.065479904;-0.06928168;-0.0026110304;-0.07376129;0.0026275248;-0.090727426;0.011834496;-0.028555097;0.025683528;-0.033165995;-0.010036412;0.08107153;0.039958525;0.029975004;0.017627088;-0.08965757;0.036353394;-0.08441907;-0.005655742;0.08524939;-0.04457306;-0.0854173;-0.039943397;-0.005196255;0.053784195;0.047618784;0.0097930245;-0.017999344;0.04378996;0.031836387;-0.057979617;0.061514154;-0.026048385;0.081821226;0.0981725;-0.0028107655;0.030013263;-0.035162937;-0.019333148;0.01739664;-0.025626004;0.048915286;0.02757265;0.012661654;0.05330224;-0.10907501;0.032624587;-0.034899373;-0.019102655;-0.012846749;0.0928726;-0.085427046;0.019024348;0.07055329;0.06090308;0.08775912;0.040508352;-0.09556774;-0.024084685;0.008561709;-0.023626648;0.05931943;-0.0015190302;0.027755314;0.0008065279;0.0065031243;-0.047317147;-0.037654504;-0.017632369;-0.016553562;-0.025980085;0.07167363;-0.046548143;-0.0458712;-0.074546635;0.019118764;-0.04972074;0.09149444;-0.022901427;-0.02758084;0.029655445;-0.051465496;0.01750031;-0.02511292;0.086728595;0.06336818;0.13335124;-0.00580625;0.05249225;-0.16082142;-0.058802318;0.08672062;0.007893437;0.042414334;0.038768027;-0.009101944;-0.0053688674;-0.03140911;-0.11956435;0.039218158;0.0037642624;0.07515882;-0.10596408;0.0065703057;0.0027804687;0.05759925;0.12210153;-0.0014770267;-0.01719014;-0.086146094;0.040557623;-0.009089974;-0.10549059;0.101817414;0.04601854;0.09248458;0.0675985;0.05896671;-0.13724993;-0.022084886;-0.028491426;-0.022266477;-0.034866784;0.108733915;0.03470626;0.044949442;0.07097655;-0.011390218;0.02033318;-0.02348767;0.038404617;-0.00612282;-0.021161105;-0.050974786;0.0034472686;-0.05686708;-0.015339046;0.06975735;0.083243154;-0.052752607;-0.042892486;-0.05867102;0.077640235;0.07646081;-0.19074275;0.08221585;-0.18286614;0.1305307;0.019470204;-0.011945743;0.08627209;0.07865591;0.05764783;-0.07843266;0.029757706;0.10489589;0.0041742525;0.10662885;0.0522327;-0.050843466;0.09001244;0.066339254;-0.09630856;-0.050062206;0.01404273;-0.033393554;-0.030653805;0.024814578;-0.019418458;0.08373765;0.023719532;-0.012123268;0.02117348;0.0332996;0.017158873;0.059446517;-0.05307856;-0.06354413;-0.0106692165;0.08713629;-0.05948001;0.0097454;0.051201932;-0.040335793;0.088203035;-0.005137124;0.035875164;-0.12820287;-0.0089639565;0.00863662;-0.055068932;0.053603142;0.058044177;-0.06959981;0.009328657;-0.04085141;0.09465442;0.097588286;0.039088115;-0.017564747;-0.018348036;-0.05290466;-0.04031963;-0.023936719;-0.07271652;0.05516233;0.010502872;0.06971281;-0.052808356;-0.004531693;0.0054886583;0.01190765;0.034155753;0.006407097;0.058999583;0.0039210403;-0.04310875;-0.0063518654;-0.10093462;0.0065732757;-0.09750334;0.0137377735;0.020613529;-0.058530807;-0.034561332;0.07334266;0.11025989;-0.0006754018;0.020310435;-0.009168978;0.053249594;-0.0013392564;-0.0138373505;-0.045232445;0.054073628;-0.0927945;0.019713573;0.028392162;-0.056143235;-0.03604999;0.0144115975;-0.0077691115;-0.0035133942;0.0018309001;-0.009962607;0.06689523;-0.066563845;-0.07718362;-0.005928879;-0.04812757;-0.03154743;-0.035233088;0.0067658066;0.0937912;-0.05638194;0.02633233;0.093352295;0.07075265;-0.021848379;0.0070098513;0.13240299;0.034908887;0.052535083;-0.024323054;-0.015716162;-0.007296;0.003099616;0.06775546;0.062387563;0.0030240705;-0.07786931;-0.009494937;0.0076291496;0.007917851;0.02028167;0.078277536;-0.021088539;0.021308113;-0.022734039;0.03616417;0.065672226;-0.047025457;-0.070605054;-0.03244814;0.0873887;0.029331632;-0.020530831;-0.04803281;-0.012515209;0.017806983;0.066086486;0.11381868;-0.06569852;0.027106041;0.0012285426;0.06198938;0.0025789605;0.03757411;0.0457905;-0.023569003;0.0025920253;-0.0116025405;0.019046241;0.037731666;-0.037168775;0.0055676564;-0.034612875;0.141118;0.051276583;-0.14133985;0.041227877;-0.063581854;0.052637056;-0.03702539;0.05684838;0.14523317;-0.050958205;-0.0052088285;-0.021003425;-0.06539708;0.05846046;-0.061525337;-0.0537325;-0.03884255;0.048517298;0.05772782;-0.00057865295;-0.044209544;-0.01461624;-0.0050089927;0.008614523;0.010894222;-0.0008697022;0.088361606;-0.025157766;-0.031594213;-0.033133842;-0.039681904;-0.09268075;-0.03573231;0.04007292;0.034772106;0.10008605;0.08669999;0.07763331;-0.04374761;0.074795134;0.011837965;0.06437718;-0.02425451;-0.06418529;-0.056179356;0.0272081;0.018975975;0.09579358;0.071216814;-0.0039280346;0.0037291066;-0.005006741;0.06305213;0.046888288;-0.060160864;-0.043822315;0.005151728;0.016450012;-0.08915066;-0.092867054;0.06268783;-0.008533574;0.037524253;0.07008973;-0.035314795;-0.032154065;0.031433314;0.03758539;0.03550653;0.08189801;-0.044008523;0.0030992131;0.038478106;0.014031462;0.012835549;0.023865353;-0.07650834;0.051160745;-0.07628694;-0.03654533;-0.06051457;0.05744667;-0.020131074;0.08558373;0.04636381;0.049469892;-0.02587839;0.06965466;-0.11010772;-0.08619072;-0.016255958;-0.014935487;0.07060059;0.0072106495;-0.050413676;0.11688754;0.010074297;0.017612744;0.099012226;-0.0013868107;-0.0011429345;-0.070147626;0.09151349;0.003579004;0.08956457;0.0004920746;0.018879807;0.09280354;0.03555502;-0.023704143;-0.017388703;-0.078922614;-0.051501293;0.01474957;0.020344205;0.04279932;-0.014882458;0.05839242;-0.062434383;-0.06884123;0.056260087;-0.029081846;0.07319092;0.08358171;0.03261162;0.031742606;0.09865486;-0.017865358;0.06520495;0.038852163;0.055928353;0.02765664;0.01258924;0.09249284;-0.07448882;-0.13522457;0.09676233;0.05078316;0.002987809;0.012489621;0.008899065;0.08945492;0.05871639;0.10218704;0.06718429;0.12128374;0.061163437;0.043929297;0.13897176;-0.052528277;0.02190795;-0.064370796;0.08125473;-0.037183702;-0.11942823;0.04955861;0.034744482;-0.06171146;0.0013637953;0.04193273;0.013109707;0.029850727;0.042462368;0.04070707;-0.052766893;-0.061324995;-0.022955894;0.0828267;0.053738758;0.03265896;0.034873486;-0.041339476;-0.12756151;-0.10234778;-0.0799538;-0.08837906;0.03548674;-0.100736596;-0.013890378;0.040292807;0.0814488;-0.045040026;-0.02516028;0.10354294;0.040490665;0.04310772;0.03026864;0.012185056;0.028610097;0.0142418025;0.003423153;-0.0033097374;0.09280373;0.05844574;0.013759264;0.06569734;-0.10313662;0.0067059556;0.06233562;0.07423867;0.06693253;0.08031122;-0.026928868;0.0037195964;0.04208496;-0.09223006;0.07667178;-0.021791644;0.007994926;0.0051273345;0.07524709;0.04508596;0.05577074;-0.04270427;0.05716106;-0.0029929664;0.063808165;-0.04417492;0.052557364;0.040064618;-0.06695149;0.011154751;-0.030564142;0.03680896;-0.016260603;0.07348646;0.021829898;-0.078429595
-0.04746259;0.10272128;-0.05168535;-0.027324177;0.0693056;-0.087221496;0.056972403;0.07233455;0.009503116;-0.07939169;0.025258882;0.12655838;-0.06131106;0.15643874;0.024905784;0.032476116;-0.03335873;0.08685449;0.035542432;0.051911626;-0.03556447;0.07040088;0.06702929;-0.031764627;0.06510873;-0.11967205;0.042866755;0.005859774;-0.053010646;0.04604076;0.072205484;0.006749994;-0.05693938;-0.0020239428;0.06820787;0.02394798;0.034183584;-0.045288652;-0.06088301;0.08306694;0.0766369;0.063856445;-0.100622736;0.0037966524;-0.10521151;0.025932884;-0.03985375;0.039331768;0.003771821;0.052419554;0.084750526;0.09525248;0.088350974;0.03072286;0.021514812;-0.011234158;-0.08907301;0.1424804;-0.034008224;0.0070567196;-0.04448871;0.066077285;0.016130162;-0.11807445;-0.011072062;-0.056857407;0.046995725;0.047051925;0.017043658;-0.006185177;0.07599739;0.056412123;-0.054333806;0.056712028;-0.0837239;-0.014963831;0.045127213;0.01268697;0.07005403;-0.022914998;0.052439485;0.01663922;-0.029005019;0.06808826;0.1286975;0.016401151;0.0054937946;-0.012890623;-0.058952827;0.061002202;-0.06816551;0.11352965;-0.0026352364;-0.032782853;-0.003093639;-0.02738392;-0.019223733;-0.09588697;0.0104309395;-0.00975655;-0.081207156;-0.012116832;-0.055429727;-0.02903576;0.02166878;0.02256821;0.006725013;-0.019569809;-0.056809995;0.05307176;0.030831996;-0.07248762;-0.0016950163;-0.07140294;0.017649919;-0.0536879;0.049981464;-0.0021815973;-0.049318377;-0.016010344;-0.010883641;-0.060631372;0.013717036;0.0050327266;0.11264264;0.023959914;0.08532782;0.08871093;0.11849937;-0.05410246;-0.15337393;-0.0338785;0.054507885;-0.008752229;-0.017454881;0.013550746;0.060318198;-0.034659415;0.054531097;-0.07800349;-0.06697038;-0.04969116;0.06892173;-0.1185258;-0.1195401;-0.07761581;-0.024264218;0.117205754;-0.040753424;0.054239158;-0.039808426;0.0120613165;0.05346657;0.043569952;0.08685427;0.010823257;-0.029653868;0.13074613;0.043982852;-0.061741915;0.043715574;0.02413792;-0.09717421;-0.030117586;0.01440277;0.059691515;-0.0827345;0.077104;0.044761423;0.045157198;0.045388374;0.070800886;-0.04910926;0.013007881;0.08242918;-0.07066611;0.029126788;0.08146306;-0.004604629;0.05675981;0.05315603;0.10209884;-0.08225604;0.0071859574;0.05585197;-0.20493767;0.07125391;-0.022283005;0.008557038;0.086275764;0.012857641;0.08602506;-0.051707707;0.02318381;-0.03377894;-0.016172852;-0.055684414;0.09792122;0.018758884;-0.02094215;-0.007269246;0.080144934;0.07064436;-0.032355234;-0.040370062;-0.0774446;-0.017101465;-0.08106149;0.008546225;0.052391585;0.015371221;0.068260774;0.065633185;0.0065864255;-0.02711565;0.08356815;0.07071312;-0.087212294;0.04680588;0.009600507;0.005669049;0.04721249;-0.017563492;-0.020390872;-0.014815195;0.07347179;-0.020169133;0.05271935;-0.056253135;-0.028810803;-0.026235295;0.07298305;0.032371156;0.023215188;-0.022978107;0.025520202;0.0810663;0.05066943;0.071446046;-0.004041367;-0.01455211;-0.058750812;-0.05027882;-0.042639002;0.08129854;0.048990957;0.12420528;0.0097504025;0.06282581;-0.04119739;-0.060276464;-0.053939722;-0.042277995;0.0040904996;0.0334837;0.025952604;0.08148355;0.09319421;-0.05230923;-0.09035072;-0.02039852;-0.13174848;-0.053069513;-0.036663465;0.07614182;-0.09697825;-0.0031634553;0.10405275;-0.01185841;0.07595743;-0.060106173;-0.025144663;-0.03803812;-0.05152604;0.093872115;0.05397596;0.03867402;-0.015916353;-0.04336286;-0.07034399;0.013879417;0.051091455;0.029811526;0.049020402;0.01394083;0.059075974;-0.07464059;0.060103726;-0.06771981;-0.017663455;0.006419648;-0.070525706;-0.013441142;0.06638997;0.05763191;-0.0021275927;0.07010919;-0.036721367;-0.07178078;0.04490172;0.09855775;0.070897415;0.026931796;-0.13701484;-0.001989181;0.07010876;0.13284507;-0.08932104;0.07212481;0.048410837;-0.011261298;-0.113028534;0.004680377;-0.039782546;0.04231524;-0.076616585;-0.013904601;0.05269341;0.09803534;-0.030614387;-0.053275365;0.01674197;0.046103723;0.008865468;-0.03274674;0.11163147;0.032276772;0.08845202;0.022308903;-0.0020538964;-0.021479364;0.071307465;0.08765647;-0.06780683;-0.09724928;0.041126534;0.06060111;-0.026637957;-0.01542327;0.015567967;-0.07142803;0.08093046;0.030842379;-0.037870083;-0.059955925;-0.026173793;-0.05555984;-0.058001436;0.13951187;0.037215874;-0.13623111;0.033879213;-0.0817682;-0.044729244;0.045097403;-0.048455443;0.037379812;-0.075945504;-0.051989067;0.087129414;-0.03724745;0.0040392084;-0.087990455;-0.0612837;0.015333588;0.055416998;0.047037847;-0.0172329;-0.009066307;-0.058471598;0.109571084;0.09858514;0.010229035;0.02398314;-0.0014053669;0.06362885;0.07277835;0.00047955842;0.09277418;0.0359032;0.046718296;-0.05435005;0.007565145;0.10265244;-0.059490878;0.01768435;0.03862274;-0.012162697;0.08105303;0.1762468;0.05952568;0.042005636;-0.04930428;0.0050751087;0.013170325;0.09637034;-0.008351984;-0.07783771;-0.047614947;-0.007892075;0.08534368;-0.077943034;-0.029599635;-0.018898604;0.019498663;-0.017808054;-0.10464531;-0.0863618;0.058405884;-0.017298244;0.0759389;0.043789327;-0.023896404;0.036728974;-0.021943146;0.048972603;0.056714367;0.05415613;0.0011174105;0.06401373;-0.074565664;-0.020066937;0.008134011;-0.061306186;-0.1498509;-0.01463511;0.016261198;0.041213363;-0.08627433;-0.0134422025;0.07187627;-0.0037027386;0.022759419;-0.060490295;-0.024815163;-0.024389798;-0.020230934;-0.081902504;-0.0055106576;0.053624958;0.09312683;-0.0002854241;-0.032143448;-0.04099091;-0.074152924;0.14193118;-0.034326527;-0.034965873;-0.11271273;-0.050454956;-0.0060714115;-0.10140153;0.045687005;-0.027398862;0.07006897;0.049179338;-0.021697035;0.001674454;0.055514567;-0.0037704878;-0.09674675;0.079237364;-0.03449455;-0.07555553;-0.040556964;-0.00034780728;-0.041196518;0.004453925;0.00622386;-0.02762851;-0.057794545;0.07768994;0.101381175;0.017450204;0.11150938;0.029245548;0.011888018;0.11315893;0.021842483;-0.041256804;0.10901529;-0.010140808;-0.06782617;-0.024340434;0.037306223;-0.0007042545;-0.08050146;-0.02939546;0.095329225;-0.033309057;-0.10384353;0.051011827;0.074176885;0.107276924;0.017381076;-0.0082850875;0.13355592;-0.07211057;-0.053680196;0.042951465;0.026867341;-0.049858008;-0.11130554;-0.06122767;-0.055268563;-0.051169574;-0.06789577;-0.011095113;0.06483427;0.05586925;-0.040336993;0.034222163;0.06389474;0.016857564;-0.04468464;0.0069930293;0.028294768;0.06589091;0.07113902;0.011741467;0.00092072535;-0.13985664;0.08072974;-0.15935205;0.08458001;-0.14135471;0.033342857;-0.030118538;-0.07009889;-0.007051262;-0.11415892;0.04424403;-0.045310795;-0.013183067;0.0479368;0.049648017;0.03747895;0.033643473;0.02915555;0.03872991;0.095176384;-0.003219051;0.0050410354;-0.006186353;-0.08342403;0.057634946;0.093282595;-0.034498345;0.049084477;-0.008413918;-0.023235377;-0.06196533;0.04883653;-0.100084305;-0.05674531;0.06526074;-0.033193547;-0.015605818;-0.027258486;-0.01695609;0.05469629;0.059910405;0.023961108;-0.04187616;0.0102588525;0.018135656;0.035832766;-0.015016477;-0.056474693;-0.0011858632;0.067390226;0.03585475;-0.09385203;0.05388636;0.07521553;0.05456583
0.13987705;-0.03530681;0.060305193;-0.025888167;-0.023162622;-0.13182974;0.028176038;-0.056145195;-0.012496077;-0.06521671;-0.02717768;-0.09948;-0.0005664613;0.1373228;-0.05567339;-0.0491983;-0.09390655;0.027351648;-0.0068953885;0.029536385;-0.028852325;0.018217973;0.09118061;-0.08624286;-0.059510548;0.04057652;-0.050934665;-0.03966181;-0.080603994;0.006244078;-0.006513841;0.024342932;0.088153504;0.03875874;0.0030175864;0.055460162;-0.09005368;-0.037936375;0.009270909;0.03724278;0.041683245;-0.045652963;-0.00074032973;0.08026199;-0.07626668;0.06226728;-0.16884805;-0.01517335;0.03278456;0.071773976;0.16959454;0.027540138;-0.048760682;0.03419218;0.10462053;0.045973692;0.014914018;0.103114724;0.042886548;-0.0676782;0.083718374;0.08628863;-0.0043411423;-0.04277806;0.024852766;-0.050881498;0.04889375;-0.05620665;0.030327067;0.1006979;0.06290048;-0.0050782263;-0.021664385;0.07754861;-0.022192564;0.051984202;-0.030838907;-0.01574515;-0.072863765;-0.056400448;0.01702621;-0.008612253;-0.05258767;0.12215341;0.13261129;0.07956837;-0.028215576;-0.009386384;-0.046968266;0.024911406;0.047714207;-0.04384429;0.090802476;0.04089777;0.085985936;-0.012207485;-0.025889587;0.08707963;0.094051436;-0.011090314;0.0188947;0.057871334;0.08929574;-0.104898475;-0.072773024;0.0699088;-0.054817002;0.08336391;0.08884646;0.016115798;0.0035094086;0.074843064;0.068662465;0.08778045;0.0024534587;-0.040664114;-0.027724445;-0.061726466;0.049246386;0.045402966;-0.025089476;-0.014655137;-0.06779764;-0.0117232185;0.17399772;0.07383444;-0.07020364;0.03245195;-0.0011745127;-0.065148406;-0.104670905;-0.0157239;-0.02658579;-0.014057103;0.09943953;0.13941753;0.012846652;0.10188187;-0.058670577;-0.17406301;-0.037057348;-0.021042027;-0.032164846;-0.14244938;-0.0023578173;0.00061786216;0.090089776;0.018080385;-0.08663638;-0.018825525;-0.053179782;-0.025570136;-0.070518754;0.10957479;0.0177028;-0.0148636615;0.014745563;0.043203026;0.0026363065;-0.070639536;0.04907288;0.09663408;-0.03586185;-0.058258627;0.013164364;0.09077953;0.030666936;-0.021645483;0.045241985;-0.019062543;-0.013695416;-0.08115879;0.083909184;0.049988147;0.0815516;-0.055025186;-0.025611937;-0.07828713;-0.006660435;0.03523031;0.089392535;0.074674726;-0.16615021;-0.04941342;-0.011684469;-0.23510502;-0.0008275891;0.020274993;-0.047170486;-0.012098865;-0.006759764;0.10713413;0.01539598;0.082535766;0.07386682;-0.045988537;-0.01922359;-0.038095273;-0.009397174;0.081546955;-0.10942681;-0.005970557;0.069302194;-0.107281566;0.034364622;0.029483672;-0.0024623084;0.046320666;0.07745181;0.05375591;0.05467869;0.03466584;-0.0024097855;0.050593477;0.020266883;0.062508695;0.07487434;0.03843174;-0.028801713;0.0033840449;0.012136563;0.057836466;-0.03723619;0.07594369;0.11909689;0.07445472;-0.07161187;0.06317065;-0.01571953;0.084317304;0.03649731;-0.049696308;0.058811087;0.02520136;0.023057345;0.012327937;0.010634845;0.10287999;0.08220911;0.08102227;0.045132354;-0.026548894;0.036323067;-0.0013227559;0.092765234;-0.05733316;0.022247618;0.04928965;-0.00042206654;-0.023876108;0.08888651;-0.030768856;-0.064060405;-0.011042533;-0.041302364;-0.03547583;0.06546237;0.032976087;-0.044716526;0.085943036;-0.06839045;-0.055425067;0.016667716;0.017893864;-0.054426502;-0.078893244;-0.0149479;-0.042914562;-0.08004492;-0.027216375;-0.058029786;-0.06319909;0.07582069;-0.029896375;0.09545269;-0.07694099;-0.0009014703;0.0802404;0.0855865;0.022188956;0.014666367;-0.03872622;-0.016132182;-0.02718538;-0.06345011;-0.044520028;0.013099404;-0.026958384;0.027122242;0.008282626;0.047931183;0.0014349122;0.014496716;-0.023708329;-0.017142456;-0.040324148;0.06144282;0.014084462;-0.07120556;0.0066754366;0.053510915;0.029606862;-0.047324345;-0.06442147;-0.053739488;0.13926598;0.04304319;0.015071968;0.07453385;0.078424014;-0.063544564;-0.0107503;0.00320018;-0.027510662;-0.005971028;0.03116758;0.07196514;-0.071707346;0.059448168;-0.000778225;0.08072735;-0.06453956;0.02886422;0.0103448415;0.09341558;0.098907374;-0.023380846;-0.028854847;0.015687175;-0.091756366;0.07669468;-0.021779006;0.0065636486;0.019774644;0.013193398;0.036899462;0.056738228;0.00902665;0.07747508;-0.06970919;0.056287948;0.08683235;0.060017444;-0.022702577;-0.027445382;-0.06926533;-0.053077646;0.034389973;-0.020234331;-0.052683447;-0.057982147;-0.011978636;-0.021610871;-0.033270564;0.03249638;-0.05086152;0.08207044;-0.0216472;-0.09967203;0.021204373;-0.0017595226;0.08497457;0.08885639;0.064542934;-0.062183164;0.040915858;0.023005843;-0.097835764;-0.032076318;-0.03270147;-0.016886946;-0.03895847;0.013277484;0.09666811;0.044873115;0.07916482;0.07574048;0.018564055;-0.00071836973;-0.05728583;0.09049616;0.04218191;-0.006509454;0.04644308;0.00871804;-0.01608481;-0.10136174;0.017924946;0.13122036;0.042137858;0.006994175;0.084022254;0.06664994;-0.063177034;0.080464624;-0.02991973;0.058557943;0.00468289;-0.05703724;0.030697083;-0.039007932;-0.03076377;-0.050042693;-0.064606294;0.031458527;-0.025044989;-0.05246328;-0.122608095;-0.0015802081;0.016622555;-0.077878766;-0.047007173;0.06870684;0.02787384;0.08866182;-0.03326673;0.036211275;0.15235496;0.06054364;-0.025506437;-0.05515782;-0.02431989;-0.0051274593;-0.020686328;-0.0947712;0.07959078;-0.101705045;-0.03298541;-0.11804809;0.026996834;-0.035057034;0.015517726;-0.023198733;0.019866835;0.08717652;0.052298907;-0.13912639;0.07894331;0.041963097;0.030779796;-0.05431921;-0.0078049647;0.12451706;-0.04432672;0.020610964;0.02826175;0.01027373;0.04105862;-0.06863052;0.008728226;-0.047482077;0.047970854;0.013154585;0.027191324;0.061760247;-0.05330483;0.037759345;0.0061016222;-0.030962475;0.085637905;-0.1677279;-0.01891199;-0.07770915;-0.050043285;-0.07307757;0.07475703;-0.1191621;-0.047457088;0.086134784;-0.045157194;-0.059393253;-0.006521769;-0.053828597;-0.0557323;0.10965266;-0.045056205;-0.071793504;0.06453955;0.08801182;-0.03298165;-0.033955827;-0.032675095;-0.02683382;-0.0006543928;0.0858459;-0.012807593;0.08138558;0.020815378;0.12485303;0.029652087;-0.02172603;0.07371545;-0.077734135;0.05828306;0.010759294;-0.051377837;-0.07989428;0.01743783;0.050289325;0.07469926;-0.010751086;-0.045966804;-0.08641082;0.11528024;-0.050751697;-0.05181143;0.114145175;0.059058934;0.059911523;0.047751248;-0.05879176;0.03520595;-0.0055966596;0.047134113;0.059927993;0.07652803;-0.06720385;0.082508154;-0.01272238;-0.044766337;0.007839654;-0.16195999;0.038669206;0.013100875;0.071599215;-0.079851665;-0.011205806;0.037565127;-0.059159413;0.085884035;-0.1025286;0.054496955;0.053708937;0.070665225;-0.06605268;-0.042377945;-0.061250284;0.050142065;0.035052355;0.023624998;0.033948172;0.02252471;-0.10969312;-0.043710466;0.03512331;-0.008664947;-0.00029090326;-0.012360669;0.0043680314;-0.0724901;0.092914015;-0.03538302;0.05694536;-0.047341056;0.046004727;-0.07763113;0.054556753;-0.041570984;0.03012844;-0.0049816743;0.026591538;0.01585186;0.04888738;0.056377016;0.06471902;0.0071432376;0.07589767;-0.02145794;0.07845021;-0.020861011;0.0416699;-0.05291945;0.12987107;0.09303655;0.009142109;0.006960319
0.09485468;0.06736892;-0.032005817;-0.034420863;0.0597401;-0.06551856;-0.051957555;0.060323283;0.06294099;-0.014776984;0.07156496;0.025267925;0.043849923;0.19732845;-0.07971898;-0.0037286545;-0.16580176;0.10552885;-0.0010101931;0.09849863;-0.04460163;-0.06521727;0.026899718;0.009586045;-0.029149525;0.0012415833;0.018654171;0.028542208;0.011014143;0.054132324;0.033058908;0.0032048232;0.07615162;-0.012292326;-0.0016710203;0.01198813;0.033294953;-0.0804914;-0.007214993;0.05020997;0.021676086;-0.03294875;-0.0868075;0.013382851;-0.04548273;-0.034166016;-0.15286198;-0.07427154;0.024233688;-0.05112928;0.05820308;0.082291186;0.02666728;0.058488652;0.071835764;0.048032045;0.044287585;0.072564475;-0.07120611;-0.013679139;-0.045002222;-0.098489694;-0.08705203;-0.0858087;0.06473483;0.04421607;-0.060633767;0.04093196;0.023552135;0.023706641;-0.059348315;0.041107796;-0.032089204;0.0052460446;0.074404694;0.13142669;-0.029182667;0.010735309;-0.06904201;-0.07008726;0.0854337;0.10857861;0.04402009;0.09976508;-0.03279955;-0.050138358;-0.07845886;-0.039192222;-0.07515595;-0.04809255;0.08748252;-0.017147647;-0.035315376;0.03323605;0.035666984;-0.04254971;0.002415563;-0.04102302;-0.01800338;0.03892011;-0.01428208;-0.014030865;0.07515438;-0.17086613;-0.081225716;-0.011166008;0.049343526;0.044786718;0.031902224;0.067116044;-0.00032739795;-0.07917506;0.07229142;0.046652224;0.013750424;0.019771278;0.0801184;-0.020210067;0.09226487;0.0449665;-0.06773314;0.08745723;0.060401853;-0.010083797;0.096886225;0.0070422436;0.01589214;0.0069015487;0.030278772;0.04263643;-0.13541341;0.0025043788;-0.018804103;0.026169049;0.04683044;0.024897097;-0.03627952;-0.021173157;-0.055803537;-0.029229874;-0.055145513;0.0630907;0.022739787;-0.13068968;0.048037704;-0.046595916;-0.013986913;-0.051043004;-0.05384884;-0.034563143;-0.12132204;-0.0671112;-0.0060275486;0.1272379;0.067143954;-0.08127473;-0.038334828;0.04228179;-0.055536818;-0.01942286;0.07620926;0.13004854;-0.09248288;-0.032428756;-0.036382515;0.037494898;0.039109573;-0.029107114;0.06891248;-0.06875886;0.06914961;0.043990675;0.0073268176;0.0038658963;-0.022636011;-0.058906127;0.016108133;-0.05008354;0.09755895;-0.07795013;-0.016464086;0.051651057;-0.12017234;-0.0019332176;0.023628637;-0.06513734;-0.052683562;-0.07719626;0.09311323;-0.052228637;0.100389466;0.057270136;0.025831958;0.022049451;-0.0030718744;0.028904252;0.042657528;0.020735515;-0.08536056;0.097019;0.036571678;-0.010504865;0.079901025;0.01715912;-0.040077385;0.08964146;-0.035318382;-0.06312573;-0.054944865;-0.023969555;-0.012639268;0.04449985;0.03939639;-0.03271963;-0.06596105;-0.0367541;0.046688385;0.051168144;0.072454855;-0.055169072;0.03502194;-0.06345343;-0.024658917;-0.07065777;-0.022952363;0.015093092;-0.017648643;0.017910078;0.050755642;0.026527353;0.067715354;-0.0132935885;0.058748417;-0.054906614;0.09026042;0.03332405;-0.07538439;-0.009511466;0.04444498;-0.0732405;-0.033283696;-0.02603166;-0.01436372;0.017576102;-0.030799162;0.047445793;-0.032691132;0.07825685;-0.049789246;0.073091306;0.05818615;-0.051812798;0.06389682;0.13214485;0.06938761;-0.00037141988;-0.022842849;0.0488359;0.09466029;-0.029500285;0.054271735;0.020895468;0.05370397;-0.024030495;-0.069401965;-0.05292658;0.05294956;-0.032005385;-0.053178795;-0.02979418;0.050943155;0.009393392;-0.00229753;0.059530575;-0.013389764;-0.02124418;0.058887035;-0.0053442796;0.025798898;-0.03927925;0.077846944;-0.029351441;0.054198515;0.005989111;0.013368506;0.07385001;-0.076897934;-0.07122966;0.068181545;-0.037495717;0.12056498;-0.04910778;-0.020391772;0.0016052427;0.019221764;-0.009951797;-0.025020922;0.021550553;0.0280669;-0.0010911148;0.18179604;-0.0006843205;0.03260328;-0.01693538;0.037224326;0.124274515;0.1586508;-0.041809157;-0.07694162;-0.010100763;-0.01705292;0.051496554;0.077548556;0.013835257;-0.012418188;0.060196582;0.07598233;0.0923143;0.061661843;0.07633197;-0.058497716;-0.10191925;0.08386107;-0.031148572;0.02663468;0.003556448;0.05434583;-0.05868693;-0.01409583;0.032849777;0.074705936;-0.0041320142;-0.02461515;0.035146497;-0.028914416;-0.043080878;-0.004467234;0.08345932;0.02794829;-0.032640044;0.07217979;0.03792979;0.013390442;0.041833993;-0.035052557;-0.022187976;-0.0034531301;0.052252933;-0.029700506;-0.022218766;-0.020679576;-0.11353818;0.004411513;-0.061786;-0.01114799;-0.024907399;-0.02606522;-0.114782356;-0.05344093;0.05360093;0.05797024;0.07549627;-0.029642506;0.056490187;0.0703112;-0.04099519;0.011338358;0.0210484;-0.0605221;0.022890069;0.01591516;0.021507865;-0.06294391;0.035929278;0.069798626;-0.0026941744;0.032482203;0.018648315;0.085388556;-0.14089157;0.11153723;-0.022893382;0.055024203;-0.045022268;-0.051732153;0.06239962;0.005189608;-0.022170937;0.23821425;0.08397814;0.020990636;0.09092585;0.021183293;-0.034543518;-0.058017712;0.03176864;-0.013823284;0.04440197;0.01592315;0.068860434;-0.012295204;0.08194612;0.040617593;0.0665243;0.060383562;0.029537272;-0.033425465;0.019687163;-0.052021954;-0.04219316;0.04726295;-0.029393677;0.093518585;-0.068401314;0.0021757893;-0.05031246;-0.0014843043;0.15866348;-0.009818278;0.022167599;-0.047337938;0.02490377;-0.057381835;0.016515201;-0.04240722;0.008227274;-0.04896969;0.08375078;-0.018117901;0.06758156;-0.036827262;0.037456248;0.041111227;-0.029565644;0.0041131834;0.06170975;-0.07372599;-0.048192088;-0.07621904;0.057300653;0.03017431;0.066768184;0.08801642;0.037987486;0.035328817;0.0035342155;0.018084837;0.086216785;-0.0643188;0.07313702;0.05310991;-0.11052279;-0.06874926;-0.05815893;-0.029686134;-0.008686981;-0.0672237;-0.040545907;0.020516016;-0.04515199;-0.005955387;0.09786277;0.0229204;-0.033387605;0.07352833;0.0697616;-0.06620235;-0.037685875;-0.063095145;0.06125228;-0.00068668195;-0.010333545;0.075581916;0.009936201;0.01689137;0.07564351;0.0041159596;0.042176474;-0.010521257;-0.061810993;-0.019542184;0.10126454;0.08231998;0.106555745;-0.006193657;0.0605945;0.013484226;0.04544524;0.043773714;0.0019189203;-0.06673379;0.13923657;0.07898898;0.03373876;-0.07319428;-0.048474286;0.06820409;0.036834646;0.08706623;0.03622639;0.03216294;0.0015190692;-0.14899416;0.11710651;-0.039584406;0.03505606;-0.0007817625;0.056304645;0.0053957934;0.052456923;0.05079374;-0.08125042;0.03155502;0.051081743;-0.0474065;0.048330624;-0.030783076;-0.043761108;-0.12565443;-0.014854996;0.020693267;-0.021636907;0.08312936;-0.12520218;-0.013347115;-0.08640792;-0.052691016;0.047505654;0.06295136;-0.03817463;-0.10964871;-0.0037784027;0.07587015;0.088283524;-0.033402223;-0.07831855;0.07117442;0.10080451;0.07063609;0.0015886098;0.0022653614;-0.014023416;-0.15439177;0.080153085;-0.038562432;0.018872771;-0.035454273;-0.043418325;0.08236135;0.05789303;0.077883385;-0.01656106;-0.08447929;0.00056814327;0.020985145;0.013813783;0.041553255;0.07278512;0.047307007;0.041407637;0.03278178;0.01760301;-0.12206444;0.06548371;-0.029200105;0.044595312;0.04725517;0.069056466;0.0130494265;0.0774295;0.040993534;0.06640748;0.066414095;-0.057928074;0.045517933;-0.02713175
-0.046331465;-0.053977035;0.0658723;-0.023260534;-0.06271158;0.035646856;0.044943992;0.035786495;-0.03389101;0.016179763;0.037248492;0.11681714;-0.05055178;0.1603276;-0.006247787;0.05913242;-0.09411496;-0.012842029;0.00018657465;-0.018465074;-0.070657395;-0.08001011;-0.025558554;-0.116020866;0.03621458;0.014761687;-0.0533622;0.069135636;0.0035423622;0.03025637;0.15554214;0.051336054;-0.021279423;0.004041281;0.08599562;-0.029427983;-0.060489845;-0.14825635;-0.024996562;-0.004489751;-0.015333896;0.0059873937;-0.18591897;-0.039226554;-0.09942996;0.032280684;-0.11697059;-0.02579925;-0.09643297;-0.0614043;0.03318917;0.033095207;0.008756265;0.07876536;-0.038532156;0.059109848;-0.012424157;0.07999478;-0.06444942;-0.0107542835;0.03938756;-0.011605658;-0.00899138;-0.027093703;0.06806901;-0.035373386;-0.09886285;0.012361572;0.08109454;-0.020951591;-0.076604694;-0.080936365;-0.039688315;0.046640873;-0.062447444;0.044347983;-0.06106441;0.112596616;0.06057294;-0.06605751;0.04769529;0.013804237;-0.049437597;-0.052102048;-0.03316625;0.06545976;-0.050781384;-0.045418274;0.090470426;0.11088831;-0.05154615;0.0904902;0.01771967;0.106869884;0.051034614;-0.017332455;-0.016041052;-0.08312413;-0.029406;0.08752809;-0.08303718;-0.026710281;-0.00071170955;-0.04932719;0.09844053;0.06717973;0.07671296;-0.0017531749;0.0072122784;0.079480894;0.047114324;-0.03538813;0.062469874;-0.04081791;0.012768176;0.034658838;-0.03028304;-0.013009812;-0.035996605;-0.04371497;-0.0712061;-0.047251534;-0.04475205;-0.0014522423;0.072794355;0.1057575;0.011572273;0.061789952;0.001293812;0.011891934;-0.08627654;0.06221924;-0.02316553;0.06618459;0.10956667;0.16523035;0.18105562;0.03696094;0.05377337;-0.033236142;-0.027304998;-0.038814005;0.10672344;0.051242966;-0.05137981;-0.03144358;0.03470456;0.12916373;-0.038404312;-0.0012721132;-0.0014389717;0.073784344;0.014759869;0.108889244;0.024539933;-0.03656873;0.04081196;0.099403694;0.040269352;-0.016394624;0.019998658;-0.041733623;-0.03910402;0.042631216;0.15476744;-0.053221833;-0.027635684;0.06509071;0.10733157;0.03713183;0.077037685;0.07156086;0.0011743807;0.05289329;0.017503606;0.07098085;-0.0044953837;-0.08349232;-0.0391313;0.016726896;0.0381075;-0.0045832223;-0.08722325;-0.042512596;0.036611874;-0.09988742;0.059535608;-0.062904045;-0.0613308;0.10663663;-0.070974715;-0.04821959;0.03245879;0.08915887;-0.025293244;0.04772101;0.03182823;0.072391525;-0.015227734;0.09025203;-0.0887604;0.030100573;-0.04951824;-0.055696;-0.05127216;0.0411385;-0.02771658;-0.001011977;0.05595811;-0.028791573;-0.008627023;-0.04334703;-0.033987068;0.097312115;0.13419676;0.07187376;0.009508502;0.027538696;0.017042885;0.020900816;0.11463943;-0.083167374;-0.054086313;0.08583274;-0.07205381;0.10120738;-0.0021575447;-0.042612087;-0.022865731;-0.033785507;0.04647105;0.05159397;0.06862318;0.0020439678;-0.043630432;-0.09578633;0.08113067;-0.0033678636;0.014230823;0.040352583;0.072471306;-0.025902594;-0.017236352;0.09259609;0.05143249;-0.00773181;0.08267786;0.08267292;0.023856295;0.12719591;-0.05388437;-0.0568337;0.053526197;0.014473835;0.07814776;0.047984485;0.016523419;0.034702595;0.04759656;-0.009598747;0.117741235;0.071342275;0.0074586086;-0.051304437;0.06488488;-0.041479293;-0.042480297;-0.017427586;-0.03816641;0.08146944;0.043982636;0.040118374;-0.055962138;-0.01956799;-0.015409032;0.023161525;-0.043682408;0.033258896;-0.044150718;0.06274948;0.0898871;-0.06463126;-0.0020217302;0.05113947;-0.020782411;0.08545395;0.04016814;0.09525481;-0.04780576;0.037924565;0.025265457;-0.01808818;-0.06464815;0.057010546;-0.0038607826;0.06329177;0.035770137;0.0798036;-0.05333219;-0.078493044;0.20830896;0.08085043;-0.06926192;-0.040138405;0.07460767;0.04757479;0.10988713;-0.11277427;0.024993839;0.08101191;0.0817182;-0.0890626;-0.028537372;-0.028359585;0.068109624;-0.009864132;0.11830224;0.06958067;0.08672859;-0.012755258;0.006528751;0.1200529;-0.004965054;-0.048170406;-0.082384415;-0.025598029;-0.012610965;0.12000902;-0.013606622;0.13622698;0.0076870043;0.06247984;0.11581286;0.05830806;-0.08033246;-0.035363317;0.22201008;0.048363145;-0.055444464;0.10145294;0.06328465;0.02806901;0.045638025;-0.036170915;-0.005569382;0.073741056;0.025660632;-0.021702975;0.04093151;0.03643872;-0.15428813;-0.0691946;0.044172555;0.01756958;0.04838786;0.05974214;0.06999845;-0.07480207;-0.043100245;0.005689317;0.051647313;-0.058830347;0.06598421;-0.048560422;0.051336605;-0.030885557;0.037575126;0.10569575;0.11588806;0.07274568;-0.009422754;0.09884888;-0.006114146;0.08871746;-0.022246826;0.047262106;-0.034168545;-0.0055566146;-0.0048143384;0.02172474;0.0040188595;-0.0294943;-0.045305185;0.11863089;-0.0640176;-0.010610398;0.032919873;0.06528977;0.16650702;0.09505062;-0.001482091;-0.03855546;-0.045094386;0.07100705;0.04454055;0.07272534;0.06617009;0.07932388;-0.0076173497;0.09195783;-0.0821372;0.012908687;-0.05011043;-0.08177282;0.049629293;-0.05858284;-0.16376288;0.01313536;0.005309076;-0.03315802;-0.017886914;0.13060233;0.010748812;-0.017397009;-0.060599748;0.075948134;-0.08651189;0.13530976;0.033198755;0.01576752;0.056783058;-0.0052490043;-0.058364395;0.0997342;0.017750535;0.07704504;-0.08134313;-0.041844785;-0.0025856418;-0.029389918;0.0035289982;0.06689717;-0.027015341;0.074732415;-0.042116072;0.013658096;0.10100552;-0.017724833;-0.0008142242;0.1068476;0.012081417;-0.10796917;0.0016685558;-0.007773369;0.04202984;-0.045302328;0.07479201;0.03262209;0.020346869;0.082471736;-0.058962367;-0.10651262;0.04903062;0.07948442;0.12352879;-0.0013777128;-0.067959666;-0.011770895;0.05607645;-0.11762741;0.012030616;0.12693228;-0.0020857602;-0.07691383;-0.04533389;0.1835809;0.093925446;-0.0049714334;0.016461581;0.040611457;-0.0740403;-0.014965156;0.14706598;-0.10434713;0.032340966;0.04884237;-0.02596757;0.1376419;-0.01604598;-0.049793478;0.012238883;-0.028519431;0.08851977;-0.007490191;0.04924526;0.122422755;0.011900527;0.046789557;0.077512994;0.008423875;0.011725124;0.05332307;-0.083720416;0.05981789;-0.0076723155;-0.0036173589;0.10333182;0.0031458356;0.05438222;-0.0118597485;0.056082476;0.015485761;-0.09961197;0.00020748124;0.024382016;0.08188211;-0.06580343;0.026702346;-0.013058708;-0.009590183;0.024804484;-0.020317772;0.07083541;0.07256463;-0.074713886;0.08779844;-0.13129705;0.012200624;0.017093161;0.086951256;-0.1279401;0.13248298;0.023060476;-0.082069665;0.05937369;-0.04053645;-0.020612484;0.0018945405;-0.024909066;-0.00283601;-0.10320267;-0.021468109;0.019972142;0.053629715;0.048253506;-0.1481913;-0.052928098;0.08614744;-0.03923316;0.04689072;0.11030787;0.014686826;0.006060269;0.03672678;0.003341102;0.03801448;-0.021805435;0.015501971;0.098486476;0.041412387;0.05630677;0.0035388302;-0.022369107;-0.09032776;-0.008076899;-0.07808427;0.11905301;-0.00024884328;0.10693283;-0.039736256;-0.027489059;0.030572437;-0.00670871;-0.07384859;-0.046973348;-0.014046474;0.022765739;0.08420431;-0.018606355;0.038765702;0.038571067;-0.031406943;-0.06461252;0.10981633;0.058693334;0.048701476
0.04834003;-0.046151236;0.067382894;0.05950134;0.104401805;-0.09690901;-0.010229022;-0.07514897;-0.011955107;0.0644392;0.09612405;0.10155643;0.0011764715;0.036070116;-0.089180425;-0.11388057;-0.08402762;0.07964428;-0.07633352;0.012189035;-0.08179895;0.07783093;0.035528716;0.108475626;0.030027;0.053306904;-0.065109275;-0.0021288781;0.041651223;0.014417761;0.06155634;-0.05989627;-0.01380088;0.05002072;-0.05301336;0.08736545;-0.04204684;-0.06191231;-0.040556207;-0.017874222;0.034658447;-0.061039533;-0.12780617;0.070198506;0.05031624;0.03460574;0.012614123;0.015333017;-0.04534495;0.028545532;0.113578774;0.014297619;-0.06770148;0.0014363336;0.029443085;0.039996378;0.04072962;0.02805034;-0.1306829;-0.029610908;0.080183655;-0.025229087;-0.08781992;0.00387531;-0.020220898;0.04894844;-0.051770933;0.08005721;0.06825844;0.089174844;-0.004627463;0.06826005;-0.069965474;0.011839506;-0.03976005;0.019283826;-0.03970219;-0.06797812;0.020345304;-0.06458918;0.036218688;0.071302556;-0.06995479;-0.07724135;0.105528876;-0.052881744;-0.070280716;-0.00796316;-0.05070824;0.072879404;0.08080394;0.009183794;-0.035683975;0.08871019;0.110644944;-0.06525593;0.066397004;-0.015647484;-0.02679665;-0.017542627;-0.079915754;-0.024798913;0.09823356;-0.0675582;0.037322175;-0.07759735;-0.033798225;0.075125486;-0.0026210502;0.07438299;-0.033248246;-0.017646058;0.14033096;-0.010372116;0.08536695;0.12586764;-0.020448264;0.023528485;0.0828302;0.053650614;-0.060082898;0.045041848;0.033532053;0.032959167;0.07787629;-0.05087628;0.06189669;0.026156222;0.13025573;-0.052124396;-0.11580347;0.023383677;0.022850223;-0.050421372;0.1255272;0.062135737;0.17370021;0.10047771;0.045627054;-0.11223752;0.0045516114;-0.034068003;0.016032312;-0.026465878;0.05217005;0.05156956;-0.041539878;0.092378125;0.054845214;0.075958416;-0.053415034;0.037643645;0.028809166;0.0750191;-0.053561192;0.046917975;0.11424141;0.11102442;0.01731699;-0.023961596;-0.06758936;0.11942215;0.042939976;0.110005155;0.04338683;0.1112648;0.014250539;0.07591107;0.1266976;0.009877798;-0.07927263;0.06282863;0.022677656;0.01388042;0.05675254;-0.05595765;-0.05625967;-0.06897734;-0.04396472;-0.057176996;0.052093085;-0.027997041;-0.14424406;0.114480995;-0.039170757;-0.05436859;-0.0071604615;0.03946705;-0.043331277;-0.02713198;0.09158944;0.0008539055;0.013754302;-0.040847845;0.058540232;-0.00213129;0.14282037;0.1156954;0.10600595;0.09715916;-0.06929506;-0.04294468;0.053667713;0.025951205;-0.056051698;-0.01797962;0.0866416;-0.00999986;-0.02659463;0.11069169;0.01622289;0.059631877;-0.033962775;0.033088114;-0.01677928;0.032825794;0.16198947;0.015573401;0.019972833;-0.053104762;0.022840647;0.01210268;-0.0012790997;0.012783534;0.04747062;-0.024506621;0.04043012;-0.035940837;0.11495216;0.0658323;-0.042832397;0.029249659;0.05667312;-0.0029822341;0.14356431;0.030919362;0.04841177;-0.08437326;0.04179634;0.06726009;0.053270742;-0.10522787;0.055797514;0.022722954;0.0168482;0.030323349;0.045850202;-0.052671164;0.08101203;0.13610554;0.07593892;-0.041609373;-0.027811801;0.018039297;0.061768256;0.05293721;0.061355192;0.121848024;-0.072869346;-0.028004687;0.10263944;0.041036397;0.056650758;0.022314256;-0.01254374;-0.110061035;0.08720337;0.042980336;-0.05446366;0.06828835;0.08671088;0.1242538;0.011263227;-0.00079090876;0.017690502;0.06607134;0.015488515;-0.021985024;-0.0072750174;0.06638182;0.09879314;-0.0054081124;0.10027936;0.059631936;-0.011398009;0.06217896;-0.0076120617;0.035414945;-0.060931604;-0.027360557;0.08488584;0.015593312;0.0795349;-0.044410884;0.07727487;-0.05463758;-0.023988927;-0.014286885;-0.028640687;0.043290548;0.07566591;0.06621891;-0.032495707;-0.028310122;0.08763815;-0.0043872437;0.011211631;0.0055404785;-0.04933867;-0.056883853;0.031372935;0.020045398;-0.046839327;-0.056991532;0.04394847;0.040262263;0.09566617;0.044084482;0.013107332;0.1121986;-0.040121067;0.05450797;0.0067052483;0.0626198;-0.007229721;-0.05503274;0.0998206;0.03014859;0.04186619;0.05541529;-0.0039198515;0.039732657;0.123848386;0.07971038;0.027716056;0.02104807;0.025328375;0.00057607476;-0.02536499;0.041466944;0.07092669;-0.03283814;0.039731827;-0.11451414;-0.046336986;-0.048351344;-0.051236544;0.05918498;0.008909605;-0.029154694;-0.054499503;-0.08085876;0.06905218;-0.021907454;-0.06883749;-0.007102156;0.00757385;-0.082924075;0.006929886;0.07473013;0.0025147586;-0.057398997;0.08970155;-0.0011134223;0.062338855;-0.024787273;-0.060400315;0.10253443;0.12930849;0.05872958;-0.0587914;0.025482345;0.030287147;0.09833229;-0.027808482;0.017891064;0.111766115;0.041744184;0.060639508;-0.056462333;0.0025553661;-0.048598077;0.023777135;0.0032726913;-0.006097731;0.01735036;0.004071654;-0.037579942;0.079158716;-0.019936893;-0.04699548;0.047971744;-0.050276637;0.03454574;0.07807135;0.09301596;-0.06542776;-0.041088738;0.04187078;0.022008834;-0.012766585;-0.053860676;0.034679614;-0.08213935;-0.048633467;0.06558742;-0.19087788;-0.09771572;-0.063498855;-0.050673272;-0.002238361;0.09889033;0.04737206;-0.01642494;-0.06983288;0.017675305;-0.0316312;0.015842624;-0.009219838;-0.029646534;-0.0663301;0.08968443;-0.020071132;-0.031311363;-0.005913858;-0.050977238;-0.04821084;0.1090535;0.06509895;0.07105837;-0.022499071;0.04199025;-0.07650818;0.013097603;0.022491936;-0.066240184;0.04124354;-0.01679142;-0.00319862;0.09690945;0.0423236;0.0441091;0.00049277814;-0.043920998;-0.040912624;0.048695464;-0.031905666;-0.04138915;0.011437622;-0.0010165032;-0.049276803;-0.081504665;0.029775754;0.030409416;0.114378154;0.0057322793;-0.034444183;0.015044918;-0.029888395;0.032228127;-0.031291682;-0.011079584;0.055649467;0.06940286;-0.023515975;0.04843773;-0.01033205;0.04211878;0.035329495;-0.045906153;0.052919824;0.03411234;0.029534161;0.025318664;0.021602938;-0.03347068;0.07673027;0.12904426;0.13178508;0.034332976;0.07720717;-0.028784476;0.04869038;0.13628684;-0.033325583;0.04750261;0.06890901;-0.020926429;-0.0020740596;0.032410048;0.011394324;0.08901587;-0.025403041;-0.020151023;0.05939956;0.001408335;-0.041684277;0.06493801;0.080137946;0.08700522;0.007958387;-0.05626683;-0.0728289;0.023026591;0.04350407;0.0754314;-0.025941256;0.081721045;-0.01541934;0.01617202;0.08920179;0.039262608;0.08228624;-0.035409816;-0.024733448;-0.036139656;-0.052590024;-0.016944747;-0.061516352;0.096695535;-0.010760186;0.08583888;0.07456261;0.0054676635;0.0015338791;-0.040729087;-0.05640363;-0.009679453;-0.0059438823;-0.07802348;-0.08930286;0.025326023;-0.07687415;0.13305554;0.07842656;-0.09217386;0.09178176;-0.03919265;0.04280259;-0.014452803;0.16897869;-9.213514e-05;-0.025484644;0.118684016;0.028367441;0.042430293;-0.028357454;-0.059139814;0.07029899;-0.0023522256;0.0493645;-2.956364e-05;0.04865485;0.051487464;0.08009308;-0.0009188539;0.028285204;0.0110297;0.082247555;0.039865036;-0.027893621;-0.093057826;0.09185911;0.046253096;0.052453004;0.053605925;-0.06570664;-0.04735185;0.08187512;0.084846795;0.08112681;0.01446012;0.0012037168;0.07989157;-0.009487004;-0.0051516755
-0.00065337174;0.07689701;0.061256822;0.086140886;0.0823769;-0.025223024;-0.01928117;-0.062887475;-0.033866957;-0.05176877;0.029324165;0.059573207;0.010023495;0.12289347;0.014958658;-0.040966026;-0.06263826;0.008689151;0.022769071;0.03019181;0.025397865;-0.0054847235;0.013249118;-0.070795216;0.024214441;-0.09473605;-0.022991737;0.039840013;0.012137304;0.0014647708;0.10793672;0.037343003;-0.043697473;0.033567186;-0.0052554226;-0.08649063;-0.023819417;-0.07851071;0.06356;0.121569976;-0.041529234;-0.06466206;-0.025341194;0.032803275;-0.022055501;0.0702596;-0.0475;-0.06675158;-0.10916838;-0.0061363126;0.07840362;-0.060499202;-0.03278437;-0.002800452;0.025469214;0.03248255;0.0050633764;0.041422833;-0.083516136;-0.070317805;0.075550646;-0.023822736;-0.042768285;0.14202599;0.07780422;0.07101704;-0.06024838;-3.2988944e-05;-0.027309678;-0.03337471;0.06977365;0.06842168;0.0398518;0.031854793;-0.08455486;0.079628766;0.01474359;0.07536051;0.050171867;0.12424583;0.09706143;0.020333776;0.068302535;-0.11187883;-0.035918552;-0.024097456;-0.14449906;-0.02370455;0.02954355;0.07417142;0.073879726;0.019019695;0.040947564;-0.042557593;-0.098891824;0.06922817;0.091481574;-0.07250939;-0.08587569;-0.0073290365;-0.023729745;-0.02717183;0.092765376;-0.09780025;-0.017043743;0.016939163;-0.048088707;-0.025971612;0.09281444;-0.020285519;-0.0055301315;0.017781785;0.16120146;-0.025052791;-0.041437585;0.029182823;0.02848226;-0.029736258;0.020196028;0.025419129;0.036648564;-0.02798399;-0.004481178;-0.080656976;0.11562953;0.1083201;-0.007895355;0.08628322;0.07621153;0.020491688;-0.097092845;-0.08712511;0.08535147;0.052069332;0.0313559;0.094152786;0.1814995;-0.04654389;0.030186916;-0.052567434;-0.05193568;-0.01554721;0.028094994;0.014283717;-0.05747084;0.04490106;0.0042712917;0.13100775;0.096952334;-0.007830535;0.04750747;-0.046066657;0.070809074;0.09348303;0.060865488;0.065893345;0.12304563;0.08125418;-0.043734655;-0.05487323;0.031880863;0.0046223872;-0.03215635;-0.01276348;0.11183004;0.009400541;0.024780095;-0.030210499;0.11943281;0.012862381;0.04122836;0.00651312;0.09817521;-0.065343544;-0.0063074366;0.09005976;-0.011922059;0.015736861;-0.019048668;-0.06358327;0.06512769;-0.031124605;0.02798028;0.06338445;-0.0083697345;-0.036054637;0.01613419;-0.06623072;0.024229461;0.02664742;-0.014280492;0.020740293;0.09880747;-0.017598428;-0.01726828;0.027277974;0.1515344;0.05361629;0.13363126;0.10127787;-0.006587695;-0.0011946807;0.05561729;-0.0389283;-0.12019885;-0.02778774;0.0362292;0.008414419;-0.049683657;0.052266404;-0.07408686;0.0022880426;0.0934253;0.039299626;0.10558656;-0.0071201143;0.05605641;-0.047759;0.022479886;0.0576971;0.018123606;0.0092049455;-0.026076475;-0.012042694;0.027553597;0.11947598;0.02233774;-0.029804895;0.091124125;0.01603207;-0.05270919;-0.03048053;0.024137571;0.06404353;0.058531087;-0.021552399;0.03864034;-0.014453733;0.048679583;0.008491246;0.049990706;-0.05959072;-0.030414097;0.025433915;0.022445565;-0.003676995;0.026355354;0.08718568;0.04317762;0.15066509;0.007813135;0.027165078;-0.0017555356;-0.006500235;0.0001494556;-0.016653772;-0.015629262;0.05953664;-0.06409821;-0.12268916;0.005472757;0.111863166;-0.054365393;-0.036281377;-0.070989385;-0.10918573;-0.05340073;0.023096088;0.0116733;0.04614779;0.08811627;0.13220504;0.009247379;0.023728518;0.09787727;0.08542642;-0.11416129;0.027673665;-0.036697116;-0.020998565;0.06510656;0.0032811079;0.10255149;-0.009470453;0.052493878;0.10931577;0.010642932;0.0794491;0.009521839;0.14883888;0.064478;0.03394696;0.0054126442;-0.078582935;0.063810654;0.043315817;-0.021973103;0.048796725;0.053992935;0.061206814;0.11024327;0.111984044;0.0021530588;0.081114545;0.15804616;0.040197685;0.031511735;-0.0838021;-0.0058875596;0.107881024;0.04158643;-0.056770355;0.051519174;-0.014166198;0.03614168;-0.050169136;-0.02977983;0.05227203;0.13962418;0.0438036;0.0098668225;0.16104148;0.15764861;0.045242116;-0.10243806;0.033233438;0.043583956;0.10563169;-0.07163348;0.16094056;-0.017443154;0.026874075;0.015204733;-0.0029009343;0.021557134;-0.015156952;0.027931435;-0.0061784266;0.030545738;-0.048368026;0.0411313;-0.025531245;0.029114448;-0.09202547;0.059848778;-0.0053417855;-0.011548064;0.14136302;-0.0066262903;0.064845145;-0.11285619;-0.04468702;-0.027230276;0.035184458;0.025758358;0.012646081;-0.02158171;-0.017945852;-0.1289713;0.01974446;0.07427333;0.030751236;0.029764166;0.0064702346;0.012802908;0.051235188;-0.036054455;0.01344706;0.09609211;-0.009439496;0.08494855;0.028830728;0.11558021;-0.029579831;-0.038100284;0.020054415;0.015205301;0.05426502;0.060857974;-0.0695738;-0.074274324;0.11378477;0.083717756;0.038852014;0.0059425444;0.059220854;-0.055464134;0.011719911;0.100118004;0.046509363;-0.055191588;-0.049935624;-0.058882006;0.04403404;0.09087594;0.10474784;0.076103844;0.08544468;-0.11711631;0.0016366609;0.05625425;0.028141893;-0.08003967;-0.05902467;0.03938969;0.060129218;-0.094379835;-0.029243486;-0.030483779;0.0011371791;0.12884569;-0.023641199;0.039951086;-0.055628132;-0.019904234;0.021846682;-0.06686325;-0.006452234;-0.031883597;-0.029604062;0.01318886;0.12874335;0.043908935;0.016087905;-0.0474076;-0.038600925;0.060969558;0.09891032;0.12796281;0.08524606;0.012075687;-0.061579783;-0.0029021157;0.07141225;0.058970295;0.032103375;0.05611887;0.044581432;0.0626496;0.06447212;0.07840554;0.049756397;0.06923033;0.12485584;0.06699229;0.018493244;0.014379727;-0.003258732;0.03355766;0.014232545;-0.08620775;-0.0556332;-0.057537764;0.072926246;0.06860161;0.1340629;-0.014082892;0.09839818;0.07692733;-0.13891006;-0.066975415;0.128114;-0.05907617;0.018691985;-0.046942074;0.18249273;0.101558894;-0.009949847;0.013985409;-0.036170043;-0.085180394;-0.021685734;0.027579015;-0.04621612;-0.07149105;-0.06393146;0.08575787;0.12763397;0.08907998;0.038362443;0.09890353;0.08045539;0.035125032;0.09131857;0.02536781;0.047852777;-0.082552284;-0.03590956;0.109852046;-0.07029954;0.10302954;0.00019637437;0.007953299;-0.05755617;0.042062618;0.070085265;0.037536893;0.008854699;-0.012627394;-0.013868795;0.010449576;0.05061948;0.036198035;-0.010690359;-0.022588553;0.06186906;0.054002415;-0.016090121;0.010815893;-0.035170197;0.04685135;0.07718788;0.0048278375;0.06948327;0.035744842;-0.02481626;0.015065232;-0.0014416017;-0.0031548082;-0.01245297;-0.14274846;0.06527205;0.044325165;-0.06872203;0.026937334;-0.0056397193;-0.00251811;-0.070998244;0.10967135;-0.010911302;-0.13361943;-0.02329659;0.02076347;0.15455312;-0.029182844;-0.031640753;-0.055586476;0.10377693;0.033720676;0.097093195;0.17946842;0.04513574;-0.07508622;0.13380761;0.09456026;-0.050943226;-0.021755824;0.034002576;0.013937831;0.10184992;0.116408706;0.022695277;0.025043948;-0.051766396;-0.06662392;0.019016113;0.037532967;0.022219734;-0.037308168;-0.025355808;0.04608477;0.030361565;0.032305766;-0.018548585;0.068108454;0.02480511;0.033211075;0.053911537;-0.023323337;0.05534836;-0.048978105;0.0022945981;-0.05178314;0.11864555;0.04762373;-0.080696985
0.11030415;0.06426084;0.01502077;-0.009916531;0.029017264;-0.06538486;0.009139636;-0.010020255;0.062125612;0.08542817;0.10153638;-0.11720537;-0.0666284;0.14127077;0.043761734;-0.08360826;-0.016623022;0.05455328;-0.07025334;-0.0026053523;0.05348125;-0.06853681;0.1115244;-0.099021375;0.058835912;0.0034251474;0.019762715;0.060095854;-0.029149573;0.098619215;-0.011373691;-0.10517023;0.078232884;-0.005461624;-0.005140439;-0.017459001;-0.13653214;-0.003484665;0.06082581;-0.0052464;0.08510103;0.009862879;-0.004449626;0.052268196;-0.0784201;-0.025780767;-0.10407337;0.050255165;-0.019649513;0.028276293;0.107671894;-0.115705945;-0.0024499665;0.10890365;0.0046402896;0.05660702;0.06517942;-0.018174892;0.025198622;-0.04241025;0.032375492;-0.02495213;0.0023685;0.078758396;-0.016543794;-0.035355195;-0.055398628;-0.017643316;0.0072788983;-0.052850083;0.020276396;0.059406046;0.03496048;0.08252568;0.03246693;-0.024309095;0.09634449;-0.025044976;0.051686805;0.037891477;-0.036712714;0.03778948;-0.0151397465;0.03960616;-0.0007196371;-0.006684558;0.025753928;0.034780446;0.07981037;0.09469813;-0.06202465;0.055481974;0.01071654;-0.0026724134;0.09977566;0.014795458;0.023913212;0.0699515;-0.009527438;0.050620485;0.09174483;0.015047127;0.08682481;-0.20498925;0.09412045;0.035458077;0.0065553244;-0.018183077;-0.025985207;0.02441012;-0.01044403;0.028564088;0.052339766;0.041017544;0.059517723;0.12738849;-0.015626961;-0.04211322;0.03252021;0.06777347;0.0059189415;-0.057712667;0.007311433;0.009425161;0.15126368;0.03955989;0.08128467;0.025231257;0.05737496;-0.05145568;-0.2106505;0.06675345;0.13254747;-0.05697257;0.09071436;0.07021093;-0.06170066;0.11463148;0.09942501;-0.08427164;-0.010442411;0.0092990985;-0.044332698;-0.13523962;0.031107916;-0.018387942;0.054554544;-0.059032016;-0.058040775;0.1162584;-0.04332976;-0.037359606;0.060534544;0.16738176;0.07335941;-0.04914831;-0.060031883;0.087348714;0.075342536;-0.048426498;0.028415252;0.08711197;0.037251346;0.09645593;0.08285519;-0.0053187176;-0.03353642;0.032399125;0.10517981;0.03825232;0.07234945;0.0659936;0.08387902;-0.031413175;-0.014782161;0.08292837;-0.052458048;-0.0056591956;-0.041952692;0.01007258;-0.033436626;-0.029684667;-0.05364676;0.034797847;0.0638455;-0.08277559;0.08694383;0.09922082;0.10934305;0.04946995;0.03213163;0.08463358;-0.01604074;0.00473709;0.08402718;-0.01594668;0.027409026;0.09719463;0.012979278;0.046012677;-0.052079562;-0.056048214;-0.041003864;-0.08529345;0.056384817;0.10287812;0.07405951;0.06369418;-0.072931245;0.098666646;0.011732447;0.07497744;0.026652288;0.056613967;0.06843657;0.036298558;0.055774596;0.05738727;-0.010623829;0.08686107;-0.042193566;0.022967603;-0.10579354;-0.07742704;0.003960777;0.035347834;-0.016289312;0.017771462;0.009426869;0.06749782;-0.014687144;-0.065989286;0.006210418;0.09760652;0.06452971;0.07862077;0.011297162;-0.048712555;-0.03508154;-0.0034130455;-0.008295755;-0.20662038;0.04413856;0.05648182;0.035756506;-0.02682947;0.042398505;-0.070510924;-0.03794322;-0.07670845;0.10191851;0.010078643;0.088662066;0.0007517607;-0.07103428;0.090251625;0.04566286;0.027217278;0.061272576;0.02459252;-0.052115407;-0.051990747;0.0029462855;-0.07544602;0.027488386;0.044603284;0.12945576;-0.0097640855;0.05017507;0.048118543;0.09445451;0.06491848;-0.04990111;0.02982599;0.070612945;0.04782355;0.021827431;0.04516753;-0.0075801127;0.058038983;0.049382277;0.06279862;-0.006043858;0.029344298;0.014927906;0.015742764;-0.011946708;0.038799908;0.04452117;0.102503285;-0.037683193;0.049443018;0.09406343;-0.022640709;0.12562884;0.07165325;-0.04008914;-0.004032482;-0.072875;0.026486775;0.043496504;0.045864988;-0.0096426;-0.03477009;-0.005313232;0.053564396;0.06354918;0.012784888;-0.009911357;0.02286469;0.07888144;-0.019734707;0.047199376;0.09890549;0.065940544;0.051972345;-0.028470822;-0.059532125;0.0069053713;0.029717568;0.0077058687;0.14494371;0.022179674;-0.009674688;0.061572902;-0.01704705;0.0737924;-0.0347729;-0.031778615;0.14296645;-0.05992483;-0.02010866;0.037078775;-0.03228329;0.035731975;0.047667578;0.08668131;0.033298984;0.02871411;-0.011401202;-0.0323522;0.06555565;-0.074321575;-0.07168426;0.05760363;-0.038574792;0.044224884;0.16428454;0.050150078;-0.0326951;-0.058245312;-0.15229309;0.012527001;0.020830696;0.028280277;0.02980883;0.04106618;0.021054551;-0.10561141;0.13737682;0.09533356;-0.008505592;0.12571913;0.027028354;0.028854186;-0.008861128;-0.052476663;0.0032303215;0.056514714;0.060093924;-0.049512267;0.037728965;-0.037758507;0.023421831;0.06718898;0.053190257;-0.010229816;-0.02405004;0.0988582;-0.0007299856;0.042855944;0.060067415;-0.05422617;0.09564392;0.072929956;-0.023291236;-0.11558806;0.05947075;0.102790736;0.026531383;0.104691535;-0.026376639;0.020880269;0.042483676;-0.015864654;0.10050184;-0.029115729;-0.038777377;-0.12880932;0.004619624;0.05302846;-0.053576633;-0.030938962;0.060647238;-0.016205152;0.037233867;-0.08672388;0.0052290144;-0.00763101;-0.14947172;0.105662316;0.036161646;-0.02502391;-0.021296468;-0.051697128;0.017192662;0.037641723;0.043661606;0.021656612;0.050084222;-0.053550463;0.058894344;0.08352336;-0.06676973;-0.122315034;-0.026542198;-0.07783081;-0.023414647;-0.0086032795;0.07832594;0.047531728;-0.0046475423;0.045649845;0.026654927;0.025928235;-0.015348145;0.009103476;0.054219674;0.057088044;0.06023321;0.043019127;0.0205043;-0.011285606;0.0027638122;-0.037089817;0.19417694;-0.017025819;0.057024132;-0.08360872;-0.007240876;-0.06922272;0.00994524;-0.011327675;0.02669054;0.13145383;0.096032865;0.1005394;0.08065533;0.114998646;-0.010092993;0.020155288;0.06816674;0.062156357;0.027165348;0.063485;0.071038984;0.009874878;-0.05865143;-0.010825655;0.09745555;0.075211704;0.1499321;-0.029811263;-0.04723614;0.1227966;0.0996771;-0.025896562;-0.05070135;-0.019047724;0.05563724;-0.007989572;-0.038384043;0.047535222;0.085007384;-0.06885024;0.016658077;0.07884009;-0.031139204;0.15506363;0.089163125;0.07654782;0.024258697;0.015182844;0.062855415;-0.013895116;-0.053456925;0.02781514;-0.031595036;0.015568424;-0.037219107;0.044199623;-0.020408306;-0.0329768;0.037271783;0.021131199;0.08349951;0.039140094;-0.0040213326;0.07312447;-0.028705582;0.09227922;0.10353853;-0.076329395;-0.03530996;0.02498116;0.086269744;-0.037355028;-0.065410644;-0.10295511;0.07516754;-0.00060168933;-0.04113582;0.07813549;-0.08247463;0.12638634;-0.07878932;0.025053248;0.016467735;0.090872124;0.03303063;-0.017776517;0.01364228;-0.14830987;0.010528925;0.006255712;0.041140366;-0.022478975;0.061400607;0.08963918;-0.067317896;0.1421899;-0.042316638;0.03596799;0.05485312;0.071001396;-0.13011584;0.0039637503;0.042121705;0.05110236;0.058629725;0.07445407;-0.050007183;-0.032959122;0.06649023;-0.03382873;-0.063508175;0.064867444;0.018346459;0.035250697;0.016910495;0.07348048;0.034731787;0.05244478;-0.07072188;0.00026576783;-0.062426127;0.009086553;0.07053494;-0.036829364;-0.022855062;0.030579356;0.019487478;-0.033394776;0.0003831351;0.018469954;-0.06390016
0.00090870564;0.08912345;0.01596159;0.025351968;-0.02536183;-0.1081096;0.106606536;0.052173898;0.09359928;0.021007704;0.08403849;-0.04930186;-0.11201427;0.13490894;0.060666982;-0.104914464;0.10158012;0.05435461;-0.1223791;0.030326838;-0.05183689;0.025506157;0.007214986;-0.05286017;0.06538061;0.049513962;-0.06625052;-0.03419187;0.03057757;0.06165054;0.10000532;-0.04328948;-0.04973052;-0.06868811;-0.08450727;-0.046196245;-0.04977657;0.11108468;-0.028699564;0.072250344;0.0043049892;0.09621125;-0.07364781;0.06140263;-0.0022221915;-0.068086125;-0.16249157;-0.022060351;0.058131155;0.13665923;-0.09385469;0.006398497;-0.024206746;0.008884679;0.017499268;-0.036027674;-0.0122472495;0.08486882;-0.036947254;0.03690313;-0.02800632;-0.06827218;-0.06851197;0.023313662;0.057438545;0.09191897;-0.07031338;0.030533003;0.042778168;-0.043770894;-0.07822261;-0.06564532;-0.0762467;-0.05532071;-0.053218998;0.01178846;0.039946303;0.014411834;0.05998571;0.057344567;0.03232548;0.031579677;-0.012385139;0.083581656;-0.07863322;0.016525405;-0.11090044;0.010365763;-0.039474096;-0.04791232;0.026829595;0.12913983;-0.036453277;-0.008969214;-0.02737988;0.08031701;0.15843053;-0.054123275;-0.022098001;-0.0037725142;-0.020169815;0.029821964;0.09986701;0.017085895;-0.01219595;0.03369455;0.010586861;0.04026063;0.08265136;0.036187273;-0.041856214;-0.041926213;0.033518527;0.009157252;-0.05122206;-0.040453207;0.04365934;0.0584543;0.018417213;0.0226173;0.018701166;-0.02106201;0.05763094;0.05841942;0.11220396;0.0071578026;0.06569338;-0.06151682;0.04057013;0.02961856;-0.11076983;-0.08204398;0.0940543;-0.10313944;0.081747286;0.09636264;0.023905741;0.091494836;0.11651044;-0.051376272;-0.011446971;0.07066958;0.075640544;-0.03381299;0.042997178;0.00971179;0.1143577;0.04254699;-0.045787882;0.06855228;-0.0056424793;0.019608393;-0.034591235;0.0949764;0.015955007;-0.03374318;-0.0057648364;0.06910754;0.06281725;0.025664896;-0.021581791;-0.0511342;0.040109888;-0.018862726;0.10595424;0.061301388;-0.0047374205;-0.017036935;0.14563054;0.009335742;-0.02018774;0.07640802;-0.053278513;-0.07255165;0.07532937;0.013692369;-0.08566649;0.067688964;-0.06544874;-0.004911612;0.07464881;0.018744873;-0.103098735;0.10467888;-0.063832;0.08566446;0.09127996;-0.10433777;-0.06557425;-0.025057143;0.06296792;0.019604195;-0.03697223;0.001395238;0.07107068;-0.035313845;-0.026083332;-0.011427269;0.13878423;0.050237622;-0.026898682;0.08212482;0.03546146;-0.096324235;0.076931044;0.038282778;-0.06153716;0.025930485;0.03281162;-0.043760262;-0.0698366;0.031022817;-0.027015716;-0.05187369;0.01948116;0.022753961;0.037045725;0.08876546;-0.054195635;-0.012946052;0.05949129;-0.05387397;-0.045456454;-0.06465841;0.05252121;-0.013943821;-0.003888858;-0.024202535;0.0049428726;0.050441723;-0.07358314;0.09259189;-0.044928838;0.04157783;0.07269672;0.04182269;0.057290565;-0.02053739;0.018309876;0.07699715;-0.0029153018;-0.1801849;0.0038886962;-0.025398787;-0.04492666;0.08649667;0.004684847;-0.06674342;0.026455084;-0.04730527;-0.059881207;-0.00068125164;-0.014867815;0.01153292;0.036104742;0.041866124;0.0578831;0.019532422;0.05673103;-0.032168683;0.08092134;-0.11754291;0.023574576;0.002314114;-0.018138044;0.020376172;0.00048191164;0.0758873;-0.015632177;-0.034956314;0.108065896;0.044830248;-0.04949408;0.08864302;-0.03614945;-0.07194558;-0.006974078;-0.027937725;-0.0026705936;0.09171002;0.10937882;-0.07666564;-0.047022644;0.014501049;0.048588548;-0.040731438;0.086195655;0.015102814;0.057270586;-0.01333388;0.026580155;0.017427988;-0.037488963;-0.029513862;0.044776496;-0.03843495;0.06410137;0.033811856;0.04264802;0.08196282;-0.05167174;0.034640577;-0.049305234;-0.051067233;0.013330516;0.063683696;0.011854233;-0.026939401;0.008268921;0.09894609;0.076285034;-0.09771413;-0.05203376;-0.050527714;0.025133839;0.03334327;0.016672507;0.07746636;-0.062141076;0.14142813;0.032062907;0.116041064;0.052126884;-0.051353376;-0.035236035;0.049731728;0.06360425;-0.0011614282;0.06872049;0.16098616;-0.06378657;0.03567652;0.08277109;-0.00812734;0.017641237;0.07003873;0.14362304;0.04925504;-0.04459092;-0.04000212;-0.0010879805;0.0317749;-0.04815741;-0.1236511;-0.031281702;0.039933395;0.03784917;0.024452351;0.009847714;0.010318264;-0.019698007;-0.103082985;-0.0015187922;-0.03188113;0.034033272;-0.026075004;-0.029321441;-0.031005444;-0.050494853;-0.030844916;0.0017279125;0.05033188;0.14367458;0.048416138;0.08078873;0.0051916265;0.05671231;-0.028169177;0.10097607;0.0059779445;0.04526403;-0.026831495;0.016415576;0.086063504;-0.03630003;-0.0043194504;-0.038955975;0.08723774;0.06313276;-0.011772283;0.028460748;0.06573738;0.07119386;0.086372524;-0.06530384;0.06979813;-0.06473908;0.016778922;0.07104837;0.12824677;0.018389992;-0.028048733;-0.03895555;-3.9289673e-05;-0.022690732;0.07867325;-0.054397956;0.06538006;-0.10223424;0.008186136;-0.019771803;-0.0154623;0.031744238;0.0580222;0.06474434;-0.07547957;-0.024314752;-0.0012491997;-0.03770494;-0.011769106;0.1066339;0.04502929;-0.055526793;-0.02404176;0.040054396;0.025040293;0.060887154;0.071808286;0.03798248;-0.05093205;0.04186618;0.055264004;0.1022491;-0.061739706;0.01953244;-0.04109789;-0.00023881657;0.045700595;0.08873209;-0.034333367;-0.030716712;-0.043130696;-0.054014154;-0.024358567;-0.02625265;0.02329274;0.07510184;0.032279097;-0.040524546;0.012235272;0.059076414;0.049367826;-0.025739824;0.0135173295;0.04070304;0.07585383;-0.039159928;-0.008652363;-0.10018284;-0.03969044;0.0531741;-0.029382547;-0.0864958;-0.05810551;0.087771736;0.10729341;0.03332284;0.07712656;0.021546282;-0.040924042;-0.020130567;0.07725112;-0.0039333254;-0.0066154255;0.043103226;0.07153742;0.029108444;-0.022326656;0.077169485;0.030578487;-0.018988814;0.15904553;-0.0077919033;-0.007361906;0.07917002;-0.016258065;-0.08587302;-0.054227103;0.001811795;-0.017012974;0.04907373;-0.019849354;0.039882567;0.050668232;-0.07101439;0.010936775;-0.009114874;-0.0037513159;0.07261345;0.06822395;0.06718264;-0.017976826;0.050907336;0.04655227;0.014120742;-0.013583243;0.0109009845;0.01943407;-0.03638505;0.0025515337;-0.0149312625;0.019235792;-0.15418267;0.032627366;-0.032515217;-0.055580474;-0.012449064;-0.02436449;-0.055094663;0.027210806;-0.0062801726;0.060395446;-0.0031501807;0.021092523;0.028744409;-0.054724433;-0.04974478;0.061125353;-0.06422224;-0.0003486216;-0.05763716;0.048843153;0.03220098;0.05450253;-0.013036119;-0.031735554;0.06824245;0.08965245;0.07010915;-0.035113327;-0.008833023;0.0047595855;-0.0982334;0.121891074;0.00639624;-0.024055922;-0.064004995;0.05470691;-0.0043612574;0.080187656;0.07549411;0.0369377;-0.07725725;0.09333367;0.092142865;0.013762795;-0.039811783;0.046231177;0.10129023;-0.06408828;0.09310933;0.08799364;0.0007368987;-0.09000147;0.07827717;-0.07628212;0.047966804;0.0043778946;-0.0058874516;0.009279587;-0.03755502;-0.05752684;0.038760863;0.020607904;-0.044175647;-0.013244294;0.08402212;-0.0084786145;0.091410995;0.036922686;-0.0026669123;-0.017882613;0.022799907;0.020170793;0.048257295;-0.037816238
-0.040646896;0.04639565;0.010712289;0.020183306;-0.029450212;-0.16049145;0.0008311601;-0.057726655;-0.047422998;0.10613344;-0.05508981;0.0054024477;-0.09698703;0.029941816;0.03209758;0.029883701;-0.03365137;-0.022971248;-0.11165949;0.057286214;-0.0499965;0.08471278;0.07596455;-0.11084309;0.022604343;-0.031333562;0.06890782;0.09156642;0.024617052;0.0087719085;-0.063032314;-0.14061476;0.011207924;0.07828928;0.030178891;0.019223172;-0.06964724;0.06439838;0.062856965;-0.043269426;0.055497758;-0.015221392;-0.06750034;0.014510584;0.071063794;0.030103529;-0.13690424;0.016975231;0.005663638;0.08851174;-0.018886317;0.013340683;-0.05286962;0.0541561;-0.047023717;0.012452721;-0.038622167;0.030472707;0.0051738955;0.02606029;0.017362842;-0.05807759;-0.018740483;0.008715168;0.05941813;0.07020471;-0.13732503;0.018522529;0.03860213;0.042114135;0.0108706895;-0.062336177;0.077859946;0.029524708;0.079617575;0.01969002;0.019007724;0.00070317474;0.11863918;-0.0016908825;0.042286314;0.032326173;0.05387412;-0.029981801;-0.051319107;0.014768095;-0.09053074;0.0035173607;0.006355362;0.03132087;-0.01428692;0.10350417;-0.026284833;0.02339812;0.05882032;0.0044876253;0.023017842;0.06495389;0.03205653;0.08552665;0.060401168;-0.06410412;0.006974146;0.033778038;0.082960784;0.035229035;0.012169247;0.03873885;-0.018279066;0.05548677;0.048275545;0.06285733;0.0029263836;-0.020478616;0.02281648;-0.04638051;-0.005338718;0.09164687;-0.024366805;0.021435676;-0.06515618;0.011268253;-0.045340817;-0.042684864;0.14921185;0.034030024;0.037057143;-0.092826806;-0.030192511;0.03578501;-0.21455483;-0.013421986;0.12533969;-0.081354;0.027673261;0.08983593;0.004982389;0.13316965;0.06561872;-0.1917112;-0.043003473;0.012981799;0.14616396;-0.13225639;0.04076251;-0.032274608;0.053006392;0.055273;-0.022568421;0.11497231;-0.07247378;0.03455851;-0.02568675;0.093576446;0.0122972755;-0.04722667;0.02985654;-0.020230753;0.07767513;-0.06500352;-0.022281999;0.057155147;-0.07105086;0.00801591;-0.03935808;0.027536085;0.026280796;-0.036583923;0.03897005;0.02953712;-0.046539042;0.044357397;-0.020852637;0.0924372;-0.05750647;0.02920888;-0.07695875;0.06529675;0.025263;0.08951237;0.06030055;0.0127063375;0.037032943;0.043714862;0.06009107;0.06100773;0.10170801;-0.046854347;-0.012468359;-0.03218671;0.03382993;0.061036408;-0.01722111;0.077571765;-0.051120684;0.074658096;-0.057027582;-0.027494378;0.002429772;-0.05393656;0.05920815;0.09487737;-0.019622775;-0.15120652;-0.038834274;-0.0056135193;0.07169142;0.03975255;-0.07821043;-0.040758383;0.0654356;0.06647905;-0.0070115705;0.12545042;-0.074230365;0.015202832;0.101644196;0.026337571;0.04857019;-0.004573524;0.048935067;-0.018763555;0.041752912;0.073702574;-0.093632996;0.05739572;0.07820759;0.08831396;0.09039847;-0.018136049;0.026004935;-0.031281017;0.041147128;-0.015649011;-0.024670437;-0.032849316;0.0781521;0.03365138;-0.046907045;0.09859134;0.030359335;-0.11707364;0.07641113;0.03695131;-0.0069818087;-0.015806422;0.025813026;-0.015396782;0.07699516;-0.10377892;0.002883356;-0.01840422;0.03921072;-0.015382501;-0.06125057;0.07214924;-0.03540945;-0.032472778;0.08234907;0.025722453;0.061882626;-0.00740355;-0.025820734;-0.03647065;0.05331474;-0.04912979;-0.07564079;0.06210275;0.042688426;0.063157566;0.076571085;0.07836142;0.030956216;0.059058458;0.120610766;0.09618426;-0.016358156;-0.091975056;-0.022201447;0.0053281873;0.035232864;0.07273782;-0.042831983;-0.058395024;-0.07918573;-0.032511663;-0.05435278;-0.029691074;-0.060508497;0.09053341;-0.039792795;0.11484733;0.018643681;-0.034346752;0.06414041;0.0062718517;-0.00044859454;0.089008585;-0.009727196;-0.019874856;-0.07667095;0.0992472;0.007861293;0.04873998;0.10711187;-0.027517648;-0.0326953;0.044892307;0.025914643;-0.05752113;-0.05268419;0.053926706;0.026860522;0.04391263;0.08689071;-0.023364605;0.0059043835;0.056958914;-0.016374582;0.05504462;0.09777807;-0.0927155;0.060888287;0.017150449;-0.048528332;0.10216623;0.10358883;-0.05545928;-0.05678536;-0.023731386;-0.008160469;0.042714078;-0.022916617;-0.04047034;0.04495295;0.07336319;-0.01571077;-0.022696141;0.08776754;0.051632892;-0.057648156;0.084239066;0.0024720873;-0.11469141;-0.0291353;-0.060807757;0.063808404;0.08102231;-0.03137176;-0.0048242067;0.06507492;-0.049246512;0.02903735;0.016051706;-0.015540227;-0.015907882;-0.03966952;-0.098706126;-0.021513637;0.0040042107;-0.017104756;-0.018233972;0.0640185;0.07465188;0.075356014;0.04483733;-0.010989407;0.04668738;0.042814184;0.040380146;0.07029464;0.012243598;0.05165045;0.034322783;0.034256294;-0.06137257;0.004431754;0.09463082;0.015984485;0.08482499;-0.026955787;0.020656597;0.08818045;0.09641274;0.011288684;-0.07076199;-0.061191224;-0.015302816;0.018853998;0.07072459;0.042169392;-0.028454868;0.063771084;-0.055512056;0.056471847;0.103861146;0.005844731;-0.019907985;0.003963869;0.048512325;0.09577456;0.008233136;0.0059860665;0.010541817;-0.05966237;-0.07372304;-0.007572423;-0.006928318;0.066091515;-0.03448565;0.003494115;-0.105620965;-0.0669937;-0.04119163;-0.013860694;0.03072007;-0.051736247;0.103181444;0.068777464;-0.037881296;0.06274976;-0.08073593;0.058566626;-0.032674693;0.016420128;0.017222505;-0.0031664765;-0.0059550474;0.09298052;-0.014622488;0.060117442;0.111692354;0.03631571;0.0647388;0.045787014;0.06036823;-0.03373338;0.061720803;0.027910337;-0.009854773;0.025879897;0.051619638;0.073944636;0.010865625;0.003217189;0.16389714;0.06427834;0.06228905;-0.15841144;0.057893492;-0.030895399;-0.06477059;-0.018346194;-0.061300233;0.066894576;-0.04465568;-0.008074997;-0.015267576;0.03723831;0.08996811;-0.12343434;0.0027765615;-0.07697775;0.03734382;-0.018021395;0.009540556;0.0435908;0.027158841;0.012422039;0.09395572;0.017986473;0.093866415;-0.041913994;0.003943057;0.047866866;-0.016311014;0.052428205;-0.030734308;-0.018217176;-0.06008376;0.025692713;-0.037774783;0.0054827332;0.072881445;-0.019205846;0.004957749;-0.051260166;0.088888735;0.009702382;-0.013881543;-0.11028665;0.004285083;-0.05775131;-0.032454483;-0.04273051;-0.012636071;0.0009758697;-0.01813614;-0.070087865;-0.046253476;0.0049492;0.006976579;-0.07588976;0.033463474;0.08651327;-0.022540713;0.005346967;-0.073131785;0.027193213;0.08427395;-0.049376406;-0.01410524;-0.017021002;-0.039883323;0.05311792;0.031847507;0.029996993;-0.008077004;0.026087347;0.09825215;-0.1345078;0.107151836;-0.06414132;-0.018623741;0.12626515;-0.06746396;-0.022441573;-0.029997505;0.07452784;0.012946719;0.04193408;0.08795537;-0.021629607;0.007411766;0.015325025;0.07400895;-0.08681574;0.028232198;0.06378544;-0.035096776;0.07206089;5.2374133e-05;0.011284191;0.023833742;0.13383822;-0.009822213;-0.04488443;-0.0025314952;0.15261771;0.05462782;0.120438956;-0.05072561;-0.007715999;0.09636445;-0.047095526;0.04729988;0.034207623;-0.030860247;-0.01204882;0.03342058;0.08370172;-0.0016288016;-0.026301434;0.061123822;0.0059749587;-0.04561602;0.042913668;0.08689884;0.06987574;0.036300387;0.060025204;-0.020770965;0.06785608;-0.06864739;0.071920596;0.06382491
0.06541171;0.06019933;0.028440844;0.035656407;-0.04094042;-0.044764474;0.08520412;-0.07457307;0.005624443;-0.011501931;-0.05319971;0.009452676;-0.010977894;0.10084603;0.015020057;-0.06600155;0.049278453;-0.047057413;-0.0053960793;0.021382807;0.008910039;0.019761287;0.0908754;-0.11849439;-0.03500177;-0.031728312;-0.050367285;-0.005095498;0.067984894;-0.03979235;0.04738621;-0.12497907;0.05714377;0.0070530362;0.008496264;0.07315748;0.06467883;0.044953924;-0.027900247;0.055171773;0.04154569;0.037092406;-0.10495019;0.037721176;-0.056670945;0.04572743;-0.14531855;0.010043883;-0.06899852;-0.05445347;0.034607366;0.0981346;0.016159983;0.08594896;-0.069560796;0.085890196;-0.019816115;0.05879792;-0.041056115;0.06366365;0.05725705;-0.13769431;0.06896378;0.07507027;-0.06263421;0.036772534;-0.07047999;0.017811526;-0.008103671;-0.062777996;0.032310106;-0.01301377;0.007814869;-0.009344408;0.06696217;0.022184322;0.06086047;-0.008664531;-0.0023184863;0.018664613;0.012646571;0.12940831;-0.049642332;0.03399218;-0.053647846;0.0049333265;0.04863829;-0.05623276;0.044781294;-0.057316743;-0.043844864;0.10952656;0.062269066;0.048127573;0.034612443;0.02253565;0.014581861;0.00055632147;0.07152119;-0.008673414;0.08124608;0.005030177;-0.02103454;0.04643957;-0.043293398;0.050855424;-0.052730918;-0.03555833;-0.009721711;-0.026619136;0.053983394;-0.100803256;-0.03150621;0.07496026;0.018853556;-0.054536093;-0.01681928;0.035156924;0.07894391;0.008338224;0.07325993;-0.057563197;0.024706895;0.00781464;0.05161018;-0.0020624378;0.09912294;0.044653926;-0.016870508;-0.03508518;-0.19667102;-0.068515114;0.0019414661;0.038503837;-0.028351922;-0.03405458;0.04774614;0.08731773;-0.037684817;-0.11180841;-0.0028792534;0.072613664;0.12050706;-0.066348396;-0.06739471;-0.018756334;-0.018965716;0.055637207;0.036970638;0.010889119;0.058235466;-0.05539994;0.07124772;-0.03512006;-0.053810135;-0.06562375;-0.055148408;0.032374214;0.017533945;-0.044767395;0.091709375;0.0077552446;0.018880231;-0.037781674;0.042051103;-0.025368862;-0.013619233;0.07134701;0.09437033;-0.04603485;0.055580325;0.057823885;-0.043288138;0.09069532;0.034894913;-0.031059736;0.049066473;0.09923128;0.06910426;0.0106466515;-0.04397174;-0.058682147;0.016080987;0.03612679;0.07959422;-0.04825249;0.00076187757;-0.020447373;-0.016179677;0.07192902;-0.04229549;0.02116155;0.02598419;-0.009484349;-0.05292775;0.012485696;-0.052807488;0.025998712;0.045039225;-0.038834915;0.06335479;0.009527828;-0.009108353;-0.11015705;-0.03891734;-0.011644162;0.06397198;0.0377517;-0.058684044;0.06753475;-0.029745722;0.054171473;-0.07450514;-0.027029652;-0.028078998;0.052847255;0.0494532;-0.038951397;0.01794585;0.074551836;0.074256;0.08913889;0.013881884;-0.002735678;-0.06583368;-0.029051391;-0.048044804;-0.057139434;0.040048067;-0.00658526;0.031271927;0.020594731;-0.012299219;-0.03667461;0.045188848;-0.014716022;0.062798224;-0.07916145;0.009496472;0.021471232;0.0513724;-0.0542266;-0.021669982;0.06262969;0.067227565;0.08845389;-0.05933914;0.005362713;-0.06011358;-0.050676603;0.009889325;0.028903365;0.09324726;0.04438352;0.069247514;0.023157993;-0.021712866;0.00046365135;0.055400014;-0.09538376;0.0901859;-0.111004576;0.09516795;0.055623025;0.010525972;0.07050072;-0.061024707;-0.046453297;0.05854245;0.06938173;0.097461365;-0.055462934;0.05668873;-0.036276836;0.08826948;-0.042650826;0.08782175;0.026009556;-0.027066005;-0.014501224;0.026850466;0.09414241;0.013028862;0.04190042;0.05059709;0.021605268;0.004342801;0.09997806;0.05054903;0.103701174;0.03817648;0.09753334;0.016175376;0.08489453;-0.042660363;-0.05574589;-0.07160606;-0.030794743;-0.0240975;-0.049424555;-0.0068191467;0.14300731;-0.04233608;0.011451695;0.03490705;0.05880157;-0.05413874;-0.1291335;-0.030191902;0.012333745;0.006793699;-0.10945585;0.050164;-0.050365545;0.036390644;0.04333712;-0.0011929403;-0.06493272;0.021639934;0.056728464;0.016829943;0.009360051;0.071108095;0.029808972;0.07089446;0.015752753;0.0868041;-0.04021701;-0.06863709;0.084136456;-0.06433172;0.0104521755;0.0020733324;-0.010020833;-0.015951447;0.07604962;0.11164193;0.0047882413;-0.06315012;0.053644463;0.055786524;-0.031830538;-0.008344614;-0.108361304;0.06615717;0.004185219;-0.0063360445;0.009844093;-0.08609424;-0.014857905;-0.112239346;-0.12809259;-0.057841238;-0.019289304;-0.07162406;-0.002241301;0.06123085;-0.059140347;-0.07582673;0.009318218;0.040016167;-0.058072146;-0.045071833;0.0651251;0.079312645;0.026689755;0.035001498;-0.014803753;0.03948261;-0.057643317;0.010776856;-0.06864338;-0.0884075;-0.01857988;0.053914484;0.035894837;0.01839443;-0.043482177;0.084864944;-0.07728754;-0.0004362022;0.089581296;0.064477734;0.015589433;-0.05157618;-0.013467834;-0.020897117;0.06553401;0.06585845;0.086614035;0.028857624;0.02855646;-0.00013809052;0.020294214;0.05348601;0.018037679;0.071582876;0.050546315;-0.08751576;0.04858479;-0.06265931;-0.00092770974;0.03201353;0.061999466;0.06901378;0.04438566;-0.081239365;-0.0028209842;0.068400174;0.016165424;0.121699564;-0.11041023;-0.05741667;0.049243834;0.070347734;-0.035623617;-0.03768092;0.062185805;-0.036023878;-0.0041011255;0.036767054;-0.051508673;0.038920697;-0.06864744;0.044487022;-0.010648224;0.046888005;0.10390015;0.047294956;0.04437144;-0.020255243;0.10227643;0.07290852;0.062607534;-0.05876746;-0.056441884;0.06609108;-0.012136356;-0.06640433;0.042757176;0.025694314;-0.06645019;0.0022477007;0.057622872;0.077782504;0.010051112;-0.035113927;-0.005832905;-0.13786776;0.054575946;-0.012118664;-0.07333657;0.07878927;-0.071275696;0.026536673;0.061201423;-0.071062766;0.09668593;-0.06335638;0.056065496;-0.0028082607;0.03131927;0.05556138;-0.063435696;0.091130696;0.09361738;-0.00027934962;0.06216638;-0.060948778;-0.0074483557;-0.021825848;0.10136427;0.051896386;-0.06756358;0.10979803;0.04692654;0.04647931;0.10097286;-0.01677236;-0.041100487;0.00088245067;-0.05552482;-0.02553267;0.03001286;0.02086086;-0.03316085;-0.045750145;-0.0417786;0.10748175;0.05237834;0.022568075;-0.06743159;0.0349545;-0.056993984;-0.061409637;0.056895252;0.074081495;0.022734104;0.0071644033;-0.07502233;-0.03457605;-0.07515644;-0.033088926;0.03919267;0.068633616;0.0669411;-0.00042638317;0.051710658;-0.066955835;0.04663202;-0.04447881;0.07130978;-0.053682636;0.1045874;0.059578158;0.065486774;0.01453741;-0.007370424;-0.104861595;0.06591772;-0.03912528;0.0744197;-0.060812294;0.037560724;0.100061566;-0.11686832;-0.053699683;0.015028646;-0.0298366;0.055386234;-0.0877607;0.11871;-0.06379547;0.05121522;-0.025192153;0.11257947;0.07941928;0.04689087;0.0893937;0.0772488;0.029666843;-0.058252867;-0.11423879;0.060965005;0.09130548;0.069752656;-0.05300057;0.014828793;0.11312894;-0.019704392;0.049719207;0.06530899;-0.0111107305;0.11320876;-0.05868053;0.0393694;0.06669358;0.04229793;0.027124936;0.032026738;-0.06826298;0.016664049;-0.026192203;0.074784085;-0.066112444;0.0069393446;0.033915415;0.08842598;0.051176596;0.022590557;-0.04321718;-0.007070303;-0.118239224;0.08967144;0.056689505;0.08186712
0.02466102;-0.012457335;0.05188507;-0.026658855;-0.04216981;-0.15526901;0.022013895;0.06571212;0.09138866;0.114720024;-0.02988754;-0.0659993;-0.079432145;0.038215935;-0.054764744;-0.10302742;0.062460646;-0.035579827;-0.04262372;-0.017930599;0.067388706;-0.04433165;0.066370435;-0.1467043;0.052362952;0.08940105;-0.043998577;-0.0020084146;-0.058831125;0.112619676;-0.103779934;-0.12078875;-0.06760646;0.08176799;-0.053207602;0.008812257;-0.035394154;0.012066996;-0.0005996523;-0.000978577;-0.04833969;-0.009937396;0.055351667;0.00053793896;-0.07146922;-0.047205865;-0.19363132;-0.042028584;0.08152916;0.04532505;0.09442895;0.026858117;-0.012895724;0.031980477;0.024725812;0.020865604;-0.01912424;0.14686225;0.057678506;-0.019552296;-0.019980228;-0.12625058;0.070332214;0.031131946;-0.002956928;0.05792603;-0.07294076;0.0041053;0.07418138;0.054349635;0.055285063;0.048627812;0.036947966;-0.05628153;0.10560274;0.051193275;-0.058610283;-0.012731187;0.072161354;-0.01505731;0.00012252817;0.10590492;-0.034337707;-0.0415056;-0.12803948;-0.06627628;0.0074359225;0.11465554;0.07125191;-0.05120691;0.042276103;-0.012899767;0.036555704;-0.062936075;-0.07401983;-0.026679698;-0.034577835;-0.04347949;-0.023772659;0.09009088;-0.022391776;0.047329277;-0.04586306;0.08869992;-0.020155484;0.07807566;-0.052649353;0.0105279675;-0.06380619;0.028802136;-0.059849795;-0.0104637025;0.05868005;0.078981;-0.07318358;-0.09272452;0.042018086;0.032513123;-0.05098405;0.03638485;-0.020353409;-0.049351394;-0.043531906;0.027974138;0.031026531;0.020538606;-0.0085647805;-0.06425702;0.0005480158;-0.080795184;-0.08274409;-0.10648434;0.05164917;0.088956974;0.08501295;0.0050490675;0.07409999;0.10710612;-0.03483766;-0.15633927;-0.025713481;0.072918;0.09183695;-0.024782715;0.12494739;-0.047621004;0.013981016;-0.022932634;-0.031215243;0.0053012953;0.09258533;0.07908096;-0.06476208;0.09244136;-0.0125921955;0.039029084;-0.021021945;0.12195867;-0.030265337;-0.032237202;-0.069918245;0.12622327;0.026994476;-0.019631643;0.042148072;-0.113470346;0.053018633;0.054208763;0.06772625;0.025281366;0.07073007;-0.07127225;-0.014244512;0.06549343;0.031042565;0.0034572363;-0.06484548;-0.034023955;-0.022949146;-0.04838657;-0.044185307;-0.01788662;-0.010889235;0.01023622;0.0787572;0.1557186;0.0144506;0.07607943;-0.065216735;0.057330117;0.04800753;0.030688735;-0.032038093;0.07504302;-0.04833737;0.024166096;0.0071327537;-0.03239344;0.09969855;-0.03614107;-0.09115191;-0.057384025;-0.010227741;-0.11534573;-0.074545324;0.051012445;-0.02230681;0.08471736;0.013557775;0.034815304;0.029822614;-0.044566963;-0.024193507;0.10241131;-0.09903565;0.09284689;-0.057256933;-0.049854003;-0.049259875;-0.017030697;-0.03501148;-0.06667055;-0.0070828157;0.059499655;-0.04178978;-0.044360675;0.03202942;0.10714442;0.038896605;0.011102655;-0.041805994;0.029396325;0.024361916;0.08446545;-0.10240419;-0.068962604;0.056111597;0.0821602;-0.052913;0.0030082758;-0.07002936;-0.062129706;0.07567103;0.07350391;0.08806787;0.06033997;-0.04832671;-0.033518244;0.07705301;-0.05902443;-0.04539597;-0.052713305;0.060314387;-0.04422147;0.07293127;0.034890722;-0.010186953;-0.022348758;0.09219775;0.0104030995;0.090304144;-0.041329026;-0.009839695;-0.0009864421;0.10417203;-0.050377697;-0.056547992;0.0698512;-0.023652986;0.084209904;0.09455839;0.05268538;0.04408341;0.09302429;0.014568035;0.05604694;0.12976618;-0.034941256;0.023452189;0.07620795;-0.0019647833;-0.04275005;0.008949309;-0.07687613;-0.06556285;-0.059884235;-0.04163084;0.06810817;-0.020882767;0.030411279;0.09341691;0.040316347;0.06362431;0.024607943;-0.05437315;0.080377;-0.016973333;0.07525709;-0.060636625;-0.06326244;-0.06516502;0.07671433;0.0979633;0.07074029;-0.017428067;0.06451693;0.053628188;-0.11264466;0.034584567;0.069099426;0.06015133;-0.061359167;-0.009115972;0.03430241;-0.055893216;-0.038536623;0.0670966;-0.056047115;0.052932207;0.04609984;-0.0033940678;0.029802524;0.118272774;-0.055209912;-0.052766148;-0.020211611;0.01892749;0.01404898;-0.02403105;0.069536425;0.05902931;-0.04469123;-0.029316768;-0.016852852;0.015887605;0.036666658;0.12454252;0.034909565;0.09072286;0.00048565312;0.004325727;-0.04704504;-0.024492865;-0.096873514;0.002608835;0.069268316;0.06477344;0.14226198;-0.025861694;-0.01663841;-0.017936762;-0.041523878;0.085541144;0.08863858;-0.014531057;0.017319659;-0.061105393;0.0001372194;-0.07955699;0.021925151;-0.028346756;0.06312211;0.0027069051;-0.030551178;0.039020088;0.07038675;-0.007862365;0.09402187;-0.061568096;0.014603379;0.06317926;0.041264933;-0.06520555;-0.005026757;0.024447555;0.0028186343;0.114127785;0.05246252;0.0011924078;-0.066740125;0.02922854;0.013385572;0.085645266;-0.0050923973;-0.010441545;0.059709463;0.041374113;0.073831156;-0.0132666305;0.08795256;0.015908659;0.02263265;0.011068763;-0.05092613;-0.029355222;0.01470475;-0.004078246;-0.008885484;-0.15958679;0.0564523;0.07422316;0.022248333;0.006002219;-0.015642341;-0.055888724;0.052261446;-0.14695644;-0.08861166;0.08731171;-0.014290954;0.050131243;-0.082812026;0.035872407;0.10046511;0.048266448;0.07465528;-0.060866687;0.15797094;-0.003129636;0.019623585;-0.0470268;-0.0981884;-0.035963807;-0.07343187;0.0042522764;-0.054848816;-0.058914777;-0.023308532;-0.07876677;0.00074542064;-0.08123552;-0.02091942;0.023200061;-0.016064513;0.068295;0.06759918;0.08904868;-0.06548473;-0.07696817;0.006709703;0.008122888;0.08309152;0.002770702;-0.014045967;-0.04992639;0.115543;0.05280024;0.08613505;-0.060849126;0.014557433;-0.020373186;-0.14053088;0.075029455;-0.0015848607;-0.01333101;0.08335681;0.0798682;-0.029764203;0.023948694;0.06570273;-0.0822725;-0.060514268;-0.0028063452;-0.042122494;-0.0050793467;0.09150901;0.12188812;-0.056490548;-0.037761003;-0.0103802625;0.034234874;0.17570107;0.03045492;-0.025398985;0.12542747;0.08479923;-0.04415183;-0.03459897;-0.033441473;0.06273508;0.10663896;0.01876232;0.0050419793;0.07223951;0.06931712;0.057375316;0.07790917;0.026886519;-0.0027495797;0.041532032;-0.055558223;-0.06898377;0.037867665;0.05513265;0.08007661;0.015103036;0.022759745;0.066713184;0.02061677;0.034833424;-0.007791985;-0.07253599;-0.01219535;0.06615587;0.033182282;-0.020192388;-0.021131737;-0.026268532;-0.005700481;-0.069742955;0.028306006;0.12994172;-0.027498286;0.07507191;0.083752714;0.031171028;0.059058685;-0.011340728;0.06078857;-0.013111067;-0.13713087;0.0034488551;-0.033747453;0.031305067;0.04179634;-0.017099101;0.08011321;-0.01234439;-0.06566591;0.07347229;-0.09886684;0.06898427;-0.020775292;0.052784935;0.0004583719;-0.033659603;0.07495299;-0.027073054;-0.015694598;0.010140458;0.023391934;-0.046245538;-0.06729981;-0.060818687;0.007341904;-0.061841;-0.014598284;-0.048451815;0.013363008;0.018384682;0.15189905;0.007508632;-0.053947672;0.060315385;-0.00050895265;0.0043483935;-0.0022732082;-0.061316226;-0.030341346;-0.055523228;0.024015786;0.011654732;-0.014969119;0.024287464;0.036205005;0.038582098;-0.0027227341;0.042001456;-0.06462818;0.0485372;0.06278208;-0.07937379;0.057091516;-0.06659272;0.023067085;-0.028512346
-0.03744915;0.05319055;0.004853815;0.073871225;-0.035604928;-0.030356208;0.017680563;0.018533366;-0.013530001;0.09748771;0.003609927;0.040504165;-0.04333735;0.09663292;-0.08540152;-0.079781756;-0.026610995;-0.028066419;0.021170232;0.030522814;-0.03593986;0.03864715;-0.056053773;-0.14927077;0.01170003;-7.243532e-05;0.08180596;0.061617155;0.060190964;-0.0137351435;-0.029313095;-0.11973465;0.092270434;-0.020338245;-0.010051536;0.060729135;0.07834105;0.03318157;0.020998305;-0.02756327;-0.055261303;-0.008685703;-0.08661694;-0.038182568;-0.11491043;0.082682066;-0.16410117;0.01718;0.065950096;0.031091621;0.053732906;0.0823774;-0.010859693;0.104900315;0.010042063;0.04365731;0.011859746;-0.01515267;0.018825976;0.0605078;0.024856927;-0.065622;-0.0750408;0.15579687;0.038755696;0.0067493045;-0.15121561;0.048283994;-0.006169136;0.10117469;-0.041597363;0.01992017;-0.025691573;0.0017280659;0.13724615;0.00040672586;-0.01652177;0.006625424;0.07241592;-0.05934057;-0.054406323;0.12493642;-0.09648478;0.013190519;-0.103932515;0.07462997;0.030127754;-0.034994904;-0.06554666;0.063631974;0.029584412;0.020219035;-0.057191703;-0.00075915677;-0.13005131;-0.022709914;-0.04210985;-0.087443635;-0.07594452;0.0037526514;-0.018290421;-0.04425912;-0.097938545;0.14248592;0.10666202;-0.00553579;0.049342997;-0.08847416;-0.058635835;0.04735341;0.07021653;-0.071466;0.012977336;0.0870906;-0.06306293;-0.07673406;0.0021269824;-0.036363564;0.03271193;0.07429689;0.03308865;-0.0387833;0.005875827;0.013521031;-0.12485748;-0.021244794;-0.031160649;-0.0060983202;0.035690747;-0.040428083;-0.13010447;-0.05747849;0.099141195;-0.043662686;-0.00703027;-0.012995752;-0.042248238;0.0369422;0.04622003;-0.0840374;0.012400489;0.057916645;0.105113156;0.029739706;0.033664476;0.054109864;0.03262647;-0.03488335;0.09360778;0.0149571095;-0.0052999635;0.021424077;-0.040613372;0.05544302;0.10000538;-0.037535097;0.0277343;0.13089257;0.09599047;0.011157756;-0.011739358;0.024010587;0.030501354;0.009710008;-0.0055504562;-0.08813289;0.14485942;0.03481166;-0.022994246;-0.011703834;-0.002165141;-0.051825095;0.057674356;0.055296745;0.078674875;-0.02022103;-0.0150169525;-0.016178338;0.09536763;-0.037554033;-0.051591374;0.03990137;0.114770465;0.026343493;0.08816359;0.052938227;0.016838696;0.05441888;-0.04746866;0.08016505;0.07188488;-0.07366683;-0.053884096;-0.002866748;-0.041857928;0.059185307;0.005889447;-0.030625004;-0.0020058341;0.08977375;0.031981584;0.0604678;0.0026207573;-0.090051554;-0.064761505;0.028680839;0.07049146;-0.014026325;0.022229336;-0.060052823;0.08995436;0.060145006;-0.06326555;0.018810578;-0.11887615;0.055338394;-0.05676829;-0.027472634;0.009754529;0.046367712;-0.035474624;0.07797407;0.1393227;-0.09251299;-0.08813206;0.10242779;0.009008677;-0.009261674;0.015725788;-0.028528234;-0.008508455;0.077697635;-0.037049953;0.019259524;-0.10400031;0.020425085;0.038131434;-0.0879755;-0.06410711;0.101656444;0.04247539;-0.0037444178;-0.04298909;0.055807013;-0.004658807;0.022793889;-0.04179143;0.085150406;-0.02949845;0.0017817105;0.01884723;-0.045314416;-0.014542593;0.072472766;0.07520039;0.066789955;0.013125501;0.07034092;-0.086270876;-0.014983654;-0.002840065;0.078571744;-0.0159839;0.04655894;-0.047316052;0.036328882;-0.08340004;0.041817047;0.067204185;0.04913471;0.006834528;-0.005153422;0.071988195;-0.010266072;0.0510288;0.052724548;0.09034905;0.044729117;0.07295244;-0.069729775;-0.071564175;-0.018359356;-0.022448642;-0.010964806;0.054494068;0.04498742;-0.0670659;-0.041112337;0.049801618;-0.04758748;-0.040571455;0.0165697;0.022563078;0.0072721713;0.020353368;0.10634703;0.05016901;0.092997536;-0.08618083;-0.06672151;-0.032453742;0.14206548;-0.005219693;0.09881156;0.07987119;0.10397799;0.07789353;-0.13725647;0.03556428;0.05486202;-0.027738366;-0.002470855;-0.011733078;-0.032525614;0.029676773;0.052104704;0.08530477;0.031152824;0.05456513;0.035434812;-0.053754862;-0.123492494;0.09209037;0.07153042;-0.0020837395;0.06991941;0.0049139573;0.08735891;-0.018550342;0.03302476;0.0063493275;-0.03692602;-0.037750673;0.048621368;-0.08773786;-0.07914003;0.011944014;0.054409865;0.08738176;-0.018515969;-0.052744173;0.002583394;0.039556425;0.014917617;-0.058238402;0.043003906;-0.0058703762;0.10182527;-0.043373562;-0.02410865;-0.027937789;0.028230408;-0.031425167;-0.046331156;-0.0117326295;0.055404004;-0.08131117;-0.118238576;-0.015654143;0.077156566;-0.030767128;0.07620738;-0.08626627;0.03805294;-0.055371173;0.05541998;0.084648915;0.007463347;0.052772745;0.04874995;0.019971708;-0.115251526;0.019873561;-0.095759325;-0.086421646;0.015911175;-0.022167224;-0.05728016;-0.02404173;0.018107098;-0.034176435;0.050424304;0.0041354727;0.023474056;0.030544646;0.00500934;0.06384088;0.029289253;0.04328106;-0.0127548035;0.0062333085;-0.09684015;-0.06909968;-0.059192266;0.027476586;-0.0010502702;0.0036252448;0.02337274;-0.06047263;-0.058109805;0.047553357;0.013572511;0.0044460124;-0.023410844;-0.0812968;0.029840551;-0.17017628;-0.048220877;-0.0015282326;0.084527135;-0.014227386;-0.035285812;0.072171;0.0689078;0.007189053;-0.0655407;-0.04014645;0.13496882;-0.023214737;0.061936043;0.06313229;-0.046897043;-0.014390069;-0.010425652;0.0118233245;-0.023343243;-0.029170908;0.098557964;0.045151524;-0.052211575;-0.01064193;-0.053763032;-0.011668354;0.041328102;0.06842107;0.0031815283;-0.023028903;0.029585108;-0.057476074;0.046414975;0.046835788;0.04707323;0.021447064;0.07552132;-0.040996134;0.06877345;0.0006593376;0.09677525;-0.06690476;0.0067099454;0.05490405;-0.021318091;0.04996528;-0.032227922;0.122149885;0.029703636;0.045326844;0.116462;-0.062424548;-0.032454953;0.0629638;-0.06828897;-0.08540565;-0.002646544;-0.06082376;0.11073785;-0.0011281779;0.046419676;-0.061182436;0.09725934;-0.012079162;-0.00070468674;0.044751156;-0.026728226;0.096853726;-0.0059560766;0.0539158;0.13483512;-0.028558122;-0.0069487714;0.029420655;0.024001967;0.111940764;0.048629433;0.1296844;-0.019376922;-0.037428293;0.043848615;0.07867911;0.0018398073;-0.1145811;0.09556038;0.049618695;-0.03911179;-0.06257664;-0.03872579;-0.04467663;-0.014109521;0.08043255;0.008449278;0.080471314;0.06766347;-0.06415957;-0.03342118;-0.047944132;0.020961137;-0.039141156;0.007073342;-0.047568284;0.0028157767;-0.0036132562;0.11471011;0.038176134;-0.058185063;-0.045420308;-0.010008176;-0.070917144;0.02387824;-0.027084194;0.0055963704;-0.017385585;0.10306323;-0.05212638;-0.0812484;0.03514084;0.030921493;0.0037433312;0.06813767;0.065406874;-0.041198775;-0.13614173;0.06800726;-0.03136003;-0.006045255;0.03261968;-0.0652394;0.004316075;0.15058245;-0.032908946;-0.025682392;0.0003738103;0.029894859;-0.17075956;0.0688156;0.051018257;0.108435616;0.07232431;-0.04497511;0.108087465;0.021135803;0.05082291;0.112545624;-0.05320969;-0.10818496;0.06944208;-0.06341464;0.014770805;-0.08328456;-0.022729788;0.022509545;-0.014771427;-0.05087953;-0.062328644;0.012115298;-0.06849342;-0.007042111;-0.018210545;0.038327992;0.08250189;-0.052392818;0.05646783;0.03407607;-0.13186862;-0.058129236;0.06969731;0.009469791
0.07630068;-0.02090178;-0.032410428;0.0803525;0.09667184;-0.11048763;0.021398723;0.020659417;-0.066522025;0.024155276;0.011919882;-0.07030561;-0.014708155;0.14094391;-0.07743995;-0.14282313;0.045433797;0.03617175;0.08067679;-0.07310852;0.04104592;0.060346533;0.014985893;0.04523456;0.055434905;-0.11506606;0.059388056;0.09111576;0.035623144;0.00013001944;-0.057754517;-0.010782821;-0.0433132;-0.079995096;-0.00059136504;-0.059598375;0.019046001;-0.013173878;-0.06360537;0.113373324;0.026426734;0.061593477;-0.06295799;0.03677417;0.03035254;0.071732044;-0.1462018;-0.024828361;-0.094097696;0.016298436;0.025075799;-0.010484179;0.007938473;0.041521303;-0.042507116;-0.07132777;0.018766815;-0.05449701;-0.10743049;-0.078776345;0.014232659;-0.040711146;-0.052075148;0.034570754;0.050751623;0.001348083;0.028269753;0.00034716577;0.021758305;0.09625544;-0.051631697;0.044934932;0.065412164;-0.06259838;0.047382835;-0.08095192;0.0036976791;-0.013930412;-0.026509618;-0.032032713;0.010751088;0.017376339;-0.099227056;-0.05058984;0.09326177;-0.08301011;-0.0016072101;-0.07159095;-0.029828731;0.09082889;0.075976364;0.07269956;-0.043350227;0.08830852;-0.10235998;-0.07521415;0.008890031;-0.0902866;0.016789597;-0.0262801;-0.056631517;0.07362315;0.048400313;0.12566969;0.016281832;0.011471119;-0.025881248;0.0680659;0.053327672;0.04571234;-0.03170553;-0.009350105;0.1306459;-0.05679197;-0.03413549;0.022865249;0.03048159;-0.0077002416;-0.027740113;-0.038387775;-0.0151097495;0.05758119;-0.004452179;0.018667705;-0.09628031;0.008826445;-0.0016410423;-0.062056888;0.09112841;-0.05248042;-0.12575151;0.055639;0.09091669;-0.07685384;0.06823473;-0.10928429;-0.09000224;0.12045711;0.10605461;-0.028068513;0.050856117;-0.008821212;0.071052216;-0.08184013;0.01829391;-0.055552337;0.0007497062;0.07012497;0.09232157;0.0063678897;0.03501052;0.05860214;-0.06413459;0.0706376;0.09458835;-0.061757214;-0.028945282;0.07005531;-0.043205015;0.014291586;-0.0040545017;0.066875696;0.054376133;0.071599126;-0.038296226;-0.06746393;0.010719316;0.050730165;0.03736381;-0.0029347911;-0.034730155;0.073575005;0.040382043;-0.051741246;0.048497297;0.059025247;0.0022391598;-0.019436028;-0.034137733;-0.0010844781;-0.03464179;-0.020540655;0.034832947;-0.03197248;-1.7972241e-05;0.14409354;-0.025626618;0.038966946;0.041215293;0.018789347;-0.059051715;-0.0832067;0.004328652;0.08372262;-0.071886405;-0.020846881;0.14565207;0.07621096;0.046784602;0.0499029;-0.030039517;0.041450404;-0.013258981;-0.11716121;0.06602326;0.08008517;-0.025560705;0.059486903;-0.04208863;-0.072911926;-0.0034498894;0.08010511;0.015094123;0.061877888;-0.089998536;0.109166525;0.03837921;-0.009619253;-0.033285372;0.0006850114;0.04286936;0.0670555;0.045623567;-0.03631878;-0.026648546;0.08775233;-0.06523905;0.13066325;0.085499495;0.11420968;0.062150724;-0.06881382;0.08223789;-0.043254595;2.1860644e-05;-0.033757947;0.049077794;-0.13932958;-0.04301388;0.040885177;-0.09368258;-0.018746411;-0.045683563;0.042324096;-0.014207393;0.097045064;0.013390772;0.035823975;-0.042949114;-0.03141602;0.035542946;0.03308127;0.005613378;0.03419327;0.017796166;0.0015013199;-0.022045838;0.030069565;-0.07289405;-0.045386896;0.06518739;0.041050587;-0.06904802;0.072929956;-0.08856422;-0.030716168;-0.12010843;0.11815354;-0.029249022;-0.015014651;-0.002741044;6.505994e-05;0.018160092;0.11941619;0.03288282;0.032254767;-0.037924465;-0.029857084;0.035043646;-0.079535976;-0.008138666;-0.04268916;-0.00668923;0.08884696;0.08150196;-0.01977429;0.02608866;-0.04073475;-0.06011355;0.0849095;0.017722135;0.07936555;0.058377884;0.02029549;-0.069386035;-0.047947053;0.076592766;0.021495424;-0.0013470529;0.04490634;-0.055967666;-0.027920738;-0.056774985;0.17734157;0.024955787;0.103079915;0.08371106;-0.10256113;-0.038429383;0.014279629;0.030868407;-0.10982851;0.06782407;-0.056413632;-0.05452804;0.05243143;0.12324529;0.09638033;0.03603971;0.13283487;-0.00039991026;0.03904852;0.008506059;0.011586963;-0.04885368;-0.067318775;0.031969067;0.0552591;0.007445945;0.083541036;-0.034325864;-0.044543043;0.028478062;0.05833683;-0.0040036896;0.033280898;0.01843779;0.0058546555;0.09317357;0.061736796;-0.043730337;0.027233636;0.0747627;-0.09298167;0.0294028;-0.025423804;-0.0063351016;0.047551956;0.055846233;-0.0028325052;-0.12934871;0.017743478;-0.005328149;0.072638474;0.06003188;0.037524354;0.03176431;-0.067563474;-0.1036772;-0.016190065;0.008050223;-0.013846711;-0.048319437;0.021916881;-0.039241057;0.09257761;-0.035884358;-0.054043476;0.0995665;-0.003571634;-0.008923246;0.032108817;-0.04013869;0.035862908;0.0439379;0.10396281;-0.042473894;-0.092203595;0.05313183;-0.05981362;0.018607233;0.08866717;0.050945956;0.07174672;0.09000893;0.018571218;0.014862598;-0.021492327;0.048155602;-0.049870595;-0.054035246;-0.027216507;0.0008487434;0.014273849;-0.07047865;0.0482034;-0.04443455;0.08467579;-0.15202336;0.07815909;-0.045566637;0.06682003;-0.068314135;0.04581783;0.07393802;-0.04872756;-0.21048427;-0.0072941277;0.00040478824;0.17579748;0.10738344;-0.029186906;0.0012641674;-0.007709592;-0.053823546;-0.008976876;-0.063303724;0.1573004;0.049718205;0.052570906;-0.017488163;0.069945075;0.00055406475;0.059209056;0.030960094;-0.02590321;0.17151827;0.029311238;0.03757597;0.099933036;0.039482843;0.040039;-0.03240418;-0.019208346;0.08800815;0.021650054;0.070590355;0.06419989;-0.073785774;0.116007425;0.068766974;0.041983522;0.025671434;0.09411574;0.041612905;0.08441392;0.036611807;0.13917165;-0.11800536;-0.0049700392;0.039081473;0.027180618;0.038789053;0.044037253;-0.028975423;-0.014184779;-0.035917487;0.11845292;-0.056507125;0.07855739;0.0973593;0.008281374;-0.051722642;-0.056496974;0.042846795;-0.029198455;0.0980393;-0.03498966;0.013020662;0.06830149;0.07961046;0.11824302;-0.106664725;0.025535675;0.055474862;-0.013222319;0.044084314;0.10062664;-0.009959982;0.07718571;0.06216789;0.101169586;0.030184207;0.074949026;-0.0032220879;0.081350975;-0.04932245;-0.04752476;0.013088518;-0.0005641045;-0.054530323;-0.011193781;0.02781817;0.039981604;0.016991958;0.019097611;-0.06726339;0.04054107;0.09807921;0.044160437;0.04717313;-0.08216747;-0.0064641396;0.05203735;-0.065957755;0.053991117;0.08810272;-0.03885695;0.0869693;-0.00928134;0.024388775;0.17980379;-0.031604633;0.016063115;-0.050442256;-0.023268653;0.09470379;-0.022345746;0.09737289;-0.0024240646;0.029544458;0.14226986;0.084876895;-0.09297226;-0.012472769;-0.035419308;-0.0109449215;-0.0070435926;0.022706473;-0.042792924;-0.029477976;0.052080154;-0.053675894;0.07667775;-0.0015313224;-0.09978;-0.048813257;0.052340765;0.007835497;0.07391618;-0.0022298226;0.022999767;-0.015465444;0.091907695;0.07603047;0.048649255;-0.041585594;0.06404309;-0.044574283;-0.043510392;0.1547573;-0.021531;-0.07443367;0.01873317;-0.03993358;0.046707336;0.04498282;0.07237771;-0.015961727;-0.010322232;0.0038245174;-0.0230414;0.024495922;0.033225633;-0.0019068929;-0.04858789;-0.052133065;0.10826877;0.07326594;0.039839283;-0.05665529;0.0778617;0.057682984;0.10040365;-0.08821216;-0.06062355
-0.03996826;-0.012540645;-0.061035108;-0.032795984;0.096290216;-0.11568747;0.02425874;-0.029203692;-0.02266415;-0.046006784;0.0058498904;-0.081647485;-0.037586458;0.20910211;-0.025524609;-0.10925808;-0.074804515;0.009998663;-0.09567813;0.012870159;0.056234192;0.08800403;0.07384647;-0.0063824067;0.067417115;-0.059605137;0.0636785;0.1177485;0.06608214;0.0798661;-0.047485705;-0.03246255;0.08128317;-0.02699564;-0.020275103;-0.03432534;0.07614356;0.095069595;0.03966389;0.041660443;0.043696485;0.0020119403;-0.022602592;-0.042612743;0.027150072;-0.06640888;-0.1301296;0.10839282;0.033280306;0.05005614;0.05561534;0.0045080436;-0.013036576;-0.0210498;0.0912967;-0.033721417;-0.027470924;-0.06712823;0.03893563;0.054637864;0.09922314;-0.13430509;0.04567986;0.09786913;0.072494924;-0.0068525523;-0.04058743;-0.055086534;-0.045937743;0.066744275;0.0064703864;0.011430894;0.030882057;-0.025507918;-0.055410586;-0.08702254;0.04485419;0.020648558;0.080963545;-0.13026762;0.031995997;0.0043359566;-0.0683871;0.0034942992;0.03487706;-0.01749662;0.08742967;0.060233895;0.08386304;0.036536925;0.074968606;-0.000889185;-0.020469429;0.096825466;-0.011499121;0.04897472;0.052410685;-0.09474025;0.07099202;-0.030705051;0.042615503;-0.009507687;0.0016879839;0.07261621;0.040864628;0.036990717;0.08289232;-0.064048745;0.03690634;0.055071432;-0.02459614;0.07086848;0.111711115;-0.032107074;-0.020115366;-0.017517682;0.09807412;0.008221076;0.019597962;-0.007864984;-0.00015820801;-0.003717274;-0.017415889;0.051144063;-0.060891435;0.029050764;-0.020240968;0.030393418;0.045656823;0.053926818;-0.12713993;-0.052072287;0.087235734;-0.018204441;0.05306323;-0.13675238;-0.07456571;0.01740331;0.13034901;-0.14692461;-0.04484522;-0.024469756;-0.09368424;-0.043439165;0.020821683;0.08339991;-0.028224804;0.022628408;-0.03278812;0.018674724;0.045520846;-0.0016090699;0.091920346;0.06560156;0.098962605;0.065315396;0.022619;-0.018030846;0.07520983;0.08087308;0.048073273;0.0020060341;0.06278847;-0.027123552;-0.081244215;-0.0062021753;-0.017007532;-0.05352448;0.07978224;0.052372083;0.07616851;-0.05885272;0.013480813;-0.058683395;0.1043036;0.043274935;-0.046456967;-0.018394135;-0.041215677;0.05013745;0.024800638;-0.052200418;-0.03163684;0.017189816;0.05260499;0.22143835;-0.03901275;0.005633112;0.053114094;0.0277788;0.054971408;0.038179584;0.027643668;0.088461064;0.0401013;-0.04216318;0.07394562;0.097986415;-0.05543147;0.084197514;-0.057345476;-0.04764798;-0.07293827;-0.118958704;0.15892227;0.017293163;-0.074066445;0.067837626;-0.01474976;0.04752622;0.034798447;0.02055078;-0.053192683;0.055275593;-0.06826895;-0.0069946847;0.04032902;0.09961897;-0.012019286;-0.06530556;0.036421742;0.023090629;0.0020295433;-0.027751746;0.04481925;0.091882266;-0.024531897;0.098571755;0.026195783;0.039608132;-0.047484186;0.088717245;-0.0058805514;0.053645242;-0.06822562;0.053229894;-0.033280317;0.013546823;-0.12176912;0.06755639;-0.07212385;0.04047544;0.009969803;-0.059063658;0.07856476;0.06843408;0.018086912;-0.032321557;0.03549289;-0.018681228;-0.027309762;0.026723562;-0.02500618;-0.0194448;-0.005230721;-0.047436956;-0.07232971;0.038062055;-0.113024995;-0.009636977;0.006565307;0.013518095;0.078439616;-0.053395856;0.026694445;-0.10748536;-0.07831222;0.049204715;0.106749035;-0.06856041;0.10243359;0.040828038;-0.009418268;0.10098413;0.039063122;-0.042580422;-0.0163585;-0.04569443;-0.023947211;-0.027860949;-0.088977635;0.026648266;-0.0627392;-0.009843522;0.0660192;-0.04559828;0.018857732;0.062018644;-0.0550873;0.025034612;0.03825514;0.05961924;0.011485488;0.015857445;-0.05878507;0.07696065;0.018179541;-0.054388504;0.0142340865;0.021459123;-0.026593767;-0.038815722;0.040050685;-0.013645929;0.015672235;-0.018012332;0.0026417177;0.07081585;-0.0013729219;-0.042114295;0.052894525;0.01580191;0.06745289;0.0019196837;0.00024214994;0.10256923;0.11999937;-0.05162428;-0.03717062;0.070122115;0.061812703;-0.027620865;0.033992153;-0.017481232;0.017555738;-0.067995265;0.0060987794;0.09074203;0.04868288;0.087336965;-0.0024552247;-0.06582163;0.04171564;0.035096418;0.06613004;-0.0445595;-0.056736965;0.014446936;0.07693117;0.08763597;-0.057791665;0.08982746;-0.010371402;-0.033274006;-0.008419187;-0.006173605;-0.0007803173;0.007832533;-0.120553665;-0.07070258;-0.0754046;-0.045256305;0.056186084;0.09187027;-0.026181648;-0.03651394;0.039625995;-0.12872253;-0.082092375;0.1291969;0.10158072;-0.014255301;0.10873766;-0.040939797;0.011469952;-0.023853477;-0.0565137;0.028942727;0.009165302;-0.0251532;-0.044237006;0.025160292;-0.13202915;-0.03581563;-0.014724898;0.0592046;-0.018201046;0.053859852;0.06686109;0.008236956;0.026227998;0.02031243;-0.012010184;-0.021813165;-0.03967049;0.016024608;-0.040033296;-0.041272245;0.021684185;-0.031052666;0.006609766;-0.015468831;0.08795351;0.07318753;0.054491013;0.13424732;0.035279147;0.06259552;-0.14183824;0.011845046;-0.010576728;0.087293364;-0.0014797716;0.0045684474;0.07721638;0.056901697;-0.19014534;-0.11997878;-0.05631959;0.11729379;0.10581688;0.009872002;0.07863532;0.04489386;0.07467123;0.07020915;0.035193585;0.14449748;-0.048982333;-0.02809233;-0.0764787;-0.060184106;-0.06191732;0.039662097;-0.043721203;0.0645926;0.09960564;0.02565466;-0.013974184;-0.029938484;-0.02012126;0.03146611;0.048233867;-0.0068244175;0.09212617;-0.008336045;0.11236085;0.01592056;-0.087540895;-0.025130562;0.010742233;0.1363867;0.039498802;-0.03383788;0.07820655;-0.024374738;0.033755757;0.06855471;-0.10099761;0.01091096;0.076828495;0.025846096;-0.046211682;0.068710566;0.014068108;-0.027166862;0.03364968;-0.031175915;-0.024529427;0.024853097;0.06420494;-0.053306032;0.026810577;-0.027271789;-0.013731406;0.039242897;0.035377715;0.044156462;0.039514966;0.106480666;0.030664554;0.12057763;0.06479742;-0.077337146;0.037687156;0.07397895;-0.025130568;-0.025160301;0.04888262;0.012989429;0.087012656;-0.043629542;-0.043482035;-0.028881552;-0.03838887;0.011878263;0.07171081;0.06484554;0.1146108;-0.05352985;-0.011374667;0.07928946;0.062318984;-0.043052003;0.08449388;0.06481165;-0.0039552017;0.044809215;0.077050276;-0.012383319;-0.003187076;-0.0845663;-0.119791634;-0.040139027;-0.052213266;0.06114579;0.06860871;0.06192208;-0.07764391;0.0077182534;0.04454112;0.037130285;-0.041447677;0.050001483;-0.08065449;0.07156537;-0.03444781;0.023764655;0.097350925;-0.017724292;0.09578653;-0.035219703;-0.008461615;-0.15274933;0.100084156;0.08059207;-0.007028328;0.037170455;0.008314649;0.049586892;0.075059004;0.00034587583;0.0015872258;0.02298455;-0.06854967;-0.08206266;0.060477644;0.07512666;0.019922897;-0.03420271;0.079760976;-0.026779782;-0.035149213;0.057272304;0.1650125;0.049211655;-0.04154601;0.02149549;0.08247631;0.08364338;0.046846308;0.04449454;0.041047312;-0.015682029;0.016225016;0.054683223;0.045514848;0.026905049;0.1246797;0.061889984;-0.034214366;0.021121543;0.13826494;0.10368698;0.0629196;-0.017244944;0.030795176;-0.029823173;-0.028852034;0.0011844812;0.0757447;-0.019687746;0.027452633;0.08451692;-0.028995741;-0.048304323
-0.06329422;-0.026900534;-0.004679989;0.03866215;-0.0067615337;-0.11858858;0.08064779;0.048707765;0.011692187;-0.031590622;-0.030061824;-0.114443764;0.046572104;0.06533596;-0.06457498;-0.093035966;0.020365879;0.06415576;0.037065186;-0.0034073319;-0.012194262;0.0048924317;0.08747716;0.06586956;-0.043927494;-0.14894475;-0.047471628;0.074376985;0.053402502;0.10259855;0.012804973;0.020691212;0.016192678;0.051036682;0.05932156;0.058950596;0.064407416;0.0709446;0.015304236;-0.04757507;0.021438412;-0.059601005;-0.15162149;0.006698208;-0.005371681;0.07929134;-0.055995632;-0.022947168;0.0540753;-0.00062100025;-0.01099661;0.11463838;-0.026441928;0.030977221;0.06701803;0.0859825;-0.006168916;-0.0634827;-0.038634453;-0.02129132;-0.020458417;-0.14562567;0.014207065;0.10932162;-0.078893155;0.09065807;-0.09076889;0.008646525;0.070673764;0.072632544;-0.070699885;0.05257313;0.0075157057;0.05338674;0.07147249;0.02568509;0.049997214;-0.016292844;0.03575989;-0.0050361874;0.102222756;0.04834454;0.038280647;-0.005201776;0.0067707477;-0.036452543;-0.12768732;0.055494692;0.04489196;0.0907239;-0.0025445728;0.09113384;0.049721904;0.03945267;-0.093357585;0.0028667622;-0.0017394818;-0.08754506;0.061497383;0.10786809;0.03999713;0.055178683;-0.06223722;0.005997048;0.07317029;0.08890867;-0.028764294;0.055084776;-0.046743914;-0.019032031;0.07958561;0.023373121;0.01821159;-0.065925986;0.014400531;0.00771888;0.069084674;0.031047171;0.07369783;0.046339937;0.059426043;0.041203737;-0.012853935;-0.057303563;-0.0556194;0.11616114;-0.056122545;-0.07994462;-0.007626232;-0.036598384;-0.09175569;0.056572665;0.009097695;-0.040511034;0.035965662;-0.057466466;-0.02571314;-0.010648436;0.025392864;-0.16239512;0.063821144;0.018219767;0.05199523;-0.118679695;-0.015980665;0.028322497;0.016902264;0.08372571;0.010045426;-0.04981489;-0.037461177;-0.06320789;-0.04090059;0.058710225;0.10918043;0.037120964;0.09355618;0.0049255122;-3.342844e-05;-0.12079513;-0.035479125;0.057722706;-0.03698716;-0.06422671;-0.08636915;0.052954067;-0.014710681;0.026604941;0.042578578;-0.047465067;0.010552604;-0.062472794;0.03467438;0.026199773;0.08784571;0.042121526;-0.042821772;-0.058423486;0.037602987;-0.04670163;0.031913243;0.06032084;0.049755674;0.071519114;0.055718705;0.13844123;-0.07127206;-0.13193272;-0.016179483;0.0021860718;-0.04923601;-0.03149916;0.0051361904;-0.036139626;-0.08148031;0.02582444;0.0065889955;-0.015515113;0.09511151;0.05871606;-0.021469563;0.060409844;-0.07427952;-0.040930137;0.10498299;-0.07493671;-0.04999699;0.03971487;0.024083937;-0.043101206;-0.060962074;-0.003931678;-0.08163967;0.018745279;-0.0063946783;-0.030348044;-0.0038833825;-0.0121266;0.049574096;0.0363952;0.05799786;-0.081998095;-0.029743059;0.07864146;-0.037653998;0.06824958;0.038623683;0.044817038;-0.000646043;0.0806347;0.024011675;-0.01231955;0.010705788;-0.050841257;-0.021802165;-0.09523976;-0.0372744;-0.10312301;-0.1582315;0.02986629;0.01820195;-0.077914216;-0.049613748;-0.009385481;-0.004427096;-0.010441561;0.044328503;0.04616026;0.016472843;0.07860386;-0.034500103;0.06466265;0.0797184;-0.076089;0.017621199;-0.01061759;0.0781993;0.07418681;0.027311236;-0.038172748;0.04465774;0.08979631;0.05805563;-0.08708005;0.0040549207;-0.050216336;0.040342376;0.09228996;0.121486336;-0.045128185;0.039328825;0.028618697;0.077878885;-0.041814927;0.056643173;-0.01672477;-0.030835865;-0.03390669;0.05098428;-0.08368531;-0.063114464;0.05498147;0.031453174;0.08382353;0.009129525;-0.0007763871;0.061240535;0.026106063;-0.02914285;0.06768036;0.021841027;0.016647177;-0.10195863;0.062168095;0.076998;0.04929874;-0.035994187;-0.033248857;0.021109428;0.017366862;-0.07827153;0.0933271;-0.056089826;0.14764862;0.13622242;0.097805254;0.06494143;-0.03394471;-0.054950234;-0.05653817;0.057393875;-0.029629527;-0.014608903;-0.0664403;0.0060346993;0.03534447;-0.03401288;0.012487905;-0.02853811;0.12627226;0.014849038;0.08614576;-0.018373638;0.061483484;-0.020388972;-0.05999894;0.08244663;-0.034246147;0.0725786;0.058282707;0.0056897234;0.06237966;0.040478982;0.066660725;0.06756906;-0.022996549;0.0043799514;0.06567595;0.08871131;0.057266936;0.06601328;0.04204641;0.04425918;-0.0016383843;-0.05121285;-0.07136873;-0.051544555;-0.044075985;-0.071996816;0.109075084;-0.019385226;0.05452772;0.0072220443;-0.05061898;-0.013231159;0.04160509;0.05063699;0.022911614;-0.09350882;0.02554654;0.11946649;0.014838421;0.04550022;-0.011972892;-0.07527734;0.056902245;0.0652597;0.07999877;0.114125334;-0.022613088;0.039438225;0.02961803;-0.08864203;-0.0306295;0.0667992;-0.024740076;-0.041171666;0.024124175;0.051038023;-0.110718995;-0.060283866;-0.020344922;-0.020245474;0.028755559;0.02982862;0.08717979;-0.057971157;-0.050454523;0.14109495;0.010522036;0.040390477;0.015151492;-0.07026438;0.009111688;0.02989601;0.12136257;0.012033719;0.044507302;-0.081534676;-0.055813227;0.00982425;-0.03295985;0.065948375;-0.014507891;-0.03504433;0.0066156955;-0.11945251;-0.09243807;0.03479761;0.17991374;-0.01216704;-0.0008205266;-0.032464217;-0.054727793;0.076930046;0.036322016;-0.027811656;0.12857057;0.051924;-0.05281721;0.059128013;-0.0876034;0.0037125489;0.03980185;-0.12784648;0.04195546;0.12982453;0.010846668;0.04209479;0.017410588;0.021131324;-0.07521187;0.06392988;0.018021736;0.06556986;0.022112459;0.06365063;0.024434999;0.028302401;0.07089036;0.10188778;0.13842438;-0.077766806;0.036093853;-0.008561677;-0.03323522;-0.05056681;0.034694742;0.017833997;0.05289197;0.012124019;-0.04046309;-0.049276806;-0.039343137;0.036982935;0.11379865;0.06749099;0.12189223;-0.073193096;-0.060358044;-0.03169042;-0.011954542;0.012420853;0.06874452;-0.020406554;-0.01530703;0.06664393;-0.04102562;-0.028781638;0.07256878;0.07671791;0.097449936;0.046434503;-0.03875824;0.10735339;0.032523304;-0.019243568;0.11873352;0.08931458;-0.041701972;-0.049431976;-0.06912577;-0.05222867;-0.008755904;0.017595502;-0.025719138;0.048560683;-0.07786289;0.12798673;-0.021653933;-0.029871782;0.0094718;-0.03499909;0.08931455;0.009581126;-0.025488688;0.1292496;-0.07026797;-0.0072491416;-0.1245251;0.08538847;-0.0143271815;-0.17115918;-0.07752611;0.042881686;0.0328787;0.0014728558;-0.013811325;0.03880086;-0.073203415;0.074347354;0.09607307;0.04345289;-0.031835116;0.046437588;-0.019283269;0.13960293;0.044807673;0.096173845;0.0048647886;0.0935144;0.048588786;-0.0047485954;-0.06296722;0.115990125;0.05857086;0.047978092;0.056622595;0.06702355;-0.04521377;-0.017553082;0.045389697;-0.085431635;0.019438336;-0.016103588;-0.033480223;-0.044657435;0.054135438;0.05856201;-0.012876882;0.04071516;0.027370885;-0.11346765;0.11488591;0.02168912;0.111850895;0.041813128;-0.058626205;-0.0009787477;0.089550816;0.10832271;-0.036623;0.0005756959;-0.07841219;0.025001619;0.030891074;0.08105909;-0.06486846;0.051144496;0.056166727;0.055265393;0.036513366;0.12850404;-0.032743234;0.0448519;0.03115876;0.076956876;-0.053489003;-0.064650826;-0.045903727;-0.005604007;-0.019078074;-0.016853763;-0.017216085;-0.048067596;0.061735246
-0.06090658;0.04655213;0.052685156;0.07906573;-0.04589152;-0.036234744;0.08973281;-0.02889165;0.077718;0.06878419;-0.018584143;-0.15303238;-0.0048987614;0.14957981;-0.018843597;-0.08817499;-0.052388854;0.045220327;0.00863718;-0.02443249;-0.0040662503;0.061225682;0.11360593;0.07970516;-0.06155177;-0.12640826;-0.006078192;0.020220885;0.0038904618;0.056703497;-0.07558249;-0.063513204;-0.015978929;0.088791065;-0.06336569;-0.05463264;0.00079049985;0.005591663;-0.002853694;-0.06566804;-0.018486409;-0.03601766;-0.045369282;-0.05884744;-0.102265924;-0.004868539;-0.06697495;0.07998483;0.020414148;0.11446003;0.12422375;0.11845612;0.034597043;0.049738064;-0.02958314;-0.030983876;-0.088221855;0.04202343;-0.042987533;0.0034980187;0.025570724;-0.12914048;0.014340985;0.045407172;-0.020516519;0.09196852;-0.092217036;-0.0007152077;0.0632005;0.06787609;0.078223154;0.05196104;-0.009558506;0.07706285;-0.05668488;0.08136369;0.035827715;-0.01950431;-0.04698999;-0.035739828;-0.007734801;0.122888386;0.00093774666;0.052541293;0.023024034;0.05936499;0.027420655;0.043648455;-0.0026557525;0.069986194;-0.031390425;0.06522992;0.06098108;0.0882017;-0.09030214;-0.019518072;-0.053586315;-0.1241763;0.001981659;0.07912113;0.009048478;0.047286946;-0.055373475;0.027171;0.031691715;-0.030459806;-0.002229791;-0.057923555;0.0399114;-0.04995507;-0.01837813;0.039466932;0.0023390017;-0.010283853;0.1052754;-0.043315813;-0.01801254;0.05658054;-0.017011039;-0.082841925;-0.0045436625;0.01630171;0.00954767;0.07575787;0.08389615;0.0010024029;0.035816014;-0.009443848;0.066100225;-0.021605479;-0.18454064;0.03015646;-0.036066785;-0.06914563;0.07151851;0.013636911;-0.13468239;0.18491669;0.08615325;-0.18160963;0.07884702;0.032573216;-0.03779557;-0.041008916;0.060333963;-0.07796502;0.055269618;-0.0049330248;-0.029563459;0.07867655;-0.055428322;-0.023646152;0.025078027;-0.0045855734;-0.018049344;-0.053698577;0.00032467337;0.050009396;0.0046391063;-0.08410261;-0.08519427;0.08514729;-0.006383726;-0.030458124;-0.12854914;-0.030723738;-0.014547258;0.036067605;0.061057676;0.0666249;0.022269214;0.025762787;0.021219438;0.01943954;0.003933517;0.03468496;0.052326906;-0.057708733;0.05737007;-0.0449211;-0.07248627;0.02076591;-0.03059241;0.10802951;0.034637593;0.17494185;-0.00931388;0.03354166;0.0107250465;0.02116592;0.071038194;0.07527039;0.035679244;-0.017450863;0.06633069;-0.037576783;-0.010187876;-0.03521825;0.05380937;-0.0062507186;0.008378355;0.061153717;0.041353613;-0.11617559;0.19428366;0.09951928;-0.020546962;-0.019568948;0.0145578375;-0.059306566;-0.0015217587;-0.0058171065;0.08603106;0.02874405;-0.19948949;-0.045230966;-0.005095957;0.055104982;0.039386515;0.0157427;0.10813246;-0.025266383;0.026065486;-0.10205072;0.01089856;0.0029361565;-0.06457556;0.092875436;0.06472536;0.0067716073;-0.05427329;0.012167369;-0.0071828654;-0.0008719026;-0.05868936;0.03215318;0.08781057;0.023288226;-0.08280039;0.013741818;0.07442499;0.06777394;-0.031660013;-0.07295381;-0.022232346;0.084951766;-0.017948106;0.045056656;0.016351176;-0.022382261;-0.009272126;0.03996695;-0.041075643;0.11338515;-0.05714887;-0.019572373;-0.024929894;0.021442398;-0.024295637;-0.06423412;-0.05512466;0.005629906;0.011390148;0.012915507;-0.001564048;-0.048109543;-0.0010940135;-0.03777432;0.07226327;-0.052773815;-0.025621243;0.087194726;0.056954883;0.055309735;-0.057902176;0.012887362;-0.036590405;-0.045019586;-0.025547406;-0.0571458;-0.08459389;-0.05814236;-0.05125788;0.074531324;0.004072479;-0.05532084;0.03990029;-0.0017800363;0.048723195;0.04478221;-0.013111827;0.12361232;-0.028737713;0.01708981;-0.010346402;-0.031796824;0.03655824;0.029670822;0.046574876;0.025347948;-0.1584095;0.039212152;-0.050133925;0.17423275;0.014639354;0.061777093;0.028526675;0.0091030905;0.03413575;0.0001259943;-0.03969176;0.10384941;0.03888396;0.04630488;0.028119463;0.037609678;0.1091573;0.018186996;-0.02869871;-0.017387716;0.021023883;-0.00273691;0.04931024;-0.020373005;-0.01086294;0.052728284;0.016435897;0.027522083;0.01665509;-0.0564251;0.042437956;-0.039645538;0.05548716;0.0731345;-0.004714551;-0.042580858;-0.046189893;0.051501777;-0.0122374445;-0.021077849;0.051931433;-0.04012554;-0.040664982;-0.105542995;-0.0723081;0.001959212;0.05755699;-0.057363834;0.054226927;0.09395379;-0.020295255;0.025463656;-0.050945908;-0.046233043;-0.0748876;-0.010302899;-0.008021467;0.008719737;-0.11218711;0.11311216;0.022631027;-0.0015346793;-0.050125312;-0.009727431;-0.066656634;0.022571098;-0.01364293;-0.016732426;0.08154929;0.061286237;-0.05665287;0.04922302;-0.19240929;-0.11289506;0.009717516;0.043357324;0.07952536;-0.03674807;0.11288202;0.029397205;0.039905902;0.06255464;-0.01435759;0.04255991;0.03971043;0.07308445;-0.044692006;-0.052257303;0.14015074;-0.0816183;0.08051968;-0.034473963;0.086459704;0.007794278;0.01909121;0.014317219;0.08583328;-0.048616476;-0.019451706;0.0020437788;0.02933175;0.005417335;0.016240053;0.019217813;0.077309884;-0.04750508;-0.059159875;0.0015663996;-0.0036772483;0.14767635;0.016993435;-0.08488027;0.004630226;0.037437223;-0.05901199;0.021497346;0.041674;0.11679542;0.055736974;0.043713752;-0.029355846;-0.08992045;-0.032140955;0.010505415;-0.019678632;-0.075321496;0.09393917;-0.030521419;-0.14731146;0.042821422;-0.110269904;0.040163904;-0.03567236;-0.027666671;0.06280758;0.03109916;0.051950853;0.088522494;0.025777971;-0.055943646;-0.0026821;0.038131963;0.053856194;-0.09915961;0.09575955;-0.0063164188;0.034504674;0.019490361;-0.09893071;-0.08548501;-0.04262788;-0.07687367;0.06880233;-0.014633162;0.065542825;-0.020188928;-0.0060506416;-0.019581692;0.07474451;0.07213892;-0.10437441;-0.008953453;0.05739833;-0.053462155;0.09548668;-0.043201495;0.14581917;-0.045271575;0.046873268;-0.04027095;-0.008362953;0.002367641;-0.046781827;-0.033490013;0.116016954;0.045088086;0.031989563;-0.012277748;0.057961777;-0.0040388494;0.01177029;-0.07561887;0.08719858;-0.017747067;-0.050150044;0.035932347;-0.0006752642;0.016146753;0.08822846;0.06236324;0.02543071;0.006566943;0.05814731;-0.011272189;-0.01780912;-0.07311135;-0.05055243;-0.014640608;0.04058372;-0.08818217;0.06304918;0.09688092;-0.08685622;-0.13481176;-0.0033630838;0.028165711;0.040666755;-0.036564846;-0.01838702;-0.018246181;-0.024741909;0.016357282;-0.037395086;-0.036580034;-0.059507735;0.034691226;0.091735326;-0.0744305;0.14489266;-0.07628126;0.015396884;0.052910425;-0.049712136;-0.20978259;0.111023955;-0.059170015;-0.04827095;0.047893353;-0.004195562;0.065311424;0.11521936;-0.027709393;-0.0394782;-0.029033095;-0.08136595;-0.02781419;-0.0744452;0.089753315;-0.063255765;0.008458129;0.14397374;-0.02729535;0.0054376507;0.022832489;0.15319672;0.049993288;0.010308296;-0.034411542;-0.008331058;-0.0501619;0.06635744;-0.048542947;0.021946294;-0.089109644;0.03250318;-0.05096364;0.10811021;0.06572554;0.012084948;0.06355821;0.038988523;-0.018340921;0.067673765;0.048401408;-0.015005985;-0.031048695;-0.00023422003;0.059418928;-0.012605397;0.05612696;-0.0846258;0.012250924;0.06927879;0.0870795;0.053889804;-0.07531619
-0.05661589;0.055331487;0.05612846;0.0756243;-0.06485747;-0.12702462;0.04493433;0.061161883;-0.028463872;0.142079;-0.012062226;-0.2058046;0.057238188;0.20202416;-0.008662908;-0.07577923;0.07762067;-0.035212923;-0.071790405;0.029377308;0.10181378;0.0011623884;0.1482754;0.096852876;0.06808859;-0.1425095;0.0076841605;-0.04715557;0.028929783;0.06341445;-0.1619823;-0.1333304;-0.012809623;-0.055917464;-0.058134295;-0.009617894;0.11185361;0.13490762;0.021487249;0.0291323;-0.031605154;-0.008238044;-0.021581382;0.074038796;0.0877509;0.029612623;-0.14770487;-0.058314826;-0.060407255;-0.030339949;0.08327203;-0.04062105;0.006154398;0.124655865;0.10935811;0.08650004;-0.067547314;-0.019011442;0.0017441841;-0.03396729;-0.014539553;-0.05874705;0.028588492;-0.05281129;0.06462265;0.03096756;0.024024427;0.03315289;0.060985085;0.063538074;-0.051988825;-0.022037212;-0.0887879;-0.029522507;0.012368003;-0.005188067;0.07617088;-0.08965071;-0.0072324905;-0.042921826;-0.04261605;-0.04087126;-0.00558803;0.10976472;0.074590765;0.05247439;0.062220257;-0.0048462613;0.067369945;0.07718964;-0.06407994;0.09740654;0.005203075;0.023879265;-0.038736567;0.046054278;0.06437162;-0.045695048;0.1418736;0.07062396;0.068156615;0.028490985;0.010050644;-0.021411164;0.098505765;0.01599858;-0.052467834;0.074149124;-0.04462293;0.045128386;0.03409117;0.038916536;0.088322744;-0.039692096;0.08903878;-0.08169921;0.0058279606;0.08564591;0.052446887;0.0065960325;0.073826626;-0.04584178;0.0039804713;0.07779064;0.0007799683;0.040498395;-0.024625583;0.03197916;-0.04083345;0.013111436;-0.19165798;0.042251486;0.10617458;-0.17903115;0.04348981;0.014418563;-0.08136088;0.054693058;-0.018744553;-0.17188458;-0.048053414;0.04044574;-0.11729049;-0.14969057;0.14665024;0.068879865;0.029147392;-0.00492657;-0.03557354;-0.04554873;0.01289694;0.0072820415;0.08261622;-0.060956497;0.08279339;-0.037515916;0.017166846;-0.06677311;-0.074082896;-0.064460255;-0.0003211002;0.11554076;-0.017301938;-0.063638665;-0.098717794;-0.02728546;0.02307542;0.07474888;-0.027858902;-0.02524999;0.04191994;-0.08910474;0.016199382;0.009232275;0.0049369717;0.034640584;-0.026364336;-0.10065632;-0.06339886;0.0003401158;-0.030545007;0.06945222;0.05084082;0.09329654;0.07231232;0.14757466;0.0036890272;-0.021813715;-0.023142565;0.057964776;0.0014484524;-0.018219195;0.049311347;0.005850742;-0.010822985;-0.048540685;0.06856383;-0.062247418;0.03726797;-0.019444022;-0.0113014085;0.041503206;-0.04552432;-0.072207645;0.20845921;0.00801386;0.017042393;0.00036153686;0.06341315;0.08966884;0.0047880053;0.09770469;-0.06549736;0.022441793;-0.17701308;-0.055184;-0.06294586;0.035761304;-0.0082314415;0.078068286;0.029828934;-0.0680198;-0.002579817;-0.030623473;0.14423172;0.034893885;-0.022334978;0.08654807;-0.08019723;-0.031816255;0.030752601;0.04008028;0.009349023;-0.04035067;-0.020209964;0.023251457;-0.0037299923;0.00057824265;-0.079755366;-0.031244451;-0.0059574377;-0.067962736;0.047689755;0.02933088;0.024402574;0.020872843;-0.04016346;-0.049896307;0.051020823;-0.13559361;-0.06462584;0.00024020822;-0.037285432;0.023103092;0.019168735;0.085259795;0.041186705;-0.027359284;-0.020014307;-0.059117287;-0.020449448;-0.10102038;-0.004821357;0.0072154263;0.0080205435;-0.01950667;0.13650738;0.003662384;0.16074677;0.09923621;0.038524833;0.02273418;0.022381924;0.036761004;-0.042740043;0.06090497;0.089939296;0.075337455;-0.06580471;-0.011836043;-0.03748633;-0.05436039;0.05560386;-0.003538687;0.051856462;-0.00017529371;-0.09834818;-0.068034664;-0.05325449;-0.09115476;0.05047284;0.06258418;0.11346905;-0.024168052;0.017808964;0.08416207;0.013256182;0.011223062;0.05414844;0.0648614;-0.09747876;-0.063611776;-0.040123437;0.074069254;0.031255838;0.1233506;-0.06093886;0.049629085;0.026077023;-0.060123477;0.05620338;0.093938574;0.03127628;0.09633272;-0.036187682;-0.0015169061;-0.020501973;0.058463257;-0.044789597;0.0054146997;0.0066494597;-0.15741357;-0.043820444;0.026413914;0.0867289;0.05912414;0.023005834;-0.030977948;-0.010371077;-0.092228375;-0.098133095;-0.064529985;0.011643087;-0.09128304;-0.078261554;-0.011261101;-0.115561076;-0.076087296;0.029309656;0.041668624;0.020777564;-0.07201267;-0.037111823;-0.08555438;-0.017441558;0.008810136;-0.006477214;0.1495619;-0.05349633;0.0021407483;0.13814439;-0.053339947;-0.022666752;-0.0073862346;-0.057023335;-0.06784046;0.043311834;0.02935625;0.02506595;-0.017259695;-0.052378293;-0.0449519;0.08892443;-0.040375184;0.027806394;0.029057765;-0.024876395;-0.08008098;-0.064952336;-0.044606376;-0.08135789;-0.031162357;-0.1901599;0.0058164326;0.056436293;-0.07888573;-0.010829212;0.062380284;-0.039875325;0.0046787825;0.09412503;0.05774763;0.054167185;0.068211466;0.089564964;-0.048207294;-0.11024743;-0.031720143;0.15895717;-0.17752239;-0.011338634;0.001824351;0.03612868;0.041992076;0.037889536;0.023300368;-0.006162399;-0.059340745;-0.08823395;-0.07948967;-0.055164035;0.016462278;0.04912366;-0.004686086;-0.029883528;0.009283321;-0.08840429;-0.088721566;-0.040415596;0.02338797;0.051539373;-0.11916652;-0.05937744;0.041965462;0.026692567;0.07519745;-0.024059273;0.07471907;0.039577764;0.0030080513;-0.004081582;-0.13599081;0.08782454;-0.087213725;-0.1627144;0.056715153;0.0624469;0.034578428;-0.18386208;0.05789312;-0.091078065;0.05104662;-0.017496191;-0.059785426;-0.0480481;0.025708023;0.012190796;-0.035204962;-0.045104124;0.04889054;-0.0715274;0.15352114;-0.032895453;-0.0595564;0.06352257;0.12186076;0.0023571774;0.063213356;-0.110962965;-0.027946407;0.078485996;-0.0003363543;0.062874116;-0.022295285;0.08019281;-0.038775973;-0.056804802;0.0236128;0.02630168;0.065652035;-0.025515081;-0.012263061;0.03815022;-0.010355412;-0.011749254;-0.073214635;-0.006499044;-0.008338615;-0.023561573;0.03177557;0.07932971;0.13857996;-0.16430308;-0.05136441;0.100517645;0.068895236;-0.009600569;0.06860341;0.056640785;-0.051063664;-0.036485363;-0.01739943;0.07699517;-0.03199425;-0.076325886;-0.001985198;0.029458746;-0.02172196;0.20774807;-0.03640749;0.0029971977;0.03488706;0.06872293;0.040183887;-0.025905384;-0.013196222;-0.124801286;0.020062622;-0.055369362;0.0031286257;-0.00455404;0.06035056;-0.20409566;-0.0035335282;-0.033358257;-0.066411115;0.013235214;-0.0029708585;0.011762441;-0.05491894;-0.05790589;0.13150993;0.048139155;-0.017860308;0.029877443;-0.0022761135;0.10293151;0.08068025;-0.004822394;-0.032210972;0.049800728;-0.032893;0.03704008;-0.068279326;0.11941947;0.0312877;-0.075960286;0.015518989;-0.07528077;0.00021569505;0.02044361;-0.036675908;-0.064400285;0.057405595;-0.0146235;0.04929665;0.054958783;-0.026219184;0.049918965;0.0020544871;0.04557934;-0.020866212;-0.09459621;-0.06616169;0.1932168;0.0070598973;-0.05646262;-0.04095777;-0.0022266402;-0.095752455;0.05463814;0.035466235;-0.030219091;0.09031774;-0.0093279695;0.03988958;0.07602667;-0.0029371057;-0.013548332;0.023394026;0.099759765;0.07381683;0.045921102;0.093530685;-0.006318435;-0.04762027;-0.04519637;-0.060288794;-0.023308394;-0.040077783;0.014180986;0.01013747;0.0032222446;-0.027262291;0.021075055;0.033302754
-0.035372198;0.057061307;0.08028405;0.0803346;0.066306055;-0.112259395;0.098818325;0.07212092;0.006317902;-0.05985571;-0.035391383;-0.1520287;-0.022436379;0.080898784;0.043433838;-0.107566535;-0.0371023;-0.019497095;-0.0010169046;0.08227781;0.088793315;-0.02810822;0.019256927;-0.030715374;0.075753346;-0.15489691;-0.065650515;0.0025592945;0.047926817;0.079805225;-0.15859498;0.039075915;-0.03109548;0.020352757;-0.06980886;0.08420706;-0.0050542047;0.01858031;-0.023379453;-0.049245004;-0.0038288904;-0.01666344;-0.049459554;0.022142844;0.013201211;0.06539599;-0.104098134;0.08034215;0.043133013;-0.0476006;0.023183929;0.14869614;-0.049314793;0.06095157;-0.027338147;-0.0733667;0.06422836;-0.045115657;-0.031606603;0.068474375;0.0072567677;0.028785909;-0.036596492;-0.010781033;-0.08792392;0.001419821;-0.03430317;0.05406673;0.045853104;0.012389367;0.050592378;0.033689007;0.068021476;0.0046240436;-0.04533869;-0.046205163;0.059194203;-0.029062718;-0.09037349;-0.07321053;0.064365655;-0.03977861;-0.04078779;0.0656329;-0.050241895;0.03935774;-0.117085576;0.050536968;-0.06041629;0.09422279;0.044582743;0.03092157;0.06741915;-0.054404933;-0.06184674;0.06290265;0.014635143;0.024144793;-0.0037064804;-0.03354377;0.021248503;-0.059321426;0.05403185;-0.0156055335;0.047294725;-0.025407584;-0.04297427;-0.07745599;-0.056870285;-0.037636086;0.0032522506;0.0034898918;-0.03327738;-0.052521624;-0.02972144;-0.07482612;-0.018668737;0.06728854;0.055315547;0.058838204;0.07432962;-0.04148832;0.09485273;-0.0566245;-0.05486931;0.049936734;0.03023325;-0.091497004;-0.015436161;0.031179553;-0.05271176;0.03454593;-0.048254434;-0.10330958;-0.05961997;0.004162658;0.007372433;0.078045346;-0.04719757;-0.13836917;0.036193654;0.022965081;-0.08033748;-0.12063737;0.06322057;0.006402232;0.0056721736;0.056224626;0.018632079;-0.08651562;0.030880906;0.0002982424;0.049948376;0.03677662;0.0069992617;-0.055934973;0.019474955;0.025367262;0.06891843;-0.08248989;-0.0803336;-0.012358659;-0.089414194;0.010598829;-0.17434491;-0.03989;0.027309682;0.01786387;0.083567716;0.0448411;-0.023918949;-0.07425693;-0.057664674;-0.079303496;0.07811962;0.037229963;0.080148906;0.07095463;-0.019231826;-0.03180053;-0.026114678;0.014937155;0.020504227;0.093077905;-0.04944958;0.0886776;-0.04240871;0.011366462;0.03348429;-0.0035462298;0.059113115;0.03152669;0.0009702663;-0.023813197;-0.00026594716;-0.054032363;0.02949542;0.044931654;-0.021404764;0.0028535596;0.07062697;0.015285612;-0.05185707;-0.14874656;0.11866938;-0.0003653819;0.007882526;0.051058136;-0.0066510937;0.06566885;-0.046662018;0.10169312;-0.07197862;-0.020946251;-0.041011754;-0.0016984019;-0.058151595;0.002072033;0.05988227;0.047067843;0.007992216;-0.03815107;-0.0031097415;0.04011518;-0.0006221314;-0.038186617;0.0063697346;0.12299729;0.098067254;0.059023626;0.01602032;-0.029440438;-0.024481926;0.058004647;-0.13275859;-0.06652323;-0.04983892;0.021112638;-0.08121389;-0.07038019;-0.07430442;0.008394621;0.033987895;0.05871637;0.023830164;-0.0064475266;-0.042455934;0.066890895;0.045543462;-0.046431;-0.06523267;-0.04479992;-0.034210194;-0.05698462;-0.016784664;0.0022809836;0.0077171302;-0.059911087;-0.08156619;0.0023624809;-0.016410384;-0.018658806;-0.038266353;-0.012555934;0.055842564;-0.055684716;0.051126618;0.0766782;0.15001841;0.0603329;0.0726256;-0.030025145;-0.06497126;0.053072844;0.06229142;-0.07656782;-0.06750327;-0.058423415;-0.0043870867;0.05754843;-0.060786948;-0.053317066;0.05024245;0.02665588;0.057230823;0.070434205;0.04732577;0.030512985;-0.017391872;-0.078798436;0.0008243783;0.048134547;0.011884893;-0.070784375;0.036862653;-0.05929188;0.003599287;0.024958692;0.042508133;-0.045141924;-0.102322884;0.018084327;0.040600162;0.06650574;0.06791045;0.096121535;-0.031341225;-0.060259473;-0.00467483;-0.010757474;-0.044166047;-0.045523357;0.07343452;0.01647922;0.05227026;0.067055754;-0.01386468;0.07036058;0.030635174;0.09506022;-0.0052940897;-0.15758848;-0.016168535;-0.06662084;-0.082982846;0.03994266;-0.011254047;0.031012306;0.018587442;-0.06776516;0.024256388;-0.0058115646;-0.029555157;-0.0682325;0.048012726;0.04168171;-0.016889622;-0.052361272;-0.03643766;-0.03252403;0.03469997;0.06278521;-0.05506985;-0.03299449;0.063499495;-0.04624071;0.039208986;0.06373867;0.005473354;0.05445095;0.112066075;0.017418128;-0.060151186;0.08134663;0.07344643;0.09781675;-0.0028178638;-0.0002461109;0.03537023;0.08691938;-0.056577593;0.029651524;0.014806272;-0.024906965;-0.028715402;-0.08437601;-0.026068388;-0.041937906;0.04798351;0.04149642;0.07020961;0.058970444;-0.023052622;-0.03885506;0.009281806;-0.04745268;-0.030494306;-0.02757412;-0.025563754;-0.055971034;0.085603006;-0.07070393;-0.0684502;0.093612105;-0.03746138;0.004416093;-0.06891523;0.031890202;0.11197537;-0.09188827;-0.04094127;0.021398202;-0.00826642;0.012546662;0.05089895;0.042867552;0.0038894122;0.010413794;0.012859157;-0.029183144;-0.030897439;0.019266218;0.06478538;0.032857347;0.05542773;0.021334901;-0.037889533;-0.10287809;0.06203973;0.030069983;-0.05027933;0.034343675;0.073473364;0.00113908;-0.0056201704;0.054345313;0.08006025;0.044607043;0.005714115;-0.032511577;0.030937634;-0.069506794;0.0372835;0.061706755;-0.101860404;0.031019248;-0.07214898;0.031135768;-0.114982754;0.041904766;-0.08541842;0.05721738;-0.074514516;0.093609795;-0.034011178;-0.05778784;0.06126614;0.0039222855;-0.026836466;-0.061910592;0.012043928;0.08759968;0.030438446;-0.111695915;0.01975238;0.027455479;-0.023180638;0.05212739;-0.013949656;-0.040268864;0.08559251;0.08281363;0.088587366;0.06273931;0.07914152;-0.043730266;-0.062945805;-0.0061864746;0.05379256;0.094911665;0.016581602;-0.05954437;-0.009875689;0.034884654;0.005404944;0.07513271;0.08624946;-0.07479607;-0.068901435;-0.03778977;-0.06116042;0.040680822;-0.078194834;-0.022470243;-0.016481735;0.0785869;0.053801425;-0.026519362;0.027262691;0.013028443;0.013736519;-0.07252646;-0.011324099;0.086653754;-0.07118405;-0.018267917;0.017539797;0.0641047;0.15492664;0.072488435;0.051077437;-0.05000673;0.0066169677;-0.010623096;-0.018972991;-0.00097333733;-0.069334365;-0.05827231;0.06534896;-0.109032296;-0.044393737;0.021029057;-0.08036011;0.0165763;-0.009564924;-0.015637495;-0.04381318;-0.027481109;-0.07766542;0.044683784;0.045893405;0.14624627;-0.04370445;-0.03697142;0.057063118;0.05634272;0.106263004;0.077433035;0.12096005;-0.0072187954;-0.051765524;-0.044472884;0.0009061227;-0.0701008;0.006453443;0.038494807;0.050821323;0.050676707;0.06327601;0.0012218265;-0.03206128;0.08297643;0.032155324;0.012272603;0.008116245;-0.049564186;0.048875976;0.05072418;-0.014839053;0.019775378;0.051212136;-0.048550554;-0.119309515;0.06905959;0.15177447;-0.04722046;-0.051974125;-0.04503363;-0.03122664;-0.014435525;-0.044686753;0.048205443;0.048160065;-0.1113535;0.028473837;0.019580254;0.0807731;-0.08103115;0.0070590163;0.04413175;0.1168454;0.05036174;0.07756736;0.014035609;-0.009810566;-0.014246631;0.045873556;-0.014957229;-0.06801199;-0.063906334;-0.06280275;-0.056091297;-0.02379857;-0.03515333;0.045144748;-0.05975912
0.061896972;-0.052084953;0.07802722;-0.013848509;-0.06381205;-0.056749128;-0.01684093;0.012768802;-0.055125564;0.022443078;-0.04713949;-0.10962219;-0.055464435;0.09898725;0.037757605;0.025371084;-0.10144662;-0.035901953;-0.09301207;0.006098636;0.008748715;-0.03030445;-0.052415907;-0.0025894062;0.037610278;-0.068140864;0.07303233;-0.026851457;0.036894176;-0.0004070547;-0.10356753;-0.0711264;-0.028502943;-0.06688196;-0.027737666;0.013800789;0.056971077;-0.0092561;-0.051466357;0.015930085;0.068117626;-0.02862591;0.034996215;0.047252383;-0.049376495;0.024349812;-0.15602483;0.056697488;0.06562825;-0.06801372;-0.09207676;0.16513762;-0.0070911827;-0.0151047185;-0.020623157;-0.038655866;0.029483378;0.05160141;0.009110869;0.059605896;-0.07117587;0.02975938;-0.043185025;0.11423577;0.06380791;-0.031341005;-0.08084186;-0.071922086;-0.009887568;-0.01654743;-0.02196053;0.019904073;-0.075537644;-0.061878227;0.005207023;0.031018527;-0.0795455;-0.044925652;-0.025490806;-0.050218564;-0.07339101;0.05189087;0.041875977;0.10614613;-0.029789103;-0.067209736;-0.06393029;-0.05643353;-0.025269274;0.10196867;-0.020530311;-0.01682703;-0.0340172;-0.012879939;0.028451161;-0.010316641;0.05220421;-0.08418262;0.09211582;-0.0021498147;-0.022225082;0.08385425;-0.050900582;-0.02163715;-0.014794095;-0.01571932;-0.015245512;-0.079393245;0.016318329;0.010762061;0.08224505;-0.024117632;0.047879454;0.009516297;-0.04384168;0.059232425;0.0003293648;-0.009085328;-0.08844447;-0.03419531;0.041223563;0.0073088547;-0.029527474;0.029297926;-0.0143890465;-0.052435737;0.036711317;0.019934602;0.10730914;0.028833011;-0.14047872;-0.045417372;-0.044146754;-0.12388051;0.07152107;0.11350746;-0.040632185;-0.018148536;0.055927314;-0.1129964;0.04014616;0.014264059;0.09517875;-0.041272584;0.0476292;0.07635129;0.12032366;0.04873564;0.008271797;0.009764664;-0.012986636;0.028982308;-0.052804373;0.050178748;0.06454997;0.05634249;-0.0059632887;0.088954985;-0.07572706;-0.055269875;-0.0017965739;0.058607366;-0.15584964;0.08496418;-0.10812429;-0.050585743;-0.015212035;-0.031451833;0.045250162;0.032134816;-0.06492862;0.032745745;-0.02164197;-0.06313821;0.090486854;-0.05974058;0.017651716;0.029765798;-0.07203692;-0.042041283;0.00060782407;-0.028665422;0.009732932;-0.016383165;-0.034526803;0.11398742;0.07716819;-0.076034606;0.13023272;-0.06302298;-0.014596533;-0.07608492;-0.028520316;-0.047058586;0.03500473;-0.048888754;0.09396236;-0.0011545991;0.0010551936;-0.0984979;-0.045814175;-0.030094804;-0.010587659;-0.115610175;0.06654381;0.072736666;0.048710927;-0.055214114;-0.0621076;0.009148267;-0.030433081;-0.039889682;-0.010260659;-0.02401611;-0.12778932;-0.019383123;-0.030258335;0.032551676;0.00023237479;0.015811907;-0.029481178;0.04867848;-0.039876796;0.004908939;0.05791799;0.0072953003;0.039451703;0.050400108;0.13250327;0.10030936;0.072586894;0.07888737;0.06126187;-0.08254624;-0.030747913;-0.017162206;0.017078673;-0.046231154;0.014594;-0.051604092;-0.02368024;0.059980292;0.050542634;0.005986762;-0.057211608;-0.021979347;0.015079097;0.08999572;-0.075073816;-0.15648837;-0.08776305;0.036839947;-0.06692446;0.032958925;0.015120707;-0.012090983;-0.029647164;-0.024915466;0.08426238;-0.043642353;0.03843975;0.019328764;-0.051141135;-0.050574303;0.024529042;0.038569946;0.07498809;0.05555057;0.07688394;-0.0041104686;0.04642101;0.085810915;0.01892195;-0.045454305;0.08591135;-0.043863203;0.012229109;0.019482195;-0.05748568;0.012017497;-0.09106574;0.07131143;0.04313473;0.080764756;-0.05365495;0.00374504;0.038739122;-0.013477785;-0.04377813;-0.007882733;-0.02925745;0.018386498;-0.0074000894;-0.028876837;-0.052802;-0.033437256;-0.020721992;-0.071522824;0.055502824;-0.019109394;-0.07964413;0.122642905;-0.059054185;0.16805153;-0.025373938;0.09706481;-0.029468084;-0.051319927;0.044455282;-0.042638417;-0.06450326;0.032488145;0.006591466;0.11004831;0.050275177;-0.029739305;0.004424947;0.04343059;0.0705096;0.02561257;0.004506033;-0.18730839;0.028141536;0.06223309;0.017118003;0.057444938;-0.06927605;0.02090326;-0.07821765;-0.0967955;0.030164404;0.058923647;-0.06174876;-0.03973153;0.048468597;-0.04793572;-0.1212656;0.07866103;-0.059678603;-0.036378607;-0.026099818;-0.06646052;-0.07537181;-0.0554837;-0.012456822;0.015720258;0.0026943837;0.011189946;0.06832168;0.11617817;0.055342905;0.013767976;-0.04771881;0.026032893;-0.03775767;0.019553712;-0.015238587;-0.00469323;0.07461071;0.018099563;0.086919874;0.024984745;-0.07585449;-0.078841485;0.03131068;0.0020567114;0.027777962;-0.15327267;-0.020693664;0.047834557;-0.013010279;-0.06258166;-0.015483901;-0.049354613;-0.10232371;0.03349035;0.092572995;-0.10023032;-0.017463228;0.006110214;-0.015642982;0.059270095;0.0070304745;-0.021979868;-0.066294424;-0.08416561;-0.040195074;-0.037753355;0.055690046;-0.08026453;-0.047064714;-0.08581948;0.012631623;-0.06692863;0.009025861;0.046418376;0.027907316;0.048642814;-0.106304735;-0.05504021;-0.061486624;0.049369887;-0.058021646;0.05025832;0.030293195;-0.015870012;-0.008450791;-0.123373784;0.055298705;0.09313117;0.09364431;-0.018110665;0.07523863;0.05443681;-0.065798804;-0.058520135;0.08538895;0.042977817;0.02225715;-5.5448032e-05;-0.0032269708;-0.039439823;-0.00512505;-0.04806025;-0.07414785;0.055212792;0.006208627;-0.08524856;-0.023753274;-0.055001277;-0.112731956;-0.029511172;0.06791925;0.027364485;0.01518711;-0.056589592;0.0075825728;-0.039567854;-0.08851123;0.03584866;-0.012831907;0.024267979;-0.041888885;-0.026068358;-0.02722398;0.0107237445;-0.00016035527;-0.053573996;-0.11324443;0.07043491;-0.01558389;0.065603495;0.0866923;0.03960449;0.0023547108;0.07791186;-0.04279357;-0.0021502925;0.11060906;-0.08142344;0.05404483;0.044170544;0.08798469;-0.073884554;0.0419216;0.012398743;-0.0022553834;-0.013738279;-0.036876343;0.031231811;0.008987873;-0.03114523;-0.09826948;-0.08806366;0.08827991;0.012642307;-0.05734119;-0.060980383;-0.04606667;0.00597263;0.052974027;-0.07085263;0.06284529;-0.06912674;-0.052396346;0.08431312;-0.062315524;0.047490776;0.09757872;-0.068847276;-0.08843788;-0.0358102;0.0147275105;0.0069463085;0.014705236;-0.062052634;0.05674645;-0.019736158;0.02475727;0.012343242;0.01145076;-0.03474706;-0.1506737;0.025099568;-0.06448628;-0.041435227;0.048771434;-0.039678324;-0.07544135;-0.07751145;-0.0068890005;0.15304454;0.028715407;0.059055954;0.026876051;-0.019246576;0.0023811508;-0.05994931;-0.010536498;-0.012108908;-0.07094328;0.07456368;0.036992073;-0.097895294;0.14417976;-0.06525289;0.027534887;0.059148017;0.084606946;-0.052137062;0.031627204;-0.012865352;-0.0169798;0.10548135;0.07979354;0.08492057;0.056874525;0.060156573;-0.06233775;-0.036015674;0.053811815;-0.015252463;0.03545703;0.08260545;0.035866156;-0.011500796;-0.026723238;-0.04480068;-0.0906019;0.023998065;-0.048689403;0.05800154;-0.032477204;-0.040325705;-0.08758859;0.040393546;0.09136629;0.02528241;-0.025046194;-0.004433447;-0.022888575;-0.03268558;0.043596786;0.012699983;-0.065847374;0.027869236;0.045376305;0.038635407;0.039408397;0.003378327;0.002945932;0.035914805;-0.054811284;0.01551478;0.037887428;0.00016673129
0.03610234;-0.02847793;0.076789655;-0.03464132;-0.084456176;-0.029970307;0.057726104;-0.048014853;-0.034666583;0.08296039;0.08562375;-0.023946041;0.011772416;0.035793796;0.04837407;0.0113966195;0.08144612;-0.021140287;0.014676935;-0.01852468;0.01443666;0.077452816;0.0072882352;0.0059565166;0.072005294;-0.12507504;0.0945429;0.030223066;-0.026698878;0.024901051;-0.09072776;-0.098171644;-0.036600847;0.05794408;-0.011834667;-8.5778986e-05;0.07763232;0.06602687;-0.01998618;-0.070556484;0.005179334;0.04444723;0.040864207;0.01705335;0.046364594;0.008095996;-0.07228652;0.0018794037;-0.07672245;-0.058105383;-0.07073402;0.09011713;-0.0679651;-0.069879964;0.04208541;-0.040387318;0.002428339;0.057514567;0.05154236;-0.021917336;-0.047753878;0.04512898;0.09044166;-0.00576653;-0.08204758;0.022165298;-0.10857121;-0.050836306;-0.075293794;0.06293915;-0.024937645;0.063023604;-0.045152597;0.034652382;-0.03896057;0.06817501;0.07037825;-0.12706721;-0.095599584;0.008735315;-0.048042323;0.018061906;-0.038912233;0.02067972;-0.03812902;-0.012607882;-0.043436673;0.047735352;0.034192756;0.011543383;0.038936872;-0.013366663;-0.051392853;0.05598897;0.11844648;-0.08577306;0.04981077;0.05231112;0.01384915;0.06873202;0.051243067;0.055804674;-0.03806711;0.046480365;0.060054526;-0.08382549;-0.060654588;0.07294295;-0.012645323;0.019289669;-0.036620833;-0.014646319;-0.005593985;0.055808846;0.045902472;0.048058588;-0.06840344;-0.006632487;-0.03909897;-0.075036265;-0.06221482;-0.09234363;0.038582344;-0.060364757;-0.1218103;0.022140214;0.057785667;0.09262127;-0.032673266;0.012657649;-0.08197944;-0.034999512;-0.041481335;-0.123460665;0.06981354;-0.04649703;0.049356636;-0.05309111;0.022413222;-0.14833045;-0.013073369;-0.0023461166;0.13951334;-0.1793055;-0.025876734;-0.033599205;0.103638604;0.013671484;-0.00022955633;-0.07061714;0.09261263;0.06704474;-0.06595713;-0.0068110246;0.12509908;0.029057374;-0.0015657027;0.010767311;-0.075299814;-0.07295632;0.02084697;-0.0010635904;-0.13547009;0.050766412;-0.056854934;-0.04072696;-0.02281435;0.057564788;-0.06284098;0.038346652;-0.04703717;-0.0031982104;0.04177036;-0.008625235;0.05570639;0.0022566328;-0.051774614;0.018458819;-0.03540981;-0.024426004;0.028105125;-0.03916676;0.062607124;0.070087865;0.04872708;0.01527543;0.01120232;-0.084789634;0.041524928;0.05016799;-0.060351465;-0.03322236;0.053096395;-0.07262339;0.0082584;-0.05778375;0.015467151;-0.02378931;0.0074243485;-0.0010582866;-0.03441036;-0.085558616;-0.080546185;-0.13707113;0.013711968;0.031488344;-0.064558156;-0.0055985893;-0.0015948722;0.0645584;0.083321065;-0.059636362;0.024889743;0.088613406;-0.12470058;-0.039346147;0.07259572;0.06855584;-0.05295265;-0.058245137;-0.04912571;-0.062253278;-0.021107338;0.13130836;0.013688988;0.10257401;-0.042882983;0.009381163;-0.032413512;0.019916879;0.026336439;-0.00057865883;0.07553506;-0.0037795207;-0.04639814;0.067585625;-0.011840822;0.07666041;-0.056573868;0.08057149;0.06312736;0.062324382;-0.057249375;-0.009258977;0.025981184;-0.031033706;0.048432965;0.002553249;0.07283349;-0.2050714;-0.058737587;0.058303624;-0.015521314;0.07479884;0.053002715;-0.073459;0.0033749554;-0.051679548;-0.0408186;0.05176631;0.057098076;0.038422365;-8.762757e-05;-0.059550155;0.05409777;0.021857146;0.12906136;-0.010828811;0.027159054;-0.018182188;0.094229005;0.10439135;-0.07115955;-0.04045453;-0.018666266;0.05652044;0.04068297;-0.02343999;0.020357845;0.05885081;0.07847088;-0.04360374;-0.034164395;-0.04621174;0.051181264;0.0675026;0.03960259;0.025613954;-0.049105126;0.018957546;-0.0047112186;-0.057005443;0.08291742;0.06975391;0.009429553;0.049518976;0.041543987;0.022047833;-0.021768354;0.004827602;-0.016716277;0.009272941;-0.069204144;0.13871276;0.019513257;0.13429834;-0.028109776;0.086213656;0.026881343;-0.07419369;-0.07110736;-0.02819478;-0.08828772;0.04622165;-0.04099842;-0.07172011;-0.05590407;0.020798646;0.0037436704;-0.0042724214;-0.070409745;-0.015794596;0.021016184;-0.025525255;-0.039987016;0.055926286;-0.02254042;-0.0030004003;0.07743948;-0.027127996;-0.06939144;-0.08223257;0.0999636;0.011768787;0.032774873;-0.026772741;-0.0042639547;0.08976508;0.06336812;0.047094237;0.06305468;0.038091805;0.07879342;0.0059859487;0.0027753916;-0.038127948;-0.08646359;0.033483945;0.111454435;0.034124125;0.014289946;0.04299242;-0.0683828;-0.0133934915;-0.036963224;0.0062571056;0.008958496;0.03582426;-0.104104824;-0.0278881;-0.003269405;0.030033102;-0.012606398;-0.071704134;0.05948284;0.061241847;-0.029778823;-0.075387545;-0.023219734;0.049317006;0.06654866;-0.01422898;0.024072193;0.041182585;-0.020018918;0.0063475943;-0.00068406423;-0.09933468;0.025088439;-0.020570466;0.017438658;0.032461666;-0.08402253;-0.023517346;0.07798145;0.06419278;-0.043254085;0.08861347;-0.028138326;-0.007256656;-0.053047508;-0.06746104;-0.05920699;0.024550384;-0.029967967;-0.016637223;-0.07778345;0.042106777;-0.09780167;-0.0072460906;0.018018045;0.0011963245;0.06601078;0.032801326;0.047138564;-0.05687738;0.014756036;-0.13089535;0.02474962;0.10965222;0.008646597;-0.042783435;-0.025185674;0.059852596;-0.009929659;0.016223518;0.02154054;0.10460192;0.07418931;0.04508504;-0.05316326;-0.16543698;-0.004264534;-0.032551847;0.039657917;-0.033892233;-0.12561281;-0.04341665;-0.059045218;0.03351923;-0.105911456;-0.009244511;-0.064165965;0.07973154;-0.035246707;-0.047727197;-0.088855654;0.056696422;-0.10160736;-0.042807847;-0.038728386;-0.06331694;-0.105783254;-0.040973373;0.025508635;0.13847026;0.03596548;0.028077438;-0.11098898;-0.046725266;-0.072889134;0.043859832;-0.06043806;0.030925428;0.033189256;-0.0523927;0.030294333;0.04893358;0.06441468;-0.10538664;0.06682793;-0.06965803;0.0813734;0.07770945;-0.0630422;0.115044154;0.048859682;0.037092425;0.07991183;-0.08280218;-0.054838136;0.04775035;-0.031723212;0.005829918;0.06017107;-0.0028501195;0.061043963;-0.07157402;-0.061297596;-0.04771491;-0.02598998;0.0029913955;-0.026108203;-0.034340095;0.030521628;0.07854648;0.011319362;0.05693133;0.009551796;0.059838798;-0.03847488;-0.07640045;-0.045208804;-0.04461008;0.08315572;0.028406551;-0.005213925;-0.045138452;-0.06441416;-0.15023011;0.06297505;-0.0569604;-0.21971416;0.048330057;-0.0488555;0.07778121;0.12112219;0.033906687;-0.07620784;-0.033757403;-0.0042906525;0.12501727;-0.0063927243;0.0076218704;0.018933482;-0.053341176;0.045600545;-0.023032296;0.008417403;0.07082401;-0.099433325;-0.005558929;0.059780773;-0.092725754;0.0662977;-0.040511414;0.06967703;-0.05543465;0.0060370187;-0.045176737;0.01839866;0.046250958;0.022056073;-0.022535095;-0.053845484;0.0549422;-0.03231107;0.02252229;0.053990867;0.05340018;0.1448117;0.06251939;0.0025111802;0.031054582;0.065550216;0.011521322;-0.07531448;-0.0031289628;0.0019181255;0.026600765;-0.039651774;0.07214483;0.0046841213;0.06691166;-0.06381444;0.046147965;0.09431028;-0.0018002752;0.08008177;0.0012552777;-0.024700971;0.015794555;0.0667368;-0.009544132;0.04271469;-0.0041786465;-0.056390435;0.012124153;0.058406487;0.004485072;0.05880647;-0.010533516;-0.09869901;-0.024881989;-0.04513976;0.0028103974
-0.00655554;0.037766945;0.030219115;0.0042289123;0.03688936;-0.063258745;0.091269895;-0.07795649;-0.075175926;-0.0011420007;-0.0023012613;0.058330294;0.07526454;0.059019282;0.023555482;-0.07307745;0.003692362;-0.0028370302;-0.015662132;-0.06891286;0.030681184;0.070537806;-0.022874147;0.010011268;0.043902725;-0.111894436;0.021522643;0.067619234;-0.031300984;0.087854534;-0.059023187;0.029524384;0.042399094;-0.06258121;-0.026939366;-0.08049976;0.040756978;-0.058056977;0.051915187;0.037586607;-0.031942308;-0.018678168;-0.015318329;0.06403786;-0.10402762;-0.08173634;-0.041581098;0.065027565;0.0057402495;-0.05211396;-0.12815203;0.16845459;0.052962866;-0.06915131;-0.046946418;-0.037054244;0.11293677;-0.03123033;0.0047554425;-0.028237792;-0.07168599;0.06433557;-0.08846347;0.00023100823;-0.009166637;-0.039041504;-0.12323836;-0.045615166;0.074003994;0.062263668;-0.040355287;-0.07037597;-0.0664909;0.01374362;0.029022189;-0.034260646;-0.043289635;-0.031665675;-0.055009894;-0.06633357;0.05085656;0.103506275;-0.044277515;0.08672248;0.08416399;-0.015076929;-0.009227805;0.037012413;-0.03437121;0.01612675;0.032926463;0.014698335;-0.060375534;0.028370984;-0.047146466;0.060315594;-0.016253112;-0.093986854;-0.005028685;0.001805901;0.042733267;-0.03404471;-0.029417966;-0.05929932;0.049887266;-0.06554533;0.06648306;-0.03609454;0.051690534;0.030673979;0.033036754;0.015514289;0.057727173;0.06487474;0.043818925;0.06222971;0.0005207525;0.039046813;-0.011329515;0.01352883;0.05553263;0.05249891;0.016939025;-0.028484827;-0.01911112;0.005730613;0.012106542;0.11074554;0.07426258;0.102334574;-0.074852504;-0.047668908;-0.0014841754;-0.08503584;0.017264716;0.10285948;0.031466197;-0.08299712;0.052230105;-0.1533955;0.060754657;0.03256555;0.009190638;-0.06638752;0.04754193;-0.027305799;0.11597491;0.048876308;0.039573215;-0.080918446;0.023586974;0.051999185;-0.045468275;0.02920932;0.1007679;-0.10816764;-0.014846696;-0.019364968;-0.045689724;-0.12317856;0.004482162;0.02280289;-0.1174946;0.08680101;0.03288874;-0.020204749;0.07730667;-0.046108704;0.06612073;0.032947928;-0.073732495;0.0049182917;0.08219467;0.0034173317;-0.030660061;-0.06426652;0.030632697;0.0835255;-0.048915155;-0.0070567005;0.06889512;-0.028101733;-0.07511323;-0.075845286;-0.008606374;0.10586254;-0.026531199;-0.07458327;-0.05287741;-0.030313604;-0.027485041;-0.078176565;-0.028946122;-0.04715719;-0.08386442;0.034361396;0.05684017;0.016433114;0.121664554;0.0029322186;0.0056763934;-0.04142619;-0.03018292;-0.012478017;0.023436835;-0.08630391;-0.0055162827;-0.007826468;-0.008763725;-0.087606765;0.033568256;0.026892992;0.08319828;0.044730015;0.028922768;0.010401128;-0.04239255;-0.08930115;0.06755934;-0.0023761925;-0.0756926;0.0032090559;0.00764196;0.075450554;-0.110376865;-0.031031322;0.037959564;0.07017203;-0.075109325;0.051036295;0.064795636;-0.047894634;-0.05257931;-0.08593837;-0.033992123;0.033963718;-0.015980162;0.012899579;0.016975613;0.040409543;0.0039725513;-0.009397667;-0.012155867;0.06118907;-0.062576756;0.064343765;0.06643014;0.08871645;-0.03655317;-0.0672055;0.07582776;-0.08270883;0.023766996;0.053351466;-0.025289902;0.06050522;-0.054720063;0.029396748;-0.040737092;-0.07186437;-0.017186983;0.12503012;-0.012015841;0.070372894;0.020025952;-0.057971194;0.055214323;0.043574847;-0.019020211;-0.06846793;0.028382242;0.002496915;0.07940925;-0.02593308;0.069612384;0.007921686;-0.025284437;0.00046985032;0.08704059;-0.061015297;-0.075824775;0.067892075;0.022875572;0.041571837;0.04427489;0.08131767;-0.034505676;-0.002885478;0.055336814;-0.030423174;0.008164418;-0.087818295;-0.09371853;0.110891744;0.060883995;-0.004460618;0.06566852;-0.08710833;-0.05775823;-0.10733877;0.036463972;-0.00891146;0.014476001;0.110776186;-0.04377441;0.1249457;-0.028926417;0.061599627;-0.051368296;0.019624108;-0.005390305;0.03907807;-0.017961068;-0.022784417;0.023654591;-0.012289559;-0.03417052;-0.08206313;0.059491515;0.04602966;-0.06162931;-0.061508596;-0.018806612;0.019402368;-0.030880874;0.030698925;0.040809724;-0.021446161;-0.071600035;-0.012310815;-0.021844843;-0.016098473;0.10067065;0.08967689;-0.06283942;0.0070009786;0.030337952;-0.015883243;0.07747414;-0.01882667;-0.08847978;-0.027531037;0.00085427106;-0.11657767;-0.055070076;-0.03562915;0.0048533576;0.058147695;0.06798693;0.022112953;0.013263676;-0.09972904;0.06640222;0.057657197;-0.051295854;0.10274766;0.11399627;0.090910025;0.06521522;-0.083371215;-0.014568508;0.021591756;-0.07662941;0.024387233;0.020063022;-0.034803092;-0.040410385;-0.008549133;-0.03030628;-0.027804844;0.042242788;0.046719674;-0.09707842;0.04782262;0.055563707;-0.027658349;-0.06017179;0.03506061;-0.041371357;-0.06999208;0.060398016;-0.015575409;0.05425402;0.04341512;0.04765137;0.0026137112;0.044079505;-0.017528946;-0.03372654;0.057996057;0.049305897;-0.08122906;0.0034141215;0.017043037;0.024334634;0.082764015;0.029912475;0.024180334;0.044112734;0.018750641;0.013482497;-0.044231668;-0.05156796;0.041240577;-0.06147546;0.06550538;0.053545658;-0.07255982;-0.07641726;0.13128364;0.09831511;0.07150242;0.05502708;-0.050805695;0.06215842;-0.07564724;-0.06633212;0.07146947;-0.06300007;-0.045257166;0.020643916;-0.10668166;0.008877437;0.085057445;-0.027536806;0.044584516;0.029419307;0.06634818;-0.03625986;-0.008980896;-0.02005469;-0.019933568;0.018719882;0.06437485;-0.036676116;0.034517348;0.07153643;-0.03711872;0.011945188;-0.054096676;0.041589886;-0.044082537;0.023939956;0.030170925;0.07521336;-0.039104212;0.010350256;0.13471413;-0.034018163;0.060578108;-0.03409168;-0.03900691;-0.04197235;-0.06721352;-0.07618722;-0.0071926783;0.020078968;0.113878354;-0.08178003;-0.0649477;-0.039748482;0.013441878;0.014169101;0.01996118;-0.018231569;0.14503704;0.077248156;0.016861208;0.066436574;-0.03265938;-0.0032169914;0.034042746;0.13415502;-0.101501465;0.046857722;0.050751697;-0.01711715;-0.012744049;0.0028476894;-0.026685521;0.017730473;0.024635715;-0.077103496;-0.09250695;-0.022226192;-0.0041839276;0.01494451;0.08034644;0.14786947;0.054332845;-0.093904816;-0.006374988;-0.051440306;0.049476307;-0.018952357;-0.02071337;0.10031359;0.044461194;0.06108675;-0.05410376;0.01597749;-0.1016112;-0.11605993;-0.07413412;0.004397337;0.08766326;0.052374665;0.048664533;-0.0734;0.059036274;0.04120843;0.104877554;0.010851452;-0.01035395;-0.08872431;0.059270445;-0.0059227115;-0.057702128;-0.019354196;-0.08371531;0.07477378;0.092541784;0.008371414;-0.021789951;0.07676783;0.058160655;-0.01650756;-0.08203519;-0.046340015;-0.015341615;0.087600015;0.07474339;-0.01889695;-0.031169718;-0.04729279;0.076568276;-0.03952839;-0.022641907;-0.07636023;0.007701566;0.13318081;-0.032570783;-0.026284866;-0.0036163244;-0.03247508;0.10001703;-0.044338845;-0.04468002;-0.09800954;0.038356137;-0.0787206;0.035354283;0.003989673;-0.022142027;0.003897526;0.031166386;0.087414145;0.066618845;-0.052425206;0.035066586;0.08376535;-0.019104803;0.022241736;0.064104594;-0.043425683;-0.0064416253;0.006126793;0.01922495;-0.06283519;0.015143541;-0.06019769;0.00582926;-0.10164082;-0.003225637;-0.0147808315;0.00519735
0.013556315;0.04279287;0.024271626;0.03830296;0.018528163;0.09513472;-0.058902744;-0.043229695;-0.04571272;0.0594782;-0.04452084;-0.13422644;0.07191765;0.08250061;0.05835583;-0.14134383;0.016221013;-0.05622504;-0.08023097;-0.036774833;-0.08129487;0.0021317354;0.07247501;0.04526059;-0.056543767;-0.013923192;0.10289511;0.0016231558;0.062406678;0.12079617;0.0663159;0.08566159;0.045954645;-0.004308327;0.06170642;0.024650006;0.16763015;-0.12209786;0.016343283;-0.0103577655;-0.017281372;-0.017614288;-0.017886566;-0.048059512;0.01454558;0.011531227;-0.04402737;0.07984275;-0.014486309;-0.05302357;0.035019245;0.036057256;-0.0318597;-0.041963518;0.006001834;0.06339318;0.09414015;-0.059468277;-0.036259748;0.051749237;0.023502495;0.0010855572;0.01335162;0.07112239;0.05766244;0.07496321;-0.15418635;-0.008645445;-0.044218708;0.019241724;0.029833373;-0.005102618;0.06706187;0.036284916;0.06953255;-0.045886733;-0.0719182;-0.03498231;-0.027475875;0.0668616;-0.020818314;0.05317429;0.0656545;0.023430008;0.09087766;-0.013287561;-0.10231607;-0.0567449;-0.04722982;0.062341865;0.08107184;-0.020262154;0.050292324;0.06579362;0.10907591;-0.042008396;-0.022129474;-0.089282915;0.044443946;0.017058197;-0.044852387;-0.06549791;0.050218306;0.01831574;0.065141;0.011468055;-0.015251558;0.035917617;0.03515614;-0.025888387;0.0409114;0.041420348;-0.03430053;-0.050494436;0.032928158;0.03826493;-0.02701167;-0.049302593;-0.11574603;0.051227573;-0.0068617607;-0.02185328;0.04111074;0.04417746;-0.027795099;0.014795043;-0.06911555;-0.022050751;-0.035387475;-0.017037308;-0.10326089;-0.065369114;-0.044451315;-0.03253976;0.057150863;0.10881339;0.020662718;0.027727652;-0.0147715565;-0.081231505;0.018733844;0.054776415;-0.05932818;-0.099694915;-0.09405375;0.029677587;0.0751663;-0.009307926;0.06970394;-0.07498974;0.0723064;0.037276253;0.027566895;0.09746678;0.12510033;0.056692123;0.001089699;0.012547887;-0.012228661;-0.017245747;0.016646829;0.06312643;-0.12211027;0.09893473;-0.022649683;-0.029601488;0.066062294;0.04077114;-0.059017517;-0.029989421;0.029641043;-0.08830896;-0.04538655;0.07748689;0.018087603;0.07043913;-0.09199845;0.02645502;-0.025161065;-0.04247583;0.063421644;0.08083217;-0.0017615748;0.025583014;-0.0037195797;0.13679773;-0.02210299;0.032970063;0.017056184;0.01630828;-0.051867545;-0.08544128;-0.059738535;-0.007480367;0.021872174;0.030877762;0.0033425102;0.0961827;-0.048986077;-0.013281706;0.014396212;0.039252803;-0.046075005;-0.04146285;-0.021172676;-0.050231732;0.066351116;0.104988866;-0.011916615;-0.073688634;0.022956038;0.07445716;0.1005034;0.028352533;-0.04564428;0.04345694;-0.09552313;-0.07320435;-0.07277222;0.0042149224;-0.07553515;0.026319295;-0.036088277;0.088128656;0.018267032;-0.01630699;0.019082574;-0.01623487;-0.0042414507;0.014149163;-0.07944758;0.018803263;-0.002759374;-0.06259348;-0.07111593;0.048845045;-0.029677242;-0.012141919;-0.057145175;-0.015848236;-0.05569789;0.04915332;-0.008898185;0.06888425;0.001957301;-0.023855692;-0.0673234;-0.07819961;-0.062497426;-0.047661886;-0.029747108;-0.059223395;0.018313562;-0.14343108;-0.031125762;-0.05657749;0.05086627;0.019973781;-0.05945415;-0.018110506;-0.05992623;0.01319479;-0.014123378;0.045063376;-0.019613069;-0.013353297;-0.025377523;-0.026100064;0.09230378;-0.031967036;-0.032397017;0.07362957;0.009128419;0.0934098;-0.058149993;0.0054152943;-0.0022998436;0.0658626;-0.00839974;-0.026038084;-0.045238517;-0.047893338;0.095036276;-0.009433572;-0.018996067;-0.036043342;-0.033701606;0.103354216;-0.00085992564;-0.02526529;0.06349881;-0.13572852;0.014768445;0.114370055;0.04882409;0.060763415;0.056184415;-0.101030365;-0.033462893;0.0124916285;0.07164707;0.020853044;-0.01973033;0.0392595;-0.012337325;0.045429252;0.03403474;-0.011028733;0.01322044;0.013820508;0.05438654;-0.07692586;0.017952109;0.037265755;0.07305095;-0.03502863;0.0985976;0.010450068;0.009686543;0.12793049;-0.05260158;-0.12015465;-0.121397585;0.041638475;0.027242739;-0.008130483;0.040092822;-0.027041748;-0.07226857;-0.060747467;0.068636514;-0.061808996;-0.028669834;0.027716912;-0.08739051;0.02355216;-0.060871616;-0.023666926;-0.025819529;-0.002540433;0.056119718;-0.06365218;-0.06553761;-0.122200586;0.0300149;0.0030234915;0.04273521;0.018608991;-0.049453102;-0.012745673;-0.067471534;-0.0049054213;-0.07273708;0.006468105;-0.07668035;0.045198746;0.15674326;-0.03385291;0.02315885;0.09872082;0.12178624;-0.07094049;0.06867212;0.011124559;-0.03400918;-0.061734848;-0.0076967855;0.007243269;-0.07329641;-0.041721985;-0.066610925;-0.041791234;-0.07561016;-0.01746265;0.033198204;0.002135552;-0.077812225;0.062668435;-0.0066471784;-0.06647613;-0.010742226;-0.051184174;0.062932074;0.07501118;-0.031528983;0.020485384;0.017660568;0.005547846;0.05208531;-0.091705315;0.019930938;-0.023357015;-0.06289604;0.050185587;-0.009596021;0.09398351;-0.031177783;-0.022175284;-0.021028485;-0.046370056;0.05274643;0.05152178;0.046923622;0.07212091;-0.029858897;-0.057865918;-0.019156743;-0.034216788;-0.052401375;-0.026304312;0.08639748;0.008107928;0.05816912;0.010915112;0.064047694;-0.015319846;-0.060862035;0.16460323;0.030161478;0.07229153;-0.008092419;0.09026808;-0.0036055888;0.062659174;0.03941867;0.028054813;-0.071566604;-0.054841317;-0.14279537;0.045204002;0.03251925;-0.078874305;0.023968022;-0.014356635;0.07267255;-0.024909582;-0.061598048;0.07785645;-0.034375064;0.040185418;-0.06957731;0.070724286;0.08274117;-0.031061199;-0.015082342;0.02514456;-0.041461132;0.08416235;0.023483854;0.048234098;0.032605864;-7.247702e-05;-0.06492234;0.019160382;0.036025666;-0.028373064;-0.07017626;-0.0033088168;-0.07463292;0.029671775;0.030473346;0.017244438;-0.05684802;0.0072613596;-0.040117435;0.099048495;-4.0153463e-05;-0.013072418;0.07896639;0.03933857;0.00086775963;0.08108191;-0.032649297;-0.028794175;0.078428395;0.037732136;-0.026074307;-0.011673857;-0.039875593;-0.06832496;-0.007506312;-0.00679832;0.02303876;-0.084345825;0.040778365;-0.016436467;0.05218618;0.013637391;0.18554279;-0.07323144;0.052150488;-0.049940035;-0.03769417;-0.016910715;0.02248052;-0.062189072;-0.009532119;0.052877728;0.060016423;-0.09832988;-0.09462967;-0.021611463;-0.14796892;-0.11976776;-0.04606713;-0.0040638405;0.046555188;0.08093571;0.02288677;0.036988955;0.09567687;0.11844593;0.034202326;0.04503775;-0.025056478;-0.048147753;0.062338714;-0.049086995;-0.027736;-0.056816246;-0.037896525;-0.065417364;-0.08322565;-0.09242403;0.1065252;0.053780142;0.018055584;0.0067046154;-0.06969503;0.022180198;-0.049349505;-0.04411038;-0.014923422;-0.078395285;0.026919786;0.015891276;-0.08132502;0.05637419;-0.05900194;-0.011260548;0.081541136;0.009051682;-0.0457883;0.020583073;0.026965173;0.07054757;0.048953872;0.013756101;0.032934483;0.02592684;0.050219808;-0.003292634;0.014163246;0.018348556;0.047787055;-0.060963;0.08926156;0.012597351;-0.023112047;0.017645348;0.10452485;0.073548056;-0.029282333;0.091223896;-0.051281672;-0.0033893692;0.02439243;0.08593678;-0.019578753;0.025827246;0.04539755;0.026118232;-0.04958879;-0.03872367;-0.03965496;-0.062298376
0.01375482;-0.0124711525;-0.056921486;-0.013965043;0.028485084;0.023767114;0.04429308;-0.064872794;0.041543584;-0.07758368;-0.014906827;0.011387278;0.03175579;0.026098074;-0.038004823;-0.054296497;-0.03978661;-0.059443075;-0.0428893;-0.04025638;0.047376566;0.088522404;0.0154513465;0.07040072;-0.022895992;-0.07348294;0.032461174;0.109747455;-0.084630236;0.04723336;0.00015780346;-0.032375295;0.08287936;-0.06918504;-0.027726557;-0.10566856;0.16410743;-0.08315064;0.004936258;-0.0019625726;0.052989278;-0.011419933;-0.06696571;0.021428617;0.012450222;-0.07437378;0.07563578;-0.07320306;0.060305137;-0.05447716;0.04290802;0.13013019;-0.028627163;0.024750018;-0.0716018;0.04544904;-0.041955974;0.052850958;-0.10114677;-0.09410321;-0.062390875;0.02636928;-0.023359908;0.028359545;-0.07493;0.01614217;-0.10505934;-0.029338906;0.076084815;0.03928154;0.004082445;-0.048766468;0.050344095;0.0071409848;0.04452497;0.017092407;-0.0064538075;-0.03155295;-0.09266834;0.09614219;-0.05494653;0.073332205;-0.02032837;-0.05976277;0.06093704;-0.042613387;-0.16443981;0.022205563;0.03462931;-0.035772234;-0.056036063;0.0667771;-0.03740456;0.05685651;-0.040625896;-0.031455237;0.056458674;-0.15184417;-0.006898018;-0.0046788156;-0.019498523;0.042530213;0.03977597;0.02477676;0.024911758;0.06426358;-0.032157864;0.026734611;0.12146582;0.06677483;0.011560265;0.035727907;0.012167225;-0.068306215;0.017683364;0.04306734;-0.018228218;-0.0023555823;-0.12940863;-0.04762396;0.078971505;-0.03464311;0.051841553;-0.07737798;0.003931985;0.06612896;-0.0146985985;0.02146312;0.052373365;0.019928738;0.014855243;0.065886974;-0.07464732;0.06522885;0.061729066;0.03636096;-0.022298513;-0.10213885;-0.007679288;0.014270125;0.06752604;0.0045494577;-0.014309583;-0.057341333;-0.13637754;0.024237106;0.067188695;0.09926436;0.09274574;-0.03520312;-0.015228379;-0.0002701682;0.052132923;-0.040445894;0.11626707;0.04307394;0.002811095;0.05412302;0.02840798;-0.011943241;-0.004354702;0.036947355;-0.04161859;0.101310655;-0.07916561;0.004217343;0.1566345;0.038660593;-0.05366618;0.039591122;-0.07484617;-0.025611244;0.03185634;0.018365316;0.106608644;-0.04732709;-0.09232935;0.054376997;0.06862474;-0.08690888;0.05287128;-0.021691987;0.026983794;-0.0906376;-0.009716288;0.13768458;0.02632778;0.021591457;-0.021469498;-0.015380025;0.020710222;0.022457814;0.00080655696;0.06339911;-0.06995936;-0.00016744072;0.106206514;0.013875559;0.040002644;-0.031184657;-0.06490072;0.045642015;-0.062361542;0.06726307;0.05359143;-0.005327192;-0.050543718;0.07001996;-0.06169252;0.039742526;0.014236202;0.011979337;0.0016069727;-0.120189756;-0.11645029;-0.063377865;0.04322516;-0.047825042;0.02574136;-0.08826941;-0.018902564;0.05039581;0.09040221;-0.062461805;-0.08974718;0.026006669;-0.08835489;-0.0739671;0.010222868;-0.024602;-0.04406278;-0.020926787;-0.047658022;0.014209081;-0.12749828;-0.085639544;-0.06681611;-0.050326437;0.04195613;-0.053671297;0.046247136;-0.0100411065;0.006155207;-0.01043788;0.045126952;-0.046700284;-0.07335837;0.071069404;-0.058238994;-0.00019514261;-0.103226975;0.019844016;-0.04968685;-0.09623116;0.029370574;-0.054640695;0.05236952;0.025117638;0.04000471;-0.035792608;0.039161988;0.08583093;-0.044253472;-0.07576896;0.031759996;-0.07795294;-0.05937855;0.096311264;-0.054975256;-0.10286889;0.04749673;0.018300254;-0.053398613;-0.053533603;-0.056380194;-0.017163593;-0.04052614;-0.02965309;0.096976675;-0.061238285;0.052189168;0.0056956094;0.034990005;-0.0335614;0.08026008;0.08788511;-0.056196164;0.099478334;-0.09029863;-0.052273158;0.05647319;-0.0018019015;0.06123254;0.05106165;-0.02240845;0.046985883;0.028408261;-0.0728744;-0.016496135;-0.09704266;-0.0014643887;0.08466988;-0.066529915;0.15324357;0.055185586;0.064481266;-0.06544006;-0.023322186;-0.059808996;0.036092617;0.04051459;0.031072397;0.019466996;-0.10003307;0.09007005;-0.05357825;0.11275128;-0.08275341;0.03201616;0.13276565;0.0056405677;-0.08647368;-0.013330497;-0.0022950824;-0.03656356;-0.016815912;-0.02982999;0.043898694;-0.017151339;0.00040942896;-0.06367725;-0.03629716;0.062621005;0.033072494;0.04367901;-0.01942459;-0.098148145;0.015855372;-0.059296384;0.08969147;-0.042377003;-0.023811847;0.025582373;-0.14527863;-0.081382565;-0.06426984;-0.07706347;-0.08976864;0.060958724;0.09559606;-0.027612511;0.01351589;-0.040333357;-0.0735293;-0.0021682982;0.03749917;-0.032525543;-0.030501505;0.0512266;-0.08689748;-0.0013599551;0.023967374;-0.0077637234;0.08825481;-0.056099486;0.043073602;0.022949046;-0.054176237;0.032579325;0.03750106;0.091675475;0.005858267;-0.067073226;0.013035517;-0.046342775;0.08036064;-0.082950875;-0.07265527;0.006888615;-0.1289436;0.036488537;-0.03486006;-0.101925306;-0.003327208;-0.00384734;-0.07923336;-0.0031934227;0.05974009;0.11881605;-0.072850615;-0.061557163;0.02767404;0.041217383;0.055215865;-0.03616091;-0.024968147;-0.025019012;0.023535822;-0.06481031;-0.023719806;-0.08596612;-0.023214284;-0.08042311;-0.027754817;-0.018588668;0.027367372;-0.08252736;-0.082614005;0.056464072;0.13729298;-0.029785266;0.05413883;-0.0038556089;-0.022397634;-0.07577308;-0.015626382;-0.08662742;0.07530642;-0.02322621;0.05961997;-0.08466948;0.026446229;0.040102284;-0.007909162;0.023156941;-0.06636472;0.0640539;-0.013652528;-0.060081318;-0.017047733;-0.027804516;0.02661676;0.044293668;-0.030957554;-0.019920463;-0.082252815;-0.10547286;-0.03910032;-0.11248338;-0.03203312;-0.027477665;-0.02575585;-0.058430906;-0.057955004;-0.02501866;-0.023992183;-0.06394192;0.11690035;-0.04996734;-0.04769955;-0.0850466;-0.06043971;-0.021579867;-0.051050443;0.07158365;0.033642605;-0.07375052;0.06488514;-0.07909536;-0.032299533;-0.00293449;0.0212301;-0.07145786;0.026785417;0.039104678;0.011417651;0.053861983;0.0722011;0.12052976;-0.002285177;0.03890807;0.029367944;-0.06755683;-0.0592494;-0.022931142;-0.015813364;0.035575036;-0.034649763;0.06702387;0.048967775;0.12784505;0.03480876;0.06718012;-0.06280818;-0.0043357685;0.082207866;-0.051635887;-0.06817762;0.021386854;-0.027886964;0.08907431;-0.039280925;0.044305086;-0.026712809;0.08786184;0.010228859;0.07078049;-0.09186458;0.0015328282;-0.065777734;-0.08466836;-0.09889843;-0.024713391;-0.18778719;-0.046783574;0.05832703;0.029858887;0.07565449;0.08677271;0.04540139;0.087117575;0.08905022;0.0070522;-0.0034257043;0.0074341875;0.08078468;0.049898103;-0.02629253;0.08865521;0.030809594;-0.068052806;0.01882927;-0.07717302;-0.11981292;0.01913081;0.08563508;0.016075896;-0.07632297;-0.052772563;0.031177461;0.076701656;-0.06867509;-0.044778146;0.02433886;0.028492292;0.064372785;-0.038586482;0.038505103;0.044217084;0.04822909;0.20080422;0.011273353;0.036887836;-0.022579402;0.023862414;0.12749985;0.0902118;0.05022029;-0.06427276;0.0102615915;0.004408851;0.029427774;-0.08998979;-0.06734836;-0.03165367;-0.042333115;0.07666655;-0.009477917;0.10847441;0.05052839;0.085953325;0.012177493;0.03892735;0.047962643;-0.07209847;0.011472471;-0.0880762;0.022852026;-0.01989645;-0.08113428;0.04051403;0.044494733;-0.014680776;-0.032263342;-0.051214658;-0.04673182
0.040337943;-0.013725539;-0.12889121;0.09819382;0.054485597;0.027228005;-0.024737677;0.04041344;0.04538126;-0.10235282;0.041679535;-0.0463712;0.048536405;0.06527546;0.019031074;-0.14630575;0.05515043;-0.14443296;-0.060159754;0.008781128;-0.056505248;0.017290654;-0.08173652;0.058590274;0.11291478;-0.02361905;0.006431487;0.12226246;-0.05679923;-0.04448255;-0.050224334;0.12726294;0.08955799;-0.0060863793;-0.01635918;-0.076072894;0.21447381;-0.079495676;-0.09203879;0.084667794;-0.057772797;0.03560324;-0.14913103;0.06217231;-0.114378296;0.051119912;0.017045196;0.044808887;-0.011817861;0.026720691;-0.005659362;0.1916615;-0.038927928;-0.038878314;-0.039855845;-0.07049024;0.03774424;0.044643488;-0.08490713;-0.021648746;0.046052374;0.130646;-0.025428027;0.02514303;-0.09992449;0.0984576;-0.13865663;-0.039485127;0.07327524;0.100080475;-0.09572733;0.021024479;-0.030815285;-0.108766526;0.0023988087;0.017914305;-0.02501334;-0.0013242012;0.026096277;0.09569451;-0.05393698;0.07098247;-0.015772693;0.043055654;-0.05020757;-0.06250595;-0.13269979;0.036502227;-0.040062916;-0.045509297;0.05767076;-0.028382735;0.044914413;-0.04986519;-0.067187585;-0.014148253;0.10301096;-0.10347681;-0.023469646;0.012206818;-0.037961926;0.07161799;-0.03668761;-0.0010078788;0.093903035;-0.03864513;0.0055685155;-0.021775363;0.025444668;-0.01997669;0.02062393;0.052703384;0.06347465;0.04834385;-0.041026693;-0.044610903;-0.002864367;-0.07984327;-0.09745529;0.027404422;-0.061843064;-0.031944785;0.1231789;-0.061351456;-0.13965067;-0.044595554;0.03901872;-0.028554043;0.076415196;-0.06950567;-0.006522358;0.028960127;0.03963394;-0.0035550373;0.08138743;0.17156617;0.00030657885;-0.08229653;0.050290313;-0.031907197;0.014042201;0.052428123;0.016461762;-0.051406167;-0.11703315;0.014832251;-0.0054634064;-0.018566953;-0.00072586373;-0.06542458;-0.16262276;-0.046546128;-0.09263559;-0.022230212;0.027804041;0.005713123;-0.04058962;0.04928981;-0.014444258;0.046240967;-0.05286006;0.031037625;-0.09915582;0.11022037;-0.08304698;0.03425962;0.112806596;-0.06469409;0.037451763;0.048016656;0.05298328;0.08113688;0.08172401;0.0017465071;0.10047172;0.008320213;-0.10722849;0.123596795;0.017454932;0.007911673;0.018982511;-0.050235648;-0.025529899;0.05519607;-0.019485638;0.15759712;-0.014504551;-0.08859782;0.02883605;-0.03974551;-0.036606763;0.022587914;0.055214603;0.022850312;-0.010382952;-0.055270642;0.061437454;0.053175297;0.03379221;0.041811265;-0.043418813;-0.056811303;-0.028126644;0.02792115;-0.05115286;-0.022073936;-0.03458386;-0.0021039979;0.036815505;0.031564437;-0.009580022;0.084011436;0.08727923;-0.10654053;0.02637461;0.05941107;-0.016485024;-0.07735062;-0.04165035;-0.08070853;0.06813096;0.032287337;0.034122154;-0.014529201;-0.013369527;0.073852725;0.050408732;-0.13450076;0.04063901;0.097059146;0.022650085;-0.055200756;-0.0010634166;-0.0091951145;-0.07684296;-0.09846668;-0.00486174;0.065407425;0.04776384;-0.026232295;-0.012666814;-0.06218379;-0.030004296;0.051917706;-0.06689299;-0.016190203;-0.013142657;-0.056299854;0.037151758;-0.052354906;-0.025896193;-0.013328551;-0.08553023;-0.12328743;0.017436657;-0.03737913;0.06579678;0.12309972;-0.0519081;-0.06814123;0.0819314;-0.03908805;-0.07625438;0.033582956;0.043468684;-0.074626856;-0.022146193;-0.032665145;-0.03661933;-0.07273792;0.088272095;0.01597503;0.013289556;-0.09881366;-0.04429464;-0.061673436;-0.08309016;-0.042527173;-0.013542255;0.024403835;0.06745204;0.012239423;0.09706361;0.01985988;0.09734198;0.10770807;0.084497675;0.0017086316;0.038779303;0.07421773;-0.081275694;-0.059519198;0.06514948;-0.083635844;0.07629578;0.013758343;0.010628359;-0.07476989;-0.037856445;-0.024770383;0.047498234;-0.023612639;0.017930724;0.18624479;-0.019165127;0.010262221;-0.0059524053;-0.117820166;-0.037747603;0.02666642;0.062164694;-0.07969955;0.006610037;-0.04827816;0.029190885;0.06961761;-0.012468093;-0.051490262;0.07236208;0.13496602;-0.041449934;-0.009241288;0.067666225;-0.0037741868;0.036506906;0.10146908;0.12329726;-0.011296853;-0.08761257;0.06392203;0.0854924;0.026284805;0.038944572;0.086441725;-0.07449198;-0.17109759;0.021930343;-0.006256254;-0.014249923;-0.069840685;0.021083042;0.09886421;0.09671439;-0.120894164;0.008189891;0.060401216;0.0011619171;-0.125367;0.100071475;0.08138494;-0.0379156;0.0316816;0.03231204;-0.0748933;0.010852431;0.105460756;0.052265298;-0.04446951;0.016366906;-0.06791193;0.06810276;-0.017812787;-0.049301382;0.025888594;0.035425615;-0.0765227;0.0022602703;0.0009951947;0.0023078832;0.006181654;0.075147174;0.05242078;0.00069472345;-0.067579046;-0.11597965;-0.023914415;-0.07990509;-0.06703623;-0.0922998;-0.027602693;-0.10851959;0.02895333;-0.12221314;-0.040703814;0.045126017;-0.042414866;0.06917272;-0.05246058;0.041919116;-0.020901853;-0.10106688;0.001376784;-0.103752084;0.046345215;-0.033044104;0.086263545;-0.08679467;-0.03565119;0.0025861878;0.040600017;-0.10074522;0.038113866;-0.0016392344;0.045059413;0.059596956;0.033774804;-0.018418139;-0.07876365;0.055352703;0.059785984;0.07604699;0.07109645;-0.024411308;0.040369343;0.0054188427;-0.014179906;0.054356232;-0.0005698761;-0.0030582044;-0.05526995;-0.07042412;-0.03716875;-0.07390353;0.089602165;0.054045517;-0.027836166;0.09983015;-0.13232897;-0.016473193;-0.072197706;-0.07723222;-0.08019213;-0.015995972;-0.03816119;-0.039876375;-0.054447006;0.09448481;-0.047808673;0.014419178;0.080575965;0.07371875;0.025995607;-0.014836813;-0.05057277;0.084944054;-0.07859401;-0.07109461;0.14381826;-0.031401765;0.028124733;0.025933323;-0.009816518;0.022657804;-0.079489954;0.09317505;0.09584938;-0.05169869;0.12073141;-0.065547444;-0.098642975;0.08468347;0.014838394;0.024296299;0.026503766;0.022235509;-0.008686237;-0.041400887;-0.047176115;0.110727996;0.05399525;0.057891272;-0.073207915;-0.027358355;-0.06289636;-0.0398317;-0.023361403;-0.03940793;0.031208595;0.06674038;-0.011545777;0.031155894;-0.018707462;0.052118298;-0.074985914;0.08273846;0.048998963;0.032685917;0.041072935;-0.0032367718;-0.036889244;0.07655039;-0.0060364124;-0.0710786;0.002888643;-0.0412393;-0.016248457;0.08286342;0.01403903;-0.0023273905;-0.16162927;0.021930547;0.041649543;0.022661261;-0.056517117;-0.054596253;0.03200973;0.00019671115;-0.071864255;0.002126937;-0.022782804;0.024650421;0.15004171;0.08717882;-0.0519348;0.03935787;-0.0655148;-0.06569479;0.06901388;0.15675533;0.0487155;0.024206132;0.05930348;0.017390205;-0.030776214;-0.010939207;0.070701405;-0.00068433105;-0.09216985;0.046889953;0.013888839;-0.06001161;-0.049098756;0.00035598286;0.10483689;0.09325322;-0.0016636621;0.0062857955;0.033473723;0.019170761;-0.014865348;0.07814494;0.0536209;-0.05385929;-0.006785071;-0.083722316;0.057814047;0.04033153;-0.046192028;-0.09651738;0.016100697;-0.049282588;0.08383839;-0.090004385;0.015681468;0.02018514;-0.112169646;0.070085146;-0.023656635;-0.008418228;0.016467378;0.08654928;0.037880175;0.051514428;-0.055024963;-0.058392826;0.013973675;-0.106836736;-0.08093084;-0.09569908;0.06555223;0.06819744;-0.029563261;-0.015621624;0.065252624;0.049275216;0.024698375
-0.028427685;0.00081809046;-0.012307432;0.06957712;0.048895832;0.07919739;-0.01948447;0.018559827;0.060980447;0.051609784;0.045392904;-0.10243596;0.023310738;0.018349135;0.0075901714;-0.018053154;-0.015005352;-0.0011223828;0.067064136;0.019330714;0.034756623;0.040166106;-0.0201678;0.040403407;0.018355487;0.015513484;0.019409373;0.07332547;-0.08852498;0.06135733;0.058439393;0.0746025;0.09472962;-0.014936864;0.0009886177;0.013485088;0.008904769;-0.098667495;0.010492175;0.042301938;8.882283e-05;-0.011859605;-0.029068893;0.056531005;-0.17150411;-0.014038686;-0.06579672;0.028027052;0.06961461;-0.05761581;-0.016929237;0.123406015;-0.032117505;0.008068499;0.0657838;-0.09923126;0.0018315249;0.06334096;-0.14200471;-0.0010487656;-0.07687801;0.14954695;0.00967539;0.034952257;-0.06179732;-0.036734376;-0.07853485;0.035455484;0.021538984;-0.056734454;0.03262378;-0.014822598;-0.05960521;-0.021698078;-0.10331036;0.008336387;0.037586316;-0.031808484;-0.0048173857;0.1183346;-0.023430187;0.05223739;-0.013401343;0.023422679;0.0075521534;-0.031935196;-0.07670166;0.010651633;-0.10516757;-0.02011871;0.018144993;0.037700914;-0.030640112;0.04159068;-0.041704193;0.07666754;-0.012712803;-0.05363403;0.0038331172;-0.0008350317;0.076962195;0.069304675;0.079632014;-0.043008402;0.050017565;0.052819334;0.00741407;-0.04186043;0.07077751;-0.0114686955;0.0714773;-0.078984216;0.10526853;-0.072393835;0.030782087;-0.05112333;0.04684079;0.0379006;0.04986668;-0.056498196;0.06732044;-0.083616205;-0.006679635;0.06642961;-0.04770647;-0.041215435;-0.026548654;-0.04718829;0.008245502;0.04208185;-0.028816584;0.03871001;-0.08254029;-0.06926063;-0.042051516;0.057612184;-0.088648506;0.027246496;0.031423036;-0.11185939;-0.06094847;0.007225286;-0.02748465;-0.0022351092;-0.13380504;-0.124001905;0.026095206;-0.06797052;-0.033299856;-0.002582336;-0.021497862;-0.06380862;-0.021116951;-0.027131421;0.07374711;-0.047392327;-0.050240222;0.018303098;0.02128782;0.086389676;0.06607632;0.015374095;-0.079116575;-0.02423652;0.03638753;-0.052675568;0.08896868;-0.0066842865;-0.058944535;0.0041702595;0.021365684;0.06018617;-0.024511648;-0.06654858;-0.05028627;0.02700976;0.008086799;0.12869701;-0.038873672;-0.007050477;0.056225613;-0.06323184;-0.06887426;-0.034280837;-0.03200082;0.07993811;0.060857616;0.0041590575;-0.09461299;-0.05891691;-0.05844069;0.02995814;0.030564563;-0.025512382;0.054057565;-0.07194402;0.02081441;-0.005631168;0.013034187;-0.08045464;0.037687045;-0.0383386;-0.046088196;-0.074043624;-0.01652476;-0.08995038;-0.038596697;0.012799142;-0.023746897;-0.10025928;-0.08043057;0.016984833;-0.054556314;-0.033531208;-0.074134044;0.017711593;0.0512604;0.036101468;-0.008397729;0.022209631;-0.027383449;-0.021858668;-0.0038789632;-0.014533894;-0.039672676;0.070061184;-0.05322901;0.025170773;0.14541979;-0.038008247;-0.014424329;0.075191796;-0.06731465;-0.10433213;-0.023930809;0.07334636;0.014896474;0.026281575;0.0035789139;0.06912499;-0.0855438;0.016824223;-0.05224658;-0.04649435;-0.011324456;-0.064135045;0.020401288;-0.0005272395;-0.04059072;-0.12218869;-0.030734502;-0.068460055;-0.07267998;-0.0866644;0.049851786;0.034433227;0.046878472;0.032880105;0.08566722;-0.07348847;-0.059716854;0.0017869666;0.054278284;0.026921315;0.0015789827;0.022486432;-0.042495806;-0.05489413;0.0024812322;0.058798015;-0.05050754;0.018456966;-0.05164417;0.011288513;-0.11243258;0.014518822;-0.14052248;0.06734824;-0.016134167;0.04096259;0.022895392;-0.05611615;-0.06514871;-0.032661088;-0.06615412;0.030533738;0.023661783;0.034223143;-0.03757116;0.06992419;0.039447524;-0.06276421;0.11325873;0.07234192;-0.044791635;-0.00015119955;0.06654629;0.0044086063;-0.008424554;0.03247307;-0.009240315;0.053838864;-0.044237357;-0.010125487;0.035765443;0.11343879;-0.021868419;-0.07202252;0.035599787;-0.07638726;0.035182476;0.035174575;-0.04220995;0.0035168245;-0.032457147;-0.02119499;-0.05011747;0.028404236;-0.027456481;0.13530028;0.025668178;-0.08919063;0.040753044;-0.021254294;-0.0021078498;-0.004748811;-0.0113372505;0.056156486;-0.0266498;0.0043709967;-0.06448296;0.04835115;0.028353846;0.093758956;-0.048630826;0.014925269;-0.05595941;0.060112525;-0.08544865;0.07279203;0.057434075;0.090888664;-0.060902342;-0.06878807;-0.084531784;-0.018382093;0.017113918;-0.062777966;-0.025163075;-0.03471501;-0.083507285;0.10345345;-0.083121404;0.04390633;0.0652589;0.0041389656;0.04298773;0.031245664;-0.031409;0.04899685;-0.0009968852;-0.029161546;-0.013504232;0.04637158;0.04071644;-0.062101103;-0.06974338;-0.06997419;-0.058916595;0.014703236;0.024832962;0.13932359;0.05945274;-0.088522956;0.036879987;-0.012175264;-0.07735136;-0.019969502;-0.07821265;-0.16246492;-0.07183403;0.017704364;-0.08433851;0.050863508;-0.026814941;0.027949058;0.11594014;-0.067035295;-0.03675495;-0.012476587;-0.018246206;0.027662033;0.052495852;-0.002661396;-0.0787907;0.014268322;-0.05362231;0.0090905875;-0.098477185;0.0063348357;-0.057651784;0.014323323;0.06514716;-0.088767506;-0.068845056;-0.055869352;-0.011332609;-0.0073286453;-0.08061867;0.08583308;-0.0044227475;-0.0025006242;0.050074946;0.03204179;-0.067657426;-0.018296476;-0.06507058;0.11887199;0.044531934;-0.071391605;0.025005307;-0.03588944;-0.006996198;-0.031188665;0.05251782;0.031360134;0.04646597;-0.060099315;0.0027260394;0.02079967;0.027374705;-0.0119805345;0.07020444;-0.017098447;0.009731094;-0.0031615153;0.0035970984;0.007334707;0.007377585;0.02786229;0.03765368;0.05709531;-0.05808885;-0.08567982;0.050613396;0.008978849;-0.06539023;0.06848105;0.011988091;0.08039199;-0.005842042;0.07675402;-0.094130754;0.04122322;0.062787175;-0.06252341;0.0714553;0.08563212;0.062434293;-0.025940442;-0.07860428;0.044227354;0.056469448;0.010742985;-0.0018381836;-0.014350055;-0.060049474;-0.07837561;-0.020434817;0.057885207;0.02806438;-0.03852833;0.0060068644;-0.16111079;-0.021156194;0.02870768;-0.057093725;-0.03988221;-0.032298278;-0.070272714;0.0624377;0.07706328;0.055687923;0.049028896;0.06483268;0.0113142505;-0.0617539;0.019321064;0.1557413;-0.045662135;-0.015731381;-0.052017916;-0.07316886;0.07349511;-0.011711557;0.06734384;0.024935316;-0.077567086;0.021624815;-0.117642805;-0.01430664;0.041039772;-0.086721435;0.014821946;-0.01647665;-0.061765302;-0.002632119;-0.08673981;-0.054506447;-0.016131798;-0.0465391;0.09291956;5.546598e-05;0.039785143;-0.044784244;0.055132158;0.047192287;-0.025774201;0.11907244;-0.07912145;0.06479926;-0.08708602;0.024943663;-0.14352593;0.02182923;0.01913373;0.021993533;-0.059144136;-0.06091691;-0.00476717;-0.051950417;-0.09353785;-0.034774043;0.05434216;0.041039396;0.007655549;-0.082857326;0.13040352;0.07026732;0.06170663;0.120891064;-0.018883055;-0.083514154;0.027353264;-0.09288938;0.117064126;-0.016851628;0.021442723;0.026388086;-0.057929367;-0.055772856;0.05125945;0.061376043;0.088841066;-0.081747025;-0.04379305;0.025468877;-0.04787088;0.060082145;-0.042780306;0.06430702;-0.029007033;-0.048693795;-0.0852453;0.04593209;-0.0822412;-0.06732161;0.05295722;0.031097334;-0.042681158;-0.08090704;-0.08570576;0.007816131;-0.009608316;-0.00988172;-0.039036743
-0.009378658;0.01818179;-0.029254064;-0.0191638;0.016540932;-0.0775229;-0.06151467;0.015144388;-0.0146093145;0.021195687;0.027319744;-0.0326904;-0.092364654;-0.0075980774;-0.0030350257;-0.081689745;0.09375955;-0.017967464;-0.07143907;-0.04396157;0.024302566;-0.030174633;0.031954046;0.15855446;0.06892082;-0.0500379;0.07388454;0.112404406;-0.0068613477;0.14789088;-0.0723159;-0.12210526;-0.02809021;-0.028387114;0.050407115;0.0782571;0.10691889;-0.11013955;-0.090926774;-0.053634796;-0.063945845;-0.038099572;0.01144891;-0.059797853;0.015611215;0.027978467;-0.08567278;-0.055751737;0.035792995;-0.052893825;-0.017984381;0.10323824;0.04273765;-0.024491165;0.017505158;-0.0834303;0.0038665251;0.012165069;-0.07961509;-0.007316745;0.007503443;0.13068874;0.024839843;-0.07274366;-0.0127291335;0.04901973;-0.07274683;0.07666242;0.057633836;0.02290111;0.0650969;-0.028547864;-0.05265954;-0.04877519;0.02118505;-0.04616498;0.03794296;-0.09623159;-0.033731807;0.047549006;0.076299325;-0.01078696;-0.07837146;0.08665972;0.013283657;0.011408135;0.0027233115;-0.052514344;-0.047532283;-0.03177376;-0.06523575;0.07059041;-0.058667026;0.038855594;-0.016614236;-0.055241685;0.071364254;0.06485394;0.045203615;0.063697584;-0.022934737;0.0784043;-0.011320902;-0.064981036;0.016576484;0.027309999;0.028106518;0.050336476;-0.037481595;0.035357326;0.020058068;0.007518196;0.020649878;0.035453632;-0.023061447;-0.042336132;-0.057653993;0.052482944;0.0047967127;-0.08058511;-0.014538629;-0.0070938086;0.10613204;0.02439144;-0.06257288;-0.061272282;0.032897796;-0.010992067;-0.032653663;-0.038341634;-0.20129332;0.0566765;0.03515445;-0.0093917055;-0.034498494;0.10704868;0.07364493;-0.05846789;0.10396312;-0.03889012;0.032127354;0.0032117977;-0.033691287;-0.14658451;0.04936686;-0.09894938;0.09561711;-0.030731715;0.023848733;0.030784626;-0.088095;-0.020083748;-0.008344837;0.07652615;0.03516757;-0.057280954;0.02229222;-0.0249984;-0.07383437;0.082575634;-0.055641405;0.008143566;-0.10739212;0.08097957;-0.092531465;0.0856808;0.07166354;-0.024771089;-0.010991166;0.014247595;-0.046313815;-0.058334522;0.082029775;0.009972778;0.092302136;0.07140947;-0.07539905;0.106584;0.025176033;0.01185973;-0.021118283;-0.0025069467;0.015001202;-0.058933634;-0.10799198;0.04245583;-0.049889155;0.04783539;-0.0269011;-0.06624836;-0.03998688;-0.06963592;0.00971933;0.058568984;-0.0071402052;-0.033174098;0.08227081;-0.024423348;0.03668946;-0.0753073;0.0128501225;-0.0074565164;-0.02666803;-0.14277902;0.046562202;0.013313306;-0.06090823;0.061251536;-0.013025365;-0.05434082;0.05479251;0.074796274;0.07652478;0.02485446;0.033535343;-0.06556435;-0.070244975;-0.06458716;0.05564135;-0.06620204;-0.020620812;0.00071897986;0.026747033;0.024669284;-0.06212259;-0.0036062861;0.04757678;-0.09859544;0.096687414;-0.022679485;0.0059594153;-0.06729353;-0.033014446;-0.047569286;-0.029765287;-0.019139035;-0.0025202113;0.07723594;-0.12090996;-0.026796;0.03770079;-0.12634009;0.047369983;-0.01857582;-0.026439374;0.014980984;0.09661716;-0.030268483;-0.07214699;-0.067357935;-0.069636516;0.06596154;0.067828245;-0.07833908;-0.056319553;-0.015360599;-0.06758735;0.004585472;0.036018085;-0.07062473;-0.109458014;0.05330505;0.0010687021;0.07256774;-0.05829458;0.05566524;-0.06659652;-0.011636789;-0.009989862;-0.058679644;-0.016443346;-0.04387991;0.018350948;0.03989742;-0.078190446;-0.070826635;-0.039828856;0.051755216;0.0107601965;0.037030827;-0.058642223;0.013113326;-0.059820935;0.07964193;-0.0077182516;0.08220189;-0.041650765;0.034507222;0.03051363;0.05892509;0.0076546473;-0.11787599;-0.03819346;0.033512242;-0.026158018;0.03403193;0.03753489;-0.026758717;-0.024965266;-0.05409328;-0.0856099;-0.070016444;0.04531414;0.107162096;0.088773444;0.042918667;-0.05692468;0.0016578853;0.06890245;0.03728982;0.024408218;-0.0045400993;-0.009104526;-0.057747144;0.06631039;-0.048293445;0.06440933;-0.018454688;0.020996703;0.05853832;0.06880556;-0.08281802;0.012626291;-0.02126368;0.027088119;0.07412943;0.05164985;0.049557596;0.026623914;-0.05302634;-0.08108104;0.017660134;0.010270436;0.040792745;0.06846317;-0.0872608;-0.09021249;-0.048517063;-0.07182198;0.012008287;-0.070979245;-0.067160465;-0.019780166;-0.06685621;-0.0674086;0.073705345;-0.07722021;-0.06025768;-0.07708164;-0.026035333;0.00389549;-0.036716122;-0.061781317;-0.083555266;-0.010331074;0.09777089;0.10673071;-0.05876827;0.06780439;0.023236485;0.09231487;0.054109823;0.107639655;-0.082684875;-0.012256845;-0.068710364;-0.0273238;-0.16537727;-0.053916574;0.035538208;-0.0035050171;0.14017822;-0.10700414;0.031182947;-0.03156992;-0.038171783;-0.09910129;-0.01723683;0.045287192;-0.14410253;-0.038203582;-0.06862232;-0.055398755;-0.041000832;-0.019289259;-0.01628963;0.08973647;-0.03381682;-0.014601879;0.042420946;0.048637163;0.10361996;0.06429301;0.0905771;0.007968001;-0.105327815;0.07650209;-0.07510646;0.0655459;-0.033485577;0.0074817347;-0.03345891;0.021205466;-0.043429114;0.0718709;0.055505883;-0.024577582;-0.09226709;-0.06352263;0.056086652;-0.019989222;0.08736472;-0.08414787;-0.042088445;-0.035054218;0.021361213;-0.0867856;0.03692289;0.02955838;0.015682107;-0.06505895;-0.040805027;-0.085014984;-0.011811865;-0.028778201;0.01686813;-0.10408988;-0.023536595;-0.15114105;0.07760512;-0.047507886;-0.08588244;0.07889641;0.021304457;0.05484599;-0.023630777;-0.021423124;0.0138039235;0.07876152;0.008874551;0.027702764;0.11909851;0.0830242;-0.0587494;-0.032950576;0.004821785;0.012380377;0.0138748605;-0.095462434;0.021987742;-0.023579514;0.035847466;0.041294146;0.02738152;-0.04394621;-0.052595906;-0.045016125;0.04786998;0.02354262;0.020016447;-0.08127381;-0.049914286;-0.027617386;-0.09975918;0.07081774;-0.0155982645;-0.12052786;-0.08381421;0.034166876;0.043421593;-0.009125059;0.09699325;0.019451609;-0.11794354;0.12591934;0.042960774;-0.008281692;0.023705956;0.031823363;-0.055091344;0.08620644;0.08768177;0.05628237;0.016375704;-0.007781027;-0.075262435;0.07854479;-0.031112436;0.07578727;-0.008872562;-0.07319102;-0.021315295;-0.023822527;0.033323854;0.038179222;0.0661853;0.003182625;-0.0642015;0.00487184;-0.0043809917;0.06174955;0.036757037;-0.060712576;-0.088962205;0.08455574;0.030890932;0.023243787;-0.051754154;-0.030936794;0.010393487;0.005260522;0.06318803;0.07248936;0.01867404;0.033714063;-0.029680703;0.042193577;-0.042802576;0.0057916883;-0.045502335;0.1311408;-0.082482904;0.033436734;0.046877783;0.07598316;-0.015461957;-0.07796668;0.08899351;-0.047380373;0.06114105;0.086721614;-0.09181251;0.03383826;-0.06314586;0.0314007;0.05148322;0.08196018;0.039506223;-0.030986406;-0.0013823916;0.10517191;0.02930089;0.028321085;-0.053280275;-0.00054867554;0.10386688;-0.04116009;0.003689157;0.034806192;-0.04724225;-0.040729973;-0.037206195;-0.0638113;0.015670903;-0.059985347;0.03867699;0.060914062;0.07858822;-0.061659537;0.060118776;-0.037444625;0.07194785;-0.064607866;-0.09253167;-0.037631586;0.041231934;-0.012102019;-0.034375053;-0.088255614;0.026259178;-0.07441968;0.0003508225;-0.05848663;0.06845633;-0.085701294;0.054434583
-0.014480375;-0.030694516;0.064526685;0.06382408;0.040463805;0.0370124;0.043107264;-0.040760368;0.073039286;-0.040407274;0.029635578;0.031640843;-0.0004248431;0.044456583;-0.048574816;-0.079848364;0.084138274;-0.014893482;-0.07449424;0.038595628;0.063025795;0.042614646;0.026466718;0.058136143;0.055205423;0.029379314;0.059024986;0.0687863;0.0151156485;0.04592347;0.0017798509;-0.012615587;-0.039354064;-0.11545019;-0.020485863;0.07076336;0.010066371;-0.13012631;-0.037448145;-0.03079453;-0.021247398;0.06840956;-0.05503921;0.061085828;-0.0682392;-0.043810192;0.018455219;0.047893085;0.01283714;-0.088238955;-0.023305628;0.12315496;-0.01681306;0.036060076;-0.05551322;0.015651437;-0.05679286;0.00014229747;-0.07423436;0.0036115195;0.011497355;0.14488927;-0.04898103;0.05921761;0.026269171;0.00810746;-0.005435484;-0.015969813;-0.05757346;-0.005832256;-0.0013934338;0.009329398;0.065775715;0.013535565;-0.00062311016;0.0064876005;0.0021088775;0.05691089;-0.086416125;-0.034533698;-0.00805469;0.008349739;-0.047392674;-0.024704723;0.08922871;0.06405148;0.03276682;0.08623216;-0.083741724;0.050553154;-0.07094958;0.028633429;0.03993684;-0.028258413;-0.02089737;-0.08862619;-0.03907826;-0.09602166;0.017642304;-0.051322877;-0.07935189;0.017199405;-0.068538256;-0.07916517;0.024060266;-0.07396069;0.051870096;0.015002085;0.02443365;0.054824654;0.04667768;-0.052799787;0.009503523;-0.0018520552;0.012924699;-0.08317355;0.043440714;0.063276306;0.029622009;-0.039014604;0.018750696;0.05951292;0.053867705;0.067248724;-0.103491805;-0.037850123;-0.01264294;-0.0140643325;0.038049582;-0.07186526;-0.1763927;-0.010623079;0.06464309;0.009528752;-0.070899524;0.08804682;0.09243432;-0.1276497;0.032879982;-0.0071851197;-0.025249727;-0.06362714;0.032752134;-0.08850256;-0.08597167;-0.09590273;0.12010561;0.0069239675;0.09402082;-0.022235543;-0.03073554;-0.09204389;-0.022422468;0.062027782;0.07459757;0.036657784;0.010816923;0.029121738;0.020942299;-0.0022731877;0.053933125;-0.021809323;-0.019412562;0.08025468;0.035196625;-0.01835974;0.0902161;-0.00017968549;0.08384233;0.049246088;0.02330963;0.048830133;0.04967387;0.043224864;-0.028619843;-0.016486173;-0.034824487;0.085038565;0.036865402;0.053869613;-0.0038540252;0.029547831;0.027974572;0.017214563;-0.10368808;0.109117955;-0.05630713;0.011619524;-0.051483512;0.07724489;4.446607e-06;-0.057345733;0.078259915;-0.010638288;0.04112237;0.048246033;0.0035430794;0.0790356;-0.015684098;0.007927428;0.02738761;0.0671577;-0.056640275;-0.16022292;-0.09464202;0.011362279;0.047130313;-0.0050095096;-0.022548566;-0.11026266;-0.06312867;-0.030616103;0.06894468;-0.10474291;-0.0060616336;-0.07970476;0.058234673;-0.07999159;-0.07227682;0.028470518;-0.06255429;-0.007145542;0.16914707;0.07301369;-0.062322333;-0.035046298;0.04635972;-0.01787187;0.06683347;-0.029209172;0.031302694;0.049676012;-0.065068826;-0.05172139;0.05207377;-0.03727356;-0.0117541365;0.054027587;-0.072992586;0.067765824;-0.039482046;0.012839445;0.018431703;0.051499568;-0.035755996;-0.07296758;0.13137062;0.02404177;-0.020207193;-0.042706385;-0.027892778;0.04524164;0.054680325;-0.055852786;0.040097203;0.01727635;-0.07041056;0.046708733;0.0024498464;-0.04154665;-0.04285014;-0.02265474;0.025636502;0.039510384;0.055210594;0.009778251;0.03989537;0.027909193;0.027808964;-0.004307811;-0.060833644;0.05477568;-0.007611411;0.07603643;-0.10404666;-0.05301583;0.10255036;-0.036753904;-0.020844815;-0.0714657;0.003723988;0.059575137;-0.06798279;-0.07292549;-0.0257026;-0.04917058;0.018205844;0.060838256;0.055834856;0.11894228;0.06923814;-0.024457462;-0.045635592;0.08958079;0.047035817;0.07547409;-0.046157792;-0.062903404;0.055720508;-0.0018698564;-0.046149086;0.03246705;-0.012848149;0.055064466;0.116824985;0.038057838;-0.09632753;-0.049454577;0.026511291;-0.03897981;0.005412909;0.067300685;-0.05829915;-0.00065641897;-0.038491134;-0.083131745;0.04894862;0.0030027092;-0.023208885;0.0202409;0.07364089;-0.117758706;-0.032220233;-0.00230614;-0.03693463;-0.004230835;0.06939943;-0.010613422;-0.0030441964;0.114592396;0.05058441;0.06984789;0.054642655;-0.04164276;0.014649688;-0.043093342;0.07599062;-0.0747421;-0.09232003;0.05260997;0.017804708;0.08558508;0.07346458;-0.11645145;0.07769698;0.082035825;-0.029510891;-0.114704676;0.053601053;-0.011164101;0.074124254;0.037622403;-0.06702166;-0.068779744;-0.076606184;0.083821125;0.04740157;-0.0025736438;0.018197339;-0.10142622;0.05025013;0.011522139;0.08351849;0.03569016;-0.03618592;0.05513824;-0.07043819;-0.00085280923;-0.019087188;0.02678137;-0.055224687;0.12714711;0.047301546;0.07999499;0.03848226;-0.0011936427;0.07127688;-0.047462363;-0.013076701;-0.12077051;-0.019914249;-0.05318059;-0.037551634;-0.08095365;-0.00983261;-0.029236464;0.1001919;-0.09067178;0.011561294;-0.010378851;0.008304881;-0.040840633;-0.061563216;0.049435083;0.012781098;-0.013684389;-0.084817;0.015016808;-0.038330235;0.061535377;-0.07622579;0.0227816;0.0013915111;0.05255176;0.03115923;-0.017666074;0.0414578;-0.08483365;0.046696465;0.020399202;0.041735463;0.051510565;0.05969615;0.07606873;0.05944182;0.034956425;0.0029314961;0.11217101;0.084144846;-0.07483674;0.046848573;-0.002125723;0.039855864;0.00538485;-0.01783663;0.058850463;-0.12967467;-0.1256164;0.03917476;-0.06198888;0.067515194;-0.099574596;-0.018241066;-0.048160695;0.040714923;0.07087679;-0.096522965;0.048179995;0.05887718;0.015542057;-0.038590603;0.020875316;-0.07470285;0.012180588;0.009043372;-0.021497678;-0.04015913;0.0052978154;0.041177463;0.011470239;-0.014132481;0.088967554;0.038470052;0.06723987;0.016102564;-0.02264592;-0.036723625;-0.017700436;-0.049053248;-0.028289642;-0.038571775;0.008564984;-0.011467511;0.060324255;0.024101537;0.112875864;-0.03354693;-0.05450619;0.09149048;0.037856884;-0.08338174;0.0094750365;0.038295876;-0.046813652;-0.026508445;-0.057114065;0.040387534;-0.020523164;-0.0670979;-0.05487014;0.011028474;-0.020038737;0.09426055;-0.0122871455;-0.01783053;0.029736083;0.06838067;0.02079509;0.08243357;0.03703915;-0.026474116;0.035832077;0.023560097;0.027489666;-0.05457467;0.034645926;0.06411997;-0.04343603;0.051029578;-0.14658363;-0.0016582407;0.037157215;-0.11689901;-0.040369555;-0.0267768;-0.0062228837;0.07351088;-0.006997784;-0.11061205;-0.015146634;0.07636153;0.051481973;0.033303462;-0.006318091;-0.046053138;0.08427488;0.047317173;0.051036935;0.11369007;0.04854927;0.0062484257;0.040359;-0.0040337923;-0.014485571;0.12061047;-0.014048361;-0.088762686;-0.05100323;-0.0667685;-0.048617534;-0.003075827;-0.028740808;-0.025316218;0.07611249;-0.030059129;0.12994567;0.05379637;0.09223023;0.05555024;0.045596816;0.08973963;0.055430047;0.06794326;-0.021364447;-0.07303512;0.09559217;-0.010029888;-0.021182226;-0.03454934;0.043426782;-0.010339768;0.06456775;0.015718115;0.031615637;-0.056181043;0.045395236;0.055893265;-0.04667251;0.068304464;-0.08328078;0.049425393;0.024985854;0.022400975;-0.024250949;0.066260874;0.07084702;-0.07094663;0.013373685;0.038455628;-0.08384596;0.048149418;0.04416527;-0.0712684;-0.048988547;-0.08590214;-0.041783456
0.030619998;-0.0069340826;0.05971129;0.040084224;-0.06728233;-0.11298082;0.026564006;0.0522499;0.0124013275;-0.023105571;-0.064005226;0.062782384;-0.08277207;0.10799421;0.051619492;-0.076774746;0.11713613;-0.010570354;-0.015625997;-0.008248943;0.042031646;-0.046538766;-0.02142786;0.20055005;-0.08234023;0.087303095;0.04673678;0.051425446;-0.08383277;0.1429654;0.04020674;-0.18776295;0.05260581;-0.016732467;0.014109537;0.012861148;0.050563067;-0.06058354;0.0763331;-0.08407116;-0.04889953;-0.039325215;-0.0024238825;-0.014981537;-0.029729737;-0.024305668;-0.1198058;-0.032780852;0.042367578;0.032915875;-0.07361457;0.012066781;-0.0070953607;-0.056074437;0.00609046;-0.012629995;0.043204296;-0.0394451;-0.056628805;-0.027525526;-0.024841795;0.018985583;0.02096076;-0.07251614;0.06605793;0.008019476;0.007884531;0.005037724;-0.090474196;0.06521405;-0.054146923;-0.059910957;0.02099184;-0.005955173;-0.10356543;-0.030368362;-0.030707903;0.031845734;0.01133276;0.013734575;-0.02806438;-0.04254451;-0.035792105;0.003920851;0.19062057;-0.07875465;-0.08713763;0.0126501275;-0.0036762683;-0.08204475;-0.07683628;-0.061233714;0.067546785;0.012860867;0.008176901;-0.014432645;-0.009116793;0.054826643;0.07477963;-0.08552572;0.038557716;0.037145775;0.04454738;-0.040579304;0.013266673;-0.057079628;-0.012439128;-0.0016887296;-0.008985924;0.05974481;-0.046813667;-0.030281687;0.004253242;0.082216784;0.014780569;-0.1289019;-0.026621511;0.0639186;0.017518224;0.043794267;0.07927015;0.09466589;0.03951072;0.018863223;9.944322e-05;0.058638316;-0.022463985;0.09824086;0.01888012;-0.031484902;-0.22942048;-0.038776297;-0.061761886;-0.14156675;0.009615281;-0.09322808;0.056962237;-0.028720476;0.062814094;-0.056866847;-0.02490103;-0.05290686;-0.0060298345;-0.25190738;-0.009005806;-0.035807822;-0.0377811;0.03904176;0.08587166;0.018003741;0.026635228;-0.004593797;0.06353499;0.0885292;0.044199735;-0.042874765;0.0009804809;0.00076964055;0.05087102;0.08558548;-0.09580996;0.034903374;0.009526785;-0.0018132484;0.06324518;0.120507196;0.0057648583;-0.011549456;-0.091606334;0.05812413;0.0469547;-0.10200143;-0.076427355;0.0677333;0.011564241;-0.08371235;0.074201696;-0.123201795;0.0448787;0.05276803;-0.079695106;-0.02899706;-0.029598879;0.032791276;0.024514604;0.11570283;-0.00014872782;0.03141796;0.077568114;0.11347704;-0.035228975;-0.027536;0.03191209;0.007882658;-0.047828514;-0.021909902;-0.04467464;-0.0018088772;0.029586956;0.06410848;0.068943255;0.00587583;0.015123427;-0.12947783;0.06911586;-0.05302977;-0.013526049;-0.02121537;-0.06820624;0.058526326;-0.06288118;0.0626022;0.07490968;-0.011868588;-0.102617316;0.0013032011;0.0045280047;0.051538806;-0.014404702;-0.085131474;-0.09384282;0.015091221;-0.05702545;-0.015046456;0.020845419;-0.07337932;-0.033018097;0.06021689;0.06602116;0.023062084;0.0068476405;0.044738352;-0.07740222;0.05405957;0.08794084;0.02744399;-0.03884184;0.026321556;-0.18134156;0.07558015;0.05505947;-0.1332728;-0.053130895;-0.04329018;-0.025979491;0.014845152;-0.00017671188;-0.055550463;0.05625545;-0.049078878;0.06605854;0.046883024;-0.024755629;-0.008314525;0.028291019;-0.061033934;-0.011825841;-0.0035574608;0.0326305;0.0181965;-0.12084818;-0.014608216;-0.014256822;-0.059506726;0.037361808;-0.004136081;0.067621715;-0.010437786;0.15836316;-0.008257404;-0.08646635;-0.010709234;0.00024448463;0.13488753;0.036184553;-0.003412971;0.11004318;0.009619716;0.05889619;-0.027200703;-0.06134405;0.007200429;-0.06293426;0.05995377;0.031390212;0.010002061;0.012887442;0.040576324;0.05588101;0.06839958;0.014284865;-0.037454505;-0.01815168;0.035973024;-0.10073344;0.006813543;-0.076442376;0.03761369;-0.073762104;0.06925092;-0.13331176;-0.06856559;0.001422466;0.01871542;-0.043891508;0.057035472;-0.087246425;0.09664271;-0.041277457;-0.07043797;0.03899923;0.03882903;0.013991169;0.028408358;-0.0825454;-0.03294697;-0.093095146;0.031274877;0.036973704;0.046688206;-0.02762135;-0.094977856;-0.051958483;0.052904025;-0.072079524;-0.10871696;0.05102461;-0.10257861;0.07503701;0.08583558;0.0053507425;-0.021641573;-0.04003929;-0.034962676;0.01908794;0.028452864;0.058706243;0.060283855;0.059657346;0.067561686;-0.013825116;-0.026476972;0.03982452;-0.028684843;0.048516825;0.10449301;-0.05837993;0.07809958;-0.08130302;-0.07531071;0.10710929;-0.082309894;0.06046848;0.016087485;-0.049566504;-0.0781319;0.09776315;-0.0044048005;-0.0018591566;-0.05802294;0.083697736;-0.0031478396;0.1526091;-0.091550775;-0.015632672;0.049249962;0.058474448;-0.07730765;0.023996064;-0.08367226;0.000207704;-0.0029069232;-0.10279066;0.1349258;0.048721272;0.07210675;0.012090999;0.05717489;0.049647756;-0.005843574;-0.012114871;0.0660105;-0.0037011658;-0.008276465;0.057258632;-0.08526452;0.10051604;0.10378833;0.06582114;-0.04556244;0.0563606;-0.053163745;0.08034308;-0.008246951;-0.036118858;0.02763314;0.043042846;-0.08552366;0.07824707;0.054945614;-0.010926011;0.03291525;-0.008779045;0.07128043;0.053083155;0.03839561;0.14298837;-0.10707828;0.027811453;-0.12047521;-0.00015466062;0.06882306;0.0320319;0.016959045;0.0032347727;-0.025871629;-0.06055929;0.11021749;-0.03034397;0.06714353;-0.06025599;-0.05382971;0.0639022;0.052958243;0.023992669;0.06661283;-0.0053028;0.020059783;-0.0505579;0.0572826;0.07917144;0.015396558;-0.0009995757;0.02606626;-0.08979947;0.065788664;-0.03686171;0.037688047;0.041384224;0.040426485;-0.0058027445;-0.024739774;-0.047775626;0.025738012;-0.09166275;-0.11422594;0.072728455;-0.016728265;-0.021993527;0.031821888;0.0059361723;0.16114667;-0.055758942;0.05777723;-0.035481974;-0.072032586;0.03613377;-0.0516591;0.04272399;0.0034609784;0.03796674;-0.064422704;0.032691263;0.01729014;0.016782911;0.11745541;0.02105526;0.0126638105;-0.059449285;0.05697669;-0.0046237973;-0.029629763;0.035271663;0.051051233;0.019053046;0.041399587;0.023190483;0.047497787;-0.0005787805;0.03611952;-0.0050269323;-0.0807929;-0.13162597;0.08248663;0.04931978;-0.033568706;0.10204878;0.03636473;0.103252605;0.08655537;-0.03304432;-0.03437418;0.040527526;-0.021318685;-0.021034822;0.09877719;-0.04038061;-0.00085969403;-0.050234202;-0.10194783;-0.008891098;-0.05602313;-0.0945707;-0.002596208;-0.017481122;-0.055501133;-0.036091566;0.023434501;0.08796795;-0.0049374485;-0.032051638;0.048097566;-0.030206949;-0.038859796;-0.06391032;-0.059140578;0.1551167;0.0555458;-0.026309507;-0.0378541;0.0673972;-0.022831496;0.024732621;0.0716506;0.005053171;0.011712706;-0.037655983;0.06505637;0.059221342;-0.051646255;0.03925504;0.06757895;-0.03635775;0.042275596;-0.027311122;0.028506521;-0.020971254;-0.03790308;0.04375034;-0.09836883;-0.005908107;-0.031538717;0.17931958;0.047952063;0.07925955;-0.0068602115;0.06042858;-0.0830799;0.022650106;-0.07831987;-0.110378236;-0.07432295;0.08846782;-0.0065958994;-0.0056952937;0.043001153;-0.06013627;0.023030875;-0.017617477;-0.056351706;0.03924265;0.022736857;-0.08657018;-0.022312831;0.059772097;0.0721297;0.049030203;-0.09540191;0.058390025;-0.07138791;-0.018177865;0.03410848;-0.08723146;0.034647174;0.03241639;-0.011109806
-0.06699256;0.0018596271;0.01212636;0.059996687;-0.012008041;0.0063697984;0.071272574;0.061146874;-0.0248883;0.020297972;-0.07231821;0.16104731;-0.19018926;-0.0013371492;-0.01498888;-0.13219447;0.19102044;0.07636165;-0.060693603;-0.008803718;0.024242915;-1.11868885e-05;0.0015113729;0.10814642;0.061028615;-0.047351692;0.020697113;0.05536087;0.0017670876;0.044384353;-0.022737281;-0.12411708;-0.08079859;0.039595753;-0.024069939;0.038350094;-0.05107186;-0.13076021;0.08069394;0.041680135;0.03774811;-0.06728763;-0.09574996;-0.057701457;0.059126522;0.011497843;-0.01945484;0.059166897;0.03571522;-0.010005554;0.0011796316;-0.14302638;0.04725488;0.050153825;-0.10287432;-0.041422173;-0.026565954;0.010073289;0.055184543;0.047782663;-0.036987115;0.12711911;0.017873205;0.13127641;0.06867205;0.03330257;0.028569026;-0.07234813;-0.021968948;0.008865207;-0.049112555;0.05576336;0.06314618;0.08131055;0.020073231;-0.04086086;-0.012004883;0.017913358;-0.011923228;0.086197056;0.02770448;-0.020109192;-0.055192027;0.035015453;0.034412373;-0.056618325;-0.013691854;0.07218626;0.06460469;-0.023931235;0.04990007;0.054971054;-0.00094403303;0.063562855;-0.019060576;0.010507379;-0.07199153;-0.08680247;0.03828109;0.04143489;0.010562238;-0.08803614;0.09382083;-0.16927965;0.04827135;0.06156655;0.008100299;-0.028727226;0.065069206;0.049551915;-0.043364834;0.021327514;-0.026858073;0.036737688;0.052754562;-0.04960518;-0.05362954;0.04173832;-0.017430691;0.01416059;0.042714417;0.06183264;0.051736522;0.026125329;-0.019926643;0.047935363;-0.06866131;0.008069327;-0.045667637;0.024442779;-0.19019873;0.019109268;-0.023991546;-0.10639408;-0.013953443;0.026156738;0.11261666;-0.11740587;0.10098002;-0.09706094;0.03341096;0.06966513;-0.04172636;-0.21069334;-0.06693713;-0.08256334;0.04062425;0.019924203;-0.020120477;-0.061584502;-0.008765097;0.037061997;-0.047249936;0.10597955;0.0045671114;-0.08472622;-0.01574593;-0.02062812;0.002597779;0.08777639;0.073547274;0.04089679;0.054433335;-0.014881815;-0.015610393;-0.13168049;0.07103948;0.032744087;-0.044841222;-0.033352774;0.046978537;-0.099935226;-0.023216125;0.023944125;0.010327275;-0.050083153;0.057020266;0.028295113;0.009894329;0.0068856846;-0.009614835;-0.08971365;-0.011498717;-0.040086534;-0.023453288;0.050691005;0.030282864;0.06520674;-0.06503673;-0.0022570377;-0.0054411925;0.021702655;0.0700597;0.015842186;0.0023181066;0.005598845;0.058906943;0.08628015;0.0023659512;-0.03989572;-0.060334597;0.02300206;0.027827866;-0.22728099;-0.11324081;-0.014644456;-0.031893004;0.051457994;0.007319809;-0.04964869;0.056966282;-0.04220392;0.038634997;0.02134117;-0.00015074405;0.08159876;0.021637358;0.011484729;-0.039781798;0.07096363;0.046468053;-0.056444794;0.09095197;-0.052328475;-0.11294525;0.02119654;-0.023484318;-0.01354055;0.10722158;0.029131135;-0.052636094;0.009415414;-0.040450975;0.034724813;0.11080781;0.069404155;-0.017932668;-0.017343745;-0.10874427;0.06659722;-0.036707062;-0.116761416;0.04378753;0.034618087;-0.018309407;0.04837563;0.06956886;-0.015667927;-0.07880555;-0.031976666;-0.020647347;-0.05355971;-0.021706399;-0.13583125;0.031969856;0.026336085;0.023264527;0.050443742;-0.0317505;-0.0040424853;0.05876237;0.18768865;0.060583483;0.08452336;0.10405093;0.069696486;0.005492696;0.09873244;0.17981322;-0.071607806;-0.07498189;-0.0023383044;0.020769736;-0.033476073;0.09388177;0.055807535;0.109788254;0.04085276;0.033192053;0.053181764;-0.11572601;-0.044095352;-0.019459063;0.0026253285;-0.015693137;0.03756996;0.015967652;-0.026731838;0.054862488;0.096147805;-0.04242546;0.018421685;-0.050618205;0.10682028;0.030881647;0.101648964;0.015453199;-0.0051997704;0.041017104;0.0033323846;-0.17612135;0.028798355;-0.03715511;-0.0018491274;-0.001208331;0.09105689;-0.08621354;-0.024177019;0.06549441;-0.03290283;0.06424673;0.026172448;0.029014213;0.0005114381;0.052388396;-0.0061212424;0.04451584;0.061964292;0.028848853;0.10457084;0.014074872;-0.012184119;-0.016742008;0.02707565;0.06516377;-0.02292394;-0.046107646;-0.05828687;0.021634785;0.108646385;-0.08049977;0.011465438;-0.019784434;-0.034435984;0.097743385;0.10331829;-0.01323326;-0.02017337;0.016718194;0.009931351;-0.09020477;0.053606126;-0.07296221;-0.09334004;0.021523362;-0.06212283;0.0012964129;-0.086862884;0.05679239;-0.019921858;0.025033876;-0.083182976;-0.076070994;0.066555806;0.008020294;-0.002598269;0.16786309;-0.05406707;0.068010174;0.0544621;-0.041384257;-0.08137714;0.020416265;0.045502815;-0.017238833;0.04056091;0.051625226;-0.013681679;0.034143914;-0.027952977;-0.07653039;0.12821777;-0.052591342;-0.023405155;0.09381778;0.060820803;-0.06069943;-0.056391995;-0.04218062;0.075937666;0.084165104;0.04400422;0.022925466;-0.05131007;0.013457899;0.060258307;-0.06283791;0.08212363;-0.07929679;0.09888873;-0.0277432;-0.011746657;0.04593013;0.014483682;-0.06289867;-0.12303503;0.0033184155;0.02853671;0.09874107;0.05935872;-0.07132935;0.049322862;0.05943385;0.025019584;0.0701778;0.052827854;0.113926575;-0.06930672;0.030251319;-0.08235706;-0.0027272997;0.057317458;-0.06452696;-0.014909371;-0.025061088;0.014692951;-0.036570825;0.11431332;0.004010588;-0.07699338;-0.015784418;0.0121058235;0.050409716;0.07182429;-0.00910991;0.041059684;-0.002691325;0.04871548;0.045659058;-0.031036897;0.10612594;0.03601119;0.05781401;0.03051418;-0.024836121;0.07569439;0.010875348;-0.006309274;-0.05926757;-0.0026470383;0.07346845;0.037895467;-0.0892529;-0.027666572;0.044494826;0.03584191;0.13460343;0.05879889;0.06377022;0.032677077;0.021694861;0.08243194;-0.012693035;0.073520534;0.045176167;0.06851221;0.015862916;0.0747169;-0.098127976;-0.14541623;0.039951045;-0.060629122;-0.03179557;-0.032934614;-0.04337721;0.11917898;0.068020366;0.033408526;-0.050302412;-0.0014519374;0.064084634;0.05289894;0.03465687;0.03816204;0.07558575;-0.050076418;-0.06602128;0.02638603;-0.0022866377;-0.031635765;-0.07666897;0.009542166;-0.08986493;0.085615;-0.05668933;-0.09359106;-0.06250326;0.043816272;0.06765265;-0.052781317;0.05020339;-0.046356533;0.024275953;0.06642017;0.10202283;0.06586587;0.08610014;-0.02305606;0.03940505;-0.069654256;0.05287564;-0.07241696;-0.12085741;-0.045297276;0.06333613;-0.09180781;0.09631894;0.032418866;0.019079113;-0.019433044;0.027710378;0.14573668;0.025620094;0.08237581;0.012397184;0.06123578;0.06789964;0.08134813;0.0024456317;-0.06960032;0.098356865;-0.023100533;0.06383562;-0.017831504;0.024173995;-0.08313802;0.01850702;0.044753816;0.0651473;-0.029805021;0.1385116;0.0046908064;-0.016134096;0.03053271;-0.053894456;0.09042164;-0.012452837;-0.07863377;-0.033795662;-0.0433201;0.10051155;0.060494754;0.08194641;-0.03732641;0.024430392;-0.06235741;0.09857571;0.041883998;0.00040128923;0.0056701154;-0.10979629;-0.023342852;0.0005465366;-0.08331174;0.021709764;0.021693945;0.08193501;0.028365381;0.0924957;-0.037311137;-0.034124546;0.059857666;-0.14239527;0.026534168;-0.0004435689;-0.03936097;0.035452474;-0.07869151;0.07827592;-0.07475596;-0.010912588;-0.034318987;-0.09842888;-0.03288829;-0.056421388;0.052809894
0.037401583;-0.070301294;0.01069052;-0.0417413;-0.009717712;0.005715442;-0.021639664;-0.05785328;-0.009493448;0.07206466;0.011213566;-0.09803964;-0.13496904;0.044273473;0.058540083;0.035854634;0.091947526;0.016299075;-0.095762424;-0.073127545;0.055573635;-0.064725034;0.09014418;0.19223493;0.007327961;0.08048998;0.01353214;-0.0013863972;0.0689035;0.061314948;0.036181968;-0.17538017;-0.039186113;-0.03350983;0.074351646;-0.03307326;-0.06337375;0.05897257;0.063923374;-0.05951691;-0.016829696;0.09390642;-0.045855246;-0.039125215;0.04409448;0.060763087;-0.10993175;0.051006813;0.01746517;0.011275256;0.122487046;-0.18981351;-0.047335334;-0.047031216;-0.057983123;-0.010523979;0.1453292;0.038337316;0.04631531;0.09558253;0.07961195;0.0289218;0.085652016;0.0077182194;0.068649955;-0.07613693;-0.024909578;-0.06263889;0.020816488;-0.07970843;-0.0008146666;-0.008787386;-0.07958238;0.10908013;0.06817608;-0.036358647;0.010892571;-0.09452708;0.084455095;-0.09614453;-0.024309907;-0.07548409;-0.052290987;0.14460614;-0.022666803;-0.036179233;-0.0202942;0.015103017;-0.016466474;-0.0701268;0.038495716;0.051812854;-0.051581915;0.010657249;0.09824593;-0.0061299317;0.018959364;0.03781093;0.013744546;-0.047869105;0.016849859;-0.017078688;0.023071397;-0.1977438;0.043438707;-0.0515105;0.014441067;0.043205798;-0.021650588;-0.08939558;0.054244887;0.10840152;-0.07944082;0.01745925;0.047244497;-0.12661196;-0.037176363;-0.030415162;-0.03358231;0.027433163;0.07479348;0.063286565;0.021714162;0.0019092427;0.11399648;-0.0588083;0.0101490095;0.081746146;-0.024475442;0.10240825;-0.30035132;0.018875875;0.03148306;-0.053719394;-0.10197651;-0.08733843;0.08390833;0.032375857;-0.073137954;-0.057200767;0.028286232;0.028053163;-0.043638278;-0.10559412;-0.03323237;-0.05411887;0.020519359;0.008874531;0.08722983;0.03251644;-0.038700294;-0.086541906;0.017754043;0.13438146;0.11033968;0.029668473;-0.073998846;-0.055786826;0.019081555;0.07762546;-0.08430026;0.05928585;0.08252823;-0.071919985;0.02499897;0.024695856;-0.067536965;0.007963592;0.032324698;0.005659374;0.0077851666;-0.003819698;-0.034182947;-0.06644417;-0.056863055;-0.009723573;0.05611591;-0.03544921;0.035050426;0.057618085;0.0537952;-0.04798578;-0.14991508;-0.044468287;-0.03394366;-0.0007846369;0.018401522;0.21653081;0.026489394;0.097817;0.095444836;0.05843803;-0.061400414;0.0033352608;0.112471744;-0.0023300697;-0.041784387;0.018504376;-0.0624402;0.11669506;0.014651002;-0.104235895;0.067949496;-0.25649336;-0.04845415;0.010876737;0.08038268;0.13298853;0.07409458;0.009214381;-0.05869958;0.078082465;0.044989407;0.06347056;-0.15662909;0.044305723;-0.004218872;0.077986956;0.0069361175;0.030437859;0.020125726;-0.05749469;-0.012916883;-0.012067948;-0.0037467314;-0.06691328;-0.013177218;-0.03060454;-0.015065094;-0.049440067;0.09231428;-0.06513469;-0.010605357;0.08577915;0.11603967;-0.027014041;0.0039953394;-0.03524088;-0.05666895;0.07170065;-0.04831709;-0.23853719;0.014083126;-0.10391953;-0.04061749;0.040585846;0.043529924;0.059379414;-0.03709534;-0.17009796;0.082161;-0.049858287;0.01787345;-0.12214783;-0.050806563;-0.03845662;0.0018942936;0.025428338;-0.017383449;0.13982846;-0.057206657;-0.020432673;0.07735669;0.09104939;0.051990762;0.07919926;-0.016847141;0.02211557;0.16764273;0.035737257;-0.057880234;-0.05358225;-0.068117134;0.016421346;0.12626028;-0.018116815;0.11077338;-0.0113300765;-0.08866662;-0.020585828;-0.15089531;0.0613894;0.02590613;-0.046919893;-0.077012986;-0.024281504;-0.036277816;-0.010906311;0.041231573;-0.09885181;0.020410923;0.09821912;0.023658633;0.02438157;0.013877483;0.013528029;-0.004423781;0.038491916;0.07251597;0.03891043;-0.048076436;-0.019749193;0.051539782;0.021947546;-0.03741797;0.16290739;-0.029823512;0.04303625;-0.069841065;-0.010303184;0.033115145;0.03446915;0.0087086875;0.08726045;-0.03679886;0.009790891;-0.0023494356;0.030973203;-0.005436233;0.060297266;0.01615921;0.00040002726;-0.08102305;0.064796254;-0.025646832;-0.015705938;-0.04000432;0.0037209583;0.047426663;0.021620432;0.015565401;0.079585485;0.027561171;-0.046580724;0.061687596;0.17860436;-0.10110509;-0.04246392;0.085736945;-0.03007191;0.049782474;-0.06028924;-0.026151072;-0.09656901;0.043391667;0.007945938;0.0047636153;0.008535904;-0.08685562;-0.06743491;-0.053339012;-0.12921344;0.02807203;0.06563326;0.067985974;-0.011605414;0.15278612;0.061375972;0.0761259;0.125258;0.022951702;0.010920538;0.04547949;0.0456108;-0.03460928;-0.04869117;0.018410072;-0.17647369;0.057304297;0.007079111;-0.04817257;0.13509487;-0.1674958;-0.010029455;0.07808255;-0.05190295;-0.041626837;-0.012196924;-0.043097936;0.06686091;-0.021115547;-0.0013428824;-0.031902395;-0.028015878;0.06009737;-0.030208861;-0.04625528;0.071489625;0.06973483;-0.06922388;0.011173637;-0.02872257;0.060460743;-0.092865855;0.022734128;-0.14672707;0.034916744;-0.03272276;0.16256887;0.038694024;0.084269345;-0.040631004;0.077986665;0.042356465;0.021192744;0.04770288;-0.025179645;-0.112727724;0.09279715;-0.14139366;0.035369318;-0.010639931;0.056230716;0.07292352;0.07751865;0.0030570186;-0.0041281376;0.04300525;-0.0015888527;-0.06850621;-0.025320636;-0.121018544;-0.025110424;0.019204369;0.027566312;-0.026182385;-0.17109999;0.018121019;-0.15778086;-0.027643247;-0.03753696;0.030221423;-0.00014036997;0.007640153;0.012050542;-0.0011433564;-0.028860029;-0.014385983;-0.04362164;-0.008482644;0.016566958;0.13696525;0.034383662;-0.089577526;0.04928312;0.063875124;0.103221714;-0.057847206;-0.060233705;0.0062961155;-0.071464226;0.0096237;0.0051886817;0.06577681;0.06623442;0.0529304;0.07993388;-0.08060492;0.018262489;0.024030522;-0.10440831;-0.02987472;-0.06348016;0.044676445;0.060968127;-0.09114496;-0.06633572;0.004994728;0.004398574;0.01491544;-0.04164824;0.03397028;-0.03337834;0.12836537;0.156185;0.10487444;-0.030849718;-0.04553734;-0.03394232;0.026151652;0.051539164;-0.053691987;-0.11296445;0.14695072;-0.059614062;-0.12516613;0.12426189;0.10887499;0.14705911;0.014827705;0.011356257;0.019381803;0.08121605;-0.023120413;0.0021527326;-0.007332209;-0.07562798;-0.026835147;0.06934462;0.009824783;-0.051022578;-0.1477522;-0.18476593;0.014593122;0.001629696;-0.053623818;0.09215933;0.010074246;0.10871955;-0.0011047358;-0.08280286;0.0904122;0.05311997;0.054748703;-0.004869564;-0.0009173833;0.14632012;-0.06330391;0.015644463;0.028591827;0.02014957;-0.056767084;-0.013875613;0.119042754;0.18317817;-0.01119497;0.050077096;0.020674257;-0.07860708;0.05715254;0.13712305;0.08498921;-0.16897537;-0.043405224;0.027143002;-0.03958924;0.035864554;-0.12215093;0.10172802;0.019846706;0.05972899;0.011424081;0.026787555;-0.056771833;0.1653933;0.026057355;0.048300013;-0.030117882;-0.021110784;-0.01883839;-0.11653085;-0.04920607;-0.04227967;0.0037426595;0.10918028;-0.045718484;0.015272574;-0.015173063;-0.08688036;0.08885221;-0.025736371;0.03895338;0.03560771;0.06910711;0.008578195;0.06606219;0.0026940152;0.024557723;-0.000799984;-0.021529002;-0.091462485;-0.060408287;0.05413667;0.052829344;0.056862216;0.07846197
-0.060282305;-0.055668946;-0.044034354;-0.029607743;-0.08076574;0.06148294;0.045061886;0.011266594;0.037110094;-0.083686866;-0.0547692;0.00240068;0.0024605754;0.024507599;-0.023019303;-0.07247332;0.10874959;0.042826638;-0.037935447;-0.021783177;0.06487183;-0.0008037757;-0.04048926;0.12466893;-0.023524342;0.0115959905;0.046717033;0.08064754;0.07943606;0.11106118;0.09132907;-0.050876517;0.004785163;-0.11381191;0.029107422;-0.0645273;0.03562824;-0.14610662;0.081299566;0.037655868;0.059017103;0.076671414;-0.10987727;-0.01265504;0.07912761;-0.04290212;-0.09082923;-0.06466747;0.03148598;0.04068175;-0.14044079;-0.13330762;0.06560645;-0.04016941;-0.048263934;-0.041924678;0.10607142;-0.0075799646;-0.07723436;0.010073439;0.006771925;-0.011993557;0.04259305;0.12887307;0.042838626;0.014484304;-0.100125365;0.014253702;-0.031111736;0.01359685;-0.020854997;-0.078217596;-0.024498742;-0.024037104;-0.043280788;-0.055986453;0.037252586;-0.08124654;-0.027901834;0.054057524;0.06520739;-0.029631693;-0.049541693;-0.023011455;0.008666144;0.042530768;-0.031237142;0.0073594665;0.03944392;-0.02185092;0.0042707454;0.05213317;0.07853213;0.05190712;-0.08210899;-0.09121095;0.080727465;-0.077287324;-0.0012439017;0.0764702;0.019037511;0.07781656;0.04571844;-0.084261574;-0.05169731;0.044916313;-0.013322966;-0.033500314;0.08329863;0.018437756;0.054620516;0.07613584;0.04916405;-0.026622593;0.032011073;-0.07965215;0.036556605;-0.00444431;-0.06779457;0.027117413;0.08569895;0.013438561;0.008321838;-0.019147858;-0.0083001;-0.037484;-0.067576036;-0.026103562;0.047009658;0.09204531;-0.21631958;0.047456753;0.0042756554;-0.084733896;0.008555892;0.018370435;0.014203616;-0.031480752;0.032079145;-0.06268982;-0.020314729;-0.0666501;0.0075094425;-0.106085755;-0.087800466;-0.10816451;-0.026630813;-0.00872842;0.02787472;0.02331395;-0.027864942;-0.032628734;0.002473213;0.18007158;0.041125618;0.057191122;-0.07862004;-0.0013389399;0.058325324;0.03879209;-0.04651942;0.029470688;0.04973385;-0.04307671;-0.039718874;-0.039480623;0.04893451;0.03796772;0.09840357;0.03898324;-0.018960314;-0.01637495;-0.045778975;-0.06619334;-0.0124833;-0.0577046;0.02017897;0.096267425;0.03641252;0.0012132587;-0.10025351;-0.030519972;0.0136554865;0.091380835;0.012746713;0.09475618;-0.029400194;0.030973906;-0.08070291;0.0073115323;-0.0016327174;0.0017105304;0.008852414;0.009089687;0.05874988;0.06292608;-0.012249349;0.10559529;0.0038680811;-0.049824934;0.021574534;-0.069459856;-0.036147792;-0.15569271;-0.057750486;-0.05905677;0.0754688;0.02182469;0.053845298;-0.024713693;0.062651426;-0.01545839;-0.053462517;-0.06767575;0.103514306;-0.06822707;0.057494584;-0.016309546;-0.08155465;-0.018704196;-0.06950023;0.039287902;0.1374106;-0.15583657;0.06635296;0.08858699;-0.01431224;-0.061394192;0.13103417;0.010644765;-0.037968032;-0.027763655;-0.05492002;0.0782347;0.09916107;0.0036047357;0.011418509;0.03916301;-0.044985194;-0.002964009;-0.011083899;-0.0256124;-0.07947941;-0.010633185;-0.07904302;0.015772898;-0.094404176;-0.05130905;0.041406255;-0.083457425;-0.05686459;-0.04548499;0.0459725;-0.09151514;0.04012172;0.0431177;-0.0304748;0.042025838;0.010160341;0.035317913;0.055703077;0.08197092;0.0015946565;-0.06064885;-0.009881123;0.09817866;0.07763748;-0.0106849;0.07905013;0.047915053;0.0050227344;-0.0017745951;-0.07139198;-0.018517751;-0.014238544;-0.0898769;-0.021422034;0.060636755;0.0643015;0.07357036;0.04930058;0.019644195;0.009696671;0.03771889;0.028511079;0.06693803;-0.03633076;-0.041817285;0.058383714;0.0020955363;-0.07523736;-0.08644442;-0.07160448;0.12114566;-0.11498084;0.08585655;-0.031017223;-0.0050036106;0.054634597;-0.020187687;-0.13145201;-0.04233241;-0.030619223;-0.033185605;0.048163004;0.03606237;-0.102751955;-0.01852887;-0.028706366;-0.0488722;0.046747502;0.066296585;0.071024805;-0.010656981;-0.013823426;-0.04721634;0.08596557;0.01334924;-0.00010643893;0.02166294;-0.031345375;0.03231386;-0.04890618;0.024233062;0.008054626;-0.011266063;-0.034982614;-0.06371696;0.042940423;0.093590476;-0.024927579;-0.047758307;-0.030937288;-0.011536396;-0.0064542294;0.14154476;-0.021919617;-0.071612;-0.0021975292;0.047930878;-0.04089842;-0.039568067;0.07900509;-0.030979315;0.01727184;-0.06813973;0.026309645;0.0066442383;0.077277966;0.07624291;-0.024220617;0.06810692;-0.078175664;-0.07985372;-0.046169832;0.027689293;0.030670855;-0.0031265516;0.058614686;-0.04760124;-0.092952676;0.06419318;0.035598617;0.0067600794;-0.031995397;0.039321527;0.058989994;-0.048497774;-0.024685964;0.0029693749;0.0010702428;0.09045921;0.05993009;0.03260402;0.07004618;0.059102926;-0.06081637;-0.0624524;-0.073754944;-0.05117348;0.08429265;-0.06308207;0.019384617;-0.032565635;0.06276684;-0.04086063;0.023072114;0.004781139;-0.051519655;0.092458546;-0.0016183269;0.024510806;-0.0391741;-0.02296036;-0.07980085;0.030709857;0.06968388;-0.024516108;0.10513736;0.05888655;-0.042090256;-0.060417913;0.039899282;0.022125252;0.0615837;-0.025456551;0.014417905;0.009195794;-0.056909744;-0.08875505;0.014419309;0.07929126;0.06923623;-0.046247445;0.08257611;0.021629903;-0.0069610244;-0.033891372;-0.077868186;-0.07190683;0.053951364;-0.11003409;-0.08897831;0.0050948747;0.073344074;-0.038857136;0.00578258;0.04805081;0.062321484;-0.030930115;0.059502024;0.033235487;0.018227266;0.06942724;0.07273898;0.04380518;-0.028045854;-0.032872718;0.065289766;0.010677159;0.05497921;-0.0047955583;-0.027485842;0.070767604;0.01791961;-0.04416171;0.07797344;-0.05831923;0.08648278;-0.07523134;0.03427955;0.06944913;-0.01697251;-0.0066955457;0.0914075;-0.01613036;0.0007124145;0.044636942;-0.15831055;-0.13849863;0.054888625;0.07072409;0.022949126;-0.043568064;0.06988699;0.10555087;0.04794574;-0.04613564;-0.038050447;-0.010785282;-0.08606037;-0.06299197;0.0322259;-0.085646234;0.09500554;-0.0022316028;-0.018605372;0.017408304;-0.036991853;-0.08625752;0.08991009;-0.04886498;0.08391027;0.15777601;0.06545072;0.0735748;-0.006995909;0.06985773;0.09655775;0.06839822;0.078404345;-0.02882837;-0.08485287;-0.11188909;0.08734175;0.0022391377;0.008821763;0.07197422;-0.07419904;-0.11747222;-0.10474219;-0.009416607;-0.117185764;-0.05635255;0.094101295;0.010663861;-0.0006663161;0.066670105;-0.01355256;0.07598033;-0.0626555;0.13096656;-0.017693955;0.033844225;0.02420601;-0.00325164;-0.014171403;0.013290018;-0.04103609;-0.036780093;-0.054516256;-0.01738044;-0.032642704;-0.006184044;0.092908084;-0.07229971;-0.017041638;0.023934126;-0.049162395;0.06824268;0.029142562;0.02712098;-0.011262341;0.06923462;-0.0020710977;-0.026210716;-0.0009424197;0.11097972;-0.035721503;-0.08665232;0.09198772;0.07219738;0.006576194;-0.05745756;0.06315574;0.11836644;-0.004135858;-0.05523413;-0.07657944;-0.034278374;0.038071968;0.04859362;0.042358384;0.027225299;-0.0036233044;-0.03462905;-0.031755872;-0.03079311;-0.087023735;0.022360478;0.056789238;-0.018481078;-0.1894071;-0.08886626;-0.083987676;-0.051872537;-0.016468605;-0.038264304;-0.03524132;0.012191072;-0.0048309793;-0.027374847;-0.13346107;-0.06422081;-0.022674954;0.028951958
-0.050551683;0.065927856;-0.038503304;0.012487146;0.017214658;0.020270364;-0.024402846;0.013729811;-0.0077310326;-0.011213049;0.011699521;0.003546228;-0.11951282;-0.07846669;-0.028326137;-0.111465655;0.12453933;0.036669753;0.033412818;0.018000627;0.07282696;-0.09072991;-0.005616265;0.031752225;0.031535827;0.0059846947;0.029097956;0.024363777;-0.005954557;0.030050904;0.028924787;-0.16639216;-0.014731615;-0.029869903;-0.013938393;-0.047464006;0.10310938;-0.11950788;-0.044282872;0.019098695;0.06452347;0.022956848;-0.15362212;0.038934067;0.13425806;-0.0808953;0.030068874;0.055823725;0.03293988;-0.07729522;-0.09894632;-0.080387294;-0.034888715;-0.09412046;-0.09411893;-0.040764485;0.051672697;-0.002224485;0.02482016;0.04608564;0.08923403;0.08562662;0.07402666;0.118892975;-0.050510112;0.060461342;-0.06560909;-0.049760703;0.03467118;0.050199308;-0.030426966;0.019776603;-0.018713072;-0.093620636;-0.081829086;0.05111533;0.0414772;0.004955485;-0.012579036;0.08610504;0.011961136;0.05224639;0.031923223;-0.026308935;-0.13245024;0.07888853;-0.10672885;0.046206776;1.5544148e-05;0.10104692;0.036070943;0.112492196;-0.0797836;-0.05550408;0.01696853;0.025904786;0.11806068;-0.0432126;-0.05048414;0.07588035;0.0370085;-0.061246593;-0.032657426;-0.007012338;0.046307266;-0.04601833;-0.044447724;-0.021573879;-0.03376074;-0.068136625;-0.06288127;-0.054512206;0.08603549;-0.028901821;-0.025638893;-0.00093550986;0.05306393;0.039979227;-0.072509415;-0.07321711;0.10133223;-0.050448272;0.10747532;0.040475097;-0.006250567;-0.05650096;0.058841027;-0.005243243;-0.053600524;0.0019513214;-0.17464599;0.055536985;-0.024714064;-0.11853602;0.046780117;-0.07224165;0.119903386;0.025894469;0.0685428;0.016835188;0.09815453;-0.034826048;0.01399581;-0.012176745;-0.032065984;0.029442437;0.09258957;-0.013286398;0.05842703;-0.097661965;0.019684447;0.003886589;0.013395587;0.14876841;0.11539422;0.03283438;0.05157125;-0.07629195;-0.068131454;0.055111267;0.021460284;-0.07838027;0.046812832;0.014039817;0.021936705;-0.113465585;0.028832624;-0.06367472;0.047269076;0.03792449;-0.014501877;-0.015251814;0.101018436;0.055012655;0.016469965;0.06334986;0.038504496;-0.027529698;0.053122833;-0.07016581;0.029017907;0.026901491;0.06491567;-0.0391101;0.05180052;0.12226527;-0.01603075;-0.026007261;-0.008583451;0.053919457;0.015298649;-0.06334337;-0.032824814;-0.06704678;0.03148231;-0.05556764;0.0054227994;0.056484498;0.13837792;0.010106099;0.013619323;0.005128751;0.08452368;-0.07677665;-0.06379228;-0.06562128;0.06577229;0.035538144;-0.054943066;0.005590893;-0.06587505;0.019216752;-0.032808863;0.053952206;0.04288671;-0.056027822;-0.0421453;0.011511682;0.05106185;-0.059536796;0.082915016;0.07781246;-0.04553564;-0.1037459;-0.16166994;0.023990124;0.039416786;0.05964699;0.12683941;0.021384062;-0.0077099926;-0.0017832143;-0.017257418;0.0018829373;0.10202562;0.028317103;-0.046463042;0.027435277;-0.1867781;0.074517906;-0.021548878;-0.12405419;-0.12181973;0.03409558;0.06725773;-0.040659677;-0.040828973;-0.013887456;0.057551235;-0.01763176;0.015698759;0.014607099;-0.03688989;-0.04381726;0.05284457;-0.028283048;0.056527805;0.050948717;-0.0012482967;0.07484108;0.043990113;-0.009889294;-0.081431344;-0.028680906;0.009556293;0.13213421;-0.076784946;-0.038433965;0.0472339;0.008128689;0.100678064;0.030184269;0.07336596;-0.031009944;0.01121827;0.013119056;0.06991331;0.06362597;0.073491365;-0.023481915;0.03500927;-0.018569676;0.09954443;0.044620316;0.06519861;0.04015968;-0.039248314;0.037392363;0.008057884;0.089331634;-0.039717678;0.007476381;0.0035710046;0.03279372;-0.01278915;-0.0021885813;-0.03412187;0.006693881;-0.066305175;-0.05404436;-0.119910054;0.12465923;0.06390323;0.117577285;0.04224968;0.030240363;-0.098270595;0.05553147;0.063911356;0.026224215;-0.0018414079;-0.14220688;-0.065601885;-0.06269239;-0.08011012;-0.07532941;0.06118175;-0.019371629;-0.053809598;0.093929246;-0.056027595;0.024816293;0.011529713;0.03655432;-0.09354376;-0.06926087;0.001967195;-0.06931021;0.0044763996;0.026683835;0.026433384;-0.04319085;0.012062255;0.12801352;-0.021365458;0.16667691;-0.02701352;0.032178093;-0.09959971;0.041018177;-0.07298457;-0.043790348;0.08011495;-0.00090492057;-0.01330224;-0.05591427;0.058033794;-0.12434172;0.06646593;0.006688441;-0.0010383518;-0.090897;-0.0844425;-0.09267753;-0.02239333;0.050418768;0.011603556;-0.07494584;-0.015615227;0.06569557;0.04928952;-0.085815765;0.054100562;0.05263695;-0.07713983;-0.055701073;0.051525813;-0.005751548;-0.047126155;-0.031212939;0.083082296;0.030427754;-0.051466934;-0.05258053;0.046783492;0.034167156;-0.05814972;-0.057600573;-0.02441885;-0.020259684;0.02854888;-0.0075491252;-0.03639415;-0.038969245;-0.02183089;-0.023526466;-0.080918565;-0.060054764;-0.14218505;0.0011097018;-0.076776296;0.002320828;-0.03434023;-0.011306183;0.0557332;0.10935655;0.033856135;0.02417982;0.14388429;-0.04959845;0.018394934;0.052164577;-0.010507716;0.054455724;0.030176116;0.065975405;0.047393955;-0.09411899;-0.0053593777;-0.13491878;-0.0052435333;0.08853123;-0.07787705;-0.03229175;0.005867355;0.025046231;0.03835892;-0.054456644;0.03071579;0.06271157;0.054796405;0.04982503;0.049344696;0.056131966;0.069545224;-0.05625036;-0.0745201;0.03743185;0.15030104;0.0068026413;0.024212653;0.049346093;0.045632925;-0.083630115;0.043213274;0.06712268;0.11237268;0.06517172;-0.047906432;0.056282002;0.018508099;0.088479;-0.1454813;0.08416766;0.07544463;-0.07360149;0.02259124;0.1055282;0.038262114;-0.039641805;0.023891587;-0.016781861;0.046051476;0.005816209;0.09840623;0.09100694;-0.07540091;0.07207562;-0.013661364;-0.045191824;0.045565948;0.00548572;-0.02727776;-0.06961451;-0.044659093;0.08891079;-6.756783e-05;-0.028694926;0.031602815;0.084702104;0.053909454;0.033349432;0.012840357;-0.042318318;0.015161526;0.0060801716;0.07609394;0.066783786;0.028746461;0.06050577;0.026170162;0.0655854;0.0029996496;0.040294696;0.01797684;0.039904993;0.07326912;-0.05695414;0.12089204;-0.027504755;-0.013137574;-0.0345097;-0.078329325;0.009779119;-0.008686512;0.10224762;0.11097954;-0.04874982;-0.07744157;-0.13357998;-0.086480774;-0.01750445;-0.17827928;0.06431179;0.03359018;-0.039147973;-0.052291423;-0.031178575;0.014757467;-0.024631977;0.057158362;0.04277622;0.036050264;-0.04499741;0.031648077;-0.066025786;0.15435041;-0.03464855;-0.06035351;-0.031254232;0.005432111;0.06791413;-0.00055528624;-0.048686698;0.008784149;-0.050235275;0.03252745;0.008609027;0.08693904;-0.0507053;0.12627786;-0.06469298;-0.13284004;-0.0076597393;0.025710173;0.02290297;-0.08077405;-0.03487949;-0.06114071;0.041057236;0.025087086;-0.0157392;-0.03697565;0.010418922;0.11119876;-0.001056751;-0.023117641;-0.09025284;-0.124043174;0.0073727784;-0.0100161545;-0.083898716;-0.09314862;-0.16882274;0.09535006;-0.038615763;-0.009628019;0.076072425;-0.023166621;-0.0892551;0.056690432;0.06687868;-0.18526086;-0.07678293;0.027844138;-0.04188157;-0.020177076;-0.046260614;-0.072071016;-0.07218111;-0.038720775;0.06885325;-0.14944783;-0.05693917;0.07356453;-0.074300185
-0.0055457386;-0.036456544;0.0356301;-0.070825815;-0.034530368;0.029196953;0.03486896;-0.03790531;0.0058500776;-0.05277828;-0.051845063;0.06505996;-0.081504695;0.03513657;0.009514996;-0.047860287;-0.03466667;0.020933159;0.054669477;0.052354936;-0.08593219;0.053928543;0.01463892;-0.030508853;-0.034527693;-0.076911844;0.029640587;0.022264186;0.008399955;0.033429332;-0.041618995;-0.10491372;-0.028285932;-0.10865661;0.007376274;-0.042750556;0.09379093;-0.105228044;0.011340793;-0.008442094;-0.029785695;-0.080431536;-0.013423907;-0.076067194;0.011538277;-0.035017777;0.0054451684;0.06325867;0.062499147;-0.10179767;0.00963308;0.11148656;0.035072807;0.0060441894;-0.13506393;-0.09060316;0.043402098;-0.012358797;-0.08336323;-0.068969205;0.005235115;0.105141655;0.024695048;0.10598672;-0.08484278;0.062395465;-0.17253835;-0.09403428;0.0032759365;0.02266822;0.067911744;-0.11028001;-0.07785216;0.006025916;0.07632949;-0.0313607;-0.06568354;0.03070961;0.048419047;0.02714317;-0.018088674;0.09892027;-0.08608647;0.03772426;0.0066454215;-0.060813136;-0.16301787;0.08080909;-0.05655574;-0.018883798;0.06546651;0.11871834;0.048472956;0.07833022;-0.10036274;0.011955784;0.030507365;-0.1026386;-0.0025559904;-0.05460394;0.03020827;-0.03752009;-0.11557596;-0.042729404;0.0063051726;-0.069005355;0.021554573;0.064629465;-0.055276066;-0.0202967;-0.022215692;-0.07140021;-0.07428745;-0.04819101;-0.06331707;-0.07952414;0.07165881;0.07109349;-0.060139608;-0.065447286;0.04907172;0.001595812;-0.021501586;0.015860522;-0.05095475;0.084254265;0.067129;-0.08350591;0.002121312;-0.08860941;-0.10102613;-0.08974703;-0.1053491;-0.14317489;0.04515759;0.017082686;0.050213974;-0.069821976;0.036866363;0.08234582;-0.05497148;0.07415065;0.019809315;-0.108681425;-0.11117346;0.015402827;0.03421453;0.052552383;0.00048292693;-0.07090164;-0.12593924;-0.0715;-0.05895708;-0.015009242;-0.00016914276;0.036251303;-0.0448585;0.051636267;0.010173772;-0.06361354;0.024331335;-0.11558504;-0.04487913;0.057816952;0.043541633;-0.17625497;-0.021709094;0.07775104;0.047685016;-0.049500916;-0.037186913;-0.031441566;0.0765103;-0.020671744;-0.08408416;-0.07104657;0.029239492;0.062396154;-0.054822423;0.024151932;-0.09291365;0.020731485;0.032958735;0.0018272813;0.053973854;0.070406556;0.0029318377;-0.0811684;-0.11124776;0.030295955;0.059365235;-0.100252524;-0.06461154;0.042412683;0.013233764;0.054750543;-0.015457929;0.046844453;0.023359902;-0.04628419;-0.047587536;0.04728218;0.045790326;-0.082111605;-0.119564444;-0.0764528;-0.016008262;-0.053841013;0.06540842;-0.016190372;0.036851227;-0.033677626;-0.06548023;-0.052231632;0.11645229;0.016572801;-0.048074804;-0.027466817;0.052360523;-0.0505692;0.044944923;0.06084219;-0.03417293;-0.011934193;-0.11969599;0.061820928;-0.048911534;0.043393265;0.12345957;0.06591078;-0.02447177;0.042984296;-0.0021230974;0.013727138;0.015988396;0.07790817;-0.034032445;-0.07640625;-0.0969655;0.07023675;0.05913955;0.022025118;-0.14039929;-0.030481078;-0.08402101;-0.061468862;-0.04901126;0.05648247;-0.058296986;0.031062517;0.014944746;-0.0571515;0.031385656;-0.14491011;0.020191966;0.008268932;-0.042635158;0.06851239;0.08214711;-0.07391193;0.09300706;0.038840473;-0.092793845;-0.08586873;0.072286524;0.059802614;-0.11968086;0.08550274;-0.008241844;-0.026368257;-0.0049641198;-0.022674361;0.049052097;-0.015415387;0.0072944695;-0.02282248;-0.011050219;0.009140328;0.006599949;-0.09043783;-0.042700157;0.017081901;0.060959235;0.06536315;-0.0155778965;0.049376134;0.015188846;-0.08110346;-0.029110657;0.09587054;-0.08723445;-0.11427988;-0.08391982;0.02536178;0.07308621;-0.045462593;0.08481464;-0.09311586;-0.0708059;-0.0019226859;-0.14835884;0.14199595;-0.006409497;0.11354328;0.027291007;0.009337738;-0.034513235;-0.056779772;-0.042484086;-0.04488155;0.053346187;-0.11155329;-0.0074386084;-0.03617395;0.050189618;0.027055714;0.040451303;0.01772334;0.075732;0.09105584;0.0057014455;0.07035129;0.023966486;0.058083482;0.06290635;0.05690981;0.0014153701;-0.022748372;0.03558633;0.005376113;-0.0021367844;-0.012728298;-0.053586002;0.16415907;0.07722685;0.01874581;0.0012426014;0.016790152;-0.037469257;0.013260515;-0.033646364;-0.051650517;0.0970482;-0.07103366;0.006401393;-0.054128975;0.07280778;-0.040364776;0.05730275;0.03788761;-0.07414401;-0.0728338;-0.026099227;-0.026239682;0.05365735;0.08304077;-0.14022274;-0.0725025;0.09766995;-0.009810354;-0.035596866;-0.042651948;0.06285381;0.053926222;-0.10616722;0.0085558705;0.048901245;0.08799133;0.0413501;0.044950165;0.082466304;0.0364123;0.056908358;-0.1215659;-0.020933557;0.0038882021;-0.042405963;-0.04200461;0.021802915;-0.046149105;0.030764969;0.06355949;0.043746725;0.08825074;0.0446443;-0.025832769;0.018622184;-0.11524577;-0.05734331;0.046692137;0.05534579;-0.14963436;-0.033605214;0.0046163723;-0.040138334;0.003428887;-0.09469967;0.02481557;0.14852832;-0.04072408;-0.08588359;-0.11121656;-0.073714636;0.027222482;-0.00820274;-0.09116474;0.015000864;-0.04124384;-0.07426948;-0.120458454;0.010311585;0.06984589;-0.004208689;-0.04790301;0.035933573;0.038689148;-0.011798135;0.03336859;0.080800004;0.027520828;0.031371113;-0.034380596;0.019790366;-0.01645846;-0.012658662;-0.020795226;-0.073436014;0.09159889;0.056647148;0.003915335;0.11915754;-0.08614634;0.011667469;0.008855496;0.06693996;0.019307194;0.022230651;0.048801012;0.0027620238;-0.022561235;0.09872745;0.0574337;-0.19604914;0.0081710415;-0.07127055;0.0125762075;0.01605;0.07665405;0.06844232;0.04585706;-0.066775806;-0.041990723;0.033640575;-0.04021756;0.014140885;-0.027722443;0.017470133;-0.027284717;0.0017883681;-0.10098702;-0.02091462;0.034423374;-0.07962168;0.015930777;-0.022122087;0.1795795;0.0077893087;-0.005976719;0.07702041;0.067401886;-0.03650718;-0.025289375;-0.0070209075;-0.011683228;0.0055919555;-0.068779394;-0.06879934;0.02015997;0.040572368;-0.013822608;-0.004710109;0.08583782;0.0608009;0.064148776;-0.012093898;-0.030287983;-0.00088995596;-0.07744915;0.12277207;-0.07612391;-0.0614938;-0.120768175;-0.016410057;-0.04466724;0.07103619;0.0038342986;0.09579715;-0.08191499;-0.005285432;-0.0928519;-0.011861943;-0.004041432;-0.109422736;0.061905965;0.0038227828;-0.04066796;-0.11515911;0.057452634;-0.009192214;0.041105878;-0.04615163;0.08615529;-0.03687317;-0.071580105;0.0014569685;-0.059329156;0.068911955;0.07175905;-0.0149897905;0.03535037;-0.020507023;0.15254425;0.03743047;0.011888944;0.103009574;0.042313356;0.057080656;-0.014204271;-0.054128967;0.057504546;-0.08646413;-0.039681308;-0.049808398;-0.039328784;0.061945103;-0.07194417;0.05709817;0.042564046;-0.09613466;0.014599524;0.02747066;0.032177404;-0.00838911;0.107209;0.06176345;0.11906581;-0.070944384;-0.063391335;-0.032257184;0.04377727;0.005093311;-0.007867056;0.032854445;-0.056371313;0.0071679703;0.060894936;-0.0041710455;-0.0051073716;0.033007834;0.014601997;-0.031226464;-0.016771896;-0.13332707;0.009328686;-0.03660683;0.03898442;0.03531508;-0.06844779;-0.050461195;0.053122792;0.06729954;0.037263125;0.017437965;0.082035474;0.009791442;-0.057208426
-0.08898925;-0.043654542;0.050114535;-0.017190956;0.06598299;0.0041333027;0.0253257;0.033118803;-0.03755029;-0.017986443;0.04694574;0.019871764;-0.1260418;-0.07179692;0.016274953;-0.06907865;-0.01131864;0.003978339;0.042806126;0.012201764;-0.043280672;-0.06461887;0.013470441;0.01961032;0.070585445;0.0048366915;0.037815202;0.0061621726;0.03385747;0.023692954;0.07509024;-0.15595436;0.034323372;0.0077414145;0.0023936518;0.030675847;0.07717345;-0.11492385;-0.07290915;0.04657281;0.010186118;-0.09469841;0.052887663;0.035430975;0.023226932;-0.06837476;-0.04291827;0.069681056;-0.08370434;-0.02008494;-0.1273323;0.051257897;-0.0015948087;-0.03555836;-0.1519829;-0.022447838;0.078060634;-0.001461937;-0.08303177;0.02158749;-0.007011522;0.0038691948;-0.036538452;0.0564031;-0.016308937;0.029475847;-0.08408674;0.006506262;0.015778909;0.07289094;0.020781988;0.04281201;-0.068028495;-0.04489367;0.053295787;0.021785542;-0.0086932415;0.013968923;-0.086211756;0.043265738;-0.0033455004;0.11297434;-0.013542999;0.013306259;-0.0824369;0.05118113;-0.09235776;-0.028138315;0.054522004;0.104622886;-0.015568928;0.021139886;0.06028192;-0.02909619;-0.19536194;-0.00822079;0.077183254;-0.05447691;-0.02908927;-0.035543602;-0.059846442;0.028991204;-0.11500965;-0.053110726;0.038626008;-0.04440125;0.052984264;-0.024356352;-0.0070654056;-0.034213748;0.054428726;-0.019768877;-0.02866128;-0.035833593;-0.043504503;-0.10362782;-0.0647902;0.04036126;-0.05614042;0.01503149;0.008355824;-0.03706136;0.07136807;-0.026725983;-0.060940545;-0.06698047;0.02179628;-0.010064311;-0.051305715;-0.051635142;-0.06038272;-0.12574631;0.0058469377;-0.10166115;0.07634801;0.00023397012;0.12996453;-0.053316947;0.005651236;0.0023277027;0.0644207;-0.059697118;0.090810195;-0.042445112;-0.034061372;0.062302012;-0.026285123;0.06870088;0.08296885;-0.009596497;-0.016754491;0.006499323;0.077368155;0.08203945;0.12643178;-0.06587714;0.017008947;-0.07642926;0.004914492;-0.015336519;-0.013873157;-0.10819913;-0.03863936;-0.015977347;-0.055656426;-0.08271296;0.043720532;0.08892716;0.007205759;-0.014161512;-0.013854971;0.022399573;-0.019292831;0.04472958;0.0840918;-0.028234271;-0.013651712;0.09456463;-0.061136696;-0.033093397;0.029339429;0.010400178;0.06536301;-0.05207027;-0.02408063;0.08390679;0.018873027;-0.038286004;-0.14924636;-0.04039821;-0.07117513;-0.059806608;0.06094118;-0.023746382;0.041743625;-0.01997732;0.10713667;0.07468286;0.1256663;-0.034933634;-0.06320808;-0.02126811;-0.040570598;-0.05879283;-0.03285083;-0.046851203;-0.11242541;-0.040601645;0.006146778;0.027128171;0.04969453;-0.070598915;-0.021723563;-0.012461171;0.011715362;0.06247521;0.026400344;-0.051894557;-0.05806738;0.012798943;-0.026317459;0.025345765;0.10105332;-0.05265543;-0.0044092066;0.08360304;-0.030301081;0.11308788;-0.015698098;0.029121004;0.019191176;-0.02836456;-0.048499167;-0.054169968;0.07486134;-0.0009749534;0.04732856;-0.08242992;-0.033090193;0.053485125;0.05417849;-0.0053430675;-0.10883821;0.032932244;0.04800182;0.0063577713;-0.0628613;0.07276163;0.09156848;-0.04127368;-0.0016137452;0.008509625;0.0005674436;-0.106736705;0.03858063;-0.031911828;0.007826899;0.08555488;0.06612196;0.057484075;0.027354294;0.013177679;0.057581354;0.052304782;0.07416279;-0.04462828;-0.09822681;0.101261064;-0.013160682;-0.069583;0.022596896;0.02150557;0.0017999554;0.022311212;0.074711636;0.011012478;0.1256179;0.044349004;-0.016100299;-0.034645975;-0.076306015;0.0011006477;-0.008010111;0.045507845;0.024891283;0.04742423;0.079804935;-0.044165507;0.030691443;0.039363522;-0.083847195;-0.10785874;0.05914976;-0.06433789;0.067297585;0.020349238;0.050898053;-0.000980934;0.03816072;0.021930797;-0.023945205;0.1598781;-0.053348172;-0.03928693;0.090641;0.08595151;-0.03112893;-0.045449063;0.04365998;-0.005464533;0.026731301;0.024708297;-0.06944246;0.03147082;0.03905369;-0.04122065;0.0030018317;0.040929586;0.07084699;0.024580395;-0.07463279;-0.037890036;-0.037006192;-0.04596488;-0.057771754;0.055152692;-0.0682026;-0.045113336;0.051559433;0.06308764;0.0030576854;-0.054818064;0.058047406;0.0973717;0.03960907;0.053280372;0.049277164;0.0021347248;-0.027225884;0.01099808;0.0140167065;0.08120449;-0.04757979;-0.06459326;0.082070135;-0.018688917;0.0014644192;-0.052633382;0.10234755;0.066197515;0.008021761;-0.05947899;0.027474511;0.08360254;-0.0766312;0.082377315;-0.10696652;-0.044882867;0.05756383;-0.08679359;0.053907964;-0.04003028;0.062323973;-0.0050858855;-0.045870543;0.073744856;-0.08981499;-0.019733595;0.049499664;0.0069719665;0.033453338;0.025186647;0.069160916;-0.13794775;-0.077337794;0.0521526;-0.064344294;-0.018635036;0.034361064;0.034493092;0.019041123;0.068086825;0.026428955;-0.07297139;0.063135475;0.08560922;-0.0326771;-0.09733082;-0.052339096;-0.018477008;-0.016848324;-0.02707968;0.060807526;0.059776045;0.06863523;0.0609045;-0.057604812;0.062714435;0.073145404;-0.017627291;-0.025598418;-0.08194288;-0.067549676;0.049239106;-0.009352823;-0.06472322;0.03335131;-0.009342347;0.02404178;-0.13614519;-0.0043834234;-0.009925638;0.012287598;0.014830826;0.004975585;-0.07319018;0.0032936053;-0.101569526;-0.037996385;-0.002764779;-0.070134036;-0.10414945;0.009605454;0.044108447;-0.0005269697;-0.088151;0.032966018;-0.011069451;0.17168635;0.006395493;0.012909557;0.041796714;0.02270038;0.010906806;0.03931577;-0.0051731835;0.02544188;-0.06688646;0.039520778;-0.044595297;0.066354096;-0.03850716;-0.17655858;-0.010350604;0.028064264;0.0038632827;0.09194306;0.07422528;-0.03354687;-0.068770826;-0.08050904;0.07312898;-0.06723666;0.05203435;0.060541242;-0.063029654;-0.09823573;0.02856492;-0.06773071;-0.07230916;0.023708373;0.044649474;0.0059383456;-0.03605869;0.028243862;0.11062406;0.1191984;0.03470925;0.06789057;0.04595467;-0.021965494;-0.03358869;0.03226069;0.011454936;0.095391996;-0.056567267;0.004243096;0.04092166;0.00023632124;-0.032097787;-0.044603255;0.09932063;0.04738267;0.094571486;0.10776993;0.0863007;-0.09130534;0.050517593;-0.053359117;-0.051579446;0.08107619;-0.0645787;0.014040524;-0.069243394;-0.08225147;0.106017515;-0.01335496;0.064620316;0.017051533;-0.036033556;-0.07646666;-0.027928028;-0.08602679;0.058461737;-0.005600336;-0.042480998;-0.086733155;0.012238451;0.02731307;-0.02418884;-0.08393215;0.12349836;0.07789444;0.03778341;-0.017763933;-0.07765722;0.11741073;0.0066491724;-0.118568294;0.050881196;0.026626574;0.143627;-0.030180333;-0.029770046;0.10701909;-0.041440886;-0.040155035;0.02435584;0.08055115;-0.0121974;-0.09506094;0.0011691876;-0.062391598;-0.029481223;0.06292755;0.003836419;0.081215024;-0.037163455;-0.10496898;-0.014566371;0.12707129;0.051255424;-0.044219334;-0.06167264;0.17851797;0.120640874;-0.017519377;-0.02573997;-0.020105442;-0.0024642302;-0.034343082;0.07707637;-0.09152426;-0.06500742;-0.0053935493;-0.020310713;0.08425978;-0.008066155;-0.014489029;-0.032942798;0.0016764171;-0.042329784;-0.056290403;-0.071906246;0.02683434;0.037463903;-0.060071874;0.015227394;0.056900848;0.046242986;0.106710024;-0.03823141;-0.036502223;0.026296213;0.018717857;-0.021599688
0.05897605;0.062364858;-0.012010177;-0.0001575796;-0.018111115;-0.018084977;0.009554297;-0.063412726;-0.044327393;-0.07154211;0.055364106;-0.08386236;-0.10926789;-0.02986115;0.024419496;0.026115945;0.03493052;-0.010915711;-0.076446;0.06172538;0.05119037;-0.018506918;0.003225392;0.051527895;0.078338385;0.06318886;0.07806163;-0.06626211;0.030227985;-0.029530356;0.08580879;-0.06379693;-0.0087359855;0.058400046;0.04942402;0.06287938;0.15788452;-0.05521186;-0.03297687;-0.046646584;-0.030590454;0.034943085;-0.04310448;0.04867245;-0.021993212;0.046707626;-0.113277495;0.007664521;-0.05496705;-0.12691079;0.015023526;0.017554738;-0.017545564;-0.06640313;-0.123393446;0.026270745;0.08167634;-0.020151949;-0.07820341;0.0059994827;0.111171536;-0.12610628;-0.04351859;0.14975002;-0.009262861;-0.02585747;0.04786488;0.03463474;-0.054950688;-0.055679496;-0.019674271;-0.02176618;0.06176386;0.08243575;0.07046369;0.078939036;0.08182669;0.020109482;0.11192598;0.0053638094;0.04380894;0.059544474;0.0034394937;0.023378363;-0.05917464;0.0074432683;-0.13187008;0.023323556;0.057362366;0.0534021;-0.07008418;-0.09649659;0.03255629;-0.078364804;-0.1801667;-0.08439715;-0.017957164;-0.0184252;-0.0038264787;-0.08234101;0.0335397;0.074531615;-0.12252812;0.014542456;-0.05265467;0.023150152;0.013587855;-0.09571403;-0.0087567065;0.005739154;0.0042787236;0.024499675;-0.07222493;-0.043630254;-0.08018976;-0.12671113;-0.07784773;-0.05434346;0.048002247;0.046785828;0.01940439;-0.005205147;0.028938543;-0.07820846;-0.12318385;0.014993472;-0.07323012;0.058571152;-0.06354184;-0.11529659;-0.091554575;-0.097291306;0.020076199;-0.028267387;-0.035250876;0.044654608;-0.017984511;-0.036554486;-0.028804567;0.03913309;0.05616687;0.025548218;-0.043755896;-0.055404752;-0.03876719;-0.02676739;-0.020126926;-0.016845554;0.0984145;-0.06202927;-0.1482323;-0.08195764;0.086894415;0.09813803;-0.022360638;-0.04046194;-0.0029667662;-0.09093104;0.06077691;-0.06283571;0.044067297;0.045786306;-0.00031022757;0.06288932;-0.16247173;-0.097255446;0.09996482;0.06572507;-0.0012187477;0.07375018;0.016639354;-0.03193599;0.027954694;0.061908994;-0.07367864;0.07060215;0.021879762;0.027056336;0.018672448;-0.06587672;-0.03802721;0.03471136;0.13971676;-0.07137126;0.0836896;0.028405318;0.0019037352;-0.0178267;-0.11122517;0.027864223;-0.06088648;-0.07822391;0.013335245;0.029327769;0.0865865;0.03704367;0.082937725;-0.016754286;-0.010833981;-0.11030122;-0.061885305;-0.05845565;0.023465397;-0.05822997;-0.08248515;-0.079815075;-0.06895014;-0.0023261725;-0.04635518;0.05060727;0.01602037;-0.025312673;0.018851113;0.0030744905;-0.053464185;-0.0422295;-0.07593234;0.07222671;0.073088184;-0.0064359214;-0.05772628;-0.033765417;0.102956735;-0.11411804;0.0015214535;0.07294506;0.024048053;0.0654388;-0.03815974;-0.082720645;-0.035885114;0.0015295299;-0.092400566;-0.036382403;0.099070415;0.04970003;0.025899965;0.01640159;-0.16602327;0.054366156;0.05069669;-0.0076180617;-0.037216593;-0.053567797;-0.02704121;-0.044072293;0.04585719;-0.02286752;-0.013418505;-0.026426898;0.07974852;-0.06532757;0.11066305;-0.11068319;-0.032536693;-0.059206937;0.03267823;0.06805292;-0.045100037;0.025772125;-0.033341587;0.10997629;-0.02135488;0.041802093;0.015215623;0.07813156;-0.015702792;0.039384387;-0.02096062;-0.063408084;-0.058694974;0.05514448;-0.08561092;0.054778267;-0.07156042;-0.06429284;0.08571766;0.024776587;-0.022228917;0.057649065;0.04596764;0.06887796;0.046771508;0.010921519;-0.03191947;0.00910396;-0.07814581;0.02988395;0.047213074;-0.071157955;-0.0024398586;-0.034151908;0.09782502;0.059972465;-0.014006973;0.019879127;0.054949287;0.033700783;-0.058609575;-0.025504606;-0.014685165;0.0083169835;-0.017909387;0.018644061;0.09009593;0.115345016;-0.11703229;0.026329732;0.07308328;-0.07333752;-0.018856112;-0.0601729;0.058767587;-0.10018058;0.07472647;-0.05354873;0.062400326;-0.043627203;-0.007588859;0.051930204;0.059895985;-0.020180048;0.05170437;-0.012267813;0.044267368;0.0394813;-0.0989552;0.013105698;-0.07944043;-0.032704443;-0.057103854;0.0616554;-0.016039876;0.15005288;-0.061399173;0.13489355;-0.06860463;-0.06507375;-0.08344214;-0.032854896;0.04067128;-0.05162722;0.023408713;0.029693786;0.059855457;-0.025232647;-0.05739509;-0.071058765;0.060939357;0.078203924;-0.09086085;-0.0235199;-0.06883931;0.051276628;-0.07043019;0.024780462;-0.1308558;-0.089838766;0.00539796;0.04336435;-0.085517086;-0.04778626;0.06034406;-0.044145215;0.039175637;0.06840869;-0.015058722;-0.011112132;0.028221956;-0.05853643;0.016991299;-0.048346564;-0.07537939;-0.07578263;0.005611575;-0.0010100637;-0.015661037;-0.07109101;-0.061332252;0.011800166;0.03377417;-0.00026331737;-0.100958526;0.01469886;-0.04085939;-0.018223679;0.05101287;-0.12773214;-0.06961958;-0.07486978;0.026499245;0.03817763;-0.036306363;-0.04713234;0.023666432;-0.08281475;0.06375249;-0.05805448;0.16254073;-0.0679166;-0.092370935;-0.023733458;-0.028876403;0.066562064;-0.07623928;0.061456177;-0.03822411;-0.08493215;0.079687715;-0.045189;0.08040773;0.00794789;0.036003493;-0.07331915;-0.0017690029;0.008088761;0.008941437;-0.0796644;0.081212506;0.046504583;0.069704756;-0.03748269;-0.010614665;0.018214712;-0.05246383;-0.016548;-0.06686733;0.07686447;0.13694999;-0.05075373;0.053893022;-0.074877135;0.07808675;0.018925974;0.00030171964;0.041014932;0.08583327;0.001645972;0.010714495;-0.033143684;0.039900504;-0.03847226;-0.14355199;-0.0685858;-0.068309434;0.1538289;0.04455829;0.021470446;-0.0492672;0.044515036;0.046200443;0.004223113;0.0015622303;-0.08237022;0.062230553;-0.079444446;-0.0736249;0.0663643;-0.06866208;-0.051880278;-0.08840457;-0.080503605;0.000732282;-0.026875392;0.008001455;0.022805674;0.092491835;-0.012262198;-0.0067578475;-0.053850804;-0.008784269;0.05438474;-0.039333332;0.07906925;0.026836617;0.030000236;0.067094065;-0.055577837;-0.07780161;-0.08206718;0.02774022;-0.04977746;0.046627175;0.11386525;-0.002821288;-0.07542607;0.053618304;-0.008198262;0.07308064;-0.07230494;-0.008745294;-0.013134827;-0.013736977;-0.09757247;0.02813669;0.039147787;-0.111494705;0.079419635;-0.071343265;-0.050231367;-0.08168817;0.04717189;-0.17807731;0.09206922;-0.016992409;0.023112407;-0.005299726;0.008505429;0.11149575;-0.09005041;-0.0024655806;0.0014808148;0.021677457;-0.071464874;0.051523775;-0.042369857;0.12798539;0.055841975;-0.12898697;0.0062361476;0.09193818;0.1761003;-0.07061633;0.04262682;-0.019955628;-0.061138693;0.05656729;-0.0033236428;-0.055430304;-0.02209022;-0.07749933;0.08844819;-0.03376535;0.057451844;-0.012593169;0.09882928;0.00732438;0.04685869;0.038807854;-0.07802455;0.0017500155;0.039663076;-0.022099892;-0.064398006;0.13332933;0.111407995;0.021980623;0.01705073;0.007576615;-0.07721052;-0.06392071;-0.07878289;-0.08229105;0.06804214;0.08287915;-0.04171788;-0.029824723;-0.036217514;-0.06490691;-0.059293266;-0.021112494;-0.06283776;0.033656694;-0.0026337074;0.031208029;0.012700406;0.034330722;0.06392725;0.011515264;0.052698918;-0.008200005;0.030524826;-0.023340873;0.0067490493;0.034359436;0.00012333883
0.00462956;0.073872104;0.057765022;0.0748775;-0.061644398;0.10829361;-0.017960943;0.00058066467;0.080551416;0.049245574;4.4380053e-05;-0.01674985;-0.025445212;0.025660662;0.08171182;-0.083929464;0.046395447;-0.084766075;-0.04225102;-0.045238223;-0.08112535;-0.006743922;-0.08400172;0.031187192;-0.019503849;0.034396708;0.09412316;-0.019698393;-0.05508508;0.08357327;0.028936807;-0.086540475;0.03477066;-0.06648507;0.013421007;0.01208329;0.10570539;-0.1401496;0.074034445;0.032259513;-0.019747514;0.043711297;-0.03372759;-0.073510386;0.0696031;-0.07185932;-0.07652023;-0.07094818;-0.039980687;-0.05205907;-0.053159345;0.013316688;0.030421397;0.062432464;0.0038016175;-0.043707058;0.07749135;-0.013823207;-0.080649555;-0.019303678;0.02048991;-0.057671223;-0.056972846;0.07521625;-0.087768175;0.0145541215;0.010283178;0.054817155;-0.006507863;0.0126418965;-0.049320973;-0.05510137;0.03290968;-0.059973843;0.06339778;-0.14706881;0.049738076;-0.070501454;0.0613347;0.062294513;-0.0894628;0.0029928705;-0.03160742;0.019720871;0.01346814;-0.0029459398;0.008216594;-0.014950165;0.040228296;-0.021859685;0.06799428;0.048453245;0.04945927;-0.020383323;-0.105234616;0.04328208;0.040385127;-0.006391557;0.06141182;-0.027954219;-0.07199424;0.0460734;-0.065810874;0.05697342;-0.043520313;0.06627202;0.017039377;-0.067651495;0.09576471;0.074094936;0.012944535;-0.09148601;-0.023168914;-0.067011684;-0.04759541;-0.016185934;0.032795597;0.018510293;-0.055410236;-0.0004376264;0.021183709;-0.026393;-0.017498512;-0.086729996;-0.0010585777;0.0061952136;-0.06995521;0.13436355;0.04155174;0.0075221695;-0.19382435;-0.035750292;-0.05546151;-0.05150157;0.074902736;-0.0100720115;-0.08909358;0.052858654;-0.047991943;-0.013968935;0.06602219;0.078353845;0.0022250316;-0.09748413;0.04177877;-0.0049363137;-0.0067972713;0.021477606;0.06858743;-0.0005994771;-0.11722065;0.042882442;0.07924777;0.08033503;-0.012744077;0.060478628;0.0536479;-0.14823088;0.014607007;-0.052189045;-0.016199708;0.021461772;-0.016601961;0.036663834;0.0043040607;-0.08326366;0.051473048;-0.0047829277;0.017021187;0.058724083;0.06855378;0.07307706;-0.010826061;-0.007544819;0.0036856607;-0.014983044;0.03885637;-0.027693631;0.028788634;0.025514657;0.025537686;0.07069907;-0.02179128;-0.057595856;-0.037061896;-0.103481926;-0.051721253;-0.028920565;-0.09791018;-0.011781827;-0.036850333;0.05896867;-0.0229831;0.0078127375;0.0996371;-0.02435689;-0.023492005;0.04357716;-0.058832657;-0.11654477;0.013250129;0.020872165;-0.038809586;-0.052234657;0.061573446;-0.07594786;0.0023242885;0.068885855;-0.074213095;-0.08460023;-0.07142317;-0.07690646;0.05446106;-0.022372574;-0.006087992;-0.056920372;0.045413204;0.07475673;0.0266355;0.033240937;0.03381111;0.074670315;0.11865553;-0.011872984;-0.055061102;-0.025405936;-0.032898474;0.13372062;-0.14069164;0.0039119725;-0.033515893;-0.027708052;0.0522607;-0.058671106;0.021530047;0.010216328;0.010046958;-0.047149245;-0.025798125;-0.068365626;-0.02075904;-0.019611875;-0.09504474;-0.015770217;-0.016095122;0.0049362136;-0.12031769;-0.0615735;-0.012828181;-0.07161511;-0.029272323;-0.06490197;-0.04442329;-0.069236375;-0.052391373;-0.0031932865;-0.025891853;0.027189616;0.051939134;0.029165527;0.049837284;0.049182985;-0.065663725;0.027198069;0.0013401274;-0.053546898;-0.00019844578;0.06180238;0.11355109;0.0143419625;0.077451944;-0.021263517;-0.00939449;0.10106208;0.07890122;0.075556785;0.124056906;0.020713264;0.10321533;-0.09104929;0.06944049;-0.034546968;0.019293765;0.04658956;0.040072568;0.013392482;0.033918906;0.046017334;0.052966785;0.035567123;0.06809347;-0.06793976;0.05127056;0.034559373;0.036452785;-0.060048986;0.0084970165;0.07577198;-0.011658092;0.025827618;-0.08314819;0.025515614;0.04821394;0.030705608;-0.0132529065;0.004037635;-0.10486151;0.07631659;-0.04903943;-0.032891486;-0.043447122;-0.07359723;-0.011444472;-0.0250091;-0.024401031;0.0336448;0.022131367;-0.06499772;-0.031296168;-0.059423983;0.035972316;-0.014301423;-0.07439406;0.07132996;-0.039497644;-0.05490343;-0.045010313;0.08329858;0.008856323;0.00075454806;-0.03706376;0.03143764;0.07046509;-0.0026239762;0.004160645;0.079763316;-0.05512904;-0.04574336;0.00085712;0.02414397;0.0012241153;0.07855414;0.011818097;-0.022873603;-0.034630153;-0.027778486;-0.058819976;-0.040046666;0.01414491;-0.03574907;0.052818835;0.09624391;-0.04990113;-0.025575658;-0.09103305;-0.040934224;-0.013053098;-0.09993724;-0.008908079;0.059234466;0.022853786;-0.018392745;0.06564693;-0.04328195;0.016072255;0.066047676;0.05529821;-0.029471489;0.049558707;-0.030300632;0.016483;-0.05417932;-0.009444691;-0.048703108;-0.0451897;0.033735234;-0.09214047;-0.03292332;0.013535776;-0.0018657781;-0.05073244;0.01653277;-0.00074485404;0.06445204;0.017386986;0.1025823;0.09079659;-0.071284816;-0.0016738494;-0.15436125;-0.010773336;-0.027504833;-0.08128914;0.065677255;-0.03473214;0.06672559;-0.053383943;-0.032134388;0.16503216;-0.017115248;0.0044299434;-0.007444457;0.018442376;-0.019560793;-0.018511144;0.0596743;-0.0021235782;-0.0456807;-0.016111707;0.041429818;-0.021828037;-0.10426754;-0.017141126;-0.07118943;0.056936532;0.02082412;0.0022795133;-0.015565619;-0.029935874;0.00066547963;0.07562728;-0.0477833;-0.017740248;-0.009976649;-0.044401504;0.036381017;-0.012289912;0.03902636;0.014192003;0.10295997;0.009118801;-0.024334673;-0.06039824;-0.01520526;0.067777015;-0.00518369;-0.015651738;0.018836955;-0.06553701;0.012200604;-0.0041264542;0.034340486;-0.08556208;0.026943795;0.020181892;0.16314292;-0.041330732;0.021965694;0.081291325;0.014859927;-0.029102739;0.015306905;0.019001817;0.026519747;-0.026898764;0.03419147;0.0055707395;0.08639095;-0.08783188;0.07004012;-0.05804351;0.022775305;-0.00934322;-0.04151756;0.0030415738;0.096116595;0.043903764;-0.068613015;0.09218283;0.03727364;-0.08824253;0.1266072;0.00012249635;-0.118458554;0.08514914;0.07239529;0.06639903;-0.05711157;0.011702427;-0.06102415;0.07731343;0.073299214;0.14038429;0.077356614;0.0861961;-0.042463522;-0.043965064;0.010050719;0.11075625;0.035248566;0.035393395;-0.06315662;0.06857217;0.043788597;0.061002012;0.087158985;-0.08784867;0.004716098;0.03832897;-0.14991023;0.0457142;-0.06795224;-0.070581496;0.0035718111;0.057044987;-0.059290905;0.07963042;-0.02238551;0.022127083;0.076578885;0.05501626;0.011783556;0.083569124;-0.05380159;-0.073537804;-0.07693653;0.13331135;0.051056035;0.015897833;0.04897456;0.060154717;0.063197486;-0.027109338;0.0005086275;0.025232757;0.074426144;-0.031910695;0.07688117;0.006911798;-0.06698489;-0.0016550038;-0.055449735;0.08577908;0.024419203;0.04494104;0.043927148;0.007942538;-0.02841415;-0.09325535;0.012600165;-0.045118015;-0.035779364;-0.14333436;-0.039236974;0.07134851;0.028270526;0.06469503;-0.06260793;0.032804377;0.050483532;-0.0052754516;-0.030223964;0.031841524;-0.057018753;0.00191385;0.06233739;-0.037835836;0.058053304;0.033283494;0.0070816996;-0.01777131;0.044593554;-0.0628164;-0.06304654;-0.07395183;0.0837689;-0.10089928;0.005570014;-0.072234325;-0.033208203;0.0011821244;-0.05297428;-0.05723699;0.08795092;0.0036554416;0.06354928
0.08431634;0.083131164;-0.0438232;-0.0647241;0.026589397;0.1449497;0.07538638;0.061547283;-0.0016581785;-0.12567903;-0.056972712;0.034290608;0.016094115;0.027612088;-0.05102881;-0.08251366;0.044393376;-0.07011768;-0.032578297;-0.058010448;-0.10123723;-0.049797777;-0.04244876;-0.1033047;0.031506952;0.06773562;0.07239297;0.035237856;-0.0425296;0.018492835;0.046497814;0.009599658;0.0141171515;-0.019380061;-0.046160392;-0.027786553;0.26291263;-0.07660824;0.049338512;0.094181634;0.069116905;0.04839247;-0.043563988;-0.06824836;0.08844062;-0.018245053;-0.022905566;-0.06690526;-0.009643132;-0.15339862;0.024755301;0.119770065;0.06071307;-0.052708518;-0.114308625;0.03534194;0.12680973;0.13939305;-0.14369255;-0.07242574;-0.05832189;0.06959025;0.011756813;0.05798793;-0.09561619;0.060183898;-0.09807299;-0.081827894;0.018530129;-0.03778902;-0.06296316;-0.05197245;0.0588243;0.040701795;0.017831555;-0.112543255;-0.06806912;-0.030892003;-0.030323545;0.05603583;-0.013254461;0.03658698;-0.056043852;0.012703954;0.04917427;-0.023238339;-0.044543408;0.049135886;0.047145408;-0.0071288063;0.07362467;0.024544451;-0.0050107115;0.06701449;-0.0366414;0.020528752;-0.076148234;-0.0037650606;0.0071237604;-0.014747824;-0.085684575;0.06301399;-0.09051878;0.18148445;0.011457044;0.0054119886;0.05329861;-0.0677839;0.058482878;0.045049235;0.06205158;0.017557902;0.06652585;0.052165616;0.04835713;0.034875773;-0.014154039;-0.07818994;-0.060284246;0.049919304;-0.042087965;0.047912322;0.0036378854;0.0268056;-0.08284775;0.030683432;0.072459504;-0.022573415;0.10851218;-0.06322062;-0.13117154;-0.10538808;0.059257638;-0.052691262;0.008681512;-0.12253329;0.0263906;-0.09270949;0.06344942;0.01797459;-0.0028735395;-0.018976344;0.046819564;-0.15479302;0.019038713;-0.083691575;-0.0031510221;-0.046878397;0.17224611;0.03916412;-0.045011386;-0.042597238;-0.034995284;0.14337593;0.059243254;-0.038947105;0.043859817;-0.14812504;0.053830314;-0.060280446;0.013053975;-0.06787128;0.025188798;0.055599246;0.011663297;-0.120059565;0.11372727;-0.01885114;-0.03720805;0.044350147;0.049033426;0.057136368;-0.0033328114;0.043996584;-0.048406035;0.085486926;-0.02528279;0.17597227;-0.054842353;-0.084127314;-0.061665967;-0.025023945;0.082660206;0.066910505;-0.011038051;0.08424186;-0.079783335;0.007869876;-0.031079745;-0.10164016;-0.07436195;0.061427005;-0.06397633;-0.055271883;-0.010065498;0.067758545;0.02487153;-0.05289532;-0.03785448;-0.10204161;-0.09741751;-0.023840265;0.015995398;0.075747326;0.024272;-0.04084223;-0.0107794795;-0.0060513522;-0.045769475;-0.09370411;0.08102548;-0.09711058;0.062137138;0.011668178;0.011892647;-0.041067492;-0.014385981;0.03218258;0.049591016;0.022767348;0.014829561;-0.002910348;0.10930763;-0.12041827;0.0012961435;-0.033168588;0.0025692305;-0.039304297;0.04825944;-0.05348656;-0.007925901;0.059841443;0.070720434;-0.04130171;0.08523388;-0.061758023;0.056296363;-0.02931956;0.035626132;-0.064535975;-0.027093163;0.07481984;0.0105155585;0.05294662;0.0042507467;-0.01580805;-0.05242457;-0.008565862;-0.029622529;-0.060215704;-0.062069517;0.016194152;0.08354426;0.00642901;-0.051935192;-0.054445133;-0.026899852;0.115128025;-0.061725296;-0.115973294;-0.064585604;0.13792773;0.023416981;0.057719734;-0.077065416;-0.049197897;-0.102344975;0.004730319;-0.08070963;0.018064264;-0.026127655;0.041225214;-0.046923388;0.027578248;-0.09532183;-0.043910068;0.039247382;0.014865168;0.14536439;0.07371144;0.1386688;-0.04489303;0.07737852;-0.072817415;0.084142625;0.07326037;0.067480706;0.06658258;0.0054217693;-0.10430207;0.009372049;-0.11345889;-0.024016565;-0.040792096;-0.017301433;0.053898435;0.008347577;-0.06977991;0.0025212565;-0.011289828;-0.08742453;0.1280944;-0.06699398;0.2184704;0.036738403;-0.04497921;0.02425614;-0.016871864;-0.036016785;0.05421609;-0.007510213;-0.10817595;0.04274017;-0.034777354;0.0661151;-0.00025332824;0.053678468;-0.052227203;-0.030686684;0.029905912;-0.07961546;-0.01837162;0.038933102;0.043547258;-0.061875515;0.03072113;0.057351943;-0.021530883;0.06271914;-0.033016685;0.06616601;-0.013974724;-0.040077124;0.044304132;0.04733897;-0.015972756;0.04573242;-0.058735777;-0.045740806;-0.0022288219;-0.036470115;0.065028295;0.06363724;-0.14135864;-0.029885484;-0.064809024;0.013145522;-0.08609118;0.029273173;0.09534126;-0.067412466;0.1660642;-0.006032763;0.05443592;0.004914607;0.019555533;-0.19876759;-0.060275193;-0.0032245885;-0.07470109;0.020168273;0.053420324;-0.06297731;0.076216236;0.061974373;-0.019568687;-0.03721872;-0.06588105;0.0058606667;-0.03412866;0.064197466;-0.13397859;-0.061460216;0.010624439;0.007563861;-0.01950581;-0.05712396;-0.063522406;-0.0353867;-0.15087587;-0.091593675;-0.008785112;-0.0066201584;0.0834093;0.07619301;-0.031185115;0.071057834;0.0034217224;-0.010921274;-0.044244748;-0.076131225;-0.03586793;-0.0629514;0.031738132;0.076197706;0.027402405;0.052414972;0.07803144;0.11484404;-0.013764561;-0.050110567;-0.007893695;-0.045519795;0.05436928;0.06728071;-0.037143216;-0.09230901;0.04983001;0.008439338;0.030442597;0.09545497;-0.097828485;-0.007812345;-0.022439733;-0.031562727;-0.074054554;-0.013927474;-0.06714552;-0.062382933;-0.084846295;0.038321227;0.105021745;-0.080780715;0.08027139;0.18155843;0.01673176;0.04084806;-0.0009828443;0.14506468;-0.0597505;0.14945877;-0.08640234;0.016883228;-0.014207359;-0.07700996;-0.028194344;0.06383709;0.032551777;0.044411033;0.02283657;-0.009670512;-0.07210699;-0.14885275;0.046821892;0.011411463;-0.056389105;-0.06113266;0.1867469;0.11586936;0.04536144;-0.03675844;-0.042186964;-0.049705774;0.017752314;0.024206266;0.05085741;0.063826;0.07550819;-0.044963237;-0.049815428;0.060063288;0.076169886;-0.038598716;-0.019214798;0.008975307;0.07948967;0.044072494;0.08126832;-0.0174782;-0.06154393;0.010090453;0.11456916;0.0607338;-0.020710034;-0.034818318;0.00016572227;0.009776957;0.11417176;0.081481755;-0.06958364;-0.016888568;0.001200598;0.06308586;0.035042167;0.06752587;0.011200168;0.039004494;-0.02000787;0.09457887;0.03916024;0.081687056;-0.07766109;-0.011416002;-0.100084096;0.076978415;0.070018515;-0.0043310085;-0.09473923;0.07384191;-0.110209405;0.04298994;0.04911731;0.007809592;0.08416679;-0.023171365;-0.06014748;0.104166694;-0.05643392;-0.023677997;-0.07299798;0.03299421;0.031996123;0.050854478;0.010475883;0.06745563;0.048175704;0.14337276;-0.011543789;0.0060184146;-0.08407669;0.02352564;0.1356587;0.058653895;-0.12880708;0.056682084;0.15117086;0.038306575;0.044871185;0.008524197;-0.0703683;-0.07181176;-0.027390828;0.15476622;0.02442385;0.070240326;-0.067938365;-0.055940308;-0.009237303;-9.157348e-05;-0.080302194;-0.003333596;0.053781413;-0.1252425;-0.0067914864;-0.014873405;0.073511444;0.038104486;-0.0029706033;0.049192082;-0.0560954;0.016849827;0.045076955;0.01745198;-0.008788534;0.024466716;-0.029130444;-0.023720516;-0.052054506;0.08533624;-0.0015322055;-0.04268819;-0.042422324;-0.1264815;-0.087675765;0.007023887;-0.056262262;-0.026820749;-0.021247804;-0.115032665;0.016688684;-0.0008331402;0.07278452;0.0668945;-0.030412812;-0.09417849;-0.02493072
0.026499612;0.07818754;-0.06569365;-0.038166173;0.022507478;0.08699041;-0.03318007;0.031684183;0.06526226;-0.07786054;0.060137734;-0.058447484;0.056153145;0.05996404;0.021124888;-0.10105171;-0.031605206;-0.0618709;0.03935091;0.0056485455;-0.09224554;0.012177291;-0.063093595;0.06049114;0.12392774;-0.06468511;0.044944014;0.07206879;0.0579503;0.06777569;0.11713358;-0.100954056;0.062895186;-0.02196458;0.021053648;-0.03229818;0.14540423;-0.15013702;-0.08138418;0.05219716;-0.05848888;-0.018579328;-0.09078715;-0.020036621;0.01827338;0.049125254;-0.053737182;0.06642859;-0.08132386;-0.12509857;-0.040400553;0.075739965;-0.101715304;0.0640602;-0.021679427;-0.005085549;0.021006966;0.06624872;-0.07535401;0.023626111;0.0025280192;0.027019754;0.0022529587;0.0469758;-0.0032696668;0.0024614108;-0.020995826;0.084125854;-0.0016887854;0.034217708;0.00984281;-0.085329145;-0.040018875;0.01222973;0.011158174;-0.08788489;-0.016981661;-0.077031925;0.079691686;0.09468464;-0.024462061;0.11624956;0.004496253;-0.06007344;0.02130576;0.030560961;-0.1177999;-0.04019775;0.027508942;-0.036059923;0.034967843;-0.027750151;0.057301372;0.07196237;-0.12712759;-0.059127025;-0.0038723007;-0.10991641;-0.049775366;-0.016646942;-0.056742966;0.067246385;-0.17712337;0.19971451;-0.022095993;-0.042893883;0.00901057;0.05977414;-0.050907053;-0.0492177;-0.049162388;0.030635819;0.0002857165;0.016372623;0.0369673;-0.06650332;0.07697678;0.014775773;-0.031592906;-0.03158601;-0.0355183;-0.11149296;0.05138678;-0.0077880095;-0.11489091;-0.019174883;0.021398254;0.016191091;0.04529342;0.034073967;-0.1117902;0.015700134;0.05952835;-0.04574926;-0.05485065;-0.031212077;-0.10621794;0.06268468;-0.016442232;-0.024000036;-0.012927453;-0.072753906;0.032178774;-0.16242592;0.04209719;0.050400227;0.0661947;-0.021941869;0.1027789;0.031098465;-0.12774505;0.036011145;0.04829639;0.0055934777;0.03110521;-0.02896768;-0.012130728;-0.11606206;0.026724704;0.11658605;0.009462551;0.010699173;0.08177227;-0.052013066;-0.11872851;-0.09799563;0.074956186;-0.05059149;0.06944014;-0.04377996;0.065230854;0.050271537;0.03397246;0.062126536;0.0029998836;0.07323023;0.061271943;0.074390166;0.03347009;-0.074545525;-0.034522068;0.08390635;0.15587887;0.07114996;0.024699543;-0.07048101;-0.051291984;0.10813664;-0.094353385;-0.051175997;-0.0040432494;-0.09117194;0.009429921;0.004517903;0.070215285;0.0111258915;-0.021796897;-0.044607677;0.053112365;-0.10489687;0.0075113974;0.056484733;0.049818423;0.0707755;-0.096378565;0.041592576;-0.066042736;-0.045854364;-0.022174396;-0.07774073;0.017607499;-0.020602249;0.016247623;-0.009885969;0.055096313;-0.05053021;0.06605584;0.021644264;0.053222813;0.05927382;0.069430344;0.051769752;0.2039789;-0.0031788487;-0.042784624;0.04997926;0.07718472;-0.0038574683;-0.112956785;0.07040757;0.031732652;0.03618749;-0.056759946;0.064298175;-0.06319078;0.06652276;0.018823717;0.051624414;-0.041638575;-0.011864763;-0.08358148;0.09663042;-0.023821507;-0.0049198526;0.07257222;0.057385977;-0.0031976525;-0.021495916;0.09674384;-0.046223618;0.057488535;-0.056410395;0.015306265;-0.11275091;0.005145238;0.03022789;-0.019924615;0.08237698;0.015119426;-0.13896373;0.05494633;0.117211014;-0.09049701;-0.004719253;-0.020639302;0.0044562635;-0.0942972;0.058629856;-0.049810052;0.01855519;0.0108694285;0.0064830133;0.01434294;-0.0343742;-0.043454524;-0.018118324;0.08921894;2.4215151e-05;0.045715842;0.0511732;0.064488284;-0.01781163;0.048524242;-0.049378328;0.0036173393;0.009134511;-0.053258266;0.087339975;-0.04992261;-0.047110084;0.102184094;-0.064815365;0.0111528;0.03455348;0.024444038;0.06662319;0.028858235;0.0046282564;0.054431535;-0.017960666;-0.061204344;0.0038853576;0.027491963;0.10529874;0.07355796;-0.039328467;-0.03915584;-0.09462564;-0.018214852;0.0030997535;-0.032416776;-0.1364137;-0.0092444215;-0.0992069;-0.06738395;0.068978764;0.09404232;0.016839072;0.0645075;0.072832175;-0.036426507;0.018540509;-0.048935585;0.054470032;0.0028130105;0.022325099;0.037183188;0.06379675;0.065814376;-0.036510736;0.09064247;0.079224996;0.07411106;0.12755336;-0.07720005;-0.05249691;-0.0008836187;0.041516088;-0.030903304;0.024964066;0.034233455;0.012145848;-0.021244815;-0.061325207;0.015609299;0.0033760217;-0.014579733;0.04629244;0.105027765;0.04816312;-0.007450463;0.16757245;0.060536087;0.06480131;-0.030572196;-0.008107218;-0.14306518;-0.07184721;0.008847797;-0.034256652;0.09481034;-0.06602899;-0.011236846;0.059872866;-0.087933525;0.016416466;0.055830505;-0.15444387;-0.02035389;-0.058945503;-0.064164765;-0.11763208;-0.022769196;-0.04755454;-0.07149879;0.06488936;-0.020745061;-0.09000654;-0.054965075;-0.07963533;0.060530916;-0.025010785;-0.07496227;0.04620876;0.061533835;-0.03492866;0.1455871;-0.020534063;0.03692574;-0.12091736;-0.06008638;0.005691983;0.03302772;0.07366336;0.037843425;-0.0017979969;-0.006556233;0.036107697;0.018854966;-0.052098405;0.031626325;0.035273146;0.036286518;0.0136377895;-0.070190474;0.018423885;0.011171877;-0.006340024;-0.054804955;-0.028567415;0.038461823;0.08048853;0.079537146;-0.045490563;-0.024280041;-0.08399693;0.0026208127;0.060162682;0.08450269;0.0127839185;0.013101371;0.070958935;-0.08495186;-0.042192984;0.18874237;-0.010205271;0.09839942;0.07080145;-0.036070995;0.03527548;0.13411991;-0.08412951;-0.052032307;0.015073322;0.026266577;-0.04509153;0.11347106;0.0003259053;-0.009935518;-0.0022946962;-0.025497446;0.038303137;-0.10811565;-0.010944974;0.010197793;-0.015652837;-0.043999873;0.01576498;0.042619728;0.03971977;-0.0022430671;-0.09758559;0.02352413;-0.0011267487;0.09288615;-0.06352166;-0.024690175;-0.022011323;-0.060032636;0.11948524;-0.042495728;0.093474746;-0.022210065;-0.013002206;-0.016061552;-0.050897084;0.19900161;-0.06175634;-0.008369193;-0.066213295;0.062323313;0.044368684;-0.01534061;-0.14547913;-0.054101326;-0.011595919;0.08636046;0.018091895;-0.006906977;-0.030071752;0.0060982015;0.007958631;0.08320376;0.057940774;0.064461485;0.11365736;-0.06560266;-0.08756618;0.14778095;-0.0019746535;0.038686205;0.021615319;-0.01881246;0.0037306915;-0.03883432;-0.02372588;-0.085301645;-0.015305829;0.0665215;-0.07679425;-0.05238281;0.010168079;-0.023928015;-0.034322433;-0.015047531;0.020204011;-0.11282692;0.021527985;-0.07170554;0.02307016;0.020771798;0.1314211;0.007991023;0.06413291;-0.03844061;0.048386972;0.08391739;-0.017087147;0.08304135;0.00067281304;-0.001968757;0.16490093;0.007781685;-0.06449188;0.08826343;0.19263291;0.057359956;-0.06495361;0.019023158;-0.019124832;-0.023976492;0.026423723;0.22979416;-0.06423573;0.069212236;0.056242585;0.06129942;0.031114085;0.009581119;-0.04940106;0.05512975;-0.013418708;-0.08325258;-0.034831338;0.08542344;0.049131297;0.013525099;-0.06481893;-0.05860846;-0.00870781;-0.04052711;0.032463375;-0.055792607;0.028669467;-0.0039833966;-0.03396727;-0.020282576;-0.058015827;-0.010348179;0.01720324;0.04089818;0.034360737;0.010124588;-0.05311615;0.02759234;-0.008634679;-0.021490075;0.059802797;-0.08432784;0.0049403096;-0.048929844;0.005078546;-0.04294253;-0.01267467;0.015599245;0.04251106
0.028097887;-0.04638418;0.028127378;0.008697939;-0.029890094;0.036010757;0.027447987;0.031664692;-0.0058113066;0.02318697;-0.033846244;-0.032794073;0.006509696;-0.023735005;0.045274206;-0.09474073;-0.01990831;0.04718077;0.04140243;0.04942558;-0.030500697;-0.0036412638;-0.043725327;0.09280764;-0.042769514;-0.0006576014;-0.0024081967;0.06396767;-0.021258099;-0.036275655;0.01614036;0.067592435;0.105877504;0.052708562;0.0664392;-0.006609645;0.23673986;-0.032751884;0.0051357276;0.07704253;-0.0459419;0.05927453;0.048651066;0.026018163;0.068478525;0.017823517;-0.03626834;0.027659679;-0.0470175;0.0044223787;0.07874115;0.1395615;0.02891919;0.03151829;0.013493047;0.009920184;-0.012980797;-0.03090668;-0.13922176;0.024313658;-0.010442675;0.123647444;-0.120927036;-0.04417868;-0.04848805;0.0412446;-0.02626153;0.028353663;0.061949365;-0.04336421;-0.028945494;-0.022638055;-0.02080672;0.038664393;-0.041628517;-0.16078095;0.027971067;-0.06183748;-0.010381005;0.1269275;-0.071218655;-0.004580405;0.07304639;0.05699129;0.017930865;-0.014120169;-0.021191847;-0.05689683;0.033787683;-0.026887529;-0.057421457;0.06033824;0.026683312;0.04047161;-0.14446491;0.028123079;0.0473346;-0.15607023;0.023450887;0.0802548;0.03543797;-0.023338536;-0.15873018;0.03659272;0.09238023;-0.022438684;-0.067888126;0.04636689;0.02848202;-0.029623842;-0.014588359;-0.016051268;0.122813836;-0.024720088;0.02966522;0.110086635;0.08196855;0.05967317;0.033904687;-0.003107517;0.06308823;0.05144891;-0.0006955938;0.018379439;0.010151305;0.082816646;-0.053885255;0.063287;0.091423206;-0.063431576;-0.07457866;-0.067214474;-0.014828202;0.028513812;-0.06755635;-0.046747394;-0.08759722;-0.028677117;0.063687965;0.04961275;0.030686034;0.07032574;-0.09442386;-0.12569942;-0.083860315;-0.042271726;-0.04908654;0.029116882;0.04036192;0.017430425;-0.09659757;0.08095995;0.111570805;-0.004093379;-0.034968425;0.03426607;0.0055370834;-0.0029319916;0.056579817;0.05389803;-0.031536262;-0.042471282;0.11374301;0.046925705;-0.0016981356;-0.07644934;0.06828262;-0.04815935;-0.042229142;-0.033928715;0.036655392;0.010164185;0.10034971;-0.0045115575;0.09571902;0.020875532;0.08103232;0.10947805;0.04294471;0.08348587;-0.047914155;0.081536785;0.11872756;-0.037786283;-0.062278524;-0.07783576;0.042389818;0.026964063;-0.1132746;0.0006033019;0.025127359;0.018125186;-0.0055518053;-0.060107034;0.07010401;0.092643015;0.06591558;0.08882579;0.08104548;-0.057556115;-0.08819709;-0.08457625;0.0614657;-0.0419524;-0.082514584;-0.07414478;-0.09731775;-0.088294946;-0.027423542;0.051611263;0.06974267;0.08659002;0.017461818;0.065012224;0.032769833;-0.037827082;0.034934614;-0.05833133;-0.011569932;-0.036450688;0.028340425;0.02910672;0.060314685;-0.114747964;-0.07937714;-0.046013933;0.051678058;-0.017672755;-0.083430424;0.08235129;0.043942798;0.060999267;-0.06367698;0.00058127014;-0.07413927;-0.06464601;-0.015835693;-0.080697656;-0.055383965;0.06835068;0.03795267;0.026548395;0.02488474;0.021456648;-0.009795446;-0.0326761;0.056602273;0.02442808;0.0329461;-0.017313648;-0.009107834;-0.03172836;-0.0044432674;-0.02749804;-0.078261666;-0.05465081;-0.06540919;0.1270713;0.058923304;-0.029603625;0.05570694;-0.011000133;-0.014405315;-0.073793545;0.01977471;0.08376826;-0.079873964;-0.02936966;-0.01420589;0.0055564;-0.06366694;-0.07829691;-0.083727844;-0.023422759;-0.0069422144;0.08191618;-0.05078915;0.019677924;0.039172497;0.03072719;-0.07186852;0.050399296;-0.019832142;-0.05135845;-0.071760796;0.10601567;-0.006695174;-0.05422576;-0.04122516;-0.08635961;0.118158296;-0.015082907;0.10527433;-0.02709483;0.047210462;-0.020455437;0.058764722;-0.033437658;0.040556878;-0.034909807;-0.12536246;0.091982946;0.025757527;0.14450552;0.019262614;0.03011448;-0.030343682;-0.10032788;-0.023149054;-0.0051108226;-0.009360684;-0.09636067;0.032784775;0.01316143;0.0080270935;0.037350956;-0.06398487;-0.063170284;-0.042834952;0.016871523;0.02952773;-0.004593134;0.024412451;0.0051747044;0.047174245;0.101359524;0.07752886;0.024885666;0.055669263;-0.03341324;0.046526268;0.064283974;-0.033860944;0.066363715;-0.043750983;0.017562522;-0.061303753;-0.049869396;0.041846845;0.082520954;0.0675102;-0.03255449;0.06443;0.026228894;0.018084884;-0.03255971;0.10793638;0.015553693;0.06783525;0.08532372;0.06014497;0.19250731;0.078988545;-0.01508235;-0.029918378;0.025761606;-0.058768265;-0.072623394;-0.043122075;-0.004074976;0.08720425;0.030366486;-0.08842893;-0.07721576;0.0314654;0.050559174;0.0542669;-0.17012243;0.0451192;-0.01763657;0.01058476;0.068577684;0.044590082;-0.13261953;-0.07594191;0.050000377;-0.0069362065;-0.082067214;-0.046431486;-0.121991985;-0.047037214;0.04406145;-0.01775504;0.034883738;-0.0050962716;0.07943225;0.07388255;-0.026206315;0.016294181;0.002643974;-0.06694322;-0.061468713;0.016983744;0.08981077;0.06410604;0.012642846;-0.073761195;-0.07605519;0.080786705;0.009528518;-0.06246324;-0.10804052;0.051405106;-0.06801525;-0.0051334836;0.038591556;-0.04448062;-0.09146845;0.07951982;-0.07316424;0.11667527;0.08182816;0.028625477;-0.04889511;-0.005351581;-0.07510602;0.082669176;0.06660296;0.06418558;0.03821889;-0.044155367;0.008644867;-0.034416813;0.058529414;0.18385834;-0.08755755;-0.01878953;0.037484966;0.0040593063;0.078124225;0.14418162;0.041790377;0.02234268;0.044399716;0.0014032725;-0.061312288;0.18184708;0.061785918;0.09313032;0.07207499;-0.083769485;0.06059184;-0.12868458;0.07085845;0.04971501;0.059629574;0.098959215;0.07510583;0.10366592;-0.06317678;-0.069660544;0.033675797;0.011221158;-0.042174645;0.018421978;-0.00489132;0.024512073;0.112554714;-0.019666024;0.07978347;-0.090708815;-0.0542705;0.030170668;-0.075835116;0.03322539;0.0021729863;0.10008325;-0.054731064;-0.056231543;-0.020844948;-0.00032398765;0.12902716;-0.11727526;-0.10266226;-0.048164733;-0.018357683;0.065314926;0.055130918;0.016697498;0.04878142;-0.05721678;-0.025855318;0.0405371;0.086699665;0.11628205;0.04325665;0.041417953;-0.09379495;0.079198375;0.050170608;0.09684199;-0.065871134;-0.025120808;0.034286205;0.0016737641;0.105585456;-0.08757239;0.027457425;0.07686908;-0.07395683;0.014853787;-0.006592589;0.022964574;-0.0933473;0.057830743;0.081095636;-0.03446727;0.05251376;-0.026289774;0.004439185;0.04032768;0.1514569;0.004318498;0.035797387;-0.046106964;0.021006364;0.028395917;0.030215245;0.027075918;0.047367275;0.04593135;0.013373144;-0.026882736;-0.08682194;-0.043528702;0.119791456;0.060106117;-0.02058716;-0.028414095;0.022015383;-0.029517617;-0.017633118;0.04105293;0.10338571;0.045016445;0.009754632;0.08468417;0.013051998;0.017268281;-0.052881658;0.09454973;0.011635458;-0.13482045;0.0046279705;0.02286106;-0.01576883;-0.009414295;0.05472827;0.044684563;0.026550429;-0.07183027;0.07066184;-0.0602126;0.09837282;-0.039469328;-0.0839428;0.08395759;-0.06338764;-0.03508828;0.008974883;0.058095172;-0.040346604;-0.04575021;0.010165465;0.022087127;-0.015424623;0.023939578;-0.015635334;-0.030385308;-0.034608573;0.05225582;0.023310369;0.10715642;0.062301036;-0.0840183;-0.031764805
0.08099138;-0.03905707;0.10188652;-0.08946203;0.036618464;-0.020124942;-0.022704646;0.048244167;0.052286066;0.09384234;0.0625897;-0.051081743;-0.0536218;-0.0306971;0.06650721;0.10434228;0.088706;-0.01806909;-0.16325165;0.12464272;0.010020962;0.06788811;0.00793662;0.04159579;-0.033110254;-0.026904467;0.046018824;-0.00728995;0.002640333;0.058112666;-0.02896389;-0.058439706;0.045449328;0.07024935;0.011560254;0.08515684;0.17831361;0.004128328;0.017967219;0.00093661435;-0.020158568;0.07950079;0.082476854;-0.035485595;0.078256465;-0.022446895;-0.15131366;0.07324427;0.0070681577;0.055011872;-0.0003311906;0.010470223;-0.04149889;0.07298342;0.021888008;0.032394994;0.10467529;0.12852474;0.06032168;0.08000411;0.10711095;0.0898299;0.05849088;-0.08173968;0.032464404;0.09934585;0.067116044;0.043458167;-0.014072547;-0.054155692;0.0004401069;-0.043691818;-0.011429225;0.0030186723;0.052903008;-0.24111092;-0.014742049;-0.064994596;0.06711321;0.038905762;0.06766183;-0.04939437;0.09248433;0.16571301;0.054284588;-0.052435618;0.12046462;0.013350824;-0.013777478;-0.014899373;0.03761228;-0.123403355;0.03449637;-0.043027133;-0.0558875;-0.0074038003;0.023867711;-0.09330179;0.07302459;-0.04491347;0.03234681;0.07502017;-0.0899089;-0.077472806;0.024396166;0.026705295;0.03899917;-0.007535855;-0.026485154;-0.053156637;-0.024854671;0.013347226;0.059473485;-0.042602222;-0.020654144;0.046757746;0.0254984;-0.054939598;0.09668849;-0.056154642;0.01582549;-0.07108759;0.056723565;0.06437368;0.08573383;-0.055241074;0.019670751;0.035203204;0.025125965;-0.04372556;-0.27232298;0.06168949;0.05300922;-0.12000983;-0.04831287;0.040156174;-0.02007739;0.06735253;0.10839895;-0.013668051;-0.036616698;-0.0094112735;-0.080448985;-0.09924102;0.11268458;0.018847737;-0.048859116;-0.0873184;0.0766036;0.053076748;0.017144755;-0.016644476;0.02174453;0.04417478;0.033544324;-0.039327975;0.029820457;-0.105227135;0.0739561;0.18430604;0.028701948;0.054028753;0.08922741;0.0457032;-0.119708225;-0.043975536;-0.018029261;0.07307211;0.07876855;0.06441619;-0.031512823;-0.051457934;-0.049878493;-0.048816912;-0.050381094;0.08485566;-0.007069056;0.07507341;0.053816292;0.023737345;0.0067805913;0.008657995;-0.029623441;0.076866105;0.102260254;-0.16717044;-0.047075205;0.07901226;0.09452125;0.02344086;-0.05099631;0.023228822;-0.0017332345;-0.013393382;-0.014171115;-0.022269713;-0.0557322;-0.05724644;0.05602071;-0.019780211;-0.055302806;-0.04487804;-0.043050367;-0.10356323;0.11958161;0.053008113;-0.07101352;0.117209636;0.101679325;0.06694564;0.066246584;0.08824223;-0.041826826;-0.014123781;-0.14430083;-0.038305484;-0.015550603;0.04216377;-0.033762928;0.07141783;0.09238796;0.050473504;-0.02989272;-0.065597855;-0.0017422298;-0.014091307;-0.04182887;0.16214721;-0.12018018;0.019076247;-0.029952591;0.059014317;0.0537928;-0.010836709;-0.081701264;0.104030654;0.03594128;0.06322186;-0.11208741;-0.080086656;-0.047740046;-0.12153584;0.040948283;0.0009120747;-0.02362406;0.04299441;0.04081734;0.029417068;0.0110133095;-0.012547871;0.09291151;0.016686674;0.01531898;0.09685831;-0.08552454;0.031392176;0.057328127;0.05103867;-0.05959716;0.114479326;0.030795338;-0.17975563;-0.056612298;-0.017691946;0.04918354;0.08961377;-0.009070731;0.0039775358;0.12004243;-0.0025123393;0.0694938;-0.015338602;-0.0009126081;0.069685176;-0.02572778;0.07418144;0.065411136;0.06151332;0.04177037;0.061732713;-0.020321356;-0.0677326;-0.07215659;0.044444118;0.036656976;0.050752893;-0.007933622;0.022007374;-0.092012964;-0.098075844;0.019584827;0.019793296;0.021988671;0.005887752;-0.086714454;0.11223823;-0.033765808;-0.03725078;0.07298331;-0.04210192;-0.22152925;0.0055444874;-0.04153947;0.005895233;0.09759449;0.10289935;-0.021002352;0.07780328;0.042207863;0.038315125;-0.045192353;0.036000162;-0.059344593;-0.06539297;-0.08079224;-0.019869072;-0.086602345;-0.012568772;-0.059595507;-0.08618206;-0.06237241;0.010091478;-0.05823195;0.038124043;0.063227266;0.02510837;0.101197146;-0.009154381;0.0873093;0.027207304;-0.020760477;0.091637075;-0.013759668;-0.0073848786;0.064404875;0.07294882;-0.17945828;-0.065103605;0.09510302;0.056868788;-0.049213197;-0.052990135;-0.03331667;0.098786764;0.008104799;0.07350535;-0.0095175505;0.17180322;0.062093962;0.06559586;0.084423326;0.08544472;0.0005280219;0.031972192;0.055307094;0.033783294;-0.08326309;0.084009245;0.049713545;-0.02928184;-0.05319024;-0.008528125;0.055101868;0.049438737;-0.06431105;-0.07481027;0.025898408;-0.22635908;-0.02672238;0.009212243;0.07348498;0.06786978;-0.03965203;-0.0702322;0.086368896;0.03237328;0.11154553;0.033730313;-0.027211789;0.04003256;0.1507682;0.0032178527;0.033266924;-0.02727762;0.020174153;0.088672034;0.05236443;0.010697075;0.09580306;-0.049275443;0.050045293;-0.0049508135;0.072386935;0.077008314;-0.037502285;-0.056245442;0.051356036;0.060485203;0.16826655;-0.060876008;0.077216364;-0.08055718;-0.014595575;0.10357559;-0.06515139;0.054220222;0.03482913;-0.13260607;0.08229783;-0.07803591;0.035698853;0.009716819;-0.028085263;0.07784362;0.012943867;-0.027191266;0.07526431;0.024624694;-0.0737204;-0.03216846;-0.0137976315;0.06611764;0.09390616;0.053753693;0.036084212;0.063484564;0.0057041626;0.053668212;-0.10670715;-0.00013414794;-0.006388731;0.08093892;-0.09270402;-0.04765537;-0.0031512326;0.042617925;0.051304206;0.023495657;-0.01951299;-0.017834516;0.0015991182;0.018525278;-0.10437635;0.005320155;-0.06828215;-0.0067236507;0.06740911;0.07550108;0.044608932;0.027283335;0.08309886;-0.028020725;-0.021843107;0.06847693;0.026037225;0.0407399;0.13380414;0.0041826065;-0.018840456;0.060141273;-0.10096095;-0.091729306;0.03367798;0.06055378;-0.011397488;-0.018640414;-0.031711575;-0.06361663;0.061874308;0.037538942;0.09560455;0.075490706;-0.14440684;-0.09358995;0.073110424;-0.0049261474;-0.04011616;-0.11150709;0.013098507;0.006572225;0.074682556;0.0283982;-0.011837915;0.04141465;0.040721126;-0.002909803;-0.0002697365;-0.03979831;0.1302237;0.0020345722;0.14440121;-0.073069744;0.0042628925;-0.07569409;0.031137163;-0.04518347;0.0011926999;0.042803295;-0.019806774;0.058180645;0.003832177;0.016860995;-0.12674847;-0.09686815;0.09589844;-0.019462487;-0.043383628;-0.05475243;0.048075892;0.036512867;-0.09004454;0.076741315;-0.058529966;-0.029179662;0.057654984;-0.03316999;0.15456311;-0.019770911;-0.029957851;0.09088403;0.07915766;-0.17322937;-0.03486703;0.062325675;0.18879281;0.11146364;-0.04848861;0.037154727;0.020975163;0.07931044;0.04997942;-0.04232451;0.09282419;0.024892533;-0.03885447;0.06949208;-0.08069201;0.07433277;0.036299516;0.031390302;-0.013066974;0.01934711;-0.030651605;0.009430737;0.13314675;-0.060741644;0.04942514;0.096432716;0.1716735;-0.10244304;-0.065386124;-1.25062725e-05;0.068783924;0.06170889;0.017818453;-0.0007582102;-0.0076034185;0.0005868041;-0.061504427;-0.061440587;-0.0131417075;-0.057629775;0.010527183;-0.050696697;-0.06056252;0.02541208;0.058679074;0.073778905;-0.047048405;0.045918528;0.03503069;0.017483233;-0.0134926755;0.0056831404;0.032337315;0.080954455
0.01933478;-0.02864169;0.06505996;0.016021173;-0.06467371;-0.00023765107;0.070133366;0.08524689;-0.05287289;0.024821008;0.09153639;-0.09280162;0.04972427;-0.0065615396;0.07601701;-0.060686022;-0.048328564;0.020331142;0.050277524;-0.044578392;-0.0031362101;-0.024862453;-0.025230715;0.11676827;0.08295339;0.009831544;0.05431144;0.03987407;0.063294575;-0.00915908;0.030552454;-0.066507794;0.046122625;0.009457158;0.08162891;0.054126754;0.15297548;-0.16361912;-0.035646632;0.14855953;0.05675949;-0.061068255;0.036985457;-0.0150519;0.09669997;-0.0071068895;0.0037755612;0.055585515;0.025111523;-0.010455033;-0.02265012;0.04636664;-0.047493264;-0.050837882;-0.06999511;-0.056276333;0.10324827;0.07789735;0.018245287;0.07121667;-0.030727627;0.05447037;0.029531986;-0.05495705;0.01945684;0.01530353;0.031674244;0.029019965;0.06920778;-0.06935947;-0.043194506;-0.06681927;0.011318036;-0.011165143;-0.041215405;-0.117528714;-0.075792156;0.063533634;0.033552915;0.06661044;0.039532293;0.08619487;0.044815134;0.058423012;0.02745592;-0.019388286;-0.043301713;-0.012346753;0.03408683;0.123180844;-0.06053185;0.052168712;0.07479659;0.05627204;-0.18443531;-0.013736362;-0.058825977;0.027305458;0.0895526;0.021965636;-0.03807335;-0.06279569;-0.04437668;0.15428904;0.037363525;0.062206797;-0.029724637;-0.045815255;-0.043006662;-0.0029406627;-0.008743064;-0.104474;0.12867051;0.060668297;0.023879757;0.011326442;-0.027237194;0.05111297;0.05141704;-0.014127333;-0.008316872;0.028884703;0.055914037;0.055130158;0.011682337;0.0011978052;0.07710527;-0.012034789;0.09120545;-0.084294364;-0.096107975;-0.09181222;-0.016952574;-0.066470124;0.0005901557;0.031917267;-0.15289235;0.06144353;0.11733932;-0.056699835;0.024643878;0.025157098;0.019455187;-0.039107468;-0.08995332;0.03293366;-0.0021515368;-0.037752382;0.02308837;0.05796951;-0.009333869;0.047285132;0.085703306;0.0643238;-0.048116125;0.07641988;0.007593047;-0.052755363;-0.051482346;0.09775715;0.07934449;-0.037916236;0.0877743;-0.058445316;-0.04611156;0.04436662;0.025059463;0.0006657486;0.08544675;-0.006980517;-0.028218683;-0.034827333;0.038503334;-0.06795671;0.0615073;0.056162655;-0.030333783;0.08752461;-0.033136416;0.03868752;-0.0004282622;0.044716213;0.17448866;-0.019367808;0.07920352;-0.091458745;0.067703806;0.015545215;0.009558576;0.0015231115;0.0041222367;0.022968518;0.002200092;-0.06466343;-0.036891438;0.042643387;-0.04338995;0.0058273952;-0.013046258;0.03363846;-0.07503516;-0.010341889;0.08433483;-0.049499784;-0.09479325;0.05618094;-0.009104358;-0.03479427;0.033911597;0.046285525;0.06828935;0.021252938;-0.02946317;0.02019475;-0.043119375;0.01945228;0.076251306;-0.027907502;-0.03649516;-0.07831848;0.09379096;-0.043337695;0.16846807;-0.094608694;-0.042915575;0.08987413;0.07584293;0.030173587;-0.11168068;0.046670303;-0.07008914;-0.041575544;-0.047563877;0.041759223;-0.0432661;-0.041761253;-0.072817534;-0.03620965;0.00019551281;-0.017633;0.020944722;0.09805905;-0.0021697492;0.050780777;-0.014873091;-0.020880673;-0.04967923;-0.023819271;0.030462101;0.004002243;-0.028087618;-0.03652032;-0.034996316;-0.12730274;-0.020236652;0.07276701;-0.0388347;0.11693691;0.06334696;-0.018076178;-0.045331147;0.049122766;-0.05290832;0.020930974;-0.07965664;0.0707902;0.018750153;0.0006280823;-0.04162549;0.04178805;0.08935011;0.06283486;-0.044320196;-0.08035018;0.02698255;0.045239095;-0.0059811324;-0.006277274;0.030513901;0.08877396;0.018664898;0.008318472;-0.02724311;-0.06323728;0.02497355;0.044497844;0.05933076;-0.003476895;-0.0034461976;0.034736495;0.08815566;-0.016880939;0.036445398;-0.07580544;-0.032124143;-0.006802132;0.01401074;-0.059609145;-0.06210742;0.03943844;-0.19180933;0.08615062;-0.064443424;0.17542368;0.04265467;-0.02152449;0.009109802;-0.0953246;-0.066998735;0.0337033;-0.019602196;0.039840072;-0.040969457;0.055978708;0.04109668;-0.033778835;-0.043233767;0.08218398;-0.08435356;0.023890305;0.07547449;0.037900154;0.06449074;-0.018686585;-0.061464604;0.045177452;-0.016994562;-0.073949754;0.045954064;-0.00483205;0.063949324;-0.06746519;-0.049545545;-0.0034030026;-0.0051295003;0.05470539;-0.013436912;-0.047276713;-0.039332107;-0.055105478;-0.023160134;-0.021273905;-0.014815171;-0.021377413;0.055272274;-0.009448522;0.041853413;0.116049945;0.038659524;0.029634727;0.012915032;0.19777912;0.051025137;0.06623951;0.07374096;0.0026890368;-0.11685074;-0.081590526;-0.019952983;-0.063523844;-0.0011438588;-0.085565515;-0.022865638;-0.011061213;0.07291463;-0.06531234;-0.014926369;-0.050372563;-0.022978371;0.053516462;-0.024355948;0.050957497;-0.021835549;-0.040224012;0.024973819;0.029629283;-0.09882854;0.029635841;-0.049561474;-0.11160137;0.117241316;-0.028265981;-0.011249131;0.09498185;0.05037452;0.09108678;0.081409805;-0.099784;-0.014665658;-0.09569627;0.038623247;0.0655559;0.011132925;0.0971705;0.015527477;0.06221563;-0.07425801;-0.017375221;0.17944232;-0.02943729;0.054378983;-0.07994821;-0.0068884264;0.009211958;-0.070484094;-0.084703766;0.010798068;-0.10364564;0.038301624;-0.04830422;0.036616728;0.092932984;-0.07097657;0.0021381702;-0.023591202;0.0674963;0.0884847;0.07761306;-0.009793412;-0.030851124;0.073792554;0.1033363;-0.0666729;0.032899182;0.1408207;-0.025098663;0.05761617;0.0068790717;-0.121473335;-0.0528345;0.05939902;0.0238148;0.061961375;-0.016759716;-0.052832086;-0.060957376;0.17734954;-0.058778357;0.038225386;0.0058892937;-0.053836405;-0.06784863;-0.054596584;0.060425814;0.09336317;-0.10933614;-0.024784721;0.09514246;0.075901106;-0.050657455;0.031526413;0.00027678552;-0.006483573;0.052891564;-0.047408853;0.03829411;0.013684489;-0.032952275;0.015844433;-0.009020965;-0.07991696;0.011680854;-0.02063149;0.0051088077;0.058877356;-0.04967559;-0.008087905;0.08716587;0.052594446;-0.046141043;0.1001389;0.10451095;-0.19052875;-0.1544282;-0.035846494;0.034904946;-0.07313937;-0.08642792;0.023383958;0.05421141;-0.009162547;0.073728204;0.04977775;0.02348322;0.052150883;0.1199993;-0.04875487;0.066247694;0.09265005;-0.049998622;0.091552064;-0.040089875;-0.0738796;0.07356857;0.031632923;0.016473753;-0.011899712;-0.06822388;0.03272396;-0.03587786;0.0018556316;-0.01622103;0.007895866;-0.09701891;-0.042536307;0.018295726;-0.06719823;-0.0059954417;0.052721154;0.059518144;-0.038448125;0.1020896;-0.07611346;0.06818394;0.032285307;-0.033307776;-0.004841068;-0.0039887284;-0.056587487;0.0016256572;-0.045019075;-0.060359742;0.053247824;-0.11274904;0.058510907;0.08413649;-0.05080217;-0.051832035;0.039214548;0.024386352;0.045154136;-0.047925524;0.13561335;0.081252515;-0.018300453;0.076031975;-0.0031153427;0.11193849;-0.0254147;-0.003037292;0.06967117;-0.03839976;-0.10770799;0.0753124;0.011413417;0.054958932;-0.02840564;-0.0054626083;0.025295442;0.023794273;0.012428061;0.05510778;-0.051959272;0.0042497427;0.025371732;-0.03877731;0.07244778;0.018935781;-0.054554157;0.0075222584;-0.013187874;0.04261246;0.033261206;-0.080742635;-0.076296374;0.018066004;0.038903646;-0.032829836;-0.0029366608;0.0061947415;0.05281947;-0.039035678;0.06780757;-0.021706928;-0.07953852;0.079212874
0.004952123;0.01142918;-0.050286233;0.08612416;-0.034429487;0.021756733;-0.022357281;-0.06009683;-0.06272471;-0.0017557568;-0.05500922;-0.05679172;0.106769264;-0.047617204;-0.060827825;-0.03012569;-0.09272942;0.13296622;0.10976185;0.06173732;0.046353605;0.06847077;-0.008665923;0.07968906;0.021756517;0.06562124;-0.068552576;0.043476578;0.077062905;0.028002106;0.0394951;0.06932334;0.014034812;-0.049711213;-0.045389242;0.037440524;0.23213303;-0.20003448;-0.015348862;0.15979393;0.002313004;0.037807304;-0.07851594;0.012011673;0.06159516;0.06413065;0.041875232;0.07348197;0.056840986;-0.09636235;0.030713173;0.008442935;0.017112931;-0.053913876;-0.10559131;-0.015159703;-0.033258602;0.083653376;0.02115919;0.079493634;0.077562355;0.086063504;-0.12888466;-0.07255582;0.02985756;0.06542246;-0.11173625;0.027645389;0.037701882;-0.054497287;0.06446687;-0.051324774;-0.0333542;-0.06541063;0.025782956;-0.09413874;0.0040939734;0.06738562;0.0071639484;-0.01725847;-0.0352306;-0.0140472725;0.05555903;-0.054207817;0.07325401;0.080164224;-0.059386324;-0.036190562;-0.01664026;-0.025840184;-0.016054617;0.0719513;-0.047278605;-0.065269664;-0.18938099;-0.040563114;0.016527265;-0.0055157044;-0.09532045;-0.031432316;0.048117097;-0.049735885;-0.026014702;0.027645072;-0.029290507;0.027698448;0.004666686;0.08174825;-0.003138859;0.0603423;0.046138715;-0.01749728;0.0711361;0.0001872854;0.050893437;0.10906867;-0.022813773;0.07043674;-0.0029145228;0.02312137;-0.045604814;0.034045402;0.10490916;0.0778535;-0.047647133;0.03315505;-0.053692926;-0.07501943;-0.024995765;0.02381252;-0.18487275;-0.093740106;0.06148595;-0.051200293;0.07341967;0.13564737;-0.11958294;0.05167863;0.04315541;0.042592913;0.026902422;-0.06275797;0.0002804675;-0.123442546;0.008721494;-0.008268373;0.12007646;0.059519354;0.05524286;-0.068447515;0.011736757;0.06381335;0.017623084;-0.025269497;0.09419505;-0.0771665;0.042690556;-0.016114043;0.008659926;0.054004487;0.02707546;-0.08628864;0.05185163;0.059637457;-0.08124776;0.001991921;0.008094457;-0.07016887;0.057017136;-0.05428435;-0.06536387;-0.007874273;0.047915168;-0.054438435;-0.05537281;0.031519074;-0.037606727;0.086603366;0.046853412;0.074945234;-0.0017807384;0.026753407;0.13030645;0.04707011;0.049883477;-0.12863326;-0.0056249355;0.008613366;-0.08456984;-0.038989;-0.017342502;-0.05222373;0.018438596;-0.035654698;0.022356726;0.060490217;0.028523471;0.017616697;0.05353613;-0.051684294;-0.05897296;0.054724626;-0.069622196;-0.05608649;-0.14000809;0.051218953;0.031380266;-0.012995146;0.056316454;-0.043844588;0.07894643;0.049731977;0.033554666;0.061339382;-0.001963151;-0.0054389425;0.029822279;0.07213057;-0.036187053;0.0040041036;0.059532166;-0.045666832;0.076790124;0.07994578;-0.026611816;-0.031186823;0.0056556067;-0.027699264;-0.05810238;-0.015585108;0.05291078;-0.07612306;0.06227717;0.048307575;-0.0051679164;-0.022254271;-0.025870701;-0.019421875;0.015793763;0.006988868;0.08666433;0.031777896;0.008206497;-0.017410543;0.01714709;-0.035228442;0.100914694;-0.07240583;0.002331844;-0.05047882;-0.026621407;-0.047884002;0.027707469;0.048878733;0.02330125;-0.017421125;0.05962891;0.12909977;0.07832403;-0.04593898;0.005006794;-0.08595813;-0.008239236;0.05793398;-0.03388154;0.087617606;-0.050589506;-0.072322905;-0.15054274;0.008306106;0.108862065;0.036059033;-0.0439832;0.010338954;-0.0025391092;0.058828674;-0.013263304;0.07236828;0.1299061;0.035818636;0.0082633225;-0.056632046;-0.054225665;0.07011735;0.079605065;0.09229731;0.019135287;-0.032214403;-0.034893032;0.0041994043;0.08692807;-0.017939802;-0.035366636;-0.031822275;0.02927343;-0.0038312029;0.032805093;0.012706572;-0.009857353;0.010730079;-0.21290702;0.078899376;0.044216275;0.13142191;-0.0053224424;-0.024972647;0.032513104;0.0135454545;0.01464757;0.031850435;-0.056236047;-0.052494872;-0.021365147;-0.11177536;-0.026539927;0.0006939218;-0.06665671;-0.0039363354;0.050062235;0.008437511;-0.041501556;-0.016954752;0.14659528;-0.012421933;-0.02443304;0.15066707;0.11626367;0.07288526;0.058313925;0.07782864;0.008337542;0.011919015;0.08885124;0.036067482;0.03395582;0.06723728;-0.06657727;-0.07452451;0.01865104;0.02462157;-0.017608423;-0.013788356;-0.05944743;-0.0006819875;-0.057356805;0.037171848;0.046665058;-0.008509937;0.09187649;0.10670588;-0.035153367;0.21438241;0.074365966;-0.01570146;-0.02190727;0.07976249;-0.18695958;0.03725668;0.09564056;-0.11555838;0.065401636;-0.0287039;0.0040157656;0.008063509;-0.043616004;0.006345072;-0.07308603;-0.14049362;0.03341762;0.06558263;0.041275714;0.07064009;0.022155529;-0.08195052;-0.031542342;0.03852217;-0.012495741;0.024716929;0.06788075;-0.046003792;0.10889053;-0.028683327;0.028464636;-0.04196303;0.093481;-0.039282396;0.032524396;-0.027800184;-0.18665428;-0.06436918;0.051340505;-0.11065579;-0.013128476;0.018674253;0.07337255;0.0014480721;0.05040391;0.053760845;0.11312911;0.0143463155;0.07020981;-0.07437968;0.03176532;-0.08167866;-0.043765265;0.01189372;0.07031513;0.010905108;-0.04581606;-0.025198804;0.091614164;0.078835785;-0.032166343;-0.03724138;0.012563171;-0.07756519;0.059906404;0.03880496;0.029016752;-0.030784331;-0.017216424;0.028337901;-0.039234307;-0.013717313;0.11129131;-0.042924408;0.051869556;0.007166832;-0.07292904;-0.04615556;0.0055124993;-0.0025226376;-0.05462162;0.020575507;-0.06671398;-0.021772847;0.06271067;-0.06277383;0.028205512;-0.05734246;-0.009626745;-0.08560305;-0.10432173;-0.0153289065;-0.043373585;-0.07925117;0.03249359;-0.042711902;0.02861151;-0.043135036;0.05667099;0.05563133;0.060480177;0.0049111433;0.051887944;0.08129938;0.0031356853;-0.010802007;0.045981593;0.026850317;0.0060618613;0.056772944;-0.032443706;-0.006224186;0.07578783;-0.0006649397;-0.06574816;-0.010003597;-0.039385166;-0.026069103;-0.030497335;0.08519458;-0.06556137;-0.13813682;-0.0402601;0.04971858;0.044810127;-0.047680717;-0.019679088;0.08827719;0.030408774;-0.0071351477;0.07998049;0.006145686;0.12395596;0.15081792;0.021062428;0.0094824005;0.028204944;0.06135067;0.11889104;0.017098777;0.069472335;-0.010205143;-0.046735734;0.041638408;-0.018484559;-0.019328391;0.015785072;-0.05072762;-0.04751126;0.021806262;-0.023013016;-0.045929775;-0.041531637;0.063725345;-0.061006587;0.05866894;-0.029501637;-0.024311202;-0.006803748;0.03964663;0.036113862;-0.027855536;-0.06626389;-0.022407018;0.020253241;0.02019806;0.07556406;0.005362191;-0.045787252;0.032976504;-0.053540833;-0.05737511;0.039492037;0.17951304;0.07355997;0.06596099;0.0034298552;0.020596845;-0.04420188;-0.057388507;0.14859675;0.064055696;0.07933109;-0.06609516;-0.023333464;0.06954357;-0.019025132;0.066672355;0.0449545;0.056110676;-0.07936529;-0.06865381;-0.045266204;0.1441957;0.07023007;0.019998303;0.03071911;0.0470084;-0.064999476;0.089485236;-0.023044387;-0.018154606;0.03225059;0.0032653364;-0.0015723418;-0.03893413;-0.054020092;-0.04974606;0.026709989;-0.040272273;-0.08696771;-0.074944675;0.05475967;0.05867562;-0.0023691272;-0.07291138;0.059592355;-0.0031588569;-0.032037493;-0.060719963;0.0037805976;-0.06339958;0.023148717;-0.0032809898
-0.04562389;-0.05736541;0.070634685;-0.012073982;-0.07778715;-0.02563542;0.052602056;-0.013634475;0.057753295;0.07258338;-0.02244217;-0.0030150174;0.080038;0.05107273;-0.07569327;-0.0139016565;-0.028389664;-0.043032363;0.062454116;0.07365542;-0.021121925;0.07202911;-0.0485925;0.05926423;-0.013833605;0.07171082;-0.06678363;-0.07132865;0.07243609;-0.015640495;0.035794944;-0.05501457;-0.036037274;0.00241831;0.07849137;0.07650885;0.20314361;-0.13627452;-0.023967225;0.14527771;0.089277506;0.0045972597;0.059728943;0.013951412;0.0038294978;0.05282046;0.0050056363;-0.035776243;0.021415746;-0.1097288;-0.061232354;0.047765955;-0.037446886;-0.05166539;-0.037064128;-0.016943417;0.111939155;0.03987387;-0.01395851;-0.04881974;0.06581335;-0.013450838;-0.044036634;-0.009211613;0.018475834;-0.04372216;-0.0049211932;-0.0811095;0.062445212;-0.0359571;0.05531525;0.08565904;-0.0485227;0.0077398783;0.021869568;-0.09921784;-0.043408297;-0.067980126;-0.015312874;0.08113724;-0.08528772;0.011718217;0.043658324;0.06368731;0.057130303;0.07457607;-0.041791473;0.08840137;-0.10491982;0.016397616;0.057713352;-0.06386241;-0.08343415;-0.033446696;-0.094815046;-0.079904124;0.061494384;-0.09159159;-0.018420653;-0.031783476;-0.019412614;0.02941092;-0.065235466;0.13702956;0.059102673;0.034752693;-0.048627876;0.035603553;-0.050394405;0.010178268;0.03463476;0.013401955;-0.014928841;0.028254425;0.07390572;0.025865823;-0.0022950023;0.028937522;-0.021116968;0.07251469;0.071225144;-0.062324736;0.04039304;-0.08586099;-0.07171708;0.032236263;-0.034973275;0.045442957;0.06365752;-0.081064485;-0.13799933;-0.00016712304;-0.048816722;-0.053624585;0.05833063;0.118967116;-0.03230199;-0.040642504;0.06829311;0.02442641;0.060627766;-0.006705175;-0.11150106;-0.11747358;0.07502787;0.059817214;-0.048913937;0.05555334;0.029125743;0.026151964;0.009763633;-0.072249934;0.102938615;-0.019001294;0.044550356;0.01643281;0.012886031;0.0031621866;0.0038559511;-0.039741695;-0.08635915;0.025857437;-0.07883635;0.022904722;-0.089026995;0.06790642;-0.058115166;0.09171368;0.082944;0.038581643;0.025370255;-0.036264762;0.018941447;-0.019368928;0.061529938;0.009826641;-0.0010174557;0.0816496;0.016155431;0.03256443;0.05256521;-0.042486887;0.089674905;-0.059572358;-0.06673915;-0.044116247;-0.068792075;0.050402723;-0.040609933;0.025167549;-0.041057244;-0.02738752;-0.06749023;0.07576057;-0.0015546167;0.007947957;0.075639084;0.059065487;-0.0511214;0.09060674;-0.108922124;0.009962144;0.07911062;-0.016421216;-0.10344097;-0.054786924;0.048815936;-0.0031439774;-0.05127104;0.08020873;0.006267269;0.020890858;0.06590288;0.028530238;0.025277894;-0.039685197;-0.036141295;-0.04500907;0.076601356;-0.045253936;0.07510444;0.014973329;0.07559587;0.09178913;0.010279586;-0.041990127;0.009665091;0.07867713;-0.035557806;0.031152576;0.084910706;-0.032714624;-0.05737324;0.024283214;-0.004949454;-0.032019455;-0.073499694;0.0056823054;-0.096193135;0.014754066;0.062266063;0.05735802;-0.0098227495;0.02916017;0.009338175;0.0050020963;0.077431716;0.016041156;0.015670769;-0.08521034;0.009209674;0.07089937;0.056271963;-0.090240374;-0.0048624077;0.007033176;0.047040973;0.008114263;-0.02950086;-0.08498068;-0.021288997;-0.07326941;-0.08461558;0.023927603;0.0704158;0.0769593;-0.08043644;-0.048032727;-0.11955442;0.027465321;0.033706326;-0.012728951;-0.06686693;-0.04704783;-0.018048396;0.013148268;0.09636592;0.014781877;0.104630925;0.081051156;0.056343768;0.08790774;-0.03321649;-0.040255833;-0.026262403;0.07468138;0.085859895;0.082043506;0.047028143;-0.017208226;0.04741097;-0.096779786;-0.0541717;0.047002546;0.004505;0.0416751;-0.002607144;0.018447267;-0.01938001;0.019492794;-0.19278768;0.07237349;-0.03939096;0.032587834;-0.009020906;0.06539287;0.0053931186;-0.041666284;-0.029661559;-0.027441163;0.0053363997;0.049406562;0.024490457;-0.09019488;0.013904486;-0.026961908;-0.0001505896;-0.039560173;-0.09076897;-0.020276975;0.0543688;-0.08011126;0.05414183;-0.050531097;0.057529848;-0.0052004633;0.06344507;0.03813261;-0.03567668;0.0909214;-0.009554557;0.046907052;0.03074331;-0.020857334;-0.0064597395;0.08027358;-0.13618925;-0.022615235;0.01571095;0.02022287;0.006310845;-0.015074629;0.08605944;-0.09006476;0.06260854;-0.014826378;0.031271055;-0.026031312;0.105737954;0.016318649;-0.01795924;0.18363981;-0.04612792;0.039239638;-0.06633085;0.0608895;-0.090782814;0.011619133;0.012202346;-0.08820137;-0.02059485;0.026852924;0.04350779;-0.07820666;-0.07824586;0.06203361;-0.03155957;0.0074083013;-0.028543837;0.07778234;0.03519023;0.089351974;-0.024531664;0.06274385;-0.003025673;0.03158814;-0.055503935;0.074156664;0.067151785;-0.050981443;0.030011397;0.08030229;-0.022726124;-0.03724877;0.028862648;-0.075523265;-0.01482688;0.05159883;-0.2149744;-0.09294281;0.06311806;-0.07647411;0.071450874;0.0025046647;-0.033941828;0.04982539;-0.013119443;0.07085111;0.038670477;-0.06023686;-0.005509127;-0.010210441;-0.058100633;-0.06957431;-0.036953535;-0.035687573;0.11081779;-0.07440109;-0.04423373;-0.026834097;-0.079580635;0.105231814;0.053588603;-0.043934073;-0.024121867;-0.016827166;-0.049079485;0.1593451;0.03631882;-0.04663496;-0.03531313;0.028372891;-0.03323945;-0.07566876;0.078728646;0.027106069;0.021098893;-0.0700242;-0.1559346;0.054416426;0.051777095;0.072184354;0.02261876;-0.00922401;0.021548662;-0.0823135;-0.07912927;0.046211697;0.13636363;0.050598122;-0.013948906;0.04543907;0.009430832;0.068534926;0.055203505;0.046790145;0.06536388;0.0442036;-0.055221036;0.074673116;-0.0397471;0.0031860927;0.057321746;0.014235448;-0.052721467;-0.031619404;0.072367005;0.09672406;0.12567268;-0.04706182;0.014836045;0.076814644;0.10179377;0.033771846;0.0711272;0.12963963;-0.09906559;0.08948214;0.07354541;-0.036328197;0.033726517;-0.04267927;-0.011572399;-0.020268645;0.121933386;-0.036833625;-0.05394544;-0.06707888;0.0036609513;0.05535516;-0.039948955;0.061449405;0.14764541;-0.018774634;-0.030992713;0.12293232;0.03405433;-0.011660551;0.014413094;-0.022916347;0.110666335;-0.035326663;-0.03642703;-0.026328117;0.07077042;-0.0032179037;-0.013129929;-0.0424678;-0.076626316;-0.09749582;0.00880673;0.10744498;0.013542219;0.017586028;0.057513464;-0.070700705;-0.0092986245;0.0021318616;-0.026713235;0.0806998;0.06921782;-0.020913607;-0.0111503145;-0.007868145;-0.011436729;0.0028245724;-0.015794488;0.002485086;-0.022732317;-0.019487798;-0.0076343655;-0.15085974;-0.04385712;-0.10050621;0.072036386;0.07197533;0.005478579;-0.0423308;0.04255284;-0.014839608;-0.028550446;-0.008422849;-0.019805646;0.015018895;0.0398486;0.01694859;-0.029989824;0.02693004;-0.0713836;-0.014900744;-0.06443838;-0.0095733525;-0.08363379;-0.0119317975;0.0053491443;0.042252813;0.004986091;-0.024327181;0.0790604;0.007977422;0.0066222516;0.067792386;0.092361234;-0.044859707;0.097542256;0.026576554;-0.04424241;-0.05320336;-0.015251423;-0.020721797;-0.011934791;-0.020782994;-0.010717162;-0.008207486;-0.011203568;0.021853814;0.07470674;0.061965115;0.033972234;-0.0032983837;0.08346264;0.042633418;-0.08598273;-0.07199916;0.02327626;0.011435746
0.050605334;0.059528943;0.00594035;-0.089339085;-3.4787707e-05;0.044854224;-0.052807186;-0.051141035;0.091395535;0.11806677;0.054067254;-0.10882651;0.03364659;0.00010338446;-0.07991978;-0.025120165;-0.063342705;0.045645975;-0.052732456;-0.016123604;0.041250307;-0.07363242;-0.11338288;0.12519152;-0.016907327;0.09348302;-8.693818e-05;0.056844298;0.00550989;0.052329786;0.058660146;-0.023712462;0.004580014;-0.03828897;0.017000144;0.13544694;0.17848924;-0.054786306;0.052620642;0.09001002;0.045303483;0.055273578;0.057495005;0.0073869983;0.1491647;0.007784152;-0.031685278;-0.079142004;0.07065895;-0.00012593201;-0.025097376;-0.04224242;-0.0041075526;-0.055885963;0.041356925;-0.017584069;0.12438791;0.15123722;-0.046727214;0.105448514;0.0787924;0.10465666;-0.10054281;-0.086343154;0.053533092;0.053713214;-0.10965832;0.01872789;-0.039911114;0.03841627;0.07228629;-0.014918963;-0.037734877;0.07455003;0.15120119;-0.10879387;0.10040255;0.026405364;-0.020780204;0.03761088;0.06509563;0.04786418;0.0040181135;0.12212106;0.0051009348;-0.0842322;-0.032389488;-0.033154096;-0.015677087;0.03540484;0.046679247;-0.056798063;0.0004030959;-0.024506949;-0.14306308;0.024294036;0.013366918;-0.0015230393;-0.010164134;0.008583891;0.02714817;-0.033423845;-0.13169809;0.015972922;-0.039716225;0.08495577;0.04029886;-0.03055073;0.011916544;-0.09194943;-0.106982395;-0.048615426;-0.009570362;0.06845947;0.060408775;0.019529914;-0.04379807;0.023264268;-0.017658902;-0.009596121;-0.067482024;-0.038320348;0.007565431;0.011253512;-0.07093336;0.014714645;0.010499743;-0.021971926;0.0059480034;0.012552747;-0.15859242;0.0150121385;0.122290395;-0.06411893;-0.07506081;0.117888816;-0.068059996;0.08077091;0.04225085;-0.10271768;-0.05548422;0.023648089;-0.052913643;-0.1649491;0.022094402;0.09978419;-0.031999927;-0.12722476;0.023715116;0.022180682;-0.045449473;-0.05747907;0.021519925;-0.017991027;0.018193694;0.054740265;-0.062628366;0.1065666;0.04017705;0.07374504;0.012850207;-0.07687735;0.09515007;0.011946343;-0.13492697;0.005643171;0.07668865;0.03341319;-0.039014835;0.04669711;0.0043245363;0.033855893;0.021779804;0.07431536;-0.06597918;0.005172062;0.09826134;0.14720295;-0.036928434;-0.04564834;0.01112869;-0.044350512;-0.015779149;0.06404411;0.06900515;-0.10994168;-0.050442096;0.10593248;-0.03976186;0.09612476;0.036642816;0.07614411;-0.072473474;-0.046971124;0.029684467;-0.0071152067;0.03766949;0.0111829415;0.007634992;-0.034068156;-0.099310964;-0.013356773;-0.07393604;-0.07384502;-0.057328798;0.050991878;0.08158648;-0.038940795;0.068280764;0.07984324;-0.08517418;-0.04533523;0.0842102;0.07280396;-0.23376542;-0.057689756;-0.0714264;0.09586819;-0.02185823;0.034011357;0.048439804;-0.01792502;0.03988237;-0.02549847;0.010260741;0.03911303;-0.032271706;0.026004711;-0.062349446;-0.052166976;0.014950017;-0.0333037;-0.05986484;0.03832811;-0.04562427;0.04812135;-0.07548811;0.0002379916;-0.10103175;-0.04338179;-0.06501581;0.054046858;-0.025211964;-0.0015578705;-0.058246747;-0.03146723;0.059573084;-0.014713087;-0.034909442;-0.098983;0.11842804;0.0058696433;-0.01447406;0.07601694;0.008143198;0.08027675;-0.08147228;0.00078685733;0.01663619;0.03802469;-0.09065164;-0.1154446;0.015712507;-0.027933305;-0.06526331;0.02656715;-0.12624803;0.026651822;-0.046664435;0.008382986;-0.0143875405;0.072023;0.02350349;0.050656725;-0.021597017;0.0012184102;0.013236856;-0.10393178;0.037838355;-0.05544217;-0.017115561;0.034784786;-0.08579179;-0.02808683;0.054529026;0.06014238;-0.0804931;0.09200896;-0.04471178;-0.015065008;0.123593606;0.11209611;0.16289733;0.015594342;0.016111031;0.05137031;0.027979897;0.025362398;0.0571658;-0.0148549685;-0.109817155;0.037390094;0.034722004;-0.05294898;0.1045245;0.07558502;-0.07202404;-0.035297465;0.05475755;-0.019790996;0.033557326;0.059919402;0.10141279;0.023339592;-0.07424106;-0.07732517;0.06590388;-0.03285085;-0.12443804;0.02566258;0.038421735;-0.13791913;0.13914654;-0.07362039;0.02641872;0.19485138;-0.053527337;-0.10282564;0.06436082;-0.056090396;0.013695286;-0.0057529067;-0.011394988;0.091568805;0.030879747;0.029054504;-0.21028253;0.018946398;0.005851743;0.056731425;0.059622765;0.022777943;-0.08503434;0.09401579;0.03543737;0.088412985;-0.018973682;0.17466094;0.009884412;0.07291954;0.07563792;0.062314365;0.09083836;-0.028298307;-0.0074035013;-0.04814948;-0.06530765;0.05551548;-0.011814118;-0.10823216;-0.060930923;-0.027171602;0.019472286;0.0062668943;0.01780406;0.058108725;-0.013785158;-0.0945821;-0.036788307;-0.01104935;-0.003029425;0.0842123;0.06447328;0.04452771;0.048424147;-0.07143125;0.06481757;-0.012905521;0.059775602;0.023338016;0.12795563;-0.029327136;0.015908651;-0.041631486;0.021164447;0.038166787;0.034660373;0.0027708604;-0.1142436;-3.2227457e-05;0.03593079;-0.10659767;-0.02437647;-0.016352333;0.020178314;-0.04044402;0.068667;-0.06951087;0.1228842;-0.09285829;0.032415893;0.0071099275;0.038482282;-0.021821417;-0.07042573;0.00017283522;0.007817259;-0.119539216;0.046399817;-0.1388633;0.092595436;0.10508357;0.0570145;0.048436873;0.05812494;0.027868077;-0.03366058;0.09578669;-0.047419127;-0.055188447;0.05296349;0.11761684;-0.008626158;-0.007838025;0.04123054;-0.021207994;-0.042656448;0.009652061;-0.21000946;0.03521713;-0.084767416;-0.039283216;-0.06926595;-0.07528782;0.0070515475;0.0141910175;-0.040630884;-0.017149244;0.13910875;-0.05980026;0.064188726;-0.009907347;0.121920325;0.07267185;-0.027550356;0.022312818;0.05586461;0.022612393;0.036280934;-0.015303709;-0.068200946;0.078647174;-0.071187906;0.084726304;-0.04260745;0.03171481;-0.019136751;-0.044153873;0.052223835;-0.079504654;-0.1208715;-0.017254865;-0.065331705;-0.058651976;-0.07341958;0.086285375;-0.035183616;0.05372756;-0.050609674;0.00016171063;0.021029301;0.06651312;-0.21440436;-0.06985732;0.013202033;0.061162673;-0.049104355;-0.062477607;0.036893494;0.09394496;0.08325889;-0.029942011;0.14598428;0.07557269;0.09386109;0.067514576;-0.0379179;0.09142898;0.06254996;-0.016212186;0.09052402;0.049946163;0.09071622;-0.039768543;-0.031603854;-0.052678972;-0.007224152;-0.008502752;0.012767524;0.0836032;0.0295045;-0.055681825;-0.09084255;-0.118779846;-0.008933933;0.0327893;-0.01947878;-0.06622278;0.11486106;-0.05466931;-0.027979571;-0.0677817;-0.029090745;0.0300257;0.07122054;0.082736395;0.047062214;-0.036502313;-0.10307127;-0.013291015;0.1362732;-0.24836431;-0.020893041;0.053197548;0.065377995;0.08540882;-0.06882276;-0.023119366;-0.07210493;0.07274213;-0.009723771;0.009793827;0.004300538;0.06296102;-0.011747646;0.056117173;0.01807617;0.02170464;0.060322553;0.010136632;-0.016100226;0.018084733;-0.021996398;-0.086284645;-0.011727521;0.022601565;0.015263922;-0.02582143;-0.018494904;-0.013418329;-0.101914115;-0.049700905;-0.03507489;-0.07672268;0.030559659;-0.055020943;-0.079715;0.017604874;0.07828252;0.07498112;-0.093360476;0.030198958;0.10807991;-0.065141395;0.041656446;-0.057146214;-0.028595563;0.039787456;0.029418454;0.11364149;0.002322694;-0.03657799;0.0011150559;0.04209047;-0.026289763;-0.047888264
0.07394512;-0.021562845;0.08573659;0.06076967;0.054213054;0.0679605;0.00935555;-0.008255071;0.016968442;0.0020711548;0.045433253;-0.03341728;-0.07542215;-0.12950696;0.008785221;0.012089968;0.019633377;0.08596574;-0.1343795;-0.008331791;0.045376148;-0.01682571;-0.12634543;0.044905577;0.08516468;-0.02454169;0.02514883;0.062229272;-0.0002618436;0.13174364;0.10066445;0.02405212;0.09378888;-0.04491533;-0.040216863;0.117214285;0.13102987;-0.1453968;-0.04701374;0.18525276;-0.074893646;0.008607763;-0.015254308;-0.053600233;0.12267171;-0.024276234;0.056969855;-0.059758715;0.049054835;-0.04102633;-0.041740417;-0.08795823;-0.020604389;0.00023134064;0.07937637;-0.0031472726;0.07140306;0.0784935;-0.027352294;-0.021974003;0.05268405;0.13356149;-0.024544677;0.030222576;0.06423633;-0.031237485;-0.11316285;0.064692385;-0.037463807;-0.101895556;-0.04425749;0.023939943;0.027985536;0.06392537;-0.025222937;-0.10724453;0.04687649;0.09793691;0.07499793;0.12556751;-0.05847935;-0.014842263;0.058357988;0.011181847;0.16186787;0.060683116;-0.048751507;-0.059952013;-0.05968691;0.0018499068;-0.014451561;-0.04392194;-0.056405418;-0.014540652;-0.08133191;0.042815782;0.12318698;-0.14477295;-0.113340154;0.08093411;0.050534546;-0.01440156;-0.06250913;0.080875985;0.06554114;-0.037698038;0.013226648;-0.07468773;0.06157755;0.023410773;0.06694714;0.01578577;0.029632064;-0.0126348;-0.050071515;0.056396693;-0.041932996;-0.0650473;0.075756125;-0.029797839;-0.069111735;-0.05385118;0.08272287;-0.027907178;-0.057120003;-0.032415397;-0.045294646;0.037952106;-0.031379268;0.07838764;-0.063807964;0.033213023;0.012513545;0.037196077;0.07469634;0.09716425;-0.021772282;0.07076553;0.15535183;-0.09082358;-0.048122372;-0.039675627;-0.066853896;-0.16658829;-0.0026090764;0.05973393;0.015681881;0.0070206816;0.12922244;0.03623936;0.015341147;-0.010470496;0.06393395;-0.060735933;0.049205225;-0.01609682;0.022861259;0.13008414;0.035987716;0.078660265;0.0604105;-0.121848606;0.09348481;-0.049916208;0.09333595;-0.10476903;0.0026313441;0.07818594;0.05850501;-0.03238291;0.016284212;0.033376727;-0.024105333;0.0039818864;-0.008368837;0.042917453;0.0036701127;0.014492544;0.062418196;0.057620246;-0.009413548;0.05647183;-0.031474255;0.034557845;-0.05401768;-0.08862412;0.036308095;0.04751125;-0.081963636;0.08666949;0.025889784;0.11227088;-0.015574137;0.054318234;-0.018476002;0.13378704;-0.06311098;-0.0577273;0.1412265;-0.030083703;0.009706431;0.068983786;-0.016115371;0.004466174;-0.068512514;-0.0791335;-0.027238868;-0.041006066;0.028897852;0.011739784;0.013544503;-0.0140267415;-0.02585991;-0.010919782;-0.13388221;0.05672467;0.055943802;-0.011121058;0.053886082;-0.054111537;-0.06555911;-0.04174702;0.17272025;0.026881889;-0.07237856;0.010315455;-0.035569232;-0.042018842;-0.10042392;0.034307756;0.0024758014;-0.03784298;-0.009821062;-0.08406045;-0.043031055;-0.04096395;0.048619967;0.0651107;-0.09097872;-0.036734026;0.013985961;0.08714437;-0.05740291;-0.020721562;0.072410814;0.051939305;0.12742788;-0.04379426;0.05885252;-0.13003632;-0.024480773;0.07610366;-0.020087652;0.063807525;0.0398002;-0.022731394;0.052943442;0.0541103;-0.019344788;-0.058510467;-0.026915492;-0.19520931;0.042523965;0.07048422;-0.060166255;0.13601233;-0.14683183;0.027735557;-0.025654638;0.023118129;-0.038476866;0.02372515;-0.05077382;-0.033335302;0.10614982;0.017775042;0.12593675;-0.020366555;-0.035417605;0.026034536;0.005957816;0.054964654;-0.060420018;-0.07483982;0.019220581;-0.056897145;0.08274617;-0.04634208;-0.03143446;0.0585424;-0.02442912;-0.10079595;0.058843035;-0.035169657;0.0586795;0.06253137;-0.012102329;-0.0033424688;0.07460293;0.10459828;-0.1688975;0.11493162;0.069657326;-0.06749988;-0.014159446;0.11482085;0.01084783;-0.0597753;0.059110958;-0.030481761;-0.029227976;-0.025610313;-0.03771822;-0.0874509;0.06126296;-0.042828765;0.04627058;0.03860496;-0.13313977;0.06818218;-0.041149236;0.0028536567;0.052200586;0.07260162;0.029221712;0.1311381;0.08033494;0.04775929;0.007292731;0.049509812;0.07177079;-0.05506885;-0.03156582;0.04558631;0.051667713;0.088115126;-0.16150494;0.046136007;0.03559094;-0.035436474;-0.020030838;0.06459238;-0.08246647;0.1067758;0.021734614;-0.0060836137;0.013691063;0.09128591;0.07041276;0.05556806;0.022597479;0.11375172;0.0828566;0.003344209;-0.06827926;-0.010282411;-0.0063150674;0.020196566;0.032961283;0.014760397;-0.028368648;0.06319008;-0.031976596;-0.044794377;-0.0659767;0.038231075;-0.045263857;-0.093503475;0.03004321;-0.026682021;0.055600785;0.10073665;0.020441638;-0.17207608;-0.052530672;-0.06752614;0.08626223;-0.036372695;0.024201922;0.09915616;0.09830342;-0.085087486;-0.057680212;-0.035270117;0.008793202;0.039727986;-0.08739501;-0.0467597;-0.1428436;-0.023229307;-0.02668091;-0.15170342;-0.07580003;-0.032567788;-0.02532389;0.0043883463;0.080612734;-0.03810246;0.06949151;0.020617284;0.037536494;0.03736345;0.01725891;0.028357763;-0.039555583;-0.02713542;0.08772437;-0.04572694;0.02352696;-0.07843331;0.054286838;0.18958497;-0.053480834;-0.06476128;-0.0312586;0.024766877;0.022768723;0.06505687;0.078221686;0.08861038;-0.054138042;0.14526108;0.033407345;-0.046386868;0.009897863;-0.038889684;-0.15118168;0.0683477;-0.13662049;0.02811484;0.021339092;-0.008377688;-0.012383438;-0.06764557;0.023750382;0.030820172;0.016430316;-0.03216152;0.013152647;-0.0069511156;0.025733167;-0.035018906;0.0053233067;-0.0022982;0.04751003;0.10518948;0.029535905;-0.0083474135;0.058778595;0.08549112;0.03441319;0.009210237;-0.03534612;-0.034824654;0.05749551;0.015483514;0.108455285;-0.007874308;0.15091524;-0.052155163;-0.089837424;-0.0043491693;-0.014749341;-0.08609719;0.014739786;0.15994592;0.025723573;0.006864951;-0.061575428;0.024161384;0.06538574;0.047046825;-0.09360422;-0.054457232;0.08094105;0.015435455;0.00954537;-0.010054295;-0.03651882;0.09101251;-0.05619797;0.047774103;0.1686004;-0.05609449;-0.0023391773;-0.038397398;-0.07000955;-0.06520148;-0.007527935;0.06781298;0.07255563;-0.06780888;0.039118346;-0.08895134;0.012568064;0.028012464;-0.036210656;0.048963226;-0.07083004;-0.018611595;0.08281378;0.009080388;0.0070323916;-0.09604191;-0.038097396;0.018588461;-0.13478388;-0.029879957;0.047095258;0.05634945;-0.021547098;-0.033363454;-0.0071335034;-0.049240977;-0.02934106;0.053472728;0.038520597;0.062473066;0.010906553;0.021594487;0.064907394;-0.17935093;-0.027124746;-0.027376844;0.156632;0.11296003;0.03990263;-0.031896017;0.0568753;0.066434845;0.096511535;0.0005996626;-0.0031700914;0.085482165;0.016825167;0.044072032;-0.03927672;0.034602154;-0.08042717;0.06082163;0.046282683;-0.076927274;-0.084571786;-0.06044752;-0.016111454;0.017744692;-0.051383823;0.008771194;-0.06359339;0.041992333;-0.04786429;-0.057885394;-0.008641886;-0.14834256;0.009228068;0.07628137;0.045150023;0.06348595;0.07644859;0.04723394;-0.095012546;0.039083976;0.048606966;-0.07941118;-0.022647219;-0.075827554;0.058403768;0.0768476;-0.061488908;0.07584009;0.08758617;-0.048003796;-0.111270554;-0.084277235;0.04904949;-0.02844196
0.024594558;-0.021927828;0.0067251795;0.04639765;0.010836715;0.13705935;-0.077626266;-0.07563016;0.008869952;0.01796658;0.034935236;0.0073322644;-0.033651043;-0.0642505;-0.14186281;-0.09246174;-0.023398371;0.034276187;-0.04875382;-0.036722425;-0.0034458123;-0.019531319;-0.14987181;0.08843031;-0.0047810245;0.084862754;-0.072832085;0.033116095;0.03373442;0.08662447;0.050415553;-0.021207765;-0.046869546;-0.10565609;0.010869757;-0.05074857;0.19842306;-0.12390644;0.06947093;0.14372393;-0.06336844;0.017057538;0.042153813;-0.06540646;0.023406072;0.050202955;0.09033039;0.070222005;-0.02902262;-0.061924223;-0.010345847;-0.13258143;0.03515801;0.031378113;-0.02120687;0.05626602;0.064310215;0.021450736;-0.09451245;0.017874341;-0.07601373;0.10407192;0.038005218;0.024939904;-0.046219237;0.09187655;-0.2309298;0.051457148;-0.014020413;-0.07237072;0.048671763;0.007488434;-0.04334234;0.01740968;0.08310246;-0.06437525;0.0058525275;0.025689572;-0.07282304;0.05200669;0.011895339;0.054866735;0.03567807;0.0008288113;0.029768346;0.01811506;-0.14317589;0.040929098;-0.023002207;-0.05681627;-0.0444079;0.053457793;-0.018332567;0.053508453;0.033813354;0.007188629;0.065805994;-0.13865589;-0.15176353;0.062049028;0.018063877;-0.02047119;-0.05332484;-0.012296159;0.030803723;0.078111745;0.097094946;0.035456903;-0.082860425;0.05769703;-0.073130526;0.018009724;0.1257503;0.056863766;-0.0413046;0.059955124;-0.025396088;-0.02328121;-0.09046499;0.07504872;0.07869275;0.05146582;0.0015589307;-0.045927748;-0.02158643;0.06304818;-0.04840302;-0.028983898;0.051537395;-0.034608494;-0.052143563;0.026479227;-0.02360425;0.06961927;-0.038538452;0.13243438;0.13427076;-0.021216154;0.14713112;-0.013834865;0.048446793;0.06264581;-0.020608805;-0.034528416;-0.10048799;-0.035497632;-0.017316377;-0.050066713;0.111204535;-0.04762509;-0.07906298;-0.020991853;-0.06866315;0.060009755;-0.018305445;-0.0012392505;-0.07436891;0.051571105;0.02546221;0.12671618;-0.07677069;-0.17440464;-0.06721788;-0.052097373;0.0042409776;-0.22128624;-0.10093529;0.0851533;0.026218858;-0.07618852;-0.05611046;-0.041894212;0.043464225;-0.080583036;0.026550148;0.04934428;0.047449265;0.0070009623;-0.014479608;-0.028923294;0.024313733;0.053093728;-0.012357788;0.072408415;0.026105572;-0.12641715;-0.05983865;-0.0042369626;-0.066291474;-0.045280498;0.045346037;-0.02282996;0.04100512;-0.06120242;0.031764995;0.008765262;0.013035976;-0.05717179;0.00020813945;0.0050215335;-0.11148455;0.021633478;-0.030792529;-0.050074603;-0.10502044;-0.079879485;-0.054036748;0.021444581;-0.038321868;-0.018411502;0.025890473;-0.1300073;-0.0627268;0.016872296;-0.06261821;0.010557995;-0.061052002;-0.057983294;-0.075263225;-0.063041784;-0.04647513;0.0499872;0.20180812;-0.044746857;-0.19041063;-0.048994504;0.07488657;0.02647787;0.024169063;0.034220982;0.025633186;0.07187737;0.022816997;-0.08189565;-0.051307242;0.078766994;-0.028583145;-0.013225169;-0.103191905;-0.016356405;-0.0766586;-0.061690602;0.06035214;-0.03928879;0.028575702;0.04074535;0.15817587;-0.07633055;-0.03013938;-0.09992849;0.021808447;0.07989539;-0.075219154;-0.05884377;-0.04250355;-0.0065368265;-0.08572153;0.10279464;-0.0145530915;-0.06301046;-0.020346472;0.016623452;-0.048761047;0.103742175;0.072496794;0.09729503;-0.06449518;0.0388528;-0.04259557;-0.015293412;0.03692307;0.016957976;0.077126704;-0.06469101;0.01909305;0.023755284;-0.09682036;0.061022867;0.08000733;-0.018425826;0.14310227;-0.015710056;0.016147692;0.08102938;-0.0057827234;-0.022076845;-0.005330013;-0.0009582685;-0.086459875;0.02651256;-0.0764375;-0.099609874;-0.11139166;0.10633057;0.04113026;0.1073317;-0.05315118;0.061608814;-5.3234588e-05;0.030042097;-0.067523964;0.10951259;-0.010166874;0.06484359;0.042130493;0.11034886;-0.06910701;-0.021310654;0.022049673;-0.018071238;0.08137268;-0.012073377;-0.077604346;-0.022773882;0.03978786;0.029944666;-0.04524353;0.06384217;0.016133683;0.083610624;-0.04569037;0.008221036;0.12233004;0.07792291;0.09539918;0.08983503;0.08601714;0.009355287;-0.0667115;0.12704778;0.07172126;-0.0653284;0.008546972;0.029604442;0.065298215;0.118541315;-0.08387724;0.0690574;-0.064704806;-0.031956863;0.059348878;-0.03076133;-0.06717242;0.025682688;-0.0007157207;0.09088085;0.062617175;-0.049236637;0.015530597;0.09039385;0.0783319;0.15759043;-0.021864826;0.0621749;0.07727191;-0.006977476;0.07883907;0.001790605;0.1228487;-0.12965865;0.1252663;-0.007938987;0.041065946;-0.07591216;-0.03938717;0.07038465;0.018808613;-0.106751114;0.03034776;0.015272205;-0.029751737;0.13576093;0.14851137;-0.14591257;0.02529349;0.00075513084;0.01076734;-0.042801578;-0.115777194;0.098849885;0.010750001;-0.017161123;-0.06004124;-0.007206076;-0.021125214;-0.08558958;0.06923505;0.06983393;-0.23799935;0.04709929;-0.050707947;-0.026670594;0.013851775;-0.045406364;0.040430855;0.009036824;0.03508275;-0.0030341134;0.0677643;0.022276184;0.040256042;-0.019038087;-0.027241524;-0.031925593;0.023665959;0.049447116;-0.041457806;-0.013843865;-0.0008508147;-0.09811822;0.043817256;0.10261517;-0.029096777;0.07543768;0.075760156;0.0067622704;0.0034857693;0.047298435;-0.056669574;-0.008583772;0.052001223;0.15138873;-0.029519334;-0.06859213;0.13415143;0.0037503985;-0.013908203;0.04850543;-0.0837537;-0.02466956;0.0042083706;-0.055109657;-0.090188704;0.07741777;0.011011159;-0.07804742;0.04966921;-0.07270965;0.10392485;0.01038351;0.020431394;-0.04107084;0.019722242;-0.0120608285;0.06157377;-0.069639236;0.01993937;0.059369303;0.014823481;-0.051340595;-0.02710607;-0.11203784;0.049541734;-0.051600337;-0.049090687;0.06292646;-0.06462007;0.033000976;0.011668858;-0.17888665;-0.09748527;0.0075956676;-0.06119148;-0.047972742;0.029144814;0.045416802;-0.07900025;0.06520399;-0.05553319;0.057078954;-0.020639775;-0.037508532;-0.120222755;0.024807295;0.009436809;-0.035232227;0.07170193;-0.0749843;0.00344701;0.068445;-0.043458696;0.041638378;0.11425001;0.0584377;-0.010660704;0.058619946;0.040235106;-0.019827317;-0.063715786;-0.011596734;0.03713319;-0.101669595;-0.06630587;-0.10891255;0.07418119;-0.0006834205;0.03451454;-0.083761096;0.07318412;0.088242345;-0.040787697;0.012437771;-0.054101374;-0.05184268;0.07522967;0.08099419;-0.16184255;-0.051718034;0.09344586;-0.033282775;0.045725744;0.06243354;0.056694586;-0.009530783;0.040327888;0.017289128;-0.03741851;0.0112098325;-0.05475872;0.0688418;0.08446199;-0.12962602;0.0086338045;0.075100884;0.1182142;0.14800794;0.031713225;0.039927866;0.044721983;0.03305024;0.08131428;0.04699447;0.0033386901;0.06468045;-0.038243726;0.013264642;-0.048084524;-0.097985715;-0.06487501;-0.061858527;0.014866475;-0.057844006;0.045934033;-0.007498086;-0.057667326;0.050745808;0.029135915;0.08828752;-0.10389775;0.025005521;-0.034458186;0.01840925;0.019164188;-0.21682718;-0.053982515;-0.01825587;-0.0050432053;0.11332069;-0.074240774;-0.05426295;0.019203454;-0.006917014;-0.011643127;0.027075144;-0.086301245;0.019364608;-0.060140293;-0.03519934;-0.023434032;-0.05519128;0.0070173163;-0.061628528;-0.044767596;-0.047496766;-0.01699984;0.017225103
0.12848158;0.02188662;-0.12874113;0.07943945;0.05912577;0.10036356;-0.08232942;0.030747626;0.014237365;-0.02005905;0.017587323;-0.10953077;0.044463538;0.06076816;0.039061464;0.27694428;-0.14488414;-0.015722908;-0.21874218;-0.015667124;-0.025119253;0.027145585;-0.07525063;-0.3235435;-0.011499289;0.22834589;-0.15324722;-0.022004373;-0.08587889;0.016369076;-0.058148645;-0.09781116;0.027634043;0.057384025;-0.0005794954;0.11841851;-0.07091069;0.08124803;0.020104447;0.06317702;-0.036754046;-0.027830886;-0.21515588;0.065334715;-0.26227894;-0.026360987;0.10072959;0.017873611;-0.07247785;0.18051223;-0.1373859;0.07017582;0.067591734;-0.0051998044;0.014052218;0.056322526;0.11722153;0.043100033;-0.12967466;-0.015826534;0.119810015;0.07032049;0.07716678;0.0024078698;0.14145422;-0.08636941;0.08509714;-0.09920549;-0.01703723;-0.064557865;0.08921957;-0.08823665;-0.026222326;0.073406115;0.028386477;-0.008985541;0.02001645;-0.096356004;-0.104929745;0.0043036197;0.20350575;0.031032091;0.079100944;0.03478135;-0.2973521;-0.11014805;0.041161954;0.017933479;0.06258468;-0.018021848;0.040954527;0.04116876;-0.027883068;0.030960837;0.014779139;0.031411033;0.18226272;-0.08994538;0.072714515;-0.11264844;-0.060847446;-0.08982896;0.094028465;-0.33725062;0.06899136;-0.10930706;-0.042169053;0.0055890437;-0.053159785;-0.063517585;0.031497564;-0.14559053;0.022141106;-0.028553065;-0.020817854;-0.07426743;0.027313346;-0.010676995;0.10598389;0.021021178;-0.050017625;-0.034794915;-0.011994679;0.023210395;0.07790811;-0.056243435;-0.09719157;0.07159035;-0.081153624;-0.16113628;0.2140383;-0.034042515;-0.007481838;0.16042264;0.03665223;-0.1844258;0.01837476;0.14308241;0.08942372;-0.002234095;-0.05384666;-0.05683575;-0.04314555;0.0077245603;0.12409164;0.016992958;0.060984485;0.08373083;0.049144562;-0.07663959;-0.13038011;0.044119343;-0.053970873;0.0022897446;-0.06794991;-0.06295734;-0.08150548;-0.0076944428;0.071018934;0.15248476;0.029216316;-0.015437546;0.06265906;-0.08491423;-0.2037248;-0.09633209;0.12290789;-0.020019783;0.14609446;0.03304137;-0.023314029;-0.029852496;-0.060693685;-0.04058613;0.052568547;-0.0676963;0.035264626;0.16114518;0.0808034;0.033186447;0.09920246;0.03179628;-0.1819509;0.068319224;0.0039090267;0.08225634;-0.03166924;0.15866396;0.19672027;-0.12081951;0.00263734;0.016637903;-0.030205784;-0.044533554;0.075059846;-0.026909817;0.053823963;0.071639225;0.117180906;0.056904364;-0.027180158;0.09593411;-0.012629934;-0.07233635;-0.05816445;-0.16119298;0.10974517;0.0039474946;-0.070556395;-0.008533276;-0.007868044;0.10680233;0.008062248;0.020509362;0.011042951;0.06429966;0.023898156;-0.042917486;-0.011841801;-0.03267186;0.058053043;0.041857727;0.041187946;0.033696633;-0.1251042;0.0029632146;0.044501327;0.17851721;0.040351193;0.09749175;-0.089373715;0.035683397;-0.033236194;0.050650593;0.19201767;0.022774896;0.06588252;-0.011471406;0.22706254;0.13557588;-0.06739606;0.124641575;0.13939187;-0.09632127;-0.027221547;-0.050511394;-0.16623516;-0.00813614;-0.018329453;0.007088343;-0.02211545;-0.036977414;-0.06002156;0.24870986;-0.030918898;0.008787511;-0.03564627;0.085443825;-0.028523466;-0.01808875;-0.107052065;-0.2685292;0.07229168;0.046504565;0.045475956;-0.11266135;-0.21578185;-0.023275046;-0.050295215;0.12843375;0.062875174;0.032832213;0.02155547;0.033892933;-0.044348277;-0.04786139;0.17205125;0.062978745;-0.006676352;0.012948043;0.055478398;-0.004323262;-0.083195806;-0.026563752;-0.054425687;-0.02945993;0.087919615;0.104354076;0.018482745;-0.08445441;-0.0059059733;0.070657656;0.10762762;-0.2101768;-0.07931861;0.044548124;0.06899896;-0.03866618;-0.01140362;0.0070582544;-0.2177672;-0.1516481;-0.027612872;0.09914575;0.081275225;0.08940922;0.15138614;-0.0059284624;-0.072325565;0.007485483;0.00997833;-0.2603273;-0.04502831;0.1065409;-0.120459996;-0.027750509;0.009238348;-0.08150391;-0.09986184;-0.027590688;0.05388287;0.061979886;0.22785774;-0.0035138477;0.053518925;-0.19323948;0.005727399;-0.021669663;-0.06606745;-0.05621967;0.04097148;0.046961565;-0.06145313;-0.06429354;0.036777213;-0.14500321;-0.32465795;-0.043845966;-0.059152372;-0.036956504;0.024801075;-0.059977543;0.0004601805;0.045464568;-0.060769778;-0.024554463;-0.06132239;-0.21387498;0.17569724;0.035729017;-0.041523937;-0.0782228;-0.0808512;0.016906725;0.03887939;-0.045080755;0.048199616;-0.29329246;-0.0029992866;0.17574924;-0.13538487;-0.006641998;0.07507401;-0.05259051;0.011505516;-0.004699328;-0.082280934;-0.41659954;-0.0007700641;-0.05903497;-0.042315125;0.0645118;0.093767874;0.07435802;-0.18911976;-0.0594066;0.12733021;0.027688514;-0.013560343;0.005426591;0.016230088;0.033532057;0.10472832;0.06356418;-0.031243855;0.044365417;-0.17621078;0.055325534;0.19210352;-0.24022338;-0.12980087;0.06765151;-0.022776613;0.03636466;0.025808483;0.012850984;-0.026218604;-0.0035676667;0.21960877;-0.035099626;0.015012773;0.024525955;-0.08746302;-0.044475134;-0.00738377;-0.041710656;-0.13232633;-0.107711755;-0.04223282;-0.0047611855;0.03435623;-0.11414746;-0.033788107;-0.076229714;-0.07158006;0.04584641;0.03325071;-0.018305955;0.064452134;-0.022371404;0.021442393;0.011266546;-0.04870513;-0.11690239;0.15655032;-0.03898413;-0.1714247;-0.053472657;0.10554831;0.009685619;0.24035662;0.04630604;-0.02924513;0.013470066;-0.06569689;-0.061767492;0.04103385;0.010969614;0.03423086;0.08881468;-0.03258524;-0.070710324;0.20381802;-0.060202356;-0.062320367;0.026875699;-0.05440667;-0.15107033;0.05939344;-0.04640168;0.100242905;-0.081849135;-0.027429312;0.039668716;0.0916563;0.08587071;-0.04636596;0.12454149;-0.01136484;-0.05548152;-0.1751581;0.008446188;-0.0854146;-0.099792644;-0.052824143;-0.00925081;-0.34478757;0.04989055;-0.077390306;-0.083004564;-0.05108725;0.1010071;-0.10685102;-0.12176739;0.014800277;-0.048155747;-0.0358319;-0.13205463;-0.086049944;0.050235957;0.08041587;-0.00093608326;0.1969021;0.10163269;-0.06353576;0.004460593;-0.011905836;-0.04213123;-0.098579004;-0.043895904;0.04671502;0.032360375;0.01063083;0.08554979;-0.001718795;0.03748154;-0.33411402;-0.07187357;0.0031385934;-0.03531738;0.02775466;0.27976677;0.12923099;0.011585364;-0.08368295;-0.033441003;0.13799421;0.029106105;-0.01996316;0.06463259;-0.11538317;-0.16604623;0.062267598;-0.0053998074;-0.045798894;-0.019298868;0.06413627;0.040718634;0.09120304;0.01283493;-0.27645397;-0.2958383;-0.031854305;-0.19929828;0.08134744;0.045211975;0.0052780104;-0.07420187;-0.10290773;-0.00075540703;-0.34913522;0.10820913;-0.042362478;0.16742945;-0.04020644;-0.14602268;0.004227529;0.064613655;0.0145874955;-0.07646492;-0.03525879;-0.042783212;-0.29398987;0.09932107;-0.10643852;-0.1939854;0.004217871;0.0026152981;0.11655008;-0.05321844;0.068935856;-0.112829894;-0.08441581;0.011378978;-0.05968857;0.020060683;-0.040327515;-0.0024815726;0.02808925;-0.06445155;-0.0370208;-0.033451535;-0.077770546;0.005367816;0.040721577;0.0071151154;0.071664765;-0.014810801;-0.12980394;-0.12325708;-0.09254274;-0.02072657;-0.07156141;0.019819334;0.049731363;-0.057352286
0.0444585;-0.034084864;0.030835591;-0.030824205;-0.060873553;0.12871534;-0.0342781;-0.039156158;-0.09994812;0.06748978;0.0035413795;0.098881535;-0.10988391;0.034584325;0.12521423;0.18714665;-0.15052581;0.05903009;0.005799436;-0.0012284039;-0.114543155;-0.083852366;-0.10895524;-0.22972208;-0.082035996;0.19015087;-0.14073922;0.041237727;-0.009600256;0.06848412;0.082843915;-0.07947684;-0.05586822;0.063634835;-0.0076823193;0.08658353;-0.24539308;0.10484154;0.0093424115;-0.012478113;0.012920857;0.029135235;-0.04734036;-0.08283012;-0.05316125;0.002545677;0.057718962;-0.0012954507;0.03951493;0.22857037;-0.10078497;-0.07344631;0.087204665;0.054702807;0.105319716;-0.0058403015;0.0027784624;-0.02026706;0.054453805;0.0070579206;-0.08876357;0.028715104;0.041509807;0.016960742;0.023985356;0.11998223;0.13906637;0.049666032;0.015656656;-0.053771924;0.017426105;0.058250856;-0.050864566;0.033320174;0.004278579;-0.19789055;0.091621265;0.029771993;-0.04396794;0.05616784;0.25743;-0.029823596;-0.072457686;0.051366765;-0.1565617;-0.051839825;0.20041999;0.07298792;0.065313466;0.015275851;-0.019794457;0.091421366;0.038051672;-0.06283273;0.17135808;0.03164277;0.05594285;-0.08526725;-0.031032901;-0.039381288;0.015551081;-0.03461078;0.23794602;-0.43419048;-0.06008584;0.07334181;0.0022120601;0.11699358;0.0028194522;-0.03748083;0.05486431;0.010618293;0.09164914;-0.022515748;0.011291535;0.033427004;0.06462632;-0.08699259;0.09305969;-0.0025208127;-0.11300166;-0.11541096;-0.01182259;-0.027778797;0.04249041;-0.022093333;0.04218252;0.32013643;-0.011035871;0.06857575;0.010513976;-0.014397132;0.0028324325;0.03119518;-0.05927837;-0.09269129;-0.21797352;0.102373205;0.104164176;0.044330604;-0.06651365;0.061529018;-0.068897285;-0.09993209;0.30862132;0.0140968915;-0.06807782;0.11838608;0.08122376;-0.058199313;0.12714636;-0.024738794;-0.0224929;-0.07205866;-0.11551898;0.021294687;0.04743431;-0.15890239;0.053251497;-0.075705305;-0.080140434;-0.019439379;-0.09811111;-0.07484451;0.07253356;-0.2293766;-0.14196464;-0.08558888;0.17551085;-0.058134504;-0.0144704655;0.009773633;0.04356883;-0.12024387;0.008206966;0.03586746;0.09072786;0.19115613;-0.013973754;0.022010501;-0.026748158;-0.093496636;-0.0708205;0.011025414;-0.09111373;-0.2243885;0.007460095;-0.012311624;0.08910961;-0.044177834;0.044385254;-0.020469379;0.047984056;0.027523441;-0.046016216;-0.063975856;0.015471283;0.1194959;0.003665029;0.030484179;-0.08021918;-0.05210892;-0.02901916;-0.21136405;-0.01777085;-0.057434876;0.049872234;0.0010541934;0.04055476;-0.06935735;0.014470879;0.102527745;-0.108956836;-0.1255012;0.11882725;-0.10753249;0.013740405;0.025649875;0.06482229;0.09119644;-0.01548236;0.011465103;-0.14760308;0.2353636;0.13425341;0.08872931;0.044137012;0.10896273;0.0007497142;-0.033880267;0.041043583;-0.093594715;0.104545556;-0.052420564;0.027651576;-0.022339843;-0.052976213;-0.058528297;-0.00066643505;0.09999862;-0.070381984;-0.048083734;0.1433446;-0.006313485;0.08691296;-0.076633476;0.110165;-0.035375617;-0.055227026;0.18129754;-0.039358523;0.0056502144;-0.102121145;0.24101396;-0.056770433;0.014935146;-0.06484254;-0.04196454;-0.03670996;0.17603064;0.0221474;-0.16594888;0.017925119;-0.08375581;0.095678404;-0.1621671;-0.11221875;0.02282179;0.14577273;0.11510325;0.021152737;0.050220035;0.08177535;0.039816327;-0.006731695;-0.0952025;0.111492276;-0.048130363;-0.04050551;-0.04257511;0.09984187;-0.027691664;0.00957942;0.005168598;-0.08017914;0.058023434;0.07008036;0.014427755;0.05708978;-0.022639766;-0.013214281;-0.10954268;-0.106002174;-0.008596135;0.0014188986;-0.08169443;-0.039898317;0.01952215;0.019298308;-0.0711641;-0.022519229;-0.13931058;0.006322459;-0.10388955;0.055711906;0.10802493;0.14733341;0.10950913;-0.020891393;-0.035015296;-0.06385519;-0.31456646;0.008133022;0.15980577;0.026005933;0.070530504;-0.044372313;-0.06390629;0.04597718;0.02788591;-0.06964775;0.26942894;0.066587426;-0.0384146;-0.1239354;-0.07944234;0.10919704;0.047344353;0.034558736;0.15199934;-0.056320757;0.041131184;-0.05071436;-0.10954386;-0.025901543;-0.18562853;-0.12770452;-0.05240747;-0.07072805;-0.10913279;0.03647264;-0.012739191;-0.028777149;-0.0114400545;-0.036061972;-0.06824976;0.05673747;-0.066726334;0.1306961;0.029740162;0.008832541;-0.23132709;-0.07699405;-0.039770473;0.055004235;-0.071391575;0.101197205;-0.17324188;-0.11061254;0.12018022;-0.055954568;-0.009311175;0.13132481;0.061514787;0.15805446;0.015791778;-0.0076424633;-0.10135047;0.08380728;0.0722232;-0.0025727868;-0.062307145;0.061023116;0.10904048;-0.08117588;-0.09561577;0.15342776;0.058769036;-0.013131091;0.11741415;-0.069332525;0.010447743;0.0506979;-0.040314637;-0.04619061;0.005542937;-0.10860027;0.25521296;0.15663226;-0.11010417;-0.06618388;-0.08556699;-0.040482122;-0.11394236;0.0033523135;0.10599999;-0.022922272;-0.016334629;-0.09112208;-0.12461938;-0.09151567;0.12616074;-0.051617865;0.042715624;-0.0004468578;-0.09433045;-0.1828261;-0.10477405;0.02517444;-0.102156036;-0.0060308077;-0.012794194;-0.039537463;0.061236154;0.0005779495;0.023917034;-0.04179874;0.21309654;-0.04979639;-0.052840814;-0.05003681;0.15143241;0.0672697;-0.07523028;0.060378026;0.083214775;-0.012934489;-0.04891914;0.1172044;0.098009504;0.24162902;0.0816603;-0.083653934;0.018092237;0.061272953;-0.074287094;0.08748478;0.010861212;-0.0440967;-0.03233389;0.020705894;-0.094457194;0.19732969;-0.038475666;-0.01519281;-0.042210277;-0.13388178;-0.13965628;-0.0029585008;0.017000217;0.0505142;0.03586195;-0.10365056;0.027370399;0.1047584;0.011811324;-0.03579342;0.046915617;0.124301426;0.08585842;-0.18732214;-0.044781104;-0.15891325;0.024907589;-0.080171235;-0.0529581;-0.30028576;0.074103646;-0.007436428;-0.010689058;0.030836843;0.24385758;0.12301508;-0.18491046;0.024100816;0.012063888;-0.030652668;-0.07482132;-0.038271282;-0.01747235;-0.0032103125;0.07459282;0.15146156;0.1416016;-0.10806479;0.035454974;-0.06874557;0.031715315;-0.14604986;0.0027218838;0.069893666;0.1537349;-6.652998e-05;0.02527972;0.11321905;0.06788794;-0.26838422;-0.097302385;-0.087218694;-0.06334696;0.06489563;0.20871107;0.12611036;0.0017991476;0.001259055;-0.029352788;0.11596257;-0.11790931;-0.022098007;0.030954987;0.027578585;-0.10775484;-0.09482085;0.06276603;-0.06267924;-0.06314784;-0.05656306;-0.0857498;0.07950937;0.014651394;-0.25729746;-0.1238551;0.05806523;-0.13853142;0.0073743453;0.1574043;-0.015209139;-0.0070766537;-0.104018286;-0.033196874;-0.22830959;-0.009449507;-0.10221259;0.20055692;-0.019263845;-0.18518071;-0.043950062;0.01273424;-0.042693026;0.0053516924;0.059202474;0.04753043;0.067381784;-0.01087522;0.038777087;-0.22131784;-0.06568641;0.07929813;-0.060860943;-0.07791127;0.12291687;-0.015386878;-0.08824115;0.0031323824;0.051301982;0.04077533;-0.09078781;0.023676997;0.06694567;0.020888086;0.020813249;0.016450107;-0.09396091;0.063448615;-0.03919367;0.0034919977;0.04049459;-0.086151876;-0.04514973;-0.08099601;0.019588005;0.014121514;0.008218571;0.07527628;0.058815498;-0.034956813
-0.050354034;0.08387339;-0.013653187;-0.041425552;-0.04808016;0.04226657;-0.10477436;-0.06518373;0.032303996;-0.025628118;-0.101457134;0.24072085;-0.025419379;0.03447765;0.061722368;0.282728;-0.08375757;0.08871311;-0.112022504;0.011732468;-0.06338174;0.036698546;-0.3736452;-0.16851756;-0.08582631;-0.19274361;0.016719526;0.11438345;-0.07450965;0.059868954;0.218819;-0.15434568;0.021680001;0.0397906;-0.042856522;-0.031215357;-0.10913633;0.010661627;-0.04064598;-0.06372158;0.11428265;-0.05595279;0.12716208;0.008847476;-0.06759111;-0.06510446;0.062088817;-0.044000957;-0.08735963;0.0994884;-0.07113313;-0.024465673;0.07054352;0.059063148;0.08594521;-0.08823785;-0.056794755;0.14555497;0.049486827;-0.018484082;-0.035576846;-0.044534728;0.09579276;0.2504935;0.09228457;0.05459313;-0.07000621;0.060377963;-0.029887078;0.05317215;-0.012933444;0.033667814;-0.020293307;-0.066529654;0.028839523;-0.0033406727;-0.053826246;0.033655796;-0.08323665;0.084233426;-0.035657458;-0.012573389;0.08189827;0.07218461;-0.3183207;-0.002275222;0.009114809;0.094266474;-0.047595035;-0.10356247;0.02873882;0.18140906;0.027829848;-0.0052959784;0.31859767;-0.07144254;0.22232077;-0.21547593;-0.12561664;-0.03458797;-0.0742256;-0.02859373;0.23099895;-0.28881353;-0.011179207;0.08006052;0.002793488;-0.035830434;0.03742127;0.06325254;0.013701359;0.018637214;0.028204288;-0.0592755;0.012351993;0.03217875;-0.023179539;0.012921913;-0.046040524;0.053473912;-0.015584018;0.056923967;0.1112835;0.0011290973;0.07215956;0.08497761;0.07249403;0.11211836;-0.09246246;0.030132359;0.10618504;-0.01498569;-0.027500816;-0.015522233;0.03432315;0.012343232;0.1153264;-0.05403505;0.14974615;0.009728357;0.009950402;-0.042820066;0.07766579;-0.07758844;0.15818754;-0.019235302;0.09976995;0.059012648;0.03461304;0.017175043;0.12904064;0.008211577;-0.11327613;-0.2228998;0.112654;-0.04431172;-0.049761333;0.04920514;-0.023757966;-0.17621394;-0.046933554;-0.20394574;-0.13209605;0.08970265;0.1881302;-0.26797804;0.11908622;-0.0485512;0.25803152;-0.010932788;0.05517183;-0.048302848;-0.02007869;-0.08893892;0.058737125;-0.028443731;-0.032895736;0.055609386;-0.061457127;-0.12577112;-0.020561602;-0.016827803;0.041343074;0.060968734;-0.04546367;-0.23573563;0.07041209;-0.19631286;0.28453842;0.016197098;-0.11725057;-0.020250445;0.059663214;-0.054801866;-0.053012934;0.005817995;-0.07079344;0.08535598;0.31957278;0.0526534;-0.13726947;0.08921501;-0.07936585;-0.23165612;-0.08751287;-0.07018828;0.013897059;-0.15488826;0.017198645;0.019003823;0.029635413;-0.12366326;-0.05208888;0.001265206;0.20376395;-0.083925955;-0.008578399;-0.0006362415;-0.014121382;0.036622547;-0.0171122;-0.06319331;0.08786697;0.18623565;-0.061332777;-0.06696934;-0.051427335;0.022370294;0.12992455;0.14191788;0.07010746;0.052841645;0.1238459;-0.0812568;-0.2710575;-0.04584156;-0.022679877;0.14156401;-0.12989306;0.07427649;0.034479354;0.071103826;0.0059694964;0.07921189;-0.024650594;-0.057962403;0.114503935;-0.040890746;0.00026729365;0.0042559523;-0.06235006;-0.08755043;-0.10787802;0.2309663;-0.06677214;-0.018964557;-0.0024640646;-0.09066534;-0.096630715;0.043652583;0.041632086;0.020557398;-0.023430198;-0.06262215;-0.050942246;-0.01431243;-0.27546173;0.15722431;0.154679;0.037585355;0.07726181;0.026445402;0.0689742;-0.030853054;0.048832607;0.053616196;0.23846431;-0.055490963;0.05922269;-0.08952723;0.12754838;0.06748436;-0.04969138;0.024574598;-0.0899885;-0.06404108;0.104687296;0.034999665;-0.009570843;-0.046158258;-0.0075722486;-0.032207604;-0.06844114;-0.101149134;0.122777335;0.03859686;-0.023424994;0.050262634;-0.06443154;0.0019858496;-0.25735503;0.19431543;-0.04114787;0.066688225;0.22722672;-0.03750035;0.085431844;0.1264806;-0.10149118;0.006286323;-0.07440509;-0.06907754;-0.02695433;0.10286895;0.06225245;0.046777774;0.07629748;0.04474544;0.09780999;0.04958638;0.012472692;0.052783847;0.14487338;-0.018047668;-0.093911566;-0.07917409;0.111009575;0.030449048;-0.058048118;0.06471172;0.072158396;-0.027550042;-0.021238104;0.047286734;-0.0020166284;-0.020616638;-0.0015702777;0.06740829;-0.14654529;-0.04999639;0.06327697;0.015189368;0.021886118;-0.051270783;-0.009696635;0.029726198;-0.046392854;-0.24236053;0.21637715;0.05235604;0.17284031;-0.119021244;0.076322205;-0.084333666;0.10173035;0.049855612;0.2136825;-0.09438273;0.04187879;0.046998754;-0.076209255;0.03320964;-0.03763398;-0.008315331;0.01564103;-0.06874066;0.037413962;-0.07831084;0.03924384;0.02037763;0.10548875;-0.05429969;0.22759469;0.084769495;-0.057082392;-0.006429609;0.07227892;-0.038059637;-0.01183047;0.05283712;0.026980363;0.001237918;-0.03798938;0.10305271;-0.09235593;0.087986;-0.16628878;-0.010966944;0.021372052;0.06598712;0.027447404;-0.15958242;0.015081926;-0.013137072;-0.07323393;0.12887438;-0.023306392;0.021203881;-0.15389065;0.08365318;0.035938937;0.07922097;0.055069644;0.05689696;0.040461313;0.071377054;0.16550562;-0.05126312;0.038564313;-0.13592601;0.1599245;0.06492971;0.0050539207;-0.06400798;0.018088302;-0.07194455;-0.0038021414;0.07716254;0.12452236;-0.034845293;-0.00083346356;-0.007958484;0.02499679;0.051953588;0.17173524;-0.028284617;-0.07768623;0.057736613;0.3286244;0.049734198;0.040983927;0.007460178;0.021706225;0.038556572;0.03200152;0.030293688;0.18551429;-0.019039754;-0.06152911;0.098566435;0.19832519;0.023819344;0.07009833;0.12819716;0.08962691;-0.061806377;-0.09542271;0.00019132867;0.08478746;-0.018078681;0.06037537;-0.2685391;-0.11374894;0.099067874;0.22986493;-0.07518513;0.04417576;0.053797726;0.13735268;-0.04391114;-0.0336372;0.09152949;-0.15415774;0.033150118;-0.013582027;0.102324545;-0.067122065;0.047156766;0.035503548;0.030557211;0.009006604;-0.031442627;0.2310807;-0.13493754;0.045387305;-0.04669118;0.024425205;-0.070801154;-0.044714488;-0.016583383;0.09966211;0.080522396;0.12508966;0.050932053;-0.13154933;0.0805119;0.019098531;-0.038314093;-0.47407332;0.048925463;-0.045189675;-0.045548607;-0.08306246;0.08625769;0.11592621;0.018324807;0.15582204;0.05748913;-0.078797676;-0.03877564;0.0397316;0.28498125;0.062001936;0.052053224;-0.09572875;0.043853074;0.13132265;-0.06785447;-0.16621423;0.056229237;-0.0111736;0.008144126;-0.022260085;-0.008756587;-0.054371357;-0.054842476;0.054221325;0.048796907;0.08721327;0.04206285;-0.2558993;0.022538876;-0.032469846;-0.13260211;0.07488212;0.1147108;0.045527507;-0.047971044;0.023031281;-0.07095182;-0.1522476;-0.04358932;0.03045155;0.2668414;-0.012893137;-0.15654196;-0.049572103;0.1603782;-0.04061407;0.015881756;0.076217875;0.07288618;0.071808614;0.07616193;0.036080204;-0.033295132;0.0063593173;0.06838903;0.061979234;0.050268136;-0.08918747;-0.043580666;-0.030591173;-0.09886879;-0.0007545897;-0.06293064;0.04171756;-0.06053932;-0.034051105;-0.024233151;0.010668082;0.08653484;0.05973311;0.018119322;0.014515324;0.061162688;0.0003753585;0.061795186;0.08554598;0.0016217788;-0.0586936;-0.029348657;0.014729628;-0.069883466;-0.00088545086;0.031070631
0.11600915;0.026099171;0.008595014;-0.07376529;0.021595191;0.11038817;-0.057487987;0.057360094;0.07737053;-0.13610342;-0.051935427;0.2932036;0.23559587;0.14246532;0.074890986;-0.01554606;0.005919059;-0.089630306;-0.034831602;0.023133196;-0.08126367;-0.027919002;0.09100233;0.0038153804;0.025303185;0.025195004;-0.009574584;-0.0966763;-0.05023442;-0.0012605683;0.03013162;0.06476734;0.026895316;0.15462479;0.049610782;0.037176214;0.050011516;-0.18175529;0.03905063;-0.07311957;-0.035577327;-0.046979334;0.09717579;-0.08768624;0.029714543;-0.059234176;0.055969734;0.02044427;-0.0026709023;0.0582286;0.1728221;0.22302143;0.06928763;-0.02758818;0.0037672794;0.06156058;0.09503916;-0.1741605;-0.10163498;0.0428846;0.09165311;-0.23909228;-0.17652273;-0.0944226;0.0718437;-0.0072111697;-0.07374729;-0.04613622;0.022433285;0.024180237;0.033088133;0.026276933;0.016359447;0.001672067;-0.07040353;0.13074963;-0.016547693;-0.020258147;0.090366;0.029189236;0.12797192;-0.026931478;0.041439544;0.054927837;-0.21993794;0.09812167;-0.0497456;0.040020224;-0.02128024;-0.036420543;0.06090402;0.027826;0.039722532;0.076883905;0.071598694;0.0005074132;-0.0015529381;0.04905683;0.19679214;-0.06697608;-0.029302048;-0.011920684;0.119732454;0.11760838;0.029197903;-0.026716573;0.009113102;0.059571728;-0.011325851;-0.011779284;0.07841904;0.07099706;-0.03765264;-0.067853674;-0.009515255;0.045678895;-0.0003535055;0.034156207;-0.06190117;0.05727355;0.02206424;0.03352066;-0.051998544;0.02914135;0.08247847;0.008735109;-0.07783741;0.20139176;0.046841647;0.034145005;0.06684417;0.1006381;-0.058341444;0.10501211;0.11591797;-0.13299635;0.0068607386;-0.056761246;-0.09435323;0.05981349;0.0016811404;-0.006057418;-0.27935055;0.091454245;-0.028382353;-0.0124689005;-0.04269624;0.051632013;0.08690221;0.056965448;0.1293029;-0.020529319;-0.022658046;0.01675716;-0.02873258;0.06921942;0.015533358;0.025190253;0.03602345;0.094008155;0.039738063;0.017858552;0.024856178;-0.03726682;-0.12719414;-0.04981462;0.1469187;-0.05423731;-0.045089204;-0.028774979;-0.02764067;-0.034173667;-0.09405903;0.015229472;-0.05623175;-0.0565888;0.09376532;0.052778345;0.039975278;-0.03450744;0.02576985;-0.081541374;0.34969053;0.10481404;-0.06763392;-0.08467728;0.03865253;0.002340129;0.062411703;0.021302765;-0.05402121;0.069964774;0.0637793;0.065683976;-0.051006615;-0.06595041;0.0013017805;-0.0022010785;0.107802905;-0.022481557;-0.007930359;-0.07268966;0.03522006;-0.13685517;-0.072817706;-0.05068654;0.006075406;0.12776564;0.02957521;-0.1086866;0.022356397;0.047976673;0.070082046;-0.041928332;-0.100469396;-0.033430472;0.0036462059;-0.0007525594;-0.053125307;-0.059840113;-0.07546499;0.019443173;0.19486837;0.04938692;-0.01799232;-0.04669504;0.069133006;-0.083907306;0.16807778;0.09050306;-0.0279836;0.035076037;-0.024480423;-0.071569264;0.16922455;-0.042891145;-0.07910751;0.09882119;0.029306263;-0.05138387;0.014629022;0.25402316;0.054703396;0.036375593;0.01701748;-0.014220453;-0.34100264;-0.07107431;0.0066530844;-0.10792328;-0.044824615;-0.05304621;0.034004975;-0.0857626;-0.054733865;-0.079085134;-0.01612347;0.009065108;0.049395233;-0.06142897;-0.10316257;0.18429881;-0.086281575;0.00096868485;-0.09492776;0.0408334;-0.07043569;-0.06992139;0.187758;-0.03713117;0.08699148;0.037679117;0.0664138;0.002711709;0.03774326;0.074714474;0.07266827;-0.0629689;0.018249527;-0.017946115;0.060176067;0.048460655;-0.028503595;-0.03981165;0.06688745;-0.09714165;-0.08724517;0.07790468;-0.04563141;-0.2209128;0.11578183;-0.0018494125;0.008982726;-0.03461802;-0.1298631;0.052831862;0.026972746;-0.067534484;0.024588412;-0.030484661;-0.14712225;0.026512615;0.056014586;0.14924234;0.058873605;0.0545672;0.106575616;0.010744663;0.013571537;-0.06514587;-0.009648361;-0.011110931;0.07548103;-0.078486554;0.075906575;0.027481155;0.027487809;-0.09393962;-0.042473886;0.042512722;-0.08744799;0.12834102;-0.03965958;0.05490205;-0.019030487;-0.49601865;0.13326429;0.013412322;0.05472142;-0.16535303;0.04652097;-0.08713277;-0.15155503;0.040836748;0.06946997;0.020735549;-0.2255982;-0.049083374;0.029428586;-0.052979358;0.06745534;-0.024673188;0.059514925;-0.032527152;0.06844307;-0.04169376;-0.03257163;0.099830255;-0.039149575;0.14675327;-0.13779001;0.04444621;0.04459982;0.028373165;0.037044317;-0.046150785;0.20486008;-0.084861465;0.028466925;-0.021685518;-0.13647619;0.055956766;-0.14688955;0.00017282249;0.059291407;0.04691948;-0.057932954;-0.12812144;0.10990825;0.081884034;0.04770444;-0.16444992;-0.30479562;0.12706776;-0.0005194314;0.0021148683;-0.003597113;0.061953373;0.0182094;-0.003043244;-0.114016645;-0.07629737;0.038620077;0.082876906;0.06910729;-1.7415028e-05;0.00024700898;0.023972765;0.2202258;-0.44131625;0.07597943;0.0773806;-0.10473532;0.054761518;-0.104251236;-0.05523053;0.03185503;0.07265134;0.004215735;-0.072845764;0.11016348;-0.0015993363;-0.043616064;-0.003422208;-0.05328181;0.10306218;-0.05648348;-0.09119375;-0.045354757;0.037329476;0.14546005;-0.13811584;-0.018547516;-0.021470906;-0.040071946;-0.001917966;0.010163683;0.18363912;0.07056742;0.07014892;0.05735059;-0.19294198;-0.025612084;-0.0013306985;0.01612631;-0.03543687;0.26090604;0.06574393;0.14789689;0.04330021;-0.10108878;-0.05210757;0.08181474;0.054196514;0.030701261;-0.009221836;0.35853213;-0.013610466;0.039458234;0.05104011;-0.05544601;0.12310769;0.27776074;-0.1158517;-0.07754448;-0.09373726;0.08923021;-0.097411014;-0.06662651;0.07421238;0.03575463;0.06501317;0.023231145;0.05015463;0.09022145;-0.008950543;0.04155624;0.089792915;-0.0026691444;-0.036260165;0.11615045;-0.061070964;-0.054658823;0.01315898;-0.054789294;-0.37384677;0.3130321;-0.08882934;0.024372896;0.10968859;-0.051593676;0.06564548;-0.07929858;-0.06781833;0.0026568351;-0.02932664;0.083694085;0.1664489;0.056966886;0.0025452364;-0.003742552;0.08994465;0.05724076;0.022796476;-0.07230995;-0.05483188;-0.035227824;-0.06853234;0.05509511;0.009256035;0.19284746;0.023910042;-0.06649232;0.1171235;0.034149893;0.06662834;-0.44579107;0.072107375;-0.009571256;0.13944808;0.026982838;0.14966232;0.029963756;0.0037455312;-0.049172197;-0.04903551;0.2703624;0.06843061;-0.23980711;0.037584443;0.09889215;0.22606967;0.06307128;-0.029904068;0.022208024;-0.029504899;-0.3090539;0.07611219;0.026244177;0.04502341;-0.026341265;0.1110313;-0.09399044;-0.11803103;0.041363765;0.09743187;0.008685703;0.044133313;0.056739848;-0.040258862;-0.1861246;-0.07694118;0.24429683;0.04842193;-0.023483593;-0.070371486;-0.033098117;0.1896173;0.07040387;0.008799655;-0.10281098;-0.06508232;-0.03646769;0.067994416;-0.11980862;0.0536381;-0.057973534;-0.047604542;-0.08141872;0.046187203;0.08864164;0.052003853;0.021712141;0.24008141;-0.057674155;-0.009512512;0.020369787;-0.040326536;0.06171114;-0.0651682;-0.03338883;-0.05425328;0.07415071;-0.06336803;0.05362163;0.013167466;-0.05191211;-0.013428072;-0.033159703;0.06533485;0.030596951;0.073060855;0.11008282;0.044791896;-0.108160205;0.07209288
-0.0988827;0.11165035;-0.00346164;-4.7899724e-05;-0.019438505;0.10402519;0.046842005;0.020080797;-0.048325945;-0.079656444;0.106400736;0.2606841;0.03584393;0.06664351;-0.04688153;0.03954489;0.1559317;0.076862484;0.0016408728;-0.036061034;0.057363406;-0.03800695;-0.06814251;0.06417065;0.11557956;-0.31914815;0.09551467;-0.023087153;-0.045710597;-0.013017551;0.15441224;-0.18177874;0.087340616;-0.074538074;0.0531699;-0.19774494;-0.08334291;-0.13549039;-0.043066613;0.058653474;0.0044502337;-0.071925595;-0.12945253;-0.058486436;0.1883109;0.012691068;0.12315117;-0.06703971;0.049548287;0.027602151;-0.10369387;0.15295961;-0.016832735;-0.04412485;0.06973799;0.061483435;-0.0013598558;0.048503194;0.0020013356;-0.0031159048;0.017947912;-0.047169864;-0.047636118;0.074616514;0.03494503;0.05643205;0.029467866;0.033242173;0.028089875;0.02789096;-0.10075982;0.06507128;0.069365315;0.0047211;0.061058033;0.15819122;-0.04627766;-0.08417082;-0.033693016;0.1028476;0.06526515;0.09748225;-0.0069327676;0.06624481;-0.27199325;0.052781846;0.015911348;0.01440664;0.03378479;0.018604167;-0.050505076;0.18756714;0.05974829;0.09181006;0.027052708;0.06222437;0.09118318;0.046545807;-0.061376885;0.101165704;0.011271582;0.03894368;0.0625268;0.16225749;-0.03939015;0.01722275;-0.014045699;-0.0893611;-0.045162506;0.023152852;0.0015989824;0.07730292;0.084856346;0.07224822;0.0930595;-0.025039485;-0.0054377345;-0.07651;-0.13695899;-0.045012567;0.11828756;-0.033933993;-0.025304027;0.007659923;0.041675355;-0.0027184344;0.020941641;0.01803105;-0.047037918;-0.027988723;-0.044273853;-0.0450074;-0.13565427;-0.01170202;0.1417183;-0.12883136;0.14658637;0.04333386;0.03875019;0.14453173;-0.029083323;-0.07087296;0.012971219;-0.107874304;-0.115016855;0.05521311;0.10427245;0.19998394;-0.032468706;0.068271026;0.25522292;-0.081910744;0.09420307;-0.19975105;0.02424365;-0.015636798;0.052584413;0.037365887;-0.06686982;-0.10710062;0.010498599;-0.043730512;0.09833215;0.050502516;-0.03912668;-0.09239292;0.18156849;0.06488951;-0.05357278;-0.013296859;-0.039797585;0.009719882;-0.0035916544;0.058036596;0.02470379;-0.038495325;-0.07130673;0.050615225;-0.06872341;0.027721323;-0.0065077166;0.091068305;0.13536173;0.14632551;0.03480406;-0.050443444;0.019535284;0.15783346;-0.10506607;-0.08334293;-0.00032489837;-0.1169081;-0.05062076;0.0125779435;0.028474152;0.06696328;0.0023031996;0.028010279;0.11657831;0.023229731;-0.0057325047;-0.06432423;-0.04419614;-0.2334182;-0.1196157;-0.007396632;-0.04909364;-0.14502509;-0.0014366548;-0.029708201;0.018426795;0.04343679;-0.068312585;-0.048242554;0.071715176;0.023363134;-0.00071630656;0.04454902;0.015196436;-0.088096954;-0.0011772296;0.07222362;-0.042055838;0.14779566;-0.19057111;0.018585997;-0.01599857;0.012193728;0.1702568;0.0034880876;0.018328762;-0.064786576;0.09659317;0.049379896;-0.07743543;-0.07471536;-0.043150872;-0.082314156;-0.109800376;-0.017683834;-0.04958544;-0.018236695;-0.0063224165;0.06981912;0.013753734;0.043281347;-0.12829858;0.06431005;-0.0041977637;0.02280633;-0.0072716023;-0.075249106;-0.004272785;-0.20673597;0.0639543;-0.06727013;-0.032764226;-0.09412349;0.03538532;0.051103078;0.013421886;0.1336572;-0.018199509;-0.08178708;0.066560276;-0.0475641;0.060832225;0.23056802;0.011643735;-0.12670714;0.069565855;0.021929936;-5.4457836e-05;-0.1687154;0.0056488737;-0.00845771;0.016664866;0.008796977;-0.09120178;-0.06352352;0.15682867;-0.011748764;-0.03557067;0.07771037;0.12748101;-0.025313366;0.042608965;-0.00018180165;-0.036811203;-0.015780456;0.053372953;0.098415226;-0.045026872;0.054492183;0.03943087;-0.008047089;-0.00754831;0.02613315;-0.049941484;0.037020314;-0.09990912;0.11222536;0.048317082;0.19903786;0.0066174;-0.030874502;0.014858672;0.031521913;0.0010864127;0.008433105;-0.029030427;-0.23159966;0.02709143;-0.061764505;0.04804173;0.078854196;0.0012822192;0.060800716;0.11388481;0.1451859;0.0098918695;0.16752185;-0.0026534703;-0.04858504;-0.14206493;-0.3841972;0.05795437;0.080486126;0.005046771;0.041391805;-0.064913526;0.06883234;-0.008170224;0.059529684;-0.04672402;0.13291919;-0.14739713;0.0581064;0.15107478;0.01904881;0.0015988016;0.065764286;0.045072526;-0.08914733;-0.005330329;0.06613173;0.064766526;-0.04708671;0.08752512;-0.025050163;-0.2548449;-0.10209018;0.023438161;0.030799218;-0.043471348;0.053761013;0.16009511;0.021117117;-0.06315782;-0.050822202;-0.02532412;-0.064807065;-0.29973388;-0.057862263;0.021110414;0.024635466;-0.036653724;-0.14355613;0.05374612;-0.07068422;0.023419362;-0.03265615;0.09403914;-0.08725909;0.012479177;-0.06202168;-0.08913328;0.03820677;-0.0076841945;-0.10929568;-0.12542775;-0.0260878;-0.07054521;0.016442131;-0.0060002552;0.047229037;0.06933526;0.05377439;0.12735727;-0.24390358;-0.06671056;-0.30411035;-0.12998344;0.05140114;0.11885361;0.060471296;-0.09548635;0.08562588;-0.18532145;0.0033796276;-0.041471038;0.025485223;0.050174125;-0.120570205;0.01638673;-0.05771863;-0.08422426;-0.048282903;-0.03271533;0.12459195;0.055262517;-0.021172136;-0.056581;-0.03221418;-0.06086406;0.014448311;0.059786998;0.030783502;-0.043148734;0.044664506;-0.09321277;-0.1031767;-0.12079848;0.068602726;0.10929113;-0.10605761;0.2564906;-0.0557136;0.18698302;-0.06867713;0.032297276;-0.106656894;-0.04918984;-0.003912067;-0.051100407;0.024838088;0.26122537;-0.010362946;-0.053594705;-0.001835266;0.105282664;0.14121634;-0.20941079;-0.033669297;0.030404324;-0.10507313;0.086657986;-0.121419676;0.0695105;-0.036029372;-0.0074067065;-0.29093817;0.031429566;-0.03152074;0.0802173;0.024647605;0.045890383;0.09495141;-0.14420807;-0.043530878;0.18248981;0.01448028;0.06895244;0.055218514;0.005838017;-0.20195769;0.103334606;0.08973446;0.08467178;0.11428912;-0.037188884;-0.0008362918;0.038574453;0.09101181;-0.02855898;-0.027225725;-0.014902028;0.06191488;-0.04368025;-0.068876825;-0.03475734;-0.045854274;-0.053723797;-0.15778881;-0.055487152;-0.020036608;-0.0439262;-0.053935293;-0.12982388;-0.09321932;0.17427893;-0.05575299;-0.064062156;0.066836;-0.06450557;-0.076799065;-0.105388656;-0.0025164955;0.032084227;-0.024545774;-0.037583042;0.0773602;-0.1839949;-0.14131735;-0.078683205;-0.047834232;-0.11493358;0.083655305;-0.103204265;0.0015501104;0.117433034;0.14142351;-0.032457355;-0.016746536;-0.04655009;0.071209915;-0.20202844;0.037472386;0.019843463;-0.019799288;-0.12371968;0.15424155;0.03256495;0.21070911;0.024260426;0.0037627546;-0.019210199;-0.11014547;0.04552045;0.05975151;0.018193884;-0.036034234;0.13513099;0.09364358;-0.028752804;-0.15596063;0.11618133;-0.083248936;0.03570751;0.037397314;0.057936326;-0.00082659855;0.14562161;0.119706266;-0.0076395543;-0.033741094;0.020375783;-0.053958453;-0.15779826;0.113322094;0.029364625;0.09153589;0.09629244;0.044683382;0.026898207;-0.029717293;-0.030533409;0.05262046;0.029477129;-0.006362554;-0.018131977;0.025044164;-0.178437;0.04980153;-0.0020751234;0.09567653;0.0205173;-0.04025763;0.07616593;-0.0912843;-0.055677447;0.08056834;-0.0092659695;-0.06166643;0.012539108;0.00947436
-0.089069955;0.048189703;0.0780364;-0.06725141;-0.050265778;0.101076506;-0.005477938;-0.088515;-0.007955501;-0.09204322;-0.064292505;-0.19849361;0.15729943;0.27692205;-0.04927678;-0.16811709;0.06476337;-0.019220162;-0.046238273;-0.04869718;-0.08305163;-0.007851467;0.14852577;-0.07738576;-0.054487146;-0.23148394;-0.027020011;0.045255125;0.06813896;0.13061404;-0.01526997;-0.12463801;-0.04085153;-0.16901648;-0.027104713;-0.101352125;-0.027694434;-0.05907729;0.015997097;-0.025272205;-0.040462207;0.06928125;-0.121325314;-0.060053587;0.13629028;0.0887448;0.007464676;0.031007074;-0.016261557;0.00567952;-0.094462685;0.22602594;-0.06099803;0.049000967;0.019202264;-0.010578694;0.027355695;0.09959766;-0.06319748;-0.059360716;-0.0814448;-0.24467662;-0.021586757;-0.10866042;-0.0038742411;-0.046165492;-0.17719138;-0.056812882;-0.053609494;-0.007423549;-0.049293235;-0.08917689;-0.02228429;0.0007397115;0.06106689;0.033309862;-0.03115446;-0.21460046;0.029523881;-0.0033073104;0.010476395;0.008538807;-0.13062462;0.1112853;-0.070472814;-0.008722017;0.02891562;-0.012778782;-0.108969815;-0.08741879;0.00029768172;-0.15480335;0.03696753;-0.025748044;0.09594306;0.010294488;-0.0387366;0.12357341;-0.010225719;-0.02137192;-0.049860317;0.07302898;0.21009156;0.20967641;0.054268327;-0.033016812;-0.08569169;0.0042080656;0.03219187;-0.066176705;-0.043502044;0.004833138;-0.041029584;0.05109573;-0.052569363;0.04274305;0.058349103;0.03855825;0.013266781;0.07650592;0.0736867;0.04972475;-0.032355543;-0.08196394;0.087221116;0.0059433845;-0.053156096;-0.101738594;-0.03587357;-0.023875555;-0.011826135;-0.0116686225;0.062082782;0.07014423;0.025391202;-0.2924494;0.110428244;0.08242161;0.04975353;0.04061137;0.002545153;-0.048929214;-0.01168309;-0.025382832;0.022887927;0.014299884;0.07393475;-0.06576261;-0.020636136;-0.026636118;0.15104334;0.0019296655;0.17306608;-0.19024372;-0.033422563;-0.07075912;0.06066764;-0.11577027;-0.0318176;-0.22561489;-0.0012422905;0.1271521;0.18426004;-0.03161752;-0.0958246;0.08178313;-0.053751953;0.03938597;0.0072071557;-0.00083491264;-0.05235941;0.04017806;0.013089808;0.08966202;-0.008676002;-0.027436975;-0.10571462;0.049774084;0.008373445;0.095338896;0.0014803931;0.06074366;0.13443376;-0.07236867;0.050928734;-0.11380023;9.385704e-05;0.26643765;-0.22137004;-0.07686169;0.076051764;-0.1630529;-0.030782215;0.08336416;0.017951582;0.057282966;-0.08412325;-0.00093652244;-0.065771066;-0.12344351;0.03353569;-0.014025482;0.008926476;-0.23507558;-0.18840837;0.09868178;-0.02496467;0.085234515;-0.020402532;-0.020222794;-0.0011148573;0.12328016;-0.029028734;0.0868464;0.08372212;0.09341424;-0.0009749358;-0.013426333;0.015118072;-0.11156293;0.09137949;0.055099174;0.047425408;0.08325144;-0.049367085;-0.057196833;0.077423126;-0.007876721;0.093330026;0.016424144;-0.012924804;-0.027209021;0.048568133;0.03633241;-0.22874725;0.0070837294;-0.002583194;-0.07310311;-0.006645348;0.034136675;0.07416979;0.1852961;-0.0011952074;-0.08979816;0.049900446;-0.0064234845;-0.26382375;-0.08395399;0.05608804;0.08001599;0.03579236;0.04217289;-0.0004143146;-0.2059341;-0.049632944;0.049413133;-0.041084882;0.02368647;-0.045592654;-0.013664006;-0.07442203;0.13150099;0.053070538;0.004321802;-0.06718028;0.07151409;0.1663558;-0.05984021;0.039841272;0.043693457;0.055602226;-0.011746847;-0.10851425;-0.018461537;-0.035881374;-0.00017248868;0.019536702;0.056667272;-0.01586812;-0.046403628;0.04896085;-0.04372658;0.06243374;-0.060684364;0.003909225;0.056685865;0.010730216;0.017345767;0.092002094;-0.27064306;0.17099239;0.06726284;-0.069439895;-0.008935975;0.021246511;0.07299851;0.06129235;-0.03420961;0.0061593233;-0.045345385;-0.0831572;-0.04675587;0.046061892;0.0024395844;-0.0093223015;0.1449152;0.09785989;0.041219342;0.014526069;0.01644058;-0.03478761;0.0041597914;-0.052520204;-0.003987501;-0.09529234;-0.054046806;-0.08366332;0.06987566;-0.055757944;0.036323544;0.06258276;-0.017148733;0.13352996;0.004571321;-0.057741977;-0.38298896;0.025397822;0.039166834;-0.07415423;-0.21338518;-0.013188694;-0.01929216;-0.048601564;-0.09439815;0.017603094;0.08015916;-0.20716256;-0.024389256;0.11796305;0.04631844;-0.06517352;-0.04624857;-0.042736284;-0.065970235;0.08686301;-0.07787033;0.12088926;0.29461348;-0.080782674;0.07552571;-0.26839274;-0.079143755;0.04974598;0.0022183792;-0.030643115;0.026519297;0.07592401;0.08873712;0.044875335;0.014829938;-0.08957926;0.0033242642;-0.11566608;0.049602624;0.053615887;-0.031044574;-0.056635045;-0.17552264;0.0078334855;-0.009100866;0.043587998;-0.1862028;-0.06324129;0.108695604;0.10606163;-0.0842387;-0.097987786;-0.004796258;0.091010876;-0.10760494;0.054715257;-0.09148666;-0.08405336;0.019441184;-0.030216085;0.028431315;0.06552411;0.056803063;0.12994826;-0.20410317;0.06699535;-0.22538254;-0.05028744;-0.07531803;-0.080447026;-0.20176324;-0.05229198;0.092044905;0.028303249;0.07249404;0.0026628796;0.0144742085;0.049444497;0.001742252;0.029086275;0.017014166;-0.03663496;-0.12369275;-0.047176592;0.022430819;-0.08939783;-0.1881283;-0.0035667229;0.05905206;0.050249144;0.02919702;0.04449639;-0.050677665;-0.08219863;-0.07359385;-0.059355263;-0.08711369;0.027319152;-0.054905817;-0.045589987;0.016644176;0.04771105;-0.1123723;-0.024601199;0.0020775725;0.027349938;0.008987511;-0.035056256;0.027656358;-0.06715091;0.06023646;0.15159014;-0.04057349;0.009000003;0.0068685287;0.057785623;0.06796007;-0.25769705;0.050842967;-0.012241338;-0.09556049;0.0527758;-0.10015032;0.06280945;-0.058993515;-0.15234224;-0.20174584;-0.036170192;0.0413292;0.0046711247;0.06674341;-0.05721007;-0.106681004;0.037643675;-0.04295605;-0.10219681;-0.023152398;0.07848401;-0.062977515;0.08483707;-0.17270987;0.114903264;0.035559308;0.004535878;0.010374357;0.044133227;0.23411362;-0.095766604;0.013981336;0.14426778;-0.043545906;-0.0035792196;-0.01223875;-0.041099597;0.047481284;-0.054037176;0.007368596;-0.0038231018;-0.018807301;-0.1104713;0.05262529;-0.029465323;-0.074549265;-0.042517785;0.0184276;0.036182888;0.12810701;0.048557352;0.04489477;0.088697806;-0.015624219;-0.23074983;0.039875552;0.008523444;0.094766386;-0.11305527;0.15238968;-0.1802685;0.087155126;0.069284685;0.030166747;0.0054336004;-0.0067853234;-0.08000506;-0.013397492;-0.025990993;-0.09783226;-0.058316886;-0.06945339;-0.095994934;-0.062278513;-0.08814228;-0.021557424;0.009729047;-0.022231646;-0.105563;0.21600206;-0.030921368;0.12739842;0.10546107;-0.084507436;0.040481094;-0.033088613;0.038946994;0.07165914;0.09643432;-0.060542215;0.1247314;0.050701547;-0.045808434;-0.023788804;0.030440867;0.06622651;-0.064941876;-0.083185464;-0.031085227;0.008239646;0.22712263;-0.053670116;0.07394011;-0.053558484;0.04841265;-0.054490894;-0.051370464;0.051038247;-0.016481677;-0.05112591;0.06968625;0.20920151;-0.004361884;-0.043199744;0.05094558;0.09088873;0.00035105826;0.046743196;0.050042022;0.00094293;-0.12710132;-0.07774425;-0.10751451;0.07778812;0.05332478;0.04332359;-0.045291014;-0.020602172;0.08963548;0.07906494;0.12637529;-0.07135942;0.058027748;-0.028148402
-0.0037499627;-0.06787957;0.07505598;0.057812158;0.009066381;0.0035350907;0.0016360529;-0.029517299;0.029382762;-0.1296462;-0.0824863;-0.18572097;0.042346913;0.21182011;-0.10077856;0.07935804;0.12255316;0.068280734;-0.23618214;-0.0045819776;-0.042741813;-0.063054465;0.13463478;-0.08473757;-0.07071087;-0.062728204;-0.08063877;-0.03942471;0.0072015105;0.14362039;-0.09288691;0.030006612;-0.05729061;-0.06032626;0.027717546;0.04350863;-0.05051544;0.056717385;0.027098991;0.09980279;-0.048364855;0.06596085;-0.056261316;0.057795014;0.22327045;0.025608702;0.061798166;-0.04299338;-0.009060208;0.040426303;0.16197948;0.06420914;-0.08133339;-0.07117134;0.053544484;0.0361123;0.0016498601;-0.05553011;0.03599472;-0.004262147;-0.05540959;-0.123727605;-0.05274492;-0.114403434;0.012819631;-0.087584496;-0.13511497;-0.041335333;-0.10928906;0.042433828;0.0034562543;0.026017306;0.039246533;-0.016265722;0.17298493;0.13176672;0.02605581;-0.12925185;0.014821042;-0.05096341;0.043114733;0.0060793944;0.046594072;0.015936825;-0.12811744;0.031726263;0.07348318;-0.06330685;-0.0032359317;-0.088884085;-0.002135897;-0.024851501;0.027935699;-0.074936844;-0.034643758;-0.029260142;-0.042137075;-0.0064129606;-0.06611523;-0.091842435;0.093948126;-0.00057336455;0.10977227;0.180814;-0.09332299;-0.0047178306;-0.025091507;0.026771065;0.01758626;-0.041152142;-0.046720684;0.012615022;-0.04356207;0.011550823;-0.074365094;-0.22195317;0.01432718;-0.034955543;0.10625737;0.046589453;-0.060586736;0.09091704;-0.029159604;0.09357011;0.0038129955;-0.022505345;-0.03427579;-0.061292678;-0.05768762;0.006801797;-0.025375664;-0.016684622;0.08179858;-0.051211037;0.040562015;-0.094681084;0.10924454;0.04005173;-0.006153064;-0.0025200967;0.025976857;0.018188141;-0.14032994;0.016207512;-0.08400458;0.021186544;-0.105477594;0.01340034;-0.115236536;0.018559951;0.24369527;0.051111486;-0.08475309;-0.18507536;-0.08363496;0.028848452;0.04883237;0.14729448;-0.14976606;-0.078922324;-0.006945607;0.119462796;0.06474319;-0.038321696;-0.0972325;0.0074646343;0.03578396;0.052741393;0.029781258;0.042949114;-0.053105254;-0.025003532;0.06440411;0.04009052;-0.08117512;-0.019917043;-0.0022360121;0.029729346;0.10755026;-0.066124275;-0.06394996;-0.036999647;0.15740928;0.033677205;-0.026405877;-0.086852014;0.020019522;0.08620807;-0.11968793;0.008666567;0.0014493123;-0.07530866;-0.057747427;-0.010161242;0.03881396;0.09655142;-0.0611213;-0.0046316925;-0.15175354;-0.03721137;0.039054185;0.051878545;0.08646526;-0.27444294;-0.12567797;0.042434424;-0.058331534;0.13675047;-0.014426448;0.043338474;-0.08907902;-0.03027847;-0.070083335;0.10163625;-0.0147648435;0.05461133;0.061058313;0.0043745404;-0.037980597;-0.0072055203;0.084797576;0.06384671;-0.02507178;-0.0007143277;-0.14269222;0.0020760226;-0.034750327;-0.091874346;0.14162695;-0.002665189;0.059432756;0.029298533;0.016418079;-0.059454907;-0.24935484;-0.0023183068;-0.034808144;0.019910412;-0.034272403;-0.0020192044;-0.06415746;-0.035748567;0.06148584;-0.087459385;-0.024053263;0.06675516;-0.115082055;0.006527097;-0.026570179;-0.2408007;0.04537605;-0.028986473;0.041953772;0.009752676;0.05039608;-0.0017221308;0.08679153;0.0022547664;0.07399688;0.09007458;-0.047061175;0.07393551;0.07872205;0.05745093;-0.077180915;0.010761743;-0.09831882;-0.028455373;-0.03804911;-0.07419179;-0.0015853407;-0.07121342;-0.0013215692;0.09322764;0.031941257;-0.01517117;0.03353899;-0.11057685;-0.03491189;0.01014281;0.11338261;0.020236528;0.018792966;0.063549854;0.059416547;-0.054975383;-0.05970869;-0.014661039;-0.047706347;-0.1983536;0.04177159;0.14729829;0.12400767;0.03994194;0.07538711;-0.025855184;-0.012875942;0.07382638;0.072988406;0.0029029348;-0.028508222;-0.1753768;0.05630098;0.022724856;0.013227345;0.043185305;0.05294843;0.009325528;0.057132855;0.03095757;-0.029869491;-0.071161896;0.084179275;-0.0876154;-0.040265683;-0.005290865;-0.08503022;0.055273317;0.005323863;-0.024083188;0.016806565;-0.2046776;0.116086625;0.02188593;0.06804062;-0.23350687;-0.07425247;-0.030087354;-0.02080954;-0.053919666;0.004512864;-0.023890195;-0.04479797;-0.011991598;0.039352715;0.011265825;-0.50599366;0.067208916;0.054523546;0.009466184;-0.042737506;0.044027444;-0.0901149;0.10163264;0.037423182;0.019614618;-0.03358457;0.25885266;-0.13070968;-0.12610899;-0.117177494;0.07985449;0.0824304;-0.05256488;-0.037669983;-0.15075216;0.025621196;0.099430814;-0.027822804;-0.0147712305;-0.0074693807;-0.05338942;0.06494703;0.01792694;-0.046015248;-0.084002115;-0.047025375;-0.4494902;-0.04707663;-0.025994845;-0.03581363;0.0131112;0.01309364;0.00054649776;-0.0052384106;-0.017396547;-0.05150873;0.0023409578;-0.081561126;-0.027062757;0.064671256;-0.119382;0.0015138224;0.031545676;-0.09982952;-0.050033305;0.037960812;-0.05599698;0.10886655;-0.44681504;0.03687065;-0.166017;0.036276076;-0.025247268;-0.056700513;-0.23926905;0.06984321;-0.04850717;-0.22038063;0.030923996;0.0054504983;-0.032004807;-0.057653587;-0.006776686;0.08804222;0.01814303;-0.0085080275;-0.1648956;0.07393843;-0.021511616;-0.02763339;-0.057724852;0.035321645;0.10636766;0.05927778;0.026067827;0.0031200175;-0.1219893;0.02635228;-0.045382313;0.08107254;0.011754135;0.033897962;-0.008273152;-0.06833232;0.059197214;-0.057507034;0.050518777;-0.07700257;-0.030314278;-0.16287987;-0.10917148;0.018195758;0.028982071;-0.01678886;0.07313478;-0.011215586;0.080532454;0.08586024;0.04079557;0.069984205;0.39611045;-0.15518928;-0.05960562;-0.0019305393;0.04374908;-0.018649207;-0.03038138;-0.052900225;0.043150008;-0.045764662;-0.3501763;-0.06514394;-0.028551335;0.0450994;-0.009823735;0.06726712;-0.029182425;0.075649254;0.124723196;0.06483466;0.010537712;0.06069421;-0.043200307;0.020908093;-0.30227703;0.038951695;-0.008820074;0.01501731;0.074483186;0.07404048;0.011672071;-0.30684608;0.07057922;0.12185545;0.013444529;-0.03390194;-0.04099304;0.060218886;0.05484465;-0.07138652;-0.08576358;-0.038252603;-0.119624265;-0.102733016;-0.17805737;-0.028248148;0.05699949;0.110821225;-0.07649447;-0.043686703;0.032025136;0.061180808;-0.019136464;-0.015994048;-0.09745768;-0.46301627;-0.13318405;0.016214274;-0.04966377;0.019352306;0.11262961;-0.042253394;-0.056233685;0.09408161;-0.061788954;-0.0900519;-0.048370272;-0.04380814;0.07974773;-0.06406903;-0.09864003;0.023689376;-0.005211725;0.043644153;0.07221543;-0.084646046;0.04852526;0.015054806;0.012568585;-0.113487765;-0.030159466;-0.038597222;0.1993124;0.057720013;-0.06138895;-0.018689321;-0.013436448;0.08805618;-0.061144356;-0.01139656;0.06432801;0.14022772;0.0015200042;-0.035773735;-0.123317495;-0.016019689;0.05967062;-0.00018947969;-0.014765448;-0.030204115;0.016642354;0.09781957;-0.048133805;-0.02345605;-0.023802884;-0.058458757;0.049240086;0.07520961;-0.041534286;0.052371655;-0.017731281;0.044415936;-0.03783149;0.076601386;-0.0076725455;0.007415786;7.182847e-05;-0.04876229;-0.004213318;-0.010743941;-0.03561459;-0.114431776;-0.01467057;-0.036167685;-0.09653882;-0.043678045;-0.06272605;0.0007787499;0.10010029;0.07367999;-0.020944513;0.08621586;-0.09200479;0.08436614;-0.082612455
-0.0053806626;-0.012800431;-0.12304393;-0.07271595;0.0619757;0.03970915;-0.087033056;-0.0077128233;-0.04409526;-0.18888389;0.034871764;-0.31837884;0.11334498;0.081522435;-0.057392877;-0.16094117;0.020261861;-0.022973228;-0.20068811;-0.05916951;0.011686743;-0.0421505;0.061348215;-0.11489034;-0.046493493;0.004854792;-0.048443;-0.026110563;0.031187827;-0.0010731762;-0.059282366;0.13524799;-0.056302756;0.030454183;-0.040894754;-0.01722396;-0.0068224096;0.05868931;-0.069176555;0.13495687;0.089816675;0.073661044;-0.09571373;-0.054375865;0.18023776;-0.027630493;0.080178246;-0.061334673;-0.027176421;-0.06990113;-0.09004557;0.15708415;-0.122338705;-0.13268097;0.12261241;0.015208698;-0.00091411057;-0.09609164;-0.047699396;-0.07392841;-0.073682316;0.0038050946;-0.116437376;-0.08074658;-0.11083432;-0.009599409;0.038492292;0.021538232;0.0477038;-0.020609709;-0.061553482;0.011818795;-0.027110055;-0.012187263;0.09215948;0.14350986;0.021858709;-0.10123356;0.0453627;0.12395773;-0.019554805;-0.007581451;-0.033551726;0.01628272;-0.15034735;0.023340244;0.1020012;-0.080306344;-0.03559678;-0.1160143;0.010962927;-0.11949215;-0.111621656;-0.09141173;-0.05184984;-0.03744497;-4.7763147e-05;-0.16244473;0.10695439;-0.044423725;0.027610056;-0.04269129;0.023822686;0.31134263;0.013855994;0.09144511;0.06945844;0.0063597527;-0.019938948;-0.0066587543;-0.039905827;-0.043756615;-0.09179419;-0.027485065;-0.060209893;-0.26942688;-0.033778872;-0.00076073734;-0.048189446;-0.0014429595;-0.04657912;-0.114590436;0.06271614;-0.056955274;-0.03787512;0.05103427;0.013531739;-0.090821885;-0.20120198;-0.12799987;0.10028894;0.113596365;0.013392735;0.07736435;0.03532923;-0.072403155;0.22379422;0.111153364;0.034429975;0.08506233;-0.06760981;0.020292737;-0.34020653;0.10355451;-0.13167387;0.0039467425;-0.058564432;0.0047081327;0.07049768;-0.074564874;0.21569738;-0.026274558;-0.039918385;-0.20263124;-0.05290524;-0.0055754716;-0.041832246;0.19776161;0.012927077;0.03992048;-0.03268378;0.08049709;0.050004605;-0.07725568;-0.2451257;-0.15271313;-0.0034797832;0.0215309;-0.05521601;0.011964952;0.056675818;0.02237188;-0.009285318;0.021883458;0.003364509;0.021091055;0.022804536;0.17152803;-0.0033984976;-0.034019385;0.04715531;0.046300136;0.22972381;-0.009169868;0.025003966;0.06398022;-0.036430776;0.103588074;0.039204743;-0.06399319;0.060833506;0.035284456;0.09893531;-0.04011749;0.010773637;-0.038625166;0.020277027;-0.011609592;-0.080202445;0.03502132;0.0091339955;-0.009845184;0.008907808;-0.2212382;-0.27256018;-0.032311924;-0.027071113;0.13928448;0.005292228;0.043935463;-0.015267115;-0.018052548;0.04139932;0.015488403;-0.22803003;-0.0569124;0.016116684;0.0017126444;-0.06232671;0.03178436;-0.10310413;-0.026108421;0.13525169;-0.090285346;0.019494526;-0.18446028;-0.07639093;-0.22360694;0.2334008;0.023686357;-0.06828612;0.053396277;0.047262467;-0.07315093;-0.21092133;-0.006072235;-0.016643966;-0.16959624;0.061713327;0.06758862;0.028816102;-0.0214242;-0.05649913;0.010380101;0.0063859564;-0.036146317;-0.04948421;0.073238574;-0.031797383;-0.100325644;-0.039501492;0.0717176;-0.029633079;0.063261464;0.0008815623;-0.100720376;0.06535591;-0.090202354;0.081329614;-0.019702468;-0.065759234;-0.038440894;-0.10249304;-5.73547e-05;-0.11203138;-0.072734885;-0.11283785;-0.06904368;-0.102379374;-0.080800354;-0.053751547;-0.08032564;0.036465175;-0.022422383;-0.020098673;-0.0076740906;-0.14707498;0.027160486;-0.040162306;-0.037365954;0.03332388;0.06735328;0.02563553;0.00055314956;-0.050211787;0.053847544;-0.06503351;-0.032642957;0.040836018;-0.2217278;-0.06567219;0.16720809;0.100340545;-0.05839049;-0.005722263;-0.06109462;-0.01558546;-0.105316766;0.021968888;-0.0373497;-0.027057242;-0.012838838;-0.085244514;0.12922604;0.011974701;0.13295695;-0.10955331;-0.022859525;0.0047901655;0.012033155;0.11082944;-0.023101805;-0.098184586;-0.061090723;0.016777031;-0.050989814;-0.027884683;0.06483822;-0.013554674;-0.057513308;0.051929522;-0.42026138;0.10969342;-0.016026186;0.01684127;-0.18843551;-0.046377145;-0.051033307;-0.009319342;-0.055212468;-0.010670857;-0.06499022;-0.054734837;0.019943329;-0.10070683;-0.15694556;-0.29714122;-0.043676734;-0.06630454;0.03855988;-0.065957315;0.025907803;0.013882669;-0.19805194;0.010768584;0.021106126;0.08688723;0.16595107;-0.16452454;-0.0016595703;-0.044716347;0.110752985;-0.042965878;0.06723856;-0.031356446;-0.14528216;0.032786295;0.03847512;-0.04123236;-0.0046489355;0.0146877;0.0029146948;0.040902786;0.049010605;-0.035371285;0.022791076;0.042514328;-0.22862354;0.07622512;-0.01777599;0.052225836;-0.03970024;-0.09839376;0.072234;-0.005482357;0.034913402;-0.15177895;0.029594038;-0.10774897;-0.010639243;-0.029494986;0.018351885;0.044008225;0.00028455624;-0.004156537;-0.14003804;0.02061006;-0.10535865;0.10076424;-0.33916947;-0.064086564;-0.11274875;0.021974888;-0.022413697;0.089120544;-0.23141223;0.0008728996;-0.031101242;-0.21833776;0.054216497;-0.076888904;0.023305865;-0.028266104;-0.046185873;0.007855131;0.02108659;-0.16694368;-0.0046240175;0.043091152;-0.14032243;0.055505864;-0.043587323;0.025905656;0.011799406;-0.038159505;-0.047345906;0.06307742;-0.03032561;0.042994756;-0.0018828853;-0.034575265;0.1633395;-0.06564509;0.048586104;0.10547491;0.02632243;0.036331367;0.019273182;-0.14121458;-0.11312218;-0.12502162;0.016095834;-0.07757985;-0.03850834;-0.047677916;0.023493381;0.012606683;-0.087916605;0.052334305;0.065641046;0.03896384;0.38690993;-0.012923535;-0.050064124;-0.011894252;0.049611215;-0.10453114;-0.052176323;0.05988954;0.06273264;-0.12686121;-0.05001399;0.058093853;-0.10620951;-0.12294869;-0.09326721;-0.066180274;-0.007207996;-0.0978091;0.08420246;-0.02812636;0.09273667;0.000108392596;0.07265465;-0.048978996;-0.12815599;0.046094846;-0.060669553;-0.07367475;0.09052147;-0.033792414;-0.109503515;-0.23631352;0.07025627;0.13974383;0.016952585;-0.03403705;0.03603029;0.0397443;-0.022437053;-0.031289462;-0.041939795;0.09204355;-0.08314977;-0.050914157;-0.09800453;0.025491416;0.011602159;0.10239155;-0.029572673;-0.14583929;0.05859455;-0.081938945;-0.07103563;-0.17353785;-0.02627295;-0.4204697;-0.051352665;0.06731397;-0.032845557;0.010104025;0.3219095;0.018165417;-0.22990912;-0.011843281;-0.0005206844;-0.18343498;-0.054951675;0.04337072;0.036336966;0.02609421;0.059344087;0.10080688;-0.0073461374;-0.010091797;0.01862216;-0.004853145;-0.095084466;0.09324752;-0.03194352;0.016002228;0.07022656;0.046852108;0.026657911;0.14770943;0.024945728;-0.054355297;-0.042665593;0.042877477;-0.07619016;-0.17693241;0.016767072;0.25105926;-0.030525243;0.022347998;0.045821097;0.0596543;0.16321577;-0.010790683;-0.0062251445;-0.1907428;0.05303905;0.07594272;-0.049149938;-0.11568375;0.10169434;0.032753106;-0.062436555;0.09027457;0.019239947;0.0021832578;-0.043923747;-0.022321347;0.23536098;-0.09158196;0.057330567;-0.07565985;0.04620683;-0.06646177;-0.034014795;-0.02375403;-0.049786177;-0.07963428;0.0347427;0.05068383;-0.0532014;-0.0027594534;0.024451878;-0.062442806;-0.0040468145;0.030540783;-0.06555439;-0.008547885;0.04831064;0.0461999;-0.028664893
-0.071206614;-0.013079065;-0.03809622;-0.01797694;-0.022218427;0.12476139;-0.102433436;0.034208134;-0.042674374;-0.20226175;-0.010048167;-0.40480924;0.053535644;0.008532878;-0.036636963;-0.1620667;0.10172416;-0.032798477;-0.049008727;-0.059544392;0.11210879;-0.09658954;-0.110767394;0.18986163;0.0116298115;0.07925224;-0.000528655;-0.042227127;-0.0877824;0.15271835;-0.06994121;0.16110466;0.08294029;-0.06973036;-0.05608276;0.073102795;0.019144168;-0.030481339;0.023469253;-0.031835716;-0.02938866;-0.008458185;-0.2975547;0.0864352;0.27056554;-0.0061302762;0.21348162;-0.044360377;0.022794697;-0.21807657;-0.06900967;0.05914193;-0.008136893;-0.07397229;-0.10545175;-0.025741246;0.0024180287;-0.07876981;0.029910892;0.046141546;0.089429975;-0.17237824;-0.08333337;-0.084964596;0.015651565;-0.0014288445;0.08826539;-0.029928334;-0.03244978;-0.035616424;-0.032558013;0.061966095;0.0070695276;0.059555903;-0.0015484771;0.06341396;-0.069950126;-0.019848665;-0.024831772;0.042584293;-0.02947996;-0.011626174;-0.019640764;0.020300789;-0.076220624;-0.06329357;0.16289157;0.014677101;0.06968767;-0.036533516;-0.08593767;-0.16422148;-0.009412582;-0.03231015;-0.12795548;0.035207476;-0.1308805;-0.13401137;0.07476549;-0.0053746896;0.05145312;-0.036928162;0.05587564;0.18072371;-0.1033339;-0.017054392;0.0028261736;-0.045653176;-0.050396793;-0.004861261;-0.08499376;0.048435215;-0.1167253;0.05483276;0.026922991;-0.1339476;0.03848157;-0.066086076;-0.008597452;0.05437845;-0.010878101;0.0722604;-0.08213749;0.057840418;-0.23069863;-0.024498029;-0.030071465;-0.06368318;-0.03266186;0.12930164;0.102551304;0.07199241;-0.06351913;0.07505914;-0.051435772;-0.065813184;0.16416885;-0.07143452;-0.058189824;0.104553476;0.05504898;-0.037887562;-0.15310223;0.046408206;-0.034735974;0.0030363372;-0.09338975;-0.042029113;0.0028605843;-0.045864124;0.2408627;0.03359402;-0.03387216;-0.09755841;-0.05783287;0.047797427;-0.06854543;0.11700401;-0.08022129;0.11216572;0.08303621;-0.009891755;-0.05973696;0.03057356;-0.23315364;-0.07218166;-0.032083623;-0.037376393;-0.18487306;0.03071607;0.04190042;-0.009129315;0.051491786;0.06322304;-0.004828901;0.024793886;-0.0065089543;0.19174546;0.015140194;-0.05260203;-0.014766082;-0.08197807;0.2915406;-0.047311798;0.035893384;-0.103843376;0.03659191;-0.063968286;0.03706818;-0.032908324;0.06588645;-0.05303611;-0.013358408;0.02947598;-0.029281747;-0.054267902;-0.05695188;-0.012716138;-0.112782046;0.053597357;-0.035599556;-0.09551855;-0.011655234;-0.034932975;-0.25159734;0.14329986;-0.07308216;-0.055520482;0.027457187;-0.05349636;-0.030982204;-0.11256047;0.015226163;-0.1333119;-0.13013306;0.040024977;-0.02329692;-0.0020242732;-0.07790318;-4.259072e-05;-0.022184787;-0.0049029174;0.0054145977;-0.07108787;-0.13106234;-0.15661545;-0.051119518;-0.24311723;0.032919373;-0.08310851;0.025011595;-0.0005543979;-0.050390415;-0.0094549265;0.057550002;0.014798593;-0.01747928;-0.067764804;0.029783998;-0.10333339;0.027874915;0.027056837;-0.07995084;-0.052989423;-0.06078556;-0.05709831;-0.079460435;-0.03907142;-0.06411976;-0.12229234;-0.011884076;-0.020839388;0.09405619;-0.067250624;0.06454276;-0.06820902;0.02688265;-0.038387977;0.020141399;-0.0013597459;-0.007896366;-0.04240631;-0.023555163;0.0138439005;-0.009684605;-0.07697332;-0.1684255;-0.25710112;0.020230072;-0.018388249;-0.082104534;-0.1364146;0.0012606627;0.049516533;-0.009099051;0.02093385;-0.039925564;-0.0057560764;0.013723932;0.06573013;0.046736233;-0.0005962888;-0.07023225;-0.050286468;0.06192973;0.010975235;-0.03984837;-0.054973338;0.02827449;-0.1935329;-0.07216346;0.054868106;-0.1100444;0.058592644;-0.0054752375;-0.17334029;-0.0085768085;-0.06952965;0.02810783;-0.009190776;0.04049899;-0.08963919;0.008361108;0.08435667;-0.108672716;0.11966176;0.08006929;-0.09106157;0.011191798;0.07991106;-0.051548593;0.03907287;-0.018688332;0.019292464;-0.050387517;-0.07662149;-0.061836995;0.0073763127;-0.100230806;-0.023615455;0.045951832;-0.20717244;0.109862275;0.027446534;0.03204198;-0.19767362;-0.09974296;-0.106708005;0.09267606;-0.26462516;-0.048887502;-0.015155767;-0.041417573;0.004528061;0.05117974;0.17127869;-0.3582751;0.035595383;-0.08628575;0.043047924;-0.07467812;0.03183789;-0.035829566;-0.109730326;0.07329437;0.004914716;-0.085398234;0.11692461;-0.13435519;-0.029605078;-0.123769835;0.08370759;0.00210728;0.05305424;0.018322242;-0.018385915;0.25671035;-0.011223961;-0.09118847;-0.03963558;0.073895365;-0.083906814;0.06820236;-0.073712274;-0.0686542;-0.0065480056;-0.0033036647;-0.29418683;-0.039700154;-0.028703813;-0.09111758;-0.059319414;-0.027582215;0.08162505;0.058169235;-0.04864441;-0.13390207;-0.07944106;-0.030401187;-0.037322797;0.060344834;-0.044271134;0.06429378;-0.117979415;0.019085411;-0.047915272;0.19704695;-0.0031994148;-0.09795768;-0.3831654;0.034999356;-0.08119084;0.072884575;-0.09077091;0.02683348;-0.17324142;0.033379596;-0.033177156;0.16002156;0.05130158;0.019204436;0.00609168;0.09188053;-0.07168647;-0.020341652;-0.08311038;-0.14584148;-0.12765709;-0.052145578;0.027672686;-0.03823341;-0.07766506;0.040659253;0.0548646;0.03658125;-0.06397757;0.017409904;0.08315867;-0.11031657;0.029827986;-0.004530549;0.110542685;0.010150438;0.061529335;0.060375083;-0.025688997;-0.14706084;-0.071832694;0.011542594;-0.024606986;0.1425421;-0.099132694;-0.03444114;-0.03378292;0.04407921;0.024676086;-0.14374477;0.072685115;-0.08962254;-0.081217825;-0.072694644;0.12309169;-0.07786035;-0.041730102;-0.013178067;-0.13128543;-0.051090177;-0.06550355;0.068195894;-0.04656525;-0.0033803973;-0.043683637;0.009590783;0.060875513;-0.19276875;0.034899153;0.03442431;-0.07619904;0.021245282;0.072629444;-0.24469444;-0.040842004;-0.008792031;-0.050581515;-0.032129638;-0.08130441;-0.055316463;0.07701072;0.028203193;-0.054688584;0.035851303;0.069947116;-0.23744407;0.016186515;0.010322208;0.02124563;-0.006990179;0.0024235176;-0.05127086;0.048993163;-0.071628496;0.02736248;-0.08358368;-0.065739684;0.019894056;-0.119885474;-0.05050193;-0.005174983;0.20017537;-0.046251517;0.11526185;-0.0016394178;0.06095518;-0.027304053;-0.024590382;-0.04762782;-0.44820243;0.04741862;-0.102795355;-0.016702596;-0.05323439;0.21237224;0.09173372;-0.08841703;0.03586668;0.055029128;-0.06922036;-0.036440987;0.08740083;0.07586584;0.0045601325;0.048628047;0.05624101;0.09159664;0.071761176;-0.0024527253;-0.086255945;-0.022302337;0.17079198;-0.083441176;0.24883443;-0.091516964;0.030381534;0.05303878;0.17271863;0.07638978;-0.029282063;0.07852053;-0.058700833;-0.01670487;-0.026197579;0.04920763;0.13503966;-0.13788153;0.023080496;-0.028757937;-0.0027521274;0.15368094;-0.08932389;0.067248;-0.10714809;0.006318041;0.06477582;-0.11884149;-0.25181895;-0.09477299;0.09184775;0.08023118;-0.12283047;-0.06335319;0.043831613;-0.11477652;-0.045692697;0.077192955;-0.07213218;-0.0027980767;-0.05741676;0.046103083;-0.056767885;0.03506968;-0.01509805;0.036807228;-0.18604055;0.009304264;0.030456446;0.013350449;-0.016816502;0.009851449;0.026407424;-0.011433349;0.07555921;0.029088702;-0.009043859;0.057172272;-0.07344308;-0.06963733
-0.0005456513;0.011570766;-0.10035352;0.020994026;0.077636436;0.10407635;-0.020296622;-0.043123495;-0.006548612;0.0134396795;-0.020189682;-0.0061337412;0.046193462;-0.2510585;-0.04066175;-0.0021555922;0.10403005;0.013766754;-0.09978462;-0.011890766;-0.031034017;0.013661587;0.06349209;0.16341116;0.038810577;-0.030333385;0.046027;-0.0016843878;0.037684213;0.016697695;0.063592866;0.007538411;-0.008868758;-0.0076230997;0.024779366;0.05192817;0.04994111;-0.10416709;0.014662937;-0.1280773;-0.04994657;-0.0156441;-0.1257994;-0.014954306;0.23676047;0.058450934;0.27384287;-0.060602184;0.037267763;-0.10767453;-0.31862622;-0.017238995;0.044543322;0.030273926;-0.10132503;0.046533987;-0.17424044;-0.14850923;-0.06895064;-0.044151083;-0.07916043;-0.28465346;-0.20598745;0.17856485;-0.12418501;-0.11170593;0.2128941;0.051087722;-0.076081134;-0.002632352;0.06549996;0.056064185;-0.0073435614;-0.10137203;-0.101259075;0.03732605;0.026453642;-0.13764223;-0.0953682;0.15048973;-0.01630115;-0.124726295;0.014397049;-0.012738633;0.17969744;-0.0197503;0.07534527;-0.017704373;-0.10116124;-0.061656922;-0.013483597;-0.016050642;0.0078227185;0.044381615;-0.15904932;0.00579729;-0.038246367;-0.009393909;-0.17728972;-5.729121e-05;-0.054089606;0.026224907;-0.2520472;-0.0011161652;-0.08483865;-0.030267349;0.06340752;0.0063115098;-0.063329585;-0.03762218;-0.079044744;-0.080309615;-0.15043867;0.025976779;-0.005735282;-0.041121673;-0.001651283;-0.0114163095;-0.015419777;-0.15357502;-0.04653682;0.059748102;0.035054997;-0.07442257;-0.1506208;0.04468431;0.008684083;-0.17524604;-0.080212794;0.013875474;0.04653709;0.019853046;-0.09984688;0.08642354;-0.03907537;-0.16771847;0.35052568;-0.030567626;-0.13767166;0.24954727;-0.042984467;-0.03577756;-0.053683575;-0.07890357;0.14645953;-0.038880795;-0.011888202;0.03152985;0.017724613;0.07320592;0.013178126;0.008659247;-0.0027222515;0.16581453;-0.064284235;0.084019326;-0.07328737;0.2044975;0.035443153;0.092181;-0.06770767;-0.32793444;-0.08150471;0.010510527;-0.2956345;0.09326627;0.14480785;-0.010589268;-0.17077135;0.001886396;-0.005740862;0.11624911;0.0100541515;-0.03112441;-0.044001058;-0.043610007;-0.038207825;0.2676152;-0.0570251;0.013938712;-0.012695189;0.043717932;0.030835584;-0.024999624;-0.005159059;0.114783496;0.027673593;-0.10079407;-0.106282085;-0.020228788;0.06573605;-0.1245083;0.03138513;-0.0011056181;-0.0054640966;0.038971703;0.032653585;0.039723683;0.023075076;-0.0659673;0.093985684;0.039783396;-0.033072874;-0.12331631;-0.1134761;0.096455246;-0.0030119796;-0.07437752;-0.059000496;-0.005073658;-0.03484492;-0.15688175;0.036115192;-0.14810565;-0.12990522;-0.060962766;0.0014423489;0.0066253208;0.01185787;0.032601874;-0.09975052;0.018080799;0.010731956;-0.35154358;0.1081234;-0.12478098;-0.019490212;-0.28919294;0.2938724;-0.034225207;-0.008910025;-0.064481445;0.11456645;0.052882783;0.17541525;-0.039377186;0.0634391;-0.09263977;0.008523374;0.0014848178;0.07658008;-0.027023755;0.020952655;0.052156582;0.0030403566;-0.037069894;-0.2093377;-0.107323095;-0.050411396;-0.081986964;0.122344695;0.041130777;0.04762354;-0.014373858;0.02113739;0.044240255;-0.04082163;0.020584458;-0.067254744;-0.019043319;0.0004010053;-0.07422108;-0.045340713;0.010035337;-0.0353834;0.15231253;-0.012009949;-0.062466603;0.09867502;-0.011487426;0.07181954;-0.19241644;-0.05579744;-0.14825419;-0.047872785;-0.049075782;0.14570205;-0.026310151;-0.055607997;-0.0008087625;0.039955877;0.029121133;0.07712065;-0.013973993;-0.053099778;-0.032219805;-0.08391727;-0.11017268;-0.01984341;0.03471025;-0.250998;-0.03553055;-0.14176184;-0.004106801;-0.2162349;-0.11852112;0.0019240234;0.053615816;-0.049462702;0.053790428;-0.08982863;-0.106823735;-0.10687356;-0.07868121;-0.037902128;-0.004966914;-0.13541655;-0.0125742;-0.00487032;0.004749616;0.01449905;0.16155797;0.029924031;-0.07713302;-0.057906494;0.026499236;-0.10331107;0.008368622;0.10397545;0.019555682;-0.035942625;-0.1252002;0.2046098;0.024175558;-0.008272788;-0.229112;-0.045298733;-0.012771558;0.04390363;-0.17416477;0.04343762;0.089152776;-0.07539409;-0.01787025;0.0057358155;0.007294819;-0.17737336;-0.020390913;0.0036196848;0.006756372;-0.028548501;0.069271736;0.0088658985;0.1340633;-0.08895906;0.024284407;-0.03166267;-0.17038207;-0.17027113;-0.046530705;-0.09547502;0.05250399;-0.0630265;0.007861584;-0.041623253;0.006769076;-0.02894624;0.09607115;-0.14417733;-0.03448379;0.027224855;0.051685017;0.1755499;-0.059017688;-0.09672097;0.030498667;0.02607429;-0.17060715;0.1368214;0.06546074;-0.031215925;-0.26337904;0.18096222;0.056722198;0.005155584;0.05503013;-0.06386589;-0.0598261;-0.01449231;-0.024999648;0.025923101;0.018018713;-0.0023272212;0.00018509095;-0.115764916;0.011632918;0.13145757;-0.04217543;-0.17351857;-0.34043798;0.016736468;-0.049627878;0.01874607;0.021161307;-0.03677002;-0.12961063;0.05643834;-0.046866238;0.09483789;0.060065128;0.03434256;-0.086895585;-0.012931932;0.049946245;0.032639287;-0.066406496;0.01405403;-0.015696246;-0.0015047218;-0.15040775;0.027008554;-0.11608392;-0.05610742;0.084860615;0.077578835;-0.016482681;-0.041934516;0.023966055;0.031602472;0.048134785;-0.09415582;0.03756422;-0.10437124;0.066029474;0.11789936;-0.04014345;-0.19212122;-0.0057523004;0.09632927;0.055860076;0.017563088;0.044007815;0.08981182;-0.08943631;0.06274041;-0.060089346;-0.27635565;-0.04198867;-0.015307166;-0.07092793;0.06281554;-0.31368062;0.031312067;-0.025333118;0.06873253;0.043536242;-0.041922107;-0.07573159;0.19522275;0.074638665;0.045159195;0.2320325;0.059520505;-0.0712836;-0.10148343;-0.072344236;-0.005759263;-0.028670574;-0.062426366;-0.18800996;-0.11419701;0.07842269;0.12361442;-0.026096841;-0.034936234;0.066762544;0.026519654;0.050758876;-0.038098566;0.1338627;-0.044458378;-0.07001505;-0.1605202;0.012037643;0.08441408;-0.09879518;0.033988014;-0.036640227;-0.012348685;0.044737563;-0.10667718;-0.07248194;-0.055149756;-0.074428044;-0.051752016;-0.13265425;-0.04000557;0.015643071;0.023202445;-0.03707745;0.055073928;0.047347188;-0.02391252;-0.10665111;-0.0057630986;-0.008686102;-0.3133971;0.0056002093;-0.06682187;0.08169031;0.00238712;0.17504098;-0.04945034;0.087951;-0.028072117;0.029818334;0.06051289;0.027309539;0.21081646;-0.06847154;-0.04016464;-0.05234853;-0.0049840724;-0.0037361956;0.016741991;-0.069187604;0.009240895;-0.0765748;-0.00924486;0.029567141;0.19310714;-0.22049963;-0.028963674;0.19397739;0.05591946;-0.033833217;0.028409654;0.026242714;-0.05467028;0.06573299;-0.058898903;-0.06875335;0.08973372;-0.079720415;0.09721546;-0.114671625;-0.07277992;0.19102634;0.03649785;-0.081245154;-0.05304148;-0.026908077;-0.058044493;-0.022369172;-0.22924428;-0.020623589;-0.018416667;0.03052492;-0.049853772;-0.06377865;0.06282385;-0.076843925;0.07587023;-0.20931952;-0.0386711;0.04383346;-0.074551344;-0.05658555;0.035892043;-0.02153325;-0.006708382;-0.014717285;-0.17854519;0.010864975;0.023704538;0.037418496;-0.06319323;0.017933743;0.054268844;0.0074812644;-0.022934489;-0.034874186;-0.105757475;0.077137165;-0.011625024;0.034283176
-0.013327267;-0.064135104;-0.012327751;0.008910048;-0.060337484;0.09751458;-0.16277102;-0.040652767;0.028799042;-0.019536305;0.028955204;-0.48816085;-0.0024877822;-0.062712334;-0.010467241;-0.07074023;0.1591388;-0.009363097;-0.2841355;0.052077215;-0.095410936;0.036729824;0.052849926;-0.12760216;0.03892786;0.051215038;-0.08097002;-0.022150902;0.03183523;0.16931885;0.01766977;0.105823524;-0.10367176;0.12428139;0.031567913;0.13388346;-0.05287422;0.12996672;-0.10514205;-0.09690635;0.03001985;-0.004383448;-0.31488672;0.026369778;0.2059014;-0.019428631;0.10229995;0.020664293;-0.0074681425;-0.1730435;-0.10012203;-0.10008031;0.018938415;0.085150346;-0.009519554;0.068452835;-0.055443875;-0.007335072;-0.116347745;0.039913762;-0.00035714035;-0.17193988;-0.13129164;-0.15831842;-0.012513854;-0.026469478;0.109075375;0.01413372;0.009870987;-0.023051748;0.012924703;0.005373226;0.02735723;-0.0659753;-0.012666804;0.05847937;-0.054560434;-0.10607673;0.11713826;-0.02102883;-0.00023370367;-0.081029564;0.038663514;0.15943587;0.0936915;-0.061444003;-0.07863583;-0.027180063;0.03766791;-0.0048219482;-0.041423295;-0.022491263;0.040887237;-0.14179918;-0.13477926;0.0719404;0.03979722;0.10367815;-0.021366447;-0.04882533;0.022416612;0.032940757;-0.10589666;-0.14105323;-0.06906203;0.06617021;0.08200365;-0.08366285;-0.09516918;-0.041284315;0.0042566815;-0.04741119;-0.028523741;-0.0059311246;-0.027899243;-0.005569778;-0.08578588;0.047434777;0.16896468;-0.1113502;-0.026673434;0.00321618;0.024503058;-0.049235195;-0.24821998;-0.10305416;0.049692407;0.08304947;-0.027514705;-0.055310216;-0.0023797913;-0.14075841;0.057138912;-0.10844798;-0.104532786;-0.06457057;0.19927232;0.05982853;-0.026220137;0.20842294;-0.011893892;0.08726156;0.065000735;-0.060886297;0.03995917;0.046366584;-0.12084509;-0.20114714;-0.036203727;0.06058617;0.12796417;-0.060713097;0.022185285;0.0421301;-0.1470469;-0.036856003;-0.030420173;0.2188372;-0.0013939526;0.06376924;0.032422703;0.070854306;-0.07240705;-0.11312727;-0.1956203;0.056036163;0.04114703;-0.031655412;-0.11214267;-0.049248237;-0.08107539;0.03550248;-0.04101915;-0.03171497;-0.058255382;0.05036222;0.03560271;0.19498913;0.033796564;0.011424224;-0.016375069;-0.06730757;-0.14639345;-0.049995426;0.014130118;0.027267223;-0.071279384;-0.051998857;-0.0739434;0.03439143;-0.010780772;-0.018006764;0.0790709;0.0005203766;-0.045900837;0.048717532;-0.054999176;-0.0685937;-0.04278605;-0.07950539;0.028959174;0.012551819;0.0098947575;-0.20494413;-0.17294464;0.05891148;0.055871785;0.0052922834;-0.056554496;0.017220464;0.030449055;-0.017848797;-0.010510802;0.0635229;-0.21511017;-0.059501365;0.04845638;-0.0040620533;0.02315994;0.045352362;-0.003695442;-0.04333738;-0.0464323;-0.20654431;-0.018984621;-0.09060498;0.0049643735;-0.13451742;0.26237223;-0.11058988;-0.0398894;0.073764265;-0.08587545;0.09022701;0.17962526;-0.062568344;0.053527012;0.030436149;-0.042199925;-0.0063883555;-0.006996043;-0.068492055;-0.06408703;0.013193952;-0.06646019;0.013559042;0.021254027;-0.047225036;0.08324231;-0.29622486;0.030907795;0.049338747;0.1189857;-0.01475776;0.026496552;0.03130245;-0.0356924;-0.015548343;-0.10074123;-0.02684517;-0.043982577;-0.23756705;0.10818052;0.0442414;-0.065121226;-0.12493784;0.042335905;-0.009624616;0.040107056;0.13140643;-0.082168914;-0.05486511;-0.030747814;-0.079680555;-0.031814046;0.05616632;0.31030497;-0.056846213;0.007624418;0.02129837;-0.085287936;-0.060664658;-0.0027736428;-0.03176932;0.0051434725;-0.03311296;-0.103833236;-0.046120096;0.00391777;0.07516331;-0.15724835;0.17758547;0.13686836;0.06039076;0.005291017;-0.03746878;-0.06431592;-0.03045269;0.051766694;-0.036177583;0.042491753;-0.14561814;-0.09923896;-0.25301105;-0.0069834115;0.08886261;0.080979265;-0.0071673878;0.023948899;0.100535;-0.031593766;-0.01709223;0.018776601;-0.0031505846;0.036629643;-0.017729897;-0.022576312;-0.08602252;-0.11198079;0.030779023;-0.00030977663;-0.19022804;0.26424664;-0.03599777;0.026404394;-0.012698291;-1.8486586e-05;-0.056090966;-0.055700134;-0.1767637;0.076070294;-0.024551664;-0.016658409;0.050454594;-0.10610557;0.0005368509;-0.23171912;0.014054285;-0.04452161;-0.030311814;0.09977869;0.0022898521;-0.009381567;-0.030834664;0.044287324;-0.0788997;-0.08138001;0.107819036;-0.1829063;-0.04901789;-0.21550485;0.023813844;0.04508587;-0.034760207;-0.02556294;0.012119191;0.16318084;0.015601395;-0.06487102;0.09022762;0.018312104;-0.04824539;0.17294459;-0.04245635;-0.03535403;0.0071483497;0.04944471;-0.27126333;-0.108955346;0.0093107335;0.04291219;-0.18062744;0.18085662;-0.07004553;-0.06955802;-0.0007191774;0.037396222;-0.09249271;0.06042091;0.05233129;0.07296555;0.020032642;-0.08088071;-0.062382486;-0.01478174;-0.008124895;0.16098888;-0.13369845;-0.0023692362;-0.27869064;-0.07026761;0.10912173;0.0034398306;0.029018972;-0.045388248;-0.18317765;-0.059351142;0.011259218;0.051935762;-0.046486553;0.07856805;-0.008305408;-0.009395845;0.027972512;-0.062321153;-0.07051628;-0.0684775;-0.17599176;0.03476074;-0.053920075;-0.080723606;-0.30478138;0.028695934;-0.050654944;-0.083224736;0.050457507;0.07142087;0.10981143;-0.07893623;0.0052437233;-0.020223018;0.004100277;0.027174497;-0.07960761;-0.0033758606;0.002150331;-0.42007712;0.053351462;-0.19987188;0.05328296;-0.21671142;0.06479107;0.062908605;-0.09191228;0.04079154;-0.0363339;-0.46810535;0.054891814;-0.03366602;-0.014807743;-0.051302224;-0.107761115;-0.13108447;-0.11310732;0.02841539;0.13297644;-0.051731702;-0.061974145;0.17133848;-0.040565103;0.030270772;0.043683473;0.038985867;0.00027982157;-0.07911439;-0.007881516;-0.06659319;-0.032744825;-0.018324632;-0.050783657;-0.10387153;-0.09454367;0.008148447;-0.06577181;0.08825972;-0.17696024;-0.047020484;-0.0024914497;-0.07315666;-0.03813484;0.02376979;0.0795453;-0.14075404;0.01923926;0.031096306;0.10210071;0.012340707;-0.07021531;-0.015782112;-0.06817171;0.010405757;0.056397602;0.009091283;0.12608962;-0.045639146;-0.13765329;0.023007907;-0.023188515;0.0013348489;0.000722135;-0.13026142;0.090431675;0.020170743;0.1225471;-0.051978536;0.09890996;-0.3364011;0.0872548;-0.053498525;0.11776354;0.086973816;0.18833964;0.04302935;0.08480017;0.0625493;-0.009900056;0.10807954;-0.019806135;0.18433847;0.049433917;-0.036480896;-0.11953874;-0.03264252;-0.036055114;-0.056865405;-0.04381116;-0.040139757;0.03346362;0.012885922;0.00083278125;-0.119748734;-0.25830603;0.032569334;0.19751254;0.14518766;-0.13366683;-0.015179731;-0.04371611;-0.027452769;0.04934667;-0.16610976;0.05778218;0.0495994;-0.20711273;-0.041631944;-0.13186769;0.029456172;-0.048562527;0.035467684;-0.009002783;-0.15565042;-0.06084685;-0.037512958;-0.08729276;0.034065735;-0.051589165;-0.011991473;0.06553954;0.14205684;-0.048483532;-0.02502935;-0.052378792;0.07759857;-0.025190402;0.1115435;0.010462565;0.04585;-0.019547902;-0.093602695;-0.07999518;-0.12569103;-0.042003453;-0.10429723;-0.061486457;0.07172746;-0.08182825;0.026805311;0.040717486;-0.12927864;0.005110974;-0.028122982;-0.049827736;-0.07647105;0.039563037;0.039192125;0.018104631
0.01618711;-0.026565528;0.07674027;0.007867115;-0.04398716;0.06082336;0.023741476;-0.0018471954;-0.10413946;-0.00044725742;-0.0004683937;-0.17681244;0.12083931;-0.1909712;-0.050947964;-0.30235335;0.072473295;-0.1261552;-0.14355506;-0.049578782;-0.07767317;-0.04104465;0.0665543;-0.06359156;0.011869339;-0.24686287;0.08134975;0.015564965;-0.08172126;0.03329911;0.11601841;0.12058956;0.05775505;-0.099711105;-0.034601927;-0.051317;0.04287529;0.09593158;-0.0012194272;0.11602951;0.027248964;-0.050425988;-0.16120999;0.015526758;0.06356309;-0.11336091;0.23413874;-0.0047147516;-0.02961239;-0.13718654;-0.010546374;0.05945648;-0.018794667;0.07092173;-0.02294834;-0.058063082;0.016598847;0.06542394;-0.20587005;0.06877164;0.02397046;0.029723939;-0.08804599;-0.115149915;0.027864195;-0.050593637;0.08069795;-0.06576716;0.05370287;0.112209864;-0.08551921;-0.060766574;-0.008938408;-0.13257653;-0.13000959;0.004554992;-0.09532251;0.019864362;-0.04795744;0.05081905;0.0029140124;0.15748073;-0.054580126;-0.059730463;0.11309346;0.05160808;0.018970603;-0.09709331;-0.060145594;-0.040695805;-0.05888883;-0.023131128;0.029826283;0.08957051;0.008272152;-0.037294;-0.0014125436;-0.14410914;-0.01421421;0.049353246;0.0079860985;-0.014813293;0.02950694;-0.1674398;-0.005779391;-0.0495355;-0.033006866;0.06259879;0.044655256;0.08506914;-0.014772146;0.058866914;0.1659898;-0.025938919;0.06143295;0.26881412;-0.011447083;0.07588023;-0.01737923;-0.059240144;-0.020903522;-0.010674459;-0.0133237755;0.07669534;-0.094984956;-0.013359347;0.016890835;0.100264154;0.0004710056;-0.13310635;0.037377343;-0.0062348247;0.13120379;-0.059652966;0.07888145;0.14182557;-0.2471803;-0.22471152;-0.07899903;0.18129344;-0.038537975;-0.0016028145;0.10116409;-0.08567453;-0.12921427;-0.08247837;-0.025357231;0.03997891;0.050850246;0.035429135;0.13808864;0.046958644;-0.073435135;0.015747266;-0.08518629;0.03020736;0.08744697;0.0333735;0.0455389;-0.06589295;0.027826766;-0.02214542;-0.023405517;0.13737862;0.09366165;-0.021206712;-0.08310191;0.0740284;0.08454851;-0.08328915;0.007207688;0.030290518;0.025370315;-0.06250139;0.066120416;-0.007624193;-0.061184302;0.08038043;0.07771192;0.033650395;-0.067846835;0.06656822;-0.2286202;0.06488695;-0.00019373043;0.101609185;-0.12027596;-0.058606736;-0.06513068;-0.026843809;-0.07111543;-0.04407581;-0.019029157;0.032081086;-0.06690234;-0.09982747;-0.037866145;0.0033519454;-0.050011553;-0.014438224;-0.15163687;-0.0074529517;0.024389483;-0.09290477;0.021576677;-0.032080464;0.01699916;-0.036814857;0.003558915;-0.0052565956;0.014011479;0.02364509;0.06171407;0.014828221;0.114590116;0.038518734;0.13648224;-0.019371958;-0.10131588;-0.062481616;0.054153997;-0.057643175;-0.08585055;-0.13755049;-0.022679837;0.14185905;-0.019433564;-0.037286907;0.064367235;-0.003231755;-0.046405707;0.013199498;-0.03626616;0.026331767;0.10849506;-0.012420595;0.049013536;-0.022695653;0.05593856;-0.029548705;0.08078351;0.0638888;-0.003245552;0.05059274;-0.061585385;0.048044235;0.13984713;0.09907089;0.0884812;-0.019841855;0.0043830187;-0.01668977;0.022521233;-0.14140259;-0.029704565;0.043855984;0.069923386;-0.0454689;-0.15806887;0.023387033;0.1784435;-0.1500648;-0.08212195;-0.051783223;-0.055110786;-0.12897427;-0.20390275;0.0124664465;-0.010570587;0.0052268063;0.08132996;0.110160306;0.03264881;0.113138676;0.01303686;0.058219988;-0.033028442;0.061280586;-0.05878363;0.03447479;0.20747842;0.051422324;-0.023059474;-0.03999162;-0.09019934;0.07118542;0.069663;-0.067628615;0.016691675;0.009684113;-0.04618456;-0.1549328;-0.21631259;-0.05488726;0.05901847;-0.03680843;0.10257852;-0.031399354;-0.01905786;-0.06630542;0.10098053;-0.17823057;-0.0450933;-0.00412203;-0.08056968;-0.0450081;0.12229034;-0.015445753;-0.011457241;-0.016807986;-0.05196235;-0.13221425;-0.06334363;-0.042697676;-0.0791345;-0.04503635;0.07917501;-0.025587238;0.14622219;-0.07312714;0.038783032;0.19028065;0.10327523;-0.08339424;0.038580067;0.1157204;0.15996554;0.08415842;0.044009767;-0.13192177;-0.045618325;0.0015004979;0.13542104;0.081967644;-0.06547057;0.012541054;-0.11771313;0.05895384;-0.0945897;-0.031183299;-0.0253519;-0.06625702;-0.070760466;-0.08297091;0.056917153;-0.06439488;-0.07279921;0.0028389848;0.045389313;0.0038926979;-0.22512357;0.0015698471;-0.041363318;-0.07209355;0.033635464;0.01269733;0.14281218;0.14523788;-0.2658562;0.16836569;0.054617863;-0.015477597;-0.10090728;0.020508194;0.043924157;0.018503146;-0.04156549;-0.19343469;0.025674954;-0.084970176;0.040282015;-0.00012170725;0.063477755;-0.12955758;0.056331284;0.045024894;-0.007392671;-0.07474693;-0.06990286;0.046273142;0.028809467;0.08645455;-0.048730746;0.07279408;0.015427664;0.06562048;0.10535871;0.0677273;-0.046641935;-0.054316647;0.0013081881;0.03653471;-0.012645339;-0.04287291;0.013178841;0.18648334;-0.070808835;0.006738499;-0.12959138;0.0717536;-0.058085024;-0.037378788;-0.068784095;-0.11449468;-0.07563122;-0.0035177867;-0.1204907;-0.027956108;-0.056249127;0.07356118;-0.090822525;-0.15517564;0.09838517;-0.085734606;-0.042083822;-0.053733006;-0.06620698;0.08094695;-0.021403795;-0.03841335;-0.016873058;0.12483019;-0.16216369;0.059009876;-0.05134808;0.0038801914;-0.3670241;0.060648203;0.07517132;0.051994696;0.006899317;4.2135394e-05;-0.07442158;0.08802006;-0.05740127;-0.00024902195;-0.36529595;-0.036801066;-0.16537565;0.0213241;0.07703647;-0.08153751;-0.19979018;0.10875931;-0.07006389;-0.13375711;-0.05914344;0.025598522;0.2309094;-0.05574848;-0.11405848;0.01204478;0.06763367;-0.068711765;-0.03703663;0.0039697895;-0.045909327;-0.10821459;-0.15313129;-0.076609135;0.13689885;0.069805294;-0.039772082;0.018636996;-0.030359056;-0.25946003;0.034191176;-0.037175402;-0.07607602;-0.049403667;-0.09178949;0.2823926;0.04219862;-0.005771128;-0.01157005;0.10387008;0.00077483157;0.017636972;-0.06563863;-0.009744909;-0.025039025;0.029940013;0.08380181;-0.044239998;-0.023967639;0.15052918;0.009518043;-0.021752287;0.1649889;0.023004157;-0.092095174;-0.073401816;0.030072154;0.13010538;-0.0071383757;0.031355802;-0.28797853;0.01172215;0.06592909;-0.12598234;-0.035629548;0.08089338;0.080336414;0.23046485;0.0068916897;0.054162275;-0.00234999;0.05776392;-0.126399;0.012459931;0.14444533;-0.093913876;-0.04132472;-0.046870816;0.037659697;0.022318827;-0.24402201;-0.03550173;0.25764298;0.02978604;-0.22337158;-0.093705736;-0.040545125;0.15008907;0.009735905;-0.031519696;0.025420625;0.05459554;-0.0357957;-0.029746426;-0.06297846;0.020899344;0.19157273;-0.017085288;0.07562374;-0.1432213;-0.014473277;0.15827899;0.068026826;0.04763874;0.06982537;0.013941032;-0.106868595;0.030220173;-0.054143514;0.0313689;-0.031134408;-0.075790316;0.13945477;0.07218676;0.027580773;0.04354892;-0.10646053;0.020881314;-0.043678023;0.038144145;-0.015162618;0.016601184;-0.056698807;0.024190279;-0.019638188;-0.054521747;0.10906358;-0.00271001;0.057801068;-0.0022019767;-0.020671103;-0.010135113;-0.02655889;0.00670717;-0.017204417;0.00036987878;-0.07173046;-0.058576778;0.01581611;0.060136136
-0.00667899;0.047668476;0.19291633;0.002399175;-0.009122468;0.017671254;0.0067334883;0.056613512;0.01016871;-0.053464506;-0.107737236;-0.14352627;-0.025831884;-0.064151816;0.07942323;0.02398817;0.1742873;0.050359286;-0.03243975;-0.07555314;0.036911096;0.012739161;-0.03444793;0.056476623;-0.018285828;-0.04277417;0.031484835;-0.02024253;-0.030277366;0.17663595;-0.076377995;0.20814636;-0.038451817;-0.022304604;-0.020334594;0.0075965817;-0.34771463;0.021143157;0.12487842;0.016359663;0.0020681713;-0.036052465;-0.2681198;0.035963267;0.22223087;-0.073809996;0.085154176;-0.02830877;-0.02616225;0.020757206;-0.19520564;-0.03995735;-0.027189715;0.024119297;-0.10130355;-0.026381992;0.117716275;-0.11252518;-0.11727122;-0.0058767013;-0.071339376;0.05913964;0.2302193;0.047730044;0.113172054;-0.010181497;0.14680125;0.012442231;-0.059089072;0.013946278;0.08153223;0.0050858837;-0.004461531;0.10329007;0.17089006;-0.17111161;0.078953266;0.119314305;0.116015494;-0.04853853;-0.06739422;-0.054612305;0.0122526325;0.15736838;-0.02049473;0.08388344;-0.047509097;-0.069515884;0.0648836;0.014772814;-0.0051918114;0.028884092;-0.036948435;-0.07000853;0.26846823;-0.031467963;-0.11001777;-0.065235734;-0.007308552;-0.08642824;0.046188395;-0.015241625;0.3300363;-0.33660907;0.0319417;0.01402176;-0.07613143;0.021017794;-0.0051521086;0.014007731;-0.0040911897;0.09984781;-0.12685148;-0.038878236;-0.059533715;0.00839706;-0.05590398;-0.013309692;-0.04373122;0.0148155065;0.15496606;0.11638926;-0.088273786;0.11296347;0.1674734;-0.06468275;-0.0827426;0.29672882;-0.019816281;0.085837424;-0.014623283;0.11945332;0.058510352;-0.035146076;-0.053214807;-0.020167788;-0.12630536;-0.038520534;-0.015559744;0.09959229;0.001112871;-0.030349262;-0.19009018;-0.08588319;0.08458836;0.14220645;-0.14568464;-0.083406545;-0.09602817;0.075024575;0.14737056;-0.009249151;0.19985479;0.03521664;-0.08487198;0.0382955;-0.09919768;-0.07223164;-0.0038815453;-0.06961394;0.04298574;-0.2624527;0.0022994415;-0.12524243;-0.16333301;-0.04255013;-0.25067735;-0.019910991;-0.13334575;0.042358432;-0.024428165;-0.097665794;-0.02483981;-0.038843613;0.003516253;0.016114678;0.088075526;-0.18575013;-0.026173506;0.0035800384;-0.03230464;-0.019164002;-0.4427398;-0.051288597;0.032569434;0.037565697;0.011931277;-0.18379977;0.016887384;0.13350207;0.04683206;-0.028055787;-0.03544948;0.008972973;-0.07810431;-0.034194462;-0.09111675;-0.024806565;-0.09176568;0.035303034;0.12915097;0.01914586;0.045580246;-0.1730175;-0.016465219;-0.054091543;0.106874295;-0.050698902;-0.04718318;0.02413293;-0.0004730472;0.072879106;-0.049742706;0.04093268;-0.115565486;0.012890259;-0.15048543;-0.07982851;0.04487227;0.032842085;-0.079470456;-0.055640556;-0.29360232;0.094985336;-0.15547499;0.024796534;0.036184736;0.11739892;0.05983634;0.053183645;-0.014639793;-0.023981536;-0.0401688;0.14314067;0.1266131;0.03898889;0.052230593;0.02148085;0.02351316;-0.048236445;-0.065953024;-0.089531705;-0.038713753;-0.057695333;0.03506255;0.06383236;0.073814586;-0.0015946641;-0.05374315;0.017014863;0.03203401;-0.011790849;-0.05578799;-0.20155801;-0.12411905;0.085733704;-0.027221827;0.020294014;0.019590152;0.08953928;-0.040176246;-0.15317795;0.061965648;-0.04680453;0.07290254;0.07764986;0.018509565;-0.032449108;0.17239667;-0.017455794;-0.09178279;-0.07970202;0.013541051;0.34581587;0.12406771;0.030419705;-0.13215788;-0.09103315;-0.17634416;-0.03416456;-0.20686534;-0.057502825;-0.0121097425;-0.02423662;-0.11792511;0.040648725;-0.013512401;-0.045516964;0.08191662;0.043406315;0.08327027;-0.1725271;-0.39064607;0.10915778;-0.018815432;0.07974265;-0.0070728487;0.02295159;0.04516914;-0.10526554;0.034067594;-0.29150894;0.11261409;-0.11404931;-0.047567904;0.08111219;0.1556324;0.08193957;0.085333884;-0.036793016;-0.029921884;-0.21155885;0.0386534;0.09452688;0.014382018;-0.023551362;0.001854085;-0.010540961;-0.021582296;-0.14118524;-0.041485406;-0.3802035;-0.15471917;0.033256732;-0.020427415;0.0998193;-0.067664824;-0.09203721;0.03468244;0.10810097;-0.045280624;0.051783927;0.038275704;-0.003656753;0.075243816;0.17880069;0.026791949;-0.04792372;0.07271434;-0.08016533;0.0882321;-0.0029515657;-0.043464277;-0.026925754;-0.068760864;-0.0047674864;-0.026150052;0.098013476;-0.09004896;-0.0038444006;-0.16710596;-0.25019085;0.061942797;0.056871593;0.057488907;-0.09635809;0.34493273;0.253344;-0.036912885;0.12556589;0.1616507;0.02725367;0.0431558;-0.0567324;0.07464805;0.041818786;-0.00078566;0.030184614;-0.11489801;0.07865319;0.01896194;-0.09733817;-0.12162331;-0.19316474;0.05825043;-0.001682056;-0.06944259;0.21998802;0.15636082;0.07320369;-0.052599885;0.0039168;-0.035128247;-0.017441794;-0.021677868;0.02142672;-0.23265135;0.2252312;-0.045117717;0.078373305;0.057491172;-0.18364017;0.015905734;0.014280254;0.0038642965;-0.021257102;0.008801029;-0.020277102;0.18517728;0.031094864;0.11707143;0.0031566126;0.072063416;-0.003843091;-0.036609147;0.08977951;-0.20112947;-0.21098967;0.050591126;-0.036170706;-0.056213535;-0.0071867597;-0.08632674;-0.08326876;-0.016997537;-0.07206646;-0.06878306;0.09818572;0.0132836215;-0.010130106;-0.03215497;0.20578316;0.0346581;-0.09527314;-0.2600958;0.0844658;-0.40322277;0.11741754;-0.064811625;-0.05280139;0.16607247;0.1224663;-0.00041930107;-0.01591888;-0.016295236;0.044850685;-0.32839343;0.020115862;-0.11659502;-0.16206095;-0.13716279;-0.14633773;-0.1302953;-0.03626619;-0.011660844;-0.11969863;0.023347395;-0.1147441;0.08539861;-0.06875943;-0.065678656;-0.13292943;0.049463198;0.036094315;-0.11975169;-0.13428009;0.07153658;-0.10830593;-0.18206505;-0.18939783;0.010518711;0.01922104;-0.019765649;0.07827218;-0.048074946;-0.19863732;-0.12590617;-0.06191792;0.006699111;-0.037155516;-0.031199453;0.255052;-0.010739339;0.094486214;0.1134267;0.024835443;-0.05536147;0.09035509;-0.09413087;-0.06625658;-0.056608256;0.041088503;-0.081917696;0.054532044;-0.21455066;-0.02646418;0.10206949;0.050587248;0.23667681;-0.039502475;-0.12853448;-0.04400436;0.062423326;0.18164761;0.0087923715;0.055729043;-0.10709864;0.11758844;0.06142286;0.18045518;-0.0094919;0.16181937;0.043924224;0.30831993;-0.082084835;0.0016708339;-0.011809494;0.01871863;0.005454422;0.006558748;-0.073631495;-0.108617514;-0.10313972;0.075987555;0.06916132;-0.03670402;-0.16305558;0.07388714;0.1980269;-0.06868049;0.005378882;-0.17836793;-0.02510956;0.19825289;0.1395827;-0.09598326;0.038707748;0.1072513;-0.07623144;0.057830717;0.20409113;0.008074772;-0.039941486;-0.11125208;-0.06904349;-0.06301264;-0.048948053;-0.05305024;0.106072016;0.066562645;-0.05265621;0.01571348;0.20052317;-0.12099768;0.2062273;-0.13659053;-0.04554515;-0.053709775;-0.13538423;-0.09033881;-0.12512371;-0.057368524;0.121703096;-0.11408142;0.11477725;0.005985814;-0.033537626;-0.045511186;-0.052067753;0.06644017;-0.05253856;-0.024902252;-0.10402714;-0.038800433;0.0044093505;-0.07206553;0.059509844;0.01102783;-0.038683213;-0.03908888;0.032305706;-0.016697815;-0.13550791;-0.08680874;-0.10932744;0.022523051
0.053841002;0.00457265;-0.0021733872;-0.079330586;-0.01230041;0.010983503;-0.030657161;0.08604623;0.050655987;-0.07102751;0.0037140802;-0.28867292;0.08137777;-0.09847407;-0.04454824;-0.0816131;0.25697467;0.09386662;-0.27748948;0.04714997;0.0207757;0.089380085;0.0734885;-0.05729143;-0.014020418;0.116673686;0.00552117;-0.05100085;0.081587054;0.024123061;-0.08611788;0.14816861;-0.09047306;-0.03223349;-0.04925529;0.00029313477;-0.093017176;0.07804699;-0.030823132;0.009755884;-0.032336876;-0.05871374;-0.17485443;0.0067819855;-0.103167765;0.011991067;0.1304065;0.019071672;-0.075553626;-0.10842941;-0.018215584;0.05122286;0.010983264;0.0024125443;-0.16888249;0.0066411933;0.06011705;-0.09828585;-0.08523596;0.07487477;0.007241087;-0.04159071;0.1478587;-0.23866491;-0.07407978;0.0064278217;-0.023399023;-0.054534435;0.004835191;-0.068925306;0.008423228;-0.08836887;-0.03748838;-0.0036424156;-0.055557016;0.025533535;-0.084703565;-0.010382221;-0.06497196;-0.043511383;-0.15231727;0.07593848;0.009424399;-0.010428185;-0.017150478;0.0053130896;-0.047417104;-0.125165;0.07746823;0.035212707;-6.5373075e-05;-0.10057653;0.05171472;-0.039380886;0.10469147;-0.057017397;-0.055324886;-0.14018649;0.09787272;0.058784626;0.03976982;-0.077953205;0.0065301675;-0.35274988;0.041009072;0.014784712;0.06472608;0.005696738;0.090005435;-0.040896077;0.06229762;0.041647945;0.028206393;-0.04629669;0.037726745;0.1243785;-0.057863604;0.02632882;-0.010187343;0.0505488;-0.021038158;0.00023985577;-0.08433993;-0.102009736;-0.080607645;-0.0598364;0.032570824;0.10150725;0.073632404;0.049138673;-0.09979749;-0.061870188;0.06748115;-0.025632853;0.00076209684;0.1123688;-0.23328406;-0.14922713;-0.09199869;0.16245554;0.08710965;0.042598266;0.012008377;-0.10191693;-0.1938002;-0.036648955;-0.12929735;-0.039428588;0.048951652;0.102999225;-0.1502046;0.0524466;0.091431834;0.07485364;-0.034555573;0.0073094266;-0.044176433;-0.11240424;0.01943282;0.03948032;0.04631742;0.13594447;-0.01948805;0.060631815;-0.1367778;-0.007088031;0.04823819;-0.10918304;-0.03254759;0.076926276;0.06702776;-0.036074314;-0.018837431;0.027322162;-0.032070562;0.017599203;-0.05295258;-0.076405734;-0.070746645;-0.04873702;-0.014406977;-0.031470057;-0.39598826;-0.035977162;0.035433386;0.06519235;-0.07004089;0.013621995;-0.0084088165;0.031249704;-0.073004544;-0.04207969;-0.07293599;-0.0919496;0.039708264;0.04608533;-0.09226679;-0.034861863;-0.17818071;0.08813378;-0.087394655;-0.031067548;-0.025785891;-0.120902434;-0.040295597;-0.0992248;-0.09695311;-0.021782791;0.04036678;0.02582411;-0.076143116;0.120502725;-0.058803767;0.03640045;-0.18994622;-0.029120343;0.046012085;-0.043789007;-0.022510666;-0.0036240565;-0.04697661;0.013532603;-0.072230056;0.22629294;0.075852096;-0.016489014;0.048297577;-0.060648754;0.08323915;-0.041565254;0.014360228;0.004883065;-0.07922186;-0.00015554998;0.15971543;0.0037901744;-0.06593413;0.046307586;-0.16557543;-0.053130604;0.022690117;0.008967701;-0.04566088;0.028745482;-0.016375918;0.028109802;0.008640728;0.039190732;-0.047526572;-0.12033969;0.0057258685;0.06364138;-0.051349405;-0.12012494;-0.00828927;0.07241484;-0.053508308;-0.08111706;-0.037290826;0.08807942;-0.025522381;-0.33133885;0.06847187;0.012548633;-0.054117333;0.06980958;-0.014283403;-0.065866575;0.15842235;0.063091256;-0.052074585;0.043566223;-0.048218623;0.1672517;0.075002715;-0.03428923;-0.098967806;0.06829182;-0.012433772;-0.0050608357;0.06534179;-0.060454443;-0.07105111;-0.015384332;-0.002223269;-0.01661114;-0.04351884;-0.02157371;0.027775273;-0.0149385035;0.14696568;-0.06492441;-0.07244105;-0.07151975;0.012312797;0.041161466;0.04373952;-0.04911334;-0.08905043;-0.054992665;0.06940792;-0.15070316;-0.024219563;-0.12193025;-0.09483859;-0.008663876;0.052477803;-0.024434395;-0.09664382;0.03697208;0.037418917;0.0048917285;0.015147906;-0.047378175;-0.060877733;0.046758093;0.02405927;0.021362728;0.025730783;-0.023048867;0.003779173;-0.18641013;0.008966952;0.020811986;-0.09144472;0.18667719;-0.043751396;0.030566128;-0.044640806;-0.17698689;0.08612143;-0.03957433;0.058680184;-0.06986493;0.025017638;0.16684757;-0.084274136;-0.086936735;0.08150723;-0.031666495;0.019653238;0.022525206;0.022270098;-0.12361678;0.035863943;-0.018262701;-0.04778848;-0.029203808;0.06187472;0.08594568;-0.12512098;-0.17049478;-0.08812086;-0.04074068;-0.05447639;-0.10877323;0.110214286;0.07774924;-0.06368994;0.12710555;0.06419014;0.019881243;-0.097687624;0.012190216;-0.07050878;0.032863107;0.042413097;-0.15646043;-0.079433165;-0.035663243;-0.06587017;-0.05213497;-0.004125757;-0.012262275;-0.058532678;0.04460205;-0.06443516;0.010607804;0.052900407;0.1427094;-0.09582516;0.051868584;-0.020673255;0.0065188026;0.011898831;0.028979683;-0.07687768;-0.00036554545;-0.014999337;-0.004688684;-0.038621534;0.07909861;0.029235674;-0.06620588;-0.035515036;0.16291988;-0.046317786;-0.077089354;0.20884866;-0.07807283;-0.037593737;-0.0748298;-0.12517191;0.016184522;0.06528172;0.0109194005;0.01845678;-0.03088729;-0.0033641185;0.0921705;-0.089158125;-0.09058545;-0.012512008;-0.064273566;-0.05197722;-0.012712874;-0.100410625;0.07712535;0.016410952;-0.04227534;-0.038055547;0.05445661;-0.040878847;-0.06305244;-0.18590933;-0.013075497;-0.50442487;-0.018838014;-0.16269599;0.0030908908;-0.17677234;0.0056547574;0.00046982136;-0.08022705;-0.009830483;-0.04760904;-0.35904884;-0.004127982;-0.14326736;0.051108897;-0.14006616;-0.07241991;-0.22781508;-0.09592698;-0.11189961;-0.039678264;0.015975205;0.12497475;0.07150256;0.03099493;-0.10076921;-0.09726999;-6.6264205e-05;0.006741397;-0.002432994;-0.07395099;-0.03262586;-0.22024968;-0.08432022;0.18600075;0.021306928;0.0048965244;-0.040704407;0.012818061;0.09060333;-0.12268682;-0.09353243;-0.08991823;-0.08596689;-0.14920844;0.042875398;0.3049797;-0.1757084;0.020488897;0.066106856;0.024771675;0.0670177;0.040147252;-0.017247256;0.09255487;-0.050512884;-0.019581467;0.016632313;0.26116043;-0.08579536;-0.0045459177;-0.07422024;0.03489787;0.066802904;-0.008009921;-0.19567396;-0.0041077565;-0.07091419;0.0043319445;0.11612724;-0.029849771;-0.21140894;-0.0043200185;-0.03349955;-0.0027490645;-0.06597651;0.27006575;-0.015181714;0.20391372;0.012383745;0.001834045;0.09944881;-0.08349723;-0.14668642;0.0011477409;-0.050597165;-0.18195674;-0.032824706;0.10036533;-0.062188778;0.06269306;-0.0035555651;-0.046207394;0.20747402;-0.052212846;-0.026709286;-0.30157632;0.0036096903;0.05449836;0.16197032;0.058258273;-0.039048966;-0.023593094;-0.04659818;-0.046855584;0.031958356;-0.023513505;0.18925248;0.04283203;-0.032132436;0.053084567;0.049849022;0.056789577;0.02437379;0.04818947;-0.2676416;-0.028266262;0.036613904;0.080136426;0.086216554;-0.14814737;-0.057592414;0.011927058;0.12690929;0.0022034051;0.028395325;-0.005147454;0.07438297;-0.0056642364;-0.0012539189;0.003973222;-0.005314088;-0.0020218012;-0.04870204;0.084745064;-0.020192849;0.013562915;0.076990195;0.013292712;-0.010021985;0.0780283;-0.06240146;-0.0671736;0.07450054;0.07126268;-0.089883;-0.0060457117;0.15824926;0.0030236046;-0.04675763;0.04058819
-0.033085752;-0.023643978;-0.08691347;-0.12199404;0.0148387235;0.06874031;0.090335734;-0.043010954;0.009647325;-0.22582921;-0.050910264;-0.004821558;-0.09872159;-0.13118856;0.11973586;0.11364817;0.2231669;-0.097512536;-0.04614972;-0.11396684;-0.07914504;0.056317676;-0.19066553;0.031665113;-0.079151094;0.14372154;0.08791629;-0.10637774;0.059433084;0.03987464;0.029707234;-0.08619736;0.004661182;-0.08434922;0.10295581;-0.08088668;0.030590758;0.16788188;-0.04451074;-0.032943964;0.02787145;-0.0053363405;-0.23735927;-0.014224612;0.03713825;0.039386842;0.102602154;0.06782606;0.026464108;-0.051216833;-0.20066707;0.11828993;-0.07137986;0.006543649;-0.10717084;0.0018592299;-0.071241364;0.11859423;-0.12658602;-0.071683176;0.044947278;0.040374152;0.00059276994;0.039527092;0.057029095;-0.012359791;-0.0021001908;-0.013233007;-0.03667513;-0.0005141969;0.012582782;-0.019588305;0.020531883;0.041500825;0.054690763;-0.036260143;0.021830268;-0.06226834;-0.038352247;-0.02786068;0.02884432;-0.019588398;-0.07546239;-0.039788503;0.022546194;-0.07765967;-0.13795668;0.018433778;0.049701456;0.09543097;0.03559072;-0.05345983;-0.07202047;0.02060931;0.13289939;0.044557553;0.0078089773;0.013364774;0.053401742;0.053551942;-0.03828398;-0.058430247;-0.08709057;-0.11219167;0.029663447;-0.046965618;0.07798297;0.008191605;0.04588471;0.011025312;0.06002691;0.04113253;0.037245464;0.012660835;-0.005608023;0.10613688;0.0039472654;-0.0047922186;-0.08968666;0.032080445;-0.011976755;-0.024509473;-0.058121294;0.021343421;-0.015664468;0.039681472;0.11280152;0.24300677;0.03697483;-0.0379007;-0.0033160392;-0.088152654;-0.034729533;0.0249469;-0.00595177;0.13687284;-0.16281275;-0.41080493;-0.058948953;0.16591166;-0.039244577;-0.047148917;0.037932765;-0.032587823;-0.19765791;-0.07382;-0.007767281;0.0011912725;-0.036992636;0.037123367;-0.12088032;0.042270266;0.08270162;-0.04742869;0.02855374;-0.08105713;0.015293735;0.021347316;0.0325095;-0.25748774;-0.006465918;-0.035685062;-0.19067928;0.086496264;0.04451352;-0.037538055;-0.081555784;-0.12762189;0.21852298;-0.018386248;0.054055706;0.004338305;-0.019768545;-0.029721005;-0.09048319;0.025600517;-0.08210579;-0.0420744;-0.07365606;0.0497429;-0.09742168;-0.04015072;-0.07497488;-0.076185994;-0.1330583;-0.100351304;0.010648437;-0.19591732;0.1370469;-0.012702826;-0.09901383;-0.17367421;-0.03183014;0.028182792;0.08904479;0.068868026;-0.15004179;0.023917187;0.029126959;-0.04452998;-0.012122416;0.080999464;-0.05981655;-0.109101176;0.050239116;-0.05138345;-0.08655911;-0.052576933;0.0097973505;-0.03926665;0.025476348;-0.090646125;-0.060219817;0.13261148;0.23594768;-0.10749524;-0.036158286;0.031672794;-0.07448428;-0.004374284;-0.083472244;0.018258655;0.063201256;0.36130574;0.13794185;0.17603268;0.013528114;-0.10501204;0.097939454;-0.08787751;0.012551275;0.031021662;-0.046398357;-0.059122562;0.054211803;-0.036150347;-0.031843774;0.06608091;-0.22692977;0.037608836;-0.033485338;-0.13129988;0.013945815;0.01345445;0.013513534;0.048665825;-0.017567225;0.021379082;-0.050583646;-0.18344691;-0.03986703;0.027854675;-0.007098444;-0.2133249;-0.061785553;-0.019031245;-0.08475766;-0.056793183;-0.02327283;0.030900633;-0.04550373;-0.018218616;0.012561609;-0.11477022;0.025028545;0.122492395;-0.050254434;0.019977272;0.15389107;0.0666678;0.060224857;0.09004423;-0.056290533;-0.10644532;-0.07064243;0.018491996;-0.37674052;-0.05900863;0.07914509;0.013895002;0.24578816;-0.048002034;0.09160681;0.010445876;0.08526172;-0.13661425;0.060516145;-0.019012846;-0.047257688;-0.029782541;0.091677874;-0.4249667;-0.24842449;0.061170638;0.03965518;0.051133458;-0.103167586;0.0029616626;-0.042358927;0.0077799466;0.0944658;0.105541915;0.078338884;-0.014504412;0.064996906;0.04501345;-0.013454982;0.12180545;-0.07349591;-0.008551485;-0.028292684;0.08545739;-0.025109481;0.008478534;0.02375631;0.056784384;-0.007861768;-0.019000376;-0.015442205;-0.075958386;-0.022066323;0.063799836;0.086717926;0.024959061;0.009619773;0.005584586;0.03818466;0.030778876;-0.06688724;-0.032422356;0.017594032;-0.111490265;0.021608764;0.048405383;0.003101686;0.18360141;0.05513124;0.003848223;-0.009668411;0.029091468;-0.07842337;-0.051861193;0.034660365;-0.094878234;-0.050768264;-0.07990113;0.0038405824;-0.3028713;0.29319283;0.08273707;-0.03652057;-0.20194052;0.06690303;0.02684619;-0.09852538;-0.0147358775;0.0059465035;0.13993321;0.1400945;-0.088852406;0.009830093;-0.00036717014;-0.3583768;0.026724758;-0.06558702;-0.095738925;0.033753503;0.10985759;-0.010117395;-0.017417034;-0.002485247;-0.06123891;0.1712977;-0.041758854;0.029605411;0.02673204;-0.12083728;-0.025020298;0.02895597;0.042049035;-0.14231966;0.058549333;0.10615546;0.09231791;0.014007494;0.0343218;-0.06115715;0.02287991;-0.20694003;0.053243946;-0.007973217;-0.0978053;0.021554258;-0.036087517;0.05092846;0.31620875;0.015370711;-0.006290173;0.08174698;-0.046426408;-0.01681104;-0.06456718;0.01399859;-0.06905513;-0.013752895;-0.028816573;0.20731822;-0.052092697;0.022213994;0.12787959;-0.060965773;0.046938524;-0.004800727;0.042361893;0.009346726;0.07653298;0.048091043;0.05027127;-0.023982305;-0.008063439;0.070106685;-0.023502404;0.09581178;-0.035071984;-0.1868001;-0.02880959;-0.2277537;-0.07753437;0.018563118;0.006923907;0.09549223;-0.0045292675;-0.022946006;0.1048021;-0.08201492;0.021582097;-0.23416272;-0.039257597;-0.060261592;0.024775404;0.04555305;-0.15550816;-0.24754678;0.030983064;0.050702065;0.043554645;0.068762265;0.09277941;0.06651157;-0.045704633;0.07293392;0.016495202;-0.085453056;0.0033568065;0.16883111;-0.023123782;-0.062201098;-0.06473332;-0.21275608;0.13094492;0.091251865;0.016594749;0.092966534;-0.021197433;0.010337906;-0.06959055;0.033974066;0.05463398;0.021918353;0.0047972566;-0.07945733;0.16185126;0.021157257;0.18199113;0.082640626;0.0025177218;0.021906514;0.13042787;-0.06038543;0.04052954;0.034418482;-0.09413559;0.005343754;-0.102460496;0.067979;0.14536968;0.037901655;-0.08015014;-0.15650216;-0.03992258;-0.13495252;-0.1456441;-0.044199076;-0.047784515;0.056545682;0.082111925;0.060985178;-0.12020442;-0.012253782;-0.27274707;-0.10656858;0.28067085;-0.12702078;0.35523024;-0.037295952;0.052961607;0.08720018;0.004403379;-0.17338903;0.03284697;-0.066310845;0.107054226;-0.007358189;0.0054092505;0.0784818;-0.03743837;0.16341992;0.022029065;0.050668824;-0.040373143;-0.013201945;-0.11563259;-0.027331486;0.1599737;0.017624522;0.0033509405;-0.07585229;-0.03887688;0.013608921;-0.044510085;0.17287236;-0.08760693;0.1524515;0.14543621;-0.020606454;0.05007314;-0.060653124;-0.053769447;-0.04571718;-0.05438577;-0.1791972;-0.032425683;-0.014410028;0.07124276;-0.075221546;-0.017975783;0.010904433;-0.05892904;0.13615128;0.0126010645;0.014871596;0.048063148;-0.10778178;0.026321447;-0.042038362;0.050096605;-0.0054549915;-0.1263191;-0.054211266;-0.10986982;0.061355185;0.013340406;-0.03465091;0.04346802;-0.058015328;0.016088787;-0.08112496;0.048472494;0.10085343;-0.10862492;-0.06758244;0.06448924;0.13540465;0.02685575;-0.06865322;0.048594106
-0.022766666;-0.05871356;0.093942106;-0.058234055;-0.015609445;0.08770417;0.050564162;-0.030874448;0.031135228;0.08004883;0.069930226;0.12926888;-0.21828124;-0.061706826;0.10082896;-0.0028190592;0.078174286;0.08831086;-0.04218934;0.015319539;-0.025579678;0.0022009215;-0.05090448;-0.13330671;-0.08138884;0.13362081;-0.06666844;-0.028998816;-0.0028012416;0.0498403;0.08547953;-0.049286745;0.07804602;0.0037520344;-0.0110700885;-0.058377735;-0.08968708;0.05965748;-0.09743811;-0.11914569;-0.080910966;-0.010250555;-0.05012139;0.009538532;-0.019738112;0.03963656;0.13460277;-0.03900839;0.021934753;0.093093276;-0.08235864;-0.19342503;0.0065120463;0.0887773;-0.108008556;0.015177712;0.035227668;0.13415635;0.1871581;-0.04286002;-0.036179535;0.17538393;0.1427793;0.050294295;0.0016985111;-0.01650613;0.19543232;0.00369903;-0.043824248;-0.060044512;0.0076050935;0.042773556;0.06637176;0.05706939;-0.01183309;0.11562371;0.039115544;0.15781207;-0.04602358;-0.02339082;-0.07536433;-0.09888341;-0.028381906;0.058013845;-0.06659174;-0.006395435;0.13973638;0.03198481;0.09089939;0.020133711;0.005273124;0.09189516;0.00037558112;-0.01646902;0.076024845;0.040822625;-0.01124471;-0.04426083;0.06903268;-0.06695535;-0.029699804;0.014890673;-0.12988341;-0.28066802;0.05202661;-0.054808185;0.023006747;0.062169846;0.049494177;0.005415524;0.00373465;-0.12439457;0.106949285;0.016092712;-0.017533544;0.21272719;-0.013283177;-0.06238344;0.025343193;0.04928699;0.071762666;0.10688757;-0.0471669;-0.04025487;0.024582056;-0.06334671;0.09622138;-0.009478102;0.110085666;0.036381666;0.021173583;-0.16996531;-0.022806702;-0.080110475;0.01994575;0.15948278;-0.043672204;-0.0028830934;0.02297344;0.0068786154;-0.013773097;-0.00013152206;0.19274747;-0.14295366;-0.08775027;0.041362688;0.027328156;-0.020321568;0.015434902;-0.07251359;-0.022632236;-0.0708526;-0.015523403;0.08516601;0.0073719663;-0.051099773;0.0573972;0.041504193;0.020012561;0.01332502;0.052454274;-0.04516091;0.0018631073;-0.017046167;0.15851225;-0.13455728;0.07997345;-0.013687517;0.17976306;-0.08337288;0.016701614;0.073728725;-0.04031652;-0.05170397;0.022979703;0.003957738;0.042582173;-0.09289623;-0.009803265;0.0793629;-0.016955404;-0.050685067;-0.31592855;-0.02735178;-0.046100665;0.009706294;0.03796283;0.00031863796;-0.0011294;0.037356514;-0.03767975;-0.07102852;-0.060191415;-0.044167005;0.060703922;-0.083066806;-0.09211445;0.046381198;0.08034985;-0.061022505;0.16804427;0.036174383;0.027513945;-0.2945436;0.14339137;-0.048467413;-0.09812066;-0.13770103;0.0572469;-0.03878357;0.020093637;0.014308835;0.034770064;-0.012132943;0.07248015;0.022184154;-0.08651736;-0.0020948297;0.083959565;0.0037148728;0.028387718;-0.05311668;-0.19342199;0.13887078;-0.014279377;-0.018845266;-0.07165054;-0.14258274;0.016375056;0.047528386;0.022989826;-0.09335647;-0.013575593;0.1041056;-0.06050023;0.0037888696;0.024586476;-0.058852144;-0.025849624;0.012368359;-0.04896545;-0.22238646;-0.11836679;0.019678941;0.051038813;-0.104201;0.061236292;-0.040003113;0.015117764;-0.078921;-0.0851707;0.025463894;0.006177421;-0.076949745;0.07102938;0.030414013;0.032317467;-0.13421328;0.053408783;0.054944985;0.05058988;-0.09453142;0.081546664;-0.060068388;0.08529651;0.13819027;-0.066870585;-0.00066903204;-0.011142003;0.02127965;0.011075837;0.0814783;0.0763946;0.121017285;-0.049047504;-0.06818013;-0.09904431;0.05992816;-0.08415795;0.055438224;0.08605276;0.07286928;-0.047618207;-0.00338263;-0.03933227;-0.12122436;0.020451214;0.04047083;-0.031689107;0.22667858;-0.015630895;-0.17019363;-0.058589514;0.011603261;0.01807244;0.055244163;-0.07689289;0.045068733;0.046216603;-0.053044178;0.0062069953;-0.0063161785;0.023456076;-0.29368445;0.00031239947;-0.017592017;-0.055040978;0.16684082;-0.07369951;-0.056457713;0.10348434;0.09365617;-0.003081296;0.115217894;0.06693389;0.033282787;0.03792437;0.008664289;0.004268073;0.031895973;-0.0034047675;0.27242005;0.074374214;-0.073380105;-0.034989834;0.09394191;-0.047341604;-0.05629362;-0.0588775;0.17712922;-0.01040633;-0.002416946;0.010401615;-0.06855326;0.015417502;0.091099225;0.034782562;-0.046457727;0.033355437;-0.07139622;0.0035563305;0.015105659;-0.030466978;-0.15765068;0.020300772;-0.094584286;0.043155976;-0.05357927;0.2707245;-0.0054618535;0.04074341;-0.24811286;0.0061344868;0.029940361;0.028686369;0.030779747;-0.06394241;0.31307426;0.05215041;-0.051953316;-0.13981466;0.060674537;-0.07841775;0.09562936;-0.052939065;-0.0042551137;0.018183134;0.08543045;0.055500403;-0.030013327;-0.06600636;0.20516948;0.07350135;-0.25773913;-0.024771107;0.06725226;0.08274813;-0.07168529;0.09124705;0.15266594;0.013633559;-0.06254937;-0.004356218;-0.017565887;-0.013139327;0.09297723;0.024895312;-0.009209582;-0.07870425;0.11421652;0.06874464;-0.02911915;0.08475274;-0.021617355;-0.076505676;0.15752386;-0.010909607;0.029034514;0.28212455;-0.04714077;-0.031973217;-0.03082415;0.048331454;-0.027185667;-0.06664159;-0.026554555;0.027762646;-0.14483443;0.042872287;-0.06907405;-0.041455045;0.2958191;-0.007864746;0.026562952;-0.053805675;0.018012477;-0.05736702;-0.040214736;0.01865476;-0.020834671;0.012059204;-0.08195597;0.13097009;0.009349181;-0.23149514;-0.02655137;-0.34478357;0.018033966;-0.22702935;-0.048157025;-0.043153733;0.059317056;0.02656208;0.058137693;0.07428592;-0.027708843;-0.3573305;-0.03838753;0.10642995;0.037842147;0.06839702;-0.18649286;-0.21333778;0.15958458;-0.019723244;0.09302354;0.056693472;0.060669817;0.0643995;-0.017548168;0.0049451026;-0.117751606;-0.03295614;0.011351734;0.14166331;0.027846327;0.00081820425;0.08898105;-0.112236336;-0.018257877;0.15829381;-0.02872533;-0.010485689;-0.026951555;-0.018253269;0.15956584;-0.29351956;0.04643467;-0.07657337;-0.09582185;0.030670395;0.069586106;0.043859873;0.2516698;0.13539085;0.007424479;0.013283856;-0.001695959;-0.04087557;0.016059976;0.034698676;-0.08405964;-0.049301136;0.06474967;-0.026805358;0.16639112;0.0054665804;0.008591352;-0.04332558;-0.051229406;0.03954437;-0.0069160424;-0.020749198;-0.07466184;-0.10934328;-0.020384291;-0.11729048;0.051223233;0.036174674;0.06896727;-0.06503779;0.02193459;-0.23072559;0.18406011;-0.057721693;-0.03799832;0.002309273;0.039476212;0.018522328;-0.11143909;-0.06881084;-0.14131014;0.021274839;-0.049319647;-0.065167226;0.038658965;0.18209076;0.047346663;-0.029624594;0.08653844;0.20634606;-0.34712842;0.07569375;0.20792556;0.049035598;0.080258034;-0.077728234;-0.048384324;0.05337891;-0.01102024;0.15618615;0.02627001;0.00506599;0.10900313;-0.058557898;0.11521723;-0.06159422;-0.115777366;0.009308388;0.021035768;-0.02589456;-0.04183294;0.070128165;-0.04097127;0.012116655;0.03929038;0.029496355;-0.072292395;0.0995474;0.08043708;0.023059657;0.075296804;-0.06425387;-0.016252348;-0.03002302;-0.010853056;-0.073450655;-0.08931848;0.012625545;0.064308956;0.056782324;-0.0029368433;0.0813685;0.03211044;0.020736255;-0.038353294;0.002990396;0.0077449284;0.092493996;-0.093623914;0.03934447;0.013496728;0.05059166;-0.09433291;0.015349139;0.011005264
-0.030074026;0.012807874;-0.013160777;0.043576624;-0.0832812;0.09795084;0.14074957;0.035334628;0.02581593;0.16002859;-0.046490584;0.13026682;-0.013904968;-0.18151107;0.042400442;-0.013895166;-0.03693648;-0.0663648;-0.11348798;-0.017791696;0.00314567;0.082184605;-0.01929116;-0.11899073;0.010622026;0.32374707;-0.028462602;0.032758966;-0.046728905;0.0015471039;-0.008727075;-0.021800507;0.0051978165;-0.028613023;-0.012155697;-0.003477769;-0.22067764;0.068834215;0.00565314;0.12590395;0.011300173;-0.11237442;-0.035811175;-0.1070799;-0.23104443;0.06653029;0.17421912;-0.033510186;0.04217457;-0.11854555;-0.07356376;-0.079264544;0.045213822;-0.10898831;-0.04104877;-0.1152032;-0.070646346;0.027349647;-0.11245021;-0.03545589;-0.10350753;0.080013424;0.04670105;0.04639976;-0.09518747;-0.003273922;-0.13129404;-0.054814834;-0.009910083;-0.09556943;-0.05107658;-0.07189981;0.054567095;-0.045953706;0.013127568;-0.08217273;-0.024566079;-0.02326689;-0.06169615;-0.008987349;-0.25101286;0.039267413;-0.07983292;0.05114722;-0.059859686;0.008928323;-0.26849705;0.09102915;-0.046041418;0.083011426;-0.057855338;0.013512676;-0.02786623;0.010178334;-0.033695474;-0.084369175;0.124765776;-0.009067879;-0.01682896;0.11541665;0.022702806;-0.021944523;-0.09674019;-0.20653349;-0.02198887;-0.09187795;-0.011534667;-0.07317833;-0.048118666;-0.044556353;-0.032986313;0.009173957;0.033442773;-0.034942728;0.07185335;0.30406067;0.01736443;-0.072879165;0.06905718;-0.0076035853;-0.08240117;0.047301307;-0.035208955;0.019732157;-0.23351084;0.02841254;-0.073960535;-0.13862467;0.16083401;-0.12167372;0.034668993;-0.05315244;0.0048553525;0.013458378;0.027734783;0.089401916;0.028159257;0.019636504;0.05947811;0.15782034;0.01054153;0.0694297;0.14361183;-0.026954236;-0.18384476;0.014183919;0.13298124;-0.07819972;0.01518901;-0.14436503;-0.23593363;0.002842407;0.03243037;-0.14990255;0.04196987;0.041769855;-0.009430886;0.10428689;-0.055318467;0.14997508;-0.040928315;0.088657856;0.15028235;0.08031375;0.05827351;-0.07306938;0.25024724;-0.04782813;0.09017829;-0.021820074;0.016350701;0.06322283;0.09940223;0.05742129;0.105746366;-0.071737215;-0.055400364;-0.13248105;-0.035876263;0.008095846;-0.015154137;-0.057590637;-0.26305458;0.056301128;-0.065804526;0.06570762;0.09216844;0.059201483;0.017254714;-0.030205362;-0.025768977;-0.090600215;-0.0703793;0.028959297;0.052150432;-0.11660825;0.03596871;0.06585623;0.049278587;-0.07888836;0.068609536;-0.037598412;0.023841929;-0.20582722;0.21657224;-0.04823178;-0.036771312;-0.14962609;-0.098107144;-0.013217988;-0.02720926;-0.025481392;0.019473808;-0.039481442;-0.12910363;0.014706538;-0.04696314;0.124882795;0.056842383;0.029858036;0.079313464;-0.04067136;-0.028138157;-0.007846617;0.13458328;0.1568743;0.0069444734;-0.15310873;0.0894587;0.024141721;-0.09756241;-0.050815694;0.08659577;0.002978772;0.18076275;-0.083196014;0.067376606;-0.10371361;0.010588815;-0.01945606;-0.059621014;-0.085022844;-0.10017741;-0.064263806;0.042687606;-0.05745076;0.089326866;0.058346108;0.10390468;-0.1291646;-0.05972198;-0.057841398;-0.013509333;-0.0021443218;0.07557667;-0.06693782;-0.0305499;-0.10774913;0.017158868;-0.19920476;0.04261074;-0.20451172;-0.00589063;-0.09079147;-0.083808646;0.028158508;-0.008640032;0.10931667;0.03389553;-0.017789943;0.093697;0.028246772;0.020052511;0.07926212;-0.05400689;-0.0633836;-0.104485445;-0.0338158;0.046605103;-0.09300349;0.071009025;0.011641504;0.06996602;0.022026291;0.026579337;-0.029031524;0.026586175;-0.06246683;0.006920789;0.08752248;-0.083688125;0.073582634;-0.0702393;-0.110376164;0.0038015482;0.024454568;0.013414107;-0.06811214;0.035924956;0.03635528;0.012458134;-0.09025339;-0.021846429;0.12564836;0.11530017;-0.046670217;-0.06502462;-0.011975286;0.0406847;0.006038198;0.026465863;0.0154606365;0.008893472;-0.109530546;-0.014092445;-0.05021452;0.08131781;-0.06556303;0.010995489;-0.014275128;-0.050773248;0.0116072595;0.23620045;0.016330846;-0.07646627;0.15173781;0.08350185;0.020972958;-0.04176921;0.034631737;-0.011459605;-0.039745927;0.00069860835;0.055852357;0.043655116;-0.02577433;-0.23449525;0.060412508;0.016696807;-0.047293678;-0.04577757;-0.03220372;0.06671251;-0.15039706;-0.02299154;0.06604193;-0.09421061;-0.07366539;0.30140847;0.041732073;-0.01808804;-0.024319306;-0.03983044;-0.048545465;0.05756291;0.08727147;-0.19388713;0.112296045;0.012290294;-0.17379273;-0.10975241;-0.06444528;-0.17742023;0.04053385;0.055808898;-0.049742155;0.027535176;-0.15021648;0.061368644;0.0066606295;-0.06255497;0.20696837;-0.024870478;-0.14681545;0.012075505;-0.023892414;0.04570942;-0.029229369;-0.05527922;0.109326;0.005943844;0.033021457;-0.10756392;-0.038068518;0.061616853;-0.04436097;0.05513863;-0.15231621;0.016537769;-0.13119127;0.00080873066;0.033568766;-0.015090021;0.09916407;0.018280594;0.15946853;-0.052857555;0.0024678754;0.18084465;-0.063198194;-0.10017155;-0.02438496;0.060369328;0.071328916;-0.016125072;0.037356537;0.04244946;-0.0020112447;-0.066894256;0.2393925;0.22623013;0.12286177;0.07486833;0.05969211;-0.046562932;-0.038100913;-0.06989306;-0.058247123;-0.02426469;-0.037980825;0.060349002;0.034043796;0.044678908;-0.034418307;-0.08213441;-0.010050965;-0.38369885;-0.08790622;-0.33492455;-0.06681492;-0.1194878;-0.030196585;0.00014558008;0.07299581;-0.041597813;0.039407387;-0.47053218;-0.030472776;-0.12000718;-0.040942892;0.08279418;-0.1506969;-0.035423122;-0.03127537;0.010478718;-0.12106649;-0.13465092;-0.008016292;0.12861559;0.08549491;-0.050414823;0.041002072;0.0110422475;0.024481634;0.21343222;0.026908008;-0.08134378;0.09241029;-0.006652662;0.2537065;0.23824559;0.0852623;-0.031541485;0.096065484;0.009502447;-0.15738282;0.09184837;0.07017561;-0.03369875;0.037328035;-0.07303424;-0.038942464;-0.26668596;0.15531948;0.050714225;-0.04729475;-0.120649666;-0.097586244;-0.055894483;-0.08260101;0.11594054;0.03586;0.025060374;0.101515725;0.07641565;0.24461854;-0.08257076;-0.01767857;-0.26649645;0.0038253898;0.25596637;-0.0939643;0.040354565;-0.0820596;-0.07050585;0.0184117;-0.18703282;0.020587267;-0.036214992;0.041299187;0.039521623;0.18812656;-0.14184447;0.04786216;0.031561214;-0.047567956;-0.082286626;-0.005581489;-0.25425318;-0.13173312;-0.029732594;0.050764292;0.0014770103;-0.04482783;-0.03475319;-0.047950093;0.19331892;-0.065332085;0.22526094;0.09055254;0.1070763;-0.4349321;-0.050323665;0.13437678;0.019249117;0.13545583;0.0270374;-0.04335469;0.041079342;-0.08030845;0.035548225;0.044204466;0.14760615;0.23438385;0.057097025;0.09588657;-0.012896925;-0.027193626;0.010748804;-0.050139762;-0.005768993;-0.05979139;0.02456624;0.118166685;0.01033615;0.20639707;0.011295717;-0.029134396;-0.0864051;-0.046849035;0.037165396;0.06791487;-0.053778987;0.21585813;0.0140454415;0.061220128;0.07833724;-0.122400045;0.09659206;-0.05629837;0.07127878;0.033818915;0.08004064;-0.018552633;-0.006996664;0.011678679;0.02234718;-0.052320827;-0.008489368;0.057727598;-0.05860776;0.012428664;0.17296661;-0.07216004;-0.033895727;0.084875986
-0.18007469;-0.008012754;-0.039784435;0.017602505;-0.030647652;0.11803739;0.16090131;-0.058415867;-0.07441238;0.026768936;0.05516235;0.2511647;-0.09401399;-0.21050335;0.010332721;0.031186944;-0.22454193;-0.07474695;-0.17940506;-0.025650486;-0.06676313;0.055764;-0.08773269;-0.08296765;0.03936673;0.0695858;-0.02350715;-0.015395091;0.041237023;-0.03610387;0.029731665;0.010959317;0.0648809;0.009521187;0.058196455;-0.076256745;-0.24530359;-0.0017577983;0.06043071;0.1511251;0.04436214;-0.086131245;0.121092744;-0.077931225;-0.113502435;-0.033609428;0.04762905;-0.030010771;0.04499591;0.034863222;0.061844945;-0.13927242;-0.05827542;0.09201885;-0.0011621243;-0.09958984;-0.06506776;0.09371329;0.09682747;0.03949658;0.006148439;0.10965098;0.12942846;0.003537821;-0.007991093;0.061090816;-0.05406181;-0.020816049;0.08758283;0.06340013;-0.076505646;-0.078435086;-0.058243282;-0.021717267;0.11769194;-0.13174208;0.051130608;0.06273533;-0.016655361;-0.09808568;-0.058604203;0.023706691;-0.0008861444;-0.059571546;0.034617882;0.038900983;-0.1026029;-0.06707437;0.047407243;0.16492277;0.07370221;0.17296903;0.029952958;0.08871443;-0.033487167;-0.065463364;0.027294332;0.025630146;-0.10526502;0.10272877;-0.07297727;0.07931919;-0.093938135;-0.18797779;0.028158037;0.036120526;0.032174442;-0.059347734;0.03265475;-0.06185161;0.07180026;-0.05280981;0.11655016;-0.095889896;-0.008655046;0.24806762;0.006648209;-0.0865233;-0.047585126;-0.042576313;0.07247005;-0.016565027;0.07792938;0.001046827;-0.19752009;0.10633993;0.02052415;0.029779477;0.15648896;-0.017747993;0.028236829;0.0044446145;-0.06248128;0.06398722;0.111069106;-0.045922965;0.0545439;-0.15749703;0.084450126;0.13429312;-0.036323927;-0.078467324;0.2651938;0.020782525;-0.14461999;-0.10168006;-0.020186545;0.030239608;0.058065023;-0.09144444;-0.06582518;0.023987278;-0.15350583;-0.048380323;0.06251903;0.018397873;0.021959634;0.013144366;0.0014728309;0.017382659;0.021801576;-0.12436829;-0.05364218;-0.0028029196;0.04992651;-0.048684586;0.01855356;0.064590916;0.28424734;-0.01281418;-0.010808506;-0.034940604;0.017189257;0.03686162;0.07610469;0.017694788;-0.050290946;-0.19071019;0.05558362;0.064051546;0.0002669926;0.008740142;-0.18666553;0.13895896;0.036818746;0.11038441;-0.0728308;-0.072374366;0.11062666;0.027145099;0.032569986;0.062156744;0.059064794;-0.07239689;-0.13022734;0.044842992;0.041232493;0.111565374;-0.024662292;0.06300355;0.038423095;-0.04121295;0.056395162;-0.04351718;0.15785484;-0.04261824;0.027962105;-0.055753965;-0.104069434;-0.042793524;-0.06366008;0.043142207;-0.11083792;0.041728035;0.080906555;0.043045122;0.0773074;-0.0062291157;0.02609357;-0.039232485;0.09481379;0.03203227;-0.13861756;-0.016866932;-0.08649265;0.132036;-0.07273587;-0.17522137;0.09746422;0.13534814;-0.012006701;0.010535346;-0.06031447;0.0244982;0.04538262;0.0878376;-0.05895333;0.01003201;-0.014057562;0.06538377;-0.00849757;-0.18598987;-0.028503196;-0.04376596;-0.05034686;0.058436953;-0.088846624;0.008235469;0.11130867;-0.20148286;0.030471895;-0.00892167;0.0827376;0.07255335;-0.017923247;-0.114780836;-0.001792095;0.04166321;0.01590794;-0.010631878;0.06637837;-0.058267485;-0.06309545;0.05540033;-0.07488663;-0.087286614;0.07198499;0.16957068;-0.015500399;-0.08259419;0.029996425;0.12156529;0.024116883;-0.010850123;-0.072906464;0.06568687;-0.11294242;0.11083572;0.0025162944;0.028657975;0.28631896;-0.029236268;0.05540473;0.08441696;0.11578201;-0.0049895826;0.010615927;-0.028007861;-0.066898175;0.04160951;-0.18212613;-0.24986279;-0.07847791;0.052293852;0.027994176;0.041741103;-0.0018338464;0.0988919;-0.062464368;0.02474555;-0.08243995;-0.30115223;0.08681971;0.043895494;0.05838048;-0.07687488;-0.032174714;0.056407843;0.07780922;-0.040016085;-0.065619804;0.06768122;0.03345704;0.020544829;0.07898134;-0.040942144;0.05877809;0.014629427;0.020467667;0.109192416;-0.029964278;0.21312392;0.07626317;-0.04333004;0.06383988;-0.040240757;0.07145887;0.07834908;0.034213673;0.07376244;-0.009923411;-0.025161188;0.08712248;0.10874292;-0.02515393;0.06346982;0.07468221;-0.043433603;-0.11982745;0.030440623;0.04195939;-0.03938057;0.06348404;-0.034524534;-0.033555675;0.0069037247;-0.0793674;-0.008937766;0.31164777;-0.064467624;-0.07775672;-0.114215694;-0.052317616;-0.03826841;-0.11811022;0.12722063;-0.0681922;0.102077894;0.021454008;0.09825772;-0.13038637;0.058157086;-0.3496337;1.3314573e-05;0.09756273;-0.06816422;0.007764045;0.085957244;0.09789157;0.05958538;0.09224635;0.29371685;-0.01750953;-0.06297049;0.03933855;-0.0621609;0.11339779;-0.08251145;-0.057852283;0.02703135;-0.120689005;0.0278901;0.054118916;0.08628193;0.06035176;0.0060055386;-0.0029609017;-0.079337426;-0.052760206;0.12875566;-0.08359836;-0.115752906;0.0502713;0.10499293;0.07563155;0.29716307;0.051129673;0.039845057;0.053997505;0.044440012;-0.07455461;-0.028745297;-0.00915994;-0.02129447;-0.0067802155;-0.04395722;-0.10398367;-0.021575738;-0.11090761;-0.051791318;0.06720402;0.26174495;-0.043569878;-0.049248066;0.02577112;-0.031904873;0.044877324;0.03167911;0.051674683;-0.0188271;-0.03967161;0.19616306;0.0129113635;0.061848477;-0.10768154;-0.018545587;-0.30415398;-0.02778618;-0.10079481;0.03699187;-0.14189234;0.0019621956;-0.06336259;0.05308362;-0.05066353;-0.038571954;-0.3228442;-0.057467844;0.07200768;0.09986847;0.060168978;-0.24004708;0.15595566;0.05071255;-0.022898644;0.18790968;0.0709321;0.064192645;0.08032674;0.037575856;-0.033494197;0.024208983;0.059709642;-0.04094911;0.19723429;0.0418406;0.015316688;0.010242251;-0.054612532;-0.10037216;0.32390806;0.04392826;-0.06769722;0.11351786;-0.009834885;-0.063854516;-0.3477552;-0.0023345794;-0.05444688;0.054306734;0.0701832;0.012903131;0.18271527;0.0576423;-0.08933648;-0.033172145;-0.07205243;-0.079480596;-0.052981783;0.025682155;0.07676646;-0.057571992;0.023159763;-0.12408889;0.13515234;0.3172034;0.017371237;-0.015551214;-0.011544445;-0.011871471;0.17417958;0.00094356446;0.03678448;0.103035584;-0.012596819;-0.03169626;0.045306727;-0.041556817;-0.029392393;0.08287708;0.0113940975;0.24143195;-0.0791206;-0.020916725;-0.007415911;0.030514587;-7.1015624e-05;0.034915484;0.04673727;-0.016501686;-0.07841137;0.030561322;-0.02526802;-0.06360138;0.054796237;-0.06560564;0.01759689;0.019604156;0.07773233;0.08306409;0.027083157;-0.29559582;0.061897233;0.10907079;0.040447272;0.23825525;0.042832945;0.042402092;0.0060921554;-0.0122294715;0.20903017;0.05143981;-0.05338168;0.21753348;-0.02408241;0.0879299;0.0054922337;-0.1136848;-0.07610187;0.041674335;-0.0010334605;-0.0024159316;0.1270176;0.13594599;-0.157452;-0.018848479;-0.060473606;-0.04181317;-0.1487284;0.029705908;-0.035641618;0.1344673;-0.11173576;-0.15477149;0.06404038;0.045635637;-0.043190695;-0.026695639;0.057161808;-0.054224838;-0.051333357;-0.08419167;0.29734477;-0.055387653;-0.0526796;0.117979266;-0.08044958;-0.010449339;0.054312896;0.045003485;0.03054869;-0.06642291;-0.0019542114;-0.00468303;0.033344533;0.024271537
-0.059644423;-0.02328592;-0.02621328;0.038690437;0.06072253;0.20379782;0.16697578;-0.015965035;-0.04596521;0.12726097;-0.022252254;0.0003183896;-0.19284865;-0.17108816;-0.044240918;0.06996032;-0.119395524;-0.08863754;-0.20522593;-0.031438503;0.027436716;0.05411942;-0.14614004;-0.04652711;0.10372271;-0.005033344;-0.051742084;-0.019400496;-0.060282376;0.055416975;0.22018027;-0.019473234;0.075367406;0.08894037;-0.04516722;-0.09967563;-0.12586758;-0.09926346;0.059735335;-0.0022812653;0.060833465;-0.05098908;0.18488911;0.018770108;-0.09178298;0.061650213;0.1067169;-0.015066764;0.0062964293;-0.14128137;0.099723265;-0.27058932;-0.07804775;-0.10578813;0.06612048;0.07712843;0.020599362;0.14698532;0.059739836;-0.08968473;0.022516096;0.10729261;0.09752831;0.009859144;-0.035271406;0.039620105;-0.011891618;-0.018938063;0.1004469;0.07068296;0.041701388;0.08738449;0.083474375;-0.06306821;0.0767166;0.0026428178;0.048339233;0.04601579;-0.011458906;0.015055559;-0.117447376;0.043676086;0.051986817;0.044775233;0.03977561;-0.026880046;-0.064414665;0.044848587;-0.07086082;0.11294861;0.024342922;-0.035389774;-0.1077416;0.0032520846;-0.065905534;-0.041138772;0.045124613;0.05441422;-0.017236127;0.11189233;-0.031532478;-0.026009845;-0.16990854;-0.10526137;0.06299774;0.035117704;-0.013713521;0.023868771;0.09004181;0.077533215;0.0727269;-0.012276916;0.060905162;-0.062609665;-0.032557484;0.20453462;0.050468836;-0.0045969924;-0.024121156;-0.057658274;-0.054312564;-0.07315128;0.08301641;-0.021829225;-0.16096433;-0.059162572;-0.0038280163;0.12956598;0.1009465;0.018795207;0.20006444;0.0144568095;-0.024985474;-0.030181032;0.098019324;-0.0655447;0.1784111;0.07687058;0.13309844;0.21458943;0.034938402;0.057358205;0.1561899;0.07802567;0.010362722;-0.073427245;0.074444935;0.036964003;-0.03919732;-0.07900356;0.057088085;-0.06563561;-0.09503488;-0.09027831;0.08550284;-0.015414069;0.10659606;-0.025626726;-0.06511193;0.10541129;-0.0528032;0.08432265;-0.00040457436;-0.05864301;0.1937485;-0.0070412126;0.039629675;0.06657826;0.07379165;-0.058321767;-0.038598217;-0.00928441;0.008102264;0.03047862;-0.012997027;0.07203895;0.077685;-0.10343187;-0.048676737;-0.09527977;-0.060614683;0.09535571;-0.2488254;0.075111724;0.0119991135;0.1764103;0.050362594;0.03251375;0.062997;-0.01694684;-0.06825752;0.112385966;0.023400752;-0.03847877;-0.06928004;0.01691455;0.09934823;0.09633131;0.11938422;-0.09510649;-0.047711246;-0.042310692;0.027229724;0.08836076;0.069469444;0.01967557;0.044224497;0.012766928;0.05017806;0.08786723;0.018158684;0.0403235;0.028233953;0.036552712;-0.1378227;0.020466838;0.18342617;-0.05309537;-0.03860626;0.023571013;-0.0021810995;-0.067708455;-0.21985793;0.12562649;-0.11018983;0.017475659;-0.03200366;-0.08550274;0.2717186;-0.046495058;0.031031458;-0.058881346;0.06981786;-0.12298813;-0.21781662;0.02681814;0.07436609;0.15510702;0.0251852;0.027832488;-0.057123058;-0.23504901;0.06401503;0.039988294;-0.023667868;-0.047661908;-0.18101758;0.032205474;-0.020021085;-0.02172999;0.014478511;-0.036668707;0.017061269;-0.03953122;0.04530744;-0.0336627;0.030058475;0.089382485;-0.09851384;0.028972846;0.0376002;-0.10305802;-0.06213282;0.088755414;0.058305845;-0.0047787596;-0.028200734;0.12309433;-0.022292167;-0.07449739;0.13053288;-0.03659679;-0.017619556;0.008103129;-0.017148731;0.03394268;0.08658017;-0.00088475365;-0.07129911;-0.08115361;0.15517157;-0.028085873;0.043896325;0.02112505;0.05100519;0.047126334;0.04143095;-0.093830995;-0.055842627;0.098356046;-0.0077340826;-0.049472727;-0.0029260735;-0.0050638393;-0.03654343;-0.059838884;-0.021549465;0.04137509;0.06223886;-0.0025726752;0.024855327;-0.2756502;-0.0381617;-0.21804449;0.004192596;0.035296634;0.0033442762;-0.04564113;0.051978495;0.015217552;-0.11872743;-0.064681165;-0.09544563;0.07573954;-0.022984376;0.058189303;0.07747259;-0.0427892;0.029119492;0.18257424;-0.049663097;0.21288916;0.19555166;0.07636944;-0.037710495;0.04885426;0.017573884;0.086475655;0.029724317;0.19699451;-0.008377131;0.016186155;0.0033311401;-0.0241211;-0.027084256;0.03178257;-0.0644901;-0.024985543;-0.036786113;0.10788636;-0.04361307;-0.036064334;0.01245355;-0.029429441;0.017945955;0.015365313;0.009698556;0.014482178;0.12245437;-0.08576466;0.04400202;-0.19634904;0.02008633;0.06201469;0.023281692;0.13510755;0.009676814;-0.054930754;-0.03451361;-0.021361407;0.023470525;-0.05391403;-0.1116664;0.044734806;0.039747946;0.024397625;-0.015939223;-0.13506582;0.116507195;-0.041755065;0.06846663;0.14806655;-0.050893158;-0.019517599;0.0041553276;-0.0539708;-0.051118128;0.024482388;-0.011796809;-0.017762968;-0.03135067;-0.029162679;0.093939;0.09752838;0.03364877;0.021816673;0.023517732;0.04161841;-0.040706538;-0.10485966;0.012763515;0.018175514;-0.121555775;-0.02512164;-0.040524527;0.1548345;-0.013193156;0.110363625;-0.15790139;0.013601372;-0.028754767;0.05278291;0.07359384;-0.04103798;0.049889263;0.058458593;-0.04460062;0.0355531;0.01955033;0.013225669;0.12471704;0.24557917;-0.014514922;-0.07593045;0.032421935;0.010896364;-0.044484112;-0.008187979;0.0010547644;-0.018820297;0.021250287;0.013525838;-0.0029220537;0.034192406;-0.027125405;0.051383138;-0.15499528;-0.042408705;-0.121297345;-0.06477599;-0.054591283;0.04058653;0.07416079;-0.04623965;0.06390746;0.003912421;-0.16552877;-0.0895602;-0.046180658;0.11748982;-0.017457634;-0.08059114;0.069950625;0.039329484;0.07050136;0.111642815;0.08348563;0.10101168;0.11141949;-0.03455563;0.012136156;-0.11257519;0.021243678;-0.076420195;0.117812425;0.08464999;0.076439515;-0.0105288625;0.03272269;0.08731826;0.24934849;-0.066443294;-0.02440732;-0.05253906;-0.039078016;-0.16090554;-0.23154236;0.05177312;0.00315826;0.05823839;0.025006894;-0.09236192;0.03806045;0.18358967;0.0060202116;-0.062200412;0.07775984;-0.049313594;-0.05219057;-0.027084578;0.08580224;-0.05405234;-0.011650786;0.061721727;0.015422714;0.15466669;-0.048760332;-0.027416293;-0.16998117;0.01992322;0.14687705;0.009828768;0.008917299;-0.07472633;-0.008064363;0.0503508;-0.068275884;-0.07507583;-0.077179365;0.10249647;-0.015020034;0.267601;0.003996807;-0.014727766;-0.00082094147;0.054222956;-0.124456584;0.073734;-0.006401753;-0.051131666;0.06334183;-0.04492748;0.050641682;-0.09157267;-0.059204385;-0.047311295;0.1024328;0.07655145;0.0011338312;0.039224003;0.038734354;-0.41201815;-0.04810556;0.11118723;0.006173336;-0.0049750553;-0.03643496;-0.08409077;0.015327085;-0.050404623;-0.05660174;-0.040188756;-0.13040948;0.20052496;0.038243506;0.05810216;0.042464837;-0.22312467;-0.0611142;0.02335534;0.101687565;0.04999516;0.14527237;-0.033188418;0.126585;-0.09819183;0.05718836;0.0033400408;-0.012779643;0.0507825;0.15351516;-0.027013026;-0.061117817;-0.045375604;0.033102687;0.0053997627;0.071906246;-0.07246975;0.015698573;0.021367433;-0.0010704965;-0.04325629;0.20274675;0.036896206;0.05101986;0.00039576192;0.02256411;-0.015748996;0.014065737;-0.06843953;0.07735712;-0.00034142245;0.029785413;0.054812554;0.046431214;-0.038151585
0.0993568;0.0041619483;-0.091744274;0.06700065;-0.0732015;0.15147969;0.18888874;0.018604508;0.0033978294;-0.097032234;-0.06986856;-0.02613364;0.020555604;-0.14587197;0.034683645;-0.164266;-0.048131365;-0.052861102;-0.08865924;0.06295927;-0.1021283;-0.051800486;0.07266739;0.0817968;-0.017073352;0.21689147;0.02652208;0.055020817;-0.068916224;0.06797727;-0.050758265;0.035603616;0.0013400897;0.044535488;0.026577622;0.033305567;0.026454352;0.12515998;-0.07698147;-0.0080977315;-0.044567395;0.040035997;0.07960107;0.036195397;-0.049244467;-0.044702567;0.1890233;0.038312003;-0.06266154;-0.19914253;0.3109251;0.08699259;-0.02261654;-0.09563353;0.05956535;-0.11601162;-0.010404008;0.017388713;-0.115415685;-0.04663525;-0.08492683;-0.050020307;-0.105791286;-0.06653795;-0.1316431;0.046886638;-0.07504776;0.075475;0.020768194;0.001051371;-0.034594998;-0.012228823;-0.031604286;0.031162256;0.08317502;-0.1988541;-0.04886466;-0.07094752;-0.032088116;-0.0883436;-0.07215194;0.042520225;0.0397922;0.041024026;-0.015409334;-0.03525982;-0.14596905;0.009295017;-0.0019444296;0.07750102;-0.03130097;-0.095783405;-0.033547938;0.060582493;0.058511145;0.06953647;0.16487256;-0.03088215;0.079031706;0.056489274;-0.05048165;-0.03557791;-0.11868285;0.101867504;0.025434215;0.00671671;-0.046315964;-0.061488073;-0.03821392;-0.07297014;0.07821657;-0.014781617;0.14607926;0.060957883;-0.06297336;0.15798415;0.036177713;0.0144187;-0.0368893;-0.06928232;-0.028351579;-0.13467917;-0.024674619;-0.05827278;-0.19307558;0.08317376;-0.07163194;-0.091508515;0.077811226;0.086244844;0.119105585;0.13069716;0.025736038;0.019044684;0.18326537;-0.16487901;0.18462113;0.21035562;0.029872222;0.122323446;0.023276554;-0.015941193;0.1472278;0.17604281;-0.09329255;-0.07431762;0.06446536;-0.119761765;0.05935617;-0.024915013;0.07360603;-0.04190999;-0.036806524;0.084192075;0.07999649;0.025412655;-0.028876398;-0.11344423;0.024456982;0.29827148;-0.11267798;0.116098635;0.40783557;0.07616489;0.01583427;-0.013393402;0.22670779;0.015002553;0.14647055;-0.05899627;-0.045986377;-0.10935359;-0.13338487;-0.050537087;0.01832289;-0.05062152;0.02192432;-0.20494734;-0.01865203;-0.065610774;0.08186615;0.046554554;-0.07887857;0.12690254;-0.018702513;0.06986301;0.050031118;0.28454176;0.043966107;-0.05284065;0.012207266;-0.13744938;-0.01315822;0.0062345136;-0.020266633;-0.057934433;0.09402191;-0.022623701;-0.0961816;0.063455075;-0.02789713;0.004957157;-0.016825909;-0.010694014;0.108709894;-0.0062688263;0.0033895362;0.12786877;0.08347217;-0.04093504;0.04193184;-0.107633695;0.065429024;0.04909194;-0.18380529;-0.043000966;0.15203583;0.09230247;-0.031983092;0.0037294666;0.09599216;0.014956327;0.08085709;0.08274403;0.09048684;0.1807358;-0.036657672;-0.15003622;0.20115313;0.029508227;0.018557576;-0.044500303;0.047568943;-0.08682695;-0.01875643;-0.0727585;-0.029781515;-0.055488236;0.060037076;0.017408017;0.06459323;0.025269937;-0.04757322;-0.05442409;-0.0240628;-0.066230915;-0.16010334;0.065093145;-0.045891996;-0.25769907;-0.06897471;-0.026221342;-0.12933254;-0.035807937;0.023935808;-0.07413232;0.068646245;0.0633754;0.029020648;-0.19892196;-0.051046565;-0.079689614;-0.040589217;0.07181085;-0.012307538;0.031038282;-0.011266805;-0.037674822;-0.023556763;0.0127297435;-0.0246721;0.13145381;-0.04474159;-0.08284871;-0.07454311;0.022709422;0.056930162;0.07646602;0.10637993;-0.09808877;0.220737;-0.011920792;-0.04302414;0.0028467223;0.006326804;0.028495153;0.038796835;-0.011627986;-0.04878283;0.009043038;-0.00522654;0.22093117;0.06737187;0.04024283;0.015597715;0.008864862;-0.019840557;-0.110332906;0.0011312149;0.020458959;-0.019801145;-0.2813477;-0.056195937;0.15277795;0.06059988;-0.06355424;-0.059368853;-0.034282364;-0.043072768;-0.079258546;-0.031565342;-0.07751147;-0.042010345;0.008322547;0.028456403;0.012632842;0.07181977;0.00040450075;0.05921841;0.16279842;0.003926941;0.18360664;0.043786194;0.03184407;0.025277792;-0.053373523;0.110774666;0.048598107;0.038056444;0.012535454;-0.03016045;-0.03978735;0.069468446;0.05925009;-0.1005807;-0.040443894;-0.18393293;0.0061122933;0.04760023;-0.027753815;0.0024660649;0.041523762;0.008296882;0.02359572;-0.038848177;0.07174987;0.09474335;0.05515497;0.17915462;-0.03373588;0.02204343;0.00038295574;0.040295705;-0.05978796;-0.0329296;-0.0039222026;-0.07488151;0.061495233;-0.04361142;-0.18316011;-0.059886087;-0.050981555;0.013744507;-0.008067214;-0.108522505;-0.074096575;0.07159258;-0.24990398;0.064014114;-0.02013615;-0.0008747123;0.11611747;-0.13131158;0.08609697;-0.02416603;-0.051420853;0.018980829;0.021757768;-0.0054996083;-0.017047731;-0.10200875;0.022374077;-0.017434517;0.09237728;-0.0090096;-0.07095169;0.03509077;0.0019409542;0.09603905;-0.13104448;0.0005394441;0.12863246;0.02139264;-0.013640793;0.0035498587;0.21790513;-0.0014500215;-0.06251506;-0.110192165;0.01595819;-0.045344304;-0.0001916977;-0.06394131;-0.056415457;-0.067050844;0.051220488;-0.03756291;0.050889023;0.011722318;0.25132424;0.05674933;0.06965653;0.053253576;0.033279277;0.06484848;-0.061923653;0.059594467;-0.0028587228;-0.016342305;0.09446778;0.005256495;-0.019977078;-0.08172496;0.08489484;0.031107498;0.03360311;-0.23773858;0.0030451978;-0.10821028;-0.07029625;-0.24650009;0.037724465;-0.041222297;-0.04633503;0.011255226;0.024669958;-0.18302625;-0.024600018;0.04920357;-0.018236442;0.06804098;-0.030099936;0.051448613;0.0461731;-0.051936667;-0.056519646;-0.0671126;0.12905441;0.12075287;0.001291498;-0.0661227;0.2143905;-0.004047648;0.0077655874;0.1739911;-0.017466916;-0.004491869;0.039792612;0.18160643;0.16540964;0.17898436;-0.007135345;-0.089833066;-0.031062435;0.07544048;-0.37029222;-0.13750573;-0.057364047;0.051594272;0.051383376;-0.082057714;0.021947272;-0.23191206;0.026570596;0.06724995;-0.017027399;0.011395076;0.0004996414;-0.03293897;0.04649676;0.1379231;-0.009923475;0.00080931414;0.08371297;0.103161894;0.10535994;-0.049874406;-0.046396863;-0.016269665;0.069841765;0.115874335;0.014822588;-0.032878723;-0.104063384;-0.022964435;-0.12088028;-0.05299982;-0.08743454;0.0032726459;-0.08524762;0.019938745;0.18582737;-0.048904013;-0.001110536;0.027126122;-0.014655793;-0.11967854;0.01279389;-0.11344665;-0.0869848;0.0692295;0.20149289;-0.026866123;0.04964196;-0.05658883;0.068813376;-0.11003865;-0.09552457;0.0003497778;0.025593143;0.077663995;-0.38561672;-0.043366615;0.04332371;-0.02724355;0.068607196;-0.037606947;0.057341486;0.07455834;0.048177052;-0.24528745;-0.076272205;0.05918501;0.0389189;-0.001563132;0.08589742;0.005661793;-0.18021467;0.0031529597;-0.09836516;0.19523944;0.0045423894;-0.0874917;0.06637134;-0.0687576;0.1262764;-0.110803925;0.017035438;-0.10186717;-0.02909682;0.19498554;-0.020062342;0.03531942;0.13739511;-0.11943919;-0.09195457;0.07060517;-0.024820121;-0.053847205;0.059037633;0.09624647;0.06824613;-0.021720972;0.063892946;-0.08432514;-0.039749656;0.010879163;-0.036682345;-0.008328658;0.020032093;0.023095744;-0.017463408;0.2717724;0.06522383;0.03778018;-0.030266898
0.08351095;0.10297188;-0.04387355;0.0765435;0.038819432;0.09301326;0.059166703;-0.07051768;0.029464465;-0.06409027;-0.039173804;0.05002012;0.13240384;-0.1211462;0.020131314;-0.14799246;0.05168289;-0.09985711;0.07443426;0.021146001;0.048661068;-0.0005423825;0.024205428;0.17600383;0.052620217;0.14955683;0.102223784;0.023016082;0.03582572;-0.033568863;0.044596724;-0.06677581;0.0059915856;0.016963558;-0.031771928;0.018021174;-0.028201945;0.07579707;-0.03537533;0.09896424;0.0654596;-0.043560937;0.0095844725;0.035370525;0.045652412;-0.056600936;0.14190884;-0.05861353;0.036264073;-0.15779497;0.17034368;0.0074892505;-0.099738665;0.013763464;-0.060215335;-0.08179727;0.0020806806;0.023557257;-0.20083998;0.05853771;-0.11819968;0.09877425;-0.072178446;0.048755854;-0.027498849;0.011066389;-0.080429405;0.014930783;0.11133953;0.060431853;0.07682964;-0.07272024;-0.03691089;-0.069275126;0.010113498;-0.08817236;-0.06883477;-0.09043064;-0.027787276;0.065316655;-0.056894377;0.13031958;0.079339646;-0.06744136;-0.0053586536;0.015356796;-0.289806;0.017626012;-0.11999457;0.0989559;0.021059785;0.085100494;0.013937817;0.117291674;-0.039494313;0.08832148;0.06860387;0.03510728;0.0645599;0.059370965;-0.013229924;0.09121701;-0.18789816;0.15232098;0.101142645;-0.059278972;-0.09151438;0.05743402;0.019702509;0.09611492;0.011696512;0.0009472434;0.054634485;0.057289027;0.09181422;0.28069073;0.027788252;0.066435724;-0.094487295;0.06885494;-0.09360216;-0.049791396;0.020663273;-0.07266652;-0.11819729;-0.037489224;-0.0497245;-0.2212938;0.064232044;0.042110845;0.053277567;0.012708369;-0.042913668;-0.121945895;0.14656177;-0.15285648;0.16282585;-0.01587081;0.058787502;0.075375475;0.025302341;0.03078602;0.16462918;0.2032528;0.009782372;-0.08726592;-0.04623114;-0.010168942;0.08845512;-0.120843984;-0.027097408;0.06736254;-0.10473366;-0.094858624;0.036500216;0.0734864;0.10543675;-0.18260862;-0.002662616;0.18469208;0.020582614;0.07560029;0.30633894;0.04882538;0.17822176;0.019393831;0.16006726;-0.07885104;0.14909951;-0.05558609;-0.011962443;-0.03707995;-0.11236174;0.051830966;0.009508991;-0.03830547;-0.06536772;0.028770536;0.049630333;0.012637551;-0.053072058;-0.046056297;-0.0983515;0.060952052;0.030481318;0.21745041;0.091483034;0.20285584;-0.06314032;-0.042659268;0.0645023;-0.0053912043;0.023157347;-0.033416733;0.025515456;-0.10929378;0.10958225;0.12570885;-0.012841117;-0.16920921;-0.10455798;0.006222366;0.09497567;0.16933857;0.09043017;0.033100482;-0.07479013;0.059798717;-0.048845947;-0.083759576;-0.060007557;-0.08742931;-0.034883842;-0.09437351;-0.042817198;-0.039187007;0.17518905;-0.006740084;0.069348454;0.0100149885;0.108918026;-0.045031264;0.13102868;0.062876;0.14570823;0.104830496;-0.051694084;0.0031944767;0.14350662;0.10571481;-0.026054606;0.012764786;0.00872272;-0.09933632;-0.025901439;-0.017352646;-0.04003195;-0.12172244;0.13541993;0.012798356;-0.014470938;0.0317132;-0.031675126;0.008420306;0.021365138;-0.015268901;-0.2781762;-0.043984313;-0.039733324;-0.05445928;-0.020808693;0.058678288;0.005462499;-0.22958042;-0.010648225;-0.048927326;-0.054148298;0.047982827;-0.003428572;-0.23250152;0.0590607;0.13503392;-0.006502655;-0.06495238;-0.08270234;0.012862065;0.08519431;-0.06672364;-0.1256691;-0.07205258;0.11609491;0.1720392;-0.020012343;-0.2242506;-0.09406899;-0.054290965;-0.09103919;0.051479436;0.06971412;0.044064995;0.22992608;0.04769513;-0.0021389325;-0.02533548;0.044025213;0.12255578;-0.046934616;-0.047916085;0.07187284;0.14756654;0.06176458;0.1057296;0.031516604;-0.01984227;0.015817236;0.012832551;-0.06421477;-0.06045574;-0.0074024433;-0.03095012;-0.11054673;-0.18154001;0.0036902984;0.19051667;0.030896435;-0.04830496;-0.032226477;-0.015825335;-0.042752694;0.014476012;-0.061570954;-0.056783702;-0.08269152;-0.032980256;0.08048451;0.036228374;0.09406706;-0.021002335;-0.021445328;0.19287735;0.03646644;0.33695975;0.24422315;-0.056683112;0.08673193;-0.1293054;0.013881752;0.11687861;-0.0874152;0.05422151;-0.04619928;-0.03687621;0.059456103;0.108264126;-0.1261003;-0.12878257;0.11306481;0.073250495;-0.08342668;0.11986514;-0.09225485;0.07079027;0.07059408;-0.11294332;-0.072741285;-0.025733167;-0.018962957;0.04669439;0.16256061;0.04521176;0.10052068;0.0063306475;-0.0139315715;-0.00024514343;-0.015333649;0.014587325;-0.3087463;-0.017110236;0.08546794;-0.13013557;-0.06568418;-0.05121495;0.04012341;-0.014323755;-0.07234706;0.05301088;-0.096479215;0.12873034;0.14122406;-0.08772979;0.03098377;0.16857417;-0.047536675;0.012816203;-0.048806198;0.056747805;-0.05131524;0.0013592573;-0.12128986;-0.24021699;-0.061663773;0.089664005;-0.09732152;0.06969861;-0.06371481;-0.11614672;0.123980075;-0.03682794;-0.03285075;0.08273285;-0.06776921;0.11263392;0.061142158;-0.050815504;0.0840726;0.2999831;-0.017576784;-0.042500284;-0.10574348;0.025781918;0.07284285;0.022505615;-0.085041486;0.022453003;0.06570257;-0.020123111;0.0025268903;-0.040900726;-0.026059913;0.23169646;0.14910239;0.032602165;-0.0061486615;-0.051611334;-0.075213246;-0.023310358;-0.04086419;-0.049318317;0.045515697;0.01974895;0.042516306;-0.053973794;0.007975392;-0.043590516;0.11899509;-0.115845434;0.046450596;-0.03992549;0.1618648;0.069465205;-0.04704734;-0.014157774;0.022045955;0.061255034;0.115840964;-0.05081843;-0.033745833;0.032799006;-0.015770257;0.055225983;0.10561503;-0.08445474;-0.12082557;0.051947884;0.008796579;-0.17974585;0.01782978;0.15711951;0.20332247;-0.054955892;0.057034124;0.27987826;0.050435312;0.060826622;0.12994078;0.10629323;-0.09977984;0.12846062;0.08028487;0.11814753;0.1941593;0.015532007;0.0044506597;-0.08602417;0.018760769;-0.23778985;-0.1657727;-0.009996553;0.013332079;0.068540536;-0.007981551;-0.20818692;0.03813133;0.02996028;0.013354809;-0.0449262;-0.00054926367;-0.042514145;0.05971718;-0.07651448;0.1372518;-0.050319064;0.11254975;-0.25494418;0.13167068;0.18796346;-0.03802056;-0.046396486;0.07630504;-0.0014620535;0.08474053;-0.03596568;-0.010947025;0.027301874;0.026229037;-0.112649076;-0.037956595;0.058517363;0.061607562;-0.15415291;0.052114945;0.26737663;-0.049003378;0.01340182;0.032525804;-0.069923654;-0.14504397;0.030574026;-0.028275264;-0.012727283;-0.009066929;0.21564841;-0.06952249;-0.060164023;0.029276287;0.05917644;-0.047012333;-0.08678757;-0.0015960151;0.057211194;0.14779928;-0.22254698;0.0047853244;0.16680758;0.0001054762;0.12141419;0.05765383;-0.095246464;-0.021590086;0.059378646;-0.1918858;-0.013482307;0.00724079;0.121632434;-0.054835673;0.0594175;-0.024435999;-0.17666773;-0.0067112935;-0.03276721;0.18433757;-0.056722;-0.15964893;0.12169977;-0.24077609;0.12707786;0.06367505;-0.03901063;-0.051720038;0.06620666;0.14612462;0.04393817;0.0029364729;-0.072379105;-0.026505472;-0.058677755;0.16439275;-0.03548254;0.047602154;0.0064893346;-0.008054433;0.029109757;0.008835487;-0.045947097;-0.00013735169;-0.046954222;-0.02992301;-0.036245048;-0.17172247;-0.0056936317;-0.10777395;0.050761186;0.040850412;0.02357472;0.020691488;-0.038234185
-0.0047448343;0.016981484;0.0077712196;0.0743271;0.017921876;0.102577165;0.05147405;0.044910923;-0.06597601;0.0597371;0.05948574;0.12045528;0.066442065;-0.043062743;0.099257916;-0.25957018;0.17001669;0.09512138;0.029382378;0.040518027;-0.042356517;-0.07445551;0.04915518;0.114100635;0.0331764;0.09295618;-0.0346326;-0.049800526;0.10269369;0.080864206;-0.004820589;-0.016915586;-0.08043571;-0.034359716;-0.06772992;0.047213804;-0.3622116;0.02008565;0.1210932;-0.12541367;-0.043283544;0.058145896;0.15086627;0.052721605;0.07706326;0.07863059;-0.033614244;-0.022914434;0.022807073;-0.14031447;0.21887794;-0.12932172;0.044028312;0.112788;0.025917564;-0.008080832;0.051947545;-0.1765632;0.08129062;0.016439399;-0.13561837;-0.07827092;0.04111225;-0.0049652006;0.11844998;0.054712813;-0.107436106;0.0810295;-0.025945699;-0.014520874;0.016831169;0.027142242;-0.047692366;-0.02343284;-0.028801568;-0.11716737;-0.059492324;-0.027111527;0.029677888;-0.05601666;0.10582594;-0.013158095;-0.02209172;0.08962197;0.107325725;-0.059636347;-0.07308556;-0.01331873;0.032821164;0.08677992;-0.054619532;0.042124227;0.04946074;0.03917997;-0.03321263;0.075160176;0.071777105;0.11438875;0.020850822;-0.052690446;0.062497813;-0.026860042;0.17856565;-0.059390415;-0.050497286;0.06803554;-0.037659597;0.047728058;-0.011014519;0.04059775;0.06569526;0.009004442;-0.025914006;0.069529645;-0.05040622;-0.0022908715;-0.009750017;0.07508134;0.034268912;0.048151772;-0.016472941;0.041264556;0.03949236;0.042332083;0.08677925;0.085831314;0.025231825;-0.26961723;0.06844403;0.06729606;0.10130752;0.10754002;-0.0031382723;0.086214885;0.0045203553;-0.25532705;0.037197985;0.062784664;0.05290018;0.008342803;0.056587666;-0.065748535;-0.06348783;0.035637695;0.2228351;0.09877562;-0.08892656;0.038849667;-0.03040397;-0.053283792;0.012121463;-0.035340235;0.0058586462;-0.07235827;0.011452217;-0.052103553;-0.06210989;-0.163879;-0.05483758;0.1527551;0.054013155;-0.020981852;0.29395822;-0.056223344;0.10341014;0.20887557;-0.15563;0.09112633;0.037234496;-0.005054378;0.014783379;-0.07641931;-0.041402936;-0.0043613547;0.06460728;0.02534321;-0.084310934;-0.21796545;0.031027926;0.050172012;-0.05854684;0.012652464;-0.19724189;0.05706188;-0.04684591;0.11511595;-0.06770394;0.11578713;-0.028003762;0.09321698;0.051819507;-0.07182339;0.035328284;-0.031292792;0.027355708;0.01945701;0.046032134;0.06053135;-0.054470204;0.12417359;0.014420419;-0.009494016;-0.0528503;0.10292022;-0.07314766;0.15693696;0.03608522;0.10201395;0.095319755;0.034159932;0.044244714;0.037209067;0.097743526;-0.06770142;-0.13324201;0.06062997;0.089283265;-0.03968991;0.06087485;-0.081930734;0.061720964;0.058093693;-0.013626169;0.10662704;0.25894293;0.103273444;-0.015327954;0.2422269;0.18798722;-0.034588773;-0.04657052;0.081697784;0.05281528;-0.043536466;0.044731252;-0.032339383;0.04965881;0.018917462;0.07987184;-0.016104165;0.0060279975;-0.022401562;-0.024413021;0.039705344;0.030657824;0.04901464;-0.27056494;0.08164227;0.06480157;-0.08712019;-0.04228919;0.13144186;-0.010744561;-0.3132633;-0.009835811;0.081007525;0.089310795;-0.02737906;0.087829016;-0.18982357;-0.11973571;-0.040590093;-0.032352895;0.010079979;-0.054699436;0.17771249;0.118803725;-0.0138452;-0.1278576;-0.046448477;0.03953533;-0.019123143;0.048633043;-0.008402332;0.044080388;-0.020071764;0.17636083;-0.06246025;0.028799355;0.019769242;0.017706199;0.010090688;0.04329127;0.026242748;-0.058405906;0.040135905;-0.07621691;-0.03737905;0.086778;0.09749214;0.09468335;0.25436094;-0.06099555;0.10020054;0.0072012036;-0.03633022;0.050808616;-0.08713129;-0.058246717;-0.039361984;-0.16004811;-0.26640242;-0.060866486;-0.1459902;0.046341088;0.021359485;0.040237688;0.02713831;-0.002342221;-0.002713964;0.08402321;0.06447882;0.073624656;-0.056668084;0.020032415;-0.037715185;0.061706215;0.02505549;0.0012989882;-0.030867716;0.026068795;0.2595043;-0.0527779;-0.0035878094;0.038045093;-0.20539005;-0.008889631;0.074056186;-0.07325155;0.0992295;-0.039821938;0.0017868178;0.093994744;-0.053495843;0.032609824;-0.14403233;0.11973816;0.009570195;-0.036152273;0.06705792;-0.024746738;-0.012728547;-0.058286592;-0.1655887;-0.008898978;0.0077047925;0.13431616;0.21164382;0.06864651;0.00768972;0.1734179;0.024388127;-0.05145262;0.047733687;-0.054690022;-0.022339227;-0.044326086;0.0136616295;0.015512134;-0.017549112;-0.117903635;0.027707318;0.27408335;-0.05728993;-0.04964992;0.078798726;0.07757104;0.07125045;0.06508009;0.06981751;0.09513616;-0.07002785;-0.07007655;0.08896744;0.13364807;-0.03440376;-0.10575961;-0.01876988;-0.07586656;-0.31649432;0.0984711;-0.04639449;-0.05213995;0.0718518;-0.05095631;-0.09490314;-0.03615356;0.005536348;-0.11652788;0.1356142;-0.0079677105;0.0063219015;-0.061937235;-0.074060716;-0.04933087;0.20427343;-0.01801606;0.042771928;-0.06663199;-0.058321845;0.054628022;0.0387934;0.1045968;-0.013743477;-0.031189926;0.020619258;0.16883649;-0.10848879;0.021435117;0.08444172;0.05491494;-0.04531309;-0.022509497;0.08938258;0.00035903088;0.01071874;0.11103334;0.07237603;-0.030317655;-0.032771423;0.04358585;-0.054686166;-0.02630812;-0.033584084;-0.2035355;-0.06326212;0.0059481473;-0.071158126;0.10219854;-0.010437709;-0.075526595;-0.03549812;-0.052067615;-0.024657452;-0.04921503;-0.01928546;-0.033929765;0.051393535;0.13266286;0.036402967;-0.04029727;0.01739435;0.048689615;0.14317007;0.039153647;0.021868892;0.010790551;0.0876933;0.103850484;0.02130739;-0.018775888;0.24670161;-0.04345348;-0.0592851;0.07562161;-0.060657825;0.029403526;-0.03544364;0.039780486;0.016376803;0.22996598;0.026606852;0.13186659;0.033179544;-0.07743827;-0.21456248;-0.14294258;0.03802747;0.029503094;-0.017998215;0.07320472;-0.06586036;-0.0363262;0.022693356;0.057860218;0.08061257;0.025615253;0.09881497;-0.025272708;0.08639738;-0.0320273;0.052526277;-0.057597887;-0.19541909;-0.14714377;-0.02416358;0.0757225;0.020195326;0.18933566;0.091437176;0.14215027;0.025419435;0.054409295;0.106693454;-0.02741853;-0.054522384;0.009594954;-0.048747443;0.07757939;0.052763134;0.023692325;0.099161424;0.119141914;-0.0035737683;-0.050308503;0.027297176;0.01540111;0.046038564;0.09205699;-0.042166445;0.05818551;-0.008444659;0.06944755;0.03268647;-0.014184883;-0.041944705;-0.044142857;0.022858275;0.0050914306;-0.054861296;0.20041119;-0.16407628;-0.047590014;-0.011101793;0.036124784;-0.15329334;-0.048821554;0.01510849;-0.068053484;0.12109991;-0.100695424;0.013301737;-0.1304486;-0.034296658;0.029196711;0.13341776;0.04711892;-0.079354174;0.09241425;-0.01969733;-0.007582306;-0.025420234;-0.058100387;0.09169261;0.0058741393;-0.067480996;0.048602026;0.06852333;0.007980642;0.018091498;0.096227586;-0.046751853;0.1291827;0.02325324;0.041843995;-0.044606388;-0.014305785;0.11423339;-0.030676505;0.042991616;0.015110595;0.058301076;-0.04777955;0.07006435;-0.06895444;-0.037334953;0.045100268;0.039185416;-0.10798545;0.10480863;-0.09785958;-0.057353225;0.092971385;0.00405146;0.015444614;0.033555094
0.14194332;-0.05435404;0.17080814;0.034201786;0.0019375429;0.033085868;-0.03555106;0.06820304;-0.0105549;0.14314392;-0.037552185;0.27197698;-0.0010618863;-0.04069254;0.09569856;-0.27032205;0.13254188;0.11128568;0.20797884;0.007123439;0.072408065;-0.03610915;-0.10345738;0.2791064;0.045173623;-0.10548312;-0.044762604;-0.09851685;0.05262036;0.084036365;-0.006348272;-0.0033951655;-0.073629625;-0.19229424;-0.019818874;0.08511098;-0.30079377;-0.080865026;-0.0031007212;-0.017010776;0.04067933;0.046760134;-0.056967918;-0.054109525;0.22499621;-0.052061718;0.06258898;0.024803413;-0.06345069;-0.16202448;-0.15270008;-0.021929383;-0.012159464;-0.026843034;-0.020276798;-0.14373465;0.1548421;-0.11569861;0.09368325;0.08269862;-0.06724912;-0.07750304;-0.016841339;0.23530774;0.015034854;0.0859084;-0.26264912;-0.055641703;-0.02586335;-0.05025295;-0.048966005;0.06471561;0.04263997;0.10931309;-0.019704776;0.03639834;-0.04067428;0.04244547;-0.0891678;-0.11974447;0.123953156;0.020247372;-0.020186668;-0.033600662;0.106365435;0.05769526;0.028488573;0.09258045;-0.015826149;0.0121265175;-0.030732641;0.14178847;0.043320995;-0.042269964;-0.102354124;-0.055031843;-0.07729171;-0.07694832;0.0051010274;0.0161289;0.121863425;-0.06115234;0.1738411;-0.012970673;-0.059750073;-0.046780284;-0.015593072;0.122716874;-0.022763936;-0.07127391;-0.028528461;0.109681055;0.016993998;0.13499427;0.06638805;0.059101276;-0.064422116;0.07520177;-0.05039119;0.0069677182;-0.026217304;-0.06006777;-0.0045575756;0.07410599;0.21049571;-0.0152114425;-0.06492269;-0.28056836;0.07570965;0.15818793;0.12991315;0.13752954;0.022433948;0.025055258;-0.037280764;-0.34497452;-0.09481776;0.004050889;-0.05411138;0.016025275;0.015896881;0.006153539;0.12038394;0.12351442;0.2356589;0.13598394;-0.028398588;-0.02691182;0.043609947;0.019400576;0.16345948;0.015351153;0.10651341;-0.16767459;0.0223702;-0.008530957;0.042759713;-0.3795573;-0.01501079;-0.101804554;-0.06517364;-0.1301799;0.079323046;-0.04321676;0.15148368;-0.09232671;-0.2915513;-0.030666221;-0.09237218;0.014259267;0.07787771;-0.05374185;0.06292421;0.051267296;-0.043086596;-0.0407482;-0.007523357;-0.29494232;-0.0022582526;0.071861446;-0.047233127;0.053373363;-0.23655595;-0.072233744;-0.028469699;0.052390035;-0.024689326;-0.023196286;-0.048941616;0.20882772;0.0059351064;-0.15969394;0.03877852;0.083513245;-0.07216235;-0.01645233;0.114351876;0.029736863;0.012501261;0.030562064;-0.039497923;0.037432477;-0.02261555;0.12751606;-0.24315353;-0.02066319;0.063118905;-0.1353946;0.030381735;0.0036032947;0.027381634;-0.0609131;0.05402385;0.035641413;-0.034456577;0.0053029098;0.03276248;-0.084161654;-0.07587932;0.04963937;-0.06132712;0.01573697;-0.078723036;0.062952384;0.04220405;0.045907475;0.04241996;0.2388974;-0.005957706;-0.022020807;0.037746653;0.017265955;-0.052575987;-0.011716278;-0.12257398;0.07666399;0.036105312;-0.15662114;0.039747592;-0.11317785;-0.055190906;0.06576463;-0.023709675;-0.007733501;0.022368323;0.034581304;-0.3806808;0.008563518;-0.0716057;0.17800902;-0.03815204;0.0025727907;0.053906407;-0.2539456;-0.011902598;0.034053188;-0.08248397;-0.03339005;0.084409304;-0.115713954;-0.054797158;0.08418612;0.09580074;-0.011453646;0.08378607;0.0989384;0.038220655;0.07825743;0.13741352;0.04058799;-0.04643008;-0.04813605;-0.093277164;0.062501796;0.0756954;-0.022187479;0.2779812;0.01777133;-0.04678095;-0.008168308;-0.11258949;-0.039330952;0.025010366;0.021441624;0.07516144;-0.041210126;0.06868525;-0.040835686;-0.07227068;0.15499747;0.08602602;0.027659353;-0.18286988;0.04753158;-0.13568471;0.07974989;-0.07229696;0.044683162;0.008173602;-0.033055;-0.0060397643;-0.0036494117;0.017938508;-0.12237676;-0.013125118;-0.033101805;-0.11685096;-0.1034403;-0.028010827;-0.09779946;0.09556703;0.13027829;0.08822381;-0.022182489;-0.047755137;0.088933945;-0.03900777;0.073493935;0.09037342;0.0034521117;-0.011009556;0.16573638;-0.30191398;0.01453514;-0.079168856;-0.088985175;-0.04759174;-0.014596815;0.069625415;0.07311711;0.021479236;-0.02352996;0.093903765;-0.038758967;0.060492776;-0.12655695;0.30143145;-0.012479192;0.031162838;-0.011473274;-0.032527767;-0.04291746;-0.03820333;-0.06481482;0.025652586;0.045782026;0.03513434;-0.028543226;0.018562118;-0.04020449;0.001044383;-0.05708414;0.03443926;0.05684885;0.03523799;-0.0011139148;-0.089266054;0.056124825;-0.063615724;-0.17165464;0.13605262;-0.023750875;0.121131;0.063940026;-0.05818165;0.052099187;-0.08599739;0.24219437;0.005675513;-0.010691491;-0.0800484;0.020259121;-0.12032122;-0.086103;0.1664249;0.063183166;0.004656095;0.06278849;-0.008276024;-0.42424044;0.14844298;0.006007386;-0.042054072;0.074874304;0.07208913;-0.058582827;-0.19068627;-0.028211622;-0.17777869;0.29889977;0.06599131;-0.19325297;0.068862766;-0.06948679;0.08062798;0.0022627614;0.06134625;-0.07268691;-0.013251813;0.03338451;-0.08341518;-0.056936987;0.034131456;0.08479456;-0.016619368;-0.03591132;-0.08805774;0.028121602;-0.011951494;-0.094710894;-0.058767576;-0.14134105;-0.092833646;0.04320358;-0.019993886;0.0689915;0.08222577;0.07076301;-0.086598724;0.0230442;-0.09065765;-0.21863274;0.05581509;0.011328355;-0.073384054;0.07675;-0.03128947;-0.10241291;0.1983719;0.0029243622;0.15684943;0.049660265;0.068029;-0.0015125098;0.056480862;-0.0651563;0.06899076;0.14212076;0.10906664;-0.019687645;-0.09228052;-0.1633559;-0.22151943;-0.0015237746;-0.08765848;0.037661735;-0.106823824;-0.029996498;0.053012177;-0.0113270525;0.024970237;-0.018790526;0.052062284;0.054348234;-0.13671958;-0.005445572;-0.089278415;-0.06311125;0.09235273;-0.17401771;0.2079586;-0.039923076;0.040202703;0.10404746;0.005686382;-0.10047153;-0.31204233;0.04344223;-0.009835305;-0.08005571;-0.000607386;0.16330981;0.25231558;0.060250323;0.11373177;0.083047286;-0.025930915;0.16066602;0.110527515;0.015185816;-0.085366;-0.036969185;0.08366901;-0.29609865;0.0033485834;0.024155717;0.122441955;0.0790035;0.26230812;-0.063184835;0.12118594;0.19972661;-0.0030371628;-0.054381177;0.029097917;0.044877447;0.08884219;-0.06025797;-0.077411376;0.06650629;0.092712894;0.09266804;0.04960792;0.097294606;0.07204834;0.0015598404;0.12208015;-0.006444048;0.061053395;0.06926025;0.010069828;-0.08266739;0.07322453;0.012374166;0.017148182;0.06674963;0.063434266;0.02751203;-0.06855335;-0.06400139;0.21446946;0.07677422;-0.05006208;0.051373553;0.01733258;-0.02634877;0.04504938;0.07145035;-0.019642206;0.113215916;-0.04758044;-0.06422646;-0.25972873;-0.075198136;-0.037110567;0.05853862;0.010858899;-0.003784074;0.095308885;0.04210422;-0.124199465;-0.024858605;-0.2657222;-0.04818181;-0.029470356;0.013308174;0.040314864;-0.01810808;-0.07456515;-0.021590574;-0.008288065;0.029930241;0.057815135;-0.3229273;-0.1286853;-0.03894693;0.057512335;0.011047317;-0.01763027;-0.015100554;-0.07570512;0.08826233;-0.16878636;-0.0180149;0.033228476;-0.027756;-0.052065436;0.0622977;0.008718405;0.07185799;-0.0449541;0.023594799;-0.02868488;0.08008631;-0.09694952;0.09622229
0.121905215;-0.060848814;0.021551263;0.06713763;0.07298597;-0.037499107;0.05947938;0.015734913;0.021934772;0.12707724;-0.0007917792;0.13338752;0.020993844;-0.2723501;-0.004690081;-0.20049386;0.071599275;0.0902696;0.22622944;0.070854075;0.06637451;0.025490481;0.052365202;0.014253513;-0.06632786;-0.020889169;0.019934261;0.054738022;0.020761814;-0.054876264;0.060928423;-0.002383534;-0.032137074;-0.07481065;-0.016140658;0.07397176;-0.07620607;-0.087658614;-0.06890129;-0.08301421;0.060668662;0.09715812;0.042706948;-0.071825065;0.14985518;-0.020485481;-0.00083306385;-0.030792119;0.03721306;-0.26780602;-0.08092005;-0.117091596;0.0625837;-0.026389642;-0.042537734;-0.043033622;-0.0047438783;0.09076094;0.14086288;-0.0573027;-0.076702125;0.038426265;-0.17606567;0.055372097;-0.12654267;0.060120173;-0.1250245;-0.037274595;0.04250639;-0.0345094;-0.028350415;-0.007871773;0.053449284;0.032445654;0.028374754;0.07051685;-0.061581105;0.024678357;-0.09490833;0.016660005;-0.07460692;-0.061200168;-0.0680126;0.0028013973;-0.021596387;0.070148274;-0.047900334;0.067570195;-0.17869937;0.052926924;0.09732205;0.086877674;-0.027731467;-0.06274424;-0.25344136;0.05536994;0.031813353;0.09132903;-0.097875;0.044025242;0.041412294;-0.005731952;-0.031863656;0.16445881;0.0703014;0.040978983;-0.080495566;0.100785196;-0.023346316;-0.021557359;-0.012858104;0.004451195;0.043773852;0.03254479;0.06381034;0.14099793;-0.008770341;0.028391354;-0.008153168;-0.008400351;-0.06203886;-0.08769897;0.087325245;-6.926709e-05;0.06912292;-0.013159565;-0.01828204;-0.32381085;0.077066384;0.094351865;0.11950911;-0.011827047;0.04016942;-0.075616926;0.016432477;-0.20642364;0.12709248;0.08853673;-0.048047855;0.0047382936;-0.059624974;0.07293318;0.09046015;0.13801563;0.21014749;0.04486551;0.02864741;-0.05414615;0.08330617;0.07185059;0.04870213;0.019963402;0.027972406;-0.09984087;0.03926262;-0.0015340358;-0.04823871;-0.18881774;0.016148215;-0.11659623;0.010920638;-0.15351637;0.15929438;-0.07746417;0.03610114;0.044562906;0.017642723;-0.06401847;0.029520467;0.019306356;0.08366364;0.14846103;0.106421724;0.055757407;-0.022907784;-0.04094838;-0.0009794881;-0.06812956;0.059907176;0.060842305;-0.080969684;-0.049338643;-0.12272961;-0.058750577;0.053761046;0.13010122;-0.07641266;-0.04991573;-0.19923851;0.009355287;-0.026949104;0.00050695695;-0.09417636;0.041267052;-0.06252955;-0.017145403;0.09527606;0.013800119;0.006492646;-0.067506425;-0.12572616;0.043152556;0.059112605;0.092915006;-0.26839387;-0.07124791;-0.10932844;-0.14725283;0.027880328;0.11610027;-0.09076644;0.042984486;-0.039198935;-0.029970884;0.016256755;0.1066017;0.11142678;-0.05237283;-0.07495904;-0.093593165;-0.06238812;0.019877678;-0.10546914;-0.11052991;0.019721448;0.057249244;0.011018326;-0.024407765;0.20961623;-0.06714915;0.09749118;-0.07984787;-0.039296914;0.04577415;0.08033921;-0.035478447;-0.0018012946;0.002472191;0.08769157;-0.016699927;0.031945486;-0.024271457;-0.15507431;-0.03315849;-0.02687761;0.033746466;-0.23379168;-0.035274282;0.030689992;0.030477734;-0.06706424;0.039566815;0.007481468;-0.014891537;-0.049604647;0.04854676;0.013790465;0.09232264;-0.047536265;-0.089342505;0.12554856;0.04246222;0.08768649;-0.05022365;0.01524849;0.07508989;0.07754933;0.026941713;-0.030934721;-0.11978049;0.047003236;-0.0131651675;0.035383917;-0.021954637;-0.014124169;-0.034069054;0.20124772;0.01635565;-0.015637983;0.09946175;0.12279187;-0.031574037;0.006055928;-0.040686734;0.086183466;0.056397602;0.12302087;0.04922565;0.037311453;0.064543;0.101704836;0.099157095;0.029056864;0.00058206485;-0.052708462;0.05355231;-0.00012683278;-0.05012705;-0.07595866;-0.007006131;0.09718414;-0.0041998937;0.053492215;-0.032422412;-0.0076647676;0.032002874;-0.123476386;-0.07469373;0.0020140752;0.09161035;-0.017824799;-0.026604865;0.00036142813;-0.083456576;-0.015111395;-0.037755206;-0.044830874;0.09397107;-0.043428715;0.1482423;0.08372228;0.06497441;-0.060288277;0.005174548;-0.013132307;-0.110608086;-0.002560191;-0.067680456;0.05112446;0.09436718;-0.02279442;-0.0010735188;-0.04520353;0.06548949;-0.080301166;-0.13743412;0.12129654;0.05750004;-0.05292192;0.08577464;-0.019524483;0.013960434;-0.091428615;-0.051492922;-0.03384458;0.0794694;-0.06781391;0.10407122;-0.0040859217;-0.041451007;0.0069520166;0.013053854;0.07950718;-0.03697393;0.061125163;0.097717814;-0.18860677;0.13605031;0.11499284;-0.19464433;0.14434098;0.02238884;0.0064993524;-0.065513104;-0.05906938;-0.026311105;0.049036283;0.095919;0.053677842;-0.0023264587;0.0362927;-0.15191677;0.04835605;-0.028470466;0.056814454;-0.021764783;-0.04972846;0.05889998;0.0015518072;-0.34810707;0.108919665;-0.06460077;-0.018422522;-0.055008274;-0.07199844;-0.04401965;0.017054204;-0.10736058;-0.097500384;0.024728782;0.07151355;-0.02023101;0.083058916;-0.04632458;-0.009506083;0.046069223;0.060243554;0.000539706;0.02809127;0.024172617;-0.038844615;-0.027324285;-0.0746425;-0.0015826329;-0.079780295;-0.06695756;-0.0075675165;-0.033644885;-0.052004058;0.152116;0.061873626;-0.074094445;0.08710623;0.025924731;-0.028492445;-0.026863607;0.013265081;-0.04314493;-0.010653087;0.018236268;-0.05520539;-0.27307776;-0.005430254;0.024928471;0.15341468;-0.026867647;0.037857406;-0.07438836;0.15593839;-0.008247831;0.13636741;0.028252367;-0.0073312796;0.04381407;-0.032144345;-0.040560685;0.017705413;0.07414845;-0.016168464;0.02360202;-0.102935284;-0.33311135;-0.19922353;-0.068719864;0.04196506;0.051347848;-0.12296856;-0.022181233;0.074521914;0.017593125;-0.110712305;0.08577026;-0.047070913;-0.09766296;0.047402658;-0.04568538;-0.09801164;0.09974994;-0.032213863;-0.018283412;0.105337314;0.05410279;0.11546749;-0.05264496;-0.005902702;0.11938259;-0.124289066;-0.039244857;0.03835225;0.07745073;-0.09066034;-0.009939984;0.25371996;0.12975386;0.09310073;0.05056811;-0.03519594;0.1264539;-0.025979798;-0.08273909;-0.005408118;0.025834784;0.051113926;-0.25402918;0.122909956;0.1541036;-0.052400764;0.08354871;0.062369484;-1.104438e-05;0.1584192;0.10522292;-0.07242314;-0.22370222;0.043597583;0.012920085;0.18052988;-0.097623035;0.10213755;-0.04959201;-0.07656544;0.16858904;0.05406673;0.09055788;0.06267096;-0.042501237;-0.06221821;0.05306253;0.10487944;-0.06667805;-0.029506419;-0.018380303;0.05573181;0.0043529836;0.045408256;-0.039204642;0.035732403;-0.06960961;0.0068758344;-0.072621524;0.14217356;0.045737416;-0.04126439;0.08070662;-0.05667607;0.18514532;-0.07271948;-0.01723039;0.08546539;0.0069310176;-0.078988194;-0.072946236;-0.142776;-0.07159737;0.00030034527;0.110902466;-0.09060765;-0.27278617;-0.074304156;0.022024192;-0.06683623;0.04478878;-0.33147272;0.055139303;-0.1470184;-0.05325524;-0.04123424;-0.0850682;-0.00334327;0.0673902;0.059668053;0.09286883;0.12145987;-0.2799454;-0.11279057;0.0028041222;-0.06334606;-0.0024499947;0.071853355;-0.019130822;0.045738865;-0.06859715;-0.25183478;0.062960595;-0.09528851;-0.017779611;0.0064916788;0.07750195;0.0132233845;-0.033083532;-0.02788656;-0.003618193;-0.046953425;0.006915916;-0.08215218;-0.052757353
0.059255198;-0.10737767;0.088051036;0.008097661;0.022113869;-0.07364203;-0.003903784;-0.07660615;-0.015111901;0.2142476;0.08211373;-0.05900922;-0.09605055;-0.13697155;-0.15269774;-0.0528533;0.072071575;-0.011346106;0.07259581;-0.00033655413;0.031756755;0.026358765;0.13160262;-0.05428018;-0.08241349;0.201191;-0.00079720764;-0.11524576;-0.03058819;0.06520015;0.057071846;-0.025573604;-0.055633377;0.042014595;0.0085385945;0.05428623;-0.15136302;0.14616004;-0.04513338;0.05370898;-0.09927819;0.04365292;0.21222171;0.035040624;0.14720756;0.03514292;-0.096435696;0.026886864;0.087026514;-0.063755445;-0.0012769648;-0.27934262;0.0737061;0.078548625;0.015618334;0.01008857;0.112931795;0.021523245;0.283206;-0.056525216;0.04454931;0.04887992;-0.028799506;-0.02806061;-0.04866524;-0.024170922;0.0038859972;-0.04668632;-0.042056557;-0.060106546;-0.017968377;0.041802194;-0.058541164;0.012324717;0.020911608;-0.21533766;0.13445139;0.031208096;-0.019262914;-0.043613054;-0.016897207;0.085710004;0.035369262;0.109137125;-0.0042679603;0.071636915;0.03376031;0.073702864;0.002140549;0.03756797;0.07342756;-0.12211688;-0.05330174;-0.042852346;-0.1621027;0.0032520632;-0.01181831;-0.021277484;0.062308054;-0.09440849;-0.020188365;-0.014727614;0.09637755;-0.09939297;-0.063099585;-0.047349855;-0.004660087;0.003928552;-0.016277405;-0.013799085;-0.08723433;0.06566313;-0.007137575;0.018461248;0.039910596;-0.014226655;-0.066101365;0.014265186;0.061666604;0.014675116;-0.042613037;0.030395877;-0.036768522;0.0064035365;-0.0516489;0.035924844;0.010119701;-0.060025696;0.029480524;0.04675652;-0.048375864;-0.09764734;0.090963155;-0.13342562;-0.030797014;-0.2668046;0.0068490524;0.031289943;-0.04805718;-0.018463314;0.07986589;-0.036810383;0.061782565;-0.026472138;0.20660444;0.0842407;-0.073681675;-0.097588755;-0.11888846;0.07158471;0.24538377;0.024966195;-0.051660683;0.20859118;-0.07627363;0.02683527;-0.07243633;-0.05682417;-0.017579563;0.027564032;-0.035601035;0.010388381;0.039831746;-0.06973548;-0.023010902;0.063797;-0.23341912;0.06470174;0.06838024;0.037392985;-0.029390492;0.07225928;-0.049518418;-0.024623537;0.01109099;0.046386514;0.018924238;0.005631376;-0.10011913;-0.057321243;0.0024119825;-0.010468288;-0.13042518;0.014996393;0.021819612;-0.17888543;-0.032250844;0.030411787;-0.07709055;0.07170187;-0.03523209;0.090789326;-0.015069317;0.03569853;0.08905076;0.061708864;-0.05399268;-0.028696671;-0.13783112;-0.09799815;-0.037631318;-0.032793794;0.03481668;0.078315556;-0.014749927;-0.017718071;-0.09158574;0.043916773;0.07740284;0.037701376;-0.062004346;0.04520627;-0.040219106;-0.016098585;-0.03258346;0.008724145;0.07441226;-0.06635141;0.026740646;-0.019694727;-0.08133431;-0.042644303;-0.11519989;0.02451278;-0.026541892;-0.06678876;0.017338185;-0.06932972;-0.021391273;0.01440989;-0.018460764;0.049978133;-0.009888829;0.10234848;0.022955175;0.054198634;-0.06447969;0.08120112;-0.03126005;-0.043676313;0.094469905;-0.20873483;-0.0194423;-0.024298413;0.03196501;0.03665822;-0.15251946;-0.03656377;0.035441164;0.053291507;0.0768794;-0.046955325;0.04385339;0.15866053;-0.053808726;0.047637712;-0.058225695;0.012127694;0.07061722;0.18027844;0.027171325;-0.030083429;-0.009132255;-0.014303516;0.052255508;0.0780673;0.038889326;-0.07082731;0.025729094;-0.044557992;-0.097467385;0.048877414;0.03907402;0.06805318;0.07286799;0.05897517;0.15985616;0.035879314;-0.019009426;0.1525869;0.07914295;-0.046053004;-0.06380807;-0.08434236;-0.0990393;0.0660946;-0.051341392;0.0650166;-0.007807048;0.0016056107;0.027643215;0.055191923;0.1758201;-0.04575112;0.02142876;-0.02575046;-0.042879928;-0.0003653178;0.032532725;0.09490534;0.17506845;-0.2394192;-0.025932195;-0.05545753;-0.073820725;0.10479131;-0.0601159;0.03550662;0.01989383;0.10005341;0.09663852;0.09865342;0.07228428;0.07214858;-0.06047047;-0.0582153;-0.039226543;-0.03884467;-0.10988637;0.04785715;0.0067050713;-0.03843396;-0.0834682;0.013826818;0.026776765;-0.19398762;-0.04056761;-0.05750595;0.061516363;-0.03801403;0.009423199;0.11165561;-0.024932818;-0.10850429;0.040071744;-0.007974091;0.05911403;0.05829704;0.14155793;0.0054553;0.07258987;0.020531151;-0.025077002;0.20412993;-0.072911;0.019389786;0.070922084;0.114721596;-0.11279492;-0.011903082;0.2860806;0.008995363;0.062068477;-0.036452025;0.057882298;-0.006451189;-0.12838134;0.21286677;0.14523293;0.021142663;0.12790707;0.093675435;0.29872537;-0.074747376;-0.00935771;0.012526554;0.017977213;-0.059681725;0.013726541;-0.05157965;-0.08769748;0.06669009;-0.016107054;0.017996056;-0.019689662;-0.10750715;0.09615117;-0.0046666074;-0.006908751;-0.14793627;0.039838035;-0.0221507;-0.051512685;0.003003623;0.017496567;0.0366688;-0.10533156;0.009715595;-0.09415783;-0.029860979;-0.053498946;0.13334936;-0.0064201667;0.007507967;0.009714192;0.10220305;-0.055251345;-0.07460717;0.08755918;-0.01535867;0.11315968;-0.07194376;0.01933155;0.095843546;-0.019869704;0.031134076;0.018236972;-0.1835462;0.034759246;-0.059629545;-0.071329035;-0.049293857;-0.054269783;-0.03417936;-0.00919965;-0.007908439;0.028919356;-0.15028779;-0.08714557;-0.03729937;0.011544823;-0.10120778;-0.03750522;0.0012705801;0.25622702;0.06858167;-0.22195466;-0.02235266;0.019033449;0.016799567;0.0657224;-0.0646731;0.031206878;-0.036187407;-0.105721354;0.038828503;-0.04571686;0.060107898;-0.048300233;-0.06044327;-0.058095064;-0.24267372;-0.027884016;0.05413886;0.015630372;0.19263755;0.052740812;0.020998277;-0.09180363;-0.010417051;-0.029050127;0.01241186;0.043693293;-0.06951132;-0.0385493;0.064048305;0.04014665;0.006364044;0.062609084;0.071838655;0.027272252;0.0013800506;0.12730974;-0.004814777;-0.0114770625;-0.01143265;-0.19135302;-0.027881058;-0.09096849;-0.04513838;-0.01931632;-0.06763317;-0.012002399;0.18767719;0.17347129;0.040168975;-0.07946951;-0.13885932;0.039721612;-0.09738002;-0.14464118;-0.09876606;0.10060863;0.07945486;0.02874804;-0.014326699;0.0076384894;0.13898046;0.0783537;0.016009219;0.068847224;-0.068758935;-0.04046229;-0.050214082;0.07715452;-0.046029698;-0.011247629;-0.024914827;0.04346827;-0.20003192;-0.04243253;0.03754892;-0.020861303;0.046039596;0.053942144;0.016280202;0.08505926;-0.027173014;-0.03858851;0.028191205;-0.014603681;-0.19005536;-0.08746833;0.011475749;0.084805846;-0.020201644;0.024020744;-0.022310486;-0.12823051;0.008878088;0.049001664;-0.119473085;0.085567385;0.10793693;0.106582314;0.3481607;-0.047343746;0.080074385;0.059578795;-0.00238571;-0.0067660366;-0.060948566;-0.117797606;-0.017173423;0.03621818;0.022661675;0.0508103;-0.15088756;0.09022691;-0.020479735;-0.06447336;-0.02058086;-0.20599736;-0.06545843;0.15599571;-0.065362304;-0.05511223;0.072603785;0.12415889;0.015339669;0.031192072;-0.080478705;0.080391765;-0.09939629;-0.026570553;0.1059179;-0.13154028;0.0954722;-0.047203798;-0.03890853;0.06276078;0.05496125;-0.045568943;0.02228751;0.017405739;-0.06654174;0.007167166;-0.0046105343;0.12988597;-0.0021424845;0.04807458;0.03296423;0.047275737;0.03566137;0.030860497;-0.014630597
0.021451093;-0.019998543;-0.058422074;0.010922803;-0.019511981;0.04777811;-0.11730003;-0.019593444;-0.0002346113;0.026573151;0.07519353;-0.1850092;-0.078487895;0.0078538;-0.0061737024;-0.022936637;-0.17052558;-0.112075165;-0.056279495;-0.030716464;-0.065476656;0.018484736;-0.002568698;-0.00057243055;0.046064045;0.23650004;-0.006978102;0.10582274;-0.07508685;-0.045204174;0.0606561;0.05408432;0.036170855;0.0440397;-0.04405393;0.013138581;-0.08199137;-0.022869317;0.0050465525;-0.08304241;-0.08012767;0.050835066;0.23522717;-0.003097648;-0.058802266;-0.037625168;0.021589678;-0.103032894;0.03657821;-0.03470142;0.17638116;-0.06562745;-0.008312288;-0.08258252;-0.09618546;0.013766669;0.18673542;-0.07768893;0.24403529;0.06181704;-0.11428233;-0.1450668;0.053005934;0.003587782;-0.08527857;-0.07992891;-0.2130059;0.019710395;0.029035095;-0.0761221;-0.005014598;-0.033535164;0.036376175;0.08445228;0.06520913;-0.070174485;0.03589783;-0.029274376;0.07205906;0.15847974;-0.2221407;-0.0004178322;0.046456892;0.07713475;-0.21522014;-0.02667637;0.26098734;0.05408545;-0.012551342;0.056676522;0.036139347;-0.083232194;0.06754768;-0.06124207;-0.25293916;0.048909996;-0.039748307;0.02971307;-0.003104444;0.05726641;-0.07881881;0.11079888;-0.020650256;0.08621819;0.018345483;0.007373396;0.013148946;-0.03560842;0.014629494;0.08146642;0.0074236696;-0.11193686;-0.040443577;-0.06529517;0.009106364;0.023850702;0.0601979;-0.033426486;0.03137014;-0.03088391;-0.055111617;-0.076683395;0.010052691;0.0565416;-0.12455284;-0.034504876;-0.010295054;-0.039742667;0.054401238;-0.1036384;0.046824064;-0.047874;-0.098869435;-0.045858577;0.03655147;-0.24574192;0.06888859;0.10657487;-0.012103514;-0.019233627;-0.05501719;-0.003181189;-0.0074595157;0.061588258;0.21365446;0.01537108;-0.06582791;-0.09561332;-0.017732112;-0.09555878;0.0016924466;-0.015616804;0.0008652892;0.23333786;-0.14972922;0.06091341;0.089385346;-0.0062140888;-0.076707214;0.13822931;0.050256547;-0.07898674;0.17288299;0.09947836;-0.13661748;0.032840077;0.016439512;-0.03745825;-0.011590096;0.029006017;-0.05900654;0.11216415;0.049078576;0.008908126;-0.029397868;0.049606714;0.037754636;0.11683661;0.019252446;-0.11928649;0.030253839;0.06906069;0.06409898;-0.09400585;0.007887477;0.057325557;0.008364798;0.27976862;-0.051899593;0.032454025;0.049978014;0.00950006;-0.016873611;-0.03985836;0.077548765;0.0018553719;0.06124087;-0.021004407;-0.09103496;0.12250097;0.056068595;-0.029181724;-0.045710042;0.06759622;0.034903686;0.00568087;0.009898866;-0.11925434;0.07938265;0.029462628;0.04707758;-0.05165232;-0.03989768;0.01175383;0.107200265;-0.0046407855;0.08666247;0.0061664386;0.03259908;-0.012950162;0.022442685;-0.057169035;0.06604443;-0.021035235;0.08952585;0.045778777;0.069409765;-0.17553279;0.13512729;0.048307028;0.062368236;-0.06011253;0.042364255;-0.052446947;0.1086775;-0.0037296661;0.009754854;0.046668507;-0.04373342;-0.08446104;-0.06479416;0.006908093;0.055390462;0.065940574;-0.066773035;0.04212163;-0.022611555;0.09759442;-0.011985317;0.04907183;0.039473273;0.027160631;0.10261499;0.1287706;-0.053865522;0.0374774;-0.037823036;0.11391153;0.0668444;0.023739072;0.121564016;0.15398352;-0.061570913;0.025489455;0.05894633;-0.08981759;0.017652396;0.0407166;0.045943405;-0.09504537;-0.025257517;0.02376311;-0.021968124;0.11318794;-0.08993802;-0.02066977;0.0062677683;0.07629281;0.06199947;0.06026629;0.055603143;-0.009343055;0.0528895;0.04369611;-0.018454162;-0.008943981;0.049397156;0.024641765;-0.057400227;-0.08206881;-0.028495263;-0.06661701;-0.036509205;-0.09585666;0.042301685;-0.012918048;0.05905042;0.05199435;0.015139187;0.09456127;0.2484422;-0.1166181;0.091428466;0.000702239;-0.011665066;0.07352259;-0.22243248;-0.1863283;0.016080149;-0.07506478;-0.017985469;0.09029836;0.01822765;0.040616117;-0.06412256;-0.056030754;-0.021661812;0.036849413;-0.00016849073;0.018959383;-0.06900154;-0.031621266;-0.057072114;-0.08264113;0.06305648;-0.066978954;0.011684338;-0.06631543;0.037969925;-0.024352372;-0.041229498;-0.055180438;-0.053541087;0.034018602;0.07377764;0.003448948;-0.14555821;-0.023985356;0.053604197;0.02547119;-0.030815562;0.09956078;0.022840224;0.022019396;0.042018965;-0.021539856;0.039545007;0.090674974;-0.10667403;0.0024330658;0.078600764;0.14926268;-0.027998285;-0.06111086;-0.023550529;0.051110502;-0.12125314;0.016320778;0.19691925;-0.14914958;0.14593388;0.004931701;0.078485034;0.0032873617;0.055171862;-0.05133722;-0.0739909;-0.15704706;-0.039353225;0.007891631;-0.067079455;-0.088214904;0.006264649;-0.009938652;-0.028912166;-0.052879356;0.123477936;0.013366497;0.073383234;-0.089955814;-0.07327618;0.10320386;-0.060817838;0.030295918;-0.023795336;-0.0312223;-0.09044313;-0.023786142;0.13638085;-0.26535875;0.07552567;0.09565477;-0.065894604;0.021666706;-0.03971071;0.06549652;-0.07105968;-0.02722269;0.038284864;-0.07784539;-0.10714421;-0.08425127;0.04473647;0.06766067;0.0024544413;0.06304337;-0.14297484;-0.063973516;0.07291463;-0.11386114;0.0039499598;-0.23917966;-0.07796072;0.025641816;0.0760759;0.09153153;-0.005409931;-0.26431835;0.0045991475;0.107028544;0.022031985;-0.074900635;0.015864829;-0.08427608;0.2538684;0.057537116;0.09179547;-0.056258615;0.1261423;-0.09352711;0.037791137;-0.072068915;-0.03285129;-0.07169983;0.08606081;-0.043211333;0.14576077;-0.035590377;-0.02150799;-0.033857133;-0.03566648;-0.040152866;0.090062186;-0.10941482;0.011330932;-0.029798683;0.053151146;-0.07053417;0.019606821;0.039642632;0.040689524;0.042845823;-0.031041529;0.038878687;-0.025168262;-0.0067553823;0.08526599;0.053519815;0.046810146;0.26238638;0.05489249;-0.110989556;0.0730086;0.02535049;-0.041718725;-0.09594243;-0.08302288;-0.030979123;-0.029901212;0.05801362;0.027278133;-0.16273554;-0.11068219;0.121332645;0.021595946;-0.10206129;-0.0012950171;-0.0590398;-0.0557511;0.018138994;0.040369328;0.049008183;0.07705634;0.3766337;-0.07189701;-0.04115754;0.035784766;-0.039250296;-0.10801565;0.06293706;-0.025142541;-0.12840495;-0.028105319;-0.104342826;-0.11612868;-0.047084466;-0.103693224;-0.029079124;-0.043264374;-0.049829174;-0.06984448;0.045559675;0.14369166;0.120300464;-0.048388466;-0.04016268;-0.034241028;-0.018830622;-0.034691505;-0.010814457;-0.0043020453;0.060542945;0.048089966;0.00212016;-0.05018411;-0.078229226;-0.24017513;0.0706396;0.054065436;0.03974061;0.13040861;-0.04450105;0.07531797;0.10969608;-0.05729461;0.24836665;0.004382585;0.05973479;-0.013108216;-0.08425812;-0.161392;0.023129374;0.0050037503;-0.08342783;-0.023888567;0.058766216;0.08072916;0.06577516;-0.05041448;0.02711829;0.10661203;0.043132346;-0.24922536;0.031241499;0.015655061;0.065471075;0.021345913;0.031736653;-0.079193704;-0.07902332;0.0047585666;-0.030563535;-0.02990113;-0.0026845853;0.048514448;0.03174671;0.04740906;0.0046971207;0.022694932;0.022079423;0.005349231;-0.021779617;-0.13785297;-0.038951885;0.027067473;-0.0698553;-0.031407524;-0.04608896;0.111172736;0.11014715;0.081320114;-0.04610131;0.2589239;-0.0009814127;-0.003155292;-0.022233713
0.042141054;-0.112245284;-0.038039222;0.0046027303;0.071198665;-0.005049092;-0.03736355;-0.008420778;0.07275826;0.08836719;0.06782529;-0.088427626;0.07915509;-0.11387425;-0.007173588;-0.048759006;-0.117622316;0.0054003596;0.03448722;0.026365088;0.074858636;0.10100837;-0.06854454;0.120696634;0.034088608;0.04929887;-0.049771708;0.02345133;0.013815673;0.028595502;0.041139267;0.10448989;0.06635988;0.06076043;0.0225;-0.143265;0.011601187;-0.0113309985;0.038324818;0.06842204;0.009124462;-0.015795693;0.18406902;0.011392742;0.10613384;-0.08740113;0.06437645;-0.04423954;-0.06660152;-0.02934635;0.027100911;0.08347634;0.012199303;-0.064885795;0.028973026;0.037530966;0.0986856;-0.042973388;0.083145164;-0.0303066;-0.075377755;-0.14445058;-0.021747326;0.18997906;0.03923313;-0.059652824;-0.05061136;0.07836014;-0.042364415;-0.066800795;-0.05119239;-0.05712481;0.01871628;-0.10840062;-0.0043656686;-0.119774535;-0.02673606;-0.08681586;-0.06023969;0.05427518;-0.020446816;0.071011186;0.06594908;-0.06960143;-0.29747495;0.016847644;0.019897921;-0.051854126;0.026152;-0.03051238;-0.020888448;0.10024607;-0.055905797;-0.006859907;-0.12786852;0.008597849;-0.03738831;-0.034543097;0.0469541;-0.0003242186;-0.01380048;0.04745637;0.08040695;0.09762913;-0.042971373;0.0972702;-0.02179326;0.02447345;0.041820183;-0.029194975;-0.039069213;0.0008345251;0.06184784;-0.02149784;0.059616122;0.12708198;0.0059766523;-0.030877601;0.09867656;-0.082568265;-0.022332706;0.020286415;-0.025441058;-0.03568254;-0.19272418;0.0512198;0.025965517;0.09189412;0.046221737;-0.07176447;0.05169668;-0.03562224;-0.071947545;0.027599372;0.023060082;-0.17142875;0.10263796;0.108138025;-0.038184844;0.11285985;-0.006817249;-0.08642819;0.16259836;0.06522671;0.07654118;-0.05116504;0.021236934;-0.019408394;-0.042172324;-0.027385639;0.045251813;0.044475116;-0.08173882;-0.028596608;-0.0033511335;-0.01828785;0.08512425;0.008458129;0.03864708;0.10270144;-0.049758267;-0.10279701;0.003805854;0.045799505;-0.10611976;-0.22908872;0.076533966;-0.032831278;-0.0050071175;0.0021187935;-0.059733815;0.06517224;-0.012661549;-0.06295944;0.019711655;0.0546698;0.08069781;0.05966961;-0.05395753;-0.0914977;0.070525415;-0.04444973;0.21139894;0.0063568545;-0.096850656;0.26051232;0.050224014;0.0048323474;-0.041882113;-3.2217242e-05;-0.045691818;-0.12287181;0.06321221;-0.06648151;0.0511116;-0.03104743;0.03506737;-0.012462637;0.010283052;0.12805727;-0.02119635;0.08155879;-0.0620521;-0.03499506;-0.1765823;-0.05599807;0.014570139;-0.056035865;0.008201874;-0.11713983;0.018113451;-0.058479298;0.052541535;-0.021696078;0.11773799;-0.057130437;0.059445564;-0.06079175;-0.030184073;0.030404296;-0.0098981215;0.05773349;0.20684956;-0.03677902;-0.107545115;0.026929885;0.02206517;-0.11725974;-0.027743319;-0.043273494;0.02442976;0.053604297;-0.03186687;0.0031730812;0.06651522;0.0023018313;0.04642173;0.050709616;0.006629291;0.07951299;0.0008901155;0.08487654;0.00861701;0.027910613;-0.08979675;0.01003422;-0.06616859;0.11323416;0.055693366;-0.053521786;0.016168226;0.037086915;-0.0076227537;0.11267828;0.06985598;-0.0145263625;0.028376134;0.017314015;0.040013127;-0.036592547;0.0016430307;0.2574135;-0.028668592;-0.043471392;0.0017083999;-0.14405005;-0.08962999;0.03856957;0.1294284;-0.01026703;0.008596943;-0.02192808;-0.03585613;0.07118726;0.039257143;-0.01307596;-0.11968601;0.065685116;0.08436796;-0.022276364;0.111301675;0.005223467;0.10017363;0.037707046;0.0371326;0.0064659384;0.09762332;0.029089075;-0.05777218;-0.12851404;0.034368273;0.08280104;-0.03423141;-0.034457866;0.10402827;0.027890386;-0.030824134;-0.002362156;-0.090447634;-0.06646378;0.12277921;-0.16322778;0.010549089;0.25227377;0.08600634;0.026803987;-0.07504099;-0.08804217;-0.08061529;0.08491566;0.06258923;0.025922572;-0.087299295;-0.10898781;0.05955429;0.09957914;0.07908676;-0.07270656;-0.037426088;0.0012769006;-0.049001586;0.028159404;0.11223458;-0.04222751;-0.11274915;-0.113977626;0.049091674;-0.0029112552;-0.07607418;0.101281025;0.00034439273;0.008199105;0.055632867;0.022464124;0.059669156;0.025271565;-0.11964403;0.009490028;-0.11804713;0.04250294;-0.02922629;0.0236591;-0.074363895;0.1275152;0.046525285;-0.0823301;-0.019103533;-0.06444355;-0.020092143;0.07225884;0.08480218;0.21695112;0.031895254;-0.05392904;-0.06268089;-0.031442918;-0.06678073;0.10362865;0.030432733;-0.09272188;0.22153908;0.041975655;0.117099926;-0.011603488;0.031564757;-0.0457905;-0.08762823;-0.21296798;0.042142082;-0.10178179;-0.06466683;-0.09213132;0.13674602;0.0050913477;-0.11184018;0.056896087;0.063342094;0.04823615;-0.043705553;-0.11746723;0.012075152;0.089435376;-0.053949494;-0.03602136;0.05078621;0.084202655;0.08901343;-0.0058650197;-0.0062258807;-0.067771025;-0.026635975;-0.08373684;-0.0074478164;0.10038908;-0.032997675;0.021370137;0.026655832;0.025257712;0.032874845;0.022105785;-0.07246063;-0.021035608;0.024563873;-0.08532077;0.029866543;-0.039932914;0.008775939;0.068116315;-0.056029215;0.2210494;0.059292283;-0.2920047;0.052861154;0.019303715;-0.06615106;0.03491359;-0.025278741;-0.23243965;0.07427076;-0.043459155;0.060406685;-0.05172345;0.03075963;-0.03535849;0.31232014;0.039977867;0.038768798;0.029078726;0.109091304;-0.024234777;0.046187885;0.013758979;-0.08788884;0.038265236;0.032014642;0.055212904;0.18237986;-0.069768466;-0.08626912;0.073704936;0.05972644;-0.040573217;0.108569555;0.08571061;0.10118691;-0.0405472;0.10338055;0.041865077;0.09888783;-0.064569846;0.02168265;-0.025536416;0.050565984;-0.0100904945;0.049500268;0.014116466;-0.025314566;-0.0023866077;0.013747339;-0.03346571;0.09037741;0.04025057;-0.024477549;-0.012581876;0.07034176;-0.059235424;0.18958373;0.06957951;0.0670319;-0.02813342;-0.01971367;-0.0035281742;0.060233913;-0.0059271837;-0.095654234;-0.09383488;-0.07518335;0.025565239;0.09014021;0.052291915;0.092572436;0.066143356;0.1034381;-0.056593917;-0.013414453;0.1288862;0.019338306;-0.018440936;-0.1612622;-0.020081041;-0.073801845;-0.22520404;0.034015935;-0.07336451;-0.06334027;0.06283958;-0.009439686;0.048010413;0.04017603;-0.049412936;0.04891108;-0.17558992;0.14475463;-0.025360245;-0.06882246;0.03807085;0.06478508;-0.0042076963;-0.13891469;-0.013042194;-0.024757408;0.14234813;-0.043334737;0.09280666;0.048260637;-0.07047113;-0.21625227;-0.06144414;0.15523176;0.010653324;-0.0735293;0.09363397;0.0862194;-0.01302212;0.04827964;0.18072207;0.005801256;-0.078837276;0.08927736;0.031184644;-0.02025657;-0.03190652;0.026617266;-0.03983982;-0.023688147;0.09490494;0.07975798;0.055763967;-0.12497857;-0.017329363;0.17876242;-0.04912743;-0.008434815;0.030104786;-0.008240078;0.016490856;0.04665886;-0.03630681;-0.022583473;-0.058263812;0.02139007;0.12515649;-0.11495346;-0.026505666;-0.07527309;-0.059153043;0.059298515;0.0003633787;0.059278898;-0.049184278;0.07208399;0.035793822;-0.039622873;-0.05052771;0.09351807;0.07282648;0.024545306;-0.0032292788;-0.08324043;0.10596237;-0.0912047;-0.060932808;-0.00930778;-0.003072552;-0.055169117;-0.03748098
-0.096821435;-0.03475006;0.09062993;-0.005773776;0.07645237;0.020541074;-0.06020117;0.05200856;-0.0056477715;0.07520772;-0.026655618;0.109168;0.050800275;-0.14818066;-0.006028491;-0.107450046;-0.00034067646;-0.037538122;0.046875127;-0.01471696;0.03998876;-0.0060470277;-0.05431914;0.11975054;0.025146175;0.028643135;0.09204869;0.06493578;-0.049092565;0.03978857;0.017014632;-0.14133036;-0.08342516;0.00039794602;-0.0036419542;-0.1252091;0.035485234;-0.17721549;0.0446673;-0.003359929;0.028942361;-0.024567613;0.2377981;0.0021762038;0.16391046;0.05702821;0.10317806;-0.045489907;0.041058224;0.07676294;-0.007340301;0.0089983065;0.051682755;0.141981;0.017413642;0.036931247;-0.021202467;-0.08461691;0.1634592;-0.09736514;0.13179576;-0.29109088;0.10473347;0.22137748;-0.06615611;-0.08426739;0.05511168;0.04578476;0.011840971;-0.025703887;0.10889056;0.046735127;0.08220088;0.02983769;-0.05594365;-0.0025548725;0.05455747;-0.0140092615;0.11958677;0.15595964;0.14476454;-0.01682199;0.05515853;0.009960674;-0.17608345;0.06334647;0.015760396;-0.037218135;0.09728451;-0.005113918;0.03442768;0.16184546;-0.027878046;0.01602197;-0.019321516;-0.052726068;0.01630475;-0.36831143;-0.15164658;0.018464455;-0.009336691;-0.04944958;0.013179143;0.102189;-0.08322713;0.0069611166;0.048350707;-0.09071121;-0.067285545;-0.021715334;0.07211443;-0.00494478;-0.09682711;0.0216878;0.08005117;-0.053952765;0.06086815;0.03562208;0.06340498;-0.02407867;0.07907937;0.070404716;-0.076317556;-0.0154533805;0.08119583;-0.059332047;0.06474051;0.3185667;-0.08081268;0.12267436;0.03893362;0.042127665;0.033852756;0.16402654;0.0102926735;-0.18556517;0.032337498;-0.016609969;0.030169347;-0.0579109;-0.0768104;-0.07151933;0.116047606;0.013205244;0.090839714;-0.10549064;-0.033629857;0.038108848;0.03925916;-0.0014809899;-0.07363327;0.06408479;0.059650447;0.005962733;-0.018666279;-0.050910693;0.10597169;-0.10135644;0.0522656;0.016850207;0.07841092;-0.15150829;-0.11241983;0.024291156;0.019732721;-0.27822334;0.054435555;0.10736932;-0.09290264;-0.046646353;-0.015124474;-0.022068098;-0.119493105;-0.039560143;-0.07460251;0.07012091;-0.043190908;-0.051500823;-0.023738017;0.02908341;-0.023933709;-0.05824381;0.11376727;-0.0894278;0.107826374;0.17655124;-0.0745219;-0.10249505;0.0421988;-0.009481334;-0.008208307;0.12541546;-0.04269138;-0.0002387323;-0.07740624;0.05806628;0.028672984;0.07117279;0.1962554;-0.062292647;0.0063558924;-0.061710436;-0.08544363;-0.01362597;0.13259567;-0.027416844;0.1037479;-0.035779633;-0.056043454;-0.041745786;-0.014646289;0.16516997;0.014082508;0.083798;0.0151288975;-0.022699067;0.038894538;0.054820474;-0.06870941;0.05479531;0.043707073;-0.022675775;0.13241489;-0.15400875;-0.39787298;-0.055260524;0.026418973;-0.010171701;-0.02717607;0.010338921;-0.03904672;-0.03122826;-0.072175734;0.103753634;-0.028620591;0.03836725;-0.00613032;0.0769972;0.0023158025;-0.07630945;0.012222328;0.1705183;0.04554934;-0.040404752;-0.043616787;-0.046877965;-0.07631942;0.086707935;0.040386435;-0.074627526;0.06765331;-0.00465607;-0.0057942267;-0.03127198;0.092180945;-0.027085671;0.051863015;-0.04498126;0.060818642;-0.03447764;-0.0028131946;0.17401108;0.062272895;0.023863863;0.05919447;-0.0053511118;-0.24755268;0.020680577;0.019466259;0.10634391;-0.031228498;-0.040770926;-0.02444884;0.029233698;0.06498251;0.059056096;-0.15423143;-0.040679768;0.048549373;-0.046627942;0.03292504;0.019359445;-0.035488315;-0.012838104;0.07311222;0.08203278;0.020881021;0.015673237;-0.028467372;-0.0064031784;-0.09343677;-0.045415957;-0.04438919;0.08856292;0.11549019;0.039833795;-0.028101567;0.04759323;0.025078066;-0.0346306;0.18609777;-0.1337091;0.042060472;0.10409385;0.041268084;-0.024816552;0.15300962;0.06142928;0.07080806;0.050006263;-0.057531297;-0.03320403;-0.09360007;0.04948076;0.10309153;0.0024996197;-0.019775402;-0.065732025;0.020927971;-0.08832258;0.025049862;0.075274706;0.034315802;-0.04775217;-0.012740681;-0.23653737;-0.02702012;0.004879923;-0.06325888;0.0043164087;0.10576785;0.07036104;-0.077616304;0.02965461;-0.031947426;0.07756817;0.02359718;-0.045254838;-0.05145302;-0.05677408;-0.018945822;0.0062883343;0.03831382;0.20567717;-0.008161041;0.01851668;0.019375963;0.0028142058;-0.04180145;-0.057016734;0.11882189;0.23442288;0.06589681;-0.015067062;0.02088463;0.076213606;0.07401392;-0.0010495032;0.13335338;0.16652672;0.22865129;0.06901453;0.073824756;0.082103625;0.07092364;-0.036061175;0.017049445;0.1270495;0.010271886;0.026766412;-0.0043246076;-0.2308221;0.18464816;-0.22145009;0.019834831;0.06841067;0.015220433;0.02021731;0.03790123;0.04398419;0.09494737;0.01759616;0.09915391;-0.031039456;0.07396704;0.0024614446;0.056237523;0.15706539;-0.16819957;0.16391353;-0.001822891;-0.27363783;-0.01219539;0.092354484;0.09417026;-0.008019028;0.021464573;0.08386947;0.1774376;-0.035549946;0.1080537;0.12086774;0.019814856;0.032526746;0.020369703;0.021307422;-0.06678614;-0.038976014;0.070599854;0.16758198;-0.065417856;-0.3333742;0.017092746;-0.07954078;0.036470637;-0.08635873;0.02374287;-0.049571842;0.07098007;0.0033735454;0.028296135;-0.1320187;0.047136918;0.02094871;0.20891705;0.111108325;0.1288518;0.07472431;0.007831182;0.046313923;0.06292248;0.06394776;0.09527882;0.076474845;-0.020276576;-0.053836316;0.18472825;-0.021693032;0.042963352;-0.020380026;-0.06228674;-0.24100913;-0.041600406;0.024992278;0.017256591;0.13870521;0.07659064;0.0061976;-0.06782871;-0.034122147;0.062957294;-0.13722853;-0.012779874;-0.06046503;0.018462304;0.048060153;0.043128204;0.03822936;-0.032177687;-0.22919361;0.12587883;-0.017994255;-0.12925379;0.034295667;0.05512741;-0.029561512;0.15894002;0.0091355955;-0.07892389;-0.053621832;-0.004189844;0.1617528;0.1938597;0.047375116;0.07863839;0.09826881;0.031369053;0.070071466;0.08077961;0.06772118;-0.07467472;-0.03240563;-0.011600542;-0.02362431;0.051509134;-0.013480412;-0.03285376;0.051472593;0.026950823;-0.030730844;-0.025384737;-0.13190065;-0.04730019;0.04037839;-0.061716404;0.012879122;0.11980532;0.12209461;0.08448815;-0.022226157;0.050422505;-0.15114574;0.28196636;-0.08429617;-0.06490311;0.102492996;-0.05112741;0.026288565;0.039053064;-0.028688783;0.044521015;0.03343262;0.0975631;-0.017871954;-0.039200407;0.005712608;-0.11837381;0.101685025;0.15994142;-0.07676479;0.032454547;0.1320469;0.10520448;-0.023722172;0.109047465;0.13270633;0.047731556;0.008082505;-0.04962427;-0.05449775;0.111652456;0.054140788;0.029918693;-0.027737403;0.06504571;0.02944998;-0.042207956;-0.018528285;-0.010811384;0.030915776;-0.034459673;-0.019423114;0.06675676;0.023406083;0.027789224;-0.025172554;-0.047812253;0.071631156;0.02870748;-0.007862729;0.04402887;-0.04000224;0.014942802;-0.07283362;0.054966584;-0.08581191;0.041377265;0.0010527313;-0.06107463;-0.014722165;0.049691524;-0.057017315;0.3316145;0.06752062;-0.06828672;-0.002285505;-0.09895935;0.09588166;0.05231029;0.045895252;-0.05551664;0.01978349;-0.25911456;-0.073142625;0.020316245;-0.060582507
-0.11284708;0.017845266;-0.044966657;0.06064489;0.025214802;-0.019036582;0.0979486;0.0009362848;-0.07883403;-0.016079012;0.02722806;0.015449125;-0.13314067;-0.2533597;0.031253632;-0.11528212;0.194754;-0.049133368;0.004784889;-0.018831782;0.05882769;0.026681703;-0.15404564;0.002822958;0.018675834;0.016958969;-0.060336705;0.04077768;-0.03417954;0.048737027;0.0016835196;-0.12977797;0.00253974;0.011981643;0.049500067;-0.13314609;0.17716947;0.03707201;0.06312272;0.06585375;0.08942579;-0.007985543;0.17303012;-0.06297052;0.116320424;0.080415666;9.208379e-05;0.042050473;-0.09055731;0.036647778;0.031324036;0.05195409;-0.01639996;0.06576701;0.0125089185;-0.03567095;-0.10641841;0.12991574;0.12583295;0.048976235;0.18292947;-0.14101472;0.12301666;0.14174749;-0.043030556;0.10670639;0.021375043;0.0014877801;0.012339693;-0.07092545;0.032214448;-0.004668596;-0.06106822;0.0003456727;0.06926291;-0.13696612;0.025079278;-0.1714825;0.123324744;0.065488786;0.096942686;-0.044250693;-0.030618887;0.020865519;-0.08527904;-0.014492062;0.12185094;-0.05398198;0.0832048;0.018365934;-0.04732275;0.039772842;-0.06651081;-0.008880767;-0.04265064;0.059541974;0.12763171;-0.293898;-0.03221624;0.037734155;0.0640462;-0.08220115;-0.040374424;0.09611895;0.1028816;-0.00430632;-0.0774621;-0.0012231687;-0.03630897;-0.07256717;0.0660595;-0.035539888;0.05883741;0.002971229;-0.07317605;0.043884706;-0.054026123;-0.014724737;-0.11440489;-0.05413722;0.021261701;0.0063727363;-0.023086902;0.020430602;0.04130916;-0.069130994;-0.017598901;0.11901238;0.082182944;0.003823734;0.09595745;-0.13863306;0.01665379;0.12066172;0.042817604;-0.15486369;-0.20576228;-0.07720138;0.09479803;-0.07518792;-0.04686295;-0.009311075;0.11801105;0.073553585;-0.021975353;-0.113597274;0.1417255;-0.047080886;-0.11986077;0.1574054;0.09403902;0.07420797;-0.03822744;-0.0553827;-0.0015370821;0.0716014;-0.06004326;-0.1726258;0.04538384;-0.015630567;-0.017020902;-0.1512053;-0.07294139;0.093134165;-0.068570994;-0.2091728;0.10524072;0.05108015;-0.04815818;0.0059921355;-0.025099538;-0.0068025724;-0.05715931;-0.02725013;0.09555779;-0.054861583;0.06314364;0.100159995;-0.10578215;0.022869479;0.022124236;-0.02961886;0.07125709;-0.02698375;0.08537611;0.058433793;-0.029022591;-0.103787996;-0.094989404;-0.068041526;-0.06453817;0.11740584;0.045837995;-0.06652204;-0.054425333;0.12906767;0.015469756;-0.07476745;0.16175167;-0.06918946;-0.019216094;0.06749853;0.0013518804;0.0049803182;0.19744213;-0.02803763;-0.022534648;-0.03981305;-0.05153547;0.07867792;-0.018587548;0.009611014;-0.009375382;-0.0406509;0.1245087;0.005994684;-0.0541407;-0.034397747;0.011067862;0.029702893;-0.043793164;-0.06420647;0.026575899;0.15071337;-0.23397008;0.062414505;-0.06633664;-0.1458096;0.016608821;0.045596108;-0.056855544;0.0013788098;0.053440306;0.060700577;-0.002881498;0.090519734;0.02849177;0.0020933384;0.07856444;0.104058266;0.02455582;0.14237799;-0.008885468;0.026852699;-0.06887344;0.049981266;0.03341073;-0.09651721;-0.008360091;-0.110265285;0.0072781714;0.10270523;-0.05999069;-0.047186736;0.047601826;0.044976965;0.061498366;-0.07976907;0.08530548;0.056984514;0.10798774;0.20527399;0.014740573;-0.03791673;0.043427274;0.095688805;-0.30729884;0.09275977;0.09418817;0.090273865;-0.017245632;0.094864346;0.028283713;0.096879594;0.09692666;-0.019353824;-0.20319802;0.049145095;0.060600035;0.073263004;0.060947623;-0.051143035;-0.027244389;0.027956836;-0.021253118;0.07121158;0.0944633;0.082648404;0.07116157;-0.18371494;-0.15063113;-0.09841445;-0.17912412;0.06784851;0.06875338;-0.03763249;-0.057450373;-0.019672705;0.04538305;0.012716646;-0.047166113;0.062839486;0.056382008;0.14432694;-0.024691029;0.114103496;-0.068616554;-0.0013919185;0.018403599;0.10249647;0.018963285;-0.08665827;-0.06454426;0.05020214;0.07009706;0.06909007;0.07412814;-0.03660042;0.0027242508;0.11568005;0.002919787;0.094827265;-0.068108805;0.060737148;-0.048173457;-0.09929803;0.094331615;0.019507658;-0.022423951;-0.08991919;0.09544385;0.026809502;0.084400274;0.05239253;-0.074082054;0.06916124;-0.18852916;0.018527564;0.0716554;-0.09620149;-0.06620972;-0.045453593;0.055696078;-0.022464687;-0.09915232;0.0039692195;-0.035331115;-0.010976732;0.086207904;0.0034087123;0.03855263;0.12999956;-0.06755041;-0.017861387;-0.04630377;0.07075938;0.09799245;0.114543006;-0.12825766;0.15982309;-0.1234626;0.060367327;0.08013447;0.023354456;0.00562721;-0.084449396;0.06303509;-0.15454061;-0.0557966;0.02419335;-0.023068404;-0.18011074;0.1298908;-0.4518529;0.084681824;0.070946865;-0.014935635;-0.020506807;0.10261467;0.1774765;-0.016815249;0.09135891;0.018931564;-0.013297989;0.0057060597;-0.008907581;0.052598234;0.01701495;-0.29122892;0.011942588;0.018268444;-0.106887646;0.05410323;-0.008368301;0.02155505;-0.04333724;-0.07338071;0.03645366;0.023409441;-0.07479818;0.07593315;0.057261243;-0.035193004;0.032554667;0.0736905;0.03129522;0.05055337;-0.09962494;-0.07314468;0.09439751;0.02929383;-0.14650762;0.03035587;0.056065124;-0.024865765;0.014478487;0.060676288;-0.01511775;0.042262375;-0.07987543;0.03130397;-0.046530478;-0.035410836;-0.01518851;0.1412457;-0.06808601;0.036151316;-0.0061551696;0.09114809;-0.057202183;-0.02256097;0.06336586;0.0653823;-0.03477492;-0.05219981;-0.0748219;0.09916939;0.024650082;0.0043931655;-0.009365053;0.07782711;-0.17459048;-0.11911597;0.09588524;0.053778004;0.07728275;-0.0065576155;0.058883157;-0.045612097;0.012203573;-0.0057244743;0.009410179;-0.010044088;0.0049191723;0.103499055;0.03126185;0.0061267004;0.025963675;-0.042507265;-0.23853737;0.012159685;-0.0321366;-0.064994;0.058446992;-0.042621415;-0.17243293;-0.08153507;0.035924923;0.06382145;0.02552836;0.030092075;-0.06294041;-0.08381569;0.039046846;0.05282616;-0.0006021232;0.013141339;-0.04708785;0.07959945;0.068855315;0.07564099;0.059186947;-0.072218634;-0.1534061;0.13843058;0.1170124;0.040901467;-0.03153633;0.041665193;0.054961905;-0.15786949;-0.118025295;0.040377494;0.045647573;-0.00196967;0.012301359;0.14439532;0.15178518;-0.030955624;-0.14483356;-0.13100415;-0.103566594;0.14684364;-0.15762477;0.040026065;0.05606712;-0.16628972;-0.029646462;-0.114844054;-0.05039438;0.111364424;0.115590684;-0.039105814;-0.03297769;-0.041056953;0.008796422;-0.04582279;0.012294097;0.25661555;0.06757837;0.06441871;-0.113198005;0.009002414;0.03958361;0.112977766;0.21350792;0.03426166;0.04672498;0.05623354;-0.031771656;0.13703574;0.023907086;-0.00469905;0.039710563;-0.026651554;0.13092002;-0.035356954;0.07121189;0.047470726;0.058011044;-0.06327504;-0.06253517;-0.008280186;-0.06470123;-0.025010627;-0.021589966;-0.0943192;0.03640285;0.10639476;-0.054271568;0.006772705;0.074598595;-0.013766071;-0.06541082;0.05986618;-0.03564031;-0.05554139;0.04097083;0.07870881;0.0013119477;-0.0034144013;-0.00027399915;0.2541209;-0.019386554;-0.0009739707;0.017555894;-0.055761922;0.040601652;0.023463292;-0.06450521;0.0335472;0.10617944;-0.26488304;0.015359756;-0.07284539;-0.06811293
-0.012319744;-0.014836707;-0.051888894;-0.06315729;-0.0010578838;0.08159725;0.05712049;-0.05437565;-0.0035596392;-0.019992333;-0.043594636;-0.32393965;-0.05461828;-0.12545179;-0.04848154;0.029330442;0.05118392;-0.07144511;-0.14960302;0.054810192;0.049851708;-0.0194388;0.024117634;0.117068715;-0.067691475;-0.014974904;-0.019727068;-0.017532134;0.042609587;0.14076824;-0.1499286;-0.16801865;0.058973;-0.019028336;-0.075132675;0.031405423;0.3291087;0.010424954;-0.028728252;-0.046202023;-0.012913562;-0.00975641;0.40669557;-0.00019230518;-0.091230795;0.008626098;-0.004757202;0.070774175;-0.091678396;-0.011560251;0.11870802;0.23469259;0.03067592;-0.091069445;0.04328422;0.09668937;-0.07261364;0.19978733;0.04955823;0.026218116;0.07370289;-0.0976175;-0.06376537;0.0036738233;-0.06605316;0.035131395;0.03954928;-0.019937834;0.065768324;-0.0075494046;-0.042944197;0.06118082;-0.06598888;0.07232333;-0.013259439;-0.08280512;-0.0030271749;-0.20751415;0.0071126563;-0.0057439017;-0.10260381;-0.0923965;-0.015054201;0.06546427;-0.063299865;-0.044113263;0.09141786;-0.087846115;0.039559133;-0.02668116;-0.0052201147;0.043379076;-0.0011144996;-0.074233904;-0.08412179;-0.035423256;0.026195254;-0.29051316;-0.03914389;-0.015587276;-0.08059819;0.02381055;-0.11700985;0.31695205;-0.011925269;-0.025560178;-0.028758697;-0.04560181;0.0078010294;0.08769104;-0.029648047;0.050765865;0.024717791;0.06174612;-0.10123336;-0.11399233;-0.061931737;-0.058585696;-0.044174496;-0.0053431354;0.084170416;0.0017893281;-0.067812495;0.03206156;-0.11706775;0.011423952;0.06468555;-0.15171294;-0.022326505;0.03089463;0.06043206;-0.023949917;-0.043258835;0.05875761;-0.028390646;0.07117797;-0.2297967;0.11279455;0.014581828;0.054179735;-0.032702904;0.038978137;0.13343625;0.045803454;0.019499892;0.03527204;0.018394029;-0.07436264;-0.057793193;0.10278181;-0.25744495;0.0064538815;-0.048309453;-0.07020177;0.131606;0.016022637;-0.07115352;0.13353613;-0.001190214;0.00086131913;-0.10805757;-0.084617205;0.09123217;0.006095352;-0.19362524;-0.23059191;0.13196023;0.02228969;0.084503084;0.04874703;0.07800259;-0.077692;0.0082575865;-0.014766861;0.025484473;-0.09030744;-0.061865695;0.16065371;0.0071245767;0.078910224;0.052649636;0.030299779;0.061126567;-0.043461222;-0.091917895;0.19550814;0.05236611;0.0965541;0.023458375;-0.16446519;-0.047942482;0.14791524;-0.029069033;-0.027019136;0.039189633;0.059208013;0.006502822;-0.10423662;-0.09724257;0.025304317;-0.11313409;-0.035026547;0.04748734;-0.090297446;0.2077412;-0.00687379;-0.0015532749;0.0029379996;-0.0672779;-0.01556578;0.037377246;0.058304414;0.022401506;-0.075844795;-0.20456015;0.06439352;-0.013598824;0.07352935;0.080292374;0.014694868;-0.017899292;-0.01642676;0.177041;-0.14506832;-0.024759023;0.003049827;0.004972766;-0.09986625;0.044264097;-0.018410759;-0.055260476;-0.019856319;-0.069497734;0.031663902;-0.055315744;0.027513716;0.05066996;0.194417;0.13254143;0.07838248;-0.053751934;0.30281344;-0.0741645;-0.036110386;-0.027359927;-0.0808139;-0.0011180184;0.042633764;-0.027814137;-0.44067252;-0.0731678;-0.07913772;0.051304698;0.119904585;-0.021059822;0.0066353413;-0.060220405;0.034064587;0.0041216607;-0.068077534;-0.013893315;-0.11403197;-0.0070254947;0.066543974;-0.010989889;0.10911736;-0.29920018;-0.04426147;0.038308106;0.03271265;0.06081115;0.03642899;-0.043861374;0.045267563;-0.008628929;0.017602982;-0.1952843;-0.089910984;0.112840496;-0.05414093;0.0117744515;0.08087259;0.042499218;0.10379267;-0.0016138117;-0.0076650004;0.0437477;0.037205085;0.08009014;-0.48376876;-0.090163566;0.102536015;0.046950135;-0.09339722;0.15922193;-0.07094002;-0.063965246;0.018060973;-0.010582223;0.11816695;-0.049812086;-0.12202035;0.07599324;0.15176676;0.03388016;0.046089984;-0.059996452;-0.033039816;-0.02196897;-0.059421707;0.008155165;0.095080435;0.0016020346;-0.015885457;-0.09231258;0.0016070642;0.026050575;-0.095123276;-0.14981292;0.058196653;0.033835296;-0.32142314;0.09259206;0.048523717;0.10143665;0.14566998;-0.051623035;0.010759831;0.04016962;-0.33788198;-0.06546377;-0.004845429;-0.057549674;-0.078555614;-0.0013731748;0.013256172;-0.5092278;-0.0070375456;0.042220507;0.011841615;-0.06481324;-0.04369793;-0.01517597;0.15218739;-0.0994087;0.0562097;0.008594499;-0.021056147;0.03463471;0.05869841;0.16476898;0.21127132;-0.04601441;0.0015044974;0.021006398;0.029790867;-0.096437365;0.0660808;0.06371291;-0.084988646;-0.16777231;-0.040600143;0.12223813;0.025371766;-0.06019852;-0.067943506;0.0010607301;-0.44351208;0.043652937;-0.0034956164;0.050188977;-0.34877303;0.05066117;-0.23475425;0.016179327;0.014931866;0.059482764;0.025962342;0.0059575546;0.13728638;-0.039442226;0.018175973;0.028306743;-0.032385655;-0.10159161;-0.03874853;0.15835169;-0.16032103;-0.15436271;-0.15994798;-0.011914766;-0.035554226;-0.09340974;-0.04551891;-0.07392699;0.009016037;0.047564894;-0.107792966;0.044821095;-0.092070796;-0.03868323;-0.07505539;-0.04981623;0.0610879;0.032511596;-0.049129684;0.16886294;-0.04620892;-0.056716617;0.09211582;-0.02569655;-0.19366702;0.00021223407;0.0021259622;-0.015993387;0.060736224;0.017129086;-0.10003932;-0.029166006;0.037790738;-0.037683275;-0.11811521;-0.07205108;-0.057898764;0.0692469;-0.101777375;0.00086864835;-0.0044816197;-0.13855274;-0.059704684;-0.25530547;-0.054432847;-0.10000968;0.019875854;-0.0057464703;-0.03035869;-0.12760481;0.014540205;0.09069072;-0.06436963;0.073045954;0.06748005;0.05364711;-0.0010397019;-0.053841878;0.050603803;-0.05649672;0.0313526;-0.13428871;-0.022939496;-0.010159168;-0.029356984;0.037743486;-0.040073823;0.024175353;0.029129568;0.06166351;-0.058030438;0.089803904;-0.042501226;0.07246532;-0.081012815;-0.013107667;0.09193355;0.0704484;-0.18793881;-0.16365808;-0.068856254;-0.007491141;-0.09906213;-0.029315637;-0.27784634;-0.31372878;0.0010705086;0.103666335;-0.049916748;0.016635662;-0.17010099;0.06175681;-0.07954011;0.092283666;0.008446872;-0.01346537;-0.025915451;0.21038781;-0.06416978;-0.026522681;-0.008335687;-0.12498922;0.05850785;-0.31891719;0.05165538;-0.014033164;-0.14555022;-0.046819806;-0.13071111;0.072295286;-0.007245591;0.012232191;0.022340579;-0.057476595;0.0012593106;0.21627428;-0.055177834;0.058770463;-0.09177334;-0.11038967;0.009742801;-0.04294323;0.033561945;-0.0061530937;0.18272698;-0.09632922;-0.071170606;-0.0502679;0.07471452;0.039583962;0.0688406;0.18938789;0.003002915;-0.08135407;-0.21379665;-0.046307493;0.12519316;0.029683169;0.21274811;-0.06556491;0.032132383;-0.045256164;-0.0085467575;0.062643655;-0.037510958;0.17447247;-0.026981823;0.077861354;0.043595985;-0.019073527;0.17539209;0.036674876;0.021474395;-0.027169514;-0.049631402;-0.09168892;-0.07015474;-0.12177019;0.01336822;0.0203767;-0.01302776;-0.03272794;0.044129815;-0.08024028;0.009884781;-0.030388903;-0.015803093;-0.0054351115;0.008344281;0.047031257;0.0029628002;-0.022325115;0.034788847;-0.03516551;-0.018389018;0.15649684;-0.04480915;0.037901513;-0.036281444;0.04898861;-0.053116046;0.08778193;0.006800697;-0.03286676;-0.07337056;-0.17599204;-0.013488761;-0.035426814;-0.007698126
-0.00947379;0.03168622;-0.039795257;-0.114613555;-0.10228076;0.038580395;0.0023422537;-0.086764626;-0.026468879;0.01796125;-0.028501878;-0.15837097;0.04022159;-0.17216063;-0.035323437;0.21414118;-0.06643993;-0.026895585;0.015603067;-0.05389854;-0.019364452;-0.056207843;-0.17066137;-0.16255358;0.049953535;-0.09781081;0.06037647;0.012405631;-0.044002276;0.0965079;-0.1483383;-0.12627514;0.062415306;-0.011305868;0.09468327;0.05868612;0.23638056;-0.11069911;-0.020484874;0.08311894;-0.0025128734;0.0014689438;0.18207434;0.023260403;-0.08696195;-0.009630371;0.029358838;0.09897275;0.07118562;0.08104107;-0.108841024;0.1914201;-0.017829068;-0.11351025;-0.027819667;-0.056925613;-0.035785496;0.14540198;0.12682134;-0.027378015;-0.009855883;-0.08421839;-0.07401435;0.075227104;0.045440774;-0.07141071;-0.041979786;-0.04526647;0.104923956;-0.0058998773;-0.070727624;0.0070382124;0.026296128;-0.059478857;-0.15345414;-0.023134362;-0.032952227;-0.15605709;-0.05949675;-0.14546192;-0.054092657;0.06775824;0.03152347;0.13319144;-0.10587495;0.0068448475;0.078913964;0.044479612;-0.0077100582;0.08995667;0.0036756601;0.022005498;-0.057901494;0.05285359;-0.02878998;0.08068479;0.06857486;-0.07957199;-0.059157174;-0.03374105;0.010690488;-0.01655038;0.022848848;0.20657338;-0.032840427;0.021386812;-0.024197198;0.038791277;0.028850378;-0.04194941;0.066363305;-0.09324149;-0.107394174;-0.031739764;0.05901221;-0.037518032;-0.013506843;-0.03615249;-0.00168248;0.019253772;-0.013402231;0.0372002;0.04563326;0.015859483;-0.16486718;0.050533514;0.05938823;-0.077345684;0.06553769;-0.027536368;0.014880454;0.08705722;-0.1175486;0.13551113;-0.045416743;0.19833355;-0.24219915;-0.038062308;0.00015677512;-0.081578955;1.664778e-05;0.0193418;0.16845056;0.025577862;0.11386697;0.026036743;0.13861734;-0.08582609;-0.111811526;-0.0124201635;-0.047422245;-0.08551244;-0.03428239;-0.14067297;0.08472462;-0.018710487;0.034014564;-0.10031166;0.057544257;-0.07882069;0.025450077;-0.2100058;-0.046367604;-0.08362331;-0.084299065;-0.16790263;-0.019841893;-0.033350475;0.011285673;-0.08625086;0.09045022;-0.060223944;0.075679176;0.042998884;0.044265777;-0.0024952057;-0.08489487;0.16477905;0.019739907;-0.021489872;0.03257746;-0.06764987;0.15444379;0.0407171;-0.019351752;0.05772199;0.027877064;-0.15364131;0.036394022;0.022982815;0.061872363;0.026742315;0.056761403;0.08012218;0.022267483;-0.00306465;-0.12795933;-0.033262152;0.10565169;0.08072938;0.021797158;0.1212645;-0.03652378;-0.05312506;0.08788038;0.027756287;-0.053057835;-0.12362923;0.04261752;0.019277615;-0.017687248;-0.016465718;-0.063559674;-0.11245515;-0.18424447;-0.019943865;-0.12262806;0.02421587;0.012332278;0.006232434;-0.0352691;-0.051725514;0.028740259;0.028507685;-0.15917799;0.08167961;0.0032455118;0.051454455;-0.061600365;-0.09670828;0.007392665;0.092184216;-0.0595552;-0.021357965;-0.14717564;-0.056446347;0.0648326;0.0143098645;0.14646894;0.01582324;-0.09768593;0.30913654;-0.097111434;0.020009177;0.08131751;0.033728525;0.20758471;-0.087462895;-0.045595992;-0.36923486;-0.0241264;0.016475683;0.073902145;-0.043971866;0.04822826;-0.055128843;-0.044903938;-0.06856108;0.0067742364;0.05344491;-0.009698349;-0.019722924;-0.09471609;-0.00076257397;0.045367483;-0.05892324;-0.10763693;0.018380433;0.11622721;-0.043871388;-0.10225766;0.003933829;-0.014146277;-0.04742473;-0.076087326;-0.0010299843;-0.10001656;-3.387159e-05;-0.066509634;-0.026557289;0.09532655;0.024225997;0.06337651;0.05697298;-0.10181734;-0.13652411;-0.009559532;0.07952493;-0.082484834;-0.29770216;-0.12823616;-0.0046221516;-0.07715199;0.01392427;0.091151744;0.004636351;0.047841743;-0.036925394;-0.0975512;-0.02159506;-0.14467049;0.014928667;-0.078100696;0.18347631;-0.07107833;0.13028938;-0.15893331;0.08794954;-0.049779784;0.10209524;0.052501153;-0.0076121716;0.033915054;-0.035515416;0.05829628;0.052318607;0.011141979;0.04413588;0.005311743;-0.1074092;0.045145288;-0.1812664;-0.14694588;-0.024392158;-0.013636406;0.19489993;0.038329028;-0.012673623;-0.029712893;-0.1768987;-0.0030881593;0.00389566;0.039171778;0.031902947;-0.023026634;-0.07212852;-0.3374265;-0.041212518;-0.010239678;-0.064984165;0.018233756;-0.07656568;0.034135617;0.027063638;-0.031146478;0.022005413;-0.027284691;-0.024831967;0.18560827;0.055049706;0.3032421;0.23517117;-0.06254007;0.10221575;-0.034172926;-0.05060451;0.051307164;-0.040271223;0.090255536;-0.07425785;-0.11491219;-0.10422442;0.030316781;0.05910038;-0.024243763;0.06479607;-0.078105226;-0.30696934;-0.060782317;0.053359807;0.013442213;-0.0745652;0.12692529;-0.1546812;-0.10090874;0.030626139;0.053825386;0.00066786294;-0.109004475;-0.0012170181;-0.06796865;-0.065845676;-0.022282755;-0.09023574;0.03848541;-0.08927716;-0.009442761;-0.12964074;-0.18143442;-0.049199365;-0.05464814;-0.0782605;-0.039440896;-0.03333086;-0.007926429;0.11757788;0.037060004;-0.103949465;-0.06250657;0.07965093;0.05771869;-0.0189494;0.069828436;-0.0020014367;0.008459703;0.057002492;0.10608555;-0.11258484;-0.05572541;0.24967606;0.018927952;-0.12198702;-0.04238971;-0.04606435;0.022355149;-0.046280578;-0.10445509;-0.036619846;0.039522357;0.032342736;0.032647554;-0.2109521;-0.00014131056;-0.04455242;0.07247201;-0.08884155;0.060065255;-0.022989726;-0.08357377;-0.022194844;-0.086271934;-0.05170567;-0.025055524;-0.010207741;0.023130476;0.05304169;-0.15558806;-0.07375631;0.09929403;0.032142382;0.069820225;-0.019393427;0.11996381;0.09446835;-0.0757561;0.026337836;-0.033678696;0.052818943;0.023839781;0.05114269;-0.09441431;-0.042162057;0.042323142;0.022409774;0.0727069;0.016828362;-0.028534362;-0.09578786;-0.009242011;-0.18885952;0.17359151;0.030294994;-0.013614484;-0.09047859;0.013862947;-0.06804861;-0.10184261;-0.06954072;0.0030767848;-0.015914837;0.038239717;-0.20188862;-0.26979712;0.08777019;0.03736045;-0.058438797;0.0001812657;-0.052598067;-0.07593501;0.06800677;0.054756057;-0.09996662;0.05890739;-0.37166205;0.16183132;-0.08822921;-0.07672626;-0.096134566;-0.047839697;0.019286193;-0.20906545;0.041654985;-0.08217664;-0.09558805;0.11970152;-0.056783497;0.19197144;0.008527069;-0.059389185;0.041764088;-0.033864535;-0.09247837;0.07398965;0.055216264;-0.016628927;0.03211808;-0.08510516;-0.039483316;0.12219919;-0.070090376;-0.09503111;0.0085513815;0.042932115;-0.001343408;0.076305784;0.024767224;0.059634984;-0.06881817;0.3263911;-0.027513256;-0.120985605;-0.19337061;0.009294228;-0.01815487;0.05859346;0.09808855;-0.061795324;-0.022368912;-0.10228865;0.01087508;0.014600873;-0.015186335;0.08591769;0.05874703;-0.018722229;0.056446657;-0.016913258;0.123819225;-0.021345101;0.05573031;-0.23400758;-0.0025401101;0.16374391;0.0052859695;0.0227862;0.072021626;-0.04263622;-0.06548958;0.025408259;0.042569652;-0.0023836903;0.05907587;-0.03001559;-0.20007658;0.010471017;-0.08794285;-0.11180953;0.032353036;-0.0088781165;-0.053367816;-0.038866147;-0.036254335;-0.022066994;0.02361039;-0.07905369;-0.028635828;-0.05069495;-0.045095865;0.05382807;0.029968124;-0.027498879;0.0033042552;-0.13763487;0.042468242;0.060020417;-0.060134754
0.06407681;-0.073597334;-0.030469153;0.011981596;0.020942574;-0.10316268;-0.03053736;0.0646111;0.0722798;0.03500869;-0.053596366;0.0054596798;-0.0054771914;-0.14144242;0.014472819;0.22476965;-0.008909991;0.057556953;0.018662047;0.060941536;-0.04626154;0.014648625;-0.057035074;-0.115282476;0.02575075;-0.07996633;-0.06752277;-0.07610694;-0.037786007;0.11305358;-0.12649484;-0.09757607;-0.054467447;0.14498809;0.022160461;0.032542057;0.2281049;0.06716329;0.029449595;-0.0102808885;0.039475735;-0.060462475;0.1319966;0.011453461;-0.025854455;0.053914174;0.045459718;0.098729804;0.08235344;0.081562094;-0.10899835;0.18855426;-0.007962708;-0.008788103;-0.020751135;0.086180635;-0.12724076;0.06110758;0.1751293;0.066624895;-0.09343347;-0.08829295;0.033060804;-0.06736186;0.06326135;0.05526905;-0.059903808;-0.025384476;0.010856477;0.03821757;-0.035649493;-0.07070382;0.010528666;0.044407178;-0.16139704;-0.19563435;0.03476949;-0.16070043;0.002231166;-0.047259003;-0.11690641;-0.014007669;0.01937351;0.12809376;-0.08770032;0.027836133;0.0847851;0.104710974;-0.110294245;0.039658736;-0.044368975;-0.071564354;0.02327059;-0.0031653491;0.043795306;-0.07553731;-0.12419674;-0.25967062;0.04902175;-0.11183061;-0.064761646;-0.07185857;-0.07362236;0.17660506;0.030710246;-0.023912976;0.052783616;0.060144093;0.056289956;0.018832287;0.036549523;0.018602515;0.0074184407;-0.0030344636;-0.009376887;-0.013596222;-0.024506953;0.050111417;-0.034730352;0.055541143;-0.09123161;-0.10083296;-0.033368047;-0.066132;-0.07852258;0.011706685;0.094447106;-0.026744947;-0.047810376;0.0018867785;-0.07819612;0.05643891;-0.00069048535;0.05430908;-0.17121139;0.056426857;-0.06487943;-0.06387505;-0.04981327;0.048820823;0.05506554;0.055767037;0.10615404;-0.060879473;0.21821482;0.059325993;0.15831676;-0.028895881;-0.085822575;-0.11861238;0.008125453;0.027465614;-0.11735049;-0.159132;0.14032073;-0.05527286;-0.11084119;-0.25503814;-0.0688669;-0.028730974;0.005333415;0.033621427;-0.0641324;-0.02099645;-0.13171802;-0.34131482;-0.15827948;-0.0677464;-0.051808517;-0.008204322;-0.054730065;-0.04584092;0.05476553;-0.018798761;-0.122859925;-0.05352247;0.069043614;0.043495215;-0.10781484;-0.029059252;-0.008787767;-0.018769015;-0.043410808;-0.0660983;0.009947961;0.015572403;-0.038222697;-0.010071343;0.080925375;0.0343614;-0.016316988;0.14480591;-0.10621778;0.023932535;-0.078806974;-0.083863184;0.034766223;-0.12260459;-0.15138918;-0.06175129;0.047838755;0.042932022;-0.04676767;-0.09181929;0.018080693;-0.10469889;0.06283225;0.05295099;0.036166046;-0.018509146;0.021583775;0.06153655;-0.018862251;0.068262324;-0.21471708;0.06730961;-0.1593124;0.11526917;0.016841093;-0.00085138675;0.024514874;-0.07120643;0.032451127;0.10436457;-0.1546865;-0.035646517;0.020407006;0.11083622;-0.06851781;-0.04157769;-0.037226476;-0.019006105;0.031313125;-0.082806446;-0.07070095;-0.02405499;-0.11227626;-0.11380794;0.05597997;0.022174539;-0.019947017;0.22967279;0.05889604;0.013943801;-0.00968173;0.001968943;0.09665269;-0.0542145;0.064384766;-0.37411088;0.050631613;-0.04711074;-0.043212235;0.14109233;-0.041583207;0.015415742;-0.045595184;-0.0058251903;0.008726358;0.037359048;-0.05226458;-0.034736287;-0.047393613;-0.0074193696;-0.04320636;0.025707725;-0.2239298;0.0023929009;0.16701004;-0.06524424;-0.070307076;0.036718752;0.066531405;-0.010198982;-0.09164881;0.06022088;0.10185298;-0.08532471;-0.0035420775;-0.04733541;-0.053869847;-0.06150717;-0.07610672;-0.08905085;-0.12927336;-0.14552736;-0.0202145;0.09011239;-0.10492493;-0.19891994;-0.060009666;0.06089348;-0.14927372;0.028387617;-0.068039015;-0.045719806;0.0063174716;0.00092771824;0.044560384;-0.014523366;0.019798469;-0.16913764;0.00016318615;0.054065723;0.047112238;0.07451623;0.012760595;0.0065541132;0.011521985;-0.03941062;-0.10177193;0.060692895;0.032277923;-0.013505574;0.035407867;-0.060428187;-0.029577643;-0.0054937494;-0.008672854;-0.11175187;-0.09861846;-0.42224535;-0.30604878;-0.05568409;0.03033277;0.13411273;-0.04256523;0.0068198405;0.065570705;-0.16002509;-0.014192837;0.04041901;0.08773862;-0.020361472;-0.05011816;0.08068226;-0.244607;-0.005374364;-0.08638488;-0.04540302;-0.004529336;-0.036045898;0.05771219;0.023866592;0.052069657;-0.029734999;0.01917564;-0.066713125;0.014709107;-0.108992025;0.24696153;0.21167295;0.02085068;-0.018964369;0.06093085;-0.059707344;-0.08319918;0.12992296;0.044403903;-0.09458627;-0.06376592;-0.007505056;0.1991133;0.05850876;-0.01890254;-0.0207447;0.075478226;-0.22575763;-0.14116621;0.06016286;-0.057395052;0.046401482;0.0041288547;-0.15368272;0.021953298;0.094243795;0.09996798;-0.016547928;-0.033428155;0.14602076;-0.016681101;-0.09093229;0.028230844;-0.055656157;0.0679255;0.021242589;0.052439947;0.06739938;0.07568036;-0.028613107;0.05315682;0.051695216;0.0684888;-0.09524537;-0.043256585;0.008875237;0.06849499;-0.004076592;-0.023010246;0.058291867;-0.10654027;-0.027504247;-0.08253095;0.038743123;-0.02157377;-0.049262684;-0.043501895;-0.19321308;0.04218707;0.21499588;-0.043646146;-0.0970106;0.045269445;-0.045165993;-0.033748806;0.054487508;0.12281595;-0.079391;0.0012631771;0.044688597;-0.0373048;-0.39160758;0.098966084;-0.0005048505;0.1674171;0.0947236;-0.114493065;-0.10237489;-0.28261155;0.06265666;-0.26631773;-0.023052074;0.014352178;-0.04191268;-0.10761415;-0.0023881667;-0.19017139;-0.046530355;-0.08039483;-0.0783354;-0.025745235;-0.24345987;0.15573783;0.008146945;-0.08887761;-0.15772317;0.03387884;0.08398797;0.0020261507;-0.1028111;0.09555193;0.086213104;-0.079746254;0.02693296;0.0038602024;-0.08970128;0.024688456;-0.057746578;0.15349688;-0.016601624;0.07305614;0.035667703;-0.0831801;0.067142576;-0.0326604;-0.0395942;-0.1163634;0.02716023;0.032787528;-0.07192695;-0.10435642;-0.120043464;-0.23913705;-0.07044533;0.06688889;-0.08673879;-0.0080130175;-0.020431336;-0.023292376;-0.060959697;0.025343265;-0.029875914;-0.030255197;-0.21153097;0.1487891;-0.035161782;-0.025499726;0.02292062;-0.1314183;0.05984188;-0.22434618;0.06897905;0.01271695;-0.047984436;0.0058306064;0.015851274;0.10182061;0.006382892;0.033460334;0.1821703;0.07882378;0.060591925;0.053344868;-0.11032137;-0.05584419;-0.004525381;-0.09856252;0.021673046;0.010723224;-0.008658678;-0.130355;0.006831707;0.049479198;0.030006357;-0.03180018;-0.009305443;0.015764073;-0.07024463;0.3615175;0.00090074854;-0.058246892;-0.13172013;-0.049200676;0.024065223;0.15059674;0.20656593;0.037999835;0.04525487;-0.03167089;-0.052994292;0.0041144993;0.06979455;-0.029882343;-0.059577614;0.05467625;0.04083722;0.054722525;0.017126592;-0.04446136;-0.08618768;-0.021095717;0.05021288;0.1096936;-0.0103987595;-0.08829914;-0.0074903117;0.06408693;0.065684065;-0.10345983;-0.10400749;-0.17706646;-0.05542795;-0.012835122;0.08467117;-0.07122826;0.019798944;-0.0340763;-0.100283556;0.07724239;0.03263867;-0.034050904;0.0652847;-0.065126695;0.010197844;0.07727448;0.011426549;0.04048207;-0.05647772;-0.0788018;0.01876099;-0.0891852;-0.061571904;-0.07154568;0.042059246;0.011444956;0.111586235
0.006933002;0.01467207;0.0133105;0.014096933;0.05089619;-0.03518213;-0.022399507;0.033430595;-0.040297914;-0.021784449;-0.03729697;-0.105750345;0.02999867;-0.1652792;-0.019255597;0.13578674;-0.2227561;0.0658336;0.045402057;0.004422172;0.10188482;-0.0012517669;0.05751032;0.048448708;-0.04248553;0.055187043;0.024280725;-0.12216795;-0.08317594;0.04797591;-0.16108114;-0.08930976;-0.041620675;0.13684373;0.04420441;0.024537321;0.08697476;-0.035608973;0.0012474383;-0.15076447;-0.0019556542;-0.0025332584;-0.030409288;-0.051220927;0.044689048;-0.0348432;0.092560485;-0.01353206;-0.049431384;0.061278805;-0.21139646;0.07982432;0.07468278;-0.066903874;-0.054298457;0.034486406;-0.092206225;0.08758727;0.11568941;0.029603686;0.029661411;-0.27541187;-0.034060445;0.11942597;0.08706373;-0.08757693;0.14240506;0.09366796;0.025177106;0.0029873662;0.065159574;-0.02814679;-0.02116833;0.0629639;0.07954294;0.0687605;0.014981332;-0.103872724;0.0050359303;-0.013530019;0.05006224;-0.16158126;0.07427206;0.103980824;-0.021620283;0.06868547;0.121804535;-0.07431672;-0.06542617;-0.011625573;-0.09903041;-0.029227333;0.0031923025;0.022647403;-0.008344676;0.036790963;-0.08689348;-0.026673788;0.0041702995;0.04338895;0.06622855;0.020974724;-0.1387259;0.14548504;-0.04802818;0.048160333;0.045396745;0.040860232;-0.047292482;0.0149008585;0.049224082;0.058787767;-0.14267528;-0.089278184;-0.0037593876;-0.20049292;0.01209884;-0.023863437;0.008471883;0.043168776;-0.06796364;0.021929096;0.010299584;-0.02426425;-0.2771287;-0.069151804;0.0012849611;-0.04192476;0.02097623;0.07241445;-0.055205148;0.049655426;-0.028583603;0.13994828;-0.1555629;0.005692457;0.15647596;-0.14383838;-0.14246058;-0.03255208;0.017685937;-0.06461991;0.1418349;-0.058605336;0.18261033;0.033220958;-0.08773281;-0.03629133;-0.03817501;-0.047310796;0.050699975;-0.0747457;0.06722701;0.000909554;0.053762894;-0.08965861;-0.049154945;-0.22863798;-0.005161915;-0.05887955;0.02201552;-0.2050053;-0.13859361;0.052659117;-0.1463145;-0.13550885;0.07102101;0.0051531834;-0.030897144;0.06720113;0.026941996;0.10256736;0.0010872429;-0.03590703;-0.068102665;-0.08497349;-0.0049129915;-0.019981755;0.085061125;-0.017449647;-0.042286534;0.047581974;0.067711785;-0.11185909;-0.07514949;-0.011026052;0.056462664;-0.020479111;0.081605196;-0.04131854;0.007378844;0.0025296812;0.037421316;-0.060119167;0.013765027;-0.028016957;0.07415958;-0.11497885;0.00830394;-0.07746375;0.103337035;-0.09317184;0.07861839;0.18645915;-0.09089684;0.093694;-0.010540769;-0.10433692;0.034629956;-0.011056575;0.06702133;-0.25926408;-0.06968923;-0.06813003;-0.03298028;0.049519658;-0.13625225;-0.018686604;0.04991408;0.02769662;0.0028888774;0.017205557;0.13352711;-0.03354096;-0.0056765988;-0.036514577;0.024077548;0.124140985;-0.15911298;-0.003257252;-0.057243485;-0.051128566;-0.051069707;-0.09871667;0.13754845;0.009475939;0.025487496;-0.0042353165;0.041874602;0.10163581;0.047686655;0.2517485;0.076720834;-0.021478036;-0.017403733;0.044484776;-0.010678187;0.059044667;0.076820545;-0.21648015;-0.048660442;-0.008986202;0.005437184;0.06764447;-0.023096805;-0.029773772;-0.024887284;-0.06712622;-0.05212298;0.13422987;-0.049199566;0.13048388;0.06855244;2.9192284e-05;-0.03970874;0.04525691;0.00900181;0.111932695;-0.10727669;0.02685465;-0.08967;-0.07305326;-0.008428185;-0.18705547;0.061796665;-0.009483137;0.024297087;-0.039126292;0.061790228;0.07237789;-0.004350045;0.071540475;-0.008467043;-0.04543439;0.06864197;0.06207454;-0.061906748;-0.040963262;-0.066619016;-0.2064614;0.101275854;-0.044709478;-0.037460037;-0.01012376;-0.0721082;-0.11367921;-0.026236728;0.03202691;0.013490148;-0.037211966;0.03811595;-0.024240771;-0.07065082;0.040398136;-0.10964343;0.13652429;0.117366225;-0.09358793;0.031883094;-0.02713832;-0.007395503;0.15652746;-0.077940226;0.07924283;0.0024169341;-0.023929553;-0.09300694;-0.00221317;-0.03543021;-0.08460864;0.038907073;-0.31027752;-0.076348454;-0.0442052;0.045541033;0.0057781897;-0.20726837;-0.042162366;-0.00096795446;-0.3578274;0.015502876;-0.009041669;-0.0069665164;-0.11110799;0.04187483;0.16968927;-0.32361904;0.050097965;0.007822918;0.033643324;0.041261785;-0.073225945;0.0598373;-0.0049953447;-0.04822249;-0.041498095;0.0006879537;-0.18001357;0.057929244;-0.05208157;-0.033451963;0.2287631;-0.09341127;0.003043564;0.09559093;-0.09370164;-0.104681306;0.17259319;0.18317087;-0.08443976;0.015939439;-0.0017767728;0.034512304;-0.08437437;0.084264435;0.07052373;0.01483267;-0.249186;-0.12195421;-0.02939261;-0.02661557;-0.2520784;0.07884881;-0.10167841;0.018991401;-0.04021523;-0.073364496;-0.10851593;-0.027584644;0.08819701;-0.048106004;-0.012509247;0.10878465;-0.12843747;-0.019990165;0.005062674;0.1493964;0.008466693;-0.06182581;-0.2793541;0.020551711;0.14251305;-0.049382385;-0.031445798;0.060465842;-0.13086097;-0.02300765;0.003372559;0.039525714;0.10465317;0.017161343;-0.0024512254;0.02125426;-0.04114953;-0.03124015;0.049957242;0.08816726;-0.07180728;-0.021975696;0.13219176;-0.16588229;-0.2895084;0.028831352;-0.016421117;-0.0072402786;0.052592624;-0.11298205;-0.023972956;-0.047330137;0.038278375;0.0639416;-0.28105858;0.053154774;0.101680055;0.08786755;-0.009446916;0.010628222;0.08925766;0.05817584;0.011175674;-0.19644602;0.022474669;0.08967941;-0.07629872;-0.08992332;-0.027377218;-0.19913319;0.033524454;0.019348888;-0.069441944;-0.044698525;-0.28009194;0.17071638;0.07112684;-0.02268328;-0.10681814;0.048401672;-0.07070337;0.03980227;0.0019105141;0.09372262;0.11003041;0.08315872;0.025498746;-0.036912233;-0.06626555;-0.08414479;-0.040138584;0.039405283;-0.20317201;0.1350481;-0.026436629;-0.019079342;-0.066639744;-0.05202192;0.12252194;-0.0015631911;-0.02193093;0.0047244406;-0.18020436;-0.042037006;-0.2653979;0.020305414;0.08697006;0.06169906;0.06149541;0.06718647;0.022877995;0.0807948;0.046435878;0.03259447;0.067890875;0.049852293;-0.14296372;0.05663614;-0.16480456;0.063578986;0.03622878;-0.2615917;-0.025756562;-0.08728634;0.08722358;0.033255935;0.1747392;-0.052799016;0.06384591;0.16376474;-0.020017216;-0.059632916;0.32124487;0.1212784;-0.09442925;0.2235102;-0.066754214;-0.043487318;0.022673916;-0.057736695;-0.053358737;0.21694662;0.07562265;-0.07248447;0.035079263;0.036059372;-0.046070356;-0.03496558;0.041935995;0.020577302;0.066269405;0.13842571;0.0012378789;0.09182221;-0.10066568;0.004022774;0.028944345;0.17745976;0.2615031;-0.029337578;-0.057228543;-0.04690906;0.061116677;-0.038672954;-0.029046908;0.045904618;-0.06408541;-0.021880215;-0.026681349;-0.019893838;-0.0012239788;-0.023500206;0.032600116;-0.18181884;-0.0377652;0.04832301;-0.08168278;-0.20908457;0.10114463;0.043433536;-0.051840052;-0.008336185;0.09242646;-0.15947495;-0.06048315;0.045477174;-0.06733166;0.07158671;0.08406508;-0.12079275;-0.019533386;0.048824977;-0.024407582;-0.036419317;0.06373748;-0.05998735;0.058504984;0.0021051895;0.025487585;0.088866;0.030056907;0.041375995;-0.057608504;-0.044337977;0.08267968;-0.2019812;-0.06411446;0.0052383374;0.03916154
0.0480875;-0.051305376;-0.06279984;0.045268994;0.097009346;0.13343303;-0.045028195;-0.022384059;0.042531952;0.17671409;-0.029096518;-0.0054627783;0.11748996;-0.12891768;-0.033591315;0.052597895;-0.3298106;0.07301758;-0.080037564;-0.053706918;0.007850085;0.07479859;-0.09316019;0.041149866;-0.04618622;0.048951063;0.069657795;0.018172294;-0.0049498747;0.06470712;0.002805115;0.02742081;0.07573132;-0.08780101;-0.008698374;-0.024964623;0.2283561;-0.23031071;-0.03560947;0.0009873627;0.048231956;-0.08284456;0.040375892;0.038275592;0.00755633;-0.042972736;0.14351967;-0.03881674;-0.06403073;-0.00091475475;-0.120745555;0.03520452;0.034139518;0.051317897;-0.050308537;-0.08259076;0.09635278;-0.028885258;0.16045393;-0.09759077;-0.037936803;0.076848574;-0.13962676;-0.01573735;0.10579724;-0.038365863;-0.005835036;0.037982002;-0.014698405;-0.040524058;0.08550464;0.04765024;0.038878813;-0.052336395;-0.060458876;0.13278292;0.0042200997;0.08213117;-0.0143852765;-0.022825092;-0.025657335;-0.08422661;-0.0034011581;0.031281687;-0.1234689;0.028321195;0.07133315;0.026519515;0.015236246;0.006957284;0.06301196;0.039788008;-0.037617933;0.05416803;-0.08815097;-0.021433705;-0.14261894;-0.108406916;-0.11076571;0.09786512;-0.03325322;-0.04944402;-0.20001002;-0.05977509;0.085673064;0.035113037;-0.037102677;0.016567668;0.04824181;-0.025618302;-0.06730504;-0.10031936;-0.00783847;-0.03946782;-0.019913673;-0.022249717;0.0073976954;-0.045684453;0.022593353;-0.017015122;-0.033873554;0.0131168;0.0355917;-0.027787438;-0.1938377;0.039800044;0.024252392;-0.015314592;-0.055070035;0.008279131;-0.008190216;0.019949013;-0.03658743;0.10624483;0.019293444;0.017909814;-0.009353861;-0.060161326;-0.11387668;0.1451113;-0.031032434;0.012279879;0.29469368;-0.005727471;0.14189555;0.07632238;0.046566278;0.11077083;0.02777893;0.014789776;-0.08801977;0.02435276;0.043402135;0.08153186;0.14608996;-0.09750218;0.07082926;-0.036895175;0.029066287;0.09902168;0.06343126;-0.047252238;-0.013794071;0.11290916;-0.09676426;-0.25767538;0.20791724;-0.013560076;-0.010761544;0.029586101;0.015835565;0.054664113;0.07787563;-0.06790288;-0.023218038;0.06059005;-0.02911297;-0.037504226;0.06224446;-0.042756997;0.024508357;0.055063404;-0.081137836;-0.043071922;0.009836928;-0.11663071;0.03951457;-0.09541888;0.051431205;-0.069664955;0.005909572;0.0053433515;0.0692777;0.074545994;0.046790626;-0.09909376;0.02801611;-0.06712898;-0.057828832;0.09790578;0.016337741;0.0049635535;0.067835115;0.14189781;-0.2835627;-0.08004281;0.06597141;0.060503475;-0.04264121;-0.0013876717;0.054224834;-0.12513405;0.058605973;-0.01834288;0.051510468;0.08255456;-0.0076427953;-0.115338705;0.048577014;0.011193713;0.039352413;-0.002299541;0.22848798;-0.21331601;-0.010689259;-0.00940749;-0.09379982;0.08314577;-0.2316028;-0.071499445;0.061864715;-0.084029764;-0.030558722;-0.018530102;0.098927714;-0.0469336;0.07240263;-0.015015871;0.08218731;-0.095492214;0.0411368;0.14898856;-0.035060335;-0.022796936;0.027700655;-0.042332806;-0.029845452;-0.02656752;-0.024596123;-0.018809762;0.030148298;-0.06565615;-0.059945453;0.084441185;0.037033305;-0.00203901;0.0397051;0.104449354;-0.041414015;0.21707858;0.009660315;0.03720645;0.031547505;0.07252447;-0.09287273;-0.15882722;-0.23784457;0.021091187;-0.03362676;0.03349753;-0.05056568;-0.027765865;0.056921;-0.16137613;-0.056462925;0.070707485;-0.04029011;0.15007216;0.09631468;-0.11849303;-0.13411829;0.06284065;0.011866216;0.09776702;-0.0004379011;-0.013509077;0.07251884;0.099291526;0.067156844;0.04050347;0.10095282;-0.048554216;-0.036503673;-0.07922788;-0.06455141;-0.03433336;0.011912003;-0.08108031;-0.0862932;-0.07885944;0.15027548;-0.14033125;-0.04724433;0.09229452;-0.12926859;0.08658993;0.051257726;-0.09864985;0.084620304;0.032556448;0.07725268;-0.14564517;-0.045979246;-0.0034731054;0.0064105145;0.10908009;-0.018773256;0.095507994;0.06814283;0.0385836;-0.02826542;-0.099403724;-0.06933709;0.0030003763;-0.055377465;-0.02283562;-0.113256134;-0.00061638915;-0.06961761;-0.2289841;0.047183707;-0.06163756;0.05611487;-0.04437696;-0.04453379;0.049363248;-0.13294059;-0.064043105;-0.078183375;0.01249222;0.00716007;-0.0043144035;0.06404515;0.27969673;0.105194315;0.0133801745;-0.05497917;0.07270268;-0.027424935;-0.0078715505;0.012674435;0.21642147;0.0075405296;0.07457099;0.09357984;0.03037574;-0.12339219;0.03350219;0.022593383;0.029361;0.014420519;-0.032954834;0.055134263;0.0065576388;0.049015276;0.02632694;-0.10195153;-0.16769144;-0.04030141;0.004338772;-0.08277015;-0.12892595;0.037741102;-0.1600526;-0.12852648;0.0024561684;0.018711327;-0.0389561;-0.027937924;-0.03294204;-0.012403927;0.072866194;-0.093194336;0.055387847;0.015777297;0.015003761;0.03612464;-0.054127835;-0.08711276;-0.13575245;-0.06794922;-0.026323339;-0.08654514;0.019623313;0.04321284;-0.001179903;-0.0863414;0.05059858;-0.122331165;-0.051998198;-0.08692999;0.017099751;-0.0069219694;0.016859679;0.08752731;0.05086487;-0.117616184;-0.020284997;-0.09363454;0.057868637;-0.06471531;-0.066778325;0.02721206;-0.02952806;0.04258831;-0.07676801;-0.06372331;-0.062410932;0.049715865;-0.04575756;-0.0705158;-0.014449088;0.008245773;0.07165061;0.06651552;-0.08471449;-0.073698625;0.03606735;-0.0724366;0.024862554;-0.04999675;-0.023427522;0.031601354;0.08389524;-0.00032257874;-0.040525112;-0.19931759;0.026457366;0.13253519;0.06480028;-0.1268022;-0.24620427;0.10245801;-0.0022982203;0.013394303;-0.17950502;-0.05751301;0.047943294;0.088274844;0.091664165;-0.036705144;0.012697101;-0.055736944;-0.07449612;-0.034305662;0.053384744;0.03625396;-0.025305077;0.016027901;-0.22494511;-0.069649026;0.047975514;-0.022491995;0.01077638;-0.011014964;0.0075013773;0.063457265;-0.02468221;0.07251908;0.051034827;-0.053937875;-0.28396657;-0.029940544;0.11217613;0.015411783;-0.047500398;-0.015149846;-0.0341665;0.10501886;0.038476884;-0.0045527206;-0.0044299783;-0.0116001945;-0.22739607;0.16079547;0.007873206;-0.081482135;-0.07801344;-0.03362072;-0.113890685;-0.083750226;-0.06826506;0.020153433;-0.0065522576;-0.11001707;0.079467826;0.07980639;-0.10432994;-0.02788696;0.2321674;0.037297584;0.022445437;0.19358008;-0.19092308;0.04537605;0.009266775;-0.01273065;0.059322722;0.22297263;-0.010569308;0.08769697;-0.03771391;-0.030911036;-0.02548326;-0.014239419;0.005127909;-0.03834753;-0.012094506;0.3274467;0.04064973;0.114097126;-0.26872548;-0.047933534;-0.05562313;0.100690365;0.3650566;0.04087712;-0.06995353;-0.04287314;-0.084383175;-0.13253106;-0.008871457;0.1628113;-0.09546088;0.05275914;-0.11740871;0.01365287;0.0729672;0.061169878;0.006614688;-0.08623738;0.017892051;-0.062863745;-0.004600755;-0.18271478;0.16320223;-0.018529167;0.04781824;-0.107876346;-0.013574128;-0.016845135;0.060920145;-0.15736224;-0.13424756;-0.011490925;0.020505507;-0.0069799353;-0.072877616;0.031420574;0.019912107;-0.06982416;-0.0976269;-0.26993933;0.044235174;0.06693206;0.09887058;0.045129575;-0.03113122;-0.0065358193;0.013207585;0.058339126;0.051036794;-0.30922076;-0.025737215;0.033246968;0.032964386
0.09706049;0.057763673;-0.07491183;0.04812287;-0.04250248;0.15834238;0.06728016;-0.0970224;-0.026750615;0.018627033;0.09998558;-0.122340895;0.06966809;-0.040715173;-0.12903829;0.15925798;-0.21356344;0.044661433;0.024874464;-0.08864372;-0.0049059484;-0.05860119;0.048181616;0.1872164;-0.029878207;0.023251187;-0.05249257;-0.008165257;0.016784424;0.11577672;0.07152173;0.18067724;-0.029631052;-0.055059224;-0.057538442;0.002854954;0.11927852;0.017430395;-0.044679385;-0.048229847;-0.020367539;-0.042001754;-0.17183124;-0.0195775;0.04573359;-0.013223532;0.10895059;0.01432214;0.04380186;-0.018621935;0.045109235;-0.04790094;0.0846284;-0.018908814;0.023318857;-0.03158618;-0.036048245;-0.005653502;0.17989656;0.04304436;-0.024406651;-0.12119579;-0.039843332;-0.14061862;0.08032605;0.031123968;-0.0066732783;0.07101956;-0.101978555;0.06684193;0.007081357;0.0727291;-0.08951632;-0.048518136;-0.17566961;-0.07379209;-0.06886186;0.033267558;-0.06614758;-0.0121096;0.044412415;0.074077405;-0.008741924;0.095518276;0.057094935;-0.08335016;0.066826314;0.03430241;-0.012960309;0.11376895;0.022072216;-0.13510664;0.057554502;0.112347744;0.04635172;-0.061351568;-0.12562105;0.07969145;0.08666853;-0.04044135;-0.08359273;0.05987139;0.02043049;-0.23237391;-0.068202026;-0.056164183;0.07740466;-0.034997527;-0.003578687;0.05433351;-0.0692016;-0.02736649;-0.025167035;0.02018733;-0.0092846155;0.10323369;0.015756253;-0.036549773;0.08707822;-0.00023032838;0.030166136;0.00024775235;-0.027307905;-0.06854263;-0.017609736;0.047263984;-0.10501535;-0.0047669564;0.02924005;0.003624272;-0.014789977;0.037526518;-0.063879095;-0.097454645;-0.0797688;-0.036202747;0.04636387;0.09046282;-0.046563152;0.087339886;-0.039488718;-0.035144657;0.16228466;0.037629437;0.07882031;0.037119493;-0.029763328;0.0911592;0.023982514;-0.005135893;0.06544524;-0.022371834;-0.026844928;0.25130096;-0.00079544843;0.05383997;0.03509204;-0.1320596;0.038350288;0.04967106;-0.037178166;-0.025225515;0.082062334;-0.009358171;-0.060145367;0.0035463413;-0.0005682495;0.062206753;-0.004327066;-0.041488174;0.026474688;0.013128958;0.026075386;0.08474799;-0.0005540958;0.03471311;0.01885241;-0.12740274;0.10326307;0.012787095;0.064323254;0.058266465;-0.313721;-0.022981813;0.036547627;-0.08530106;-0.08166254;-0.03407543;-0.0055693076;0.060512505;0.038279075;-0.057656467;0.09205285;0.044019338;-0.0015883258;0.034356773;0.027139228;0.051184367;-0.0638856;0.16248983;-0.0077439253;-0.11399159;-0.0605941;0.19658975;-0.047436208;0.075404495;0.0672166;0.046268582;-0.026063908;-0.0596992;0.038657054;0.0013848715;-0.034940675;-0.042761873;0.17779407;-0.021958334;0.092020705;0.07456397;-0.067402415;-0.07061481;0.066565126;0.018462682;0.13913698;-0.123772845;0.14332505;0.07409304;0.020181267;0.10050539;-0.23253785;-0.09188299;0.012137696;-0.03148083;-0.031126084;-0.0029899844;0.09714867;0.035537202;0.036367644;-0.11793404;0.10501544;-0.065494336;0.014013623;0.088028856;0.057163082;-0.08609504;0.0543346;0.012324961;-0.05894072;0.071654744;-0.010916576;0.059724174;0.029855901;-0.054015413;-0.05182875;0.015998632;0.046284463;-0.05963447;0.033707894;0.08945747;-0.1483802;0.13219276;0.15664946;0.08403154;-0.055505212;-0.049343154;-0.013710042;-0.093712516;0.014553048;0.026419753;-0.00793117;0.09271457;0.0023020096;0.090340845;0.019178633;-0.052487675;-0.0099808145;-0.07422989;0.04631975;0.16233756;-0.07390843;0.040545892;-0.05674516;-0.0009069749;-0.024944935;-0.06801863;0.0073236465;0.115487635;0.20889151;0.012068024;0.06300909;0.07038167;-0.012783836;-0.06062727;-0.0028368393;-0.033056974;-0.07748507;-0.06588132;0.07576242;0.048035566;-0.020012314;-0.03789598;0.20022865;-0.3734793;-0.025291625;-0.05668379;-0.024811784;0.047302604;-0.019178672;-0.07416688;0.049457334;-0.0046535553;-0.037874106;-0.16112243;0.08102182;0.0022219382;0.014096271;-0.050619524;-0.022223907;-0.024434216;0.12057579;0.03387012;-0.0032106007;0.24850358;-0.025968252;-0.04113985;-0.013629298;-0.016897557;-0.07830752;0.036316812;0.039815;-0.22559741;-0.07629914;0.03742606;0.06417951;-0.0423121;-0.0075419378;-0.0031134132;-0.17953199;0.038291335;-0.04038869;0.008530672;0.050774958;0.087527394;0.099134676;0.08333265;0.077115454;-0.027401377;-0.0048121796;-0.07943504;0.09395609;-0.03126837;0.015582772;0.01803854;0.05986881;0.04481331;0.079842485;0.115778156;-0.17764728;0.02957304;-0.026859451;-0.07279148;-0.034853842;0.006124443;0.14308937;-0.03740566;-0.06095097;0.035864264;0.06470939;-0.082220666;0.07507802;0.068046145;0.010078378;-0.060899246;-0.03432898;0.03385107;-0.09411058;-0.049654778;-0.029114475;-0.074068986;-0.026813062;0.052761436;-0.057581253;0.0669663;0.04607999;0.12206287;0.035797987;-0.019156277;-0.017803047;-0.026291545;0.0013912254;-0.45996928;-0.035237845;0.19420311;0.015622222;0.051923834;0.07835357;0.07698988;0.044071507;-0.0073285964;-0.047860626;0.037248336;-0.033313125;0.0994004;-0.06228953;0.010941473;-0.016011296;0.025987802;-0.05712168;-0.11890722;0.008432785;0.13830547;-0.1310217;0.022976547;-0.033138845;-0.007834626;-0.039578807;0.025904765;0.0522252;-0.07951963;-0.0929371;-0.07872059;0.028348058;-0.12889634;-0.04063246;0.01823124;-0.03318151;0.029802527;-0.12626338;0.038100883;0.03762323;0.09592442;0.059620418;-0.009290071;-0.05988996;0.056154147;0.072632916;0.07273371;-0.24925628;-0.07262838;0.11584256;-0.045297824;-0.08817853;-0.060604267;0.107782885;0.06943483;0.0388891;-0.18082455;0.0187653;0.038771626;0.011601712;0.013040483;0.012920608;0.029185852;-0.046616293;-0.021585202;0.027394537;0.08627048;-0.015542691;-0.07478085;0.10941381;-0.036852084;0.05908701;0.07825615;-0.02271436;-0.1129995;-0.02598555;-0.089504436;-0.10442633;0.030061744;0.054723512;-0.11906849;0.061775524;-0.10312227;0.00979913;0.08365261;0.026125979;-0.06751194;0.05103032;0.113531835;0.005810483;-0.02506722;-0.046132237;0.041659273;0.049634013;-0.016121455;0.061725434;0.01757055;-0.06508086;-0.06895746;0.0039446075;-0.09252692;0.14333104;-0.027076637;0.05913012;0.06948064;-0.044809688;-0.0053532217;-0.1893269;-0.123421706;-0.008535187;0.08829464;0.11036207;0.018428322;0.13260795;-0.06070154;0.037256498;-0.09403394;0.016736431;-0.080009386;0.16148083;0.016472004;-0.008666717;-0.06903432;0.009708455;-0.028300889;0.08779139;0.06365395;0.104649805;-0.030767998;0.18496156;-0.059722215;0.1564069;-0.1023213;0.060597874;-0.057093143;0.00010286542;0.17446306;-0.03283983;-0.038677864;0.033290215;0.05651708;-0.085642554;0.017628498;-0.024365367;-0.13313188;-0.07133543;-0.17017388;0.013315679;-0.10693368;-0.08462998;-0.033607498;-0.12758018;-0.074777946;-0.04408504;0.06308385;0.0869919;0.024377456;0.075471744;-0.029861558;-0.16976872;0.03693851;-0.005885734;0.023335759;0.04220356;-0.07808005;0.011461833;-0.035956398;-0.07557247;0.060653217;-0.060977202;-0.0624169;0.0955343;0.01201514;-0.016403798;0.0027006387;-0.048511744;-0.059899;0.03986625;-0.13925721;-0.027997488;-0.025855172;0.054146167;-0.04902309;0.04193921;0.072647214;0.03255105;0.0036159721
-0.064971395;0.026127174;-0.058448646;-0.06366185;-0.076042704;0.026590718;0.062256914;0.0661356;0.015376239;-0.0011541736;0.101813376;0.13565223;-0.098600045;0.17356037;-0.058139507;0.2677237;-0.02587354;-0.081645414;-0.05585163;0.0663106;-0.03633527;-0.09871048;-0.055034224;0.23756483;-0.09182079;-0.008627555;-0.09027023;-0.018906834;0.0056409035;0.12493787;-0.05234216;-0.027791483;-0.072930925;0.0046702903;-0.037413895;-0.027367102;0.009643305;0.050733164;0.0071009872;-0.14156565;-0.030238375;0.058563035;-0.07153511;0.07673899;-0.047705706;-0.05883384;0.13554911;0.0064299023;0.06123811;0.14629592;-0.2430641;-0.16858394;-0.02580083;-0.10640956;0.13528019;-0.008005886;-0.02581077;-0.15390967;0.17053741;-0.054423723;-0.12721457;-0.059065755;-0.052555453;-0.025487768;0.088181645;-0.053389713;0.10910482;-0.050552245;-0.060560055;0.042671274;-0.052214243;0.066358;-0.017326837;-0.051067095;0.14036693;-0.34605518;0.016002633;-0.06948487;-0.08371897;-0.07490991;-0.04506918;-0.07316372;-0.022126371;0.13186562;0.21935418;-0.08274893;0.20306885;0.030532526;0.04633687;0.06874542;0.0018345009;0.12417391;-0.014622417;-0.046606086;0.17108145;-0.051719032;-0.06444321;0.11290004;-0.05342521;0.038846817;-0.041338768;-0.04757251;0.10403609;-0.32508466;-0.05394958;-0.047636874;-0.031746093;-0.054799076;-0.011780548;0.048431817;0.038671844;0.0795302;0.05087558;0.0073370673;0.02459513;-0.020975985;0.011295019;0.051535975;-0.044876702;0.0557392;-0.01685246;0.008805461;0.040276814;0.005835375;0.25376812;-0.0055473205;0.002829628;0.100706525;0.048390374;0.019610342;-0.016922273;0.13239086;0.039267026;-0.08149846;-0.055987403;0.023652472;-0.12263885;0.06957209;-0.122581474;-0.04344015;-0.031529024;-0.0400874;0.10312365;-0.18409678;-0.035310477;-0.050869808;-0.08044574;0.19969419;0.01504354;-0.095615245;0.050262485;-0.07012779;-0.04920487;0.05540186;-0.01745861;0.064924516;-0.043588422;-0.16273203;0.013773545;-0.07579861;0.032551676;-0.08034905;-0.18034361;0.13358034;0.04520439;0.08874579;-0.0982177;-0.07466752;0.023583403;0.035048753;-0.072887324;-0.13118076;-0.030997058;-0.0027506272;-0.05885556;-0.01090464;0.12627241;-0.1591793;-0.06050347;0.077181816;-0.0088804895;0.04976241;-0.3528076;-0.07502373;0.008931274;0.06173734;0.08475924;-0.14416575;0.09771061;-0.034584142;0.062269703;-0.0047160946;-0.048428096;0.043126196;-0.03439534;-0.06682319;0.042005606;-0.024379345;-0.082160026;0.11187866;0.06448126;0.0068534096;0.11172062;0.027342055;0.0037057884;0.030394519;0.0427074;-0.0075706313;-0.009902417;0.06371405;-0.05608123;0.0006088853;0.019825004;0.026382597;0.30987003;-0.10565626;0.031002263;-0.064448215;0.014279293;0.054266274;0.07049709;0.07938437;0.03547067;0.06136373;0.054047484;0.10197542;-0.049356077;0.16228104;-0.22515617;0.051213;-0.0445997;0.046184592;0.03645458;-0.019897893;0.07995447;-0.01801228;-0.047767576;0.03745354;-0.07534771;-0.011451862;0.08960351;-0.0280422;-0.027806424;0.007973401;0.11298697;0.012037439;-0.051074065;-0.073262155;0.037935056;-0.007414686;0.011556439;-0.004081384;-0.051486403;0.17880172;-0.032291442;0.0657087;0.17337658;0.072776854;0.026352763;0.06487016;0.05011977;0.19683789;-0.031105129;0.008465022;-0.020366456;0.08476235;0.009488701;0.02136254;0.07155906;0.011429981;-0.029451737;-0.003743971;-0.02123558;0.07311782;-0.024510216;0.047442928;-0.101115175;0.045544524;-0.00545471;0.045466628;0.008942922;-0.009424094;-0.072123505;-0.06874856;0.027989719;-0.065618224;0.059391133;0.0064201374;0.07243556;-0.16540961;0.066333964;-0.17157818;-0.042182595;-0.05950195;-0.023992658;0.085598014;0.04763296;0.08184818;-0.0041319034;0.10623217;-0.05211865;-0.36581776;-0.016769694;0.06489248;-0.048704825;0.12347838;-0.08378796;0.20275359;-0.05185182;-0.06458909;0.10031585;0.11681758;0.07336233;0.0632708;-0.10112821;0.01349046;0.040151853;0.05354338;0.06555608;-0.010308548;-0.050568886;0.15705332;-0.18205112;0.098432146;-0.0027921177;0.04571072;0.008641454;0.0053863693;-0.03565801;-0.064102;-0.075366765;0.05472489;0.123906694;-0.047581606;0.07996368;0.05343252;-0.13474947;0.0007006818;0.07617819;0.08978041;-0.04082813;0.047853347;-0.01706008;0.11883412;0.058422673;0.06989311;0.057267055;-0.056993444;0.21685822;-0.12344223;0.12310556;-0.072326936;-0.05646033;-0.023105644;-0.018751457;0.079671204;0.04522238;0.11350749;0.04106835;0.084071;0.07121781;-0.05291497;0.08935085;0.032527212;-0.0035869249;0.0099727055;0.08774733;-0.12291215;0.024636056;-0.03165699;0.044147298;-0.06724099;-0.079026185;0.009358454;0.074187286;0.036881726;0.083443396;0.08590571;-0.09124041;0.10537865;-0.045458533;0.06766677;0.0241601;-0.014155541;-0.0651234;0.06371823;-0.11904578;0.08522614;0.019974602;-0.11667557;0.0064893276;-0.057276137;0.07414907;0.094565436;-0.051362325;-0.023069927;-0.0066797226;0.017771747;0.017384065;0.08989355;0.013385417;0.12434545;0.0071501965;-0.05398797;-0.06799142;-0.011447155;-0.002504707;-0.14198078;-0.0056866356;0.029685168;-0.10382107;0.025273884;0.0021605438;0.026803393;-0.0024307133;-0.0270884;-0.047923394;-0.00026871395;-0.08639389;-0.010929231;-0.025842985;0.07575279;-0.030098412;-0.044382628;-0.12918983;-0.041196905;-0.20856588;-0.030581066;0.13117033;-0.06175962;0.025969055;-0.085654184;0.0074359174;0.031541284;0.072784446;-0.055207435;-0.28664836;-0.025545666;0.042190183;0.031149058;-0.104297884;0.06893753;0.09567148;0.1721867;0.052705083;0.05526461;0.070426844;0.027228815;0.045081694;-0.072909206;0.011225846;0.2422698;-0.046300147;0.026439749;0.062097654;-0.029495113;0.029354202;-0.07497127;-0.052420266;0.04186845;0.010751772;0.011796472;0.011750537;-0.021989703;-0.07046646;-0.2742645;-0.10865727;-0.019946683;0.08638592;0.030792566;0.12748592;0.014373718;0.04962237;0.044150453;0.09042624;0.040847797;0.031600658;0.008753474;0.11251961;-0.02560698;0.076691404;-0.038589872;0.026822437;-0.15384793;-0.09977278;-0.033332445;0.08291606;0.072838314;0.06434732;0.03353608;-0.04824739;0.09904165;-0.0058723465;0.06572602;0.070417866;-0.031831242;-0.14716585;-0.05188184;0.037655022;-0.0050069503;-0.06569629;-0.040868465;0.0839813;0.11979971;0.070204794;-0.09247615;0.0037196856;0.045423962;0.010187256;-0.006764591;0.15283115;-0.0066949306;-0.07594183;0.02934186;-0.059567876;0.08449183;0.098449074;-0.025048707;0.14818195;0.01571288;0.06713336;-0.31815124;-0.094053224;0.036945846;0.15571779;0.120651916;0.0046740742;0.020644408;-0.018559815;0.034987185;0.10813826;-0.07165794;0.047735885;0.0022261732;0.047223557;0.053594302;-0.04660894;-0.013690037;-0.028705481;0.036027685;-0.09351474;0.08563799;0.14861354;0.07395203;0.09420005;0.09432228;0.031244652;-0.06036225;-0.005149112;0.006043857;-0.07482007;-0.10647154;0.109127805;-0.22464508;-0.020747742;0.041334007;-0.07380522;0.08598345;0.023843527;-0.025678953;0.0017608554;0.1400374;0.049751032;-0.041641537;-0.059131857;-0.059142936;0.02428714;-0.058183935;0.0076689394;-0.07282704;0.04527371;-0.048484966;-0.2109365;0.044640306;0.07721181;-0.022113215
-0.028459026;0.057337996;-0.0032956298;0.026835555;0.0656155;0.13314204;0.04825475;0.016984332;0.0021195945;-0.10670737;0.06940383;-0.019838942;-0.04513617;0.10753128;-0.01475107;0.2241947;-0.056080405;-0.009684337;0.04212741;-0.016968917;-0.051766887;0.007260354;-0.15444613;0.23255247;0.024643179;-0.0516754;-0.003544792;-0.022689408;0.07734701;0.0418844;0.13209675;0.073143825;-0.04217176;-0.14479485;-0.04075259;0.018614788;-0.0647372;-0.17224494;-0.031224126;-0.09986214;-0.028684482;-0.032596588;-0.18739152;0.048850045;0.0076247845;0.060166758;0.15044993;-0.03196609;0.03596143;0.097023144;-0.26905125;-0.07180262;-0.085903294;-0.0834686;-0.08849611;-0.03611138;0.08137695;-0.0010662827;0.03777975;-0.063559234;0.0844578;0.025569534;-0.068071574;-0.07040209;-0.1092114;0.0050188713;-0.022395566;-0.006748943;0.02141249;0.08735526;0.021438668;-0.022482209;0.075562224;-0.04519087;-0.046536397;-0.13855329;-0.05291094;0.15292503;0.07715821;0.115635335;0.09061669;0.037488844;-0.0880123;-0.021010466;-0.026534623;0.048930626;-0.057220127;-0.12836991;0.097503245;0.057147764;0.059978876;0.0686415;-0.062827185;0.05407473;0.10092402;-0.002054046;-0.11249337;0.15308477;-0.0012479898;-0.0030722562;-0.0082151815;-0.073459916;0.042478077;-0.1932411;-0.023286026;0.00996612;0.010289757;-0.067825824;-0.08241617;0.013096397;0.053028356;0.048226044;-0.05570799;0.024434503;-0.034318272;0.070723936;0.053374507;-0.10539589;-0.045783933;-0.024272973;0.041920315;-0.08062711;-0.03891857;0.041685708;0.26216927;-0.026561493;-0.022688901;0.04658959;0.09955126;0.08203185;-0.110851735;0.087694086;-0.0042913007;-0.109416075;0.08582982;0.065935604;-0.049069654;-0.108086504;0.02869325;-0.07090133;-0.009931095;-0.026407778;0.1050477;-0.22854978;-0.20657502;-0.03744013;0.013982669;0.058203887;0.017973166;-0.09003481;-0.08246255;0.01066919;0.07336467;0.09699858;-0.016283993;0.052045904;-0.0275745;-0.087129965;-0.09964535;-0.07065086;-0.02573068;-0.2829503;-0.18733235;-0.00615437;0.08936125;0.040187962;0.011864268;0.018334277;0.14894664;-0.101367496;-0.029042065;0.0815313;0.025494216;-0.02957077;-0.01676223;-0.06595077;-0.040285878;-0.027474146;-0.029497813;0.041102137;0.025720388;-0.067428134;-0.2869066;0.04675506;0.05258139;-0.058132544;-0.06392579;-0.24373376;-0.14471811;-0.01760096;-0.0075978544;-0.000923572;0.028823812;-0.059792895;-0.030915769;-0.0070610093;0.10348224;0.03798686;-0.0068232473;-0.05661095;0.035101224;-0.0717383;-0.025184052;0.272472;-0.16808753;0.031354383;-0.09765471;0.01567291;-0.0039978162;-0.038315464;-0.035443936;-0.054778054;0.018601432;-0.049675953;0.15998463;-0.023515163;0.025778724;-0.016942112;0.023099469;-0.06938593;0.04550022;0.045048796;0.014971869;0.090626456;-0.032588102;-0.038923338;-0.061120436;-0.007677543;-0.2839106;0.069508396;0.03302339;-0.005268857;0.046342436;-0.024532165;0.1841928;-0.059288763;0.06310915;-0.047917217;-0.14482708;-0.10006669;-0.0075252517;0.0064516524;0.08266168;-0.054643687;-0.009568231;0.013823038;0.09945767;0.04639619;-0.030315597;0.09817113;-0.019510658;0.041245695;-0.021674523;0.02024323;0.06589887;-0.022433529;0.09958521;0.13709807;0.05723894;-0.0058996514;0.09352506;0.16646759;-0.12084534;-0.017241271;0.012487406;0.07324783;0.09197793;0.064817354;-0.25404024;-0.08550883;-0.046579845;-0.0038459294;0.0073240153;0.03854963;-0.02544841;-0.027550934;-0.3768054;0.093979076;0.016502554;-0.033144888;-0.08890525;0.05312925;0.016173163;-0.031707875;0.037538975;0.095638536;0.06199202;-0.014680197;0.051858068;0.15703319;0.043370083;-0.29620814;-0.029541746;-0.11764074;0.09219102;-0.06266018;-0.042835705;-0.018695684;-0.065339126;-0.07758344;0.17068203;-0.14656802;0.020707114;0.063956276;-0.047537077;-0.034205876;-0.038751148;0.06569284;-0.06719608;-0.027051238;-0.06832807;-0.12323739;0.024763312;0.053496014;-0.01868026;0.09386219;-0.01084454;0.08467451;0.0752339;-0.079369985;0.010326803;0.23909375;0.005370587;0.07304715;0.0034240908;0.18335536;0.039607503;0.08444633;0.03143542;0.14749838;-0.012133992;-0.09009093;-0.0045542545;-0.12286514;0.066656336;0.054546602;-0.17885596;0.005185325;0.0779689;0.09994511;-0.021881213;-0.013406877;-0.07795152;-0.04406571;-0.035947468;-0.071266636;-0.014628037;-0.06500627;0.007313498;-0.03405257;-0.040374264;0.15565766;0.034769714;-0.020018926;0.043162357;0.06575878;-0.05402632;0.03525251;0.012244605;0.034058638;0.06711479;0.025721561;-0.032262072;-0.034113206;0.046546068;0.06159776;-0.06509659;-0.034722492;0.015479962;-0.02718573;0.0075033656;0.12456279;-0.061325572;-0.031830214;-0.002921717;-0.05128424;-0.15824075;-0.009938931;-0.005563014;-0.09905474;-0.08027494;-0.06753254;0.062102094;0.0053271195;0.023154283;-0.017395468;0.00044125205;0.005441847;0.047382217;0.054797683;0.02673043;-0.016785672;-0.030686876;-0.00040113938;0.11520859;0.13265482;-0.026938329;0.08519193;0.2540895;0.0048960536;-0.01232791;-0.01884558;-0.04625363;0.015135982;-0.008745685;-0.06656958;-0.13130458;-0.057928655;0.069984004;-0.17408507;-0.017733477;0.16014937;0.02367883;-0.053856157;0.08397864;-0.039048344;0.0010080531;-0.1588065;0.005285197;0.083380476;0.016652418;0.077583;-0.07651781;0.021608502;0.06684348;-0.07963359;0.08420405;-0.082738064;0.21689436;-0.0061409227;0.19831325;0.021979723;-0.039281353;-0.06837801;0.06511299;0.025847541;-0.055260565;0.026156824;0.03471895;0.023995992;-0.12012818;-0.19979109;-0.1557715;-0.048260324;0.021740414;-0.03534913;-0.03975964;0.029412143;-0.060234394;0.025912466;0.021547658;-0.08040077;0.0460149;0.08827017;-0.116423056;0.08495571;-0.019899288;0.060193058;-0.23935054;-0.0651669;-0.07413061;0.023605378;-0.0051182397;-0.03330829;0.07693075;-0.08044587;-0.109900214;-0.027912335;0.021386761;0.02395325;0.025171174;-0.032137454;0.14543213;0.14931433;-0.021263005;-0.07001883;0.060030185;0.117287256;0.13033544;-0.052373365;-0.05887235;0.025719864;0.06361101;-0.05504435;0.031108828;-0.055956803;0.027470801;-0.060639795;-0.04266044;-0.01243917;0.17571586;0.0069951424;-0.04950657;-0.0016957232;-0.022467442;-0.019668868;0.1517851;-0.058006685;0.04010031;0.12386201;-0.0047350773;-0.024029952;0.046055883;0.056892868;-0.06618389;0.076198556;-0.015669085;-0.040014796;0.057612382;-0.04862968;0.04484611;0.010411884;-0.06835183;-0.03132351;-0.06945281;-0.023346372;0.03445912;-0.07780821;0.032511197;-0.038106993;0.017337248;-0.122357555;0.080541976;0.08190988;0.08708592;-0.063845046;0.023245476;-0.064326234;0.08835675;-0.010160577;0.03344406;0.036746763;-0.0153210135;0.0017024863;-0.009633479;-0.037596077;0.0094469115;-0.121072836;0.052169558;0.021789918;0.011377721;-0.022345025;-0.021446059;0.030913167;-0.012453581;-0.027602807;0.038695823;0.0053001507;-0.018295517;0.0583244;0.011471734;0.07111183;-0.04414681;-0.13976553;0.035613816;-0.0033519492;0.019728031;-0.019793272;0.055860404;-0.04082258;0.00070184807;-0.04166337;-0.30304077;-0.06252227;-0.021353332;-0.030888088;0.049096733;0.06912208;0.06475911;-0.069725685;0.037418205;0.051789027;-0.22610538;0.08402427;-0.0335677;-0.08006444
0.030681014;0.119822;-0.010719217;-0.012121051;-0.009924921;0.11481576;-0.088390134;0.030608548;-0.010015611;-0.051532153;-0.056809578;0.22797664;-0.06086519;-0.03651108;0.03953883;0.08900742;0.047303297;0.022829145;-0.048329446;0.060739227;0.06838281;-0.0789866;-0.11489975;-0.06715536;-0.05223458;-0.018205298;-0.047332477;0.033543356;0.028068492;0.06261607;0.050421797;0.07100669;-0.020492861;0.0388054;0.0324535;-0.13056698;-0.07908661;-0.108896956;0.07882449;0.018164698;0.048515726;-0.07328623;-0.24781601;-0.069687426;0.16217862;-0.0309157;-0.024988394;-0.07616306;-0.07755348;0.125253;-0.23609674;-0.2289606;-0.012753623;-0.03212152;0.03714406;0.09726208;0.033608936;-0.051176958;0.04279572;-0.023586778;0.10134496;0.062157694;-0.12031788;-0.0677326;0.013672814;-0.006416159;0.063077874;-0.07771966;-0.10556429;0.10988756;-0.07429118;-0.080021076;0.05041417;0.031883277;-0.0065991944;-0.1164685;-0.012058675;0.18509896;-0.045015346;0.041448556;0.08854902;-0.026418865;-0.057183158;0.03394326;-0.05837559;0.10958201;0.19628169;-0.06631787;0.039838087;-0.06138822;-0.02824695;0.034397695;0.044214368;0.002341458;0.016865097;-0.019602444;-0.07250646;0.12408792;-0.05085194;0.027206585;0.0948727;0.08259076;-0.030108131;-0.26799116;-0.043850783;0.029723937;-0.047569197;-0.014106716;-0.09984502;0.061578643;-0.07072755;-0.06480822;0.03731138;0.03289007;0.010937831;-0.13942975;0.108943366;0.008152222;-0.11434189;0.015167096;0.054803614;0.07662789;0.061539564;0.047221333;0.06464234;-0.07083038;0.052619606;0.077597395;-0.10466007;-0.010453946;-0.09961583;-0.079744376;-0.06128082;-0.123763904;0.035356775;0.18484055;-0.0210128;-0.1799858;0.007765906;-0.006443126;0.03343749;-0.014253878;-0.07183238;-0.1984304;0.054252993;0.06681096;0.058255486;0.0734542;-0.053218428;0.053384323;0.13609593;0.006241922;0.013753824;0.057259046;-0.007512754;0.020376438;0.10363235;-0.09908561;-0.043056164;-0.0051233047;-0.0010599971;-0.36753193;-0.20674749;0.0066048102;0.19587898;0.024253339;-0.16365676;-0.04545526;0.0550259;-0.07503933;-0.0080632875;-0.0001542895;0.06344991;-0.08167565;0.034363404;0.00039442026;0.015222056;0.1461551;-0.0041333963;-0.05356412;-0.07621321;-0.05843462;-0.33702672;-0.016477289;0.07276876;-0.30264157;-0.08008441;-0.22330734;-0.15278502;-0.13186853;0.0093267625;-0.09740443;0.10884494;0.0868008;-0.021370262;0.009934469;0.07307222;0.035396848;-0.020091103;-0.17564808;-0.008785661;0.032803867;-0.021262866;0.10626517;-0.14320922;-0.06694792;-0.10462357;-0.095400095;-0.007661789;-0.063002855;-0.02464579;0.0016007337;-0.01229461;-0.03346538;0.2989853;0.073427364;-0.028471481;-0.05955828;-0.06468668;0.034612276;0.016768059;-0.030263606;-0.13954169;0.046776813;-0.09100233;-0.043156862;0.036685217;0.10915872;-0.30422005;0.0012195637;0.008228;0.016472658;-0.06533353;0.06723351;0.03456821;0.06324721;-0.0043494194;-0.042285554;-0.01698991;0.036479786;0.017242871;-0.12696366;0.036248345;0.09442985;-0.061442036;-0.055408467;0.19275254;-0.029819576;-0.066278294;0.19966055;0.023644619;-0.10509537;0.069394246;0.11369192;-0.0058896877;0.013189198;0.0030627009;0.105276585;0.039928187;0.19165994;0.07190251;0.13003333;0.0064182524;-0.07028203;-0.0527601;0.082801044;0.23211792;0.12678349;-0.2148379;-0.040246967;-0.007590284;0.0026833047;-0.076309256;-0.0007216863;-0.005888597;0.07912187;-0.15486237;0.067775555;-0.09024849;0.009918615;-0.13479853;-0.06826901;0.05938057;-0.054357786;0.011474094;-0.06303542;0.1626864;-0.07725182;0.057620823;0.03806049;0.001003897;-0.028335875;-0.21002014;-0.0736859;0.11901688;-0.017935038;-0.0005872574;-0.022164587;0.05992216;-0.029893553;0.08324031;-0.11054763;0.062240645;-0.17372286;-0.061872944;-0.026380587;-0.016086489;0.16219544;0.08043372;-0.0444978;-0.077808;-0.16625118;0.013098534;0.0100004;0.08407991;-0.0422829;0.010313018;0.03874656;0.107994206;-0.13038354;0.052650895;0.23265883;-0.1143444;-0.046936933;0.016253147;0.1599882;-0.101596065;-0.03008645;0.005993316;0.08545741;0.032773316;0.06116382;-0.06972843;-0.06865005;-0.086269945;0.03294386;-0.14785068;0.024944574;0.0006483864;-0.039490085;0.015938578;0.06766965;-0.0624712;-0.0034470954;-0.08873739;0.009630278;0.0042992197;0.10508551;-0.025797417;0.015742922;-0.06434771;0.03938959;0.012952526;0.0040767966;-0.009764916;0.005426007;0.01211152;0.2925294;0.040863983;-0.04333868;-0.0040913336;-0.076158956;-0.0690759;0.014193958;9.370709e-05;0.08362512;-0.07998231;-0.11987373;-0.0015243846;-0.066673055;-0.043681774;0.19923438;0.09187517;0.008758869;0.029353473;-0.021617262;-0.11947498;0.02913402;0.0886282;0.07065069;0.027355155;-0.0039541065;-0.0021046344;-0.0014841887;-0.052044965;-0.06573006;-0.17405082;0.06665427;-0.02216186;-0.029633181;-0.08144847;-0.051615745;-0.09015983;0.093507364;-0.0007023385;-0.07362471;0.01994201;0.10638101;0.09656156;0.031225318;0.017092526;-0.0565491;0.00014153973;-0.071688466;0.014130836;-0.012390889;-0.028363626;0.014321201;-0.032096453;-0.2395764;-0.022138486;0.027215552;-0.071036786;0.017266558;0.0013459908;0.050787814;0.025084978;-0.032072574;-0.0240604;0.043017272;-0.034880295;0.0970559;0.07680788;0.09203292;-0.0035016427;-0.054092377;-0.118442334;0.046339102;0.07677385;-0.044271182;0.099822134;0.05546009;-0.05705313;0.06315161;0.09142328;-0.047355406;0.0507697;0.050313644;-0.15412793;0.013487404;-0.10899505;-0.06501853;-0.022956047;0.07543277;-0.04450231;-0.0962494;0.0049586524;-0.09582864;-0.0946133;0.04848747;-0.028952563;-0.16450535;0.04629855;0.02763547;-0.02760169;0.102723554;-0.039469954;0.057974584;0.06465888;0.035714872;-0.09046068;0.039572105;0.028694386;0.04479812;-0.038683783;-0.13762096;-0.15546344;-0.03839351;0.053406373;0.09242964;-0.07505093;-0.065461464;0.025429832;0.14824411;-0.048926555;-0.027305137;0.022240058;0.08164352;-0.01627365;-0.0076374123;-0.05926415;-0.027167687;-0.03941558;-0.0072826105;-0.022508848;-0.084648006;0.06429254;0.06605299;-0.09720311;0.050387923;0.05125799;-0.12676081;-0.031104106;-0.080325656;-0.019429063;-0.020632569;0.15718688;0.059751496;-0.047026847;0.0526718;-0.09261217;-0.18238415;-0.05491674;-0.051198855;-0.07874387;0.03310827;0.053786468;-0.022396032;0.07600769;-0.10098675;0.09361141;-0.20065005;-0.03425906;0.03523411;0.074953556;0.03347724;0.0834725;0.099113934;-0.06785985;0.028410265;0.057632606;-0.11224787;0.008142647;0.16585623;0.013582874;-0.17742339;-0.028898267;-0.06707169;0.061503466;-0.014074416;-0.040657405;0.077454105;-0.07509383;0.045933552;0.030683918;0.028251389;-0.048964225;-0.16433117;-0.058238927;-0.054140173;0.092531234;0.03376469;0.0897726;0.035960343;0.0032884383;-0.07198773;0.011181065;-0.10786832;-0.06675317;0.038553618;-0.04617632;0.069354236;-0.13247518;-0.20660472;-0.0633827;-0.11265805;0.030680692;-0.068700045;0.030078039;-0.044168055;0.083042696;-0.05842217;-0.16279401;-0.062637694;0.025953509;0.078212224;-0.073954165;0.09080468;0.050302047;0.01977508;0.06861916;0.033648454;-0.109602384;0.03702011;0.046624716;-0.0389797
0.051851235;-0.017258769;-0.071900815;0.0133408;-0.0032955646;0.05121499;-0.18086128;-0.023630803;0.085228965;0.12009863;-0.019230785;-0.010970586;-0.051875416;0.11511168;0.021511704;0.0042070774;0.016552787;0.037230693;-0.2623421;-0.0036337376;0.023983156;0.016575685;0.1047353;-0.15412441;-0.06333761;0.20024692;-0.02690597;-0.074120805;-0.07276241;-0.007375151;-0.08938388;0.0809056;0.06534781;0.10942715;0.038659435;-0.10977294;-0.24594074;-0.070921905;-0.0592441;-0.21188705;-0.06976498;0.016521094;-0.023004163;0.03138686;-0.19759673;-0.047543127;0.11899525;0.041071936;-0.07079313;0.12068673;-0.046532575;0.05944216;0.00674955;0.05013821;-0.07883421;0.053534556;0.115927845;-0.035555083;0.0111013865;-0.06903077;-0.070965394;0.102785505;-0.08784943;-0.18090045;-0.12104749;-0.024141882;-0.061416842;-0.0114812255;0.01007978;-0.09669028;-0.06397739;0.013575711;0.021717649;-0.065367885;-0.06292118;0.07896039;0.024721231;-0.012880513;0.09364787;-0.0034798589;-0.0612794;0.008824559;-0.09966193;-0.044192057;-0.12232155;0.023556586;-0.17889334;0.090010345;-0.061546005;-0.12803197;0.017733172;0.014577578;0.006031288;-0.062190466;-0.038508993;0.0049979435;-0.02600681;0.2513469;0.022352163;-0.033246458;-0.045313437;-0.051483598;-0.07960418;-0.35553354;-0.029616958;0.01297296;-0.04851857;-0.03753717;-0.06700348;0.030634372;0.03019827;0.012592628;-0.08346696;-0.017168306;-0.024546733;-0.04652583;-0.016576031;-0.010665729;-0.027781429;-0.0100602545;-0.018966312;0.028049313;0.0052410304;-0.022238346;0.12960298;-0.020679615;-0.048412185;-0.24110943;-0.055366352;0.060403667;-0.16096884;-0.11810592;0.014447647;-0.032405525;-0.10679616;0.05951887;0.0010643549;-0.08928002;-0.11511226;0.03822863;-0.06713371;0.06470457;-0.086576685;-0.2845747;-0.12739883;-0.098348625;-0.08445195;0.013373169;0.0048207445;0.04845124;-0.18161163;-0.041403655;-0.03583875;-0.003444078;0.020473571;-0.027311722;0.044740565;0.08221564;-0.022269404;0.06032924;0.048394416;-0.16934225;-0.15805513;-0.065662056;0.030497015;0.10864355;0.14984992;0.0604972;-0.050350677;0.061464112;0.06444536;0.062720425;0.010173408;-0.06652476;0.013852592;-0.012627262;0.019601533;0.08234032;-0.02517992;-0.037257742;-0.011281117;-0.058222808;-0.30357924;0.016182378;0.027618663;-0.20236793;-0.047108877;-0.07232745;-0.28203022;-0.085069716;-0.008992517;0.009242168;-0.06288648;-0.0786839;0.09992183;0.010945446;-0.079704076;-0.070963115;-0.12605461;-0.11072915;0.06299186;0.07401447;-0.08556744;-0.05048362;-0.0038690895;0.004784017;0.035806898;0.012088082;-0.061365906;0.025395477;0.052121285;0.0017883177;-0.07422338;-7.157356e-05;-0.07860483;0.0027505162;-0.07711773;-0.0418865;0.042275097;0.010438503;0.05465402;0.014390761;0.12660837;0.027498307;-0.07677621;-0.091111355;0.0001638513;-0.023691295;-0.17022248;-0.06999699;-0.05850775;0.03759168;-0.037407674;-0.031739444;-0.08983687;-0.012608406;0.04628047;0.12370401;0.028191432;-0.09198819;-0.04149802;0.07756523;-0.063423365;0.0904267;0.016405474;0.0022009655;0.20840815;0.06985651;-0.06902126;-0.15520692;0.04066269;0.03487648;-0.008024664;0.004415442;-0.049489707;-0.021406883;0.044756036;-0.035787392;0.029023135;-0.045655698;-0.0037058503;-0.21796761;0.051155254;-0.039178092;0.088063285;0.04718681;0.13676284;-0.022302309;-0.20226729;-0.056621;-0.0059148143;0.024547692;0.005152022;0.0060092197;0.0076798894;-0.07509569;-0.12109835;-0.07499907;0.013475242;0.06430472;-0.03836012;-0.044577785;-0.023340538;-0.102449566;-0.044717573;-0.059786707;-0.053040843;0.0624122;0.0046579735;-0.07748943;0.00014025133;0.014831238;0.14553106;-0.011064703;0.08937647;-0.044593513;0.013241859;0.031380996;0.058501307;0.04028826;-0.11408366;0.031434946;0.114739716;-0.13112378;-0.06775617;0.105330355;-0.0069746245;-0.13867256;0.00030390057;0.022796754;-0.050122183;-0.039890174;0.004494838;0.03260737;-0.06437278;0.061776057;-0.14006276;-0.016182432;-0.1133681;-0.1788504;-0.026325312;-0.05258502;-0.0067700427;-0.051873002;-0.051332686;0.10681766;-0.030367369;-0.0992509;0.06006643;-0.09923307;-0.0059650457;-0.014169397;-0.16467316;-0.058008887;-0.053213168;0.012185164;-0.149344;-0.019378757;0.08886743;-0.03584424;0.014760279;-0.06995328;0.049939625;-0.13529547;-0.026421305;0.049596038;0.019040247;0.059937097;-0.060433224;0.050556473;0.3143612;0.072550744;0.028811457;0.0013796051;-0.020754136;-0.123108;-0.1900456;0.15300363;0.18796548;-0.12422618;0.022849599;-0.020507902;0.18268013;-0.0963988;0.019808255;-0.009644513;-0.027012363;-0.14470874;-0.14575063;-0.0009599346;0.0005815381;0.15676478;-0.06712751;-0.123151705;-0.031141315;-0.06969523;0.028231863;0.118348174;-0.005480412;-0.11709893;0.10620118;-0.050191775;0.06873982;0.010949749;0.0147224525;0.01589298;0.01606636;-0.020497257;-0.056768216;-0.05122817;0.016390404;-0.003880123;-0.12002284;-0.039625574;0.006523367;-0.068748094;-0.0058531244;-0.057835385;0.18073487;0.041865416;0.028615337;-0.04953312;0.08439891;-0.0127758505;-0.04754738;-0.04102212;-0.047591154;-0.08583019;0.057379015;-0.07545013;-0.055630665;0.051850267;-0.08200029;0.024112167;-0.018872388;-0.010913565;-0.010090279;-0.14464976;-0.035386983;0.06258389;-0.022943169;-0.005109556;-0.043299478;-0.04202092;-0.12960191;-0.026641712;-0.24915057;0.019977404;-0.20619492;-0.06369672;-0.1102394;-0.013810002;-0.0007874679;0.050504554;0.087987326;-0.0367203;-0.21958463;-0.009014138;-0.06829312;-0.016085422;-0.05369533;-0.09526904;-0.035815094;-0.15778315;-0.0013511983;0.02340974;-0.11974863;-0.08365488;-0.046884626;0.07903279;0.058136564;-0.082402766;0.033789556;-0.05107249;-0.111237295;-0.036424592;-0.01295271;-0.11084472;0.1361591;0.084537186;-0.146011;-0.00053026085;0.16231923;0.0042140824;-0.05927198;-0.0881768;0.078122534;-0.08005655;-0.01994118;-0.060659163;-0.038335465;-0.16243862;-0.100413114;-0.06805728;-0.027547544;0.044633087;-0.010958359;-0.06744113;0.026785523;0.04407377;-0.022997549;0.03867104;-0.002362645;0.08068767;-0.05273452;-0.058972172;0.078162864;0.08647464;-0.051580988;0.06871406;-0.021642257;-0.034484047;0.063667834;-0.18967313;-0.08905001;-0.07308448;0.048067257;0.09486694;-0.08762313;0.008149515;0.027467774;-0.008617286;0.03471129;0.09227476;0.016695192;0.015966529;0.015648823;-0.03848864;0.029239075;0.024308287;-0.0019567702;-0.17255476;0.09126981;0.049308017;0.08259293;-0.05658446;-0.004075472;0.021639246;0.019649284;-0.022498814;0.079312935;-0.3271585;-0.018665802;0.07569917;0.06294417;-0.21465927;0.013580104;-0.055480797;0.019550305;0.00017320532;-0.057216294;-0.022829441;0.0233959;0.010506981;-0.097425975;0.17222962;-0.03064318;0.13561803;-0.0639805;-0.031798165;-0.14179501;-0.009309559;0.065803185;-0.02307832;0.02761124;0.09828173;-0.0904631;0.059822626;-0.018448763;-0.10869347;-0.09358864;-0.067956954;-0.03768736;0.057542413;-0.03750687;0.019444674;-0.060251236;0.055653363;-0.07226765;0.033037085;-0.0146922385;-0.029077644;-0.24403451;0.05503428;-0.0072215656;0.008359181;-0.09016972;0.039754637;-0.11208261;0.08530729;0.037730884;-0.009554689;-0.022807326;-0.0063510374;0.051654518;-0.08319814
0.04703445;-0.08985884;0.07257236;-0.14507543;0.0015484198;0.042831667;-0.012837391;0.052911308;-0.029225457;0.065333754;0.029947994;0.03261537;-0.0142615335;0.00073274254;0.106708124;0.056190874;-0.08611078;-0.059420656;-0.0711417;0.031927094;0.07953869;0.028850025;0.017304318;-0.0023356092;0.015222846;0.124604106;-0.013183034;-0.058064304;0.05780212;0.10366687;-0.13690676;0.033372253;-0.061234873;0.032121897;-0.06860032;0.04091799;-0.18811622;-0.08373618;0.04563271;-0.037267815;-0.04877712;0.09775602;-0.020894436;0.019648554;-0.10897501;0.00082387845;0.033839926;0.0024394528;-0.024891835;0.036623072;0.062087312;0.1466275;0.065274805;0.05602211;-0.078421205;0.00649047;0.15430005;0.19597182;0.042693358;-0.006466426;0.045568835;0.091129385;-0.082794845;-0.26028648;-0.07789684;-0.025914928;-0.12157114;0.088241465;0.027329007;0.00018515172;-0.025015367;0.024207452;0.011810813;0.01845209;-0.097078696;-0.08896563;-0.010928492;-0.14867929;0.059813857;0.057562932;0.055890568;-0.08193241;-0.0045172772;-0.037195653;-0.028571805;0.040991846;-0.11157004;0.05486686;-0.067515984;-0.11360522;-0.0010786279;-0.042310122;0.034572583;-0.07996781;-0.1462771;0.04486812;-0.059194323;0.26418954;0.07808399;-0.121256866;-0.0696745;0.05920615;-0.18537146;-0.15972196;-0.07230352;-0.08957568;-0.084261954;0.0336102;0.036521;-0.020315908;0.04073342;-0.13729544;-0.048874542;-0.017395347;-0.09041219;0.038882803;-0.03332644;0.06661102;-0.07805593;-0.009498992;-0.008602997;-0.15335126;0.015825024;0.030622888;0.1334651;-0.02211339;0.0050422754;0.01753268;-0.05824875;0.10721818;0.053644203;-0.09552267;-0.029186143;-0.019324409;-0.079084024;0.1483469;-0.036912873;-0.09684638;-0.10887404;-0.04189726;0.06837449;-0.060266998;-0.17494339;-0.07027771;0.005132712;-0.00026362465;0.024740383;-0.00633752;-0.022045987;0.11169738;-0.20289256;0.0750939;-0.036513582;0.12614788;-0.036565375;0.061461475;0.05611189;0.14374425;0.042571668;-0.023127722;-0.06533163;-0.1424736;-0.06556098;0.06867293;-0.0046923044;0.058155354;0.075482585;0.04684999;-0.06768348;0.06979577;-0.0863629;-0.07401269;-0.011914785;0.043065917;0.04417968;0.019040793;-0.105900936;0.1981208;0.039258033;-0.09705003;-0.0685208;0.03245704;-0.15895422;-0.037816666;-0.050850112;-0.09446926;-0.05761286;0.015761154;-0.14959908;-0.040965054;0.06954718;-0.014483608;-0.03499115;0.028322354;-0.033673353;0.056623086;-0.08991035;-0.06870292;-0.049237005;0.012457305;0.040694747;0.05047373;-0.058018375;-0.056881476;-0.035731938;-0.0027308054;-0.036351066;0.07588977;-0.009199025;0.01988549;-0.06018703;0.09973239;0.03412198;-0.08978313;0.04931324;-0.003515197;-0.07615171;0.0954313;-0.05537789;-0.06063048;0.017466687;-0.029500391;0.050303318;0.03858704;0.07223219;-0.037008323;0.09206704;-0.17711623;-0.07783548;-0.07053022;0.048601203;0.0096392315;0.03144866;-0.06127151;0.062283482;0.07274467;0.010424773;-0.025204008;-0.011491027;-0.061073672;0.010311136;0.110862784;-0.048541244;0.041466255;-0.026375206;-0.06563281;0.020227056;-0.06076461;-0.028813776;-0.10789212;-0.025196768;-0.00069987925;-0.0020175988;-0.035371494;-0.07307057;-0.019556738;-0.04714179;-0.15141556;-0.032900266;-0.17228676;-0.14908718;-0.2576454;-0.020031778;0.05298302;0.027706131;-0.016729606;0.26367497;-0.08786823;-0.31053552;-0.0384031;-0.027145775;0.028561004;0.091206044;0.09165813;-0.0062729768;-0.093120955;-0.21542954;-0.0813051;-0.0025969022;0.005913662;0.031992663;-0.10333213;-0.06662257;0.01994799;-0.0822747;-0.10050066;0.043898646;-0.024380183;0.05225497;-0.19657865;0.06560926;-0.044031944;0.233601;0.015332074;-0.039824486;-0.081674665;-0.05330735;-0.111082144;0.017497877;-0.023717102;-0.11067182;-0.012464492;-0.0016898031;-0.03188758;-0.04397214;0.049242657;-0.103702106;-0.19034454;0.019052606;0.02604577;-0.011477494;-0.15461186;0.04656663;-0.16700278;-0.07325607;0.028928537;-0.06495318;-0.035516452;-0.048985153;-0.108758464;0.012255228;-0.08968429;0.07494065;0.0044529624;-0.0861246;0.017945953;0.034601267;-0.033417773;-0.04139037;-0.06531023;-0.05931668;0.071881175;-0.11859691;-0.029975722;-0.057539653;-0.11202396;-0.20369308;-0.017887997;-0.06643208;-0.07777828;-0.08489349;0.039322745;-0.047142386;-0.23874365;0.025489127;0.016217897;0.052978147;0.17605801;0.07793508;0.11302827;0.11647429;0.07093215;-0.01074954;-0.024869256;-0.045848437;-0.11173211;-0.107150786;0.09714732;0.20759115;-0.016952373;0.008359321;0.07303443;0.03552635;-0.01996188;-0.011177425;0.02844181;0.06145502;-0.20058852;-0.08687907;0.012359009;-0.08820623;0.11162269;-0.11620207;-0.020153254;-0.07712048;0.011265735;0.050198037;-0.03821263;-0.0697753;-0.16742174;-0.048957657;0.04990775;-0.07426471;-0.031558033;-0.09274146;-0.06358707;0.009037948;-0.08498244;0.15794846;-0.16498728;0.04280196;0.028612524;-0.1307086;-0.038970597;-0.08638805;-0.11837707;0.05565439;-0.07211197;0.2705579;0.02478084;0.067745;-0.020197904;-0.012617659;0.043132022;-0.07092834;0.052006148;0.052124538;0.016414221;0.030701555;-0.17054477;-0.060331013;-0.039496034;-0.07673984;0.077969775;-0.026266402;-0.028677499;0.008926961;0.07933361;-0.11372725;0.01917858;0.059084702;0.09951446;0.041155457;-0.059497874;0.14007656;0.0050467835;-0.29680556;0.03983273;-0.13234484;-0.046466567;-0.059283163;-0.114219934;0.03920459;0.031301375;-0.08055197;0.0619672;-0.29642954;0.05154343;-0.068413176;-0.010780162;-0.012063449;-0.03557491;-0.065149404;-0.091069706;-0.045066044;-0.16318847;0.043929998;-0.13448226;-0.015953515;-0.049046308;-0.04291652;0.16352896;0.0064229863;0.005856683;-0.031736977;-0.03336305;-0.016954882;-0.07610198;0.10956027;0.10103065;-0.047183942;-0.037226263;0.0033856058;0.041568503;-0.048603907;-0.12777302;-0.046233613;0.044233352;-0.014764952;-0.043455053;0.013361816;0.020873463;-0.09786513;-0.081433766;0.05939552;-0.03393666;-0.10946285;-0.1175896;0.02409933;-0.05883795;-0.10728174;0.06521101;0.13170668;0.19072036;0.06357448;-0.026195893;-0.04666458;-0.028572867;-0.008491263;0.08236634;0.072991826;-0.096016966;-0.07089043;-0.13526976;-0.0463153;0.013808631;-0.024960378;0.056689993;0.021660611;0.021999357;-0.01979271;-0.09989781;-0.021983767;0.017419677;-0.086780354;0.048988543;0.066484384;0.015354553;-0.01983002;0.034615032;0.068071015;0.047970213;-0.062288467;0.0113603035;0.027334323;0.055083096;-0.04117652;0.04921544;0.122768775;0.023640603;0.099958085;-0.2326414;0.0010547886;0.044585872;-0.016326878;-0.11510894;-0.0062642344;0.0743955;-0.09436034;0.060959164;-0.036935214;-0.028362138;0.029015964;-0.01514181;0.031850006;-0.028988829;0.07526;0.14638375;-0.030704461;-0.013733317;0.0059951316;0.05506629;-0.010613322;-0.048896518;-0.11319603;0.049764004;0.013100913;0.027131842;-0.0606692;-0.014538362;0.006529545;-0.06395636;-0.033749893;-0.07226687;-0.034901053;-0.05374123;0.04063209;0.007369436;0.0034986837;0.04583962;-0.099391975;-0.068522215;-0.22009708;0.018189041;-0.022482483;-0.032709863;0.043812405;0.043040074;-0.022627061;0.09582292;-0.10195166;0.0023397622;0.06265176;-0.027627824;0.065401904;0.035370693
0.19329758;-0.0007021547;0.09530077;-0.047343828;0.014766575;-0.027108425;0.03481564;-0.067425504;0.085079566;-0.02938906;-0.05346689;-0.043940067;-0.03674857;-0.025762562;0.14837705;0.1426709;0.02329567;0.02787148;-0.120092854;0.03583235;0.041427854;-0.10373385;0.1107491;-0.08507519;-0.13169244;0.2583436;-0.12748544;-0.028680326;0.055868395;0.07965697;-0.10786855;0.0737812;0.05537653;0.11141267;-0.054930646;-0.006751848;-0.2692415;-0.0058833803;-0.030437503;0.045224905;0.00467324;0.032403853;0.10990663;-8.685973e-05;-0.07322323;-0.004968011;0.01138296;0.044453125;0.05096661;0.08471502;0.20408025;0.07506581;0.003668045;-0.00250556;-0.0052108075;-0.014324562;0.15327807;0.10125219;0.110195704;0.08689326;-0.078167975;0.20494077;0.01600645;-0.3188154;-0.04672541;-0.100246236;-0.006672997;0.05732424;-0.009146404;-0.12396757;-0.025541456;-0.021254946;-0.09127033;0.04718786;-0.22617854;-0.17895573;0.020401573;-0.023075653;0.071881756;-0.021775804;0.08335525;0.020653013;-0.029679824;-0.02072137;-0.10751248;0.02218405;0.011717495;-0.004659657;0.05665416;-0.054424565;-0.02427124;-0.025080303;0.09771963;-0.065896034;-0.04068612;0.015042253;-0.049091585;0.21474168;0.12769583;-0.07013425;-0.005673246;-0.00193909;0.023326958;-0.24137153;-0.11727645;0.025243409;-0.077621944;0.05027704;-0.018869754;0.0196897;-0.1549841;-0.06174044;-0.06830671;-0.0528862;-0.07793836;0.026101623;-0.0707381;0.051157378;-0.0356965;0.04157758;0.08453308;-0.07447462;-0.07582554;-0.0049532284;-0.046524677;-0.016407358;0.03130511;0.06382353;-0.11914874;0.06717119;0.04141595;0.07775819;-0.02438053;0.10782431;-0.11980743;0.16388619;-0.17209823;0.22924533;-0.0096808765;-0.081863716;-0.016624397;0.048567872;-0.22263618;0.020936897;0.025889372;0.06633353;-0.048696186;0.03636485;-0.10173611;-0.039843805;-0.09108388;-0.000520811;0.06664588;0.123223335;-0.107573226;0.008203965;-0.10254078;-0.060180128;0.0073927925;0.28640023;-0.13299477;0.0127006965;-0.05056195;0.023682997;-0.0069939587;0.14591347;-0.0053978595;-0.012154152;-0.14218494;0.09996614;-0.032687373;-0.06525709;-0.03856415;0.019492643;0.026253533;-0.083435714;0.003135261;-0.01921116;-0.07515737;-0.035552204;0.08041778;0.031212864;-0.37840378;-0.06010754;0.036432393;-0.06521166;0.084249884;0.09535839;-0.11892855;-0.038235724;-0.049566124;0.17485885;-0.05033284;-0.10319663;-0.009786565;0.090465985;0.085583806;-0.13051954;-0.10569117;-0.016424578;-0.03487622;-0.024417046;0.056141436;0.15443553;0.09818445;0.06874067;-0.054715227;0.09226046;-0.013577462;-0.031308826;-0.012330511;0.12627055;-0.014931268;-0.123257354;-0.10794811;-0.05293084;-0.14826396;0.0016803013;0.03942416;-0.011969677;-0.15313345;0.07580146;-0.13907197;-0.14723398;-0.029530255;-0.19242506;0.06309221;0.0068398104;-0.121546;-0.04001864;0.09184886;0.059249584;-0.0071179243;-0.038153894;0.19340283;0.056931578;-0.04970399;-0.096513405;0.11876095;0.009810801;-0.060203567;-0.020489594;-0.10316414;-0.10575849;-0.06543431;-0.003249497;0.10020698;-0.011278218;-0.02992804;-0.015994329;0.028196918;0.041081496;0.03287724;0.1153152;-0.027899608;0.10741471;0.08118737;-0.010373714;0.08780078;-0.06220894;-0.02675905;-0.4158148;0.08067158;-0.042535525;0.002992845;0.020102832;0.12717867;-0.03021252;-0.1946859;-0.041452512;-0.06209628;-0.15056889;-0.012392123;0.31552;0.13943727;-0.04095701;-0.1367156;-0.077990614;-0.020841269;0.018201439;-0.13102804;-0.0044432594;-0.044287432;0.0128995525;-0.06725139;-0.04928738;-0.0847411;0.00740433;-0.049953252;-0.07970088;0.048983272;0.1419209;0.14387278;0.12315235;-0.09222553;-0.019462029;0.008677012;0.037015595;0.003592138;0.09849233;-0.13438712;-0.23821813;0.02131069;-0.30147147;-0.032935433;0.0472691;-0.045144774;-0.005320369;-0.056635242;-0.0028544664;0.011148925;-0.28571895;0.019050926;-0.08052545;-0.06400232;-0.007868818;-0.04920114;-0.047357265;-0.08217415;-0.14928444;0.09945536;-0.20128259;-0.07852184;0.07188824;-0.09862957;0.042457048;-0.034426127;-0.04626184;0.07574752;-0.11621245;0.03452611;0.019413311;-0.013608698;-0.1350472;0.022013;0.082912564;-0.24232613;0.013390069;0.057214893;-0.068585806;0.09398543;-0.121103734;-0.098480426;-0.11525089;0.008743415;-0.037556514;0.026490524;0.40215045;-0.07025377;-0.27263653;0.02531577;-0.08282807;0.02885246;-0.05572813;-0.020166371;-0.07268855;0.00026786615;-0.046204757;0.089136206;0.097408906;-0.118528396;-0.043742888;0.1711966;0.029082982;0.07031709;-0.010512846;-0.029255265;-0.25808707;-0.09297639;0.045301367;-0.10531878;0.16780995;-0.06790052;0.16244477;-0.030920852;-0.06664991;0.03872568;0.07086103;0.051700205;0.023436634;0.05314878;-0.06248512;0.07971896;-0.19091843;0.04247961;-0.027664127;-0.13126121;0.0137804225;-0.038111277;-0.18603687;0.050564412;0.019862434;-0.07072699;-0.119283594;-0.02673018;-0.21838821;-0.013173409;0.02387827;0.13265972;-0.14965446;-0.020678027;-0.016143912;0.03213514;0.05038623;0.07701365;-0.05165019;-0.078446686;-0.12199297;0.008278411;-0.3884227;-0.012791526;0.19787903;-0.027128944;0.07233675;0.06347468;0.0054121334;0.015191672;0.07837749;-0.02832622;0.0020367338;-0.006933246;0.22443569;0.024009846;-0.0875028;0.04563153;-0.016486071;-0.34256077;0.10441485;-0.13026746;0.0563009;0.033726655;0.049530063;-0.061361995;-0.028276592;-0.12547733;0.09282798;-0.36480066;0.07420114;-0.036809262;-0.15783966;-0.06549586;0.01860349;0.11115818;-0.14980014;-0.14639978;-0.0052470006;0.14261128;-0.079018846;0.022587128;-0.038249157;-0.025506765;0.1277817;-0.114937924;0.056841575;-0.14918187;-0.06555032;0.049179822;-0.052809853;0.082574405;0.21286736;-0.1008441;-0.09521836;0.013457815;0.0337895;-0.049806006;-0.2156834;-0.38204756;0.016549492;0.019434314;-0.1092817;-0.05009263;0.16195047;-0.20227163;-0.19905603;0.12610689;0.060528312;-0.13723302;-0.13730745;0.061736938;-0.08206258;-0.109821886;-0.06827638;0.07855428;0.010679591;-0.037195202;0.08096435;0.10119877;0.05151631;0.045268234;0.011633425;0.14241605;-0.062852964;0.027621413;-0.15404207;-0.0014591786;-0.023451028;-0.22926609;0.11425949;0.0057442007;0.16147405;0.020221869;-0.090913296;0.12347656;0.04783994;0.072707266;-0.100183964;0.06495116;-0.06680115;0.07030807;0.00011658288;0.03179669;-0.30117536;-0.038872913;0.0042430465;-0.028078238;0.025806155;-0.29015258;0.05747436;0.0397859;-0.06506353;0.011904847;-0.23629889;-0.03415791;-0.04142101;0.14000264;-0.1739031;0.007175367;0.05819444;-0.02997852;-0.06400331;0.13070332;0.06908918;-0.29441106;-0.050886724;-0.11726226;-0.038323227;0.046031233;0.16184092;0.026673827;-0.027371837;-0.054052148;0.0852912;0.06916217;-0.18104438;0.071910135;-0.21214493;-0.069052756;0.032058913;-0.013155974;-0.15818374;0.049501654;-0.12819412;0.011199229;0.031683743;-0.047321588;0.05982335;-0.10059975;0.08150887;0.055080254;0.013182599;-0.11833476;0.030766286;-0.11171701;-0.04802895;0.10384667;-0.020932049;0.01152585;-0.027138652;-0.06176647;0.1103379;0.006293092;0.018989118;0.13702892;-0.09879461;-0.061074402;0.003108917
-0.012555208;-0.08191413;-0.046363223;0.019025156;-0.0142619535;-0.03402549;0.0016814936;0.052699227;-0.016140841;0.04459338;0.02220129;0.15578192;0.0662183;-0.03144512;0.04001932;0.11402376;-0.047327243;-0.01514086;0.06271338;0.089942925;0.027549092;0.024807928;0.03675608;-0.054170433;0.002610207;-0.087056;0.038435202;-0.056370698;-0.035745725;-0.03946902;0.12614281;0.0995006;0.0059530786;-0.04537443;0.014262729;-0.049175017;-0.115344524;-0.11027215;-0.03588408;0.08163193;-0.009358251;0.041580122;0.002991687;0.039719712;0.017888632;-0.038933624;0.1414409;-0.006458757;-0.03561967;-0.01354055;0.0559499;0.13118184;-0.051492497;-0.025385756;0.12811756;-0.09445127;0.110763945;0.063938305;0.07103322;-0.0041976967;0.07664869;0.22409737;-0.15841019;0.061419997;0.00073490344;0.0077050827;0.0069273748;-0.061133273;0.02755379;-0.083099425;0.016076624;-0.017967258;-0.09453387;-0.021528153;-0.023556316;-0.16398513;0.02413116;0.012284877;0.06651525;0.19411942;0.09555203;0.09851172;0.091567986;-0.017636633;0.03554763;-0.08443914;-0.060159333;-0.043030404;-0.038124442;-0.032546323;-0.06982922;-0.041403275;-0.030478716;-0.0891129;-0.049128458;-0.05301169;0.062877454;0.14155085;-0.06005433;-0.025091881;0.0977255;-0.05171349;-0.036296614;0.05915693;-0.066474184;-0.003233551;-0.0051509757;-0.04768427;-0.060368396;0.025143294;-0.070461914;0.050740685;0.04986206;-0.045088463;-0.04353042;0.113364376;-0.041002464;0.061476804;0.002559693;0.08549609;-0.07474845;0.0473739;-0.06586409;0.04659238;-0.19077592;-0.0051561114;0.010141945;-0.016818032;0.022285756;0.0805567;-0.10090818;0.06905041;-0.004208411;0.13099876;-0.035472676;-0.011604587;-0.058350608;-0.1451368;0.024787826;-0.03298402;-0.058905095;-0.029175717;0.08169972;0.052839;-0.104466274;-0.08347991;-0.016422529;-0.017851124;-0.09064155;-0.053108163;-0.1897638;0.0055555496;-0.020934679;0.18300557;-0.070391774;0.0015109299;-0.06893304;-0.10611454;0.017898416;0.14761782;0.064672716;-0.05782061;-0.16893364;0.06674201;0.26074818;0.096604265;0.031058406;0.019090421;0.030184949;0.021229258;0.03113943;0.1416185;-0.010889675;0.0103528835;0.02447389;0.027278448;0.03449438;0.062421847;-0.024555093;-0.07976512;0.09694504;0.0321266;0.027666742;0.03845853;-0.04242936;-0.07537892;-0.03917069;-0.06689063;0.023054564;0.01184259;0.022667555;0.08628838;0.055205487;0.079669036;-0.08906967;-0.06450488;0.052210744;0.037763055;0.07307798;0.076145075;-0.06406472;0.09996489;-0.073335074;0.11275314;-0.0985517;-0.04337094;-0.026574323;0.09841911;-0.062791325;-0.002879854;-0.020014396;-0.037140653;-0.07572933;0.03869539;0.16804385;0.049834736;-0.051703013;-0.0636546;-0.09011075;-0.060510125;-0.015911482;-0.05331629;0.19207892;0.06737253;-0.09735519;-0.067913495;0.07137883;-0.14518945;0.08729308;-0.031236034;-0.07800986;0.04391484;0.056528263;0.026281845;0.027497726;-0.06514684;-0.026690202;-0.08289194;0.058851253;0.0046372362;0.016030433;0.039364636;0.11703164;-0.030584617;0.01475821;-0.07478768;-0.031792436;-0.041676138;0.06772112;0.05946414;0.03382221;-0.06810041;-0.026762998;0.025301317;0.026247254;-0.049514122;0.02017545;-0.03260925;0.0138357505;-0.025357325;-0.013555606;-0.17062254;-0.06999941;0.04803191;0.016992845;-0.01679084;-0.0110698985;0.06410178;-0.23113555;-0.03168082;-0.00947076;-0.117791906;0.033946503;-0.0027867234;0.05166357;0.025966045;-0.06912046;-0.07956261;0.03968405;-0.080047525;0.21327554;0.076426916;0.034178764;-0.088925;-0.09539393;0.048557434;0.03203401;-0.029074498;-0.0810948;-0.08110881;0.083951734;-0.043344475;0.15906304;0.11322026;-0.027436307;-0.04227121;0.01829828;-0.0108435545;-0.058780096;-0.06127989;0.049915563;0.07459892;-0.066746235;-0.11429958;0.046336975;0.015701277;-0.10402605;-0.00044718012;-0.04874663;0.11484423;-0.0655718;-0.094585024;-0.057638064;-0.047464557;0.067000605;0.01101237;0.04945029;0.06609101;-0.04948546;-0.058194287;-0.020175187;-0.07038716;0.0027181064;-5.329691e-05;-0.056562874;0.059422765;0.11206852;0.018567191;-0.08618959;-0.0059943367;-0.057795595;0.05514978;-0.0018840805;0.03729514;0.005551153;0.001242927;-0.0030707072;-0.03690669;-0.09622418;-0.08320044;-0.017044555;-0.10177616;-0.05935649;-0.0536919;0.038398292;-0.0029221717;0.056235045;0.03323611;0.03623834;0.13284367;0.05315359;0.082938366;0.051858082;0.07960119;0.03840437;-0.10805306;-0.14268243;-0.0509038;0.045646027;-0.085730635;-0.059562888;0.052784503;-0.106878676;0.016475722;0.044409722;0.026042333;0.044201475;0.0771813;0.06362735;-0.05823431;0.083391294;0.1395464;0.21110773;0.14114255;0.028388498;0.07186917;0.0030036578;-0.0067098495;-0.053802155;-0.2379525;-0.0039864248;-0.100210935;-0.077557795;-0.01911036;-0.0003625974;0.012582111;0.118352175;-0.064628586;-0.06794872;-0.09131577;0.01746082;0.038716268;0.051035326;-0.06240386;0.04906589;0.016667672;0.009070946;-0.024642106;-0.078889854;-0.0024196103;-0.057609554;0.026818173;0.08637779;0.049131945;0.032573953;0.019105345;-0.077609785;-0.04930972;0.06347564;-0.14276665;-0.077633604;0.14783193;0.06780698;0.08115214;-0.012660685;0.08087594;0.056938898;0.054983415;0.07685674;-0.046050478;-0.06611758;0.20820393;0.060819574;0.0030674206;0.07935441;0.05844541;-0.107086785;0.08881483;0.21406725;-0.0042294865;-0.025663374;-0.101437636;0.066078015;0.0060531395;0.0012024887;0.0821911;-0.12220871;0.043879606;0.0846106;-0.055265218;0.0526837;-0.17271458;0.25296533;-0.00222625;0.060945198;-0.04256544;0.028720435;0.06803146;-0.031222837;0.014940436;0.061481167;-0.024650943;-0.0030613523;0.10983709;-0.050064635;-0.0378182;0.0035123723;0.033345707;0.091007076;-0.070646144;0.2567101;0.05290474;-0.12765837;-0.08153894;0.008234991;-0.024636421;-0.015394732;0.07401091;-0.033747476;0.041106526;0.06617628;-0.06735314;-0.06468793;-0.15318277;-0.019973617;0.030390289;0.06370451;-0.03082914;0.062884666;-0.009240581;0.0058453707;-0.023963742;0.16601744;-0.083131336;0.11260896;-0.0307513;-0.029619973;-0.070935816;0.095200345;0.07365712;0.047113165;-0.0032895135;0.038125116;0.09302063;-0.03902732;-0.06314439;0.052635208;0.039494794;-0.05671995;0.0662968;0.06473182;-0.16669819;0.05483969;0.1568521;-0.07423938;0.0707989;0.105701014;-0.031104375;0.045659676;0.056160636;-0.08244604;-0.1301115;-0.011720069;-0.05812537;0.053606372;-0.046532106;-0.11893147;-0.07752168;0.06657271;-0.07672796;0.06555818;0.01735857;-0.017417211;0.059677135;0.004930596;-0.1403194;0.037834644;0.07596554;-0.046555735;0.016197052;0.05984363;0.03281608;-0.15234953;0.07196096;-0.032712203;0.07414992;-0.022053484;0.058332514;0.054445714;-0.018491438;-0.19320913;0.024040643;-0.03298889;0.021939326;-0.20885475;0.011383693;-0.07529235;0.09295614;-0.062315293;-0.06635536;0.08480788;-0.031524837;-0.007835617;0.05678165;0.008915639;0.011065131;-0.04767647;-0.02180267;-0.015074309;-0.030874806;0.01654426;-0.045393538;-0.15830314;0.076278396;0.07139029;0.012362988;-0.05059106;0.071665175;0.04164545;-0.017435769;0.052165627;0.097123675;-0.19609927;-0.033610627;-0.10961163;-0.012702113
0.08098012;0.07811731;0.028079621;-0.006834166;0.056839354;-0.0035779465;-0.10741087;-0.07822861;-0.06848257;-0.0773045;0.008405407;0.29081073;-0.028890233;-0.17909312;-0.02320606;0.1748247;-0.19068637;-0.029434182;0.13553596;-0.0023553814;0.059181523;0.0068605337;-0.04762042;0.17492457;0.058314253;-0.049027473;0.024955057;-0.014250257;0.02469476;-0.0667416;0.04209466;0.09729484;-0.065072194;0.057555776;0.012486299;-0.026499378;-0.06918845;-0.15879656;0.054964285;0.13274828;-0.06301685;-0.030994328;-0.06789055;-0.007268982;-0.09064874;0.08282568;0.021356232;-0.023651253;-0.007858426;0.082646415;0.0070920927;0.27705252;-0.12611079;-0.0514063;-0.004969588;0.041535076;0.09520129;-0.06756859;-0.072817594;-0.011409977;0.1170569;0.08835241;-0.12813401;-0.10079208;0.028190384;-0.019491445;-0.15137643;0.10778889;0.030835506;0.03708902;0.07566798;0.04247039;0.01249647;-0.05206243;-0.04202008;-0.02391325;0.014644338;0.005585974;0.044450026;0.18169908;0.041680716;0.13487872;0.085086554;0.027999649;0.019942654;0.020994566;0.007307282;0.033611868;0.039692067;0.050709482;-0.03412704;-0.08550212;0.053225424;0.004711677;0.09828096;-0.06340224;-0.022787109;0.04291681;-0.04370455;0.030380763;0.015435406;0.031379655;-0.03644082;-0.01139067;-0.003586871;0.003980567;0.04835727;-0.02843363;-0.03189083;-0.010803223;-0.011820564;0.026316658;0.09575704;0.07320897;0.047730565;0.017320642;-0.037171125;0.068978615;-0.033700064;-0.010753852;-0.026901081;-0.02872319;-0.055592526;0.07441146;-0.21886455;-0.06473935;-0.043895196;0.20152502;-0.055943143;0.15867469;0.10537406;0.19313042;-0.1045117;0.17831063;0.020060394;-0.09372545;0.07475977;-0.22321342;-0.03408152;0.08470559;-0.029523246;0.068665445;0.057534352;0.019718258;-0.15911411;0.01910719;-0.029328423;0.05448274;-0.02488315;-0.02256207;-0.31140614;-0.07968187;0.035607155;0.19825347;-0.12951352;-0.0455618;0.07980997;-0.08020052;0.021171069;0.11488902;0.018584972;-0.07433221;-0.15588538;-0.014183669;0.17508526;0.008782385;-0.17164601;-0.016813776;0.011733559;-0.023134617;0.0064984327;0.06450285;-0.0823947;-0.09614667;0.026050257;0.029771533;-0.011293464;-0.025108747;0.10002399;0.04979819;-0.013717886;0.07230274;-0.0043259542;0.022561153;0.062922224;-0.11678725;-0.009049668;-0.1268875;0.0622881;-0.012510434;0.029391423;0.07909247;0.058493882;0.02205082;0.025322368;0.01659976;-0.03416181;0.02233781;0.056917176;0.13356432;-0.024049565;0.055045713;-0.054541495;0.12330442;-0.124411255;-0.09281601;0.11921617;-0.01400766;0.016661832;-0.0072913617;-0.0050695813;-0.007542317;-0.054089192;0.059177946;0.18556993;-0.023966515;-0.061563145;-0.038976673;0.06390155;0.052371938;-0.10287293;-0.058572333;0.14008737;0.024409084;-0.15759218;-0.006530305;-0.008977057;-0.16626827;0.029578935;-0.02440536;0.040273737;0.079066075;-0.062310617;-0.07535434;0.17229502;-0.07647613;-0.050430603;0.090341784;-0.2051586;-0.0019659773;0.076541625;0.024179902;0.049930446;-0.057864055;-0.0037855278;0.037685506;0.046908334;-0.05672889;0.05184925;0.24542896;-0.04645435;-0.043098625;-0.030175589;-0.046101492;-0.002158258;-0.039811593;-0.057429917;0.0023306955;0.071491644;-0.118904196;0.03799774;0.03270872;-0.014893987;0.062697634;-0.032075465;0.048055302;-0.07243176;0.0388908;-0.27972606;0.07170831;0.047728155;-0.051422715;-0.01817926;-0.08310912;0.08439926;0.06675686;-0.08555224;0.05781125;-0.021480607;0.0018499399;0.1585103;0.023564542;0.011707809;-0.058275063;0.06706825;0.04919929;-0.036088675;0.11258524;0.00082592847;-0.0007864848;-0.07206072;-0.15522267;0.034470335;0.07846166;-0.12035328;-0.026566127;0.07854056;-0.034235623;0.02777793;0.03437713;0.25366747;-0.01839266;-0.07787218;-0.10192885;-0.025853658;0.07320406;0.014652442;-0.028906493;0.045156706;0.06975452;0.01614303;-0.16825351;-0.05443393;0.03866113;-0.036726885;-0.007196762;-0.04381356;-0.011621592;0.08676628;-0.068420194;-0.011070841;-0.0317638;-0.08132734;-0.0104915835;-0.04016111;-0.047844887;0.060536705;0.04733699;0.05814085;0.080931716;0.0830759;0.0023838906;0.10645155;-0.051215578;0.0644509;-0.057352096;0.30608;0.009031257;0.038952824;-0.023214828;0.0032572069;-0.010868709;0.040720165;0.071193196;-0.040927924;-0.05739275;-0.057163075;-0.18315965;-0.13253756;0.015544234;-0.08844026;0.0020209078;-0.025768504;-0.016997445;-0.012372571;-0.088302456;0.029414183;-0.13167177;0.12830018;-0.13465825;0.16608949;-0.035467394;0.042570483;0.047391348;0.07911995;-0.024550715;0.05172894;0.25359252;0.0546153;0.04510193;0.09235708;0.13929091;0.19121906;0.11325601;-0.052203845;0.03283115;0.050666682;0.029460315;-0.09481308;0.07047083;-0.059032593;-0.07931945;-0.042631134;0.06919981;0.047183108;0.035628233;0.11628494;0.13579097;-0.13469115;0.10347429;-0.08254111;0.0016548426;0.048522558;-0.02797134;0.057975933;-0.018791363;0.03358716;0.039673973;0.08007457;-0.018323507;0.025554346;-0.0017343308;0.0826037;0.03450204;0.083843924;-0.01057518;-0.11800151;-0.036661994;0.050843865;-0.03204582;-0.012590744;-0.07099745;0.081333;0.0872239;-0.011291439;-0.056088958;-0.028409107;0.07548173;-0.004117394;-0.011375818;0.016618477;0.16497537;-0.04701368;0.094096385;0.020762889;-0.021645263;-0.09824432;0.0065672486;0.110409096;0.035728;0.0056280014;-0.05303019;0.09097964;0.05173836;-0.065018825;0.05107857;-0.10225277;0.05324048;-0.0072359308;0.035788897;0.011770146;-0.22494686;0.11239811;0.058445457;-0.0333205;-0.007938722;0.017129462;0.116424546;-0.048991878;-0.051302224;-0.031396113;-0.06462369;-0.03158709;0.07658275;-0.046372794;0.08168134;-0.08755349;-0.045765106;0.059252206;-0.22847366;0.09628096;0.07529651;-0.10700405;-0.0014260145;0.0363383;0.0663569;-0.012679341;-0.038695633;0.0076497397;-0.018228386;0.04294109;-0.01079373;0.21144076;-0.12685676;0.018610556;-0.02036794;0.12665191;0.060729463;0.08090241;0.015094384;-0.0075299605;0.1108485;0.0995789;0.054643333;0.06273977;0.003912701;-0.07337172;0.06325829;-0.07826748;-0.015208389;0.072088696;0.103640996;-0.050960883;0.014517232;0.09037295;0.05369639;0.10176599;-0.06385377;0.08261016;0.10363002;0.05737821;-0.0018108576;0.15113798;0.039353125;-0.005198369;0.06860513;0.011248968;-0.010773542;-0.012183261;0.018107306;0.04612966;-0.026441488;-0.007471891;0.07601901;-0.05938272;-0.05262514;-0.13350096;0.09459311;0.04024189;-0.06509825;0.06417509;0.27460322;-0.02007227;0.011108327;0.006027609;-0.13514422;0.014199515;0.024500404;0.0436317;-0.10020573;0.011130083;0.037191443;-0.11237858;0.009395144;0.09320565;0.021254634;-0.056515593;0.092783675;-0.02914898;0.090790614;-0.16748157;0.0672344;-0.01385005;0.017714651;-0.2490807;0.036584217;-0.005879977;0.037311077;-0.10369472;0.060230255;0.06915458;0.05522541;-0.06116833;0.009288019;0.030982932;-0.097258285;0.072005555;-0.11069527;-0.07727864;0.032814473;-0.07820817;-0.03131642;-0.12982795;-0.025563603;-0.08005268;0.052448086;-0.08966512;0.08735724;0.01931088;-0.06943569;-0.04527241;0.07823124;-0.18663993;-0.056892063;0.025792712;-0.034279726
-0.0943666;0.0298448;0.0071317707;-0.093935415;0.04478227;0.06095683;-0.06845446;0.021089667;0.02415317;-0.06402683;-0.03059741;0.21405853;-0.018060444;-0.00052425254;-0.05866639;-0.0063937716;-0.019873986;0.11126866;0.0613878;0.035228133;0.08116622;0.01041047;0.0945098;0.06326521;0.03095475;0.09444034;0.015786914;-0.09036827;-0.04639934;0.02664007;0.11116625;-0.1351793;0.015534132;-0.060565613;-0.011304487;0.036200456;-0.11260989;-0.032249644;0.079610154;0.010079462;0.0683185;-0.011127951;0.11132108;-0.020444756;-0.14441377;-0.021391178;0.10977886;0.11767678;0.04008693;0.117593475;0.015994625;0.0517636;-0.03419234;0.013133672;0.01117104;0.09538444;-0.014955861;-0.0823565;0.020589752;0.07158335;0.1486164;-0.037333816;-0.14349057;0.010813438;0.024574386;-0.022263737;0.10600269;-0.0006807886;-0.0019807222;0.047955602;0.033985484;0.066679254;-0.011417627;0.038114402;0.1386187;-0.0830319;0.043669112;0.11391447;0.018686995;0.14103167;0.042364586;0.050839175;0.0160906;0.06448928;0.032570973;0.045642927;0.06591302;-0.05658332;0.0600419;-0.056498382;-0.08117592;-0.051533103;-0.04441142;0.06661985;0.021352539;-0.007647772;-0.08386499;0.094913565;-0.06358834;-0.0561787;0.0707468;0.070725285;-0.2196306;0.013157675;0.024506211;-0.0077263713;0.06760918;0.090598315;-0.008207952;-0.03709209;-0.054700587;0.07935212;0.06484213;-0.03143976;-0.06834109;-0.050731733;0.03077129;-0.009283253;0.041178267;0.0060976157;0.07518949;0.01567532;-0.08400361;0.08919362;-0.22039793;-0.08749454;0.011296117;0.16059591;0.016132211;0.07181242;-0.14299037;-0.020046847;0.16650979;0.112495996;-0.0026955854;-0.009304998;-0.14344685;-0.13729326;0.05489935;-0.055970367;-0.019140536;0.07611568;0.0648654;-0.012985635;0.005272294;-0.013361951;-0.049554408;0.08098026;0.030970253;0.104338914;-0.20104155;-0.04973549;0.027877513;0.20178325;-0.041097857;0.0037239369;-0.013989044;-0.03460739;0.038171295;0.15857145;0.0230024;-0.056976832;-0.15951397;0.011047636;0.11546436;0.007195669;-0.17302953;0.10372465;0.019369176;0.06341471;-0.043348916;0.1294485;-0.06547577;0.096653655;-0.05640281;0.011090081;-0.085062616;-0.06884467;0.011169849;0.0624585;0.12113118;0.11064583;-0.15809256;0.04111729;0.011449393;-0.020726569;0.03979552;-0.11923607;0.022626776;0.0091219125;0.07385646;-0.0074536535;-0.058827527;0.023343477;-0.01982116;0.009878915;0.014091038;-0.07910131;0.1754836;0.0023033333;0.06930956;-0.021217281;0.013626312;-0.04771908;-0.057252817;0.029180275;0.12889546;0.10769814;-0.056794483;0.038595982;-0.068649456;0.15496497;0.07193971;0.124270506;0.22856253;-0.03761123;-0.051918652;0.09830669;0.081475474;0.09638761;-0.07061612;0.009809471;0.2112183;-0.066432886;-0.06798022;0.07508069;-0.067989044;-0.16915514;-0.02936338;-0.07166775;0.038123555;0.09613727;0.025604006;0.044064216;0.050186414;-0.009959305;0.017746383;0.06534943;-0.062215853;-0.052664585;0.07045128;0.002753312;0.014926562;-0.051560823;0.049642876;-0.0096088145;0.002963226;-0.00018364273;0.036494233;0.23205039;-0.022362309;0.092220105;-0.014264171;0.07529894;-0.050379004;-0.004762619;-0.031021684;0.0061857654;0.046784848;-0.07131009;-0.038844544;0.08999269;0.050195236;0.08080441;-0.054002948;-0.023932772;0.09982623;-0.052218437;-0.31150517;0.11078857;-0.039849404;-0.11919742;0.07748579;0.019258976;-0.0026527636;0.05266746;0.035320967;-0.08425859;0.053424966;0.05750803;0.15376952;0.0058053485;0.0065994;0.05201879;-0.04105282;0.045497797;-0.0047696717;0.10629845;-0.04500251;-0.020309234;0.057915732;0.0100015635;0.14307109;0.0026823233;0.022214826;0.11535754;0.031836297;0.0043460443;0.036180515;0.0029946521;0.007405233;-0.035019048;0.09216686;-0.22283423;-0.09162907;0.073082514;0.02677873;0.025633749;0.023897387;0.025330277;0.06884576;0.029159391;0.055740215;-0.01628574;-0.0372145;-0.027214479;0.07703856;-0.0013820105;-0.04833727;-0.088235095;0.0069130682;0.24607049;-0.066409625;0.071151555;0.026943566;0.047429297;-0.014856137;0.0026988618;-0.019475602;0.06468062;-0.030147977;0.08029612;0.016593631;-0.06501375;0.029982364;-0.025068501;0.38096616;0.030266706;0.08205095;-0.06640089;0.033059772;-0.064752;-0.047850095;0.2994733;-0.048435558;0.081013;-0.007157743;-0.035227332;0.08638026;-0.048334446;-0.26726735;0.045169927;-0.044025254;-0.0012097583;-0.04790207;0.06920807;0.055411488;-0.07515242;0.026808092;0.013435313;0.094425894;0.0030350839;-0.033522435;-0.029846013;0.027215645;-0.033965528;-0.0753885;0.37067223;-0.0026227445;-0.035737783;0.08302076;-0.046782665;0.21935473;0.030257706;0.07557874;0.017121285;0.021714397;-0.038393658;0.024898672;0.12717;0.1322909;0.07594229;-0.031081112;0.058611844;-0.05026665;0.03807869;0.11976644;0.0016258181;-0.10858803;0.231982;-0.010517019;-0.018529508;0.078351416;-0.02712997;0.10783508;0.05278891;-0.053406246;-0.07758243;-0.06491348;0.09448061;0.034889366;0.11786676;0.07917451;-0.030380532;-0.0058401637;0.010729997;-0.08470388;-0.047722347;0.06089844;-0.07753288;-0.06741393;-0.05673195;-0.05506992;0.00880738;-0.0046394505;0.024383374;-0.08723909;0.053625066;0.09847258;0.07216635;0.05722539;0.19928244;-0.046224676;-0.0039911806;-0.037731975;0.080265164;0.0376063;0.102901615;0.20457466;-0.04342009;0.018980414;0.033774525;0.08512771;-0.021074919;-0.07879907;-0.0028464843;-0.024053931;-0.06188667;0.016575482;0.028476955;0.07224566;-0.119087175;0.0058522113;0.1505555;0.09327067;0.054167546;-0.043479472;0.09114607;0.0532533;0.04260883;0.05404584;-0.11754335;0.0044922777;-0.03529036;-0.065359056;-0.016619807;0.08305984;-0.06477002;-0.13147873;-0.12378704;0.047615774;-0.0076400535;0.008735991;0.052184835;0.055453;0.054475356;-0.0938412;-0.08040056;0.014155037;-0.0035117911;0.08252283;0.11038454;0.31273746;-0.016102334;-0.06933695;0.09740673;0.046281125;0.011148248;0.07619198;0.0753131;0.049165934;-0.013504835;0.16246754;-0.0500117;-0.0009092429;0.042978402;0.06479884;0.046958216;0.114873685;-0.04370849;0.052163824;0.18157934;0.052849095;0.12229566;-0.06711371;-0.07031492;0.18361014;0.04852782;-0.004521418;0.1134493;0.0404893;-0.15929946;0.029411186;0.16939099;0.011051729;-0.012736393;0.1708808;0.029964376;0.1255811;0.09573586;-0.016546875;-0.09523116;-0.040464286;-0.008164084;-0.024677603;0.013482162;-0.06112808;-0.0371154;-0.014285859;-0.06494224;0.107941255;0.03955647;0.039395195;0.01623325;-0.06282979;-0.060931075;0.037915077;0.05989107;0.03940402;-0.06032964;-0.009761905;-0.013061345;-0.046829034;0.010904834;-0.0158243;-0.008988069;0.05878536;0.19528873;0.093129165;0.028876852;-0.17038792;-0.052277062;-0.09115171;-0.042542905;-0.14634342;0.15429474;0.0021204737;-0.06607086;0.07232228;0.06517202;0.08654122;0.06097049;0.10541399;0.1650241;0.09813809;0.07727314;-0.014006249;0.07271942;0.0067762127;0.027661348;0.017448653;0.051207364;-0.026306612;0.09646398;-0.06554344;-0.06718851;0.06850317;0.057613533;0.01666467;0.03940563;-0.043446615;-0.0050442293;-0.09727722;-0.01671067;0.047750603;0.06976729
0.028174287;0.03507086;0.07615685;-0.0806999;0.043597918;0.08939718;0.055450503;0.015535196;-0.086950496;0.0015602846;-0.034508593;0.18352804;-0.008323059;0.05639469;-0.081414595;-0.043424144;0.058412;0.01820196;0.013234887;-0.015899768;-0.009463384;-0.0662487;0.12648714;-0.028730074;-0.028190559;-0.054106925;0.122180745;-0.028439559;0.0046502925;0.019472709;0.107326634;0.05496883;0.008074808;-0.052616015;-0.040496193;0.06391954;-0.30599654;-0.15146956;-0.01642689;0.101410136;-0.08030612;0.02021087;-0.011259777;-0.01179618;-0.047480974;0.06016855;0.10498023;-0.014339448;0.041019697;0.18735412;0.097813345;-0.07072726;0.027773535;0.023120396;0.01349758;0.09996579;0.033411555;0.07262225;0.07379133;0.05375862;0.07256362;-0.0021119737;-0.11200417;-0.10089295;-0.015466335;0.08466674;0.1543661;-0.090356775;0.07908314;0.07888877;-0.06545567;0.05328774;-0.035957035;-0.02203992;0.01288419;-0.20380165;0.007550419;0.17967927;0.10055738;0.123942286;0.021470169;0.073998265;-0.032293353;0.06268423;0.1259845;0.019063067;-0.026274856;-0.13074984;-0.014074119;0.031802885;0.0013471855;0.060342267;0.0638809;0.09125001;0.041432224;0.023200357;-0.039242238;0.12430707;0.084034644;0.055561453;-0.027439617;-0.042958632;-0.03956501;-0.04729234;0.07663191;0.025628852;0.053306174;-0.055035938;-0.0011827054;0.04172276;-0.018487444;0.050696056;0.024430288;0.05327111;0.0723412;-0.10151784;0.079567775;-0.005675869;-0.05579768;0.04371324;-0.016032161;0.0011762587;0.0673641;-0.053984698;0.03519162;0.060496252;0.030984718;-0.028306432;-0.03303211;-0.068694964;-0.0054568113;-0.013499409;0.06450869;0.17898671;-0.03863134;-0.020530127;-0.21265006;0.06360116;0.023152897;-0.04484838;0.037067886;0.053931028;-0.092797324;0.05431504;-0.062251136;0.07373805;0.057118263;0.11693026;0.069506034;0.1051242;0.0211932;0.06916564;0.14830998;0.109081216;0.0633758;-0.0054378244;-0.075648874;-0.0059012156;0.07052343;0.140288;0.021125222;-0.008957577;0.0012052793;0.045674343;0.26693442;0.1439261;-0.18350741;0.044637587;-0.09298777;-0.055884104;0.054375105;-0.01088858;0.068706766;0.10438259;0.058920268;0.11237142;0.04528811;-0.10839517;0.059003998;-0.071169846;-0.016174557;-0.043672733;-0.023589503;0.028708871;-0.021792235;-0.012949008;-0.06480735;0.022323709;-0.18365876;-0.05835335;0.01245937;-0.08612467;-0.006629984;0.031214254;-0.019313911;-0.05914016;0.08011806;0.043799855;0.09516797;-0.021173093;-0.057688303;-0.0092632035;0.016406478;0.07554152;0.037733875;0.07377515;0.00473777;0.06467718;0.022486337;0.031108286;0.06699132;0.045605887;-0.073444515;-0.07630155;0.19703683;-0.05811522;-0.01634316;0.0516641;-0.010133986;0.009588735;-0.039638862;-0.046499;-0.02306511;-0.07436938;-0.17383687;-0.048459724;0.0029625846;-0.15880424;-0.16253684;-0.0013705763;-0.065231025;0.09324525;0.07148899;0.03937334;-0.13584775;-0.02008391;0.07647306;-0.009862686;-0.18537323;-0.05949268;-0.02756649;0.025071701;0.13486809;0.02280293;0.07628071;0.025693368;0.094153196;-0.04465111;0.025416983;0.25057107;-0.043678578;0.012706955;0.04791226;0.034876257;-0.069814116;0.018365297;0.08928205;0.033827264;-0.10946791;0.103360355;0.07728277;0.09595845;0.035997715;0.0145129645;-0.06320157;-0.052596774;0.11570394;0.04872968;-0.20958757;0.079194956;0.03512999;0.021627272;-0.043387208;0.014030977;-0.052894063;0.088291556;0.06276874;-0.11669794;0.08361019;0.04005394;0.04285296;0.053301197;0.0652615;0.020204218;0.07382501;0.06470673;-0.087206624;0.097701035;-0.046210516;0.18976548;0.0073680426;0.08926795;-0.045675207;0.021028738;0.07854021;0.012447938;0.009197507;0.076678984;0.017161336;0.0022856533;-0.064820744;-0.09679319;-0.065279156;-0.30163535;0.02058136;-0.0513365;0.14985375;-0.013794108;0.04907759;0.01100221;-0.038718816;-0.10005779;-0.028118853;-0.08348762;-0.014975404;-0.053144053;-0.028322907;-0.013885804;0.096075706;0.052573532;0.06245149;0.27804297;-0.112189166;0.015786335;0.04274858;0.099152006;0.041761234;0.08321522;-0.029380782;0.08609245;0.100345306;-0.022255957;0.05713108;0.09046195;-0.07343252;-0.103466205;0.21998006;0.07217142;0.11469115;0.060738664;0.032641526;0.024940336;0.11357049;0.2008933;-0.039231528;-0.016447274;-0.021648195;0.12387419;-0.047949035;-0.1058673;-0.13481465;-0.054017294;0.020378657;0.07327367;0.006213395;0.022888647;0.0642628;-0.0972369;-0.14362605;0.14888291;0.12985072;0.08037974;-0.06293045;0.026036382;0.040363964;-0.032108497;0.063388385;0.20948178;0.06566941;0.03727204;0.015704932;0.011160038;0.0010126092;0.04173051;0.10403254;0.104000956;-0.14785403;0.041095037;-0.0051490185;0.14609088;-0.021146081;-0.074936315;-0.0447951;0.04775393;0.038376488;0.0767253;0.04211005;0.06730977;0.06971166;0.06692616;0.006892035;0.093683794;-0.04122531;-0.04834018;0.033923738;0.036189135;-0.019009147;0.009890533;0.015279545;-0.0019468536;0.042072505;0.021945685;-0.082897685;-0.028537326;0.010648618;0.03931693;-0.1997195;0.036791883;-0.029940436;-0.17992362;-0.11396235;0.17358044;0.12072212;-0.05375396;-0.014687451;-0.063875265;0.05039651;-0.046761923;-0.019935336;-0.05252136;0.0007616527;0.19578639;0.07553407;0.018819636;-0.023747206;0.015546576;0.24667272;0.107538216;0.05847293;0.01797789;0.089778416;0.015965791;-0.061604995;-0.042828053;-0.05799833;0.03423143;0.05748898;-0.07866074;-0.09352897;0.067953914;0.01028345;-0.15823387;-0.113606304;0.15094256;0.024625972;-0.014512301;0.034513008;0.105663605;-0.005773383;-0.039837573;-0.038532138;-0.19781283;0.046631396;-0.09898871;0.025400067;0.034436587;-0.029672492;-0.06260407;-0.23907143;0.058463227;0.12674762;-0.0077224355;0.07950318;0.08538903;0.056908812;-0.16452104;-0.15324862;-0.06921657;0.11183274;-0.03724075;-0.06064665;0.0783967;0.2250049;0.010253143;0.08183661;0.03811049;-0.053885262;0.1378808;0.061474565;-0.07824472;-0.049005225;-0.025197577;0.18391185;0.08997247;-0.0013109283;-0.03230522;-0.0446114;-0.06482974;-0.020332726;-0.047561638;0.0035252587;0.112763725;0.07255963;0.15503709;0.008203992;0.06406327;0.033460833;0.04023166;0.10800118;0.052010864;0.048915107;-0.19111805;0.06842037;-0.031256266;0.011675673;0.042653315;0.009219166;-0.08258163;0.08285163;0.026123712;0.015539466;-0.0032920123;-0.023875892;-0.019765714;0.10421136;-0.0020850585;-0.045499407;-0.035863247;0.085037835;0.08940812;-0.0058911205;0.023907445;-0.021935433;0.022134451;-0.030519074;0.042032927;0.021794718;0.049060684;0.007625059;-0.018223729;0.11854856;0.0019029619;-0.19311805;-0.09233997;0.010563659;-0.077170596;0.0026049525;0.078432925;0.06664178;0.001792297;-0.04327241;-0.059339296;0.015112878;0.06309498;0.09043234;0.00030315132;0.026049137;-0.06109717;0.16899072;0.008052375;-0.018881787;0.05297301;0.15431118;0.11765945;0.050920878;0.069888264;-0.05040822;0.00878592;0.075947516;0.06000589;-0.07100296;0.12598842;-0.02625109;0.018577468;0.06471949;0.023465388;0.030616118;0.022029854;-0.11572952;-0.010334776;-0.027885118;-0.066514574;-0.105883256;0.041350435;-0.04109086;0.00046919181
-0.0022934845;0.028040022;0.027796755;-0.00023034425;-0.0031001312;-0.07742905;-0.0490972;0.024389828;0.07519574;-0.009483183;0.034535997;0.07642344;0.056378007;0.23957998;-0.027733054;-0.10087732;0.042771142;0.08753257;0.02512207;-0.10581069;0.0534389;-0.04684279;0.00836637;0.07650347;0.020706002;0.049300972;0.089918494;-0.082658954;0.019001735;0.07716951;-0.0004517527;0.07394558;-0.037259474;-0.11911206;-0.01331201;-0.083260916;-0.33931082;-0.008067059;0.03560378;0.19559935;0.06383361;0.0020005656;-0.122007124;0.017693896;0.02359944;0.07506826;-0.044655573;0.011556978;-0.03541726;0.048198566;0.108454145;-0.08931911;-0.0035865314;-0.029578077;-0.02039012;0.029472072;-0.019397411;0.03123213;-0.00533894;-0.033369567;-0.015889416;0.11039971;-0.026315087;-0.0034077947;-0.037898332;0.057861574;0.10471671;-0.057644356;-0.06266981;0.031110149;0.019684996;0.04954515;0.017012164;0.05288419;0.099644214;-0.102003776;-0.017695274;0.022783944;0.020564182;0.012352439;-0.013695628;0.071138;-0.11828975;0.024422552;0.0737118;-0.03620715;-0.09980563;-0.13138412;0.036584627;-0.07971053;0.010992148;-0.10749937;0.069211796;-0.0378302;-0.06309488;-0.036725804;-0.05576344;-0.045495424;0.025109034;0.05860647;-0.05245647;0.045676146;0.01471027;0.17997402;0.031444564;0.08770658;0.008925563;-0.033632077;0.09263071;0.0060107117;-0.015480207;0.086608306;0.054259747;0.01756151;0.04545983;0.0023276238;-0.03921323;-0.016381286;0.02204341;-0.07204236;0.022444567;0.021749873;-0.015402484;-0.08115;-0.11741116;-0.011695044;0.001874423;-0.03659411;-0.057353765;-0.09133432;-0.028797979;-0.049107764;0.0025452594;0.09456757;0.051191825;0.041159555;-0.14027236;0.16669564;0.081955515;0.0130034825;0.0044042203;0.017004786;-0.330631;0.0050713983;-0.13844241;0.030510902;-0.06673273;-0.052429006;-0.03609434;-0.04084725;-0.13181499;0.048099283;0.03632846;0.1350283;-0.033834863;0.048774675;-0.0737891;0.018099843;0.015380445;0.12434991;0.00029312208;0.08083329;0.10792547;-0.07279852;0.2131221;0.019413555;-0.051624674;-0.047406074;0.012522997;-0.025128815;0.005440315;-0.101672836;0.021385869;0.07950497;-0.06852586;0.0029551268;-0.052416123;-0.14687574;0.12335321;0.011351922;-0.049402833;-0.056820165;0.1892841;0.03747392;0.082185805;-0.049241457;-0.06567597;0.11974323;-0.119948715;-0.08145353;-0.064105816;-0.0791559;0.050102916;-0.0075206463;0.07902733;-0.062068075;-0.08153362;-0.027503785;-0.07126599;0.042280003;0.018523965;0.019285146;0.0342481;0.085322626;-0.035768688;0.016663631;-0.039993424;-0.075175576;0.06533896;-0.10627207;0.066497244;-0.007143972;0.013748209;-0.0065741367;0.18780062;0.011042815;-0.051149588;-5.921202e-05;0.06792681;-0.044546887;-0.035967946;0.0011999891;0.06791745;-0.07277067;0.036516674;0.0014537481;0.010526123;-0.095792904;-0.07749939;-0.053653315;0.0425818;-0.074434385;0.021058563;-0.040768337;-0.10018748;-0.101477556;-0.03969489;-0.032433227;-0.120314784;-0.048959322;0.063292295;-0.004871938;-0.0025886612;0.021926438;-0.04739162;0.07073196;0.15671565;0.06955471;0.03883006;-0.0062680887;0.08379197;0.003965059;-0.06175699;-0.010772859;0.07544424;0.05424424;-0.08274999;0.03347661;-0.06842569;-0.010364549;0.013583534;0.005983825;0.0043946253;0.08785329;-0.10294057;0.010926971;0.05511252;-0.12008295;-0.17246406;-0.050344184;0.006617991;0.037327155;0.0013457919;-0.056689914;-0.09497988;0.069987535;0.10891058;0.010679416;-0.0027915149;0.084463544;0.075314246;0.024430446;-0.0044506844;0.034630742;0.09900098;-0.030165127;-0.010539379;0.05177889;-0.048069354;0.008045149;0.029656421;0.054846577;0.15603486;-0.12243019;0.03299306;-0.01019281;-0.08124348;-0.07212983;0.043344885;0.06475061;-0.09122208;-0.046795458;-0.03925619;-0.10705003;-0.018371772;-0.07502876;0.038295977;-0.013829139;0.048222553;-0.04957792;0.031342167;0.0648112;0.06495369;-0.010816164;0.09569033;-0.0340627;-0.03296888;0.10594549;-0.013975253;0.03810291;-0.02725094;0.029084286;-0.037430055;-0.034157068;-0.03387577;0.17671582;0.14955185;-0.020052947;-0.0823325;0.019689053;0.011737853;0.016476305;0.06844381;0.11241203;0.011586231;-0.082749225;-0.054829158;-0.06831005;0.045939855;-0.07909981;-0.03271121;0.038122103;0.119435325;-0.07775462;0.057569776;0.06636862;0.012077422;0.043563522;-0.031890143;0.02637471;-0.2061743;0.08839284;-0.00031177382;-0.05692743;0.027897116;-0.09054476;0.015185945;-0.060651425;-0.008916085;0.0211979;-0.04761047;0.017482746;-0.046223808;-0.049420748;-0.07408812;0.059132162;0.040973295;-0.022517916;-0.07389408;0.060197875;-0.017411081;0.08148216;0.097633265;-0.06422596;-0.055916477;-0.0024993664;-0.15544714;-0.021939516;0.020875154;0.046747815;0.029543221;-0.05192934;-0.012703452;-0.072641194;0.016439658;-0.05158572;0.11911845;0.013062196;0.29875663;-0.13450304;0.09032837;0.10352844;-0.0114373425;0.08636039;0.0080784345;0.0498076;0.052974444;-0.040827442;0.011666002;0.03004731;-0.06019659;0.035066515;0.020019345;0.06392126;0.039247528;0.025065307;-0.1778119;0.059351254;-0.05604091;0.025196683;-0.009994655;0.14214163;0.021114215;-0.07495275;-0.010885164;-0.042835638;-0.028201116;-0.15644252;0.0049515995;0.0783742;-0.047801748;0.247853;0.008242619;-0.04764585;-0.19534348;0.003988951;0.25976813;-0.05209739;0.14804481;-0.061862025;0.06322463;0.027845949;-0.021457193;0.012301379;-0.068164974;-0.030379392;0.10564537;0.032687113;0.064262755;-0.00015658996;0.067522176;0.2446499;0.0050323717;-0.05258391;0.094868995;-0.25604838;-0.016213885;0.029088996;0.057243194;-0.04956527;0.061094638;-0.061563607;0.01282756;0.037865076;-0.060052365;-0.023437403;0.06427543;0.053717103;-0.07516041;0.22321041;0.06832064;-0.060968332;0.1330764;-0.04073619;-0.05076676;-0.39398187;-0.011697899;-0.037332654;-0.053661108;0.103332296;-0.05257529;0.01193986;0.030049564;0.118207544;-0.050761074;0.020278066;0.013850532;0.073325016;0.06952265;0.04581589;-0.017330807;-0.045497064;0.08534631;0.1529558;-0.12557241;0.05707882;-0.014724249;-0.03191068;0.035297066;-0.018526463;0.007543663;0.007071792;0.05030838;0.14492016;-0.07900383;0.035076495;-0.213206;-0.08874967;-0.03673402;0.039099433;-0.06005409;-0.13117062;0.19051696;0.0635391;-0.015933482;0.014064221;-0.12796736;0.03781275;0.0610491;-0.007833707;0.008114168;0.1332598;0.072369196;-0.021176493;0.0006429863;-0.061475165;0.00050776143;-0.060021117;-0.014655133;-0.051498663;0.0850621;0.15481561;0.056012936;0.023792198;0.06668323;-0.08250275;-0.053888008;-0.031715177;0.020910084;0.08232975;-0.10629946;-0.04036323;-0.017277183;-0.0016429892;0.013369079;0.030432653;-0.0056196772;0.16626151;-0.04003566;-0.038155116;-0.16449673;0.057216745;-0.11168911;-0.010075775;0.016170628;0.08607486;0.08788384;0.02392045;-0.040093027;0.048095237;0.06309713;-0.060948767;0.09325343;0.21035302;-0.011191792;0.0043094596;-0.010167025;-0.0420649;0.0726888;0.039957695;0.022524297;0.09208205;-0.079055995;0.057985317;-0.040336072;0.008472927;0.05865227;-0.06241565;-0.05707145;-0.062239632;0.03325904;-0.015660511;0.13948265;0.08517126;-0.09025297;0.009473396
0.0033886794;0.007871072;-0.07128292;0.010519373;-0.012584438;-0.11869225;0.025141662;0.041484475;0.049340248;-0.044133246;0.036866084;-0.048337042;-0.10706544;0.0036590083;-0.05112026;-0.019229667;-0.07903654;0.034331374;-0.17615318;-0.050849717;-0.011747468;0.066168;0.15886255;-0.119169064;0.027810251;-0.013248494;0.08117497;-0.011251369;-0.06462456;0.059533592;0.03349895;0.07493529;0.052936926;-0.07532288;0.06079891;-0.0630898;-0.19474722;0.10554406;-0.08928213;-0.026956921;0.013350933;-0.016878178;-0.23449641;-0.0016493052;0.0725107;-0.024552451;-0.13557267;-0.028283862;0.0040773293;-0.08052214;0.11988458;-0.049853742;0.041777737;0.04263774;-0.01217901;0.024680678;-0.18391663;0.07030143;-0.07557611;0.045340568;0.042052265;0.05724453;0.0059641413;-0.13794544;0.010832554;-0.064077;0.1263848;0.10475354;0.014414081;0.04923905;0.03421328;0.025692536;0.077845395;-0.0031706975;-0.011827685;-0.036648333;-0.06447661;-0.10546961;-0.030918235;0.14570926;-0.043208204;0.1117612;0.027807979;-0.072078966;0.008344008;-0.0017116328;-0.13285019;-0.12903081;0.05062294;0.092205495;0.05458365;-0.055234745;-0.036640003;0.08728947;-0.033695787;0.006463888;0.10067605;0.0390226;-0.042191282;-0.06298771;0.044163633;-0.03857575;-0.19779924;0.13650046;-0.07220823;0.068978205;0.06277079;-0.069026716;0.072149865;-0.034183823;0.037194215;-0.05035945;0.063214116;-0.054337874;-0.09650925;0.0886124;-0.042067494;-0.0668677;0.04877713;-0.09462848;0.08057183;0.08223417;-0.06363578;-0.10807443;-0.052881964;-0.07303931;0.048244465;-0.14808339;0.09467007;-0.18208301;-0.06754432;-0.0042676795;0.005613942;-0.020290434;0.02478108;-0.010171349;0.028852815;0.30001554;-0.0074263513;0.116396666;-0.035468955;-0.022335734;-0.19246298;-0.030926093;0.03546322;-0.035931244;0.028150612;0.015568682;0.09785162;-0.0154725835;-0.03485084;0.038765203;-0.083407864;-0.042806227;0.1562704;-0.05042765;-0.07246912;0.09006289;0.031136943;0.08263197;-0.002829038;0.17998886;0.30227396;-0.048722364;0.023391642;0.14651066;0.03839832;-0.00667477;0.031848896;-0.0357021;0.036550567;-0.055081505;0.08844173;0.04544123;-0.08999189;-0.038774997;-0.061360165;-0.046404418;0.06373205;-0.04766322;0.04679296;-0.033048943;0.092401706;0.113427654;-0.0019898661;0.047804847;0.05955707;0.24643067;-0.042355746;-0.0070100464;-0.010375288;-0.026472043;0.0025987858;-0.06847251;-0.027625924;-0.03274541;-0.095170036;0.024899032;-0.13481027;0.07560474;0.054673236;0.030519638;0.076593906;0.07958682;0.24495666;0.09897634;0.028147098;-0.07206771;0.031415276;0.02110526;0.07733959;-0.041896455;0.03918897;-0.005167887;-0.030438207;0.0064254142;0.040448245;0.04718529;0.057709273;0.020598965;0.049635354;0.052805565;0.0015246522;-0.15051702;0.27522776;-0.05248089;0.015933685;-0.09487215;0.095207885;0.030916614;0.044421006;0.008304583;-0.02665816;-0.03216145;-0.18256502;-0.11685279;0.027126387;-0.008552134;-0.19396807;0.082843944;0.033904232;-0.010651736;-0.06540769;-0.033617318;0.044016395;0.022681136;0.08902523;0.040663335;0.007913646;-0.17010683;-0.010077614;-0.0042713806;0.08256647;0.036034692;0.034000102;0.0047782557;0.06585749;0.035019018;0.030198779;0.044006504;-0.04056023;-0.07270491;-0.052726403;0.008117025;-0.041740384;-0.02163087;0.05741635;-0.09089064;-0.23029685;0.023380548;0.055068363;0.058904283;-0.038207944;0.0919728;-0.09607549;-0.015940147;0.048868958;0.05111603;0.09930135;0.04034421;0.17124742;0.01790957;0.02600284;0.042961743;-0.03436717;0.017491784;0.04403756;-0.082487844;0.016538145;0.020679725;-0.11779674;0.27223906;0.12584125;-0.018123772;0.18103409;-0.03405442;-0.08077725;0.033907715;-0.0061428393;0.07243859;-0.11864197;-0.19487968;0.01949687;-0.010402839;-0.06454421;0.05544199;-0.0819983;-0.09542763;0.0044295704;0.0075922953;-0.04404654;0.10026669;-0.045707397;-0.026757063;0.07417207;-0.032310348;0.015751092;0.026999582;-0.060191836;0.03122211;-0.060934644;-0.08273624;0.061335634;-0.086156435;-0.100553505;0.11617185;0.12136364;-0.017540233;0.054395724;-0.10952193;-0.0053396714;-0.07012891;0.055792224;0.06482907;0.09619361;-0.056601513;-0.19401386;0.045199517;0.052345037;-0.033324476;0.07610982;0.053081684;0.053380646;0.019529426;0.03714985;-0.05124145;-0.02646531;-0.041697014;0.10162975;0.020698521;-0.15612397;-0.052798066;-0.01944881;0.043725062;-0.026474897;0.010203197;-0.12237832;0.023293033;-0.11808117;-0.01989361;-0.03179655;-0.062326875;-0.032287277;0.06848416;0.0114809675;-0.07277413;0.00057330646;-0.25251895;-0.028112857;0.010944939;0.05905387;-0.004593187;0.061615437;0.15534988;-0.08984659;0.053278804;0.01652195;0.000312127;0.0061240885;0.24749579;0.05284499;-0.012859299;-0.028050313;0.10881738;-0.05187849;0.013351709;-0.045476925;-0.025401786;0.20941159;-0.37095773;0.07357922;0.2903976;-0.03547199;0.05521377;-0.09577821;0.09296525;-0.029791841;-0.04225049;-0.03478006;-0.011572174;-0.025946045;-0.044430155;-0.121794455;-0.09554369;0.016624313;0.0052241776;-0.072187066;-0.062093914;0.0031249917;-0.08452194;0.08093304;0.16906895;-0.040523756;-0.06331945;0.010495358;0.020380056;-0.110326864;-0.23800601;0.061438087;-0.008339071;-0.056478567;0.07120242;0.03796157;0.053170744;0.017520528;-0.101284094;-0.047461633;-0.027722914;0.1264685;0.080939814;-0.0026740609;0.079250075;-0.022263719;-0.015979407;0.02786009;0.007877915;0.10559072;-0.054251697;-0.016957277;0.056436673;0.016881995;0.16639218;0.04661486;-0.053266555;0.03812909;-0.21085766;-0.11489749;-0.02331637;0.005437662;0.0016170809;-0.10299921;-0.10693434;0.06276501;-0.014670106;0.009714378;0.0012092587;0.022104094;-0.022774119;0.027856676;0.34700885;0.12778583;0.046368252;0.060394093;-0.09157981;0.032837354;-0.42003885;-0.14209405;0.07436581;-0.028991006;-0.036368947;0.036111284;-0.025084672;-0.25936717;0.07609564;-0.017949736;-0.021985568;-0.028596167;-0.1415292;-0.070517465;-0.05955861;-0.025324263;0.042122684;0.17820829;0.27779424;-0.091887504;0.12877397;-0.019881198;0.002941263;-0.189521;-0.048990406;-0.065743014;-0.05257933;0.025161643;0.05497886;0.02692611;-0.024542475;-0.31216276;0.021845412;0.059931222;0.05856633;0.016656745;0.035598543;0.06409139;-0.10040262;0.01998943;-0.04086493;-0.051179558;0.029761625;-0.16847253;-0.034635767;0.10290224;0.026458183;-0.022624783;-0.030443244;-0.03516807;-0.036520094;0.0008712135;0.023892308;0.06761497;-0.0070346934;-0.034252685;-0.08180914;0.03892639;-0.041219525;0.027540969;-0.1550976;-0.0238588;-0.041276764;-0.057614394;0.0818605;-0.054817464;-0.025083488;-0.11747825;0.084344715;0.10263669;-0.11749086;-0.0050834026;0.04323723;0.05885107;-0.0357422;-0.017259499;-0.067703694;-0.07558966;0.1036608;0.082945384;-0.009087558;0.07775446;0.006853131;0.023006227;-0.034621548;0.059028614;-0.04384677;-0.0048184884;0.3503685;-0.059250124;-0.08590306;-0.06682649;0.08555575;-0.09682078;0.018414645;-0.013544446;-0.062754735;-0.040228885;-0.040984657;-0.005546501;0.07655243;-0.041863464;-0.089352205;-0.03457066;-0.03795697;0.11402283;-0.06737719;0.26839668;-0.10267076;-0.011341777;-0.03978543
-0.06215181;0.037054613;-0.0032472115;0.0709417;-0.11451023;-0.02581882;0.08237064;0.089267045;-0.04396541;0.10862923;0.031205488;0.11338656;-0.07035469;-0.10057834;-0.08122757;-0.02254447;-0.048801344;-0.019383466;0.050515387;-0.03866026;0.04392626;0.060863588;-0.043636307;-0.09725471;-0.005318633;-0.03080501;-0.046964515;0.045577962;0.007217763;-0.06986395;0.18215166;-0.06161624;0.064379744;-0.06731022;0.08304183;0.028167214;-0.23511717;0.02643276;-0.023036063;-0.011993307;0.021217702;0.043854337;-0.011105748;0.06399985;-0.008926806;0.008629348;-0.17320953;-0.018662836;0.049116723;0.020288633;-0.092644;0.006646827;0.028657468;-0.06845888;-0.009638593;0.0047941585;-0.16470018;0.023391679;0.09855676;0.038216557;-0.12567334;0.09289648;-0.08908481;-0.052965406;-0.026100548;-0.05992986;0.08769894;-0.072508775;0.02593619;0.051476825;0.04776105;-0.03571063;0.004410923;-0.026418619;-0.08501116;-0.007540991;-0.08097214;-0.018977853;-0.085325;-0.032806512;-0.16000305;0.089129;-0.12272962;0.0059627183;0.08201567;-0.04593291;0.014710792;-0.09038278;-0.03408068;-0.024863096;-0.043330085;0.08764874;-0.05031256;0.033153314;-0.108006164;0.050249666;0.08500319;0.0877803;-0.15232521;0.057773557;-0.022074461;-0.06223144;-0.20227303;-0.03865266;-0.08292948;-0.010271431;0.036614362;0.0077340985;-0.07418825;0.08718892;0.050891988;0.01040698;0.055977438;-0.0381205;0.03167145;0.0006157929;-0.06976944;-0.026510866;0.0220151;0.050892323;0.049496375;-0.059089214;0.07133385;0.017855655;-0.07618171;0.025238425;-0.053244635;-0.2081129;0.09700506;-0.14626843;-0.16999045;-0.11409108;0.0008799368;-0.10128371;0.11787915;-0.12174825;-0.058535594;-0.0658943;-0.05145734;0.14998409;0.04066034;0.057975683;-0.058274217;-0.07355465;0.097291894;0.06448428;0.0460129;0.13576593;-0.044195227;-0.021805901;-0.027026946;-0.03628942;0.062484015;-0.038507964;0.0863903;-0.03997301;-0.030530486;0.026975507;-0.09774254;-0.047215972;0.030508656;-0.057440005;0.05987477;0.10737843;0.11418016;0.1893451;-0.033044264;-0.04560457;0.0667792;0.041887693;-0.067101754;-0.07200598;0.09494309;0.013941704;0.06910899;-0.01789417;0.074951276;-0.2133877;-0.05929752;0.027387986;0.023110613;0.002949357;0.07660039;0.07675026;-0.038375817;0.10144102;-0.01793516;-0.02090871;-0.10730439;0.01007712;-0.046236172;-0.064229876;0.01306788;0.021542447;-0.03562526;0.016008;-0.13697048;0.08387778;-0.05542824;-0.10496332;0.08338083;0.030132122;0.011664495;-0.11725184;0.018743431;-0.04771564;-0.033531986;-0.20601231;-0.03417683;-0.051618844;0.020319559;-0.118816495;0.035713438;0.02725828;0.16295797;-0.021106381;0.07070258;0.008239648;-0.043323886;0.01909068;0.06234387;0.020230426;0.048586495;-0.12788554;0.07093939;0.06380697;-0.022671908;-0.02845741;0.17945448;0.02046722;-0.09161554;0.03183148;0.06362269;0.06799951;0.09322823;-0.016047968;0.030135775;-0.07038975;-0.20320499;0.061927717;0.03276695;-0.08249942;-0.11593647;-0.04612581;0.00583296;0.047391206;0.032084316;-0.041085962;-0.007567036;0.0810408;-0.01393925;0.038906436;-0.023010522;0.13808261;0.07544827;-0.016806107;-0.016390525;-0.096525915;-0.023765575;0.020051245;0.03298297;-0.092068054;-0.06422288;-0.035886668;0.04520541;0.13385773;-0.03726056;0.062132653;-0.16856429;-0.060653947;0.0041007497;0.04665366;-0.010968773;-0.13287005;0.0024519176;0.04910988;0.17057818;-0.105548725;-0.046271104;-0.06172846;0.18349992;-0.035446852;0.020159435;0.024714464;-0.09263072;-0.04042896;0.018920239;-0.023280328;0.06095904;-0.008906458;-0.013454868;0.012756321;0.054646924;0.0040014456;0.085399285;-0.00901002;0.025906205;-0.0011486082;-0.0242407;-0.044306744;-0.32286397;-0.039959647;-0.070658684;-0.070161454;0.07393043;-0.050547637;-0.20250182;-0.085212454;0.045991287;0.09941527;0.04945697;0.15169817;0.0131451655;-0.10150828;-0.031107238;-0.07520482;0.0001308642;0.055276908;0.023454314;0.05716671;-0.071894325;0.14315264;0.0038085927;-0.09848326;0.06784583;-0.013733551;0.07058769;0.016632674;0.046657156;0.083633676;0.08359548;-0.019413063;0.046810772;0.07565566;-0.012999747;0.14051415;0.21026234;0.02315171;-0.017725013;0.09423225;-0.02112521;0.053901598;-0.06645844;0.16625749;0.020377977;-0.09125174;-0.043627247;-0.15695216;0.029837405;0.0033972994;0.01337375;-0.0283724;0.022649005;0.056198508;0.024234671;-0.024786271;-0.10608615;0.018096313;-0.036921006;-0.17380668;-0.17272311;0.009927005;-0.012188108;-0.035584107;-0.08816655;-0.0013851955;0.0033544195;0.10014601;0.05847502;0.039203074;0.082359254;0.0394321;0.18759231;0.0015322447;-0.11224722;0.025858752;0.012147573;-0.12111733;-0.018429115;0.09898138;0.082228914;-0.049276996;0.007367015;0.061743606;-0.03563805;-0.020504927;-0.07686615;-0.07917376;-0.05291264;-0.1602266;0.07025149;0.10613946;0.02943154;0.08875914;0.016389498;0.15316796;-0.054302882;0.026889028;0.18494287;0.0022150928;0.03325005;-0.015255478;-0.058312412;-0.073013335;-0.0038321083;-0.04882251;0.15853414;-0.07186431;-0.06730312;-0.10754875;0.0054641794;0.12754421;0.060122117;0.021754192;0.010508453;-0.04989285;-0.026963573;-0.29220596;-0.023377988;-0.010275473;0.01137421;0.09934908;-0.0613069;0.00012808715;-0.03759133;0.030849606;0.12078345;-0.10964701;0.36508787;0.081310056;0.004179826;0.077542916;0.05477008;0.058358394;-0.056729708;-0.034821093;0.15274125;-0.013557254;0.076885976;0.009447577;2.2683553e-05;-0.009116316;-0.10524831;0.0043353382;-0.04666899;-0.014332814;0.07284631;-0.014280361;0.15068813;-0.021299593;-0.11319039;0.07408325;0.017958434;-0.034459166;0.023930859;-0.011203713;-0.050135404;-0.019023122;-0.08417614;0.11093655;0.012478297;0.001310325;0.022685375;0.040103145;-0.0102637075;-0.321116;0.024563355;-0.017187968;0.08379138;0.10077209;0.053566657;-0.20672776;0.11198112;0.15538038;0.045319654;0.045951642;-0.0026738099;-0.054770716;0.0022963407;0.03676604;-0.033285983;0.0030275781;0.07551184;0.07124589;-0.105078034;0.08810471;0.018088063;-0.029293947;-0.084194675;-0.045093816;0.14410079;0.05310446;-0.046152934;-0.18187927;0.015998593;-0.054604825;-0.08767982;0.0006655268;-0.044290792;0.03531356;0.0076695224;0.08857639;-0.060318273;-0.04683496;-0.0059031122;-0.08763404;-0.19343433;-0.03982011;-0.025364816;-0.06784529;-0.016259704;0.03076833;0.02247535;-0.059717618;-0.034672733;0.078296304;0.12382008;-0.08599786;-0.05027352;-0.06642558;0.078016065;0.0077956337;-0.0638729;0.010194948;-0.067783006;0.0362289;0.032518357;0.031033447;0.03251119;-0.005401777;0.10507311;-0.1221274;-0.065204546;0.15438087;0.016187657;0.028608354;0.0063334554;0.0015677052;-0.09964419;0.011083061;0.077281736;-0.012986661;0.101988345;0.10456851;-0.085443124;0.024409162;-0.06337097;0.021149544;-0.042462684;-0.00076887704;-0.014550244;-0.054450333;-0.0051729204;-0.08216946;-0.023188554;0.07451336;-0.008604585;-0.059353158;-0.08210119;0.03791608;0.0026236896;-0.073530376;0.15131581;-0.016767504;0.025510522;-0.06494927;0.045417745;-0.050680876;-0.09028151;-0.035123065;0.009700218;0.09384434;0.016410518;-0.11257241;0.06798193;-0.011875377
-0.029524392;-0.024314763;-0.03364484;0.059649717;-0.07297001;-0.03607959;-0.08954515;-0.018866599;0.03127081;0.14325528;-0.027433353;0.09705394;-0.06954602;-0.07353808;-0.22627966;0.036754165;-0.034814205;0.02108819;0.0443128;0.03839271;0.06368456;-0.0002146677;0.013103135;-0.30728397;0.01867233;0.1633286;0.005440336;-0.05807442;-0.035738625;0.01934578;0.10340972;0.07404041;0.004308612;0.04679815;0.03249834;0.055048976;0.067705125;-0.015078292;-0.043147888;0.2088168;0.04600113;-0.036815602;-0.11468251;-0.035523266;-0.1528981;0.024475226;0.010309449;0.062531374;-0.093997374;0.059432518;-0.20918398;0.05894807;-0.006634557;-0.08332917;-0.08506232;-0.059840195;-0.05261785;0.01720036;0.1514424;-0.06582155;-0.04568403;0.2289204;-0.17001197;-0.102265835;0.027726747;0.028627375;-0.18020768;-0.033819128;0.018040063;-0.019843543;0.005683256;-0.013847847;-0.005081488;-0.08378524;0.06852547;-0.010673539;0.027247455;0.045276325;0.018748373;0.031669453;-0.11944692;0.17493208;0.030854193;-0.043197345;-0.27064243;-0.08107234;0.038809624;-0.003426223;-0.13909319;0.10599354;-0.003470025;-0.007368239;-0.0036274546;0.0022532677;-0.086502105;-0.03700988;-0.006831868;0.0017319754;0.03037256;-0.056042194;-0.0029966119;0.07660591;-0.19300571;-0.009503984;0.0956485;0.122726254;0.041920185;0.030562157;0.038190886;0.097264655;0.046249878;-0.10968276;0.15971236;-0.050829675;-0.07972397;0.18302539;-0.0045474307;-0.015074717;0.042255353;-0.0572176;0.04484374;0.02363306;0.03244421;-0.031593554;-0.022661785;0.0068218005;0.020982202;-0.1705479;0.16225387;-0.0806211;-0.15912257;-0.0050944868;-0.09114644;-0.094894014;0.13107273;0.056584302;-0.22551396;-0.024493765;0.0033750786;0.049964074;-0.035873372;-0.036160257;-0.07891499;-0.017284218;0.028955083;-0.045903336;-0.07239051;0.105586015;0.07808796;0.03015633;0.058081783;-0.05340281;0.017786544;0.03477601;0.03414741;-0.05624986;0.07885451;0.14943644;-0.02025296;0.06935589;0.006155572;0.08914154;0.061058987;-0.021644339;0.11389832;0.05461117;-0.12495358;-0.06918377;0.09294833;0.042264752;0.015801368;-0.05648553;0.13888556;-0.08328374;0.021058297;0.012020775;0.03176991;-0.2209061;-0.046027426;-0.08804314;-0.080271855;0.05003919;0.1622979;0.07531406;-0.009365177;0.11273391;-0.012592423;-0.02136515;0.083855696;-0.06391612;-0.03290324;-0.14701478;0.041868564;-0.0145906545;0.038425006;-0.007642102;-0.11936449;0.051957544;0.04633725;-0.06523088;0.0459686;0.03583802;-0.0714214;-0.055923257;-0.19331752;-0.025525352;-0.04178299;-0.075576305;-0.04288316;0.06791872;0.006535202;-0.12457921;-0.011450699;0.049256578;0.091919996;-0.05006643;0.022985341;-0.08876879;-0.095641516;-0.048495486;-0.052805554;0.01558401;0.12409896;0.020308025;0.080531664;0.011321788;-0.070567116;0.04164526;0.18138793;0.08546434;-0.07325737;-0.0042086616;0.043656107;-0.015938919;0.010540702;0.014554594;-0.061406724;-0.022155592;-0.25175452;-0.010227092;-0.009959978;-0.033615023;-0.03280504;0.006204272;-0.08971961;-0.06754268;0.34835738;0.043805014;0.13138661;0.010986504;0.060265817;-0.072049364;0.07289723;0.30257857;-0.058183163;-0.019200351;-0.079772286;-0.040521227;-0.028922934;0.10397502;0.10238715;-0.06695734;-0.035841726;-0.06501232;-0.05278975;-0.13170403;-0.06570133;0.15461677;-0.23904005;-0.0049553807;0.08484855;0.05092877;0.020142157;-0.23568359;0.017009558;-0.011828187;0.17656611;0.02347698;0.0149307335;-0.08124073;0.13308294;0.08840703;-0.0068655917;0.049544975;-0.019621179;-0.07468064;0.04806535;-0.043656655;-0.048961233;0.19947848;-0.05459875;0.078677334;0.09885153;-0.0021062829;0.19075367;-0.085128345;-0.018757079;0.0098147765;-0.019824704;-0.10651394;-0.17204788;-0.11740866;-0.10394077;0.10712351;0.10274124;-0.0102247875;-0.09097241;-0.07424623;-0.058889758;-0.027435523;0.049066707;0.08461204;0.013030438;-0.046191305;0.060041953;0.055012956;0.0075215837;-0.054564282;0.0034968473;0.07638448;0.07485468;0.09155959;0.31844866;-0.022605916;0.08633189;0.08649729;0.19963789;-0.0061288923;-0.09763236;0.10395434;-0.0639175;-0.085042894;-0.032964814;0.082085714;0.01360998;0.1579964;0.18461855;-0.061144605;0.041148964;-0.044116776;-0.05059545;-0.034792893;0.05559364;0.2535178;0.07078188;0.044822816;-0.013521316;0.06526061;0.07636925;0.0116069075;-0.10704412;0.018750098;-0.08148782;0.063145116;-0.03421504;-0.053215113;-0.27855372;0.058951262;-0.13223207;-0.03224573;-0.0039463374;-0.016206104;-0.094574;-0.080288835;-0.0267354;-0.089534156;-0.05448198;0.14483783;-0.013505204;-0.0062260535;0.038190156;0.19488955;0.26688808;-0.039646193;-0.07681208;-0.040462844;-0.056675635;-0.110600814;-0.0009899972;-0.023638656;0.065314345;0.02814304;0.014497841;0.12650949;-0.0011554457;-0.07810309;0.12624408;-0.15280147;-0.16246128;-0.015503269;-0.06325379;0.026034694;-0.02654114;-0.038107388;-0.09234222;0.22881308;0.011230911;0.07925646;0.14442714;0.061572604;-0.10788377;-0.030374609;-0.076194316;-0.09287121;0.044146962;-0.021383768;0.21577509;-0.0140030105;0.01877185;-0.011892529;0.09313442;0.16885898;0.093001366;-0.052260637;0.101906076;0.05617695;0.090751655;-0.15265171;0.084846124;-0.033685464;-0.0303496;0.38604057;-0.016132824;0.020075548;-0.0968699;-0.031562515;0.10664016;-0.00222853;0.13588652;0.059116974;0.0791764;-0.10723058;0.0018568643;0.09674193;0.03260936;-0.03176796;0.26291844;0.014767172;-0.023378279;0.0450723;0.012264463;-0.14666887;-0.026042072;-0.08449596;0.08748093;0.07276462;-0.070934385;0.13575862;0.19352849;-0.00092830154;-0.0059281695;0.061525114;0.023297517;-0.07522672;0.07551259;0.049146928;-0.07938668;-0.070476845;-0.060378965;-0.022655712;-0.06169396;-0.05733012;-0.06173289;-0.0812992;0.0133020915;-0.19717824;0.15581079;-0.029351357;-0.062753156;0.17540129;0.03830829;-0.13992783;0.13445963;0.16998385;-0.113493115;-0.108859524;0.009717884;0.07305101;-0.118604064;0.05110407;0.09067133;0.018984666;0.2878315;0.017149698;0.024608959;0.07372859;-0.031964358;-0.03621234;-0.0206053;-0.06597837;0.05043347;-0.09873245;-0.06759536;-0.15898016;-0.09067948;-0.038405783;-0.12606272;-0.03871198;-0.053890117;-0.04988812;-0.049912177;0.19063595;-0.029489284;-0.05597282;-0.060606107;-0.04068589;-0.21268554;-0.040401738;-0.1317188;0.024988415;-0.010246787;0.026887888;-0.0035772845;0.037843715;-0.014778607;0.03882216;-0.057747837;-0.10888074;-0.088949546;0.0015125636;-0.12568982;0.22857688;-0.044744126;-0.07018648;-0.03877902;0.23380297;-0.032717;-0.11130144;-0.034070764;-0.08258467;-0.15421101;-0.018053766;0.010867085;0.12590805;0.058967266;0.0278075;-0.051916704;0.107027136;-0.09035455;0.08681486;-0.14036985;-0.014696385;-0.074435905;0.10298531;-0.2459044;0.1409437;-0.014629449;-0.00405557;0.024838364;0.12253219;-0.08255792;0.047479264;-0.055363912;-0.01346097;-0.015360332;-0.07364056;-0.0029380652;-0.014565179;-0.04942865;-0.024945453;0.05878202;-0.06250645;-0.057771403;-0.058916193;0.018145293;-0.0394363;0.043244217;-0.028043356;0.009745627;-0.074023895;0.0027071913;-0.0618609;-0.055035107;0.030328728;0.03674333;-0.071439534
-0.017282285;-0.01098477;0.103560075;-0.02671416;-0.0908032;-0.16156419;0.026065802;-0.050914537;0.0503009;0.1950185;-0.051026803;-0.06532822;0.071172036;-0.014424646;-0.027450573;0.03959226;0.11609388;0.13120513;0.005313924;-0.033338074;0.07904615;0.094417974;-0.007233096;0.04855937;-0.06115948;0.0987235;0.07417743;0.03084679;-0.01569583;-0.0032800373;0.06697564;-0.06956718;-0.030666124;0.112061836;-0.05005085;-0.0023554382;-0.20730233;-0.055599444;0.061641153;0.04687946;0.015083563;-0.024995452;-0.019285103;-0.081432335;-0.07459508;0.09076503;-0.04696819;-0.026388638;0.054432236;0.106686495;-0.10233431;-0.09162068;-0.043219384;-0.008835478;0.008001304;-0.025793253;-0.003310115;-0.07472065;0.20207539;0.041643593;-0.046266563;0.2052375;0.0026425386;-0.21066505;0.10412527;-0.008961124;-0.06903939;0.009849011;0.05607632;-0.007729614;0.05632437;-0.077124886;0.06468715;-0.031496268;0.17268424;-0.007985905;-0.048811078;0.08872218;0.037321296;-0.10184055;0.062967494;-0.03705315;0.05416146;0.12564532;0.051620506;-0.039553132;0.079486474;-0.0053825667;-0.025418108;-0.022758706;-0.057366375;0.18968321;-0.06742164;-0.046384096;0.21000172;0.019803775;0.07283992;-0.049365878;0.034547575;0.021483231;-0.03053842;0.0752491;-0.21398331;-0.028787218;0.029174978;-0.07094377;0.03371148;-0.09411434;-0.018151607;-0.01562823;-0.0076085096;0.03359816;0.06755349;0.0012562543;-0.014952888;0.09667681;0.003222463;0.023656545;0.041995253;-0.02678835;0.083309725;0.025931837;-0.06708565;-0.0016077178;0.11387511;0.019359069;0.09304061;-0.003720578;0.010367035;0.047615867;-0.13206601;0.08216037;0.115713194;-0.14427422;-0.0066705607;-0.07922332;-0.1499183;0.21872035;0.05330518;0.035226148;-0.06006702;0.029188385;-0.04044473;-0.09998738;-0.025071424;0.11239423;0.013022704;0.05628057;-0.06583977;-0.08501331;-0.029457415;-0.053971827;0.13600995;0.0029168339;-0.013390642;-0.06011731;0.004634049;-0.10513726;-0.022977069;-0.036850695;-0.05654619;0.09803441;0.10763236;-0.065957464;0.030456899;-0.037564218;-0.12805934;-0.010599243;0.10288946;0.070211135;-0.07239571;-0.04846539;0.040960383;-0.0713879;0.015678916;-0.10984559;0.036687594;-0.14255525;-0.028310828;-0.0060637975;0.024038587;-0.05916228;0.10934867;-0.051592406;0.069345415;0.056451034;-0.085564636;0.15179601;-0.0010508104;-0.009299921;0.049763177;-0.05501537;-0.007089407;-0.055400234;0.048336923;0.08709683;-0.06265709;0.0552037;-0.08804013;-0.037765916;0.067731775;-0.043377973;-0.05676226;-0.033935457;0.010737803;-0.034537137;0.045635544;0.05549747;-0.03279328;-0.018862661;0.071281046;-0.014817081;0.054198913;0.17032975;0.034195036;0.054870784;0.019347746;0.018504797;0.07566937;-0.04298654;-0.034480974;0.028555479;0.039543383;0.13714208;-0.10275832;0.04185611;-0.029118557;0.20986167;-0.104890265;-0.074411064;0.051041078;-0.027827669;-0.027067289;-0.036963236;0.16006744;0.041064966;0.06235914;0.03607468;-0.19088914;-0.04889215;-0.020995246;0.049650345;0.05009139;0.03856339;0.02849552;-0.11595391;0.105620414;0.0035587372;-0.04548956;0.0038920091;-0.012657046;0.071961045;-0.018523762;0.2635138;0.09663533;-0.01572021;0.038532037;-0.09122583;0.06891608;0.085100316;0.009273817;-0.020910332;0.086149186;-0.02738911;0.038786426;-0.10494198;-0.09926727;-0.018457249;-0.108729556;0.029299047;0.024537945;-0.030357074;-0.057217237;0.08627455;0.10697442;0.012513203;0.19758904;0.073009714;-0.03560307;-0.07640257;0.0014659025;-0.06656249;-0.067404136;0.042608995;0.009383408;0.00970135;0.023738708;-0.0140084475;0.07651865;0.11106138;0.079893485;0.20459038;-0.08243085;0.06481816;0.101338536;0.11056455;0.0605781;-0.011236944;0.07417034;0.032706875;-0.30643377;-0.18652897;0.04307233;-0.056649275;-0.08214546;0.028934572;0.12522112;0.14379346;0.031886112;-0.02525183;-0.09262568;-0.008260341;-0.024253275;0.013856763;0.029854074;-0.079931244;0.031012267;-0.05987544;0.057195563;-0.1098427;-0.04296672;0.046391215;-0.13945614;0.043406118;-0.05385098;0.06467141;0.04135964;0.051619943;-0.041414857;0.16148451;-0.012771492;-0.046417;0.051402643;-0.013416928;0.08861678;0.28136012;0.029799597;0.017071703;0.077079505;0.0018693939;0.036189646;0.023182144;-0.021362498;0.28966135;-0.016626911;0.06536241;-0.072098635;0.10857267;0.044305265;-0.10223008;-0.10557018;-0.08158394;-0.046986643;-0.04940851;0.025155287;-0.051027846;0.034231827;0.09333836;0.027714271;0.0946442;-0.08749715;-0.09187245;0.0112918215;-0.02830214;-0.057367373;0.051513106;-0.00783591;0.09860331;0.08655443;0.01499709;0.05404109;0.16391148;-0.07717002;-0.11374603;0.029635487;-0.034455787;-0.02418063;0.053629447;0.072503544;0.15655655;0.12174763;0.050298866;0.09144618;0.057228055;-0.06009793;0.031138975;-0.045529407;0.046201725;-0.105360925;-0.09225182;-0.027913326;-0.15412919;0.02658733;0.02416467;0.041121162;0.2036222;0.06426908;-0.07633703;0.08299106;0.07087319;0.02403612;0.06813504;0.06067174;0.065737516;-0.050797816;-0.00024521397;0.13647065;-0.12824105;0.01836898;-0.0326656;0.0757207;0.1957838;-0.0724439;0.01893167;0.049344495;-0.012560583;-0.043115593;0.08151419;-0.032993544;-0.027900644;-0.015161153;0.029482054;0.07788679;-0.06351438;-0.07047089;0.09680589;0.15839455;0.016671812;0.09528608;-0.015763506;-0.066837825;0.111720644;-0.0058152373;0.065443434;-0.046910834;0.0516305;0.12302593;-0.05684146;0.074435815;0.05139962;-0.014099768;-0.18767773;-0.03485266;-0.011702634;-0.04492132;0.08820851;0.16288203;-0.013289595;0.011546876;-0.05164353;-0.075049125;-0.010597891;0.042454954;0.055991713;0.0008177827;-0.015317732;0.095233046;0.00814456;-0.036010407;-0.08524436;-0.048013713;-0.017817063;-0.08444212;-0.07162824;-0.04737513;-0.20649412;0.13108063;0.030120343;-0.08828298;-0.031069629;-0.07303598;0.03714316;-0.018053388;0.28413406;0.12722741;0.022721073;-0.051648848;-0.057507258;-0.1384199;0.016048636;-0.07235572;-0.044184852;0.016950225;0.16164406;-0.032382928;0.13806158;0.018176606;0.062178712;-0.001439987;0.07681274;-0.01776894;-0.030558374;0.0017187095;-0.061432168;-0.025037004;-0.032725517;-0.25289774;0.067898996;-0.04606352;0.06655212;0.06099632;0.0107713975;-0.18069091;-0.034868885;0.08334013;-0.019806534;-0.10659946;-0.10132319;0.028014736;0.043918174;-0.034899004;-0.029566204;0.040709134;0.08448079;-0.06448043;0.049654286;-0.05534528;0.066838175;-0.08790954;0.024486097;0.047100037;0.14558832;0.019914242;0.06688995;0.0854361;0.035860926;0.010557093;0.037862696;-0.043092348;0.03724638;0.16882211;0.07852216;-0.05345224;0.05539868;0.029680891;-0.011940103;-0.023060706;0.01358618;-0.034052398;-0.041357994;0.09749865;0.012500303;0.16426103;0.054395344;-0.05098524;-0.0062202457;0.006197334;0.009574499;0.04390031;0.021805394;-0.16220535;-0.07718669;-0.044596903;-0.15318261;0.005209027;-0.064132236;-0.062014326;0.041112553;-0.058403168;0.009586747;0.074773304;-0.026956722;0.01732535;-0.066393204;-0.015730338;-0.017909179;0.069850355;-0.019099863;0.17031021;-0.045642536;-0.048937283;-0.09924786;0.019224808;-0.073429555;-0.09251466;0.020135542
-0.13594975;-0.057484698;0.12336654;-0.07844049;0.084130414;-0.047410104;0.053589657;-0.05416364;0.081190854;0.07514507;-0.047416754;0.19643258;0.28251857;-0.09480363;0.024824575;-0.04654159;-0.02172229;0.040842164;0.13934505;-0.07701035;-0.07360432;-0.009130013;0.01523163;-0.11938046;0.027908625;-0.08040735;-0.01129718;-0.06714073;0.01435391;0.05167907;0.07266283;0.03617745;0.041345105;-0.07243161;-0.040036373;0.0720552;0.012873166;-0.09570957;-0.030330835;0.09941689;-0.045002818;-0.07140753;-0.029208636;0.05770756;0.06551877;0.033614196;-0.07989837;0.046337668;-0.10023918;-0.091387495;-0.13662039;0.07127744;0.031703103;-0.015470818;-0.1388767;0.0028472226;-0.050876062;0.07794746;-0.034458607;0.022903591;-0.020512277;0.13519758;-0.0078899935;0.0057812487;0.055699416;0.077143684;-0.046647772;0.0076698144;-0.019302074;0.11358536;-0.10010774;0.032412276;-0.0049007633;0.0029082473;0.14929453;0.01186861;0.003979941;0.26292855;-0.07417812;-0.04428773;-0.19071764;0.09131068;0.049318727;-0.02688005;-0.077540696;-0.10567998;0.011728656;0.06273354;0.016346546;0.050660774;-0.0011867675;0.12313842;-0.07957729;-0.027567994;0.1755782;-0.014282681;-0.027064696;-0.17777544;-0.11343168;0.030931339;-0.039284334;-0.0023270748;-0.16310611;0.19947226;0.06979705;-0.06263658;0.07630833;-0.08163386;0.0007650064;-0.054145887;-0.02561173;-0.060700152;0.05210887;0.01055278;0.029151345;0.124211304;0.0145213725;0.07124891;0.013619106;0.10566643;0.09132193;0.033742458;0.034305725;-0.065436184;0.05838635;0.009125206;-0.027028712;0.006056262;0.0670645;0.026096607;-0.016767297;0.12329123;0.0428704;0.101739176;0.03021708;-0.26916865;0.031864744;0.029037504;0.045607798;0.103805356;0.06646354;0.0067580678;0.05258727;-0.049547736;-0.066597454;-0.059679117;0.047855917;0.0223787;-0.010855714;0.036016293;-0.07755729;0.057664335;0.12126808;0.09139833;-0.016197119;0.042752463;-0.04714352;0.031296536;0.022772588;-0.05097072;-0.017926842;-0.079395205;0.099361345;0.017518938;0.06702677;-0.08769156;-0.0619503;0.08962255;0.031606577;0.048179336;0.027542708;0.10449198;0.04010623;0.031473488;0.051368788;0.02022696;-0.0054836133;-0.02778033;-0.09951316;0.0118569145;-0.035750087;0.05998052;0.1454036;0.08264332;0.0038739434;0.05348648;-0.0102418205;0.074352846;0.019784562;0.06091858;0.06770047;-0.12088538;0.023979208;0.031677194;0.03881209;0.10213827;0.06532196;0.10976602;0.13089418;0.01941312;0.03978621;0.0976244;-0.04021898;0.20554261;-0.0942875;-0.10219943;-0.10041245;0.028221106;-0.09217531;0.0071305768;-0.04667724;0.02370397;0.016650608;0.1761687;0.12161808;-0.049219448;-0.014991218;-0.039036255;0.05602293;0.06918013;-0.0007561765;-0.053142097;0.2103887;0.13117285;-0.20439444;0.10118315;0.010839355;-0.009174227;-0.16070057;0.06824151;-0.06714806;0.10529792;0.029744357;-0.050855044;0.07255339;-0.038757943;-0.013278472;0.043906476;-0.010368316;-0.0035249027;0.016339881;0.12877506;-0.04246218;-0.00818515;0.025632778;-0.040998902;-0.00737395;-0.031729955;-0.008146336;0.29461873;-0.015357577;-0.02104263;0.052716453;0.22870047;0.086118005;-0.031699218;0.016200412;0.14644572;-0.0738355;-0.0016129486;-0.02479777;0.11091612;0.035415385;0.06869121;0.044890013;-0.096815094;0.0135513;0.07743166;-0.17815143;-0.06934008;0.03022961;-0.05015185;0.045017045;-0.017104667;-0.0073982016;-0.028796222;0.26882538;0.05441841;0.009134766;0.04706319;0.020783488;0.009797255;-0.026815927;-0.03649639;0.05039939;-0.046332475;0.031739224;-0.06718431;-0.009773977;0.13556682;0.03932238;0.10704002;-0.2425512;0.09093638;0.046336804;0.054690156;0.036461115;0.0555742;-0.067753375;-0.070358686;-0.12505342;-0.057155676;0.052627854;0.13975886;0.060131904;0.038096532;0.085774444;-0.009440124;0.0018852195;0.020980356;-0.0408133;-0.025486944;-0.014778817;-0.07329974;0.02538145;-0.04775219;-0.0016407048;0.07356518;0.016166309;0.07815328;0.0035994211;0.3079902;0.015797187;-0.02756583;-0.021937389;-0.028885147;-0.012015622;0.08351411;0.05126791;0.119440794;0.03180219;0.03590292;0.07082785;0.054276925;-0.01803539;0.042850327;0.1956333;-0.038794886;-0.05070208;0.110053785;-0.0143942265;-0.065338545;-0.044576015;0.12272337;0.013852858;-0.02482824;-0.10287754;-0.024985915;0.11353802;0.073959015;-0.17152452;0.2398525;-0.09212574;0.054335732;0.0027457396;0.030774103;-0.08781392;-0.031128934;-0.047009427;-0.030051949;0.10986556;0.011426171;-0.098124765;0.016925924;0.06976887;-0.06436729;0.06981178;0.2564361;0.032424238;0.06507437;0.011029985;-0.022619633;-0.10442874;-0.08504809;0.033036225;-0.012889312;-0.01957949;-0.06381474;0.07719775;0.03184158;0.11681153;-0.06302882;0.029589979;0.06798584;-0.059048306;0.022011066;0.07760086;0.035992604;-0.221855;0.11417862;-0.044196613;-0.19795439;-0.08482972;-0.038150232;-0.06580299;0.18906263;0.02646458;-0.010213449;0.15145415;-0.031136505;-0.090314254;0.029232118;0.050932344;-0.11199392;0.020066539;0.03117393;0.09769142;-0.04921998;0.044506237;0.01735586;0.13670401;0.068821386;0.02959422;-0.012257421;-0.048355635;-0.060447365;-0.10978072;-0.05984694;-0.03704092;0.0110346;-0.037575357;0.08818195;0.040395815;0.12082758;0.0059955795;0.07724078;0.35915667;0.06971182;0.15407377;-0.041425776;0.12528402;-0.048380073;-0.0035409322;-0.057480574;0.014362207;0.05674734;0.20609178;0.015368227;-0.00011403179;-0.003338006;0.036059503;-0.25377613;-0.12650706;0.028547224;0.035908088;-0.019722683;0.060126442;0.15377243;0.036284182;0.04142627;-0.10281079;-0.18429855;-0.056175716;0.02914397;0.10443591;-0.03308374;-0.040153373;0.083617195;-0.09884223;-0.22072227;-0.014241731;0.06885868;-0.16098055;-0.023339245;-0.037478168;-0.06335075;0.27257788;-0.009713632;-0.05216446;0.04709592;0.017587516;0.14477742;0.10757441;0.14682719;0.07021387;0.021829398;0.052306905;0.09702067;0.038320445;0.040034916;0.037818324;0.047815192;0.024559107;-0.049823523;0.064188346;0.033835836;0.0012051403;-0.038662802;-0.10944808;-0.048901983;0.22307293;-0.050099492;-0.009504801;-0.034047425;0.08021671;0.08109451;-0.052025452;0.089099206;-0.06305482;0.02187232;0.017331623;0.023673434;0.112855665;-0.0054909037;-0.015246175;0.025012914;-0.109200135;0.076538436;-0.08167706;-0.007826574;-0.03026535;0.07700008;-0.008213516;-0.008160595;0.052379984;-0.06323334;0.06041945;0.0755702;-0.0018533054;0.004230056;0.11179583;0.26652083;0.04020065;-0.012418868;0.050988138;-0.014615162;-0.08196;-0.0013821285;-0.02391143;-0.017160852;0.058897108;0.06963511;0.0404591;-0.029069236;-0.0034257735;0.05323695;0.026323017;0.115032464;0.011903914;0.12484273;-0.022104181;0.00078247493;0.04497686;-0.014823191;-0.044094626;0.1433157;0.0676302;0.007060762;0.042903688;-0.03378078;0.0038242794;0.098356776;-0.07988017;-0.17323206;0.05900791;0.06955265;0.1199298;-0.13365385;0.06993553;-0.06456359;-0.080909654;0.004556138;0.07233275;-0.02165913;0.030559612;-0.026068369;0.034931924;0.0067707184;0.12019027;0.044639733;-0.002360363;-0.017415892;-0.09893537;-0.0075577074;-0.062961295;0.00096772023
-0.047305197;0.07567353;0.0028898804;0.01718601;-0.048300266;0.10553351;-0.010828499;0.021260042;0.08679536;-0.023798672;0.034201905;0.24787465;0.096132316;-0.0031380223;0.16712295;-0.14435503;-0.004861368;0.07717652;0.2507524;-0.04207675;0.040823746;-0.066359535;0.05421174;-0.0109960325;0.0343624;-0.027457606;-0.046459064;0.055234868;0.033585332;0.021867333;-0.032261603;0.12585618;-0.047288474;-0.09553264;-0.023703557;-0.017429192;0.015753936;-0.037063558;0.13391997;0.18097335;-0.08517834;-0.06847128;0.016430993;0.030553134;-0.016099805;-0.044225365;0.073074706;0.093362406;-0.006172709;-0.016617022;0.058399867;0.05858246;-0.047805235;-0.022197096;-0.049309365;0.0035376104;0.01381709;-0.07467548;-0.060100812;-0.0659682;0.029700426;0.16803879;0.15557358;-0.20447473;-0.053480864;0.010272546;0.11592607;0.09090158;-0.032734863;0.08594971;0.0035637657;-0.08739304;0.037109554;0.027671764;0.012595492;-0.11404824;-0.061355658;0.06998669;-0.039573472;-0.0722822;0.07003556;0.07172066;-0.026440982;0.10491654;-0.04353181;0.07950169;-0.08256835;0.020052968;0.025877604;0.08311501;0.06474914;0.025512142;0.05637967;0.031039413;0.23120072;-0.043531816;0.09787793;-0.0921273;-0.025533384;0.04761077;0.0123527935;-0.10659787;0.12002402;0.079910204;0.0035097573;-0.10135108;-0.01763159;-0.05610495;-0.0703973;0.06390265;0.068661444;0.02599764;0.079154566;0.0700807;-0.018096086;0.2251671;0.075037636;-0.06691125;-0.025952384;-0.040098026;0.05596686;0.16206588;0.029621474;-0.06405661;0.12238141;0.0042042425;0.07923123;0.27530804;0.14720619;0.053810004;0.0034427275;0.0012007564;-0.079137236;-0.017546317;0.14167678;-0.26962227;-0.09788449;0.04847786;-0.004369639;0.048815377;0.0499912;-0.07216053;-0.059235398;0.021089079;-0.037220277;-0.018351076;0.05141927;-0.00982773;0.0946692;-0.010691065;-0.13606155;-0.049360137;0.09137964;0.051763035;-0.06557363;-0.037558407;0.047011405;-0.19223472;0.03196239;-0.039523743;-0.04941934;-0.0058982866;-0.005721097;-0.04373536;0.03408647;-0.19363536;-0.044590604;-0.03191223;0.042376723;-0.05982969;-0.0523332;0.012663593;0.041892115;0.040579513;0.09734316;0.034174126;-0.050259326;-0.2295411;-0.04194166;0.023926532;0.015742844;0.030276176;0.11312064;0.14591524;0.004237945;-0.026405599;0.08932703;0.044143494;0.041031875;0.10757966;0.064067334;-0.0024321429;-0.08387182;0.04019339;0.008122864;-0.017724633;0.106507905;0.14010529;0.13705486;-0.029332675;0.062437467;0.014352464;0.013566723;0.077563345;0.24833044;-0.0638277;-0.011723966;-0.097316794;0.0315664;0.06915908;0.06502654;-0.03884056;-0.06154648;0.078187354;0.086632974;0.062309384;0.14427061;-0.037192445;-0.051514827;-0.04630077;-0.0046881805;0.039321855;-0.04124682;-0.022376025;-0.111383885;0.15888636;-0.012672849;0.17473526;-0.1534595;0.05311769;0.06944577;0.042990867;0.08708345;0.12533699;-0.046003506;0.07098369;-0.05654931;0.0522381;-0.106330834;0.0019214816;-0.04982374;0.20805824;-0.09235049;0.039614018;-0.031472053;-0.009701822;-0.19717258;0.06441795;-0.04991215;0.26114443;0.024085136;-0.07018117;-0.03677444;0.07781194;0.020417219;0.048456594;0.08832293;0.08326363;-0.107489556;-0.06701859;0.09309666;0.024743;0.005078172;0.02558471;0.09426391;-0.058688406;-0.02343485;-0.006364031;-0.061418783;0.013354065;0.04651469;0.023089765;-0.038079266;0.057360705;0.11392365;-0.044391807;0.1437732;-0.06442121;-0.15230191;-0.028961973;0.13774556;0.039669506;-0.002681355;0.03508637;-0.020262951;0.092136726;0.047865644;-0.011501561;-0.04503954;0.09718218;-0.072532654;0.0077669546;-0.17867522;0.20360032;-0.13305257;0.03783484;0.05648596;-0.005027123;0.004332456;0.012531388;-0.25279692;-0.14190869;0.09713939;0.02566134;0.046410505;0.063984245;-0.07763377;0.11212754;0.06518662;-0.025734087;-0.049035847;-0.1225556;-0.046939917;0.084521994;-0.06676047;-0.048056852;0.110675;0.039240275;0.105483726;0.048193146;0.02846014;0.24707009;-0.20077606;0.030784002;-0.017703926;-0.056325875;-0.003147951;0.03450248;-0.03170014;0.111926585;-0.040414218;-0.04513713;0.04028733;0.05503582;-0.0056098113;0.17847373;0.119336255;-0.06607463;-0.014699175;0.01075753;0.048554007;0.06877062;-0.09975454;-0.0061510773;-0.0779917;-0.103214145;-0.02854463;-0.05605512;0.15766616;0.05571223;-0.15309897;-0.090730794;-0.038781576;-0.035865594;-0.043554924;0.018204588;0.20476389;-0.040021256;-0.030248966;-0.0016694592;0.13492401;0.04307774;-0.18548588;-0.044794377;-0.055018775;0.06566267;0.102377705;0.14751521;0.0038583067;-0.032215256;0.04946741;0.022104366;-0.2740835;-0.12356578;0.08950164;0.06811224;-0.114220954;0.041592836;0.056653824;0.26464427;0.13157316;0.0061470317;0.029220503;0.053944785;0.105440594;-0.021163411;-0.037101474;0.12434283;-0.078944825;-0.014109545;0.042221516;-0.14021693;0.102299795;-0.09209917;-0.03251656;0.07166869;0.0678932;-0.05988659;0.06396743;-0.008496199;0.031895358;-0.02520898;0.07825965;-0.0017359946;-0.027924266;-0.0142291505;0.11486144;0.03681418;0.018126093;-0.046558008;-0.01622834;0.14462808;-0.020079019;0.06838466;0.0048676836;-0.010657937;-0.082210384;0.000554729;0.011490191;0.0029969772;-0.019009566;-0.10643108;-0.02402676;0.11926756;-0.10304537;-0.05152368;0.23679769;-0.0006310509;0.25944948;0.09562572;0.08255815;0.01592641;0.0022581292;-0.04459974;-0.010880038;0.046653073;0.2575232;-0.044827603;-0.12986752;0.034454923;0.0040449584;-0.24558085;-0.20784712;0.078923665;-0.030965168;0.015159372;0.021932803;0.13027062;0.027311401;0.053216238;-0.05525205;-0.14908618;0.061621338;0.0063838894;-0.04612897;0.112081625;-0.030147444;0.112803794;-0.10628826;-0.15158251;0.052132163;0.07133048;-0.09723974;0.06896441;0.07789474;-0.36361787;0.17035615;0.010814755;-0.03396456;0.010147479;0.050062664;-0.033185747;0.0072653675;0.10133723;0.03693143;0.009580509;0.030209944;0.056138866;0.03714037;-0.08372615;0.099898875;-0.023559645;-0.13813849;0.17946853;-0.0045137196;0.19132707;0.06322696;0.017385185;-0.025083244;-0.0005528504;0.24924128;0.03746126;-0.04032463;-0.030221274;0.029449549;0.08406906;-0.09657979;-0.06237379;0.024850206;-0.017094214;-0.01451738;0.15441571;0.08631045;-0.123271205;0.049589973;0.04782652;-0.044927925;-0.038994722;0.039432973;-0.0698169;-0.0029441672;0.026691955;-0.046174616;0.057580143;0.012619369;0.061106272;0.030819979;0.020250315;-0.1786311;-0.06878748;0.04095277;0.20285028;-0.04438272;-0.054322563;-0.034225177;0.057347916;0.077505305;-0.037296012;0.0037426045;-0.07018824;0.068159424;0.11647004;-0.18147586;0.0797533;0.008666783;0.0965969;-0.06442275;-0.056450166;-0.04919227;0.001071812;0.13201977;0.061165523;0.33545932;0.054546453;0.24819313;0.02234637;-0.0042080786;0.0075067654;-0.06239423;0.0007941936;0.07928792;-0.0562888;0.015598928;-0.1600992;0.041069895;0.1328305;0.032619722;0.006241574;0.039493967;0.015501678;0.073892996;0.08409814;0.13771504;-0.02155043;-0.011006901;-0.053895507;-0.02975947;0.074918024;0.051335584;0.07482198;0.036136806;0.021085624;0.06605827;0.105999485;0.08512333;0.07695737
-0.028303063;0.02501284;0.014331045;0.051688343;0.04770464;0.0064620064;0.09834668;0.09912921;0.047446035;0.098966286;0.061060045;-0.16285414;0.09445007;-0.232828;-0.024473187;0.06534688;0.21174026;-0.012510294;0.03629407;-0.020935318;0.17435968;-0.076505296;0.16989864;-0.12263546;0.08682835;-0.12183988;0.07348591;-0.0012605484;0.044047434;0.16799712;-0.13019827;-0.13625102;-0.10528211;-0.030736342;-0.027351392;-0.087143354;0.056151766;0.077214636;0.047899727;-0.05257164;0.0029225526;0.00040937355;-0.079220064;0.10020095;0.080237746;-0.052351978;-0.0600518;-0.107328646;0.087887146;0.084455274;0.14632817;0.06936708;0.060710642;0.057792153;-0.045134213;0.07407598;-0.049439933;0.037690766;0.010416549;-0.01534945;0.12263435;-0.13441539;0.21627453;-0.12973446;-0.055249184;-0.016845448;0.117288694;-0.046309695;0.027944913;0.02693103;-0.015035375;0.048140697;-0.056702945;-0.027059138;0.05585348;-0.021679588;0.05985327;-0.19178702;0.15531388;-0.010565811;-0.010831753;-0.066315755;-0.11439961;0.08467761;0.034301065;0.0331534;-0.006946882;0.0148880035;0.0006918758;-0.013885226;0.016627118;-0.16505082;0.01008981;-0.01634967;-0.0032691665;0.046898965;-0.0056614224;-0.09718359;-0.017731985;0.11665196;0.038971435;0.033926293;-0.017890587;-0.056968115;0.03854426;-0.00025227162;-0.0009563771;-0.06379657;0.013457826;-0.011520122;0.06002671;0.06224784;0.09394492;-0.052674472;0.029715218;-0.004987652;0.039798252;0.09732029;0.03255035;-0.014412447;0.09471389;0.1184111;0.044622075;0.0061270827;0.18550491;-0.0007017603;-0.044184066;0.13226125;0.06741129;-0.032898713;0.11467155;-0.06350491;0.081796624;-0.00820095;-0.009886319;-0.29403797;-0.21698847;0.09498809;0.0945458;0.026469849;-0.040998038;-0.0031477273;-0.066497795;0.115496695;0.08675078;0.032528885;-0.016647706;-0.009744049;0.014467065;0.056375004;-0.013956196;-0.035935793;0.10438773;0.109684855;0.022219928;0.09602273;0.044717353;-0.22601269;-0.0077002686;-0.10527358;0.12084674;0.06271834;-0.064263165;0.04283478;-0.11859701;-0.047646817;0.07918235;-0.043953467;-0.0073625525;-0.04422506;0.09234972;-0.037023112;-0.1549626;0.056334972;0.059987392;-0.0007217968;0.0053066537;-0.14336276;-0.05562404;0.12713556;-0.0040348023;-0.042834256;0.044730455;-0.0434548;0.08265706;-0.23845492;0.0789198;-0.020238271;0.033480383;0.058857534;-0.024614146;0.12388052;-0.07892356;0.09871448;0.028039759;0.063874595;0.055868834;0.10513084;-0.01589114;-0.018190837;0.09543173;0.0014568947;0.0420904;0.115710445;0.05948807;0.080578275;0.028025214;0.004244605;-0.07633226;0.051368814;-0.07682216;0.03194398;0.030348565;0.006516108;-0.039454464;0.016496746;0.06611869;-0.066202335;-0.036109835;0.0034515613;0.11802299;0.015641386;-0.19182079;-0.19163777;-0.07738946;0.080713;0.015574542;0.17585763;-0.31675383;-0.08452458;0.09296878;-0.02232193;-0.07129799;0.04450561;-0.0009545061;0.01360803;-0.08431189;-0.002026529;-0.06801561;-0.024586003;-0.047540158;0.042455647;-0.104019955;-0.013490533;0.05132153;0.070317514;-0.32328662;0.11804323;-0.045256156;0.06353199;0.04436746;-0.04766415;0.08609799;-0.047267687;-0.07738948;0.10747594;0.0721984;-0.02638326;0.026391836;-0.04384816;-0.036205776;-0.022749268;0.12538204;0.07392335;0.0051007713;-0.037946545;-0.021082329;-0.14022762;-0.16522448;0.046994746;0.021641713;0.15014152;0.013165824;-0.08215367;0.155032;-0.105721995;-0.07776173;0.06933797;-0.11005305;0.011342722;0.028771117;-0.06429959;0.04520857;0.00033009777;0.08606888;-0.013043704;-0.05420797;-0.017998884;0.011827398;-0.065478794;0.04054305;0.079292074;0.017559571;0.11872252;-0.19549374;0.06291198;0.044254925;0.005862197;0.0060770838;0.08213927;-0.27595985;-0.22707921;-0.020819703;0.13500163;0.060289353;0.16042738;-0.026529074;0.028854212;-0.008270836;-0.07399844;0.061100103;0.02250685;0.030661514;-0.0019557734;-0.03527128;0.02269957;-0.012630349;-0.07556119;-0.048666947;0.0010153097;0.05185428;0.33427796;-0.15863343;-0.048964363;0.00870984;-0.17772122;0.05030619;-0.06338841;0.05167973;-0.2131992;0.0334972;-0.047286864;-0.048070986;-0.07427317;-0.04538895;0.11598865;-0.1372015;0.023278423;0.13737434;-0.010798442;0.107684255;0.026900103;-0.10735207;-0.048189823;0.03197165;-0.019464154;-0.041638874;0.0098482035;-0.007643706;0.014563598;-0.10369038;-0.08498968;-0.013658313;0.013863393;-0.038024493;0.11522438;0.13638437;0.030491687;0.11235331;0.114566505;-0.08117304;-0.04014897;-0.1673876;0.052373502;-0.041248824;0.06580605;0.03941338;0.06202015;-0.045024697;0.06489651;-0.006189601;-0.26098564;-0.3557587;-0.27447376;-0.019843128;-0.035404243;-0.045610044;0.031804826;0.10792556;0.18089993;0.037442103;0.043637786;-0.012765109;0.010861622;0.06607794;0.022377804;-0.16375276;0.07306216;-0.11663751;-0.2983957;-0.0240147;-0.03003892;0.0366421;0.053580143;-0.011093661;0.08936044;0.07593195;0.0921367;0.030773213;-0.028780464;0.04162692;0.017009491;0.0082598375;-0.010318804;-0.019615168;-0.060270555;0.13633302;-0.18056008;0.022092726;-0.005139264;-0.07146554;-0.19021145;0.04212092;0.010179647;0.041975766;-0.00011153841;-0.040147096;-0.023059633;-0.083482675;0.039544575;0.003270234;-0.3162104;0.05752966;-0.036770213;-0.100967996;0.06859854;0.20214003;0.105138294;-0.009405178;0.08592079;0.058260176;0.042942613;-0.048106037;0.0118557;0.09747484;-0.0022438858;0.16152382;0.01547669;-0.14089368;0.08874318;-0.037332483;-0.119080536;-0.05345794;-0.038535856;0.06287212;0.19953945;-0.021873716;0.12277254;-0.068974964;0.05140487;-0.0050563365;-0.16840287;0.028850922;0.00267319;0.09524927;0.002672064;0.023734232;-0.037292056;-0.049913246;-0.12525041;-0.13654137;-0.006070274;0.04953162;0.0417946;0.002633085;-0.34672943;0.07552595;-0.0127275465;0.09173214;-0.115184695;-0.011417626;-0.097215325;-0.24115178;-0.015997041;0.11291771;0.06718743;0.025867302;-0.08791087;0.03276514;-0.020280963;0.0792536;-0.062263507;-0.17252111;0.15707831;-0.03841778;0.14075546;0.0105805425;0.08529989;-0.1255898;0.043939095;0.16547233;0.022373479;0.08731469;-0.013958013;0.06999676;-0.03143704;-0.04178106;0.06885097;0.034474067;0.11170562;-0.05004627;-0.022159584;-0.040375;-0.106594555;-0.07984137;-0.015632767;0.08560516;-0.05218827;0.26287544;0.040377587;-0.028755233;0.03784519;0.06663105;-0.033530984;0.07425235;-0.064272165;0.030984474;-0.039212167;-0.24744202;0.043635003;-0.16454335;0.049749013;0.017111465;0.069131985;0.12561342;-0.050698936;0.033766106;-0.021481989;0.05371753;-0.012591235;0.21444058;0.096965946;-0.21714632;0.026245756;-0.062801525;-0.08705661;-0.023100376;-0.092889115;-0.018661777;-0.05532465;-0.043016527;0.09138922;0.19469015;0.05676361;0.15937714;-0.030505223;0.050909355;-0.044211518;0.0634979;-0.013854691;0.080998085;-0.040963475;0.0005477986;-0.13628106;0.06480022;0.016492482;0.04856614;0.05326037;-0.103943594;0.050045285;0.0029723546;-0.038470622;0.07571722;0.07389658;-0.01180227;0.06375438;0.06669155;0.011836104;-0.023534505;-0.029030003;-0.008888766;0.11092737;-0.060265977;0.019673428;0.069255166;0.0004513677
-0.10792431;0.06911308;0.04638374;0.066757716;0.09976577;0.13651393;0.12677981;-0.021793941;-0.1168367;0.026825996;0.06780434;-0.17905952;0.34245682;-0.05169058;-0.01766302;-0.11684877;0.04257616;-0.04006349;0.13891105;0.06619657;0.011082197;-0.015860142;0.12609269;-0.1563123;0.020587128;-0.1237981;-0.023094423;0.06891817;0.03546583;-0.027299985;-0.05790223;0.3067194;0.033170313;-0.010715235;0.065190576;-0.016987642;0.123984836;-0.053692006;-0.02460919;0.1784786;0.0068496186;0.039419353;0.015235812;-0.006975614;-0.1623671;-0.061574582;0.11642345;0.021568514;0.016808784;-0.022036571;0.15619688;0.31688672;-0.09147625;0.051727768;-0.0837428;-0.035755515;-0.15245828;0.06463516;-0.08906311;-0.045546297;0.09776474;0.070905305;0.14330275;-0.27063504;-0.004050745;0.108716324;-0.12879859;-0.09217644;0.009918693;-0.015473563;-0.025266653;-0.105094545;-0.039818753;-0.07763794;0.12864731;-0.14157109;-0.00418232;-0.043580163;0.108488105;-0.025886104;-0.098336555;0.04222165;-0.07404995;0.026597742;-0.16952726;0.06846428;-0.055959605;-0.0010119708;-0.055093933;0.11325662;-0.027460042;-0.11284149;-0.055437535;0.036653794;-0.04167412;-0.037315644;-0.026135318;-0.32110673;0.053281028;0.08797562;0.009577984;0.039202042;-0.05476442;0.028406126;0.068766035;0.03328816;0.090870924;0.06158346;0.10592734;0.09817826;0.101414956;-0.10575117;0.19482987;0.016790574;0.11795695;0.25894672;0.046713218;-0.0922263;0.023825176;-0.08593405;-0.044740915;-0.09227429;0.09016609;0.06215716;0.057249945;0.11629436;0.0042860205;-0.036920216;0.09058921;-0.11232234;0.29429087;-0.11054929;0.0077404208;0.19632328;0.05627504;-0.15342231;-0.4133408;0.0493195;0.2453538;0.17910534;-0.042264253;0.06305201;-0.18857579;0.2580425;0.012156584;-0.15269777;0.015495164;0.08047006;0.113210835;-0.044826817;-0.0802245;0.01208239;-0.06608528;0.05834133;0.016688699;-0.035036404;0.11102648;-0.011053199;0.10486295;-0.21579032;0.06880131;0.14929213;0.087410785;-0.04822001;0.05408199;-0.29798615;0.007397003;0.040980812;0.06550289;0.034297056;-0.0068136817;-0.022991853;0.010250593;-0.025277184;0.05869952;0.033372283;-0.04166292;-0.028036889;-0.06306675;0.042787727;-0.03671506;0.073555596;0.052595317;0.079274274;-0.0042747003;-0.08055456;0.07813616;-0.09389154;-0.07698897;0.039870482;-0.004085249;0.14110935;0.10925871;-0.038805936;-0.09799296;0.050962996;0.1634843;0.07354927;-0.103872545;0.05788296;-0.07087006;0.014042152;0.05704711;0.275022;0.30223387;0.055757225;-0.0019098927;0.0061334586;0.024606679;-0.005493694;-0.051411584;0.05122968;0.070435345;-0.13252327;-0.048693974;0.077317506;0.07793615;-0.042528123;0.06502126;0.008133715;0.06763062;-0.11575603;0.0736215;-0.21650156;-0.21692586;0.16065119;-0.018642;0.13344435;-0.11466717;0.09930253;0.035703786;0.037667286;-0.0050189747;0.0022975309;-0.11000193;0.023774637;0.008662836;-0.062295187;0.050486863;0.07772755;-0.040974353;0.33848065;0.04311085;0.12414072;-0.008495171;0.08184631;-0.14908475;0.10176896;0.008824555;0.17667356;-0.06283723;-0.02035733;-0.056511473;-0.013392317;0.06052856;-0.055377208;0.006153751;0.050359;-0.075642705;-0.16645525;0.10761915;-0.026679404;-0.04211419;-0.096124716;0.08729908;-0.0568734;-0.24028875;-0.03404062;-0.22311005;-0.0038292953;0.116440445;0.06617267;0.0020294471;0.016659666;0.022427604;-0.0118828975;-0.09380516;0.044614553;0.043670516;-0.034328464;0.09858251;-0.015551862;0.13731684;-0.010083676;0.024832213;0.13654257;0.010005155;-0.061321747;0.09773327;-0.14423516;-0.116705924;0.032696553;0.12129442;-0.060805123;-0.018128682;-0.038156483;-0.053393044;0.026536742;-0.08733083;-0.03345935;-0.24052224;-0.15203175;-0.09253224;0.12294409;0.13128252;0.098792255;0.057125214;-0.26358795;0.072263554;-0.015897447;0.013952798;0.021512153;-0.026323767;-0.17075266;0.0692437;0.10028077;0.15220878;0.041811284;0.063061915;0.09927119;-0.00693487;0.18640779;-0.043763477;-0.0020302644;0.0149991345;0.061899807;0.08884861;0.0578351;-0.059360433;-0.103383884;0.07058315;-0.02113959;0.09856046;0.07939534;0.029968148;-0.22013545;-0.13429382;0.08721555;-0.07304666;-0.0011504027;0.03733786;-0.033947833;0.08763105;-0.15273057;-0.07382467;0.024342597;0.028152252;-0.08579405;0.013723345;0.11068276;-0.12902263;0.15845694;-0.06146286;-0.015429078;-0.08594471;0.008741842;0.015525561;-0.25633729;-0.0874899;0.112251654;-0.07804746;0.0108915735;-0.19893964;0.016836818;0.041473452;0.026613457;0.060512703;-0.22353044;0.023258645;-0.047722433;-0.01085814;0.08554878;-0.22947367;-0.2686897;0.0071201436;0.039637614;-0.039119933;-0.012681474;0.057629578;0.060407754;-0.04735731;0.08314597;0.038854048;-0.009934323;0.12232975;0.09859067;-0.09376999;-0.03520197;-0.0029835142;-0.36394742;-0.071713306;-0.06472814;-0.058682907;0.012715276;0.111914374;0.11504661;-0.040798925;-0.041162767;-0.117939375;-0.021312784;0.045206036;-0.05483706;-0.032104492;-0.054036703;-0.051094152;0.053025857;-0.15822102;-0.027555322;-0.0023151399;0.108460926;-0.0023149292;0.22583874;-0.0162592;-0.095798634;-0.062235437;0.0007685418;-0.097045414;-0.042355906;0.08319509;-0.076479085;-0.024661;0.0630839;-0.07123019;0.034303363;-0.04992592;0.001208047;0.119225286;0.06899645;-0.18121889;0.003890238;0.021803647;0.017437415;0.09103748;0.095961854;0.1210778;0.0019532319;0.07955906;-0.058331817;-0.09675482;0.13361159;0.07283654;-0.03814992;0.07533872;0.020260135;0.04882817;0.28841338;-0.05667353;0.18666372;0.0633903;0.066460304;0.12951706;0.06886144;-0.020010522;0.02179402;0.075584985;0.014466277;-0.021810742;0.03464089;0.02807024;0.15265255;-0.13915372;0.06284347;-0.04341083;-0.008660792;0.0020254892;-0.2474757;-0.017268598;-0.039037768;0.09955788;0.07842735;0.01501889;0.08758736;-0.24488445;-0.10302696;-0.04178525;0.009019765;0.02017104;0.04805182;0.0014400131;0.03730142;0.10498861;0.0935634;-0.017706232;0.08028127;0.14246608;0.20334378;-0.010516532;-0.04576838;0.028716072;-0.048965417;0.18017446;-0.11056475;-0.09485457;0.13403353;-0.044466026;0.14675945;-0.3842587;0.06489852;0.08099804;-0.04991158;-0.011525228;0.12839788;0.02546816;-0.1826292;0.0014622221;0.01906447;0.047443684;0.092740454;0.029194694;-0.055008773;0.007523974;0.0863622;-0.0048315483;0.08196286;0.016351782;0.04278741;-0.067924224;0.0013140196;0.025687397;0.08911212;-0.14612277;-0.01690943;-0.039547842;-0.15131932;0.063004956;0.0634886;0.041997764;-0.01583976;0.052350365;-0.031499952;-0.11395354;-0.029529743;0.024890773;0.13420576;-0.0061738356;-0.05027434;0.07225788;0.021729974;0.16432567;0.030093605;-0.022286402;-0.026072944;-0.18859005;0.05051272;0.11167302;0.1318514;-0.072220914;-0.019346394;0.1487689;0.04518665;0.20827478;0.035726108;0.0036401507;0.1717498;0.049596116;-0.014274208;0.06703416;-0.060896;0.12940869;0.0014815427;0.06274088;-0.026685357;0.11357863;-0.00554988;-0.042684235;0.0814878;-0.09341652;0.119297296;-0.09226242;-0.00510104;0.0072821868;0.033310246;0.23988229;0.0713952;-0.04371342;-0.04862937
-0.094480604;-0.049453188;-0.042060934;0.010927325;-0.038028207;0.064374276;0.16678473;-0.014097132;-0.013183967;0.08494088;0.07072285;-0.27180448;0.096211955;-0.12774333;0.04435852;0.13837445;-0.09027118;0.04617383;0.053861346;0.09919472;0.056588776;0.024081409;0.10617815;-0.08624471;0.08727936;-0.25059792;0.097234234;-0.033191036;-0.040462732;0.14191262;-0.1243117;-0.044230457;-0.022696307;0.013467108;0.008564472;-0.027228002;0.15465245;0.08024082;-0.040064003;0.015423024;-0.06439604;0.010935412;0.18766549;-0.04641549;-0.17398824;-0.03765705;0.071853034;0.032319114;-0.029140528;0.056618474;0.15821198;0.34794256;-0.026829368;0.07840511;0.062425587;-0.080003336;-0.04170313;0.09303021;0.023222065;-0.042775624;0.04840624;0.062135562;0.16080847;-0.2206282;-0.049957003;0.07973558;-0.061909724;-0.05658798;0.11978207;0.038904343;0.116299175;0.028473416;0.047365893;-0.029271714;0.08208936;0.03613775;0.038135707;-0.16758727;-0.07242437;-0.013093072;-0.10537656;0.0063821394;0.015484115;0.10958467;-0.1095515;0.017717201;-0.08537172;0.0076844054;-1.0675471e-05;0.15274633;0.07229333;-0.112366475;-0.024522211;0.013857206;-0.08520301;0.041370362;0.122588776;-0.08258089;-0.028305002;-0.0018414168;0.04689923;0.017416587;-0.16300689;0.070594765;0.09045953;-0.010345117;-0.032732487;0.0021569335;-0.013985481;-0.03198834;-0.01033274;-0.0054194615;0.11213647;-0.0184471;0.023290908;0.20225301;-0.0479476;0.054773588;-0.102815114;-0.0028693099;-0.062009256;0.031548284;0.003039522;0.064562425;-0.08526898;0.000885813;0.021980466;0.0011190065;0.056003276;-0.0117457155;0.18656653;-0.04907908;-0.032261528;0.016216038;0.043348838;-0.026433263;-0.13667208;-0.029269192;0.06701125;0.11238392;0.057100516;0.09644251;-0.10706841;0.08455204;-0.07443408;-0.052030075;0.004365799;-0.010002382;0.008472692;0.08799662;-0.12534122;0.06427002;-0.04563458;-0.15036103;-0.058088724;-0.018174035;0.036737587;-0.12952316;0.0029903129;-0.24620983;-0.048923425;0.16228017;-0.0968735;-0.025772128;-0.10359688;0.062491722;0.10151195;0.044408556;0.19725327;-0.0550769;0.035257347;0.1388603;0.06905763;-0.062147323;-0.010370404;0.03760211;-0.0050792224;-0.0026340429;0.078497596;-0.046517484;0.06067292;0.07806453;0.037114862;0.022444269;-0.052713566;-0.03421967;-0.03982378;-0.06246516;0.042054627;0.011595648;0.016944254;0.15047626;0.025992002;-0.020219197;-0.030566981;-0.10064527;0.09545596;0.061248988;-0.08683705;-0.08237858;0.048607185;0.02173517;0.07469581;0.10795928;0.07859775;0.03427638;0.036004122;0.17405486;0.08938036;0.04489206;0.027920159;0.005729384;-0.037284527;-0.002857203;0.015587884;0.02531157;0.076867916;-0.0010486685;-0.013388469;-0.010707324;0.015809657;-0.011476701;0.004920413;-0.011031565;-0.016506355;0.15331504;-0.032755148;0.059288297;-0.124775395;-0.0029572516;-0.020295369;-0.011708241;-0.061544273;0.027012236;0.04661479;0.037373822;0.07651453;0.03066019;0.01875438;0.035368904;0.10139147;0.15855101;0.046144754;-0.003590987;0.048316278;-0.02598883;-0.12539856;-0.040361937;-0.057865746;0.03882999;-0.011590417;-0.022981822;0.0618431;-0.06970183;-0.062274832;0.018085113;-0.040470205;0.05483544;-0.0059388326;0.0070205247;-0.049865708;-0.053121544;0.03628089;-0.016526513;0.10664474;-0.08240533;-0.03985474;0.04705575;-0.13637985;0.10192077;0.0042436114;0.08061708;0.019153172;-0.07677991;-0.09764308;-0.03127069;0.13397919;0.025721947;-0.03103423;-0.025036836;0.09334933;-0.002552566;-0.008933758;-0.11146805;-0.06246356;0.027616324;0.061773002;-0.09682421;0.03754253;-0.032192163;0.035306577;0.050109092;0.20585424;-0.032910824;0.014374989;0.034312554;-0.053155888;0.09664564;-0.011244613;0.12325551;0.1999955;-0.046353232;-0.081266664;0.029530114;-0.00035744606;0.083574936;-0.043164935;0.020887727;0.026636526;-0.0115370415;-0.008453545;0.06990494;0.052916534;0.05643211;-0.019133639;-0.04672179;0.0808865;0.008804759;0.053915706;0.13699825;-0.053829566;0.060981754;-0.060757495;0.080517225;0.00818082;0.009793822;0.046303563;-0.010195089;-0.05328177;-0.05788566;-0.022456909;0.052569084;-0.0021826024;0.0061151823;0.020352334;-0.06448734;0.032867074;-0.023665985;-0.04606516;0.04742157;0.017274078;-0.04162436;0.06873868;0.05488239;0.059372574;0.06013933;0.01304726;-0.069326885;-0.041828115;0.09394123;0.021990787;0.109614976;0.03223868;-0.000615922;0.0322979;0.004400264;-0.14817742;-0.039984543;-0.039667767;-0.15788516;0.098742366;0.09849478;0.03163679;-0.006614685;0.034631748;-0.0087495465;0.06061642;-0.0783412;0.05380763;-0.059965465;-0.020655246;-0.14809471;-0.13765801;-0.12748188;-0.00091573776;0.028306557;0.004321093;0.041770615;-0.030044971;0.005776766;-0.021340864;0.008677226;-0.060306657;0.076929264;0.010044889;0.042494766;-0.15313897;-0.10581488;0.02989971;-0.24577013;-0.019116027;0.20037374;0.057433326;0.09108568;0.05782544;0.27998716;-0.07064804;0.0557473;-0.11164162;0.027772505;0.027969176;-0.105962716;-0.043532185;0.08404672;-0.051858447;-0.02380959;0.13187322;-0.089606725;-0.0773169;0.071597695;0.01085074;-0.023446333;0.091586;0.020268263;-0.05130952;0.016939452;-0.026688967;0.06565981;0.05243026;0.02592233;-0.053726338;-0.19374377;0.03023637;-0.08041627;-0.07621626;-0.01575607;0.12148992;0.057045672;-0.07289009;-0.0237172;0.07924815;0.019960525;0.058608733;0.070490986;0.058403376;-0.0010329972;0.08422515;0.06403692;0.026112087;0.09436195;0.022062449;-0.24398172;0.0012093101;0.076369725;-0.05118184;0.24797677;-0.05304308;0.22588772;0.0733913;0.012976206;0.08077864;-0.06267535;-0.08497565;0.06396852;0.14297843;0.06273363;0.014578896;-0.039378602;0.0940528;0.030511126;0.026888352;-0.004169612;0.14645754;-0.065192625;-0.018425606;-0.17700043;0.02100697;0.095189385;-0.025380015;-0.12036085;0.00036710728;-0.0084089;-0.19919755;0.0013451957;-0.0027600136;-0.046948332;-0.052257445;-0.04999255;-0.008126766;-0.047883052;0.06835621;-0.041705564;-0.044769984;-0.0808088;-0.014825839;0.13319941;0.041909363;0.017465858;-0.13776204;-0.034676116;0.08215052;-0.03232852;0.0012696665;-0.07934469;0.046714026;-0.026407009;-0.18948461;-0.0074159126;0.038789682;-0.00579676;0.0067554205;0.12333937;-0.063810565;-0.0038083498;0.06070281;0.0061237216;0.088554636;0.047680248;0.06431716;0.032328766;-0.025661059;-0.042611144;-0.057074133;0.07118459;-0.01713425;-0.042722803;0.07608735;0.06192777;0.018140577;0.009350068;-0.06742665;0.13010947;0.0789746;-0.010260868;0.019479625;-0.036953043;-0.0021946651;0.06862462;0.049910933;0.0370397;-0.06348102;-0.007326231;0.02912872;0.020081721;-0.057502814;0.122024834;-0.022779658;0.023166351;0.034847405;-0.025156474;0.006232474;-0.0032159737;-0.16478464;-0.041297734;-0.020974906;-0.053334456;-0.06251682;-0.054466173;-0.019495409;-0.04522313;0.04813755;-0.037064105;-0.018362518;0.054920215;-0.03515155;-0.029357556;0.083988085;0.034127746;-0.004826995;0.030763002;-0.005930734;0.007356442;-0.017915946;-0.005513076;0.06708581;-0.0679788;0.025775995;-0.012093722;-0.14882351;-0.094614245;0.049962778;0.025827156;0.13859133;-0.034773517;-0.010319372;0.08080165
-0.020830829;0.043905802;-0.080608726;0.011725515;-0.034283943;0.06515552;-0.010761595;-0.01756143;0.0066723973;-0.03763885;-0.07721471;-0.093768165;0.22089818;0.08681525;0.10435261;0.056755636;-0.17671192;-0.11182691;0.017636115;0.08762121;-0.012476474;0.06594027;0.048758432;0.050699428;0.032744303;-0.09269847;-0.023483098;0.04118825;0.025277378;0.12952556;0.07341692;0.023371102;0.119304426;-0.008781946;0.04960568;0.04973213;0.049028188;-0.01425442;0.009782356;-0.12943397;0.062328093;0.018968616;0.14224246;0.0071881325;-0.005399085;0.110028446;-0.05040298;-0.05218634;-0.0361242;0.04278927;-0.032450307;0.30324876;0.040026292;0.088096425;0.012700388;-0.11086506;-0.0042819246;0.09051064;-0.07377511;-0.050272003;-0.015088374;-0.092948265;-0.06314602;-0.2878511;-0.098459825;-0.027526075;-0.0009882424;0.0338368;0.0032672675;-0.0046019405;0.01163408;0.0027068271;-0.079961315;0.06554586;0.010365125;-0.12611993;0.03638188;-0.0835759;-0.1391219;-0.023064392;0.009918527;0.08554494;-0.019385591;0.016491497;0.044332433;-0.06937567;0.009061642;0.026072735;-0.009799881;-0.048665207;-0.035118643;-0.15598121;-0.07522331;0.08689727;0.08628467;-0.03901267;0.1821394;-0.046093732;0.07264969;0.0697831;0.0057015712;0.0005192034;0.009291762;0.14234215;0.092183076;-0.11313805;-0.060880244;-0.04642403;0.03358993;0.07866205;-0.046509676;-0.04563537;0.09446541;-0.005044536;-0.0018651533;0.19327825;-0.021377023;0.03013411;-0.012772894;0.0968676;-0.050041173;-0.07403296;0.0559559;0.034931958;-0.027951043;-0.04006941;-0.046297815;-0.030110069;0.13219745;-0.004289638;0.034882322;0.019268297;-0.06771516;0.0104004685;0.05328459;-0.12419676;-0.18930808;-0.09094119;-0.05504639;0.07164856;-0.013063761;0.06620479;-0.054379363;0.07693689;0.10470285;0.0073044044;-0.028582096;-0.0019465882;-0.01821873;-0.07241832;0.08893336;-0.04337394;-0.19946133;0.045582205;-0.069514364;0.007384878;-0.0017289158;-0.14227213;0.07121711;-0.18911433;-0.018324643;0.0009304086;-0.20383754;0.12722354;0.13688572;0.021017348;-0.21916781;-0.011505089;0.045510653;0.07256287;-0.034697432;0.025321135;0.007439649;0.009938491;0.028881624;0.074012965;-0.06302299;-0.10940716;0.057013623;-0.017878829;-0.015277116;-0.043280598;0.018953223;0.13611616;-0.04073853;-0.045576464;0.0059645995;-0.20406245;0.0015322977;0.04031974;0.036120918;-0.008001516;-0.05409755;-0.04988557;-0.0008915775;-0.04427931;-0.076922365;-0.005564138;0.11458024;0.05952653;0.054017555;0.097690396;-0.016889377;0.31742734;0.09577911;-0.05238218;-0.046754234;0.08219379;0.016314784;1.8965413e-05;-0.028946904;0.011289978;-0.050171237;0.030325118;0.16282547;-0.08177678;0.031857505;0.10046099;-0.055603363;-0.015075562;0.046520293;0.04644392;-0.04192026;0.06048581;0.095638245;-0.012309973;0.028735606;0.014781932;-0.06298879;-0.02110941;0.07846987;-0.008092549;0.05427696;0.019711213;-0.07639121;0.019067276;-0.018615011;0.016699143;-0.04865509;0.09821803;0.019243374;0.20934516;-0.06855929;0.04058073;-0.039613616;0.032815997;-0.18437992;-0.03031643;-0.00030345342;0.12618029;-0.026208147;0.04294432;-0.063595034;0.047385436;-0.016681608;0.024907066;0.00449311;0.06694898;0.066312075;-0.03681482;0.013454809;-0.109060325;0.04789559;-0.08310437;0.035255533;0.08830632;0.07138476;-0.12328214;-0.00029999635;-0.01756512;0.050323833;-0.06190045;-0.024929104;-0.009365263;-0.006074063;-0.04752147;0.15921803;0.008741335;-0.022243561;0.067422606;0.29014862;-0.08237515;0.024533017;0.048991777;-0.063603185;0.069433644;-0.10958295;-0.05652436;-0.01497227;-0.0518034;-0.10434937;-0.11154481;0.089897335;0.10122125;-0.04228074;0.039269414;0.048625596;-0.071381025;0.059847146;-0.0036961976;-0.006755672;-0.062875286;-0.08398335;-0.0024278855;0.07603698;0.15183112;-0.041984126;0.08333813;-0.0792653;-0.07758253;0.024135191;-0.04082719;0.017731687;0.047761057;-0.028545646;-0.0004624176;0.109704226;-0.030917464;0.116985284;-0.0796486;-0.07676784;0.117602944;-0.20282096;0.073903866;0.052816883;0.09922427;0.09088535;-0.007996294;0.017375296;-0.11253619;0.013681225;0.06641503;0.070924096;0.0038875465;-0.07788631;0.10423529;-0.06098407;0.064258285;-0.17284918;-0.00961146;-0.008957208;0.0222265;0.04903909;-0.006150346;-0.020601181;0.09293723;-0.031736493;0.018095506;0.010364901;-0.07801772;0.1413861;-0.034694403;0.059086844;-0.05926734;-0.09199797;-0.083323665;-0.004177736;0.11440553;-0.029940143;-0.116931655;0.10339065;0.051330335;-0.012527753;-0.0075259125;0.048841946;0.04813309;-0.013712395;-0.100750335;-0.04584623;0.004779596;0.056122243;-0.14362602;-0.044331618;0.1638951;0.103826955;0.018497678;0.15401413;0.0007133765;0.0074918186;-0.07453347;-0.08078451;-0.021034744;0.03653935;0.11526348;0.07098549;-0.026221002;-0.20685938;0.05981701;-0.16718097;-0.32749298;0.060223147;-0.092847414;0.09429279;0.006882217;0.082510024;0.19086511;0.048471972;-0.038533673;-0.1115334;0.11770276;-0.0052535306;0.05607678;0.076672904;0.009436281;0.0572233;0.010539097;-0.012613172;-0.047808748;0.038947042;-0.043497585;0.030868549;-0.033207867;-0.03155465;0.03184626;-0.071357556;0.036558144;0.122029714;-0.03865423;-0.025196044;-0.045527004;0.08484312;0.03152725;0.04698123;-0.09997074;-0.1564502;0.003806392;0.065105915;-0.053978648;-0.014512507;-0.037348162;0.17887574;-0.03131089;0.061173983;0.04380613;0.021403696;0.027187428;0.12454637;0.0072017573;0.113828205;0.06304305;0.13430892;-0.1351096;0.061941344;0.020232148;-0.037766352;0.18078089;0.030194303;0.10894355;0.028417662;0.038241517;0.11594929;-0.007371736;-0.02489017;-0.022560664;0.0107543375;0.051456843;-0.02777717;0.03457833;0.1927479;-0.012488505;-0.07960378;0.070276186;0.08326529;0.070465736;-0.0008829766;-0.23887981;0.104184024;-0.023713635;-0.054347575;0.0756481;-0.034538507;0.08800482;-0.16920558;0.018117769;0.056995593;0.010779742;-0.0336546;0.088323236;-0.06174415;-0.0443567;-0.041987047;0.008839814;0.037909724;-0.23681672;-0.080584;0.074876845;0.038192283;0.05614786;0.026699433;0.06720431;0.023997158;0.054344926;0.09050962;-0.01317574;-0.009840307;-0.056454357;-0.2873599;-0.1532756;-0.0032514108;-0.11743978;-0.051914178;0.18616071;-0.05291682;-0.04595005;0.035415154;-0.06429044;0.16575317;0.068947375;0.10992402;-0.029538088;0.10883993;0.009019178;0.05026273;0.084800005;0.069640405;0.006120341;0.11638488;0.07400427;0.039306715;0.021012826;0.19268273;0.18940897;0.019963142;-0.0663773;0.026487147;-0.07573241;-0.020965168;0.0247217;0.06139273;-0.0037040075;0.19867605;0.048261527;-0.082180515;0.15383543;0.005351724;0.15919937;0.059043568;-0.05980789;-0.026854696;-0.032760486;0.15227431;-0.02850942;0.082025416;0.0032508709;0.09413189;-0.02864551;0.068435244;-0.058473606;-0.10112809;-0.02057683;0.122270465;-0.038671073;-0.032894615;-0.019568719;-0.06140676;0.00525049;0.10091607;0.022415724;0.022931967;0.015119824;0.007907059;0.07095555;0.06905815;0.05857929;-0.03435239;0.014438335;-0.07371424;-0.009142584;0.0009491046;-0.03032005;0.024406862;-0.023554033;0.04224603;0.025582049;0.028379476;-0.052479383
0.12665437;0.03326651;0.07889404;0.04681161;0.09541515;-0.010417491;-0.036187023;-0.047298834;0.061883215;0.06764801;-0.00058080745;-0.1368555;0.21078208;0.020301713;0.14221156;0.09320538;-0.116784625;-0.10184017;0.27961096;0.027360924;-0.034524452;0.061001115;-0.11313;0.011384494;-0.004529699;0.021178085;0.058408845;0.06842836;0.010375003;0.06984998;0.09539106;0.09174354;-0.010694594;-0.016291134;-0.04021669;-0.020509986;-0.11522286;0.06543734;-0.036197256;0.098008424;0.024005055;0.020218406;0.044403497;0.061522808;-0.014406275;0.059980944;-0.07305447;-0.046817813;0.018446857;0.022729307;0.018193915;0.17056516;-0.003920213;0.046741746;0.05600866;0.050057825;-0.034714334;-0.04566376;0.09177875;-0.008782908;-0.13292126;-0.04652851;0.08286595;-0.37480778;-0.054705746;-0.02134444;-0.107834466;0.047074534;0.06656119;0.008864658;0.049529202;0.058905914;0.021776473;0.048193227;0.1614228;-0.0444691;0.068118736;0.04424651;0.003074457;0.0020824536;0.085453786;0.016030144;-0.016879965;0.011334331;0.15623695;-0.029213067;0.0937497;-0.045461938;0.014982923;0.013803642;-0.020790078;-0.048691966;0.06207469;0.08599875;0.10578167;0.058481894;0.034366228;-0.053235248;0.059863433;-0.06471011;0.06937849;-0.006335883;0.11343059;0.05399425;0.027758347;0.019751359;-0.010601594;0.10783629;0.012955253;0.006479702;-0.08229343;0.05731664;0.014742069;0.03101893;-0.037061624;0.015399666;0.04873183;-0.03717569;0.046177696;-0.018126734;0.034445878;-0.01857975;-0.0119732125;0.095951095;0.07945889;0.06313588;-0.025667142;0.037319347;-0.03818543;0.041994195;-0.040166076;-0.029235382;0.1015624;-0.10511575;0.04039456;0.0051595145;0.08488005;-0.02621925;-0.045452133;-0.035158128;0.076952964;-0.004259125;-0.35261875;0.02440938;-0.02970681;-0.04116649;-0.058726296;0.05386471;-0.002702912;0.010359023;0.13713975;0.031627394;-0.08969925;-0.09516608;0.027569631;-0.013997042;-0.08736372;-0.06736077;0.04378417;-0.041310214;0.06940412;-0.090449475;-0.22139739;-0.0127549395;0.0038438253;0.050353266;-0.1427776;0.056264978;-0.054405473;-0.07624599;0.07320125;-0.0090609;-0.05262662;-0.008236857;-0.0025824576;0.06367599;0.025575053;-0.23503259;0.011813782;-0.03773877;0.06583478;0.0063048513;-0.10593316;0.060212746;-0.013722918;-0.15135843;0.014397053;-0.11028912;0.12240807;-0.051375024;-0.0024245812;0.07175111;-0.013039547;0.05920746;0.023430204;-0.049446244;0.054837685;-0.028042242;-0.012515834;0.06873387;-0.10028071;0.004018808;0.060119435;0.14531422;0.08537002;-0.099208914;0.098553546;-0.01120681;-0.025587698;-0.062333517;0.051981386;-0.0394278;0.016940868;-0.023586197;-0.024385389;-0.05654266;-0.050876774;0.06569353;-0.016896151;-0.0090207085;-0.07652398;0.06730146;0.10372676;0.14891817;-0.039321307;-0.108088724;-0.02624081;0.14609571;-0.053573083;0.10668791;-0.0296806;-0.045189682;-0.0043979124;0.10172272;-0.12957247;-0.032769866;0.012077357;-0.028853672;-0.119529;-0.003561498;-0.025804373;0.2621331;-0.009346131;0.040406164;-0.036403406;-0.020154485;0.10223789;-0.06535528;0.04849633;0.274912;0.06273365;0.008194637;-0.06721625;-0.21647942;-0.00023151837;0.021658264;-0.04431149;0.0471851;0.1398968;-0.02979577;-0.11787122;0.079212956;0.04305174;0.07744574;0.08237544;0.07695775;0.050922684;0.007513301;-0.04370636;-0.06500594;0.08208447;-0.00027292737;-0.020655112;-0.007014051;-0.07272736;0.094899066;0.05457587;-0.04450897;0.06443635;0.013254304;-0.093958475;0.055452492;-0.033681992;0.07657427;0.042950936;0.03687483;-0.18158409;-0.008320781;0.00725049;0.0862423;0.02020083;-0.14836518;-0.036460955;0.054753967;-0.0058362535;0.06847024;0.01677284;-0.011100903;0.024049299;3.7019336e-06;0.07968902;-0.05908722;0.08350898;-0.10235375;-0.07247536;0.17768162;-0.15054137;0.08158689;0.055167884;0.084202796;0.09952028;0.11311083;0.0039455644;0.15082948;0.10463868;-0.0026215126;-0.03926262;-0.05720395;0.0654825;-0.033565406;0.015724534;-0.1461514;0.09617308;0.025754733;0.020191172;0.13460168;0.06671859;-0.0041459077;0.0057462747;0.041892122;-0.0052969097;0.016040891;0.1307471;0.014593978;0.016783569;0.14465001;0.026192069;0.021142708;-0.029988425;-0.049616907;-0.015822988;-0.04843485;-0.065831475;-0.06554555;0.065772325;-0.013881412;0.043419164;-0.05053952;-0.21427424;-0.09373889;0.19814105;0.16556215;0.09255442;-0.024247253;0.077917606;-0.03464492;-0.056923375;0.19847682;0.13072506;-0.076481104;-0.008227272;0.047230378;0.014535285;0.047815133;0.073748864;-0.09993975;-0.027877586;-0.15092374;0.06740837;-0.06787456;0.027572908;-0.11350233;-0.15105268;0.20045269;0.000961414;-0.0041405424;0.10961665;0.03340107;0.019042501;0.066114075;0.06536229;-0.014447449;-0.080938324;-0.024098195;-0.06217534;-0.08214853;-0.07260252;0.030072618;-0.07830367;-0.26591638;0.10286191;-0.13723278;0.06624857;-0.03982419;0.0055337586;0.028136896;-0.046467323;-0.006859392;-0.3275573;0.07839805;0.062278908;0.108363986;0.12611324;0.0037379381;0.06495443;-0.012944459;-0.08221201;-0.16771945;-0.031525098;0.062246058;0.017187282;0.13586652;0.03805658;0.06560417;0.0012686376;0.01946213;0.009953544;0.02431053;-0.0074361656;0.08345373;0.026810624;0.16817556;0.060494006;0.06713058;-0.16066414;-0.050138544;0.19236524;-0.054443512;-0.14456235;0.009028114;0.02559546;0.018825535;0.010770811;-0.026663467;0.076870464;0.02863685;0.2968844;0.020735145;-0.0038725145;-0.015409055;-0.10004923;-0.14031278;0.10197014;-0.08300248;-0.011839205;-0.05897091;0.06903032;0.14545685;0.004662909;-0.0267666;-0.00883483;-0.08134896;-0.028352154;-0.034309223;-0.16662964;-0.069671854;0.02889417;0.11101995;0.14899625;0.09925102;-0.3840002;0.016303265;0.0017475534;0.1404587;0.008419797;-0.22800176;0.11270725;-0.003370736;-0.021481145;0.14040051;-0.05970529;0.010154343;-0.18940024;0.057597794;0.15058331;0.09570505;-0.009211622;0.12121326;0.022239387;-0.059633892;-0.08069839;-0.0312497;-0.026381422;-0.12568092;-0.08766152;0.07693543;-0.013772297;-0.016433105;-0.10512889;0.048288915;-0.060118955;0.081127636;0.07228204;-0.012184144;0.099885054;0.096134745;-0.3402426;0.029140456;0.009887775;-0.09071762;-0.013087262;0.06638176;-0.09025402;0.012359651;0.0028811872;0.016979903;0.080532886;0.034476917;-0.04488336;-0.020925203;0.07648981;0.049233273;0.05630691;-0.06448482;0.032261692;-0.04017888;0.25418085;0.013274775;0.05341579;0.047053155;0.054779623;0.20518567;0.04557093;0.0916295;0.050143726;-0.050309222;0.11761562;-0.038633086;0.044496756;0.09331522;0.0602647;-0.06359177;0.06822327;0.039090596;0.04677635;0.18502545;-0.03875462;-0.13653433;0.011718792;0.103651226;0.15934816;0.01710083;0.10759225;-0.034025714;0.0020620741;-0.09914743;-0.027796766;-0.017049627;-0.039997596;0.10980363;-0.03362563;-0.0095167495;0.048970483;-0.020202382;-0.08600664;0.09349987;0.057887524;0.0062073567;0.006475227;0.052830976;0.07975692;-0.040374447;-0.036406096;0.045437835;-0.0023138921;0.07907943;0.05306076;-0.050969068;-0.015604079;0.02454513;-0.06326685;0.09492291;-0.082278654;0.057323515;-0.049164273;-0.0006912615
0.009182173;0.065491445;0.07524732;0.06930243;-0.014101235;-0.013593658;-0.069759876;-0.026678313;-0.025541492;0.056552753;-0.05520027;0.16572858;0.33875787;-0.046779335;0.018283313;-0.16126356;-0.032409605;-0.03156032;0.28435618;0.015532254;0.011247785;0.0018931514;-0.13558787;-0.040086597;-0.014441883;-0.059187476;0.10588294;-0.01179477;0.02820436;0.14803188;0.074503236;0.01581468;0.036038697;0.01018667;-0.0041680485;0.06042758;0.088112056;-0.09833657;0.019013928;-0.034987614;0.046122953;0.0049631554;0.019561745;-0.012547094;0.02991346;-0.030365758;0.06016397;0.06883325;0.06741322;-0.009382126;-0.15971133;0.0036160462;0.033234615;-0.025839718;-0.1318613;-0.12061958;-0.038246203;-0.04708116;0.05709786;0.06706894;-0.09739172;-0.024240986;-0.062125966;-0.31456202;-0.068093255;0.06094728;-0.08705973;-0.03535986;-0.010519086;-0.0024327016;0.04939155;0.07042172;-0.04621614;0.03506432;0.023936221;0.14000356;-0.0139151765;0.25793132;-0.038437255;-0.06656783;0.055443175;0.06667982;-0.029522825;0.11539011;0.13651581;-0.024502574;0.045959905;0.113009155;0.046615783;-0.01790106;0.002142198;-0.002727508;0.05552427;0.03934722;-0.061050195;-0.031156179;-0.072885;-0.03539123;-0.06360827;0.006646325;-0.043379374;0.009186881;-0.13470241;0.030538624;-0.08185299;0.085208215;-0.0032381925;0.11701776;0.061503958;0.08291902;-0.05251525;0.044282768;-0.037517384;0.0351255;-0.048149098;0.009537641;0.08848759;0.073852286;0.09532168;0.052547697;-0.027649892;0.035875916;-0.030123584;-0.036022086;0.07141121;0.02449182;0.011114801;-0.12312131;0.028183637;0.0054511796;0.10039348;-0.11684178;0.13991477;0.10534792;-0.0462693;0.10214894;0.12823692;-0.19530647;0.0028498087;0.07132693;0.04829344;-0.014618549;-0.18199502;0.08994522;0.076306514;-0.05494206;0.07954776;0.15916269;0.022806067;-0.055115096;0.04471445;0.021886311;-0.016797116;-0.2718817;0.03735339;0.046882574;-0.041613165;0.01784294;-0.00070520653;-0.088977166;-0.02605384;0.012612927;-0.14141938;-0.041156355;0.00831635;0.04025876;0.0014101599;0.033845313;0.022521507;-0.017726278;-0.045894068;-0.00044733085;-0.069682546;0.055660717;0.085496925;-0.0082662515;0.049117304;-0.1966499;0.054502;0.02148996;-0.08396645;-0.04113789;-0.016372284;-0.06201747;0.025862724;-0.17281483;-0.07996482;-0.2301181;0.011858145;0.040057316;-0.075305454;-0.12681977;0.09830002;-0.037903845;0.11554284;-0.012894138;-0.108842626;0.0368382;0.17671713;-0.040181566;0.046498895;-0.039510407;-0.034244634;0.23724812;0.073805146;0.041059818;0.037790857;-0.08263805;-0.037124533;0.05804354;0.066064246;0.021061089;0.05278423;0.06801237;0.11138229;0.026171213;-0.073922224;-0.049478184;0.00029807258;0.061136708;-0.067638874;0.026521528;0.02719118;0.06497237;-0.12857321;-0.010276261;0.06664864;0.056295224;-0.21763408;0.09152731;0.009754238;-0.061553407;0.08687442;0.04001838;-0.027360983;0.014534834;0.07947449;-0.03217915;0.16844544;-0.061290953;0.017867023;0.28927937;-0.13934481;-0.00937844;-0.08476606;0.03260013;-0.06269821;-0.0131995035;-0.04428458;0.34776005;-0.044413425;-0.033661336;-0.023561273;-0.07906033;-0.01690011;0.0029269888;0.121008135;0.13867155;-0.0060759494;-0.14587282;-0.04622821;0.13161935;0.028410383;0.04496488;-0.05568488;0.009437682;0.004905235;-0.04000294;-0.06300324;-0.060126025;0.021401111;-0.09148539;-0.04802824;-0.12584575;0.015317821;0.008807542;0.17314792;-0.056521285;0.01752343;-0.028026115;-0.19946769;-0.042741485;0.015694825;0.050204832;0.11585073;-0.010121059;-0.082892686;0.101787135;-0.017757328;0.04108167;-0.062080704;-0.06137229;-0.076060854;0.008571829;0.0034210614;0.083127856;-0.04386001;-0.015450302;0.0024290758;-0.062772885;0.26616347;-0.057728127;0.09295439;0.011763541;-0.13388571;0.042676046;-0.016418597;0.0033992182;-0.05505309;0.055414356;0.06159596;0.07958656;-0.06954807;-0.07493077;0.05209896;0.07222979;0.0058786557;0.008842115;0.15214582;0.008652732;0.06592622;-0.16091244;0.047212332;0.024129817;0.06405837;0.079212226;0.012527234;-0.005624967;-0.017497767;-0.046234008;-0.040770516;0.029746836;0.04876327;0.03596321;0.030348752;-0.041784257;0.1896614;0.09398572;0.016862007;0.092022285;-0.08502452;0.060269907;0.1002949;0.07732268;-0.07869568;0.013372285;-0.026601454;0.17476688;-0.24755985;-0.10387285;-0.05591243;0.22454157;0.0019258863;0.021804756;0.0062231366;0.09733522;-0.021271821;-0.015490921;-0.0029807016;-0.02156781;0.075101405;0.037597038;0.027788086;0.039521597;-0.051158663;0.018683156;-0.03784643;0.16164659;0.050666578;0.03201492;0.028517626;-0.038691994;-0.07738695;0.06503303;0.044957455;0.07775704;0.076816805;-0.031572804;-0.0029789575;0.044886027;0.059377044;-0.012620569;0.005098407;-0.10205785;-0.040249173;0.017888546;0.10937784;-0.10682602;-0.120673664;0.09754737;0.031775992;-0.23898402;-0.039065473;0.008592634;-0.046367463;-0.09101234;0.055396948;-0.06797428;-0.09330986;-0.022651056;-0.046680097;0.051908795;0.010615543;0.047062118;-0.025923943;-0.026993021;-0.06411473;-0.010582672;0.043222148;0.16957858;0.0718064;0.03739925;-0.069248565;0.050981075;-0.06496401;0.04458919;0.06482847;0.10885814;0.06622971;-0.079112835;-0.011508007;0.16576353;-0.016252968;0.121355765;0.014512557;-0.017413326;0.3281543;-0.040590227;-0.22827953;0.018558092;0.1722364;-0.021765953;0.027074851;-0.044589814;-0.055637702;-0.08156234;0.16829377;0.06776243;-0.054654308;0.018966928;-0.0010210773;-0.12968053;-0.07989337;0.024162885;0.06631557;0.033968367;0.092521705;0.08493773;-0.0975709;0.07481107;-0.07651304;-0.13888614;-0.046629857;0.005163117;-0.13786213;0.07303904;-0.015717786;-0.037292093;-0.17292853;-0.17425884;-0.3143431;0.049161438;-0.036425453;-0.053538587;0.068018764;-0.06083729;-0.073599584;-0.08047416;0.027890816;0.016097039;-0.012884677;0.09277722;-0.015235817;0.27116978;0.042179756;-0.02639643;-0.00018404589;0.15128157;0.090957835;-0.04866492;-0.06803201;-0.010444741;0.05525294;-0.30514672;-0.03387087;0.07889153;-0.022846228;-0.0028912392;-0.13497299;0.013854124;0.07276825;0.07978448;-0.012219522;-0.07838743;0.0076710195;0.05313696;-0.07637422;0.016928148;0.069854066;-0.11933652;0.0025189617;0.053847365;0.09640345;-0.0071178703;0.032494813;0.0049164277;-0.034507755;0.031369146;-0.13801281;-0.07052945;0.095820025;-0.022487829;-0.013196929;-0.1012748;-0.057796333;0.096305564;0.111840315;0.038465053;0.0025753172;-0.036284324;0.041498873;0.13787167;-0.03585907;0.12535368;0.023808137;0.035337288;-0.025684565;0.07375287;-0.04693078;-0.0020209672;0.042248696;-0.055787493;0.22367327;-0.08839956;-0.044638872;-0.009677435;-0.01694029;0.05218348;0.058145;0.03947405;0.20185813;0.028915558;-0.08303701;0.028343907;-0.088315256;0.007813838;0.022394726;0.095100895;0.01740172;0.08975325;-0.038775593;0.032096837;0.05920451;-0.12466782;0.024016673;-0.074399844;0.047347344;-0.071231455;-0.004997689;0.009516076;0.1060256;-0.08274019;0.0126939155;0.06243109;0.0017328939;0.026431495;-2.681226e-05;-0.042467665;0.11858751;0.10562744;-0.015271615;-0.043362506;-0.077699706;-0.062431313;0.019890612;0.02025822
0.04899258;0.029693957;-0.06976946;-0.038507137;0.057256747;-0.020224983;0.008894072;0.10600222;-0.045996603;0.0016913082;0.0679437;-0.098430626;0.26112863;-0.07874135;-0.049828038;-0.13089374;0.10876363;0.044012386;0.16029273;-0.054580174;-0.09883188;0.05040716;-0.036003288;0.092861384;-0.02221685;-0.002595799;0.0747248;0.030906243;-0.018755727;0.10191512;0.09665444;0.21724598;0.07828653;-0.06059579;0.0360505;0.06955244;0.194502;0.015793003;-0.03495962;0.02521431;0.06721332;-0.02469213;0.04638361;0.04287008;0.05490085;-0.05139403;0.0003231457;0.035384763;-0.02842443;0.023228671;-0.16228648;0.016592516;-0.009932016;0.0439082;-0.021126373;0.0036450042;0.081427686;0.061099757;-0.010190491;0.07599655;0.02283905;0.15721485;0.025183054;-0.3981702;0.041818976;0.1111361;0.10188571;0.05567207;-0.006940423;-0.048007634;-0.03773556;-0.027847823;0.07204962;0.077726446;-0.15971583;-0.04989134;0.04077016;0.23247942;0.027807334;0.0022989914;0.17150725;0.10954051;-0.008511389;0.054064695;0.101646215;-0.0098145325;0.052114684;-0.0053775646;0.13525066;0.0048534498;0.03224809;0.03738569;0.03891804;0.069246806;0.03997365;0.06488213;-0.03809184;-0.08640403;-0.021120347;-0.011189947;-0.06350637;0.0238244;0.08583861;0.13546371;0.013920461;0.09264361;-0.0037652482;0.02847621;0.06491033;-0.028534474;-0.047275502;0.085828535;0.07147695;0.027794693;-0.0013575866;0.17029192;-0.027654791;0.026817182;0.023463793;-0.03637438;-0.031897716;-0.06410408;-0.031506162;-0.006089104;0.13438942;0.048409864;-0.010878249;-0.048863575;0.007733887;-0.025826365;0.25179908;0.007927885;0.06319759;0.21066666;0.02114765;0.06622749;0.021216698;-0.22207943;0.044835385;0.14065798;0.025272857;-0.07887578;-0.2270374;0.104340434;0.05566232;0.036196265;-0.020617906;-0.0146689275;0.0691909;-0.09018966;0.05748164;-0.019373445;0.012974953;0.10641472;-0.09661218;-0.019952476;0.0749254;0.052078497;-0.06284091;-0.016980194;0.04296286;0.056054268;0.030015307;0.05557359;0.16894221;-0.014424031;-0.057403997;-0.0124303475;-0.06969758;-0.075292625;0.083691955;0.043292426;-0.03743929;0.083100915;-0.0046661776;0.02120251;0.046879996;-0.09264252;0.021596076;-0.080084026;0.060219303;-0.021255894;-0.05238555;0.029949974;-0.04564889;-0.18326573;0.067725085;-0.024889676;0.019187704;0.10003794;-0.0072198347;-0.074995026;0.07381919;0.0198686;0.00083670765;0.012507136;-0.052723937;0.08713351;0.02934048;0.072921075;-0.04455648;0.063246;0.06568889;0.37023216;0.0049854997;0.03147092;0.06285596;-0.016052317;0.00688161;-0.030695688;-0.04186145;0.13534728;-0.007662017;-0.024899568;0.009790021;0.063349694;-0.034563955;0.09472669;-0.057918392;-0.016248157;0.03389654;0.009355835;0.17727104;-0.10905017;-0.030527355;0.033928227;-0.005099827;-0.17566144;-0.044265848;-0.057127208;-0.09094367;0.034048945;-0.03739681;-0.020606684;0.04963062;0.0046879495;-0.0463722;-0.03602972;0.05922748;-0.016003968;0.048149068;0.08389686;0.061769757;-0.051088285;0.048341684;0.074369155;0.059248812;-0.10588575;0.09690466;0.08648416;0.021931656;0.059568465;0.07581946;0.03848564;0.03941616;-0.019919408;-0.064753234;0.02918966;-0.055072103;0.016497102;0.12243352;-0.108750574;-0.090066865;0.014546805;-0.011747119;0.11095397;-0.08456204;-0.045709267;0.19060779;0.129496;-0.028313266;0.002258046;0.026763763;-0.009206197;-0.01565505;0.09138577;0.15996118;0.088938184;0.08087789;-0.023719538;-0.05867268;0.09092006;-0.01561004;-0.016320754;0.058683347;0.053501062;-0.022818556;0.08053675;-0.020961324;0.1396637;-0.0038612897;-0.19996333;-0.079071976;0.004854627;-0.024662625;-0.01628103;0.03419037;0.059907716;-0.015668051;-0.052170318;0.17409483;-0.036855727;0.060309235;-0.15980577;0.039034326;0.004396292;0.050885238;0.06771706;0.060192525;-0.01649047;0.010125741;0.047715466;-0.027370857;0.0992367;-0.020905929;-0.07415822;0.012167485;0.08037442;-0.01145985;0.013219254;0.04446998;0.08106822;0.03932811;-0.045804065;0.053760346;-0.03369579;0.08835004;0.00862341;0.05871409;0.048570443;-0.05939657;-0.013367886;-0.03465747;0.084708974;0.038386617;-0.064414695;-0.060016602;-0.07122549;0.018843181;-0.021570921;-0.06751914;0.033054076;-0.06927721;-0.07751155;0.0554329;-0.06974733;0.03204347;-0.09046416;-0.1853597;-0.048686333;-0.095124;0.13505109;-0.016163452;-0.017300993;0.059987113;-0.06074931;0.09505861;-0.04564515;-0.039229967;0.09317959;0.034399454;-0.0030589718;0.096352585;0.08471654;-0.0010257682;0.07721019;-0.013887072;-0.1413211;0.06815673;-0.032471493;0.09712147;0.053013623;-0.070529915;-0.028712146;-0.022115773;-0.009109088;-0.062491503;-0.030108968;0.030921323;-0.09776992;-0.0994725;0.07246772;-0.03264326;-0.024435878;-0.05441201;0.06668206;0.07099421;0.083374865;0.028573582;-0.1647586;-0.019074725;-0.11308859;-0.030265834;-0.032534726;-0.035271216;-0.08301975;0.04515444;-0.024394667;-0.11759873;-0.035284363;-0.0786382;0.023236796;-0.07130514;0.037526317;0.022131706;0.058020595;-0.08478234;-0.08166775;-0.08138688;0.09701832;0.13782723;0.057756025;0.0006471518;-0.13506307;0.076695666;-0.08960609;-0.030434193;0.0820125;-0.030204134;-0.015693154;0.03618333;0.2601577;-0.058917582;-0.065573104;0.047374003;0.045717873;0.21526478;-0.04158472;-0.4355753;0.021140326;0.029831355;0.0012160037;0.009328518;0.007249016;-0.084578745;0.014286875;0.19030938;-0.020617792;0.06775082;-0.03312021;0.031218864;-0.06595279;0.14408915;0.022198884;0.08226652;0.0033807922;0.0070987283;0.0927729;0.0709782;-0.03380419;-0.046620544;-0.052178044;0.088917725;0.019099792;-0.07615517;0.081801616;-0.08646134;-0.014341956;-0.028700717;-0.064034365;-0.3037349;-0.011870129;-0.08458961;-0.04717801;0.030235186;-0.063191734;0.1709684;0.022481788;-0.04130155;0.12943336;-0.03998116;0.0979834;-0.12186551;0.06603398;0.10788337;0.019251524;0.10121458;0.067838304;0.024822976;-0.0058306665;-0.0028412924;0.11133062;-0.06689641;-0.035666093;0.13813727;0.14725679;0.0671997;0.017031936;0.004397594;0.029356569;0.14798781;-0.012867549;-0.029448472;0.1066789;0.04824728;0.04234938;-0.0606796;-0.05792751;-0.014265056;-0.09644731;0.026853396;-0.0620577;0.18724085;-0.12365209;-0.016386662;0.0076981788;-0.022796763;0.09995953;0.012668551;0.060670894;-0.074499205;0.06259091;0.075741865;-0.047005136;-0.01074012;-0.094857134;-0.009132776;-0.057417314;0.08337087;-0.0019379896;-0.121701084;-0.16271819;0.047097564;-0.019524423;0.019546209;0.111049235;-0.044750012;0.016177084;-0.01230739;0.033694107;0.18781811;-0.02177041;0.08529588;0.0606409;-0.011512354;-0.17006242;-0.025931098;0.10925056;0.053560164;-0.046342354;0.033680104;-0.003664692;-0.049565032;0.082470424;0.03550637;-0.048364792;-0.045713916;0.023897342;0.03357537;0.026366284;0.106701165;0.04412818;-0.054955352;-0.18214679;0.098123886;-0.06542323;0.027267814;0.085559644;0.033180602;-0.020195924;0.11714749;0.033362437;0.042317312;0.004047696;0.027344;0.08187394;-0.0056231655;0.06915006;0.010284588;-0.031964626;-0.01264871;-0.05137691;-0.08541441;0.070711195;0.07247772;0.04346325
0.07984483;-0.08019589;-0.009307775;-0.04662364;-0.014540177;-0.076434575;-0.04886538;0.002481839;0.024870891;-0.06569802;0.0105553735;-0.29726368;0.25598592;-0.07396703;0.04753993;-0.09996575;-0.048988752;0.023337796;0.04534939;-0.06920986;-0.049439542;0.10182209;0.10224016;0.11495139;-0.012708852;-0.12412257;-0.06729397;0.07760423;-0.06840906;0.09862893;0.077611625;0.34562033;0.06487684;0.16008848;0.028662115;0.016259711;0.12522955;-0.0031391503;0.034588672;-0.09253666;-0.023063296;0.079997346;-0.105568305;-0.07808345;0.11933463;-0.03744642;0.04494042;0.062529385;0.046194214;0.14900705;0.022686237;-0.043261465;0.01588228;0.07511381;0.20603894;-0.034013495;-0.0042917896;-0.16354229;-0.04076735;0.07942134;0.053379834;0.05775922;0.24056;-0.33417583;0.117502674;0.055866614;0.09855462;-0.019688046;0.04404784;-0.014609897;-0.07662214;0.014580252;0.044632196;-0.04434173;0.026244147;-0.15853426;-0.08297191;0.13913707;0.09934;0.0042135697;0.12021387;0.07371221;0.10203644;0.013110893;0.29583648;-0.109687895;0.13630408;0.050577544;-0.06813555;-0.03962318;0.05808524;-0.14236443;0.054992303;0.044660345;0.21826516;-0.032341216;0.09846651;-0.022648755;0.19653143;0.0755887;-0.0028234762;0.012797457;0.15043321;0.13458419;0.042444326;-0.0028264357;-0.01648401;-0.07700321;-0.036594443;-0.11126795;0.08218735;0.06426342;0.025044;-0.020459821;0.047008835;-0.06248166;0.0042755306;0.061384704;0.01753966;-0.0009661502;0.102913745;-0.10054095;0.060559597;-0.058684587;0.15439641;0.063402355;0.06504659;0.022152707;0.025505878;0.02509201;0.08789583;-0.016771715;0.0026391794;0.2281398;-0.014149097;-0.012236342;-0.018965524;-0.049172316;0.048299808;0.02199074;-0.01928711;0.05141586;-0.23582183;0.12656744;-0.12983903;-0.04482155;0.042974528;-0.04273745;-0.004431646;0.060822908;0.1222384;-0.065426044;0.030892428;0.17176887;-0.020807019;-0.062077984;-0.01607654;0.044587158;0.049233675;-0.040120624;-0.0061886273;0.19222473;0.1709711;-0.09462663;0.055460643;0.19763565;-0.060797773;0.07452916;-0.05735532;0.052507654;-0.03021839;-0.064157374;-0.064950004;0.057485513;-0.0724602;-0.047913693;0.025127854;-0.05277464;0.054157075;0.071230516;0.052138306;-0.0017417558;-0.084327035;-0.01864644;0.03260347;-0.009912389;0.016125068;0.23325823;0.07483266;0.054918505;0.024375826;0.13444318;-0.0580383;-0.06699775;-0.020855026;-0.06802235;0.009636546;0.023969466;0.0298972;0.058565643;-0.056707926;-0.0755673;0.052319724;0.20095937;0.19924483;0.008256978;0.061976746;0.23832211;0.01515979;-0.012484953;-0.07095455;-0.036837127;0.0077578886;0.008457523;-0.21457243;-0.05162104;-0.014625286;0.08367092;0.040644;-0.027773742;-0.086935304;-0.030174421;0.06678961;-0.10221627;0.19984387;-0.045313895;-0.05381974;-0.14917092;0.20044054;-0.07959751;-0.062262222;-0.014144436;-0.09297665;-0.05896289;-0.054928243;0.00089674036;0.010515576;0.011099544;0.08709293;0.0018031639;-0.06953098;0.075331055;0.22173683;-0.076481566;0.07596458;-0.01873616;0.0519989;0.053262953;-0.0070877722;-0.12080028;-0.052006923;0.07774749;0.061938982;0.13339104;-0.066482626;0.017856287;-0.0936128;0.07894886;0.05539215;0.09978388;0.0034826274;-0.19785264;0.055474553;0.00922823;-0.016313948;0.03359898;0.13153958;-0.0073071644;0.06371126;0.020510636;-0.046722032;0.03404846;0.05143252;-0.104456484;0.01300422;-0.0064755236;0.09717623;-0.032376632;0.028641507;0.043952703;0.048156504;0.030331243;0.04944501;-0.021298863;0.093427844;-0.019259045;-0.03968226;-0.0052707954;-0.02497754;0.036277372;0.06541974;-0.03337133;0.13332175;0.09950422;0.0601808;0.06771958;-0.08779595;0.065190405;0.015545239;0.055382356;0.08146551;-0.39892343;0.0110965315;-0.081871204;0.10344577;0.096954815;0.082233876;-0.031112792;-0.055071067;-0.02555999;0.11856458;0.046523046;0.023733377;0.03423712;0.020747242;-0.040822875;-0.046542242;-0.08272164;-0.12541799;0.20133516;0.0127479015;-0.17164204;0.03418206;-0.015510348;-0.041063927;-0.14632078;0.023990663;-0.0026018568;0.012728313;0.09670433;0.0024000572;-0.068222046;-0.059593417;-0.04423552;0.029666478;-0.23227401;-0.10432266;-0.024635036;0.07415946;0.0800745;0.079161465;-0.024501424;0.041105278;-0.14285095;0.048361707;-0.0269652;0.08555557;0.042064864;-0.21097907;0.040813807;-0.014289271;0.21308641;-0.06888041;-0.009953091;0.095482856;0.08340091;0.10183355;-0.044143323;-0.07110749;0.18265423;-0.0065184333;-0.017588839;-0.13472575;0.016285898;-0.009718228;0.01736024;0.03857089;-0.19255593;0.02239332;0.059462186;0.044738702;0.06371876;-0.15868229;0.08102677;0.114349395;-0.026072176;0.08420841;0.06347625;0.024265608;-0.034279585;-0.069574535;-0.01796795;0.09193009;0.09150607;0.0146117285;0.04747132;-0.045637883;0.13734266;0.06452339;-0.12925494;0.03657645;-0.026269728;-0.028415177;0.07035403;-0.01540046;0.057361107;-0.011149002;0.048016082;-0.16616946;0.027198015;-0.046075568;0.087786384;-0.09583015;0.033679944;-0.057721283;0.040870875;-0.07449471;-0.08280422;0.01267313;0.16823249;0.09522268;0.116971254;-0.05815988;0.05457966;0.06580492;-0.067557685;0.087576866;0.08476911;0.030756384;0.054443043;0.08337832;0.105548725;0.013961306;-0.013374382;0.09180772;0.07615056;0.19035777;0.028564265;-0.5439948;-0.095605105;-0.112606995;0.087218195;-0.017612819;0.010924706;-0.068524465;0.019026864;0.17458853;-0.026357284;-0.03782064;0.05084779;-0.047300544;-0.092134885;0.2905034;-0.0788489;-0.026737217;0.12926477;-0.09877763;0.030410308;0.049336493;-0.012122642;0.036710702;-0.03255228;0.04738636;0.0058729458;0.00049061945;0.037700593;0.023178933;0.08635539;-0.12204728;-0.042474408;-0.2628486;-0.03340957;-0.028900083;-0.04738465;0.03048166;-0.23870924;0.12602164;-0.004039843;-0.0088243885;0.06951055;0.036039427;0.07957389;-0.28884742;-0.1287788;-0.00020858398;0.005171816;0.06389297;0.0015924143;0.05970643;0.012598816;0.028500792;0.043683633;0.05995499;0.07565152;0.004096377;-0.07793379;0.035513785;-0.021363042;0.09526538;0.09487038;-0.067434646;0.14931871;-0.008564885;0.13477217;-0.057041682;0.009314873;-0.05678481;0.11135341;0.07540075;0.105317235;0.10290674;0.050619528;0.17800093;-0.09352197;-0.00095096446;0.06939359;0.057326;0.0003925613;0.10891313;0.025353938;-0.047507394;0.2370996;0.09705862;0.04063968;-0.030807551;-0.08918515;0.06407465;-0.04797521;0.2225412;-0.06121262;-0.17563324;-0.23912159;-0.06433045;-0.08531084;0.06602371;-0.023403568;-0.03967046;0.037547447;0.023925008;0.025766386;0.31455165;0.019498868;0.07952797;0.006496867;0.025514172;-0.022120053;0.056154486;0.01283163;0.0117095085;-0.08785573;0.105068766;-0.03380272;-0.0101945875;0.08486814;0.031138748;0.006710043;0.06913925;-0.031116966;0.011896966;-0.06053582;-0.029303024;0.10997668;-0.013576817;0.09986135;-0.04768011;-0.025421115;0.08382689;0.0900596;0.005298081;0.07102883;-0.055985454;0.14493944;0.21281147;-0.011858651;-0.0020359834;-0.089908086;-0.082653224;-0.038213927;-0.11547844;0.06661396;-0.020499963;-0.060289018;0.056720354;-0.014998975;-0.08056351;0.053621914
-0.051818583;0.029050538;-0.098159224;0.06277639;-0.058622196;0.034354065;-0.010323784;-0.04164703;-0.05773225;-0.003782669;-0.023308696;0.12475348;0.06465595;-0.08604659;0.006606554;-0.1823788;-0.076596946;0.06376239;0.20203339;0.060078602;0.033809956;0.05001566;0.018720344;0.1979367;0.10100734;-0.2800411;-0.05125003;0.058329646;0.04242221;0.030016294;0.22682497;0.32899073;-0.018153576;-0.116234995;0.065524735;0.028051762;0.03832287;-0.08675832;0.049017876;0.110013165;0.052416496;0.07932744;-0.061542694;-0.10473305;-0.123372845;0.03498465;0.11649678;0.06438124;-0.06699494;-0.006725789;-0.2376467;-0.094127074;-0.034725673;-0.0083383825;0.0673536;0.031243801;0.0699869;-0.07016228;0.051164728;0.07258512;-0.12865523;0.26834914;0.06490836;0.0014184794;0.09434295;0.08154295;-0.15333448;0.041864313;0.08480017;0.026547158;0.0541858;0.03047619;0.07878344;0.025415167;-0.053207934;-0.08782798;0.0026143044;0.282102;-0.12580411;0.082165085;0.08654928;0.080156595;0.0027940008;-0.06141172;0.3136419;0.009768731;0.007430368;0.022586115;-0.010464168;0.085575975;0.04421368;0.19190691;-0.010611036;-0.034262452;0.043284833;0.029216163;0.18015812;0.031869482;-0.18640667;0.016187903;0.009492039;-0.049132477;0.14586976;-0.03077929;0.051334564;0.031986047;0.07059061;0.034468856;0.062801465;-0.02987207;0.046391323;-0.06199897;-0.00931887;0.01398542;0.09140194;0.009852019;-0.007218;-0.03015662;-0.08646853;0.03424107;-0.056887057;-0.04037959;0.013040907;-0.027544597;0.20226872;0.019182727;-0.015311209;-0.014901264;-0.011563573;0.07185935;0.31804913;0.0779807;-0.051275544;0.14914128;0.07774826;0.21450812;0.028149558;-0.09413575;0.24014916;0.14029229;-0.08110118;-0.044260856;-0.09372091;0.16991526;0.12942673;0.05057314;0.13689108;-0.1018575;0.049600672;-0.10336094;0.05773549;0.08314133;-0.021357805;-0.26021022;-0.00979476;0.019553218;0.053618785;0.12977093;-0.0033139316;-0.09912881;-0.038244262;-0.103601106;0.058457363;-0.0869837;0.32142344;0.11669131;-0.036783416;-0.085515074;0.030256303;0.026883004;0.058642842;0.0385209;0.035947025;-0.050728668;0.025589434;-0.02066053;-0.01995506;0.025653105;0.026000643;-0.007215133;-0.08173573;-0.0025990566;-0.2142975;-0.043315165;-0.11912982;0.04678601;0.020089682;0.12682858;-0.0053798067;-0.06921579;-0.008964772;-0.115281254;0.0074624545;0.00836914;0.026374308;-0.017283242;0.09055243;0.124710776;0.16957681;0.0032716272;0.011304813;0.021034786;-0.06286386;0.16667978;-0.15486543;-0.057854943;0.03317496;-0.12590784;0.09312524;-0.01971453;-0.06319732;-0.13807343;-0.018416248;0.043730546;-0.050265964;0.07822474;0.10222443;-0.08160913;0.058116242;-0.017243396;-0.024423545;-0.014723649;0.024740452;-0.06897466;-0.05122115;0.120783366;0.044906963;-0.15620564;0.21291028;0.09905973;-0.0015190936;0.06907665;0.060257297;-0.036081616;-0.117141865;0.03062018;0.053150665;-0.08757736;0.07501168;-0.011335251;-0.011568074;0.050900664;0.107315436;0.023006434;0.011652691;-0.047927774;0.04249694;0.0675067;0.1266016;0.1847417;-0.048261233;0.0025944586;0.005620593;0.08259782;-0.00032839147;-0.101505734;-0.033598922;0.041993383;-0.07248161;0.12766436;0.13076136;-0.012749658;-0.04956289;-0.02202471;-0.11278448;0.01838542;0.20365119;0.1377533;0.09917169;-0.047489665;0.0015087972;0.11271232;0.04259156;-0.08615009;-0.044024248;0.08789798;0.22247827;0.026142595;0.09709387;0.052526172;-0.04952373;-0.006522628;0.08236034;0.04271328;-0.018369464;0.06604909;0.09681083;0.10286684;0.04045812;0.27407882;0.042496506;-0.05233211;-0.15404142;-0.114034384;0.07262818;-0.01465846;0.014970992;-0.061505985;-0.09716208;-0.10407586;0.1722426;0.03319223;-0.10552675;-0.23503466;0.17835103;0.032881428;0.0035914085;-0.043652073;-0.04501601;0.09378112;-0.097871654;0.006026849;0.037848905;0.048857838;-0.024341322;-0.024696356;-0.010825051;0.051170215;0.06791466;0.20768122;-0.04053694;0.023707911;-0.04720441;-0.060621876;-0.022882573;0.09621386;0.0982602;0.12186046;-0.041936174;0.42979887;0.044341546;0.07009444;0.07955597;0.049445454;-0.026630685;-0.08538076;0.038330037;-0.0020909426;0.04571707;0.07012229;-0.07574969;0.09870413;0.07892171;0.023601906;0.009992925;-0.07027633;0.10472542;-0.12144216;-0.022913152;0.05957327;0.048081152;0.10897493;0.058204148;-0.020078527;-0.043983575;0.021467641;0.1554757;-0.08681751;-0.09016498;-0.1485935;0.17303799;-0.10910622;-0.12429198;0.016168881;-0.10735875;-0.059636965;0.017058784;0.05147081;0.12914796;0.021133343;0.08694703;0.2540926;-0.0049705603;0.12433343;-0.057430938;-0.046078235;-0.0014339461;0.009782184;-0.119994216;-0.18503317;0.025456032;0.057167176;-0.048580196;0.044514224;0.03514783;-0.109915316;0.05353337;0.012364694;0.014490608;0.19696581;-0.0044822944;-0.29187238;-0.0028367492;0.00368436;-0.0028062726;-0.02165081;-0.07841289;0.079512104;-0.1526993;-0.06023007;-0.106672525;0.05340001;-0.09096445;-0.008853431;0.0897466;-0.015043908;0.029302238;0.015539366;0.033858806;-0.018793683;0.1610352;0.21795012;-0.012395801;-0.0558224;0.057217106;-0.013845659;-0.09179241;0.016708894;0.10984485;-0.01742073;0.024232425;0.18972772;-0.059939817;0.0051135756;-0.055933;-0.0030925076;0.19959475;-0.06364918;-0.25446892;-0.075618125;0.18699113;-0.0053978874;-0.0074668587;-0.0011741105;0.09430244;0.053059533;0.10893522;0.014952346;0.057362303;0.08667722;0.12683277;-0.04769268;-0.08226845;0.082148306;0.06390748;-0.23578541;-0.01381596;-0.078480095;0.1505084;0.024814362;-0.035897527;0.006296086;-0.04205463;-0.04231764;0.014918355;0.06399214;-0.12998343;0.061597306;-0.015089534;-0.13359334;-0.061081413;0.030128177;-0.023200264;0.05973806;0.033973794;-0.08433545;0.26119304;-0.011584937;0.019148322;0.032902967;0.044215426;-0.0911813;-0.06871035;-0.21402052;-0.063954264;-0.057134777;-0.039429154;0.077950925;-0.03466739;0.057862468;0.09806617;-0.022282226;-0.043413687;-0.10363964;0.009415993;0.05492357;-0.10032255;-0.00322383;-0.11800897;-0.04905517;0.028838646;0.034760103;-0.0004412846;-0.07623242;0.0065415306;-0.07812441;0.066468716;-0.05834098;-0.074468225;-0.056079663;-0.064312525;0.022586167;0.27572313;-0.038484324;0.020401994;-0.058765423;-0.04608708;0.067276634;-0.044685584;-0.039833546;0.08423012;0.096398935;0.059600513;0.0077095455;-0.07703869;-0.0846831;0.12917693;-0.021558825;0.062012773;-0.048838977;-0.10876566;-0.0744133;0.026046967;0.008306873;-0.0036875329;-0.08219997;0.040581863;-0.037586093;-0.044685397;0.005033367;0.07915768;-0.0060192263;0.033230096;0.020829082;0.11835587;-0.08652669;0.10196687;0.17281456;-0.13400553;-0.020242563;0.3408667;0.032044057;0.030114366;0.07886932;-0.062362067;0.07499488;-0.038309593;0.051637188;-0.105772614;-0.027887614;0.08682243;0.060947377;-0.005862607;-0.09282727;-0.011665683;0.0043446003;0.01752801;0.08788506;0.109390005;-0.10957499;-0.013820734;0.057024244;-0.14988042;-0.05328421;-0.033332665;-0.0012993193;-0.024987802;-0.07914415;0.042285122;0.010589581;-0.03917275;-0.050870832;-0.1483216;0.06059274;-0.032044597;-0.075292684
-0.012594737;-0.05269563;0.01962448;-0.013009118;0.03896374;0.026715145;-0.04228894;-0.06180077;-0.029117316;-0.067437865;0.020190597;-0.44045025;0.24082735;-0.19115575;-0.0026996078;-0.015304163;0.09781878;0.06891449;-0.058258545;-0.04605566;0.01124073;-0.03684757;0.1292013;0.1863511;0.11297642;0.16720603;0.035498295;0.091971025;-0.052958526;0.056972466;-0.11049529;0.15905507;0.039732564;0.13306774;-0.029738644;0.06892652;0.055556774;-0.032236278;-0.022447666;0.016905991;0.07274142;0.06280091;-0.014029013;0.08012207;-0.09012524;-0.06457946;0.0031838052;-0.040529527;0.06630991;0.08467786;0.073073424;0.12578015;-0.042653218;-0.11118564;0.109826155;0.063713364;-0.049148887;-0.026273167;-0.1879967;0.0043950076;0.010943139;0.02466516;-0.06385297;-0.19249715;0.070377775;0.07501594;0.05807789;0.01421156;-0.09669922;0.052914754;-0.059670072;-0.07153079;-0.057187766;0.050550807;-0.085283265;-0.04465821;0.067955196;0.055514988;-0.034258824;-0.14588231;0.11569418;0.0020661938;0.12077448;0.09973213;0.2738757;0.054008555;-0.1207351;0.03779853;-0.059878886;-0.09877242;0.07582573;-0.068737596;-0.06003767;-0.0343374;-0.07465594;0.06983722;0.026661925;0.26030684;0.04978111;-0.058468353;0.01153971;-0.021834224;0.1190206;0.05142917;-0.011761413;0.039360695;0.026004918;0.09475757;0.07015058;-0.00030094667;0.09743775;-0.015898574;0.080689564;-0.0049011293;0.03045995;-0.10881614;-0.01292874;0.06358635;-0.0065688635;0.014651991;0.0029469293;-0.057656262;0.021407513;0.010049862;0.15118225;-0.04635043;0.023222966;-0.20538363;-0.10306772;-0.015556354;0.20462102;0.027209513;-0.040996168;0.12160148;0.07066336;0.1220545;-0.12957609;-0.07646251;0.04300089;0.10650428;0.07388732;0.037768465;-0.3778574;0.06264012;-0.2603747;-0.04878274;0.04807261;-0.054300267;-0.0043207225;-0.010361871;0.019898271;-0.0875369;0.054198474;0.0010409091;-0.07557106;0.032219533;-0.04860651;0.29577488;0.05480838;0.25441876;-0.07436972;0.10150782;0.10529554;-0.10142548;-0.06902109;0.29587772;0.10021124;0.0049221534;-0.08330157;0.092803836;-0.03394093;-0.048715282;0.06817163;-0.051769882;-0.07845646;-0.03537131;0.03891842;-0.22702457;0.10385341;0.064088546;0.0042045484;0.044857603;0.10464194;0.053841434;0.040078063;0.18462284;0.08036162;0.3232116;-0.017393753;0.069420256;0.058607332;-0.024878561;-0.10043875;0.04540843;-0.0053083445;-0.0014368067;0.046065167;-0.04333674;-0.09539168;-0.0017874503;-0.10873171;-0.028917685;-0.035001244;0.020944683;0.11024579;0.021556737;-0.045422267;0.09301434;-0.0038269707;-0.0043420517;0.09458007;0.07114162;0.06670269;0.058817636;-0.48102906;-0.031763382;0.16180018;0.033539757;0.03529774;0.078995734;0.061385177;0.019739404;0.028314918;-0.10470886;0.4048887;-0.085113354;0.009315284;-0.10295016;0.24203546;0.020634847;0.035607506;0.022546388;0.046959028;-0.04746712;0.0035319373;-0.05369197;0.0071005663;0.096259646;0.047871172;0.040971708;0.0042338506;0.15813088;-0.024640169;0.006722736;0.034049436;0.07534861;0.027849052;-0.036820527;0.039782498;-0.08828224;-0.04206241;-0.033742275;0.0034101603;-0.07889372;0.04045737;-0.038038436;-0.09680959;-0.095099986;0.06200949;-0.039321028;0.015308202;-0.08810277;-0.0146468505;0.064897895;0.08320827;-0.068839066;0.31394246;-0.11034828;0.030703297;-0.0116951475;0.07569376;0.054160595;0.079268724;-0.08043259;-0.0045069205;-0.051868506;-0.03493244;-0.120748974;-0.025751805;0.038008574;-0.14187348;0.06983081;-0.037344303;-0.005001401;0.04001926;-0.11710832;-0.044674084;0.07588355;-0.047615092;0.10175182;0.08725157;0.068726994;0.16082174;-0.017027806;0.07487882;-0.11594444;0.0025368733;-0.03338268;-0.035493467;0.04533527;-0.34426218;-0.114664525;-0.052428044;-0.10413921;0.17125538;0.067001365;-0.03412363;-0.1719498;0.013334887;0.020190313;-0.044811312;0.17866012;0.0365005;-0.13747893;-0.017953727;0.030141216;0.07091001;0.029108692;-0.14451882;0.096885204;-0.038356014;-0.15808053;0.044740252;0.015633482;-0.027390184;-0.05368775;-0.07292695;-0.026916804;0.06379588;0.016556436;-0.017561337;-0.02535886;-0.1663566;0.07292443;-0.020098234;0.02675163;-0.38284925;0.0049691;0.035609372;-0.0769547;0.005529798;-0.03318233;-0.027713975;0.03541801;-0.041081876;0.064495094;0.061440658;-0.17830409;-0.18026087;0.036976665;0.19800091;0.06710806;-0.019230466;0.07920069;-0.0555547;0.018652042;0.004231934;-0.096138865;0.057159796;-0.076358505;-0.06396559;0.034583244;-0.16120951;-0.019076267;0.028480059;-0.028759016;-0.07477799;-0.36212438;0.01196494;0.030705953;-0.017554883;0.15668622;-0.20268796;0.40325552;-0.06139903;0.0817046;0.048580185;0.050307874;-0.14158593;-0.09486808;0.06303922;0.036025185;-0.032554545;-0.031067986;0.006994238;-0.08567249;0.0016966915;0.007659224;0.05640157;-0.115614966;-0.06846061;0.15208976;0.047303554;0.080671094;-0.06812841;-0.10486334;-0.0563469;0.06009835;-0.041702084;-0.10894585;-0.05984356;-0.0745989;0.016892387;0.08401059;0.03318948;0.062145364;0.20850898;-0.04885483;-0.0012045052;0.21696451;0.105072886;0.017700251;-0.01573642;0.056446426;0.06310121;0.049007002;-0.005778733;0.18149416;0.032858893;0.0028350276;-0.0072679343;-0.018086655;0.0027920702;-0.04749707;-0.18912931;-0.04488685;0.07993152;-0.00983631;-0.5211779;0.06360087;-0.1566326;-0.025035996;0.023110628;-0.07454243;-0.009169693;0.017614475;0.16352542;0.061634414;0.06620437;-0.026448127;0.12539378;0.26982978;-0.032849517;-0.12117741;-0.010511288;-0.21792445;-0.02579325;-0.10147562;0.045752354;-0.06325244;-0.033415228;0.253819;0.03995282;0.015561079;0.08881003;-0.012267305;0.091128774;0.13691407;-0.04300873;0.24771896;-0.2937133;-0.14815024;0.08492677;0.024636293;-0.04236635;-0.3077113;0.19306952;0.04701583;0.069075555;-0.0053677782;0.0029863191;-0.19714677;-0.605085;-0.078028336;0.04173909;0.013783244;0.015330218;-0.063688375;0.02157481;0.032869834;-0.04511077;0.080563985;-0.10128838;0.15889215;0.018499848;0.036579262;0.08333274;-0.015660431;-0.077499084;-0.016067645;-0.111134075;0.029901175;0.018380819;-0.08858603;0.024597378;-0.08036966;-0.0675838;-0.071378216;-0.059073232;-0.07959938;0.043479722;0.01694223;0.098052844;-0.015639473;0.029721502;-0.10283251;-0.008926818;-0.04712207;-0.08646815;-0.013870118;-0.12667315;0.19732226;-0.067155495;-0.0981473;0.10235966;0.008904783;0.0025302325;-0.0493833;0.13260883;0.11658565;-0.09312621;-0.17849725;0.028548209;-0.12546238;0.11570379;-0.20471132;-0.024099233;0.042792868;0.07963861;-0.10808645;0.025651831;-0.06145693;0.11897758;0.041022018;0.027715454;-0.026387649;-0.027053064;0.19196549;0.014607648;-0.07014919;0.16397138;0.010988545;0.023692634;-0.056222554;-0.22029923;0.010652535;-0.016117549;-0.018123223;0.0015401824;0.022881962;-0.046657644;0.05135252;0.17593496;0.35633352;-0.059519727;-0.054731205;0.047731042;0.049067635;0.033695858;-0.092609026;-0.020252574;0.06912132;0.10740648;-0.0065955836;-0.039193477;-0.028529396;-0.03281579;-0.012242994;-0.01832653;-0.020495398;0.009064598;0.044960007;0.23560734;0.040675655;-0.0066789743;0.016451305
-0.08705499;-0.055373657;0.068156935;0.018770773;0.013126953;0.046463672;0.03714678;0.003103672;0.08342161;-0.017473139;0.014813029;0.10194356;0.0073036663;-0.1156674;-0.09953998;-0.074034415;-0.22900508;0.12308954;0.17337821;0.038504485;-0.0015739532;-0.029560627;-0.026054565;0.015254057;-0.029929897;-0.088091575;-0.020398743;0.16283517;0.055029463;0.00039810676;0.11212903;0.104426526;-0.08847083;-0.07115219;-0.02317733;-0.13556539;-0.17824322;-0.13290273;0.08601361;-0.1041114;-0.053168915;0.006558725;-0.095656924;-0.067780055;0.060105007;0.02589012;0.0989929;-0.082031876;-0.083850265;0.095752284;-0.10462921;-0.11038468;0.042198192;-0.17955904;-0.043242406;-0.008126579;-0.18028171;0.04350845;0.002217691;-0.051457487;-0.042393547;0.053087726;-0.044523757;0.29345348;0.07019581;0.018343018;0.049764603;-0.10930829;-0.09468962;0.1037384;-0.044457816;-0.00074622274;0.037664726;-0.06874363;-0.0019548559;0.3211017;0.014544677;0.045909412;-0.021227539;-0.099497676;0.11562384;-0.003939224;0.0061048702;-0.0003834336;0.1780304;0.06694537;0.12307962;-0.051623225;-0.03188729;-0.054213956;-0.05561778;0.18607165;0.054779347;-0.04398701;-0.20442592;-0.049803972;-0.023981528;0.059877377;-0.15208462;-0.023310365;0.013753319;-0.0004758873;0.009473618;-0.11402167;0.021428006;0.068960436;-0.024747351;-0.038110577;-0.03928124;-0.0021252686;0.09075129;0.058225203;-0.015721887;0.003683255;0.039390214;-0.15028812;-0.016207563;0.03217773;0.03016657;-0.018104432;0.035477426;0.0062183123;0.081885085;-0.08496399;0.27805427;-0.06551399;0.021941192;-0.13446954;-0.058369905;-0.051283613;0.17989689;-0.015622376;-0.12651928;0.10042311;-0.007952045;0.2430041;0.26936817;-0.15948847;0.009597789;0.1654012;0.008178193;-0.013069598;0.0056022783;0.08317529;-0.03150792;0.011894621;0.05934374;0.0712507;-0.020093096;-0.019665325;0.19357015;0.026595626;-0.09673987;-0.20617187;0.15745844;-0.06764183;0.03336968;0.350164;0.029331107;-0.21201235;-0.02755882;-0.11437616;-0.09898856;0.017568553;0.07248635;0.13792309;0.1293385;0.090724126;-0.016477084;0.009417524;0.01389605;-0.039270755;0.015246024;0.07279281;0.02827846;0.050870355;-0.019873923;-0.3657996;0.009373374;0.022861004;-0.10238152;0.074868664;0.090728015;-0.06529471;-0.052494217;0.12014897;-0.04122123;-0.14144883;0.06305073;0.03419203;-0.060030915;-0.18534984;0.07956084;0.0596568;-0.016962232;0.07980518;0.08140133;-0.035212938;0.22064193;-0.10680319;-0.08295418;0.0022542803;-0.029923111;0.05648929;-0.19675514;-0.0455956;0.009011489;-0.15394475;-0.030574843;0.07532747;0.09533428;-0.20571835;0.0063219024;0.049718387;-0.19814225;-0.05075993;0.005734136;-0.046800036;0.07172377;-0.039795272;0.03296561;0.008508519;0.019588746;-0.14817213;-0.014932864;-0.011862854;0.060305756;-0.1512161;0.08563094;0.08871124;-0.023555245;0.06152812;0.013487642;-0.07836784;-0.21586715;0.058729716;0.05846275;-0.03658461;0.008904255;0.107469715;-0.023020044;0.012460739;-0.13685703;0.077553205;0.017928189;-0.0105577875;0.13839777;0.06680567;-0.038800605;0.10668457;0.03329565;-0.059425365;0.044250272;-0.011994177;0.05847307;0.04115326;0.06485312;-0.04889804;-0.011969752;0.17607637;0.0034825692;-0.05840236;0.016454816;0.025122656;0.06666327;-0.1851563;0.10334134;0.074495845;0.14322601;-0.059693642;0.042216893;0.058381844;-0.10006792;-0.27856225;0.05610853;0.008015974;0.0028829933;0.00091701245;-0.016955044;-0.0022926698;-0.25097576;0.06465945;-0.022858221;0.045270555;-0.020963028;-0.026366454;0.15152372;0.078263335;0.06790799;0.24840456;0.05478264;-0.18919246;-0.026769906;0.07728685;0.0033832265;0.05209147;0.041592825;-0.012013426;0.04583952;0.038585007;-0.13852456;0.17984122;-0.047695134;-0.17325321;0.008347832;0.06412902;-0.15273859;-0.011703831;-0.009496671;0.005820187;-0.013276343;0.27126646;0.02051373;0.01641873;0.07293994;0.040809017;0.08324217;0.06514467;-0.08444811;0.007987384;-0.04678521;0.022702035;0.15134792;0.03602504;0.04345701;0.15551093;-0.042039543;0.08009812;0.008893049;0.27933976;0.017793987;-0.030375479;-0.006958321;-0.024054212;-0.003329861;0.11760384;0.07850506;0.020671517;-0.05055909;-0.049741197;0.06725956;-0.041321423;0.06076637;0.041984163;0.008551038;-0.023806239;-0.034827594;-0.0923667;0.037948962;0.028678285;0.010941432;0.019819165;-0.08412121;-0.013491185;-0.08304923;0.035048187;0.09308791;-0.036882933;0.1089233;-0.20617364;-0.031335246;0.064410806;-0.30898312;0.08465255;0.04814141;-0.014539085;0.02927854;0.10533578;0.004132213;-0.03777975;0.005828435;0.3006535;0.12968852;0.095227495;-0.0034178086;-0.038922977;-0.07425043;0.0735906;-0.00215627;-0.17763339;0.15113476;0.00970597;-0.031923726;0.032358933;0.060280144;0.029735135;-0.073967926;0.031124761;-0.119193114;0.35751134;-0.04310928;-0.09750135;-0.04936506;-0.043398865;0.034363173;-0.19335319;-0.009174178;0.005600228;-0.09291774;0.024949677;0.03753731;0.020585537;-0.04562831;-0.063272;0.033906188;0.085710354;0.23057596;-0.04597946;0.028963933;0.053629633;0.09832895;0.13449523;0.072472766;-0.08184513;-0.002046405;0.012470143;-0.015171366;0.17090626;0.02301095;0.039779752;-0.05756914;-0.004823957;-0.014932883;0.053499963;-0.39272287;0.026333282;-0.00473003;-0.022939213;-0.22817801;-0.005585154;0.016922241;-0.076165214;0.05979618;-0.013925697;0.027206317;-0.08177499;-0.05365145;0.0023770742;-0.057096057;-0.05376409;0.05088007;-0.020039663;-0.13405867;0.0253333;0.05091404;0.08653077;0.14054555;-0.18768956;0.042274993;-0.013020687;-0.043976225;-0.035682186;-0.0071407943;0.00788069;0.06409683;-0.05050093;0.07572761;0.2118245;-0.07624864;-0.15230253;-0.1426925;-0.10058688;0.056991395;0.023929989;0.012082169;0.09011314;0.07146609;0.052121658;0.12778814;-0.021389466;-0.08835388;-0.16377236;-0.045701675;-0.0646684;0.041859828;-0.07770961;0.0700493;0.07991913;-0.02079847;0.093862124;0.141361;0.036284838;0.0007528737;-0.070347674;-0.03990047;-0.077931285;-0.08115644;-0.008032309;-0.21947105;-0.030605668;0.003805691;-0.08915352;0.025858352;-0.005260427;-0.11702974;-0.083668604;0.1543111;-0.11361766;0.034150563;-0.12716052;0.096966274;-0.18193895;0.13279709;-0.07226399;-0.036193397;-0.0139410915;-0.13491961;-0.07609637;0.05646776;0.024484746;-0.0207049;0.035172343;-0.030137999;0.020914597;-0.016844368;0.055120695;0.098471425;0.01802931;-0.09069328;-0.034013037;-0.14241458;0.059489142;0.08660729;0.019606069;0.08726198;-0.42317086;-0.028008316;-0.055040397;0.04486379;-0.02927326;0.2221533;0.030418279;-0.00053890585;0.030088468;0.06350148;-0.033929404;-0.0313525;0.14974676;-0.071650214;0.0642578;0.30845538;-0.07617015;0.17495382;-0.006496153;-0.1145526;-0.12717763;-0.022968594;-0.094323464;0.036600012;-0.016480183;0.05897818;-0.013433701;-0.050644387;-0.0676555;0.06141424;0.032150228;0.074997954;0.0014750648;0.00791785;0.030954309;-0.0939224;-0.01697601;-0.0018937455;0.020382714;-0.034902945;-0.05020638;0.086766526;-0.030130863;0.024751766;-0.06144804;0.042271297;-0.041713294;-0.1389502;-0.078308426;0.027386092;0.058661494
-0.12799469;0.051038876;-0.01978893;-0.02275711;0.048608877;0.046931203;0.007828318;0.039969876;0.052879244;0.100034505;0.050340682;0.0955372;-0.017866094;-0.115070745;-0.15813264;0.008082429;-0.16994998;0.08845457;0.058863044;0.018812582;-0.01790115;-0.070467316;-0.06985286;-0.015490421;0.086187065;-0.1895197;0.09454246;0.06294302;-0.06375895;-0.028539672;0.05928542;-0.0393881;-0.013180369;-0.1422369;0.00035235344;0.020285625;-0.18628493;-0.15229625;0.020899892;0.043204937;8.629827e-05;0.0038371996;-0.1333581;0.012466495;0.16199648;0.104982324;0.07964478;0.055981666;-0.004915148;0.017620284;-0.10425877;-0.108659975;0.10563848;-0.07186298;0.0024963417;0.045540392;-0.08587478;0.017344942;-0.045965802;-0.044368573;0.049643077;0.16422531;-0.03304668;0.22078638;0.08440607;-0.031771127;-0.0001948043;0.0102894185;0.04479792;-0.027764678;0.020626154;0.048013877;0.020702757;-0.03934416;0.08733551;0.15929495;-0.10613267;0.10775298;0.066791005;-0.09191469;0.018838273;-0.115407914;0.0053485027;0.0495066;0.027693423;0.032597963;0.19139284;0.08180123;0.02515099;-0.070199534;-0.07219593;0.22646831;0.0011119166;0.05340216;-0.11354684;0.0017433759;-0.064024076;0.035017658;-0.021750653;-0.021589035;-0.06623893;0.09343825;-0.0016100182;-0.05505675;-0.011569478;0.04701712;-0.039898697;-0.05740008;-0.0799572;0.023248078;0.020681018;0.08661793;-0.083010525;0.031819746;0.0001638585;-0.1497399;0.05982163;-0.042732514;-0.049585275;0.06353066;0.030327564;0.12203669;0.050717603;-0.013687205;0.19253582;0.07205566;0.09868454;0.00948172;-0.06838526;-0.023071602;0.18707305;-0.15069735;-0.09510163;-0.0013851619;0.032067746;0.22326274;0.097022265;-0.24750446;0.08854079;0.021499015;0.0009243853;-0.007138186;-0.010488247;0.15366367;-0.00081470504;0.093886614;0.15063973;-0.09202208;-0.005359455;0.12156026;0.16123843;0.005657456;0.03586479;-0.19406961;0.14359199;0.03510199;0.052966952;0.1488979;0.042219397;-0.2808737;0.06917998;-0.17492373;-0.3045043;0.07468618;0.044256978;0.021393646;-0.07486709;-0.0555749;-0.007070456;-0.03188449;-0.09358344;-0.010083736;0.0069286353;-0.013735043;-0.047956415;0.0031102921;-0.078445405;-0.17949118;-0.011337276;-0.039119393;0.014427525;-0.03692278;-0.030439548;-0.042795576;-0.004197616;0.113096476;-0.03263261;-0.26904133;-0.056337237;0.013640684;0.00375576;0.005932723;-0.05182615;0.019650783;0.10582416;-0.017373463;-0.031519175;-0.0754889;0.20513313;0.062028766;-0.04186455;2.908354e-05;-0.029600179;0.061350428;-0.20501505;0.026197655;-0.024591457;-0.07054537;0.07683863;0.04902354;-0.034675267;-0.062011812;-0.07275081;0.05679399;-0.15681447;-0.008743578;0.09642748;0.039997865;-0.046944123;0.07280334;0.002154441;-0.04287658;-0.17715144;-0.13645856;0.027282212;-0.02806236;-0.048176594;-0.07739325;0.17242786;0.07572438;0.024688456;0.0348818;0.08927868;-0.0280239;0.029738627;-0.005933481;-0.042699665;0.026932634;0.10756181;0.0828092;0.052222114;-0.114049286;0.003441407;0.08755158;-0.01085706;-0.06754605;0.075728506;0.07414555;0.010537398;0.059225656;0.076067865;0.027993463;0.052605983;0.1325421;0.09440215;-0.0036377145;-0.01022951;-0.13975686;-0.053464517;-0.035650685;0.07579061;0.05268281;-0.058131877;-0.04308742;0.09940862;-0.10021147;0.20831755;0.17205286;0.09381759;0.017103584;0.03975391;0.05031135;0.021068227;-0.14959466;0.0069564483;0.06352869;-0.055786867;-0.010446862;0.06253651;-0.0005294537;-0.19611509;-0.029186403;-0.054947745;0.046220344;0.04436346;0.038146507;0.04525693;-0.0818726;-0.0080208955;0.23762746;-0.04159083;-0.24150272;-0.119698144;-0.044461858;-0.0046510734;0.027017465;0.058202203;0.1232019;-0.025530858;-0.019102952;-0.15842998;-0.016777968;0.11284034;-0.20928158;0.09065654;0.00575819;-0.09141102;-0.0256843;-0.031432696;-0.0052265213;-0.023426242;0.1014877;-0.018361634;-0.03728937;-0.02046279;0.07421028;-0.010009815;-0.065458976;0.0012636941;0.049912393;0.058782175;0.12262536;0.08965706;-0.04111127;0.11447105;0.1180918;-0.10118229;-0.032650534;-0.025039997;0.35431033;0.07747405;0.035056476;-0.014828609;0.03166562;0.10790406;0.2025612;0.1811177;-0.010182225;-0.10077065;0.018052626;0.020029059;0.0657677;-0.05396671;0.13934086;0.016739016;-0.024454826;0.009168575;-0.08925576;-0.13709189;-0.062433813;-0.078668036;-0.055414166;0.029549258;0.019821541;0.012616826;0.07149565;0.020193364;0.15492547;-0.029550534;-0.048238087;-0.087858215;0.021838844;-0.22347708;-0.019822175;-0.061123967;0.030130995;0.011936052;0.2999166;-0.020755444;0.0842042;-0.009655208;0.27870932;0.09661821;0.01288339;0.04667187;0.08246259;-0.0069078393;-0.084164366;0.046928115;-0.120399065;0.052801512;0.03974181;0.10184108;0.044273548;0.021844408;0.029561702;0.028204506;0.047668677;-0.28405795;0.3665982;0.09292147;-0.09469891;0.0060224114;-0.025852552;-0.030340975;-0.15246122;0.026338326;0.038898353;-0.006540769;-0.029351521;-0.0067742914;0.01088295;-0.032868266;-0.030439192;-0.0030950578;-0.021323664;0.2751644;-0.08809375;0.013056933;-0.010500243;0.11777308;0.20218782;-0.03203354;-0.057692863;-0.0497713;-0.011929294;0.050985184;0.026928497;-0.0021132824;-0.067169964;-0.06541206;0.04620292;0.068008706;0.06252423;-0.30578166;0.057015322;-0.032378256;0.030119525;-0.07615149;0.13690662;-0.026278209;0.016680729;-0.08930629;-0.07691585;-0.00072941434;0.0602874;-0.21065693;-0.09571292;-0.013813781;-0.06606214;0.0023423126;-0.047145832;-0.11549307;0.10671473;0.04067564;0.26448402;0.042390995;-0.15491904;0.06961046;0.058159027;0.00537904;0.024391208;0.0048784507;0.020207629;0.05623891;-0.059396334;-0.017304447;0.09127361;-0.09878064;-0.2049488;0.13981527;-0.030957354;0.039893314;-0.06489924;0.06047196;0.029184014;-0.011665737;-0.008102041;-0.015337494;-0.03138632;-0.045759607;-0.24154031;-0.023052534;0.13224852;0.0026385323;-0.07974906;0.018375348;0.00095193094;0.04795583;-0.05973097;0.0079565905;-0.069773905;-0.050035175;-0.054376956;-0.04062997;-0.084297106;-0.04352996;-0.012457709;-0.08457161;-0.04429769;-0.056435496;-0.007511299;0.035275143;-0.049638875;0.018341288;0.064517915;0.1831461;0.071126886;0.062177844;-0.05573223;-0.009126374;-0.25435263;0.06396038;0.05772613;0.07106379;0.0722634;-0.058484767;-0.059531674;0.13029127;0.02682204;0.029833509;0.0026486223;-0.02115877;0.07573062;-0.028536143;0.06942664;0.01733448;0.060305856;-0.11449571;0.028151467;-0.060836576;0.03895087;-0.038929455;0.09980526;0.040571664;-0.37124696;-0.059276424;-0.072358795;-0.052629557;-0.014616349;0.06409145;0.035744723;-0.088343754;0.07257239;-0.031337827;0.019728778;0.03443895;0.08794587;-0.0075095333;0.034258947;0.22016264;-0.004668759;0.05072242;-0.001509353;-0.24743925;0.0835782;-0.008052217;-0.016662441;0.080444306;0.08453704;0.021652894;-0.009559424;-0.07528361;-0.24220996;0.0037908824;0.027819064;-0.049653724;0.029939666;0.02369243;-0.05461835;0.067781344;-0.01238184;-0.10573162;0.033527248;0.07343736;0.051715188;0.07935308;-0.035509262;0.11733418;-0.0894899;-0.024037147;0.06766646;-0.1737808;-0.06750766;0.09479901;-0.0252827
0.067457385;0.037926055;-0.012362436;0.06942765;-0.05174576;0.17869057;-0.09267788;0.015510489;0.08024497;0.011813426;-0.009654785;-0.11295023;-0.024877494;-0.07115064;-0.10776924;0.063654475;-0.14421183;-0.014247092;0.04944381;0.038755946;0.060243778;0.08213945;-0.009364874;-0.057660352;0.001826021;-0.05447117;-0.02894451;0.06936736;-0.025343454;0.13013762;-0.17705227;0.0033042452;0.0140669225;-0.04692528;0.04619523;0.060867995;-0.013104994;-0.06270442;0.0026413521;0.05017382;-0.04497185;0.10514956;0.212345;0.013400493;0.06302888;-0.08286271;0.15283434;0.0031926022;0.059164327;-0.025583405;-0.066101804;-0.054855134;0.13295421;-0.020216044;0.03222799;-0.003290362;0.07593918;-0.032522637;-0.14601234;0.06970135;0.09364659;0.027023993;0.08335325;0.054425385;-0.027447272;0.00343858;0.1329828;0.05042626;-0.018143872;-0.07006146;0.07870795;-0.01482051;0.020980055;0.04347646;0.118543655;0.1584669;0.052143425;-0.02311713;-0.07954057;0.00718461;-0.014620054;-0.075387694;0.009330273;0.08843451;0.28283256;-0.08632414;0.05970822;0.07601513;0.049673434;0.0122893285;0.0622743;0.08831091;0.01661346;-0.035624024;-0.118444905;-0.036636785;0.098757;0.2101702;-0.06818229;0.022152092;0.008493081;0.1167773;-0.057061803;0.06981433;0.084737554;-0.07935656;-0.057628885;-0.06522121;-0.057334304;-0.06014295;-0.053615462;0.05576816;0.027398331;-0.049913503;-0.04371658;-0.10661551;0.053518515;-0.06623263;-0.04126542;-0.0074945283;-0.04001573;0.101808794;-0.075065814;0.0698762;-0.20877554;0.034371085;-0.08425451;0.029828168;-0.05488676;-0.068043776;0.013588332;0.010924328;-0.09566432;0.034641184;0.04194252;0.14120652;-0.16889265;-0.14596425;0.05282593;0.13282308;-0.041216284;-0.008391782;-0.15616721;0.08209309;-0.0143045755;0.12790918;-0.017218767;-0.057625152;-0.050145302;0.07712178;-0.06753065;0.055342276;-0.10294849;-0.01716687;0.08684875;-0.07181117;-0.0525639;0.09765446;-0.043794926;-0.10854359;0.05354826;-0.044475436;-0.064581305;-0.047252156;-0.09030247;0.092671305;0.11774102;0.058299236;-0.02597208;0.058163743;0.071313806;-0.0034022452;0.008911994;-0.022573043;-0.004586196;0.07472249;0.01976221;-0.2395731;-0.047757924;0.061009012;0.027583618;-0.00813512;0.017502412;-0.0199237;-0.027154204;0.16231214;0.033687383;-0.22208199;0.01423696;-0.12744187;0.02892126;0.15498435;0.05750468;0.071776554;-0.0771952;-0.0030792614;0.06495757;0.03943072;-0.05061107;-0.05940102;-0.029153295;-0.07191163;-0.058678936;0.03898154;-0.04177104;0.0286847;-0.0864958;0.08699051;0.052411772;0.037962817;0.061849013;-0.1258785;0.08209571;-0.12543096;-0.2427994;0.062673576;0.03299665;-0.070820786;-0.014050541;-0.034208294;-0.06875521;0.046640325;-0.12288548;0.007744978;0.1869184;0.037469942;0.06973518;-0.056253135;0.2581842;0.00066585204;-0.02173493;0.019371144;0.04227836;0.08261336;-0.07308221;0.057550963;-0.09017581;0.044523705;0.051873554;0.0330598;0.059510686;-0.05455243;-0.004809276;0.035867807;0.06079237;0.040833265;0.033145584;-0.0035862934;-0.010144849;-0.119336404;0.052688066;-0.06251855;-0.027056182;0.15484217;0.09855627;0.01903751;0.038864564;0.022541603;0.08519299;0.027826365;-0.0761762;-0.07902393;-0.026702447;-0.047866143;0.044929866;-0.027928948;0.16091526;0.0393196;0.02960876;0.004338857;-0.03849828;-0.011436998;-0.043005887;-0.07868278;0.04973904;0.023666926;-0.031068277;0.06616804;-0.019117722;0.044399932;-0.18427604;0.0026757454;0.011329647;0.076910965;-0.02816455;0.0179001;0.0058945334;0.057566598;-0.090874866;0.014133361;-0.10800109;-0.0773542;0.17296022;-0.0145635735;-0.03729063;0.0069957916;0.0673108;0.06376765;0.07865994;0.053554937;-0.3043744;-0.10169138;-0.023248391;-0.038290866;0.01563005;0.0802009;0.017593917;0.061377246;-0.01216412;0.0663883;0.03908001;0.049370278;-0.06784462;0.02502898;0.0545181;0.02030067;0.08586842;-0.09600503;-0.10467769;0.04246044;0.012086486;-0.08601065;-0.15340008;0.03748921;0.019253215;0.00042251166;-0.09687855;-0.059994638;0.023044776;0.02699359;-0.066607215;0.019350844;-0.10015104;0.06769228;-0.01576398;0.018133858;0.006233998;-0.04314083;-0.08871801;0.042552132;-0.06608244;-0.0003600755;0.08830421;0.18824545;-0.033917405;0.08619636;-0.047906715;0.041852348;-0.09893252;-0.020149307;0.06501388;-0.050907563;0.060481615;0.038155843;0.026365155;0.08791126;-0.038064267;0.0027755573;0.0678461;0.04882123;-0.1508002;-0.022032885;-0.09824687;0.043482345;0.052844018;-0.07589243;0.023501644;0.09973103;-0.013919481;-0.051360026;-0.0108192805;0.08222598;-0.1292594;0.16760676;0.022647541;-0.016209548;-0.025075456;-0.0869795;-0.03930381;-0.05519439;0.031028688;-0.014948496;-0.05265192;-0.09571346;0.034389567;0.072141245;-0.028292274;0.04146021;-0.22089903;0.014646826;-0.052781224;0.06261731;0.07145908;0.011555397;0.040205125;-0.15071309;0.051169876;0.050106157;0.011814667;-0.110891506;0.125305;0.06508883;0.07050691;0.11681054;-0.07657157;-0.059371535;0.18958594;-0.018491535;-0.010553302;0.146773;-0.06369653;0.062182434;0.06465206;0.051662903;-0.07744282;0.045960013;0.07627345;0.08883338;0.047917537;0.061060168;0.04147501;-0.1627435;-0.043377377;0.045946814;-0.22786716;-0.0115253925;0.053480536;-0.022419358;-0.24042629;0.0063818274;-0.12546362;-0.033818536;0.037315466;0.04649829;0.0015284073;0.009815507;-0.025687587;-0.0031429683;0.0014977981;0.024638325;0.061132833;0.13439186;0.14095633;0.017167019;0.0115741845;0.0051353835;0.04806479;-0.10434123;0.14643131;-0.046994913;0.044977576;0.2749463;-0.08496051;0.03309395;0.12577897;-0.05338841;0.011511187;0.15619583;0.07019488;-0.07745065;0.03176289;0.015728043;0.09579602;-0.055886;0.038572572;-0.21268685;0.23978396;-0.0048030177;-0.04576418;0.032078173;0.025361534;-0.07851794;-0.056908153;0.0866745;0.14376052;-0.057097588;0.009396371;-0.05529888;-0.105469115;0.054914676;-0.018925093;-0.05773766;-0.14987862;-0.24345142;0.00908965;-0.11926082;0.035068158;0.0890948;0.104902886;-0.040590417;0.026226133;0.083727434;-0.08962582;-0.053510737;0.029684152;0.08533848;-0.15007143;0.0033207373;0.04520987;-0.20656319;-0.04934437;-0.10255599;-0.055976063;0.104909375;-0.024974147;0.05802209;0.079379484;0.014784218;-0.029305896;0.015012025;0.025473136;0.031132532;0.05546687;0.077905245;-0.013433369;-0.08597564;0.011060391;0.08003729;-0.065897286;-0.014055164;0.16800803;-0.107432194;0.017618727;0.054653574;0.1016462;-0.38055778;0.08349117;0.07333148;-0.03290774;0.062054507;-0.061236504;-0.08919914;-0.10456236;-0.124195494;-0.039091825;-0.04536918;0.06281926;-0.019471116;-0.06351448;0.059152745;0.20116092;0.054960422;-0.04502581;-0.07009022;-0.22019774;0.016235283;0.10023957;0.1002429;-0.0013036864;0.066704385;-0.023578484;0.03861298;0.051154304;0.039479412;0.05913321;-0.024729595;-0.01790572;0.049844224;0.07787984;0.019806296;0.07429242;-0.068432316;-0.08611155;-0.001276855;-0.02281907;0.015206489;0.031979784;-0.0018654888;0.007911548;-0.012278648;0.012000871;0.01965301;-0.142027;0.058540337;-0.04437147;-0.04226497
0.029414557;0.013387648;-0.048350926;0.051838994;0.1102099;0.15503506;-0.10503584;0.07403824;-0.056117915;-0.11240734;-0.08220573;0.003203108;0.08376538;0.16912411;-0.051272932;-0.029651148;-0.21146241;-0.119133316;0.17960548;-0.06450995;-0.033817973;-0.051492825;0.1539044;-0.03319629;0.087134734;-0.1547872;0.08802013;0.0645612;0.07255668;0.035665166;-0.16892721;-0.010074039;-0.033358995;0.06915317;-0.01813683;-0.10656727;-0.13093495;-0.09551923;-0.022936873;0.012427663;0.01563937;-0.059659943;0.1338958;-0.065920085;-0.01893333;-0.011580833;0.15061478;0.052149825;0.043447822;0.020563515;0.09780004;0.02834851;0.10156295;0.044173054;-0.00057365734;0.03935013;-0.04284035;-0.13486552;-0.22308412;-0.07690295;0.054707535;0.034683093;-0.016064992;0.019138208;0.0034300564;0.027840354;0.13813925;0.010941118;0.010263128;0.028874908;-0.018299121;-0.0091185225;-0.051926;0.0130398255;0.07786285;0.061653428;-0.013484275;-0.170916;0.047703024;0.032375757;-0.010778836;-0.064726494;-0.052296154;0.028003644;0.07443077;-0.05626561;-0.019545147;0.06837345;-0.048969857;0.033021666;0.08480986;0.03594751;-0.04048485;-0.009174888;-0.0025660384;0.03809203;0.005081893;0.15871386;-0.02142185;0.091047265;0.06104831;0.076155156;0.05907491;0.073693946;0.051891174;-0.021181243;0.072865434;-0.012182937;0.0066300854;-0.08077853;0.045735218;-0.015883882;-0.12907447;-0.01916876;0.030685464;-0.07064148;-0.072348475;-0.01873791;0.068580344;0.008486199;-0.027203342;0.09779063;0.015931297;-0.00038122907;-0.11964196;0.034694396;0.022048587;0.26819324;0.027730534;-0.06420711;0.10713705;0.054436494;0.0070412415;-0.010424746;0.09225282;-0.044969402;0.08721331;-0.15327114;0.0073920926;0.14709288;0.0333287;0.051423676;-0.20082642;0.03710178;-0.092949614;-0.0496287;-0.0154722845;0.0071007833;-0.06569532;-0.020025892;-0.09779999;0.061599404;0.019320132;0.15825409;-0.03505732;-0.033304326;-0.031012552;0.09607462;-0.010256428;-0.15255818;-0.011558508;0.13611451;-0.1637747;0.05451492;-0.14651869;0.0788323;0.045153737;-0.07133437;-0.1408207;-0.039693072;0.054669578;0.03631412;0.07736407;-0.06330303;-0.0038275123;0.04152162;0.036872137;-0.09689435;-0.10543892;-0.04796405;0.04236283;0.0037017385;-0.016173476;-0.029261429;0.017406328;0.2935868;0.013573891;-0.11238505;-0.0010261833;-0.10860151;-0.050304804;0.123443976;0.04273908;-0.005128966;-0.101813786;0.038406808;-0.00605622;-0.06490396;-0.0029755025;0.036069024;0.029726975;0.044786606;0.023174742;-0.031198347;-0.016894266;0.122970335;0.0036106005;0.11139079;0.010436037;-0.032464594;0.03672846;-0.03193824;0.0022539345;-0.09306993;-0.14752103;-0.0016387036;0.021497374;-0.072581075;-0.052619237;0.012186533;0.0004554957;-0.04379265;0.10461513;0.067614816;-0.04052539;0.043057933;-0.06578251;-0.03582217;0.24105436;0.06811702;0.06253741;-0.075705215;-0.06181053;-0.035512887;0.017836351;-0.040567357;-0.004391493;-0.016596446;0.14080958;0.019515302;-0.09803672;0.14613643;0.12569189;0.0036316877;0.016157312;0.070084535;0.012334585;0.039267305;-0.05238384;-0.0113004185;-0.0022197973;-0.03663116;0.029562166;-0.019652307;0.023550747;-0.056568347;-0.093041554;-0.018668627;-0.024856241;-0.22951907;-0.13779241;0.1195391;0.03285105;-0.072312534;-0.08506349;-0.08398012;0.014113784;0.0147843715;-0.14815672;-0.023118103;-0.009151863;-0.06204369;-0.07888857;-0.089662224;-0.058768045;-0.069447614;-0.21434194;0.024060644;0.12470575;-0.08659779;-0.17595692;-0.01982841;-0.0022624992;0.08023679;0.07344201;0.0020215388;-0.07279163;0.011660447;0.021358805;0.04066282;-0.091784544;-0.116767995;0.27468392;0.036369268;-0.05184145;-0.023451237;-0.010688514;-0.059944253;0.03958549;0.056111265;0.17133789;-0.17734706;-0.04154332;0.2419473;-0.07270122;-0.04313129;0.085709825;-0.072631225;-0.045910932;-0.008983041;0.008540446;0.05224276;-0.043436997;-0.0005812535;0.06650617;-0.0011111213;0.024762215;-0.027544921;-0.0260074;0.14789322;0.059095863;-0.17051147;-0.030098666;-0.053628094;-0.031673033;-0.12666896;-0.018064478;-0.021052804;0.04371135;-0.009056241;0.08311541;0.06473878;-0.051267847;0.13046162;0.0069895643;-0.07874644;-0.0028998544;0.023321554;-0.08906289;0.08605993;-0.07695081;0.047099136;-0.010010383;0.08667636;0.04903439;-0.060955476;0.013725811;0.15280282;-0.2182577;0.14392953;-0.1628095;0.07960063;0.07018585;-0.04077109;0.013684684;0.0819105;-0.05553429;-0.15347566;-0.096765675;-0.066170104;0.07448617;0.034959737;-0.23646818;-0.07199173;0.09424396;0.023371272;-0.093687415;0.07851486;0.027767308;-0.0506513;-0.041430272;-0.044908773;-0.06410514;0.2102282;0.0074542873;0.00031628614;0.03508893;0.114887014;0.080034345;-0.06606245;-0.09484201;0.11779142;0.10954404;-0.037005194;-0.016320955;0.043260362;0.0730789;0.024983814;-0.002355949;0.06008446;-0.07034787;0.28113118;0.03634978;0.01912503;-0.012677336;-0.13360788;0.00027654978;0.011862102;-0.022841873;0.058341566;0.052243013;-0.013302888;-0.042478982;-0.035357602;0.014038987;-0.077333584;0.067725554;0.011085574;0.0034941488;0.3038899;0.084268205;-0.12314086;0.05314176;-0.04913714;0.04386156;0.048672445;0.008280783;0.0061013405;0.024148963;-0.021182984;0.030902661;-0.0447093;0.024378305;-0.07929358;-0.25363258;0.0127063235;0.07382164;0.12021626;-0.034230594;0.10415295;0.058083475;-0.03728871;-0.025769241;0.008843678;0.06663155;0.010227615;-0.0006139536;0.043516137;0.02988129;-0.066652596;-0.08970096;0.1134626;0.24576938;-0.051915444;-0.02334673;0.033943985;-0.109640464;0.025892654;0.17156376;0.0016222482;0.059029862;0.081189215;0.07531169;-0.03424679;0.06681316;0.06329876;0.051870376;-0.0035560585;0.100840695;0.048349183;0.07874905;0.0074696634;-0.056222707;-0.08944864;0.06338042;-0.10480822;0.2480283;-0.04725659;0.07754882;-0.03264026;0.08794005;-0.051139574;0.02294086;0.010250173;0.022984626;-0.056231294;-0.0057777544;0.11646074;0.061111502;0.03768195;0.09260194;0.04359821;0.0943215;-0.12568519;0.051459473;-0.078676954;-0.044774525;-0.05700633;0.013886285;-0.07343795;-0.060410798;0.067642644;-0.032695558;0.12211509;0.039936546;0.021292716;-0.11710719;0.1286934;0.028889634;-0.028260596;-0.035625692;-0.15613931;0.061545882;0.23242424;0.059287842;0.050663523;0.1689354;0.032362256;0.08919561;0.012828276;-0.08426444;0.16668247;0.017497852;-0.01651091;-0.08168505;0.018592244;0.038138773;-0.017928582;0.022578722;-0.001204099;0.081602715;0.037540704;0.006139294;0.056085147;0.02646146;-0.1353991;0.07426013;0.060249355;0.0261328;-0.05860202;-0.06842846;0.02235492;-0.085024275;-0.09064144;-0.0016881409;-0.061196834;-0.07170021;0.08719385;0.07988851;0.06951661;0.03991977;0.038633015;-0.014947928;0.032067105;-0.19484237;0.16850564;-0.042173907;0.06701484;0.028192168;0.08570638;-0.082111254;-0.039058935;-0.09897565;0.020391345;-0.025837028;0.0197487;0.03951637;-0.08150017;-0.0012561363;0.043869678;-0.038686715;-0.10092588;-0.10960237;0.04070686;0.056518182;0.036123827;0.026201501;0.08813681;-0.059995305;-0.08545333;0.10474005;-0.0530637;-0.005892885;0.004728076;-0.032757305;-0.00815518
0.022053137;-0.08896327;-0.039009005;0.047853418;-0.10073112;0.19372596;0.043667715;-0.054260295;-0.04449988;0.024038563;-0.027240641;0.15412284;-0.10959697;0.085279346;-0.029321348;0.06738145;0.06498535;-0.08864887;-0.04356793;-0.044569016;0.069083944;-0.04760681;-0.07873073;-0.12990022;-0.074068986;-0.3223403;-0.044555634;0.0014865453;0.049076058;0.09466883;-0.067181185;-0.016665082;0.023171145;0.059455212;0.029140906;0.09336342;-0.39262748;0.09293367;0.0076216892;-0.047523983;-0.02985876;0.010692192;0.12713876;0.04703456;0.14910766;0.04382299;0.05807428;-0.08823941;0.08255038;-0.02414854;0.08414133;0.057137065;0.0494092;0.14452323;0.15648079;0.044634327;0.053833436;-0.100280695;-0.16788055;-0.017176412;0.08660522;0.0657806;0.15841275;0.17378679;-0.04115363;-0.07235617;-0.033825535;0.10710215;-0.0401485;-0.052449357;-0.016012039;0.06769654;0.0258958;0.0631186;0.16868769;-0.023039801;-0.026054688;-0.042069077;0.00605583;-0.032025386;-0.03729449;-0.025343973;0.08252214;-0.01923672;0.033119924;-0.09000117;0.035466254;0.042039;-0.04061318;-0.083090745;-0.008635709;-0.010204215;-0.015385117;0.0010391633;0.0019802619;-0.017568639;0.017326538;0.009132956;-0.10788866;-0.027679715;0.0986156;-0.056700364;-0.04016739;-0.24357603;0.055350557;-0.10024349;0.03321139;-0.009781492;0.01198307;-0.08789875;-0.021624174;-0.02355089;-0.12774119;0.046303015;0.05153122;-0.03456907;-0.0014541734;0.060630884;0.15399162;0.08039812;-0.07342617;-0.025201619;-0.09398648;-0.0042224396;-0.2229335;-0.012900257;-0.089595705;0.10995165;-0.032963526;0.032003798;0.027522806;-0.06907806;0.063071;-0.05779232;-0.11776186;0.10720473;0.297697;-0.06947649;-0.034267712;0.11461129;0.0030347279;-0.015143368;0.001403947;-0.03755298;0.054836802;0.09035087;0.07254845;-7.382098e-05;-0.038673997;0.11627457;0.14149518;-0.04044097;-0.08313931;0.045820758;0.09300797;0.07050824;-0.0038122628;0.0235315;0.027955405;-0.24232602;-0.0044666873;0.14162041;-0.023359975;0.00088363554;0.08670607;0.031341147;0.0071690977;0.026381021;-0.105109826;0.043527573;-0.096910566;-0.05645773;0.051311072;0.0030198575;-0.10173812;0.0013955714;0.115654044;-0.27026966;-0.09549573;0.030150305;0.06988874;-0.032756273;-0.121420026;0.032318015;-0.011625613;0.10669614;-0.044955198;-0.047285378;0.14359684;0.059090476;0.08500665;0.03436685;0.009300733;0.05063965;0.021461109;0.13258266;-0.09459735;-0.08625874;0.047473054;0.031737212;-0.061031137;0.089322545;0.024910146;-0.08729462;0.012180439;0.009914824;-0.036721125;0.026956001;0.03749169;0.02405409;0.0063322615;0.067645796;-0.021252718;0.11493856;0.036896065;-0.07295562;-0.045794554;0.024934534;-0.0482218;0.00095746043;0.03776943;0.061159447;-0.0925883;0.09319381;-0.2012216;-0.048799615;0.09511423;0.019018097;0.02688328;-0.09619291;0.0025648405;-0.07100655;-0.035095103;0.030795734;-0.13858254;0.033506125;-0.051927812;0.07439026;-0.07231878;0.071200304;0.007859995;-0.117639795;0.033114154;0.05630294;-0.06603781;0.030860035;-0.05069017;-0.120578475;0.02594691;-0.04497257;-0.034961194;-0.026869755;-0.023721723;-0.0025524474;-0.08421656;0.08309175;0.03898157;-0.07255907;0.015868986;-1.18371245e-05;-0.010380058;0.15921004;-0.03279018;0.019842563;0.07437755;0.04060304;0.004958411;-0.034412358;0.125448;0.150075;-0.09659673;-0.09498323;0.06494608;-0.18363766;0.10042634;0.00296049;-0.0079295905;-1.4005178e-05;0.005822344;0.019572096;-0.078560784;-0.057747073;-0.036208265;0.016879698;-0.043189913;0.027374765;0.04570915;-0.019669414;0.00045677336;-0.044829562;0.15537825;-0.06627028;0.10093776;-0.013029342;-0.015320301;0.10126608;0.0046434687;0.085008934;0.026714232;-0.0383645;0.2596196;0.0049818335;0.029956685;0.06355561;0.026085766;0.015580521;0.15251812;0.12130162;0.021084785;-0.0792278;0.038322467;0.14953731;0.0001262706;0.04743084;-0.0845873;-0.062036768;-0.062198907;-0.040969826;-0.0006190467;0.026398363;-0.04150785;-0.2430115;-0.20067185;-0.018059378;0.19711366;0.017818466;-0.098920494;-0.036697056;0.04507496;0.061764363;0.059974615;-0.051232483;0.0071495622;-0.03554776;-0.0026165266;0.054372344;0.06655475;-0.08155085;-0.04161528;-0.03941978;0.0816107;-0.061864793;-0.026592948;0.18458943;0.033323377;0.049963202;-0.04570765;-0.08014584;-0.05794937;0.11512964;0.02692167;-0.25533146;0.042984758;-0.09728938;0.048801024;-0.07474879;-0.13871796;-0.021360908;-0.13003746;0.121812366;0.055787038;0.012878253;-0.09442689;-0.014327895;0.018951602;0.07498826;-0.04596504;0.233968;-0.07786304;-0.023827687;-0.060311813;0.0659487;-0.055518195;-0.0050033694;0.087593846;0.067932956;0.13246484;0.008818565;0.03551;0.10294511;-0.0043249843;0.02828724;-0.019405417;-0.04271533;0.0440409;-0.026211424;0.09016454;0.07107416;0.021265915;0.2819756;0.026606489;0.074682064;0.006596652;0.028947137;0.01945457;-0.111413755;0.04336092;-0.008707606;-0.10465153;-0.013773778;0.07983788;0.09181225;0.09344731;0.070769094;-0.050451167;0.10731704;0.19288403;-0.06340954;-0.041676562;-0.07161279;0.035590097;0.1610145;-0.0048199026;0.10627711;0.075825915;0.0022288074;-0.07549343;-0.020284561;0.033204086;0.040791973;0.08721012;-0.08859875;-0.02537913;0.058034074;-0.23104979;-0.05190315;-0.21343829;0.13381244;0.10644877;-0.005756194;-0.08287252;0.06793075;0.016154882;0.01910347;0.050680596;-0.06354244;-0.25964984;0.061740283;0.025826994;0.016557941;0.03872159;0.031654704;0.15595385;0.08315043;0.002920032;0.26079413;-0.07449602;0.007651783;0.031580344;0.0075950245;0.09856542;-0.17845652;-0.0065261545;-0.060037494;-0.08990507;-0.12276851;0.028353011;0.08482071;0.24118514;-0.21281154;0.20496489;-0.060878184;-0.010596483;-0.027601583;-0.039410803;0.14668763;0.10303728;0.055813313;-0.09218778;0.042275958;0.08509665;0.051162075;0.21956494;0.055511393;0.0535405;0.038439117;-0.03412924;0.0462347;-0.108507074;-0.058062803;0.028442917;-0.04927398;-0.27867827;-0.08356792;-0.0003886162;-0.07074413;0.02482356;-0.01325005;-0.07977227;0.07343967;-0.08815806;-0.0215199;-0.061517503;0.009094518;0.13069057;-0.053368468;0.022068826;0.0030687964;-0.059064437;-0.13062473;0.030319836;-0.24816328;-0.24623327;0.13379899;0.0068668425;-0.016747283;-0.059929963;-0.00898299;-0.0017263911;0.062062755;0.043716777;0.07697545;-0.039003104;0.0028354782;-0.015556875;0.07308331;0.13098367;-0.02573764;0.04898509;0.06937952;-0.08049582;0.08582294;-0.08236459;0.16011125;0.06510176;-0.24464792;0.0015774413;-0.014486792;0.04045721;0.054874368;-0.123982444;0.1257109;-0.3080721;-0.1477708;-0.05572334;-0.16072485;-0.06571859;-0.07842024;-0.018321823;-0.04227684;0.024333067;-0.028393226;0.009410013;-0.12622523;-0.017433032;-0.06813637;0.06003304;0.08194756;0.036327086;-0.06446638;-0.11917654;-0.08262062;0.009154227;-0.12289993;0.13647303;0.05962121;0.07501274;0.06407971;-0.07906866;0.08600635;-0.056487456;-0.047878113;0.17748173;-0.05375149;-0.07761189;-0.00792602;-0.02523674;-0.051098917;-0.011873148;0.04169899;-0.0030309935;-0.006028343;0.012287506;0.012242452;0.040318713;-0.01002487
-0.21207024;0.001078138;0.012437506;0.04602611;0.072025254;0.12019756;0.008214916;-2.4230167e-06;-0.07560292;-0.1392175;-0.04102837;-0.07416135;0.06791859;0.11448236;0.047444947;-0.08179462;-0.13619128;-0.1565605;0.04298097;0.030318514;0.006170685;0.01840966;-0.06308577;-0.015083429;0.030154005;-0.25121304;0.026983386;0.093828104;0.07843936;0.083179586;-0.11792109;0.08124986;-0.09169326;0.021965673;0.0570961;0.072296806;-0.24165122;0.07147263;-0.01082404;0.11568522;-0.015965616;0.023633517;0.08804569;-0.051525984;-0.03222323;-0.05806035;0.11030511;0.067512795;-0.09272916;-0.12670562;0.03273201;0.08947831;-0.0457562;0.0133006815;0.118622065;-0.008713237;-0.07996015;-0.082100086;-0.16614592;0.065317474;0.11934326;0.20338267;0.001456664;-0.012600358;-0.11628528;0.046664685;-0.03553961;-0.021291224;-0.04885198;0.0172145;0.08982081;-0.03768762;-0.0009884347;-0.028691562;0.06622156;0.15557618;0.06976784;0.100088984;0.09806553;0.0086556915;0.009358635;-0.09852771;-0.017752439;0.047549482;0.0047513605;-0.009526007;-0.08618299;0.06420908;0.12300641;-0.07786216;-0.053876176;-0.05288202;0.07046362;-0.06608021;-0.16968854;0.049566887;-0.036972683;-0.15665713;0.006087217;-0.014221907;-0.018024081;0.025717305;0.019597417;-0.15875302;-0.07192314;-0.011903275;-0.0523468;0.005469049;-0.031057421;-0.008979616;-0.010694373;0.007604935;0.002932608;0.035846557;0.039867047;-0.07465206;0.001764455;-0.039714526;-0.032657262;-0.08159867;-0.010971191;0.07664357;0.034757037;-0.032035794;-0.3455721;0.08777302;0.04553109;0.10871766;0.012826633;0.013076825;0.10490152;0.11695325;-0.0040785875;0.120454185;-0.015716946;0.1588193;0.24274366;-0.06807279;0.1351055;0.041167483;0.0675967;-0.063077115;-0.01576535;0.017918808;-0.094899535;-0.050831612;-0.03566157;-0.10910416;0.08568804;-0.059864964;-0.07584649;0.07116005;0.042451072;-0.14039814;-0.06497968;-0.06369863;0.1200489;0.08314744;-0.014661753;-0.10218634;0.061481982;0.048050784;0.12091987;-0.057573073;-0.025222193;-0.011623551;0.086996615;0.06949505;0.08283042;0.034712344;-0.035830874;0.08792692;-0.081152976;0.0047117933;-0.03176844;0.014441242;0.14234129;-0.3558049;0.034561712;-0.03615134;0.105499655;0.016092872;0.0632173;0.03873659;0.14553042;0.08635007;0.057432424;0.13240032;0.11703628;0.047761343;0.038616408;0.18742782;-0.06761464;-0.019110488;-0.038149245;0.01827663;-0.046258595;-0.07405214;0.13923755;-0.094428934;0.04756369;0.008329385;-0.0026173226;0.008997225;0.026996646;-0.005948103;0.0632134;0.18229675;0.005224391;-0.08220004;0.087645166;0.016096365;0.04450284;-0.11646711;-0.118278444;0.009583113;-0.06605403;-0.03146816;0.011596188;-0.060244367;0.040974326;0.03263025;-0.013296253;-0.20632562;-0.09660422;-0.050714247;-0.060129497;0.05534758;0.12559591;0.09637713;0.049308296;-0.038797818;0.048377678;0.05301187;-0.23927109;-0.0715657;0.04452762;-0.046451785;-0.07985089;-0.005306869;-0.014498077;-0.11075257;0.023383299;0.0059713107;-0.060339045;0.01345418;0.09714349;0.058009744;-0.058652736;0.091825224;0.034443807;-0.005570775;-0.09442233;-0.11719927;-0.049864277;0.058947247;-0.058076523;-0.03563013;0.027293338;0.06565256;-0.11534541;-0.0545907;-0.04756615;0.087622136;-0.079506986;0.009368358;-0.06320888;-0.077083446;0.02399206;0.0057411236;0.056164883;0.06711297;-0.018289817;-0.026210245;-0.016222151;-0.025045903;-0.12974165;0.0006444579;-0.04828593;-0.07658439;-0.1290603;-0.07067631;-0.07713241;0.040900115;-0.019824112;-0.027369818;-0.022098513;-0.0673112;0.045447383;0.031501338;-0.06661299;0.13142718;0.19418098;-0.031707387;-0.0455409;-0.034353007;-0.041657563;-0.053634796;-0.0021700042;0.0033017881;0.082989715;0.051618464;-0.0041154227;0.03535841;0.018467091;-0.042041022;0.061300483;-0.04221266;-0.023047062;-0.04709694;0.050710678;-0.011178812;0.05289881;-0.039936528;0.016122228;-0.058643557;-0.042220186;0.0524182;0.022656132;-0.05596946;-0.058820825;-0.26336098;-0.14270857;0.02041512;0.0005262654;-0.07361611;0.0718447;-0.067095265;-0.0009076102;0.037566964;-0.0727345;0.031456828;-0.03492668;0.07306585;-0.025324114;-0.06860718;0.07186767;-0.051817786;0.04243126;0.07366925;-0.0070326356;0.069479354;-0.0010129458;0.18423235;-0.038161684;0.0040145447;-0.071869746;-0.023074385;-0.07758717;0.11193221;0.02813067;-0.18746959;0.0021303578;0.020494135;0.095286444;-0.058650684;-0.11199018;-0.103936166;-0.06010891;0.19242238;0.10554769;0.022537524;0.10968086;-0.055888943;-0.07702543;0.040628448;0.08190285;0.009388304;0.06032217;0.01272755;-0.015535916;0.13665943;-0.04247175;-0.2596818;0.069737144;-0.017034447;-0.012253953;-0.042116895;0.0034641877;0.10010507;-0.1101304;0.008473985;0.026845453;-0.033839177;0.059668846;-0.070913754;0.014186487;-0.11435217;0.018758269;0.043000035;-0.06803233;0.1636304;0.02442965;0.06712686;-0.067956686;0.043157686;0.05119562;-0.040470224;-0.13927655;0.00976093;0.06902857;0.076646045;0.018807182;-0.04158457;-0.051976502;-0.038848605;0.044860054;-0.055228397;-0.019716956;0.0549727;0.03610957;0.065546885;-0.051448457;-0.045220554;-0.006293734;0.015626978;0.08819036;-0.16238917;0.044100292;0.039939567;0.0031525479;0.00833972;-0.12932798;-0.035194438;-0.28354567;-0.051039007;-0.111488365;0.019525928;-0.0952702;-0.09799088;-0.06645145;0.041124143;-0.081770465;-0.051660795;0.03863845;0.026048403;-0.0913459;0.054378007;0.08752754;0.020361166;-0.014975643;0.23272637;0.11936545;-0.027727893;0.019969663;0.049299683;0.0023121776;-0.036625206;0.18556695;0.041404307;0.10296382;-0.06736231;-0.027942171;0.0033770464;-0.083452225;-0.05135098;0.06894987;-0.029439515;-0.022602005;-0.06022359;0.052908476;-0.039376915;-0.13122147;0.062927246;-0.00306675;-0.08807752;0.2681554;0.037155874;-0.017302873;-0.073268935;-0.008870034;-0.11257347;0.050638843;-0.03708692;0.05718018;0.062384844;-0.0069463677;0.0010447665;-0.006879628;-0.05736899;-0.043272622;0.0099857645;-0.13291495;-0.07708174;-0.10871978;-0.036071144;0.0008789601;0.033798207;-0.033803962;-0.058510598;-0.024320286;0.029735839;0.06388674;0.02746909;0.03213062;0.058148127;-0.04211465;0.04681107;0.009432751;0.059943225;-0.06022901;0.017535126;-0.007988406;-0.045051254;-0.0038699068;0.08330079;-0.08408208;0.01613656;0.19373892;-0.031443063;-0.058690898;-0.039313987;-0.031776227;-0.048510235;-0.019622415;0.040208116;0.17423981;-0.0740471;0.021503644;0.039894197;-0.14056723;0.06597677;-0.07225721;-0.112441406;0.074694835;-0.30694723;0.0874224;-0.050600953;0.052026287;0.06430822;-0.13169865;0.075103804;-0.21704072;0.059390638;-0.020947395;-0.06677725;0.07719348;0.025906876;-0.046483304;-0.0007585904;0.16923934;-0.047770746;-0.041246865;-0.049135007;0.047815263;-0.034552272;0.114780106;-0.056192435;0.06382664;-0.049427353;-0.007337238;-0.0036916656;0.038353615;-0.09441588;-0.04588175;-0.02854911;-0.024261788;0.07763413;0.020168269;0.08983777;0.01623931;0.0924651;0.26354444;-0.022850849;0.03253123;0.02532401;0.028915014;0.06821144;-0.006211128;0.082806274;0.0034280405;0.059203614;-0.12382038;0.04161854;-0.0593181;0.077269904
0.0038814957;0.0069740126;0.030963998;-0.047907542;-0.014938097;0.023213806;-0.012012902;0.045952834;-0.07063706;0.041071758;0.056280416;-0.07260735;-0.040290393;0.15227832;-0.09174714;0.17444126;0.05919397;-0.05536972;-0.107449956;0.028538981;-0.03592795;0.11565597;0.033196792;0.0020365664;0.008687607;-0.061218135;-0.033133995;0.074726425;-0.04322766;0.0955957;-0.0720563;-0.022740263;-0.03694304;0.07201675;-0.02853502;0.078086145;-0.32982242;0.14705908;-0.036307763;-0.036268298;-0.0019121533;0.018709846;0.17189197;0.052375775;-0.099550836;0.059182096;-0.061278112;-0.03702371;-0.00082029216;-0.10963406;0.08478786;0.0024165707;-0.012646399;0.000539258;0.17742437;0.015072754;-0.1345956;0.024977932;-0.02301567;0.00042219347;0.1242473;0.12633412;0.08472962;0.008467603;0.03486173;0.042580552;0.026855895;-0.029740138;-0.04825296;0.016194217;-0.0081513245;-0.053191718;-0.059623744;0.0057675885;0.09747348;0.048671845;0.060805347;-0.034952354;0.13418655;-0.0404246;0.051100783;-0.068636514;0.09853116;0.12737818;0.003784716;0.025079424;0.24419254;-0.0071513616;-0.01495749;0.052728076;0.0014417081;-0.0724857;-0.058451053;-0.008938134;-0.25937232;0.053362545;0.06066928;-0.036506664;0.036457483;-0.069168665;0.02341767;-0.07621131;-0.19736972;-0.2903145;0.014460418;0.008456124;0.084682435;-0.072722;0.0064209644;0.048976224;0.030428326;-0.059231896;0.00068682065;0.04897617;-0.0106487125;-0.09254632;0.031748794;-0.028238235;0.08281048;-0.061432246;0.08668885;-0.05182719;0.049112774;0.06536411;-0.042601082;0.08702958;0.0016158626;0.063237265;-0.022898674;-0.03923381;0.08931556;0.029328724;0.058085438;-0.14038548;-0.007954804;0.11667294;0.26012325;0.055188615;0.020697193;-0.033789583;0.004427572;0.00014717842;-0.17769502;0.0064345635;0.051542997;-0.03918036;0.05236391;-0.14738443;-0.00793257;0.13563783;0.057900056;-0.07445855;-0.01158432;-0.0812;0.10291745;0.062093448;-0.025155418;-0.083062775;-0.027353236;-0.15850249;-0.0021324574;0.3143566;0.11102228;-0.034610994;-0.076854736;0.09382111;0.035693068;0.002195129;-0.07910725;0.06269761;0.08011016;0.05397352;0.009350664;-0.01333821;0.11704127;0.033159196;-0.045053106;-0.38675198;0.06838693;0.07562919;0.05502348;-0.04177937;-0.17952457;-0.06933388;0.13126628;0.17122127;0.029727709;0.0994696;0.13260028;-0.027413674;-0.022226166;0.21396062;-0.02922797;-0.01743281;-0.059983417;0.09352607;0.01226851;0.018254222;0.0041260347;0.026776362;0.12707348;-0.054911528;0.09333494;-0.005304653;0.11542102;0.04757603;0.10312877;0.1432016;-0.03728373;0.069798805;0.017684009;0.03796863;-0.03984734;0.07378685;-0.21839091;0.0209426;-0.004237225;0.04074997;-0.008098898;0.038965605;0.062506646;0.039524928;-0.19238514;-0.20648688;0.0046460517;-0.0522515;0.0038063962;0.15257332;-0.020958563;-0.0070541603;-0.030956557;0.008295062;-0.08332743;0.11059278;-0.06847467;0.07957704;-0.019177832;0.033260874;-0.013841129;0.070886865;-0.022098562;-0.15492672;-0.051561423;0.08267048;0.04495326;0.059872188;0.013449954;-0.009467973;-0.00070894614;-0.050644517;0.005804642;0.071896285;-0.009575067;0.010598596;-0.04764075;0.06044971;0.026363295;0.03963824;-0.06649824;0.1166171;-0.014986652;0.0064048036;-0.017443098;0.039037947;0.002928553;-0.062026422;-0.005650117;-0.13480705;0.093747385;0.07185197;0.024940155;-0.024674434;0.0906789;-0.024674686;-0.02973031;-0.025456075;-0.034665868;0.06050216;-0.11473395;-0.05609197;-0.17240462;-0.0037001835;0.001830976;0.034035236;0.044864;-0.0022638708;-0.049493432;-0.03556592;-0.0033183203;0.019374287;0.018729592;0.07527917;0.29192019;-0.1298951;0.030826751;-0.053521983;0.0337511;-0.030025877;0.028569112;0.0781165;0.21523835;0.014239037;-0.07153133;-0.0016377313;0.029916422;0.1382376;0.092195325;-0.041043878;0.082329325;-0.041246478;-0.053695865;0.030923888;0.08491316;0.06218706;-0.07163589;0.0804175;-0.07497183;0.027876109;-0.072210155;-0.102636896;0.0070229196;-0.259591;-0.075500116;0.084164426;0.11265037;-0.013698979;-0.057096325;-0.08682714;-0.0036057774;0.0536671;-0.056789014;-0.05925955;0.063661866;0.011984299;-0.08037723;-0.09345769;-0.05603916;0.04490159;0.032601845;0.07513705;0.12950638;-0.03503264;-0.026532046;0.19593693;0.043236393;0.09732283;0.06839991;0.14123315;-0.106480874;0.0091354875;0.11279372;-0.4071696;0.0365033;0.08710086;0.030220179;-0.06913835;-0.16196758;0.069116294;-0.0010547115;0.16504487;0.1378389;0.0092966715;0.1314491;0.06239136;-0.08643042;0.06169293;0.0014675567;-0.014910624;-0.093772896;0.05962598;0.028019277;0.07228433;-0.20364873;-0.085654;-0.04675581;-0.06059345;0.042002156;-0.09786058;0.06682687;0.13323954;-0.0040604593;-0.045848846;-0.038495906;0.015237505;-0.013613615;0.08272091;-0.044564564;-0.14743128;0.16683531;-0.09369941;-0.0034377906;0.13008054;0.0910576;0.018396962;0.054982193;-0.050677046;0.062653065;-0.046059832;-0.12731707;0.0450082;0.0298801;-0.08895191;-0.015694158;0.08260131;-0.009224254;-0.051118985;0.07143384;-0.12263026;0.03995084;0.081597224;-0.0776331;0.14630374;-0.0050486764;0.0056209317;0.08081264;0.061561123;0.0805812;-0.26642627;-0.0654623;-0.07427648;0.04777451;-0.016153663;-0.036122825;0.0120566115;-0.22537017;-0.059282873;-0.21466179;0.05456144;-0.008238;0.04510821;0.02561789;0.010359835;-0.08692214;-0.028103646;-0.034115206;-0.076230615;-0.17831288;0.016453786;0.07268083;-0.03458953;0.002345314;0.17747436;0.028210051;-0.12838581;-0.023709426;0.092657425;-0.032735243;0.07539715;-0.036587484;0.043510884;0.008993477;0.031872187;0.031890832;0.0071699503;-0.0041986275;0.09669072;0.105059944;0.03804927;0.079311654;-0.032557484;0.06934167;0.0073665436;-0.07319792;0.05357588;0.0406988;-0.14283437;-0.018081034;0.028689697;-0.04190981;0.08168026;0.0034457797;-0.07011906;0.0067746122;-0.04955418;0.0013526891;-0.016645955;0.043177865;-0.038424816;0.024693547;0.03734506;0.04994732;0.07306674;-0.3008679;0.041679855;-0.07397903;-0.16222684;0.07218822;-0.008855403;-0.03247587;0.088656954;-0.12038881;0.010771776;0.07466748;0.0216781;0.001818996;0.052358743;-0.044874854;0.069022655;0.013792032;0.213316;-0.026667066;-0.10566761;-0.22836353;0.03256091;0.014195406;-0.060342725;-0.16667579;0.09554024;0.20649293;0.0457412;-0.0031492356;0.03973688;0.074878044;-0.02875055;0.07031735;-0.033457372;-0.012948988;-0.0071721226;0.00037668005;0.007310452;-0.28965482;0.059269056;0.08874092;0.096750356;0.14572172;-0.16183367;0.053030334;-0.012750619;-0.04188809;-0.03212916;-0.18088788;0.030507566;-0.3636109;-0.0067631076;0.027172033;-0.049695767;0.09844523;-0.22204769;0.07825093;0.041876066;0.14789324;0.07661388;-0.094241895;-0.063599825;0.119012766;-0.07220038;0.104761444;0.09737435;0.11797055;-0.03503924;-0.046571314;0.009098716;-0.08035018;-0.06653701;0.06664311;-0.032709613;0.0626385;0.087781385;-0.019193338;0.06272347;-0.024770992;0.030906903;0.06388535;0.021260532;0.021894678;0.012567433;0.017861335;0.04796485;0.03177089;0.030580642;0.057334006;0.03976338;-0.00027840177;0.0022936075;0.014212189;-0.018765029
-0.15472344;0.050044168;-0.07384556;-0.0685187;-0.06589893;0.044497438;-0.06869733;-0.016574519;0.05919764;-0.17003164;-0.056750324;0.2442054;-0.015718952;-0.06499191;0.0072811428;0.085249566;-0.09037179;-0.17485471;0.22552869;0.019769583;-0.14640039;-0.022645686;-0.039586402;-0.1582157;0.00016763943;0.03322823;0.09065168;0.05832581;-0.04127499;-0.050621625;-0.07382083;0.02935717;-0.044375516;0.018640542;-0.036711525;-0.021410061;-0.32141116;-0.07722966;-0.06940307;-0.0090883365;0.10731692;-0.080212;-0.0024236792;0.0346178;-0.02091878;0.061759748;-0.028721262;0.07726865;0.01869299;-0.0067367754;-0.094514444;0.16825524;-0.10714637;0.023533694;-0.03895862;-0.019896833;0.0008138709;0.013937444;-0.12679964;0.040869758;0.0623528;-0.035304293;0.09143112;0.10896017;0.01435857;-0.02483436;0.08541521;-0.05112062;0.041723978;0.087558836;0.013454203;-0.044604313;0.016206676;0.01724871;-0.098653086;0.16353284;0.045387458;-0.018003551;-0.06337338;-0.042154014;-0.08541518;-0.028818581;0.018720826;-0.044380058;-0.044827763;0.051967807;0.21963938;-0.0036846478;-0.032706924;0.10967389;-0.0067166155;0.09601329;-0.015507733;0.038235445;-0.20565851;0.0035840566;-0.035514887;-0.033521466;0.0020194997;0.012917043;-0.0049601733;0.05942679;-0.29733607;-0.10031182;-0.045907773;0.09418014;-0.008630346;0.053683985;0.12377485;0.012899921;-0.016529128;-0.09509244;-0.05524407;-0.07041916;-0.0051979483;-0.14313668;0.03727606;-0.024582433;-0.11176371;-0.029252604;-0.0792832;-0.041022357;0.11221268;-0.021112246;-0.17838168;-0.023413092;0.04440411;0.1261439;-0.06493245;-0.04579852;-0.008997121;-0.1678978;-0.013669697;0.10742287;-0.048920617;0.052055478;0.11879318;-0.29763377;-0.09409222;0.034906182;0.026714914;-0.054791365;-0.10062727;-0.07493778;-0.11478276;-0.1267559;0.03580248;0.10886993;0.13091904;-0.034378882;0.055586584;0.05079298;-0.025236385;-0.120804876;0.13842951;0.059129514;-0.009824972;-0.048252944;0.08802712;-0.24790691;-0.0100293;0.12005125;-0.29853693;0.12272991;0.085596;0.098713525;0.09713536;0.013381855;0.0053745327;-0.080401525;0.009727241;0.0142942;-0.00020519205;-0.064302094;0.029488884;0.016324023;0.048233006;-0.38923588;0.044424675;0.018137915;-0.062590815;0.14119722;0.07905272;-0.1204549;-0.06123483;0.18418024;-0.05354017;-0.3304501;0.088888705;-0.09410747;-0.05306656;0.1339421;0.0875382;0.028102292;0.08051114;0.034786165;0.05821778;-0.056096885;0.04106795;-0.11222334;-0.09546394;-0.03024034;-0.06110886;-0.0400679;-0.021251729;0.019272503;-0.05331718;-0.004379231;8.065127e-05;0.057939976;-0.043094024;-0.029441101;0.09987017;0.08077044;0.23080477;0.09254562;-0.03167282;0.011891196;0.024770472;0.029796043;0.07816628;0.011791067;-0.018630123;-0.10409704;0.011206831;0.043624412;-0.028247222;-0.19771148;-0.04799579;0.041737996;-0.061370827;-0.08338007;-0.070629425;-0.00080612965;-0.23815984;0.012359193;0.015263141;0.03586196;-0.08797751;0.017397968;0.032358613;-0.029228654;-0.030042615;0.07263158;-0.07024359;0.019052774;-0.083549775;-0.073920324;-0.0146809295;0.26476985;0.047496192;-0.050450288;0.037492335;0.021203345;-0.034208782;0.0024044781;0.049853437;0.13667741;-0.10205183;-0.015915705;-0.07608858;0.46658882;-0.015868021;-0.030716017;-0.03307664;-0.011213109;0.048050296;0.06616923;-0.029374553;0.0038910913;-0.06054362;0.08603354;-0.034195676;-0.35376513;-0.12187173;-0.02590534;-0.20477822;0.017731115;0.05069651;0.047387693;-0.120072275;0.08393796;0.0002505262;-0.058292404;0.038103644;0.017087968;-0.02175322;0.08190852;0.04211558;-0.022586778;-0.029956298;-0.25728917;-0.08594706;-0.087552294;0.09481118;-0.0052640275;-0.024396932;-0.03404613;-0.103217736;-0.006623313;0.20436059;0.2067727;0.018202811;0.23173559;-0.027719665;-0.085450284;0.039114833;0.021750549;-0.032824997;0.07893864;0.007070325;0.22229908;0.01460187;0.073646285;-0.0420025;0.10580364;0.0045371586;0.018564362;0.15424506;-0.050709963;0.055237554;-0.022477271;0.046514593;0.018599754;0.09345564;-0.15312402;0.019456184;0.13664691;-0.0055924053;-0.0076979413;0.014570505;0.010315906;0.05423033;0.012193887;-0.052311935;-0.25563556;0.4182508;0.0300368;-0.06666666;-0.026344463;-0.0713537;-0.0045831944;0.10268255;0.12932889;0.06464613;-0.007251611;0.03094672;-0.11935152;-0.03442718;0.11068426;0.051367663;-0.14438249;0.06620861;0.06497675;-0.08719596;0.039845202;-0.011984178;-0.042733375;-0.018329924;-0.007686092;0.18045674;0.021473296;-0.32944232;0.045578726;-0.043725237;0.06567265;-0.012532845;0.28715098;-0.08522897;-0.03245154;-0.054547157;0.055105112;0.08351117;-0.08424124;-0.04451348;0.06446324;-0.03311375;-0.11756561;0.002208442;-0.13424161;-0.055395655;0.07167707;-0.02473547;0.06169581;0.07146297;0.004789855;0.08408782;-0.13012828;-0.20104517;0.20224352;0.033403307;0.02527201;-0.05645036;0.10440342;0.08912845;-0.06664037;-0.03377286;-0.010391291;-0.08608085;0.096854925;-0.007031912;-0.13697346;-0.10261848;-0.09447785;0.039069884;-0.0143783735;0.06067367;-0.059285697;0.0032247775;0.04126586;0.04181343;-0.013701369;0.0753986;-0.09582936;-0.0832687;-0.010810337;-0.006969708;-0.13954063;0.04549921;-0.03730711;-0.038499102;0.13781151;-0.06385966;0.10005206;-0.3480128;-0.009038207;0.20558578;-0.022447476;0.35605198;0.02599026;0.30993077;0.00964496;0.06910498;0.020186586;0.045006413;-0.05411836;0.27918598;-0.053276677;0.015290338;-0.048760083;0.022008277;-0.115242414;-0.11495804;-0.060371716;-0.05941815;0.051437773;-0.0073347026;0.06449069;0.051710542;-0.02933372;0.07749821;-0.113420986;0.021042822;0.0024740358;0.009834252;0.07667415;-0.08452766;0.013730791;-0.22725137;-0.10328162;0.043616056;0.11295295;0.023974461;0.062172536;-0.057066716;-0.14729767;0.20260754;0.0723908;0.059231296;-0.028777355;-0.008655699;-0.076774985;0.36625853;-0.20294045;0.0036016894;-0.036065258;0.0916952;0.103184916;0.056120414;0.010373536;-0.040036257;-0.020750111;-0.057254855;-0.072162986;-0.031370938;0.028565042;-0.030065943;-0.065136336;-0.040799648;-0.09732957;-0.0637241;-0.08920615;-0.050208896;0.07018952;0.013175932;0.05325224;0.060731195;-0.054213703;-0.019055312;-0.22879975;0.02725274;-0.030833172;-0.007938407;0.17521176;-0.04695465;0.025668005;0.055692956;0.016861418;-0.07568108;-0.004195296;0.06986799;0.03485963;-0.0245651;-0.015490998;-0.083202615;0.07531997;0.19481692;0.064506486;0.16175689;-0.038249165;-0.28805664;0.3756908;0.015721804;-0.11035889;-0.032911025;-0.15755497;0.040829226;-0.024090067;0.00804145;-0.0019051345;-0.22887586;-0.0045524254;-0.05993103;-0.06456022;0.010130713;-0.018458975;-0.025276352;0.20717004;-0.07882596;0.0016306668;0.17087695;-0.024346502;-0.23463841;0.018070074;-0.21594995;-0.09152369;-0.052143846;-0.106035516;0.049257454;0.099429294;-0.16092873;0.06842614;-0.115114994;-0.19838229;0.034282472;0.015150202;0.045073863;-0.06052338;0.0892574;-0.12050593;0.09673076;-0.004496794;-0.031149667;0.04078853;-0.04600079;0.027466197;-0.07748287;-0.07626577;-0.0030002294;0.03304352;-0.008597956;0.030750366;-0.3271797;0.058313135;0.03296835;0.060457807
0.14981659;0.05239581;0.13246965;-0.07114569;0.018594455;0.02628761;0.040505037;0.038027123;0.020552393;-0.03144845;-0.028022634;-0.057691917;-0.19994286;0.10377844;0.15968348;0.18489279;0.062817045;0.09966823;0.11796514;0.074572384;-0.08114021;0.040231805;0.11333087;-0.18414359;0.013391171;0.040788095;0.042349245;0.06232099;0.11543069;0.08935351;-0.27668053;-0.1029237;0.084022954;0.09302832;0.06445562;0.14232884;-0.2873251;0.18389814;-0.062191375;-0.3152831;-0.019916715;0.057941448;0.13841264;0.07836683;0.02791435;-0.08119186;-0.17436121;-0.040353164;0.12511496;-0.10551034;-0.05844273;0.07711392;-0.027068788;0.062158708;0.08258935;0.087804124;0.07060355;-0.14590912;-0.008752126;-0.007968831;0.07926043;-0.15907387;0.1083123;0.03588676;0.04642374;-0.017172704;0.2137328;0.052202366;-0.052867323;-0.030606458;-0.01701948;-0.05705148;0.042486656;0.095809296;0.120457;0.014128212;0.08264382;-0.1069054;0.073471144;-0.1803739;-0.057466637;-0.11996262;0.063884765;0.04659952;0.049480505;0.10923445;0.35932195;0.0045094127;0.12645926;0.02508869;-0.0176844;-0.11658862;0.06644694;0.01016591;-0.18998243;-0.014166635;-0.1477498;-0.020048073;0.16081959;0.058729142;0.10770809;-0.04613594;-0.14375873;-0.07482687;-0.079728074;-0.048963442;-0.00849921;0.08151831;-0.013305188;0.0009021024;-0.0070856735;-0.07384518;-0.20479593;-0.03325623;0.0066491645;-0.02279115;-0.0695544;-0.021312797;0.020100424;0.066266164;0.019215314;-0.02653889;-0.061834093;0.06608669;0.1466592;-0.008681356;-0.021268817;0.028344668;0.032849494;-0.06553556;-0.008074615;-0.1384938;0.13051404;-0.12347573;-0.09865445;-0.18972561;0.06811305;-0.08722481;-0.11071515;-0.013953572;0.03396078;-0.021742068;-0.17082942;-0.076151855;0.050445776;0.1019011;0.012858984;0.037278846;0.013213659;0.05561047;0.063017964;0.06570146;0.03984322;0.11748421;0.026498435;0.051284917;0.08435744;-0.3037596;-0.04644766;-0.073704995;0.028823333;0.2502969;-0.0371243;0.10709438;-0.20023969;0.16999444;0.08122752;-0.01923462;-0.15704298;0.022267949;0.07962376;-0.10543987;-0.069114126;0.04439967;-0.0133551;-0.039367706;-0.085727364;-0.28370252;0.02379159;0.0926255;-0.070084855;-0.067516424;0.04226397;-0.066580385;0.0069722114;0.050667007;0.053729877;-0.20961648;0.20009387;0.0409309;0.018347938;0.11729702;-0.035929956;-0.033919297;0.049610876;-0.07266123;-0.055508647;-0.07878942;-0.20210461;0.08240074;-0.02230041;-0.085026525;-0.035069972;-0.14003548;0.07518258;0.052530885;-0.041965317;0.12455869;-0.034048397;0.009872156;-0.070380695;0.19315252;0.08202134;0.0031814917;0.11178077;-0.095026955;-0.0943498;0.044560064;0.09513558;0.084241;0.046306007;-0.02315974;-0.2564241;0.034693085;0.26264808;0.07205607;0.023793561;-0.016042078;-0.11717718;-0.077563174;0.049111716;-0.006874833;-0.00039346426;0.07139283;0.047139745;0.10049276;0.0204304;0.08224853;-0.03679109;-0.091955975;0.07289763;-0.20130992;0.13589403;-0.07291609;0.07725369;0.0019727305;-0.30249044;0.0059585716;-0.036031615;0.016290491;0.083215;0.05690248;0.043427348;0.16012537;0.010106034;-0.024182478;0.013313589;0.039144758;0.01719781;0.0662764;-0.16362241;0.18318816;0.09753862;0.05218257;-0.03387725;0.021538245;-0.03483087;-0.15939403;0.122543864;0.040537115;-0.079027504;0.04707497;-0.0031853018;-0.074256904;0.057425443;0.04806762;-0.08022864;0.08018133;0.013685096;0.032920074;-0.18279694;-0.031239985;-0.09078385;-0.078227326;-0.09108267;0.029237853;-0.11267357;0.07814991;-0.010906902;-0.156644;-0.051732372;-0.11825864;0.22693162;-0.10021277;-0.18368475;-0.00288924;0.076489925;0.06898904;0.13632278;0.027373929;0.14619169;-0.08737551;0.052182343;0.15452716;-0.062345512;0.15588406;0.08236548;-0.05689253;0.0774403;-0.13181904;-0.022047427;0.22146486;-0.015434665;0.048102226;-0.07281114;-0.07509292;-0.046643823;0.079398245;-0.030231388;0.010796444;-0.043072253;-0.27599385;-0.37775335;0.00034413615;0.12774308;-0.1511638;-0.18695356;0.001917861;0.08661527;-0.30174744;-0.061262142;-0.0021565792;-0.07785958;-0.11771837;0.06427098;-0.03965034;0.058536083;-0.001587815;0.10168552;-0.029868376;0.01872616;0.0724806;-0.013365457;0.09790729;0.0158768;-0.046587046;-0.0155556565;0.06357916;-0.051093217;0.04040629;0.034810167;-0.19243658;0.01153308;-0.054547783;0.029536666;0.13635504;-0.083502136;0.06932807;0.012408399;0.1990107;0.11825524;-0.0015634549;0.04212266;-0.09555141;0.06794539;0.02340238;1.20407385e-05;-0.05822315;0.008637287;0.0010324147;-0.023587685;-0.109926775;-0.29265955;0.055464964;-0.06276508;-0.02578943;0.06464239;0.07835594;0.049838305;0.04550569;-0.011293387;-0.061386168;0.03882425;-0.10442887;0.055392027;0.08558481;0.1029073;0.027824622;0.19549026;-0.02543324;-0.050424762;0.21293177;0.011241282;0.051368777;-0.049847014;-0.1539571;0.0036336773;0.050168697;-0.05303826;-0.046245974;0.0927739;-0.08750208;-0.01069494;0.11090585;-0.015915627;0.056905307;0.11187847;-0.19906703;0.05133707;0.03219607;-0.15297912;-0.15214112;-0.056517825;-0.039116442;-0.04129487;-0.03532271;0.037879277;0.06912365;-0.10190578;0.026385793;0.0758882;-0.36636117;0.03566417;0.023634434;-0.29747236;0.008665832;-0.054014225;0.06328933;0.15086661;-0.059741676;0.17215066;-0.038959865;0.0028054204;-0.011286968;0.09171062;0.02873979;0.09083646;-0.04419288;-0.04031758;-0.080645315;-0.080719806;0.039548736;0.015127258;-0.08521436;-0.05318285;0.20865716;0.0795122;-0.024500942;0.01407894;-0.025612244;0.074815795;-0.039910648;-0.002073906;-0.008518767;-0.096879296;-0.066179216;0.06588042;-0.065763324;-0.06505614;0.12160131;0.005815297;0.029390471;0.099312305;-0.052011408;0.07060142;-0.23982276;0.10232798;-0.057677194;0.06018429;-0.06643128;-0.042474225;0.17211886;0.04745691;-0.027635278;0.18707708;0.048896965;0.008525482;-0.026395459;-0.076774046;0.041201245;-0.06816265;0.049393576;-0.23710659;0.2271332;0.079775445;-0.046695568;0.1453924;0.08875546;0.13150379;0.09777682;-0.061412893;-0.014504203;0.122538194;0.14828317;-0.008777113;0.0609286;0.028971938;0.036789432;-0.0063017183;0.053530462;0.04861226;0.008620018;-0.23814973;0.2957303;-0.024285002;0.025011823;0.24339882;0.06132506;-0.0059005143;0.06498242;0.024022924;-0.07779336;-0.019538429;-0.0127033675;0.045528777;0.08010709;0.19348158;0.022835732;-0.054876328;0.0056916783;-0.22308302;0.12147781;0.04491188;0.086820565;0.12568505;-0.27793634;-0.087110735;-0.026611157;-0.057081454;-0.06611313;-0.16758122;0.0028578774;-0.11635111;-0.17922421;-0.028136468;-0.12628499;-0.035454154;-0.03726246;0.05853916;0.015168669;0.026147028;0.0042050164;-0.2945463;-0.11586706;-0.07727156;-0.022347068;-0.07185597;-0.001960377;0.22622836;-0.098782115;-0.20943542;0.082611345;0.060367808;0.19606228;0.113643706;0.07954491;0.034916047;-0.08935043;-0.08246533;-0.0014475747;0.044743184;-0.022323003;-0.07534374;-0.019559115;0.008118833;0.04151394;-0.019403232;0.06452245;0.0056253048;-0.010099534;0.06774902;-0.09537536;-0.13712765;-0.040324457;0.10681283;0.05449613
-0.072336435;0.02056417;0.01951155;0.020784764;-0.002215071;-0.0027217781;0.16235682;0.018914985;-0.0370431;-0.037097733;0.06053;0.14194763;0.10489272;-0.00269249;0.027390515;0.0622149;0.1993603;0.06673021;0.2831024;-0.050695553;-0.15305804;0.04953569;-0.0013491967;0.055081397;-0.044188246;-0.2594945;-0.031201849;0.017624428;0.024513913;0.08331863;-0.22048897;-0.044413876;0.13587618;0.04103091;-0.04808637;0.10896231;-0.10479718;0.13182713;-0.000415059;-0.02012783;-0.037490793;-0.028990343;0.00018044058;0.036521193;0.03489854;0.0036717835;-0.023718508;0.01955625;-0.044909418;-0.20165743;-0.20537098;0.1623422;-0.031981617;0.05815869;-0.13915141;0.0832734;-0.04775572;0.19682278;0.013182811;0.037325837;-0.0044713225;0.18575898;-0.19070522;0.03742185;0.03961319;-0.056621198;0.1329996;-0.07854307;0.029493254;-0.009943089;-0.03913102;0.059473116;0.047000684;-0.027856851;-0.084155366;0.13908392;-0.0835481;-0.11196381;0.03531608;-0.02238024;-0.016341295;-0.11409818;-0.060347557;0.0783054;0.22961576;0.13215527;0.14773735;0.041209854;0.03594169;0.044998817;0.03731027;0.107106365;0.027490988;0.10637814;-0.32561252;-0.07046258;-0.05553603;0.028506484;-0.03411553;-0.019170083;-0.018192628;0.07845785;-0.1395982;0.105627306;0.09684118;0.06507109;0.043928947;-0.041878574;0.12207614;0.06779894;-0.06491788;-0.031491082;0.029684639;-0.0041763242;0.063810684;0.08464496;0.07091854;0.037930284;-0.067837276;-0.028453559;-0.05631146;0.074265584;0.10188152;-0.003187818;-0.10828634;-0.02063022;-0.05068769;-0.054826193;0.04307144;-0.13626271;0.033696216;-0.1364093;0.01593874;-0.063509;-0.054313608;-0.121772476;-0.09669677;0.02915794;-0.004836395;0.113588974;0.073156096;0.044505224;-0.078652844;-0.17391051;0.09415188;-0.0056415834;0.02389649;0.10157195;0.073154345;0.099687845;-0.008777217;-0.07420729;0.07529941;-0.20059034;0.13371553;0.1042868;-0.021651993;-0.30880943;0.004368332;-0.20932214;0.006701663;0.12879819;-0.0010589848;0.15553242;-0.054394875;0.24341375;0.20252718;-0.003715982;-0.004511815;-0.032981172;-0.015229872;0.08073807;-0.0012129467;0.038634278;-0.00094795035;-0.023340937;-0.08024696;-0.2509303;-0.04687472;0.06467195;-0.05251082;-0.056547847;0.05486832;0.012741322;-0.009261966;-0.040646773;0.008853335;-0.13028875;-0.025555499;0.08620072;-0.100897804;-0.1196506;-0.047290176;0.009362819;-0.03005935;0.009105437;-0.037168864;0.04850501;-0.023550203;-0.065079376;-0.07820054;-0.039251447;0.057471525;0.015579347;-0.081533216;0.13096994;-0.050118446;-0.096307434;-0.04830759;0.00087261706;-0.05038023;0.085945375;0.11520327;0.050511677;0.022860868;0.08930882;-0.08053008;-0.04527842;-0.04316189;0.040942054;0.08472632;0.0012225206;-0.2113424;0.08618495;0.107067406;-0.05236785;-0.021260252;-0.14805676;-0.023614565;0.052146945;0.0056553055;-0.068980224;0.034308683;-0.016837813;0.034590848;0.0041223303;0.03944114;0.07567752;0.1152996;-0.03687236;-0.0137015;0.008835043;0.056043573;-0.015318757;-0.011026145;-0.074624844;-0.009506874;0.0016596247;0.0083114235;0.15576309;0.009655945;0.08147463;-0.016255405;-0.026956035;0.045336246;-0.018832682;0.037953027;0.0028169195;-0.06889229;0.07915133;0.054315876;0.10885862;-0.014169707;-0.075457856;-0.028915422;0.13857862;0.123628385;0.048372727;0.11738963;-0.042989258;-0.018761402;0.041988365;-0.037081122;-0.25026074;0.052362394;0.05221948;-0.009834471;0.017268255;-0.021300953;0.020876309;-0.17292994;0.059555344;0.075182624;-0.06604462;0.043973736;-0.046791375;-0.036179002;0.009798928;0.02700922;-0.0942004;0.051291697;-0.001132586;0.08312992;0.037918057;-0.010709885;0.033402786;0.050404422;-0.08961175;0.006561189;0.010728949;0.0011942588;0.3362891;0.035404697;0.28883392;-0.06716912;-0.045540035;0.13649753;-0.013938993;-0.043331962;0.021470293;0.07973524;0.10471018;-0.0068174987;-0.027008096;0.005081852;0.046855234;-0.0052448385;-0.02473263;0.13947502;0.0058223484;0.04338929;-0.105659805;-0.21478859;0.05055136;0.011543401;0.090114795;-0.06311992;0.010278071;0.058216434;-0.0738848;0.06849532;0.055285823;0.078130044;0.043476153;-0.048062935;-0.10485428;0.013756446;0.014690254;0.0354485;-0.034152955;0.09567584;0.0067840377;0.1533593;0.14449535;-0.035060603;-0.03898993;-0.021062752;0.10436243;0.04875251;0.21676062;0.09637737;-0.087909706;0.012429237;0.00446634;-0.046911716;0.10059729;-0.2276488;-0.183875;-0.051071133;0.06240109;-0.10926341;-0.08864653;0.067970805;0.057673857;0.03543962;0.006614161;-0.024897872;0.04070004;-0.029749345;-0.025614573;-0.02869232;-0.022025384;-0.21807154;-0.07086627;-0.04031189;0.013063504;-0.11004537;-0.09383202;-0.057398237;-0.07095067;0.01664075;0.06271263;-0.05111782;-0.10427196;0.0693429;0.034505576;0.23757018;-0.073737845;-0.07900913;0.17454533;-0.0022276172;-0.05373209;0.10596603;0.011231882;-0.05307422;-0.14398588;0.0053269896;0.026845172;0.0036935857;-0.027253242;0.09468509;-0.096594006;0.005773286;-0.07369039;0.031041913;-0.023946736;-0.043554895;-0.03979242;0.07253463;0.19387823;-0.0077273822;0.24405348;-0.022505298;0.012914872;0.05229033;0.0656076;-0.08374479;-0.067210376;-0.0043933056;0.007738343;0.049007677;0.005459194;0.07077562;-0.0145226605;-0.22002475;0.026916578;-0.009800108;-0.038203645;0.03553652;0.040190767;0.0855094;0.07174268;-0.04236561;-0.022846926;-0.03146878;0.06459355;0.15123034;0.01100677;-0.026161125;-0.059701785;0.04772616;0.032159116;-0.29402348;-0.05484616;-0.03861576;0.12875505;-0.0042239446;0.0017688357;0.012625087;0.060240578;0.01833314;0.13177362;0.020361645;0.034750886;-0.05184159;-0.04252758;-0.050058823;-0.0110532725;-0.00492796;-0.17419988;0.07622474;0.07510523;0.17867026;0.025271287;0.028196119;-0.19687776;0.41727978;0.077871144;0.031509817;0.03858566;0.08261294;0.123835124;0.04626558;-0.17331158;0.019558072;0.088841535;-0.068345204;0.14455436;-0.05582818;0.069746844;-0.0076153446;-0.050682273;-0.3047975;-0.042378914;0.22684145;0.106774315;-0.015931701;0.047254454;0.0711922;0.043599516;0.004521715;-0.052605316;0.06103118;0.11124222;0.023777682;0.0015202817;0.021824619;-0.005364294;-0.01438561;-0.25670487;-0.085040204;-0.10434231;-0.036145896;0.15058175;-0.013202627;-0.05303093;-0.0009704922;-0.061456256;-0.22068925;0.062041882;0.0055832774;0.14433509;-0.047556702;0.009043437;0.1011508;0.05152386;0.1925275;0.030814366;0.16894437;0.052751824;-0.20516393;0.26008666;-0.0060361805;-0.08815673;0.032480337;-0.21121123;-0.06709924;0.049632333;0.029331516;0.060836002;-0.18506773;-0.0393442;-0.002360664;-0.038325664;0.028999817;0.023454549;-0.04592067;0.11225942;0.035832603;-0.043496087;0.118788324;0.008995932;-0.25109237;0.05875046;-0.1799134;0.15495574;-0.05650676;-0.011558533;0.14053494;0.027008047;-0.060294364;0.09034773;0.11152186;0.04907579;-0.030186016;0.01836203;0.050270878;-0.104928456;0.121499695;-0.09092942;-0.036962233;-0.0005418743;-0.0128615;-0.073080644;0.02179269;-0.010670229;-0.04584329;0.07935511;0.05239202;0.025132077;0.035846572;0.035592467;-0.22689159;0.0035111767;0.03573355;-0.012645375
0.056561142;-0.06234699;-0.29140082;0.027642036;-0.06576084;-0.09407949;-0.023364102;-0.08232909;0.06598874;0.05805091;-0.078210935;0.46248588;-2.3366086;-0.17738292;-0.19978374;0.20313954;0.50273377;0.061179843;-1.1864814;0.06292545;-0.35539606;-0.03486209;-0.28372502;-1.0441191;0.035413396;-0.14739834;0.02314409;0.006053101;-0.021048842;0.18866163;-0.6120433;-2.794832;-0.105481185;0.052585997;0.083159894;0.069080025;0.5404068;-0.20761858;0.060135867;-0.53648007;-0.057115078;0.016811365;-1.4405916;-0.00459237;-0.071111955;0.008045996;-0.12945643;-2.5136986e-05;0.052772142;-0.0027642753;-0.46617272;-0.3915318;0.041874453;0.02197986;-0.062840655;-0.05052883;-0.21820399;-0.11249795;-0.9746949;0.066102296;0.09130566;-1.705076;0.14840026;0.4153172;-0.022946844;-0.0072541675;-0.21507832;-0.051725376;0.002216576;-0.038138665;-0.04355814;0.06001734;0.01921056;0.084884785;1.163753;0.010353328;0.08496044;-0.7695669;-0.020918837;0.008044992;-0.025985753;0.0056606997;-0.07120991;0.21718922;0.25852203;-0.028733313;-0.47532645;-0.016686752;0.042798653;-0.0817636;-0.13127322;-0.034755617;0.046063766;-0.030428084;-0.53205943;-0.03476878;0.029326336;-0.3468584;-0.23064679;0.0627237;0.061674733;0.048317906;-0.49408418;-0.3179301;-0.07698922;-0.0052001607;-0.004232512;-0.104917474;-0.041568287;0.05199511;-0.06435012;-0.03099207;-0.03586276;0.055897523;-0.040243972;-1.1781802;0.05523763;0.035375252;-0.028567383;0.057835396;0.06350947;-0.070569694;-0.043749064;0.08396368;-0.14198872;-0.1459865;-0.05035676;-0.7260934;-0.019307483;-0.0796508;1.4427766;0.022799682;-0.07580166;-0.7989297;0.008725747;-0.36785293;-0.12031976;-2.4864492;-0.64001834;-0.30258685;-0.0103373;-0.028427692;-0.3238052;0.52026105;0.03282944;-0.062496856;-0.07597957;0.041649368;-0.087824054;-0.014993578;0.19040418;-0.03858243;-0.021985741;-0.37033993;0.059533343;0.0206815;0.04354575;-1.1613532;0.04980662;-0.47854295;-0.06592473;0.08872145;-1.2103345;-0.0028337687;-1.687176;0.7633271;0.42399615;-0.044202868;-0.11412627;0.0438824;-0.04070871;0.08540994;-0.25694117;-0.006352469;-0.06416887;0.014446875;0.050654493;-0.24571045;-0.008148015;0.088347346;0.04560254;0.041737817;-0.30578297;-0.04237637;0.04569275;0.18610215;-0.057828847;-0.31138664;0.14442481;-0.07362893;-0.059335146;-0.026711538;-0.038604315;-0.08090978;-0.013458019;-0.06664813;-0.26179078;-0.016880665;0.22044446;0.04115164;0.43798417;-0.017472006;0.024479242;-0.053551506;0.12386245;0.028728543;-0.024483263;0.32667512;0.00066473946;-0.07330007;-0.057906013;-0.051186357;0.08645583;0.25007424;-1.0318301;-0.015738456;0.0007809489;-0.07182498;0.03648691;-0.02158958;-0.10076443;-0.062456664;0.21500468;-0.46665764;-0.88324445;-0.059067644;-0.01271121;0.022898346;0.48734474;-0.18551792;-0.019277684;0.06809843;-0.08770948;0.052413084;-0.06456546;-0.018449169;-0.16015495;0.09636708;0.0651535;0.05981056;0.0053724293;-0.5798333;0.09773799;-0.11181275;-0.04581561;-0.067512006;-1.1147039;-0.061819196;0.056942046;-1.1127279;-0.09103482;-0.035044126;-0.037701517;-0.39543626;-0.074325606;-0.020624304;0.063975684;-0.2024302;0.06435563;0.34941676;-0.15829197;-0.682408;-0.050105512;-0.07507035;0.021348126;0.09398623;-0.020863619;0.058411185;-0.7368289;-0.1472322;0.03358568;-0.027598124;0.065361306;-0.69087225;0.024448482;-0.109712;-0.5949607;0.058942284;-0.27722335;0.051210217;-0.212782;-0.023065465;0.007408281;0.014844231;0.05097329;-0.1310087;0.0049613477;-0.38058016;-0.052568715;-0.62566257;0.06299168;-1.3656787;0.02390659;0.09446071;0.054009266;-0.23490536;0.019999335;-0.068938;0.0201238;-0.051464245;1.1019007;0.39153817;0.02174262;0.4853342;-0.046810906;0.32088882;0.009375464;0.04839857;0.03446469;-0.026464863;-0.03679416;0.42834747;0.07425347;0.22945222;-0.062299263;0.07686731;0.01383214;0.0048679244;-0.033360094;0.027929645;0.081888564;-0.9716442;-0.65391976;-0.054642554;0.46427596;-0.34200263;-0.15433978;0.07661744;-0.046266377;-0.17641875;0.05032422;0.025283044;-0.06011592;-0.05908268;-0.09056241;-0.3540652;-0.21026176;-0.06489943;-0.03832515;-0.026057096;-0.05059646;0.02219242;-0.21143581;1.276462;0.034968;0.038252983;0.009254745;0.26608688;-0.20706709;0.9536025;-0.0013264572;-1.7045355;-0.00052220543;-0.08839317;0.18150033;-0.06082415;0.22006598;-0.37275723;-0.039308567;0.017578918;0.069472305;0.02630965;-1.0815866;0.034743015;0.015967892;0.021877041;-0.0486699;0.3642763;-0.061173275;-0.06682177;-0.086435206;-1.4782219;-0.05850453;0.30947143;0.029933998;-0.0010943108;0.033902623;9.777744e-05;-0.04535464;-2.5134687;-0.09744129;-0.048120175;0.044123303;-0.06102814;0.053632762;-0.06736822;0.35346723;0.037172746;-0.46877402;-0.040917587;0.042441905;-0.47377616;-0.06632784;-0.07169433;0.043513373;-0.14791408;-0.060314324;0.021816576;0.15184596;-0.029064987;-0.017441588;0.04900625;0.070022784;0.14050099;0.011548112;0.07582835;1.1002183;-0.2162466;0.056229036;-1.2499464;-0.37130454;-1.7885091;0.022135032;-0.060443915;0.036545668;0.046722747;-0.015635893;-0.3245352;-0.0203031;-0.00052009773;0.08555331;-1.7759213;0.06144067;0.06272338;-0.023999743;0.0062427283;-1.5676535;0.2250959;-1.1489624;-0.07229011;-1.1089952;0.29787982;0.02433503;0.052148093;0.017050166;0.046154745;-1.1186515;-0.014291332;-0.038294215;-0.05772445;-0.05623189;-0.0195575;0.7433856;0.002603367;-0.10994429;-0.6426534;-0.04902472;0.06269731;-0.14879178;-0.069991335;-0.054593537;-0.17283691;0.06634159;-0.033868756;-0.12037896;0.070875555;0.012570915;-0.03718345;0.031168515;-1.6748942;-0.6594456;-0.036575522;0.034397732;-0.07109313;-0.0028388535;0.005344482;-0.053372473;-0.047402065;0.013690391;-0.16539624;0.08314257;-1.2171052;0.13504238;0.08698413;0.19825964;-0.05621499;0.03419733;-0.35415104;-0.065454185;0.03434919;-0.011980005;-0.14364001;-1.0159779;-1.0767232;-0.22750963;-0.10927092;0.06551447;0.13093211;-0.07840757;-0.014277512;-1.0088685;0.23683228;0.051166292;-0.0021991413;-0.035772674;0.06481911;-0.14459318;0.017644014;-0.06890502;0.61083317;-0.024090076;-2.7545671;-0.36233976;-0.5789731;-0.046143636;3.258396e-06;0.20785554;-0.05995679;-0.37830755;-0.0047336463;-0.069954306;0.03163538;-0.040014926;-0.014862899;0.051359292;0.004646776;0.116842404;0.0014779391;-0.034699414;-0.050242405;-0.105922334;-0.6702158;-0.033619076;0.21307793;0.19646977;-0.47302318;-0.050678764;0.025936576;0.06477079;0.025006058;0.5878987;-0.057617802;0.15233503;-0.10834876;-0.01286852;0.16868544;-0.051563174;-0.7998633;0.008343475;-0.0949797;-0.0135372495;-0.0048946226;0.56316334;0.040308177;-0.3245761;-0.19055441;-0.0078120315;0.06449344;0.2866066;0.16955;-0.07685263;-0.025356473;-0.085126825;-1.0660175;-0.08665767;-0.030414201;-0.012200986;-0.020295663;0.068668865;-0.023652446;-0.010870736;0.024032723;-0.20510606;-0.09319991;0.041526023;0.042349715;-0.0697784;0.027529472;-0.13614422;-0.056846276;-0.1201961;-0.075465016;-1.8397803;-0.004215155;0.082797356;0.078719825
-0.6362463;0.058825273;-0.87450695;-0.009266234;0.0597072;0.40398255;-0.06213114;-0.21503918;-0.07263656;0.30829558;-0.13893497;0.42794323;-2.0129142;0.95747113;0.24964093;-0.634425;-1.0023596;-0.0029480902;-0.24825159;0.003393225;-0.47792596;0.027217897;0.16000599;0.27409935;0.0840873;-0.06597805;-0.02285751;-0.004763979;-0.2673568;-0.29320696;0.65499485;0.5312871;0.06064024;-0.23643431;0.09715905;-0.66185826;1.0332761;0.065613106;-0.08524705;-0.3345943;0.052850597;-0.08726776;0.31157112;-0.2923604;-0.14300421;-0.08552459;0.6209464;-0.0056366287;-0.32008055;-0.2927415;0.80032927;0.44955796;0.09686466;0.043115523;0.14854151;-0.016744087;-0.47346452;-0.0066073127;-1.721579;-0.32787687;0.05532851;0.48205817;-0.9038799;-0.50504977;-0.118729755;0.02755424;-0.71101093;0.09045971;-0.006779678;0.058463912;-0.006384747;-0.19614528;0.08121753;-0.2425368;-1.1432729;-1.0220362;-0.24866043;1.1563979;-0.2473595;-0.21747567;-0.2123703;0.057779085;-0.114191085;-0.35283077;-0.19985904;0.01844812;-0.6595782;-0.030881979;-0.019252162;-0.05599641;-0.0030073603;0.54645956;-0.15765294;0.07050456;-0.42229447;0.0066927136;-0.10688524;0.057243735;0.33388108;0.042984832;-0.31003088;0.031779833;0.1937888;-0.099991016;-0.052947402;-0.019952994;-0.05606956;-0.27639255;0.014937177;-0.0042875847;-0.019935785;-0.08757619;-0.042004496;-0.07540393;0.02368411;1.1869289;0.033168755;-0.08945522;-0.028480329;-0.0739364;0.009705012;-0.052048396;0.047051277;-0.049878903;-0.11363357;0.018402357;-0.01826249;0.5138674;0.10605774;-0.09534277;-0.17244938;-0.054573245;-0.16496846;-0.40355644;0.062653616;-0.12139159;0.51068;-1.0003288;0.41045892;-0.075036936;0.033602018;0.01000515;-0.43019325;-0.2896804;-0.1788361;-0.059208658;-0.059995785;0.050882936;-0.02141331;-0.035967782;-0.7422416;0.0065655764;0.057369314;0.43892023;-0.08319091;-0.12889989;0.042747706;-2.3424323;0.019722158;-0.5918453;-0.02471705;0.98621994;-0.5957664;-0.066593744;0.17376216;-0.32674366;0.044432994;0.045042302;-0.055529423;-0.22662099;0.06769367;-0.026035935;-0.03637587;-0.02941616;-0.006668429;-0.028927995;-0.08658146;0.08494379;-0.06259758;-0.24036396;-0.08318844;0.015687034;0.12104219;-0.097799264;0.07428216;-0.81240433;-0.046995003;-0.25002408;-0.25005668;-0.092089474;-0.1510709;0.26444924;0.118119925;-0.0075489823;-0.0339261;-0.12826581;-0.090540186;0.12070406;-0.21972963;-0.11326766;0.19491193;0.0347162;-0.070363335;-1.1557803;-0.15187371;-0.074828625;0.0869712;0.96361816;-0.03307259;0.05218331;-0.011528606;-0.028658278;0.020594895;-0.8831491;-0.2814384;0.04966517;-0.043854963;-0.074627995;-0.12546842;-0.12028025;0.1465097;-0.17721312;0.32318658;-0.31168905;0.72091824;0.04787667;0.023462305;-0.6358515;1.5589182;-0.0050082495;-0.3248158;-0.076399535;-0.084146455;-0.04688852;-0.43521133;-0.10101318;0.46091944;-0.27984193;0.005294612;0.026744487;-0.12096531;-1.3273327;0.12493767;-0.005328459;-0.096941784;0.054735273;0.2310203;-0.048194315;-0.025666598;-0.99570054;-0.06121301;-0.08795828;0.004110309;1.0291581;0.03858508;-0.26005152;-0.071227595;-0.18858244;-0.5581252;0.47461516;0.30231163;-0.40107355;-0.29958144;-0.024301963;0.043103576;-0.37201324;-0.024207493;0.62025386;-1.4334806;0.03919901;0.04885799;0.057034083;-0.0815432;-0.23879157;-0.5906069;0.1664821;-0.2967312;0.17409693;-0.3419571;-0.12554921;-0.28130987;0.032559756;0.0006383503;-0.02083756;-0.011836912;-0.011105166;0.5809062;0.28280056;0.027292568;1.1392188;-0.18179616;-0.24186005;-1.2634532;0.03833227;0.033408955;-0.28644413;0.1196479;-0.047630467;-0.25626808;-0.066528104;0.26650378;-0.8159625;-0.052061457;0.65743446;0.024410233;-0.29094;-0.027783291;-0.06991543;0.12870012;0.0109835025;-0.05410843;-1.17034;-0.16375755;-0.2293811;-0.02141481;-0.023173256;0.055445645;-0.03725411;0.30456448;-0.06225959;0.001940755;-0.15358429;-1.8552531;0.058423534;-0.7926896;0.68575233;-0.02657269;0.09678754;-0.31137127;0.88460946;0.14024796;-0.030260274;-0.016496468;0.089133166;-0.041561067;-1.04338;-0.024752283;-0.012209827;-0.018600205;0.19822311;-0.29717287;0.021749612;-0.09979419;-0.38818794;0.093271114;-0.10839671;-0.12861715;-0.8754343;-0.095397584;0.3060608;-0.5757395;-0.6333308;-0.08670832;0.05636476;-0.011674516;0.078214206;-0.88557595;-0.077999465;-0.29677254;0.011484431;-0.11793451;-0.10797108;-0.78917396;0.07119595;-0.010855419;0.07837369;-0.087079234;0.23901673;0.019707851;-0.13575867;-0.02822828;1.5216265;-0.14994308;0.6072816;0.025266275;0.09677231;-0.03468737;-0.016047249;0.022784332;-0.7189538;-0.030861635;0.14694919;-0.0328419;0.046507303;0.014550769;0.13175994;0.61585474;0.037954822;0.9372279;-0.64403474;0.044432785;-0.20575303;-0.049930982;-0.024614487;0.081536904;0.07711955;-0.32854015;0.04881823;-0.03423408;0.059306152;-0.0668209;-0.14721996;-0.068280555;-0.17032562;0.034294907;-0.059556413;0.43321347;-0.06501329;-0.2972604;-1.9109514;0.15662685;1.3960111;0.0089714145;0.04886137;-0.079746835;-0.12342141;-0.009629367;0.21497577;-0.018770862;-0.04824642;-0.19316643;0.40966827;-0.016919488;-0.06256341;0.63552725;-0.09642352;-1.0306613;-0.24719772;-0.79869497;-0.06135024;-1.0839386;-0.28031075;0.15714696;0.21814659;0.07694974;-0.13386236;-0.80179304;-0.28385484;0.0077190096;0.008514682;-0.09098899;-0.35448694;-0.75833595;-0.006995214;0.09536569;0.04172999;-0.42537072;0.093690254;-0.10837433;0.030669045;0.25526935;-0.6998466;0.08403444;-0.28077275;0.15649672;0.06498648;-0.021790884;-0.060860902;0.021586327;0.24656855;0.45497632;0.057964414;-0.14294308;0.032608338;0.023539066;0.12819307;-0.98495436;-0.015778478;0.087150775;0.15536624;-0.12533166;-1.4713925;-0.032476787;-0.43882218;-0.38709742;-0.3370642;0.09129816;-0.71626866;-0.027343336;0.11275549;0.08438347;-0.051232357;-0.44491556;1.1475886;0.13086893;-0.038702466;-0.16924408;-0.18237439;0.6164312;-0.09838654;0.44771495;-0.09096764;-0.22633758;-0.023420017;0.34454548;0.027010716;0.32974163;-0.107899114;-0.04800377;-0.79960835;-0.022920286;3.0675046;-0.7180041;-0.24622665;-0.052934453;0.038364142;-0.7340802;0.056703314;-1.1250437;-0.1463905;-0.052055836;-0.002372305;0.045518685;-0.016108703;0.030729294;-0.105582334;-1.2030638;-0.0013650869;0.38695854;-0.08761774;0.094771944;-0.9437599;0.047223687;-0.48930478;-0.27706105;0.35996044;-0.07461728;-0.25274885;0.020073231;-0.09297521;-0.8213942;-0.17686893;0.97918415;0.09065557;-0.025828836;-0.3012832;0.073617056;-0.5168613;-0.102219366;0.18269698;0.022007456;-0.22985283;0.5639351;0.09590065;-0.32279748;-0.14091732;0.056091126;0.009320795;-0.6664124;-0.07454024;0.019366154;0.06991416;-0.016754672;-0.4881444;-0.27730066;-0.065062515;-0.03839104;0.0365536;0.01774266;-0.18946348;0.08181764;0.3412402;-0.9136343;0.032795977;0.009954025;0.01856411;-0.08621614;-0.02130716;-0.4303778;-0.003292451;0.055624783;0.057320792;0.95458704;0.047189865;0.019685527;-0.11493119
0.066974804;0.037425905;-0.039603908;-0.1843122;-0.12028134;0.014453649;0.06460689;0.10154444;0.17258857;0.13622709;0.038513012;-1.4312559;-1.6782422;0.73560894;0.57559127;0.13040851;0.72251034;0.08237263;-0.39054742;-0.05847223;0.08501777;-0.09329708;-1.4342313;0.46961403;-0.05037684;-0.61894345;-0.107314646;-0.09216589;0.251499;0.59979326;-0.10282817;0.8473771;-0.21740375;0.13979527;-0.007366365;0.013932685;0.520852;-0.6993411;-0.032002755;-0.2008103;-0.1376242;0.0060126632;-0.056466714;0.28764325;1.769057;0.06579981;-0.04942546;0.13578497;0.23599161;2.1744895;-0.45549524;-2.1398597;-0.049405023;-0.06689845;0.24224786;0.039342534;-0.12845778;-0.16111952;0.23836915;0.21363759;-0.04810617;0.64451504;-0.12630405;1.3075272;0.16521315;-0.07421437;1.1673273;0.035695694;-0.051018856;-0.11939259;0.08442116;0.16740942;-0.062347233;0.42306983;-0.080421634;-0.3471971;0.25589103;-0.18829022;0.088930205;-0.013154246;0.12839198;-0.06179316;0.14106199;0.5827629;0.008877459;-0.028141167;1.2432905;-0.10147333;0.28257293;-0.06424037;-0.12115573;0.065820485;0.062314652;-0.17748626;1.8121415;-0.054197475;-0.004225204;-1.86676;0.5322229;-0.078341566;0.1805022;-0.082375295;-1.3326582;-1.0177426;0.022143947;-0.48234;-0.08372923;-0.075402506;-0.0061932346;-0.17419203;-0.16335078;0.17266707;-0.1218932;-0.022668298;-0.14248265;-0.24272545;-0.023351172;0.14770806;0.10566827;0.14574835;-0.13476817;0.02444428;-0.12920119;0.18602003;0.97082454;-0.120802335;0.005719096;1.0280286;-0.119835064;0.074167706;0.04015478;0.10064626;0.093163215;-0.4398929;-0.040372696;0.66168714;0.829674;-1.435296;0.071541235;-0.7675131;-0.010311952;-0.018568713;0.96949977;-0.20878474;0.38329458;-0.04466604;0.027387775;-0.073879056;-0.26711482;0.07278357;1.9689456;-0.048946284;-0.019487934;0.37022337;-0.109283775;0.023570385;-0.15787934;-0.9341101;0.055527113;-0.9158213;-0.066957265;-0.003537425;-0.87413096;-0.08473975;0.4551326;-2.3271477;-0.6734964;0.0033754504;-0.0431044;0.29797578;-0.12012149;-0.16675706;-0.43896064;0.071762316;-0.12658575;0.013509034;0.080098;0.5583162;0.016753923;0.23233691;0.12556507;-0.07897937;-0.22751597;0.05175375;-0.048984714;-0.12112863;0.15590742;-1.6877592;0.30326697;0.12699816;0.17981683;-0.031397365;-0.03731049;-0.008166819;-0.06706726;-0.00229736;-0.15313624;-0.103178054;-0.18952812;0.0692694;-0.009291133;-0.051148973;0.13268577;-0.47407284;-1.388683;-0.0054600816;0.16676383;-0.08604723;0.09835729;0.05729534;-0.0447579;0.17265204;0.14363588;-0.16862322;-0.05031224;0.025720594;-0.018388132;0.13047831;0.0841796;0.08834097;-0.152687;0.05489167;-1.1025765;0.8022513;-2.728467;-0.09023932;-0.009811586;-1.0040736;0.42101234;-0.2817682;0.26965;0.019234812;0.08483245;0.1136162;-0.7957578;0.19353348;-0.2932649;-0.1489894;-0.22073156;-0.06219903;0.19993737;-1.4970897;0.050598834;-0.10732611;0.12242311;-0.051427078;0.842125;-0.08761773;-0.20876478;-0.07403032;0.010601051;0.11004466;-0.0033203019;0.47188616;-0.015567705;0.13364814;0.033025872;-0.2332914;0.17301169;0.9499095;0.028272713;0.10129622;0.16773556;0.057704505;-0.046950664;0.16722724;-2.4265218;-0.13645755;-0.08248765;0.18504842;-0.14882942;0.0021790604;0.11881687;0.015203289;0.23608513;-0.3732421;-0.6522166;-0.19191104;-0.7425189;0.017803565;-0.2485582;-0.06255569;-0.20387608;-0.21433531;-0.05003862;-0.15588857;-0.07473337;0.09790799;0.0040413355;0.21444792;-0.36559647;-1.4869455;-0.96925545;0.88063043;-0.6661502;0.15057914;-0.10816716;0.11229388;0.23233427;0.05541374;-0.3676565;0.1847279;0.1281152;-0.12853558;0.05930926;0.6324135;0.040235136;1.2635206;-0.15684803;-0.046930116;-0.046940625;0.42435867;0.10347599;0.31865638;-0.10762506;-0.114004605;-0.11670118;-0.12595408;0.09887572;-0.045597263;0.01885435;-0.45860264;-0.87529975;-0.02105295;-0.44238946;0.8040206;-0.04687371;-0.23710923;0.1398808;0.22614166;-0.098427825;0.031226844;0.0019518287;-0.26869178;0.07314378;1.2101595;-0.61954385;-0.10851664;0.045436453;-0.17251633;0.15622458;-0.039375767;-0.38531014;-0.35730273;-0.1311133;0.10078093;0.05037921;-1.5634843;-0.028181713;-0.051124103;-1.2280507;-1.1332744;0.040535532;-0.00023891438;0.29348123;0.007364154;2.550539;0.83790815;-0.69164175;0.0764486;-0.10332467;0.13152534;-0.60949326;-0.05784355;0.23005538;-0.106416665;0.15277025;-0.47194394;-0.025139397;0.13323891;-0.043203074;0.7645798;-0.43987396;-0.36078444;0.09784917;-0.14747256;0.066847816;0.0025544616;0.029335408;1.1182013;0.06588261;-0.1393531;0.07023155;-0.12833446;-0.06852343;-0.07532191;0.2791221;0.12693496;1.6042742;1.48718;-0.007523223;-1.0046868;-0.020806124;-0.1291948;-0.036453407;-0.18417503;0.16415946;-0.11424959;0.38889882;-0.024501244;0.11466478;0.14694534;0.08834073;0.5234149;-0.064224474;0.14408925;0.06660942;-0.5696462;0.171804;-2.3474617;-0.3893995;1.762395;-0.14334168;0.05001292;0.035743188;0.20673168;-0.042351052;1.4773716;-0.05984211;-0.046526767;0.17542273;-1.8479322;0.042343523;-0.0892569;0.9517069;0.086140126;-1.165142;0.38584092;-0.87892586;0.01780838;0.0047040815;0.06641649;-0.06874524;-0.1989906;-0.076630816;0.082396775;0.34000427;0.24021567;-0.080162056;-0.014483346;-0.016991548;-0.22195682;-0.59194195;0.016440094;-0.23287207;-0.53563607;0.61662245;-0.1520798;-0.4883676;-0.15649238;0.07627064;-2.7701023;-0.03545114;0.09068731;-0.21085677;-0.1665403;0.018851645;-0.04608422;-0.10211531;0.7797162;-1.2642599;-0.113588445;-0.07755113;0.059398744;-0.08837621;2.8540304;-1.443284;-0.001835512;-0.100789376;-0.280471;0.15032843;2.1057055;-0.7297198;0.8669645;0.63755167;0.1746306;-0.021561889;-0.41335198;-0.05576178;-0.09204055;-0.17036802;-0.0014875501;-0.8926153;1.3382143;0.23752986;-0.04943541;0.40392667;0.48735714;-0.28564757;0.09282629;-0.29098102;-0.68561274;0.24313976;-0.04954413;0.5360525;-0.039559606;1.5043023;0.02287531;-0.13472112;0.69659007;0.02514566;-0.22092359;-0.21116072;1.5885553;0.06454315;-0.12620407;0.5904985;-0.1164844;-1.3879106;0.15932685;0.070266016;-0.13292758;-0.05585494;0.01702327;0.13722838;0.047726497;-0.19082476;0.032220118;0.005290976;0.042021804;-1.5884622;0.73809147;0.0044307616;0.7846634;0.6180584;0.032790855;-0.010994405;0.34412414;-0.06043245;0.07581929;1.1615518;0.048371434;-1.4359822;-0.18606894;-0.15887588;-1.3286928;-0.036343567;-1.0687183;0.027741259;-0.13084768;-0.024645882;0.26164526;1.6341678;-0.04392056;-0.8216937;-0.4621133;-0.034092292;0.059568778;-0.26899624;-0.27197605;-0.08244346;-0.079544835;0.115008965;1.4962928;-0.073058166;0.110075064;-0.12210206;-0.07461607;-0.070796706;0.37939227;-0.085982665;0.2891736;-0.46369946;-0.071047924;0.090670824;-0.07811124;0.08625334;-0.1123368;0.03341356;0.004841085;-0.25366616;0.059998475;-0.7888644;0.0027520882;-0.0044739633;0.12129722
0.14127705;-0.09401695;-0.3692718;-0.12931474;-0.22712602;-0.22133006;0.02261109;0.2644144;0.23264399;-0.10467152;0.087000385;2.2645109;0.48160124;0.13056584;0.61559284;0.9252678;1.0804789;0.026487263;-0.13792542;-0.009693148;-0.22985838;-0.038960513;-0.11846423;1.0298212;-0.11815465;-1.1826978;-0.13423896;-0.13547663;0.30764952;0.9325695;-0.14445826;0.81397784;-0.112701416;0.19684196;-0.084271476;0.71765536;0.013999966;-2.0006528;-0.0453793;-0.9189054;-0.08555861;0.2139466;0.16100483;0.40751377;0.0076488657;-0.06563864;-0.48151806;0.07469678;0.4939762;1.3902406;-2.3413994;-0.89868313;0.0030590806;0.02998245;0.7609137;0.25331932;-0.5785595;-0.050775643;-0.32646883;0.39404276;-0.13637474;-0.5010315;0.0045251427;2.089366;0.21693337;-0.0766452;1.9666072;-0.03660052;-0.2962203;-0.110915415;0.20347089;0.2832054;-0.04907508;0.6528186;0.9319903;-1.0210679;0.5588235;0.008697941;0.24295923;0.038528103;0.11941352;-0.019194758;0.16908135;1.0814428;0.9677633;-0.20791931;1.430908;-0.011762353;0.23237112;-0.10607899;-0.24151675;-0.24453135;0.17998515;-0.18812732;1.090087;-0.14185669;0.13686258;1.2641292;-0.0206557;0.0046389117;0.41816992;0.025645923;-0.20139997;-1.1982236;-0.14398693;-0.24425794;-0.12860952;-0.070605695;-0.089768074;-0.23349775;-0.08138521;0.1210895;-0.116899855;-0.020076098;-0.17273295;-0.7388094;-0.13052171;0.29114202;0.22247052;0.13249584;-0.10802669;-0.08433473;-0.1322874;0.2544574;-0.13894069;-0.22528511;-0.09654392;-1.0263749;-0.22207507;0.057070125;0.96078295;0.1520744;0.19289032;0.27890027;-0.10376108;-1.840139;-1.4071246;-1.3520125;-0.78487235;-0.6961197;0.09252556;0.02660025;1.0902694;0.097007126;-0.0024196606;0.0267577;0.042136114;-0.1431167;-0.29525888;0.20425725;-0.06180845;0.11493039;-0.049434543;-0.43483284;-0.008515708;0.07418854;-0.03698919;-1.4436722;-0.053901553;-0.40174884;-0.06152814;-0.50512147;-0.7039596;-0.0027614129;0.93369937;1.6311547;-1.1824685;-0.061908953;-0.08620541;0.4289544;-0.1072261;-0.15130436;-0.40853372;0.07237498;-0.08194234;-0.111006685;0.04890021;0.050502207;0.00835993;0.42767465;0.15332252;-0.028736645;-0.71687824;0.07812495;-0.11434264;-0.65123695;0.047179442;-1.1075749;0.4750487;0.14679098;0.18071647;0.28062797;-0.28349763;-0.041818604;-0.026855262;0.13150492;-0.32799563;-0.16792953;0.39603478;0.04125037;0.39189732;0.063809544;0.06617955;0.83800566;-0.8471405;0.012545832;0.0569518;0.5961097;0.06010425;0.095186435;-0.12386693;0.2064025;0.086045586;0.012737699;0.6858465;-0.105675675;0.04544064;0.027159235;0.23988226;0.21535361;-0.22983879;0.19779316;0.4457091;-0.8314031;1.8477179;-0.12803383;0.1272086;-0.46251407;-1.0046173;-0.3482805;0.43321738;0.06332951;0.057275645;0.1382369;0.1501053;0.25189066;-0.41508487;0.33643237;-0.3360564;0.037184212;0.22566792;0.37257814;0.35349733;-0.27233642;0.042427592;0.021092882;-2.5156038;-0.24783243;-0.24572572;-1.6839066;0.031583827;0.09543164;0.033539694;1.2827823;-0.07292841;0.355309;-0.011872523;-0.4117418;0.16652979;0.4908817;-0.112535834;-0.12759408;0.40043017;0.072153404;-0.028773129;0.8996536;1.81702;-0.0958712;-1.1741233;0.46238998;-0.32628906;-0.100242585;0.19583653;-0.12500922;0.32151198;-0.37356862;-0.5117405;-0.35987845;-0.025794677;0.13924287;-0.4068293;-0.011389865;-0.24069822;-0.33870462;-0.109734714;-0.30521798;-0.3687755;-0.11660202;0.11549988;0.30352312;-0.04439901;-0.6250961;0.882531;-0.58409834;-0.6307058;0.2978796;-0.28900278;0.12940182;0.36358017;0.02801342;-1.0547154;0.10041231;0.084794074;-1.4054298;0.014085788;1.0839828;0.29875872;1.9736706;-0.20826657;-0.115735866;0.0069154752;0.6861437;0.18822528;0.72267103;-0.053511888;-0.14438953;-0.029491851;-0.062219825;-0.027471315;-0.09902616;0.08356099;0.60744274;-0.5627824;-0.052329812;1.0286343;-2.3062587;0.012145358;-0.17976819;0.3034017;0.81386596;-0.23325011;0.1176469;-0.020315355;-0.28259733;-0.0073237927;-0.97427094;-0.79550517;-0.1398698;0.059241652;-0.28738508;0.37698692;-0.048365872;-0.29140267;2.1121836;-0.2971132;0.113693364;0.006867833;1.9846852;0.11703638;0.100950114;0.854009;0.83058983;0.22113815;-0.06488198;0.27165937;-0.040450033;0.34588578;-0.832921;0.53855723;0.009003338;-0.095588654;0.20236528;0.015989088;-0.11539086;0.087090015;-0.2385776;0.17681736;-0.3954305;-0.12407154;0.22401501;-0.02332895;-0.8631748;-0.23455688;2.2779877;0.09119888;-0.15887156;0.16861689;-0.064671345;-0.011097485;-0.2656207;0.058704738;-0.25491732;-0.0635346;-0.18189265;-0.086978815;-0.24676254;0.20358852;0.11332012;-0.23761708;-0.92210597;0.026737193;0.14369315;0.023243854;-0.014144208;-0.17089583;0.045645162;0.28415182;-0.040368218;0.46978152;-0.14385222;0.073886536;0.109588824;0.060836963;0.6467617;-0.08449435;0.2728148;2.5610545;-0.6281429;0.38773862;-0.27986684;-0.20676582;-1.0362638;-0.16628592;0.00741181;-0.039003577;0.29776448;-0.032422245;0.110483356;-0.12797289;-0.008468913;0.41801852;-3.3230562;0.12464561;-0.04121939;0.14517409;0.2696899;-1.0270607;0.03667678;-0.56081367;-0.09911624;0.16677241;0.38069364;-0.26067883;-0.2298685;0.03308655;0.12875307;0.08707536;0.29923487;-0.03820488;-0.02187031;0.037405003;0.50298107;1.6171433;0.10008023;-0.3737192;0.21708816;0.07154089;-0.07047659;-0.5098771;-0.17674513;0.30847308;0.52355623;-0.0266601;0.4010227;-0.17827292;-0.17794397;0.0856061;0.0057560764;-0.024624785;-0.86336285;-0.056900322;-0.14623028;0.17756201;-0.013173608;-0.10638395;0.18258905;-0.9619681;-0.07918237;-0.13551962;-0.18208517;0.26182106;-0.3935556;-0.4710884;-0.9030207;0.9280322;0.08963276;-0.2098061;-0.21268079;-0.1612069;-0.16235681;-0.11511501;0.11205208;0.41601074;-1.8999827;0.16097924;-0.065571226;0.7144112;0.7784139;0.3274704;0.22534017;-0.91498244;0.48906016;0.37919265;0.07045734;0.8336844;0.0071491944;-0.8884312;0.16926415;-0.18165131;2.4843526;0.031307895;-1.4875944;0.8615556;2.3566098;0.016299352;-0.011282108;0.9878334;-0.11860918;-0.18274088;0.18438132;0.051031686;-0.0148737375;-0.022507504;0.020746648;0.13082208;0.104542755;-0.3821393;-0.05999279;-0.18821058;0.081205726;-0.64492965;0.005977616;-0.08407556;-0.053163853;1.0625919;0.1850522;0.17277417;0.4759115;-0.018864825;-0.08394314;0.2144695;-0.018000254;0.33305866;-0.2655284;-0.15527825;0.71321386;-0.09941072;0.14382401;0.17093505;-0.19770542;-0.078146316;0.44817775;0.51868796;-0.059946917;-0.5683531;-0.13370346;0.03997169;0.116005085;-0.16746339;-0.10328819;-0.07164619;-0.025222387;0.24769187;0.08625877;0.12295904;0.14057021;-0.13748859;0.027445717;-0.07889283;0.5449822;-0.18947864;0.14475928;-0.4242249;-0.13733171;0.07133749;-0.052282292;0.080352515;-0.09229064;0.25992802;-0.034950852;-0.13435268;-0.039842904;-2.5254514;-0.103261225;0.055160195;0.1396844
-0.3089367;-0.04665293;-0.98081696;-0.06288443;-0.06383697;-0.30600435;0.027180167;-0.062413044;-0.040868673;-0.35809627;0.07703766;-0.019257043;-1.2040972;-0.11367838;0.17602575;-0.11265968;-0.07090428;0.018335627;-0.40597078;0.027271492;0.15679309;-0.0027602313;-0.1644355;0.41314086;0.06261751;-1.0471694;0.03839063;0.06785373;-0.029848302;-0.07029113;-1.360328;-2.0620174;-0.08482504;-0.053397417;-0.029671209;-0.3378778;-0.32007563;0.16424723;-0.037076823;-0.38538632;-0.08091608;0.044487573;0.921618;-0.0040203026;-0.23454303;0.016911864;-0.30802536;0.01177392;-0.09940752;0.28499112;0.6420513;1.2124149;0.0052168677;0.049752697;0.43599704;0.020617696;-0.3153597;-0.018734027;0.72306424;-0.015909923;0.016008662;-1.0756598;-0.38812435;-0.30247444;0.17526829;-0.113623224;-0.9117483;0.014178003;0.04828236;0.024018113;-0.17674898;0.023318721;-0.0013990154;0.07299432;-0.5087313;0.8605589;-0.019744428;-0.37868854;-0.07604008;-0.34086952;0.049685024;0.024732184;0.026064962;-0.08520281;-0.15010703;0.0046576113;1.6978825;0.025233014;0.1858859;0.03176241;-0.13206206;-0.32440227;0.068025164;0.024366565;-0.4322057;-0.04087587;-0.124961;-0.8510729;-0.027211243;0.031209959;-0.0025079325;-0.09092467;-0.26670858;-0.86061645;0.028051829;-0.31523627;-0.08591464;-0.28772098;-0.057202943;-0.046310294;-0.010482035;-0.022067327;-0.118147954;0.031074284;-0.012895387;-0.063606426;-0.06668421;0.015397504;0.2042624;-0.08136195;-0.065330826;0.06448229;0.04155925;-0.052642923;0.82818425;-0.08328843;-0.050102584;-1.910292;-0.027250223;0.034517877;-0.6794116;0.01150383;-0.0770779;-1.5241185;-2.8958846e-05;0.16067703;0.25374016;0.11824104;-0.4976511;-0.30834854;0.06586899;-0.046955742;-1.265874;-0.56329894;-1.2703924;-0.03962912;-0.09611567;-0.07678797;-0.21422939;-0.021704033;0.51089954;0.023390401;0.048264645;0.1499111;-0.0809981;0.016445626;-0.1029879;-0.8674518;0.012276185;-0.0129685495;-0.06463964;0.20458166;1.1621176;-0.08716109;-0.7783372;-1.1265122;1.4605294;0.005816233;0.012015751;-0.14263698;-0.090826504;-0.10309156;-0.08318641;0.0805351;0.06449852;0.028511021;0.05174484;-0.5222351;-0.0111262435;-0.13031861;0.023597976;0.0010502962;-0.46927002;-0.08715773;0.13771287;0.041590758;-0.023693947;0.9667204;0.14963245;0.19000177;-0.10344844;0.016379716;0.010868436;-0.07146556;-0.029445777;-0.054035265;-0.2135787;-0.00921611;-0.055210426;0.004900589;0.19599776;-0.013440336;-0.066499844;-0.6925765;-1.7626617;-0.05766106;0.07293972;0.025030306;-0.025423596;0.088168986;0.047222324;0.029674834;0.039266814;-0.036429707;-1.7496717;-0.08094693;0.020908339;-0.024171457;-0.08894276;-0.02374364;0.025605978;-0.054874502;-0.18187729;0.44484007;-1.0685091;-0.061062925;0.08539256;-0.13865866;0.2137725;0.17279121;0.015610955;-0.038827345;0.014633598;0.017591523;-0.07636064;-0.09695653;0.230545;-0.13248342;-0.12786238;-0.09502163;-0.108358026;-2.5678442;0.06700976;-0.057525747;0.026603844;-0.053394813;0.100565985;-0.02689431;-0.006695508;-1.1442441;-0.05571229;0.035364177;0.074610285;-0.7203035;0.02957957;-0.10209262;0.038329344;-0.13308533;-0.010188157;0.72334784;-0.33569416;-1.2189572;0.0036707867;0.010613104;-0.05004433;-0.07269914;-0.6580471;-0.49491417;-1.059912;-0.07127585;0.02292304;-0.105109334;0.068497315;-0.15741342;-0.031584762;-0.36171284;0.17432058;0.1307391;-0.39768463;0.14115055;0.2534751;-0.0064199693;-0.08714682;-0.11305547;0.059311062;0.0739181;0.21026707;-0.5998983;-0.057847943;-0.49165395;-0.035329424;-0.3648419;-0.34737083;0.7750706;-0.19762112;0.2850378;0.032387774;0.10752174;-0.09347626;-0.0067825713;0.35847837;1.1746925;0.08886263;1.0351588;-0.12535293;-0.061943896;0.16700467;-0.5226066;-0.027297191;-0.006925383;-0.022564676;-0.17253144;0.035238046;-0.22137725;0.023697468;-0.11120795;0.016624823;-0.039960545;-0.058188565;-0.057323746;0.07458661;-2.2888842;-1.2571964;0.05726819;-0.2991558;-0.117288165;-0.16422898;-0.07617176;-0.11609421;-1.6187068;-0.10820174;-0.007979359;-0.011510151;-0.15347773;0.015603615;0.44039416;-0.8031379;-0.058132477;0.0038497492;0.16798957;-0.11635115;-0.05285956;0.41396177;-0.68065274;0.022026392;-0.015106392;0.02366221;-1.6373146;-0.08202682;-0.06593677;0.23487969;-0.103480466;0.022444813;-0.083676584;0.082370244;-0.0883506;0.3558974;0.474218;-0.19410615;-0.05291094;-0.08308947;0.031223703;-0.09943421;0.02898647;-0.09604393;-0.046651136;-0.0982073;0.041138332;0.002859325;-0.009805861;-0.0014692078;-0.43895078;-1.9957577;-1.4838775;0.08414722;0.012801612;0.113236405;0.06576223;0.03294973;0.17229244;0.0015734625;0.045306012;-0.051299185;0.0026507059;-0.00038472962;-0.037473127;-0.40248463;0.08590536;0.15004614;0.36658278;0.044203993;-1.2107342;0.021869034;0.024076043;0.030859143;-0.057677105;-0.03853109;-0.034705568;-0.6949302;0.065089054;0.07968569;-0.09399672;-0.033603825;-0.004824104;0.04885164;-0.09382688;0.7437086;-0.35289675;0.010412836;0.97016436;-0.5505222;-0.60567737;-0.05439446;0.015035632;0.036248334;-0.0017412518;0.06578898;0.47014526;0.04117103;0.008048735;-0.11118108;-1.073009;0.0068382607;-0.027762363;-0.4162351;-0.015242801;-0.03534125;-0.03608876;-1.9854621;0.041000266;-1.0994204;-0.10653207;0.08798945;0.060381148;-0.017223395;-0.066366404;-0.047333553;-0.14372662;-0.0149862515;0.04162886;0.035582714;-0.20935555;-1.0071069;-0.03380419;-0.17142269;-1.0365356;-0.003763264;0.017944291;-0.27875036;-0.01116696;-0.2061459;-0.50301516;-0.012273673;-0.17481716;-0.003626034;-0.013402491;0.0024525565;-0.13038053;-0.06414406;0.8213065;1.0872753;-0.028565612;-0.0475997;0.054104175;-0.0006183843;-0.21416867;0.563871;0.020805493;-0.060499977;-0.093096204;-0.043561663;-0.3855416;0.24306995;-0.2528668;-0.11473596;-0.18330513;0.08688278;-0.081559494;-0.07235154;-0.025756178;-0.0361382;-0.29712504;-0.27129084;0.47222626;-0.24087064;-0.013663834;0.012191742;-0.007136939;-0.09520464;-0.024016254;-0.12747738;-0.43439257;-0.12650256;0.033320416;0.011647462;0.00011873263;-0.6353886;0.042239543;-0.0631594;-0.56188196;-0.05047929;0.7913023;-2.1303976;-0.25879374;-0.039357167;-0.014835847;-0.93839353;-0.058307968;-0.603891;0.04084006;-0.1258252;-0.058640137;-0.07033966;-0.05638201;0.07682593;-0.017906705;-1.52298;0.014770834;0.17885977;0.05904126;-0.07620392;0.005243875;-0.054178268;1.529827;-0.17227286;-0.5107362;-0.0018377735;-0.103587255;-0.029644612;-0.03865853;-0.71479136;-0.14312117;0.5307103;-0.035009157;-0.043690603;-0.21759485;-0.039205786;-0.6500777;0.07912981;0.064931616;-0.04983127;-0.09849642;0.4488083;-0.0984401;0.52196836;-0.37792468;0.06525426;0.05154786;0.18757467;-0.1508298;-0.1449082;-0.0627779;-0.004415427;-0.31391275;-0.29883194;0.030701471;-0.002524293;-0.036469348;-0.08814889;-0.012694972;0.0099190185;-0.04775802;-1.9524512;0.08677764;0.041082572;-0.04594782;0.03774174;-0.06985362;0.22518227;0.012549694;0.07386456;0.072258584;1.1864426;-0.00081181404;0.007549791;-0.009827125
0.39789388;0.06277654;-0.19290613;0.07220227;0.0745099;-0.5149282;-0.042307124;0.10591411;0.030883169;-0.23831992;-0.08907923;0.94983244;-0.10367584;-0.7875384;0.5842758;-0.8683772;0.1311498;0.061592497;0.13061805;0.026590008;-0.11476162;0.000705637;-1.2821723;0.023740556;0.054791655;0.46300656;0.011973075;-0.041813973;0.14722914;0.2756973;-0.7120731;-0.18556571;-0.08460281;0.025069077;0.07492583;0.083856925;-1.1755728;0.44223917;0.06627228;-0.27607605;-0.04520462;-0.026464371;0.7666199;0.10759223;-1.0823003;0.0755704;-0.61321056;0.0054501523;0.22263233;0.5459295;-0.77262914;0.14728682;0.00483363;-0.033815194;-0.0732076;-0.0051225363;0.41812202;-0.19181779;0.10766064;0.17962939;0.0025670906;-0.7959732;0.57299393;0.729347;0.35433838;-0.023943108;0.1889879;0.07799673;-0.01927143;0.10667688;0.1407026;-0.014452198;0.0017795019;0.27999562;-0.49063966;0.19121686;0.19782019;-0.6676273;-0.023697706;-0.5292306;0.06287309;-0.050706342;-0.023039863;0.3156683;0.3719488;-0.0031865807;1.1448894;0.02178621;0.16373456;0.05885433;-0.13060328;-0.09475915;-0.06967321;0.04194589;0.8052814;-0.06364633;0.008244948;-0.0023656394;-0.26637498;-0.016158562;0.16336057;-0.050991002;-0.002723933;-1.0463107;0.07456482;-0.01574807;0.015747631;0.17245385;-0.0066219326;-0.0007376126;-0.029076928;-0.07147331;0.037777003;-0.042847447;-0.046873245;-0.32299668;0.0124799395;-0.00902189;0.0033935627;0.16375943;-0.030860083;0.090377755;-0.012742981;0.007874807;0.81879693;0.22842577;-0.04371259;-0.33540982;-0.007119556;0.109727524;-0.50032634;0.015729567;-0.013330402;0.09286748;-0.05066353;-1.1208854;0.12400889;-0.6573245;0.0009397325;-0.5934662;0.02030585;0.025761927;-1.1696913;-0.49493173;-0.19563973;-0.06448967;-0.08139526;0.07543584;-0.21021688;-0.09683731;0.40854564;-0.029709646;-0.018036006;-0.521311;-0.012741026;-0.07104179;0.052847937;-0.9364465;0.06489675;0.9343904;0.029458342;-0.10330246;-0.28861785;0.0010459955;-0.047826655;0.32150245;0.0028518331;-0.075382546;-0.024784544;0.20032917;0.052606087;-0.054639302;-0.56872654;-0.031416185;0.0028894711;0.017102266;-0.03278506;-1.2638524;0.04443825;0.14147376;0.046709936;0.0312724;-1.866923;0.013242866;0.08061812;-1.5221015;-0.009287061;-0.47041905;-0.02227213;0.2974443;0.05929816;-0.21576385;-0.030753175;0.049598895;-0.076761164;0.05368939;-0.21565035;-0.012061085;0.2765776;-0.079444624;0.3776299;-0.06299207;0.017472723;-0.20471166;0.750419;0.024522943;-0.018571403;-0.24835587;-0.08146558;-0.07848525;0.022181585;-0.039658535;0.031972084;-0.30927268;-0.9514582;-0.010773407;0.07853293;0.012554831;-0.061012495;0.03594815;0.035749882;-0.02742642;-0.14167665;-0.16855128;0.1284411;0.024505185;0.04088269;0.58329266;-1.1034573;-0.03436272;0.14959541;-0.0434209;-0.06617781;-0.02840038;0.68302274;0.06529489;-0.74102074;-0.30568066;-0.5057228;0.042869758;-0.029880952;-0.4224263;-0.05039045;-0.08461555;-0.049055994;0.04725798;-0.6832817;-0.0817419;-0.08784833;-0.2922162;-0.020397775;0.003343904;0.032236777;-0.18434043;-0.0024127557;0.0680194;0.04089711;-0.19631468;0.010522262;0.58490574;0.1485093;0.08045874;0.16829374;0.07032501;0.05345854;-0.33117896;0.03647773;-0.1782382;0.97975814;0.1490376;0.06745791;-0.03276674;0.01270152;-0.7923499;0.17637292;-0.11981092;-0.39523968;-0.061650272;-0.11167504;0.1865111;0.06754076;0.049169596;-0.101772375;0.09812688;0.06287735;-0.05462772;-0.00889578;-0.109470464;0.009692431;-1.1207731;0.010263524;-1.3029693;-1.1904441;0.30643165;-0.23911664;-0.20773652;-0.034033842;-0.00526808;0.09138898;-0.022747181;-0.079824574;0.8888054;0.024932222;-0.13586727;-0.0907698;0.27291578;0.029576091;-0.07712518;0.08282335;0.040033985;-0.06846199;0.40071556;0.022461595;-0.31999537;-0.06232679;0.008345605;0.029662179;0.042332076;0.2274495;-0.03163358;0.075162046;-0.529319;-0.4956269;-0.05870082;-0.06578181;-0.43257466;-0.117070414;-0.06446563;0.1454815;-0.3749334;0.014403947;0.007061636;-0.06337416;-0.2258335;0.080725014;0.5871989;-0.36470282;0.034644045;-0.060460687;-0.15021302;0.015348241;-0.038973756;0.42719135;0.015365342;0.021994043;0.01767406;0.15978834;-0.97368085;-0.15982077;0.22922285;1.2919434;0.59797055;-0.074474566;-0.06953434;0.4036485;-0.07349142;0.87676984;-0.9466696;-0.48638356;-0.053057637;0.040995587;-0.062123373;-0.23186812;0.039724346;-0.08755987;0.034312915;0.020983865;0.42776597;0.0022166339;-0.029559443;0.027417071;-0.46843988;-1.6041634;-0.38741592;0.07223133;-0.015899679;0.005644971;-0.003359194;-0.0054148743;-0.028321287;-0.017875621;0.09268971;-0.019722298;0.086021215;0.035822675;0.08645943;-0.63111585;0.040225793;-1.0542638;0.055006947;0.047400128;-0.4684906;0.031117283;-0.0072382865;-0.0077735013;-0.209776;0.165444;-0.06160531;-0.416918;0.08010658;0.0050205174;-0.09302115;0.049134437;0.18624346;0.064929105;-0.023600588;0.29637456;-0.50577354;0.13052087;-1.6951845;-0.5293178;-0.11520406;-0.10347845;-0.048220627;0.052868888;0.1239771;-0.059088085;0.8798118;-0.03423734;-0.0052220393;0.072948955;-0.49830437;-0.07807377;0.047464002;-1.1257539;0.024146684;-1.7329636;-0.3499933;0.025529316;0.036436424;0.12599081;0.17053416;0.042731583;-0.027662106;-0.051427044;0.021828167;0.7759724;0.07957751;0.01240023;0.060841046;0.028292255;-1.3811072;-0.5919286;-0.0034376022;-0.31647095;0.18746854;-0.14378908;-0.0690271;-0.5617531;0.056654476;-0.012079931;0.107597485;-0.050072532;-0.056350965;-0.24895029;0.05442732;-0.054145463;0.025081664;-0.05636373;-0.48772427;-0.7972577;0.062429644;0.019971984;0.04480191;-0.00083748734;-0.48306462;-1.4089975;-0.00587991;-0.040017124;0.19947037;0.02037328;-0.04050029;0.9149107;-1.3676665;0.29383805;0.23093699;0.07234697;0.20916253;-0.032458;0.102165006;-0.031396836;0.10236336;-0.15834177;-0.6089501;-0.448346;0.019963093;0.30262828;0.31660855;-0.81959605;-0.027869437;0.04508904;0.11497053;0.06780828;-0.026947288;0.024055945;-0.04265167;-0.52232057;0.004292344;-0.05739612;0.1861126;0.014183566;0.1407673;-0.15504521;-0.03545777;-0.049174756;-0.03732216;-0.40887734;-0.022299917;-0.5571358;-0.0049375272;-0.11289011;-0.11666285;0.07370137;0.016124183;0.005714708;0.009008635;-0.9861815;0.026748147;-0.03638974;-0.06208131;0.32085517;0.8122218;0.05607675;-0.8254452;0.27064887;-0.75482893;0.025840543;0.24429552;0.07591475;-0.011769244;0.4581363;0.041542754;0.022968654;-0.054253638;-0.04973491;0.15413022;0.03418114;-0.027302623;-0.127994;-0.4288827;0.03266796;0.16261585;0.96219355;-0.08639354;0.41662803;-0.66023177;0.034811374;0.037608285;-0.8053963;-0.09731573;-0.08233768;-0.068997465;0.10509781;-0.3530005;-0.21196003;0.04158256;-0.013011611;-0.07824822;0.05405374;0.22491285;-0.05234365;-0.063423745;0.577;0.0094282525;-0.04421102;-0.017871384;-0.094423994;0.062736176;0.14944135;0.06474979;-0.12058925;0.07201852;0.23672287;0.061324317;-0.035775635;0.019575208
0.13215902;0.056111526;-0.20113562;-0.07788379;-0.045721084;-0.37199256;-0.007869949;0.09924497;0.03848473;0.28669462;-0.028826548;-0.05004649;-0.24947873;-0.26779822;-1.6254224;1.3295578;-0.03692564;0.09181682;-1.489009;0.009231556;-0.3632296;0.036873855;0.2000637;-0.23456158;-0.059135083;0.9944508;0.057858963;-0.07481569;0.21300417;0.5677006;-0.5607936;-2.4091728;-0.092663445;0.16985768;-0.07505161;0.06245476;-0.15702125;0.93124664;0.04109179;-0.52252525;0.03223192;0.006605924;1.0604596;0.25252455;-0.95679456;0.034193255;-0.67888993;0.05351137;0.27587676;0.09800972;-0.36930493;0.8145125;0.07530957;-0.019709343;0.19460848;0.28562668;0.3144154;-0.015667617;-0.20826556;0.23672564;-0.01802846;-0.80376637;-0.8490988;-0.13080837;0.013398508;-0.094518535;0.29716042;0.035128295;0.09475346;-0.07669101;-0.036031917;0.118011385;-0.0013974708;0.45471025;1.162843;-1.0580419;0.16002667;-1.5492662;0.16379474;0.11302977;-0.103679724;-0.06159059;0.10368964;0.5643894;0.29806283;-0.089015156;-0.09866274;0.04731333;-0.7633509;-0.113141544;-0.0031351745;-0.32545233;0.0014453948;-0.120890535;-0.9440088;-0.071404696;-0.015265811;-0.011062096;0.123537324;0.013861649;0.13808468;0.060596496;-1.3209511;-1.4052683;-0.022597943;-0.021220483;-0.040432043;0.08637935;-0.028038437;-0.016802717;-0.07256139;0.027066091;-0.061901353;0.0915333;-0.06352753;-1.078307;-0.034307387;0.12658341;0.21321788;0.041578725;0.054298997;-0.03069475;0.037430108;0.09250263;0.8311898;-0.06937936;0.02253575;-0.74707216;-0.10665909;-0.4884861;-0.76467466;0.056364026;-0.008836691;-1.3477914;0.01713297;-0.7327775;0.5376159;-0.37151095;-0.6316346;-0.67608577;-0.030623732;-0.013596031;-0.67508334;-0.4727003;-0.5080868;0.08526909;0.040897828;-0.0017749693;-0.2852222;0.029641783;-2.2588465;0.034930337;0.080771744;0.02579561;-0.00755469;0.050234556;-0.064460374;0.65182364;0.048704892;0.066039264;-0.003388603;0.9990838;0.24417977;0.011399385;-1.0795804;0.41667035;0.22539344;-0.09587501;-0.0890572;0.18534252;0.012983761;-0.07990556;-0.039728414;-0.0064926343;-0.059020065;-0.0051112627;0.051829435;-0.3750474;-0.045796495;0.12710081;-0.0405874;-0.005504012;-1.2592506;-0.047678657;0.061074477;-0.39088777;0.115110725;-0.4025938;0.24046682;-0.588776;0.032062564;-0.042348247;-0.23148544;0.012411709;-0.08635743;0.0316831;-0.2762675;-0.22151747;-0.5395677;-0.076431505;0.22630864;-0.0032601047;0.0631616;-0.868879;-0.57160795;-0.002162728;0.043147735;1.0434983;0.019006155;0.061105154;0.038062625;0.039540898;0.0609555;0.24913399;-1.7068084;-0.047775637;0.100315124;-0.026053889;-0.025366863;0.039052945;-0.100082986;0.041044522;1.4316384;0.04715944;1.0196953;-0.09064815;-0.04995868;0.27916417;0.59584224;-0.08492875;0.18440874;-0.028623518;0.043828093;0.036002744;0.014078525;0.12666227;-0.20604584;0.31271517;-0.30487266;0.07488139;0.10006144;0.3858443;0.3821112;-0.09533932;-0.028746162;0.029022975;-1.0756243;-0.021024214;-0.038749855;-0.4375058;0.017991921;0.03603535;0.069091864;-0.83034885;-0.020142509;0.2204425;-0.013669271;-0.26235074;0.19328582;-1.9779656;-1.919747;-0.78661436;0.21041857;0.009688273;-0.056357395;0.6188922;0.23460491;-0.09375885;-1.7681544;-0.3050738;-0.02071445;0.034926843;-0.013923835;-1.1900834;0.09626181;0.24008408;-0.5263944;-0.13648486;0.42204064;0.06448609;-0.052717224;-0.015322776;-0.10172541;-0.11119046;0.054676045;-0.09698295;-1.1046201;-0.71729296;-0.03003443;-1.6680079;0.3241414;-0.3615309;3.577997;-0.41531605;-0.18670157;0.37276083;-0.11259844;0.06231922;0.20328924;0.08492468;-0.30094466;0.40391418;-0.010235429;0.17862782;-0.2436069;0.5528526;0.030767033;0.4436741;-0.009702359;0.043734103;-0.06385998;0.34060133;0.09291523;0.48254722;0.058850423;0.025475113;-0.012028075;-0.024046838;-0.24202998;-0.016789118;0.027664224;-1.0364518;1.3112622;-0.016719138;0.9437284;-1.1573992;-0.027828768;-0.1659299;0.057645738;-0.8957215;-0.025077002;0.002397364;0.006444768;-0.19149676;0.014212377;-1.7344085;-0.5991347;-0.00911226;0.008953052;-0.03629794;0.114055485;-0.029221013;-0.06321694;2.9092975;-0.10463068;-0.029300807;0.043742903;-0.4358376;0.017245444;0.46579397;0.18296318;1.4806111;-0.03486976;-0.017153392;0.22881085;0.06309392;-3.1336293;0.42468455;0.33842102;-0.09441565;-0.05379367;0.021447608;-0.7545283;0.01915943;0.16397774;-0.11809692;0.13627793;-0.4603292;-0.048433647;-0.007249322;-0.05093465;-0.34734517;-0.020461826;-0.041678976;0.007715617;0.022653522;0.07627241;0.032253046;0.0891467;-0.6932161;-0.09383812;0.00690296;-0.0108748255;-0.0693913;0.027906623;-0.051308267;-0.36060956;0.007230965;-0.54098284;-0.44363484;0.083477356;-0.29189485;-0.11899173;0.04471542;-0.10416146;-0.11256457;0.1812381;-0.13017504;1.410187;-0.063913435;0.039909996;-0.041548893;-0.013029079;0.45246154;0.0017727609;0.008065523;1.8939064;-0.43295944;0.084818624;-0.75968945;-0.040233456;-1.0905511;-0.0007076548;-0.05481702;-0.06716781;0.031485673;0.03971202;-1.6945112;-0.046888057;0.07122616;0.22816151;-2.2230814;-0.015703607;-0.07756777;-0.27147233;0.04515945;-0.39296;-0.3638913;-1.9811698;-0.019570924;-1.6034306;0.1865531;0.0067798495;-0.070618674;-0.08133112;0.0786852;-0.5003398;0.086087435;-0.025585504;-0.032879844;-0.03700484;0.33562562;-0.5394715;-0.035518847;-0.26097625;1.0389299;-0.19146062;0.02609972;-0.3748205;-0.0553632;0.08408364;0.39015463;-0.03342093;0.14159895;-0.09052598;0.006656629;-0.034866333;0.027185878;0.07343369;-1.2127165;-1.3438486;-0.01789594;0.03249094;-0.026450898;-0.016168088;-0.42874545;0.293827;-0.02892076;-0.06851794;-0.22556108;0.022394923;-0.72136146;-0.6537515;0.55914;0.55818987;0.019885264;0.01899553;-0.4960637;0.03660963;0.046625584;-0.097403914;-0.34597254;0.9700601;0.56714636;0.0147787975;-0.06216277;0.4547863;0.526624;-0.803711;0.11971245;-0.14713638;0.22488251;0.23421511;-0.026987886;0.577242;-0.095732264;-0.43999544;0.09857874;-0.008195083;-1.114398;0.0530042;1.1221062;-0.37439686;1.7239588;-0.053828392;-0.10392189;-0.0038227662;-0.06399697;-0.5276465;0.06971427;0.05589675;0.015810668;0.05701417;0.08202635;0.086527534;0.026244432;0.15519637;-0.06548184;-0.25521466;0.026018014;0.39451346;-1.3998194;-0.079200506;2.5086102;0.5261483;0.5088115;0.082294226;0.23570421;-0.086981624;-0.02119044;-1.2185436;-0.046164285;2.7150195;-0.021171661;-0.06506765;1.4490254;0.005763506;-0.14666905;0.112222224;-0.17139865;-0.10076404;0.2141573;0.14518617;-0.10669211;0.11494181;0.6418118;-0.012526594;0.05143878;0.3818473;0.10818476;0.0034017775;0.051825084;0.1282158;0.36358526;0.38495937;-0.07643458;-0.040459838;0.079434305;0.0634877;0.3289182;0.025850017;-0.12411385;-1.2612716;-0.075497456;0.09006324;0.00091041904;0.05732869;-0.024367606;0.27337825;0.0786326;0.08764893;0.0457464;0.4468399;-0.08469677;-0.020694427;0.03812159
-0.7070539;-0.022060288;-0.40431824;0.05549245;0.13591912;-0.3509558;-0.05544647;-0.012404969;-0.15453297;0.09985207;0.035124194;-0.41793004;-0.62524456;-0.37386984;-1.4851156;-0.7972121;-2.1255984;0.0419853;-0.63247126;-0.02938779;-0.5800697;0.008694099;0.19953331;-0.8644515;0.015495921;-1.8147497;-0.06588478;0.065172195;-0.03485005;0.049210247;-0.061212033;-2.220169;0.030595986;-0.12314191;0.08701543;-0.20675975;0.49285933;0.6825933;0.045039315;-0.48289597;0.06104577;-0.002462415;0.13450046;0.03599876;-0.5694077;-0.05450546;-0.68365717;-0.087471955;0.055602577;-0.36317018;-0.39520037;0.32908338;-0.073802434;-0.08289045;0.55399126;0.008538276;-0.24194677;-0.016694985;-0.9779286;0.023151569;0.077243835;-0.9780141;-0.3877413;0.7357234;-0.07088321;0.043840893;0.20017052;-0.07899031;0.16057418;0.063594155;-0.05380809;-0.08216968;-0.021304628;0.1818388;0.87311095;0.5486545;0.00718336;-2.079906;-0.14732601;0.30117863;0.06890262;-0.035148814;-0.08689508;0.2168388;0.18912886;-0.012643784;0.3666799;0.054424554;-0.856943;-0.033533726;0.12563987;0.30775574;-0.050707288;-0.08259388;-0.98798037;0.077291444;0.0024271088;0.30508822;-0.10408707;0.07900603;-0.036379226;-0.038448498;-1.1456939;-0.12077598;0.08791252;-0.15432872;-0.026209248;-0.048326593;-0.058488812;0.04632646;0.0719573;-0.081836954;-0.09456032;-0.031258702;-0.00954032;-1.134426;0.0015887378;-0.0109257065;0.042172;-0.06879823;-0.019731771;-0.044207998;0.004715916;-0.1803198;-1.0133367;0.023710052;0.0207914;-1.2174563;0.11921081;-0.5370904;-0.9836765;-0.055000674;0.13128826;-0.84209543;-0.01604182;-0.58231735;0.56007755;-0.1463142;-0.51649123;-0.6049353;0.06319544;-0.0133100515;0.28214192;-0.47103876;0.2705834;0.025926303;0.058415234;0.025264217;-0.31020597;-0.03811781;0.78920263;0.03611713;-0.089374505;-1.64587;-0.049832046;0.012294522;-0.063522525;1.224344;0.04913371;-1.1419548;-0.014771289;-0.6320538;-0.696535;0.08461927;-1.488066;0.8440768;0.48113182;-0.03623777;0.053607553;-0.03120181;-0.04447937;0.08754692;0.14605168;0.02259189;-0.07886839;0.015664326;-0.030765884;0.18068595;0.03757794;0.07207117;-0.020987261;-0.004336245;0.09174251;-0.09910188;0.088756114;-0.38953397;-0.1112452;-0.6225543;0.49385694;-0.13944115;-0.12262122;-0.001989714;0.11699435;0.026393808;0.05305643;-0.09007415;-0.036259472;-0.029779805;-0.4407102;-0.012471638;-0.21554548;0.01632151;-0.0004876431;-0.7918311;0.11153451;0.077103;-0.07951896;-0.10646631;-0.041936357;0.04123986;0.09963336;-0.031405523;-0.15600365;0.36194175;-0.5901234;-0.0460208;-0.019937135;-0.08299222;-0.09083553;-0.09263839;0.11731771;-0.045839943;0.34571818;0.2473896;1.7081981;0.122378126;0.0039465097;-0.7986802;1.0827045;-0.12574;0.020665484;-0.10330954;0.014106434;-0.08049383;-1.5987492;-0.120380886;0.15200146;-0.075759746;-0.57065654;-0.07488935;-0.08012851;-0.27550238;0.031574808;0.18484055;-0.08118137;0.06451449;-0.69227767;0.20467488;-0.06868816;-1.2162067;0.049665906;0.013323214;-0.05421994;0.929885;0.1110362;0.007760328;-0.037113674;-0.04490544;0.17010583;-0.89891154;-0.6313406;-0.2872606;0.0653159;-0.0035417604;-0.050854266;-0.6972196;0.027330425;0.055303536;-0.93091977;-0.3776112;0.21075554;0.00303657;-0.07384918;-1.4268265;-0.03948155;-0.0008373864;-0.6673968;0.046120536;0.10709555;-0.074868426;-0.097688906;-0.03325312;-0.15426208;0.054748926;0.07534745;0.027754635;-0.3174812;-0.34186202;-0.077116184;-1.6127925;0.05827668;-0.45082936;0.36499012;-0.48388702;-0.076406725;0.09871281;0.1437988;0.0036875335;-0.037106566;-0.11255782;-1.0748748;-0.10903168;-0.037115835;0.414138;-0.10344931;0.108360894;-0.09055593;0.21935438;-0.011921602;-0.040880337;-0.02489823;0.28384027;-0.01556473;0.34271845;-0.04499294;-0.06912487;-0.0501496;0.04043466;-0.21584217;0.029196361;0.009000587;-0.8487351;0.45780045;-0.076096304;0.8613768;-0.12837805;0.002585697;-0.10162029;-0.09164691;-0.63835734;-0.12355048;-0.0038924394;-0.011265622;-0.17044674;-0.036489878;-1.7029977;-0.4713262;0.06854427;-0.100571945;0.1587761;0.026785966;0.056587793;0.044951193;1.9880322;0.011279142;0.044098735;-0.12281605;-1.3139297;-0.15326604;0.3183839;-0.40560254;0.7111302;-0.11905648;-0.033488803;0.009944355;0.08483727;-2.6372623;1.1201618;-0.7601485;-0.19163074;0.017159121;-0.013643254;-1.4185553;0.07647866;0.0031725701;0.017281152;0.012360425;-0.5465215;0.018608043;-0.016826963;-0.0044465833;-0.65383136;0.17183603;0.5303646;0.0009142851;-0.06740264;0.05084474;-0.005640125;-0.07941399;-1.6092999;0.07132188;0.059095684;-0.043599352;0.13086045;0.02897187;0.14585626;0.35308608;-0.07905709;-1.4653094;-0.38958105;-0.05664492;0.3392977;0.0064854757;-0.047137868;0.0011757452;-0.06806676;0.022511942;0.09571381;-2.5207803;0.06343503;0.0008928039;0.017287001;0.029225176;0.20373382;0.04990715;-0.16691303;1.6229898;-0.56420624;-0.048803136;-0.3414134;-0.14453809;-1.4923393;-0.098789394;-0.05666892;-0.02675795;-0.062259085;0.0066864705;-1.1164755;0.047688168;-0.0736811;0.0056433105;-1.1141361;-0.014837039;0.07662605;0.13168156;-0.11168132;0.25218478;-0.039116237;-0.16537972;-0.07037759;-0.5151485;-0.06680991;0.18573603;0.15077484;0.036877412;-0.09615146;-0.11611493;-0.104442835;-0.0014144799;0.0071147373;0.056205798;0.43724585;-0.6226361;-0.038345344;-0.099485636;1.5419365;-0.13331635;-0.025893152;-0.52161556;0.13107756;-0.18569186;0.18626726;0.03213603;-0.27000827;0.017034598;-0.044686813;0.03661967;0.0682132;0.15209958;-0.51396567;0.8191857;0.010274787;0.06945434;0.038442258;0.052294537;-0.0556951;0.09865835;0.013272093;0.021533482;0.008299688;-0.07722057;-0.6763321;-0.54215425;1.8912305;0.15106916;-0.1914979;0.13832523;-0.06647381;-0.036855917;0.066720866;-0.014351193;-0.28586736;0.29915607;-1.2582922;-0.0072582057;-0.026388448;0.07878224;0.1759818;-1.0003344;-0.10886017;-0.8085911;0.09093061;-0.04798095;-0.033272523;0.01484399;0.020491667;-0.40903342;0.009765492;0.08559964;-1.8934382;0.047285467;1.269916;-1.1974971;-0.1452663;0.033943787;0.019709105;-0.27594668;0.113697805;-0.84610516;-0.09424816;-0.020965755;-0.0052227485;0.024437875;-0.09108511;-0.08150825;-0.06604539;0.49121827;0.012985757;-0.26865485;-0.08090764;-0.9189773;-0.8267652;-0.0022415179;1.8714435;0.113722764;0.24009572;-0.098308474;0.06976363;0.07102943;0.089018345;-1.1768315;0.17929955;1.284116;0.047408972;-0.047987808;0.24192156;0.060446527;-0.21795356;-0.12203654;-0.094613284;-0.07333042;-0.08178059;-0.6969694;-0.08862817;-0.44228128;0.10185869;-0.070548154;0.026876926;0.12824386;0.032057814;-0.12451163;0.08386695;0.00659483;-0.42404473;0.043778393;0.015899649;0.043457195;-0.055894352;-0.010641518;0.101867676;0.010358473;-0.45782855;-0.35901314;-0.061006628;-0.07051914;0.06983698;-0.05709331;0.11715933;0.44995737;-0.033665985;0.053465378;-0.00594141;-0.5627886;-0.06897995;-0.0014107917;-0.063955575
-0.64985174;-0.012086782;-0.14756352;-0.07941383;0.029664576;-0.12683003;0.02728532;-0.036593124;-0.00069398;0.1537147;0.055380866;0.12944247;0.3774759;0.8640319;0.54406005;-2.7750444;0.53158534;-0.004273837;-0.85819966;0.0039869356;0.1740568;-0.08066798;-0.17690681;-0.34406015;-0.0018619838;-0.04731435;0.030333597;-0.11449757;-0.014677703;-0.16478196;0.42523247;0.67963505;-0.053167716;-0.036526117;-0.04268312;0.090637475;-2.1026824;-0.58497727;-0.06028193;-0.009014243;0.0041887104;0.02292205;-1.0593542;-0.04626204;-0.6727763;0.027420998;-0.2063716;-0.045486577;-0.032855537;-1.3437877;-1.4982618;-1.8005652;0.03595105;-0.02207572;0.3664259;-0.19281803;-1.0612923;-0.268799;-0.55572665;-0.09858761;-0.06847249;0.03216423;0.93814343;0.5331089;0.10865492;-0.070791006;-3.1593957;-0.006541873;-0.021144249;-0.07324372;0.059643902;0.0069404845;-0.0788279;-0.13295163;0.25144675;-0.7353071;-0.0387402;-0.46973923;0.01195219;-0.6855245;-0.0040708785;0.03705387;0.05270507;-0.070265636;-0.1505231;-0.107390836;0.7573073;0.083380036;0.012938501;0.030498073;0.011236173;0.14551683;0.11466494;0.02050299;0.6211058;0.01114243;0.0041267476;-0.19417943;0.36185798;0.0027029987;-0.10863822;-0.038490016;-0.3854081;-1.6101342;0.04956248;-0.21725531;-0.03960161;-0.07759308;-0.095217645;0.020953562;-0.071968004;0.060591307;0.046632566;0.039329767;-0.026339697;-1.0410498;-0.033749353;-0.040136594;0.11474545;0.042979736;0.025957176;0.020470373;-0.03491897;0.1151174;-1.2779958;-0.07396993;0.036421347;-0.45797953;-0.11499016;0.3967928;-0.11830564;0.09275107;0.25618705;0.669513;0.047634132;-1.8107404;0.11387679;0.98063296;-0.35467613;-0.17396784;-0.025895264;0.110907026;-1.3029366;-0.17366214;0.06574057;0.07454693;0.013432801;0.0042884317;-0.044542868;-0.035023037;1.3040117;0.08247598;0.06364896;0.032204002;0.039089598;0.0028094372;-0.0108011095;0.10193307;-0.020305082;-0.35460556;-0.016660763;0.052580416;-0.47186485;0.021442538;-0.399167;-0.6475302;0.43356135;-0.09096719;-0.073337846;-0.04577;0.030853892;-0.11431002;0.038779616;-0.050969444;0.012172656;-0.0064659533;-0.023970483;-1.4800975;0.030001152;-0.06932604;0.07226302;0.017307155;-1.6666653;0.038809102;-0.051938783;-0.55630904;-0.0749068;-0.57131207;-0.47130704;0.3107698;-0.005200191;0.2873108;-0.021798003;-0.07163318;-0.058791377;-0.018097084;-0.0013188561;0.015405114;0.17745692;-0.02703539;-0.4427097;-0.074351124;0.060587388;-0.28217754;-0.7545527;-0.045730647;-0.071237154;0.16209926;0.060849093;0.07858834;-0.11365542;-0.038056366;0.042667393;-0.14534155;-0.32894716;0.013074231;0.062721975;-0.0820373;0.023019537;-0.016741158;-0.054647837;0.04716606;-1.7458631;1.0328634;1.320488;-0.020367902;-0.045159742;0.88824046;0.75003344;0.19625197;-0.054949004;-0.004884641;0.11222496;-0.062539555;-1.2072442;-0.04451582;0.27957568;-0.3923164;0.2500585;-0.025128603;0.06782105;-1.7628118;-0.048266605;-0.14905727;0.098144874;0.014501419;-0.41561082;-0.113552056;-0.0004891523;-1.007788;-0.009999727;0.09271797;-0.053680755;0.69223565;-0.107207954;-0.07080181;0.030384209;-0.04918529;-0.35117877;1.5922843;1.1119119;-1.2495806;-0.04802795;0.028740944;-0.0021246972;-1.4576203;-0.3517447;-0.09944988;2.0739472;-0.055825703;-0.017919794;-0.021723442;-0.02156557;0.3367504;0.015839696;-0.26395476;-0.26884192;-0.023320027;-1.0844578;0.05789783;-0.056369916;-0.03114032;0.059284966;-0.07207469;0.016083036;-0.062488113;0.4872849;-0.073180914;-0.05334431;-0.91739476;-0.12595047;0.5799945;0.091113135;0.6012102;-0.47821116;0.0080703795;-0.072123244;0.032471213;-0.09149113;-0.0034487701;-0.5290175;-0.47480017;0.018574735;-1.2064183;0.046170168;-0.19041985;0.27381068;-1.2277582;-0.07374739;0.05094589;-0.0068946877;0.21122146;0.0013874035;-0.112814024;-0.019519988;0.05739596;0.047847208;0.031239467;-0.051436584;-0.03689857;0.047057506;0.09942117;-2.5501516;-0.051908188;-0.6263963;0.33890736;-0.031059822;-0.08423808;-0.026741214;-0.099549234;0.0073876623;0.021898154;-0.00071775075;-0.078124285;-0.079656556;-0.28641137;0.02815711;-0.051157672;0.057755966;-0.119590215;0.055537585;-0.093857855;-0.098606646;0.40127993;-0.07856951;0.09518945;0.022681631;-0.53026825;-0.08718682;-0.97010815;-1.1300174;-1.7182082;-0.038527075;-0.07444726;-0.0249775;-0.025186913;0.14909032;-1.261393;-0.6494327;-0.0471961;-0.07744855;-0.014571187;-0.55321413;-0.040966477;0.0863192;-0.10749652;0.10271614;-0.016644292;-0.0695242;0.09342355;-0.012074171;0.7601033;0.023156758;-0.25314894;0.07591825;-0.033103984;0.023645448;0.041766554;-0.052336544;0.022849815;0.0728934;-0.12692061;-0.038815692;-0.008819038;-0.02226857;-0.06532176;-1.0569153;0.09117831;-0.06518626;0.08043605;0.010064061;-0.1943808;0.105739094;-0.027045486;-0.07335924;-0.00702402;0.046876967;0.012533859;-2.3057775;0.02907225;0.0034441452;-0.03581715;-0.004985904;-0.031041393;-0.04776015;0.09292359;-2.0189247;-0.12695007;-0.045046918;0.79906976;-0.74733174;0.06853853;-0.028416947;0.0036956426;-0.058635928;0.08095645;-0.039799307;1.0126063;-0.08481845;0.030222688;-0.048062593;-0.2576742;0.09088162;-0.046131108;-0.48555154;0.083358996;-1.9628414;0.40916088;1.2862837;-0.021113139;-0.18203643;0.223316;-0.057216976;0.0262783;0.0044633686;-0.03773478;-0.73541486;-0.0430409;0.064685695;-0.062455233;-0.073421896;0.21697257;-0.34449074;0.022596063;0.0804249;0.8185394;0.3732079;-0.04903565;-0.10787523;-0.10082851;-0.08211171;-0.4119055;-0.0038200347;-0.3132887;-0.038192622;-0.09849441;-0.064078495;-0.08074238;0.0529469;-0.34762856;2.6852005;-0.05151913;-0.074340954;0.04024399;0.029204635;-0.93532896;-0.058642313;0.033494078;-0.044211574;0.17278571;0.037495974;0.02648267;-0.07250049;-0.8373805;-0.13481098;0.15580814;-0.12531395;0.137958;-0.0129304165;0.03134195;0.0010478604;-0.032596063;-1.0096139;-0.021669023;-0.76923573;-0.012224293;-0.13317123;-0.057941005;0.4802589;0.035619397;-0.1552437;-0.31767723;0.02727036;0.0040921303;-0.6938503;0.048985448;0.085448615;0.036116816;-0.055421714;-2.265943;-0.004171443;-0.3343017;0.9679955;-2.110504;-0.03720411;-0.055829667;-0.5187752;-0.083652526;-1.5317961;0.0023600797;0.02782662;-0.048809607;-0.0017694848;0.014415762;0.076004684;-0.009751966;-0.5454383;-0.0055334033;0.00782921;0.09643001;-1.3683884;-1.4773488;0.0047944337;-0.75309443;-0.15040696;-0.66355246;0.11544416;-0.016744852;0.048625946;-0.013330867;-1.7553477;0.12530908;-1.2809825;-0.15009397;-0.039437115;-0.9998277;0.0006887503;0.23419273;-0.09908523;0.10887248;-0.12208015;0.042764604;0.25966433;-0.07785328;0.69265664;-0.8772987;0.05589261;-0.037508793;0.04621704;-0.2912305;0.11322037;-0.009419939;-0.025716105;-0.07434137;-0.17653258;-0.0010385171;-0.0070994664;0.028622957;0.04394433;-0.03429366;-0.079496674;0.03428584;-1.0236056;0.0610105;-0.0009513358;-0.052691985;0.10098066;-0.061843436;-0.3127043;0.025383862;0.10684574;0.01687706;-0.09448342;-0.08181318;0.073652044;0.0720413
0.07701852;-0.06555661;-0.005803163;0.035257846;-0.042840824;-0.089689255;0.027191754;-0.10917743;0.0333226;0.1365675;-0.0020493336;0.42457026;1.2964455;1.7015457;-1.967164;0.6363174;-2.0324714;-0.051343594;-0.22395073;-0.0014340931;-0.54644144;-0.00631065;0.85265315;0.32699135;0.035559088;0.5827915;-0.0143185025;-0.011394508;-0.04297021;-0.6554735;0.49545684;0.6927725;-0.10806899;-0.12173201;-0.0894032;0.64574325;-0.07437448;-1.4083586;0.0306969;-0.17728841;0.036095086;-0.034608856;-1.0413938;-0.23135458;-0.09289837;0.06476479;-0.1998139;-0.03545525;-0.24048595;-0.0340642;-0.8153155;1.0120456;0.044280168;0.04689245;-0.62029;0.033890042;-0.24441563;0.23566793;-1.5633494;-0.19342425;-0.048733167;-0.6609751;-0.297254;-0.38132405;-0.02518102;-0.05554753;-0.50121266;-0.02600689;-0.015770767;-0.075529344;0.056682494;-0.05821286;-0.006804286;-0.33846423;0.02740764;1.2518731;-0.13114357;-1.7028825;-0.042908624;-0.33600295;-0.041238613;0.0461986;0.038123384;-0.4554641;-0.32418695;-0.023165677;-0.1355394;0.0023160516;-0.81671464;0.010391299;-0.071382046;-0.42888418;0.06168452;-0.059288066;-0.35740057;0.04322162;0.046735924;0.09266181;-0.014909477;-0.080838986;-0.1548613;0.028348453;-1.6884009;0.89669824;-0.00867765;0.25907597;-0.05926523;-0.109150544;-0.04285786;-0.043804046;0.048262168;-0.047143273;-0.07822659;-0.066876404;-0.06275149;-0.3382136;-0.057669118;-0.02677064;0.03077022;0.018507138;0.023366392;-0.05372307;0.04373565;0.05579653;1.2642839;-0.1253039;-0.038948826;-0.5157239;-0.04724489;-0.14653054;-0.2989197;-0.014868928;0.027310465;0.5859352;0.0020068805;-1.7971882;1.5243176;0.36662695;-0.07006571;-0.22409023;-0.05731029;0.019944988;-0.18286747;-0.23442824;1.0745224;-0.034972824;-0.07717523;-0.08096869;0.052572783;-0.018362807;-0.4257598;-0.05045749;-0.0105558885;1.5106958;-0.03863685;0.031486753;-0.004494645;1.8520526;0.010622957;0.6893363;0.013402272;-0.77506816;0.47098768;0.04002419;-0.95805424;-0.67125493;0.5707729;-0.086172216;0.054415755;-0.22835836;0.0051130084;0.09374064;-0.4330402;0.06446423;-0.005185791;0.038247745;0.013788114;0.122699305;-0.0111118555;-0.115866326;0.027938105;-0.06977234;0.9935244;0.10025338;-0.03834751;-0.7597907;0.07553093;0.79368114;-0.005852438;0.14748791;0.010934657;0.051524475;-0.068662584;-0.029480847;0.0820556;-0.009512553;-0.019889006;-0.15956973;0.019995145;0.024818847;-0.46652415;0.03791282;-0.027710134;-0.33950853;-0.66472;0.036437847;0.016923543;-0.17328759;0.051137313;-0.009097405;-0.007415154;-0.020795025;0.04027971;-0.14385565;0.45739335;0.07076767;-0.040975604;0.20223281;-0.030336589;0.00040279343;-0.052357342;-0.06553458;0.9279075;-0.17963852;0.18865998;-0.074469395;0.00543321;1.6846092;1.8802006;0.0004931927;-0.1472529;0.0941031;0.0017428331;-0.019842941;0.594713;-0.031781316;0.08363524;0.19636187;0.05847232;0.0012587821;0.014146796;0.826109;-0.1291854;-0.011038643;-0.030703649;-0.08849833;-1.0082403;-0.07159753;-0.008251766;-0.42275268;0.05100628;-0.022693178;0.022530086;1.2550172;-0.038937468;-0.07480493;0.008773147;-0.1357356;-0.25236398;-1.6828612;-0.47368425;-0.10033864;-0.059011977;-0.019439628;-0.072952844;0.8641559;-0.5795946;-0.61133474;1.3736825;-0.20447972;-0.028185062;0.011737852;0.09817137;-1.8249576;-0.15635198;0.19858056;1.0657697;-0.0739249;0.3349366;0.13226849;0.21845748;0.07505626;0.0023162812;0.0132565545;-0.0835262;0.022847574;-0.6389989;0.03307949;0.033131868;-0.9590281;-0.016068935;0.9884968;-0.34306285;-1.063121;-0.256804;0.18275121;-0.06472745;0.0064767837;-0.16197857;-0.045789476;-0.3639875;0.4909432;0.05873039;-0.1799598;0.059475787;-0.498006;-0.028717421;-1.2620031;0.04348304;0.017955815;0.033521388;0.20180605;0.013858872;-0.5586355;0.052204914;0.08760026;-0.011947859;-0.024603924;-0.056111455;0.024327029;-0.031216161;0.2650724;1.4652945;0.0006345533;0.24735379;-0.98886263;-0.07716557;-0.027220512;-0.025110591;-0.7535317;-0.031965822;-0.028586;0.0013610274;-0.038845107;-0.06630867;-0.51817495;0.17039233;0.052245732;0.035683062;0.112181276;-0.13271374;0.02501881;0.26980639;1.0745053;-0.0070006005;0.11026645;-0.08161674;-1.3914307;-0.06268662;-0.078345545;-0.6537936;1.6770134;-0.048442714;-0.036895514;0.105629474;0.019520849;-1.6019295;-0.54522616;-1.4586939;-0.06663753;0.027419781;0.08059259;0.09750633;-0.054271474;-0.08544982;0.019794635;0.06867997;0.18983838;-0.103635624;0.09093506;0.062305573;-0.6750262;1.3084662;-0.30571827;0.0685424;0.008065327;0.046602078;-0.05318921;0.03879832;-1.5292406;0.039213493;-0.045190495;-0.065877244;0.044807035;-0.028650599;-0.03931594;0.4336769;-0.0034356841;-0.47889948;0.23435916;-0.051107988;-0.2568794;0.04074511;-0.06419973;0.03392339;-0.15660994;-0.137684;0.05230335;0.7541649;-0.031234538;-0.017594777;0.003290099;0.076042905;-0.22408806;-0.08064176;0.048786648;1.008205;0.0014808296;-0.06374615;-1.6131245;0.337603;-0.8833537;0.079822384;-0.04506047;0.0005365481;-0.07009428;-0.0056760535;0.74170643;-0.023733275;-0.020614533;-0.10517972;-0.72336936;0.08208625;-0.012473283;-0.52505285;-0.04664393;1.4795426;-0.4235888;-0.19944176;-0.05349209;-0.3629233;-0.16603512;-0.06696989;0.08687217;-0.020916136;0.019593319;-0.7632258;-0.13598344;-0.015289617;-0.008410892;0.028159505;0.13005406;0.20679188;0.060576078;-0.039924867;0.18679903;-0.014563344;0.030436337;-0.12291961;0.000111759604;-0.03050364;-1.1718625;-0.020121505;0.20741676;0.10043938;-0.010584128;0.044159677;-0.07436772;0.00076812156;-0.47589144;3.72805e-05;-0.04834094;-0.01640918;-0.0674492;0.06499377;-0.4715257;-0.48971915;-0.038491767;-0.046720024;0.051899575;0.0031974926;-1.7158483;0.20297456;0.17605305;-0.5536643;-0.13963774;-0.085321344;-0.2797801;0.041448046;-0.010765377;0.0042451527;0.124456756;0.66430825;0.010598345;0.28760898;-0.010667018;-0.299832;-0.42556325;-0.5528109;0.032643378;0.012288155;-0.041496832;-0.11487584;0.038646758;0.029574258;-0.037512638;0.10783892;-0.031728476;-0.012627616;-0.8101563;-0.051111173;1.1451236;0.54966223;-0.2790868;-0.025076993;0.04128816;0.3534681;-0.06942038;1.09678;0.07802467;-0.04801881;-0.11049315;-0.07714813;-0.03275961;-0.01796853;0.095156245;0.9641658;0.022637611;-0.17938878;0.05280206;-0.16419342;-1.4690366;-0.045011956;0.6320286;-0.64154214;-1.2986811;0.03787556;-0.1129459;0.054110784;-0.02761218;-1.0509728;-0.14057143;2.05995;0.012600429;-0.002208362;-1.25248;-0.020850683;0.7567774;0.049526338;-0.06751579;-0.011150113;-0.047603782;-1.3263886;-0.033999912;0.024466582;-0.021190377;0.0051026586;-0.035765685;-0.12312479;0.07770527;-0.076966606;-0.012944238;-0.000752456;-0.2874463;0.23541227;-0.0425387;-0.009861622;0.038356803;0.013541172;-0.24418522;-0.07238984;-0.40767154;-1.1141044;0.032648094;0.100373305;-0.053804196;0.031134395;0.018497977;0.024999537;-0.013323839;-0.3716828;-0.07257353;-0.073358424;-0.07824044;0.026330708;-0.0675684
0.33537766;0.0027268175;0.43388975;-0.015443687;-0.009045954;-0.5964487;-0.0085337125;0.052300543;0.033713825;0.303542;-0.08539007;-0.36981982;-0.10285679;-0.020419084;0.44378108;-1.2526128;-0.18085654;-0.0053690053;-0.57624435;0.029606966;-0.08226971;0.052640203;0.019684812;-1.4523333;0.047822844;-0.2797956;0.06116718;0.07984419;0.02359647;0.28805164;-1.0398512;-1.5608917;-0.13830464;0.058171045;-0.05009648;0.47011226;-1.006224;-0.8070954;-0.033304375;-0.09363791;-0.023629272;-0.03324573;0.38263637;0.209731;-0.18635972;-0.042051047;-0.8248887;-0.029790785;0.23968612;-0.61229;0.3793189;-0.15914369;-0.078596056;0.05531094;0.37324998;-0.013852048;-0.10757112;0.07978373;0.32606676;0.098436676;0.04105684;-0.24507703;0.5789672;2.292628;0.08673424;-0.06726482;0.38492733;-0.0647311;0.011120217;0.08175046;-0.10416297;-0.015835868;-0.017135309;0.28687707;0.520268;0.3828685;0.24343112;-0.6250945;-0.029832551;0.29067847;0.093710564;0.048510242;-0.056115944;0.3424655;0.37462336;-0.006834691;-1.1629057;-0.06402597;-0.35569763;0.008207351;-0.055382982;0.76887757;-0.079813555;0.11427003;0.570604;0.0856198;-0.004321971;0.25484866;-0.25252104;-0.064057894;0.13161355;0.072839804;-1.6167259;0.2905733;-0.056079093;-0.21078897;-0.024078015;0.052315783;-0.12299667;0.025240418;-0.05354393;-0.06787305;0.03782182;-0.061230116;0.053156637;-0.8173;0.053748637;0.1070932;-0.0047207153;0.1036252;0.02426697;-0.07827915;0.035617754;0.025047576;-0.7075973;-0.08244169;-0.07373421;-1.3400744;-0.0070389286;0.2876887;-1.2057345;-0.08337161;0.033767585;-0.56681615;-0.10943264;-0.9965727;0.64234895;0.7458869;-0.15708196;-0.6837341;0.061427373;-0.087340094;-0.110906765;-0.60395384;-0.51109934;0.017997758;-0.064459704;-0.07449184;-0.207632;0.039502762;-0.8942678;0.016273169;-0.047991447;1.3116574;-0.008563177;0.02026192;-0.07387275;0.7721079;0.062308885;0.16831641;-0.034640785;-0.37639728;0.122307174;0.07393109;-0.95671093;-0.39961714;-0.43553632;-0.06811921;-0.06626497;0.22040166;-0.079626605;-0.0013848364;-0.40055707;0.052753717;0.049236447;-0.044860914;0.051026102;-0.48218405;0.0740261;0.112056755;-0.12571745;-0.091239475;0.3573897;-0.041961316;0.09122894;1.5352052;0.06508055;0.976566;0.32233128;0.20999546;0.06646788;-0.042277902;0.01920219;-0.07503841;0.028662032;0.02008705;-0.06533696;-0.03444126;0.16173418;-0.07092448;-1.2608361;0.04887035;-0.004604718;-1.0747241;0.5611726;-9.087659e-05;0.030276045;-0.7124532;0.073574625;-0.06165418;0.041258927;-0.08237833;-0.10283753;0.5041204;-0.69444144;-0.008510441;-0.013506976;0.08659795;0.04232601;0.07452696;-0.08477845;0.0048355423;-1.4019535;-0.48799056;-0.014236416;0.024385523;0.042554762;1.9966743;0.66596186;-0.0968964;0.14489761;-0.11914466;-0.060086384;0.059828002;-0.7819223;0.028206995;-0.08609448;-0.13586281;-0.32985622;0.037167966;0.09933966;-1.3574926;-0.14855821;0.06494679;-0.06402247;-0.01904179;0.16075237;-0.09198246;-0.08776933;-1.3200878;-0.047132634;-0.030462194;0.062476348;-0.78532666;0.10068031;0.058411464;0.010659085;-0.21398811;0.003555196;-0.5386737;0.38249984;-0.6130973;0.19151063;0.06640307;-0.02621767;0.10941021;0.17309652;1.1034982;-0.30324364;-0.15542017;0.092714556;-0.038921177;0.013363938;0.53883946;0.17293239;-0.24368253;0.55134755;0.053725395;-0.22501244;-0.015187167;-0.30733156;-0.08893928;-0.042631622;-0.10734875;-0.034529053;-0.12255589;0.46987045;-0.032899324;-0.10487556;1.4211576;0.31831974;-0.0263067;-0.6533684;0.47808367;-0.17224711;0.42200512;0.06455203;-0.074893445;0.18654849;0.011549078;-0.33698684;0.9591549;-0.040505797;0.20290492;-0.13953692;0.39167514;0.106282584;0.12948458;0.08680352;0.055052422;-0.06898391;0.5817739;0.0053565386;0.18636729;-0.049705077;-0.08106325;-0.01885655;0.02071475;-0.043155547;0.016996957;-0.060215205;-0.72433287;-1.213859;0.053674426;0.17166281;0.6646273;0.0420501;-0.16838618;0.1165074;0.92885137;-0.03960672;0.03949919;0.0038027647;-0.14014961;0.00086191035;0.25609803;-0.43930542;0.050433066;-0.027724966;0.014259428;0.07624685;-0.057102755;-0.17464396;-0.62643015;-0.15077177;0.033677686;0.014155924;0.940964;0.013925426;0.034881327;-1.1568209;-0.06339048;-0.07818306;-0.035383806;0.12597679;0.04565258;0.23112775;0.614492;-0.98577416;-0.10210723;-0.022048915;-0.03021428;-0.084750675;-0.034182463;0.013025084;0.07735862;-0.05915714;-0.36880293;-0.050707314;-0.0073161316;-0.013214612;-0.14256164;0.08941394;-0.27787542;-0.0788317;-0.07185836;0.028567826;-0.014166614;-0.015717164;-0.66399956;0.034302875;-0.04940817;0.0026064506;0.043082874;0.0708561;-0.0030392697;0.68017775;0.06718794;1.153542;-0.23081702;0.07912179;0.07875807;-0.08075917;0.04444042;0.106603496;-0.011178324;0.10366636;-0.018905252;-0.2866428;-0.045593675;0.08267317;0.016503174;0.060893826;0.18169977;0.07359537;0.07852364;-0.104070894;-0.42214438;0.15570162;-0.06838895;-0.220487;-0.2909354;0.041338187;-0.010032715;0.018992765;0.09248037;-0.04734181;0.65535897;0.06774197;0.042556576;0.07222978;-0.5302292;0.0199817;-0.060093146;-1.0698918;0.084903374;0.3039602;0.12435117;-0.20162167;0.030895289;-0.29256937;0.2744624;-0.056266855;-0.0031532228;-0.0386242;-0.040571198;-0.8753247;0.11439672;0.042414825;0.03168236;-0.028230803;-0.375605;-1.2984823;0.020022543;-0.20815736;-1.3344595;1.022159;-0.114862636;-0.44037166;0.08517225;-0.021185473;-0.12791047;0.044226233;-0.39257395;-0.03459161;0.015987596;-0.06213502;0.019591192;0.046465423;0.23850736;0.94291526;-0.052613497;0.046544205;-0.02300444;-0.030278286;0.27445325;1.1038129;-0.01781916;-0.044053245;-0.15704103;0.052140657;0.2599805;-0.49195892;1.0365753;0.36311424;0.06483988;0.08864944;0.02248864;-0.023006674;-0.034198362;-0.082732044;-0.09092624;-0.74945575;0.34614655;-0.3062587;-0.027583146;0.17690127;0.27862465;0.80287796;0.09256439;-0.3662314;0.49476707;0.04909568;0.021130193;0.039510325;0.014807015;-0.3070596;0.007092082;0.019492283;-1.086813;-0.0042231763;-1.7163279;-0.7566488;0.2882903;-0.029326309;-0.046861235;-0.058345716;-0.046920158;0.47502902;0.027705736;-0.005017765;0.0004743622;-0.07539591;-0.0063622203;0.0060308324;-0.05400822;0.892076;0.019581312;-0.27477685;-0.05278736;-1.4049908;-0.932297;0.06023456;0.14575034;0.35000366;-2.2624865;-0.045711;0.07093391;-0.0153391445;-0.0102086;-1.5683087;-0.06427441;-0.9176028;0.04111195;0.018568685;0.21072508;0.004917543;-0.37884784;-0.069164924;-0.12439085;-0.058857992;0.042786248;-1.2063311;0.007649137;0.7779319;-0.52201957;-0.049135797;0.074085936;-0.68544346;-0.029983005;-0.043019906;-0.07902788;0.17442;0.29181308;0.1204433;0.0025031443;0.044749863;-0.043822106;-0.050198365;0.25685227;0.023998417;-0.07306739;0.20951182;0.08515632;0.026742207;-0.031152235;-0.020580055;-0.0014274551;0.12573808;0.00042440783;-0.39146662;0.080120735;0.8102993;0.044588365;-0.08338047;0.0066050603
-0.057411205;-0.036588427;0.10637735;0.08955636;-0.033193488;-0.5455722;-0.049646895;-0.1294005;0.042058308;0.41600513;-0.07265344;0.20195055;-1.4343406;-0.66608834;0.21543773;-0.75917614;0.51204914;-0.16549033;-0.44402543;0.00846906;-0.50055903;0.019471336;0.009918775;-0.9934592;-0.031416863;-2.3391778;0.034535263;0.005533512;-0.103348404;-0.33870965;0.4847011;-2.7041361;0.0043140333;-0.02344052;0.0791223;0.04194131;1.2514504;1.029248;-0.061518278;-0.29755688;-0.04772063;0.026536027;0.13637084;0.011240766;0.8634076;-0.019420495;-0.42393842;-0.083505236;-0.084882654;-0.25042537;-0.5674458;-0.13144854;-0.06485319;0.0021979555;0.62373585;0.029600985;-0.5864645;0.27865508;0.6601328;0.010155003;0.073308304;-0.47330737;0.04555413;0.41414142;-0.10593079;-0.085510686;1.2295375;-0.043483924;0.03855349;0.06601515;-0.27476624;-0.08560291;-0.041532792;-0.17599918;0.30027625;0.18435383;0.03607469;-0.88555247;-0.003900722;-0.24758054;0.094122484;0.04094181;0.017471302;-0.31597498;-0.05305479;0.013666611;0.7427465;0.10172666;-0.95289814;-0.042865705;0.033862226;0.06652241;0.018466419;-0.040746372;-0.18704446;-0.038934544;-0.04559723;-0.038173117;0.06657179;0.06092355;-0.037950013;0.077215835;-1.3382103;1.7112405;-0.024664696;-0.045783073;-0.06753192;-0.15508656;-0.09242687;-0.043717086;-0.007710941;-0.014683505;-0.12189031;0.088326365;-0.11216275;0.7656108;-0.0017582815;-0.12216173;0.028654123;0.010622314;0.065167725;0.0111576645;-0.107127175;-0.021477906;0.40949288;0.045267735;0.08677414;0.07966336;0.04708102;-0.3098653;-0.6483982;-0.12692288;0.12715225;-1.1521571;-0.057131473;-0.4301258;-1.4365844;-1.5528105;-0.19538784;-0.43769148;0.039672747;-0.022686647;1.5233171;-0.68052524;-0.17411126;-0.056665365;0.052798487;0.03349323;-0.22020201;-0.12950802;1.1499147;-0.018021561;0.07780919;-0.46189338;0.040264826;0.015637087;0.0055301394;-0.15078352;-0.003886025;-0.71328396;-0.06355046;0.98284954;-0.43515125;0.058331046;1.8565452;-0.5588363;-0.38798428;0.064485766;-0.12671947;-0.07028725;0.08175691;0.086015016;0.441917;0.05293314;0.058678348;0.06781591;-0.06218077;0.9649267;-0.039467588;0.012779554;-0.15896162;-0.041575063;1.8723469;-0.005016074;0.16592795;0.5021088;0.06299319;0.9018143;0.5992879;0.1308695;0.027050465;0.14900154;-0.12658316;0.08858082;0.008737805;-0.099363215;-0.12016252;-0.1508954;-0.06306529;0.026485808;-0.7099798;-0.008693269;0.017657483;-0.6635704;0.36611465;0.013303027;0.029792264;0.16878927;-0.00035834016;-0.0015825168;-0.027036626;0.022699645;0.016140625;0.4736772;1.3797133;-0.03651391;-0.15523674;0.07208587;-0.019195233;0.032122925;-0.04567453;0.03576755;-0.40829265;0.023190878;0.25759286;-0.04306584;-0.017132118;0.7521221;-0.99623865;-0.24619633;-0.046164278;-0.11023856;0.05745963;0.026597911;-1.3812156;-0.009491649;0.037670862;0.060906395;-0.56893384;0.02647892;-0.086931586;-1.1898184;-0.04835797;0.058204517;-0.050638504;-0.06147123;-0.7527278;-0.04347129;-0.04209;-1.021831;0.06625555;0.050878245;0.04125792;-0.31686613;-0.042574074;-0.04589311;-0.058965098;-0.08139292;0.08915662;-0.31382176;0.9440406;0.51240325;-0.05495337;-0.048051067;0.091641195;0.78803647;-0.24717268;-0.14323609;-0.65168345;-0.672656;0.07928128;-0.07906918;-0.019019764;-1.3062786;-0.02233403;0.09293365;0.91573536;0.18324801;-0.08072826;-0.08317311;0.18099524;0.0020921128;-0.10669534;0.09328982;0.032998312;0.0061598923;0.9263713;-0.31443852;-0.011941969;-0.68189746;0.15555675;-1.2455455;-0.55321395;0.02820366;-0.20400487;0.32710475;0.08525492;-0.016694639;-0.09616175;-0.036365647;-0.3989985;1.7868944;0.0062750867;1.1217755;-0.22381216;-0.30875972;0.007559871;1.004607;0.101015784;0.06650899;-0.01553895;0.13440152;-0.07627643;0.49789837;-0.068037726;0.011480799;-0.055458922;0.01116969;-0.05513002;-0.14153741;0.046985734;1.7831829;-0.81061965;-0.023554107;0.4115334;0.15130892;0.021473767;-0.04016581;0.004159542;-0.03202896;0.02390603;0.006861252;0.065065905;-0.2729742;0.0014662781;-0.77586824;0.04588799;-0.041870434;-0.10619965;0.21405517;0.011442472;0.0533198;-0.103174776;-0.25559482;-0.10795025;0.070623055;0.06562904;-1.5551529;0.1542626;0.74128395;-0.24221107;-1.1269019;-0.068294644;0.06312949;0.122220956;-0.023133064;-0.41795394;1.4418595;-0.049946453;-0.07885623;-0.011644001;-0.11627787;-2.2532413;-0.025899509;-0.18747374;0.039861035;-0.097755775;0.009371973;0.034621533;-0.06129375;-0.086232536;-0.19010478;1.0846958;-0.24075094;0.023264386;-0.0025291424;0.13145591;0.036634542;-0.029027024;-2.0979557;0.07277033;0.0060359254;-0.009637508;0.03250689;-0.061565336;0.01490758;1.3082811;0.043386474;1.5730826;0.08018024;0.060561135;-0.032441687;-0.061287615;-0.009937721;0.044801172;-0.13281035;0.00946781;0.010316185;-1.1634053;-0.001486196;-0.056435343;0.036234856;0.03623929;-0.13941088;0.021695064;0.03766508;1.0263262;-0.27551368;-0.010871901;-1.2089707;-0.16062686;-0.26056913;-0.08124795;0.06113662;0.07993858;0.015134101;0.03752473;0.5346372;-0.092039935;0.05996748;-0.08005399;-1.0825657;0.040652018;0.084373295;-0.34699717;-0.08570309;1.651761;-0.15722874;2.3321369;0.076545484;0.12112395;0.110278815;0.13215877;0.13990456;-0.03740334;-0.05929423;0.6025147;0.0003948105;-0.03635037;-0.09528917;-0.044428635;-0.55155504;-0.85120493;0.07227661;-0.080748975;-0.521324;0.018602861;-0.08208262;-0.51808465;-0.018461838;-0.04194602;-0.444084;0.051373117;-0.33522183;0.06748248;0.04953976;-0.020096961;-0.03524489;-0.056497637;0.05436901;1.504154;-0.05722931;0.1504457;0.06233771;0.069145605;0.0580863;0.48852673;-0.016677288;0.07780048;-0.22122884;-0.02322856;0.3766945;-0.07728856;0.8474053;-0.27206224;-0.057682097;0.10800308;-0.23587601;-0.05628733;-0.06513722;-0.09436418;-0.19653091;-0.1822628;-0.073306136;0.63169026;-0.047242995;-0.14253423;-0.11690634;0.77130973;-0.03769873;-0.16827326;0.358568;-0.12621994;-0.056908812;0.58368903;-0.101471774;-0.22844194;-0.06292273;-0.032717098;-3.0832603;-0.09599042;-1.9196641;-1.5306746;1.0302153;-0.058929425;-0.09073852;-0.27117944;0.009481956;0.10452373;0.0042535476;-0.03682182;-0.05062465;-0.036272123;0.00016461681;0.06871835;-0.041479766;0.82030374;0.01666836;-0.49190137;0.011070404;-0.8579255;0.148513;-0.06204855;1.5183203;-0.33183023;-1.1434864;0.029077517;-0.060401313;-0.012154438;0.085837565;-0.8404773;0.079393804;-1.3464019;-0.09295501;-0.030025277;0.02832487;0.03634601;-0.16370471;-0.085187815;0.018417725;-0.0027252247;0.01981271;-1.9139204;-0.029558642;-0.8366759;0.29005814;-0.009162081;0.017500991;0.5641347;0.33278286;0.03537485;-0.0814375;0.10856128;0.87288266;0.10149264;-0.00082118536;0.041472882;-0.0034690602;-0.0037668953;-0.112023465;-0.06298085;-0.19104084;-0.1083002;-0.026123203;-0.0024468408;0.0068212464;-0.113864996;0.10518499;0.20002997;-0.031899907;0.12894529;-0.00027372807;1.1452845;-0.048914157;-0.077500805;-0.042482544
0.042298567;-0.081631914;-0.012349314;-0.06396886;-0.095840015;-0.5312799;-0.039075866;0.0014135829;0.12841631;0.17078122;-0.025685422;-0.43516114;0.13086079;-0.050964877;0.1930342;0.010151861;-0.91096735;-0.03370201;-0.63743895;0.081512004;-0.9906532;-0.05266465;0.049043395;-0.4129376;-0.072561406;0.8305836;-0.081592835;-0.08174314;-0.045510203;0.29189804;0.07707848;-0.18359457;-0.10114376;0.08871001;-0.014884167;0.47983187;-0.5116629;2.0103745;-0.07324814;-0.21022159;-0.072617695;0.100707814;0.1936479;0.045955233;-1.897405;-0.005871855;-0.812286;0.082167216;0.08210954;-0.08845796;-0.21102637;1.2091299;0.046211474;-0.0036261247;0.5687549;0.28268388;-0.4955803;-0.12925367;-1.5153393;0.0073547424;0.014582467;-0.3900858;0.33857143;0.5709521;-0.015030823;-0.06251464;1.9527954;0.0877547;-0.10787669;-0.030342445;0.07046295;0.11796461;-0.035409074;0.1741994;0.05329633;-0.85716426;0.11116579;-0.20866328;0.05759075;-0.26565892;0.03657977;0.075990014;-0.021850595;0.32458115;0.5986029;-0.031496383;0.27340695;0.05393742;-0.23440847;-0.028942164;-0.014758003;-0.20346223;0.11732566;0.108027816;0.84810036;-0.12131454;0.04069418;0.7047963;0.24665765;-0.059856635;0.0847237;0.010729449;-0.34869882;-0.838479;-0.07937276;0.007247946;-0.019297494;-0.017175496;-0.07428261;0.031696636;-0.048233766;0.05538415;0.032838646;-0.040512204;-0.13586853;-0.25715303;0.0017464838;-0.04236463;0.007901112;0.1268463;-0.07077535;-0.064573474;-0.0051734084;0.11053267;-0.15039228;-0.05910129;-0.019276958;0.55212116;-0.09984815;-0.38393503;-1.0546608;0.03678193;0.10592385;0.63206553;-0.087112725;-0.47322705;-0.3550648;1.6993778;-0.07597397;-0.6389583;0.021994375;0.010412839;-1.4806194;-0.5095042;-0.29762658;0.08664801;-0.03067537;0.036370747;-0.09934676;0.07941737;-0.19459067;0.024796838;0.07434277;-0.37013525;0.024823114;0.13231918;-0.067897335;0.415117;0.102929816;0.059334207;0.009782414;-0.17327012;0.0765088;-0.035519965;-1.0487102;0.3697151;-0.7073003;-0.11769823;-0.058381177;0.13555576;-0.08650809;0.012514977;0.34394047;0.07937973;-0.061052945;-0.040538583;-0.03226796;0.25554016;-0.017738413;0.09324874;0.044534683;-0.11032194;-1.0168146;0.04491065;-0.17037725;0.8730002;0.13028695;0.46799263;0.37157422;0.18630396;0.06263947;-0.05422553;-0.14115638;0.014630933;0.08063914;-0.03220365;-0.11608;0.006369607;0.080825076;0.10849435;0.119478434;0.041177057;0.098016426;-1.3002754;0.35532793;0.06494507;0.00749852;-0.21957724;0.050285716;0.047502566;0.00871996;-0.02205482;0.046268124;-0.104814604;-1.0541689;0.023912465;0.067869276;0.17105801;0.09243852;0.08140018;-0.13797425;0.1092366;1.1144258;-0.15548587;0.62780154;0.010125491;0.05000822;1.0703338;-0.15316242;-0.015563896;0.05527592;0.04606778;-0.016531788;0.021317154;-1.0427703;-0.04723626;0.12641259;0.07977279;-0.67278636;0.010175856;0.09548869;0.80059284;0.37362286;-0.13841097;0.022594567;-0.0036591964;0.10505994;-0.08949447;-0.08539263;-0.7472386;0.06333606;0.04556148;0.006083783;-0.28582588;-0.02991499;0.036693044;-0.055852037;-0.060791735;-0.5766954;-0.647694;-0.83412856;-0.8521268;0.12059127;-0.08030967;-0.07103417;-0.5432299;0.033252466;-0.59268254;-0.1664675;0.24585535;0.07422648;-0.02576899;0.0032297417;0.16404457;-0.026965464;-0.32338417;-0.41343206;-0.18470486;0.19966154;-0.019114489;0.010940824;0.0030107647;-0.042250693;-0.17028941;0.0420071;-0.07865589;-0.4175899;0.42690778;0.06904079;-0.22234318;0.06713339;0.8951685;-0.38665855;-0.2662024;-0.017266624;0.14702679;-0.063750066;0.005986512;0.09614346;0.012082065;-0.4761986;-0.6517195;0.07909456;-0.06783074;0.04805882;0.35055646;0.24067779;0.3495612;-0.10108888;-0.026407639;0.057567243;-0.10867194;0.10440332;0.21186861;-0.11464156;-0.05850166;-0.039085988;0.041543566;0.22054914;-0.106499255;0.07132356;-1.5475996;0.58988154;0.0634332;-0.4944898;0.34012038;0.08206782;-0.13178998;0.018092394;0.48923084;0.0071808794;-0.024028754;0.026758919;-0.07189429;-0.11301984;-1.9024546;-0.4897094;-0.05659572;-0.02041188;-0.30766293;-0.023948807;-0.020335415;-0.108571686;1.0473838;-0.15089957;0.028349143;-0.025604002;-0.19673626;-0.101289906;-0.05571117;-0.26149806;0.49701786;0.116901994;0.015839776;0.20508257;-0.043610472;0.22985645;-1.647085;-1.7979364;0.023943963;0.081755154;0.069480464;1.0627899;-0.047918316;0.13562879;-0.012643121;0.03478386;-0.3665562;-0.11327845;-0.014264082;0.06425504;0.01073205;0.3064864;0.5213612;0.0556446;-0.060335364;0.057552632;-0.06584337;0.092152275;0.80631065;-0.10539063;-0.13088965;-0.047346998;-0.10933598;0.007977491;-0.07697917;-0.78510255;-0.015898595;0.7125733;0.40473947;-0.017578501;-0.3998802;-0.0589676;0.006059263;-0.054435577;-0.10795163;-0.05375977;-0.010000535;-0.6713417;-0.012568265;0.03178867;0.054327477;-0.06235342;0.22228765;-0.06784692;0.10298796;1.0603983;-0.3586775;-0.019948808;-1.8273866;-0.01760406;-0.16104433;-0.115454435;0.058531493;-0.05343818;0.08465079;0.10011489;0.13878953;-0.08816216;0.06000983;0.009160928;0.56640387;0.025876148;0.011810354;-0.49539116;0.05982793;-0.415752;-0.22928546;-1.856064;0.03474133;-0.22299296;-0.20324245;-0.1284603;0.0089349;-0.0631106;0.08710789;-0.3290781;-0.049763143;-0.06282659;0.050402913;-0.071648106;0.4992895;-0.87261254;-0.061513975;0.004487;-1.2191868;-0.4916151;0.09646081;-0.48432592;-0.007648362;0.020597765;0.24948627;-0.09398873;0.25118804;-0.029882511;-0.11555388;-0.0033575387;0.03770844;-0.04734258;0.55943334;-1.32127;-0.0005296114;0.10726197;0.09777047;0.04591781;0.204928;0.0963112;0.028681587;-0.120019116;-0.30446327;0.035643995;-0.3088657;-0.50299066;-1.5132582;0.290999;0.11352011;-0.08412521;-0.15900607;0.017081892;-0.0821615;-0.052727576;0.35826054;0.94411737;0.5529421;-0.40688324;-0.035827234;0.2505635;0.30492866;-0.40864947;0.1221792;-0.26693532;0.18555841;0.07677126;0.051320825;0.44848976;0.028086666;-0.40198842;0.04604962;-0.07365443;-1.620285;0.07110333;0.4047226;1.2293445;1.4292532;0.06297579;-0.11624052;-0.38435903;-0.08089074;0.10452932;0.033221852;0.06574902;0.044231582;-0.027778843;-0.0028971555;0.07039474;0.08818861;1.637365;0.022123571;0.1594777;0.1023572;-0.798548;-0.6009725;-0.050105285;-0.5518514;0.22961257;-1.36712;-0.008756561;0.10884359;0.036809728;-0.036999274;-0.33788002;0.113591984;1.4341365;-0.033696733;-0.07024349;0.53648853;0.043855004;0.7155255;0.04447929;-0.037180338;0.03659887;0.06016477;-0.8199037;-0.07164246;0.5318664;-0.68009764;0.012416395;-0.021066425;0.12386639;-0.349676;-0.09183973;-0.07460228;0.06418472;0.19696024;0.29175106;0.04575432;-0.033880103;-0.05352697;-0.045444116;0.1442919;-0.07533406;0.54468787;-1.1784753;-0.08176676;0.044512514;-0.029563585;0.046942543;-0.10459592;-0.49152493;0.011957835;0.060258772;0.07222354;-0.085644774;-0.08019051;-0.02362748;-0.049560577
0.32356787;-0.045296844;0.22916102;-0.14271857;-0.1282251;-0.53917694;0.06092032;0.16712286;0.18634167;0.21757764;0.07340507;-0.38755065;-1.4549809;-1.3988922;0.20602432;-0.6944;1.0792506;0.100516796;-0.28063354;0.08771878;-0.39950585;-0.047833037;0.2857094;-0.65994996;0.04709346;0.8775682;0.005745427;-0.045679636;0.28183213;0.4741051;-0.3726611;-2.4447305;-0.038423035;0.20867552;-0.0048925537;-0.16970733;0.3279084;0.7969949;0.05553441;-0.19558163;-0.08362196;0.078301504;0.29089558;0.31816977;-2.4769952;0.08434425;-0.50531757;0.11764424;0.34120792;-0.035043526;0.11539313;1.1134266;0.054107122;-0.011174152;0.36510798;0.28007692;-0.5405579;-0.01057292;0.29722288;0.30858722;-0.0028686158;-0.64637136;-0.16859876;-0.89356124;-0.10115882;-0.117748424;-0.12490516;0.053925578;-0.10104121;0.008798618;0.065921046;0.15926684;-0.08508772;0.4271722;0.46991947;-0.34144032;0.29828852;-0.9908071;0.2380187;-0.17867735;-0.03226331;0.02530061;0.031681612;0.45209974;0.78858924;-0.14942704;-0.56150603;0.010582421;-0.25946793;-0.091588974;-0.066494174;-0.70433444;0.12480581;-0.044103056;-0.6336007;-0.1662433;0.023967281;-0.50428295;0.10995447;-0.089992315;0.26607463;-0.037864123;-1.618077;-0.3308304;-0.018331582;0.032789346;-0.107625976;0.07938009;-0.07834843;-0.14104845;-0.10261249;0.07729801;-0.11605292;0.07166707;-0.21473217;-0.1793322;-0.011191051;0.16387036;0.0061959783;0.12030048;0.029457675;-0.0767546;-0.018720578;0.20164815;-0.6682212;-0.1958657;-0.047698185;-0.8900911;-0.08047094;-0.23843628;-0.60384995;0.09944184;0.14045383;-0.59131086;-0.017650835;0.1801243;-0.4465246;0.2208275;-0.358722;-0.5626003;0.04103416;0.042720903;-0.77592087;-0.25909752;-0.93401086;0.033547916;-0.08356883;-0.11864793;-0.12050793;0.09378251;0.0027802235;0.0059390147;-0.07173757;0.18882757;0.011982031;0.12106963;0.008004151;-0.13499792;0.0020724982;0.7709997;-0.091003515;-0.5222705;0.56739986;-0.023769671;-0.63275486;-0.6205083;-0.18545638;-0.030773744;-0.0629876;0.32243153;-0.0880522;-0.031241091;0.66007626;0.11044255;0.012426681;0.028483374;0.08784149;0.46016276;-0.016806832;0.22541013;-0.032353938;-0.04261181;-0.37988898;0.113584004;-0.12846702;-0.733823;0.02050423;0.66784;0.1773675;-0.022650031;0.1890254;-0.046102963;-0.29030636;-0.10372786;-0.02352157;0.11004499;-0.2866865;-0.36059898;0.15824936;0.10487524;-0.53265005;-0.053303763;-0.031346474;-0.8581576;0.19091646;0.014641137;-0.013723386;0.31107637;-0.015368616;0.030043496;-0.12973134;0.07227143;0.054205462;0.42725658;-0.8083184;-0.058973055;0.15837097;0.08959623;0.19717887;0.12428187;-0.20524536;0.16851981;-0.22894132;1.6685437;-0.3669249;-0.16058928;0.050718803;0.07230189;-1.6350576;-0.29139674;0.22871472;0.16525067;-0.0022389896;0.024987536;-0.6203405;0.18972464;-0.24466659;0.24656549;-0.6483;0.01621313;0.11757883;-0.5877561;-0.06276104;-0.06755328;0.04698991;-0.10793029;-0.8409353;-0.08506436;-0.100256704;-0.6695722;-0.049257774;-0.0035251542;0.022073021;-0.86669046;-0.042419206;0.25796977;0.0886067;-0.019920232;0.18190172;-0.40184405;-1.1945504;-0.15889609;0.15268001;0.054050714;0.072576374;0.502526;-0.023223087;-0.8543473;-1.088254;0.15095079;-0.22086442;-0.1001646;0.12492868;-0.2453196;0.23304178;0.055801723;-0.3320636;-0.2651959;-0.1974397;0.16310738;-0.10911764;0.040445097;-0.10950255;-0.11808509;0.03721448;-0.22812048;-0.6471293;-0.124362476;0.030747678;-0.7921662;0.14765446;0.83424556;0.18831135;-0.07900272;-0.110850215;0.17405568;-0.119766034;0.060419142;0.2910389;0.13545346;-0.758341;0.12647803;-0.019416532;1.1170366;-0.06146661;0.40268487;-0.07973763;0.17864792;-0.0884326;-0.005377391;-0.03632608;-0.0076954146;0.21547998;0.11290063;0.03366889;-0.07424989;-0.02923489;0.021081755;-0.028000727;-0.07157799;0.010981631;-0.4926094;-1.5436602;0.051930018;0.20641482;0.49674353;-0.1058699;-0.08337134;0.2542972;-0.9784476;-0.10379567;0.04254866;-0.0004681759;-0.20703053;-0.013075;-0.9276701;-0.3788059;-0.05415438;0.07645308;-0.22281799;0.26325956;0.0064557083;-0.016308056;-0.6894839;-0.22240019;0.014486133;0.12338894;-0.49352783;-0.023564765;0.6777545;-0.33692256;-2.247153;0.14196669;-0.08650587;0.23201646;-0.071011886;-0.69275534;-0.79296196;-0.3556372;-0.07944279;-0.07642185;0.14163542;-0.7329765;-0.1758141;-0.027054474;-0.10384655;0.11759816;-0.30643946;-0.11900416;0.09331653;-0.032225184;-1.3280371;1.2086825;-0.71504945;0.009150737;-0.11587441;-0.027044712;0.0695581;0.023858108;-0.9095074;0.047416214;-0.1851884;-0.04445611;-0.104227155;0.0017037085;-0.097314976;-0.13449976;0.014700523;-0.45210487;0.7687365;0.05509451;-0.30606464;-0.10252083;-0.01636157;-0.015467747;-0.105081655;0.2650066;-0.03155516;0.21244594;-0.0272362;0.09566166;0.09656261;0.10412104;0.39926538;-0.034358747;0.14832212;0.22123915;-0.37973052;0.21250176;-1.7826663;-0.5545043;-0.8779758;-0.09584264;0.036929056;0.0034415696;0.114038385;0.09614117;-0.368529;-0.13390635;-0.019848866;0.2841813;-0.3330481;0.12984772;-0.056712188;-0.5358973;0.117532015;-0.28967497;-0.39211228;-0.7236457;-0.023184134;-0.41543373;0.23942797;-0.13089123;-0.21979783;0.05979669;0.11711785;-0.2607511;0.15770388;0.07047458;-0.08232308;-0.032341044;-0.37356028;0.43344745;0.076307975;-0.278106;-0.41440833;-0.27320847;-0.09848099;-0.34739712;-0.03424805;-0.037283022;0.35271296;-0.09154755;0.16842894;-0.22223097;0.01023106;-0.046958175;-0.005755617;0.10006556;-0.25029713;-1.5679655;-0.11916673;0.06859389;0.12665902;0.048816107;0.7966733;0.1080734;-0.024809992;-0.06335742;-0.2374086;0.04562034;-0.098632626;-0.28523168;0.6223968;0.4286598;0.19797644;-0.06049411;0.094595686;-0.1931914;-0.09905407;-0.11460992;-0.0052781147;0.10443106;0.8048038;0.0011251136;-0.029267522;0.37019122;0.43876305;0.26924503;0.15535189;-0.248617;0.45248872;0.27757317;0.036079817;0.73745084;-0.1020525;-0.28436518;0.0027661566;-0.14730519;-1.3125718;-0.031989217;0.59934855;-0.7636433;-0.100089446;0.0820923;-0.090715684;-0.4983345;-0.14761214;-1.9002851;0.008616372;0.07444253;-0.06355655;-0.08979871;0.011845835;0.08727485;0.05206434;0.7804424;-0.0680659;-0.041100293;0.11266375;1.0848063;0.19852737;-0.09665289;0.057983223;0.39506206;-0.5719652;0.01913737;0.24609676;-0.06458468;0.008141947;-0.20759583;0.15577978;-0.11125134;-0.09266275;0.0238511;0.40760654;-0.06620844;0.2730687;0.17065454;-0.14259668;-0.05056378;0.2875207;0.46104246;-0.035385452;-0.010645078;0.01409306;0.010101041;-0.01557408;0.38289368;-0.29286155;-0.018700086;-0.052501455;0.049163844;-0.42800605;0.38648072;0.089406736;-0.07569323;-0.013135284;-0.085293554;0.37846154;-0.09278006;0.16952355;0.38106903;-0.015871119;0.011825923;0.03857985;0.07900203;-0.07841003;-0.014900099;-0.05460625;0.33846477;-0.072976165;0.39661902;-0.02549407;0.1036557;0.03588592
-0.13530624;0.026843788;0.41240644;0.0060388013;-0.009160303;-0.12300165;0.033336256;0.11981799;0.013283102;-0.33416405;0.09681896;-0.19614497;-1.0091363;-0.06223183;-0.3320679;0.7494545;0.55435115;0.050899215;-0.1679547;-0.04093867;-0.18445547;-0.08437258;-0.37182784;-1.8024573;0.023495153;-0.9918988;-0.0009154017;0.042892028;0.005568834;0.35672024;0.3494757;-0.27632874;-0.11964247;-0.015208485;-0.037500855;-0.052437373;-0.07735909;0.42648438;-0.09038876;-0.019448379;-0.029925099;-0.033633057;-0.183574;0.02046436;-0.9741619;0.05704723;-0.06975958;0.10364284;-0.00041919763;-0.40612313;0.12650242;-0.9574314;0.033974346;0.0428713;-0.066362694;0.17887026;-0.07537016;-0.004983227;1.3205094;0.090660825;0.00014798902;-0.103483185;0.03825453;-0.59938055;-0.097016044;-0.012155593;0.48915142;-0.006358855;-0.060680185;-0.06271752;0.024944777;0.10615989;-0.0056573576;0.23854896;0.67521757;1.0058765;0.1506056;0.58535784;0.09648434;0.14977936;-0.07312258;0.024314733;0.061443157;0.22930293;-0.81798434;-0.047488622;0.61617917;-0.08736484;0.005936719;-0.053764373;0.043944012;-0.8135599;-0.038007632;-0.2648475;0.7958494;-0.085697636;-0.025423175;0.09127397;-0.17295347;-0.059957556;0.14315675;0.019144913;-1.3960053;0.12251133;0.02857863;0.29573664;0.03764155;-0.0025250576;-0.028915675;-0.053738713;-0.051981498;-0.02637504;-0.08148673;-0.059853684;-0.15335031;-0.5148607;0.01636019;0.08701833;0.020281201;-0.08489711;0.01893714;0.032828793;0.04663541;-0.0017358871;-0.44471857;-0.18989511;-0.009404723;0.2830641;-0.004194988;-0.20583722;-0.9332922;0.002771164;-0.00570074;0.08061212;-0.051191937;1.7623492;0.28326303;0.6295294;-0.04525091;0.124521375;0.023781791;-0.041288834;-0.92223847;-0.10162869;-0.40741786;0.039958708;-0.021268312;-0.004446026;0.15856662;0.112615354;0.86580807;0.030794024;-0.042248957;-0.60830194;0.07299531;0.10072202;0.08306795;1.2494689;-0.03132429;-0.34366986;-0.0020873172;0.5591611;-0.21918982;-0.03271945;-0.07658469;0.21093068;-0.8851744;-0.018826606;0.041553818;0.16619799;-0.069883734;0.14076412;0.6355917;0.049160544;0.077564605;0.039554868;0.009153111;-0.020039296;0.009894795;0.015118011;0.02850844;0.08485949;0.09315386;0.03494627;-0.041418437;-0.35496092;0.090172306;-0.528594;0.14583683;0.18853667;0.07735842;-0.074019045;-0.3416667;-0.06753035;-0.06912061;0.08654329;0.019148031;-0.3502542;0.35705635;-0.0040443107;-0.6398488;0.06582589;0.015169087;-0.88216764;0.25681818;0.04483096;0.01376375;-0.22007644;0.07651375;-0.016286131;-0.084223546;-0.065975256;-0.005607419;0.46661285;-0.40290242;-0.046107434;-0.032605678;0.047359373;-0.023547461;0.031616904;-0.10512367;0.05405113;-1.0382438;1.8430462;-0.112287335;-0.1315617;-0.006111701;0.13574754;-0.76680696;-0.3271858;0.05697699;-0.0022164863;0.03981172;-0.07674692;0.13519551;0.10429177;-0.050677028;0.26291877;-0.08508349;0.06105448;0.042045034;-1.1615062;-0.11714681;-0.014307692;0.033864938;0.05369041;-0.82664996;-0.14233077;0.02439435;-0.47690907;0.042594224;-0.014356935;0.034466803;1.7457497;-0.065806605;0.10724003;0.040032826;-0.03490929;0.22709039;1.1213447;-0.93596226;-0.079943374;0.11500025;-0.04966419;-0.009131303;-0.32042253;-0.14145581;-0.82228255;-0.25231493;-0.010872173;-0.063691966;-0.011563852;0.07376035;-0.51934755;-0.070966005;0.39509615;0.9279024;-0.17037359;-0.11010293;-0.004148149;-0.04694463;0.07142232;0.11870263;-0.029273741;0.07864138;-0.06274827;-0.90763736;-0.0370069;-0.024271693;0.5942854;0.13955013;-0.45755357;-0.0873431;-0.3494899;0.63189054;0.22896029;-0.030723318;0.06884146;0.031981308;-0.022566857;0.6131402;-0.00875656;-0.0080336;-1.2214828;0.021062097;0.2892254;-0.18466847;-0.12353054;0.010444766;-0.0087653715;0.060638692;0.09996895;0.036608577;-0.09294474;-0.025291502;-0.06277631;-0.060197424;-0.030724093;-0.22201017;0.046685904;-0.014206969;-0.078414276;-0.39437723;-0.08142044;0.5194952;0.47697023;-0.102795005;0.06339588;-0.0036835931;-1.4377633;0.085922174;0.017124427;0.033852533;0.04256224;-0.010235049;-0.10998464;0.13701543;0.067214705;-0.069639035;0.029851248;0.083061285;-0.057752755;-0.32445082;0.43249395;-0.18752176;0.0352811;-0.023441508;-1.3294413;-0.040739536;0.033537015;-0.8693647;-2.1213353;-0.047876865;0.08367297;-0.015217199;0.027906373;-1.2209171;0.3627896;0.24759965;-0.026300734;0.07292092;0.0828249;-0.56984496;-0.039207116;-0.11596353;-0.006942049;-0.048534572;-0.009074784;0.021839775;0.044388667;-0.08480264;-1.5834944;0.1424156;-0.36689007;-0.10986283;0.045291014;0.029780477;-0.06797914;-0.06814842;1.9349135;0.0013800225;-0.022567954;0.020795614;-0.18845572;-0.063273445;-0.11405807;-0.12591651;-0.0790471;-0.60467046;1.0220723;0.07356341;-0.3449804;-0.060098834;0.08554362;0.042263612;-0.12729047;0.042218313;0.0065500876;-0.2282725;0.058227435;-0.019572424;0.067025825;-0.017554682;0.08881344;0.02724616;0.014032873;0.5255727;0.0772096;0.15167978;-2.7073195;0.23675963;0.29728484;-0.016689567;0.036281742;-0.043181833;0.10046768;0.029300991;-1.410689;0.07341434;-0.02432857;0.09606231;-0.23576811;-0.036630813;0.05611122;-0.1392899;0.017076958;0.088866934;-0.051101364;-0.24769366;0.0037762276;-0.40144685;0.23876786;-0.0048394594;0.010209749;-0.006129389;0.031585947;0.033917423;0.056800567;0.045217786;0.015021779;0.05116601;0.021918457;-0.30870077;0.055459827;-0.066064745;1.2390541;0.037485834;-0.11461577;0.1594151;-0.061076432;-0.1413353;-0.5405787;0.033809237;0.10065518;-0.035113048;-0.010648003;0.034561984;0.06108102;-0.029173324;0.34614176;-0.89220446;-0.11273131;-0.17619358;0.042840373;0.08696507;0.92675644;-0.05200071;-0.03812001;-0.06768315;0.2535586;-0.0006602619;0.61543256;-0.04819268;1.088557;0.42460188;0.07014322;0.007334056;-0.058987543;-0.16660638;-0.10381856;0.07070064;0.02695384;-0.32587302;-0.050874267;0.07425844;-0.062305335;0.22326395;0.24105053;-1.3073404;0.016543077;-0.03665294;-0.6267135;9.597132e-05;-0.015968038;0.33134267;0.053494293;0.01963965;-0.010890227;0.016011525;-1.2587162;0.01958982;-0.9628248;-1.1271874;0.06226041;-0.044792075;0.020972326;-0.533894;0.007902073;-1.6519941;0.048294645;-0.037112087;0.06359884;-0.024524713;-0.02086785;0.067344956;0.053113785;-1.1175874;-0.0011514956;-0.24832997;0.16843988;-0.5912198;-0.08439269;-0.032723628;0.070729636;0.43952122;-1.5235904;0.07738323;0.081748374;-0.0012822766;0.0048128203;-1.2878604;-0.015758848;0.35958952;-0.017021444;0.043145012;0.06144354;0.021901416;-0.13233861;0.011325721;-0.099598885;-0.028910495;0.028752232;0.14824036;0.08199987;0.499182;-0.05230146;0.060963497;-0.025850147;0.4717998;-0.3298357;0.08685587;-0.039155442;-0.17400786;0.85704213;0.097364485;-0.055606566;-0.050124004;0.01709209;-0.012853093;0.07988042;0.03717218;-0.42999375;0.68408555;-0.04131769;-0.037877865;-0.04021705;-0.0044822344;0.042621233;0.4008478;0.07037308;0.7457254;-0.00195495;0.10851909;0.021654572;0.027974246;0.057018984
0.14146104;0.02703129;0.53646773;0.027206972;-0.022673175;-0.5686531;0.029130833;-0.0801545;0.010194667;0.2642958;0.12610497;-0.40234277;0.8288873;1.8855288;-0.23371683;1.3805023;0.14630023;-0.03142844;0.33576113;0.0029507375;-0.26229897;-0.083280176;-0.49177083;-1.6037186;-0.0057300357;0.1552361;0.02691167;-0.05541567;-0.038485233;0.45978624;0.046946924;0.31407258;0.082475424;-0.102069035;-0.054846875;0.41400248;-1.9685307;-1.7892039;0.043974683;0.32793972;-0.017699298;-0.002397019;-1.2943903;0.060641088;-0.11946524;-0.055209078;-0.6811643;-0.00042255598;0.21141323;0.34981564;0.014555704;-2.4169538;-0.010447809;-0.07736429;0.2109565;-0.10118528;0.31723812;-0.043129295;1.2245383;0.05038435;-0.037085295;0.31826973;1.7858402;-0.81823;-0.061953753;-0.027687065;-0.21144709;0.0017086184;-0.029364515;0.08109297;-0.06485764;-0.123217605;0.011990587;0.2950827;-0.062441975;1.1124396;0.1670015;0.6534186;-0.11913568;-0.005630962;0.09292633;-0.052970674;0.021680174;0.3821393;-0.7062493;0.016487848;1.529331;0.078094825;0.42462045;-0.012130621;0.059409734;-0.21785077;-0.064758465;-0.12876596;0.8154362;0.036033362;-0.018532371;-0.40841722;-0.23181136;-0.049063522;-0.02103123;-0.07212665;1.6621914;-0.3142161;0.025123812;0.42202207;0.061179537;0.12185831;0.0062961103;0.06405451;-0.02663539;-0.09066657;0.06780131;0.032435037;-0.056139022;-0.57329434;-0.027534736;0.011206307;-0.017362418;0.021234237;-0.06710254;0.013463404;0.022028182;0.010505195;1.5467587;0.033004068;0.014623043;-0.40991488;0.0035011;0.64030194;-1.4429774;0.008284744;0.17617507;0.48099715;-0.022779169;0.78013706;-0.033808768;-0.597261;0.5362148;-0.52764344;-0.03597187;-0.08678653;-0.47695777;-0.59871703;0.17820735;-0.055055294;-0.07211235;-0.058936227;-0.22989088;-0.04239778;-0.32397208;-0.029480686;-0.036038533;-0.08873345;0.044934593;-0.026141593;0.088672884;0.61366343;0.0042143795;1.0393721;0.08529747;-0.12245761;-0.7206849;0.027001442;1.5429014;-0.18986578;-0.44687954;-0.031690918;0.049436066;0.18990077;-0.01436298;0.06284001;-0.8504161;0.003501689;0.02164007;0.07770621;0.05891491;-0.8241432;0.036833048;0.1284246;-0.07684196;-0.027190601;-0.5222146;0.05869511;0.012661233;-0.040760864;-0.04425676;-0.91082674;0.37106463;0.08434962;-0.11634762;-0.1505447;0.11013608;0.10346215;-0.059159294;-0.056534253;-0.20575355;0.096951425;0.6218724;0.06632497;-0.2566493;-0.0530844;-0.053051557;-0.80528146;-1.262612;0.033058494;0.0012488114;-0.37612426;-0.0079232175;-0.014917468;0.0063488116;0.071983136;0.010363245;0.36480564;0.03976348;0.048446935;-0.07635097;-0.03534651;-0.047986653;-0.05027307;0.06422341;-0.051376313;-0.9882755;-0.19020925;0.2877199;-0.0070907897;0.0077930028;0.5298615;-1.4616381;0.1271318;0.15779342;0.022943081;0.0008207585;-0.016861305;-0.24744472;-0.12410091;-0.0665029;0.0038310478;-0.117433816;0.045238707;-0.10600403;-1.5336901;-0.14225866;0.054793153;-0.007771428;0.08170294;-0.93339676;-0.06788324;-0.10155609;0.69782346;-0.0519214;-0.028223673;-0.0770269;0.4858671;0.06635885;-0.041780464;0.014480991;-0.023796441;0.18547222;0.08527067;0.5544678;-0.35371342;-0.03164709;0.012697216;-0.06050626;-0.2764552;-0.5570839;-0.64505696;1.9897152;-0.32535282;0.16411205;0.003996981;-0.06745083;0.4616802;0.24676058;0.33861575;0.40005824;0.093587354;-0.370113;0.08998519;-0.12190304;0.06641331;0.010359361;0.18750155;0.02465424;-0.038597103;-0.3604201;0.16248848;-0.078613415;1.2914791;0.2132078;-0.34886855;0.08653965;0.61478233;-0.12630254;0.35327035;0.009681817;0.06505303;0.040275563;0.056569364;1.6458352;-0.6959113;0.022664446;-1.2145423;0.010470261;0.43277162;-0.20980476;0.55428076;0.09027921;-0.05259524;-0.035466768;-0.49878532;-0.081363365;0.40781358;-0.063886136;0.018742677;-0.004079898;-0.036124445;-0.103134334;0.07308752;0.023972038;0.38419417;-0.94969195;-0.0029461803;-0.14013457;-0.060148753;0.07306202;-0.10196501;-0.05687118;-1.10148;-0.05010895;-0.091347314;-0.07276574;-0.19068798;0.032803923;1.8619808;-0.47771385;0.037404932;-0.035724908;0.15144375;-0.049866993;-0.012730412;-0.366818;-0.0040677343;0.067798816;-0.006631639;-0.0068825725;-1.4022176;-0.07923889;-0.20856938;0.09326443;-0.72701114;0.032877926;0.050926056;-0.0076194475;0.07702193;0.8082899;-0.064755484;0.31017527;-0.033011492;-0.052772913;-0.027241193;-1.1115943;0.107380345;-0.20882975;0.03336002;-0.050614625;-0.47738886;0.022122694;0.0266426;0.08283738;-1.4170132;-0.27453545;-0.5459229;-0.01385446;0.086202495;0.022381382;0.064317025;0.05404621;-2.8134081;0.028320406;0.07176091;-0.06667796;0.045815837;0.02266234;0.062076557;-0.10966245;-0.016641125;1.4804374;0.7627829;0.015232425;-0.15356529;0.024862776;-0.004166497;0.059807166;-0.028586488;-0.04193928;0.039490584;1.4290069;-0.06765702;-0.06653453;-0.055976067;0.070554435;0.2763443;-0.03655797;0.011437083;-0.5136344;-0.3951595;-0.028934894;-0.2798714;-0.08584457;1.950864;0.018549424;-0.072753064;-0.04541832;-0.06237196;-0.01381824;1.5080822;0.029526487;0.024947457;-0.015866067;1.8857329;-0.009811852;-0.06670122;-0.49578905;0.008950374;0.8839245;0.04011934;0.046291128;-0.024827369;0.19422212;0.29236922;0.020482432;0.032467294;0.07741466;0.012035101;0.82914543;0.07539218;-0.04761775;-0.026080891;0.07412093;0.002988337;-0.13645506;-0.05108866;0.002451575;1.2548509;0.5134436;-0.114199065;-0.20785102;0.06772918;-0.43050808;-0.41488189;-0.052754596;0.003842407;-0.008940092;-0.03940378;0.06485168;-0.041473635;0.040623333;-0.8852565;-0.612052;0.05655305;-0.044925604;-0.057418168;0.058836516;0.73355097;-0.28633624;-0.020105347;-0.026150595;0.073346786;-0.03789956;0.45335484;-0.5196658;0.32138395;0.43353385;0.23299117;0.048055645;-0.09688132;0.024089875;-0.10957348;0.06561669;-0.059496924;-1.0103483;-0.36656246;-0.42228836;-0.07102328;0.23755248;0.3749542;0.88559884;-0.115411006;-0.5003294;-0.98265636;-0.024130715;-0.031451467;-0.346233;0.018839031;-0.44027928;0.004661617;-0.035015285;-2.2208505;0.042402923;-2.2941158;-1.696363;-0.3905847;-0.07991412;0.07650203;0.24521007;0.03357643;0.9130528;-0.08664414;-0.016910914;0.061750915;0.045971878;-0.08024689;0.051125314;-0.087322205;1.4580965;0.029213551;-0.28110513;0.18144932;-0.22005577;-0.39916188;0.009471085;-0.6994674;0.44462898;-0.22818224;0.058431055;0.13499494;-0.04111349;-0.048551988;-0.60089535;0.057195466;0.08177999;-0.04796666;0.033945993;-0.010938867;0.06730616;-0.605438;-0.031001799;-0.0026146763;-0.008578132;0.106900394;0.014244123;0.041855186;0.23256543;-0.44098195;-0.05162447;-0.048030287;0.13799974;-0.13741173;-0.0050432743;0.05969915;-0.25342152;-1.2676224;-0.058268525;0.0008769244;-0.06252709;0.05160985;0.04830368;0.13904162;0.09161532;-0.4111294;-1.4524485;-0.042713597;-0.07756332;-0.035297044;0.057173647;0.038093377;0.1842648;-0.046794202;0.05146539;-0.07067428;-1.5037025;-0.039040223;0.06515965;0.10594169
0.5410032;-0.004665683;0.13905685;0.045261037;-0.09593816;-0.34913406;0.036621172;-0.10875845;0.05427454;0.42527634;0.118150115;-0.09804718;0.52438915;0.9175374;-0.20046905;-1.2847009;1.6801562;-0.023488859;-0.23872267;0.03872703;0.1379465;-0.055000916;-0.5844567;0.6527999;-0.025544884;0.4237535;-0.018395472;0.02801376;-0.08113628;0.07651445;0.14701813;0.2810761;-0.046237174;0.006760101;0.04265139;0.05392528;-1.6556054;0.61725724;0.017597513;0.39039642;0.04815534;-0.03625186;-0.3409987;-0.1052154;-0.26696196;-0.048262727;-0.4199849;0.039859198;-0.04615459;-0.71269006;0.14775173;0.7694026;0.008861747;-0.020135282;0.017928941;-0.15773268;0.7950283;0.19669926;-0.24288435;-0.09067969;0.052509822;0.6202352;1.1571883;-1.312084;-0.030883027;-0.0041327924;-1.1387115;0.07580789;-0.13053876;-0.07165944;-0.009118254;-0.011204928;-0.07636193;0.011224767;0.36835003;-0.009178056;-0.10055938;0.2579916;-0.12229741;-0.12814142;-0.051634435;0.0060079102;0.04123164;0.104183085;1.032725;0.0045249723;-2.1800153;0.027958604;0.4241771;-0.024079878;-0.040649537;0.46092498;0.022264693;-0.2639403;-0.18894656;0.051385105;0.090709366;0.08678248;-0.3734565;-0.0019709414;-0.058747366;-0.032790285;1.3218952;-0.33289927;0.07483785;0.38341302;-0.06332093;0.06637699;0.0030366036;-0.09374988;0.037575275;0.0329747;0.04245996;-0.07641237;-0.09661563;-0.45655173;0.06288405;-0.025119422;-0.078071825;-0.08881121;-0.034328163;0.051443826;-0.050988723;-0.100595616;1.0418459;-0.07594933;0.059944794;-1.2881539;0.034208037;0.23766798;-0.6883328;0.008017666;0.07916341;-0.20515038;0.07589172;0.5675103;-1.184976;0.28726816;0.46247408;-0.2651139;0.057820063;0.009694704;-0.7539448;-0.4331028;-0.034780547;0.0412248;-0.017783789;0.08534962;-0.078486145;-0.04333442;-0.8448507;-0.011222354;0.058617186;-0.08685915;0.025832715;-0.0069156247;-0.025943095;-0.03056988;-0.06597408;0.48852015;0.03066891;0.48081845;0.34719044;0.023915054;0.623446;0.6773143;0.53610444;-0.045072064;0.01876022;-0.003514254;-0.07301896;-0.010328346;-0.6227615;0.08584915;0.049287148;0.0059364256;-0.05762868;-0.78556275;-0.0061112544;-0.03828969;-0.2521092;-0.040933535;-0.17144398;-0.015989328;-0.062441338;-1.4344412;-0.01667356;-0.07054642;0.4652696;0.39998287;-0.09155175;-0.026504362;0.10146394;-0.036661424;-0.013063541;0.028510714;-0.20222151;0.16374412;0.65408653;0.07421776;0.111027114;0.034409575;-0.011172474;-1.0395612;0.46453398;0.0013659995;0.053074613;-0.59572005;0.0197579;-0.05939749;-0.09065366;-0.0059783044;-0.0007297395;0.08320711;-0.52655137;0.019481655;0.046738893;0.0752672;0.06540015;0.014769438;-0.07228433;-0.0689713;1.1990271;-0.006753545;2.228081;-0.009784009;-0.0005177547;0.44919577;-0.8574825;0.042945273;-0.055674773;0.056556445;-0.015230308;0.10851902;-0.31167027;-0.1110233;0.09963561;0.26095876;-0.5281088;0.06307391;-0.09781414;0.30568284;-0.3204376;-0.038247608;-0.06972168;0.040818524;0.21558289;-0.025056161;-0.016109241;-0.68946797;-0.026745902;-0.037230216;0.07891014;-0.9594306;-0.04782263;-0.14707991;-0.051266424;0.03070808;0.5321481;-1.9756864;-0.016670983;-0.27882826;-0.07414928;0.011041861;-0.0468148;1.4159282;0.6209591;0.49968833;1.2635725;-0.48437312;-0.0021718852;-0.022838742;0.04616333;0.25553426;0.2545079;0.3326936;-0.42359537;0.119148284;-0.23502918;0.1450395;-0.19293672;-0.020768132;0.04419012;0.038580798;-0.020597236;0.04036908;0.017101696;-0.03116936;-0.05984961;0.054720882;0.19585375;0.08740952;1.0323184;-0.13352026;0.21303694;0.31216186;-0.05459906;0.019743443;-0.13207664;0.08973894;0.033283096;0.28351468;-0.0018548265;1.4499356;0.05038305;0.053728074;-0.5257202;0.62907875;-0.02801603;0.0830072;-0.054649357;0.81776506;-0.0040902025;0.5510342;-0.03383274;-0.0131065175;-0.01487388;-0.083798565;-0.19534539;0.01920487;-0.010371859;0.35367557;-0.32574257;0.0011920115;0.09450903;0.5031606;0.034770183;0.010316593;-0.10037936;0.11647281;0.10388301;0.048780885;0.03650538;-0.05758563;0.059909083;-0.083239555;-0.12553632;-0.05244579;-0.015884621;0.13747951;-0.0753561;0.061066095;-0.5292113;-1.25934;0.032931782;0.18978332;-0.00080288266;-0.46236524;-0.11812236;0.23944248;0.3348558;0.75346583;-0.038921863;-0.0840931;0.09894835;0.022393875;-1.0266262;0.4058914;0.23482633;-0.16578163;-0.04256668;0.0034990674;0.45443356;0.05419142;-0.22502734;-0.08846858;-0.012845751;-0.1775102;0.04120624;0.077270135;0.05257658;-0.15757914;-0.10573758;0.36452317;0.08734398;0.042910296;0.084564194;0.0054644933;0.050746102;-2.8123672;0.07760629;0.029849663;0.008203051;-0.12579519;0.053250894;0.042962056;-0.6730284;0.019516906;0.47115517;0.08007705;0.033811603;1.1210521;0.07532675;0.011849797;0.06598704;-0.11740755;-0.17061555;0.046402026;0.9320762;-0.08879275;0.05281239;-0.02060245;-0.07035328;0.057550546;0.029470684;-0.013383961;0.838363;-0.11176121;-0.03945104;1.7091668;0.35420203;0.88922495;0.051239587;-0.05366972;-0.06477124;-0.11935639;0.04592111;0.70956117;0.06269875;-0.03356166;-0.05573884;1.337635;-0.028772939;-0.023698727;-0.33534443;0.041055612;-0.47386408;-0.10201367;0.07384684;-0.03293556;-0.4446255;0.4499578;0.040132694;0.05122694;0.033080887;-0.06529425;-0.52554506;-0.15509127;0.017390488;0.020788427;-0.08148208;1.1043253;-0.9656064;-0.018624766;0.122934185;0.6268936;0.16139694;-0.0330363;-0.23264219;-0.008537757;-0.18092003;0.56520104;0.04938098;-0.22495908;0.0043966905;0.08865161;-0.060061667;0.05625252;0.025519522;-0.45357028;-1.0174446;-0.02387442;0.05071997;-0.013002385;-0.008385503;-0.21800314;2.2323785;-0.041523084;-0.07027796;0.42912725;0.035308175;0.028310338;-0.23312037;0.38620964;0.09407681;0.10576438;-0.05560158;-0.029498335;-0.13318928;0.018201122;0.015772022;0.049770415;-1.1517425;0.80480367;-0.57620734;-0.027549876;-0.023405097;0.13714887;0.2957925;0.027757943;-0.11745529;-0.88353;-0.15025036;0.02323895;0.1094004;-0.05198243;-0.047294714;0.030730117;-0.006210464;-1.5189284;0.013834094;-1.4394206;-0.23268428;0.59151065;0.06462111;-0.10224016;-1.006909;0.063345075;-0.73235786;-0.006656248;-0.014496084;0.033481956;0.025867324;0.03205358;0.077293724;-0.060287505;0.27190906;-0.007977705;-0.107129514;-0.014654429;-0.22189748;-0.20477922;0.02523486;0.3512635;0.13975635;-0.053776134;0.058852132;-0.05887871;0.055048816;0.08641882;-1.0647749;-0.002655367;1.4045613;0.042897154;0.10600327;1.369768;0.03513982;0.18818249;-0.0558507;0.12521194;-0.0216309;-0.1540405;-2.284533;0.08250212;0.6749347;0.1073017;-0.06948672;0.023865541;0.15220201;0.26546597;-0.03779935;0.0009330302;-0.060634445;0.32117447;-0.042340208;-0.06291058;-0.05849109;0.027537037;0.023978464;0.018331641;-0.09610853;-0.49459958;0.9764792;-0.001619944;-0.006671916;-0.06761294;0.015296464;-0.101025596;0.44314644;-0.029142203;0.24825685;0.08858996;-0.65177524;-0.028461939;0.02280645;0.0916401
-0.11363521;-0.036285292;0.013584374;0.13466041;0.16020383;-0.08233681;-0.014726597;-0.32329923;-0.13564451;-0.9943243;-0.12709588;0.32000688;0.924165;-1.378773;-0.39690867;0.05017858;-0.28503588;-0.13036877;0.041320525;0.014830438;-0.76531893;0.012572218;-0.44162762;0.07333797;0.0021329536;0.177936;0.09527287;0.1319961;-0.31320095;-0.43997985;0.36892617;-3.3428123;-0.010527852;-0.2945601;0.03393511;0.11760856;0.73042405;-0.1521048;-0.036822684;0.4007367;0.03226862;-0.105748415;-0.98782134;-0.40325478;-0.52269787;-0.0811753;-0.015730988;-0.06299035;-0.25344554;0.24555075;-0.4384789;-0.062576406;0.02276609;-0.09467757;0.4215794;-0.42735124;-0.267412;0.3853308;-1.4283311;-0.29298925;0.0031441534;0.7630829;0.96147966;0.58300936;0.10174551;-0.049336944;0.8923715;-0.050752975;0.1112132;0.097223915;-0.12949449;-0.11921863;-0.009143282;-0.3611676;-0.07742862;0.14462462;-0.34376666;0.14595173;-0.2032209;0.022823922;0.036179624;-0.014185858;-0.016011814;-0.55729467;1.5259297;0.10558805;0.5580501;-0.18398058;0.39255294;0.015401446;0.05469141;0.5523187;-0.19846784;0.04339596;-1.4309971;0.084886186;-0.08465787;-0.47307023;-0.6052695;-0.021064658;-0.3396324;-0.04739086;-0.88816524;-0.040016994;0.10941832;0.23442636;-0.04843282;-0.048597887;-0.046038657;0.15643114;0.108865455;-0.19453269;0.026307957;-0.03021901;0.102932096;1.1768906;0.12122683;-0.29852796;-0.112659335;-0.07998353;-0.026946854;0.019159647;0.062126998;-0.17244424;0.02394388;0.025721407;0.05555919;0.33117053;0.16631763;-0.08415099;-0.08788127;-0.012512692;-0.1336165;-0.6282714;0.035244916;-0.34301424;-0.40865672;0.8284242;0.40752316;0.15894584;0.0050700386;-0.14850098;0.72952235;-0.1162618;-0.97167486;-0.025285123;0.0044250702;0.0705256;0.1833384;-0.094600186;-1.1253775;-0.048323333;0.0036479044;0.313381;-0.017957447;-0.17666316;-0.0034655703;0.3714408;-0.017363403;-0.33648553;-0.023501413;-0.048872422;-0.6459805;-0.04345071;0.4401937;-0.23564807;0.59228957;0.13475625;0.063848436;-0.37416956;-0.024187883;0.2784777;0.022995846;-0.021141628;0.027412554;0.0014426105;-0.13258918;-0.01923179;-0.043249268;-0.34178936;-0.124917716;0.01961829;0.13896112;-0.01701935;0.17553514;0.38040155;-0.108215235;-0.7767768;0.26113787;-0.18774833;-0.12121122;0.008073562;0.30898464;0.07938182;-0.09234561;-0.14572835;-0.029033938;0.16758737;0.35495323;-0.07121831;-0.14854662;-0.06732659;-0.010479518;-0.13982877;0.18653971;-0.0073074466;-0.1303924;-0.5896791;-0.079381175;-0.0008384172;0.16447376;-0.03960485;-0.106702544;-0.24483378;0.49042556;0.0137123;-0.06339523;-0.41483703;-0.16580306;-0.2024949;0.09048399;-0.22354238;1.0920377;-1.2902733;0.18658064;0.226318;-0.06430946;2.0319831;-0.24643725;0.22808126;-0.3374123;-0.061121754;-0.050756164;-0.018777933;-1.1738484;-0.21529244;0.3671141;-0.08177036;-0.20514153;0.03683892;-0.30415773;0.73368955;-0.27710897;0.22046489;-0.0958662;0.026679516;0.03605162;0.0514626;0.1821994;-0.26718345;-0.10717538;-0.03948281;-0.027561061;-0.37006462;0.04165099;-0.34281316;-0.097835235;0.17603977;-0.34726274;0.7689914;0.3979286;0.08740758;-0.24420863;0.006525402;-0.024742924;-0.36012074;0.027141826;0.6921733;-0.5828911;-0.25730726;0.06450916;0.0052531525;-0.13106215;-1.2988973;-0.15929756;0.23581894;-0.86983746;0.4644509;0.17001164;0.0110757025;0.19496544;-0.014748482;0.13056903;0.17682475;0.05332522;0.24989323;0.37532753;-0.2210362;-0.068652645;0.38775593;-0.33403844;-0.55953896;-0.044317607;-0.36193004;0.2743849;-0.4375557;0.082672246;-0.010596734;-0.3519289;-0.043519713;-1.2782313;-0.41108438;-0.1418888;1.1905096;-0.10912121;-0.51095784;-0.23614605;-0.4989856;0.1466798;0.03810477;0.06615487;0.30407256;-0.23631299;0.11301266;0.012017826;0.13187279;0.15896405;0.09659042;0.14586397;0.100671075;-0.08898425;0.09458403;1.3830478;-0.056786556;0.35093817;0.16694939;0.09338194;0.2003626;-0.35305873;0.5537918;0.07525137;-0.0010854801;0.0794522;0.02850225;-0.051141117;-0.19671063;0.23031427;0.028898314;0.012243801;0.41666827;-0.37775332;0.066898786;-0.040838834;-1.0388274;0.19503163;-0.21869445;-0.06920751;0.2662191;0.06487842;0.45104945;-1.3824632;1.9637282;-0.08482726;-0.04222064;-0.06666687;0.030288111;0.29476514;-0.27569002;-0.5380547;-0.14696065;0.0088219065;-0.1530252;-1.1947618;0.15011226;0.014667467;0.12854046;-0.08110033;0.30850965;0.12137542;-0.0972564;0.00756347;0.08830065;0.8436809;-1.0560433;-0.0022483086;0.03310917;-0.09805103;0.009368476;-0.031420413;0.3761827;-0.025917696;0.08205055;0.06568023;0.11017968;0.010794461;0.23122278;-0.61456645;-0.075508155;0.06345868;0.23675598;-0.09541437;0.51848716;0.01406114;0.026789837;0.17080103;0.15149166;-0.304558;0.039941195;-0.06355234;-0.019837068;-0.042628106;-0.08136811;-0.11385207;-0.45689505;-0.009665233;-0.1741329;0.07496193;0.19681622;-0.27911037;0.053805333;-0.0075466563;0.058970664;0.18385378;-0.14105827;0.017586142;-0.29956007;-0.029328072;0.33186364;0.022816328;0.07152813;-0.38457862;0.39799845;-0.11237973;0.043609537;0.17956541;-0.08214723;0.89149225;0.14971383;0.36292368;-0.011964624;-0.22185689;0.35103977;0.16049089;0.29144642;0.055306397;-0.10348345;0.9032765;-0.23911174;-0.064802766;0.08654389;0.016105184;-1.25226;-1.7692933;-0.037598483;0.12234792;1.3471578;0.26887006;0.09963074;0.23204394;0.09164531;-0.0648543;0.247007;-0.04238767;-0.26980266;0.23105489;0.0076392177;-0.01622981;0.023109933;0.011314867;-0.58077043;1.1789697;0.22315279;0.0017382017;-0.0011487537;0.04175311;0.10515338;-0.45432338;-0.011184439;0.0935552;0.20747738;-0.15217087;-0.9701232;0.29217127;-1.6130018;-0.5387681;-0.22249989;0.11173237;-0.09518234;-0.009286195;0.033051968;0.04572153;-0.04059783;1.22613;0.3549814;0.50814724;0.059270214;-0.46715936;-0.4938132;-0.42043248;-0.1723558;0.20797285;-0.9016798;-0.35240245;0.009383615;-0.24319127;-0.021405673;0.1978439;-0.00488768;0.016408922;-0.75599784;-0.07564217;0.87315327;0.55207896;0.24085893;0.0023116574;-0.04115099;-0.48388252;0.09945686;1.5456218;-0.17008048;-0.07298067;-0.04914015;0.042836178;0.044120643;-0.08693669;-0.086474925;0.464426;0.06515826;-0.048685644;0.009742917;-1.5221894;0.33371636;0.020804802;0.7727729;-0.47085956;1.3392214;-0.07559877;-0.4004697;-0.051787723;-0.028192772;0.32692143;-0.12627472;0.4472424;0.12528464;0.08063767;-0.93261063;0.0043962994;-0.8112163;-0.19225796;0.21794572;-0.039678685;-0.38439688;-0.43553907;0.10591074;-0.44661677;-0.05595651;0.077639535;-0.062385134;-0.45208648;0.45975214;-0.05403466;-0.007474829;0.05996516;-0.28082007;-0.28940392;0.016096245;0.08390433;0.07686864;0.048143305;-0.30453858;0.06983357;-0.40471336;0.019727575;0.08805763;-0.0847378;0.0015256943;-0.16300929;0.018506825;-0.3331676;-0.057368945;-0.05260599;0.061208386;-0.8463268;0.0068008513;-0.010365145;-0.060567867
0.50174063;-0.07499979;0.36682728;-0.11372667;-0.15036297;-0.6424067;0.028725833;0.23682363;0.12400568;0.4964742;0.055898122;-0.006771361;-1.3177121;-0.48557746;0.083980076;0.19527239;0.5087828;0.123047724;-0.43772063;-0.03519234;-0.28731433;-0.032515395;0.017313957;0.60714513;-0.008335217;0.56657946;-0.044973914;-0.17565371;0.24818431;0.6122358;-0.22277136;-0.27593246;-0.08762154;0.29156566;-0.048599012;0.24690697;-0.2862746;1.6371979;0.04479711;-0.4782234;-0.06598269;0.1707897;0.29322967;0.33722168;-0.5152722;-0.0034624056;-0.55608565;0.058086175;0.44775388;-0.76804715;-0.9589774;-0.91084397;-0.048890468;0.021466622;0.5459002;0.087390214;-0.21867049;0.046528786;1.238538;0.32878345;-0.0008011661;-1.106757;0.16445763;0.13398829;0.15545464;-0.07385705;-0.80821747;-0.023794426;-0.08524557;-0.012948798;0.17048755;0.14752488;-0.037849735;0.46169457;0.36342415;-0.717723;0.33982468;-0.27058333;0.18871856;-0.5481242;-0.056923497;0.010908357;0.032095507;0.63445723;1.2204477;-0.1388967;0.48544702;-0.031127285;-0.081750855;-0.15997662;-0.14067136;-0.28564098;0.15274557;-0.12860696;0.29468778;-0.101908684;0.11534625;0.5038486;0.23941444;-0.070901215;0.29497522;0.041567504;-0.46713975;-0.63539886;-0.021655684;-0.15343359;-0.09551748;0.15416245;0.015099172;-0.13939843;-0.100069806;0.13267766;-0.133439;0.063863076;-0.19980855;-0.19525972;-0.002487756;0.19650434;0.0942163;0.1287858;0.015533233;-0.08143494;-0.108542114;0.21448462;-0.124689974;-0.21499671;0.0069805617;0.12129971;-0.12706387;-0.4319938;-0.8828551;0.029007493;0.16786252;-1.0210644;-0.06344712;-0.9446008;-0.4970238;-0.8680257;-0.27321303;-0.65391815;0.08445862;0.0013271982;0.15121603;-0.6279107;0.8027548;0.11176144;-0.069283225;-0.098165184;-0.38584837;0.17489395;0.85782856;0.13855469;-0.012072101;0.21498498;0.004414888;0.07180614;-0.026349988;-0.47835574;-0.071640104;-0.9365487;-0.018540826;0.31540218;-0.7628692;-0.030674698;-0.5344411;0.3241011;-0.13227548;-0.04117788;-0.10985233;0.36932138;-0.09981242;-0.19744527;-0.20472139;0.0881689;-0.12483818;-0.014125743;0.09327869;-0.76290554;-0.07623784;0.31610465;-0.023624375;-0.16710715;-0.780207;0.005046961;-0.21369393;0.426005;0.10109876;0.024615863;0.47603336;0.1194355;0.20317769;0.07917188;-0.31950292;-0.120562695;0.011841432;0.07212338;-0.28374556;-0.28778622;-0.21768983;0.15202776;-0.25267637;-0.0025911606;0.05311122;-1.0764261;0.5256253;0.036748387;0.09672234;0.056897536;0.069825806;-0.019994086;-0.1251825;0.13718021;0.120068915;0.37424028;0.03331669;-0.008549196;0.06759935;0.085928656;0.11975027;0.1662381;-0.16304193;0.14214173;-0.5171818;1.5859203;-0.023746876;-0.20043425;-0.04158982;0.2932048;-0.02243308;-0.3651476;0.30545348;0.120737;0.07166488;0.047111463;-1.5251586;0.21982473;-0.20983334;0.3479293;-0.78176934;-0.014595834;0.29143518;-1.542036;0.14858514;-0.19526535;0.14866124;0.0037909185;-1.599658;-0.15091491;-0.14448403;-0.56698066;0.033495165;0.0021085232;-0.108303934;0.9578448;-0.14017051;0.3507884;0.05580283;-0.3479808;0.09793363;0.86264616;-0.39004555;-0.14950256;0.3180895;0.067248575;0.09720935;-0.29177582;0.8011273;-0.0637834;0.006970042;0.12419764;-0.119664766;-0.08702259;0.029852128;-0.032808386;0.03270339;-0.036858935;0.32736272;-0.20200224;-0.21382435;0.13418597;-0.07269006;-0.07492635;-0.22173469;-0.19385079;-0.10429505;-0.20676629;-0.2983257;-0.4368258;0.08708669;0.2044915;-0.19770366;-0.075271994;0.3083707;-0.46396983;-0.42902568;0.61605483;-0.21937852;0.15211539;0.31895924;0.17427981;-0.64998835;-0.70818555;0.021451661;-0.20032693;-0.13650323;0.58139235;-0.09180211;0.60120714;-0.07368459;-0.004003809;-0.080655314;0.21705186;0.1757211;0.6114344;-0.045922525;-0.16820411;-0.17714478;-0.0047189374;-0.16367416;-0.105246894;0.08983125;0.18585372;-0.8851652;0.014182187;0.7225396;-0.062147863;-0.14413472;-0.20453389;0.32585853;-0.19603513;-0.07977441;0.10918845;-0.06004378;-0.21330601;0.015432735;-0.13371585;-0.5777933;-0.02561624;0.00027128102;-0.24103828;0.26095393;-0.11727392;-0.5124903;-0.20269477;-0.038312558;0.13679315;0.109610856;-2.2356327;-0.05437826;-0.080941364;-0.05327376;-1.244494;0.15929931;0.030595189;0.22438718;-0.058153175;-0.86226463;-0.76249015;0.06142963;0.13866873;-0.012448418;0.16630086;-0.1634427;-0.21153434;0.0029647807;-0.18709026;0.055664975;-0.51193553;-0.03679783;0.15540789;-0.097672604;0.2615478;-0.313851;0.927341;-0.01941534;-0.087263994;0.109981395;0.013165093;0.09472287;0.40541562;0.04280014;-0.18535304;0.07498707;-0.28270286;0.050107066;-0.19331858;-0.2524529;0.14959314;0.30613574;-0.58963895;0.05374067;-0.012375549;-0.030310268;-0.12968317;-0.065761134;-0.16957931;0.24771942;-0.13238487;-1.0800502;-0.09292556;0.13157545;0.17885661;0.100813605;0.51128334;-0.06436718;0.12559178;0.24642779;-0.6561296;0.21475427;-1.4992387;-0.2871534;-0.39962125;-0.08846929;0.024502372;-0.0100467745;0.1832934;0.008573367;-0.73372746;-0.12593976;0.07428925;0.34448242;-0.27746594;0.1343464;-0.00847999;-0.69841504;0.13730341;-0.790932;0.0005996055;0.016968729;-0.069901966;-0.15579358;0.27008134;-0.08709932;-0.18004997;-0.06800202;0.16708124;-0.6161431;0.28092572;-0.061986484;-0.11219413;-0.110113785;1.5410329;0.12799636;0.026065413;-0.1802501;-0.5258972;0.18700142;-0.04691924;-0.43972605;-0.21682218;0.18248641;-0.7303698;0.046283063;0.0732342;-0.1963945;-0.05889161;0.10454906;-0.08595075;0.023614569;-0.21103042;0.37153083;-0.1568805;0.18067971;0.03706036;-0.08022405;-0.92258763;-0.57109386;-0.02424813;-0.03805594;-0.2868637;0.099350676;0.529035;-0.5453824;0.84975326;0.6274381;-0.009553519;-0.20777898;-0.1761975;-0.16053385;-0.053330544;-0.07272088;-0.09325045;-0.44319704;0.2635918;-0.023316288;-0.06312055;0.466895;0.6101189;-1.5160316;0.20573685;-0.59208906;0.60085785;0.32586646;0.060313866;0.7876349;-0.10008523;-0.7249658;0.020155152;-0.17414902;0.012895719;-0.023698593;0.04204037;-0.6102495;0.51722443;0.0985623;-0.015308502;-0.32812303;-0.1733843;-1.1536801;0.050487492;0.093848206;-0.10998688;-0.054217465;0.06341014;0.011246003;0.051637936;-1.1083578;-0.007808103;-0.16588853;0.20786315;-0.6774079;-0.4901163;-0.057744734;0.58357275;0.659916;-2.2831442;0.11109094;0.26616493;0.009295208;-0.024797546;-0.54877734;0.09725851;0.2691822;-0.25239366;-0.057537213;0.02681014;-0.017083693;-0.82353896;0.03839105;-0.08091796;-0.15670972;0.38500735;-0.8378908;-0.17074654;-0.048356928;-0.26877934;0.04591308;0.0076891882;0.15468831;-0.21000312;0.013058227;-0.108472906;0.114877224;-0.099037826;0.11179825;0.040871717;-0.16703092;0.012872275;-0.118680626;0.32941633;-0.094516136;0.03159752;0.69110775;-0.00953729;0.16712995;-0.10076462;0.17736709;-0.14890316;0.42032662;-0.05625115;-0.08771829;0.03538888;-0.08228567;0.039882097;0.12360012;-0.023586439
-0.105308324;-0.057266377;0.041987274;0.19156775;0.17820898;0.29330644;-0.24474908;-0.18265334;-0.21984234;0.046403315;-0.045622107;0.49540728;-0.31886017;-0.38228893;0.2612415;-0.23113953;0.275259;-0.15960936;0.12838057;-0.08651511;-0.42739236;0.071788065;-0.6084068;-1.4913182;0.030937942;-0.020849943;0.08377152;0.1487197;-0.19764975;-0.15110308;0.6042917;0.35180673;0.19804743;-0.10020225;0.14092676;-0.20987166;-0.8576531;-0.27221885;-0.12628923;-0.016819308;0.10101554;-0.08328496;-0.3437459;-0.16444471;0.43403435;-0.0545563;0.45087016;-0.13715178;-0.09700578;-0.059744652;-0.7370168;-2.0116374;-0.07857935;-0.12801655;-0.16873996;-0.306546;-0.15543766;-0.17076857;-0.2489124;-0.05111521;0.15476;-0.77501446;0.034946907;0.73131657;0.08519182;0.1001357;0.7251114;-0.07686519;0.081537105;0.081803195;-0.13139087;-0.22492063;0.069575116;-0.11826438;0.123989746;0.37108424;-0.13838926;-0.07295033;-0.14368695;0.07416008;-0.037035085;0.016184183;-0.1870155;-0.26040056;-0.14564963;0.13930634;-0.42809275;-0.03859679;0.22892246;0.0070856013;0.068338275;0.31411895;-0.15868391;0.16600764;1.3424209;0.122701235;-0.19279642;-0.11431282;-0.15323097;0.0737608;-0.05428468;0.043062102;0.07024777;0.029657997;0.117530175;0.25001922;0.13395031;-0.16351855;0.124238364;0.08680053;0.06537947;-0.08637535;0.04966599;-0.035889205;0.13179778;-0.022148011;0.07674031;-0.06746116;-0.16719304;-0.026945403;0.0787508;0.055990275;0.13705702;-0.09625141;-0.12829831;0.19047756;0.012592436;0.35519263;0.033953566;-0.22041379;-0.11415884;-0.08263095;-0.12764417;-0.21216987;0.10615626;-0.7210643;0.6911944;-0.59918416;0.133427;0.1596865;-0.1668187;-0.2292996;-1.0356808;-0.20504384;-0.18367621;-0.052779004;-0.02060172;0.16626418;0.16181396;-0.23131485;0.75489175;-0.06479424;-0.06518853;0.05570327;-0.042842392;-0.12247023;0.10472023;1.0459356;-0.06185611;-0.5101369;0.09846517;-0.85847783;-0.7925562;0.12367814;0.4382134;-0.2434188;0.3124104;0.19100237;0.0465777;-0.10551617;0.1380401;0.010073535;0.1451312;-0.2055357;0.032081433;0.13064148;-0.21855198;-0.08704822;0.021451138;-0.062036738;-0.2282631;0.19621892;0.0029616402;-0.1879255;0.08305055;1.0206066;-0.1272708;-0.5690847;0.2845363;0.008909246;-0.13001245;-0.10989572;0.13964264;0.14839672;-0.07471319;-0.1844278;0.0396794;0.17271088;0.18517594;-0.07993523;-0.0187536;0.00739749;-0.23021446;-0.46142325;0.66901714;0.026802156;-0.1727614;-0.5936194;-0.107878126;-0.11169456;0.20540047;-0.073652945;-0.11808647;-0.295307;0.5049742;0.16431904;-0.23413906;-0.1374923;-0.09796305;-0.113165386;0.08695159;-0.123166926;0.06977424;0.42318338;1.1379145;0.10030742;-0.18067667;-0.23168558;0.8862317;0.09202119;-0.07224439;-0.12187959;-0.18106002;-0.15118179;-0.95916283;-0.1925064;0.13088788;-0.27693143;0.09764625;-0.043335777;-0.06332968;-0.21197058;-0.15061332;0.12888898;-0.12095935;0.1266529;-0.6267294;-0.0013725624;0.15481363;-0.4568928;-0.21546502;-0.064320326;0.060729112;-0.28202456;0.1420097;-0.17916305;-0.10954119;0.09252379;-0.26704055;0.087119065;0.6212917;0.37665012;-0.16002306;-0.0719917;-0.1154107;-0.792313;-0.18368277;0.28778014;1.3666323;-0.209363;0.0415916;0.039225098;-0.226426;-0.04912932;0.065782234;0.24884829;-0.19032645;0.01929909;-0.27274844;-0.053579837;-0.050579585;0.08105752;0.034052446;0.10451697;0.051131178;0.022806348;0.3195511;0.027322752;-0.06619538;0.5302414;-0.20314522;-0.51376003;-0.22815756;0.42651394;-0.08617572;-0.22533639;0.13560325;-0.19458078;-0.12061833;-0.206176;-0.2771033;-0.022021124;-0.13862489;-0.76609844;0.05486574;-0.20499003;-0.07882874;0.44242445;0.09535748;0.017444106;-0.04183497;0.5978063;-0.056796238;0.33648422;0.12530488;0.041984033;0.19332527;0.06609113;0.08620892;0.1113759;-0.10038346;0.25936148;-0.086582676;0.05799;0.39010784;-0.82566816;-0.018178735;0.057029713;-0.13984862;0.5838919;0.18969814;-0.11536843;0.078359365;0.10852526;-0.16565114;0.8087406;0.15322053;0.117201276;-0.08503819;0.1516384;-0.08763359;0.16143665;-0.31728885;-0.21341287;0.19168954;-0.08532287;-0.21479616;0.43051016;-0.31516308;-0.34713492;-0.25150755;-0.40726736;-0.16832843;0.031918097;-0.034342222;0.1215661;0.75538796;-0.75760925;-0.63564545;-0.1195634;-0.07585842;-0.1436051;-0.07324399;0.19036072;-0.06676013;0.091306664;-0.23671524;-0.049202736;0.0848377;-0.12166116;0.09912458;0.12947722;0.85055923;0.10654084;-0.111665726;0.19708711;-0.10121156;-0.021939857;-0.16903345;1.03612;0.004694898;0.16004795;-0.08418169;0.16291891;0.05284351;0.14556547;-0.26475102;0.04306825;-0.19116433;-0.003352841;-0.18653251;0.33714285;0.13663818;0.11230412;0.103017494;-0.11710292;-0.058293298;0.18451503;-0.8143149;0.084998;-0.11706947;-0.12726788;-0.20292105;-0.09802512;-0.054940015;-0.15642051;-0.09240495;0.14433701;-0.08814997;-2.2096045;0.05711309;-0.5489856;0.14330915;-0.18155104;-0.1217903;-0.079227895;-0.17571785;1.0811648;0.11832478;0.066429265;-0.037559647;-0.58843434;-0.14473745;0.14257595;0.41876638;-0.15503173;-0.24436182;-0.04418665;0.651139;-0.024780717;-0.16455923;0.028978508;0.17994088;0.16873038;0.078612946;-0.14530465;0.23125336;-0.055626497;-0.099761575;0.09252573;0.00036401214;0.014889033;-0.20679265;-0.20762478;0.13433832;0.12757477;0.07624339;0.06055917;0.17784165;0.23834467;-0.06754084;0.31046557;0.13445115;-0.19126633;0.016645178;0.066350624;-0.08588213;0.18560041;-0.11306066;-0.05317016;0.420074;0.16221794;0.116208166;-0.06564191;0.17955996;-0.012306724;0.04127006;0.0027076781;0.1734481;0.07388344;-0.16887021;-0.53670776;0.08201282;-0.017912429;-0.16856337;-0.26752132;0.23281829;0.10398441;0.15035786;0.24764499;0.11033514;0.033372317;-0.22924839;-0.17140381;-0.08672845;0.119239554;-0.10081612;-0.15255626;-0.67789;-0.10367029;0.205941;0.4814922;-0.062979;-0.020199144;-0.16962472;0.08513409;0.15660235;-0.14836127;0.2271086;-0.26737148;0.05060474;-0.65549415;0.08274563;0.5111139;-0.14327113;0.089620255;0.05789291;0.19608684;0.3624291;-0.22382109;-0.16674772;-0.020534648;0.047216617;-0.14064072;-0.1557789;-0.18208186;0.658456;0.03297015;-0.16749679;-0.20390402;-1.2275715;0.2140263;0.23162486;-0.4030103;-0.28415784;-0.5602633;-0.20680922;-0.16178685;-0.04452095;0.05275658;-0.7503531;-0.15466994;-0.560164;0.07769876;0.11681807;0.12650779;0.11467058;-0.106140874;-0.21831995;0.19059299;0.077756405;-0.19652587;0.11953307;0.1804092;0.68651015;-0.5116597;-0.017810253;-0.12025068;-0.9211415;-0.0115969;-0.23967803;0.10917282;-0.16929886;0.0011753272;-0.21397132;-0.10544337;0.046969306;0.037808836;0.12593073;-0.19551753;0.1356925;-0.06451142;-0.9058583;0.21009755;-0.1885772;0.14297362;-0.18198672;0.08847908;-0.23818614;-0.01753277;0.012433386;0.1169065;0.41930604;-0.02302414;-0.09267419;-0.1621592
0.4966891;-0.05200845;0.0641576;-0.12722284;-0.12199815;0.31584752;0.07195463;0.2236478;0.21201856;-0.025790922;0.07718486;-0.48385093;0.61405843;0.6600366;0.5843995;-0.46557316;1.1919643;0.0060660196;0.3011986;-0.018537454;0.15283379;-0.06314906;0.18311039;-0.23585466;-0.0874927;1.7039875;-0.04477919;-0.128351;0.15102492;-0.29717126;0.9584242;0.8902335;-0.12913153;0.22575259;0.03286501;0.021945557;-1.792448;1.6564466;0.06896867;-0.23585841;-0.03649273;0.21824181;-0.016373806;0.20629357;0.5027899;0.052256733;0.61491084;0.1423962;0.10886021;-0.13520631;0.5161458;-1.944135;-0.036580727;-0.019590734;-0.2710858;0.13410635;0.2305999;-0.1298145;-0.123116925;0.24585266;-0.096341066;-0.35732764;-0.0072077313;-0.3728727;-0.015295464;-0.016883306;1.8645598;-0.0031278166;-0.2277605;-0.065515175;0.20004046;0.16781552;-0.121976;0.042112246;-0.6136785;1.813149;0.17662494;-1.8203578;0.13371141;-0.35462585;-0.09147976;0.0047050854;0.13681392;-0.105117925;-1.6282905;-0.12925553;-0.2410437;0.13978209;0.48480082;-0.05214018;-0.22631185;-0.2605507;0.08906746;-0.10032911;1.7915082;-0.13355029;0.02586787;0.12132951;0.21510766;-0.0014375678;0.2206865;0.03185607;1.0796001;-0.058555666;0.012111182;0.043593194;-0.040974982;0.1636618;-0.03988038;-0.066369146;-0.11910806;0.15104596;0.06101088;0.003312595;-0.13537963;0.8000704;-0.021032995;0.26905665;0.11672013;0.1687764;-0.1114539;-0.0545815;-0.00952824;0.2108435;0.31817883;-0.08077073;-0.04843422;0.4610456;-0.18753839;-0.14900453;-0.41478065;0.12234253;0.09727457;0.18371595;-0.12725101;0.27504283;-0.1442964;0.39100122;0.09904572;-0.09575083;0.0080988;0.1421794;-1.5290821;-0.15578453;-0.42890462;0.045026213;0.021393135;0.041370653;-0.1042778;0.09387107;0.21692497;0.112731636;-0.020736502;0.8287994;-0.09967756;0.051800765;-0.1356195;1.7452389;0.049826846;0.4575905;-0.044027954;-1.955522;0.5174294;-0.06463691;1.5161426;-0.20984785;-0.27179617;-0.10803005;0.005485073;0.18429406;0.008320989;-0.20906983;-0.10542311;0.016113661;-0.10997849;-0.026633553;0.067407265;-1.0058378;-0.019930612;0.09237858;0.18241107;-0.08414176;0.052609682;-0.025563529;-0.17079055;0.458113;0.11986402;0.86164135;-0.05281225;0.1858038;0.1168143;0.15024917;-0.110583045;-0.09969571;0.021355424;0.03704251;-0.20418364;-0.11376658;0.08929853;0.05894836;0.5795404;0.04429835;0.074037224;-0.42377564;-0.39070946;-0.009434604;0.041053843;-0.9511439;-0.057552084;0.034472283;-0.15185247;0.12690903;0.06405407;-0.3242042;0.8880032;-0.12146334;0.18178718;0.31325278;0.21701553;0.10472778;-0.15809849;0.2293616;-0.9905695;2.0480363;2.6132367;-0.18395033;0.04632386;0.5043033;1.4844022;-0.081972554;0.08124716;0.14210787;0.08236075;0.03084922;-0.9742161;0.26213405;-0.2633923;0.18578519;0.48734903;0.045835543;0.124054246;0.37504828;0.14790793;-0.1811513;0.07590886;-0.06480694;-0.60871804;-0.07422608;-0.027484246;-0.58024925;0.09415562;0.004593523;-0.029350644;0.28052193;-0.068321675;0.08782434;0.0779675;-0.0785991;-0.045530967;-0.10410914;0.577239;-0.4267336;0.09678376;0.009631363;0.073656;0.74198663;-0.08832191;-0.7274436;0.5346727;0.1985944;-0.14407349;-0.018524751;0.036008667;0.6531215;-0.093128294;-0.19547045;-0.37387544;-0.29545745;-0.29029566;0.016248904;0.17572796;-0.09723221;-0.035275336;-0.20961586;-0.009203957;-0.17259194;-0.020164888;-0.018519113;0.019924998;0.826375;0.18194641;0.1607383;0.40751514;0.07650216;0.04081532;-0.36072886;-0.22515823;0.010990901;0.08043997;0.039481107;0.28551534;0.03856619;0.017182529;-0.88259745;-0.092957385;-0.16767311;0.035490304;0.12893507;-0.101570815;0.024693115;-0.06768342;0.78758717;0.23151039;0.19643278;-0.07203298;-0.11111001;-0.14661013;-0.012893921;-0.045730885;-0.090775326;0.037547823;1.996399;0.65405536;0.084919;0.35411268;-0.9306783;0.06528865;-0.12263053;0.22070935;-0.14037262;-0.058669664;0.043326516;-0.112954736;-0.040384043;0.013012122;0.11279028;-0.014769078;-0.017088847;0.010873145;-0.25580007;0.10755424;0.036644734;-0.18157078;-1.1895362;-0.1278699;0.045434378;0.07945204;0.77188516;0.03839213;-0.5833867;2.834365;-1.7487687;0.1643686;-0.07392576;0.19741167;-0.068466164;0.153088;-0.63357097;-0.5207466;0.13761945;-0.0688353;0.101407275;2.072351;-0.14453937;0.11001491;-0.18945278;0.22065617;0.109358184;-0.059843697;0.21373035;-0.023528583;-1.5914755;0.17688319;-0.2168942;0.04587347;-0.12092662;0.08654139;0.028312612;-0.040344212;-0.2409065;0.014123554;-0.15331163;-0.06103351;-0.10747161;0.0046455488;-0.1737013;-0.25925118;-0.0679054;0.73902816;-0.09221807;0.00012730368;2.418235;-0.028235028;-0.021492012;-0.17756778;-0.026486408;0.21964993;-0.078903645;-0.6825006;-0.048256334;-0.021133592;0.1796238;-0.03389891;0.09431319;0.060724683;0.1711319;1.9835327;-0.06698247;0.21687582;-0.118408896;0.042297043;-0.5228181;-0.119324274;0.05441574;-0.010344387;0.19053693;0.07768393;1.3262103;0.001340847;0.04415054;0.22415288;-0.35021988;0.06834019;0.024761088;-0.3612644;0.23669283;0.1619335;-0.12405488;1.3424814;-0.044200514;-0.00838716;0.06239566;-0.20685677;-0.26892322;-0.097084515;0.22387907;0.24926554;0.121252716;0.034468316;-0.0085687;0.035574507;0.21756366;-0.20741673;-0.026465401;-0.26560405;-1.0483911;0.26633665;-0.07905876;-0.10763687;-0.08777582;0.021236852;2.6974585;-0.08008158;0.33760613;-0.047681775;-0.10274775;0.080950886;-0.07340668;0.026089747;0.8326021;0.9313822;-0.06365038;0.13480243;0.10404751;0.01916639;-0.37063348;0.17235626;0.035533722;-0.012156201;-0.009151623;0.21993077;-1.7247399;0.05297726;-0.91909766;-0.17838624;0.120134346;-0.2361058;0.04623698;-0.055057265;-0.019605761;-0.104799576;0.032206055;-0.83950084;-0.0035760647;-0.30328158;-0.117587134;0.0009044159;-0.008777259;0.13277653;0.23044425;0.07580598;-0.8687994;0.21230425;-0.048513483;-0.017108787;-0.022644874;-0.14832366;0.06637411;-0.06709809;-2.263677;0.0454991;-0.25103348;0.48508564;0.4599441;-0.02885502;0.014410823;-1.0968233;-0.07626805;-1.0011163;0.037771948;0.13276526;-0.065250784;-0.028496262;0.056618765;0.13771568;0.10211993;-0.5606125;-0.032040082;-0.12249138;0.0970965;-0.1490108;-0.029642863;-0.14979109;-1.0956105;-0.18495832;-1.5355923;0.17099915;0.1207615;0.03551856;-0.0077179614;-1.9601815;-0.021869699;-1.2094301;-0.2680535;-0.12679301;2.0276892;-0.01081391;-0.16614896;0.20574981;-0.15700638;-0.015159497;0.099283405;-0.16092926;-0.09842376;0.6681223;-0.3652312;-0.043414045;-0.009065066;0.020013116;-0.24737532;0.11724572;-0.00076873007;0.17077556;0.59028673;0.05775344;0.1168397;-0.087026305;-0.054954987;-0.07932837;0.18867905;-0.06799883;0.57366574;-1.06383;-0.012525991;0.019220356;-0.10320876;0.12872194;-0.019216364;-0.02912147;0.040030465;-0.14096366;-0.036920566;-0.115577415;-0.065149404;0.15578407;-0.032742046
-0.066647835;-0.00085707405;0.118601836;-0.0629141;-0.1487417;0.21547559;0.10026605;-0.007015923;-0.013337772;-0.2199823;-0.045315176;-0.5921493;0.51808274;0.082547575;-0.04697999;0.1248462;0.29666322;0.009124312;-0.017332107;0.081100546;-0.6488002;-0.095162295;0.013035452;-0.3436922;-0.10609932;-0.46606535;-0.1019223;-0.15764944;0.060714714;-0.06032184;-0.3614733;0.1663383;0.07419491;0.061475135;-0.05716427;0.6419476;-1.7562188;-0.45333657;-0.062084522;-0.22736692;-0.033043124;-0.021176783;0.19042987;0.09358812;0.70637614;-0.049214654;0.4192084;-0.014870255;0.076876715;-0.0045952355;0.2024592;-0.49510372;-0.052509952;0.054190475;0.6382051;0.22270998;0.85047436;-0.033752114;-1.5624644;0.026215045;-0.04456224;-0.60117596;0.14191961;-1.7856307;0.060707513;-0.12980834;0.4693624;0.04963393;0.00226902;-0.07716827;0.116517015;0.03876102;-0.054177184;0.014896214;-0.28931648;0.27831945;0.12821145;-0.96311295;0.020935204;-0.23977135;-0.0016835476;-0.055266406;0.072332695;0.037136298;-0.72473615;-0.06739595;-0.5616388;0.06720314;0.07669539;-0.06738972;-0.06121394;-1.061997;0.12846978;0.04874765;-0.42074624;-0.060680203;0.055310767;-0.02867608;0.09926908;-0.006058563;0.07989422;-0.021184986;0.8303122;-0.3013426;-0.028587716;0.03134643;-0.070987515;0.026064645;-0.12535837;-0.037070155;-0.06447521;0.105260246;0.043306805;0.07160182;-0.024968801;0.51887006;-0.09046476;0.13616945;0.0065872916;-0.05865578;-0.04622666;0.01586195;-0.06990096;0.10685849;-0.69636047;0.010505776;0.062886745;0.7132434;-0.06540648;-0.34674618;-0.07827129;0.06430517;0.14381582;0.46712086;-0.013299536;0.4001386;-1.2687414;-0.22744487;-0.29043362;-0.401827;-0.04432953;0.061617;0.087856695;-0.21531056;0.0045728814;-0.01880213;-0.101397984;0.04089745;-0.04129057;-0.017264897;0.007725648;0.1121892;-0.046276677;-0.47855112;-0.11277254;0.13185771;-0.08461048;-0.5193159;0.0321939;-0.8592054;-0.08057247;-0.115389906;0.09716928;-0.03181963;0.8481571;-0.56302965;-0.43154144;0.011198728;-0.02393762;0.0782963;0.0030373922;-0.13782254;-0.4036727;-0.058995932;-0.013812824;-0.0167031;-0.028430622;-0.7504314;0.060498923;7.0651404e-05;0.017947642;0.017353304;-0.17888846;0.029268825;0.058835816;-2.627915;-0.0190603;-0.17279372;0.13933419;0.14771342;0.08906563;-0.06950725;0.023652796;-0.08635845;0.051325988;-0.008486257;-0.092021324;0.09542342;-0.17996834;-0.03653868;-0.55310905;0.007115636;0.026734069;-0.4321711;-0.5211364;0.0135559;0.01998877;0.0840243;0.07830512;0.08388746;-0.0030624291;0.11809395;0.06631759;0.21449313;1.1327158;-0.09811722;0.086091906;0.07830626;0.081689104;0.0900428;-0.04119311;0.019001616;-0.1648631;1.2182208;0.82673377;-0.13138998;0.081081375;0.15857717;-0.32046732;-0.23190613;0.009667933;0.067434594;0.07767549;0.06550586;-1.0599852;0.04883981;-0.020174779;0.26351118;0.44617277;-0.0044340636;0.09631952;-0.034313392;0.13727188;-0.093622014;-0.018132683;-0.016711965;-0.029457066;-0.09888973;-0.055105906;-0.61135507;-0.043905348;-0.012753486;-0.06761922;-0.13066415;-0.08748288;-0.0014607856;0.038066756;-0.09390593;-0.32185066;-0.14646056;-0.39620468;-0.18891841;-0.015873155;-0.04925249;0.046491943;0.30022612;-0.75673836;-1.4137839;0.08858174;0.01750566;-0.25985324;-0.06348378;0.13876154;-0.465738;-0.08845013;0.03840471;-1.0704125;-0.1262466;-0.09147519;-0.034890868;0.13811137;-0.04768635;0.005490774;-0.15932724;-0.04046846;-0.09217409;-0.5114042;-0.24895746;0.03751423;-0.66608685;0.27366635;0.016533993;0.73064613;-0.6879631;0.10207605;0.12241952;-0.12733796;0.005128571;0.12544039;0.08460517;0.56237906;0.015464686;0.05531832;-0.12584205;-0.22068614;0.015751155;0.26195103;0.060542464;-0.046125907;-0.09167664;-0.04550823;-0.10944987;0.10935162;0.09487775;-0.021448301;0.018299472;-0.090260595;-0.036282122;0.07080363;-0.18495563;0.046701714;1.5707115;-0.7624551;-0.021348225;0.33792266;0.10116217;-0.09499096;-0.16497412;0.047733493;-1.4304789;0.023896039;0.051747236;-0.09266573;-0.087330274;0.006487102;-0.14567989;-0.13366267;-0.09045611;-0.057279658;0.023693515;-0.011585333;0.033537913;0.055443995;-0.037800144;-0.16023873;-0.095666945;0.10787496;-0.6376684;0.06096582;0.0780989;0.14458525;-0.27247494;0.1306431;-0.04324225;-0.047687918;0.024023054;0.4188715;-0.9033463;-0.95308316;0.101884566;0.010322393;0.062162973;0.78086364;-0.045602612;0.0027113862;-0.002125895;0.029037982;-0.10529766;-0.022216106;0.1232529;0.0032534744;-1.0109737;0.67456526;-0.4454479;0.08860252;-0.095786825;-0.023120977;0.06603086;0.05096718;-0.71402186;0.0036567652;-0.1366086;-0.0014664561;-0.103875965;0.028313376;-0.049856663;-0.41704145;-0.049837414;-0.35762194;-0.15274325;0.036464546;0.62892497;0.09360243;-0.11476841;-0.043855403;-0.03353631;0.122761294;-0.045794282;-1.4321139;-0.053466413;0.10663116;0.025882607;0.07322716;-0.024256594;-0.05951743;0.10056863;1.441871;-0.2996414;0.1163299;-0.8686015;-0.33136448;-0.44483125;-0.080001555;0.07937908;0.03315171;0.12992613;0.004131115;0.44791564;-0.026942188;0.030515961;0.058910903;-0.45973438;0.0058178287;0.02675768;-0.36203867;-0.0047318237;0.028845863;0.087891;1.1461303;0.027201919;0.06082761;0.21925844;-0.13910845;-0.038140647;-0.07036781;0.0060744747;0.11973573;0.097641714;-0.01779469;-0.00083949964;0.05726845;0.30146223;-0.5049842;-0.019815713;-0.17115621;0.2976018;-0.040642172;0.052205868;-0.23711239;-0.10534956;-0.0052834307;-0.8594608;0.026640134;0.3237415;-0.05187731;-0.0015150543;0.04912327;0.023787577;0.0426708;0.43824553;0.26221657;-0.075410284;-0.04055042;-0.049306516;-0.052449416;-0.064112216;-0.1526818;-0.048758566;-0.110604644;-0.23267551;0.01785772;0.8209171;-0.12785485;-1.3359556;0.053268164;0.08565739;-0.11413959;-0.06975244;-0.11645978;0.016203603;0.020542575;-0.11706683;-0.44249427;-0.28517756;0.11350936;-0.00033377376;0.0053102113;-0.065701865;1.4916091;0.035351712;-0.11794026;-0.5121461;0.05126907;-0.022454713;0.45312664;0.039583173;-0.19220957;0.002910936;-0.1134343;-3.450247;0.044423193;-0.25777778;0.42231786;1.7030185;0.045971986;0.02565893;0.025642304;-0.06883356;-0.36253324;0.07982504;0.0572277;-0.018761264;0.04971269;-0.00087837555;-0.032227013;0.054755814;0.19691159;0.04503826;-0.34660238;0.21767227;-0.3038774;-0.03989433;-0.027332684;-0.56944263;0.018144539;-1.120437;0.11789137;0.07363443;0.053259764;0.07590312;-1.923048;0.10115772;0.4105151;-0.09219328;-0.021596171;-0.64025617;-0.04974794;-0.4343703;0.22260956;-0.09375231;-0.010718966;-0.023121847;-1.0896648;-0.073765986;0.30776346;-0.5457931;0.018464634;0.009906046;0.9463803;-0.14655946;0.070170365;0.0026403414;-0.042742424;0.19590765;0.24144241;0.00474358;-0.09286907;0.05305493;-0.10769715;0.12032101;-0.13770722;0.13246956;-0.20871489;0.0650342;0.05741955;0.03299758;0.11107889;-0.030126758;-0.1758444;0.055261068;-0.31548145;-0.04440136;-0.40153733;-0.08657424;-0.015722686;-0.027487826
-0.07332875;-0.049750723;-0.43325585;0.09741614;0.11053996;0.03556802;-0.05512233;-0.18593109;-0.11859476;0.45027253;0.065471835;-0.49102253;-1.3471884;0.26034963;-0.51538366;1.1849946;0.36189637;-0.15585478;0.15587543;0.06700022;0.42697954;0.075699925;-0.35563204;-0.50977427;0.05638685;-0.6874343;0.02190464;0.094822906;-0.09932873;0.19501935;0.19065416;-0.7777228;-0.22020918;-0.1878123;0.04020679;-0.13690041;-1.2563637;-1.3292391;0.02009139;-0.22770046;0.02530076;-0.19144489;0.56404305;-0.061593547;-0.34918445;0.03278677;0.32447973;0.008937394;-0.028979883;-0.01788671;-0.4149915;-0.91139317;-0.048847508;-0.06166315;-0.030960185;0.09560059;-0.06324497;-0.14493033;-0.4710774;-0.13119797;0.09439563;-0.06341037;0.375616;0.40799814;-0.14868031;0.04223302;-0.04011643;-0.02851271;0.06393326;-0.021775616;-0.25388005;-0.055154182;-0.036846068;0.062621824;0.81233335;1.2458564;-0.033033036;-0.22871009;-0.081525326;-0.33026454;0.07630898;-0.010482715;-0.051367316;0.23211037;-0.12322951;0.04234434;-0.11032451;-0.00017937364;-0.43390372;0.033001017;0.0468559;0.43383798;-0.049761146;-0.15015824;-0.11591479;0.112853855;-0.08725298;-0.9213206;-0.29145867;-0.010029139;-0.14313756;0.07713945;-0.25796467;-0.810964;0.012411254;-0.11103335;0.04266705;-0.17258243;-0.024735646;0.053965885;0.04755823;-0.117734805;-0.058594737;-0.09658548;0.022547388;-1.462573;-0.024690898;-0.16492254;-0.0005808413;-0.15921776;0.10737352;0.090834625;-0.056667432;-0.10002015;-0.31974262;-0.113550834;0.08601532;0.1636813;0.058500655;-0.667316;-0.21173753;-0.11893849;-0.1825696;-0.6274978;-0.006964429;0.97320044;0.30480275;0.6029156;-0.37745517;-0.4951874;-0.08842428;-0.011689324;0.8539814;-0.4249008;0.28460014;-0.044576794;-0.038004633;-0.055265754;-0.13499305;-0.091665685;0.6750753;-0.021452526;0.011525346;0.20832843;-0.00826078;-0.13290657;-0.053989187;0.21191245;0.006650774;-1.4721488;0.016700437;-1.0980929;-0.5145397;0.052420333;0.2134939;-1.579058;-0.06737981;0.109986916;0.0036559277;-0.036081553;0.00028600192;0.03959549;0.05123145;0.033560447;0.07208476;0.0697372;-0.11722863;-0.54512453;-0.011690349;-0.015590982;-0.17676036;-0.046518516;-0.72201025;-0.004830175;0.029470341;-0.46067625;-0.14086094;-0.3702628;0.021618694;0.1521003;-0.15105298;0.08039211;0.18310526;-0.008320458;-0.034030933;-0.07233462;-0.12346653;-0.026818436;-0.042091887;-0.096381396;0.30212814;-0.050616298;-0.09229536;-0.5793539;-0.089428656;-0.06216047;-0.18036795;-0.12755927;0.012997168;0.029171033;0.106766574;-0.03863968;-0.16715506;-0.18274641;-1.7042426;0.07168843;-0.07190843;0.0038030013;-0.058321953;-0.17586645;0.009083959;-0.13883752;-0.668689;-0.9656021;-0.8638138;0.06793281;0.023336148;0.41467503;0.50300777;0.026249714;0.00030125238;-0.16592784;-0.032651488;-0.1341553;-1.1033111;-0.03087581;0.15277015;0.112313315;0.102160305;0.032836985;-0.16283977;-0.4467759;-0.018613376;0.15232578;-0.072871886;0.066655025;-0.66229206;0.32363012;-0.1125504;-0.23919445;-0.05555636;-0.102151774;0.02099364;-0.29125273;0.061920814;-0.01640105;0.025870759;-0.10934159;-0.09204531;-0.33945602;0.3453461;-0.06392749;-0.0923567;-0.057640936;0.03744975;-0.24459326;-0.8952342;0.5357969;1.2414452;-0.21241549;0.0805776;-0.05001175;-0.056921843;-0.7406836;-0.076436825;-0.06439437;0.0893221;0.12392392;-0.1807438;0.00570233;-0.22179656;-0.012392019;-0.054992795;0.1364217;-0.063560046;-0.015548362;0.32202762;-0.17608036;-0.06149569;0.8379972;0.10900251;0.36552942;-0.89141446;-0.3713259;0.40243948;0.11240704;0.19310687;-0.011900126;-0.13448586;-0.122870855;1.0238078;-0.0928944;-0.038049832;0.012675069;-0.1293844;0.11154323;-0.0834952;0.780606;0.046886005;0.056443952;0.02369848;-0.3248145;-0.12028829;0.51515007;-0.035824914;0.11155599;0.0801726;0.09949552;-0.33666435;0.07901728;-0.074372575;-1.410565;-0.51395804;-0.05419963;0.60299504;0.9924729;-0.14706166;-0.060541302;-0.18399954;1.624788;-0.002550856;-0.040582083;0.0043208934;-0.022371763;-0.09367031;-0.39668584;-0.0067377063;0.10612164;-0.08763211;0.13832818;-0.16058278;0.04762019;-0.4398469;0.9148142;0.09295766;0.14336212;-0.08658854;-0.6524178;-0.29957885;-0.41518924;-1.3256854;-1.0427935;-0.029181866;0.09271662;-0.18005314;0.0008516126;0.38462952;-0.54442126;-0.035276707;-0.03264359;-0.03528681;-0.15140206;-0.015447622;0.11195454;-0.19542973;0.03821002;-0.10050755;-0.037693642;0.12475928;-0.065186754;-0.0061826184;1.2517514;0.03106605;-0.8144551;-0.13066377;0.1037061;0.038142614;0.025728006;0.0446321;1.0756857;-0.06759498;0.1517754;-0.08310873;0.06412861;0.09235156;0.02891577;-0.57149416;0.065699615;-0.35922307;0.7644079;-0.095567875;-1.7416708;0.021237884;0.05500893;0.00093872735;-0.19200605;-0.16444926;0.006821316;-0.22469029;-0.016631732;-0.089336835;-0.12577325;0.014329089;0.015808383;-0.0049470067;-0.12502787;0.016408637;-0.54941154;-0.13325678;-1.8647681;-0.213791;0.24651198;0.008966847;-0.084058955;-0.035529662;-0.13497138;-0.013555601;-0.14250411;-0.0019511116;0.011951502;-0.107181914;-1.693886;-0.08363593;-0.011369393;-0.629382;-0.052103847;-0.46021518;-0.040723138;-0.58261454;-0.008436361;-0.027899178;-0.15457164;0.14366284;0.05433318;0.039392646;-0.1173582;0.2003252;-0.16142143;-0.036720604;0.009062357;0.009554609;0.8447955;-0.2436613;-0.110662945;0.15519293;-0.7187396;-0.06486803;0.06548073;-0.33941883;0.056709114;-0.042692535;-2.1436045;0.033980034;-0.08434174;0.00897975;-0.039555836;-0.02942842;0.005690349;-0.019859571;-0.54489803;0.7094825;0.13692878;-0.047276847;-0.028729219;0.0105309645;-0.5732069;-0.5219121;-0.062527046;0.04486048;0.12212858;-0.10948032;-0.5907191;-0.51641536;0.17517966;0.22766066;-0.31446746;0.17389412;-0.11212196;0.017670052;-0.14551206;0.063684985;0.021766964;0.31657255;0.120250896;-0.11815994;-0.089452125;0.020392196;0.08060889;-0.35873836;-0.10909586;-0.4249786;-0.082583904;-0.05918046;-0.04449343;-0.31910965;0.021604968;0.68095803;-0.027079992;0.0029128043;0.7008455;0.052007597;0.52306086;0.021434272;-0.62601024;0.03347439;0.070441514;-0.98616636;0.04765559;-0.66719085;-0.06810868;-0.2091654;-0.024693768;0.037072483;-0.041406736;-0.07429802;-0.008983357;0.47706148;-0.020076597;-0.30185518;-0.15350206;-0.6593779;0.17474952;0.073168494;0.2886422;0.09069762;-1.4702694;-0.15037689;-0.002598174;0.011125384;-0.04248926;-0.3682199;-0.09210832;-1.0143223;0.05067049;-0.049942184;0.103671715;0.015319786;-0.31105164;-0.08975871;0.19174288;-0.0053755282;-0.13635409;0.20128375;-0.016495269;0.33486578;-0.26007652;-0.055662192;-0.032625448;-0.22524238;0.14632387;-0.07003305;0.08988052;0.16879411;-0.71076035;-0.035768185;-0.044019796;-0.03585868;-0.08451472;0.05283504;-0.027171658;0.07628226;-0.47730297;-0.56097233;0.010054078;-0.11501304;0.070043996;-0.1557468;0.139014;0.24093123;0.050782047;0.037746627;-0.069741435;-0.08428718;0.039495345;-0.15003702;0.053607356
0.09223383;-0.018314904;-0.20972708;-0.036193952;-0.024032554;0.091842614;0.012490173;-0.032437634;-0.081561394;-0.1946885;-0.004446924;-0.042218667;-0.568917;-0.4440395;-0.17650664;-0.0033078985;0.4531362;-0.116354525;0.985014;-0.06317296;0.10406424;0.0013203336;0.023615215;0.31721413;-0.079938106;0.55104;-0.061605312;0.052944016;0.06109523;-0.021656036;-0.67926204;0.029196747;0.00603691;0.007867323;-0.0029543028;-0.069002;-0.47853082;0.19896853;0.006643547;-0.1662156;0.070979364;-0.1457667;-0.6995545;0.03148465;-0.33148807;0.02746476;0.5851839;0.005936424;-0.015569925;-0.11893215;0.13867135;-0.10991863;-0.050584104;-0.07043567;-0.5503891;-0.09197253;0.18894449;-0.15587892;0.3008273;0.05033135;0.057192817;-0.6399324;0.22405115;0.36473727;0.0054450133;0.07782232;-1.1527778;-0.06893471;0.045007017;-0.060506668;-0.096626505;-0.014017589;0.021747218;0.123244435;0.18289414;-0.49630547;-0.06541151;-0.035813745;-0.06464415;0.0021441916;-0.016209323;-0.041356377;0.029833263;0.08372115;0.89300585;0.014336838;-0.4837299;0.083277;-0.16005938;0.0068677156;0.030459745;-0.025290545;-0.05201762;0.068972565;-0.59165275;0.0008129468;-0.021619849;0.24221966;0.07229654;0.04386558;-0.042329848;-0.045589574;-0.1512468;-0.3743951;0.013853397;-0.0651155;0.05663895;-0.09924034;-0.030387845;-0.03475295;-0.008837914;-0.088183105;-0.05816306;-0.046185978;0.0120913265;-0.15702775;0.03353107;-0.08733606;-0.07685719;-0.0070561552;0.078735635;0.06668368;-0.0039959564;-0.13892305;0.53707033;0.030282956;-0.0367135;-2.8266516;0.07568449;0.10267736;0.14161423;-0.10220898;-0.15925607;-0.27308828;-0.08498235;-0.38696593;-0.48426932;-0.8028847;-0.045593165;-0.16942044;-0.08194921;-0.07509831;-0.7519732;-0.31467482;-0.08672343;-0.10389324;-0.03667631;0.016614508;-0.20946974;-0.13326664;-0.36571357;0.0011220638;-0.0150682;0.4649579;-0.04895175;-3.4251923e-05;-0.04898865;-0.50177383;0.028179256;0.025596265;-0.0031383191;-0.5585936;0.17729686;0.05298062;-0.1732428;-0.18045835;-0.13347526;0.087220915;-0.10011976;0.014445793;0.07757878;-0.028942697;-0.015147224;0.023834487;-0.07086895;0.06506998;-0.08948064;-0.23849528;-0.021444775;0.02890302;-0.1712372;0.087017566;-0.6261898;-0.024576819;0.09229501;-0.706503;0.03078375;0.06753902;0.12381082;0.23777759;-0.07763734;0.20490828;0.02437346;0.04450354;-0.04442109;-0.085956454;0.08664771;0.040320832;-0.18666387;-0.11027251;0.13823624;-0.050352603;-0.05907581;0.28290612;-0.050757613;0.033132777;-0.13667738;-0.007880266;-0.06535024;-0.07300849;0.065644056;0.033879776;0.018455742;0.11274197;-0.36879605;0.06574916;-0.11451573;-0.13161603;0.002771312;-0.0034740032;-0.046199393;-0.04443018;-1.2535968;-0.2607929;0.18180956;-0.006609201;0.06324609;0.21357585;0.66026354;-0.026648607;-0.06846721;-0.060171243;-0.05586298;-0.076400705;0.6659627;-0.11021973;-0.013479515;-0.034762267;0.016724726;-0.069566965;-0.11808037;-0.645664;-0.13562785;0.01215139;0.039274767;0.032874256;-0.81379044;0.013103066;-0.048442144;0.18942083;-0.069781356;0.05919609;-0.009142226;0.19151373;0.014453254;0.032636855;-0.064674765;-0.012432238;0.099612474;-0.022763329;-0.42864224;0.63964146;-0.07846617;-0.03699396;-0.080523014;0.115570255;0.16870594;-0.16458276;-0.34778842;-0.21091692;-0.066473894;-0.010845447;-0.06057485;-0.61440814;-0.07192141;0.07062601;-0.46149734;0.0275958;-0.57876974;0.027541293;-0.18172565;0.037940983;-0.12871139;-0.018260613;0.03193391;0.05666253;-0.15663901;-0.17349382;0.00938087;0.08846018;-0.006968524;-0.6426774;-0.78587574;0.021473143;-0.13518074;0.03496262;0.107814334;-0.012559527;0.06509252;-0.076813996;-0.36176074;-0.01042338;0.020983048;0.2185212;0.0061508566;0.08303683;-0.25008547;0.26219687;-0.021060357;0.077592805;-0.01975086;-0.40294066;-0.0021785893;0.34175044;0.0076364786;0.07821228;-0.0379993;0.025881048;-0.029979877;-0.028373467;-0.018853828;-0.6905408;-1.1263223;0.08387287;0.29616642;-0.51642746;-0.009696254;-0.099596694;-0.028413177;-0.41635534;-0.0525428;-0.10150998;-0.08481948;-0.13321403;0.04428794;-0.021973541;0.003902252;0.05592414;0.009859383;0.12342948;-0.02247017;-0.058933567;-0.17136106;-1.2862905;-0.004586288;0.0069616307;0.017097069;-0.18049078;-0.29983017;0.041531786;0.53259003;-1.0992999;-0.05059796;0.051189363;-0.034905806;0.043099374;-0.35984704;0.05900639;0.17106836;-0.016497811;-0.06297466;-0.13002428;-0.705267;0.08947056;-0.12939088;-0.040562257;-0.08873092;0.097933404;-0.06489835;-0.08541015;-0.014643248;0.02513184;-0.27516523;-0.47790223;-0.035809238;-0.050610967;-0.012153345;0.013957475;-0.016443074;-0.691237;0.020617737;-0.029230354;-0.0760067;-0.03653898;-0.065928146;0.008547809;-0.35491553;0.04159411;-0.5874331;-0.5566614;0.054570936;0.14687434;0.006608757;0.021885393;0.11006772;-0.087601975;-0.07934186;-0.054104824;0.47240824;0.078639835;0.052443143;0.0069448384;-0.0038191823;0.09598877;0.045561176;-0.01699952;-0.9930732;-0.39739454;0.0029205817;-1.063111;-0.2716466;-0.1303118;-0.04459004;-0.0879973;-0.0726424;-0.09028299;-0.07172352;0.101920635;-0.05916648;-0.040973153;-0.09637888;-0.08840063;0.03693452;0.045044746;-0.008584632;-0.036856886;-0.18039761;-0.18280739;0.34293768;0.07368428;-0.05930386;0.015280891;0.043630987;0.069164775;0.060263697;0.0016482507;0.5968756;-0.09895017;-0.045497242;0.033256635;-0.03396354;-0.3262504;0.004739072;-0.12964949;0.05182766;-0.74723655;0.11202424;0.077732675;-0.23223628;0.034305714;0.009480464;0.50672966;0.0059049865;-0.08643322;-0.006618957;0.012751743;-0.050003536;-0.0343089;-0.03381862;-0.09880095;-0.27419996;0.061025478;0.02721037;-0.098984264;0.079853185;-1.0367033;-0.28951854;-0.017080616;-0.01981397;-0.092378505;0.01197159;-0.7833336;-0.20125026;0.35334316;0.08061386;-0.06473602;0.022294572;-0.16990185;-4.9006176e-05;-0.0061145774;-0.033461023;0.015434898;-0.2697655;-0.41349512;-0.050082736;-0.081611864;0.024923746;-0.021323895;0.09572665;-0.0091993855;-0.30136937;0.0725536;0.054985046;-0.03841235;-0.13584861;0.029563019;-0.5908631;0.020092987;0.05552175;0.5958802;0.03904218;0.34237587;-0.39790612;-0.76098156;0.065426454;0.065929115;-0.53633386;0.014021998;0.52639264;-0.09722525;-0.16474411;-0.036787674;-0.012957562;-0.08165446;-0.08207514;0.031509165;0.274804;0.009310146;-0.1292905;-0.09431597;1.1838323;0.7931948;0.10340426;0.09629626;-0.03492315;-0.5538463;0.03493113;-0.013747256;0.043736402;0.07219627;-0.19478542;0.06660911;-1.0427473;0.038533423;-0.03237432;0.9039038;-0.026831822;-0.3242699;-0.0024203444;0.07527561;-0.021855334;-0.05154076;-0.34513575;-0.10008459;0.23245405;-0.47009426;-0.06992308;-0.04044978;-0.545625;0.1352632;-0.029763794;-0.06886431;0.15552405;-0.49053073;0.06273489;-0.033196185;-0.039411638;-0.09362699;0.060604285;-0.02821735;-0.04822981;-0.13479818;0.25094745;0.053992994;-0.06311537;0.056041345;-0.03220253;0.05674547;0.04966669;-0.03978525;0.10442937;0.05609489;0.23726398;-0.003524891;-0.096028104;-0.05965445
0.037091106;0.024495149;-0.2186487;0.08282463;0.15137635;-0.6532676;-0.019839656;-0.12077174;-0.07446241;0.347484;0.08344679;0.21406762;-1.5798835;-0.49168345;-0.13233215;0.41892216;-0.005587004;-0.05103071;0.09415919;0.02934997;0.49386057;0.021394813;-0.2096983;-0.5932496;0.06726302;-0.10611191;0.07429059;0.096621186;-0.017853139;-0.2550958;-0.36662456;-0.62158775;0.072730355;-0.1734037;0.04212468;-0.8045112;-0.2865528;-0.40116826;0.024661025;-0.10710842;0.09589019;-0.0605988;0.20746632;-0.06771992;0.12794878;-0.050516944;-0.4541755;-0.07350651;-0.085126355;-0.14380099;0.49056414;-0.2739345;0.02097587;0.020898584;-0.71090364;-0.09645804;-0.4643515;0.03428766;1.6527332;-0.07413187;0.009902606;-0.14399245;-0.25613245;0.6056158;0.11161535;-0.025926746;-0.982723;-0.113412954;0.013528201;0.026097765;-0.22188678;-0.07527141;0.003824278;-0.06407304;-0.00052669324;0.83821464;-0.049505018;-0.022511968;-0.079022475;0.013261164;-0.031177724;0.002394717;-0.00381925;-0.100604996;-0.22928506;0.03798416;0.7331186;-0.17215489;-0.42612436;-0.06171866;0.11366768;0.40362367;-0.13759954;0.027991919;0.69458956;0.019362142;-0.03513256;-0.105757415;-0.19344647;-0.059034713;-0.05874877;-0.047115155;-0.8437245;0.3277967;-0.011444048;-0.11693958;-0.027234279;-0.12800226;-0.12116699;0.015539596;-0.0028542045;-0.071586475;0.0015567933;-0.027469456;0.05498337;-0.4554306;0.048039295;-0.10090944;-0.055503715;-0.019574158;-0.01711326;-0.061853923;-0.010992477;-0.06471507;-0.83624077;0.04764519;0.03171751;-1.523811;0.07833155;0.3026748;-0.0065964633;-0.059877604;-0.24395424;-0.7340989;-0.037570342;0.022772096;0.3747574;-0.33642623;0.008306942;-0.017018015;-0.005482411;-0.1489994;0.049834643;-0.3916543;-0.5142913;-0.03644641;0.06829555;-0.025581697;0.031046294;-0.103593215;1.055709;0.032177422;0.04188844;-0.48349544;0.041904353;-0.1733885;0.09255941;0.004472897;-0.04627009;-0.7765867;-0.0034850272;-0.47495583;-0.12500837;0.05946676;-0.3183803;-0.41079062;0.7954967;0.059628915;0.08827356;-0.052593376;-0.032493133;0.02830911;-0.00053516304;-0.102298945;-0.0039109495;0.05124237;0.0016462579;0.10408831;0.029769836;-0.16220896;-0.07106948;0.085890345;0.22137475;-0.09366435;0.10773877;1.4785287;-0.028069964;0.35122758;0.13110512;0.17139117;-0.15698928;0.14085501;0.15696536;0.006492689;-0.07700792;-0.08496197;-0.15017329;0.027203713;-0.12826712;-0.01523665;0.51469105;0.039744657;-0.035001405;-0.13662116;0.42081138;-0.012060875;-0.039821133;-0.2578685;-0.08793385;-0.04536285;0.14446002;-0.09191829;-0.025383327;0.35086375;-0.10279872;-0.010197518;-0.021386698;-0.0811402;-0.10262013;-0.075358704;0.13091934;-0.15071774;-0.9904046;-0.23781614;-0.9911439;0.07392816;0.018280813;-0.32829878;0.77330244;0.079085216;-0.17591986;-0.08505441;-0.13759626;-0.10567108;-0.95560724;-0.12680571;0.18526575;0.03305452;-0.27692184;-0.061317794;-0.042537585;-2.2532117;-0.14296246;0.07059867;-0.03446421;0.014134658;-0.0034124956;0.25117216;0.07940995;0.047890745;-0.0030757142;-0.14008296;0.0766915;0.49233976;0.13988654;-0.05135601;-0.030916959;-0.07432647;-0.18741497;0.0097976355;0.9449505;0.38262704;-0.08961572;0.0036725258;-0.029346427;-0.24911134;-0.41340193;0.39687413;-0.38832003;-0.3620608;0.17332663;0.06871418;-0.040071033;0.322591;-0.15537655;0.039469495;-0.21743605;0.17406085;-0.41336823;0.1029831;-0.14581011;-0.020506602;0.044671975;0.045186836;0.0037707041;0.11217211;0.6014744;-0.45500213;-0.1487836;0.6860603;-0.23115766;-0.42258182;-0.8207535;-0.21588668;0.058807977;0.36716056;0.1596893;0.020684984;-0.1613823;-0.15358984;-0.23430513;0.14895472;-0.038572975;0.27164942;-0.0967708;-0.20018478;-0.08239943;0.08332106;0.15775985;-0.045376323;0.0023941551;-0.29727978;-0.07241306;-0.01793202;-0.032174625;0.029353434;0.11491424;0.06582127;-0.078178026;0.004955302;-0.0952806;-0.30577278;0.07227907;-0.072096795;-0.04051625;-0.037305318;-0.076030925;-0.01013802;-0.121588625;1.086531;0.12637146;-0.06458677;-0.036562618;-0.267383;-0.14185926;0.19571373;0.068763755;0.058559258;-0.03577591;0.249753;-0.059936464;0.11793482;-0.16543674;-0.7688647;0.184891;-0.023310613;-0.10039384;-1.7723205;-0.16750768;-0.105567805;0.3121875;-1.2422793;-0.09810118;0.024445577;-0.016901065;0.0033862186;-0.085353576;0.21050917;0.2879307;-0.060801074;-0.031664718;-0.012904862;-0.2486985;0.12946263;-0.13574432;0.020312568;-0.058072317;0.0050863177;0.017583596;-0.056594238;-0.018126192;1.2567943;0.23885854;-0.6593009;-0.12040568;0.117611006;-0.091116674;-0.022671182;-0.04142376;-0.18865007;0.04275673;0.13499641;0.027703328;0.0067651356;0.09222259;0.088995904;0.15063842;-0.005268858;-0.41383082;-0.49997872;-0.018879391;0.14673254;-0.05060358;0.10934468;0.14486286;-0.14048932;-0.12191704;0.055045165;-0.7098536;0.010168941;-0.14127788;-0.14822921;0.031306922;-0.06887515;-0.014337375;-0.119768;-0.8699782;-0.17144293;-0.15938266;-1.3197746;-0.14248396;-0.46919551;0.008088672;-0.049833767;0.04522198;-0.12737282;-0.044477575;-0.63562953;0.11081386;-0.01988882;-0.16904725;-0.3374897;-0.10059335;0.11709546;0.72178876;-0.11472614;0.5665601;0.28257474;-0.0076794974;-0.058486134;-0.08770992;-0.14945567;0.07481656;0.1117526;0.013955257;-0.052551974;0.3252998;-0.13813794;0.023854967;0.10210422;-0.024528945;-0.35241303;-0.27826065;-0.058477964;0.08377352;-1.8856798;0.26731843;-0.0077137337;-0.03269983;0.08724387;-0.037907038;-0.4347906;-0.022450907;-0.3933643;0.047090303;0.044298746;-0.085743755;0.06854087;0.026818136;-0.081814095;1.189161;0.094978146;-0.009297335;0.009145373;-0.010984636;-0.0045594196;-0.17073403;-0.0684393;0.11212608;-0.022614133;-0.10038088;-1.3527013;0.041775115;-0.390715;-0.19244063;-0.084237285;0.09218617;-0.07049604;-0.016580377;0.05749923;0.063292965;-0.19789141;-0.5608176;0.23963228;-0.038581993;-0.06234849;-0.054476507;-0.09217359;-0.8709623;-0.098058455;0.0524689;-0.21500924;-0.16400823;0.07064513;-0.19790415;-0.0148921;-0.76428694;-0.028718274;0.0491094;0.13838814;0.018863147;-0.49478668;-1.087131;-0.98846656;-0.095398374;0.093432404;-0.41732082;0.12361859;0.21032041;-0.16034469;-0.14067867;-0.06783311;-0.059474;-0.08788481;-0.137841;-0.0902986;-0.05524509;0.008840281;-0.16304532;-0.12680921;-0.0068892045;0.34656587;0.0022877508;-0.23652588;-0.17523487;-0.013617979;-0.028162556;-0.113011666;-0.04807671;-0.055760704;-0.20128974;-0.09412669;-0.79945356;0.018790834;0.03254909;0.7272007;0.07874001;-0.9076355;-0.065474026;0.17678845;0.021943301;-0.15426417;-0.19704475;0.06925525;0.14132345;-0.14359894;0.08405179;0.025218537;-0.63881433;0.24639376;-0.14612706;0.04990705;-0.032762576;-0.042852744;-0.020842949;-0.10577488;0.12519647;-0.089021154;-0.029719872;-0.14891125;0.121046044;-0.18605676;0.90123165;0.042088747;-0.10730513;0.0116659;-0.06467224;0.13252059;0.044582907;-0.06580187;-0.0027628306;0.06377858;-0.2999654;-0.04850727;-0.010209081;-0.0787797
0.05770996;-0.0035775637;-0.37527883;-0.08346313;0.062598854;-0.47832426;0.022584481;-0.11620706;-0.065541334;0.8459032;0.010926373;-0.4133895;-2.023058;0.06508257;0.08309888;-0.4132082;0.67566603;0.026079316;-0.28443414;-0.039686367;-0.33699983;-0.05599655;0.5324505;-0.10332675;0.02784481;0.8703352;-0.017429134;-0.002018532;0.035667535;0.26708135;-0.52098405;-0.65314966;-0.06279584;-0.045668345;-0.07596128;-0.10940604;-0.017914867;0.68285114;-0.04502338;-0.25514546;0.06676036;-0.053313345;-0.3353608;-0.033151034;0.6494914;0.053026356;-0.520689;0.06451663;0.03225004;-0.13463362;0.14180215;-0.63155913;-0.02596085;-0.0496873;-0.3721905;0.015288123;-0.35926744;-0.023149231;0.72454;0.022200705;0.0013593602;0.29926148;0.16669707;-0.176506;-0.10125945;-0.06190664;-1.4401749;0.07750179;-0.07461226;-0.05868667;-0.05305362;0.03480809;0.024903452;0.076157786;0.59808517;0.6681909;0.09213984;1.2543657;0.019228244;-0.33549637;0.0264365;-0.083344005;0.06596319;0.21007292;0.45373872;-0.0034312436;-0.17889963;-0.19985346;-0.12559544;-0.01918454;-0.014717587;0.07335094;-0.003564205;0.066031076;0.6960609;-0.024933565;-0.08907904;0.14923921;-0.035548795;-0.0031225062;0.0027140146;0.017031485;-0.22804503;-0.2524314;0.0643624;-0.3378869;-0.018229567;0.09931864;0.083391234;-0.027123818;0.06581717;0.020241246;-0.08569716;0.0782088;-0.074662365;-1.0078685;0.008311298;-0.05461971;-0.07344635;-0.001581947;-0.06612686;0.07069077;-0.0759407;0.015563929;-0.07431246;0.045988012;0.036629748;-1.009779;-0.08444266;-0.114226095;-0.29625273;-0.0652861;-0.029999;-0.62587905;0.03666091;0.23884276;-0.31345797;-0.99976766;-0.0803509;-0.4365351;0.048789725;-0.03434033;-0.16183725;-0.32959327;0.84286207;-0.06692687;0.026453666;0.072092265;-0.12149499;-0.010994807;0.84869915;0.0203782;-0.042289227;0.6347531;0.078616776;-0.029401252;-0.07158286;0.42490023;0.07858681;0.8984435;-0.060890697;0.24145773;0.16667303;-0.051531915;-0.5563724;-0.056337513;-0.5537612;-0.093441114;-0.010282191;0.04869265;-0.06844812;0.044842474;-0.13561058;0.04920796;-0.036201615;-0.05186845;-0.042619053;-0.3185697;0.029226659;-0.009675831;-0.01598397;-0.021007512;-0.4050287;-0.053317226;0.030714044;1.3313557;0.0073227677;0.66807806;-0.29099068;0.25493687;0.022188917;0.15918604;0.060239647;0.0069862027;-0.07661145;0.08563489;-0.059091944;0.019426716;-0.11079956;-0.083272286;0.10173264;-0.036693696;0.02457693;-0.62707233;-0.10013204;0.039688002;0.061360322;-0.13729623;0.040169545;0.007846206;0.0011667723;0.06176273;0.013039235;-0.12098507;-0.79705626;0.02102059;-0.00012988293;0.020023067;0.06764601;0.03635089;-0.052533828;-0.03125673;-1.0080488;0.64020973;-0.21108647;-0.106351145;-0.018587552;0.44547865;0.7681863;0.09645475;-0.0054693352;4.475895e-05;0.0077545955;-0.00920443;0.10194872;0.011892414;0.020731905;0.0089017935;0.108770385;-0.08752294;0.0023833083;-1.1211101;-0.08753537;0.05199563;0.088955715;-0.08708056;0.13469337;-0.041080493;-0.028143011;0.7167768;-0.03219178;-0.01590525;-0.04172901;-0.26204315;-0.066753484;-0.0071608284;-0.038509693;-0.13193761;0.008852325;-0.23019476;-0.07278496;-0.1580491;0.04178869;-0.05101177;-0.05904941;0.06804512;-0.06963557;0.041793726;-0.778132;-0.13239;-0.15453738;-0.0653547;-0.02042057;0.94144714;-0.24204966;-0.24015969;0.5876775;-0.14393482;0.012784739;-0.011349083;-0.28023943;0.008759235;-0.07167763;-0.14219964;0.03547429;-0.06436813;0.09526308;0.013330642;0.008982537;0.5660176;0.32422912;-0.47360596;-0.20225433;-0.055799324;-0.06821925;0.036064938;-0.014824986;-0.038444128;-0.0054666842;0.021540567;0.23128293;-1.108418;-0.056166988;-0.024418246;0.059652474;0.2916892;0.014628548;-0.90099996;-0.009032003;-0.01838846;0.062134217;-0.32927722;-0.043546606;-0.31827924;0.040440984;0.058169026;-0.085403964;-0.029688997;0.14900698;0.022796297;-0.07212171;-0.17906618;-1.1154197;0.035293788;-0.37562516;0.35167593;-0.0129194;-0.13873056;-0.07042344;1.1131713;-0.050170872;-0.0038979424;-0.06743813;-0.15979226;0.1064871;-0.24002692;-0.24069224;0.03620121;0.028602935;0.03742538;-0.08418403;0.013860633;0.35343122;-1.0841678;-0.012898683;0.059696443;0.04832698;-0.58532476;-0.034134556;-0.47050074;-1.1310903;-0.28907934;-0.073074564;-0.040756926;-0.2985474;0.005494209;-0.27876514;-1.0441768;-0.51113755;0.054713327;0.009569931;0.045071736;0.34665316;0.027921772;-0.010493911;-0.040435914;-0.043433074;-0.37484747;-0.08134853;-0.00032757167;-0.0016473326;0.54587615;-0.50105864;-0.16179684;-0.034010217;-0.03949832;0.05989503;-0.08038939;-0.022798143;0.6038752;0.047025066;-0.020123702;0.026107615;0.021983458;0.08130191;0.014230771;0.31101558;0.04664209;0.42081684;-0.66556704;-0.07366489;0.020415256;0.0071778297;-0.0047580423;-0.07918203;-0.044175223;-0.0014015528;-0.07903514;0.30887926;0.04704805;0.03787044;0.071891874;-0.06264124;0.15325128;-0.052514434;-0.044867493;-1.2160919;-0.34475616;-0.05246328;-0.06167472;-0.20203382;-0.1723955;-0.07594039;-0.029729139;0.0524694;-0.13116963;-0.028223114;-0.13627712;-0.07442753;-0.070948265;-0.031966344;-0.09146734;0.037748963;-0.014986342;-0.43289936;0.032157667;-0.2769591;-0.46153024;0.4866826;0.038894724;-0.09489267;-0.35974264;-0.07461653;-0.0034814058;-0.014349673;0.018598083;-0.369645;-0.08331944;0.047719367;0.06028096;4.5090263e-05;0.3185018;-0.13519663;-0.009858086;0.08301295;-0.109047785;-0.23381667;0.044125907;-0.20320955;0.0012895303;0.08161469;0.5044911;0.0412015;-0.08936285;0.077622645;0.052415684;0.076542005;0.046507474;0.058285676;-0.14058822;0.460995;0.055028472;-0.02237595;-0.03317574;-0.059467338;-1.043686;-0.51625293;0.005839237;-0.08859993;-0.24471162;0.018000083;0.06909337;-0.2751361;1.0984845;0.19911756;0.08840407;-0.08225519;0.013892992;-0.07120372;-0.00086634106;0.075739644;0.079071306;-0.14523304;0.029125942;-0.062343128;-0.0901522;0.16079497;0.21776365;0.3411602;-0.09726016;-0.1560499;0.17642166;-0.027589101;-0.008893904;0.48198193;0.033298533;-1.8110265;-0.04156991;-0.018757265;-0.66613483;0.024566477;-0.717708;-0.7526199;-0.6948935;-0.004592284;0.023418542;0.042940915;-0.08422661;-0.6349946;0.03985889;0.026605332;-0.0566675;-0.056276817;0.035251576;0.061564185;-0.053080533;-0.30477583;-0.08318808;-0.20351443;-0.09991889;0.087134756;-0.14115079;0.075259835;0.40692213;0.16181193;0.20384413;0.06254402;0.008299589;0.046146385;-0.051430255;-0.5635982;-0.122005396;0.050197322;0.0012732057;0.029347254;-0.5595869;-0.022348605;-0.11201418;0.051597696;0.10155466;-0.06608527;-0.020574119;-0.48621872;0.055977073;0.40734306;-0.07385171;-0.03973003;-0.03262383;-0.3798254;0.021929247;-0.04006283;0.037726;0.05323116;0.39298582;0.13732496;-0.020556198;-0.026996583;0.035318576;0.058486953;0.122755185;-0.0034838526;0.08371601;1.3499805;-0.04012275;-0.031504102;0.04073803;0.055910543;-0.03775048;-0.3816285;-0.04074019;0.05180501;0.033515524;-0.4313888;-0.016017515;-0.021435121;0.06794824
0.14231803;-0.022687195;-0.70561564;-0.11970041;-0.051053617;-0.39798817;0.068114735;0.086250946;0.19351356;0.22289413;0.12177093;-0.5790479;0.21799216;0.26995775;0.39703107;0.6106859;-0.4224449;-0.00013171964;-0.3563538;0.085002415;0.08480779;-0.053223174;0.42474738;0.8242275;-0.024977833;-0.31916705;-0.04628203;-0.1795221;0.093444325;0.48629093;-0.83731055;0.8170952;-0.071927264;0.13239421;-0.024778267;-0.034587886;-0.27327177;0.5503659;0.0087480275;-0.2579457;0.015364545;0.19374655;0.20830272;0.10923431;-0.9274501;-0.0458506;-0.47200847;0.1454571;0.08858622;-0.025312206;0.06834981;0.8597248;-0.0037715088;0.06006273;-0.2953274;0.09482212;0.23254457;-0.041186202;-0.9051527;0.034291066;-0.046771184;-1.157012;0.008732563;-0.8484921;-0.031710755;-0.117250286;-0.49951658;0.08293118;-0.12928163;-0.10179678;0.25224012;0.15400133;-0.027154788;0.2026915;-0.47534305;0.36650744;0.17776124;-0.26426372;0.15184072;-0.38971412;-0.0094677545;0.038710803;0.055792764;0.39199176;-0.1361053;-0.16139644;-0.58363175;0.024924273;0.1858982;0.023394821;-0.09213966;-0.7070194;0.05295557;-0.098658115;0.74551636;-0.14158395;0.04327943;0.23314498;0.16334514;-0.10739705;0.17408554;0.0035880168;0.9678921;-0.3581845;-0.14125673;-0.37722898;-0.07634527;0.086647145;0.018477205;-0.119803466;-0.03913062;0.04899733;-0.011666713;0.096163735;-0.17495328;-0.3846203;-0.06307322;0.044913262;0.05275456;-0.038466375;-0.06819412;-0.072219685;-0.09274409;0.04059616;0.49316388;-0.066157416;-0.0032287966;1.5640285;-0.070778966;0.18308608;-1.0079771;-0.014266968;0.07298659;0.41501692;-0.048870545;-0.4791113;-1.2906384;-0.46541566;-0.400748;-0.4046376;-0.028063951;0.08946646;-0.5601342;-0.47766763;-0.29236415;-0.0005971697;0.019964874;-0.032048672;-0.1132483;0.10977356;-0.64581233;0.057788648;-0.04977855;-0.9613073;-0.12418467;0.17178817;-0.030544477;-0.53071237;0.04194268;0.49272367;-0.021365171;0.2753364;-0.15654857;-0.062968254;-1.4303235;-0.45789415;-0.83846474;0.015216252;0.0073841447;0.07163463;-0.06459736;-0.1001007;-0.3897919;0.032263737;-0.021840027;-0.10700623;0.07093645;-1.0201991;0.055914845;0.12589641;0.14761047;-0.046557724;-0.37465316;0.11341548;-0.14667434;-1.5966872;-0.042231243;0.06399784;-0.30148065;0.009134087;0.03683174;0.20409165;-0.15821947;-0.11195795;0.022965934;0.098127894;0.041984044;-0.17238648;-0.33164546;0.12658986;-0.1447683;-0.07324234;0.12626202;-1.1145992;-1.3715963;-0.058070377;0.041207522;-0.14515595;-0.036775332;-0.026948843;-0.17457566;0.17493632;0.09298444;-0.44801244;-0.5615477;-0.08463265;0.04789959;0.14547412;0.18581897;0.04719669;-0.05321693;0.16209868;-1.0756885;1.0010206;0.21274191;-0.23204923;-0.00216953;0.11377254;-0.03164451;-0.059013322;0.22795628;0.108237885;0.06821957;0.01591935;-0.5587268;0.072075844;-0.13012016;0.1791366;-0.568751;-0.074909374;0.059244167;0.70523405;0.052956264;-0.08204935;0.102115;-0.047481667;0.85083514;-0.051727556;-0.06656948;-0.9103932;0.07906088;0.020154273;-0.037308574;-0.49286294;-0.06881723;0.073778294;-0.033653066;-0.32668567;-0.074249774;-0.12623553;-1.1629379;-0.0030418665;0.1316536;-0.07709649;-0.01083312;-0.01734329;-0.5617153;-0.5642502;0.1257081;0.28151923;-0.27044526;0.051809676;0.079835825;0.109377325;0.019129239;-0.13278621;-0.3144169;-0.3083705;-0.034768842;-0.00093506294;-0.23036632;-0.024118716;-0.14774168;-0.2605022;-0.07232314;-0.17794926;-0.8197413;-0.04990108;-0.00031454538;-1.1774299;0.08992158;-0.10032015;1.1085614;0.30125225;-0.41918355;-0.23874009;-0.11430348;-0.016133808;0.18601277;0.048958633;-1.4061096;-0.2935254;0.033968247;-0.3533072;0.13457753;0.42006147;0.28129506;0.003760017;-0.044035383;-0.044415303;-0.07252237;0.56576157;0.11280235;-0.29558018;-0.075191535;-0.035155248;-0.14286427;0.022818938;0.017295636;-0.12365483;-0.009205772;-0.18456708;-0.74264675;0.011168518;-0.18313327;1.0199747;-0.09759963;-0.07965387;0.15847759;-1.1977627;-0.07788223;0.059998374;0.029019846;-0.028555334;0.07071349;-0.5188965;-0.3846075;-0.041824058;0.036122754;-0.29794437;0.10871984;-0.11100568;0.3488932;-0.598068;-0.13958053;-0.07082601;-0.012412683;-1.766204;-0.032537587;-0.3820333;0.9443694;-0.66921407;0.13346024;-0.0032281035;0.01827123;-0.07168162;0.28767353;-1.1932673;-0.38985896;0.18092059;0.04616759;0.10904294;-0.20081536;-0.07064397;0.22021896;-0.17082487;0.053718418;-0.39318848;-0.07373804;0.1604856;0.038693562;-1.6799706;-0.7531005;0.94265;0.0038266378;-0.118506975;0.04675077;-0.06755112;-0.011700242;-0.17032795;0.031313956;-0.14024332;0.04098417;-0.18298353;-0.0684184;-0.055631787;-0.10053543;0.008703884;0.47667226;-0.7043137;-0.022521777;-0.88257927;-0.07309025;-0.07703342;-0.05554552;-0.14057846;0.13629888;-0.13747747;0.053988516;-0.08129984;0.02981528;0.19248721;-0.0396329;0.19481876;0.040480573;0.024327347;1.1675372;-0.35549447;0.10552747;0.28507233;-0.5732637;-1.1163541;-0.12542619;0.10720896;0.020184409;0.13283801;0.06404157;-0.027275741;-0.0799663;0.012739271;0.08493573;-0.5335222;0.09528515;-0.039731346;-0.7146131;0.15416503;-0.79440534;-0.5957441;-0.062012758;-0.07871864;0.009650977;0.022319132;-0.09070259;-0.095532894;0.026562924;0.03699243;-0.14779758;0.15184171;0.044255022;-0.007431547;-0.05653636;-0.047030903;-0.55486983;-0.020286366;-0.08831203;-1.0064863;-0.18350789;-0.036220938;-0.23259039;-0.19541448;0.21478419;-1.4914168;-0.03830957;0.24108738;-0.17055012;-0.041138988;0.013649627;-0.04390864;0.081676304;0.056079395;-1.2602979;-0.15129948;0.060150307;0.03841862;-0.0052697062;-0.43507254;-0.62575996;0.015664559;-0.0939499;-0.2637245;0.1288647;0.28406763;-0.33514798;-0.96853966;0.5218454;-0.18399999;-0.15635854;-0.3852456;-0.20162515;0.01628759;0.0021181605;0.29817036;-0.9585498;-0.049383435;0.0015233104;0.009259529;0.24294643;0.35955977;-0.8678265;0.15923648;-0.13727285;0.3511147;0.17516494;-0.053155646;0.39162612;0.04671241;0.05100045;-0.0005662328;-0.16450205;-0.46250862;-0.01731949;0.7651886;0.37220702;0.48783967;0.08454709;-0.10996065;0.5272535;-0.15140933;-0.6147201;0.0694057;0.10948092;-0.024462523;-0.0011874815;-0.006323803;0.047418367;0.119597465;-0.44512123;0.066365376;0.018317897;0.1145734;-0.89155084;-0.018039556;-0.037334863;-1.7491636;0.41769126;-0.4424643;0.08055293;0.08515444;0.014752526;-0.055361535;0.9632028;-0.021748034;-0.8498568;-0.20228778;-0.09108777;0.21096003;-0.107938394;0.3019577;0.31711954;0.07264355;-0.07835118;0.1252298;0.57335615;-0.07218646;0.26819682;-0.117316216;-0.06553546;0.046163227;0.36185247;-0.19924423;0.066192105;-0.11775459;0.1258221;0.43505585;0.055961605;-0.026297597;-0.033226073;-0.017735925;0.010683897;0.24892299;-0.13798872;0.4120579;0.44358927;-0.04635714;0.11361765;-0.0031194277;0.16999502;-0.02146605;-0.1152386;0.041992113;-0.29623806;-0.08070494;0.95375663;0.03796662;0.081290804;0.080198474
-0.08377756;-0.0027677843;-0.40976834;0.0555792;0.06688077;-0.02954417;-0.075899646;-0.077215254;-0.07486181;0.10886286;0.0548134;-0.46707553;-0.06816861;-0.21658015;-0.4640584;0.7094159;-0.30012512;-0.015146522;0.17594399;-0.08199396;0.28182283;-0.05895017;0.0072574858;-1.0007144;-0.004234688;1.8514407;-0.03405573;0.020066982;-0.036327746;-0.25049517;0.16453569;0.63373005;-0.17485522;-0.091858074;-0.04319351;-0.2924851;-0.1320872;0.38612518;-0.07093226;-0.11533315;-0.07006114;-0.09507063;-0.27835152;-0.12120694;-0.778185;-0.032542977;0.15960087;0.0187206;-0.08588719;-0.0869603;0.5479015;-0.49353647;-0.026979221;0.058893822;-0.5543942;0.08878728;0.0445241;-0.057747807;-0.17131855;0.018667608;0.05296681;-0.67931044;-0.12040609;-0.04139616;-0.23635845;0.059487563;-1.8820037;-0.0522829;0.017767763;0.06827781;-0.08670013;-0.10225026;-0.019007646;-0.10434703;0.47638127;1.1258867;-0.08458784;0.6071314;0.045619167;-0.06151086;-0.061882865;0.04234131;0.00433593;-0.25741962;-0.8155744;0.017408228;-1.0246193;0.02029197;-0.17702246;-0.0651595;0.054610677;-0.2233932;-0.04688435;-0.11465921;0.23601975;-0.043086343;-0.07503361;-0.05879318;-0.008381826;0.068050064;-0.09241161;0.014708745;-0.21175888;-0.0795279;0.060522534;0.08398758;0.062056113;-0.010449708;-0.018033078;-0.020023413;0.08512469;-0.043589935;0.059189595;0.054563083;0.115866005;-0.8429955;-0.069665134;-0.02657779;-0.10886765;-0.15886267;0.06281657;0.07622541;0.054487832;0.03070889;-0.28328303;-0.2170578;0.07612803;-0.94522417;0.033629686;-0.26271048;-0.14436498;0.014255431;0.055967905;0.41762638;0.026622854;1.1530478;0.8124365;-0.537158;0.095599525;0.1286657;-0.060038812;-0.029275218;-2.5630643;-0.25322345;-0.18385531;-0.017703488;-0.07610242;0.008461978;0.04839043;-0.0737562;0.0857274;-0.043637905;0.05220731;0.51763254;0.032580577;-0.04859739;0.07537251;0.8324843;-0.08709711;1.1960249;-0.067595534;-0.4120271;-0.38489068;-0.008041316;-0.015275397;-0.61759454;0.66975844;-0.0042905617;-0.07338116;-0.101372235;-0.03198278;0.00091756927;-0.0040960275;-0.017192667;-0.046085067;0.06462968;0.017985297;-0.32175714;-0.027861463;-0.04737372;0.20741175;-0.058469307;-0.26418546;-0.0036354288;-0.045786515;1.0105807;-0.17693347;-0.51640886;0.10491768;0.10338678;-0.05492492;-0.10390209;-0.106137455;0.038080733;-0.07100528;-0.058060043;-0.06704663;0.01715063;-0.02403648;0.005950036;0.5170976;0.06015231;0.023379628;-0.46381846;0.7311353;-0.05338059;-0.1240963;-0.20687756;-0.028719557;-0.06608194;-0.012567969;-0.040403906;-0.0037670843;0.14166208;-0.82783157;-0.038108706;-0.012993459;0.19813658;-0.014812941;0.04080492;0.03230489;-0.04302064;-0.1264776;1.7483914;-1.2328429;0.028978402;-0.012030453;-0.44194004;0.8658562;0.031644106;-0.027236503;-0.048730128;-0.03406584;-0.09074715;0.9813481;-0.06547399;0.06748447;0.15075885;-0.40923706;0.05129093;0.008398092;-0.5094891;-0.30065203;0.023222707;0.021298423;-0.046903864;0.75950724;0.3152917;0.008491112;-0.7102709;0.044819668;-0.008547666;0.040438432;-0.62831396;-0.03300188;0.015994215;0.025790978;-0.13478978;0.43120602;-0.60733974;-0.37091768;-0.07620684;0.011118377;-0.00901656;0.07905678;0.49359939;-0.9454821;0.038816568;-0.835083;-0.16705374;0.10814657;0.015697557;-0.059539206;-0.5948022;0.12748659;0.29796764;0.17574257;0.048447028;-0.09645709;-0.11310557;-0.35079032;0.08777054;-0.027734542;0.16315682;0.03435642;0.07389834;-0.30221325;-0.20622514;-0.09525272;0.7426354;-0.025941227;-0.62560976;0.8270821;0.13350193;0.24974245;0.34847122;0.03890599;0.048259944;0.01863887;-0.10322462;0.67316514;-0.18873747;-0.037950285;-0.34881225;0.053074785;-0.21514912;-0.115880914;0.111046255;0.007502251;-0.029131599;-0.07407277;-0.8657481;-0.0596105;-0.13572285;0.08075092;-0.053673018;-0.07336423;-0.010611291;-0.30432072;0.029762788;0.042629935;-0.82768446;0.19157305;0.036106717;-0.3938528;0.47880584;-0.010555364;-0.061187483;-0.06123341;0.49850866;0.006311355;0.02340978;0.05339948;-0.08713305;0.11908364;0.47805056;0.06946749;-0.030267064;-0.056056395;-0.11227877;0.03403342;0.08704277;-0.34298652;-0.73109555;0.09004671;0.06615349;-0.09002128;-1.7031461;-0.26132175;-0.22327144;0.14976759;0.014731928;-0.06304162;0.048175104;-0.15783207;-0.027949302;-1.3558276;-0.5187064;0.85368454;-0.09199651;0.054470107;-0.056741197;0.06594996;0.006103127;-0.32619527;0.00052344333;-0.108818024;0.04799327;0.09305756;-0.0012966391;-0.026583422;0.99743026;0.41945335;-0.45440778;-0.10668294;0.033198263;-0.08348778;0.005911019;-0.034750868;0.7892735;-0.022477025;0.025129031;-0.0035158042;0.0044649257;-0.0033079358;0.12502411;0.1341173;-0.20295535;-0.19812034;0.5013207;-0.04298256;0.6526597;-0.101301484;0.03670625;-0.018103035;-0.057009038;-0.011236103;0.0850745;0.85687876;0.060709786;-0.009923648;-0.030812472;-0.05349585;-0.13106559;0.08176279;-0.1189894;0.5997236;-0.06223077;-0.050922517;-0.9888323;0.06751184;-1.4611623;0.019133054;0.0014580705;0.046157386;-0.10022595;0.02912412;-0.13054995;-0.0069445823;-0.047999106;-0.051882464;0.057023533;-0.03264198;-0.040483654;0.016394781;0.027493238;-0.6210693;-0.22788431;-0.61877394;-0.009446511;-1.0637312;0.061763816;0.04430998;0.028649513;-0.07814086;-0.060027458;0.23582566;0.033458114;-0.06987968;-0.07661727;0.028369473;-0.8592054;0.60883284;0.043337822;0.1512299;0.023395687;0.031427827;0.0038952813;0.10112495;0.0066231494;-0.40683612;-0.09299769;0.044761147;0.01314619;-0.029100306;-0.010105008;0.0073707034;-0.04572425;0.07946309;1.0775249;-0.15208162;0.017775139;-0.12281425;-0.09355984;-0.06306795;0.54142576;-0.099511944;-0.0343731;0.07683965;0.22006513;-0.11261162;0.26655343;-0.10467004;1.4688812;-0.32219303;0.087694734;0.09971505;-0.23695263;-0.034744214;-0.1063591;-0.018834187;0.13983867;-0.3998679;0.38908523;-0.13632199;-0.081682794;-0.11808274;-0.17235252;-0.9665753;-0.09526063;-0.3518651;-0.3545487;-0.060679883;0.039009165;0.19969127;0.02861656;-0.565534;-0.067951076;0.10187932;0.27341947;0.07063111;-1.1481388;-0.6229858;-1.2029592;0.03674222;0.07980964;-1.0692339;0.0824411;-1.6511234;0.00020309116;-0.04035915;-0.092587024;0.08713388;0.018619116;0.043551262;-0.08690831;-0.8580539;-0.06533738;-0.13565402;-0.146664;1.4065008;0.3147846;0.06430611;-1.274621;-0.21828112;-0.23540281;-0.0063569313;0.00049592595;-0.03272468;-0.0093518095;0.35564616;-0.09136126;-0.020595482;0.05339046;-0.02313251;1.1891923;-0.026588539;-0.62613183;-0.10136074;0.0790053;-0.01059249;0.04392775;0.1077841;0.014026793;-0.42770976;0.16973594;0.037423667;0.030566763;-0.19501725;-0.05923265;0.055553246;-0.005086691;-0.17227343;0.8252296;0.0096184;-0.0017662884;-0.06859134;0.055856276;0.08335249;-0.040248606;0.08766567;-0.015961986;0.6789593;-0.05710078;0.036011387;0.0703614;-0.084953256;-0.023300646;0.08652552;0.018006323;0.12071433;0.018580815;-0.3022268;-0.08338141;-0.07152275;0.029919475
-0.5713028;-0.037428953;0.00019053023;0.086327076;0.082403325;-0.31843945;-0.046540268;0.0074406685;0.04834169;-0.35439846;-0.0842495;-0.054676205;-0.17131127;-0.16139476;0.6778491;-0.5038838;-0.35191864;-0.12090757;0.4288845;-0.06927655;-0.52822965;-0.041849826;-0.4917843;-0.89797425;-0.01138202;0.115488514;0.014429432;-0.029520158;0.046728738;-0.21930422;-0.81819767;1.4970485;0.15289873;0.030519616;-0.052188627;-0.17497136;0.3127232;-0.1411594;0.07354753;-0.011620153;0.0056699994;-0.06843098;0.53102875;0.05189624;-0.91728646;-0.06996334;-0.2584823;0.016365083;0.10254766;0.44802296;-0.62798667;-0.4427386;0.013932335;0.099345535;0.34376228;-0.082297675;-0.6492165;-0.08155777;-0.33674973;-0.0028057531;0.0127466675;-0.074120365;0.014918394;1.7426996;0.0453698;-0.08655639;1.0528699;-0.024101883;-0.06023689;-0.03973605;0.20199025;0.06375172;0.017779911;-0.013552863;0.8230967;-1.6905346;-0.049796294;-0.31548402;-0.05289837;-0.39791748;0.22188114;-0.07400823;0.019308927;-0.14140032;-0.086337924;-0.043553125;-0.244951;0.15986948;0.44038054;0.03917657;0.006045855;-0.6177874;-0.016619686;0.08895529;2.4176092;-0.02638499;-0.09386219;0.04809425;0.34387496;0.046413574;-0.019378087;-0.06822827;0.9273223;0.14587675;0.0056667863;-0.27346718;-0.0032525202;0.0028165954;0.007549447;-0.038797613;-0.077524245;-0.040077552;-0.08270022;-0.009312633;-0.07312637;-0.109887384;0.063225746;-0.012250798;-0.1554931;-0.115817584;-0.08336984;0.047927294;-0.022886036;-0.00055978313;0.037445106;0.02190074;-0.023730025;1.5335267;-0.043136146;-0.63533294;-1.0539386;0.05233054;0.024218643;0.20741221;-0.09759032;-1.2570648;-0.34754717;-1.5429281;-0.13771911;-0.07537539;0.06921018;-0.023169344;0.5916589;-0.63910073;-1.7968539;-0.02721891;-0.052034065;-0.056354627;-0.13229679;0.028911062;1.5353694;-0.0014286274;-0.015617604;1.1012092;0.016839275;-0.05203738;0.009259463;-1.0914932;0.0024625396;0.8979868;0.041057404;-0.43032974;-1.0543107;-0.0754267;-0.103270754;-0.20959873;0.36113095;0.013067587;-0.008716381;0.05422625;-0.064512305;-0.056925897;-0.20367718;-0.028374735;-0.04652338;0.065178685;-0.029555585;-0.37653244;-0.0055563143;0.058740284;0.15471743;0.03194446;0.15120955;0.029603725;-0.003966456;0.7408398;0.0210079;-0.36517075;-0.20412196;0.03202515;0.0013643393;0.13304503;0.0024701178;0.05798764;-0.021302892;0.031249084;0.059499897;0.06483756;-0.15963863;-0.057759035;-0.07754498;0.06244921;0.08120539;-0.9765782;0.3967613;-0.008201998;0.005034457;0.59720784;-0.039625533;-0.03893656;-0.0031091773;0.021281064;-0.0559761;-0.016711723;-0.8725619;-0.06115101;0.06574043;0.09171764;0.051999424;0.034711547;-0.025050854;0.0045250473;-1.0528145;0.7809929;-0.7134499;-0.050896347;0.079515345;-0.6976162;0.1757212;0.08801014;0.08692056;-0.06803441;-0.0008397014;0.07424937;-0.6283663;-0.09799804;0.045227163;-0.1168473;-0.7813216;0.026354702;0.040717002;-0.8324037;-0.05614553;-0.09348425;-0.011576754;-0.07970406;-1.3294241;-0.11449176;-0.021945296;-0.81375;0.07332777;-0.011290606;-0.012210514;-0.31605494;0.0060105263;-0.06595652;-0.035657376;-0.15889989;-0.0064056;-0.32838327;0.05064508;1.0539844;0.051048454;0.07712519;0.06849586;-0.69035274;-0.24373369;-0.38202992;0.9415808;0.09071786;0.017566426;-0.04123411;0.03943433;0.042262442;0.043266494;-0.27219743;0.051236458;0.07266164;-0.28636864;-0.09419676;-0.24619767;0.0027717107;-0.01894744;-0.08062026;-0.071441926;-0.07111989;-0.086121656;0.13685992;-0.07613103;0.2759394;-0.62362456;-1.2216054;0.23211284;0.6557249;-0.6420891;0.116571076;0.028338566;0.00850877;0.092849724;-0.0849472;0.21519774;0.96923345;0.068108074;0.11527845;0.11225999;-0.20228128;0.11945125;-0.61034715;0.024823958;0.0004751801;0.027895013;-0.130444;0.0090896245;-0.36697495;-0.028496942;0.04699281;-0.07732139;-0.016074287;0.16568556;0.025962885;0.057341184;-0.5883251;-1.2854174;-0.039704688;-0.24681807;-0.8209019;0.0174977;-0.09742652;0.034815166;-0.067609854;-0.043388594;0.093333036;0.02016571;-0.15005516;0.036187705;-0.478596;-0.15982632;0.03689512;-0.051118135;0.0065028244;-0.03839038;0.07940236;0.24890497;-0.29169643;0.06740107;-0.16403757;0.1005055;-0.36013597;-0.056446716;0.33014172;-2.0372055;-1.2051553;-0.04126603;-0.022396306;-0.07457275;-0.004499176;1.1547331;0.711807;-1.0069041;0.12418604;0.044835854;-0.0373946;-0.7269935;0.03925764;0.13882898;-0.049732003;0.04881867;-0.17430936;0.009551986;-0.0024131301;-0.05409033;-0.65197206;0.26489544;-0.15584657;0.083227664;-0.08619895;0.046554692;-0.06519425;0.038689062;0.46727884;0.010324832;-0.060106456;-0.036799148;0.10706013;-0.018391903;0.038777497;0.73790073;0.019756667;0.18954663;-0.15917768;0.07612219;0.34344363;0.07011092;-0.08277787;0.04241679;0.021277698;0.044650346;-0.050374586;-1.4846978;0.058261205;0.01988272;-0.002310341;0.06078491;0.019027205;-0.004669361;-0.0767544;-0.53326124;-0.21638103;0.08487985;-0.3604194;-0.52902836;-0.36258256;-0.08680443;-0.0487707;0.044579633;-0.09166767;-0.014079434;2.1703393;-0.03140908;0.0029513112;-0.058432795;-0.46279946;-0.078536786;-0.017186197;-0.38601974;-0.051236495;-0.4920447;-0.22321309;0.40335056;0.034319986;-0.31256682;-0.063976735;0.0944437;0.04437133;0.07261067;-0.026665334;0.55498934;-0.052822385;0.07013346;0.018238636;-0.0871689;-0.3199077;-0.12345358;-0.04774457;-0.15787025;1.2007743;-0.083211005;0.053747248;-0.12070707;0.03293251;0.05089122;-1.4991751;0.040170852;-0.06246674;-0.11695207;-0.008139;-0.0038300469;-0.07881731;-0.02164531;-0.3410796;1.889816;-0.009379425;0.0025563303;0.011443322;-0.048232514;-0.64936656;-0.33662125;-0.039038654;0.01939437;-0.19737886;0.06056721;0.6421804;-0.15779178;0.0059861224;-0.17100163;0.048613526;0.097021714;-0.0048895227;-0.0331243;-0.037953455;-0.07989962;0.08632377;-0.61332077;0.7939064;0.3140307;-0.08390382;-0.018787665;-0.05478266;-0.6969215;-0.057856623;-0.08755495;-0.069210224;0.030621728;0.013095426;0.07755812;0.007175078;-0.47182485;-0.024534473;-0.00092583743;-0.8207667;-0.01235488;-0.4642186;-0.89306873;-0.14286454;-0.0074384576;-0.068680435;1.0178233;0.024874648;-1.712621;-0.07204596;-0.022012992;0.020015612;0.0488882;-0.043046053;0.08320555;-0.062126942;-1.8787612;0.04382942;0.07906058;0.053237237;-0.84879446;0.8468081;0.06922212;-0.68206364;-0.15493245;0.66781116;0.0069289305;0.036742624;0.033948723;0.031278126;0.3319553;0.07039744;-1.3555465;-0.026071317;-0.058024045;-0.43869752;0.08072558;-0.8628915;-0.03686897;0.05527154;-0.11057911;0.08918365;0.4896531;0.046264917;-0.69799316;0.52725255;0.0543116;-0.022144005;0.63702154;-0.16942655;0.0067983526;0.04102764;0.015841687;0.37508056;-0.13419662;0.0131454;-0.017382914;-0.011463456;-0.011977565;0.11047356;0.001939389;0.39830664;1.9363487;0.07092352;0.07788579;0.07533996;-0.08314141;0.03343289;0.1354789;0.060840547;-0.18483447;0.033763282;-0.28960943;-0.0146429455;0.058824517;0.062161915
-0.12639545;-0.06773891;-0.23115791;-0.051632524;-0.05102858;-0.31422335;-0.0745811;0.050262176;-0.06310724;-0.021386113;-0.09392022;-0.292238;0.9069621;-0.33888662;0.4648836;-0.5533952;-0.06684401;0.038500953;-1.050329;0.04377589;0.52334553;-0.043421555;0.22023511;2.032379;-0.048572417;0.012545856;0.07054147;0.008710237;0.12648362;0.24665016;-0.615181;0.79966354;-0.04628782;0.106578454;0.026008874;-0.111803375;-0.6605188;-1.02955;-0.0069758776;-0.09973769;-0.050654486;-0.009636751;1.5796311;0.05789754;0.4037553;0.074539505;-0.29672718;0.029005956;0.10851338;0.24641535;-0.6270787;-0.5172497;-0.019018296;0.030457687;-0.23034982;-0.04933809;0.27175394;-0.025109902;0.00736331;0.004257263;-0.010314414;-0.43328857;0.2521487;-0.8081867;0.042413425;0.051966738;-0.83794624;0.07970845;0.06949184;-0.042898886;-0.030115485;0.03463398;0.032502506;0.1857604;-0.7215185;-0.42545217;0.026155904;-0.4063894;0.026844125;-0.0412521;-0.012061061;0.02924439;-0.044794593;0.33961827;0.3562481;0.029642003;0.5210977;0.22278805;0.49573198;0.043677557;-0.02459343;-0.708175;0.035055596;0.031804875;-0.12703602;-0.0017020677;0.051662344;0.3545969;0.11791248;-0.006506122;0.11753673;0.014599893;0.12877777;-1.1552114;0.022289194;-0.08906306;-0.012778428;0.08205601;-0.05519319;0.054172814;0.03335767;-0.03760371;0.025917768;0.045184083;-0.05367533;-0.38405594;0.025497973;0.11578946;0.13155556;0.08483881;0.06483963;-0.08079365;0.053140536;-0.0059880395;0.19962351;0.06280244;0.05668316;-0.059091814;-0.020345638;0.23102678;-0.49985766;-0.021870086;-0.01156414;0.4646785;-0.0823482;-0.18343809;-1.0455275;-0.16279954;-0.3098866;-0.15076776;0.022070406;0.012188386;-0.68095684;-0.3116584;0.052175015;-0.058656078;-0.05748642;0.0585288;-0.07045606;0.09065778;-0.043909885;-0.06028403;-0.04776604;-0.37441584;-0.039529588;-0.026923925;-0.040834043;0.27351803;-0.042506088;0.40649885;0.0032424554;-0.79095304;-1.873495;-0.025182467;-0.61992645;0.18048827;-0.49696594;0.035734124;-0.08873575;0.08728133;0.0016881501;-0.061456706;-0.16886146;0.053346317;0.072073355;-0.045655183;-0.08384178;-0.23109244;-0.06835061;0.1345777;-0.14606018;-0.09702501;-1.054059;0.059764415;-0.14139745;-0.7795951;0.015874807;-0.8922721;-0.16367;0.069163606;0.0050730095;0.40660897;-0.11590264;-0.08294559;0.0022039728;0.05848213;-0.08974517;-0.014461818;0.1231886;0.021060964;0.38934413;0.07996842;0.08211817;-1.0044796;0.74331456;-0.003007396;-0.04314121;0.2904043;-0.015638858;-0.0049515474;-0.028218674;0.047436662;-0.05787632;-0.53427696;-0.26018423;0.025012795;0.007340603;0.22715324;0.05402109;-0.054861873;0.042021137;-0.038425952;-1.080299;-1.7817521;-0.0809264;0.007312595;-0.07304301;0.711668;0.700113;0.09088155;0.15906027;-0.014151486;0.023843365;0.004789441;0.5224223;0.0014043881;0.05387698;-0.19501667;-0.38177726;-0.07207964;0.017008608;-0.22914341;-0.09453071;0.022601299;0.059756037;0.08135181;-0.45465973;-0.045208056;-0.039948516;-0.6485886;-0.06937768;0.007832795;0.015678424;0.0843574;0.05935743;0.08607543;-0.031180665;-0.0092448285;0.33693743;0.61902475;-0.09639234;-0.6043526;0.08618109;-0.069896676;0.028407011;0.5892216;0.27492777;-0.7418821;0.4820146;0.26539567;0.10921839;-0.02110297;-0.07129555;0.049311742;-0.0564999;-0.12617163;-0.62905043;-0.19247219;-0.28866288;0.09574417;-0.17771962;-0.026799327;-0.12712474;-0.008284616;-0.062098097;-0.010813571;-0.8880931;0.1406678;-0.06586443;-0.8125119;-0.06525692;-0.6947903;0.18972205;0.36787707;-0.0866856;-0.41016978;-0.101156026;0.04212911;0.10978623;0.037800487;-0.32680163;-0.14304416;0.068463266;-1.0911143;0.027619334;0.3734294;-0.31075522;-1.0091844;-0.0559552;0.049898196;0.036684345;0.61425847;0.009192254;-0.37354648;-0.057141617;0.02426047;-0.10570649;0.04002438;0.008940286;-0.042226028;-0.050924372;-0.17787795;0.9282208;-0.064967975;-0.42542815;-0.15015638;0.008052951;-0.11671014;0.11583656;-0.16804297;-0.10493966;0.008166897;-0.04691824;-0.11206577;-0.028162003;1.1689057;-0.45783347;0.047532916;-0.09787121;-0.21850519;0.052343085;0.058637377;0.1258595;-0.8116037;-0.06388212;-0.08534244;0.10631621;-1.8456812;-0.08072086;-0.38647082;1.6097589;-1.4888048;0.036199976;0.04675908;0.16350937;0.018243784;0.60880256;-0.6598173;0.5379787;-0.096361205;-0.080235235;-0.020756137;0.4027758;0.07320958;0.023801517;0.036451288;-0.016958077;-0.28850248;-0.038450927;-0.03389397;-0.07420988;-1.491084;-1.2126018;0.19014204;0.06438949;-0.00095762947;0.0872958;0.014334341;-0.07462983;-1.5353979;0.038912132;0.091018006;-0.017913433;-0.0024652698;0.071131475;0.11101632;-0.119146295;0.046188496;-0.42445105;-0.3837854;-0.06037;1.0126268;-0.033638433;-0.0014098585;0.03344937;0.011102382;0.064096294;-0.006630419;0.4156166;0.04983684;-0.037445676;-0.042420875;-0.0793437;0.22212839;-0.086025424;0.08034296;0.21675727;-0.30650815;0.06484487;-2.0394216;-0.19090417;-0.94158185;-0.0039546974;0.08260228;0.01417;0.08362847;-0.039212726;0.84580773;0.05914871;0.008122551;0.057706233;0.33239672;0.05028287;-0.006608006;-0.6552576;-0.03405818;-1.2797326;0.15018046;-0.6563812;0.061260607;-0.3887833;-0.07407275;0.0028849428;0.023007827;0.021752877;0.021318771;-0.85348326;0.11426285;0.061285634;0.04499489;-0.08423246;-0.34190983;-0.14681505;0.08178807;-0.17566499;0.40530673;-0.10076723;-0.04773803;-0.040998753;0.03233386;0.22170451;-0.15870094;-0.038672414;-0.054222655;-0.0118128285;0.03093503;-0.032915257;-0.042158347;-0.00091431855;-0.14708787;-0.011864179;0.062489104;0.059809577;0.0627553;0.025399698;-0.1740523;-0.7184144;0.023049228;-0.055127595;-0.0065072384;0.014589255;-0.43788773;-0.39655697;-0.17531386;0.32952234;-0.06961006;0.041352205;-0.21840161;-0.057183385;-0.055095974;-0.10063376;0.118541144;-0.23181531;-0.046651177;-0.23491709;0.039016396;0.17730592;0.19944234;0.041459233;0.04110563;-0.33257297;0.39495352;0.0013987017;-0.05220174;-0.6223626;-0.03724454;-0.7258792;0.03222017;0.021498622;-1.7007629;-0.054589402;0.40705594;0.23295896;-0.5324729;0.04671743;0.021362334;0.41882828;0.0400023;1.0120099;-0.073314376;-0.046136666;0.022799771;0.04123663;-0.029541519;0.080054164;-0.06041765;1.3416194;0.036460437;-0.13591851;-0.051617123;1.6844397;-0.99038994;-0.026442599;-0.8888176;0.33391786;-0.6652505;0.04031091;0.14321056;-0.0010903958;-0.01331325;1.4485133;0.097835936;-1.2772881;-0.06327058;0.032251913;0.5079961;0.048365455;-0.50594527;0.0071371994;0.044636004;-0.0049267276;0.14675605;0.4865241;-0.11144378;-0.07353393;-0.6811994;-0.0058193244;-0.03579574;-0.12738472;-0.22497697;0.036854785;0.0412896;0.039418597;-0.07963635;-0.047054365;0.038388524;0.047263525;-0.01847343;-0.077772774;0.074341334;0.048738025;0.5915805;0.27462736;-0.031658;0.04156518;0.069570534;0.043124177;0.03089571;-0.009468029;-0.0058897245;-0.03817347;-0.011528973;-0.092009984;0.024075972;0.017593004;-0.052083258
-0.24995361;-0.041353263;0.32171226;-0.10458976;-0.037644047;-0.30222866;-0.010797022;0.019915493;-0.028761523;-0.007040607;-0.023824599;-0.3890062;-0.64773464;0.21338144;0.4129341;0.15554523;0.40292925;0.124841996;-0.6375385;-0.036521602;0.29290012;-0.08852819;-0.82785577;0.83073425;-0.028493311;-1.0055219;-0.03170624;0.0476744;0.10925181;0.24331461;0.04546026;0.30311486;0.02529734;0.02151253;0.010913883;0.0855759;-1.5909803;-1.8536476;-0.065573305;0.03523198;-0.07676885;-0.034249485;0.32525608;0.16988797;0.9308669;-0.042912725;-0.25493678;-0.041347075;0.20675735;0.16608334;-0.3624753;0.0119231995;-0.053767327;-0.026842203;0.57854956;-0.23072952;0.5600389;0.0021219694;0.3723465;0.048203215;0.02497061;-0.07253571;0.29446432;-0.04210328;0.09683601;0.067272685;-0.17449948;-0.07542006;-0.09267714;-0.031008873;-0.18305378;0.062966935;0.036022622;0.13273628;-0.35556653;0.11715575;0.055925626;1.6106437;0.10931494;-0.37390676;0.025534078;0.0010988782;0.08683494;0.33628663;0.29205552;0.012288941;0.35696265;0.09602963;0.50885624;-0.08433405;-0.09280182;0.04515718;0.10200119;-0.27072;0.5020828;0.050473876;-0.03896437;0.42299405;-0.020825526;-0.046036247;0.19303212;-0.08210876;0.40884784;-0.83503145;0.0040715123;0.2592003;-0.0836217;0.06914721;0.05295699;0.00095743063;-0.06795717;0.11389398;-0.012984718;0.041174997;0.01235337;0.04134662;-0.020909175;0.09661358;0.11665846;0.08332034;-0.02017638;0.030126626;-0.10551025;-0.035870533;0.3183354;-0.13298047;0.030487735;0.6940146;0.030620122;0.42704913;-0.67706937;-0.027667427;0.14538363;-0.7878628;-0.12777223;1.1291188;-0.74910045;0.33358505;-0.09651718;-0.2266475;0.032350544;0.0027811325;-1.2208745;-0.529869;0.13333613;0.038363907;-0.021837767;-0.009745893;-0.11396894;-0.008780495;0.473217;-0.045628987;0.043559596;-0.23492412;-0.0638579;0.043540783;-0.086061;0.90003705;-0.03395606;-0.23677212;-0.014730196;-0.30853248;-0.25191024;-0.078629725;1.4025085;0.23265931;-0.8729074;-0.01129383;-0.11282526;0.16238926;-0.0617867;-0.11235912;-0.19740567;0.053022068;-0.08176002;0.06056972;-0.039726514;-0.5846768;-0.07294016;0.04856352;-0.19573137;-0.03785329;-0.8462198;-0.034420803;0.0001381404;-1.6271079;-0.065385945;0.10781149;0.04619944;0.12978135;-0.029893171;-0.10751972;-0.007290538;-0.028695855;0.015874755;0.064002685;0.018186176;0.006237961;0.14469448;-0.026178816;-0.6966382;-0.04602435;0.09194075;-1.5342032;-0.99430436;0.022958966;0.019957282;-0.38648525;0.053079296;0.0663309;0.00040099045;0.11044041;-0.039465778;-0.107103415;-0.8172421;-0.10372717;-0.041513458;-0.11148974;0.051591866;0.060859274;-0.10309172;0.0973618;-1.7356375;-0.8436949;-0.87335664;-0.028359989;-0.01273625;0.6722456;0.74215907;-0.24075754;0.1946967;0.019772695;0.020379454;0.0037740998;1.0335943;0.09511486;0.05946688;0.13233995;-0.49703595;-0.07158166;0.10646172;-1.0835689;-0.14817174;-0.038630366;0.035463735;0.043515325;1.0506408;-0.02955335;-0.19436845;-1.5142126;0.02805172;-0.021135392;0.0038534177;0.067253575;0.03980769;0.18400836;0.02176197;-0.117915146;0.4974786;0.8853481;0.27784953;-0.2552951;0.101220235;0.0670279;-0.026895544;-0.23442744;0.24583665;0.23839116;0.9796304;0.10683118;0.052637607;-0.10094578;-0.057899542;0.34240526;0.41196394;0.17066818;0.45911884;0.028114835;-0.86925673;-0.12679836;-0.040344693;-0.025477184;-0.10866747;0.06035732;-0.05583469;-0.120057024;-0.05881474;0.106352895;0.06769775;1.7659956;0.4772533;-0.61603135;-1.1305685;0.23371142;0.32528862;-0.38665283;-0.11265685;-0.0058066007;0.13306783;0.04536158;-0.41170996;0.3777698;0.07731199;-1.4055803;0.046338692;0.27636632;0.05169543;0.36790034;0.045364384;-0.0604274;0.0047296872;-0.36822513;0.10829768;0.13083959;0.0008488698;-0.013644281;-0.0069931215;0.0011179859;-0.27898794;-0.107237265;-0.0020474922;0.19356026;-1.1428604;-0.060913935;0.19477428;1.9511259;0.06541387;-0.10296861;0.109484546;1.6813352;-0.09798825;0.058728408;0.01990807;-0.16695204;0.013232731;0.82908195;-0.49190202;-0.066998355;0.0009530447;-0.12532234;0.112958364;-0.04890021;-0.43959114;-1.105486;0.14671814;0.027076405;0.06435823;-0.6258974;-0.18246646;-0.7139799;0.31290737;-1.9240385;-0.0012464218;0.004851919;-0.17779009;-0.03153309;0.2821365;1.185833;-0.5643386;0.11215099;-0.07783768;-0.052066803;1.3023201;-0.07028603;-0.13862067;0.03092248;0.028704965;-0.38874185;-0.0056076143;-0.0382879;0.032843407;1.3360184;-0.8627432;0.11828806;-0.04815914;-0.12141538;0.12133065;0.031101706;-0.01302017;-1.4109102;0.024740824;-0.08003348;0.049873773;-0.019733857;0.02094547;-0.0074563427;-0.70320684;0.053579897;0.28413776;0.8292263;0.044059407;-0.2876111;0.11469633;-0.0054687588;0.054530602;-0.0009584994;0.08564597;0.08000082;0.65122706;0.015738245;0.028313227;0.04290349;-0.016040327;0.26872787;0.04060721;0.10653895;-0.4130921;-0.32634547;0.0342849;-1.3436698;-0.038227793;-0.44248676;-0.1583338;0.092586964;-0.037008096;0.070061095;0.071707815;0.70917964;-0.10721043;-0.024192056;0.1075957;0.36210102;0.035962068;-0.0664779;-1.1521873;0.087169245;-0.9118072;-0.19651616;-0.26861227;0.0077968454;-0.15537858;0.42283708;-0.019350505;0.04061735;-0.0423234;-0.020056153;-0.71843785;0.15269928;-0.062543504;-0.07863493;-0.05841129;0.35032818;-0.19809875;0.026980806;-0.0143995825;-0.5303075;0.1302003;-0.121164456;-0.15976341;0.005978466;-0.31976777;0.06367438;-0.01396217;-0.14360929;-0.1472203;-0.11972722;0.08646258;-0.09772515;0.08329243;-0.4816191;0.040386315;0.02241867;-0.16582642;0.005451117;0.036406517;0.4603288;-0.29065552;0.06386099;-0.029400209;0.057774805;0.02676675;1.1700233;-0.32854545;0.6518607;0.35445672;0.21738467;-0.09818158;-0.30499965;-0.018905427;0.04385627;-0.02152967;-0.031707;-1.0205673;0.007261634;-0.5271092;-0.093258664;0.23719813;0.32760414;-0.22126517;0.067108475;0.1983117;-0.09667676;0.1208149;0.03276553;-0.40937892;-0.034376696;-0.1515295;0.05662715;0.010924652;-0.049751796;0.024597488;-0.10676746;-1.5898526;0.654557;0.03726844;-0.012662268;0.12177046;-0.0046903603;0.0941062;0.083609425;-0.14197604;-0.0616451;0.016547073;0.05290095;0.08504169;-0.01960573;-0.34309176;-0.038524214;-0.31447062;0.07648259;-0.14301682;-0.5254212;-0.024224397;0.34730527;0.3329453;-1.6945162;0.06582842;0.1616977;-0.00028594022;-0.021356398;1.1103225;0.072768725;-2.3173153;0.023669476;-0.045278914;-0.5282315;0.0454281;-0.6215026;0.014259674;0.0974055;-0.05847173;0.03937303;0.4653168;-0.120354794;0.075283386;-0.63758904;-0.014329255;-0.036570612;-0.65162444;-0.08705254;0.0021394512;-0.11025483;0.07536835;-0.3014314;-0.27472648;0.062482722;0.028485723;-0.014412904;0.023564693;0.118148185;-0.02757659;-0.047530226;-0.72361827;-0.017175786;-0.065447934;-0.013128479;-0.015349536;-0.003544663;0.4094784;0.06509257;-0.05963311;0.020608557;-0.06766169;0.09864739;-0.029224452;0.017873842
-0.040431067;-0.03459982;0.15571222;-0.12667632;0.012333882;-0.31001094;0.015711894;0.08678182;0.08041075;0.10175003;0.059079617;-0.47461525;0.3280227;0.14784563;0.7615358;-1.7601875;-0.08119332;-0.020356039;0.15844233;-0.029300734;-0.028763415;0.075582035;0.04546705;1.2283673;0.019577056;-0.8964298;-0.07562365;-0.081842884;0.17722267;0.40514478;-0.41186708;0.6151885;0.03908364;-0.020325236;-0.029688824;0.023741636;-0.6051562;-2.0363388;0.021085104;-0.36628947;0.015650665;0.01703065;-0.7723442;0.14709839;0.17011729;-0.023330307;-0.2911977;-0.0415538;0.14536476;0.36738166;0.45319986;-1.1155653;0.07761616;0.01638306;-0.18037486;-0.16995007;0.6153428;-0.14780523;-0.20605135;0.15519482;-0.029732525;-0.43234056;0.3024995;0.06171248;0.110859595;-0.09508501;-2.0634267;-0.024105452;-0.051225264;-0.018007237;-0.07651026;-0.027483422;0.05898976;0.28763375;-0.46679264;-0.9563343;0.2116804;0.49933115;0.05749825;-0.40742522;0.039422672;-0.02400168;0.051769055;0.48685393;0.39718756;0.0030897763;0.26233542;0.11605748;0.16636938;-0.022651711;0.030645896;0.26077816;-0.038522325;-0.1791672;-0.95368063;-0.071760535;0.011730625;0.22969934;0.044806123;-0.0009246658;0.06004885;0.079314806;0.44606116;-0.7476787;0.045489818;0.024227556;-0.042925198;0.06635956;0.024121908;-0.1395624;0.023821436;0.07423319;-0.056841496;-0.0018999941;-0.088799074;-0.6603124;0.026458358;0.09413943;0.12322816;-0.003183752;0.056041583;-0.006262441;-0.030485015;0.029280711;0.18271324;0.037220806;0.020368077;-0.050272886;-0.13310204;0.7612311;-0.4404483;-0.051042594;-0.046703085;-0.36428073;-0.06812566;-0.50731486;-1.3016559;-0.32942244;-0.24723671;-0.4624192;0.075463004;-0.009237444;-1.1508483;-0.32365784;0.07183206;-0.03403664;0.04268218;0.016040504;-0.11161007;0.024622604;-0.20745853;0.060463246;-7.811212e-05;0.18548773;-0.015510385;-0.033524524;-0.063681714;-1.0602267;-0.054214332;-0.43913177;0.013077558;-0.018430877;-0.5654723;0.011404914;0.7084008;-0.043148547;-1.3745728;0.0143158315;-0.011788585;0.2531357;0.040342517;-0.10192776;-0.25762698;0.0841402;0.041964572;-0.008375764;-0.06972457;-0.5771237;0.0019661307;0.15873706;-0.2393823;0.03805517;-0.5933084;-0.076933496;-0.009751994;-0.9181867;-0.075742565;-0.032506168;-0.15196255;0.13387217;0.08635169;0.15221913;-0.016278269;0.05602523;-0.060247645;0.055938542;-0.024072217;-0.0949781;-0.23320323;-0.032367747;-0.1686121;-0.00882896;0.06886663;-0.79358774;-0.2659454;0.002366486;0.055067293;0.21607862;-0.0071701133;0.043915965;-0.010264618;-0.036288314;-0.00821511;-0.6086885;-0.38447613;0.06697199;0.028622195;-0.18230306;0.06086838;0.018970333;-0.08304029;0.08626332;0.031986404;-1.4529843;-1.092452;-0.005684289;0.061275773;0.23242359;-0.4787256;0.010898543;0.14159763;0.00046758872;-0.019768754;0.05302436;0.27677014;0.13477919;-0.11900735;-0.11607971;-0.5569699;-0.058364987;-0.0010978818;0.26247764;0.10909254;-0.060463343;-0.03708117;-0.080653235;-0.48653054;-0.108164586;-0.08487391;-0.3333305;-0.043292336;-0.025215054;-0.067834705;-1.6634483;0.03153714;0.16841012;0.040789105;-0.15110813;0.045181863;-0.26272094;-0.40390137;-0.94922453;0.158567;-0.07585175;-0.047807664;0.4492977;-0.030665228;-0.21623315;0.45107114;-0.025614845;-0.055126797;-0.04082098;0.056410857;0.6566124;0.017097434;0.07325213;-0.16957109;0.0375467;-0.24409103;0.08835302;-0.21526037;-0.00622422;-0.0504738;-0.080207735;0.0146949645;-0.08973642;-0.48350474;-0.07136303;0.045950834;0.45166007;0.037455186;-0.050584394;-0.5237186;0.22464518;-0.1366669;-0.3060652;-0.076170005;-0.038273636;0.08403561;0.085593306;0.008383311;-1.0025746;0.03372008;-1.0576942;-0.026366454;0.41528264;-0.13051148;-0.48055717;0.030652901;-0.058254566;-0.0044342745;-0.19860706;0.094061114;-0.17461653;-0.10009038;-0.090901814;0.024740824;-0.06985974;0.057019923;-0.08280989;-0.029548742;-0.45706743;-0.98296326;-0.044989493;0.11152376;0.47895283;-0.06532917;-0.08113211;0.069690436;0.5808135;0.012199591;0.017177567;-0.10348123;-0.12846312;0.027044015;1.1564089;-0.3797203;0.030122155;-0.01634805;-0.052357893;0.16854836;-0.069777265;-0.07433761;-3.0915637;-0.07919885;0.028892651;-0.0036752252;-0.44514182;-0.067628115;-0.35351542;0.9804054;-0.6198801;0.10225356;-0.09420672;0.08379836;0.0029897604;0.16057153;-1.5450397;-0.12794909;0.066331334;0.039880775;-0.030648116;1.2980332;-0.049534272;0.018652122;-0.088005476;0.0007830228;-0.44952208;-0.039565377;0.032272946;0.019377388;0.17993508;-0.5817098;0.29133102;0.04626956;0.012945978;0.050714046;0.018003404;0.0075221253;-1.6777172;-0.04640093;-0.062221386;-0.03828679;-0.11743194;0.05269393;-0.07304925;-0.41675395;0.015696865;0.31733176;0.87563246;0.01230014;-0.02167478;0.065610595;0.017109921;0.064437054;-0.07803632;0.184348;-0.08140833;0.48644128;-0.005348763;0.0052302694;-0.027427485;0.036049005;0.30286482;-0.036443066;0.08151761;-1.9171938;-0.47918373;0.11717387;-0.6089359;-0.47706285;-1.0626786;-0.0004075437;-0.021925721;0.05528392;-0.0045451275;0.066250466;0.33205307;-0.07821829;-0.030914927;0.14526038;-0.006517931;-0.058210663;0.043460973;-0.7183439;0.047943283;-0.6734814;-0.24970141;-1.1446438;0.05427036;-0.5138768;0.11557761;0.00831215;-0.07940781;0.0023213776;0.025244392;-0.5818645;0.11352175;0.038906932;0.0137493545;-0.019199876;0.39779994;0.9554448;-0.041340306;-0.20651409;-0.54462737;0.11793722;-0.05698029;-0.2698329;-0.013420064;0.05730369;0.1868224;-0.085228994;-0.13362679;-0.17448752;-0.09456116;-0.051475413;-0.039751448;0.0149729885;0.03940611;-1.2857183;0.040355816;-0.070794374;-0.024017764;-0.071400434;-0.8666416;-0.37655863;0.018904509;-0.083181135;-0.1970648;0.090237536;0.15000468;-0.50755453;0.17662258;0.45177907;-0.05575298;0.017838234;-0.2318768;-0.07321358;0.020544438;0.038704623;-0.025522504;-0.7583292;0.3065554;-0.26699716;-0.05765994;0.28187504;0.37435955;0.27582213;0.09171128;-0.49915516;0.07581692;0.1775243;0.0122914435;-0.4251308;-0.039807286;-0.28776374;0.04446782;-0.048049837;0.025175408;0.015537296;0.3359139;0.36140043;-1.9462966;0.0071030543;-0.10568827;0.2636468;-0.023169415;0.3537218;-0.056351125;-0.09367123;-0.078696854;0.06879889;-0.032151796;0.06991494;-0.016682677;-0.536618;-0.06825032;-0.26615247;0.019922493;0.63815933;-0.5343569;0.02659648;-0.92204154;0.31252187;-1.4105909;-0.026058696;0.10837032;-0.01979296;-0.037923235;0.9812199;0.061771363;-1.1895367;-0.0966655;-0.06809461;0.107719846;0.039483305;-0.109473825;-0.067079395;-0.006534833;-0.0011181975;0.09016711;0.91578853;0.027480371;0.14051874;-0.45876977;-0.029671859;-0.020238161;-0.52906865;-0.10362116;-0.060664862;0.030338725;0.030374967;-0.5537886;-0.28766915;0.07487371;-0.02847508;-0.049891576;-0.06278286;0.14746562;0.059171118;-0.041917108;-0.041361287;0.021047758;0.005575204;-0.008382055;0.03698628;-0.027746348;0.07891353;0.020549752;-0.08361274;-0.08375944;0.12150564;0.06717538;0.026644938;-0.054990306
-0.5248325;-0.08519261;0.28082958;-0.096734;-0.09618823;-0.4337841;-0.077516705;0.1346112;-0.017743457;0.31500685;0.11316538;-0.1982826;0.0928177;0.07488512;-0.20848191;-1.2947698;0.24636394;0.027659126;-0.26951638;-0.06268917;-0.23163728;-0.029508915;0.065997735;-0.14317693;0.000781003;-0.7772316;-0.03477263;-0.08445969;0.1963824;0.100859374;0.13367143;1.2534328;-0.014415528;0.10815138;0.010096806;0.15787037;-0.09087525;-0.12767124;0.0662051;-0.07403703;-0.029118339;0.017080061;-0.75075185;0.2177242;1.0695974;0.016913146;-0.30547264;-0.0090109;0.14443228;-0.12144186;0.79000926;-1.0530674;-0.03520231;-0.06267987;-0.16038346;0.07462574;-0.2789704;-0.0530808;0.5146545;0.15594271;-0.080728605;-0.034305543;0.16705462;0.9386399;-0.032300126;0.02179937;-1.6860229;0.0008068941;-0.040234197;-0.085199565;0.046109542;0.07674018;-0.08457997;0.13870929;-0.09238085;-0.66225755;0.1990975;1.244328;0.15051512;-0.20199564;0.03681485;-0.08287198;-0.068040885;0.1926306;0.05198055;-0.0065942323;-0.29081467;0.0248335;-0.33691868;-0.03009222;-0.06897445;0.52622205;0.12142028;-0.20396829;-0.88963675;0.021262137;-0.018123649;0.23213162;-0.06678007;-0.06440885;0.13247357;0.004923663;0.1545402;-0.5706042;-0.018326983;0.20928732;0.06335385;0.047165096;-0.037143216;-0.021182166;0.014238774;0.057121966;-0.027953137;0.035596482;0.049908478;-0.12431433;-0.03254453;0.08337008;0.13445976;0.10966983;0.0052250363;0.014556952;-0.06431081;0.102811635;0.017666683;-0.07109939;-0.0780614;-1.3941789;-0.021761276;-0.21863732;-1.0483285;0.021439852;0.16462064;-0.073727235;0.0011460762;0.47687453;0.5209094;0.20793195;-0.20285925;-0.2638574;0.019241413;-0.03928498;-0.35984582;-0.53444344;1.2973139;0.013229028;-0.04833109;0.012255245;-0.13621247;0.092491135;0.34482998;-0.069864064;-0.040258434;-0.1781309;-0.07792435;0.005251093;-0.016505409;-0.21924756;-0.07801638;-0.1696606;-0.06852083;0.14218889;0.8798942;0.007994733;0.90018255;-0.023502171;-0.42177767;0.0048571355;0.045541164;0.1253783;0.05174407;0.05798343;-0.23888247;-0.018351277;0.021519098;0.045136716;-0.04940269;-0.35164464;0.07336939;0.082047775;0.103557885;-0.04816394;-0.6203098;0.042371836;-0.16193475;-0.67612064;0.063417524;0.7087459;-0.04651272;0.055979818;0.1279147;0.30267546;-0.20155893;-0.07428012;0.015085784;-0.056227874;-0.09753081;-0.10823197;-0.116960734;0.014857603;-0.11615257;0.040839013;0.03665907;-0.18139835;0.2548484;0.086304456;-0.043852173;-0.0861216;-0.03257421;-0.048801254;0.030663371;0.087762006;-0.025374932;-0.104589425;-0.10798573;-0.027820505;-0.0011698535;-0.0061458307;0.032602735;0.039952617;-0.04388341;-0.009807304;0.28078038;-1.2292013;-0.7887925;-0.02387775;0.010540594;0.05532688;-0.76422256;-0.102330804;0.11054967;-0.04057671;0.06800978;0.095714726;-0.5773493;0.09432669;-0.07892785;0.0022902975;0.056441247;-0.047402184;0.12193943;-0.16198713;0.06816667;-0.13563517;-0.044697758;-0.014533129;-0.37152964;-0.10751318;-0.12959376;0.34865254;-0.06434168;0.08040363;-0.08969818;-0.888863;0.04099912;0.06992371;0.04740268;-0.023334887;0.14368775;-1.7934755;0.16308413;-1.0931426;0.15151846;0.07657982;0.014768199;-0.42326847;-0.119539686;0.7139879;-0.18768921;0.07028807;-0.100088924;-0.0066019925;0.027096884;-0.44613975;0.07973003;0.18164928;0.7175257;-0.031859774;0.1608737;0.04129214;-0.19687966;-0.05285476;-0.06228867;0.03134388;-0.032042816;-0.01543898;-0.041416567;0.080420054;0.01828337;1.8067534;-0.005901558;0.48346862;-0.35708824;-0.16571721;-0.11787976;0.45004106;0.002569037;0.059900444;0.22389778;-0.0005682006;-0.43627584;-0.19620468;0.0041920547;-1.5833933;0.018498594;0.23517515;0.102129586;-0.8019246;-0.013083189;0.03203773;0.0331589;0.15473528;0.12333737;-0.08106529;-0.10196556;0.014345251;-0.06804438;0.03133819;-0.033256434;0.044227883;-0.026305716;-0.62875295;0.03812243;-0.020427424;0.45042714;1.0019363;-0.07888453;-0.04589735;0.07380091;1.0879625;-0.07047547;0.0580554;-0.0060403547;-0.084096506;-0.01399671;0.48987368;-0.34364906;0.03902461;0.006664557;-0.13081263;0.09438235;-0.006496124;-0.25205016;-1.3670409;-0.0504016;-0.018689891;0.033549212;-0.110656105;-0.09293097;-0.29840136;-0.26253176;0.24353646;-0.032922767;0.07135348;-0.057682205;0.05822097;-0.20833091;-0.8798949;-0.4316916;0.15634914;0.026200816;0.086866684;1.1386913;0.05870201;0.046184916;-0.046219774;0.099544115;-0.24955748;-0.040062264;0.07551724;0.0327968;0.35640535;0.3333258;0.058897942;0.0142410295;-0.010311303;0.11600446;-0.043121785;-0.030289259;-0.07981326;0.07401394;-0.06947281;-0.018232998;-0.14192672;-0.076426804;0.023630068;-0.12698615;0.059880894;0.22556455;0.20576224;0.0031630287;0.43416902;-0.037710205;0.04403636;0.010388841;-0.17735049;0.17882234;0.0086653;-0.8041433;0.024749663;0.0032896183;0.033208188;-0.015587769;0.22520323;-0.05661394;0.07452811;-0.4458478;-0.29766738;0.057423033;-1.1517966;-0.0063996906;-0.91399086;-0.10727028;0.090852164;0.063841395;0.07964296;-0.051255014;-0.06392244;-0.09543654;-0.06976646;0.12365578;0.5988764;0.080852985;-0.038747672;-0.3619392;0.13818942;-1.0687039;0.009590829;-0.71495944;-0.0209829;-0.6731982;0.24801256;-0.043591294;-0.08935791;-0.08261045;0.06453607;-0.9906634;0.18032014;-0.014143678;0.050542824;0.042694595;0.11610209;-0.18173628;-0.06607799;0.026793253;0.08371159;-0.0049094292;-0.059617132;-0.20027213;0.014159769;-0.24633388;-0.39499286;-0.03938954;-0.25983143;-0.1973719;-0.00083798176;-0.06608994;-0.03035736;0.0592149;0.06770113;-1.1054422;0.04930532;-0.101115406;-0.050731637;-0.06861247;-0.28612167;-0.32864034;-0.034282934;0.00045983968;-0.0714384;0.07775191;-0.75580615;-0.34099483;0.27406123;0.17590901;0.014015311;-0.07001996;-0.06327285;-0.07851904;0.06629575;-0.052592184;0.10933054;-0.029427372;0.13580945;0.15921625;-0.03943413;0.13198905;0.20640132;-0.048616752;0.10983831;-0.2923463;0.10080972;0.09746281;0.050407708;-0.35061586;-0.011287875;0.2367204;0.05920659;-0.06601178;0.113445066;-0.025901506;-0.5911506;0.25860173;-1.8110645;0.070323914;-0.022290815;-0.15134649;0.034780942;0.3606921;0.07454807;-0.022927945;-0.0460725;-0.010216552;-0.05092432;-0.0005944487;0.08920217;0.7622824;0.007959405;-0.09501712;0.047404222;-0.06817125;-0.45376727;-0.07850583;-0.9525562;0.20324466;-0.46933094;0.025167556;0.13705544;-0.044883147;0.08007525;-1.1187447;0.15754747;0.088829055;-0.08072869;-0.05416082;0.2183444;0.028769614;0.2505966;0.060189188;-0.05717075;0.0058598113;0.109892905;0.3538903;0.015211048;0.041625597;-0.08509483;0.015420395;0.08049146;0.7018007;0.0043701115;0.015476972;0.002291228;0.05767688;0.15646215;0.020238483;0.03433493;-0.098169416;0.05421084;-0.075436786;0.18297216;-0.09500261;-0.32903144;0.17865038;-0.04074887;0.088680275;-0.06579158;0.022895347;-0.038645018;0.30116224;-0.054780047;-0.12774716;-0.063113555;0.024304748;0.07096093;-0.0126710115;-0.054566685
-0.094784416;0.042087056;0.22364518;0.03036201;0.026913418;-0.3748496;-0.059408374;0.064527184;-0.127366;-0.42479149;-0.021824928;-0.26902702;0.3710744;-0.1848403;-0.39948618;-1.5714655;-0.67350316;0.04843046;-0.11196853;0.0676245;-0.17806269;0.040850982;0.5529193;-0.65366435;0.051483836;-0.30247623;-0.009353394;0.008750258;0.031499546;0.13204741;-0.58111703;-0.9707919;0.01720553;-0.043448266;0.07503158;0.048655003;-0.11110382;-0.3262754;-0.027096622;-0.07426517;-0.019220002;-0.107081085;-0.16284299;0.058188908;-0.25625125;0.0744931;-0.2505753;-0.08289364;0.06378184;0.4866084;0.3222274;0.6894819;0.039575785;0.04564779;-0.18637365;-0.056997523;-0.4245438;-0.041838977;0.70713776;0.05109722;0.05721451;-0.3747478;0.05516091;0.38526836;-0.20187865;-0.04311335;-0.9976039;-0.04162048;0.018319331;-0.01704597;0.14070338;-0.059031498;0.07522066;0.08530225;-0.15450831;1.0298951;0.07419311;0.11335543;-0.00024635947;-0.10161563;0.07388041;0.038732976;-0.10655618;0.100510895;-0.019816423;-0.020530218;0.2905066;0.2510737;-0.48942673;-0.078542106;0.030428702;0.3825454;-0.09910001;-0.09414814;-1.2838583;0.05864536;0.02252705;0.14250298;0.32131022;0.05929255;0.027266672;-0.013412434;0.26013994;-0.38564512;-0.029541021;-0.13547003;-0.076749966;0.13117301;0.08973833;0.026015025;0.0253763;-0.08632864;-0.044956084;0.04410109;0.062923886;0.23633006;0.006311867;-0.02693962;-0.009171182;-0.0441202;-0.0026048839;-0.056722697;-0.0155100245;-0.12564193;0.72404706;0.028057601;-0.012280723;-2.35402;-0.006040912;-0.72434837;-0.7856765;-0.051269516;0.19246261;-0.19314662;-0.08549458;0.12051214;0.47993988;-0.558922;-0.12585378;-0.31027594;0.0016149847;-0.07128173;-0.33958405;-0.35322607;-0.8879623;-0.02890055;-0.0683289;-0.034603946;-0.21801877;-0.036472242;-0.21347441;-0.06675909;0.02769247;0.04413562;-0.01903017;-0.06204476;0.0406204;-0.120225415;-0.042020477;0.82512075;-0.02369401;-0.05056459;1.2933441;0.050466407;0.07837696;0.044187028;0.62721914;-0.050204273;0.015498006;0.026208363;0.011650478;0.041597363;-0.2404177;0.023432206;-0.009905463;0.04360695;0.043201443;-0.3154025;-0.036050558;0.06843178;0.08517573;0.052112658;-0.42400062;0.030415256;-0.029630028;-0.13122755;-0.00031303274;0.5065307;-0.13352539;0.0023258256;0.009578905;-0.020775296;-0.106423244;0.06532994;-0.07005993;0.046092078;-0.118572645;0.010615833;-0.09117942;0.020022796;-0.5336663;0.046950787;-0.029210245;-0.31720027;0.20021975;-0.06863372;0.031372894;0.28355974;-0.03157218;-0.032523204;0.04527243;-0.078951314;-0.15061846;0.309719;-0.6375107;-0.02510052;-0.108710036;-0.00793434;-0.11123944;-0.117374495;0.04427647;-0.023231851;-0.7524702;-1.3520322;-0.09021987;0.0077260425;0.015558715;0.11328726;-1.004422;-0.024993079;-0.016489852;-0.0030751682;-0.061595242;-0.035533063;-0.82296634;-0.013051594;-0.06649406;-0.20236419;-0.14060532;0.01919417;-0.062966555;0.15417184;-0.17271216;0.13860378;-0.05861477;0.014163907;-0.75232244;0.03329652;-0.1355725;-0.61841965;-0.02457109;-0.06517451;-0.054188237;0.28491107;-0.065058105;-0.067292765;-0.0002963464;0.0986044;-0.24052654;-1.5241458;0.018396538;-0.5555069;-0.055702105;-0.051881105;-0.07416974;-0.91601896;0.038048252;-0.121643625;-1.1857958;0.111241646;-0.0039794343;0.05020948;-0.02020134;-0.35587248;0.18868455;-0.013420279;-1.2216609;-0.0067709684;-0.12791146;-0.082026534;-0.07178996;0.0015709552;-0.112957396;0.1180344;-0.042049278;-0.03020911;-0.20481074;0.29577497;-0.03190085;1.2368819;0.26198316;-0.61213166;-0.2710475;-0.40796375;-0.12121197;0.28459516;-0.0062045166;-0.074568145;-0.052860647;0.042832516;0.09912389;-0.32958445;-0.05470114;-0.5572758;-0.056250215;0.16960093;-0.03776185;-1.2384442;0.056208815;-0.008441562;-0.07005631;0.4298371;-0.0476434;-0.5381202;-0.033548553;0.030357093;-0.048976474;-0.07138973;-0.066418745;-0.034974083;0.06399305;-0.40509674;0.74400264;-0.005925284;-0.2740718;0.03326534;-0.042900205;-0.14990962;0.07976817;0.10427956;-0.018435182;-0.030627785;0.036166854;-0.07943654;-0.0003791811;0.050659034;-0.3267057;0.047451586;0.031690676;-0.13918148;-0.066719055;0.06712312;0.061510604;1.1458964;0.027960684;-0.059238184;0.027389282;0.17348646;-0.16231114;-0.007287344;-1.0399584;-1.2914542;-0.02921962;-0.011851652;-0.011175472;0.048391566;-0.92619044;-0.7793213;-0.2011829;0.10927702;-0.041231927;-0.10427904;-0.027257299;0.113479786;-0.095810816;0.03803826;-0.10112358;-0.34476802;0.060051564;-0.02166405;-0.06573816;-0.8028748;-0.5937355;0.005630272;0.012791353;-0.047475856;-0.05042354;-0.010761526;-0.06906572;0.4252689;-0.0329049;0.052218027;-0.063217185;0.055645213;0.059310995;0.08405567;0.025829295;0.031969022;-0.144515;-0.23259248;-0.068721466;0.2644104;0.037816253;0.009456373;0.054687016;-0.11585052;-0.026710268;-0.039809484;-0.4617766;0.085516974;-0.039862107;-0.050995376;-0.03979229;0.08189882;-0.06459003;-0.003086816;-0.9435894;-0.24085021;-0.012715976;-0.15193269;-0.05265383;-0.8302886;-0.012402324;-0.043967452;0.071284056;-0.07219886;0.09005513;-0.69029146;0.0054956605;-0.031884808;-0.006915786;0.45220843;-0.03595036;-0.042417414;-0.31503278;-0.061094616;-0.82075495;-0.21278954;-1.2584016;-0.03123427;-0.47498742;-0.31987268;-0.002222275;0.009661149;0.048332993;-0.037761264;-0.7003492;0.044341043;0.025310323;0.0034383107;-0.06956402;-0.07217348;0.85369575;-0.07637013;0.01725761;-0.9799518;-0.2790704;-0.007328053;-0.2697823;-0.00045647242;-0.3298022;-0.5261129;-0.01796621;-0.20566669;0.0030700865;-0.004575379;-0.07782792;0.015174731;0.034332998;0.012006952;-0.8926504;0.06608594;0.09922354;-0.092200115;0.03293787;-0.2921479;-0.31587258;-0.050736673;-0.075874455;0.026976466;-0.025953474;-1.2192099;-0.32298216;0.0020498303;0.096043356;0.06282497;0.05637434;-0.08411731;0.03324344;-0.014129047;0.018673245;0.168346;-0.3395994;0.21480745;0.17421283;0.043527585;0.14388497;0.10319541;-0.25360972;-0.06611847;-0.1975776;-0.032260623;0.025798569;-0.05958758;-0.42077675;-0.05479115;0.25084913;-0.06414176;0.08253552;-0.71483755;-0.0108890515;-0.08450521;-1.0319049;-1.4342784;0.02031435;-0.049330734;-0.113638096;0.070491195;-0.052879225;0.012985451;-0.09864791;-0.042866323;0.07344909;-0.060351573;-0.07356376;-0.029196102;-1.3110483;-0.0063658417;-0.10534977;0.02521049;0.12247;-0.4420557;0.032283425;0.10684179;0.11213601;0.16886993;-0.05247571;-0.00035991316;-0.08112166;0.007959622;0.6899435;0.06675781;0.5365028;0.122817256;-0.08056323;-0.4174063;0.050914712;-0.5772151;-0.048059173;0.046843465;0.05876722;0.016052598;0.7509159;0.028208485;-0.15679625;-0.050431754;-0.0021093474;0.01323947;-0.119619794;-0.2855312;-0.023667032;0.028044313;0.0071917167;-0.40432048;-0.16941528;-0.056590553;-0.027203696;-0.034564998;-0.020999731;0.10631364;-0.034903068;0.013196751;0.17937903;-0.069676936;-0.071692176;0.001150117;-0.04813341;0.0050080586;-0.039686978;0.027184954;-0.14856811;-0.055848993;-0.34384555;0.015495183;-0.11235272;-0.08192174
-0.31182185;-0.023880405;0.106997564;0.09304405;0.08046914;0.02720746;0.052747615;-0.0027545113;0.029507363;-0.14373721;-0.05747045;-0.1333478;-0.39190415;0.060018178;-0.087080926;-1.57815;-0.04152723;0.04263611;-0.003351244;-0.06693226;0.38111302;0.027302383;-0.1484906;-0.11145841;0.010443107;-0.38357496;0.041271728;0.008875231;-0.07021804;-0.11671243;-0.06351133;-0.28994536;-0.03221474;0.06475265;0.016053297;-0.10534069;-1.1440679;0.06219129;0.0015558986;-0.13822673;-0.036810327;0.035060607;0.39769733;0.041718427;0.9315033;-0.07851413;0.04393691;-0.09070275;0.07954198;0.3949184;-0.13768525;-0.60210544;0.090110675;0.029387249;0.4434836;-0.17628694;-0.94042665;-0.059562728;1.6818123;-0.054872256;-0.025607754;-0.21266134;-0.010689149;1.0699879;-0.14858878;0.04259875;-0.5361495;0.013423899;0.061250575;-0.042372443;0.07264222;-0.052218158;0.07364021;-0.017134493;-0.10484121;0.02306667;-0.044338528;0.6336441;0.014741139;-0.095482334;-0.028082382;-0.04143161;0.0453218;-0.0015101588;-0.034378067;0.009261382;-0.21161185;0.079486236;-0.25747085;-0.042946275;0.10026297;0.60760885;0.023933763;-0.022194337;0.4676848;0.08567382;0.017864814;-0.34683195;-0.09923363;-0.010969532;-0.048010007;0.017240316;0.5919081;-0.4502884;0.02497121;-0.08326221;-0.03260186;0.21896517;-0.010882047;0.10619318;-0.038437527;0.01703444;-0.02596039;-0.045715455;0.050111827;0.13659912;0.022148708;-0.016102929;0.0729695;0.010073364;-0.015254985;-0.014061805;0.016471375;-0.028004693;0.45731866;-0.020857465;-0.048497003;-0.56914335;-0.008135794;-0.8485821;-0.7062673;-0.09173425;0.038785458;-0.40162224;-0.05617992;0.30672124;1.1581688;-0.9509467;-0.21766439;-0.14111005;0.030840758;-0.029437823;-0.11790623;-0.38179854;-0.9449015;0.034716483;-0.03203179;-0.04301335;-0.17339142;-0.037993915;-0.113297366;-0.046195842;0.07671452;-0.09783198;-0.003404699;0.013404996;-0.09007481;-0.47243172;-0.0293874;0.13523775;0.029345857;0.0991811;0.4853331;0.032554362;0.5541283;-0.21223126;0.6330517;0.038625024;0.026260547;0.06787104;-0.028647076;1.9538125e-05;-0.13619569;0.046917517;0.064099364;-0.045380406;-0.06753283;-0.46296674;-0.021103991;-0.014288801;0.00073230016;0.009110624;-0.1904021;0.04803009;-0.06810464;0.8784848;-0.102444634;-0.2986837;-0.22072151;0.050186355;-0.043733213;-0.008703858;-0.038810104;-0.0139856;0.017207142;0.009092399;-0.10761856;-0.047668695;-0.13394453;0.06602585;-0.12850702;-0.045936227;-0.0655483;-0.048817057;-1.3503036;-0.02686535;0.010152933;-0.46812195;-0.045090076;-0.021875829;0.07970068;-0.017427871;0.014467651;-0.0525405;-0.7328187;-0.079760745;-0.013376885;-0.07931656;-0.12050888;-0.012556343;-0.01886156;0.050617713;-1.1716658;-0.8600944;-0.69034827;0.09648022;-0.06799138;0.3173821;0.026976826;-0.030602757;-0.02584453;-0.04545347;0.06255307;0.06885301;-1.2323632;-0.07234157;0.09284969;-0.28998515;-0.47019356;-0.03142411;0.044619594;-0.2847394;-0.0779061;0.114415094;-0.066933066;0.037817236;-0.4597994;0.052749135;0.020466214;-0.43770477;-0.05206132;0.0013025285;-0.06128392;-0.7071536;-0.027797401;0.06727068;0.033015955;0.102048345;-0.08129172;0.18946876;0.57485074;-0.367715;-0.043897927;0.008855345;-0.031241683;-1.2412782;-0.1565274;0.56504697;-0.043521393;-0.07417035;0.020271081;0.030976014;-0.08834008;0.23062533;0.27213132;-0.06771408;-1.1199793;0.11587022;-0.68821824;-0.052383397;-0.10833574;0.07069232;0.0192373;0.018699342;-0.057838272;-0.10299834;0.24227512;0.35298494;0.003799323;2.8363843;-0.28965256;-0.5610731;0.9554039;0.014320383;-0.11518775;0.0066092955;-0.006290549;0.07792522;0.0026319127;0.05452542;0.4500974;-0.13175592;-0.013967441;-0.43752435;-0.0015537776;-0.14850655;0.0065454682;-1.1512402;0.052163005;0.06077737;-0.080066934;-0.48120677;-0.03379379;-0.35217524;0.027303291;-0.045940727;-0.021861618;0.030056471;-0.04187446;0.010617364;-0.024410807;-0.14889908;-0.96039003;0.010993627;-0.17194912;0.33769667;0.0012027513;-0.072843075;-0.04883361;-0.21270852;0.038387664;0.054681603;0.02300864;0.040732235;0.021206364;0.37810495;-0.18190785;-0.043379087;0.02327331;-0.15277916;0.061433297;-0.04234045;-0.069661394;0.9694008;0.09852199;0.053362478;-0.0012586762;0.2942289;-0.11702981;0.036428206;-1.6670446;-2.5780256;-0.052474078;-0.054231446;-0.10900567;-0.068467334;0.5318763;-0.12426024;-0.47194567;0.1497722;-0.029650025;0.053378362;1.2037854;-0.037545815;0.027197864;0.107761376;-0.07455896;-0.22678608;-0.009584576;-0.07452624;-0.070373476;-0.5873783;0.36017394;-0.023872333;-0.0013819961;0.031660028;-0.07991117;-0.010219354;0.025021227;1.742159;0.016891474;0.0037831203;-0.062141262;-0.0023196503;0.060706966;0.09058523;-0.18748644;-0.033437632;0.13337065;-0.186841;0.072633326;-1.3812343;0.051321533;-0.01659348;0.015228416;-0.09136638;0.012380797;-0.037769806;-0.12653309;-0.0023694842;0.0784776;0.006827108;-0.04744331;-0.064379424;-0.027663296;-0.059176397;-0.7979613;-0.16462132;-0.024607306;0.3550495;-0.21772222;-0.51908803;-0.027998317;0.008405583;0.014397626;0.05021509;0.029410549;0.03775109;0.041262656;0.055769984;8.1317296e-05;0.34226945;0.05454989;-0.05886697;-0.42202705;-0.05461631;-0.69616663;0.12178589;-0.9852024;0.07280569;-0.11033363;-0.27323493;-0.012502716;-0.04206974;0.08333797;0.06812969;-0.40925825;-0.04123175;0.04174559;-0.07506151;-0.04880546;0.0061568185;0.074589305;-0.0994504;0.045333184;-0.99205184;-0.029269058;-0.10883174;-0.07917872;0.0024606176;-0.20793475;-1.2262381;-0.022401929;-0.32768196;-0.08418645;-0.058740366;-0.024346162;0.08243622;0.034980718;-0.00017983677;0.07488777;-0.041708328;0.048808128;-0.008885453;-0.050747152;-0.2560657;-0.24326997;0.052515853;0.03554952;-0.10375145;-0.050633553;-0.5241411;-0.24601008;0.056443457;-0.15167184;0.22379406;0.107614934;-0.07309341;-0.028713364;0.010975982;-0.05871721;0.06488564;-0.6431695;0.06555699;-0.41183987;0.0054065245;0.046004258;0.015529382;-0.1619809;-0.08225409;-0.111107126;-0.06783307;0.078759305;0.046796016;-0.542672;-0.028718326;0.19015466;0.014697346;0.06269977;0.41933316;-0.008175913;0.49262276;-0.7584821;-2.3758774;0.033567388;0.024818635;0.1181973;0.085338764;0.9228664;-0.021143004;-0.058024313;-0.04497945;-0.06896026;-0.06149634;-0.004957423;-0.06648418;-0.7970174;-0.051944688;-0.00535947;0.05258375;-0.10222248;-0.21034795;0.0064575993;0.22408226;-0.20581345;-0.7412765;-0.062952496;0.036037028;0.0083758915;0.0129454555;1.2845212;-0.029364556;-1.4066545;0.059011176;-0.06077741;-0.24680077;0.02288986;-0.7297347;-0.17367835;-0.04491726;0.0027549707;0.023027038;1.1942168;-0.079000734;-0.018557848;-0.5482598;0.052162062;-0.033940118;-0.18003927;-0.083957806;-0.01765229;-0.022832826;-0.010341443;0.08032099;-0.2099691;0.05472529;0.06267295;-0.045710694;0.030273855;0.026991691;0.001079095;-0.2089706;0.013082652;0.07423928;-0.10416989;-0.0683218;-0.0534244;0.05377907;0.024001814;-0.05102422;-0.0073313024;-0.05936708;-0.19920403;-0.0017976192;-0.073318444;-0.016342139
-0.39225864;0.030072644;-0.15617967;0.10795454;0.0508269;0.08719112;-0.07799198;-0.2964369;-0.076399036;-0.33297285;0.03167606;0.036784466;0.75087786;0.041279677;0.096928164;-1.0474514;-0.575683;-0.06712934;0.613425;0.0062511186;-0.50392765;-0.011810808;0.04961095;-0.51028806;-0.03478026;0.17924087;0.084573366;0.07733523;-0.21395092;-0.3065178;-0.5693981;0.60756916;0.20457295;-0.31825873;0.038479645;-0.7695928;1.1815543;-0.31429523;0.04899799;-0.058019437;0.09712436;-0.114432834;-0.10146984;-0.22480313;0.20487997;-0.025228014;0.28075013;-0.013923094;-0.22146378;-0.0014529504;-0.8553168;-0.42976612;0.012139851;-0.0627842;-0.39276502;-0.12971252;-0.49781257;-0.01747008;-0.38485318;-0.35790935;0.039849494;-0.53495896;-0.051304914;0.86988807;-0.02035869;-0.037335258;-2.4748485;-0.06122555;0.13895069;-0.018543886;-0.06594518;-0.18291244;0.022658885;-0.35311761;-0.31284308;-0.53142023;-0.24227925;-0.3195897;-0.19334489;-0.22408864;0.016689109;-0.020892315;-0.103118256;-0.27869973;-0.047080748;0.13650987;1.3310869;0.03385139;-0.4918656;0.106475756;0.10881345;0.2345464;-0.093289964;0.18783803;0.87519836;-0.009072318;0.0033649516;-0.059968676;0.08285724;0.03189;-0.3002519;0.047519818;0.5807239;1.0552007;-0.015112152;0.10044154;0.013254526;-0.082447685;0.14054152;0.06609707;0.01436961;-0.09494456;-0.0067133517;0.017382607;-0.0057545723;-0.1616169;0.016300164;-0.23480587;-0.038213212;-0.12380086;0.03607022;-0.07042155;0.009360885;-0.29140443;0.13685004;0.19797349;0.005581624;-1.3391937;0.052757878;-0.50598156;-0.5458858;-0.01816321;-0.012921122;-0.3403516;0.08663997;0.20352544;-0.0415662;-2.5444396;-0.2047085;-0.13854618;0.056570373;-0.11121348;-0.10395697;-0.43661132;-1.1884679;0.018689705;-0.0720249;-0.03891851;-0.006360117;-0.18911079;0.6833629;-0.12219864;0.017463151;-0.91683036;-0.03450007;-0.19303586;0.03078764;-0.17529054;0.02289172;0.32341295;0.07392572;-0.07224928;0.095667005;-0.046334185;0.09530196;-0.2270031;-0.30730054;0.056740098;0.07244076;-0.30524343;0.060548224;0.053888034;0.1651258;0.041329;-0.011560581;0.06062427;-0.12983315;-0.56123215;0.0316273;-0.34144327;-0.022050679;-0.014138838;0.39079568;-0.04772894;0.092851505;-0.13495462;0.00011503198;-0.6395676;-0.14324817;-0.06080172;-0.2574404;-0.062023163;0.3476885;0.12637344;-0.09088326;-0.10949221;0.084503435;0.25069755;0.06973366;-0.10803056;-0.6711451;-0.04806275;-0.13668153;-0.91131866;-0.13696888;0.06320309;-0.011815363;-0.19018757;0.062458374;-0.02898852;0.12738743;-0.11537663;-0.17772856;-0.07672082;-0.12696843;-0.018374864;-0.042834923;-0.12515788;-0.26012874;-0.17010504;0.10345829;-0.17805418;0.55235064;0.5791179;-0.3449017;0.118497364;-0.053418655;-0.5844342;0.13466759;0.14031202;-0.36144635;-0.035334636;-0.018747758;-0.077003285;-0.60849595;-0.18527089;0.10279661;-0.26490113;-0.22080408;0.017657239;-0.24956103;0.44796318;-0.18504292;0.10668218;0.017885515;0.06419798;-0.80458325;0.009918888;0.069613636;-1.2811198;-0.04533863;-0.10890194;0.02391753;-1.3966298;0.05555998;-0.23566946;-0.068998076;0.3085718;0.08139602;-1.2664207;0.2820624;1.3425081;-0.32686818;0.07737435;-0.048670042;-0.34364682;-0.33080158;0.61422986;1.0122916;-0.42095158;0.082347855;-0.05146509;-0.074301034;-1.066576;-0.104973644;0.08553006;-1.7346101;0.3363965;-0.1909032;-0.14266211;-0.07334966;0.008880936;0.029790053;0.12256529;-0.03044682;0.122588746;0.30663258;0.34029272;0.027947944;0.13892573;-0.1691014;-1.2898961;-0.16964921;-0.19018063;-0.16411069;0.011229143;0.19945014;-0.076555245;-0.35779285;0.024747554;0.37488276;0.3116522;-0.12010995;0.48905346;0.032783773;-0.40512443;-0.0014921423;-0.67105174;-0.0082096085;0.03760644;0.04333282;0.20064272;-0.2534146;-0.39228165;0.012479706;0.03064731;0.015671043;0.068572715;0.13232735;0.13367918;-0.012795523;-0.31276372;-1.0555251;0.05149398;-0.42878404;0.4555697;-0.05916838;0.08898003;-0.32555556;0.14272186;0.06833733;-0.10864858;0.08296192;0.019993536;-0.043679774;-0.26425493;-0.046422277;0.013409899;-0.0044417703;0.24616554;-0.21764019;-0.053233;0.3883649;-1.1184491;0.06107268;-0.18461071;-0.0616774;-0.9911511;-0.07717623;0.5775077;-1.0597256;0.027826266;-0.07788119;-0.015411494;-0.40933853;-0.019495685;-0.043356948;-1.7203894;-0.90511996;0.0075923298;0.042478062;-0.07307088;-1.8676507;0.061818123;0.003252008;0.18090242;-0.18989603;-0.16682269;0.009207222;-0.18301432;0.051065378;-1.6011184;-0.42122218;0.58816725;-0.06375476;0.10209084;-0.013256827;-0.023797872;-0.032577403;-1.7333683;0.044288415;0.17576125;-0.0778603;0.17083997;0.07587065;0.16123503;0.49534994;-0.048265472;0.024882058;-0.18348879;0.009589399;0.051980093;-0.096233115;0.024185391;-0.017104806;-0.13493739;-0.30993217;0.054546226;-0.6356657;0.048945893;-0.044374276;-0.15976612;-0.03653595;-0.2852843;-0.014901181;-0.16374429;-1.288967;-0.10137342;-0.22004737;1.6200497;0.050180264;-1.0574386;0.14065278;-0.06938854;-0.0036603375;-0.30617088;-0.019144379;-0.15887073;-0.00015458411;0.011243514;-0.27416882;0.23469388;-0.028183972;0.013182564;1.5402125;-0.17500922;0.7727881;-0.45416483;0.78991866;-0.0040245787;-0.46673334;-0.2018237;0.23921661;0.19088827;-0.026217896;-0.20235269;1.0373908;-0.2710536;0.049101856;0.0200695;-0.052398063;-0.42016584;-0.13547575;0.004118152;0.13728188;0.26061285;-0.37172568;0.026201129;-0.108415015;0.16684349;-0.21051538;-0.21081208;-0.004464563;-0.16752383;0.17364955;0.117593564;0.06984892;0.065976165;0.0062602586;-0.4037906;-0.34157243;0.11415601;-0.020236747;0.03401379;0.08238181;0.044282902;-0.11889285;-0.058562804;0.11549384;0.041718755;-0.20816442;0.62171006;-0.1274587;0.17418773;-0.31887013;-0.14724542;0.23463601;-0.11035496;0.07508231;0.05484287;0.11704294;0.03772819;-0.2661663;-0.58560044;0.32384664;-0.04642641;-0.26145673;-0.21318285;-0.4638872;-0.17672937;-0.4434019;-0.24197643;-0.28859696;-0.08167064;-0.26293972;0.065814264;0.5003781;-0.030551322;0.02887219;-1.2970877;0.01386995;0.03724794;-0.17440203;-0.78065675;-0.005158242;0.015443772;-0.3558322;0.12670526;-1.4607602;-0.06347495;-0.08435679;-0.056747563;0.072478615;0.052990947;-0.13628672;-0.16729292;-0.4467719;0.003187352;-0.15023704;-0.066161014;-1.2017035;0.0035099392;0.08159597;-0.82125336;-0.4726408;0.29048842;0.02113883;-0.37384042;0.08152098;0.014035321;-0.13629913;-0.12069299;-0.090576954;0.16073428;0.1075768;-0.16433078;0.047820758;-0.095701545;-0.023527361;0.13849434;-0.037504613;-0.27052665;0.82196176;-0.018848041;-0.19029804;0.39209166;-0.06820636;0.024720503;0.32451183;0.25686586;-0.028510649;-0.015599136;-0.08701324;-0.55090386;-0.25198352;-0.008243542;0.019600669;0.03621011;0.0030404723;-0.2851302;0.12821096;-0.13575895;0.113410205;0.08173084;-0.08214071;0.092520215;-0.08570433;0.046372514;0.050789893;0.060146566;0.15809023;0.003679673;-0.55500895;0.004628987;-0.096798554;-0.092311114
0.7510003;-0.014031303;-0.03531529;0.06289318;0.02857416;-0.25932845;-0.0243478;-0.08854619;-0.023438845;0.25132716;0.037641034;-0.6011392;1.4154191;0.16847286;-0.07309696;1.6053805;0.08705587;-0.017968206;-0.10631768;-0.06247656;0.25487188;0.03196493;0.02152833;1.2988875;0.016185759;-0.24002035;-0.05683502;-0.06660199;0.08564596;0.18180066;-1.7530694;1.4952908;0.054352395;-0.059804983;0.07748957;-0.22375578;0.51825637;-0.59750366;-0.05106906;0.06500015;0.03481852;0.0010056096;1.1235902;-0.042725127;-0.39851147;-0.080683686;-0.4246645;-0.007866447;0.15235221;-0.35616872;-0.23224156;0.8946248;-0.025497062;0.06957698;-0.19343777;0.18365759;1.1257234;0.026634783;1.0492854;0.0039829668;0.02497448;-0.50472003;-0.5321938;-0.774641;0.04402634;0.050859973;-0.083153516;0.0066627283;0.07206541;0.017243631;-0.04353577;-0.04751114;-0.024330264;0.21630894;-1.3811669;-1.5755843;0.10565021;-0.50507283;-0.032572567;-0.23576471;0.025958253;0.011673612;-0.091194086;0.2451921;1.4235202;0.08148276;0.97830737;-0.022168837;-0.24009876;-0.007343112;0.017345127;-0.84732604;-0.036097728;-0.020517029;0.46547136;0.085110635;0.015405928;0.1594906;0.12679859;-0.041607592;0.0077622673;0.08932069;0.290293;0.018818816;-0.009006205;0.10632869;0.07311586;0.09066927;0.065087005;0.07310844;0.018785747;-0.08972606;0.057362527;0.056749042;-0.0041983835;0.23256314;-0.03464041;-0.09450957;-0.0346489;-0.04649548;0.089975566;-0.038768016;-0.09690892;-0.021695565;0.11324568;0.12761338;0.05715325;-0.38679746;-0.0149097545;0.46700907;-0.38665015;-0.06355976;0.17748328;-0.38291675;-0.02867178;0.1790017;-1.080936;-0.12179438;0.07746698;-0.42226577;0.038423765;0.0502874;-2.0760655;-0.41711798;-0.1012409;0.01561334;-0.0023877814;-0.11374809;-0.21084514;-0.043332882;0.012782167;0.056999683;0.093710266;0.47985137;0.044643085;-0.07388228;0.05936849;-1.7249348;0.011020087;1.0353444;-0.07188582;0.24228683;-0.09789984;-0.081060946;0.28939044;0.43948546;-0.7699643;0.053270146;0.02987743;0.07663678;0.07516781;-0.016009225;-0.2608852;0.02628163;0.079416975;-0.06922407;-0.035999905;-0.091451384;0.062008113;-0.0146169495;-0.22136885;0.053352196;-0.30611104;0.05147008;-0.015863955;-1.6090516;0.07988108;0.6130554;0.42824575;-0.13790536;0.008390695;-0.19878046;0.043163717;0.05377339;0.01141533;-0.051358394;0.019215101;-0.2677618;-0.09739012;-0.063257694;0.5539822;0.053128127;0.039372656;0.21124555;-0.826099;-0.006546344;-0.0840601;0.4374309;-0.05793379;0.0041436423;0.055806365;-0.0900683;-0.0065920115;-0.46469602;-0.52918375;0.021335116;0.11819523;0.08018874;-0.012375213;-0.010469722;0.043845247;-0.08063;0.027044592;0.565632;0.6227368;0.074077584;-0.0040538516;0.058655113;-0.17408723;-0.24407554;-0.005783284;-0.0588981;-0.005927011;-0.09122073;1.931338;0.031777;-0.18513234;0.05326771;-0.5056486;-0.008392318;0.011922282;1.2763673;-0.03315491;-0.03819136;0.011113722;-0.059560504;-0.91128165;-0.046500396;-0.0676611;-0.17524779;0.0070837867;-0.016079962;0.048254766;-0.09289936;-0.07736956;-0.03061709;0.0329333;0.33446518;0.29107848;0.10707252;-0.27919322;-0.38382277;0.06941399;0.0021871063;0.033867408;0.37408608;0.532726;-0.7899439;-0.6033599;0.19414969;0.11385505;-0.010353691;-0.06666837;0.15788247;0.061248343;0.33746177;-0.8514104;0.20173156;-0.17055294;0.18949828;-0.14289886;-0.056110848;-0.092474185;0.11228307;0.058186978;0.24383463;-1.1138041;0.20285507;0.04765363;0.3420282;0.48625237;0.110857025;0.5647085;-0.020920156;-0.49196354;-0.03159486;-0.020634461;0.025189133;0.103868276;0.011548056;-0.9191974;0.025991205;-0.042831413;0.49524173;-0.0024768426;0.21434902;0.088788226;0.06468621;-0.009707366;0.043862127;0.013283214;-0.5144141;0.0117012225;0.122892566;-0.033249296;-0.042983573;-0.05818322;-0.02854193;-0.014419647;0.05097212;0.02678376;-0.19898766;-1.3947923;0.06582606;0.051357135;0.9195116;0.016231865;-0.15110399;-0.04349823;-1.0682217;-0.017848197;-0.029914284;-0.03952031;-0.21972895;0.03354854;0.040189903;-0.3919724;0.06990148;-0.017654564;-0.032910973;-0.039771028;0.02125651;-0.0145889865;-0.010316363;-0.11620519;0.042983487;0.041158453;-0.7572575;-0.16135287;0.3231679;0.38035393;-0.2542018;-0.012899092;-0.07713756;-0.074437484;-0.046843275;-0.9304279;-1.6808589;0.12098962;0.010539771;-0.092325784;-0.08560363;-1.1785383;-0.044839747;0.07222207;-0.0006465452;-0.097780116;-0.40077844;-0.024913251;0.033765122;-0.036737308;-0.69453686;-2.7009254;0.4896724;-0.018323878;0.029199317;-0.06889066;-0.047421444;-0.009566194;0.08174658;-0.063274525;-0.009925553;0.02971581;0.09704954;-0.032914203;-0.02020706;0.22742407;0.0021618092;0.5906772;-0.38874376;0.0532719;1.063911;0.03806231;-0.07314989;-0.05274773;-0.13295396;-0.046997335;0.028780567;0.7334808;0.041279417;-0.09245122;0.0114058675;-0.05949833;0.08920158;-0.026529277;-0.11279825;-0.08814099;-0.51052356;0.01579681;1.7045417;0.14114861;-0.72847855;0.015951736;0.06773924;-0.061988797;-0.022616882;0.054092243;-0.5680375;0.027644303;-0.04448465;-0.0483204;1.5028297;-0.027010858;0.07509619;-0.6111619;-0.06553115;0.49796385;-0.34153748;-1.7877772;0.011489815;-0.5739153;-0.20724861;-0.010425631;0.009178373;0.018729962;-0.07545589;0.3164719;-0.0364183;0.007411727;-0.0029168886;0.016871093;0.17466216;-0.38038954;0.007768285;-0.12474716;-0.6491648;-0.28521302;0.025133675;-0.32191044;-0.016567037;-0.08243668;2.0520778;-0.08507124;0.3017922;-0.031497013;-0.027600855;0.083693124;0.020342365;-0.01636619;0.09264868;-1.8768393;0.056398332;0.02248589;-0.04719878;0.0016314473;-0.47343636;-0.53948146;-0.019693375;-0.048365407;0.16113888;-0.08310281;0.269067;-0.4031638;-0.34710363;0.26242208;-0.21131891;0.11666432;-0.036515772;0.09484935;0.073629186;0.01837287;0.2644688;-0.33093965;0.348143;0.18340564;-0.09958736;0.2246018;0.24292146;0.544715;-0.04514436;-0.43808645;0.26036128;0.043936606;-0.06306051;0.54249173;0.03850761;-0.44066364;0.061670635;-0.05044241;0.7979941;-0.07430121;0.9978578;-0.14733131;-0.33708864;0.038642436;-0.07756697;0.9657827;0.0013152296;-0.9970683;0.052296463;-0.0029788485;0.047899388;0.005675208;-0.018325841;0.013664734;-0.074494205;0.1426674;0.024981547;-0.035408538;0.038332738;0.366039;-0.5656478;0.018865792;-0.6366916;0.22639462;-0.28196374;0.030076515;0.01943781;0.0112394;0.015905606;-0.5839585;-0.0686992;-0.50185865;0.01858679;-0.00065204076;0.34293318;-0.022544265;-0.11196491;0.09523598;-0.13271087;-0.00774989;0.08147826;0.5637844;-0.037705265;-0.03294871;0.09245656;0.07230859;-0.03950372;-0.6207448;-0.14840037;-0.06469231;0.01736213;-0.00019215046;1.1267741;0.031170491;-0.0067048995;0.010784142;0.055684116;0.030696765;0.08738806;-0.051244956;-0.08231043;-1.1888635;0.07261297;-0.054176845;-0.0325226;0.068754256;-0.029202867;0.15176018;0.019275526;-0.13322362;0.04793494;0.1621319;0.0575958;0.0585438;-0.088240944
0.16013834;0.025283696;0.100892864;0.1792955;0.12194802;-0.23939915;-0.11389122;-0.21518616;-0.23690094;-0.3517495;0.0027974905;-0.18958786;0.09974232;-0.011432021;-0.07982115;1.538985;1.6246277;-0.08180815;0.81429297;0.05049173;0.3163916;0.012808274;-0.8169815;0.8485887;-0.05492292;-0.99986726;0.034353584;0.18218248;-0.1635879;-0.27742034;0.08790201;-1.0287758;0.21362689;-0.1878107;0.015164619;-1.8070303;0.0065631396;1.2875179;0.007817453;-0.09752635;0.13742933;-0.16334935;-2.0315814;-0.15472215;0.55140835;-0.0003439286;0.036452524;-0.1699467;-0.0980496;-0.24936177;-0.6627331;0.15623495;-0.061449092;-0.03413417;-0.54046685;-0.1412039;0.64929456;0.007547762;1.2184535;-0.15967946;-0.0058331806;-0.016589625;0.039500464;2.3784754;0.10200012;0.018186081;-0.25482458;-0.06113361;0.14529474;0.10043439;-0.09088128;-0.17832185;0.08626868;-0.22003618;-0.7150379;-0.62615174;-0.24620825;1.3778522;-0.16242884;-0.15467426;0.007215278;0.08229007;-0.084793046;-0.2320049;0.15844736;0.20663804;0.012104375;-0.05926602;-0.06953846;0.080861;0.15064487;0.044112805;-0.19544618;0.081206515;-0.21302596;0.20501931;-0.18018629;-0.035207566;-0.33088633;-0.018066216;-0.28459305;0.06708423;-0.25153497;0.73522884;0.1656104;0.2608348;0.05692019;0.007952884;0.15120986;0.15062924;0.07548996;-0.20683569;-0.05878282;-0.10490112;0.13230877;0.31260827;0.07034245;-0.26654193;-0.10222129;-0.010043461;0.06725558;-0.011011987;-0.061420225;-0.15162514;-0.7415778;0.20895928;-0.0085019;-0.7485997;0.19225152;0.6536187;-0.5536163;-0.09635492;-0.21523613;-1.848802;0.03229959;1.0509872;0.21379973;-0.76977205;0.3360472;-0.26671728;-0.014206407;-0.07880297;0.057578456;-0.54694057;-0.26138547;-0.11273245;0.05670858;0.01673612;-0.120961554;-0.11807762;0.357137;-0.07363345;-0.05559247;-0.87407154;-0.022088762;-0.1691528;0.022065945;-0.8199586;-0.024544436;0.062327046;0.08913513;-0.47694105;-0.6123124;0.121971175;2.1984572;-0.20735487;-0.6080605;0.089690335;0.106404096;-0.25163355;0.061990034;0.0809516;-0.123081364;-0.14990374;0.034344256;0.11528954;-0.054679908;0.42438963;0.10712369;-0.2338867;-0.04177944;0.10721593;-0.07581507;-0.081787504;0.29038075;-0.049040414;-0.09536459;0.10688865;0.066477604;-0.052750856;-0.29574916;-0.22558096;0.22189105;0.03323676;-0.012686955;-0.12219706;0.30501443;0.17194945;-0.018729921;-0.09105372;0.2910776;0.024429796;-0.033452705;-1.7821107;-1.3349999;0.01499648;-0.0741206;-1.1476122;-0.038619395;-0.04287034;0.14053574;-0.09829603;-0.23900153;-0.020827666;0.66535896;0.088725336;-0.16390882;-0.011269339;-0.29093865;-0.22708493;0.2529009;-0.22155873;-0.9974793;0.4228497;-0.2385001;0.2816124;-0.03067754;-0.05153427;0.7993095;0.04179054;-0.13170412;-0.18887582;-0.030178512;-0.053790815;0.6536914;-0.19558957;0.19453171;-0.18605088;-0.4139744;0.04585039;-0.20458043;-0.46729302;-0.2007776;0.19743672;-0.12051505;0.102664486;1.3437772;0.08346303;0.10478118;0.7244419;-0.07751129;-0.003599438;0.028160384;1.2708911;0.09516209;-0.13713892;0.015945613;0.37606022;0.2181432;-0.3363062;1.0673178;2.8131697;-0.21392007;-0.035790555;-0.11803458;-0.36490884;-0.054773808;0.31654936;-0.12900968;-0.048456073;0.27392337;0.013918926;-0.1535461;-0.70699066;-0.110067435;0.19542824;-1.0501409;0.35270664;-0.5700042;-0.071913674;-0.14279293;0.101467855;-0.012751188;0.14186572;0.016438367;0.10786667;0.8011908;0.034707487;-0.121856004;2.0221345;0.41836247;-0.26194844;-1.4723866;0.13588879;-0.18579733;-0.023912165;0.21802238;-0.024426997;-0.17514405;-0.052474804;0.14911425;0.059530176;0.004317874;1.0502954;0.0058170278;-0.33483142;0.024938256;0.82688856;0.15252097;-0.051171888;0.05944128;0.10563016;-0.1920487;0.07627367;0.05263063;0.12226766;0.07181829;0.064226955;0.007985327;0.19449875;-0.12512815;0.86824286;-1.5514861;0.0072053284;-0.41516286;1.4111146;-0.01665082;0.09351243;-0.12586163;1.3911477;0.0060009626;-0.14242692;-0.023963513;-0.032853197;-0.080411345;0.68044233;-0.11463477;0.008271391;-0.113965556;0.15200098;-0.25701848;0.056709245;0.117115505;-1.0827107;0.15976071;-0.15856741;-0.063144885;-0.713474;-0.20843415;-0.0472562;-1.7435415;-1.8165206;-0.2129081;-0.020902632;-0.39219093;0.07431175;0.91160595;0.6750522;0.3269168;-0.08450959;-0.013760929;-0.13579181;-3.4136689;0.16702801;-0.08576748;0.16973884;-0.24925146;-0.18406671;0.08117572;-0.18034315;-0.05812931;0.9545167;-2.0412824;0.5443314;-0.13444278;0.018761786;-0.033796124;0.0011116879;-0.101130225;-1.1707191;-0.063299075;0.13130705;-0.07230543;0.27193934;0.06498551;0.17376927;0.44903505;-0.13718785;0.098477796;-0.23054877;0.047983322;-0.59774876;-0.03063858;0.07352686;0.17098483;-0.06297096;-0.23354794;0.14949635;-1.3268168;0.08543145;-0.09957939;-0.1845166;-0.11555603;-0.09550266;0.020910509;-0.20568363;-0.35001382;-0.2006886;-0.23706767;1.1026883;0.36732465;-0.46239436;-0.0075388937;-0.104837656;-0.027788276;-0.22386554;-0.02184985;0.656158;0.021674486;-0.019358577;-0.27621418;1.0078075;-0.120971136;0.10500746;1.436255;-0.2339317;2.3614948;-0.043772705;0.6986608;0.06432453;0.8897224;-0.3997653;0.23418674;0.24190135;0.07929715;-0.14589384;2.3459706;-0.2690407;0.04162705;0.055270374;-0.033914603;-0.0022933658;-1.132493;-0.0952219;0.15611345;-0.68804973;-0.1454287;0.06133262;-0.09120804;0.09815697;-0.22043274;0.5994763;0.07529745;0.10684001;0.24837367;0.14205925;0.016090855;-0.0019459438;0.016383914;-0.9172837;-0.43939394;0.14883175;0.022434585;-0.10399731;0.013871015;-0.2000154;-0.26397058;0.03928382;0.1040101;0.29546297;-0.21598634;0.5443717;-0.089271046;1.0801818;-0.24529414;-0.31597483;0.21699402;0.2734106;0.14960583;0.0696899;0.08809347;0.09743932;-1.0493829;-0.4998873;-0.058296558;0.036366154;-0.21680279;-0.23062661;-0.67949027;-0.125692;-1.1187719;-0.15252317;-0.22707443;-0.0043872595;0.14518341;0.052225426;1.5099154;-0.043962244;0.12160071;-0.24754499;0.034110274;-1.3433383;-2.6812077;0.9239875;-0.065661564;-0.0041341293;0.13844873;0.09584959;-1.2519071;-0.09066418;-0.23151058;0.12079463;0.102309436;-0.032584738;-0.026491478;-0.12435758;-0.3532232;-0.017890919;-0.31488314;-0.21764404;0.98247;-0.24919418;0.13381787;1.0123441;-0.27226397;0.5271188;-0.11765291;-0.17718981;-0.0065117446;0.023767907;0.11474947;-0.01714333;-0.8738567;0.2752104;0.04231557;0.018617144;0.117965356;-1.6322939;-0.095856905;0.19454892;0.14375506;-0.15019646;0.9379971;0.06005409;-0.13794084;-0.23382246;0.032695044;-0.068905905;-1.2427734;0.10016143;-0.14682873;0.06218553;-0.11655636;0.26875895;-0.2723019;-0.14771526;0.036168694;-0.07982026;0.06971425;-0.14949799;0.092042364;-0.05126444;-0.9007974;-0.040627033;-0.16181043;0.13214062;-0.1956679;0.030230656;-0.031942915;-0.0059789764;-0.0108801145;-0.056549866;-0.069650404;-0.007524134;-0.12933381;-0.042671837
-0.27208713;-0.0101947645;-0.036101438;0.015578311;-0.032383423;-0.12092217;-0.016366405;-0.0934471;0.03787755;0.15647586;-0.054906026;-0.5237524;-0.2613904;0.15928844;-0.063389406;-0.03615881;1.4528319;0.018123828;0.13466948;-0.056780975;-0.052197717;0.015940642;-0.020435767;-0.534924;-0.055103898;0.5822439;0.04104435;0.065839775;-0.05829909;0.051824037;-0.81643504;-0.5012832;-0.09198977;-0.05167516;0.074558124;-0.9339358;-1.0307101;1.0999833;0.056647256;-0.027236285;0.032218818;-0.032656386;0.31225783;0.011441896;0.10002295;-0.034656264;-0.17012237;-0.008491901;0.10998733;-0.15123789;-0.6320322;-0.43637112;0.035467774;-0.07703492;0.5645817;-0.040736753;-0.023768006;-0.02353226;1.3052135;0.07907641;-0.07834606;0.4894931;0.15288544;1.4096187;0.12706316;0.032910082;-0.39798963;0.03764283;-0.06004056;-0.075663194;-0.0016487528;-0.03415675;0.07512471;0.14667273;0.511982;0.2967745;0.10107423;0.77807;-0.026793636;-0.2658879;0.10058698;-0.08639754;-0.0020293493;0.12917684;-0.29674396;0.008414709;-0.33528295;-0.035513613;-0.05323822;-0.04471996;-0.018251162;0.24669224;-0.025653126;0.033689886;0.3713595;0.024939552;-0.0119035095;0.24607153;-0.16446334;-0.04940638;0.031610314;0.039173014;0.5255186;-0.5989368;0.028800948;-0.11761624;0.05953683;0.019666256;-0.018048337;0.031175872;-0.074628934;0.033660598;-0.033450305;-0.046371385;0.10722463;-0.32613572;-0.06341472;-0.06657691;0.056568176;0.039203003;-0.06266806;-0.017419351;-0.0059219357;0.00097640406;0.30676556;-0.03544467;-0.0751115;-0.8383632;-0.053203218;-0.27341515;0.0027852135;-0.09615912;-0.047340535;-1.4925747;0.0028796117;0.34959844;0.49953687;-0.50884956;0.1695159;-0.255926;0.048264183;-0.09075579;-0.32182172;-0.1548617;0.081382714;0.024184346;0.07177205;0.0006818078;-0.16999203;-0.100181125;-0.7244443;-0.0042351647;0.04581338;0.04813247;0.026310828;-0.01493461;-0.024303587;-0.39166865;0.027433498;0.19642477;-0.057443384;-0.03637688;-0.019603297;-0.035211213;0.58277595;-0.17451403;0.40294904;0.07529604;0.05458547;0.066369735;0.01328136;0.011076464;-0.111130536;0.02409179;0.046836607;-0.036683787;0.027828313;-0.33450866;-0.07146378;0.100959055;0.040128376;0.0009973918;-0.37555423;-0.0627128;0.061970674;0.784481;0.0665643;-0.3589113;0.2387129;0.045258127;-0.0015844525;0.055306666;0.12695004;-0.01983799;0.073112376;-0.05473935;-0.17773919;0.06809;0.0023551702;0.0048907157;0.2323482;0.00521303;-0.051138572;0.37522647;-1.6299001;-0.020881973;-0.044374917;-0.39537573;-0.036512237;-0.03705978;0.04449893;0.03406947;-0.04375537;0.07927404;-0.6751339;0.016162682;-0.04654703;-0.14622909;-0.060711388;0.005329381;-0.00402257;-0.094347455;-1.3247331;-0.18778418;-0.44686404;-0.0027635745;-0.03846014;0.2878184;0.65041834;0.039946392;0.025866345;-0.0864738;-0.05331357;-0.07971432;-0.3537921;-0.06774187;-0.054359253;0.041701283;-0.045672067;0.051918622;0.006538622;-0.22981271;0.01575255;0.0842354;-0.0926586;-0.043773383;-0.1663086;-0.025972042;0.041775573;0.32523623;-0.07152677;-0.08046072;0.015366414;0.85421485;-0.0087778885;-0.0584424;0.05302332;-0.0018585286;-0.13929576;0.4952804;0.308071;-0.8578509;0.06637465;0.061562397;-0.066406876;0.1981259;-0.22155039;0.108531326;-0.005131423;-0.07988016;0.14631271;-0.037595883;-0.108863354;0.11608524;0.031159382;-0.15678848;-0.2910156;0.29371876;-0.7198431;-0.07849195;-0.048950933;-0.03071593;-0.096126854;0.09999217;-0.060339566;-0.046273928;0.06278802;-0.38043112;-0.07801404;1.7049046;0.085330054;0.14465249;-1.0720117;0.20422593;-0.1147066;0.26388636;0.10212237;-0.0026653025;0.12006634;-0.03218438;0.080366865;0.13959609;0.054250624;-0.058321845;-0.13746339;0.14689322;0.06253638;0.23515654;-0.033130314;0.04363327;-0.011905976;-0.2148663;-0.03193579;0.13005096;0.07666664;0.07361992;0.08677992;-0.07556186;-0.023305947;0.05903953;-0.057506975;-0.75844;-0.753042;-0.028381241;-0.104994535;0.6566562;-0.07994511;0.038793534;-0.02416513;0.12712598;0.0719904;-0.030813815;-0.08188474;-0.11447218;0.05727491;-0.2976865;-0.23839754;0.07793348;-0.039476905;0.18397658;0.045677368;-0.031821348;-0.14735526;0.5835468;0.08624165;0.04503062;-0.07160764;0.20841822;-0.088933825;0.37661344;0.23886661;-1.6223181;-0.015868125;0.0696368;-0.06571451;-0.08426206;1.0826883;-0.25916302;0.16778609;-0.077945076;-0.07231656;-0.10193221;-0.6152167;0.0032631322;0.016094245;0.012675778;0.022607012;-0.22618444;0.07467044;-0.00024196917;0.014316539;0.89205796;-0.78474194;-0.5218485;0.014986522;0.08406152;-0.024804907;0.06633838;-0.086372264;0.7381268;-0.04562752;0.042673625;-0.07888344;0.031549107;0.076455675;-0.037082314;-0.25715923;0.07935795;0.18320905;-0.22919866;0.027039269;-0.4710624;0.084020615;0.08142915;-0.04204672;-0.062585495;-0.0044419197;0.06115341;-0.1436444;0.07966836;0.018348798;0.010181349;-0.011280155;0.15493396;0.07116395;-0.039548814;0.1864944;-0.21897301;0.07053875;-0.33586967;-0.32078028;0.23173639;-0.044066437;0.062303115;0.03373544;0.011271452;-0.090109654;0.3051147;-0.0031262361;0.058762763;0.007898644;0.8343159;-0.0012371744;-0.027836494;-0.14865226;0.0062040747;-0.38835305;0.13624372;-0.4047654;-0.037454464;-0.26082894;-0.073749915;-0.059074488;0.071225144;0.065343134;-0.0603656;1.0132536;-0.045656707;-0.07445763;0.08048651;0.0029728005;-0.14734063;-0.62472975;0.0161741;0.059642285;-0.59079754;-0.055358626;0.045475442;-0.2228695;0.0012599727;-0.094395466;-0.57479155;-0.06014705;0.03426172;-0.050683007;0.00080648204;-0.081515804;0.072043926;-0.083244585;-0.6972763;-0.5486728;0.045542307;0.05359098;-0.002927552;-0.0017833642;-0.12659372;-0.161626;-0.031504564;-0.011957979;0.013130982;0.018819677;-0.16187017;-0.23475981;0.1558403;0.13074714;0.002247064;0.036769073;-0.08012298;0.034461483;0.03426473;-0.07747176;-0.2590257;-0.91789985;-0.18150307;-0.41867206;-0.00036985686;0.061429616;0.105984494;-0.30836216;-0.048423767;-0.3715717;0.16293935;-0.042875286;0.0833594;0.27120593;-0.022347976;-0.03187269;0.04851566;0.05313927;0.651126;-0.0007995263;-0.5413975;-1.4568545;1.3592588;0.047562502;0.05222624;-0.17612338;0.017989324;-1.0614624;-0.07202995;-0.1200154;-0.033331644;-0.006446416;-0.08650354;0.056942213;-0.052517988;-2.24324;0.005387845;-0.11617718;-0.049383648;0.32872403;-0.22119068;0.0139936255;0.38536495;0.15398015;-0.5225475;-0.064489074;0.12766692;0.081487544;-0.027431604;0.33849147;-0.11874752;-2.4364111;0.058567032;-0.018265035;0.24909797;0.019396707;-1.8182851;0.04599286;0.049695738;-0.064225785;0.08675853;0.85771024;0.03210878;0.5836186;-0.4097922;-0.023852255;0.01613027;-0.8394943;-0.15347588;-0.13001755;-0.07510682;-0.023343068;-0.14011766;-0.14381692;-0.04608152;-0.034329887;0.033936724;-0.029362926;0.016411569;0.08592015;0.31628472;-1.1033117;-0.01617278;-0.11135654;-0.0587632;0.030458864;0.019536916;-0.113694765;0.050457414;-0.04527753;-0.013299739;-0.28205788;-0.045902792;-0.09840781;-0.030650133
-0.07945882;0.017576374;0.08092617;-0.15986443;-0.1419985;-0.052947097;-0.027851399;0.08914849;0.12902541;0.4845989;0.08213911;-0.41634792;-0.37150648;0.42492396;-0.27349332;-0.79962254;-0.34146965;0.046955623;-1.375903;0.08444852;0.074530445;-0.036602672;0.84359133;-0.8824681;-0.058892615;-0.99102855;-0.06469015;-0.04305324;0.1342797;0.4324839;-1.0752658;0.046510722;-0.18576509;0.18945293;-0.113908544;-0.45665306;-0.36848676;1.024023;-0.06234924;-0.36732382;-0.10071905;0.11515687;0.4372825;0.17167298;0.86262274;0.030148149;-0.14860535;0.057949975;0.2771002;0.26095894;0.08889022;0.26752135;0.07209312;0.0005152206;0.10787195;0.02641607;-0.037095662;-0.108443506;1.9663289;0.21843006;-0.08760957;0.071456745;0.41136053;2.1241932;0.16906945;0.0028255612;-0.7875613;0.032751;-0.11047373;-0.08938136;-0.014907133;0.130796;-0.022484625;0.30768868;1.4387803;0.040449914;0.2877436;0.1486207;0.104073055;-0.15708317;-0.0033809447;-0.0053965994;0.08003413;0.5116452;0.018702535;-0.019021912;-1.4021406;0.030612376;0.065138705;-0.055808906;-0.1439886;0.53382856;0.11469523;-0.15852565;-1.1773851;-0.024321726;0.07990874;-0.21432976;-0.31862682;-0.04467071;0.19281888;-0.07209356;-0.20579788;-0.5104424;-0.11378533;0.12148227;-0.036147546;0.08022961;-0.06372268;-0.015962945;-0.11956618;0.028692558;-0.08733517;0.0070500826;-0.11193426;-1.1708865;0.025506886;0.18373236;0.040249657;0.07406496;0.027772691;-0.07931058;-0.016086368;0.14201523;0.037731394;-0.17504384;-0.03442183;-2.1024075;-0.13267696;-0.087154984;0.7195386;0.08628685;0.17728591;-1.635731;0.007418489;1.1698973;-0.461976;-0.0011013019;0.039376214;-0.4285721;0.09180968;0.101563826;0.6322115;0.06027582;0.395526;0.1307392;0.057505872;-0.08147369;-0.26344445;0.13451152;-1.2423837;-0.028987559;0.0726424;-0.09693975;0.016804233;0.023111587;-0.10337889;-0.90652955;-0.047976267;-1.4906394;0.029370952;0.28524032;0.26249537;-0.002660479;-0.2968669;-0.12376395;0.73620397;-0.11415839;-0.10317182;0.2300411;-0.09321165;-0.11518446;-0.29566014;-0.015385245;-0.076526165;0.02266559;-0.0021515796;-0.27174565;-0.10018013;0.19648603;0.04579895;-0.13461302;-0.5498328;0.044352215;-0.17412905;0.65556306;0.015954355;0.32576057;0.17865147;0.1694068;0.1853076;0.28447133;-0.12509839;-0.12719865;0.0728314;0.035909146;-0.36351916;-0.21885501;-0.09368597;-0.031212356;-0.2615433;-0.026882479;0.070667416;-0.77237594;0.633067;-0.043146852;0.09274042;0.6294244;0.036652353;-0.014658606;-0.05753608;0.1394815;0.14067717;0.24089785;-0.7668787;-0.034255475;0.14621961;-0.12767932;0.1273236;0.1109488;-0.08756433;0.10604564;1.132513;-0.810943;-0.22638716;-0.17160016;-0.06402106;0.28530294;0.39992753;-0.19140457;0.19981046;0.049233098;0.11692295;0.06001856;-0.25220257;0.11076729;-0.26652834;0.10441653;-0.07563619;-0.02173334;0.10158585;-0.5758309;0.029159369;-0.06973763;0.056257557;-0.019991156;0.5728279;-0.02677884;-0.09039272;-0.12343859;-0.018113755;0.04884957;-0.025614373;1.7905494;0.058702737;0.23763749;-0.056880783;-0.17002927;0.35368088;0.09563276;0.24301562;-1.3004527;0.12086906;-0.0040343166;0.05508091;-0.7829171;-0.019633753;0.2408966;0.100493364;-0.42564592;-0.09225116;0.022436762;0.079971336;-0.6532364;0.31916758;0.13655825;0.11127716;-0.08562088;-0.009761478;-0.02460901;-0.11481783;0.008041893;-0.054647718;-0.1657956;0.016902437;-0.12938513;0.11322368;-0.12925261;-0.047560375;0.579303;0.07760191;0.34280682;-0.42783067;-0.04406972;0.024266033;0.4223299;-0.0895645;0.046290267;0.16826521;0.034704152;-0.07625361;-0.03921886;0.1213781;1.0499824;-0.011972178;0.43810317;0.11257759;0.07879771;-0.06602118;-0.048064977;-0.0385034;0.72573745;0.12586956;0.13176611;0.0050845696;0.0033476546;-0.01226905;-0.10569963;-0.11165173;-0.026889946;-0.03941367;-0.72978055;0.07386665;0.011527843;0.66669947;0.64538836;0.0024199325;-0.19425113;0.19937785;-1.3920228;-0.08491062;-0.044827845;-0.03677597;-0.22379419;0.041849114;-0.037086222;-0.5454449;-0.08394116;0.04988223;-0.20149739;0.13619934;0.041881207;-0.27413335;0.9498678;-0.16519186;0.09147191;0.05989311;0.09074996;-0.052918293;-0.111773364;0.20691915;0.6842991;0.108259305;-0.006969699;0.097130075;-0.048346784;-1.6222789;2.0780683;0.5853976;0.05092177;-0.00072441256;0.14172567;-0.4266016;-0.020688063;-0.0575939;-0.09903096;0.07474269;-0.5109625;-0.024324857;0.15201142;0.0049521225;-1.4044583;-0.34781212;0.14203198;-0.05215164;-0.07030384;0.021060964;0.023868848;0.1047502;0.83226067;-0.015363163;-0.08060338;0.026234923;-0.15105718;0.025989372;-0.13980801;-0.12733614;0.04055233;0.429462;-0.39580145;0.009104298;0.20923075;0.050307374;-0.027101332;0.027626393;-0.072076745;0.22264503;-0.07398178;-1.2222123;-0.1089864;0.011926228;0.11023704;0.047995735;0.41687804;0.028338341;0.17137069;0.9141189;-0.46314573;0.1675772;-0.5092263;0.039650254;-0.5986229;-0.11760225;-0.0019772078;0.008883669;0.14369208;0.028397508;0.3743816;-0.039516315;-0.011826891;0.28222373;0.15407604;0.02360529;0.020791948;-0.041371252;0.15537684;-0.7060689;0.4247875;-1.3532139;0.045604385;-1.1606655;0.5619533;-0.05831813;-0.16735496;-0.036275085;0.08094498;-0.60330725;0.27524224;-0.03047389;-0.05862775;0.039356608;0.31977516;1.7118274;0.017522013;-0.024360787;1.1190524;-0.063574046;-0.10838176;-0.29837796;-0.032035332;0.04246917;-0.46703047;0.007502187;-0.19055794;-0.17013463;0.0043179933;0.06909892;-0.11955096;0.06881684;-0.9174789;1.037641;-0.08126118;0.07926486;0.04288787;-0.0265894;-0.26878375;1.951285;-0.026043775;0.0036592374;0.026706254;0.16122743;-0.93388414;-0.3618839;1.8429829;0.48977375;0.20182234;-0.048361573;-0.23982093;-0.1205805;-0.01984552;-0.11044954;-0.12109824;0.06686981;-0.35399947;-0.29495323;-0.045699622;0.3714365;0.47730988;-1.1153033;0.13887335;-0.60678095;0.11574817;0.18173537;0.064415656;-0.0051359097;-0.09376642;-1.0614623;0.06988419;-0.025833307;1.3144885;-0.08298914;-1.3591942;-2.71882;0.20639873;-0.006426996;-0.001850166;0.53098243;-0.03363553;0.29798824;0.041776996;-0.024677236;0.02572386;-0.07483935;0.038313072;-0.021964272;0.09279574;-0.39401653;0.0761762;-0.26219076;0.13003452;-1.1089225;-0.63020784;-0.06647973;2.7404485;0.36319265;-0.41618502;-0.023905937;0.16038969;0.04699097;0.07814731;-0.83903545;0.021732893;1.3038882;-0.07930947;0.0026764327;-0.3054087;-0.040278826;-0.5312506;-0.08288767;-0.029339302;-0.07561265;0.20636529;-2.22379;-0.087643415;0.3251359;0.74525225;-0.090824105;0.11387882;-0.4976098;0.0363115;-0.120394915;-0.05902842;0.029160103;-0.72369635;-0.0727021;0.018989392;-0.07320973;-0.053114384;-0.033686657;0.3197557;-0.13009427;-0.19796328;-0.6839948;-0.04320124;0.053509362;-0.03575973;0.1455323;-0.07722924;0.36299017;0.053944893;-0.07968313;0.015307466;0.1698144;0.011942618;0.120673746;0.1105131
-0.4132596;-0.055579897;0.24064809;0.0144228535;0.0931278;0.14034423;-0.017482307;0.00010074402;-0.07545024;0.001164584;0.0017974597;0.37297744;-0.71160525;0.093203485;-0.11749561;-0.7655678;-0.039995745;0.057663165;1.5597713;-0.05731598;-0.25410575;-0.0561502;-0.21757476;0.49223983;-0.058690745;-0.0105336085;-0.06966266;0.07883434;-0.014727314;0.0002923432;-0.13259079;0.043361906;0.048597265;-0.031053687;0.046114117;-0.6221181;-0.17114964;-2.0819826;-0.021115985;-0.20519173;-0.07876444;-0.06459175;-0.09331767;-0.0357812;0.38094497;-0.053049866;0.5248385;0.0643048;0.08473147;0.5106098;-1.5291163;-2.1877851;-0.06657506;0.083051845;-0.17853765;-0.12752697;-0.2912394;0.07294721;-1.29969;0.022533316;-0.040544044;-0.055007327;0.1388948;1.1249112;0.15985821;-0.071472436;-0.36645195;-0.03430097;0.00589643;0.0015970105;0.011259005;-0.06899703;-0.04535739;0.01620933;-0.1917973;0.08695249;0.0528493;0.11084944;-0.08784765;-0.009771822;-0.014804736;-0.037206236;-0.071016185;0.045479644;0.24081914;0.047831826;-0.1952459;-0.077098094;0.15759823;-0.013124502;0.0058632884;0.37069508;-0.034830526;0.014480073;-0.21274169;-0.008750122;0.02175228;-0.24820445;-0.30672303;0.0066855713;-0.0038951973;-0.09265849;-0.50104266;0.18172136;-0.050539047;0.033761214;0.043433998;0.05660111;-0.038614612;0.050845806;-0.025614904;0.010866292;-0.02972971;0.028185455;0.019818168;-0.08064556;-0.040635545;0.0006550889;-0.07853011;0.02573297;0.009329527;0.04647791;0.02681996;-0.12002102;0.8377055;0.01770067;0.071780995;-0.10166882;-0.030914405;-0.10820146;-0.06661805;-0.00874447;0.03697915;-0.03678729;-0.06792251;-0.74747753;0.41596425;-1.6991934;-0.24514933;-0.23840272;0.07187555;-0.021672778;0.45439634;-0.1364483;-0.75203776;-0.035302892;-0.067965895;-0.057120875;-0.12370725;-0.123654984;-0.08711782;-0.0538403;0.005580096;-0.92287827;-0.04289029;0.03197561;0.07645485;0.9197574;0.05828138;-0.75987583;-0.054101974;-0.03455202;-0.7710938;0.04350988;0.8215388;-0.26550832;0.13035497;0.026228396;-0.08334116;0.010009384;0.0067339092;-0.042071562;-0.090749264;0.036703337;-0.00368346;0.045086008;0.06880144;-0.1948777;0.01618021;-0.0059049143;-0.14793609;-0.036579795;-0.0639381;-0.07082429;-0.0112360185;1.0110966;0.0011197227;0.45003483;-0.33412853;0.018961504;-0.035417274;0.08249308;0.12310936;-0.06615973;0.068758614;-0.0643094;0.09793212;0.18515904;-0.10697951;-0.015245168;-0.4983875;-0.021675786;-0.031725124;0.63750446;-0.08932462;0.02719426;0.014037791;-0.7498102;-0.029317927;-0.0104271155;-0.050444435;-0.078101;-0.008960469;-0.3603439;0.37038797;0.020537725;-0.06574478;-0.098386586;-0.110658675;-0.031096209;0.016178867;0.022713669;-0.30657542;-0.062128223;-0.20938693;-0.035602286;-0.055204455;0.0051256698;0.22781876;-0.056954302;0.042767823;-0.09208918;-0.056623876;0.049613196;-0.90412474;0.016009096;0.0043427073;-0.29738274;0.12413723;0.07956077;0.008673691;-0.34823138;-0.05462394;-0.055386804;-0.012537192;0.039042756;-0.7553845;0.10353579;0.03825709;0.41173676;0.05450697;-0.028929358;0.07747354;-1.3892729;-0.007856319;-0.064417854;0.0013582768;0.0721115;-0.18831609;0.13683212;0.36562786;-0.8717312;0.012779589;-0.06549668;0.030156637;-0.279831;-0.3054412;0.48854536;-0.1073467;-0.14375554;0.034970973;-0.048788965;-0.06648376;-0.9745556;-0.024356917;-0.14840177;-1.3405048;0.0831042;-0.1392471;-0.12276605;-0.07049309;0.020112114;-0.09499512;0.009832451;0.069223344;-0.059916697;0.44001952;-0.12028036;-0.0062539633;-0.10845118;0.0043614735;-1.5147979;-0.14218824;0.23467734;-0.035696242;-0.35790333;0.10735427;0.032666165;-0.012717279;0.038428742;0.6611998;1.3270769;-0.015132987;-0.37495652;0.026578296;0.07844285;0.031225681;-0.10818709;0.048430424;-0.038546197;-0.043920163;0.024929114;-0.050978705;-0.28866172;0.06490788;-0.003239833;0.03521646;-0.002124556;-0.006883276;0.07009368;-0.0103869615;-0.49042293;0.41838998;-0.07157586;0.13937034;-1.0875963;-0.0932022;-0.056929722;-0.06731694;-1.7381124;0.06500589;-0.052039206;-0.031235604;0.033648916;-0.007394993;0.6928702;-0.28130797;0.08072734;0.07965145;-0.04491063;-0.10397189;-0.017457949;-0.1684561;-1.0490327;0.017120501;-0.15881293;0.0134042455;-0.8265859;-0.08794829;-0.62470573;-1.0024624;-0.349321;-0.0049935873;0.056361604;-0.33053455;0.07707192;1.4592878;-0.85746455;-0.055998802;0.0955407;0.0456482;-0.09400312;-1.8667899;-0.01982911;0.100533724;-0.018954614;-0.07133096;-0.41609907;0.030438961;-0.0546769;0.068989;-1.910907;0.4866895;-0.15760969;-0.037043598;0.035780795;-0.030409358;-0.049047895;0.06632947;-0.2989385;-0.027502652;0.08708088;-0.058757275;0.03120857;-0.014323513;0.014530595;-0.079945035;0.06758341;-0.1941326;-0.38131726;-0.08599715;-0.23752417;0.022384807;0.055260494;-0.024984654;0.0037391083;-0.004999513;-0.0924307;-0.38385805;0.05299217;0.0024638996;-0.015767962;-0.05726986;0.07233911;-0.08369852;-0.03743986;-1.4516177;-0.24155186;-0.06747443;-0.76055086;-0.48179197;-1.0867972;-0.08432609;0.054887634;0.0753508;-0.055173904;0.035725936;-0.45072094;0.058220204;0.049523197;-0.024608104;-0.68517333;0.005939701;-0.017839752;-0.25641266;-0.07040029;0.3934787;0.06130864;0.9639861;-0.081111;1.0879017;0.10150485;0.048992127;0.06786056;-0.015380176;-0.043932516;0.43890262;-0.04134355;0.06146774;-0.005599002;0.06410371;0.21167533;-2.167769;0.05343648;0.09572373;-0.6984916;0.072540835;-0.030310005;-0.17768729;0.03703163;0.15375748;0.37435827;0.08335905;0.19380657;-0.00040115247;-0.035661243;0.014311393;-0.040200755;-0.0044356063;-0.921092;0.064658456;0.04279833;0.018518215;-0.029432474;0.079295196;-0.25711533;-0.8360344;-0.0520891;-0.0021051648;-0.021546574;-0.045879904;0.6874557;-0.38711897;-0.7301978;-0.03527474;-0.036398135;0.102093875;0.017654568;-0.02509705;0.028345555;-0.038140144;0.052297916;-0.20584214;-0.5833648;-0.27580893;-0.057323266;-0.043403793;-0.0060475124;-1.388699;-0.08768401;-0.7799319;-0.017481131;-0.06675354;0.01584897;-0.7806298;0.04238908;-0.30167952;-0.0048321695;0.0066503645;-0.50194573;-0.068827815;-0.5027834;0.8221993;-0.34907997;-0.062881894;0.09940204;-0.48892832;0.006053802;0.19966954;-0.04903022;-0.034693833;0.006979541;-0.07925287;0.063045844;-0.05342436;-0.100620255;-0.0062336475;-0.074616686;-0.08124126;-0.14679779;-1.0104822;0.15815254;-0.046422124;-0.16413288;-0.053551286;-0.44969448;-0.022830788;-0.064792424;-0.027263192;0.031083122;1.335905;-0.14577249;-1.1935272;-0.012170929;-0.07656713;-0.88134134;-0.041142516;-0.70123214;-0.06379065;0.044761106;-0.05952033;-0.061429612;1.200855;-0.00032581005;0.3218733;-0.36386034;-0.07720688;-0.029018547;-0.60488427;0.06363155;0.0023861658;-0.029147705;0.13027182;-0.23506016;-0.22099598;-0.07105221;-0.02122925;-0.04109863;-0.016385766;-0.031057127;0.07766928;-0.25196382;-0.4564083;-0.067718424;0.005248704;0.061835106;0.009409121;-0.01876098;-0.24257311;-0.047330935;-0.15464409;-0.008738847;0.094080165;0.060038626;0.05879413;0.03264377
-0.1686196;-0.047062833;-0.13012788;-0.086309895;-0.06759575;0.47293204;-0.022611838;0.16419911;0.11304162;0.11268623;-0.05437373;-0.50147957;0.7376621;0.057752147;0.007851738;-0.27522245;0.28080374;-0.025120905;-0.49551865;0.055244476;-0.079712585;0.051406894;0.41810414;-0.10122798;0.04823064;-0.27527162;-0.092759825;-0.049240846;0.16450812;0.2198129;-0.8698842;0.98595995;-0.0131785795;0.08233504;0.0032106652;0.5667423;-0.9186503;-0.72618014;0.07804896;-0.34231058;-0.021948583;-0.024059588;1.4717834;0.18651766;-0.0011560038;0.012680035;0.6861227;0.06240377;0.22078688;0.21520884;0.7553927;-1.4209383;0.045686178;-0.030472977;0.112030104;0.120072976;-0.104323275;-0.13286674;-1.2359614;0.09762496;0.0009074619;-0.10240512;0.32040736;-1.0894403;0.046024032;0.031609286;0.27652472;-0.020482603;-0.046653494;-0.11103632;0.09741235;0.062040545;-0.0784145;0.18676475;-0.050905045;-0.11667588;0.2605407;-0.6296851;0.018212968;-0.1970105;-0.027534168;0.017864823;-0.014565103;0.35974634;0.3624806;-0.093560904;-0.28438857;0.1404839;0.05391112;-0.08455421;-0.095245704;-0.4158367;0.1266348;-0.11371091;0.10296952;-0.096386135;0.052754465;0.24303894;0.11779615;-0.071844876;0.12510124;0.0599654;0.38835886;-0.35903788;-0.00688158;-0.01740026;0.041447937;0.029839834;0.03804926;-0.029659254;0.0011441031;0.017519528;0.010588221;-0.050110504;0.012930935;-0.062191207;-0.064004116;0.057756465;-0.026549067;0.07309913;-0.060184494;-0.004452076;-0.06343444;0.050683368;0.15642647;-3.5379664e-05;-0.043644514;0.21673924;-0.03501016;-0.24407445;-0.55014044;0.036756124;0.0479577;0.62585694;-0.08787326;-0.62517387;-1.2516338;-0.117819384;-0.52388144;-0.32731152;0.018176604;0.097665936;-0.43118855;-0.34408975;0.41500768;0.07512184;0.04971986;0.028213626;-0.12749974;0.043781962;-0.9154358;0.06433762;0.0023064509;-0.56337804;0.033350803;0.096169196;-0.07866737;-0.26585245;0.0314133;-0.22678761;0.00677801;0.12067698;0.010601233;-0.0003882485;0.5863953;0.30013976;-0.8654082;-0.017130384;-0.031386737;0.20438273;-0.018354593;-0.071968675;-0.028738912;0.0742426;-0.08419317;0.017684912;0.07669265;-0.34487575;-0.09526456;0.22590396;0.1873765;-0.12668231;-0.31683964;-0.0361577;-0.2527852;-0.16188267;0.0093879625;0.14043261;-0.22371529;0.18872273;0.069042005;0.21318458;-0.054999784;-0.08559831;0.013556034;0.084240034;-0.067122005;-0.16636375;-0.25393876;0.101073936;-0.14411846;0.050798863;0.08458991;-1.2703122;0.9595382;0.018931387;-0.027849987;0.734556;0.05753749;-0.067950144;-0.028341737;0.05813449;0.02509217;-0.22784163;-0.1502695;0.055461247;0.07849568;-0.10287819;0.11764894;0.023102969;-0.021972941;-0.01526494;-0.16635013;-0.71533287;0.13024396;-0.06869949;0.06719242;0.5275759;-0.13746692;-0.12531225;0.13441902;-0.039806247;0.10999663;0.0994776;-0.6704231;0.09788447;-0.17670333;-0.082427025;-0.10011332;0.07315804;0.10970449;0.93803734;0.109917425;-0.121836364;-0.05765535;-0.0031782503;-1.3988682;-0.108883336;-0.17331244;-0.548782;0.04015422;0.08413212;-0.010665767;-0.5668;0.018760124;0.12053062;-0.014334522;-0.13438821;-0.3094238;0.2628108;-0.5694438;-0.8015953;0.15822966;-0.056131467;0.018624071;-0.3875968;0.48130852;-0.38526368;0.26696256;0.24658419;-0.10937572;0.004661713;-0.04165924;0.37756628;0.049793117;-0.19345826;-0.4926051;-0.22391786;-0.0040489235;0.04189445;-0.024898887;0.038166016;-0.04809528;-0.014839114;-0.06415308;-0.14098361;-0.600063;0.008294974;0.053956475;-0.12859628;0.26654315;-0.60013664;1.501756;-0.19207305;-0.4615296;-0.047796063;-0.09451327;0.03316862;0.2251069;-0.01745762;-0.14948754;-0.7110935;0.084882356;-1.2074898;0.038822137;0.28491983;0.11106268;-0.48170394;-0.010948923;-0.09513081;0.03396588;0.58457524;0.19695891;-0.36127388;-0.050057292;-0.09647593;-0.12687929;0.017271684;-0.00735464;-0.0031591118;-0.029269226;-1.3033391;-0.45643002;-0.04774628;-0.010517107;-1.8974164;-0.11002342;-0.08881868;0.17387018;-0.85950255;-0.05251004;0.008016702;-0.07853963;-0.008889538;-0.014930794;-0.735518;-0.31977662;-0.011405436;-0.03633584;-0.23050927;0.138288;-0.049978614;0.11332789;0.26978332;-0.13441294;-0.03907269;0.08509766;-0.05894414;-0.019826185;-0.39755222;0.5097138;-0.5558049;0.04169589;0.0054863407;0.09494331;0.0225587;0.22876744;-1.1725436;-0.2620093;0.15876491;0.051793866;0.037350968;-0.53756535;-0.008821581;-0.0069855414;-0.0807398;0.097601876;-0.2845559;-0.008632035;0.065753296;-0.048309986;-0.97226053;-0.4011062;-0.13383578;-0.020858468;-0.10276;0.04775559;0.037232976;-0.033632975;-0.2926495;-0.07644177;-0.0067153876;-0.077378154;-0.14568315;0.056096084;-0.046789277;-0.39419153;0.020681117;0.20618662;-0.44644135;0.09932096;-0.39276868;0.059370074;-0.04866097;-0.10269567;-0.080251865;0.23990564;-0.011618728;0.0063870023;0.016779374;-0.011502032;0.09006155;0.07158001;0.2887393;-0.030403674;0.015751272;0.22262023;-0.4130658;0.15040071;0.5877852;-0.53943896;-0.61027145;-0.021787427;0.086279154;0.0022526307;0.08839839;0.06602146;0.6719017;-0.00566161;0.023401204;0.1974669;-0.5772024;-0.05088153;-0.08647427;-0.4580302;0.11057607;-0.3864754;-0.119617954;-1.2495975;-0.001023975;-0.4401068;-0.1348321;-0.06518329;-0.17136647;-0.047713026;-0.0027764721;0.25051987;0.14345033;0.083488494;-0.046708837;-0.01523478;0.15148295;-0.3038765;-0.00535983;-0.17251542;-0.6358248;-0.32710427;-0.02880434;-0.26946506;-0.1282025;0.1215197;-0.34036112;-0.0018303784;0.34298354;-0.20491232;-0.093597785;0.0005518081;0.015581322;0.05012453;-1.2067959;0.0980394;-0.13777788;0.024847347;0.065658905;0.033493854;-0.3351763;-0.30279067;0.025051828;0.019533584;-0.1869326;0.09727082;0.717844;-0.34907866;-0.7935983;0.32776892;0.07459077;-0.001907997;-0.04726777;-0.11933258;0.017863678;-0.06473834;0.17964998;-0.067975044;-0.15841454;-0.39902204;-0.05473735;0.2788342;0.31043816;0.21983333;0.12545215;-0.65869164;-0.25712958;0.09716358;0.005089155;-0.2922111;-0.09620331;-0.3921082;0.046819795;-0.09188804;-1.2839146;0.048949037;-0.82840776;0.9601718;0.0123096425;0.08809705;0.0027643463;0.057956114;0.040777795;-0.6092895;0.051933814;-0.04128935;-0.097507805;-0.09628495;-0.047593195;0.10001939;-0.03535462;-0.024798188;-0.0879429;0.051473357;0.0910756;-0.9721173;-0.33511195;-0.10176904;-0.057550814;0.22467355;-0.79446214;0.016760966;0.17006564;-0.043646604;-0.026120361;1.6143026;-0.05990519;-0.6524078;-0.117294505;-0.10918181;-0.7469447;-7.0412236e-05;0.020882498;0.090331845;-0.115235455;-0.00053463446;0.21589758;0.33857757;-0.071349;0.36792126;-0.35824743;0.020317534;0.043329425;0.14261445;-0.12788403;0.014486844;-0.046772618;0.050574847;-0.38884705;-0.10285464;0.09715755;-0.083250105;0.04908592;-0.036794897;0.17060831;-0.05016026;0.27452198;0.33514902;-0.005425578;0.024782347;0.015199551;-0.05334226;-0.039677188;-0.12823619;-0.028028788;-0.13624313;-0.08877858;-0.14523397;-0.06631013;0.048016526;0.011863398
-0.0033265126;0.018138288;0.08542951;-0.046465468;0.018337794;-0.10174824;0.05752718;-0.010905514;0.0713695;0.34866786;0.12578315;1.152552;0.71107036;0.31300378;-0.52908194;-0.2661993;-1.5658636;-0.032355927;0.13042425;0.046990585;0.021316314;0.013011716;-0.39364746;-0.74228275;-0.043240458;-1.4142565;0.037352122;-0.058604684;0.09820357;0.2831833;-1.2148153;1.0596437;-0.016352123;0.07117461;0.025063029;-0.3315348;-0.6878441;-3.1830091;0.07169441;-0.33323008;0.03133845;0.11233458;0.37442255;0.14983235;-0.17026511;0.06512629;0.22710727;-0.0063114814;0.104327515;-0.26352903;-0.46212167;-0.86193305;0.050357874;0.035125323;-0.47454655;0.050917216;-0.27186707;-0.08732647;0.12906809;0.17156123;0.045952898;-0.81652;0.21402782;0.027959665;0.011814052;-0.06740586;-1.7717395;-0.0040477384;-0.11845495;-0.06043579;-0.11962598;0.09188895;0.009513508;0.24447176;0.32306418;-1.3220359;0.1461102;-1.673091;0.06593111;-0.1472886;0.06103611;-0.06031974;0.08907654;0.34886834;-0.3586962;-0.059585672;0.61540467;0.2570088;-0.15356195;-0.030036088;-0.09339006;-0.08873474;-0.04317353;0.053309288;-0.7847828;-0.05916495;0.05462212;1.0074074;-0.12560815;-0.0006707659;0.09812825;0.051985934;0.07762362;-0.32793853;0.0048371935;0.060906842;-0.05833369;-0.101537585;-0.046716645;0.012559878;-0.01997735;0.08451579;-0.08340837;0.06251508;-0.053801026;-1.1198506;0.04919534;0.04559341;0.06432119;0.028511021;-0.0017065916;-0.0041826945;-0.018083105;0.08233135;0.27169436;-0.09332483;-0.027190415;0.7979631;-0.00816463;-0.04202406;0.87485623;0.063445374;0.0687735;0.5297203;-0.03430468;0.33362105;-0.39180622;-1.2424723;-0.270651;-0.27921927;0.031834632;-0.047414917;0.0033508344;0.18246722;0.09079298;-0.021125222;-0.07445907;0.041699965;-0.14549108;0.045294788;-0.7960324;-0.011232084;0.024517704;-1.6481376;0.030978613;0.031126596;0.049765766;-1.5178382;0.07849619;-1.1029316;-0.059179537;-0.7467993;-0.7292407;0.039587904;0.10310583;0.95244074;0.10760918;-0.07284218;-0.04929006;0.08119269;0.02810887;0.023504965;0.19176432;-0.06301912;-0.097316526;0.06262827;0.10140059;-0.556212;-0.03748925;0.13511862;0.107507564;-0.09494744;-0.3442753;-0.031688593;-0.13180496;-1.0865189;0.008481677;-1.9163423;0.2130176;-0.004098671;-0.024675641;0.30547172;-0.09178265;0.03351454;0.05148599;0.079907805;-0.020416638;-0.13643968;0.010173753;-0.00849554;0.011488093;-0.08031382;-0.032452874;0.27202323;-0.17000364;-0.013064644;0.077946655;-0.09278756;0.07877236;-0.0635807;-0.035194047;0.060358874;-0.019847337;0.23398243;0.18491633;0.03796819;-0.03443182;-0.15020527;0.10756499;0.092294246;0.0051488886;0.0037927856;-0.07644544;0.14805163;0.79663056;-0.026712859;-0.0026849892;0.45324317;0.7127738;-0.018400064;0.110921845;-0.052838683;0.0063211555;-0.017720267;-0.47251213;0.074012235;-0.14009517;0.13604902;0.027491005;-0.0039923484;0.06302356;0.95168126;0.09719868;-0.098364316;-0.053294193;0.013490682;-0.82527536;-0.073227815;-0.020198796;-0.19781265;-0.06534582;0.0685826;0.010969802;-0.33840075;-0.08819219;0.08703269;-0.032548666;-0.2798006;-0.15628564;-0.58192235;-0.8160689;0.09113703;0.16155644;-0.077263325;-0.05359093;-0.41594025;-0.06082629;-0.6244474;0.1643801;-0.028435623;-0.038861945;-0.022744225;0.029967;-0.20515099;0.052568093;-0.03235944;0.512568;-0.22651216;-0.021144934;-0.100230135;-0.3585799;0.012764299;-0.018061914;-0.080843695;0.07174172;-0.08814688;-0.8773632;-0.088361524;0.02400909;-1.4228401;-0.076193936;-0.64242077;1.0337684;-0.001721973;-0.47775975;0.67079514;-0.07941473;-0.054990906;0.0594853;-0.003020838;-0.22612411;0.6363519;0.038022403;-0.50684065;-0.055470433;0.32040074;0.13273636;0.026577968;0.007884728;0.0079282615;-0.07151628;0.7420239;-0.013227516;0.19757567;-0.029470809;-0.08286171;-0.07886106;-0.058566928;0.03495492;0.013729878;-0.019020118;-0.9854805;-1.0265313;0.037341002;0.22526774;-0.6415651;-0.052586578;-0.061279207;0.13263343;-2.6419253;-0.062505715;0.07621843;-0.024151657;-0.15376027;0.001872355;-0.4524782;-0.49944386;-0.030261869;-0.010989159;-0.23180972;0.075660355;0.05526117;0.08976894;-0.34097192;-0.118102886;0.015068979;0.013254449;-1.762244;-0.07839476;-0.27369907;0.34054518;-0.21874791;0.038364533;-0.031568598;0.051725652;-0.044590846;-0.22943118;-2.1383636;-0.09444181;-0.03992224;-0.03623312;0.11458393;-2.0728362;0.022690957;-0.13998957;0.013295411;-0.015415923;-0.50488895;-0.12080198;0.021625781;0.060394287;-2.6784794;-0.382122;-0.09324144;-0.06701928;-0.032949053;-0.037468355;-0.045510743;0.060937233;0.11233792;0.015551112;0.031801872;-0.0085599;0.030727904;0.009282364;-0.043121077;-0.4068385;0.036185447;0.3843747;-0.5044424;-0.030694442;-0.8489509;-0.054838613;-0.102146246;-0.0878246;-0.15635423;0.08715176;-0.006781018;0.66450477;-0.008039323;0.037487324;-0.033188496;0.077828296;0.1869379;-0.082524166;0.029885631;-0.22981739;-0.25103453;0.1237203;1.966243;-0.4501322;-1.507336;-0.049537223;-0.01988559;0.009765706;0.033371292;0.07026805;0.45969725;0.029202357;-0.04846199;0.029139552;-0.45161605;0.036301088;0.031610243;-0.63596374;0.007880078;-0.6185766;0.10953699;0.08648568;-0.01989319;0.20749927;0.1756321;-0.108453535;-0.060629286;-0.08798508;-0.0038107536;-1.100032;0.15119825;-0.07104523;-0.0040562684;0.030472565;0.40879956;-0.7815599;-0.044312052;-0.18166178;-0.42205456;0.04408483;-0.19890057;-0.2296141;-0.05416585;0.097680524;-0.13974243;-0.0111075975;-0.15166062;0.01046482;-0.0024441644;-0.027753476;-0.11060238;0.065585785;-0.34724185;-0.58283406;-0.019070985;0.095934235;-0.026525881;-0.057536546;-1.1137797;-0.47506922;-0.022444371;-0.050164167;-0.19291225;0.022140758;1.5994194;0.37126192;-0.1601986;0.40547693;-0.12510328;-0.013762903;0.03310529;-0.1238477;-0.0028130268;0.016940093;0.114158675;-0.28152484;0.1444622;-0.17748821;-0.050801963;0.28698957;0.23892708;-0.6175172;0.10894529;-0.05457219;-0.31329158;0.1612083;0.040710337;0.2949186;-0.06879834;0.15787633;0.07174117;0.03458965;-0.48998123;0.04843554;-0.41815087;0.7739115;0.4340127;-0.06351945;0.06536588;-0.0482303;-0.081654206;-0.2871053;-0.013655566;0.0627641;0.05240659;0.052413102;0.08486866;-0.027968792;-0.044181302;-0.7344255;-0.020085638;-0.031177288;0.004783778;-0.5886573;-0.35725915;-0.061399445;0.33549654;0.2901072;-0.66992885;0.005467062;0.13565774;-0.08932146;-0.0012504839;1.1071461;0.036107585;-0.05885358;-0.12436394;-0.027969291;-1.2773864;-0.08889685;0.34390727;0.028871851;0.0060372944;-0.08067467;0.07445142;-0.06961859;-0.0768492;0.3301935;-0.2681994;0.06308251;0.05554554;-0.19970097;-0.08515097;0.008274843;0.056731302;-0.05360026;-2.4427133;0.21299516;-0.04522961;0.009909652;0.028605415;0.0337965;0.16781934;-0.024581602;-0.21859732;-0.0016305841;-0.013406222;0.08522967;-0.04894086;-0.054677177;-0.012407786;0.2020467;-0.03199262;-0.012415639;0.06887653;0.23500246;-0.012427222;0.099251956;0.027156016
0.22845641;-0.014010035;0.13692449;0.05448575;0.019052956;-0.11605133;0.04452974;0.1809524;0.045655694;-0.08972633;0.08672924;0.6695544;-0.56344557;0.46598333;0.19271861;0.5328446;0.79670775;0.006730686;0.1119154;-0.06903892;0.8554935;0.04647993;0.4565443;2.0877883;-0.0652158;-1.3932265;-0.03902359;-0.08008732;0.10547261;0.63320374;-1.8248632;-0.16024537;-0.022871606;0.12171712;0.07077802;0.13706489;0.04980399;-0.04917511;0.006722551;0.13140638;-0.033232287;0.018045334;0.22704917;0.3328517;-0.3744744;0.016364237;0.2156848;-0.016076379;0.22676219;0.35553527;-0.1276399;-0.05379864;-0.07072046;0.010008314;0.304044;0.0370381;-0.7816926;-0.09633799;0.21875168;0.12430725;0.068286315;-0.35718971;0.27100456;-0.08972455;-0.022152416;0.025868922;0.15396404;-0.010951977;0.027413646;-0.030880794;0.061282765;0.13679627;-0.047643445;0.5021684;0.31134006;0.23397164;0.24868901;-0.64187425;0.13465354;-0.23139086;0.020154545;0.062400453;-0.017691419;0.5631951;0.17896266;0.057935353;0.6583315;0.0073824353;0.2973726;0.07818537;0.0048083486;-0.48270816;-0.003762814;0.113607615;-0.6481939;0.033961218;-0.009508675;0.5193425;0.24206011;-0.06677289;0.18010576;-0.08496675;-0.123648845;0.016552357;0.042256743;-0.19523945;0.0704006;-0.096208304;-0.010770202;-0.0071455184;-0.011015644;-0.006111853;-0.003827378;-0.09457138;-0.03774065;-1.240838;0.030907871;0.06545984;-0.05858843;-0.056756817;-0.017078293;0.0021782042;0.12596068;0.1289276;0.067544386;0.06962892;0.009401107;0.24701145;0.007455236;1.0467947;0.07114745;0.04288008;-0.07506777;-0.6920792;0.04468383;0.9912708;-0.08312155;-0.121911235;-0.07738601;-0.44680566;-0.041495807;0.07354331;0.11919028;-0.0060397657;0.24162574;0.07352731;0.07597306;0.056174833;-0.11790317;0.020445535;-0.82980984;0.008917435;0.028879259;-0.65255225;0.043717276;-0.0008211603;0.089324825;-2.196085;-0.03766475;-0.60471064;0.1922063;0.060489587;-0.1265201;-0.07073801;-0.03560101;0.36523864;-0.3807565;-0.06212855;0.05935026;0.24823709;0.041103754;0.0058136666;-0.46512914;-0.07528567;0.032188933;0.0571182;-0.0247585;-0.26261297;0.00979091;0.18777816;-0.082253866;0.061987672;-0.44362774;0.038433254;-0.12564358;-1.3048252;-0.049083326;-0.88350016;0.14271086;0.07115231;0.109975025;0.2157035;-0.22360116;0.085797146;0.008067604;-0.059875373;-0.30385485;0.090288125;0.17635332;0.03765635;0.76298565;0.027092906;-0.08968826;-0.4009078;0.6319971;0.009006254;-0.0066669914;0.27546793;-0.06445423;0.052275587;0.046101075;0.0375492;-0.038657695;0.113741785;-0.17854373;0.0077140164;0.06600041;0.026629103;0.04114661;0.09478278;0.01186928;0.030379778;-1.3056973;-0.74355257;0.98911417;-0.12886961;-0.051575;0.46502313;0.9611546;-0.15566239;0.1967315;-0.026365092;-0.07551648;0.00359808;2.1514573;0.18424895;-0.1583906;-0.08996381;0.42298198;0.06625309;0.17636521;-0.76443875;-0.009741614;-0.014147572;0.035556946;0.005710312;-0.40213805;-0.0824302;-0.11993709;0.30494174;0.018662969;-0.021319382;0.0152895935;1.3250536;-0.011371456;0.12952149;0.041777432;-0.020220792;0.10244268;-0.063219026;-0.57039946;-0.09350169;0.11986261;-0.07701522;-0.011795588;0.97356087;-0.116880655;-1.1882716;0.09140914;0.16086474;0.034620225;0.023217233;-0.077282585;-0.45773408;0.092012405;-0.0024880378;0.28303924;-0.20022854;-0.3099531;0.15841578;-0.29270327;0.018016286;-0.02085172;-0.09235934;-0.06643518;0.120045215;-0.9632612;-0.47697014;-0.030249625;-0.4452871;0.0130192945;0.3342127;-0.54230225;0.6178112;-0.7777003;0.239611;-0.006381486;0.03889187;0.22939692;-0.010001601;-0.33814564;0.68073857;0.026041292;-0.95081997;-0.0028442151;0.6977476;-0.24320655;0.09730365;0.07492758;-0.059480414;-0.026242578;0.9752726;0.09050595;0.055259533;0.03508725;0.02966394;-0.0148701165;-0.01967307;0.22884114;-0.012137475;0.015518928;-0.38180804;-1.9319049;-0.014078678;0.26462415;0.20417358;-0.044720694;-0.033827152;0.25616765;-1.8651397;-0.039613683;-0.03000676;0.06688464;-0.17067507;-0.009946192;0.6694364;-0.51603055;0.041624285;-0.032072823;-0.097074874;0.13364175;-0.010887186;-0.7361779;-0.17609408;-0.20177689;-0.05324985;-0.069993585;-0.458045;-0.11299166;-0.36605594;1.0351778;-1.3577151;-0.04329179;0.120907106;0.3188274;0.05138514;-0.63445556;1.7169938;1.2958513;-0.10333818;0.05035186;0.021429274;-1.9815246;-0.015550499;-0.13075438;-0.08602398;-0.010907881;-0.4847512;0.087898366;-0.040644083;0.055944234;-0.5055906;-2.6922886;-0.2083883;0.031076739;-0.007670485;-0.014070981;-0.043151975;-0.037940804;-0.15728839;0.06298777;-0.059465416;-0.012872057;-0.12822063;-0.05533394;-0.062283646;-0.3324173;-0.16763438;0.39098316;-0.71142274;-0.062682144;0.18038075;0.03130017;0.0057015186;0.018585041;-0.14320892;0.16524488;-0.018697698;0.77321005;0.03010552;-0.0064274725;0.022176687;-0.028905151;0.3833048;0.0073992354;0.06427455;-0.76627654;-0.437003;0.17152372;-2.6301212;-0.429331;0.10088236;-0.051608592;-0.06552057;-0.03453325;0.068408184;0.007639691;-0.1252335;-0.058360256;-0.0053837136;0.30106187;-1.3880656;0.02193321;-0.017845465;-0.6288813;-0.010987849;-0.22997066;-0.058555394;0.098442554;0.013765203;-1.1800414;0.0017312513;-0.10212256;-0.2518382;0.07139934;0.12285054;-0.88246906;0.18809892;-0.07355833;0.010697049;0.05843372;0.3788407;0.010090072;-0.0032678084;-0.1549736;-0.11642421;0.10841653;-0.023236424;-0.35990107;-0.18269622;0.24857943;-0.3227904;0.08361133;0.15392463;-0.42147973;0.070551604;-0.06796603;-0.0715316;-0.050885428;0.12127824;-0.33534423;0.053797513;0.09781931;0.044213206;0.05506241;-0.1353349;-0.44747746;0.019201351;-0.063036084;-0.020575913;-0.041269936;0.11018008;0.19831276;1.5307541;0.69113004;0.047822412;0.0018604444;0.14016417;0.04867825;-0.008206016;-0.018816883;0.031242823;-0.74330026;0.27992904;0.077422455;-0.07141679;0.449354;0.5944154;-0.86625826;-0.0009783398;-0.1706531;-0.13155483;0.25235716;-0.023153894;-0.13500607;0.022984048;0.7399243;0.05041267;0.08001874;1.4820141;-0.059342645;-0.102633774;-1.2975646;0.35523888;0.007277486;0.2382034;0.3625758;0.056836106;0.21810968;0.021343606;-0.030362409;0.010941978;-0.043966237;0.06995537;0.019040303;0.06765588;-0.1888734;-0.06302119;-0.33657143;-0.032275464;2.0777256;-0.48840052;0.043034047;1.5382364;0.70987827;-0.50526446;-0.014064574;0.34855887;-0.087829046;-0.12676573;0.7894205;-0.08526733;-1.2309811;-0.019679906;-0.024944697;0.22383076;0.047092114;-1.176038;0.027326522;-0.3055109;-0.03956057;0.21411785;-0.8274763;0.045929097;0.24965993;-0.24901977;0.0028517789;-0.004952008;-0.7118079;-0.33342737;-0.042034477;0.010131901;0.16060892;0.7343697;0.23026957;-0.041745044;-0.013667975;-0.0473829;-0.049329583;0.30976167;0.023323024;0.18415526;-0.048957743;0.053211685;-0.014117422;0.08423993;0.028409466;-0.02228567;0.162806;0.010546544;-0.2608037;0.040573128;0.36917633;0.021419741;-0.041187778;0.05489179
-0.49664593;-0.062421747;-0.23179205;0.21021277;0.09251011;-0.18230264;-0.11496086;-0.33756104;-0.22709472;0.3528512;0.10217622;1.5583508;0.7770532;-0.5584273;-0.5777012;-1.0096289;-1.1269041;-0.21141396;0.0765499;-0.011691079;0.010817555;0.06700713;-0.04767957;-0.4114211;-0.057727702;-1.7194245;0.036912728;0.115148395;-0.27935427;-0.7469874;1.2954348;0.3405696;0.23542453;-0.2927035;0.092443444;-0.9722532;-0.069411695;-0.06663364;0.060432673;-0.40925834;0.04224018;-0.0845371;0.90302414;-0.4288265;0.030596653;-0.08472915;0.122396424;-0.15665813;-0.50205934;-0.2204033;-1.0272449;0.41192853;-0.091910295;0.0449345;0.17666315;-0.07471298;-0.4212473;-0.016221087;1.4159626;-0.34404647;0.056399424;-0.57607013;-0.12273622;0.15426591;-0.18357952;0.111849554;-0.7740053;-0.019236697;0.21878202;0.090808265;-0.24053048;-0.12966448;0.018403962;-0.5233573;1.1008846;0.18524364;-0.47740424;0.96951526;-0.32254732;0.17454967;-0.024991944;0.08086736;-0.08928987;-0.6435617;-0.16358642;0.011901911;0.48823008;-0.08337251;-0.14312252;0.043667518;0.081731014;0.5434987;-0.13379928;0.17730837;-1.1188643;0.14296402;-0.094865926;-0.017975027;-0.30386645;-0.026722008;-0.4303873;-0.03579753;-0.5528717;0.25123757;-0.03973739;0.27682856;0.07066688;-0.0920777;-0.07484165;0.09102526;0.0041680634;-0.10132713;-0.02695471;-0.004973464;0.17896162;-0.0007986005;-0.013060517;-0.27565855;-0.11330164;-0.0523625;0.07886659;0.041883297;0.11491688;-0.27233386;-0.31241956;0.1450308;-0.051693738;-0.2335192;0.10430899;-0.35026816;0.06505655;0.017277863;0.11135836;0.8874637;0.052578066;-0.1482995;0.52399063;-1.0261301;0.01042141;-0.03761553;-0.008581817;-0.06185721;0.51872593;-0.11866896;-0.19803748;-0.03419186;0.063691154;0.22559685;0.13403165;-0.24260406;-0.61620474;0.014563465;0.061702885;-0.9577243;0.02623173;-0.1465581;0.041086063;0.38032508;-0.07344995;-0.11638626;0.09937839;-0.26134253;-1.2564392;0.051117327;0.77930623;0.3931447;0.06742361;-0.034650605;0.060941264;-0.37410852;0.054854114;0.030947503;0.18734919;-0.039006837;0.10049125;-0.01627422;-0.0020527295;-0.20017472;-0.054952677;-0.45134076;-0.45086783;0.07657776;0.1155445;-0.090844825;0.17183404;-0.5544733;-0.015505991;-0.553807;-0.017201317;-0.15542138;-0.2368432;-0.036268912;0.28748307;0.018424125;0.0061673946;-0.15286115;-0.19168751;0.2668747;0.54044807;-0.09822976;-0.64369047;-0.009232405;-0.06740294;-0.85332394;0.09054487;-0.03451014;-0.09666821;-1.4585416;-0.014307492;-0.09395998;0.117082715;-0.06893043;-0.08094557;-0.3887917;0.51608264;-0.04359543;-0.21910481;-0.18275107;-0.16476426;-0.3033011;0.12594749;-0.25968713;1.9875937;-0.12228932;0.21296184;0.13738373;0.04097452;-0.13941823;-0.055322714;0.124437355;-0.38441452;-0.100918844;-0.066620745;-0.05676192;-1.2530744;-0.33873728;0.4226997;0.15797904;0.024700424;0.023324268;-0.36687657;0.68000865;-0.10432543;0.14961779;-0.11639998;0.033650056;1.5620583;0.09344299;0.05210221;-0.19253868;-0.113382585;-0.13947529;0.09316537;1.5762253;0.113851465;-0.45021823;-0.02476196;0.044416312;0.28256005;-0.542051;0.002120364;0.925182;-0.33406666;-0.021770407;-0.102616265;-1.1867498;-0.7688467;0.06603383;-0.34384978;-0.38945198;0.24135691;0.07353156;-0.07365182;-0.30494872;-0.46573058;0.5162651;0.018356798;0.1764384;0.8815535;-0.16811694;0.05377147;0.094489396;0.10927855;0.29213426;0.030455831;0.11758357;-0.036003906;-0.00021718726;-0.046335883;-0.62524885;-0.07547647;-0.6676542;-0.978416;-0.27000335;0.8493016;0.8740009;0.09919226;-0.019860437;-0.51229084;0.0029545256;0.35736895;0.89617306;-0.13696428;0.6344249;0.07509314;-0.59080786;-0.316377;-0.48117745;0.02396837;0.012617212;0.021156337;0.91575027;-0.3795934;-0.26442966;0.06986119;0.09493625;0.1296731;-0.04261064;0.41673037;0.011319653;-0.029576166;1.6388512;0.7983985;-0.03842666;0.2828246;-0.6994851;0.042316493;0.17739914;-0.31430215;-0.355448;0.08936176;-0.04647779;-0.052405916;-0.11156292;-0.14587484;-1.8362699;0.11546735;0.034820843;-0.0971497;0.21777296;-0.42856959;0.10797086;0.13114469;1.4260978;0.05337438;0.054663904;-0.09658721;-0.798237;-0.046759114;0.038669545;1.4622959;2.2870278;-0.045083813;0.04628859;-0.23451632;-0.020458063;-1.108203;0.22601382;-0.19414255;-0.18145137;-0.053675424;-0.12910819;-1.1612158;0.062243614;-0.23976077;0.12622273;-0.16579291;0.026673675;0.040124077;-0.19773912;-0.062470507;-0.26793236;1.678799;0.21375294;-0.08052872;-0.0114402585;0.06535665;-0.04629774;-0.019602774;-1.569041;0.01754946;0.12724221;-0.08497237;0.16600144;-0.01941229;0.09019289;0.14081685;-0.0009330707;-0.39513767;-0.20496513;-0.094334856;-0.034589063;-0.040918782;0.14761944;0.07070444;0.06962469;-0.3140544;0.103159815;0.32013482;0.019786093;-0.087763816;-0.07100626;0.04135034;-0.4214225;0.065490186;-0.15949872;0.51063114;0.0050016544;-0.36347085;-0.3176454;0.37132207;-0.26258627;0.11512044;-0.057729837;-0.01119511;-0.25457397;-0.042651966;-0.7657237;0.032416586;0.07163371;-0.39377826;2.0857368;-0.0823958;0.059732866;0.26370096;-0.11545732;0.57004476;-0.50924945;1.0723474;0.06817107;-1.0418848;-0.09504399;0.25612146;0.28105947;0.031536847;-0.17409144;0.16278394;-0.33208182;-0.036426082;0.08948196;-0.07153396;-0.3980904;-0.54732746;0.024491373;0.2277233;-0.22547491;-0.3077186;-0.02339552;-0.14897968;0.13956724;-0.22493483;-1.8417183;0.094258085;-0.6412181;0.2663998;0.110829294;0.019538231;0.058323216;0.018434314;-0.7046605;0.67282695;0.11043812;0.18883155;-0.045428418;-0.0037460416;-0.57081765;0.040260457;0.075404756;0.10782669;0.3297381;-0.18648694;-1.6885226;0.7968443;-0.82019293;-0.6977424;-0.271435;0.15012917;0.080035955;0.06002907;-0.029239139;0.12801781;0.2929891;1.0951276;-0.34185633;-0.0221514;0.07932538;-0.5497425;-0.49397108;0.09374221;-0.17396167;-0.03554829;-0.41226023;-0.4351533;-0.054027263;-0.7452196;0.051649217;0.89425224;-0.124603316;0.0367802;-1.2256985;-0.020966202;-0.093730696;0.7573771;0.083927274;-0.050700676;0.1686781;-0.7241986;0.026804905;0.62110645;-0.119323045;-0.12258566;-0.020839097;-0.0140417935;0.046868768;-0.12319107;-0.13089547;-0.5212281;-0.018775322;-0.06450522;-0.022698635;-0.9220056;0.10146107;-0.006054425;-0.36116612;-0.68621516;0.5348829;-0.16216137;-0.37497744;0.034331102;-0.020658383;0.7710823;-0.038158294;1.6940926;0.17078432;-0.009645302;0.5979159;0.026957441;0.84555143;0.011252467;0.18697095;-0.039632596;-0.46500534;-1.4597225;0.14059527;0.00032664262;0.095081545;0.025718438;-0.07828583;-0.14784585;0.2348145;-0.13582318;-0.011307881;-0.056203626;0.23864809;0.0010171847;-0.1106729;0.13112457;-0.0669172;0.023073673;-0.45303035;0.041942306;-0.62479424;0.0057071885;0.079594;-0.13860252;0.123049594;-0.09052782;0.115270525;0.15703624;0.014567554;0.122313984;-0.053393714;-0.33157048;0.023901524;-0.048265785;-0.061340984
-0.05122895;-0.03300109;0.18582217;-0.02883112;-0.006720605;-0.532521;-0.057827804;0.13804477;-0.047395006;0.4506648;0.021548199;1.3219942;-1.7530584;0.07668331;-0.26447833;0.19230686;0.9504089;-0.07338581;0.7955889;0.037986845;0.34534463;-0.021821456;-1.1823941;1.6224185;0.03580055;-1.6545032;-0.06289978;-0.05805533;0.0133246295;-0.049258888;0.5943142;-1.395437;-0.003129255;0.07476331;-0.019865215;-0.7234009;-0.081356704;-1.7054797;0.065924175;0.29564348;-0.038725365;0.09978441;0.5777387;-0.012980229;0.6261386;-0.07429045;-0.48514733;-0.0640316;-0.047791224;-0.34258005;-0.74564964;-0.66285026;0.008484477;-0.06957422;0.57923996;0.09212207;-0.443396;-0.16669028;1.5303782;0.06455327;0.052706137;-0.7857983;0.15818155;-0.12229671;0.08994123;-0.0926307;-0.58446527;-0.011051421;-0.10233744;-0.08192698;-0.11341272;0.0058487663;0.0087991115;-0.031133968;1.247284;-0.4713892;0.0028943194;-0.7043149;-0.028777085;-0.20570555;0.23284309;-0.09830909;0.021056095;0.026039386;0.15897812;0.019831283;0.84325373;-0.004140713;0.43830672;-0.027904954;-0.053359993;0.82582444;0.06650008;-0.14062737;-0.1854781;-0.051246252;-0.044813167;0.11436044;-0.5506517;0.051716354;0.004053413;-0.01996675;-0.18364535;0.09416349;0.02612428;-0.17122106;-0.0776694;-0.072207406;-0.14739782;-0.08835166;-0.025210116;0.047027726;-0.09422736;-0.06072943;-0.10265349;0.30377308;-0.056190386;0.15496203;-0.009135863;0.13858373;0.0013458562;0.046437968;-0.100244015;0.0025409663;0.10761102;-0.13586105;-0.07029506;0.76562977;-0.04096489;1.1648177;-0.42973605;-0.07355901;0.13060597;-0.86090946;-0.03150045;0.264345;0.70027256;-0.5535856;-0.028120156;-0.39477038;-0.028156433;0.061268885;0.79750156;-0.5269916;-0.6895989;-0.08128039;-0.009104111;0.13654537;-0.2703534;0.109863706;-0.14308065;-0.081000425;-0.07760235;1.2802893;0.058331843;-0.0059469715;-0.10817133;-0.16204174;-0.039329886;-0.34503326;0.043790344;-1.7203859;-0.94630945;0.052471705;1.008344;0.13099903;0.22573906;-0.0880661;-0.069763996;0.01651014;-0.06298915;-0.09888668;-0.20745352;-0.022810489;-0.04872279;0.015232062;-0.08349754;-0.020350374;0.060172856;-0.034648977;-0.17080897;-0.10010568;-0.10833426;-0.09702187;-0.06819759;-0.5450678;-0.010554312;-0.54263496;0.63510275;0.112479664;0.062514775;-0.112360865;-0.018644791;-0.0899397;0.06624909;-0.026265334;-0.44581017;-0.107794985;0.37352705;-0.041123796;-0.14546551;0.02088928;-0.051360156;-0.9147348;-0.1300953;0.045678016;-0.057959408;-0.84964067;-0.05866576;0.04567888;-0.0732641;0.06756477;0.031859342;0.0511706;0.7259005;0.011021869;0.0025824362;-0.08622664;0.0850467;0.11898126;-0.08235841;0.11578008;-0.11860293;-0.41429752;0.26262292;-0.11739771;-0.009314783;0.10935457;-0.3196159;-0.08635277;0.041728187;0.05853933;-0.04230838;0.017989261;0.73694974;0.1317512;-0.029525641;-0.04595853;-0.17417502;-0.041995745;0.046146445;-0.8570105;-0.13845026;-0.081252694;0.013521689;-0.017296407;0.6490886;-0.10313302;-0.08545171;0.55238056;0.097649656;0.066696696;-0.021362837;-0.28227717;-0.02057353;-0.033177894;-0.06800132;-0.29175758;0.13075474;-0.24626905;0.63796955;1.1353368;-0.027496783;-0.06984472;0.021819359;1.0092596;0.12931398;0.37803754;0.014579336;-0.18597642;-0.051321883;-0.06367272;-0.050669305;0.8486321;0.3344013;-0.06509809;0.318285;-0.0022788567;0.055755306;-0.030546581;0.19071804;0.00010833818;-0.055016916;-0.093180284;-0.045162093;-0.19997592;0.8404394;-0.16451116;-0.0030798363;-0.8648563;0.1866847;-0.20589446;-1.1944121;0.08172704;-0.12600148;0.8293266;0.010139865;0.010191215;0.03668627;0.0822436;0.39596125;0.978037;-0.020676833;-0.86145896;-0.07998262;-0.036609996;0.02190515;0.82023376;-0.008059159;-0.08157496;-0.026273035;-0.18451805;0.13820726;0.8029064;0.023492746;-0.06513484;-0.12756826;-0.035188187;0.06599725;-0.044747647;-0.06388351;1.6357578;-1.3778799;-0.02476075;0.2934632;-1.1089113;-0.15743767;-0.19826055;0.055141572;-1.0012848;-0.11024252;-0.041284315;8.4817526e-05;-0.244548;0.027581368;-0.11772473;-0.13259105;-0.030878251;0.03881684;0.0017649882;0.04224725;0.03753313;-0.4965727;-0.17238778;-0.12516893;-0.04915203;0.12706105;-0.87932724;-0.04660315;0.025106097;-0.3799007;0.08564909;0.02541945;0.03996916;0.088519715;-0.10419164;-0.23215859;0.9254868;0.86301327;-0.11528944;0.024326082;0.08349527;0.6119703;-0.039441694;0.009369792;0.011706171;0.04618339;-0.19028875;0.053747028;-0.015894882;0.010697212;0.086185575;1.1798604;-0.2571258;0.09310098;-0.02694574;0.06818554;0.08980965;0.035614893;-0.47817767;0.005020715;0.031203337;-0.017043807;-0.05980629;0.050961077;-0.0696063;-0.0072362786;0.03623863;0.20055062;-0.30061752;-0.05592167;-0.8749123;0.0409523;0.028415006;0.06018032;-0.13687722;0.03740514;-0.063798875;0.121040605;0.03546318;-0.05912359;0.1082712;0.10246524;-0.04347777;0.06165563;0.025125785;-0.6628807;-0.35628864;0.052020513;-0.73800623;-0.40610337;-0.0061711124;-0.12803873;-0.05199433;0.013851853;0.08494978;0.035738237;-0.23905014;0.008894116;0.008393115;0.08316606;0.035792414;0.09720826;-0.052220397;-0.17520763;-0.0026488767;-0.11297192;0.20227292;1.2171686;0.050525427;0.42729387;0.43855697;0.026136266;-0.03131295;0.017358271;0.10738928;0.36754602;0.025958858;-0.055693883;-0.068702035;0.04123175;0.026197854;0.6939341;0.054824006;-0.1261984;-1.2369993;0.17163938;-0.16419517;-0.49843666;-0.08428139;0.068961866;0.53088164;-0.09960417;0.012194494;-0.23945867;-0.09437041;0.012110909;-0.055667445;-0.06791924;-0.89824915;0.45158076;0.03287413;0.27229673;0.03473949;0.019871106;-1.2901225;-0.56419396;0.05876291;-0.036986277;0.06686992;0.10287282;0.21062824;1.0437781;0.69173986;-0.013664591;0.06454208;-0.06968445;-0.39110547;-0.115965225;-0.020668315;-0.03919491;-0.23002912;-0.19951667;-0.6403225;-0.30793476;0.010723629;-0.031693187;0.11895183;-0.06018492;0.09907648;-0.4805346;0.46452573;0.020854536;-0.058352496;0.46239167;-0.02709876;0.44634068;0.029504573;0.053492986;0.10423347;-0.042502046;-0.65366906;-0.9501368;1.6333946;0.04510399;-0.011152566;-0.20191795;0.036137555;1.8388894;0.06967565;0.063848026;0.048895195;-0.019051662;-0.060760263;0.10150489;0.044948768;-0.3715217;-0.040454227;-0.5104776;-0.018273948;0.4150542;0.019516625;0.04255026;1.6804957;-0.0404753;0.44853595;0.029577266;0.03592387;-0.02232924;-0.043703187;0.7518622;0.0071269628;0.20599279;-0.1657608;-0.032671064;-0.2557141;-0.011202288;-0.5620504;0.056204405;-0.24096301;-0.11580741;-0.044905268;-0.856433;-0.14173451;0.35512465;-0.21137244;-0.03206905;-0.008669639;-0.49591494;0.121280126;-0.13757534;-0.09736714;0.21931782;-1.909573;-0.0013959679;-0.06476711;-0.09576607;-0.07177155;-0.040298592;0.10264396;-0.039566547;-0.31962928;-0.17682771;0.087038666;-0.011882878;-0.035225958;0.030637776;-0.072115846;0.22732684;0.040972017;-0.048579533;0.05725689;-0.020252116;-0.061175194;0.07444838;-0.05072079
-0.9771907;0.06684948;-0.6093697;-0.028847553;-0.006404636;0.07696023;-0.01381639;-0.09376362;-0.094953164;0.53539044;-0.06401005;2.7470088;0.724463;-0.76323265;0.12854831;-0.18927006;-0.9217892;-0.03321305;0.72489536;-0.05898536;0.29127988;0.082411446;-0.13935465;1.2805724;0.024090348;0.8588165;0.050637357;-0.023141582;-0.22494452;-0.5117513;0.73944765;0.48956314;0.10809815;-0.10579302;0.034356985;-0.6621535;0.048745673;-0.13669676;-0.006431054;-0.58270264;-0.052946873;-0.0067235203;0.19150971;-0.40475163;0.98117006;-0.08678667;0.2820046;0.039873414;-0.40078056;0.025411708;-1.539544;-1.1509105;0.0068990877;-0.070576295;0.15976122;-0.058340248;-0.6451798;-0.093307436;1.0567695;-0.33790168;-0.08888488;-0.06881869;-0.37733802;0.6140941;-0.12856129;-0.019563578;1.0286623;0.043355495;0.031758554;3.8251477e-05;-0.06327694;-0.042230837;0.058604244;-0.3691185;1.2198191;0.7071016;-0.3627896;0.519779;-0.1102681;0.31171793;-0.06924109;0.043020982;-0.11994192;-0.59535646;0.4188613;0.03399735;1.8369627;-0.00892196;0.6554702;0.005483403;0.06569936;0.49775878;-0.05273773;0.35585335;-1.3564299;-0.029484909;-0.06043626;-0.029481575;-0.19027229;0.055760764;-0.37404183;0.07191452;-0.55567145;0.4483077;-0.0028158892;0.013271201;-0.016279636;-0.12131331;-0.08329721;-0.051716898;-0.050471775;-0.07140801;-0.046425134;0.02520363;0.016664268;-0.9588853;0.06361122;-0.13284726;0.053762756;-0.014999209;-0.05919627;0.08287043;0.069242105;-0.13532257;-0.5082003;0.06748298;0.03666251;0.16809605;0.10821721;-0.274396;0.30215;-0.07032175;0.24363768;1.289867;-0.0039306595;-1.0979125;1.3599755;0.40082115;-0.7012778;0.2578936;-0.02311072;-0.013262388;-0.06161154;-0.0089530945;-0.5371446;-0.063411176;-0.018489327;0.18152916;0.27581456;-0.12398681;-0.52016616;-0.018729733;-0.011246139;-1.0188577;0.1361589;-0.12959811;0.04803588;-0.094983235;-0.080778986;-0.3289424;-0.06611415;0.5293395;0.91187286;0.059603065;0.9440085;1.3002404;0.57182914;0.068603285;-0.026941443;-0.32861853;-0.058772296;-0.02807178;0.3474143;-0.05861151;-0.029073095;-0.028492622;0.0068969196;-0.09083659;0.060683087;-0.36537513;-0.21696794;-0.017493598;0.36276966;-0.017981917;0.021831593;-0.13701652;-0.027760318;0.52605623;0.1200105;-0.23586982;-0.06489216;0.07701774;0.11570199;0.01686494;-0.016516002;-0.005208274;-0.06335119;0.052919954;0.7992571;0.001239401;0.1545942;-0.0128821265;-0.088471465;0.30074972;0.32596704;-0.068858735;-0.050300945;-0.16838382;0.0652277;-0.02819857;0.110048495;-0.120900616;0.0027490132;0.02762189;0.081045635;0.08233089;-0.20514202;-0.12568071;-0.0596784;-0.03260183;-0.027982067;-0.11168556;1.4885457;-0.70845324;0.7052503;0.024436459;-0.0764559;-0.43749112;0.9126452;0.17562021;-0.41463763;-0.039649535;-0.07287071;0.020831753;-0.48100808;-0.16829439;0.15855102;-0.008946615;0.34779948;0.0048236893;-0.13479355;0.97754395;0.06642113;-0.011424379;0.016386652;-0.04673647;-0.3129639;0.040004227;0.18377848;-0.7241747;0.023806872;-0.047165155;-0.06134895;0.725946;0.04733138;-0.32887965;-0.06596046;-0.11916993;0.013846266;0.5871445;-0.020140622;1.0556719;-0.38832185;-0.046059184;0.011164717;-0.47805914;-0.25963405;0.17503259;-0.4656652;0.035721295;0.086329974;0.050405003;-0.000690427;-0.7965539;-0.14874116;-0.097698204;-1.44163;-0.00051350106;0.5153101;-0.07845903;-0.25971442;-0.023623915;0.14794785;-0.17059353;-0.004214273;-0.08986843;0.03324909;0.55366576;-0.022871058;0.086144365;-0.4239254;0.1236158;-0.43283603;-0.3032749;0.1421143;-0.16360554;0.111360796;-0.0018799768;-0.42771825;-0.101407945;0.46674898;1.0548546;-0.004138465;-1.9288077;-0.067783125;-0.6134806;0.07345176;-0.60613394;-0.016904548;-0.047780626;0.011791676;0.7610498;-0.20445888;-0.015521431;0.0094558885;0.023349527;-0.054707237;-0.033301316;0.08870108;0.10977937;0.031755235;-0.86607814;0.66995406;-0.052259386;1.003865;-1.7965801;-0.07618769;0.23621516;-0.31143335;-0.42340952;0.12822747;-0.026939556;-0.0634814;0.16091353;-0.114417166;-1.0853431;0.2866918;-0.018617136;-0.00018028452;0.01678403;-0.22295721;0.06685627;-0.08073545;2.2571433;-0.026478648;0.051441997;-0.088429295;0.19021413;-0.014718032;0.19552684;0.19633554;1.1070691;-0.010675192;0.014114693;-0.33393925;-0.023610482;-0.22993398;-0.032461677;-0.8368715;-0.04171357;-0.083941445;-0.04358823;-0.2676683;0.04749318;0.12250772;0.12358209;-0.09913263;0.41921186;0.085576;-0.027015822;0.06541157;-0.1163518;0.64158183;1.6394796;-0.02636421;0.03449407;-0.026459554;0.03266758;-0.089197375;1.7229187;0.00089323294;0.06424958;0.022478117;0.10595223;-0.010945644;-0.003252801;0.24690562;0.039817058;-0.78760165;0.50881606;0.031965457;-0.46356875;-0.036737673;-0.06194568;-0.016678339;0.031542387;-0.28708318;0.02250534;0.07757504;0.026844181;-0.073020995;0.01956725;0.014049849;-0.44064116;-0.09235294;-0.14102997;0.07779341;0.34876993;-0.35200876;-1.2876741;-0.18820438;0.2902402;-0.012097676;-0.0005011815;-0.03738887;-0.17536587;-0.018779492;-0.4925349;0.047953665;-0.0023391813;-0.31609112;0.4585021;-0.059165392;0.079601124;0.51978636;-0.13742177;-0.60455763;0.1460168;0.99432147;-0.0045751114;-1.7830632;-0.52686334;0.009141416;0.1324225;-0.03607127;-0.015599948;-0.416429;-0.4075577;-0.0932833;-0.023732089;-0.01920482;-0.71552527;1.0513536;0.00043177436;0.13491835;-0.15336426;-0.42153803;-0.086054504;0.17126223;-0.018936705;0.10837429;0.062806815;-0.01755803;-0.1589454;0.4836236;-0.012508304;0.03788226;-0.057243653;-0.14192052;-0.23249067;1.5739682;-0.02128943;0.2720434;-0.07918558;0.017944714;-1.089177;-0.53663665;0.0025850765;0.0045665693;0.3643998;-0.03859203;-0.61776644;1.1265941;-1.1645143;-0.5960346;-0.3897879;0.0784054;0.20047659;0.025973018;0.0899108;-0.02736185;0.16584185;1.3922503;0.3379756;-0.22640628;-0.05883414;-0.3747444;-0.39626813;-0.24084263;-0.08788431;0.2436031;0.5843267;-0.3349859;0.02737667;-0.22754142;0.04037142;1.1729109;-0.0942914;0.0804631;-0.13496524;0.04475311;0.28351137;1.1274042;0.16965634;0.026975548;0.043470774;0.67755437;0.0008664607;1.069942;-0.019384827;0.0073565566;0.07814132;-0.018196562;0.006777932;0.042826302;-0.022578185;1.0261099;-0.0637349;-0.08142033;-0.27654374;-0.42312035;0.2070462;0.003540974;-0.86895686;-0.5082995;1.1649486;-0.04437842;-0.32540902;0.0057672383;0.049542304;0.6248102;0.17408887;1.9061248;0.022188205;-0.008579346;0.32125628;-0.057345036;0.41816133;-0.16403927;0.26901358;-0.1425248;-0.38051224;-0.6855758;0.041368008;-0.21123323;-0.009940681;-0.034443665;0.0495087;0.7571855;0.22991136;-0.03461876;-0.037471;-0.27407217;0.7213646;-0.032080505;-0.08293044;0.04917989;0.07190881;-0.07519355;-0.36439648;0.073323;-0.38363123;0.72150755;0.063993655;-0.05290862;0.040722847;0.020742562;-0.0021271813;-0.28256965;0.037805196;0.26559702;0.008983646;-1.2696259;0.01689633;0.03709838;-0.0416136
-0.08980454;0.056163937;-0.3997486;-0.026028708;0.0075650103;0.02168597;0.02827068;-0.105227776;-0.005796092;0.14371188;-0.017273108;-0.8601864;0.49081108;-0.45209938;0.33089623;-0.65564513;0.45909485;0.03678783;0.33978856;-0.001719312;-0.0332681;0.02502173;0.3477039;-0.31484854;-0.09155644;0.4749894;-0.029495446;0.023668304;-0.21091054;-0.46800327;0.099716716;-0.3088796;-0.054484703;-0.11098532;-0.005443927;-0.42764288;0.3342548;1.9110943;-0.066179425;0.2608035;-0.08844965;-0.073550865;-0.30271682;-0.28945884;0.2780255;0.07902265;-0.059264082;-0.05645032;-0.32731095;-0.1526741;-0.81742346;0.22509852;0.018540606;-0.055126585;-0.7885367;0.053700346;0.1385047;-0.07316956;-0.5679195;-0.18156557;-0.07175664;0.0038281302;-0.2852147;-0.30533585;-0.08986714;-0.05144357;1.65064;0.021313306;0.062443577;0.023917176;0.0498057;-0.020235984;-0.063581616;-0.3866925;-0.3501684;0.03665542;-0.2824491;0.39361584;0.024845162;0.25425434;-0.07432034;-0.0519133;-0.0050282446;-0.4784665;2.1027958;-0.078841664;0.3926464;-0.06264926;0.044077124;-0.05126684;0.076515585;0.24150716;-0.023008168;-0.061345983;-1.2934657;-0.04133086;-0.069971174;2.3235178;0.18325491;0.023746436;-0.27370906;0.049581;-0.36007056;0.38390777;-0.07369271;0.0037174106;-0.036499247;0.053935193;-9.1619826e-05;-0.056728564;-0.041655578;-0.025525564;-0.08114205;-0.06610148;0.03372725;-0.07106848;0.03709127;-0.06590183;0.07036259;0.08898795;-0.078293584;-0.038584612;0.019860826;0.034724016;-0.38052166;-0.036509745;0.031216256;0.32280508;-0.015709141;-0.43998545;0.06014914;-0.05594734;-0.03425274;0.32941437;-0.049399436;-0.12155808;0.9096048;0.3384007;-0.16820456;0.2803087;-0.075842105;-0.060834933;0.11612909;-0.3992439;-0.606206;0.054784797;-0.045409247;-0.040832147;0.063473955;0.017312426;-0.77954304;0.015133443;0.050781153;-0.80329025;-0.055886235;0.049907472;0.026535138;-1.1919032;-0.04420909;-0.1508233;0.032612715;0.46759516;0.8230367;0.05344588;0.659584;2.380065;0.5265907;-0.08788755;-0.08625797;-0.33853188;-0.054205373;0.0059390035;0.18478952;-0.07687582;-0.009210543;0.019687815;-0.036690257;0.15251316;-0.0010854751;-0.2515997;-0.15332644;-0.020721504;0.17383613;-0.01226185;-0.0687863;0.4444378;-0.12319747;0.36147064;-0.44737917;0.0150959715;-0.091640316;-0.060825102;0.008282981;-0.015376263;0.04503423;-0.02593535;-0.20937869;0.039723262;0.14131145;0.037516836;0.83694464;-0.022659924;0.04281241;0.36898553;0.88493735;0.036819946;0.068156585;-0.5393672;-0.033906173;0.01811265;0.028788917;-0.018443663;-0.074357525;-0.3545485;0.2935398;-0.08926252;-0.030099882;0.08399484;-0.059533793;-0.031117199;-0.027100703;-0.0486189;0.5260743;-1.0097109;1.9290463;-0.009466717;0.06263157;-0.24690287;0.7472474;0.022447322;-0.34011406;0.064792186;-0.030145876;0.019483838;0.916004;-0.07921136;0.12844422;-0.14845502;0.08550005;-0.02752316;-0.057960525;0.72761333;-0.038875375;0.06402952;-0.062595;0.055457145;0.6371695;0.019259864;0.12650421;0.033257578;-0.065408066;-0.03233969;-0.065165065;-0.37532103;-0.009789702;-0.15376253;0.04146588;-0.13978252;-0.20447594;-0.1608247;0.059142593;-0.19214052;-0.2501778;0.008615831;-0.04445936;-0.39716542;1.6325539;-0.17485382;-0.31564263;0.021933984;-0.0665398;-0.043186076;-0.06451742;-1.3111769;-0.15741825;0.13243544;-0.7740679;-0.025084244;0.23811358;0.028165784;-0.006495538;0.03299928;0.106534235;0.061146785;0.057605058;-0.16332671;0.21785067;0.19868426;-0.07137947;0.33923635;0.108646505;0.6328567;0.39727792;-0.70035654;-0.004074084;-0.052639797;-0.0016981772;-0.010063293;-0.2958632;-0.0013340282;0.5764079;-0.3988763;0.07825693;-0.28662702;-0.060108777;-0.4949327;-0.42436612;-0.91202486;0.020702753;-0.039016914;-0.03550289;0.66586053;-0.043972086;-0.30978763;-0.037261024;-0.05804744;-0.04720927;-0.04381758;0.09909781;-0.03220434;-0.0063168383;-0.39099845;0.57430404;0.010823485;-0.092994094;0.09184086;-0.0902436;0.14027894;-0.1907057;-0.44129667;0.08158576;0.01014923;0.056495607;0.10109239;0.058253147;-0.36478126;0.25178197;0.00071547553;-0.013826974;-0.10423538;-0.15956391;0.010940846;-0.028476499;-0.633289;-0.021235911;0.11654155;-0.05560062;1.2427863;-0.08542204;0.09920457;1.4266113;0.32264727;0.039352786;-0.06424856;0.10260616;0.0044733295;-0.17344993;-0.9888573;-0.3378178;-0.14536165;0.0010037042;0.015856784;-0.040255953;0.01885213;-0.14043313;-0.009424406;0.07382898;0.23203692;-0.043426484;0.05416825;0.051343333;-1.0543789;0.5601127;1.2779526;-0.019265518;-0.07173353;0.002539737;-0.054769866;-0.07815188;-0.12834796;0.07084722;0.006065079;-0.09041437;-0.035018086;0.055200737;-0.054443356;0.3106862;0.03555789;-0.5557556;-0.025633752;-0.04424772;0.9641218;0.08119316;-0.050294943;-0.06584202;-0.044721387;-0.26197445;0.016591616;0.25901958;-0.042605452;-0.008599002;0.014264245;0.0075191157;-0.4158454;0.021339497;0.046039406;-0.58498186;0.08681409;-0.28684914;-0.003713305;0.08374575;-0.13533954;0.08974956;0.015616637;0.0393524;0.0025232013;-0.0068393857;-0.36074555;0.004312532;-0.022006413;-0.32854843;-0.122350626;0.016835984;-0.057720926;0.39849687;-0.09658913;-0.04187369;-0.43736625;-0.041837566;-0.03907039;-0.4688914;-0.5721978;-0.06813176;0.0021002432;0.028197547;-0.0022697158;0.09963391;-0.16884342;-0.051032405;0.06494497;-0.020528276;-0.4318651;-0.97453785;-0.012689072;0.041712675;-1.1810437;-0.50979596;0.048883513;0.20416777;-0.0074123847;0.05109296;0.33092746;-0.055451214;-0.004276743;0.021922342;0.010806686;-0.0715008;-0.057103742;-0.009064239;1.0813848;0.11935673;0.043477215;0.3897473;-0.052767884;0.07625491;-0.28148803;-0.35327348;-0.05958557;0.052050788;0.08830554;-0.070775695;-0.6971723;0.16813649;-1.6803254;-0.48110414;-0.084808916;-0.04175715;-0.18368722;-0.10919787;0.028669022;-0.08376014;0.076200776;0.26024172;-1.0547031;0.12939225;0.049511753;-0.34342793;-0.40010995;0.1612903;0.03372048;-0.32829234;0.99168783;-0.12215299;-0.0785048;-0.7975231;1.3626286e-05;0.7261619;0.044748046;-0.087645836;0.35652307;-0.031187601;0.3475501;0.5048805;0.5325709;0.07519451;-0.021129483;-0.28436568;0.028922718;0.0142731285;0.060197245;-0.0018381055;-0.0031407538;-0.08069618;-0.06936217;-0.05968683;-0.036070112;1.283358;-0.06331119;0.13446145;-0.19395877;-1.1691726;0.008109968;-0.07977644;-0.99564683;-0.45883936;0.5923828;0.0093347505;-0.25166884;-0.035432406;0.014715735;-0.9589885;0.04743223;0.69505024;0.061162937;-0.07271355;0.672543;0.04952216;-0.038832806;-0.01700591;0.052454535;-0.020537404;-0.23720077;0.07485009;-0.07422692;-0.08165431;-0.0013599591;-0.0027030462;-0.036194168;-0.09401936;-0.13754043;-0.031498678;-0.08164666;-0.040256523;1.6447142;-0.09649805;0.021054355;0.054656472;0.044414267;0.017740553;-0.3024202;-0.040555924;0.19484349;0.049415074;-0.011289923;0.062027108;-0.014859227;-0.05477789;0.02491543;-0.25146806;-0.05429051;0.072117545;-0.043562453;-1.1431445;-0.12514055;0.0858677;-0.053823084
0.57851213;-0.050783765;-0.60612255;0.048033703;0.09310499;0.28091866;-0.023042873;-0.26383582;-0.10018845;0.22915655;-0.21405894;-1.0619273;1.5054514;-0.9843061;-2.1060755;-1.3298289;-0.76518583;-0.015744919;0.36840296;-0.08149645;-0.27745932;-0.036913283;0.8000965;1.0477054;0.05870932;2.675381;-0.044875674;0.06564857;-0.4698301;-0.97350246;0.66398966;1.7015383;0.21401075;-0.24715106;0.06433074;0.0787489;1.854889;0.76118207;-0.034639716;0.82461715;0.12989302;-0.059833407;-0.9000069;-0.5531283;-1.2178627;-0.0772372;0.31920892;-0.05422573;-0.6208335;-1.1068763;-1.0061878;3.027938;-0.09624361;-0.0991081;-0.85842144;-0.13751535;1.4120302;-0.09280001;0.36215463;-0.52497935;0.048654135;0.4287079;-0.58263105;-2.7197325;-0.15108944;0.079103716;-4.0313826;0.03741463;0.07906104;-0.09085839;0.09209872;-0.07868335;0.09957585;-0.7596164;-0.2021822;0.34706053;-0.52337265;0.6387596;-0.1785804;0.30751732;-0.08775852;-0.0283737;0.005514679;-1.0229281;-1.1082662;0.0955019;-1.5135299;-0.008114535;-0.22801392;0.030701071;0.15842502;-0.67032087;-0.14257376;-0.011936271;-2.1669781;-0.008169377;-0.0931641;-0.79099363;0.8814168;0.056276754;-0.4081002;0.083551005;-0.7779037;0.6245623;-0.011790128;0.41099352;0.0011968601;0.035326414;0.011542957;0.017007884;0.098860264;-0.06016149;-0.08267437;-0.031006299;0.0732359;0.2109168;0.10942971;-0.25554463;-0.009880227;-0.04842643;0.068574294;0.04988846;0.051987495;-0.18965216;-0.6364266;0.14920163;0.01356844;-2.2959821;0.09347026;-0.42518353;-0.337415;0.024855793;-0.36243463;1.1744782;-0.04735421;2.2975986;-1.4909956;-0.5393914;0.09870537;0.51003087;-0.11494989;-0.10113806;-1.3423909;-0.5806663;-1.7759364;0.013411357;-0.045414403;-0.08236086;0.3030031;-0.18148632;-2.4524102;-0.013983801;-0.08574977;-0.892174;-0.08217809;-0.034358535;-0.021081995;1.8438308;-0.093449034;2.1143458;0.03910311;-0.11698409;1.1560239;0.06149613;-1.6997259;-0.69956523;-1.60156;-0.02168984;-0.034841437;-0.5650722;0.05522843;0.07685515;0.5259155;-0.013662202;0.035385676;0.07171744;-0.03550069;0.31561342;-0.012928664;-0.4350335;-0.30199063;0.030464849;0.72107536;-0.1006622;0.036176544;0.8839232;-0.16735156;1.2200786;0.09543082;-0.18050125;-0.16084433;-0.27593946;0.25616506;0.12191011;0.013687286;-0.1541637;-0.24766074;0.2028403;-0.77392334;-0.07253118;0.27212378;0.07103262;-0.0036126827;-0.745791;-0.5802243;0.029534366;-0.09825156;0.42484334;0.052606966;0.0064619803;0.030482002;0.0021315895;-0.08675931;0.0016936794;0.40429664;0.09942909;-0.050806936;-0.114474304;-0.16309108;-0.24953665;0.18494986;-0.13096899;2.008643;0.55488634;-0.20640577;0.066360176;0.047224;-0.6831053;1.1667271;0.234249;-0.62690234;-0.17004757;0.024768768;-0.07452403;-0.23298277;-0.26160875;-0.019183822;-0.21898825;0.29948995;-0.0013172621;-0.17794794;2.4015226;-0.30877843;0.1213998;-0.009123267;0.081620574;3.0120168;0.12802102;0.26148444;-0.14329532;-0.043246042;-0.12449023;0.08274202;0.98623157;0.036829043;-0.3936535;-0.10030376;-0.19932719;-0.3527026;-1.2309716;0.043140247;-1.7297959;-0.41793913;0.02177727;-0.07289834;0.41458622;-2.428673;-0.76360786;-0.8813439;-0.27305624;0.10961131;0.043581367;-0.013271362;-1.460762;-0.32947454;0.3053668;-0.8991856;0.1081342;0.5931409;-0.06055463;-0.08066991;0.031113915;0.16923754;0.15950027;-0.047053907;-0.14375691;0.18369827;0.5900294;-0.061734807;0.1290355;0.3996094;-0.25846443;2.304837;-0.80016434;1.5726715;-0.023539368;0.09402244;-0.13883027;-0.544207;-0.12204171;0.22509378;-1.2388959;-0.10009331;1.155348;0.054615233;-0.9272556;-0.19501606;-1.0999016;0.035889126;-0.04165411;-0.056498002;0.5912899;-0.21048576;-0.6674321;-0.028136924;0.08955745;0.09758171;0.04620565;0.071669586;0.1115706;-0.045249615;0.22041608;1.8283912;0.06355309;0.2264131;1.5849966;0.022246683;0.14603601;-0.42272314;0.08043089;0.08673122;-0.109383985;-0.05370519;0.20327002;0.048487425;-2.4155147;0.6699728;0.037673708;0.053900957;0.00011954931;-0.37571794;0.05905718;0.63758004;0.7715586;0.12826885;-0.02536215;0.0052885176;0.9368401;-0.20807016;1.452223;2.0054414;1.4312398;-0.1264117;0.102912694;-0.13042173;0.024291426;-0.8274335;-3.590578;0.04335182;-0.18418308;-0.10801272;-0.19779898;0.37767932;0.17411312;-0.27956796;0.18176968;-0.062724546;0.61091965;0.0022438224;-0.17116532;-0.02755836;0.3762134;1.1870302;0.43264374;-0.012947156;0.029631324;-0.08299939;0.06955881;-0.081902444;-1.3570522;-0.01215139;0.19336928;-0.10684606;0.1453909;0.07965695;0.096063375;0.33210707;-0.1420151;-0.87487507;0.70606047;-0.07261063;0.8739174;-0.09396863;-0.009512504;0.06705042;-0.045668457;-0.41360387;0.059375983;1.820493;-0.01306108;-0.087872915;-0.08766295;-0.0466139;-0.72770846;-0.07857207;-0.09801691;-0.16567776;0.4263787;-0.39020738;3.0893145;0.5732841;0.921264;0.19166207;0.036792714;0.005215721;-0.23794071;0.04229287;-0.81171596;-0.0151353935;0.042296376;-0.42206857;0.97677237;-0.093717076;-0.009039678;0.20724212;-0.21514423;-0.104185835;-0.16671357;-2.495794;0.040651;-0.11908211;-0.6000853;0.077564225;0.13366376;0.05160185;-0.2500483;0.99356425;-0.39590228;-0.029095592;0.048068926;-0.05899015;-0.7865045;1.4567711;-0.06790501;0.08152417;-0.59531957;-0.66718966;0.08240915;0.3184797;0.071827464;-0.033777714;0.09749508;-0.0031228259;-0.19780636;0.2446973;0.06121763;-0.08279618;0.06838648;-0.03235165;0.2255435;-4.5745034;0.06101516;0.062141333;-0.075866446;-0.013345502;-0.33596694;0.33419558;0.07478249;-0.037699535;0.0628323;-0.103037566;-1.2874382;-0.52857316;-1.6417122;-0.941395;-0.04936242;0.1526586;-0.3638611;0.042858277;0.10834703;0.09542818;0.32858425;1.5571848;-1.0889318;0.11027912;-0.03425701;-0.7104321;-0.7649198;1.4285156;-0.12119194;-0.7734601;-0.96985596;-0.44165087;-0.070255645;-0.10823421;0.009891718;-2.3936372;-0.05557687;0.042615652;-0.104698114;0.06860777;1.0273036;1.6429255;-2.3803937;-0.016520604;0.027404673;-0.5205217;0.09607183;-0.09285594;-0.093630604;-0.13694848;-0.07088816;0.046858083;-0.05505865;-0.13721478;-0.028774079;-1.0426902;0.08044938;0.178966;-0.18199557;-0.6517149;0.4052774;0.059956755;-1.8013597;-0.96366936;0.22432686;-0.052712824;-0.62281626;0.061693862;0.059046708;-2.6491523;-0.02319417;1.881343;0.16647127;0.116435684;1.1879649;-0.046876643;1.9913872;-0.065127246;-0.12570137;0.025074849;-0.5140599;-0.8376809;0.048843585;-0.38443416;0.1668026;0.001958418;-0.11501233;-0.86838377;0.20595291;-0.16129847;-0.07627237;-0.33349988;1.6575861;-0.21878056;-0.039967533;-0.033787902;0.019926628;-0.042914636;-0.5699696;0.06349337;-0.3529684;0.45217788;0.012764901;-0.061871078;-0.01792829;-0.061495267;0.090560794;-0.33628097;0.0831855;0.31055638;-0.0014260379;-1.0576967;-0.068709366;-0.06506364;0.033148255
0.4079516;-0.089922;-0.025704771;0.087770686;0.0860274;-0.4552549;-0.027947942;-0.12214242;0.01635696;-0.013457702;-0.0061236555;0.16454515;-0.12865128;-0.3735155;-0.039627533;-0.7678907;-0.59118205;0.0077924714;-0.11556217;-0.087021366;0.21190892;0.019658625;0.18495177;1.4310473;-0.017081488;-0.08476604;-0.037237838;0.10795119;-0.16360974;-0.5873327;0.378098;-0.8495941;0.14867088;-0.116497636;-0.071721464;-0.8047741;0.3158584;-0.1751684;-0.07345904;0.03885912;0.07756276;-0.040708315;-0.027716188;-0.27597243;0.94702154;0.02112878;-0.07319104;-0.028506087;-0.31997252;-1.1914052;-0.7062319;0.054399826;0.0031362793;0.07058258;0.25791195;-0.07344964;0.060326252;-0.07804513;0.42490405;-0.1716739;0.056839634;0.42542657;-0.07098281;-1.2932538;-0.03273104;0.013611216;-1.4222437;-0.06233293;0.13681805;0.0308933;0.11185189;-0.063525915;0.103183925;-0.35365337;0.39166644;0.40054408;-0.29158655;0.8044612;-0.1322428;0.15738678;0.05118823;-0.08148389;-0.10951014;-0.659843;0.22448348;-0.020627074;-0.05034911;-0.093011424;0.1628195;0.00010457194;-0.01712578;0.48309118;-0.1053858;-0.24336284;0.40091345;0.08096555;-0.116578415;-1.0584794;0.5237554;0.049173214;-0.29899263;-0.043949947;-0.50808835;0.67594117;0.056952596;0.10233161;0.0835737;0.09589265;-0.10131794;-0.025229428;-0.011847847;-0.052429322;-0.120364934;0.042187538;0.10642372;0.2562602;0.058071572;-0.14502223;0.011799616;-0.06471819;0.05433859;0.045244902;0.0165649;-0.10115056;-0.54787606;0.12289269;-0.014021206;-0.29224765;0.0665239;0.45214832;-0.34037516;0.014691484;-0.009389683;-0.09240596;-0.07909894;1.2565087;-1.0134894;0.06592651;0.037206195;-0.2088721;-0.095130585;-0.12717342;0.0010483502;-0.5945912;-0.5746279;-0.044694837;-0.0331028;0.09295013;-0.0680642;-0.13843378;1.4043051;-0.061072934;0.05565181;-0.14143544;0.06264023;-0.10428322;0.015155278;-0.30871728;-0.012879229;-0.12261395;0.04721071;-0.38081938;0.02961887;0.0021960652;-0.39154452;-0.5952501;0.34519383;0.08749944;0.05128703;-0.34922665;-0.02272397;0.09708251;0.15408021;-0.031887904;-0.027956089;0.022815743;0.03119034;0.2029162;-0.009817781;-0.18773794;-0.13246655;-0.039955385;0.32978788;-0.14776307;0.0048779193;-0.07252764;-0.109155;-0.8214916;0.43579477;0.046778258;-0.13330051;-0.03009547;0.09904102;0.08893318;-0.040998206;-0.030593796;-0.33543;0.07637444;-0.16142544;0.032577626;-0.22603239;0.016449712;-0.06674526;-0.26893634;-0.14133076;-0.055112638;-0.04259494;-0.11303931;-0.048793282;-0.059862778;0.10219068;0.059748627;0.0068951184;0.892769;0.20666638;0.07897424;0.005832348;0.048095394;-0.07170022;-0.09131981;0.087783985;-0.09781192;1.2148112;1.185987;-1.4303243;-0.04147693;-0.08653878;-0.3900867;-0.28508532;0.090505555;-0.3479533;-0.021492014;0.038098015;-0.05456725;-0.4342671;-0.09707398;0.22707899;0.009563695;0.01368486;0.0041144183;-0.19046211;0.8395793;-0.4119235;0.007330964;0.028287677;0.07634781;2.1382232;0.1185053;0.065909736;-0.08102596;0.024551494;0.061095033;-0.07676289;1.1547529;-0.02269557;-0.14392553;-0.10152525;-0.5203078;0.110133;0.2924003;0.0883387;-0.77467024;-0.21993311;-0.055690836;-0.0033190278;0.37392652;-0.29994157;0.031422045;-0.57523894;-0.10561687;0.033596277;-0.026213802;0.028587287;-0.31325752;0.48807406;0.21473667;-0.6625577;0.035730302;0.6455494;-0.11367325;0.11467157;-0.01479611;0.1315688;0.06177863;0.06532172;-0.21411881;0.15890506;-0.13201614;0.019485798;0.20508046;0.34693357;-0.8530144;-0.3626446;0.30312485;0.47876728;0.03964931;0.046596702;0.019626718;-0.29354587;-0.11178958;0.3346572;0.3147362;0.039505895;0.7489634;-0.16549489;-0.59095776;0.37851533;0.1955751;0.020607874;0.067419425;0.020354148;-0.18478653;-0.060935564;0.1968104;-0.07876539;-0.02722101;-0.025655136;0.042656258;0.12183416;-0.039924957;0.006433271;-0.7732401;-0.2549532;0.0559286;-0.37747976;1.2367942;0.039095502;0.06628753;-0.2680909;0.58371484;0.10196265;-0.08174165;0.034923073;-0.21197128;0.047610484;0.1432481;0.32875696;0.07102786;-0.0057147364;0.13224098;-0.21623859;-0.014875309;0.23604918;0.029414637;0.09102198;0.118138134;-0.031631727;-0.3852142;-0.09750875;-0.017432885;-1.7503142;2.030233;-0.07403075;0.041010458;-0.03613656;-0.051274486;-0.4448596;0.20793343;-0.40875977;-0.15495421;-0.062477946;-0.030955842;0.123312704;0.043865275;-0.21287252;-0.03302026;-0.08546439;0.30652782;0.050474975;-0.123194665;-0.005375161;0.5353725;1.5052499;0.22385749;0.05661918;-0.040730998;-0.08663166;-0.028605355;0.0031568124;0.3105894;-0.082486875;0.034330353;0.027759396;0.115174174;0.062765695;0.0026165156;0.27767333;-0.038085923;-0.44237527;0.20890874;0.0064034346;-1.4925829;0.005459236;0.0036380263;0.090168595;0.030118449;-0.18514048;-0.019875918;-1.1618919;0.024435677;0.026126578;-0.07928979;-0.050403863;-0.41522306;0.020970132;-0.09155083;1.4360992;0.15259042;-0.1958287;-0.60448134;0.34268314;0.38628224;0.085649766;0.039777674;-0.07583737;-0.19659059;0.0036155118;-0.21811515;-0.06286333;-0.0075878864;-0.28280678;0.78583;-0.043419663;0.0112618795;0.2336943;0.011194485;0.6855883;-0.10327539;-0.55212533;0.037320577;0.2693792;-0.36115223;0.119821735;0.1934756;0.04689384;-0.10521472;0.837329;-0.25386408;-0.057289988;0.047488775;0.072787456;-0.41969833;0.17040181;0.0059182625;-0.012460921;0.94466585;0.27279603;-0.010259646;-0.21603703;0.10106694;-0.45666796;0.78101516;-0.014915664;-0.2932218;0.23049368;0.031937256;-0.08099512;-0.03376872;0.06597559;-0.87537026;-0.07243492;0.098014034;-0.2717383;-0.07819437;0.028357252;0.13296983;0.5531421;0.056678366;0.029817186;0.101714104;-0.023912363;1.4783896;0.24479727;0.35031423;-0.5807994;0.24122894;0.0955891;-0.12250595;0.060200557;0.039369278;-0.006252778;0.02722298;1.0921228;1.8673503;0.17677677;0.039347064;-0.40969452;-0.4548715;-0.8683821;0.00039698274;-0.62383175;-0.6766838;-0.250895;-0.0031215374;0.3769913;0.021182014;-0.36140007;0.0049714553;-0.0222977;-1.6090412;0.08235038;-0.27083582;-1.0916746;0.20945087;-0.09604967;0.007014595;-0.4539058;0.047008924;-0.8833603;-0.10205778;-0.14779282;0.0617581;0.0018317669;0.012041906;-0.009654899;-0.05224635;-0.41479772;-0.060283888;0.27024752;0.10205989;0.7034488;0.36629292;-0.012313817;1.018137;-0.6370225;0.42648134;-0.011470746;-0.24144848;0.05272837;0.033055495;0.31210977;-0.06569959;1.9321975;0.083078936;0.0049202624;0.07853697;-0.0017726951;-0.04806493;0.06363606;0.044966284;-0.093676865;-0.28698167;-0.60445803;0.06092761;0.00850179;0.11640676;-0.0010371943;-0.0765764;-0.27094117;-0.067476146;-0.01801781;0.063715935;-0.06989785;-0.4956551;-0.09793137;0.027626853;-0.0020362104;0.02739209;-0.034737643;-0.33404148;0.108314425;-0.10455973;1.4259549;-0.04783538;-0.11324512;-0.03531588;-0.05154071;0.102302864;-0.03715783;-0.035416733;0.06452422;0.0154246865;-1.0175831;-0.17460792;-0.07870628;-0.01043529
-0.26961356;0.0037601776;0.4286738;0.10643687;0.10078614;-0.55120915;-0.07282099;0.00944747;-0.10716166;-0.34648374;-0.04784648;0.22751607;1.3156149;0.013463197;-0.19334292;-0.37258765;-0.50059533;-0.08021626;0.11759047;-0.09970449;-0.28517264;-0.02307035;-0.23698774;-0.7565833;0.099858254;-0.9288949;0.053970564;0.07908138;-0.04214259;0.17158292;-0.41219646;2.1238024;0.06254252;-0.03808948;0.16212012;0.2839056;-0.58055806;-1.1609328;0.015530623;0.2044228;0.19130312;-0.10464308;-0.4691143;0.047994033;0.36282718;0.071633786;-0.396095;-0.034464434;0.088048585;-0.7475814;0.0050972463;0.289756;0.012178074;0.08952064;0.5056383;-0.17788066;0.33395594;0.02071655;0.022142326;-0.06612232;0.057809427;0.033912316;0.081689745;-1.8147818;0.07601681;0.15164009;-0.06855723;-0.1689908;0.10023875;0.038482413;-0.098783284;-0.07075329;0.10327448;0.19313477;-0.58500147;-0.17512967;0.051166233;-0.057420347;-0.012164274;-0.090025514;-0.0015686012;0.07337749;-0.072788835;0.20173834;-0.06317616;0.09635435;-0.4504;0.02745073;0.25255734;0.13056561;0.12968677;-0.4283708;-0.02122541;-0.21795145;-0.41555557;0.078000546;-0.13535169;-0.91894853;0.06648891;0.120821305;-0.0065154512;0.015515685;0.06619295;0.06339194;0.06720978;0.10724311;0.10728053;0.11755931;0.06215556;0.11156523;0.03452325;-0.2019203;-0.043121763;-0.14496748;0.087616995;-0.48275918;0.13952845;-0.011572296;-0.08234957;0.012814323;0.16620418;0.014180561;-0.023368549;-0.12699544;-0.1298677;0.10411342;-0.0008796257;-0.5659653;0.13337332;-0.19408993;-0.50225616;-0.0484706;0.34754103;0.68987334;0.12269226;-0.43009508;-0.3214959;0.48794863;-0.07818557;-0.33152393;-0.042218365;-0.17359978;-2.7028892;-0.5550801;-0.6485434;-0.00090436824;0.07493764;0.061504357;-0.11246457;-0.16434343;-0.6647261;-0.09764803;-0.10592833;0.12651417;0.01620643;-0.11726093;0.10498686;0.37274328;-0.052486718;0.12666012;0.07403998;0.58889127;0.86316353;0.09161605;-0.48002797;-0.26753905;-0.21147634;0.03222665;0.07097557;0.024526661;0.13509332;0.117808245;-0.15160877;-0.06934295;0.10538151;0.0053759245;-0.14800604;-0.254074;-0.01710073;-0.022503154;-0.19710816;0.11151264;-0.22726397;-0.13903126;0.11243612;-0.68011403;-0.11226047;0.5082126;-0.09616914;0.04500797;-0.040354166;-0.14080407;0.086004645;0.05220534;-0.081309654;-0.1450655;0.5882451;0.055835675;-0.24960354;-0.11896294;-0.44228175;-0.02452059;-0.06722203;0.41848156;-1.5596852;-0.09863677;-0.12690794;0.26805422;-0.020395534;-0.07771747;0.1082239;-0.2040165;-0.13373074;0.015541411;-1.471431;0.08847238;-0.07042758;-0.025150498;-0.10506514;-0.047219124;0.016710501;-0.038143422;0.071784675;-0.27872583;-0.25970668;0.112960786;-0.030055927;-0.040984813;-0.109317526;-0.010376296;0.0758529;-0.19364116;-0.15707235;-0.15272255;-0.36246526;-0.10526737;0.18116315;0.08404319;-0.19281821;0.036928073;-0.10044488;1.4053019;0.10039056;0.041640032;-0.036981523;0.11684069;0.30281246;0.2013061;0.011758048;-0.25870383;-0.04566634;-0.15722102;0.06244348;1.0529727;0.075579055;-0.08409266;-0.08793976;0.02014211;-0.18197267;-0.06760041;-0.5809477;-0.95024043;-0.05767394;-0.018788187;-0.13709791;-0.5519802;-0.15859702;-0.53071326;0.13720657;0.16424152;0.16299449;0.0737513;-0.06959899;0.82412744;0.5120564;0.083106786;0.8331999;-0.06764488;0.34157735;-0.26767474;-0.08216138;0.016876029;0.063171215;0.07407275;-0.028747834;0.18049711;-0.7327603;-0.15948994;-0.06452787;-0.4709597;0.028201824;0.58257765;-0.21621321;-0.09087279;0.67005587;-0.32673445;0.10921453;-0.052571997;-0.06419416;-0.15151666;-0.140587;-0.4590297;-0.14167754;-0.70477825;-0.054068662;0.22854213;0.51520824;-0.9230292;0.09446509;0.00038832077;-0.021459226;0.12327992;-0.030886386;-0.58196425;0.1493959;0.09723324;0.037412718;0.07877999;-0.056016635;0.07250911;-0.007229127;0.7297413;0.06638399;-0.0646387;-0.113208346;0.35476214;0.07293177;0.026575362;-0.06434257;-0.0031000266;0.1662878;-0.11670836;0.04455333;-0.074540846;0.016237317;0.87994635;-0.14301555;0.1252881;-0.14023206;-0.0111413915;-0.09538502;0.01865282;-0.110103585;0.65136904;0.2165276;-0.16513968;-0.13596293;-0.74500746;-0.34734884;-0.62310445;-0.8583743;1.0583771;-0.038336515;0.14051661;-0.047241;0.12175773;-0.096920036;-0.23829027;-0.66435593;0.084868595;-0.014512699;-0.055192403;0.751796;0.16965231;-0.0027423734;0.11441148;-0.20088468;1.123819;0.06779455;-0.115747936;0.102369845;0.2945048;-2.824122;1.0965918;-0.14368911;0.02335777;-0.10766594;-0.0034746635;-0.10369911;-0.2856065;-0.070604414;0.1529862;0.032789323;0.030242892;-0.03795357;0.1832167;-0.22993863;-0.08442252;0.094447054;0.9949057;-0.05451226;-0.69266295;-0.0037401791;0.08072785;0.17462295;-0.15993808;0.016063126;0.12752576;-0.0013203458;0.011721305;-0.12865905;-0.14601293;-0.14014503;0.12094574;-0.045263983;-0.07499702;0.20609863;-0.03492877;-0.043478295;-0.5106321;-0.41541067;0.19045652;0.14158207;-0.1463201;-0.091919415;-0.08942086;-0.086858764;0.25767076;0.15826504;0.010086237;0.010496788;-0.27340224;-0.13928665;0.17749488;-0.43479577;-0.13402873;-0.14066665;0.24143608;-1.3151752;0.034284372;-1.1585506;0.10375347;0.06619711;0.12417942;-0.040718883;-0.13495508;-0.2877552;-0.05908098;0.065941915;0.054489125;0.032088034;0.09247613;1.3501844;-0.12638251;0.13948281;0.49390644;0.19483605;0.070354864;-0.28644323;0.11300686;-0.23311132;-0.76394737;0.13760813;-0.15973641;-0.40635848;0.03799203;-0.03841482;0.1510751;0.02398632;-0.44900802;-1.6792566;0.18601327;-0.31330475;-0.032361742;0.024859717;-0.452331;-0.27234578;0.044913433;0.076384105;0.26119322;-0.17386566;1.8302295;-0.16007236;-0.34366247;0.23314731;0.16410783;0.06673688;-0.22382984;0.1963083;0.19382359;0.053625558;0.17470266;0.18643703;0.71417737;-0.0035237842;0.026501535;0.1288693;0.24381097;-0.6704872;-0.075649016;1.2829782;-0.06572653;0.013490914;-0.010155974;-0.26189625;0.0006835255;0.71862084;-0.0392003;0.04750849;0.26546654;0.038389564;-0.1564026;0.06609865;0.40257108;-0.030547168;0.13323519;1.2759603;0.051002756;0.3857399;-0.17418668;-0.090010606;-0.020967748;0.106347606;-0.12067041;-0.048153292;-0.17528477;-0.9572657;0.032603763;0.040406037;0.06865365;-0.81469965;-0.20873053;0.1527082;-0.87107253;0.16882236;-0.5106948;-0.09127464;-0.0554549;-0.023430508;-0.030530833;-0.24500076;-0.06858703;0.20514409;0.12373198;0.028409926;-0.6932591;0.11153804;0.35202104;-0.124834426;0.11320825;-0.0958152;0.06456304;0.08804528;0.15083766;0.22885479;0.040032804;-0.031943098;-0.058882955;0.77831835;-0.06658988;0.12996493;0.04861329;-0.075586416;1.1558385;-0.1314706;-0.11703527;0.051705282;-0.008900515;0.05168428;0.06757085;0.046107564;-0.28786433;0.2780664;0.0886243;-0.1417748;0.17979927;-0.121262275;0.032211397;0.07819723;-0.024405368;-0.0070555797;0.110411905;0.2480913;0.18321002;-0.14891775;-0.15195368
0.021729317;0.04413972;0.017146079;-0.0029074529;0.0070048585;0.092731684;0.01885591;0.092688136;0.054880213;0.21237265;-0.008959937;2.4307158;-0.048505753;-0.080341205;0.07171495;0.0014990137;1.4075577;0.023732785;2.0485923;0.063472345;0.585689;0.043467887;-0.9008188;1.8391567;-0.08098901;0.6295772;0.04329891;-0.010451508;-0.04804139;-0.20325932;0.29622105;0.21783212;-0.12018;0.042431913;-0.0055692;-0.581679;-0.12793526;-1.0731037;0.07877769;-0.17102885;-0.022672579;0.07103973;-1.1243489;-0.027542487;0.9839633;0.07281843;0.43112844;0.09819317;-0.0030973477;-0.33532497;0.094577305;-1.9483972;0.065386206;-0.0067494535;-0.63505715;0.016491396;-0.12621279;0.04329497;-0.088436715;0.05843694;-0.101844266;1.1030989;0.02755564;-2.714971;-0.17192297;0.013773524;-0.93926203;0.06584213;-0.05630577;-0.058494397;0.026670713;0.030674357;-0.032743942;-0.013183414;-0.38896194;1.124931;0.08822332;1.1486205;-0.006649572;-0.28940102;-0.031015981;0.043969925;0.08655023;-0.07063674;-0.21057345;-0.062408797;-0.037171707;-0.020768082;0.062664635;-0.070831515;-0.042045478;0.5331596;0.06041058;-0.08662538;-1.0467968;-0.03116619;0.094385214;-0.82852703;0.016179804;-0.10895521;0.08614571;0.06551172;-0.26931083;0.6754819;-0.07168859;0.13291122;-0.032907024;0.065006755;-0.02247123;-0.1309509;-0.07798836;0.021346057;0.013352243;-0.06013232;-0.05182691;-0.191853;-0.0044749705;0.016919717;0.05978005;-0.098907985;-0.010158962;0.0016578514;0.08860764;0.1132297;-0.6389334;0.010673559;0.0674052;-0.21072736;-0.14476432;1.1960679;0.45885593;0.07086329;-0.01920891;-0.2657846;-0.0758842;1.0766635;-0.18796867;0.05217066;-0.4871361;0.21882717;0.020581797;0.018531173;-2.7143412;-0.073043495;-0.59360594;0.06818091;-0.05659385;-0.048507657;0.11116884;0.07233606;-0.6986006;0.029501399;0.024651652;-0.997414;-0.024012865;0.0061718947;0.03312229;-0.6266089;-0.0012521633;1.4731554;0.034372136;-0.86678904;1.3689198;-0.04090197;0.94070977;-0.9781177;-0.7567032;0.031213861;-0.04823536;-0.037698604;-0.037261717;0.009424936;-0.10516702;-0.013157992;-0.057470195;0.04246862;0.049027946;-0.37399983;0.022411712;-0.042979915;-0.034607306;-0.12725094;-0.061976016;0.05621198;-0.17606582;0.45017055;0.013328343;0.43820694;-0.2511674;0.09259937;0.06749261;-0.061827775;-0.007870519;0.044753797;0.04077729;0.13005577;0.02001043;-0.14046215;-0.11377854;0.08073586;0.34704864;0.030647688;0.014645041;0.7316999;0.22763349;0.03235015;0.079001814;-0.5192544;-0.042994305;-0.02620374;-0.09907541;0.09308862;0.0902843;-0.075781316;-1.2910479;-0.045732547;0.004542314;0.019518342;0.1099382;0.14278139;-0.018498307;-0.011263435;-0.008602629;0.42842507;-0.22094868;-0.093821466;0.06392117;-0.0062882407;-0.056696616;-0.046373025;0.009749348;0.12507789;-0.022385921;0.042853948;0.28363705;0.061428193;0.092716634;-0.07106714;0.6065028;0.0051851408;0.07361317;0.09970553;-0.13428845;-0.033050958;0.03799782;-0.051981084;-0.7695969;-0.07053785;-0.114179306;1.3428026;0.019204265;0.011968742;-0.039620835;-1.1232305;-0.06446668;0.10456362;0.011304004;-0.1686287;0.14297715;-1.1707636;0.021071613;-1.2571312;-0.014577123;0.01570907;0.017608277;1.4925168;-0.946261;-0.3725875;-0.13278121;0.10932289;-0.17087652;0.029473355;0.041942198;0.42655575;-0.037878405;0.0903674;0.35389706;-0.12366881;-0.01542472;-0.07970815;-0.2628185;-0.0073475796;-0.034185976;-0.10079402;-0.06864433;-0.03433012;0.1432467;-0.05034903;-0.07258182;1.3631849;-0.005644193;0.060935855;-1.66649;0.4720056;-0.1897314;0.267341;-0.14214197;0.055195853;0.051755555;0.011475413;0.037282497;-0.30103514;-0.036833946;-1.7465428;-0.054482087;-0.17599289;-0.26419178;0.30938518;0.0087828;0.040947463;0.078791775;-0.3880563;-0.005734803;-0.13841254;-0.035781763;0.018435342;0.018833319;-0.09274531;-0.09040181;0.0020730158;0.018718502;-0.2056131;-1.2446822;-0.04036955;-0.15883307;0.7712501;0.0018384339;-0.11323875;0.07275236;1.3577574;-0.049505703;0.081208006;0.023190012;-0.042370003;0.009855909;1.0507864;0.009320653;-0.10869281;-0.021426158;-0.07207079;0.03490861;-0.010213715;-0.53724855;-2.197902;0.020242551;0.07113647;0.088179186;-0.40378726;0.051256705;-0.6479001;-0.0064214724;0.9292857;0.0656587;-0.015232594;-0.15426064;-0.0676208;-0.9145523;1.2260284;-0.010047454;0.037051022;0.033474743;0.08716166;0.8913217;-0.036993023;0.02664164;-0.11529934;-0.0027837157;0.45051974;-0.033658773;0.14320287;-0.050397564;1.9199964;-2.472559;-0.5431912;0.08950878;0.024040306;0.018406626;-0.035203736;-0.069677725;-0.29898235;0.044097375;-0.04996035;0.048668217;-0.050381426;-0.019331548;-0.14495824;-0.26523575;-0.042992182;-0.039150298;0.09791017;0.08810777;0.043834634;0.019353703;-0.044000763;-0.032054693;-0.06558653;0.09716614;0.05106798;-0.15674083;-0.0029107714;-0.0064454023;0.10538629;-0.034666445;0.039389268;-0.065493815;0.07945356;-0.08208753;-0.20654425;-0.010498573;-0.87485653;0.08107253;1.4310492;-0.05100976;-0.037293702;-0.050677825;0.026331177;0.08098143;-0.011852897;-0.092814825;-0.03975168;0.098484546;-1.718492;0.09213041;-0.026890235;-0.93090725;0.023399929;0.6503263;-0.027085261;-1.2613928;0.0403432;0.2874835;0.026299747;-0.10395867;-0.17112406;0.034711123;0.040383376;-0.08229797;0.037021488;-0.070559695;-0.114545465;0.07272826;-0.09564194;-2.5481038;-0.019111285;-0.03571531;-0.7794647;0.21358843;-0.187883;0.15615098;-0.05336473;0.067912266;0.6281366;0.026782306;-0.19512567;0.11520108;-0.05383573;0.014654487;0.018445622;0.056656152;-0.37501255;-0.1916209;-0.09170292;-0.040413246;-0.024566617;-0.03313931;-0.35925323;0.60343593;0.070329286;-0.06949483;0.14755875;0.12443692;-0.19108732;-0.11035932;1.448664;-0.03609099;0.28987715;-0.1482242;-0.010676676;-0.015871773;0.012795666;0.0062975786;0.096990064;-0.82168436;0.8340884;0.054393195;-0.104509205;0.054754168;-0.020888245;-0.5023136;0.00787797;0.07834352;-0.29865533;0.09633842;-0.028044129;0.15561964;-0.033196278;-0.5142223;0.030517874;0.00980402;-1.6778753;0.0332186;-1.1263226;-0.16926573;-1.1367078;0.02834299;-0.07722258;-0.9977412;-0.07048507;-1.3510531;0.03637029;0.023297375;-0.06734839;-0.04636702;0.06891001;-0.028211227;0.116677545;0.62157375;-0.03529888;-0.26926938;0.014508246;1.8426847;-0.04497175;-0.04279944;0.9452995;-0.18330783;-0.8567527;0.07124786;0.08850851;-0.02515536;-0.03038473;0.25918496;0.08735836;-0.8154302;-0.1186068;0.025832763;0.42339996;0.048976474;0.06510584;0.061254885;0.20612586;-0.0051179538;0.10834451;0.4054022;-0.055237345;0.30870995;-0.0014569603;0.04249972;-0.048667874;-1.181583;-0.0008260131;0.016860183;-0.04483792;0.06296168;-1.1772332;-0.022499757;-0.031105245;-0.059645068;-0.029807732;0.035258535;0.053418744;-0.059069447;0.051812466;-0.09060571;0.019928925;0.119916774;-0.06453766;0.06425556;-0.08261141;0.2915393;-0.02279383;-0.02641521;0.043385427;0.3926277;-0.04215947;-0.019166442;-0.0006043077
0.18039306;-0.037274297;0.49880472;-0.04195009;-0.041960053;-0.37003168;0.048166063;0.070885725;0.095204294;1.2443253;0.19904457;-0.08889792;-0.41258845;0.071353845;-0.5113122;-0.60191035;0.09021921;-0.09391341;0.35960388;-0.07499034;-0.19247761;-0.071597785;0.05985073;-1.3023866;-0.03445829;0.4834822;0.0028327282;-0.06811655;0.18790883;0.20974231;-0.35297608;0.20141952;-0.14921917;0.15964653;-0.01917103;0.16151944;0.50654876;-1.7179271;-0.032050133;-0.027523506;-0.04758722;-0.020519186;0.5326563;0.22736138;-0.08136815;-0.06724292;-0.14114612;-0.012897803;0.24736497;-1.3164601;-0.4140623;-2.6025732;-0.010302467;0.033217926;-0.15403286;-0.04031161;0.2926526;0.02384294;1.8468057;0.17200093;-0.050925896;0.12399455;0.21507278;-0.018532466;-0.1000903;0.07482032;-1.8834089;-0.14013948;-0.03609542;-0.014838192;-0.13139722;0.025865193;-0.010920097;0.28686133;0.73208797;1.265552;0.24765374;0.59173197;0.1728696;-0.18253459;-0.056046594;-0.09779197;0.01739352;0.14972252;-0.36145017;-0.07364653;-0.3566525;0.009675038;0.083660185;0.04627913;0.020277957;0.18797046;0.049867373;-0.34794736;-1.0774969;-0.043657437;-0.08671743;-0.61771137;-0.13373743;-0.017480014;0.22714429;-0.036338568;0.051561672;0.69859713;-0.031712323;0.08662538;0.055193793;0.16413197;-0.030152792;-0.088704005;0.070932575;0.074560985;-0.12002721;0.009112151;-0.028710868;-1.9649129;-0.06710891;0.03631903;0.028771473;0.013708122;-0.028763909;0.08819527;-0.027227819;0.047271665;0.50059444;-0.035136953;-0.052257244;-0.33748838;0.0016404977;-0.6480057;-0.23588796;0.006437358;0.018010728;-0.5857783;-0.030774716;0.68568057;-0.2208318;0.8733735;-0.27508566;-0.40069017;0.02838691;0.066183545;-1.9523553;-0.3035771;-0.12420334;0.024453538;-0.03301642;-0.003991806;-0.13484626;0.046806525;-0.8592383;-0.082530655;0.016476216;0.64233;-0.075760484;0.071132995;-0.055635788;-0.72328705;0.0005711673;-0.19017605;0.017951213;0.049107436;0.40387696;0.014985325;0.45752752;-0.9357029;-0.10517294;0.08424389;0.026495276;0.11807248;0.0028387588;0.053602677;-0.22640392;-0.037458457;-0.047806922;0.03318369;-0.067470744;-0.18027535;-0.011448699;0.13298924;-0.014558628;-0.07713953;-0.35043955;-0.026379857;-0.09036659;-0.3998285;-0.1380758;0.5856359;-0.16995615;0.09862086;0.09718419;-0.31571698;-0.27547172;0.038163237;0.0013108139;0.040866945;-0.09001566;-0.14099951;-0.18306515;-0.07494084;-0.52198434;-0.08185916;0.064588465;0.34777954;-1.0709697;-0.07287046;-0.053176496;-0.33888903;-0.04239795;-0.024057291;-0.06085528;-0.011188009;-0.06161499;0.102084115;-1.5603323;-0.04770222;-0.062054045;0.06461735;0.110363334;0.07854761;0.0041573825;0.085135214;-0.7992247;-0.12199541;-0.7672899;-0.0354955;0.05681401;0.16902015;0.42494938;-0.11365871;0.1987866;-0.057624012;-0.08408795;0.042668946;0.020841308;0.14563239;-0.06819303;0.35616362;0.6086231;-0.08781346;0.12240196;0.05459134;-0.21274915;-0.05892207;-0.0922375;-0.06856588;0.6429624;-0.06755983;-0.06772932;-0.036790483;-0.017491741;-0.04687587;-0.07153589;-1.496584;0.07479218;0.0791286;0.010265431;-0.2644558;0.4825726;-1.3455544;0.046591207;-1.4061867;0.12928645;-0.027320787;0.046852205;-0.17708415;-0.8373573;-0.3576252;-0.028803546;-0.06585593;-0.095693864;-0.069377765;0.014788406;0.50488573;0.33598706;0.25000182;1.4686428;-0.03282447;0.40202162;-0.036929306;-0.29419577;0.06322944;-0.15597807;0.0068346085;-0.02266886;-0.105478406;-0.026097877;-0.3573042;-0.072828375;0.5420365;-0.012310121;-0.005805169;-1.0712199;-0.16050215;-0.113333374;0.86437196;0.011172098;-0.016370019;0.2131411;-0.027653327;-0.04645184;-0.3328713;0.014253618;-2.1979613;-0.19115691;0.1522559;0.04668443;0.000351596;0.07674431;0.022718014;0.03040384;-0.69750667;0.106662214;0.11598311;-0.08412769;-0.098750524;0.028981896;-0.012967768;-0.23974723;0.030207273;-0.0452689;-1.6013899;-0.92062646;0.053444352;0.14774983;1.1577593;-0.1820255;-0.09460394;0.12508386;0.54572856;-0.11017817;-0.060667247;0.038751442;-0.09333028;0.051468514;-0.47454548;-0.29747713;0.057820357;0.03297114;-0.10565464;0.07543293;-0.025590736;-0.64752126;-0.5316423;0.04104739;0.16452001;0.0883617;-0.39445993;-0.13810526;-0.83379215;-0.90599954;1.020615;0.0028874737;0.089821905;0.029906156;-0.0031347391;0.11681096;0.14487924;-0.31118473;-0.14566955;0.031897772;-0.013449145;0.99684113;0.036644433;-0.06344164;0.015667418;0.062412277;0.071607515;-0.020691834;-0.02970647;-0.0692267;-0.21775888;-0.27903756;-1.2219094;-0.05491371;0.051602364;0.0791953;-0.05125753;0.04130341;-0.3271085;-0.028616128;-0.032838427;-0.08387372;-0.14449996;-0.08932889;0.00874744;0.11512491;-0.037683155;0.18311486;0.033462655;-0.04232612;-0.688804;0.037764307;-0.005759221;0.07089739;-0.31019893;0.14632665;0.012823378;0.18995771;-0.019724183;-0.054528344;0.0047353995;-0.021416428;0.16334952;0.016871106;0.014065842;-0.46106854;-0.29038388;0.21043749;-2.4379966;0.10121283;0.055817816;-0.111713015;0.043334417;-0.068865374;0.15118559;-0.052421395;0.7539066;-0.04432445;-0.030609414;0.20198806;-0.4204666;0.05481481;-0.0309508;-0.44130915;-0.03368713;-0.24231054;-0.1422569;-1.569055;0.0046773283;-0.46257854;0.39933726;0.007609716;-0.21792026;-0.023463072;0.015565833;-1.0177262;0.2071801;0.07706641;-0.018275352;-0.014596529;0.13392231;-1.3419292;0.034634426;-0.018896248;0.013482806;0.17233616;-0.16204326;-0.30546162;-0.066229194;-0.19753581;-1.3942084;0.025551364;-0.17018415;-0.19367918;-0.024786996;-0.011137823;-0.043668687;-0.08992667;-0.788159;-1.1973189;-0.07361119;0.032297526;-0.03691629;-0.075134456;-0.28482527;0.8412937;-0.007114314;-0.05548602;0.13546161;0.050162304;0.63014126;-0.28920493;1.1484028;0.18437386;0.21473093;-0.008697316;0.30401215;-0.06244537;0.07017128;0.04852966;-0.06700663;-0.258661;0.16071606;0.4712965;-0.040705696;0.28707746;0.22287315;-0.27014393;-0.0030957346;-0.15010571;-0.2270471;0.069201134;-0.076718345;-0.009834313;0.006536524;0.05743209;0.008778305;0.018040556;-0.3657105;-0.010745115;-1.5828599;-0.61898506;1.0034603;0.06909591;0.0143630365;-0.41767558;-0.016965395;-0.54236645;-0.01514087;0.018686477;-0.032725316;-0.07238938;0.062467285;-0.08678514;-0.0058303843;-1.3842876;-0.03548783;-0.37002626;0.08211089;-0.51158565;-0.62458533;0.023411484;0.8958289;0.2638355;-1.6464245;0.07280621;0.21932937;0.0073719164;0.064998336;-2.225143;-0.045794487;1.6943969;-0.11472426;0.054366793;0.16358574;0.035995968;-0.32941645;0.083414234;0.014743718;-0.05316392;0.20853777;-1.7248197;0.03258234;0.6453919;0.16673806;-0.075283475;0.029432237;0.46799633;-0.002489013;-0.043769106;0.05781692;0.083381966;-0.48594847;0.026208388;-0.059677888;-0.01730024;-0.05467463;0.0043571456;0.16717365;-0.026062787;-0.21554317;-0.44638243;0.065302856;-0.04212571;-0.017849745;-0.032259945;-0.077528924;0.35833588;0.006547011;-0.06645959;0.05718935;0.786839;-0.0038546321;-0.07564426;0.026395159
0.26409647;-0.025226172;0.6675936;0.11378314;0.06994889;-0.3297287;-0.1503781;-0.0863908;-0.14798531;0.40087813;-0.0764756;0.084771074;-2.3001924;-0.27862173;-0.78607446;0.6160352;0.19813526;-0.009047624;0.5400357;-0.0600904;-0.37630734;-0.023976864;-0.22747707;-0.82421684;0.019310717;-0.68101585;0.10808766;0.142857;-0.06514395;-0.2958457;1.5788097;0.54997;0.22737081;-0.16720054;0.06395877;0.17796074;0.5414741;-1.3908783;0.047479756;0.66583335;0.082796104;-0.12000579;-0.19091895;-0.133617;0.18061985;-0.052788507;-0.2508554;-0.08262412;-0.16848159;-1.3786749;0.1324135;-2.273838;0.060396884;0.05897344;0.116899095;-0.2289232;-0.09560797;0.04015682;0.92853034;-0.16895294;0.08157226;1.019337;0.044454828;0.73016965;-0.074109934;-0.006874002;-1.9055827;-0.08945777;0.11387297;0.05168391;-0.3518205;-0.11419242;0.07022223;-0.24125087;1.377492;2.0268393;-0.16230924;1.3636135;-0.098110355;-0.034226738;-0.044575065;0.0029147144;-0.20622912;-0.2575259;-1.2489866;0.09294597;1.4526848;-0.036357716;-0.30817285;0.10457655;0.22368263;0.8691953;-0.08258474;-0.06600146;-1.5930136;0.02125241;-0.121943876;-2.0047748;-0.39508396;0.12144311;-0.16201127;0.07950832;-0.077865444;0.40267834;0.019296732;0.36790526;0.08503394;0.04974503;-0.08184562;0.11072016;0.1706718;-0.06238231;0.054343626;-0.043872803;0.19098163;-0.33319244;0.004579368;-0.1947721;-0.13981736;0.058631238;-0.0018684646;-0.028563762;0.020793697;-0.13156083;0.2675354;0.18245858;-0.063021444;-0.3244633;0.12516782;0.037131313;-0.2464978;-0.071046926;0.084009394;-1.4285483;0.120776616;2.2015166;0.014833653;0.032703023;0.5570105;-0.06533104;0.024667019;-0.021361642;-0.2658451;-0.27565154;-0.5956453;-0.0047926707;0.009854482;0.024941254;-0.00095545646;-0.2277245;0.5195858;-0.0047423188;-0.079116814;-0.033220567;0.030952536;-0.09730381;0.15738575;2.0650482;-0.04027549;-0.21980181;0.14378832;0.87235296;-0.14434727;0.103342816;1.063283;-2.6452942;-0.1342648;0.12911393;0.09575434;-0.1301998;0.056570243;0.20640834;0.062586695;-0.10533504;-0.019977083;0.08620217;-0.0672077;-0.038643576;0.023747211;-0.13377759;-0.17936823;0.058319055;-0.08929125;-0.03166966;0.18978842;-0.5443785;-0.15774241;-0.2097525;-0.3686989;0.0954115;-0.10104682;-0.29426783;0.15156884;0.07762199;0.041243296;-0.12892303;0.10780372;0.06346368;-0.058939353;-0.1291;-1.2274061;0.070597775;-0.110771336;-0.58097434;-1.833244;-0.01640956;-0.13077906;-0.66860807;-0.028297678;-0.09958821;0.09729963;-0.045057997;-0.1364746;0.0071207774;-0.84165967;0.12968895;-0.019893527;-0.08987513;-0.08947215;-0.15241219;0.09163437;-0.06625297;-0.76440984;-0.3479664;-1.8704549;0.09290079;-0.09551578;-0.13162343;-0.0021712263;0.14393385;-0.1359294;-0.15442514;-0.21671326;-0.06016579;-0.92650473;-0.116014205;0.3121201;0.1618121;0.1720773;-0.07505402;-0.16645436;-1.3118359;-0.5002725;0.10777707;-0.034999948;-0.015796786;2.194181;0.17513302;0.04897991;-1.3639867;-0.0047445134;-0.1227288;-0.005865765;-0.35774723;0.027963465;-0.21266632;-0.0127805;-0.24626039;0.34034944;0.4624839;0.76371664;-1.2230917;-0.09294997;-0.0043610097;-0.008576901;0.07695912;-2.4671395;1.52978;-0.010613954;-0.66563624;0.14910935;-0.03989309;-0.11444973;0.4390002;0.038415533;0.36236495;1.4692034;0.2953254;-0.0027527567;-0.22155428;-0.37292555;-0.0061511965;0.03645294;0.24486373;-0.043820143;0.11109539;0.7763691;-0.6633635;-0.15199961;1.3650614;0.39990172;0.039683517;0.19226474;-0.38777047;0.62640345;0.47731596;0.10825887;-0.044015225;-0.18488576;-0.16577758;-0.04462718;0.19135284;-0.082096644;-1.9319307;-0.13050616;-0.2070142;-0.18581237;-0.70063055;0.07246164;-0.039865855;0.012384922;-0.58747506;-0.22452293;-0.29785657;0.0027612555;0.0799086;0.021297125;0.116805755;-0.07206726;0.08440015;0.016180009;0.23561162;-0.10654492;-0.07120314;0.18030989;2.3520122;-0.07168581;-0.03255047;-0.13668942;1.8905028;0.111459486;-0.005096198;-0.05506261;-0.13461792;-0.15771474;-0.29658034;0.016363151;0.15052319;-0.002623269;0.31584224;-0.20744053;0.12449117;-0.86117804;0.8346068;0.09272858;-0.13754535;-0.14353168;0.79591036;-0.069106415;-0.26280606;-0.7701636;-0.4465067;-0.19137539;0.0903137;-0.021794513;0.007346044;0.32434484;0.009352433;-0.6218858;-0.043808717;-0.05550312;-0.068600304;-0.22687465;0.11159476;-0.32940298;0.21225826;-0.15365486;-0.2805339;0.105913155;-0.15748209;0.048398655;2.230442;1.5091696;-1.6032244;-0.017114414;0.083951145;0.022142492;0.00487097;-0.110246785;-0.7781485;-0.02385771;0.20298675;-0.037904467;0.0710045;0.09391435;0.21646768;0.027075684;-0.051675387;-0.070129186;-0.12572336;-0.11317034;-2.0084105;-0.088905506;0.025923967;0.08712139;-0.045994133;-0.14899893;0.14705119;0.20195602;0.13542682;-0.14265317;-0.13943686;-0.0976036;-0.21115032;0.07633013;-0.12266325;-0.9061651;-0.00011927759;-0.15691887;-1.9015073;0.28782687;1.2942908;0.06331414;-0.076911114;-0.06668534;-0.116173625;0.023374366;0.8111734;0.046766862;-0.039794974;-0.05487802;0.91628593;-0.13426849;0.06335867;0.25332037;-0.10506098;-0.9389709;0.08917146;-0.8655535;0.006337087;-0.23769388;0.40671203;0.19679005;0.11169442;0.020687861;-0.19480994;-1.7270006;-0.14079358;0.06755281;0.012061089;-0.0151517065;-0.1721441;-0.025340287;-0.16584651;0.11231477;0.33027562;0.15649681;0.003733422;-0.16305354;0.13567296;-0.30160838;-1.316454;0.12717868;-0.57101625;-0.18720151;0.02392695;-0.09143219;0.1484957;-0.056097895;-1.0784211;0.82417494;0.07360039;-0.41990545;-0.16692191;-0.0067647877;0.32765543;0.105602875;0.007672183;0.08523575;0.3454377;-0.21373025;1.3251288;-0.0018826788;0.55310357;-0.17308213;-0.103165664;0.12371559;0.0051327413;0.10014438;0.053565715;0.1300073;-0.14591475;-0.07879376;-0.08917662;0.12221515;-0.055013783;-0.22510967;-0.22822934;-0.31091645;-0.1993476;0.7289961;-0.920237;-0.14792964;-0.061990935;-0.167584;0.08468766;-0.058587365;-0.06313495;0.117789924;-0.5272513;0.06459476;-2.0575457;-2.0073435;0.94804406;-0.06975236;0.047903825;-0.9423975;0.020974485;-0.70550644;-0.16253166;-0.120095156;0.0038427506;0.07345021;0.008104435;-0.104516745;-0.12216637;-0.22934234;-0.06656773;-0.3755705;-0.044263143;-1.7413446;-1.8269199;0.10921925;2.0557733;-0.2767325;0.2821696;-0.1313108;-0.09291351;-0.013902419;0.0889316;-1.6920879;-0.047130268;0.45734534;0.06331838;0.083079465;-0.6819841;0.011571806;-0.9137987;-0.17880556;0.15234207;-0.051765796;-0.16130969;-1.2756218;0.024587369;0.045145575;0.0047598816;0.06393539;-0.08967559;0.46898797;0.060227934;-0.15363723;0.007999438;-0.3335063;-1.6500268;-0.18614796;-0.08633695;0.09172616;-0.075660415;0.07544548;-0.11009924;0.10432591;-0.6866986;-0.9289927;0.0023729969;-0.083663605;-0.00058895996;-0.12531254;0.13637926;0.25619254;-0.06419107;0.28839725;-0.0013474392;-0.30346358;-0.078982726;-0.094244845;0.002362555
-0.10439855;-0.010728632;-0.18708235;-0.15924753;-0.038415182;-0.35820916;0.08895534;0.137175;0.12147564;0.4642165;-0.069965325;0.089138284;-1.3227427;0.047821645;-0.10903865;0.048078578;-0.90631664;0.060263414;-0.5990858;-0.059888676;-0.13404827;-0.071112335;0.33353928;-0.30345482;-0.09920933;2.0256085;0.015784288;-0.07887455;0.16958277;0.65703726;-1.2410898;-1.2341156;-0.12103388;0.16219938;0.042604085;0.5505347;1.077581;0.43238693;0.038298618;-0.43681097;-0.10950592;0.023971006;0.71574533;0.1957907;-3.6411352;-0.016949331;-0.6518549;0.051486567;0.24572016;-1.1205016;0.30567673;0.40172002;-0.027584458;-0.012575166;0.28532973;0.11482014;0.095487736;-0.13494907;-0.43601784;0.31070104;-0.10426255;-0.9239656;0.62616944;-1.0491588;0.04753464;-0.038399518;-0.7209267;0.080667414;-0.116874404;-0.04913732;0.10846087;0.0960629;-0.10213672;0.46705917;1.059346;-0.8769991;0.29821882;-1.5602317;0.12673762;-0.2579077;-0.0029824066;-0.03546119;-0.024208024;0.64232576;-0.2187938;-0.05521274;0.10266354;0.031381723;-0.27137944;-0.0323173;-0.15945946;-0.33899948;0.17483966;-0.2256254;-0.9338683;-0.062185112;0.061729442;-0.077123344;0.03759808;-0.008065246;0.26700953;-0.040074907;-1.1934643;-0.5490103;0.038205005;-0.4290225;-0.026359998;0.10972582;-0.09874737;-0.10171831;-0.049907867;0.07804768;-0.0033778674;-0.05607444;-0.0031716335;-0.9659269;0.03475685;0.15203828;-0.04451454;-0.07018033;-0.007871007;-0.005453213;-0.06088935;0.175883;0.20358317;-0.14654528;-0.012332655;-0.09184398;-0.06740583;-0.8877729;-1.093108;0.06075546;0.164389;-0.019478498;-0.10357417;-0.72710425;-0.39839998;-1.0546327;-0.48622242;-0.29138905;-0.03029246;-0.04301908;-1.3872818;-0.58499044;-1.4550108;0.065618075;0.011309009;-0.1657531;-0.2937496;0.09634907;-0.77120364;0.019842004;0.05559145;2.2873468;-8.228003e-05;0.03814005;-0.120413005;-1.5785247;0.0625049;0.4580928;0.0045453464;1.2065349;-0.8688521;0.059424553;-1.1888285;-0.9976572;0.77046394;0.028585946;0.009570329;0.21514897;-0.044657066;-0.04229252;-0.2725796;-0.04083393;-0.06750578;-0.08932271;0.0065921517;0.65016687;0.05553712;0.16987388;0.005800715;0.015555911;-0.9672336;0.043758757;-0.1414412;1.0307752;-0.00388879;-0.17443782;0.32423437;0.06489427;0.2060207;0.19877996;-0.29713103;-0.10664123;0.0005900747;0.022564257;-0.29156572;-0.14989123;-0.2405939;0.10493992;0.034430057;-0.015515279;0.015900105;-1.7289983;0.19849482;0.078327864;-0.029518567;0.6023951;-0.004855354;0.020445537;-0.096600294;0.07976093;0.016468998;0.31700814;-0.7801371;-0.010225667;0.059405055;0.12833877;0.19095644;0.19954628;-0.15188453;0.20082088;0.26988927;1.8633074;-0.002607845;-0.11621318;-0.032968506;-1.1866711;1.5649817;-0.25451547;0.27532876;0.1277134;0.024072548;0.053733397;0.8143898;0.20247412;-0.1607915;0.19510926;-0.07123272;0.035806846;0.24831331;-0.50892353;0.03730335;-0.115688264;0.03981747;0.001424643;0.36765623;-0.09794;-0.11985963;-0.9423488;0.05622324;-0.028109886;-0.0119511485;-0.9998285;-0.0021844825;0.29033148;-0.049717803;-0.5016677;-0.0108720595;-0.629696;-0.7261456;-1.6455821;0.27516055;-0.017139118;-0.000840496;-0.36427164;-0.7923453;-0.19276735;-0.4127166;0.14228107;-0.14222114;-0.08858602;0.13051815;0.37344262;0.2632857;-0.3172711;-0.7538231;-0.23257847;0.041804988;0.014115659;-0.020190747;-0.10569572;-0.19491902;-0.21126008;-0.087166026;-0.24022551;-0.35732287;-0.3506265;-0.086353414;-0.7171953;0.23213074;-0.22461738;0.97024953;-0.29756185;-0.26980475;0.67851764;-0.13304369;0.086725004;0.2721406;0.031102255;-0.5570263;-1.182583;0.025250178;1.1058637;-0.1299465;0.6464003;0.0796295;0.08121756;-0.016571524;-0.037242595;-0.029537547;0.084952705;0.11534261;0.35125953;0.013180429;-0.060259752;-0.115150675;-0.10690483;-0.15720615;-0.026871713;0.021016933;-0.52499074;-0.39318186;0.03272523;0.33184907;-0.09648877;-0.0724603;-0.10711462;0.16884641;-0.84717494;-0.122578785;-0.005003406;-0.012259867;-0.14636199;0.065532416;-0.028350344;-0.17416438;-0.039435003;0.083758116;-0.21326794;0.24031645;-0.043047216;-0.10853224;1.0358734;-0.03598808;0.118874036;0.1448314;-2.8243623;0.06321374;0.1488361;0.12704508;0.65057117;0.016020851;0.028588334;0.2502444;-0.06386226;-0.40577918;-1.0353229;0.10221208;0.08313392;-0.12375421;0.107248984;-1.2920593;-0.021787368;0.0034266822;-0.05047548;0.108716354;-0.7821291;-0.039609518;0.17770301;-0.012863199;0.3177963;-1.0956963;-0.72204304;0.020257026;-0.07259827;0.14812964;0.038474627;0.06697015;-0.09014318;0.07283959;-0.14681493;-0.07028845;-0.103185534;0.054490313;-0.09208231;-0.3120336;-0.03341072;0.42140478;-0.6285918;-0.04717722;0.25806037;-0.060242493;-0.081743404;-0.078548625;0.0038906152;0.22673453;-0.01870125;1.6363262;-0.09815947;0.0008488022;0.11937616;-0.04177851;0.39237386;0.05780396;0.1144214;1.2962748;-0.40185905;0.15563428;-1.3060206;-0.2205548;-0.38916358;-0.05138018;-0.021105502;-0.0151637355;0.1392747;-0.025110982;0.3361065;-0.04263599;0.06837903;0.25408095;-0.881283;0.08496737;-0.031011337;-0.22964135;0.12741046;-1.7137384;-0.10233328;-0.83859324;-0.041846488;-0.5642537;0.15096;-0.15975887;-0.02598288;-0.042277332;0.08716736;-1.4863127;0.3193492;0.039085034;-0.043993734;-0.047916293;0.326953;0.045888573;-0.01969928;-0.23266259;0.49152917;-0.09528453;0.009915851;-0.281398;-0.09689577;0.20435292;-0.19555491;0.020850576;-0.00710197;-0.017907917;-0.14303038;0.08112615;0.03129555;-0.05951247;-0.64778817;2.7731442;-0.1708681;0.050709847;-0.02374947;0.028131682;-1.0273495;-1.4599895;-0.038256515;-0.017538158;-0.16667841;0.14658907;-0.11268717;-0.365462;0.6343465;0.5389839;-0.121897824;-0.12489564;-0.2636719;-0.08153839;0.015178984;-0.05134644;0.04262458;0.945054;1.4537922;0.19665846;-0.019363988;0.38882554;0.46017092;-0.2428186;0.13679628;-0.037622023;-0.32114714;0.14508505;0.06926838;0.2580407;-0.07600575;-0.45225498;0.066392325;-0.012655552;-1.8526158;0.020821506;0.8291846;-1.986352;1.7233174;0.05354304;0.022737516;-0.24886358;-0.015871407;-1.9063816;-0.009777879;0.012523653;-0.07335951;-0.08300707;0.007326695;-0.015457355;0.033618756;-1.0873615;0.03355969;-0.040833134;0.08083988;-0.3717187;-0.9923253;-0.11615761;-0.089400575;0.57753474;0.027911687;-0.019078491;0.20958295;-0.08816923;0.062757574;-0.7511913;0.014946995;1.1855155;-0.14854912;-0.07251994;0.40600377;-0.08808567;-0.298094;0.1359566;-0.12240317;-0.09542232;0.3049538;-0.5018402;-0.13689348;-0.056757655;0.084929824;-0.007183242;0.043061294;0.7314643;-0.3794202;-0.007053702;0.03328449;0.08306279;0.36287898;0.2363184;-0.0496952;-0.13794404;-0.037869893;-0.037048306;0.2734567;-0.025030581;0.38114724;-0.020535732;-0.066427276;0.11478492;0.024628127;0.08897865;0.015767595;0.21596932;0.06363881;0.0065506333;0.019030163;-0.014051558;-0.020323144;0.11987142;0.05105684
-0.1252347;0.059578262;-0.5717454;-0.083852075;-0.02896186;-0.08882197;-0.013472674;0.10523606;0.07792672;-0.38897797;0.014420497;-0.705802;0.94218314;0.28203598;-0.5081394;0.8951515;-1.2614242;-0.10844681;-0.9042012;0.0050819074;-0.22165644;-0.01236019;0.34108287;0.584351;0.018777762;0.19029914;-0.04920018;-0.028175669;0.1571594;0.39890358;-0.830889;0.11643028;-0.07086246;-0.020291528;0.055858728;0.08667304;0.61950094;0.6380768;0.07443365;-0.48780084;-0.09001503;0.033091776;0.97575676;0.18162261;-2.565525;-0.0662883;-0.6939686;0.025894346;0.20915714;-0.3419241;1.1084908;2.1640553;-0.09265078;0.040427107;-0.3463215;0.17022254;-0.30121398;-0.04112018;-1.3659887;0.036295827;0.028108835;-0.90510243;0.38582784;-1.169475;-0.087069586;-0.08690392;0.7894097;-0.05052212;-0.057038065;0.053885136;0.020678623;-0.02797477;-0.06700443;0.33385974;0.021408916;-1.3951666;0.18816699;-1.5970354;-0.021642243;-0.1900474;-0.045182586;0.047635276;0.069595315;0.36090142;-0.5313382;0.045883283;0.32399404;-0.059246875;-0.44815123;-0.06866163;-0.0837904;-0.5203149;0.07774578;-0.14681482;-0.84805936;0.02488368;0.048281983;0.25197187;0.14457843;0.044374816;0.040971756;-0.025835129;-1.0342684;-0.86027217;-0.06249996;-0.2152928;0.042458408;-0.063461;-0.042247295;0.044044457;-0.010562253;-0.04068557;-0.0066897194;0.07424684;0.010409724;0.07653844;0.02748967;0.025159823;0.038045593;0.056247134;0.00046558894;-0.045103986;-0.077328786;0.049965948;-0.5192383;-0.101675265;0.011369902;-0.6044277;-0.05604231;-0.7892311;-1.0375032;-0.038568083;-0.026414163;0.7024669;-0.027103793;-0.039555803;-0.30765137;-0.8031302;-0.3660314;0.12366595;0.026842609;-0.013547408;-1.3655307;-0.55649394;-0.5860448;-0.0010429573;-0.07011334;-0.011866547;-0.110724285;0.0803219;-0.4737732;-0.04282477;0.0016985047;0.34613743;0.026886923;0.06799251;0.03659221;-1.3127737;0.061151512;0.17386618;0.0450572;1.0965685;0.23419221;0.042203456;-1.1690125;-0.4427702;0.42622522;-0.10430103;0.01896087;0.17963475;0.014495606;-0.10776968;-0.12806167;0.0352044;0.05091193;-0.06241866;-0.02817834;0.54904544;-0.054068916;0.05285838;-0.10641639;-0.023255972;-1.0155553;-0.058236;0.018860336;0.4670952;-0.040258523;0.45365644;0.076166615;-0.14136967;0.01724016;0.05547718;-0.091312096;-0.079380535;0.03697896;0.08598395;-0.08687016;-0.017086577;-0.024252646;0.006902131;0.48776373;0.06519085;0.021707421;-0.981071;0.4967705;0.045468163;0.008204905;0.64411205;0.0753519;-0.049406;-0.014510084;0.08317837;0.058389157;0.12371606;-0.70150745;-0.041793585;-0.017916711;0.18163018;0.099913165;0.04198656;-0.05694518;0.06818134;0.7825161;0.12127779;0.012490212;-0.06283257;0.07813125;-0.9210876;1.3817422;-0.17592376;0.08679432;0.0044934982;0.08729382;0.068742394;0.38554084;0.021286523;-0.00825398;0.26403365;-0.3813231;-0.05499136;0.017609902;1.2896262;-0.05001104;0.027934687;-0.054638922;-0.0138594685;-0.40423605;-0.010366483;-0.13107859;-1.7441672;0.014518992;0.08814463;0.034036025;-0.35715047;-0.059563357;0.11961547;-0.026004454;-0.26041067;-0.2287026;-0.5931789;-0.86756235;-1.4937556;0.012612108;-0.06263039;-0.026462186;-0.70434725;-0.20738862;-0.603198;-0.37302843;0.3285735;0.07305269;0.027267102;0.008392829;-0.5205378;0.05148906;-0.27446774;-0.5835868;-0.23762858;0.16119277;0.041457426;0.22006398;-0.09493992;-0.015411363;-0.08672869;0.018163683;-0.115482114;-0.9948816;0.09881238;-0.025795566;-0.54265404;-0.060047664;0.34247956;-0.18798904;-1.1130306;-0.30421993;0.23208652;-0.009786276;-0.015081621;0.12891807;0.11246505;-0.88213056;-0.7972664;-0.0038927062;0.26078779;0.035118435;0.30034345;0.0149705745;-0.12503873;-0.022995686;-0.04093185;0.050095033;-0.041154023;0.098927386;0.011612566;0.00073952763;-0.089720085;-0.00015061931;0.022647044;-0.04136445;-0.098678775;-0.01812483;-1.0587201;1.0859658;-0.0027287728;0.38534805;-0.92116266;-0.090442054;-0.026869806;0.07344591;-0.92666024;-0.09509762;0.07316229;-0.10294063;0.051663183;-0.09474363;-0.7980806;-0.6168681;0.05308132;-0.016030876;-0.26666072;0.0823756;0.051070627;0.12874043;0.4365848;-0.07986976;0.10087161;0.017236926;-2.0266457;-0.017745718;0.08383863;1.0851834;0.15049475;0.01598396;0.0062208916;0.10034667;-0.08982611;-1.2138457;-0.7173123;-0.22414388;0.0527159;-0.081875406;0.10917176;-0.7395412;-0.07432221;-0.09591982;-0.1091804;0.0019956334;-0.6499018;-0.036068305;0.0661103;0.0012727535;-0.5245946;-1.9072535;0.15768111;-0.031347312;-0.07168098;0.07192134;0.06104031;0.08246906;-0.39098495;0.047880508;0.017227525;0.014893698;-0.11252639;-0.0512311;0.013188533;-0.23620121;-0.10842293;0.43002117;-0.5571838;0.012929349;0.69940567;0.040245503;0.05375284;-0.09397101;-0.07861925;0.08028264;-0.040318634;-0.55376583;0.0043655313;0.00828008;0.06574737;-0.0069971806;0.21743727;0.05800369;0.10179377;1.0332979;-0.36821148;0.12506133;0.15453187;0.029448798;-0.7359946;-0.062611945;-0.0045154933;0.061916016;0.04874956;-0.004337354;-0.7119768;0.04419635;-0.022885995;0.05986566;-1.0775627;0.06576578;0.023368519;-0.2903238;0.06436519;-2.3206906;-0.42413822;-0.84558725;-0.063546345;-1.1361839;-0.2612362;-0.058832698;-0.06953593;-0.01989898;0.022871466;-1.9395736;0.053748608;0.05835954;0.025909796;-0.0010300695;0.31507182;0.03291637;-0.0587292;-0.024500035;-0.3757279;-0.5764239;0.04156612;0.013054872;0.024566868;-0.008912178;0.98435444;0.013454652;-0.11218103;-0.032363627;0.021612901;0.0042166687;-0.087486744;0.07421875;0.06960786;0.91251343;-0.045255814;0.102364585;0.04164758;0.06691603;-0.53848493;-1.5133758;0.075282924;-0.083748624;-0.040977612;0.031123964;-1.3431689;-0.48933235;-1.6348463;0.38106975;-0.17461808;-0.07372324;-0.4699081;-0.031954374;-0.09022435;-0.08448678;0.20575555;0.92257553;0.64903635;0.117373355;-0.010907714;0.23685269;0.35065007;-0.506881;0.11023522;-0.6327708;-0.38689575;0.04243613;-0.03214999;0.080516174;0.026348043;-0.87404984;0.007997258;-0.001539886;-0.7320069;-0.045676347;1.9076142;-0.57887566;-0.63105273;0.0049568615;-0.020492801;-0.18284883;0.0013762682;-0.4553568;0.057771344;0.09023647;0.053317934;-0.0025865734;-0.07162778;-0.036530737;-0.010178325;-0.09850978;0.014358982;0.023518644;0.010187497;1.1543349;-1.5193999;0.03415063;-1.83482;0.323087;0.44450545;0.06753351;0.10867611;-0.0011575313;0.0065608607;0.12921476;0.0768454;0.27468687;-0.049296662;-0.023151537;0.26731345;-0.043667194;-0.4699981;0.0762026;0.06766073;-0.110797405;0.03205636;0.23651281;-0.02624523;-0.27892438;0.10395901;-0.0753211;0.07632754;0.56944984;-0.17975041;0.041073255;-0.042139214;0.046091378;0.5685636;0.12925318;0.06823255;-0.0025714657;-0.013548064;-0.027975926;0.18724965;0.0071599977;0.096587665;0.32467744;0.0509533;0.02955216;-0.012977155;0.08053772;-0.08482709;-0.1452468;0.043528073;-0.13940819;-0.009911275;0.5219982;-0.08409756;-0.045529097;-0.007285282
0.3317609;0.08108313;0.55921143;-0.23742959;-0.22840373;-0.11320982;0.06837725;0.23055822;0.08781754;-0.15862273;0.14588119;-0.4945523;-0.27361178;-0.019037845;0.31091532;0.069115885;-0.09889095;0.11960699;1.2314872;0.08279781;0.15841985;0.0644999;-0.23030189;0.214802;0.022951556;0.018535059;0.007937894;-0.19608137;0.36677328;0.53290874;-0.055817895;-1.5851583;-0.13039117;0.20344512;0.009542738;0.5858427;-0.17909522;0.6374578;-0.060283247;-0.4891278;-0.09738926;0.094831206;-1.3649802;0.3416919;1.5053067;0.02388644;-0.6765965;0.039388854;0.3546962;0.26036924;0.9250745;0.48560396;-0.065068126;-0.061152592;0.109668225;0.14646831;-0.19736464;-0.073233075;0.2971859;0.32771266;0.016798368;-1.1811475;0.36438733;0.5860309;0.07743549;-0.11877589;1.0333687;-0.058746513;-0.19873482;-0.09848273;0.030619128;0.14628328;-0.025174852;0.449518;1.5843236;-0.016048025;0.45835176;-0.97497004;0.22213005;-0.3156764;-0.032042507;0.037516817;0.057292003;0.5495352;-0.7843682;-0.11756229;2.1484108;0.047705453;0.09159453;-0.10013007;-0.23169148;-0.33048052;0.19633348;-0.21750396;0.62002003;-0.03059137;0.027331289;-0.100244015;-0.08024452;0.030770037;0.40602458;-0.06716388;0.5532064;-0.35640624;-0.14829981;-0.08268777;-0.090578444;0.1703366;-0.06641218;-0.07470419;-0.013839738;0.12500532;-0.084623225;-0.01686719;-0.05714863;-1.7217547;-0.052060183;0.2697765;0.016053507;0.1539914;-0.0938471;-0.057034187;-0.11876086;0.19742215;0.67336464;-0.114431106;-0.022538906;1.1615223;-0.13831131;0.3028008;-1.0693004;0.056720138;0.214352;-1.3618822;-0.075028;-0.16178893;-0.28739482;0.033362743;-0.47052398;0.03989549;-0.04730285;0.12911494;0.110087745;-0.6730282;0.69930464;0.12503342;0.012171124;-0.007368881;-0.27054074;0.1820603;2.5530996;0.13188149;0.033119313;0.60505027;-0.0070985314;0.047117185;-0.1348597;0.75753003;0.03070951;0.13022068;-0.10797461;0.09804839;-0.20270322;-0.067776464;-0.74634284;-0.64652014;-0.119266614;-0.057761054;-0.074942246;0.28624898;-0.048618574;-0.061972357;-0.32434323;0.120272905;-0.107384376;-0.06344719;0.02754875;-0.55025816;-0.030110266;0.3955303;0.10895086;-0.123724006;-0.6120533;-0.002580976;-0.28456923;-0.9507298;0.02276136;0.52312356;0.1887622;-0.0099084955;0.1551342;-0.14624299;-0.29381204;-0.045094687;0.005134716;0.1687776;0.07602148;-0.17021014;-0.063888036;0.05947489;-0.2532734;-0.08177051;0.058239367;-1.9649324;-0.38730088;-0.021103587;-0.011874246;-0.22275546;0.022499915;0.10800864;-0.06796551;0.17143555;0.14625064;0.57554877;0.847013;-0.033266246;0.17265338;0.05052352;0.14507835;0.2422136;-0.17736293;0.22410402;0.7869073;1.0177855;-0.482022;-0.25867397;-0.041721568;0.07424128;-0.31196922;-0.27502888;0.38576612;0.15249623;0.113369375;0.027179725;0.8236167;0.25677875;-0.43891242;-0.0141467415;-0.3347958;-0.07275472;0.19240531;-0.30055124;-0.2045011;-0.26481354;0.078593634;-0.024968676;0.51562154;-0.10556456;-0.18244931;1.6634812;0.008378249;0.006769304;-0.06123218;-0.7366242;-0.10374012;0.23474847;-0.029796569;-0.04077464;0.32243696;1.0327817;-0.09080913;-0.21641977;0.30973756;-0.025814231;-0.02671124;0.56053394;-0.60842794;0.07050106;0.29375675;0.20066455;-0.23664847;0.025951248;0.117087215;-0.074046865;0.41212654;-0.24326456;1.4970757;-0.16010717;-0.182698;-0.015487425;-0.2694795;-0.105102904;-0.14212562;-0.24253803;-0.08713868;-0.42492214;-0.49978006;-0.50516796;0.113280304;-0.11755754;-0.060845718;-0.16335878;-1.2008076;0.63693833;-0.2626094;0.5927406;-0.13840534;0.062065676;0.32237735;0.028680122;-0.09425142;0.39597243;0.03085042;-0.44963273;-0.029745337;0.55156446;0.27750674;0.5351576;-0.05910244;-0.019391075;0.027792683;-0.072385594;0.21049337;0.36201614;-0.08414969;-0.06262441;-0.15405266;0.009098844;-0.14513636;-0.1559305;0.010627419;-0.028066078;0.50153226;-0.07938456;0.08944201;0.47837296;0.025753751;-0.10379858;0.3634665;-0.24117787;-0.06598984;-0.012554809;-0.08388667;0.020629965;0.09658132;1.0286515;0.15009934;-0.089316756;-0.032373127;-0.17213301;0.3357704;0.00075987517;-0.3428581;1.0433229;-0.17567486;0.13348833;0.15580155;-0.081986904;-0.0039473274;-0.46932855;-1.816952;-0.2741177;0.15642162;-0.06503831;0.3073124;-0.047339126;0.74369466;1.4906195;-0.20150928;0.051820785;0.027375622;0.15648295;-0.38563067;-0.20458251;0.024404615;-0.22512847;0.22410609;-0.30073896;-0.06794509;0.17182563;-0.0046154307;-0.71547675;-0.09817092;0.20143649;0.03252356;0.024098108;0.01091544;0.070292406;0.05079705;-0.14497803;-0.0061510424;-0.13160989;-0.030298725;-0.1631375;-0.09530294;-0.17628741;-0.09544484;-0.039259356;0.28030744;-0.27385575;0.10662403;-0.6593751;0.12406156;-0.12089056;-0.11834355;-0.08230155;0.2944641;0.006860751;-0.97681266;0.02228476;0.05602625;0.21599145;-0.02290408;0.5484472;0.08056172;0.17051494;0.4537245;-0.33241606;0.31655908;-2.0271962;-0.4482577;-0.88785243;-0.15429762;0.0066207577;0.07000165;0.24317908;0.09829986;0.96426475;-0.11667126;0.08512685;0.29973292;-0.42372426;0.14829034;-0.09735435;-0.40426004;0.16376391;-0.43207604;-0.1117991;0.40179998;0.013132364;0.62112457;0.37758866;-0.14956449;-0.12743984;0.019750219;0.13846156;-0.7177837;0.27788734;0.019262936;-0.114745155;0.029882737;0.26915473;-0.5030342;-0.0037601818;-0.23663042;1.549565;0.5248922;-0.10729816;-0.12353279;-0.114198826;-0.20847417;0.8927944;-0.06418192;0.051141337;-0.23963933;-0.10175018;-0.018984301;0.008391758;0.02113236;-0.3860206;-0.74839944;-0.12722665;0.05780286;0.01567153;-0.019074239;-0.2674715;-0.78507835;-0.08049918;-0.10056309;-0.009574244;0.20273454;0.42768073;-0.26137584;1.1942114;0.6121456;0.24898833;-0.1354627;-0.131287;-0.19497824;-0.14172603;-0.06863753;0.09617058;-0.28866917;0.0043993844;0.023969218;-0.06445176;0.50955266;0.50004184;-0.4860835;0.14943859;-0.6222667;-0.2280018;0.22063637;0.037329733;-0.2268618;-0.124941036;-0.2788404;0.12709618;-0.03796984;-1.0059062;-0.072383545;-2.4199138;-0.22115451;0.79100037;0.036921702;-0.13125408;-0.22050266;-0.1573954;-0.7796592;0.1374432;0.10533792;-0.09288462;-0.08098863;-0.0525409;0.0029176027;0.20136702;-0.32521895;-0.010713527;-0.27440506;0.120401375;0.44591275;0.12492019;-0.1295484;2.8435464;0.5827485;-0.71073323;0.08094094;0.29664847;-0.0050528557;0.030028295;-0.5570495;0.07113811;-0.94245195;-0.21544571;-0.10332025;-0.12631446;-0.008396246;-2.210436;0.20507023;-0.24318321;-0.07810742;0.3784241;0.8863196;-0.16148569;-0.15922724;-0.080445044;0.040719554;0.021267788;0.23330861;-0.10990389;0.026235692;-0.06626683;0.029492198;-0.4666523;0.14253747;-0.005839132;-0.13229854;0.040239472;-0.050155435;0.37450486;-0.056121264;0.12213227;-0.10036226;0.009584852;0.16733198;-0.097201996;0.059769403;-0.07559184;0.3515551;-0.01870637;-0.2598981;0.040791195;-0.4314029;0.04989184;0.12366645;0.01882456
0.18631615;-0.04973837;-0.35550395;-0.096722744;0.03633003;-0.25908643;0.09527555;0.008082486;0.08425675;-0.23848356;0.08085546;-0.062395472;0.29490298;0.39887762;-0.16085523;-0.5110504;-0.60995275;-0.099836096;0.6048946;-0.026753863;0.01802104;0.022057151;0.037071563;-0.41290015;-0.07127601;0.018173719;-0.025490467;0.030510435;-0.032273687;-0.16226475;-0.156487;0.23200397;-0.0039028525;-0.036780883;-0.006447251;0.25942007;-0.3908008;0.4511218;0.016583642;-0.47526267;0.011806998;-0.010523706;-0.9809861;0.05008261;0.41338342;-0.026158102;-0.13707758;0.015402458;-0.0030553502;-0.07388582;0.16989361;0.011458178;-0.018800521;0.08050239;-0.31608343;0.115128875;0.13535689;-0.0019904652;-0.22243385;-0.021720693;-0.05822734;0.05776056;0.19744264;0.31777072;-0.07832699;0.02291979;-1.3669428;0.03368906;-0.09575685;-0.04929019;0.1628985;0.035589352;-0.103652574;0.040611938;0.7901354;-0.2910334;-0.044226136;0.5460352;-0.044473063;0.0002351511;0.040694967;0.04301378;-0.03238277;-0.07785561;-0.59532845;-0.029215595;0.67361003;-0.0030578035;0.16619019;-0.042745665;-0.013433672;-0.22868237;-0.04365596;0.007959234;-0.19596046;-0.035401065;0.055929475;0.1153941;0.060547404;-0.05004658;0.01695107;0.01700618;0.4867591;-0.46324533;-0.073713556;0.07626941;0.0596909;0.065768726;0.04170839;-0.010998048;0.01257068;-0.06515009;-0.06797579;-0.041336656;-0.057566244;-0.6498298;-0.011320212;-0.01103503;0.15052935;-0.09172434;0.02672156;-0.054467715;0.0126402415;-0.046190158;0.8800037;-0.09032319;0.037465367;0.29400778;-0.10450085;-0.79471904;-0.21071364;0.020674411;0.090871565;-0.1014471;-0.0046140756;0.95662266;-0.11644001;-0.22395338;0.0961665;-0.20639701;0.04754959;0.11262143;-0.39685813;-0.26733747;-0.46400908;0.033847347;-0.04869702;-0.0968827;-0.07501919;-0.05544559;1.5160373;0.021264656;0.057638526;-0.5975079;-0.0037708357;0.06810517;-0.064640716;-0.3218701;-0.016593149;-0.2711169;0.061534166;-0.38725886;-0.25559202;-0.042158686;1.0070306;-0.7078992;-0.7570334;-0.062953986;-0.07640211;0.04328622;-0.01753207;0.020455388;-0.037389506;-0.044364586;0.02398205;-0.041378565;0.045557693;-0.41442466;-0.07205748;-0.035425663;0.17937955;0.06789024;-0.7934398;-0.011868254;-0.09685398;-0.40767306;-0.07702785;-0.14131902;-0.06608033;0.1527335;0.048438646;-0.04998985;-0.06831282;-0.067241214;0.030366996;0.1027833;0.1105562;-0.0040118075;-0.040437028;0.09387004;-0.17237973;0.048025087;-0.079023756;0.16243461;-0.9627527;-0.07343479;0.09150761;-0.282575;0.039644405;-0.013257028;0.018591277;0.01788981;-0.0002965542;0.046355013;0.87265134;-0.0371489;0.11522207;-0.018722484;-0.019293638;0.04878135;0.11451825;-0.079058945;-0.43416712;2.0637825;-0.1467732;-0.02024814;0.004760891;0.39880612;-0.12370511;0.08971364;-0.027526993;0.03963601;0.0895725;-0.044755902;-0.48224118;-0.046750147;0.15761755;-0.11778657;0.2818302;-0.006104492;-0.091751404;0.6504683;-0.028651841;0.009212345;-0.06663152;-0.058105767;1.4958743;-0.05344381;0.03941408;-0.03287344;0.004414313;-0.040912125;-0.038530786;-0.28694132;-0.09847427;-0.11291204;0.026881235;0.21783586;0.01389999;-0.5594967;0.8171017;0.44064137;0.045132127;-0.018999824;0.027845178;-0.17592047;-0.5079686;0.3392665;-0.07316224;0.30564505;0.07930853;0.008511493;0.073327065;1.0235944;-0.19112733;0.08446319;-0.4990724;0.02290142;0.04007651;-0.022059191;-0.13838515;-0.007954367;0.018409977;-0.08560512;-0.08365564;0.16171183;-0.4988058;0.55770403;0.0049296822;1.0113021;0.10003135;-0.3801048;0.3332232;-0.89716417;-0.4070148;0.9432541;0.00025889356;-0.022329655;-0.108363226;0.022517255;-0.06453834;-0.38855833;0.013448479;0.77281326;0.18964213;-0.039815515;0.13405935;0.4467155;-0.07074119;0.05545386;0.024393044;0.40561646;-0.10233901;-0.18291855;0.052386448;0.041865658;0.054428905;-0.047537763;0.14757906;-0.07009592;0.072067514;-0.74541014;0.51282;-0.0097205695;-0.37930503;1.2110937;-0.061679542;-0.014148976;-0.024063382;-0.92058927;0.06361885;0.016068459;-0.035597872;-0.16068159;0.069030076;0.34998387;-0.03601415;0.0182619;0.002997425;0.05542488;-0.056783903;0.0350065;0.4413433;0.1338965;-0.029426737;-0.030271713;0.017544087;0.06346517;0.06262956;-0.32622042;-0.7133922;-0.5839699;0.11380398;-0.002706538;0.0088288095;-0.075460464;0.27733225;-0.061152395;-0.095095865;0.08739768;-0.05932621;-0.04001416;0.39214176;-0.02725785;-0.11178616;-0.029743634;-0.0030731142;-0.018602848;0.009280371;-0.011996199;-0.091773145;0.5037669;-0.7386873;0.25110674;0.09005002;0.064038694;0.12982935;0.0049703326;0.0035096772;0.96010476;0.07167735;-0.027484283;0.028955702;-0.008528877;0.032718007;0.012957708;-0.014893897;-0.005274735;-0.027767137;-0.12850352;0.06348856;0.30528113;-0.038524337;-0.00074256695;0.07034848;-0.14696492;-0.09673314;-0.024459898;-0.61590654;0.056580737;0.012193718;-0.05154948;0.03071578;-0.04045219;-0.06631857;0.068919495;0.5229111;-0.18646242;-0.02339612;-0.2596902;0.32418188;-0.09171861;0.09489887;-0.06859536;0.08899921;-0.11501256;-0.01850194;0.719481;-0.040102422;-0.04235221;0.011053436;0.88888603;0.08301447;0.07119241;-0.26877263;0.041403756;0.81292886;-0.3702489;1.5091622;-0.06734614;0.15251088;-0.241318;-0.0069425674;0.08656267;0.06675409;0.058968224;0.12302741;0.020506421;0.06395038;0.016381035;0.07584889;0.05335817;-1.201983;0.03689929;0.0045498745;1.371693;-0.15191175;-0.040993933;-0.17304453;-0.1011393;-0.12292987;0.6281864;0.0049875355;-0.15346852;0.17185101;0.068048;0.0851735;0.025030857;-0.007953618;0.08755967;-0.08172181;0.019149851;-0.040162306;0.016570227;-0.0736099;-0.22398803;-1.1988913;0.032246433;-0.066764526;0.27427703;0.0071878107;0.4296233;-0.1656832;0.15029094;-0.07199358;-0.06385671;-0.014066793;-0.05325656;0.0011640752;-0.043098934;0.054409202;0.32591796;0.09879643;-0.19216824;0.05603614;-0.061874192;-0.010596974;0.0197887;-0.39611503;-0.09833902;-0.34053198;-0.4144651;-0.11981251;-0.074090496;-0.062141426;-0.07102913;-0.1725679;0.013765479;-0.11379598;-1.471347;-0.054849938;-2.074759;0.04598567;0.29253453;0.07038362;0.013711623;-0.40837654;-0.08047766;-1.5049247;0.048415244;0.04086666;-0.041915804;-0.0017843443;0.009599209;0.010869787;0.05724059;-0.56191975;-0.031001946;-0.08292629;0.11163984;-0.11036601;0.76205075;-0.06958586;1.0578237;-0.11887072;-0.67433745;0.13764195;-0.007163836;0.016081529;-0.06365342;-0.33028564;-0.090381764;-0.6241361;0.013067196;-0.054735154;0.36460423;-0.051657528;-0.8775075;0.07199818;0.14875042;0.05733558;-0.104167864;-0.14799188;-0.067591295;0.34983352;-0.36193073;-0.06827832;0.07202157;0.17094642;-0.26608846;-0.09845717;0.008973695;-0.12819862;-0.683228;0.012642797;-0.017114213;-0.07309327;0.063148275;-0.08014295;-0.026975783;-0.013742473;0.11540556;-0.1586754;-0.04829063;-0.04092402;0.058063816;-0.011532472;-0.09785616;-0.08396459;0.013037617;-0.025208257;-0.010531788;0.17728822;0.0076667177;-0.0048457324;-0.030538809
0.17605792;-0.025888016;-0.31807864;0.06596823;-0.046378497;-0.24148925;-0.07575602;0.026630402;-0.015800802;0.21510744;0.003687638;-0.060807902;1.1776325;-0.25987583;-0.33577514;-2.0032997;-0.064335376;-0.02546868;0.44730166;-0.027368708;-0.099550106;-0.059011314;-0.25280625;-0.688159;-0.015455944;0.96406895;-0.08229898;-0.065698065;-0.11316371;-0.3637093;0.22356825;0.9734356;0.06918918;-0.023236688;0.08148609;0.2408615;-0.2864146;-0.06698396;-0.063155584;0.07994036;0.0043339105;-0.04566498;0.309429;-0.09984855;-0.45350894;0.042210143;-0.28954387;0.0031409413;-0.0077480157;0.46074528;-0.18101081;-2.5805457;0.072725855;0.003166481;-0.83640915;-0.15861514;0.06851053;0.00984288;0.003907862;-0.00035621296;0.0038053328;0.382462;0.006162468;0.39339304;0.013557708;-0.05788888;-2.083417;0.07249496;-0.042082295;0.051893663;-0.14301673;0.010983335;-0.031451207;-0.10306728;-0.108592935;-0.1809327;-0.051465392;1.1494273;0.0015201691;0.081023015;0.0014922958;-0.05585215;0.00070825167;-0.30037057;-1.2456006;-0.012228297;-0.75949746;0.061096232;0.33337197;-0.07568614;-0.02710778;-0.144658;-0.08591047;0.075839534;1.2145069;0.011244504;-0.0034790416;-0.34011585;0.20331171;0.0702837;-0.040994063;-0.010198507;-0.12450102;-0.04096485;-0.039772455;0.06759195;-0.03864474;0.10890817;0.12603958;0.025507294;-0.016023671;-0.03667305;-0.0648757;-0.07830353;0.02455586;-0.017413568;0.044277947;-0.1457485;-0.028945599;-0.10412502;-0.0069872406;-0.051109843;0.03307609;-0.036779027;-0.20975679;-0.02969659;-0.04732519;0.060557775;-0.019335644;-0.28125682;0.18804243;-0.0590276;0.07553947;0.09418994;0.031975046;0.6204595;-0.09946957;-0.8530852;0.13589694;-0.4024891;-0.06660172;-0.029145977;-1.067857;-0.31349432;-0.20588344;-0.0013396904;-0.008579787;0.104279906;-0.13345732;0.04245319;0.0004970876;0.07450514;-0.05177364;-0.07393548;0.040799968;0.033314075;0.084003866;-0.011982609;0.057585653;-0.66160834;-0.047936164;0.005300713;-0.6299024;-0.046272505;1.7145265;-0.4720691;-0.7937734;0.053138014;0.04835642;-0.045035657;-0.026747417;-0.026664821;-0.05836622;0.029434523;0.07759528;0.005546309;-0.012996522;0.0012240227;0.03459272;-0.1323923;-0.16785261;0.07263565;-0.7082751;-0.059667766;-0.17085421;-0.6837372;-0.08679911;-1.1337546;-0.21506368;0.17790669;0.029230824;-0.14599796;-0.052218705;0.038099453;0.057448138;-0.0027321053;0.14241327;0.05393364;-0.16541655;0.022337127;-0.017033607;-0.0073719122;0.014130141;1.010296;0.34317034;-0.011625043;-0.046297796;-0.4426337;0.004275434;-0.074781105;0.020774538;0.058147404;0.040930573;-0.33741835;0.4303738;-0.03129213;0.05087744;0.06343271;-0.11202421;0.028538702;0.011899975;-0.008448893;-0.89967144;0.10885336;-0.3721784;-0.018963674;-0.006185527;-0.11217195;-0.7692603;0.1317512;-0.17411025;-0.083366;-0.0318744;-0.05294339;-0.27276775;-0.017407566;0.3353391;-0.1656234;0.10117597;0.028485205;0.017827777;-0.3776458;-0.028033784;0.09028569;0.019908346;-0.01739834;0.5653483;0.02443142;0.04407695;0.97018474;0.026258266;-0.08134033;0.059171487;-0.049975626;-0.04730191;-0.13287094;-0.01355871;-0.0011098057;0.19902062;-0.058551386;1.0101714;-1.1342239;-0.008690355;-0.060246162;-0.06208674;0.3673712;-1.0457343;0.6799132;0.26233333;0.0406377;0.15009438;-0.027232224;-0.003076148;2.0035105;-0.049335327;0.09054574;-0.5585164;0.18980017;-0.41188258;-0.011041471;-0.15467633;0.03487638;0.012535306;0.04132976;-0.020536516;0.041748688;-0.16482821;0.120777905;0.064278856;1.7441972;0.23342119;-1.1308552;-1.4878569;0.5856608;-0.18767542;0.4180574;-0.049857277;-0.07781171;-0.01983086;-0.051535506;1.2285765;-0.7576616;0.0660541;-1.4329208;-0.016587682;-0.37058982;0.090761155;-0.6001994;0.05027135;-0.031453975;0.06404018;0.19726068;0.018341582;-0.5758178;-0.018131798;0.08518766;-0.018744256;0.07528003;0.13181855;-0.040657174;0.07604206;0.3047029;0.3291461;0.081014216;-0.49833202;1.5905188;0.0847328;0.049640335;-0.11528895;0.069257855;-0.06965823;-0.08764593;-0.07479258;-0.13303216;0.09012609;1.2830429;0.6398974;0.009705372;-0.055425044;-0.12637237;-0.067688994;0.044060808;-0.24477038;-0.78010184;0.05914214;-0.03634287;-0.049559303;-2.1628954;-0.026569933;-0.6430698;-0.6664309;-1.3502942;-0.041884135;0.08175351;-0.16413967;0.07900427;0.8584827;-0.7865681;-0.74786973;0.00822981;-0.078535855;0.03461396;0.6102711;0.031138834;-0.07267671;-0.032703396;-0.060204968;-0.135219;0.07002163;-0.031438824;0.07143612;1.461693;0.872731;0.21649925;-0.0061624344;-0.044843193;0.0941897;-0.003744484;-0.07484214;0.21316081;0.009822189;0.073189825;-0.0008337955;0.002141188;-0.07936591;-0.04519678;0.13697937;-0.017608663;0.0006745643;0.15212464;0.050179284;0.1172042;-0.055419426;0.083665125;-0.06829835;-0.021312756;-0.09077236;-0.039063666;1.2182455;-0.07678499;-0.0746524;-0.03447279;0.049568612;-0.14222285;-0.03188782;-0.078144126;-1.1145966;-0.13419746;-0.12779826;-0.4746488;0.008415965;0.4408068;-0.041977186;-0.06480459;-0.015238551;0.0019482342;0.0704629;1.1244531;-0.029798137;-0.00036884393;-0.15876095;1.1887001;-0.034091197;-0.024052102;0.23577121;0.042596925;-0.6926501;-0.2690392;-0.65235186;-0.03232851;-0.2989256;0.16080324;0.093237266;0.10028573;0.01415753;-0.077230714;-0.5089487;-0.05075101;0.030408015;-0.07974388;0.0060243257;-0.13772775;-0.57371706;0.04500133;0.21985655;-0.2835121;0.019069115;0.025392927;-0.10963645;-0.012801434;-0.18309344;-0.28975397;0.053305455;-0.47656596;-0.09081907;0.07698378;-0.037268795;-0.07181868;-0.08221582;-0.34815678;-0.726907;0.056163367;-0.029960675;0.07514255;-0.022958642;-0.015863951;-0.0041950825;-0.034904055;-0.017912973;0.10217612;0.0034311179;0.6751777;-0.11925207;0.67871547;-0.22417182;0.23689947;0.021210907;0.11438688;-0.05103167;0.02340436;0.029906193;0.12150054;-0.1256611;0.02033319;-0.10601968;-0.06920032;-0.1402227;-0.25109467;-0.676305;-0.030230062;0.86188036;-0.33898962;-0.008722362;-0.0034521364;0.12348724;-0.037216205;0.18846983;-0.07805229;-0.08244347;-2.3672163;-0.08651034;-1.604364;-0.13401234;-2.2546973;0.03255276;-0.01336308;-0.15793695;-0.042234097;-1.7377875;0.024607599;0.009259884;0.055349894;-0.024259295;-0.050670702;-0.010499248;-0.044949118;-1.5482749;0.05739446;-0.05679659;0.15327871;0.22129124;-0.16679554;-0.01119081;-1.1675193;-0.36820233;-1.4609323;0.00963938;-0.14412226;-0.07578332;0.002204801;0.91045094;-0.030972395;-1.9775608;-0.047563117;-0.04448281;-0.24372502;-0.030530669;-1.0942513;-0.04230434;-0.0067424136;0.004368974;-0.040810954;0.88279366;0.040185817;0.2082303;-0.37346432;-0.0065444647;0.0039915848;0.14886504;-0.118736625;0.06468972;0.0414701;-0.106756255;-1.7655513;0.018990198;0.058270536;-0.040861577;-0.013497764;-0.0070281345;-0.11507209;0.04474581;0.11317336;0.802328;-0.0038372101;0.0049903532;0.0536982;-0.01973686;-0.034638625;0.19171277;-0.01943559;0.012161349;-0.06566275;0.67282134;0.06122256;-0.03354276;-0.052426543
0.3792284;0.0067798276;-0.23970596;0.038702257;-0.005004063;-0.35380504;-0.035146553;-0.052582726;-0.08078248;-0.1555249;-0.063179515;-0.2337614;0.1551521;0.17102924;0.35824624;-1.6791986;-0.8359659;0.057660915;-0.10262518;-0.03591385;0.2985496;0.06889678;-0.25879538;-0.050534032;-0.040139332;0.32884845;0.037243746;0.051917966;0.0019086967;0.019409476;-0.07508222;-0.6516002;-0.032691903;0.080603674;0.066616036;0.10814591;-0.74026746;-0.7021702;-0.005544517;-0.42210314;-0.0027408202;-0.07843057;-0.1427196;0.05415019;0.118226714;-0.04146806;-0.55174655;0.0018004329;0.12343222;0.13700326;-0.49800175;-1.3446496;0.063714996;0.030996032;-0.1517833;-0.006547487;-0.26104194;-0.08164834;0.09604036;0.08698672;0.03156859;-0.34594882;0.1841124;-0.15331937;0.014276047;-0.018779028;-1.1703556;-0.038438212;-0.047330867;-0.07173765;-0.113452256;-0.040695846;-0.066589594;0.09764259;0.011425908;-0.6331777;0.08088522;0.2331883;-0.06613945;-0.27027985;0.038664248;0.04720441;-0.002800641;0.06754469;-0.6850578;0.00049366965;1.8693085;-0.026066914;-0.07342341;-0.04766851;-0.057145387;-0.45963344;0.060250945;-0.04273463;0.6466114;-0.06350527;-0.05251234;0.57949513;-0.012101388;0.006454366;0.04159802;0.03189505;0.46285585;-0.17159623;0.070372686;-0.058380026;0.039133817;-0.029313184;0.051008537;0.05494844;0.017621426;0.029397875;-0.042882748;0.03793437;0.025366904;-0.35977054;0.02799839;-0.06995541;0.086831726;-0.008952606;-0.073967464;0.03515166;-0.04495128;-0.05490884;0.36299205;0.031262487;0.051124226;-0.3227428;0.021445492;0.047638215;-0.13518369;-0.023431601;-0.028237738;0.15648036;-0.09134012;-0.6759592;-0.48598748;-1.1137773;0.055505384;-0.55611426;-0.046803363;-0.034033343;-0.13862607;-0.49304852;-0.20983104;0.043736298;-0.042589456;-0.11667375;-0.25547564;0.065202676;0.70069003;-0.023449052;0.007500389;0.9871575;0.060612045;-0.086671785;-0.026047759;-1.3974093;-0.02009614;-0.0706177;-0.026034392;-0.2864606;-0.04483744;0.0012174345;0.92252195;-0.57446903;-0.8803927;-0.07133964;0.023472073;0.05558672;0.043008316;-0.0011981898;-0.19529687;-0.004277638;-0.08548255;0.0542596;-0.045531094;-0.2971572;0.076867044;-0.013781111;-0.089653865;-0.03075249;-0.78990734;-0.089341216;-0.05603273;-0.6431782;-0.0989529;-0.21537484;-0.027307123;0.081481494;0.011994521;-0.12992536;-0.10848846;-0.033334058;-0.015744207;-0.07446199;0.09418051;-0.015217049;-0.00069851545;0.015717348;0.19163778;-0.053601153;-0.035200257;-0.1459191;-0.56806296;0.06581446;-0.062942505;-0.2091503;-0.032393627;0.008972515;-0.07675696;-0.047829177;0.01631725;-0.029688513;0.3197398;0.062114846;-0.00067221466;-0.036262568;0.06258336;-0.042987276;0.0627944;0.03061441;-1.8026863;0.3342946;-0.045660667;0.07479899;0.03502044;0.22265087;-0.5024452;0.030423502;0.035507698;-0.0012561058;-0.026814407;-0.04339572;0.44041467;0.10362339;-0.060618814;0.103390634;-0.30148265;-0.034961913;0.00077543344;-1.8178704;-0.2698755;0.041089397;0.07732023;0.07590079;-0.21387938;0.02986971;-0.12540506;0.2691099;0.03866798;-0.03547225;0.005876419;-0.3046296;-0.05248447;0.113674924;-0.067372546;-0.10617096;0.1521973;1.0071807;0.40152377;0.1875521;0.05556895;0.051605962;0.008799822;-0.2096555;-0.23836493;-1.1335477;0.22885631;-0.070067875;-0.059798896;-0.038422413;-0.015021493;0.72603863;0.0693841;-0.118990056;-0.78161705;0.03313915;-0.61215097;0.16779213;0.11783591;-0.030032668;-0.1433247;-0.020855108;-0.013750616;-0.13763605;-0.23486002;-0.16935411;-0.022076536;0.6206625;0.10301383;-0.14165233;-0.7183843;0.05102485;-0.39094108;0.21403036;0.06715194;-0.047776867;0.061528597;-0.035150807;0.1226507;0.22441234;0.07829089;0.17207584;-0.060376532;0.01985606;-0.22412881;-0.07723236;-0.06431266;-0.036810387;0.03408926;-0.45794797;-0.0030980965;0.1285706;-0.008904858;-0.049829938;-0.06810315;-0.019995878;-0.019119397;-0.07358266;0.033303358;0.062190577;-0.24265955;0.069828935;-0.3089716;-0.6992209;0.021942452;-0.13690767;-0.005494967;-0.16950758;-0.08155609;-0.06931125;0.019907003;-0.13948087;0.097185835;-0.10263028;-0.47912043;0.029091548;-0.08075777;-0.030986259;0.105945185;0.033186782;-0.025536353;-0.44386625;-0.1490277;0.0118643055;0.06928425;-0.53916246;-0.10748129;-0.112365246;-0.64481235;-0.54131824;-0.027007883;-0.021276528;0.2938464;-0.054165896;1.0020537;-0.25798097;0.30576286;-0.12173471;-0.062319633;-0.0042770714;-0.15409324;-0.05602056;-0.12561382;0.040960684;0.07183001;-0.23179883;-0.04907524;-0.08718794;-0.036263864;-0.46177873;-1.0291318;-0.46854618;-0.045529578;-0.06821101;0.06284559;0.03258519;0.020780206;-0.49450904;0.086025804;-0.027419647;0.029755138;0.027672062;0.049908634;0.042209476;0.0537439;-0.030752564;0.24629663;-0.65826464;-0.031487167;-0.04015733;0.08942365;-0.024651794;0.008556093;-0.056151003;0.02128321;-0.008096147;-0.7660343;-0.01858394;-0.04792188;0.040089983;0.056324083;0.029351557;0.050187252;0.05664653;-0.44195262;-0.2924853;-0.0048664203;-0.86080456;-0.27955168;-0.39090925;-0.10773584;-0.058733806;0.06331395;0.046917096;-0.07036256;0.40301955;-0.077307746;-0.081916384;0.115996525;0.044480566;-0.05995425;0.05658643;0.18089548;-0.06778453;0.55555296;-0.40083084;-0.14829624;0.05878268;-0.26988333;-0.022640076;0.060059965;0.040142585;-0.05992752;0.07661517;0.7663448;0.046318296;0.052047424;0.05303632;-0.018170385;-0.005182767;-0.2834785;-0.03515669;0.046604507;0.16145323;0.047770455;-0.15622717;-0.16345957;0.04054112;-0.11466898;1.4828819;0.046435427;-0.12784694;-0.116210535;-0.019750273;0.016754923;0.009606981;-0.02231186;0.10776997;-0.44906655;0.07023323;-0.0028912679;0.022119377;0.028566215;-0.21089062;0.17256534;-0.033137728;-0.05251472;-0.047348388;0.045198146;-1.1166146;-0.3073943;-0.24323371;0.12523286;0.2080704;0.019813817;-0.005626748;-0.011425756;0.07054332;-0.081245296;-0.024190117;-0.8375042;-0.3449887;-0.30467638;-0.06530153;0.10116402;0.09810371;0.15487523;-0.01938466;-0.39100656;-0.88469315;0.07321298;0.044298567;-0.526645;-0.07446593;-0.9573459;0.056570094;0.015156171;-1.0651479;-0.06617504;-0.08653988;-0.711803;-1.43212;0.06070092;-0.08033466;-0.8629931;0.08408239;-0.19638668;-0.035691243;-0.0053269006;-0.09382377;0.046479814;-0.07304784;0.0030055607;-0.007791953;-1.2184882;-0.008442041;-0.1120927;-0.07204117;1.0556629;0.58555174;-0.083144434;-0.56745106;0.026415775;-0.2891507;0.0728605;0.017140271;-0.0054521244;0.08523989;1.0295366;0.03046106;-1.8358626;0.04408361;0.040150292;-0.065440774;0.07377501;-0.6207136;-0.07535916;-0.2383604;-0.055940732;-0.015694106;0.56082094;-0.008890486;0.20078352;-0.50039357;0.026002467;-0.040392943;-0.038273193;-0.12012501;-0.11322741;0.07340911;-0.034545057;-0.58412486;-0.011449464;0.017243594;-0.028632505;0.0305087;-0.052945573;0.15568931;-0.0531261;0.021426078;-0.1602765;-0.029807575;-0.03150063;0.061889403;-0.07279887;-0.019959452;0.12312415;-0.07913375;-0.1689079;0.056339968;-0.21678597;0.0046742037;-0.010846875;0.04839923
-0.088899285;-0.07294375;-0.3267377;-0.05879064;-0.031607643;-0.2731887;-0.03175349;-0.097014084;0.05677566;0.28416318;-0.058754567;0.11037489;0.27208716;0.3480734;-0.12442002;-0.95542485;-0.85199213;-0.0055128923;0.19265468;0.029801516;0.11742888;0.029421976;0.2062556;0.055479754;0.006502229;-0.30021814;-0.064821005;-0.06883121;-0.05485306;-0.32395622;0.23592174;0.39869586;-0.0048007127;-0.11242353;0.02011803;-0.13390374;0.7077272;-0.14053829;0.06701159;0.025663074;0.03921994;0.05427606;-0.69488907;-0.07573305;0.33316898;0.002800948;-0.27292266;0.045668133;-0.061310023;-0.5313452;-1.3060127;-1.6802782;0.07273815;0.04608246;-0.29015732;-0.08651808;-0.18024217;-0.028212212;0.8158171;-0.15125284;-0.070064776;-0.30007398;0.05031377;0.3068057;0.2194734;0.040334754;-2.0636506;-0.018783685;-0.06078422;-0.050501928;-0.05834682;0.039846495;-0.06811889;-0.24003346;0.13666356;0.22616826;-0.09825697;0.23591925;-0.105894685;0.0058360775;-0.04114955;-0.048664317;0.0115142055;-0.2780372;-0.35154915;0.05867951;1.6440074;0.03878204;-0.0074489084;0.028783018;-0.03118254;0.04833711;-0.012808778;-0.021792036;-1.5732113;-0.003659565;0.055449545;0.57711536;0.11370713;0.015502747;-0.16654493;-0.021671625;0.54939586;0.23313738;-0.07178578;0.06311327;0.05696822;-0.123389944;-0.036639262;0.019298289;-0.037511766;-0.07991093;-0.03518261;-0.011496576;0.00029617973;-0.27428642;0.0046612606;-0.117254294;-0.0749989;-0.04490354;0.037988365;-0.083902225;0.0744766;0.029281044;-0.57965404;-0.0626541;0.03948619;-1.4033347;-0.02867601;-0.33879423;0.102093905;0.0048240856;-0.04579074;-0.7290521;0.07617096;-0.63366365;-0.31198317;0.07710415;-0.036134813;-0.3507706;-0.029852198;0.04248246;0.031416602;-0.42124718;0.3282377;0.07142663;-0.03305425;-0.01328016;0.012566559;-0.098130025;1.2380469;-0.032313395;0.014103924;0.21699597;0.01580341;-0.012967117;0.012960468;-0.7091365;0.009716081;0.41568038;-0.011472124;-0.6479364;-1.036768;0.057262808;1.0306501;-0.33105358;0.11484242;-0.022978961;-0.069720365;-0.061642736;0.08519959;-0.08246139;-0.032981277;0.017627725;0.04806601;0.0633355;-7.641531e-06;-0.35410565;0.012304861;-0.017305154;-0.08511352;0.08112938;-0.3824832;0.067498416;0.055477295;-1.1568093;0.001819454;0.17486362;-0.25136313;0.09087841;-0.028638106;0.10193964;0.069620885;0.0626452;-0.023910401;-0.05537639;-0.104109034;0.13620815;0.25419083;-0.030026173;-0.417863;0.07594201;-0.08742532;-1.3960364;-1.8844897;0.035244167;-0.03738038;0.014391802;-0.0042984523;-0.050508358;0.016257575;0.08349307;0.010637253;-0.11316572;0.05825349;-0.04059388;0.05521758;-0.08827571;0.030028677;-0.07037918;0.057204604;-0.06380988;-1.2051209;0.8290308;0.78649735;-0.07471951;-0.012105216;0.4274025;-0.461851;0.012862016;-0.18391067;0.055047993;-0.013927638;0.020669768;0.053011004;-0.001743648;0.06842553;-0.06382064;0.060688186;-0.0060782265;0.0024615114;-1.7913154;-0.09146903;-0.009909039;-0.05208892;0.063634254;-0.8921067;0.04127027;-0.039240256;1.1909671;-0.06901003;0.047188062;0.04608775;1.2081016;0.059409358;-0.11574294;0.04788482;-0.026076902;-0.05172227;0.7361392;1.0244697;0.5096538;-0.09904461;0.063079886;-0.044660483;0.53754574;0.40210822;-0.24485905;-0.14461808;-0.119438045;0.061105598;0.03089584;-0.006676056;-0.40706843;-0.25297028;-0.23086992;-0.14892279;0.07246281;-0.40671745;0.03586585;-0.0011323281;0.057141088;-0.029169133;0.013920076;-0.064483926;-0.11576627;0.19257271;-0.23001575;-0.06453498;0.20261775;0.02139287;-0.0390604;0.5700823;-0.60095054;-0.24645826;-0.046263207;-0.05642304;0.06987212;-0.050802127;0.025473492;0.015589902;0.7727787;-0.0531098;-1.0031662;-0.09353772;-0.37316197;-0.0759001;-0.2722587;-0.018397579;-0.0421934;-0.080742665;-0.088478826;0.028456215;-0.2712281;-0.07073107;-0.028268885;-0.0034870233;0.0073156995;0.10994217;0.05561137;-0.005833757;0.97640723;0.30596235;-0.05872334;-0.27067998;0.7140337;-0.034734003;0.040667947;-0.03187773;0.765046;0.033316977;-0.032132905;0.014382283;-0.026987934;-0.06676678;-0.965816;0.051731247;-0.0030580987;0.06140543;-0.024311617;-0.056074787;-0.06534794;0.063323416;0.46781898;-0.058519397;0.038937587;-0.060491495;0.21608484;0.023410596;-0.34857145;-0.59804165;-1.1170145;-0.008864953;0.040398512;0.02994167;-0.061404414;-1.1432034;0.87029046;0.1795559;-0.0017411471;-0.010951995;-0.087403625;0.1943785;0.042152748;0.06360564;-0.060002007;0.05022709;0.03133634;-0.03274018;-0.01912278;0.009642636;-1.0097789;-1.455676;0.22236544;0.02550839;-0.052409317;0.10497287;0.06544475;0.06031948;-0.38239875;0.010810994;-0.014813359;-0.035925016;0.05084924;-0.010967503;-0.045157574;0.36027575;-0.062979914;0.013726308;-0.21007274;0.014222677;0.40491405;-0.08927758;-0.012913105;-0.037497994;-0.1654504;-0.10623654;-0.08731101;-0.41518164;-0.07661539;-0.02579037;-0.073808916;-0.02503746;-0.13603985;0.06018893;-0.025305264;-0.09309356;-0.03464699;-0.043060087;-0.84814817;0.10803039;-0.24315202;-0.018608253;-0.018785007;0.06593115;-0.06703948;0.03414301;-0.29111525;0.01196575;0.0043303883;-0.16922992;-1.1816288;-0.015204355;0.017498983;0.017040046;-0.076201804;1.1137521;-0.1866278;0.023373615;-0.07733803;0.26949114;-0.3699258;0.002064331;0.019703686;-0.022383818;-0.011904719;0.7741487;-0.08402159;-0.07918436;0.053231508;0.0304178;-0.10479581;-1.4419374;0.015901852;0.11877353;-0.49744895;-0.272259;-0.03574437;-0.10162612;-0.02941899;0.07777864;1.0466253;-0.06285737;-0.23406203;0.14712244;0.036254674;0.029667685;0.088252835;0.049806003;0.29497448;2.1584876;-0.051851537;0.087086834;-0.07967607;-0.03853486;0.039952505;0.09972687;0.043288745;0.03758802;-0.023528013;-0.042479824;-1.1495593;0.11280112;0.9062065;-0.269635;-0.0008246351;0.06902712;0.058411743;-0.08571002;-0.045910805;0.0736646;0.028899003;0.21794389;0.28140765;0.35985473;-0.10977239;-0.16456707;-0.24599315;0.05193813;0.033830598;-0.46408233;-0.49094224;-0.048362058;-0.0711437;-0.529671;0.06538345;-0.064581774;0.073945396;0.042367097;-0.53159493;-0.06867425;-2.169536;-1.4917873;-0.4907217;0.06392337;-0.014015744;-0.6333261;0.048789054;-1.3753389;0.015366455;0.04889653;0.030997587;-0.018203672;0.043338772;0.0029247098;-0.078529075;-0.11434266;-0.022552297;-0.10735623;-0.106880225;-0.351574;0.68118066;0.03644401;1.6676013;-0.45639402;0.18032506;0.007212509;-0.1829844;0.022962516;0.06373361;-0.36465716;-0.08215498;1.0566467;-0.099904016;0.026541159;0.1125207;0.07938265;-0.53576565;-0.08694747;0.06958022;-0.01733477;-0.04494427;-1.1288702;0.08315989;0.2922411;0.098804526;-0.04157318;-0.023563113;-0.0688427;-0.18008229;0.01740596;0.013667596;-0.122648686;-0.9362952;-0.054557003;-0.0094274925;0.008994171;-0.07375517;-0.008205605;-0.06896348;-0.03784496;-0.01042417;-1.4304228;0.04852926;-0.05695418;0.03788667;-0.02386571;-0.07596793;0.08035039;-0.049064204;0.19084617;0.078787625;-0.92125237;-0.05020154;-0.013273803;0.046719704
0.012567138;0.027607737;-0.085963674;-0.07674656;-0.048172973;-0.16566852;0.027859323;0.04425664;0.054113716;0.13589917;0.016726172;-0.4757033;0.06630085;0.3996518;0.65034026;-1.0301692;-0.9143115;-0.05430038;-0.31758007;0.009154661;0.22375746;-0.022523694;0.67333287;0.12453407;-0.014954349;-0.20506218;0.055486392;0.082730524;0.18397342;0.36915;-0.60637397;-0.5168088;-0.12194958;0.003731968;-0.015004843;0.25666675;-0.055927426;0.39157134;0.06814044;0.009258835;0.039200056;-0.0362393;0.6400503;0.1591083;0.29464737;-0.054693837;-0.2699771;-0.10696204;0.18683283;0.04381727;0.4939321;-1.2170644;-0.075322874;0.057220425;0.06676407;0.053035308;0.12348261;-0.079132386;1.1586895;0.18327709;-0.03737886;-0.062583454;0.32551423;-0.68876183;-0.009897651;0.008704595;-2.44823;-0.029657222;-0.061266806;0.050422806;-0.1706931;0.025415763;0.033599753;0.23678127;0.24272923;-0.20815644;0.18950723;-0.10629925;-0.011518139;-0.32103854;0.07968794;0.070340484;-0.011223425;0.45082745;-0.39616862;0.038670614;1.4937359;-0.036379408;-0.38153443;-0.027479462;-0.023803577;-0.27487633;0.041933596;-0.06820563;-1.8200511;0.083951004;-0.07502644;1.0541117;0.19843678;-0.05016829;0.05658394;0.04416095;1.3886323;0.08288494;0.066546805;-0.08312975;-0.039433114;-0.13590649;-0.12461537;0.010635188;0.0358181;0.013542267;0.014345099;0.020197151;-0.02148728;-0.94459456;-0.041845903;0.03420249;0.10990132;0.01507182;-0.08659991;-0.067285664;0.023371127;-0.04521992;0.5479509;-0.026038766;0.053705513;-1.308248;0.02737745;0.5606167;-0.118350185;0.041272055;-0.10425039;-0.96939254;0.055286784;0.31173578;-0.36651903;0.38262278;-0.3661052;-0.2030155;-7.068254e-05;0.008660266;-0.100026384;-0.31186643;-0.29396942;0.044633593;0.0035606422;-0.071292765;-0.18204789;-0.029603757;1.3938655;-0.06905809;0.07045138;-0.3458891;0.030958856;0.01965277;-0.09666531;1.2694228;0.008028817;0.4982035;-0.022902725;0.2803928;-0.47729588;-0.06628945;0.40391743;0.48768148;-0.18877758;0.02156959;-0.032214288;0.13504554;-0.0903295;0.037893835;0.15783179;-0.09011758;-0.042496346;0.0042392495;-0.048097037;-0.3606401;0.024557626;0.05047786;-0.025233049;0.01498557;-0.64519;-0.027969293;-0.10414739;-1.4557146;-0.10329275;0.05456941;0.021175593;-0.053725574;0.06760578;0.009539617;-0.06013277;0.021979716;-0.0065088053;-0.03178851;-0.19990176;-0.11336426;-0.06951864;-0.05956167;-0.4986924;0.019737775;0.027387004;-0.66363907;-1.6320593;0.0014851022;0.020998294;0.46478036;0.053734753;0.035036717;0.0014463996;0.028060367;0.057673823;0.00855795;-0.5566153;0.070280254;-0.0817404;-0.07148302;0.057128415;0.008009817;-0.06144961;-0.000114750845;-0.918048;0.38069087;0.8030755;0.021436023;-0.077841446;0.46742377;-0.31990403;-0.1525379;0.14117688;-0.08700723;-0.027588917;0.091549605;0.02726785;-0.0060478863;-0.045589022;-0.14121942;-0.18173929;-0.03569164;0.032199055;-0.89756805;-0.1674693;-0.044411883;-0.049674377;0.07064144;-0.19447593;0.017502831;-0.034070823;0.1488729;-0.04114238;0.08743565;0.0547679;0.36191198;0.078273565;0.05001652;-0.0024417122;-0.25760305;0.19694994;0.2819521;0.3056711;-0.45119146;0.055043206;-0.07571229;-0.008722595;1.5434669;0.89483136;-1.1383998;0.4033603;-0.086426236;-0.10793686;0.0091158645;0.070199355;-0.23777834;-0.14079985;-0.048160672;-0.6445776;-0.1544263;-0.15632196;0.070006385;-0.05344329;-0.07592108;-0.09836365;0.09099663;-0.017122911;-0.11032201;-0.63406783;-0.37042278;-0.006719563;0.12356645;0.018685974;0.28486627;0.6185127;-0.51653904;-0.0951689;-0.010549112;-0.07496603;0.054449983;0.074178286;0.028798057;0.5731608;-0.55398023;-0.028459081;-1.0852026;-0.043224785;0.41614532;-0.01959643;-0.33955824;0.08469552;0.027794253;0.023963233;-0.6181582;0.05410122;-0.12018714;0.00073470315;-0.068927065;-0.055776972;-0.034035295;-0.23177479;-0.04686021;0.031025924;-0.4548829;1.7899733;-0.055874527;0.08115061;-0.63750947;-0.101577476;-0.16003266;0.034884386;-0.9537925;0.018858545;-0.059406657;0.04658287;0.005003344;-0.034822773;-0.15886445;-0.34101138;-0.06446746;0.006728697;-0.06593052;0.021198234;-0.029069165;-0.17124219;-0.31480333;-0.04196315;0.027492268;0.001517171;0.09440639;-0.03497198;-0.6786033;0.5568863;-0.013292008;0.031080388;-0.061961513;0.0988339;-0.01888309;-0.09106718;0.20210584;0.661176;-0.010811681;-0.044697896;0.06965161;-0.3548473;0.02137135;0.05841808;0.074819215;0.029039085;-0.3954097;0.04724305;-0.012560487;-0.008967751;-0.8236179;-1.3980793;0.8049296;-0.01087786;0.05853022;-0.033808492;0.08758103;0.013324846;-2.3573258;-0.01050045;-0.053864688;0.06871069;-0.046547476;0.048019484;-0.05860644;0.027374154;-0.040436894;0.5742203;-0.50371534;0.03648273;1.0792389;0.088606514;0.018677602;0.08001885;-0.059177447;0.07505173;-0.050546832;0.66755146;0.032750133;0.01815383;0.06043718;-0.0070286933;0.3427337;0.044930995;0.053731155;-0.21438938;-0.32099396;0.114289746;-0.31258726;-0.30413163;0.026684072;-0.10700015;-0.06762864;0.0448383;-0.019660713;-0.0074947947;-0.62685513;-0.06190266;0.034626305;0.18213882;-0.7658782;0.0073401146;0.049449258;-0.25001594;0.040357593;0.06169781;-0.19232957;-0.1737113;-0.022747464;-0.63430893;-0.19805;0.032596733;-0.12829028;-0.0765069;0.09904212;-0.57912123;0.11397514;-0.037826743;0.015072705;-0.08044383;0.21841364;-0.43357062;-0.051647674;-0.107116334;-0.39094862;-0.25937998;-0.12060011;-0.16974068;0.011040496;0.12676206;0.6643028;0.07890792;-0.15664837;-0.22216977;0.035415113;-0.05400975;0.052056048;0.034041945;1.1700455;-1.1154691;-0.08405835;0.07320037;0.058392912;-0.06071055;-0.30108264;-0.5694821;0.023524966;0.0031546464;-0.101362996;0.0074010957;-1.7970438;-0.4651403;0.56747013;0.3747968;0.12501904;-0.006038797;-0.053832863;-0.068730794;0.07746586;0.017625129;-0.06945009;-0.5812987;0.2572066;-0.1562977;-0.082578845;0.29720291;0.3114739;-0.06700806;-0.012054602;-1.1317195;-0.30981946;0.13680582;-0.047659732;-0.3022038;0.02100736;-0.35258332;-0.0035978986;0.028960614;-0.857108;-0.06541761;-2.1408453;-1.2319003;0.52991396;0.0076326733;0.067974865;0.38990438;-0.014993698;-1.567781;0.061906446;-0.13199867;-0.08815819;0.025393024;-0.060320504;-0.036838368;-0.053365525;-0.50594074;0.048663795;-0.2789929;-0.10800657;2.1418114;-1.1413465;0.06628151;1.4330577;0.33775213;-0.34857357;-0.031199861;0.10094118;0.052092858;-0.064732686;-0.19154613;-0.055212487;0.43504798;-0.05531457;0.014404613;0.85228366;0.03819982;-0.38329038;-0.07408587;-0.19930924;-0.04596575;0.2108116;-0.25022838;-0.043434214;0.29268575;-0.15863505;-0.002514946;0.016001357;-0.08102282;-0.10881919;0.012053555;0.06699369;0.042045392;-0.8447175;-0.03164849;-0.04421372;-0.0845051;-0.03847798;-0.053576123;0.28799775;0.047643464;-0.07368555;-0.8708418;-0.031936377;0.038638234;-0.04425375;-0.049440127;-0.019094307;0.2508237;-0.012270336;0.2573342;-0.041177377;0.79817235;-0.09546283;-0.01706423;-0.062270664
-0.589168;0.051619932;-0.42533576;0.09840263;0.16107075;0.56506306;-0.13225335;-0.13665602;-0.08814344;-0.48243135;-0.08321891;0.39868146;0.4231172;0.6516513;-0.40209115;-0.46875522;0.2569123;-0.1789941;-0.56150717;-0.07372857;-0.28657222;-0.044309635;0.00999614;-1.8131275;0.11042659;-0.43312868;0.06322982;0.10913207;-0.19598445;-0.054767072;0.6231781;1.3853539;0.13967444;-0.052307185;0.08610068;0.4023122;-1.2854354;0.37113297;-0.097139455;0.07221597;0.15886326;-0.1107559;0.95983315;-0.10971939;-1.4645203;0.04684447;0.6981908;-0.007466425;-0.052199185;-0.7328896;0.25255454;-0.22929673;-0.10757946;-0.009242234;-0.26720926;-0.0027013072;-0.3008841;-0.017222896;-0.3017323;-0.13913096;0.013145905;0.28967214;0.32033375;-0.6154132;-0.13443086;0.1377452;-1.4858898;0.01798973;0.04659161;0.06994951;-0.10353959;-0.03369133;0.15542866;-0.046477225;0.76107395;-0.8621227;-0.08387606;-0.17411086;-0.042019065;0.076497;-0.19009687;0.034029678;-0.10851807;-0.13683887;-0.98718375;0.054897204;0.87061256;-0.10526774;-0.3471756;0.07932851;0.13435417;-0.7785848;-0.16305481;0.12776068;-0.22347759;0.10232714;-0.021516012;-1.149449;-0.32781303;-0.0054502147;-0.15076415;0.06912969;0.38560075;-1.8673568;0.12854376;0.08491782;0.044145014;0.014289366;0.031184902;0.07053931;0.07323037;-0.1776121;0.10305635;0.00852272;0.072787754;-0.22240418;-0.010591369;-0.0627768;-0.06548834;-0.065964036;0.0077316654;-0.059182335;0.0748121;-0.03803928;-0.31755596;0.05070069;-0.058923405;-1.0578265;0.10508585;-0.24452186;0.4912584;-0.09822108;-0.18709084;-0.3166915;0.14586855;0.7515847;0.12300305;-0.4399748;0.17722978;0.4943719;-0.09600281;-0.05221848;0.2245329;-0.04540419;-0.3131502;-0.045900047;0.028373064;-0.034611125;0.23428911;-0.07430398;0.78046376;-0.06916107;0.034483615;-1.229257;0.00032058955;-0.15037435;0.07885303;0.14335461;-0.11459141;-0.035593223;0.053541783;0.9262389;1.34219;-0.00552679;-0.006191916;-1.7534614;-0.9494008;0.10517541;0.12777871;-0.17241451;0.058488794;0.035944376;0.08086793;-0.02015735;0.069835566;0.07472401;-0.044012044;0.16273992;-0.012305208;-0.06692537;-0.1578981;0.036050573;-0.3271878;-0.11719207;0.010098307;-1.424631;-0.016399201;0.6309132;0.03389455;0.40883484;-0.14344992;0.1919224;0.08125796;0.14225917;0.035444032;-0.057489727;0.028763324;0.010110078;0.18507238;-0.06179647;-0.39406565;0.073788576;-0.07556966;-0.19381662;-0.16271035;0.04202649;-0.06911782;-0.23706529;0.045454476;-0.052638765;0.09081765;-0.010272564;-0.1645071;0.062003247;-0.040013272;0.09908487;-0.084679134;-0.23100387;-0.1296871;-0.12077059;0.14474966;-0.059193183;0.35075516;0.5960569;-1.257061;0.13975203;-0.124491155;-0.111934215;-0.12380491;0.054274894;-0.16045265;-0.12959619;-0.006614049;-0.17045543;-0.03838584;-0.14839555;0.19539309;-0.04847853;0.4055181;0.03846159;-0.07332393;0.25524968;-0.097342096;0.08391272;-0.0611373;0.09730791;0.50029504;0.060388193;0.066375725;0.7962966;-0.13568194;-0.011440711;-0.028864492;0.3489165;0.07119275;-0.15487696;-0.052877866;0.47024688;-0.15467417;0.28478163;0.25154036;-1.257774;-0.12670808;0.017886367;-0.040607058;-0.5146322;-1.6284333;-0.16556631;2.350241;-0.0890255;0.21239994;0.07152383;-0.012264697;-0.8545847;-0.037921987;0.033894584;-0.35105526;0.088095106;0.05086698;-0.049424525;0.116951786;0.049548503;0.17834291;0.047091864;0.0067729517;0.11649354;-0.30139744;0.04762354;-0.002380714;0.24561638;-0.26581576;-0.41973743;-0.28467444;-1.0332049;0.13980083;0.14663862;0.08568399;-0.14717583;-0.15565991;-0.119762234;0.8050674;-0.011684119;-0.086277656;-2.4070466;-0.056706954;-0.06383956;0.109430484;0.12591647;0.06133011;0.016844392;-0.04007714;0.586085;-0.074185;0.014675908;-0.0064163245;0.059723638;0.017659832;0.14250153;-0.052358426;0.09876489;-0.12141439;0.061554056;0.25322416;-0.043551322;0.034819573;0.5817361;0.1405968;0.18369797;-0.17293207;-0.7309709;0.042644188;-0.11379542;0.014199077;0.17050628;0.027190719;0.0001141001;0.2121657;0.047392048;-0.11862801;0.02683895;-0.06845332;0.10896069;0.050636686;0.25847432;0.04490967;-0.15059982;-0.023150139;-0.22602685;-0.1284981;-0.7269686;-0.01437849;0.2724774;-0.0463244;0.10569853;-0.03978047;-0.018837266;0.23634101;-1.2640498;-0.612634;-0.09956469;0.12930177;-0.15517378;0.2598327;0.093163915;-0.00070730696;0.12066449;-0.16365512;0.1325166;0.12817377;-0.050978143;0.06269347;0.42630997;-0.92108285;-0.35247022;-0.037569113;0.10524824;-0.08416961;-0.076323025;-0.13385275;-0.6344861;-0.043332785;0.03664662;0.04757329;0.10418717;0.05310891;0.14726715;-0.061070498;-0.14697826;-0.059406497;0.03148484;-0.0009937383;-0.97530186;-0.0039053808;0.11284041;0.09749905;-0.027460953;-0.064507745;0.07924935;-0.23717175;0.12671617;-0.011860398;-0.102444574;-0.025742123;-0.049573053;-0.0017116361;-0.14807232;0.057056602;0.05970867;-0.13451023;-1.2122326;0.17295423;0.86173105;0.16859296;-0.12487054;-0.057325326;-0.13863015;-0.018397436;-0.4325756;0.15194213;-0.04920794;-0.05637103;0.4213291;-0.080190144;0.057941124;0.07423157;-0.07128465;-0.2414905;-0.24303417;0.25378394;0.005701599;0.56631714;-0.23103917;0.08221385;0.18583538;0.040367775;-0.14363243;-0.14365172;-0.09973719;-0.06224877;0.11532346;-0.05779587;0.5408052;-0.1851876;0.013197388;0.2423634;1.1157091;-0.28967535;0.0055638887;0.36736396;0.12605119;-0.11766819;-0.85871834;0.10490389;-0.18500134;0.10147759;0.16647175;0.0175552;0.015764376;-0.0411451;-0.37934884;-1.7107373;0.07515079;-0.2924006;-0.047302693;0.03443604;0.16766916;-2.960788;-0.061990738;0.08429352;0.031297084;-0.04790437;-1.115892;0.0682627;-0.45012182;-0.11241746;-0.21485887;0.049522385;0.15451294;0.17805097;0.03076166;0.07565275;0.0415823;0.4215224;0.026672611;-0.45013523;0.01801474;-0.17114373;-0.16264807;-1.3809805;-0.16045704;0.09178491;-0.760657;-0.1568878;0.074494965;-0.033749368;0.12350946;0.06543023;-0.13917987;0.11549571;-0.49053776;-0.03164952;-0.5453352;0.78965837;-0.59767497;-0.047463473;0.01943479;-0.5918125;0.16317186;-0.77727085;-0.10653321;-0.1415014;0.028585093;0.023994435;0.023442628;-0.093131945;-0.18007196;-0.807822;0.051391363;-0.06326803;0.035804033;-0.84191173;-1.7060345;0.14137009;-0.5075366;-0.058027416;-0.006652919;-0.13069275;-0.16097972;-0.068624124;-0.059573315;-0.84754235;-0.07330304;-0.018096996;0.04594043;0.10204626;0.06445309;0.08892332;0.9215592;-0.08220754;0.12473709;-0.0025798406;-0.19416529;-0.28714305;0.051002387;0.29761508;-1.1608464;-0.011659681;-0.0618612;0.395214;0.08688856;-0.17040972;0.12706761;-0.061301123;-0.40260023;-0.08399108;-0.020739889;0.09578077;-0.06679628;0.12402134;-0.13397323;0.0144257685;0.03575105;0.615458;0.11929573;-0.03776009;0.13316214;-0.07813666;0.024952762;0.06770451;-0.10838052;0.21052475;0.02310281;1.167409;0.060005017;-0.035715763;-0.14419581
0.24323939;-0.026090365;-0.10502196;-0.24654646;-0.114005774;-0.46612167;0.07662386;0.106635325;0.18177076;0.56691456;-0.001615506;-0.35499462;0.15473507;0.14299516;-0.39608565;0.13774543;0.42913377;0.09333933;0.124762826;-0.065984525;0.5783096;-0.0965764;0.71215034;0.6711634;-0.103166975;-0.7231962;-0.10729423;-0.117050685;0.19871166;0.33413538;-0.74356514;-0.5424043;-0.24692349;0.124667645;-0.021464305;-0.26722163;0.8968914;-0.7202668;0.0021418862;-0.113947004;-0.045162074;0.227621;0.4724793;0.35357428;-0.39210406;-0.021332666;-0.723135;0.048705257;0.35971266;0.0583961;0.6216372;0.082956284;-0.034049973;0.07665723;0.2371509;0.18556806;0.40268537;0.010692448;0.5591079;0.23783606;-0.010249201;-0.63379073;0.19177541;0.39580637;-0.050438058;-0.08409767;-1.1237906;0.03454886;-0.2308475;-0.10820508;0.1313156;0.21274474;0.022711324;0.412333;0.74130017;0.38854164;0.39656493;-0.26675045;0.21824309;-0.27948228;-0.044800986;0.019555617;0.06948752;0.47377807;0.5705761;-0.16696748;0.29756564;0.07694656;0.08473394;0.01851486;-0.1725421;-0.22000407;0.091957726;-0.11018497;0.0076722186;-0.09454536;0.14798953;0.22995692;-0.062455453;0.008127965;0.26775685;-0.00018915559;-0.25557068;0.4910198;-0.034993183;-0.021741714;0.010799621;0.08493414;-0.11140706;-0.24135202;-0.04779155;0.0955868;0.009813101;0.102989964;-0.17443927;-0.8943163;-0.07524565;0.2642072;0.114272036;0.07841143;-0.0044354494;-0.08631037;0.032449175;0.24102648;-0.569179;-0.14817433;-0.008971214;-0.77105117;-0.2743075;-0.025808007;-0.30893496;0.11516333;0.05842607;-1.2090642;-0.117415845;-0.8657253;-0.6467636;0.9430103;-0.2695182;-0.49413374;0.02201838;0.10687932;0.8197224;-0.3403266;0.8976148;-0.031586193;-0.09766112;-0.10646046;-0.27755845;0.14747205;0.14570016;0.110457286;0.067784935;0.8674739;-0.062235128;0.20300028;-0.12712602;-1.5532467;-0.06077572;-0.116327345;-0.024891313;0.5812782;-0.83644813;-0.08922323;0.25029874;0.4645422;0.070794955;-0.07639875;-0.07416399;0.24585941;-0.097129844;-0.05729445;-0.25353098;0.14110893;-0.12433224;0.0028285536;0.025231078;-0.41366807;-0.003741386;0.3205462;0.021646362;0.0010199529;-0.17222852;0.11523608;-0.07723659;-1.2315614;0.022839254;-1.5025631;-0.110267065;-0.2644656;0.20482646;0.17714629;-0.3026164;-0.1364817;-0.0072567035;0.07601161;-0.2989606;-0.11068417;-0.021268673;0.117207766;0.46696374;-0.060457908;0.05354898;-1.054003;-0.6128414;-0.064400926;0.1593009;0.7510098;-0.011012043;0.11502094;-0.04387369;0.0795474;0.0907582;0.3028323;-0.8406461;-0.0025370973;0.09918486;0.10332134;0.17499997;0.16247807;-0.19484949;0.22543004;-0.088828996;-0.12121985;0.5267543;-0.27066642;-0.004559651;0.46807957;-1.2425061;-0.04609133;0.2796787;0.18585433;0.093820825;0.06108469;1.5458672;0.22803126;-0.35468453;0.35692564;-0.121915855;0.041647226;0.20362394;0.17042895;0.061793093;-0.1446355;0.015919728;-0.07668471;-1.3638508;-0.07839636;-0.1532834;0.45532736;0.09588103;0.1263556;-0.10743017;-0.8758544;0.029940022;0.30877674;0.018532705;-0.394608;0.35045955;-0.7114906;-0.29727814;-0.29085892;0.1704678;-0.04545284;-0.0064857155;0.86705846;0.8218612;-0.5004563;-0.36188403;0.05897566;-0.25207704;0.0108446535;0.056265082;-0.23483329;-0.044527322;-0.17603903;0.25338072;-0.114495486;0.24360308;0.14313273;-0.05990377;0.034965515;-0.18468544;-0.18657729;0.012623989;-0.32945082;-0.54158705;-0.6335131;-0.009579764;-0.0111551145;-0.058332942;0.96196365;0.23517476;-0.052818187;-0.37931255;0.32243696;-0.16679063;0.09827056;0.32525164;0.022905063;-0.57213897;0.292695;0.06096087;-0.06429779;-0.028190631;0.38730988;0.072915584;-0.20697737;-0.184346;-0.00011943463;0.032221187;-0.26296425;0.25430974;0.20466505;-0.13001743;-0.13396046;-0.1449765;-0.074266754;-0.032264806;-0.19222817;0.08847351;-0.700371;-0.5025234;0.020797396;-0.04703954;-1.6702491;-0.00090913486;-0.19908506;0.2475141;-0.058335543;-0.06832697;0.045973595;-0.106164925;-0.099626586;-0.033195045;0.3147269;-0.34958005;-0.0829843;-0.024794135;-0.073869;0.15777618;-0.0002238348;-0.38225216;0.74968255;-0.17275362;0.121543296;0.08259897;0.36939225;0.060966086;0.31847322;0.16310503;0.86619437;0.1034008;-0.061609328;0.39048687;-0.00048361937;-1.3359954;1.5777041;0.9314544;-0.0016488266;0.0016279394;0.17529678;0.84732914;-0.20144315;0.1581875;-0.24175614;0.08807413;-0.09114604;-0.016912011;0.1443516;0.0076492433;-0.6152645;-1.1270511;1.0532235;0.07472431;0.0030579695;0.11975196;-0.07237801;0.051496066;-1.7723751;-0.025822116;-0.24078754;-0.016798731;-0.22394247;-0.03580177;-0.09295962;-0.27377185;0.01957179;0.33953366;0.28845304;-0.022315469;-0.118125804;0.089451924;-0.0827214;-0.09278474;-0.06931079;0.17660286;-0.0471764;0.3054992;-0.0849535;0.10783123;0.08237165;0.08919718;0.382821;0.055296667;0.2238144;-0.2857612;-0.36787078;0.27529404;-0.15719524;-0.34943295;-0.0680924;-0.028870923;0.035538573;-0.030698432;0.12426684;0.08213395;0.03688043;-0.024036692;0.032904785;0.27644485;-1.2181989;0.062411595;0.0057978756;-0.34630793;0.22298068;0.16071406;-0.15051812;-1.0623449;-0.007919633;-0.912242;-0.19115819;-0.21727522;-0.28438148;0.002099588;0.22848864;-0.27155057;0.3292122;0.012661781;-0.09459026;0.045260385;0.14113632;0.45803457;0.014180519;-0.35807765;0.37452322;0.11143401;-0.15871489;-0.26148915;-0.15271999;0.18461569;0.1859934;-0.099184796;0.14805424;-0.061606087;-0.10072021;0.0797552;0.007596793;-0.0041863117;-0.10253681;-0.27838445;-0.211382;0.1487612;0.0661757;-0.011390277;-0.12438164;0.2809474;-0.027622603;-0.01353347;-0.2612073;0.12768693;-0.89234805;-0.3063506;0.7680164;0.45703623;0.12782297;-0.27048776;-0.0718372;-0.23552956;-0.006947494;-0.11426582;-0.24374862;-0.14103326;0.8328304;0.37311316;-0.14631537;0.47280547;0.39017496;0.30043712;0.2450356;-0.67648983;0.10358672;0.29315516;-0.016959371;0.6101804;-0.02670078;0.1270522;0.094368115;-0.09845688;0.4424539;-0.04473273;-1.5721308;-1.6089258;1.5502259;0.05345623;-0.061054755;0.87485844;-0.06031904;-0.05066682;0.06824742;0.12369627;-0.076922774;0.04032449;0.07131541;0.028086111;0.071672045;-0.108540334;0.07349164;-0.13175192;0.09111861;0.37896717;-0.9755047;-0.079346925;1.2932553;0.3536005;-0.34026697;0.05932316;0.32626688;-0.03431223;0.020541094;-0.31504843;0.0063530644;0.6611656;-0.1524646;-0.060962833;0.6926306;-0.099733435;-0.18412144;0.12824422;-0.24337867;-0.10742247;0.2610676;-0.39213055;-0.12816401;0.12123139;0.4045754;-0.037724387;0.020515667;-0.08058111;0.12662086;-0.004857526;-0.09253347;0.22803713;-1.5006759;0.2501478;0.14280519;-0.11793078;0.039586682;-0.04736517;0.33116648;-0.0380221;-0.20615873;-0.29539734;0.031967122;0.1862815;0.0054454366;0.10552045;-0.107946336;-0.04726924;0.021697022;-0.116495416;-0.091961525;-1.0233657;-0.06403186;0.13040334;0.04187832
-0.43643194;-0.035563894;-0.22831453;0.06366711;0.06704544;-0.15585265;0.00030755874;-0.06605284;-0.030400105;-0.093615234;0.059796277;-0.26062396;0.60545784;-0.2527621;-0.9102514;-0.81210876;0.35138723;-0.11348929;0.3908287;0.022797123;-0.09092075;0.032954246;0.33788064;-0.7495106;-0.021968754;-1.4633628;-0.05639819;0.1424425;-0.12266259;-0.13091685;-1.8934147;-0.7760261;0.11115894;-0.12945466;0.065692484;0.049478;1.1507092;-0.32490978;-0.057296574;-0.41082293;0.032603405;-0.15629259;0.54867554;-0.20233198;-0.19113466;0.07188477;-0.24287206;-0.062219743;-0.18685439;0.03377349;0.29463997;-0.51556265;0.045059998;0.024463344;0.016223844;-0.006677503;0.134323;0.05634021;-0.059197765;-0.17475751;0.025858957;-1.1226571;-0.14334057;1.3152242;-0.20585378;0.09319672;-1.4272087;-0.074522;0.04760742;0.084984645;0.051667247;-0.07866444;0.06374801;-0.043757666;0.88660836;0.097087465;-0.12239391;-0.5628543;-0.015440633;-0.09022361;-0.11617195;0.051214628;-0.12466811;-0.15069072;0.6876271;0.14174202;0.8213507;-0.0065447977;0.045153715;-0.046783183;0.06424048;-0.26042685;-0.0672828;0.10996899;-1.1815857;0.11191925;-0.015678478;-0.005501924;-0.14166108;0.05471556;-0.061388377;0.025195159;-1.6526562;1.1465813;0.09971403;0.14313313;-0.039137118;-0.18148497;-0.022836372;0.06701918;-0.02383887;-0.05314586;-0.0839793;-0.034913935;0.036021706;-0.8664325;0.09504853;-0.05683501;0.009769793;-0.10632036;0.0013504482;0.03327656;0.018385017;-0.034410276;-1.3810171;0.04092079;-0.016249103;-0.66080457;0.13355117;-1.1012611;-0.18837173;-0.057666805;0.1208878;-0.38374445;-0.0579765;-0.69116896;-0.39091438;-0.4153338;-0.48307997;-0.2567972;0.0298045;-0.1353527;1.4942935;-0.43628702;0.018429235;-0.08661685;-0.058263034;-0.023023391;-0.07399526;-0.16439983;-0.81334394;-0.009474153;0.050187103;0.50056124;-0.011508164;-0.06553381;0.008595295;-1.8440735;0.044539317;-0.34441552;-0.027685372;1.6334562;0.97568756;-0.031239912;-0.718406;0.91572464;0.34914082;-0.010470703;0.007411277;-0.1608382;0.08756421;0.087072894;-0.045645356;-0.08845647;0.094450735;0.109301455;0.002892101;-0.064142525;0.055036366;-0.18175177;-0.01821673;-0.03435038;0.42587796;-0.09188655;0.2716992;-0.3716405;-0.063917264;0.38277346;-0.21179952;-0.24963757;-0.15196426;-0.1886674;0.045243196;0.0021712608;0.07061846;-0.03481295;-0.017012017;0.16541874;0.020466104;4.818804e-05;-0.21305715;-0.011641127;-0.114818335;-1.008146;0.14249845;-0.07484652;-0.01099868;0.465643;-0.068691246;-0.05976108;-0.022157283;-0.06894784;-0.0975067;0.16931997;-0.124434866;0.073470525;-0.055389497;-0.17647302;-0.07432013;-0.13503115;0.090298;-0.13568857;0.9112387;0.890752;0.16474158;0.09595291;0.008947652;-0.0762156;-0.010679321;0.15481092;-0.14163584;-0.0045293905;-0.08841864;0.009359285;-0.120580584;-0.057524025;-0.28603008;0.08797529;0.38625753;-0.066795744;-0.15764531;0.92529947;-0.028313568;0.14656226;-0.059212793;-0.013055124;-0.8980558;-0.008841979;-0.01241439;-1.3936319;-0.09500364;-0.07658153;0.05162559;-0.70481145;0.023085074;-0.20175542;-0.021966826;-0.049478937;0.01052441;-0.8051288;-0.21074279;-0.12354363;-0.049189467;-0.015469812;-0.06556839;-0.3619841;1.0836968;-0.7311606;-0.21384203;-0.10112409;-0.023580933;0.024027126;-0.0074209985;-1.0452198;-0.29024076;0.23233572;-0.5618586;0.07942291;0.22812563;-0.0136100575;0.035287898;0.091495395;-0.011935732;0.0047250446;0.057207007;-0.012567281;-0.5769629;-0.17907158;-0.12175216;-0.564365;-0.036719777;-0.2267424;0.41708416;-0.6204505;-0.33927935;0.20726304;0.073090464;0.035996962;-0.1730962;-0.09938342;0.6194339;0.32093796;0.016073681;1.1055756;-0.19114059;-0.20799649;-0.28594536;-0.51774067;0.010413966;-0.049127545;-0.024940614;-0.13821785;-0.10220768;-0.29823512;0.113148734;0.006177898;-0.015819637;0.030277856;0.17653286;0.07751287;0.0022916796;-0.8023711;-0.9443991;-0.07425423;-0.042425115;0.3657656;-0.08338502;0.08484701;-0.16179316;-1.5608934;0.09108369;-0.0050153825;0.010880082;-0.17696507;-0.008740028;-0.2475972;0.058646545;-0.018862776;0.012297435;-0.004776848;-0.15702876;-0.00071731233;0.3368255;0.96190184;0.123353176;-0.021700367;-0.0069817174;-0.48536068;-0.07651968;0.38296106;-1.1827971;0.8657967;-0.01323968;0.050526146;-0.09632426;0.084508695;-1.6851815;0.34384623;-0.72856414;-0.034175724;0.080890276;-0.00910068;-0.028761158;0.13034278;-0.21301018;0.12114051;-0.0980081;0.18655542;0.07014834;-0.09539121;0.058641;-0.4934404;0.38740683;1.2888484;-0.07379261;0.05164378;-0.04337138;0.05297527;-0.094624385;-0.90344554;0.035081547;0.0251286;-0.033734452;0.12034449;0.07834154;0.08210635;-0.046551596;-0.031357367;-0.12315656;1.5553668;0.051826127;-0.6025562;-0.020980189;-0.024373088;-0.0069036568;-0.10549857;-0.11765502;0.018847879;-0.61414385;0.04051067;-0.030909438;-0.13869219;-0.04739888;-0.06630944;-0.013217782;-0.089534625;-0.7529685;-0.1622988;-0.13482451;0.4315557;0.038206134;-1.3843466;0.11620565;-0.0742352;-0.093799084;-0.056082986;0.044657692;-0.2670487;-0.0011040933;-0.07349124;-0.13610508;-1.444056;-0.14419886;0.06352659;0.027924597;-0.12680483;0.87835145;-0.36545277;-0.014698752;0.077913575;-0.83325964;-0.26707447;0.08779131;0.1867641;-0.050613943;-0.08722795;0.05017436;-0.11552491;0.06742792;0.00012597312;0.039114065;-0.12661421;0.32905546;-0.10731545;-0.10856818;0.8015271;-0.17010966;0.08782577;-0.19463305;0.1248167;0.09785282;-0.55288315;0.0460263;-0.0386111;0.07776357;0.08507685;0.0118407905;0.016661229;0.015013252;0.035586342;-0.63037455;0.011484372;0.07605736;-0.10274351;0.010891453;-0.011797036;0.20270234;0.05687265;0.0126546165;-0.2322277;-0.16249374;-0.61760336;-0.1137905;0.44967827;-0.09864776;-0.16582651;0.04000499;-0.09049358;0.11527298;0.12918527;0.050764132;-0.19302963;-0.048907403;0.7237581;0.28586802;-0.03505101;-0.09164463;-0.03942685;0.49991345;-0.116306305;-0.4442717;0.27951807;-0.1182882;0.0042296713;0.23955561;-0.07321114;1.1633333;-0.112916976;0.07763423;-0.9711752;0.036023617;-0.8276462;-0.8551679;0.38095427;-0.00855142;0.041635964;1.0040547;0.015565967;-0.8188689;0.012245376;-0.02774581;-0.04699623;-0.01163074;-0.060198873;0.01951976;-0.055232044;-0.9001162;0.034180872;-0.07327735;-0.13302937;-0.7392756;-0.11350182;-0.038555298;-0.22222567;-0.115283206;0.007428331;0.0139181595;-0.17722027;0.07818047;-0.052246947;-0.3592214;-0.11717534;0.82401055;0.022992946;-0.041584168;0.58024925;0.054537382;-0.08978745;-0.0068632173;-0.13582133;-0.048333082;-0.06928303;-0.38969132;0.01937574;0.15754583;0.5600264;-0.021720422;0.053081978;0.49218765;0.18626964;-0.13372502;0.086737074;-0.03576892;-0.42616582;0.05081264;-0.10911052;0.0056396252;0.074323185;-0.018973656;-0.122886516;0.06051663;-0.2131069;0.71651983;-0.0052587125;-0.14289995;-0.0029709027;-0.06320876;0.0223711;0.030790862;-0.06361391;0.0355357;0.09064827;1.5821316;-0.046227433;0.01724574;-0.06027698
-0.12330089;0.03898329;0.14612408;-0.13623892;-0.018673865;-0.04660411;0.060223952;0.05321294;0.14946193;-0.1046723;0.03637364;-0.5304418;0.25641575;0.010097446;-0.57974577;-1.0491549;-0.52672344;0.07137003;0.013044248;0.07661768;-0.04186182;0.04863157;0.039588135;0.48580262;0.021047171;-0.24194421;-0.044530395;-0.06398686;0.023775537;0.02992596;-1.2537016;0.45167264;-0.02833508;0.10184648;-0.088835634;0.11930332;0.33979312;-1.6084256;0.0010225378;-0.1791221;0.0016418969;0.044393007;-1.0068239;0.053565428;-0.3910291;-0.00059082196;-0.42938527;0.09738907;0.07315171;0.39445704;-0.105183154;-0.8215702;-0.025122052;0.06933248;-0.07308657;0.039413843;0.1836031;-0.04337655;-1.4232271;0.057097156;0.0404202;-1.3109498;0.065730155;0.85171956;-0.028421268;0.015576958;-0.60973465;-0.040913112;-0.089511156;-0.014062749;0.056053586;0.01135956;-0.055116307;0.13502876;0.096849315;0.21743697;0.16140433;-0.15664382;0.0025800283;-0.078960486;-0.090574384;-0.073841974;0.011650958;0.06948257;0.09153414;-0.11842133;-0.7459485;0.09302301;-0.013654484;-0.045936357;0.013596776;-0.92509276;0.14723286;-0.13097447;-0.1842045;-0.07454443;0.08054929;-0.23750763;-0.15561517;-0.02349361;0.14701314;-0.073030695;-0.8069965;0.5391593;-0.00650487;0.044573694;-0.025997704;-0.22267817;-0.031759363;-0.07287456;0.029087266;0.014732946;-0.029139765;0.10006504;-0.11101538;-1.233443;-0.09186523;0.13369408;-0.017965538;-0.017985044;-0.017833274;-0.040472806;0.02593343;0.107752144;-0.47476852;-0.058063786;-0.006923796;0.6072036;-0.15812291;-0.4129647;-0.31275028;0.052632272;0.13876837;-0.05774505;-0.069952026;-0.36592135;0.20465031;-0.32999808;-0.3420078;-0.15770382;0.07290887;-0.01813629;0.1368921;-0.036800943;-0.2761442;0.0059913923;-0.063980885;-0.105086535;-0.19951193;0.15972255;-1.2900964;0.13735461;0.08730985;1.130672;-0.007997715;0.018847296;-0.07351794;-1.7424024;0.07383289;-0.21464694;-0.07669974;0.24678512;-0.8645527;-0.101347536;-0.13716647;0.18711044;-0.22226024;-0.0021555498;-0.027956452;0.11480863;-0.018121524;-0.011315856;-0.11897667;0.053732682;-0.08060854;0.0006432615;0.021231763;-0.24392965;-0.08966682;0.13104242;0.12565592;-0.10832393;0.1252996;0.0439896;-0.0711959;1.9903623;0.07831522;-1.0835011;-0.3530237;0.05147567;0.13994552;-0.21954939;-0.12408471;0.015266232;0.031880036;0.0134333065;-0.008402356;-0.19367626;0.094070375;0.13477345;0.06314954;0.037281282;0.07768937;-0.095339715;-0.043859407;-0.018890433;0.048542578;0.22889918;-0.03793914;-0.053172816;-0.03385557;0.10795515;0.14850259;-0.03575932;-0.59650314;-0.014603932;0.16266194;0.054766033;0.025296848;0.13342738;-0.15168895;0.052281756;1.2057122;-0.27020067;-0.05292871;-0.17252411;-0.012520559;0.08812011;1.2230436;-0.031624112;0.106522515;0.12573418;-0.03573175;0.031674065;0.47971946;-0.00095845317;-0.28599694;0.2615651;-0.13558835;0.044726692;0.13625604;0.44474438;0.19202714;-0.056025814;0.107185766;-0.02058963;-1.3733077;-0.08984325;-0.014007832;-0.07863093;-0.007996316;0.10719941;0.057177067;-1.7672477;-0.15982406;0.024165446;0.07551952;0.046783067;-0.16543575;-1.1454153;-0.015692081;0.3363395;-0.0011609445;0.055050354;0.06425403;-0.15676028;0.22353567;-0.5520959;-0.1360176;0.28090927;-0.10059926;0.021378443;0.020958696;-0.41589835;-0.30711251;0.05803441;-0.8786623;-0.13539256;0.26528895;-0.007469558;-0.20546459;0.025944714;-0.14210004;-0.088796586;-0.11056469;-0.21915072;-0.38489196;0.17617796;0.041737482;0.5465965;0.061851766;-0.7279157;1.3363591;-0.45233312;-0.114557914;-0.015767388;-0.11952545;0.021488275;0.026613232;0.12346612;0.44101188;0.6688906;0.10808458;-0.031050507;-0.08769105;-0.06807338;0.07967755;-0.66846853;0.013009042;0.00565952;0.050335236;-0.30618015;0.122181326;-0.1995802;0.014954814;-0.0895671;-0.078833066;-0.07748906;0.08487148;-0.1314013;0.03257438;-0.67497826;-0.4253691;0.0016880126;-0.22922996;0.13276209;-0.00016392644;-0.012370353;0.08867962;-0.7070123;0.03371288;0.0857785;-0.10273951;-0.09119951;0.021256557;0.8379866;-0.16213407;-0.10625704;0.06934413;-0.09935696;-0.0012473101;-0.012642567;0.37162736;0.9395849;-0.054035246;-0.14823776;0.031631444;-0.28078163;-0.033858307;0.09446465;-0.83080053;1.0588589;0.14170894;-0.031917468;0.10240797;0.009773227;-1.0079947;-0.7281062;-0.055338316;0.0684966;-0.008998199;0.092202865;0.08379763;-0.15476793;0.13301925;-0.11154234;0.0868705;0.47409806;-0.0761182;0.08010064;-0.06431405;-0.43817768;-0.119068906;0.43299738;0.035973784;-0.044774327;-0.065018356;-0.052667852;0.052605715;-1.3035499;0.019423587;-0.014950728;-0.017576773;-0.19079345;0.052057292;-0.048133284;-0.07052535;0.020481726;0.041232944;0.90652454;-0.0077327746;0.5737346;0.06420657;-0.045012504;-0.08862597;-0.16750565;0.048531003;-0.022178775;0.5700306;0.009173711;0.012041191;0.08021053;0.10023075;0.046897307;-0.05627703;0.084227294;-0.7713724;-0.22983652;0.047453716;1.3709863;-0.09460767;-0.5154373;-0.0032501572;0.032262594;-0.040960025;-0.011880427;0.02262905;-0.35080484;-0.06657119;0.03427549;0.051748753;-1.6076342;0.011006917;-0.08871406;-0.025492044;0.027695997;1.14815;-0.3057009;-0.44295728;-0.028967092;-0.4302827;-0.34634468;-0.10440121;-0.044737555;0.02184694;0.10682077;0.38972613;0.08025783;0.06857499;0.018903716;-0.07828628;0.026966183;0.02650675;-0.043981392;-0.1826092;0.96152115;-0.10453362;-0.03763927;-0.1762546;-0.05938197;0.018396989;0.3460602;-0.030344408;0.07986059;-0.11179446;-0.019260755;0.047028787;-0.10142463;-0.07791683;-0.3888053;-0.2897139;-0.05116879;0.06100123;-0.037152864;-0.08276475;-0.21181847;-0.25686628;0.025742104;-0.008045641;-0.2694399;0.1395967;-0.6751943;-0.12802169;-1.0071954;0.005285322;-0.07744799;-0.11429591;-0.004321059;-0.035617344;-0.030109372;-0.061221097;-0.045276064;-0.09891145;1.8641526;-0.10246665;-0.10979246;0.004462966;0.033561163;0.61795694;0.11374261;-0.6730906;0.12423047;0.059750654;0.058856547;0.03596901;-0.10136393;0.4025224;0.09839985;-0.017524352;-0.5507729;-0.0013083668;-0.9868791;0.3590623;0.8213008;0.060812347;0.024071606;0.554973;-0.07581298;-0.52667475;0.09772363;0.04710515;-0.065323666;-0.013151822;0.016515106;0.099208646;0.011392936;-0.0558683;-0.0396369;-0.027288461;0.14177072;-0.27001733;0.4415734;-0.07157298;-0.4260885;0.008316847;-0.11542798;0.09822242;0.14104924;0.05028019;0.052509822;0.28575557;0.15807436;-0.14800726;-0.1370312;-0.027696554;0.5611099;-0.10994123;-0.34453622;0.14049716;-0.23723857;-0.15153863;0.097485505;0.51406854;-0.110196695;0.22587483;-0.11066677;-0.0046702228;0.08163114;-0.36006978;-0.016182179;0.08882328;0.048342347;-0.008715479;-0.97507304;0.050642688;0.11668888;0.006458252;-0.07833157;-0.053679485;0.018674398;-0.14465682;-0.010761008;-0.06431367;-0.12477266;0.07186205;-0.09704524;0.04281401;-0.013058479;-0.05394452;-0.048143208;-0.21691592;0.026281407;0.142201;0.033818603;0.08523657;0.088658154
0.003608516;-0.018326024;-0.4516307;0.07194681;0.005286709;-0.012644965;0.020404521;0.011980883;-0.06561031;0.35140923;-0.013404392;-0.06310029;0.2504836;-0.71283704;-0.55812186;-1.0171853;0.021640226;-0.1295313;-0.77866644;-0.08233239;-0.117851414;-0.039378997;0.45345813;-0.6421379;0.038930535;1.5269312;0.0897749;0.07101224;0.013446855;0.074126065;-0.8436389;-0.61232585;-0.093022965;-0.051159184;0.027826726;0.53180826;0.2381749;0.9279474;0.06350758;-0.86458963;-0.0021297582;-0.012595473;0.56063515;0.07108817;-0.83730185;0.050785176;-0.44273195;-0.06898683;0.08152512;-0.42558438;-1.2631822;1.5629876;-0.08253716;0.048300244;-0.33718702;0.14530738;0.28212288;-0.08076337;-1.5678755;0.09692473;2.9687417e-05;-1.3699356;0.31508592;1.273576;-0.08368882;0.04527437;-1.3924515;-0.090219624;0.113809325;0.037490085;0.014407315;0.01984657;-0.0072378265;0.2084663;0.46044853;0.330072;0.0077170995;-0.4083015;-0.060694713;-0.18146622;-0.04389773;0.06526769;-0.08297687;0.14590567;0.35994384;-0.002756569;-0.049980346;0.0144379735;-0.34631842;0.053713426;0.12001651;0.1246754;0.0076917387;-0.059284788;-0.6854252;-0.017085625;-0.0805526;0.09559637;0.26513022;0.07223031;0.017704198;0.09674187;0.46558943;-0.26406315;0.071283415;-0.12192654;-0.070165075;-0.034165345;-0.18747051;0.08548624;-0.0647141;-0.08972804;0.0054158103;0.0015683619;0.040090133;-0.8178544;-0.004122066;-0.023239966;0.0651293;-0.03637084;-0.033626236;0.011841309;0.023482332;0.0887408;0.05044194;-0.08330861;0.070652284;-0.8966267;0.046063732;-0.62660205;-0.19472034;-0.02291561;0.19472294;-0.0719995;0.019195816;-0.009306753;0.6151942;0.16310197;-0.46802133;-0.02859373;-0.012821569;-0.0104873255;-0.30266613;-0.21632157;0.3495638;-0.103712164;0.08530904;-0.07132804;-0.18737893;-0.059420776;-0.0110262325;-0.015410613;0.069322534;-0.22093578;0.028710907;-0.052057695;-0.019662857;0.19192642;0.03674769;0.3030182;0.08007701;1.0933076;-0.0670485;0.025052179;-0.5894857;0.716369;0.2504961;-0.052324876;-0.032097038;0.04909074;0.0729698;0.058868438;0.4239558;-0.06957399;0.067172736;-0.02179877;-0.08409788;-0.3468733;0.06328991;0.08296388;-0.017126115;-0.01604689;-0.6294983;-0.032471947;0.12861654;0.64737236;-0.073376045;-0.020516407;0.30872804;0.09808127;0.08405911;0.16131562;-0.19337982;-0.014971459;-0.03219931;0.018533172;-0.08281393;-0.2893775;0.17142059;-0.10650492;-0.1924495;0.00083998963;-0.06564736;-0.56755;0.73115367;-0.032529663;0.006283591;0.24421152;-0.047134846;0.05149645;0.046390366;0.055392884;0.029294547;0.6529442;-0.83926;-0.039875478;-0.14649811;0.12839922;-0.015348003;-0.018567245;-0.054199003;0.017938517;0.46981052;1.3082422;0.7022457;0.088578396;0.02373195;0.41405934;-0.030672397;-0.026322765;0.098244354;-0.039115958;0.013783915;-0.08556485;0.36324662;-0.020050947;-0.050645284;0.10799586;-0.41809693;0.06841024;-0.049056325;0.69010353;-0.021152617;-0.008916061;-0.016852949;-0.058690563;-0.95571613;-0.068031594;-0.04841935;-2.28658;-0.097398855;-0.088986576;-0.062272966;-0.7052074;0.10511977;0.1016304;0.050625745;-0.31420425;-0.07323737;-1.0582762;-0.7344765;0.2199858;-0.0011471107;0.030324632;0.06928417;1.0489548;0.12154057;-0.813956;0.47061816;0.09231666;0.0027710998;-0.022616552;-0.037471402;-1.5858316;-0.21933456;-0.074520126;-0.11120648;-0.2251183;0.2707368;-0.05255647;-0.11229505;0.0661349;-0.023241883;0.05909569;0.0757989;-0.36787996;-0.8010871;0.094772235;0.0051368847;-0.011861324;0.14828311;0.06978081;0.78152907;-0.2579699;-0.18427433;0.16502996;-0.037049256;0.033342384;0.012426158;-0.027806185;-0.22215438;1.0163795;-0.05797011;-0.44304037;-0.057661436;0.071875654;-0.06399507;0.122220315;0.0909193;0.07793655;0.013136308;0.53442943;-0.049520597;-0.13548034;-0.00555003;0.067572;-0.027074484;0.028384272;-0.35515916;0.08408445;0.04898774;-0.67075944;0.4148066;0.04947163;0.795141;0.34239495;-0.15402138;-0.063619874;0.108561076;-1.4901106;-0.062256046;-0.063241184;-0.025563251;-0.040422954;0.042335123;-0.029977098;-0.82353085;-0.0011649178;0.0040590176;0.018158093;0.02482411;0.068244524;0.3468951;0.9220411;0.092319876;0.15264101;0.012080788;0.16976283;-0.14842665;-0.058593173;0.10083634;1.2926924;-0.070697576;0.036664803;-0.025781512;-0.0034502707;-1.843602;-0.6893257;-0.22152583;-0.0887111;-0.17197447;-0.049258243;0.37317604;0.048543908;-0.10181205;0.07465724;-0.023262735;-0.48633352;0.105705135;-0.03062688;0.052205104;-1.0785555;0.8267116;1.1660714;-0.024601338;-0.038718175;0.084360465;-0.055469148;0.024883222;-0.02981868;-0.030239088;0.0008888114;-0.08240557;-0.060575765;0.058291104;0.04050236;-0.2722855;-0.0075008804;0.016239291;0.49591476;0.04005982;0.42420512;0.027046947;0.054925047;-0.06276525;-0.06413199;0.107121274;-0.06517863;1.7419106;0.042538147;0.06718728;0.0074600857;0.07372419;0.05350918;0.0736199;0.005456541;1.3098742;-0.32635927;-0.0043772077;1.3868747;-0.17716123;-0.9724312;-0.07491482;0.018679798;-0.06317052;0.07044048;-0.026905032;-1.1918911;0.03777175;0.04381065;0.0054953853;-2.149182;0.03221986;0.08657399;-0.27894986;-0.002932029;0.7081657;-0.31627065;-0.65407896;0.022527939;-0.65997565;-0.0939768;0.081145585;0.046206523;-0.037798334;-0.03294236;-0.41335535;-0.024688607;0.029631991;0.081182495;-0.06799411;-0.88141817;-2.0265357;-0.07031141;-0.044191357;1.2926228;-0.24048816;-0.054930363;-0.11116613;-0.025291583;0.07244196;0.31647813;0.038636915;0.14700055;0.29768193;0.028342376;-0.07692417;0.07755663;0.0076200054;0.49461842;-0.37807685;-0.035981853;0.23915549;-0.04947475;-0.020346189;0.7357607;-0.2067786;0.040462676;-0.05348843;-0.18022588;0.03281057;-0.37192464;-0.62258255;-0.03139387;0.13469827;-0.098941736;0.049453903;-0.5009951;0.005600455;-0.034283344;-0.059735574;-0.09614921;0.12991096;1.0053045;-0.046215694;-0.0009162044;0.17852154;0.13612969;-0.40064943;0.051431183;-1.071463;-0.37498838;0.082365684;-0.08114927;0.34144634;-0.05970984;0.7830333;-0.008358612;0.07147883;-2.2482016;0.0079199625;-1.1815457;-0.43587315;0.3920448;0.004804747;0.042542093;0.50551444;0.033144422;-2.2630255;-0.04658894;-0.07790994;-0.024252363;0.03312012;0.046462335;0.0061900094;0.012449404;1.2148414;0.07009478;-0.021999918;0.051879045;0.3100338;-0.1630515;-0.044942066;-0.23652437;0.10112512;-0.28649372;0.029321697;-0.013111659;0.043130815;-0.021095943;0.61797976;-0.048905917;1.0010574;-0.043646563;0.019082954;1.1344082;0.024506895;0.4761302;-0.0008413312;0.019783104;0.009438131;0.0563239;-0.86440414;0.06827025;0.22761263;0.16574007;0.039362736;0.039996043;0.6087023;0.0042565227;-0.010055192;0.08514769;0.0314379;-0.4886573;0.10524228;-0.027535805;-0.030115047;0.027180323;0.0007091698;0.056937758;0.034214936;-0.058728825;1.3766229;0.013039186;-0.07205152;0.057763934;0.022788536;0.06913275;0.07965509;0.05950907;0.26504126;0.026594164;0.07778472;-0.054622047;-0.0054385453;0.05927565
0.17552267;0.0076992502;-0.28029898;-0.16732252;-0.086530164;0.1877316;0.08057083;0.19024903;0.17282051;-0.23120393;-0.0052479976;-1.7801845;0.6010535;0.4070317;0.67490107;-0.33826855;0.8302733;-0.070082285;-1.2154114;-0.07010403;0.10288458;-0.01072566;0.2471281;0.74573255;-0.08629072;1.6110948;0.033766787;-0.055013206;0.15512356;0.106156595;-1.4389994;-0.57269776;-0.056073245;0.12535113;-0.064375006;-0.47149557;-0.6038646;1.7406693;0.08355173;-0.58272964;-0.070557006;0.070468545;-0.726044;0.18954293;0.8615391;0.0104490165;-0.3095929;0.033848375;0.11298638;-0.27849102;-0.038340587;1.8562205;-0.035668433;-0.024924006;-0.11993976;0.13760376;0.48854843;-0.025517935;-1.4679947;0.17071772;-0.018933613;-0.9695782;0.24189126;0.13260332;0.043148074;-0.048428334;-0.44781098;0.11798379;-0.056944374;0.04509972;0.20402199;0.14172907;-0.06272987;0.13161804;-0.30143276;-1.7553867;0.12622868;0.09939411;0.14365393;-0.13905516;-0.138924;0.0009055502;-0.008949717;0.17732538;0.7219484;-0.033523373;-1.4887712;0.07463984;-0.052274697;-0.09333091;-0.10782333;-0.5609816;0.06250283;0.07510192;1.0911413;-0.12899677;0.011949447;0.6045185;0.41309988;-0.054655258;0.08859305;-0.03237222;1.2529656;0.43328553;-0.10327753;-0.22414199;-0.040071648;0.08061953;0.02239935;-0.04681669;-0.10704884;-0.011213178;0.0011931933;0.048147876;-0.14397874;-0.12799075;0.006810866;0.10235747;0.017942404;-0.051168382;0.02150596;0.06276836;-0.10137996;0.09150631;0.534156;-0.080305174;0.0036184294;-0.45505857;-0.15032233;0.45269278;-0.4909689;0.0039764764;0.12248269;0.02357634;-0.05757732;0.71307504;-0.23101498;-0.17154905;-0.5634597;0.11174717;-0.0026223543;0.065462776;0.07037086;0.13161628;-0.42804256;0.012161408;0.070046864;-0.12354202;-0.14494663;0.17085738;1.9023379;0.09500462;0.0080551915;-0.11562383;0.0072311764;0.10690585;0.026820233;-0.192921;-0.049429115;-0.02330322;-0.09150586;1.6680862;-0.110729486;-0.08607256;0.23152767;1.2076571;-1.2482482;-0.09579825;-0.053023323;0.19208117;-0.019058172;-0.07694784;-0.14618057;0.072571486;-0.014008729;-0.04665463;0.060903493;-0.09943333;-0.006167768;0.1684311;0.10405518;-0.115013614;-0.15015793;0.091401175;-0.21622735;1.2801526;0.074288376;-0.04660196;-0.08680336;0.10429002;0.103339896;0.2575888;-0.05645942;0.019615928;-0.056397744;0.0105992425;0.033018578;-0.118389904;-0.053644635;0.10645648;-0.11392054;0.036209345;0.09461389;0.4052632;0.0983952;0.019051215;0.105996676;0.6056558;-0.030678025;-0.04732793;0.016656253;0.05653382;0.1295384;0.27617106;-1.0088861;-0.065152384;0.013788903;0.10691179;0.15981357;0.048015643;-0.12687786;0.09952367;1.2854933;2.1104405;1.4692816;-0.18035829;-0.008312684;0.18061052;0.5986961;-0.037761603;0.074414484;-0.00028256178;0.029415952;0.02252131;-0.027752392;0.18685377;-0.079646595;-0.1006898;-0.56230766;0.061195888;0.17159428;1.2192208;0.38112876;-0.06362939;0.02821072;0.043435454;0.048223242;-0.04308208;-0.03864595;-1.2593216;-0.02105729;0.0013520959;0.05122419;-1.974757;0.027841646;0.103677176;0.07386701;-0.19962004;-0.38616133;-1.0090233;-0.2179514;0.67218715;0.11288093;0.053868096;0.064549066;1.1415311;0.74787927;-1.0523354;1.4211612;0.31523296;-0.1892222;-0.08300809;0.018258225;0.15731704;-0.5525267;-0.2314866;-1.9904788;-0.29028848;0.3419921;0.058008894;-0.07391068;0.0049776146;-0.054700878;-0.13690367;-0.025878774;-0.24383324;-1.0933553;0.2515428;0.0023693691;-0.019692814;-0.022646327;-0.5662635;-0.19103944;0.38979948;-0.08506933;-0.29690027;-0.109119385;0.11661732;0.07637993;0.10396197;-1.0516856;-0.12860166;0.071516424;-0.0052874247;-0.0028359115;0.16197722;0.34175777;0.4573742;-0.11996397;0.004101729;0.021514645;0.19671735;0.19284928;-0.20246762;-0.0032113623;0.02792065;0.024172664;0.0528451;-0.14443885;0.0028464145;0.03972733;-1.3292375;-1.124762;0.0751149;0.23379551;1.4573623;-0.07102948;-0.14737457;0.19839995;-2.2064438;0.0016581398;0.06317344;0.005473077;-0.0041102716;0.042741597;-0.05869733;-0.47377038;0.016382799;0.0548765;-0.2558056;0.08815507;-0.09575325;0.51082265;-1.4192102;-0.053052545;0.031278107;0.053988222;-1.0692283;-0.06730406;0.011941829;0.9756082;0.81874555;0.09839482;0.030468594;0.019255359;-0.014571767;0.9265484;0.67700475;-0.13343851;0.035199225;-0.053307507;0.15273526;-0.49630654;-0.12528126;0.311104;-0.03512844;0.0654161;-0.4736058;-0.12764731;0.03182365;-0.07845705;-0.5442543;0.6950201;2.2738342;0.021389712;-0.08444496;-0.040300682;-0.051453687;-0.031604487;0.73632306;-0.015177032;-0.03940269;0.015510525;-0.15528369;-0.084056966;-0.093514234;-0.2667735;0.02464873;0.25407097;-0.22710694;0.10351172;0.4653348;0.016291784;-0.07390003;-0.04055548;-0.036328323;0.08875551;-0.051526852;1.1080459;0.026204472;-0.029395387;0.05376677;-0.04250879;0.1769378;-0.07880981;0.13821112;0.68221855;-0.20440839;0.13658214;0.10444249;-0.2677483;-0.64041966;-0.09647218;0.03126237;0.04041498;0.07895607;0.033048995;0.8981505;-0.017421262;0.012869285;0.17799424;-0.7801538;0.019341256;0.03143654;-0.26185253;0.058031686;0.6362857;-0.4847971;-0.553433;0.069767125;-0.9782968;-0.4595575;-0.15508014;-0.1380431;0.030223072;0.09817644;0.34246922;0.050001163;0.041274317;0.051284824;-0.005727179;0.44081154;-0.66567874;0.09450362;-0.1482158;-1.0795459;-0.16073097;-0.058333054;0.07839832;-0.063802004;0.2937917;0.4540209;-0.07219485;0.38900337;0.133181;0.009410246;-0.018863646;0.032900468;0.0069906088;1.744393;0.5798177;-0.17648457;0.16700006;-0.042968955;0.05488585;-0.095947154;-0.78682965;-0.009629633;-0.10498386;-0.23848344;0.14067319;-0.2761238;-0.3781177;-1.0121477;0.19683205;-0.07704948;-0.102004535;-0.42435873;-0.103156894;-0.0063252565;0.03588101;0.19138157;-0.17254077;-0.10886294;-0.14779714;-0.05298218;0.25136647;0.14681795;0.44912902;0.08777713;-1.6292824;0.3986227;0.14943975;-0.07911688;0.16694671;-0.06961206;-0.10349202;0.009100005;-0.11974699;-1.0904591;0.037998345;-0.5606191;-0.8502772;-0.0401231;0.030299474;-0.0669732;1.0759056;0.012137587;-2.1983345;0.11413522;-0.026478717;0.038769625;-0.009009853;-0.017487908;0.104217425;0.06304304;0.36008537;0.051790565;0.07263958;-0.029390695;1.8709441;-0.8198801;-0.035977133;-0.32734156;0.19802438;-0.13348079;0.041306984;0.1352069;0.003924233;-0.059644107;0.70827097;0.011038338;-0.8963027;-0.097366884;0.019837674;0.9304523;0.055632472;0.10298131;0.20916893;-0.059174046;-0.009984102;0.06404253;0.41655058;-0.04371272;0.014339507;-0.18020064;-0.035706356;0.030683158;-0.22630723;-0.2324374;0.006506329;-0.074222475;-0.019542847;1.3912996;0.13458462;0.0694439;-0.049465176;-0.073865846;-0.07168426;0.18426606;-0.013294859;0.66601634;0.6021419;-0.07433958;0.10310447;-0.0600953;-0.022639485;0.00020871127;-0.35820454;0.07454906;0.36920956;0.05350221;1.2325896;-0.07185646;-0.033349987;0.049109284
0.041165993;-0.05257475;-0.09723362;-0.10693547;0.049729694;-0.19156727;-0.029517928;0.024021465;-0.029186198;0.13005199;0.004903711;-1.4163988;0.77636427;0.1614843;0.11534753;0.004468914;0.10213259;0.05841435;-1.2659072;0.06417371;-0.35377038;0.070675574;-0.014237887;-1.204484;0.0360197;1.4105004;-0.019407121;-0.08327312;0.056706797;0.08058404;-1.0848787;0.1455439;-0.10782735;0.094614685;-0.06350699;-0.45476067;-0.8782421;1.7576077;-0.0066048917;-0.5101082;-0.062121145;-0.04593217;-0.12897962;-0.036275547;-0.00905559;-0.050263617;-0.54495656;0.0075466647;0.04773469;0.25439364;0.14923103;-0.020989029;-0.031869154;-0.052510362;-0.124941215;0.08162293;0.30838397;0.0377373;0.28388473;-0.013808737;-0.013622462;-0.9545529;0.16605662;0.170652;0.02455536;0.03503001;0.59125936;0.09664057;-0.06897054;-0.067896426;0.121085696;0.03487779;0.019274777;0.13790867;-0.6092532;-1.0265782;-0.0006605174;0.61355597;0.0041268156;-0.042722683;0.03160372;0.05273158;-0.062499374;0.062370077;-1.0125139;-0.07012884;-0.2914443;-0.0059227888;-0.1494789;-0.091078356;0.03923327;-0.4914465;0.06447531;-0.090057395;0.50818694;0.047220096;0.043818295;0.6142303;0.10306576;-0.037868336;0.0159892;-0.08185235;-0.26552984;0.0567712;-0.039710507;-0.025277145;0.071915634;-0.015059113;0.050161015;0.01227616;-0.07046226;-0.033660732;-0.022026012;-0.045083195;-0.09683472;-0.19384225;0.030731307;0.09450408;-0.0046893493;0.049348887;0.020294784;0.050329573;-0.028312411;0.10343597;0.51208264;-0.054964703;-0.010307936;0.61149895;-0.05206463;-0.24573888;-0.5864564;0.022093572;0.036355983;0.4659849;-0.018524155;1.94209;0.16750133;-0.26351005;-0.37409678;-0.0956002;0.037231117;-0.039967414;0.0035332455;-0.3682939;-0.097688615;-0.044105027;0.0072028907;0.011788833;-0.17694923;-0.040616248;0.449545;-0.0615461;-0.047837265;-0.5023004;0.059538994;-0.02345824;-0.07254643;0.41281787;-0.039997056;-0.16853881;-0.016165635;0.142441;-0.2388676;-0.00120038;0.035163242;0.6789945;-1.0700777;-0.07730589;0.03080026;0.047540914;-0.043355044;-0.060257945;0.5308338;0.0683522;0.047429994;-0.08131053;-0.062052704;-0.1794259;0.0640577;0.084724225;0.12291721;-0.057528917;-0.18573682;0.07552015;0.03515608;1.3235543;-0.017118247;-0.4404682;-0.1631586;0.035268094;0.018626295;-0.10132528;-0.105854325;-0.07998643;-0.03451296;-0.048971295;0.07650422;-0.19004422;-0.04130499;-0.05465214;-0.076655895;-0.014653913;0.032218777;-0.73748815;-0.1293174;-0.048441086;-0.05606679;0.122778855;0.06336032;0.053892218;-0.057568327;0.0007628757;-0.010920027;-0.14460644;-1.5045532;0.054975435;0.10308347;-0.032741886;-0.035196714;0.06966562;0.009836266;-0.0070856037;1.0207199;0.8140777;1.2123269;0.017378958;0.03736836;0.33450717;0.20606275;-0.10448369;0.030811945;-0.01684624;0.121417105;-0.047367763;-0.27227193;0.002813576;0.053693004;-0.18543512;0.0506255;-0.061399676;0.036616612;0.4606542;0.2359688;-0.017469732;0.025936065;-0.029864566;1.1099699;-0.0047702407;-0.10920264;-1.1402806;-0.061985224;0.072369926;-0.038442355;0.23965448;-0.07780422;0.0058081294;-0.012704522;-0.09639106;-0.40201694;0.24639803;-0.19455737;-0.31087595;-0.048051283;0.044280298;0.018692631;0.012007827;0.68964136;-0.86635584;-0.52234995;0.22049555;-0.081928335;-0.014606569;0.0554788;0.028418865;-0.34168693;-0.012767586;-1.0712401;-0.01849395;0.19254054;0.0547448;-0.023097243;-0.045800243;0.026776822;-0.0996014;0.037892498;-0.08746642;-0.9840595;0.32102454;-0.07896319;0.59789073;0.27680433;-0.5615636;0.2376701;-0.63308144;0.028529719;-0.19857025;-0.046629947;-0.01088687;-0.017050311;0.041295525;0.5348314;-0.27783775;-0.042855874;-1.0128218;0.017733786;0.010380575;0.3884575;-0.015434686;0.051006954;-0.06030021;-0.065497555;-0.37980255;0.08237228;0.052351914;-0.022649445;-0.09396866;-0.06639047;-0.010404372;-0.05182503;-0.05675725;-0.06335719;-0.9865003;0.5492631;-0.010354777;-0.27608195;1.3702307;-0.016343942;0.019716876;0.07606844;-1.1498522;0.04944379;-0.07604557;0.0068327175;-0.07087679;0.0035522047;0.03539869;-0.4348945;-0.05253399;0.04516558;0.049700603;0.086158365;-0.07617626;0.44360927;-0.2920885;0.043589704;0.0024953298;0.043073013;-2.122574;-0.07434176;-0.49019465;0.13512824;0.84955347;0.026635995;-0.011288419;-0.06477202;-0.055198003;-0.93883383;0.1331114;-0.783783;0.10206119;-0.07327554;0.013221912;0.27470976;-0.10739414;0.21818039;0.037423123;0.059447862;-0.5901273;0.021432977;0.04998304;0.0594771;-0.5781556;-0.124883175;0.8926736;-0.03147358;-0.030079471;0.051888898;-0.07899006;-0.070132375;0.59914726;0.03218222;-0.08600403;0.01524791;0.03311041;0.021712216;-0.15022127;-0.41103014;0.013729621;0.32656634;-0.3903568;0.047546737;-0.075288214;-0.0056780977;-0.09500559;0.02303859;-0.059650335;0.089384384;0.034936;-0.20214027;0.013156956;-0.004861117;0.06385052;-0.008888737;0.010035112;-0.06624502;0.011308168;0.0791893;-0.3227924;0.036245607;0.5762587;-0.03035121;-0.7683482;-0.02211624;-0.053756285;-0.07315097;0.042767696;0.088101186;-1.5337219;0.0014741294;0.050756022;0.035936058;-1.1060808;0.03440708;-0.021309206;-0.17240496;0.013235477;0.0448539;-0.48595864;-0.45722353;0.018140435;-0.90549135;-0.04690646;-0.0026837667;-0.12077783;0.03104472;-0.017866973;0.09224874;0.09061705;0.027937995;-0.076865755;-0.021597149;-0.073859915;-0.31826198;-0.018781755;-0.09759548;-1.5935714;0.13338001;-0.07849146;-0.17888345;-0.015526359;-0.057087876;-0.4443741;0.047083527;0.23655798;0.07243945;0.0561152;0.03545948;-0.0156006;0.005433821;0.027881978;0.4172027;0.030108932;0.12751769;0.06701353;-0.012518878;0.016773045;-1.3538748;0.06577156;-0.03517353;-0.1068331;0.030717287;-0.06253002;-0.24922018;-0.9646765;0.036468066;-0.042172283;0.03760303;-0.50081265;0.033252366;-0.018494908;-0.0948961;0.11754395;-0.4784974;-0.3527095;-0.39969388;-0.07685822;0.09369434;0.1037043;-0.19865808;0.026238121;-1.4195317;-0.360087;0.0029274912;0.060299054;-0.11589445;0.023872193;-0.29568613;-0.05964495;-0.10062243;0.853956;-0.06807317;-1.0596925;-0.8706602;-0.4105199;-0.004039031;0.063373975;-0.11346148;0.047143664;-1.1873605;0.0434082;0.027008489;0.0442093;-0.08353227;0.0007977227;0.062422268;-0.016355652;-0.6484387;-0.0702155;0.1267792;0.07084778;-1.5988503;-1.4838052;0.034961455;-1.1868519;-0.0027249735;-0.02958332;-0.034471396;0.102513485;-0.048876416;0.022054054;-1.2914306;-0.0785315;0.35965902;-0.05058963;-0.020180497;0.07318116;0.059362926;0.039443925;0.069348626;0.018324194;-0.012842651;0.09558673;0.8036688;-0.085828766;0.2076221;-0.7067928;-0.061239637;-0.06079847;0.018422449;-0.03684327;-0.07533469;-0.0038177513;0.08914327;0.295273;-0.039028324;0.043221116;0.023363123;0.0041443515;-0.026975669;0.02965677;0.027200274;0.37803364;0.42086235;0.024464192;0.089530036;-0.028841082;-0.016431496;-0.033275004;-0.23686253;0.04079589;0.34313467;-0.06453404;-0.0021151416;0.06731366;0.023777153;-0.052957937
0.16039507;0.035666898;-0.061535962;0.11687582;0.1049368;-0.27632314;0.040401336;-0.08475655;-0.02932455;-1.2759197;-0.086369015;0.5241905;-0.019140389;0.9003624;0.40616724;1.2995061;0.3992633;-0.08830043;-0.11522177;0.028784657;-0.533865;0.005985877;-0.3078814;0.38752347;-0.01037583;0.58149606;-0.0053622844;0.10479802;-0.09745469;-0.021115612;-0.3361413;-1.5157541;0.02283943;-0.079333834;-0.055792343;-1.03121;0.36977953;1.0982035;-0.009480559;0.14977586;-0.031723794;-0.122644566;-0.44784707;-0.081718914;-1.3040621;0.05090001;-0.6143525;-0.1259363;-0.08632129;0.3100436;0.7943041;0.66576326;-0.08364988;0.044924505;0.18233848;-0.04574072;0.19979918;-0.008742058;-0.9991067;-0.07992976;0.021223303;-0.10535322;-0.0070534847;-0.92787117;0.0113645755;0.009960647;0.35997126;-0.07312242;0.11452651;-0.054477546;-0.099072665;-0.18518229;-0.039561167;-0.048339326;-0.77251226;-1.3527682;-0.086794086;0.1615916;-0.19977772;-0.11152129;-0.010760474;0.03273123;-0.10100607;-0.06520588;1.5750145;0.023117634;-0.9316435;-0.06332531;-0.49736518;-0.031185491;0.073660016;0.2808022;-0.08666319;-0.0061490736;0.948774;0.011289957;-0.08027238;1.1676861;-0.040513586;-0.015998926;-0.07083201;-0.0176021;-1.2441652;-0.6053554;0.042795174;-0.026518464;-0.026325915;-0.11317239;-0.117864825;0.050392248;-0.03361832;-0.086378634;0.033069212;-0.06699347;0.03185155;1.4309659;0.071519874;-0.08860835;0.05997591;-0.06959667;-0.034751415;-0.08472198;0.064600855;-0.13796756;0.3037131;-0.03976053;-0.04984031;0.29086992;0.05394238;0.013240062;-0.3646583;0.027025908;-0.023090634;-0.68487585;0.09409213;0.7912438;-0.31021944;-0.12139352;0.13925368;-0.42058423;-0.07335428;-0.1246046;-0.5293924;-0.6468062;-1.2344348;-0.020004518;0.061529674;0.08299631;-0.21899886;-0.11529545;-0.5851207;-0.029016364;-0.08648159;-0.73187786;-0.05995694;-0.1284059;0.009067329;-1.6101699;-0.03381807;0.7350406;0.031776164;-0.9173447;-0.62053084;0.09238264;1.203852;0.01828141;-0.3017815;0.0701041;0.017207274;-0.16179127;0.007749885;0.114304006;-0.23003514;-0.009422476;0.08305568;0.05980053;-0.046492405;-0.2826703;0.009040432;-0.1661089;0.17207517;-0.03186895;-0.44808733;-0.05497222;0.39314762;3.5584786;0.061718423;0.15391469;0.1791717;-0.032051846;-0.09156463;0.15889035;0.0735704;0.07652232;0.007273212;-0.0022018296;0.12781084;-0.06615873;-0.2875247;-0.07101497;-0.34995613;0.07360541;-0.106233984;-0.6119569;0.37657377;-0.074938856;-0.016563343;0.41849598;0.018063214;-0.041073184;0.013704124;-0.06588297;-0.13572238;0.02361178;-0.44206387;0.05941083;-0.011975833;-0.0863042;-0.034958534;-0.17041576;0.0305713;-0.01931203;0.44103986;0.21620479;1.0507343;0.067704864;0.039376855;0.28051743;2.5218923;0.14668922;-0.017716222;-0.013576903;0.086157784;-0.059464466;-0.39993644;-0.051753663;0.04002212;-0.16992551;-0.6215554;0.028194044;-0.19330189;0.2111101;0.13639821;0.027113732;0.06025809;0.0025155996;0.93035173;0.09228991;0.02034668;0.40692386;0.02073821;0.028351093;-0.07428946;-2.768508;0.09467744;-0.20669612;0.011270231;0.2198887;-0.13310042;0.40565494;0.8588069;-1.0015548;-0.16522078;0.01175452;-0.044900723;0.53303117;0.9832035;0.41776025;-0.33421582;-0.15206902;0.15030475;-0.05650633;-0.033051915;-1.2847636;-0.08238131;0.17474787;-3.3414786;0.31565234;-0.16532847;-0.10436453;0.50138617;0.029713105;-0.014594326;0.014815994;-0.013204476;0.19655913;-0.16100647;-0.32288092;0.027796684;0.5545535;0.13874263;-0.5653305;0.32851774;-0.20958257;-0.06404186;-0.5965828;0.08226191;-0.065303035;-0.08622139;-0.13201194;-0.6151543;-1.8491597;0.029386237;0.9477917;-0.022686603;0.024165204;0.14368147;0.35737476;-0.011422496;0.014167497;-0.031564433;-0.7554204;-0.051692106;0.24995294;-0.0083015375;0.025006987;0.04360871;-0.02215559;0.046830308;0.06617228;-0.027783606;0.41262612;0.2301258;0.03773582;0.31737784;0.5822956;0.014493212;0.011368137;-0.10641203;-0.07735207;0.04722758;-0.008068511;0.05428262;-0.10913069;-0.008024392;0.580707;-0.43269953;0.07203099;-0.02140263;0.45695284;-0.13913232;-0.038164992;-0.117561996;-0.26280305;0.10314064;-0.08314163;0.033507075;-2.0322251;-0.073758796;0.46994382;0.53302544;-0.6905725;-0.05057603;0.0026324585;0.14056766;-0.006067799;-1.0068249;0.12260619;0.111748785;0.025365721;0.002212205;-0.01875326;0.21315809;0.034606468;-0.059341937;0.13557754;-0.07296775;-0.5187398;0.12538603;-0.07683586;-0.027250964;0.9558454;-1.0100067;1.2930384;-0.09538138;-0.052280687;-0.11593034;-0.020723654;-0.005315765;1.1734217;-0.083704054;0.17358123;0.06822803;0.021662796;0.010372559;-0.02536014;-0.3695791;0.03468635;0.7507266;-1.6445704;0.01141356;0.118372984;0.049822118;0.096393;0.112671696;0.056196794;-0.13525769;-0.0023747059;-0.4019193;-0.038217284;0.039794568;-0.10381507;-0.048059013;-0.031307403;0.06525734;-0.073498845;1.0818403;-0.26300693;-0.07029785;0.3708639;0.059211805;-0.12628038;0.025073947;0.018847222;-0.036960553;-0.15173891;0.05530968;-0.3523423;0.011101655;-0.040257413;-0.042938158;-0.2512941;-0.08134923;0.028090732;-0.12706643;-0.057324372;0.33582273;-0.30141622;-0.5586655;0.004763084;-0.026266541;-0.10685999;0.112025365;0.328886;0.010751309;-0.04623558;1.126677;-0.19086263;-0.086040504;0.06265863;0.08291777;1.5231719;0.71866304;-0.027847102;0.084126085;-4.432651;0.14809558;0.06501469;-0.33466145;0.028047118;0.21735574;0.99035287;0.031295627;-0.121699445;0.011416857;0.028875973;0.002927832;0.0638314;-0.07518799;-0.20556565;3.5029151;0.068150565;0.039792664;-0.028696012;-0.04009106;-1.288861;-1.3681493;0.055560164;-0.03127305;0.16367136;-0.096155964;-0.82477665;-0.357321;-0.4910977;-0.08369966;-0.36033875;0.025849737;-0.11815638;-0.017640559;0.017774537;-0.027221294;-0.2578322;0.40010732;0.025612174;0.14640808;0.07712958;-0.029465621;-0.025171086;-0.56713855;-0.18319304;-0.16598769;0.7765134;-0.04328226;-0.004325668;0.25236157;-0.06242729;-1.5514926;0.03064683;0.018274784;1.0835391;-0.028520523;1.4027474;-2.3288863;0.29530188;-0.08147104;-0.021222534;0.8561793;0.084592536;-1.2381581;-0.015213542;-0.027793443;0.10243848;-0.03487606;0.048434682;-0.062014427;-0.14558451;-0.05716986;-0.08134376;-0.100832745;0.1479849;-0.042735953;-1.0818945;-0.052363563;-0.8852576;-0.11488852;-0.2203169;-0.13562828;-0.15980165;0.034221277;0.021520372;-0.46912995;-0.09886931;-0.46905148;0.09833261;0.0040429733;-0.26624513;0.018916061;-0.95783114;-0.13698563;-0.032556552;0.08130085;-0.1769256;0.87520504;0.098718785;0.100903094;0.04195711;-0.07814349;0.0054499283;-1.0472999;0.21148452;0.040812008;-0.06679883;0.07226579;0.64401466;0.16117764;-0.0011199069;0.10575817;-0.06821727;0.07725559;-0.030893752;0.06330282;-0.0071101105;0.5514015;0.052452356;-0.060008816;0.043797113;-0.04034264;-0.02089552;0.07341947;-0.011588246;-0.26323885;-0.022363296;-0.567229;-0.0787986;-0.024143014;-0.09837375
0.076619364;-0.033024933;-0.08502483;0.048959438;0.043072857;-0.20829938;0.026322944;-0.039590806;-0.06146992;-0.87402123;-0.07083151;-0.6184607;-0.08233082;0.6531603;-1.0333582;0.15469767;1.0895284;-0.0842593;-1.4812068;-0.08243633;-0.26455253;0.0045525343;0.75073534;-1.3607492;0.061885875;-1.0568359;0.033733662;0.07511662;-0.07614022;-0.019319352;0.024995219;-0.64044964;-0.13147002;-0.075354695;-0.028460946;0.3927749;-0.0041692723;0.024273485;0.04440772;-0.9792125;-0.048474453;-0.09186595;-0.025146088;-0.035725895;0.083771534;-0.05562561;-0.39178422;-0.020116303;0.07004362;-0.91927093;1.4180416;0.58223325;-0.016119093;-0.066618785;-0.5588865;-0.17634298;-0.298401;-0.077780925;0.3530503;0.035263713;0.064188905;-0.891025;-0.1619333;-0.48889428;-0.04529966;0.08002116;0.84763134;-0.15284678;0.10792632;0.026767764;-0.2988204;-0.16313967;0.07188726;0.09873617;-0.43305928;-0.1289648;-0.03455671;1.0179824;-0.065843284;-0.20062098;-0.0973287;0.07427313;-0.06515666;-0.0067562335;-0.8128572;0.07202243;0.20535181;0.10039169;-0.06447408;-0.054024227;0.07442797;-0.8981626;-0.14484283;-0.036153667;-0.111619;0.09449396;-0.03520898;-0.5843308;-0.10012954;0.0010816061;-0.041797902;0.017916922;-0.53590095;-0.74838066;0.076105475;0.009178698;-0.03703648;0.03306727;0.0042488263;0.12176912;0.10551325;-0.18318589;-0.08612354;0.030406984;0.18632345;0.67356646;-0.006076935;-0.08844323;0.086707816;-0.012186583;0.031463273;-0.027046546;0.062488586;-0.20629776;-0.43062952;-0.0943129;-0.022011735;-1.9060234;0.18669072;-0.5520857;-0.10195055;-0.055853143;0.1461531;-0.8688161;0.09147482;0.91270536;0.71285385;0.7225139;-0.33775365;-0.40903956;-0.08288337;-0.07098688;0.004316414;-0.61586195;-0.043546185;0.031672057;-0.068506956;-0.08476045;-0.2805809;-0.12523635;0.4209925;-0.06301416;-0.054730628;-1.033439;-0.054745983;-0.06742996;-0.033590093;0.0040031574;-0.034805644;-0.1623697;-0.046335675;0.55431294;0.19770473;0.10397601;0.7003348;-0.3137309;0.3654059;-0.03125712;0.048136562;0.095820814;-0.034650344;0.02929103;-0.17715167;0.043678883;-0.023832127;0.07754587;-0.07944466;-0.3424575;0.06627544;0.031973828;0.044154298;0.07205713;-0.62640387;-0.04650413;0.1174787;2.119457;-0.15226458;0.06380232;-0.22173287;0.056941815;-0.18765412;-0.25310236;-0.03122905;0.0008063427;-0.0723963;-0.15640853;0.09000385;0.095943004;-0.326878;-0.08749107;-0.17709358;-0.032994244;0.03610832;-0.63047266;-0.6966414;0.05817616;-0.17907296;-0.8299377;-0.035044182;-0.10754202;0.07683107;0.002947166;-0.07710908;-0.3586591;-0.9451701;0.102005355;-0.077301994;0.053411875;-0.19583437;-0.16417027;0.05879743;-0.09905088;-0.8786189;0.009262868;-0.07446325;0.10031501;-0.07217915;-0.045396466;1.0303205;0.019712554;0.012941533;-0.048864998;0.05233151;-0.12247002;-0.75366426;-0.13018769;0.03495352;0.11842063;-0.6455421;0.05379866;-0.1244109;-0.85386056;-0.1646904;0.16687207;-0.03650287;0.08248044;0.67251694;0.37232023;-0.05287532;-1.2596638;-0.004183964;-0.07825678;0.007996444;-0.95586425;0.024852388;0.041208163;-0.037774496;0.4508309;0.109753825;0.98685384;0.103167415;-2.0050385;-0.08108787;-0.04910853;-0.093796246;-0.4119986;-2.1107912;-0.41155848;-0.28517655;-0.11768973;0.11382792;0.028688027;-0.08649277;-0.6195532;0.02652234;0.18749088;-1.7188619;0.16974801;-0.38815618;-0.12403581;0.34299898;0.00262238;-0.038631957;0.15476362;0.016383667;0.24723183;-0.533717;-0.4250601;-0.10378698;0.94740784;-0.10288057;0.22357458;0.099397756;-0.67640185;0.19862299;-0.44003302;0.1923613;-0.003598807;-0.0067586377;-0.06680276;1.1838257;-0.7744404;0.05852564;-1.2319795;-0.055000238;0.017939081;-0.1493577;-0.48877698;0.14304797;0.01296042;0.017375253;0.39120156;-0.15305434;-0.1874233;0.022360714;-0.007312992;0.031249491;0.018783584;-0.41095933;0.15777461;-0.035357516;-0.17638825;0.538175;-0.016247623;0.60667557;1.1621366;-0.11677433;-0.07721001;-0.037666123;0.42631817;-0.034378298;0.026653472;0.057948157;-0.094956726;0.052608017;-0.78976566;-1.0371817;0.031831704;-0.12743928;0.10141339;0.017121376;0.02347478;-0.08926843;1.526624;0.11725456;0.024438046;-0.08322827;-1.1010547;-0.015027482;-0.13682203;0.11104996;-1.7639838;-0.08873038;0.068330534;-0.11595408;0.07651931;-0.3538318;0.89717776;-0.9125212;-0.06628651;0.1039981;-0.16612484;0.10576418;0.03746334;-0.21188213;0.06333615;-0.1930348;-1.1303899;0.135056;-0.20459631;0.07474262;1.1451064;-1.6679397;0.5505926;-0.01672371;-0.045221966;-0.07847129;-0.002486117;0.03833356;0.18274893;-0.07099739;0.055188514;-0.0027926846;0.091434516;0.008366979;0.15390363;-0.20819484;-0.09335048;0.7690255;-0.3489535;0.030573277;0.71289057;-0.04175444;0.03260633;0.16692397;0.12134067;-0.06079943;0.039030764;0.3100036;0.020169111;-0.11118921;-0.09363134;0.051939994;0.14184108;0.06629749;-0.048819855;-0.49206465;-0.3737343;-0.09249076;0.66925097;-0.014655154;0.09891898;-0.037891246;-0.08770591;-0.103977844;-0.15204512;-0.021735596;0.21704991;-0.0364454;-0.033730272;-0.0045292336;-0.5414001;-0.037603784;0.09571871;-0.2584268;-0.16420269;-0.6873843;-0.29902956;-1.5855076;0.01630983;-1.2343837;0.22223309;0.19105121;0.13406698;-0.05308588;-0.17251164;-0.70475125;0.0132527845;0.051948935;0.019722067;0.06271345;0.8153253;-0.55812407;0.003151033;0.2805824;-3.0871546;-0.30215868;0.14503027;-0.19277737;0.020956917;-0.21496834;-2.40702;-0.04495986;-0.24722885;0.09880854;0.10026079;0.041303728;0.04263415;0.0144420285;-0.055209175;1.7946258;0.043882117;0.03152055;0.019175556;-0.061487477;-0.3674237;-0.6934352;0.04583363;0.1113401;0.13541591;-0.086128674;-1.4325892;-0.70616394;-0.5446907;0.07476537;0.116473526;0.06834766;-0.20040528;0.15203351;0.058810864;0.033945713;-0.19672367;-0.01168561;0.12390198;0.08177492;0.076500244;0.0833433;0.08196752;0.012305322;-0.051637266;-0.519276;-0.4176272;-0.020506509;-0.00402826;-0.4216733;-0.0055220975;-0.22844861;-0.14109243;0.16731247;-0.47255528;-0.07647389;0.6351227;-2.7104585;-2.6744394;-0.026974026;-0.044753727;-0.08435873;0.035953786;-0.051205635;-0.07413006;-0.08439252;0.024155779;0.051051956;-0.040845867;-0.05114281;-0.03670249;-0.5999758;0.0060844477;-0.05729603;0.115108095;-1.4892834;-2.5582392;0.03890101;-0.2629983;0.037989143;-0.2787907;-0.16956651;0.039267007;0.073649466;0.02639818;-1.6008683;-0.09106894;-0.50895447;0.06038788;0.048444036;-0.34286562;0.03915133;-1.2243719;-0.12219947;-0.08801977;-0.046963487;0.010150317;-0.58761585;0.037027176;-0.14343414;-0.0837814;-0.052047517;-0.03949549;0.63622934;-0.0847474;-0.05548106;-0.039182916;-0.13221999;1.4316989;-0.1160308;-0.025956698;-0.010857542;-0.08185966;-0.066810295;0.047242463;0.08623259;-0.55133665;0.24584669;0.09982064;-0.033647265;-0.061508913;-0.12516554;0.021610778;0.27708247;0.05382637;-0.15297286;-0.0018221061;0.47137323;-0.07327434;-0.1654522;0.035703514
0.24781989;-0.05239704;0.74723566;0.17705925;0.16250986;-0.17533058;-0.15842585;-0.12336563;-0.2733256;0.5829416;-0.034817986;-0.2100328;0.29547897;0.72885305;0.6817127;-1.7052505;1.3138819;-0.20850067;0.70274836;-0.024956288;-0.14282967;0.01195245;-1.3578593;-0.09132838;-0.015861474;-0.525094;0.08967521;0.251593;-0.24328499;-0.34352037;0.112665474;0.19874047;0.29977554;-0.1420334;0.076324895;0.22785042;0.44842485;-0.73572505;-0.010372282;0.71424013;0.11277792;-0.25475845;0.48625526;-0.19945472;0.9627416;0.0010347489;-0.17823273;-0.26859707;-0.19805394;-1.340299;1.5248489;0.41214728;0.052512657;0.077664174;0.16290794;-0.27908123;0.028584106;0.06535581;1.5697367;-0.12222699;0.097994104;1.4235283;-0.33786038;-1.5791503;-0.17857903;0.109223664;0.048203725;-0.08405324;0.19862182;0.041169863;-0.29581216;-0.1915108;0.07902219;-0.30295843;-0.13560526;-1.0594159;-0.2296956;1.0761118;-0.1536012;0.07730745;0.23247378;0.021551995;-0.25427836;-0.37254235;-1.2517499;0.23459305;0.950101;-0.038567785;0.13593714;0.12696037;0.26126036;0.8926447;-0.24949598;0.16646245;-1.3095256;0.1528594;-0.21061912;-2.1694734;-0.82389903;0.14261933;-0.25332487;-0.001831706;-0.28675568;-0.57990414;0.11113664;0.039428305;0.024400273;0.35431272;0.13850892;0.2636439;0.10030477;-0.22917217;0.028714322;-0.0042160326;0.21618907;0.6676603;0.094525225;-0.26401696;-0.14305232;-0.08223155;0.12493661;0.0276174;0.060377862;-0.2552092;-0.16281374;0.22336996;0.064978324;0.3433164;0.25847512;0.1967527;-0.28754988;-0.15676206;0.11401771;-1.4602798;0.02790235;1.3709352;-1.3196051;1.3844916;0.6067029;-0.19889031;-0.11570573;-0.102523685;-0.29941323;-0.7137925;1.4407407;-0.13884814;0.01876571;0.14071962;-0.065628625;-0.19851044;1.0482894;-0.2196597;-0.0561984;-0.4401059;0.037260577;-0.27919504;0.09781629;-0.3441849;-0.04762679;-0.107565425;0.17247495;-1.1795981;0.30448225;0.06692287;1.758317;-1.7983307;-0.43777397;0.10568936;0.113476306;-0.10159816;0.19091189;0.2240718;-0.08107693;-0.045749616;0.049611274;0.12999062;-0.10944832;-0.036610473;0.05910315;-0.10561404;-0.1558088;0.07239754;-0.4913894;-0.15098514;0.30152506;-1.6979476;-0.10765918;0.13789347;-0.47723368;-0.04971001;-0.2401501;-0.13781679;0.092818506;0.12764464;-0.032677677;-0.17842168;0.27990434;0.33610827;0.29185468;-0.17128593;-0.7955521;-0.011207015;-0.12899013;-0.6174698;-0.12899703;-0.06780387;-0.15955536;-0.006517505;0.058037393;-0.049402177;0.2367695;-0.1041209;-0.26409304;-0.28022435;0.77044;0.15907268;0.1370978;-0.038604353;-0.18930684;-0.2572871;0.18624754;-0.19729032;-0.9056728;0.12399777;-1.3563064;0.2473362;-0.10666533;-0.0026594405;-1.2019342;0.17913742;-0.13455746;-0.12687247;-0.034799624;-0.08144105;-0.47341517;-0.17904088;0.16827495;-0.11644663;-0.5086703;-0.11239871;-0.2279235;0.19075887;-0.46083462;0.17897736;-0.06451731;0.084524944;1.9936397;0.1724758;0.13556606;1.4367903;-0.043927245;-0.03464582;0.1450183;-0.17219393;-0.035280585;-0.19188729;-0.1272472;0.72084;0.2837884;1.1641667;0.6187402;-2.087908;-0.23511921;-0.038991507;-0.13018626;-0.22767997;-2.0071766;0.58473885;-0.23106943;-0.08667459;0.24915643;0.064296715;-0.20696366;1.4308943;0.3680665;0.39376205;1.2291207;0.2762468;-0.31726938;-0.15155132;-0.11751794;0.07186233;0.0054498166;0.13036837;0.030063583;0.48861375;0.148096;-0.06299215;-0.19443822;1.0963672;0.16165014;1.1395017;-1.4208626;-0.3603603;-0.012962134;0.68524224;0.27201238;-0.21799004;-0.12771903;-0.20932701;0.41940597;0.79517955;-0.09145114;-1.3397094;0.23767394;-0.35031408;0.021907143;-1.0637183;0.19639614;0.04438148;0.001289841;-1.3688279;-0.25526324;-0.4171624;0.14876199;0.08947304;0.16962683;0.15321678;0.091527455;0.2440931;-0.14894506;-0.055766303;-0.15053189;0.0012212476;-0.81719303;1.5401073;-0.05374245;0.082322575;-0.251762;0.45260692;-0.002234031;-0.07423695;0.122082986;-0.1954378;-0.08832941;-1.2165459;-0.01113841;0.08925205;-0.06797152;0.2997396;-0.13426092;0.07117622;-0.009692222;-1.3621784;0.13683783;-0.06262748;-0.14131436;1.7422835;-0.15840547;-0.09499237;0.69186735;-0.46839407;-0.27651215;0.14843495;-0.106269896;-0.016646426;-0.88683385;0.73635995;-0.6177296;0.0039183563;-0.06399548;-0.28001246;1.3148494;0.2766156;-0.08477777;0.2211239;-0.2808452;-0.15071577;0.182752;-0.16939111;0.040620834;1.7712306;1.0041472;-1.491538;-0.11740096;0.06331318;-0.005331681;0.02451035;-0.05418754;-1.2363977;-0.069060385;0.24334271;0.066879295;0.18856469;0.078302234;0.27472958;0.0038608867;-0.080197245;1.0026481;1.7922529;-0.0043850658;-1.4116198;-0.036526255;0.14222604;0.29895428;-0.015552606;-0.22677468;0.25877276;-0.45036438;0.06880119;-0.19392817;-0.1828517;-0.026737444;-0.25611797;-0.019539932;-0.1960522;-2.3242238;-0.01805689;-0.18466504;-0.50156236;0.5013851;1.6280149;0.1457768;-0.19792853;-0.120325;-0.1326286;-0.124934256;1.9383924;0.08890197;-0.012433664;-0.21381034;1.7480385;-0.21752882;0.08667835;0.19891846;-0.14881638;-1.2648265;-0.23911755;-1.1873313;-0.0003034815;0.5507465;0.5569826;0.23095767;0.2374399;-0.02310054;-0.27010852;-1.3321128;-0.2709707;-0.05532525;0.033666216;0.012026866;0.5107503;-1.0159463;-0.13705513;0.26004103;0.91259915;-0.4094833;0.28529617;-0.3020543;0.2687642;-0.42804664;-1.8752073;0.10683267;-0.14231063;-0.09989398;0.16820677;-0.05521023;0.044900764;-0.05312252;0.002554287;-0.6157114;0.22527651;-0.49596745;-0.10552397;0.055238944;0.24101348;-0.80213326;0.0108086495;0.0954059;0.32657525;-0.24327108;1.1194258;-0.05691777;-0.14734016;-0.3291329;0.1789674;0.12218739;0.050588425;0.18139781;0.08882663;0.1332457;0.17945184;0.3120973;-0.8653944;0.1520198;0.09583489;-0.20043524;-0.32384652;2.3028398;-0.23196268;-0.16481686;0.4494634;-0.17902638;-0.037476856;-0.6440945;0.004404334;1.3356926;-0.21804285;0.25851026;-1.1571697;-0.011205077;-1.3233685;-1.0390352;-0.6864988;-0.033496838;0.13983358;0.15100597;0.1184116;0.5952772;-0.26361308;-0.21688476;0.0059897676;-0.021362169;-0.045600142;-0.123703085;-0.21038042;-1.3860155;0.08055859;0.07218941;0.06828967;-0.48125246;-1.9027351;0.121594176;-0.035479553;-0.30078366;0.1580958;-0.20657699;-0.15673526;-0.026226416;0.0009242749;-1.2375599;-0.15380055;0.5565008;0.24846603;0.13064107;-0.53724664;0.05961504;-0.60044223;-0.030069236;0.06379311;-0.043571364;-0.12218442;-0.9588195;0.030972889;0.29654872;0.18529944;-0.040673267;-0.03469642;-0.01051266;0.13424563;-0.10882283;0.13419762;-0.49050656;-0.8282094;-0.283335;-0.23155074;0.17178051;0.04188302;0.12680472;-0.1335056;0.21323554;-0.35131425;0.39838925;0.12702015;-0.20854028;0.19194543;-0.21546967;0.12627038;0.3013075;-0.0956311;0.059200205;-0.05717365;0.08692062;0.17578903;-0.12611954;-0.1246765
Bias from input to hidden layer.
0.13136274;0.21564257;0.24207471;0.16529414;0.14128172;-0.040173545;0.39001423;0.28756225;0.27653614;0.24544412;0.35644904;-0.14261357;-0.27538085;0.16472104;0.28135487;0.17383198;0.12895414;0.32261968;-0.21276368;0.32893574;0.21093294;0.20267819;0.18069996;0.096780516;0.16361386;0.12522112;0.13698478;0.23043;0.26821378;0.22831728;-0.14631239;-0.19395526;0.1836983;0.31166202;0.12635964;0.23267251;-0.2517852;0.15542409;0.29765108;0.06095348;0.13880523;0.28107664;0.16686511;0.31496826;0.15270296;0.29656133;-0.07675323;0.33706313;0.28138217;0.20650147;0.11956275;-0.24502452;0.28387973;0.2675502;0.28064302;0.29181355;0.115299016;0.1834508;0.20900057;0.29379863;0.08616344;-0.19624342;0.20692658;-0.10356767;0.27087766;0.15473185;0.10869686;0.2556995;0.16192709;0.13963448;0.28209865;0.28463587;0.14619896;0.22979145;0.22981554;-0.13589424;0.2634923;-0.1103462;0.27118868;-0.092186846;0.16215841;0.18545507;0.28548235;0.20768175;0.13152328;0.13876997;0.072188616;0.34734592;0.2234184;0.19208221;0.17088641;0.11743596;0.29118186;0.12654407;0.2643042;0.1506403;0.392345;0.112742916;0.16940382;0.22971793;0.26084054;0.12782457;0.27943218;-0.27245015;0.19806986;0.11159327;0.12673202;0.3194298;0.16977024;0.20283021;0.17378834;0.30818686;0.15956417;0.27144617;0.17088386;-0.1644923;0.14228225;0.27863914;0.3043595;0.26449916;0.10256531;0.16834196;0.17027728;0.27302077;0.098750465;0.15320826;0.19302689;0.16121174;0.18841155;0.23544137;0.049211957;0.2304209;0.23426257;-0.08624061;0.18331553;-0.13728334;-0.07614273;0.23015945;0.12388685;-0.08864109;0.3347943;0.2885279;0.10973421;0.0017069173;0.23251033;0.28208923;0.24968174;0.11526399;0.017892972;0.27661014;0.19718562;0.29328996;0.25615683;0.05677512;0.21999237;0.32219103;0.1859699;-0.18372682;0.21427241;0.033031162;0.10959801;0.14971568;0.21475308;0.25725067;-0.1418921;0.119257785;-0.13774587;0.10924724;0.17878154;0.27596587;0.10033873;0.18628734;0.018110393;0.2797634;0.16977653;0.15689345;0.27718762;-0.16680352;0.12507051;0.26495576;0.2881145;0.16037838;-0.31386814;0.37736535;0.051789917;-0.032422993;0.36837378;0.22543697;0.26581082;0.29552066;0.29360557;0.2582262;0.120237574;0.08006025;0.30182347;0.24394162;0.120488696;0.16489877;0.1732084;0.3504618;0.26545247;0.20028;0.3653158;-0.034381974;0.15750617;0.22125047;0.31315058;0.19585142;0.31447005;0.29639405;0.14642145;0.21141474;0.32784894;0.26381382;-0.16042332;0.15937588;0.37326026;0.30201355;0.25498334;0.26357588;0.19970433;0.29442093;-0.32248527;0.1871215;0.13935354;0.17912352;0.2957422;0.24007517;-0.082769305;0.15724276;0.26692668;0.37075248;0.33225882;0.2565764;0.06935034;0.30088723;0.116116114;0.27797586;0.004591785;0.39421257;0.37450257;-0.2159431;0.2737412;0.14203468;0.2604923;0.15747888;-0.18992925;0.16259204;0.07113677;-0.09034752;0.27621466;0.31119698;0.09540217;0.12579985;0.15792905;0.26767272;0.37277117;0.11399797;0.28259847;0.2806183;-0.004202445;-0.31689534;0.273748;0.26872882;0.3431542;0.17132314;0.1353036;0.032890864;0.2945245;0.24531378;0.15855281;0.19190757;0.3136048;0.24272749;0.23870389;0.11471852;0.27362272;0.19418697;0.023592094;0.24500297;0.06539593;0.09408037;0.08906167;0.11252579;0.12518293;0.14789312;0.008990462;0.09407372;0.3212987;-0.12767752;0.21334553;0.24170448;0.16020091;0.2602698;0.08397232;0.26600733;0.1518652;0.31750405;0.27517536;0.2407942;-0.09704611;-0.18239279;0.27745557;-0.3139197;0.17237891;0.22289847;0.30486637;0.20233554;0.10261959;0.18085825;0.15246017;0.08720535;0.30407852;0.26938012;0.15925808;0.119793065;0.16381204;0.10961687;0.16423719;0.17793953;0.28642038;-0.18624052;-0.26542455;0.21741596;0.22777599;-0.17098376;0.14562662;0.08641984;0.2978165;-0.16286339;0.085093625;0.2764453;0.19248731;0.07005143;0.28622654;0.22517811;-0.15345566;0.1388793;0.31396315;0.13600901;0.23562151;0.17962708;0.0763973;0.21611306;0.13774702;0.2809957;0.34363833;0.018137757;0.17611305;-0.07508052;0.13988917;-0.25063437;0.27958184;0.12117048;0.2649166;0.21500133;0.2578099;0.08741975;0.12543651;0.2360926;0.2571257;0.2908884;0.26197073;0.12276106;0.25680217;0.08760631;0.3417657;-0.0675159;0.22332063;0.28074038;0.20570274;-0.19268648;-0.10413306;0.11623764;0.22823218;0.15176238;0.3307859;0.32097188;0.27786353;0.18061599;0.2878719;0.16886626;0.30444586;0.21157962;0.18471172;0.10506645;-0.07252198;0.2787752;0.18992928;-0.01090336;0.32069728;0.09858876;0.3068231;0.14553906;0.18888249;-0.051942043;0.2725295;0.16730434;0.09701134;0.2062772;0.28942695;0.27733237;0.27624452;0.25263497;0.27983564;0.30304018;0.15254772;-0.2311039;0.2594327;-0.3029253;0.05281154;-0.19849938;0.118633285;0.2803148;0.29470617;0.30840525;0.315182;0.1680968;0.17347325;0.25607356;0.2627956;-0.30498505;0.28782308;0.1321331;-0.20592342;0.3230425;-0.3264689;0.28623775;-0.20314589;0.1273758;-0.05957906;0.2719171;0.09825076;0.16974978;0.19764854;0.30408108;-0.34641397;0.25174055;0.3185589;0.22409788;0.34229603;0.16898341;0.16103497;0.42907766;0.16128185;0.29896855;0.23589738;0.103563376;-0.08323123;0.13734062;0.2502083;0.03574289;0.102689795;0.2884458;0.11271496;0.19725211;0.28594598;0.19346966;0.33052343;0.085054085;-0.12634462;0.1706683;0.20771636;0.3089748;0.1253842;-0.0405459;-0.07682285;0.21981779;0.15379709;0.15291038;0.28068092;0.16114874;-0.16399309;0.19218941;0.22245926;0.25441003;0.08676427;-0.0037821436;0.1106546;0.14290443;0.17973521;0.13327917;-0.11277506;0.18199833;0.0135217905;0.077832475;0.24111207;0.22084996;0.06380733;0.29752192;-0.17446654;0.2714227;0.2774242;0.08694162;0.2559044;0.09098026;-0.034368042;0.26789564;0.16460294;0.1639082;0.20457534;-0.13858081;-0.13466074;0.033230264;0.31870872;0.081350364;0.12556751;0.1614594;0.18372831;0.2145812;0.321544;-0.00011642992;0.13868251;0.2876297;0.34753117;0.37759238;0.05495205;0.16906191;-0.10663361;0.36737072;0.08536906;-0.25970456;0.10521893;0.08816465;0.23398565;-0.24228323;0.2567388;0.27568683;0.20799059;0.23763241;0.32512283;0.2673415;-0.2833878;0.16705424;0.11519251;0.18586753;0.12676443;-0.100686304;0.24331307;0.09392911;0.0510253;0.29381955;0.27220836;0.16295357;0.15304165;-0.05938278;0.15275873;0.27893963;0.19587637;0.16345245;0.29361144;0.18254969;0.2550061;0.14125898;0.26441386;0.27940434;0.15328686;0.2745251;0.14207977;0.26005137;0.15868935;0.2666811;0.21799892;0.1266419;0.2711995;0.12719403;0.30288693;0.08909722;0.27186385;0.27013206;0.067738816;0.16766831;0.19650036;0.17637663;0.3476204;0.31201738
Weights from hidden to output layer.
-0.000388107
0.00024418917
-0.00029412436
-0.00018432984
-5.5807926e-05
0.007840812
-7.659683e-05
-6.514747e-05
-0.00014741096
-0.00016540842
0.00017024901
0.20925583
0.20766844
-0.21226387
0.0001389375
-0.108529516
-0.20918967
-0.0004125957
0.0012043813
9.6350304e-05
-0.0005960957
-4.5200315e-05
-0.00040932617
-0.16391572
0.00027692667
-1.2953236
-2.0991918e-05
0.00048758136
-5.6223624e-05
-0.07464946
0.0011567079
0.25191075
0.00020769844
0.00036176282
0.00029340494
0.00015867263
0.05102652
-0.079909
0.00011162778
0.00014688808
8.702524e-05
8.867986e-05
-0.7471161
9.874053e-05
-0.3418594
0.00018311678
0.077742994
0.00016620141
-0.0001943466
0.0004923988
-0.7782008
0.47469938
-0.00043964878
-0.00023515026
0.00010146639
0.00037388882
-0.0015701071
0.00015910414
-0.3389143
0.00032984244
-0.00017172225
0.05151565
0.0002852614
0.24290682
0.00033843901
0.00022550648
-0.13419427
8.103502e-05
9.0772926e-05
9.0269226e-05
0.000107873006
0.00026018912
1.43797115e-05
9.2358525e-05
-0.00075065915
0.14343177
0.00028894117
7.2504954e-06
2.8972507e-05
0.00011201404
0.00031397934
4.986227e-05
6.9507e-05
-0.043090973
-0.29106486
-0.0005012926
-0.23619628
-1.2528857e-05
3.781206e-06
-0.00016522815
4.106495e-05
4.1088017e-05
7.5767806e-05
0.00019710125
-0.17932619
-9.715044e-06
8.526361e-05
-0.23640595
-0.0001767523
-4.2833228e-05
-2.7756032e-06
0.00012360315
-0.07487777
0.0996345
0.00017363063
0.00014649057
0.00016912603
-1.6972612e-05
0.00025639328
3.1190037e-05
-0.000101165366
0.00013020105
0.00015601343
-6.617322e-05
0.00011736062
0.09383606
0.00033112252
-0.00013749045
-0.000101795995
0.00013865798
-0.00025977188
-0.0001857446
0.00025160107
-0.00013367007
-0.45158482
0.0001985573
-3.1605654e-05
-0.32901913
-0.00011015449
-0.00031053997
0.17378671
-0.00022346972
8.61211e-05
0.0009054404
-2.2592074e-05
0.04626173
0.0077501386
-0.7049446
0.0006895363
0.07171931
0.000102385835
0.00027541682
0.4163328
0.009591326
-0.044408794
-0.00016186405
0.0003480402
-8.107367e-06
7.985206e-05
-5.7956513e-05
-0.50052154
-0.00013445274
-0.00031677663
-0.21584648
0.000104467654
0.00011963518
0.00015563253
0.73790395
0.0003252126
-0.18020856
0.00021984856
-0.00014904671
-0.380613
-0.00010095374
0.20019782
-0.5834671
0.0011782137
-7.522125e-05
0.00021813894
8.552794e-06
-4.7099784e-05
0.00023582394
-6.065148e-05
0.00019318592
-7.4565105e-06
0.00035893195
-5.6246892e-05
0.061534878
0.00013618957
0.000155277
0.00012463983
0.00015714396
0.14979793
4.9556693e-06
-0.00050613284
0.23441735
0.00040303072
-0.22681254
0.00026586745
-0.00017718704
0.0002323579
-0.0002706652
-0.00014273025
0.00010708793
5.312579e-05
-0.0001417534
0.00017720493
-0.00010282659
0.0003694294
0.00031568715
-8.972865e-05
-8.8689056e-05
-2.6587404e-05
0.113397874
-0.007029125
0.00035760907
0.00040445698
-0.00010582701
8.618418e-05
2.5887428e-05
0.00011429805
-0.00033096955
1.9484154e-05
-0.00014348257
0.108886026
-9.530682e-06
-0.00032828734
0.0005116544
0.00012657867
0.00034575682
-1.2862551e-05
0.00020348497
0.0007082646
-0.14388517
-0.40350685
1.3656521e-05
0.00023512103
-0.16462915
0.09658444
0.00013632617
0.00020256016
1.2163393e-05
5.7625475e-05
-3.9123343e-06
-0.0016722325
-4.5879216e-05
-6.984462e-05
0.00015143605
0.0004581501
7.816056e-05
0.00015774589
0.106370226
0.00039437297
0.0001927815
0.00029491333
-3.6280107e-07
0.08692864
-0.00057087385
0.00023654538
0.15365808
0.000119641445
0.00012091608
-0.000592897
-0.8628719
2.1272965e-05
-0.0002663044
1.6875536e-05
0.0004369683
-0.00069396675
0.0007787895
0.0007515171
0.0014722683
0.00012462538
0.000357101
-0.00027624852
-0.000938523
-0.3500994
0.00024349627
-0.3383717
0.000363493
0.00010904689
-5.9430793e-05
0.00017463701
0.00019567212
-0.00074227655
0.00014919118
-0.7944612
-0.00065174885
-5.552784e-05
0.00012964397
-0.000348571
8.864772e-05
-7.845949e-05
-0.00016164553
0.00014041693
4.7419133e-05
0.00017953044
0.00015723435
-0.0003355125
0.18273525
-0.00018891122
-0.2718826
-0.1648887
-0.0005976466
-0.00014448582
-2.4156609e-05
0.00023256004
0.00041259587
0.00019771993
0.00013667332
0.33713043
0.18659137
-7.939036e-05
0.36448285
0.0004483399
-0.06678885
-5.059446e-05
0.0002648738
-2.1464082e-05
2.2984197e-05
-5.1477968e-05
-8.394616e-05
-0.00015244994
1.693378e-05
8.8078305e-05
-0.00017229874
-6.3837404e-05
-0.00042867364
-2.0815292e-05
0.00016489225
0.00010948542
0.8708511
0.47948217
3.522383e-05
0.00033820953
0.21149252
0.00016076808
0.00015090693
-6.798204e-05
0.4290967
0.000419699
5.7047917e-05
-0.00019194199
7.59279e-05
1.8320206e-05
-0.0014406601
0.22128783
0.00020785729
-0.0001820537
2.6208427e-05
0.00037978293
2.6124282e-05
-0.00027039574
-0.19474012
5.673776e-05
0.0001202837
8.545034e-05
-0.32277805
0.0008502642
-0.000232308
